<unk>	0
<s>	0
</s>	0
▁ా	-0
▁క	-1
▁ి	-2
▁ప	-3
▁ు	-4
▁.	-5
▁న	-6
▁ల	-7
▁వ	-8
▁ర	-9
▁్	-10
▁స	-11
▁మ	-12
▁ం	-13
▁త	-14
న్	-15
ర్	-16
▁చ	-17
▁అ	-18
్ర	-19
ని	-20
రు	-21
ంద	-22
▁గ	-23
▁ద	-24
స్	-25
్ల	-26
▁,	-27
ంచ	-28
▁ారు	-29
న్న	-30
▁బ	-31
్య	-32
▁లో	-33
▁ే	-34
▁ట	-35
▁ఆ	-36
▁డ	-37
▁జ	-38
▁ీ	-39
▁చే	-40
ార	-41
్ట	-42
▁ాల	-43
ంది	-44
▁ప్ర	-45
▁ో	-46
▁ను	-47
▁ఎ	-48
▁ఇ	-49
▁ని	-50
ంట	-51
క్	-52
▁ఉ	-53
▁ించ	-54
▁కు	-55
లో	-56
▁ె	-57
▁ున్న	-58
ాల	-59
▁య	-60
గా	-61
▁భ	-62
స్త	-63
▁హ	-64
్ప	-65
ండ	-66
▁వి	-67
లు	-68
కు	-69
▁్ర	-70
త్	-71
డు	-72
▁రా	-73
▁ర్	-74
▁కా	-75
రి	-76
▁ిన	-77
▁గా	-78
యి	-79
▁్య	-80
ంత	-81
▁ఈ	-82
▁శ	-83
▁స్	-84
ల్	-85
ంగ	-86
ిక	-87
ుక	-88
▁ఫ	-89
▁లు	-90
▁ై	-91
ల్ల	-92
▁ొ	-93
▁ార	-94
▁కి	-95
▁ింది	-96
▁న్	-97
దు	-98
్చ	-99
▁రె	-100
ప్ప	-101
▁ూ	-102
డ్	-103
▁చేస	-104
▁2	-105
ుల	-106
▁ార్	-107
▁మా	-108
లి	-109
▁తె	-110
▁1	-111
▁ఏ	-112
▁ధ	-113
ను	-114
ట్ట	-115
న్ని	-116
▁చె	-117
▁ుల	-118
▁తో	-119
ీస	-120
ద్	-121
కి	-122
టీ	-123
▁లే	-124
▁క్	-125
త్ర	-126
చ్చ	-127
▁0	-128
ళ్ల	-129
▁ాయి	-130
▁కో	-131
▁కూ	-132
ంగ్	-133
టు	-134
▁రి	-135
తి	-136
▁వా	-137
▁పై	-138
ిన	-139
డా	-140
▁పె	-141
డి	-142
వా	-143
▁నే	-144
ది	-145
మా	-146
▁ంలో	-147
పీ	-148
▁్త	-149
ట్ల	-150
నే	-151
్యా	-152
▁"	-153
ేశ	-154
క్ష	-155
▁ష	-156
ంచి	-157
▁సం	-158
▁పా	-159
▁ిస్త	-160
▁నా	-161
ట్	-162
▁ము	-163
▁ుత	-164
▁పో	-165
▁వె	-166
ష్ట	-167
టి	-168
ంగా	-169
్మ	-170
్వ	-171
▁ఉన్న	-172
▁ులు	-173
▁ంగా	-174
▁రో	-175
▁ఒ	-176
▁కే	-177
▁వే	-178
ుత	-179
▁ుంది	-180
▁నుంచి	-181
▁చేశ	-182
▁కూడా	-183
క్క	-184
▁కొ	-185
ంతో	-186
▁ాని	-187
▁డి	-188
▁చేయ	-189
▁సి	-190
▁సీ	-191
▁ందు	-192
▁సా	-193
▁గు	-194
▁దా	-195
▁ానికి	-196
▁చేస్త	-197
త్త	-198
▁్యా	-199
▁్థ	-200
▁నిర్	-201
▁ఓ	-202
▁:	-203
▁సమ	-204
ర్య	-205
పు	-206
యం	-207
▁ాన్ని	-208
డ్డ	-209
▁చెప్ప	-210
▁ామ	-211
▁తెలి	-212
▁ాడు	-213
▁బా	-214
▁ాలని	-215
▁డం	-216
▁లా	-217
ంద్ర	-218
▁3	-219
▁న్న	-220
▁ిక	-221
▁ాలు	-222
▁మె	-223
▁క్ర	-224
▁తీస	-225
▁ుక	-226
ద్ద	-227
▁ద్	-228
▁అవ	-229
▁ధిక	-230
లా	-231
▁ాయ	-232
▁ల్ల	-233
పో	-234
ంబ	-235
ందని	-236
▁ిల్ల	-237
▁ార్టీ	-238
▁ుడు	-239
గు	-240
▁రెడ్డ	-241
త్వ	-242
▁భు	-243
▁భుత్వ	-244
▁5	-245
తే	-246
▁(	-247
▁ారం	-248
▁ఆయ	-249
▁దీ	-250
▁ల్	-251
▁ధికార	-252
మ్మ	-253
▁4	-254
షన్	-255
మి	-256
▁తీసుక	-257
▁ంద	-258
▁ఖ	-259
రో	-260
▁పే	-261
▁వచ్చ	-262
▁ది	-263
ంటి	-264
ాన	-265
ారి	-266
▁తన	-267
ష్	-268
▁అయి	-269
▁కల	-270
▁ఒక	-271
▁శా	-272
▁మే	-273
▁దేశ	-274
▁రు	-275
ించ	-276
▁ప్ప	-277
▁రెస్	-278
▁భార	-279
▁)	-280
▁వై	-281
▁ారని	-282
▁మీ	-283
▁రాజ	-284
▁పరి	-285
▁ఆయన	-286
▁త్	-287
నా	-288
▁ట్ల	-289
ఆర్	-290
▁-	-291
▁్లో	-292
ంధ	-293
▁ందుకు	-294
▁రోజ	-295
▁ఉంట	-296
వి	-297
▁రాష్ట	-298
త్రి	-299
▁రూ	-300
▁అని	-301
▁స్ట	-302
▁ాబ	-303
▁ుంట	-304
▁ోంది	-305
▁చి	-306
వు	-307
▁చూ	-308
ారం	-309
▁ఐ	-310
నీ	-311
▁గ్ర	-312
▁ింగ్	-313
యో	-314
▁ఉండ	-315
▁మంది	-316
్గ	-317
▁ీఆర్	-318
▁ఎన్ని	-319
▁ోర్	-320
▁నె	-321
సి	-322
▁9	-323
ధ్య	-324
▁వర	-325
ర్త	-326
▁తెలిప	-327
సం	-328
▁లోని	-329
సు	-330
▁యా	-331
▁ణ	-332
▁ట్	-333
ైన	-334
▁టీ	-335
▁ంట	-336
▁డీ	-337
ప్	-338
▁అంద	-339
▁్వ	-340
రిగ	-341
▁చ్చ	-342
పా	-343
ంక	-344
యా	-345
▁పు	-346
▁ంత్రి	-347
▁పోల	-348
ంలో	-349
బ్	-350
▁పెట్ట	-351
▁తీ	-352
▁డా	-353
ంప	-354
▁కాంగ్	-355
్యే	-356
తో	-357
▁ిని	-358
▁భా	-359
▁ిల్లా	-360
▁శ్ర	-361
▁లి	-362
▁ప్రజ	-363
▁కోసం	-364
▁ట్ట	-365
▁తా	-366
▁వ్య	-367
బు	-368
▁లేద	-369
▁మి	-370
▁ఆర్	-371
▁సె	-372
▁6	-373
▁ాబా	-374
▁హై	-375
▁రెండ	-376
▁లంగా	-377
వర	-378
▁ాల్	-379
▁8	-380
▁7	-381
ీయ	-382
▁ఇప్ప	-383
▁చేసుక	-384
▁ీజ	-385
▁పాటు	-386
▁అన్న	-387
▁ోవ	-388
ర్శ	-389
▁?	-390
▁ాబాద్	-391
▁ండ	-392
తు	-393
క్త	-394
▁విష	-395
▁లక్ష	-396
▁ఎం	-397
▁వీ	-398
▁ఘ	-399
▁డంతో	-400
▁లంగాణ	-401
▁చేసిన	-402
▁కుండ	-403
▁లను	-404
▁మహ	-405
▁ాజ	-406
▁ట్ర	-407
▁లేదు	-408
▁అయితే	-409
▁అభ	-410
ండి	-411
▁మూ	-412
స్ట	-413
▁పాల	-414
▁ముంద	-415
▁ంగ	-416
▁కుండా	-417
ఖ్య	-418
▁దు	-419
తా	-420
ద్య	-421
▁్ట	-422
▁వస్త	-423
▁ఎస్	-424
▁క్కు	-425
లీ	-426
▁ఇచ్చ	-427
సీ	-428
కా	-429
▁కార్య	-430
క్ట	-431
▁తర్	-432
▁చంద్ర	-433
ారణ	-434
▁యూ	-435
▁ారి	-436
▁ేంద్ర	-437
▁టిక	-438
▁మొ	-439
రం	-440
▁తర్వా	-441
శ్	-442
▁జీ	-443
ాయ	-444
▁ంప	-445
▁ామని	-446
▁ాలి	-447
▁కాల	-448
తుల	-449
▁ీజే	-450
▁ీడి	-451
▁తి	-452
▁ౌ	-453
▁సు	-454
▁ినిమా	-455
▁చాల	-456
▁ైన	-457
▁నీ	-458
▁టి	-459
▁య్య	-460
▁అనే	-461
▁ీజేపీ	-462
▁ద్ద	-463
▁పోలీస	-464
▁ప్రజల	-465
▁మో	-466
▁సూ	-467
▁తమ	-468
▁్యక్త	-469
ఎం	-470
▁ట్లు	-471
▁నిర్వ	-472
ంట్	-473
▁మైన	-474
▁మరో	-475
▁దే	-476
గ్గ	-477
▁డ్	-478
▁చాలా	-479
చ్	-480
రుగ	-481
ిత	-482
మె	-483
▁జా	-484
▁ఉంది	-485
▁ఏర్	-486
▁ళ	-487
▁తే	-488
▁వెళ్ల	-489
▁శ్రీ	-490
▁చెంద	-491
▁బాబు	-492
జీ	-493
ర్చ	-494
తం	-495
▁రీ	-496
▁ిపో	-497
▁జన	-498
▁రే	-499
▁నున్న	-500
▁వ్యా	-501
ర్క	-502
▁సో	-503
▁పడ	-504
నిక	-505
▁నేత	-506
టన	-507
▁సీఎం	-508
వే	-509
▁అంట	-510
▁లాంటి	-511
▁ఎమ్మ	-512
▁నెల	-513
▁ಿ	-514
ర్గ	-515
▁క్ష	-516
▁ాలను	-517
▁పూ	-518
▁థ	-519
ామ	-520
▁ెల	-521
▁ల్లో	-522
▁ాన	-523
▁ాల్ల	-524
▁ాల్లో	-525
▁క్కువ	-526
▁విజ	-527
ల్లి	-528
▁మ్మ	-529
ర్ల	-530
దీ	-531
▁మధ్య	-532
ోగ	-533
▁కోట్ల	-534
▁కీ	-535
▁సమయం	-536
▁స్ప	-537
బంధ	-538
▁రెండు	-539
ఫ్	-540
▁సభ	-541
▁టు	-542
▁కలి	-543
▁్క	-544
▁ుందని	-545
ారా	-546
▁రై	-547
▁క్క	-548
▁క్రమ	-549
▁ాహ	-550
▁పొ	-551
▁మాట్ల	-552
▁ఆమె	-553
▁్రా	-554
▁ప్రతి	-555
▁లె	-556
▁ిత	-557
ీసీ	-558
▁దీంతో	-559
▁నగ	-560
▁వరకు	-561
మార	-562
▁హైద	-563
▁క్ట	-564
య్య	-565
ద్ధ	-566
▁దర్శ	-567
▁గత	-568
క్కడ	-569
▁జరిగ	-570
దే	-571
▁ించి	-572
▁ెన్	-573
▁పని	-574
▁రోజుల	-575
▁ళ్ల	-576
▁హైదర	-577
▁ాద	-578
▁రణ	-579
▁పి	-580
నిప	-581
▁ొన్న	-582
మ్	-583
▁డానిక	-584
కాశ	-585
▁కానీ	-586
▁ప్	-587
▁కుమార	-588
▁ుగా	-589
▁మరి	-590
▁ముందు	-591
ధి	-592
▁్థాన	-593
▁ాం	-594
స్థ	-595
▁ెల్యే	-596
▁ోర్టు	-597
▁రిక	-598
దల	-599
▁ప్రా	-600
▁పెద్ద	-601
▁ర్ల	-602
▁ినట్ల	-603
▁అవకాశ	-604
బ్బ	-605
▁వారి	-606
▁ాడ	-607
▁హించ	-608
▁ేషన్	-609
రా	-610
▁సంబంధ	-611
▁ిప	-612
▁కర	-613
▁చేసి	-614
ాన్	-615
▁బీ	-616
▁నాయ	-617
▁ాయని	-618
▁యి	-619
▁కొత్త	-620
ల్లో	-621
కర	-622
▁ఏర్పా	-623
▁బి	-624
▁రించ	-625
సా	-626
▁హి	-627
▁పీ	-628
▁పట్ట	-629
▁್	-630
▁కేస	-631
▁వేల	-632
సర	-633
▁లకు	-634
▁ుకు	-635
ివ	-636
▁గ్రామ	-637
▁ింద	-638
▁జగ	-639
▁దీని	-640
▁ఢ	-641
▁గుర	-642
▁తొ	-643
▁్యూ	-644
▁బె	-645
్వర	-646
▁ండి	-647
▁ک	-648
▁కృ	-649
▁ండ్	-650
వం	-651
▁గంట	-652
▁ఇది	-653
▁అంత	-654
▁భారీ	-655
వేశ	-656
▁రోజు	-657
▁ూర్	-658
▁ిక్	-659
▁్ప	-660
▁సారి	-661
▁సహ	-662
▁అత	-663
▁నియో	-664
▁యు	-665
▁తప్ప	-666
▁్చ	-667
▁ియ	-668
▁అస	-669
▁ద్య	-670
▁ాణ	-671
▁మన	-672
▁వల్ల	-673
రే	-674
▁ఇవ	-675
▁జగన్	-676
▁భూ	-677
▁మార	-678
మాన	-679
▁నిర్మ	-680
▁ంచ	-681
▁ెలు	-682
▁స్వ	-683
వల	-684
▁ారంభ	-685
▁విషయ	-686
▁ెంట	-687
▁ంత	-688
▁లేదని	-689
యల	-690
▁ేశ	-691
▁నూ	-692
▁ఛ	-693
▁ప్రక	-694
▁ద్యోగ	-695
▁హె	-696
ద్ర	-697
దేశ	-698
ధాన	-699
▁అభ్య	-700
▁ిగ	-701
▁ువ	-702
▁్థి	-703
▁కనిప	-704
▁ఇవ్వ	-705
▁కావ	-706
▁వ్యాప	-707
▁గ్	-708
▁పద	-709
్యూ	-710
▁చేసే	-711
▁ొన్ని	-712
▁అమ	-713
▁్వారా	-714
▁రావు	-715
▁రామ	-716
▁వారు	-717
▁విద్య	-718
ండ్	-719
▁ిజ	-720
▁ప్రకట	-721
▁ీఆర్ఎ	-722
▁చూస	-723
▁ು	-724
▁కపో	-725
▁విజయ	-726
▁జ్	-727
▁ొత్త	-728
▁రిగ	-729
▁బు	-730
▁ీడియ	-731
పడ	-732
▁ర్య	-733
▁ఇక	-734
▁చెబ	-735
▁ుటు	-736
▁ుటుంబ	-737
▁డు	-738
▁కోర	-739
▁గంటల	-740
▁ರ	-741
▁టె	-742
▁స్థ	-743
▁ూర్తి	-744
ాని	-745
▁నాయక	-746
▁ూరు	-747
▁నిర్ణ	-748
▁ాచ	-749
▁శాఖ	-750
▁లక్షల	-751
▁సే	-752
▁కె	-753
▁పల్లి	-754
▁పేర్క	-755
▁చేర	-756
▁అన	-757
▁ర్థ	-758
▁చెబుత	-759
▁అభ్యర	-760
▁గె	-761
▁జరుగ	-762
▁పరిస	-763
▁ಾ	-764
▁మహి	-765
▁కారణ	-766
▁ుర	-767
▁ినా	-768
▁బో	-769
▁ిందని	-770
డుత	-771
▁ఏపీ	-772
▁ాగ	-773
రుల	-774
ాలు	-775
▁్రమా	-776
▁తర	-777
ప్ర	-778
▁నో	-779
▁ుడి	-780
▁ేప	-781
▁ుడ	-782
▁తగ్గ	-783
▁మహిళ	-784
▁మండ	-785
▁ొన	-786
▁మెంట్	-787
▁పోటీ	-788
ందర	-789
▁ప్రస	-790
ంటే	-791
▁సై	-792
▁యత్	-793
▁హా	-794
▁'	-795
▁ాత్ర	-796
▁ంజ	-797
▁ృ	-798
▁వద్ద	-799
▁ెలుగు	-800
▁ఎన్	-801
▁ప్ల	-802
▁మాజీ	-803
▁అవుత	-804
ుతం	-805
▁్తుతం	-806
▁ెస్	-807
తర	-808
▁ిచ	-809
▁భారత	-810
▁ఇన్	-811
▁అయ్య	-812
▁భారత్	-813
▁నిర	-814
▁బ్	-815
▁షా	-816
▁మొద	-817
▁గి	-818
▁ఇండి	-819
▁ನ	-820
▁ంది	-821
▁ొచ్చ	-822
▁భి	-823
▁అలా	-824
▁సంస్థ	-825
లిచ	-826
▁కేట	-827
ిల్ల	-828
▁యత్న	-829
వత	-830
▁మంచి	-831
▁ఢిల్ల	-832
డీ	-833
▁్లీ	-834
▁ందులో	-835
▁ార్థ	-836
▁ిపోయ	-837
▁ిమ	-838
▁ا	-839
▁మ్	-840
▁ుని	-841
▁త్ర	-842
ము	-843
పై	-844
▁ుంద	-845
▁ిన్	-846
▁బ్యా	-847
▁ర్మ	-848
▁కల్లో	-849
తీయ	-850
▁ఎంపీ	-851
▁లీ	-852
▁ర్ష	-853
▁ేస	-854
▁తీవ	-855
▁విశ	-856
వంత్	-857
▁ేవంత్	-858
▁శాతం	-859
ంబర్	-860
▁తీవ్ర	-861
▁ధర	-862
▁ధాని	-863
▁ఇండియ	-864
▁వాడ	-865
▁పవ	-866
▁ాలో	-867
▁తెలు	-868
▁్టే	-869
గుల	-870
▁రిగిన	-871
▁మావేశ	-872
▁ఒక్క	-873
▁చ్చిన	-874
వీ	-875
▁ులకు	-876
▁లై	-877
▁్యాచ్	-878
▁ుండ	-879
▁మీద	-880
రీ	-881
▁కీల	-882
▁మూడు	-883
▁సందర	-884
▁రోగ	-885
▁తెలుస	-886
▁ించిన	-887
▁ేసు	-888
▁్రాంత	-889
▁డీపీ	-890
▁ాత్రం	-891
▁ఇస్త	-892
▁స్వా	-893
▁వెల్ల	-894
▁్ల	-895
▁ఉప	-896
▁ాట	-897
▁10	-898
▁!	-899
▁ఫి	-900
▁తేదీ	-901
▁కీలక	-902
▁రాశ	-903
▁ాల్స	-904
▁అన్ని	-905
▁వాళ్ల	-906
▁ాంత	-907
▁గుర్త	-908
▁ునే	-909
▁త్యే	-910
▁ఆధ	-911
▁కలిసి	-912
▁సూచ	-913
▁ుఖ్య	-914
▁త్యేక	-915
▁వర్	-916
▁పవన్	-917
▁మండల	-918
▁కవ	-919
▁దేశ్	-920
సాగ	-921
▁ొనసాగ	-922
▁ఘటన	-923
▁సాధ	-924
డుదల	-925
▁ిడుదల	-926
▁త్వ	-927
▁ఠ	-928
▁ఉద	-929
▁క్యా	-930
భా	-931
▁రంగ	-932
▁ದ	-933
▁ుకో	-934
▁్లా	-935
▁రోగ్య	-936
▁లతో	-937
▁రావ	-938
▁ట్టు	-939
▁మాత్ర	-940
విత	-941
▁పంప	-942
▁ీడియో	-943
చార	-944
▁ైసీ	-945
▁ంలోని	-946
▁ఉందని	-947
▁ార్క	-948
▁జర	-949
▁చో	-950
▁ండ్ల	-951
ియ	-952
కూ	-953
▁నియోజ	-954
▁దేవ	-955
శ్న	-956
▁్రశ్న	-957
ంగళ	-958
▁టికే	-959
▁ానని	-960
▁ాజా	-961
▁కారణం	-962
▁రైతుల	-963
▁్మ	-964
▁వచ్చే	-965
ృష్ట	-966
▁డ్ర	-967
డం	-968
జ్	-969
▁్రమాద	-970
▁వైపు	-971
టో	-972
త్య	-973
▁ైసీపీ	-974
▁్రధాన	-975
▁గో	-976
▁తెలిస	-977
▁లలో	-978
▁ెళ్ల	-979
▁్రి	-980
▁ైనా	-981
▁రక	-982
డారు	-983
▁కవర్గ	-984
▁దాని	-985
▁కర్	-986
▁్యం	-987
▁ించే	-988
▁ాలకు	-989
▁గురు	-990
▁వార	-991
▁ుఖ్యమ	-992
ఎస్	-993
▁ేష్	-994
ట్టు	-995
▁్యంలో	-996
▁ించుక	-997
▁ున	-998
▁చూప	-999
▁పడుత	-1000
గి	-1001
▁ವ	-1002
▁ాస్	-1003
▁ాప	-1004
ుడ	-1005
▁కారం	-1006
▁ି	-1007
▁అధ	-1008
▁ాన్	-1009
▁ిం	-1010
▁మస్	-1011
▁బయ	-1012
▁ివర	-1013
▁్భ	-1014
▁ెయి	-1015
▁్వా	-1016
▁కాదు	-1017
▁డించ	-1018
▁రెస్ట	-1019
▁పాల్గ	-1020
▁్రీ	-1021
▁ఊ	-1022
▁ుబ	-1023
వాస	-1024
▁ప్పటి	-1025
▁త్త	-1026
ష్ణ	-1027
▁డె	-1028
▁చిన్న	-1029
ెంబ	-1030
పత	-1031
▁తీర	-1032
▁కృష్ణ	-1033
▁నిల	-1034
▁కింద	-1035
▁అసెంబ	-1036
▁జూ	-1037
త్స	-1038
▁అవసర	-1039
▁వ్వ	-1040
▁కేసు	-1041
▁చై	-1042
కీయ	-1043
▁ాజకీయ	-1044
▁యం	-1045
▁్రప	-1046
▁ాల్సి	-1047
▁ాచారం	-1048
▁ఫో	-1049
▁ొత్తం	-1050
▁మృ	-1051
▁నుంది	-1052
▁ిల్	-1053
▁పరిశ	-1054
▁నుండి	-1055
రుక	-1056
▁వంటి	-1057
▁హీ	-1058
▁పేట	-1059
రిక	-1060
▁ೆ	-1061
ర్మ	-1062
▁్ష	-1063
▁ోయ	-1064
▁్రంలో	-1065
▁ిమర్శ	-1066
వ్	-1067
▁జరగ	-1068
▁్రపంచ	-1069
▁ుప	-1070
▁్థితి	-1071
▁్భంగా	-1072
▁ేపట్ట	-1073
▁చేరుక	-1074
గే	-1075
▁ା	-1076
▁నగర్	-1077
▁సర్	-1078
▁ఇంటి	-1079
▁ేలా	-1080
▁ోడ్	-1081
▁వేస	-1082
▁ంపె	-1083
వరి	-1084
▁లుగు	-1085
ివృ	-1086
▁ాంతాల	-1087
▁ిరు	-1088
▁చిత్ర	-1089
▁దగ్గ	-1090
త్మ	-1091
▁చర్చ	-1092
▁ికి	-1093
▁సంఘ	-1094
▁ంపెనీ	-1095
▁ఆదేశ	-1096
▁బాధ	-1097
▁నివాస	-1098
▁ఆల	-1099
▁బయట	-1100
▁ుస్త	-1101
▁లేదా	-1102
▁ముఖ్య	-1103
▁ిఫ	-1104
▁రల్	-1105
▁పలు	-1106
▁సోష	-1107
▁శి	-1108
▁అమ్మ	-1109
▁୍	-1110
▁ఆరో	-1111
▁తాను	-1112
▁మస్యల	-1113
▁జై	-1114
▁లోకి	-1115
▁పుర	-1116
▁ోదీ	-1117
▁ెంబర్	-1118
▁ాక	-1119
▁ಲ	-1120
గ్ర	-1121
▁ద్ధి	-1122
స్టు	-1123
క్ర	-1124
▁నిజ	-1125
▁తొలి	-1126
▁కపోవ	-1127
▁ారికి	-1128
▁ತ	-1129
▁ఎలా	-1130
▁సోషల్	-1131
▁అదే	-1132
▁అక్కడ	-1133
▁ేశ్వర	-1134
ాల్	-1135
▁బాల	-1136
▁వుత	-1137
▁ైల్	-1138
వర్	-1139
ణ్	-1140
▁తల	-1141
▁పెంచ	-1142
ార్	-1143
▁టికీ	-1144
▁పొంద	-1145
▁టం	-1146
▁ితే	-1147
▁అంటూ	-1148
▁ింపు	-1149
▁జాతీయ	-1150
▁ిచారణ	-1151
▁ున్నా	-1152
▁ఇతర	-1153
ాయి	-1154
▁విషయం	-1155
▁వ్యవ	-1156
▁ಕ	-1157
▁అభివృ	-1158
▁ేష	-1159
▁మని	-1160
▁లేక	-1161
▁అను	-1162
▁ఏడా	-1163
▁ఆరోప	-1164
▁దూ	-1165
▁డై	-1166
▁మేర	-1167
▁నేతలు	-1168
▁దగ్గర	-1169
▁ర్యలు	-1170
▁హీరో	-1171
▁ఫోన్	-1172
▁ంటే	-1173
▁లోనే	-1174
▁సంవత	-1175
▁స్పంద	-1176
▁మై	-1177
▁ొంద	-1178
▁ర్థిక	-1179
జు	-1180
▁ుకోవ	-1181
▁م	-1182
▁హత్య	-1183
▁ీర్	-1184
▁ఏడాది	-1185
▁ష్	-1186
▁ాదా	-1187
▁స్ట్ర	-1188
▁మాన	-1189
▁దాడి	-1190
▁ంతా	-1191
▁గాంధ	-1192
▁నేప	-1193
▁తెలియ	-1194
▁జార	-1195
▁బ్ర	-1196
న్స	-1197
▁ాడుత	-1198
▁ెక్ట	-1199
▁ిందే	-1200
▁గాంధీ	-1201
▁మెరిక	-1202
▁అలాగే	-1203
శాల	-1204
▁గౌ	-1205
▁ఇదే	-1206
▁అం	-1207
▁ుంటే	-1208
▁క్ల	-1209
▁అప్ప	-1210
▁రుణ	-1211
▁ాధ్య	-1212
▁⁬	-1213
▁నంత	-1214
▁్పష్ట	-1215
▁్తంగా	-1216
▁అంటే	-1217
▁పేరు	-1218
▁ిల్లల	-1219
▁దిగ	-1220
▁పెరిగ	-1221
▁ంపై	-1222
▁ಯ	-1223
▁ెడ్	-1224
▁తు	-1225
▁అది	-1226
ప్ట	-1227
▁ోధ	-1228
▁భ్య	-1229
▁రుగుల	-1230
▁అధ్య	-1231
▁వివర	-1232
▁ిలీ	-1233
టిని	-1234
▁ಸ	-1235
▁షన్	-1236
▁న్యా	-1237
▁వెంక	-1238
▁కాలం	-1239
▁భద్ర	-1240
▁ఆడ	-1241
▁యో	-1242
▁ిట్	-1243
▁సిద్ధ	-1244
▁చూడ	-1245
▁తరు	-1246
▁ెంట్	-1247
▁డిమా	-1248
▁అయిన	-1249
▁ର	-1250
▁ాజాగా	-1251
▁క్తుల	-1252
▁ప్రాజ	-1253
▁జే	-1254
▁సింగ్	-1255
▁ాప్	-1256
సే	-1257
▁ಗ	-1258
▁నగర	-1259
▁దృష్ట	-1260
సన	-1261
▁ంబ	-1262
▁క్షన్	-1263
▁రాశి	-1264
▁న్స్	-1265
▁ఇలా	-1266
▁శివ	-1267
▁ర్గ	-1268
▁ఇబ్బ	-1269
▁వ్యాఖ	-1270
▁ందుక	-1271
ట్టి	-1272
పోయ	-1273
▁ఆహ	-1274
▁ట్రా	-1275
▁ఉత్త	-1276
▁ియా	-1277
▁ాదాపు	-1278
▁ఇంట	-1279
▁మెంట	-1280
▁అమలు	-1281
▁ిట	-1282
ోళ	-1283
▁ాక్	-1284
▁త్తు	-1285
▁గతంలో	-1286
▁క్రమం	-1287
▁ార్డ	-1288
▁కూడ	-1289
▁ేరు	-1290
▁్తే	-1291
▁ఏళ్ల	-1292
▁పూర్	-1293
▁ందోళ	-1294
▁ఇటీ	-1295
▁ందోళన	-1296
▁ేసులో	-1297
▁20	-1298
▁ప్రజా	-1299
▁ాగంగా	-1300
మో	-1301
▁డబ్	-1302
▁అనేక	-1303
▁ేశ్	-1304
నం	-1305
▁ికల్	-1306
▁రీక్ష	-1307
▁ెట్	-1308
▁ఇటీవల	-1309
▁ాడుతూ	-1310
▁వారం	-1311
▁డబ్బు	-1312
▁ావ	-1313
▁నంతరం	-1314
▁హైక	-1315
▁వ్యవహ	-1316
▁గల	-1317
▁ఆఫ్	-1318
నివ	-1319
▁సొ	-1320
▁లెక్ట	-1321
▁మూవీ	-1322
▁ఎవర	-1323
▁కొట్ట	-1324
▁తేల	-1325
▁్యాంక	-1326
▁బడ	-1327
▁కౌ	-1328
▁మోదు	-1329
▁ోల	-1330
▁ేయ	-1331
▁ోద	-1332
▁జట్టు	-1333
▁వెంకట	-1334
▁ాలయ	-1335
▁ఆఫ	-1336
▁ہ	-1337
▁జి	-1338
▁ారా	-1339
▁ాను	-1340
▁భ్యుల	-1341
▁ెంటనే	-1342
▁ందుకే	-1343
▁శు	-1344
▁జె	-1345
▁వైఎస్	-1346
▁మళ్ల	-1347
▁వాద	-1348
▁ులను	-1349
మోద	-1350
▁ఫలి	-1351
▁తరువా	-1352
▁ఫలిత	-1353
▁ైంది	-1354
▁నేను	-1355
▁కొంత	-1356
▁ీల	-1357
▁ిష	-1358
▁ెత్త	-1359
▁స్వామ	-1360
▁రక్ష	-1361
▁ాదు	-1362
▁ముగ	-1363
▁ర్షాల	-1364
▁పోస్ట	-1365
▁నియ	-1366
▁మాట	-1367
▁స్త	-1368
▁్రె	-1369
▁ಂ	-1370
▁దారుల	-1371
▁ళ్	-1372
▁జారీ	-1373
▁ఆధార	-1374
క్తి	-1375
▁వివా	-1376
▁వెళ	-1377
▁ష్ట	-1378
ారు	-1379
▁నేర	-1380
▁ెల్	-1381
▁కల్ప	-1382
డుక	-1383
▁ాహు	-1384
ంజ	-1385
ేట	-1386
▁డిప	-1387
▁గిరి	-1388
▁చారం	-1389
▁ంట్ల	-1390
▁వర్గ	-1391
▁ినప్ప	-1392
▁చీ	-1393
ణా	-1394
▁పెరుగ	-1395
▁నేపథ	-1396
▁అంచ	-1397
▁భావ	-1398
▁బోత	-1399
▁కంటే	-1400
▁మొదటి	-1401
యోగ	-1402
▁వు	-1403
▁ఉత్తర	-1404
▁ఎక్	-1405
▁రాజ్	-1406
▁వైర	-1407
▁నోట	-1408
▁్యాణ్	-1409
▁్డారు	-1410
▁గొ	-1411
▁న్యాయ	-1412
▁ళ్ళ	-1413
▁జీవిత	-1414
▁ిస్తూ	-1415
▁ేట	-1416
▁రోప	-1417
▁ిర	-1418
▁ోత	-1419
▁్తూ	-1420
▁ప్రత	-1421
ుడు	-1422
▁గ్రహ	-1423
పాయల	-1424
▁లోక్	-1425
▁అంచనా	-1426
▁ూపాయల	-1427
▁పర్	-1428
▁15	-1429
▁్యక్ష	-1430
▁ొందరు	-1431
▁ఫొ	-1432
▁ఫొటో	-1433
▁ఫిర్య	-1434
▁డైర	-1435
▁పైన	-1436
▁తల్లి	-1437
▁ాలన్న	-1438
▁ర్ట	-1439
▁వైద్య	-1440
▁ుగ	-1441
▁గానే	-1442
▁పక్ష	-1443
▁వస	-1444
▁ఉదయం	-1445
▁ింప	-1446
▁్టేష	-1447
▁ిధ	-1448
▁ోష	-1449
▁ాది	-1450
▁క్టర్	-1451
రిగి	-1452
▁ుర్త	-1453
▁నేతల	-1454
▁హాజ	-1455
▁A	-1456
▁ఆఫీస	-1457
▁ిపోత	-1458
▁చెల్ల	-1459
▁ఆంధ	-1460
▁ుర్తు	-1461
▁ఫ్	-1462
▁ఆంధ్ర	-1463
▁ఉపయోగ	-1464
▁ిస్తే	-1465
▁కుల	-1466
▁దర్శన	-1467
▁ర్చ	-1468
▁ాహుల్	-1469
▁సర	-1470
▁ఎంత	-1471
▁న్యూ	-1472
▁ెస్ట్	-1473
పొ	-1474
▁నెలల	-1475
▁ర్ర	-1476
▁లైన్	-1477
▁డైరె	-1478
▁చేత	-1479
▁హాజర	-1480
▁ಮ	-1481
▁కాగా	-1482
▁ార్పు	-1483
బీ	-1484
▁డాక్ట	-1485
▁ివరాల	-1486
▁జనసే	-1487
▁భాగ	-1488
▁డ్డ	-1489
▁జనసేన	-1490
▁బంధ	-1491
రేక	-1492
▁హిస్త	-1493
▁మేరకు	-1494
▁సంఖ్య	-1495
▁సాగ	-1496
▁పార్ల	-1497
▁ర్క	-1498
▁అతని	-1499
▁మార్చ	-1500
▁ిన్న	-1501
▁ాలుగు	-1502
▁ొంది	-1503
▁నిలిచ	-1504
▁వేద	-1505
▁ఆది	-1506
▁తరల	-1507
▁ర్ణ	-1508
▁టికె	-1509
▁్రక	-1510
▁మరింత	-1511
▁రెండో	-1512
▁నల	-1513
▁ామ్	-1514
▁టంతో	-1515
▁వాటి	-1516
▁నష్ట	-1517
▁క్రిక	-1518
▁్డ	-1519
నుక	-1520
▁న్ని	-1521
▁సంగ	-1522
▁ిక్క	-1523
▁్టార్	-1524
▁ిడ	-1525
▁ార్జ	-1526
▁ంక	-1527
▁ఉండే	-1528
▁ోర	-1529
▁ందర	-1530
▁వంత	-1531
▁తిరేక	-1532
▁సోమ	-1533
▁కూల	-1534
▁అందు	-1535
▁రోపణ	-1536
▁ఇంక	-1537
▁హో	-1538
▁్థుల	-1539
▁ాధ	-1540
▁పాలన	-1541
తావ	-1542
▁వాతావ	-1543
▁ిలో	-1544
▁సీట్ల	-1545
▁ాత్రి	-1546
▁యోగ	-1547
▁ుమ	-1548
▁ఏర్పడ	-1549
▁ంటూ	-1550
సుక	-1551
▁నంద	-1552
▁ోత్స	-1553
్త	-1554
నల్	-1555
▁12	-1556
ంత్ర	-1557
▁మళ్లీ	-1558
▁కేటాయ	-1559
▁వార్	-1560
▁హెచ్	-1561
▁ప్పుడ	-1562
▁రువు	-1563
▁రోపణల	-1564
▁మిషన్	-1565
▁ుష	-1566
▁యాత్ర	-1567
▁ేద	-1568
▁ోలీ	-1569
▁ోర్ట	-1570
▁్స	-1571
▁ీని	-1572
▁ఎదు	-1573
▁మర	-1574
▁ినీ	-1575
▁్లి	-1576
▁శాంత	-1577
▁ఎల్	-1578
▁్షుడు	-1579
▁ేవా	-1580
▁యించ	-1581
▁ఏం	-1582
▁ాట్	-1583
▁ఎఫ్	-1584
▁టై	-1585
▁నర్	-1586
▁30	-1587
▁ాధ్యత	-1588
▁ిల	-1589
▁ంతో	-1590
▁ంలోకి	-1591
▁ుజ	-1592
▁ంట్	-1593
▁బస్	-1594
▁ఉంటే	-1595
▁పాత్ర	-1596
▁కష్ట	-1597
▁దర	-1598
▁అధ్యక	-1599
▁సిబ్బ	-1600
▁ಡ	-1601
▁లేని	-1602
▁ిరిగి	-1603
▁్సర	-1604
▁అనుక	-1605
▁వైరల్	-1606
▁ైట్	-1607
▁భార్య	-1608
▁ఆలయ	-1609
▁్రకటన	-1610
▁ిగా	-1611
▁కౌంట	-1612
టర్	-1613
▁ఐదు	-1614
▁మూడ	-1615
▁ట్వ	-1616
▁ంత్ర	-1617
▁్థిత	-1618
▁و	-1619
▁బీసీ	-1620
▁ార్త	-1621
▁వర్ష	-1622
▁ార్కె	-1623
▁కర్త	-1624
▁ద్దతు	-1625
▁యాద	-1626
▁కమి	-1627
▁ీన్	-1628
ద్దర	-1629
▁పన	-1630
▁ఇక్కడ	-1631
▁ెక్టు	-1632
▁/	-1633
▁n	-1634
▁పండ	-1635
ణాట	-1636
▁ద్ధ	-1637
▁అత్య	-1638
▁కట్ట	-1639
▁ిట్ట	-1640
▁డిస	-1641
▁ామన్న	-1642
▁గణ	-1643
▁తను	-1644
▁సాయ	-1645
▁డమ	-1646
▁సౌ	-1647
▁్యు	-1648
▁విజయం	-1649
▁ోడీ	-1650
▁ఉంచ	-1651
ణాటక	-1652
▁్ణాటక	-1653
▁కీయ	-1654
▁సీపీ	-1655
▁ంట్లో	-1656
జన	-1657
లోచ	-1658
▁ఆలోచ	-1659
▁దని	-1660
▁ంద్ర	-1661
یں	-1662
నుగ	-1663
▁వేయ	-1664
▁నియోగ	-1665
యాణ	-1666
▁్రయాణ	-1667
▁్ని	-1668
▁ఏపీలో	-1669
▁ిద	-1670
▁ువుల	-1671
ుక్ర	-1672
▁శుక్ర	-1673
▁ిశ	-1674
▁క్కడి	-1675
▁వస్థ	-1676
య్	-1677
▁మార్గ	-1678
▁ాటు	-1679
▁పూజ	-1680
▁బుల్	-1681
▁ాడని	-1682
▁మంగళ	-1683
▁ర్న	-1684
▁ట్టి	-1685
▁జ్ఞ	-1686
▁విన	-1687
▁కమిటీ	-1688
▁పాట	-1689
▁్రం	-1690
ీల	-1691
▁న్నీ	-1692
▁ఎక్కడ	-1693
▁సహాయ	-1694
▁పను	-1695
▁ోలు	-1696
▁యువ	-1697
▁ైగా	-1698
▁ిందిత	-1699
▁ెళ్లి	-1700
▁ీనియ	-1701
▁ోలీస్	-1702
▁t	-1703
▁మొదల	-1704
▁నుమ	-1705
▁ఎక్స్	-1706
▁దె	-1707
▁దక్క	-1708
▁కిలో	-1709
▁ీమ్	-1710
▁భిమాన	-1711
▁విశ్వ	-1712
▁కీయాల	-1713
▁ప్లా	-1714
▁తనకు	-1715
▁క్షి	-1716
▁సీబీ	-1717
▁చట్ట	-1718
▁నాగ	-1719
▁్రమ	-1720
▁ోడ్డు	-1721
▁భూమి	-1722
▁రిష్	-1723
▁దర్శక	-1724
▁మహిళల	-1725
▁బ్యాట	-1726
▁ద్దరు	-1727
▁్రూ	-1728
▁11	-1729
▁్పు	-1730
▁ులో	-1731
▁నడ	-1732
▁హెచ్చ	-1733
▁చోటు	-1734
▁ుల్	-1735
▁ఆత్మ	-1736
ేమ	-1737
▁పనులు	-1738
▁సార్ల	-1739
▁ాలంటే	-1740
▁س	-1741
డుల	-1742
▁ుల్లో	-1743
▁ఇంకా	-1744
▁రాజు	-1745
▁పర్య	-1746
▁బెంగళ	-1747
▁ర్త	-1748
విస	-1749
▁ైర్	-1750
▁త్య	-1751
▁ుక్క	-1752
▁ర్స్	-1753
▁కూట	-1754
▁پ	-1755
▁ారన్న	-1756
▁ాయ్	-1757
▁రహ	-1758
కిస	-1759
▁సంత	-1760
▁పాకిస	-1761
వలం	-1762
▁ీలో	-1763
▁కేవలం	-1764
▁కలిగ	-1765
▁పరిధి	-1766
▁విస్త	-1767
▁చు	-1768
▁వేగ	-1769
▁రగ	-1770
▁నవ	-1771
▁శుభ	-1772
▁భావిస	-1773
▁ేమ	-1774
▁త్వం	-1775
▁ీనియర	-1776
▁ోక	-1777
▁ఆరు	-1778
స్య	-1779
▁సమస్య	-1780
▁తిర	-1781
▁కూటమి	-1782
▁వీర	-1783
▁ర్లు	-1784
▁రవ	-1785
▁వో	-1786
▁నాథ	-1787
▁బౌ	-1788
▁నాడు	-1789
▁ుకుంట	-1790
▁దూరం	-1791
▁ైల్వే	-1792
▁ైజ	-1793
▁వేశ	-1794
▁ఆదివ	-1795
▁వచ్చి	-1796
▁వృ	-1797
▁ేధ	-1798
▁బాధిత	-1799
▁న్ను	-1800
▁కన	-1801
▁ేజీ	-1802
▁ోందని	-1803
▁తమి	-1804
▁రిప	-1805
▁ర్వ	-1806
▁హింద	-1807
▁ప్లే	-1808
▁ారిని	-1809
▁ార్ట	-1810
▁େ	-1811
▁ీనా	-1812
▁ేజ్	-1813
▁సరి	-1814
▁రోడ్	-1815
▁ెయిల్	-1816
▁ిబ	-1817
▁మృతి	-1818
▁కం	-1819
▁ిలి	-1820
▁నిమి	-1821
▁ాళ	-1822
▁ఖర్చ	-1823
టర్ల	-1824
▁సిద్ద	-1825
▁సుప్ర	-1826
▁గూ	-1827
▁ిటీ	-1828
▁సన్	-1829
▁ానీ	-1830
మల	-1831
▁ధరల	-1832
▁పోరా	-1833
▁్రవేశ	-1834
▁ాయిలో	-1835
▁మోహ	-1836
▁అంశ	-1837
యారు	-1838
▁మహా	-1839
▁దుర్క	-1840
▁సూర్య	-1841
▁ేక్ష	-1842
▁ఫ్యా	-1843
▁బస్సు	-1844
▁జీవ	-1845
▁నిధ	-1846
▁ేది	-1847
▁ఫీ	-1848
▁రమ	-1849
▁తమిళ	-1850
▁రిస్త	-1851
▁నటి	-1852
▁చ్	-1853
▁విధాన	-1854
▁କ	-1855
▁నని	-1856
▁ఎంతో	-1857
▁కొనుగ	-1858
ాన్య	-1859
▁ధాన్య	-1860
▁చ్చు	-1861
▁ారాయ	-1862
▁భిప్ర	-1863
▁14	-1864
▁హర	-1865
▁తాము	-1866
▁ైల	-1867
▁వరద	-1868
▁్థాయి	-1869
یا	-1870
ికి	-1871
▁సొంత	-1872
▁జూన్	-1873
▁మీరు	-1874
▁కాద	-1875
▁దేశాల	-1876
▁నై	-1877
▁ిరుమల	-1878
▁తిని	-1879
▁బాగా	-1880
ఖల	-1881
▁ారాయణ	-1882
▁బహ	-1883
▁ిలీజ్	-1884
లువ	-1885
▁చివరి	-1886
▁విధ	-1887
▁యర్	-1888
▁టా	-1889
▁దొ	-1890
▁్న	-1891
▁తొల	-1892
▁బట్టి	-1893
▁ొని	-1894
ర్వ	-1895
▁అంతే	-1896
▁మరియ	-1897
▁ాలే	-1898
▁a	-1899
▁అర్	-1900
▁ఓట్ల	-1901
విధ	-1902
▁గ్యా	-1903
▁50	-1904
▁లపై	-1905
▁వచ్చు	-1906
ినే	-1907
▁ోదా	-1908
▁నాటి	-1909
▁పక్క	-1910
▁్తాన్	-1911
▁ాటులో	-1912
▁ఓడ	-1913
▁్రచార	-1914
▁ఒకర	-1915
▁అందుబ	-1916
▁ప్రేమ	-1917
▁వివిధ	-1918
▁R	-1919
▁సంజ	-1920
▁వెళ్త	-1921
▁ోన్	-1922
▁పథ	-1923
▁గుండ	-1924
▁మవ	-1925
▁ಲ್	-1926
కూల	-1927
▁ొక్క	-1928
▁దిల	-1929
▁కోల	-1930
▁బుధ	-1931
▁ుతూ	-1932
▁్యలు	-1933
▁డియ	-1934
▁మరియు	-1935
▁అక్ర	-1936
▁రిట	-1937
▁విర	-1938
▁ార్చ	-1939
▁ర్ధ	-1940
▁నీటి	-1941
▁వరకూ	-1942
▁ైవే	-1943
▁భావం	-1944
▁యన	-1945
▁చర్య	-1946
▁ుచ	-1947
▁టో	-1948
▁భద్రత	-1949
వార	-1950
▁ఖా	-1951
▁ఆశ	-1952
▁సీసీ	-1953
▁ర్కార	-1954
▁ేనే	-1955
▁ఆహార	-1956
▁సర్వే	-1957
▁ెర	-1958
▁మవుత	-1959
▁ంభ	-1960
▁ొప్ప	-1961
▁ఖర్చు	-1962
▁వేదిక	-1963
▁ంట్ర	-1964
▁నింగ్	-1965
▁లం	-1966
▁పాద	-1967
ూర	-1968
▁గమ	-1969
▁ుకుని	-1970
ముఖ	-1971
▁చైర్మ	-1972
▁్రముఖ	-1973
జా	-1974
▁దండ	-1975
▁కప్	-1976
▁సోమవ	-1977
▁అక్రమ	-1978
▁ీబ	-1979
▁రద్	-1980
▁కర్తల	-1981
▁భవ	-1982
▁అయ	-1983
▁ీచ	-1984
▁బౌల	-1985
▁ఫ్ల	-1986
▁నిధుల	-1987
▁శిక్ష	-1988
▁జైలు	-1989
▁రైతు	-1990
▁క్షిణ	-1991
▁ేళ్ల	-1992
▁అనేది	-1993
▁రిష్క	-1994
ామీ	-1995
▁హామీ	-1996
▁్తు	-1997
▁తొలగ	-1998
▁ుండగా	-1999
▁నుగ	-2000
▁ోహ	-2001
▁ర్గాల	-2002
▁విమాన	-2003
▁సెప్ట	-2004
▁ఫ్ర	-2005
▁ిధంగా	-2006
▁తినిధ	-2007
▁ెన్స్	-2008
▁లోక	-2009
▁త్తి	-2010
▁్యాండ	-2011
ినేత	-2012
▁న్య	-2013
▁బిజ	-2014
▁వీరి	-2015
▁ధినేత	-2016
▁25	-2017
▁న్ల	-2018
▁ాటిని	-2019
▁పురం	-2020
▁క్రియ	-2021
▁ాధారణ	-2022
▁వయ	-2023
▁24	-2024
▁లువు	-2025
▁ింట	-2026
▁అతి	-2027
▁ప్రభా	-2028
▁ఫ్ట	-2029
▁స్ట్	-2030
▁డమే	-2031
▁అండ్	-2032
▁నివే	-2033
▁ముంబ	-2034
▁మల్ల	-2035
▁ిష్ట	-2036
▁ొడ	-2037
▁ిష్	-2038
▁ీక	-2039
▁రకాల	-2040
▁ంగ్	-2041
▁ెక్	-2042
▁నివేద	-2043
▁సాయంత	-2044
▁నుకూల	-2045
▁ఎల	-2046
▁సూప	-2047
▁ిద్యా	-2048
▁ెగ	-2049
▁వేళ	-2050
▁ఇజ	-2051
▁ూల	-2052
▁ిజర్వ	-2053
▁ఇజ్ర	-2054
▁్స్	-2055
▁ండిపడ	-2056
▁సభ్య	-2057
▁ియల్	-2058
▁న్స	-2059
▁సామ	-2060
▁ిమా	-2061
▁ీస్	-2062
▁బయటకు	-2063
▁డే	-2064
▁విచార	-2065
▁ిస	-2066
▁ఎన్న	-2067
▁సంక్ష	-2068
▁ిల్లు	-2069
▁ఎయి	-2070
▁లర్	-2071
▁ేస్త	-2072
▁ఏక	-2073
▁క్టో	-2074
▁ంగారం	-2075
▁్వామి	-2076
జున	-2077
▁ీమ	-2078
▁పథక	-2079
▁ర్జున	-2080
▁గడ	-2081
▁వల	-2082
▁ీల్	-2083
▁ీర	-2084
▁పోయ	-2085
▁ీవు	-2086
▁ాండ	-2087
▁తండ	-2088
▁ాయె	-2089
▁వీటి	-2090
▁టే	-2091
▁యువత	-2092
▁లుసుక	-2093
▁కంప	-2094
▁ిస్	-2095
ాలి	-2096
▁నియమ	-2097
▁దర్య	-2098
▁య్యే	-2099
▁విక్ర	-2100
▁ొచ్చు	-2101
▁నమోద	-2102
▁మంగళవ	-2103
▁ఉంద	-2104
▁శనివ	-2105
▁నక	-2106
▁త్వర	-2107
▁సిటీ	-2108
▁స్తుల	-2109
▁టీసీ	-2110
▁మృత	-2111
▁ూత	-2112
▁వాహ	-2113
▁ేరుతో	-2114
▁ీవుడ్	-2115
▁వ్	-2116
▁కవిత	-2117
▁ఓవర్	-2118
▁ిజన్	-2119
▁ులతో	-2120
▁ాప్తు	-2121
▁కృత	-2122
▁లీడ	-2123
▁నేడు	-2124
▁ర్మిక	-2125
▁S	-2126
▁వుల	-2127
▁క్కడ	-2128
▁తేదీన	-2129
▁గురువ	-2130
ెంట	-2131
▁ఒకే	-2132
▁వాల్	-2133
▁దెబ్బ	-2134
▁పాత	-2135
▁ాలనే	-2136
▁గెలిచ	-2137
▁దాడుల	-2138
▁క్టోబ	-2139
▁ఫె	-2140
▁ేసులు	-2141
▁మారు	-2142
▁ప్రియ	-2143
రీర	-2144
▁టెక్	-2145
▁నాలు	-2146
▁శరీర	-2147
▁నం	-2148
▁ంధ	-2149
▁సిం	-2150
▁మణ	-2151
▁ిచ్చ	-2152
▁రద్దు	-2153
▁ోత్సవ	-2154
▁్ట్ర	-2155
▁ن	-2156
▁ఏద	-2157
▁చీఫ్	-2158
▁ార్చి	-2159
▁విలువ	-2160
▁మోహన్	-2161
▁ారిటీ	-2162
▁సింగ	-2163
▁ంక్ష	-2164
▁గెల	-2165
▁రియా	-2166
▁నిపోయ	-2167
▁దశ	-2168
▁లస	-2169
▁ెల్సీ	-2170
▁ఇంత	-2171
▁ిగత	-2172
▁ఓటు	-2173
▁జర్	-2174
▁స్వీ	-2175
▁దళ	-2176
▁ేల	-2177
▁వస్తే	-2178
▁ాల్ప	-2179
▁ఎకర	-2180
▁మనం	-2181
▁ిటల్	-2182
▁రిత్ర	-2183
▁సంజయ్	-2184
▁ాయెల్	-2185
▁బల	-2186
▁రాయ	-2187
▁ేక్	-2188
▁ఇంటర్	-2189
▁‍	-2190
▁అడి	-2191
▁ికు	-2192
▁ిండ	-2193
▁ాత్మ	-2194
▁ీష్	-2195
▁యిన్	-2196
▁నరే	-2197
▁పనుల	-2198
▁ుబడ	-2199
▁ప్షన్	-2200
▁అభి	-2201
▁స్మ	-2202
▁ఎత్త	-2203
▁బ్ద	-2204
▁ందరూ	-2205
▁నియా	-2206
▁ుద	-2207
▁భూమ	-2208
▁మండలం	-2209
▁ب	-2210
▁ت	-2211
▁ెక్క	-2212
▁భర్త	-2213
▁ూర	-2214
▁ప్రొ	-2215
▁ాస	-2216
సారి	-2217
▁ిప్	-2218
ర్ప	-2219
▁18	-2220
▁ర్మి	-2221
▁ాల్పడ	-2222
▁సహా	-2223
▁పుట్ట	-2224
▁్రుల	-2225
▁రామ్	-2226
▁వరు	-2227
▁ిక్స్	-2228
టిష	-2229
▁్గు	-2230
▁తది	-2231
▁ಪ	-2232
▁రైలు	-2233
▁విశా	-2234
▁్యాన	-2235
▁గడ్డ	-2236
▁ీక్ష	-2237
▁ెన్స	-2238
▁్యూటీ	-2239
▁నీరు	-2240
▁టింగ్	-2241
▁వన్	-2242
▁విశాఖ	-2243
▁కిత్స	-2244
▁అంబ	-2245
▁కూడద	-2246
▁డ్రై	-2247
▁ించడ	-2248
▁ుత్	-2249
▁ప్పు	-2250
▁్థాన్	-2251
▁నామ	-2252
▁ురాల	-2253
▁్యామ	-2254
▁వివాద	-2255
▁సంతో	-2256
▁కోల్ప	-2257
▁అందుక	-2258
▁రాస	-2259
ర్ట	-2260
▁ిర్	-2261
▁ొంట	-2262
▁నెలక	-2263
▁పదవి	-2264
▁తండ్ర	-2265
▁త్యంత	-2266
త్తి	-2267
▁ోస్టు	-2268
▁అంతర్	-2269
▁విదేశ	-2270
▁ోన్న	-2271
▁ీయ	-2272
▁తదితర	-2273
▁ాపూ	-2274
▁ఆక	-2275
▁ిడ్	-2276
▁అయినా	-2277
▁సంతోష	-2278
▁జరిగే	-2279
▁ఏమ	-2280
▁దారి	-2281
▁ాడారు	-2282
▁ల్లు	-2283
▁ోప	-2284
▁డర్	-2285
▁షాక	-2286
▁ేంద	-2287
▁నుంచ	-2288
▁ుష్	-2289
▁ీలి	-2290
▁రేట్	-2291
▁మహిళా	-2292
▁P	-2293
రించ	-2294
▁ంకు	-2295
▁ంత్రు	-2296
▁చుట్ట	-2297
▁చైనా	-2298
▁లెక్క	-2299
▁యుద్ధ	-2300
▁T	-2301
▁లభ	-2302
▁న్నత	-2303
▁C	-2304
▁ఆసు	-2305
జె	-2306
▁సార	-2307
▁ఎస్సీ	-2308
▁వయస	-2309
▁్థల	-2310
▁ింపుల	-2311
▁ీకర	-2312
▁స్వీక	-2313
▁ివరకు	-2314
▁ీబీసీ	-2315
▁నీళ్ల	-2316
▁13	-2317
వర్న	-2318
▁గవర్న	-2319
▁నిరసన	-2320
▁ఫర్	-2321
▁సహక	-2322
▁ైన్	-2323
▁ెస్ట	-2324
▁కన్న	-2325
▁బుధవ	-2326
▁క్యూ	-2327
▁ఆసుపత	-2328
▁వినిప	-2329
▁సూపర్	-2330
▁మారుత	-2331
▁శక్తి	-2332
▁నలు	-2333
▁కాపా	-2334
▁ాయాల	-2335
▁ోరు	-2336
▁నమ్మ	-2337
▁దర్శి	-2338
▁ేషనల్	-2339
▁ుద్ధ	-2340
▁ఎంప	-2341
▁వేడుక	-2342
▁ధర్మ	-2343
▁ారతీయ	-2344
▁ోమ	-2345
▁యోజన	-2346
▁ల్లి	-2347
▁ైవేట	-2348
▁అధిక	-2349
▁్సరాల	-2350
▁17	-2351
▁భూముల	-2352
▁ీలించ	-2353
▁రాజ్య	-2354
▁పూర	-2355
▁మున్స	-2356
▁రంగల్	-2357
▁్లాన్	-2358
▁రేషన్	-2359
▁16	-2360
▁ెంటర్	-2361
▁తీరు	-2362
▁ధన	-2363
▁ారో	-2364
▁ಲ್ಲ	-2365
▁ర్యటన	-2366
▁ంస	-2367
▁సీఐ	-2368
▁ాస్ట	-2369
▁్రాల	-2370
▁కాపాడ	-2371
▁తమకు	-2372
▁జాగ్ర	-2373
▁..	-2374
▁ోడ	-2375
▁జ్జ	-2376
▁నాకు	-2377
▁ాసన	-2378
▁کے	-2379
▁ేస్	-2380
▁ಬ	-2381
▁కూర	-2382
▁ఎయిర్	-2383
▁స్టర్	-2384
▁ی	-2385
▁నరేంద	-2386
▁ాపూర్	-2387
▁ొత్తు	-2388
▁ఈసారి	-2389
▁ాఫ	-2390
ప్రి	-2391
▁్నా	-2392
▁ఏప్రి	-2393
▁ాలలో	-2394
▁ీం	-2395
▁ట్రై	-2396
▁వరుస	-2397
▁ఎదురు	-2398
▁ర్మిల	-2399
▁మన్	-2400
▁సంచ	-2401
▁కపోతే	-2402
▁ఆన్	-2403
▁ాంబ	-2404
▁తిన	-2405
▁్వత	-2406
▁పేద	-2407
▁ోగ	-2408
▁ంప్ర	-2409
▁కామె	-2410
▁లువుర	-2411
▁త్స	-2412
▁ంచ్	-2413
▁దేళ్ల	-2414
▁రల్డ్	-2415
▁న్మ	-2416
▁ಟ	-2417
▁లాభ	-2418
▁పిటిష	-2419
▁ନ	-2420
▁సుర	-2421
▁22	-2422
▁ఆద	-2423
▁ూట	-2424
▁అసలు	-2425
▁ెట్ట	-2426
▁వాస	-2427
▁ిరీ	-2428
▁ేవారు	-2429
▁ీంక	-2430
▁s	-2431
▁సాయి	-2432
▁ବ	-2433
▁దాఖల	-2434
▁ఆస	-2435
▁పరిచ	-2436
▁ఎస్పీ	-2437
▁యాణ	-2438
▁అమర	-2439
▁ముఖ	-2440
▁ురా	-2441
▁ేటి	-2442
▁ోవడ	-2443
▁లేకప	-2444
▁ేందర్	-2445
▁మిక	-2446
▁ూడ	-2447
▁మెడ	-2448
▁రాం	-2449
▁లీడర్	-2450
▁ాలంలో	-2451
▁ସ	-2452
▁ైక్	-2453
ఖా	-2454
▁ీశ్	-2455
▁్రే	-2456
▁మద్య	-2457
▁د	-2458
▁విక	-2459
ఖాస	-2460
▁کی	-2461
▁పది	-2462
▁బడ్	-2463
▁్యాల	-2464
▁రణ్	-2465
▁ిరీస్	-2466
▁ాఠ	-2467
▁అమి	-2468
▁ంప్	-2469
▁కొండ	-2470
▁ేర	-2471
▁ఎంపిక	-2472
▁ితో	-2473
▁ీటిని	-2474
▁లహ	-2475
▁నాథ్	-2476
▁దరఖాస	-2477
▁ఈరో	-2478
▁బ్ల	-2479
▁హిత	-2480
▁ౌన్	-2481
▁సేకర	-2482
▁మెరుగ	-2483
▁ఐటీ	-2484
▁గౌడ	-2485
▁బడ్జె	-2486
▁ూనే	-2487
▁వేగం	-2488
▁మొదలు	-2489
▁ిణ	-2490
▁దిన	-2491
▁ారీ	-2492
▁మయ్య	-2493
▁ియేట	-2494
పం	-2495
▁ాహ్	-2496
మ్మం	-2497
▁ఖమ్మం	-2498
▁రక్షణ	-2499
▁ుణ	-2500
▁నిరు	-2501
▁గౌర	-2502
▁ంగార	-2503
▁ంచుక	-2504
▁ేర్ల	-2505
▁గ్జ	-2506
▁మైంది	-2507
▁ر	-2508
▁ాయింట	-2509
▁శ్రయ	-2510
▁ఈరోజు	-2511
▁చ్చని	-2512
▁నటించ	-2513
▁క్వ	-2514
▁జాత	-2515
ూల్	-2516
▁పట్టణ	-2517
▁్కూల్	-2518
▁ల్ప	-2519
▁స్య	-2520
▁ియో	-2521
▁ుక్	-2522
▁్కర్	-2523
▁ج	-2524
▁నిత	-2525
▁ఉపా	-2526
▁ిత్త	-2527
▁్రూప్	-2528
▁కాదని	-2529
▁కెప్ట	-2530
▁ార్ట్	-2531
రియ	-2532
▁ేట్	-2533
▁ీరియ	-2534
▁ీన	-2535
ra	-2536
▁ఎవ	-2537
▁میں	-2538
▁ఇంగ	-2539
▁ఇవా	-2540
▁ాక్స	-2541
▁ారుల	-2542
▁ందులు	-2543
▁ార్మ	-2544
▁బ్బ	-2545
▁వరి	-2546
▁శంక	-2547
▁శ్చ	-2548
▁ఉపాధ	-2549
▁వినీ	-2550
▁ఒకటి	-2551
▁కథ	-2552
▁ఇళ్ల	-2553
▁ఉమ్మ	-2554
▁ంప్రద	-2555
▁ఎకరాల	-2556
▁తయారు	-2557
▁్యూస్	-2558
▁ఈడీ	-2559
▁రెంట	-2560
▁ంశ	-2561
▁ాబ్	-2562
▁ఒప్ప	-2563
▁ిఫిక	-2564
▁షె	-2565
▁జ్య	-2566
▁ుద్ద	-2567
▁ౌన్స	-2568
▁విడ	-2569
▁ాబి	-2570
▁సేవల	-2571
▁చా	-2572
▁గాయ	-2573
▁దేహ	-2574
▁బర్	-2575
▁ిగ్ర	-2576
ీసు	-2577
▁లగ	-2578
▁ତ	-2579
▁నర	-2580
▁సియ	-2581
వేక	-2582
▁ారణ	-2583
▁వివేక	-2584
▁మూడో	-2585
▁లుపు	-2586
▁ల్స్	-2587
▁వినీత	-2588
▁మల	-2589
▁నుమాన	-2590
ీట	-2591
▁ీవ	-2592
▁సమీ	-2593
▁్పె	-2594
▁ల్లం	-2595
▁సైతం	-2596
▁ఆలోచన	-2597
▁ఇవాళ	-2598
▁ీచర్	-2599
▁బృ	-2600
▁గుంట	-2601
▁గమన	-2602
▁పతి	-2603
▁లిప	-2604
▁ందర్	-2605
▁ముంబై	-2606
▁ఎంద	-2607
షన	-2608
▁ారనే	-2609
▁మీటర్	-2610
▁ఉమ్మడ	-2611
పుణ	-2612
▁ర్జ	-2613
▁ఉండగా	-2614
▁నిపుణ	-2615
▁ఫైన	-2616
▁హెల	-2617
▁వంబర్	-2618
▁వార్డ	-2619
▁ీనామా	-2620
▁లియ	-2621
▁ఆయనకు	-2622
▁ఉన్నా	-2623
▁గస్టు	-2624
▁ಹ	-2625
▁డుత	-2626
▁ాన్స్	-2627
▁B	-2628
పొంద	-2629
▁ేలి	-2630
▁ఇంగ్ల	-2631
▁ాత్మక	-2632
▁ూపొంద	-2633
దుపు	-2634
▁చదు	-2635
▁వాల	-2636
▁ాకా	-2637
▁క్ట్	-2638
▁అదుపు	-2639
▁వర్షం	-2640
▁ಳ	-2641
రిప	-2642
▁అల	-2643
▁ప్త	-2644
▁జరిప	-2645
▁ేషన్ల	-2646
▁సబ్	-2647
▁ల్డ్	-2648
▁సాయం	-2649
▁ట్వీట	-2650
▁ఇండ	-2651
▁పట్ల	-2652
▁ీన్ని	-2653
లన	-2654
▁కనీస	-2655
▁ుచుక	-2656
▁య్	-2657
▁సభలో	-2658
▁్ధ	-2659
లుప	-2660
▁గెలుప	-2661
▁పెడుత	-2662
▁తాగ	-2663
▁్వర	-2664
▁ిషన్	-2665
▁జనవరి	-2666
▁అప	-2667
▁ఘన	-2668
▁ాబితా	-2669
▁నల్	-2670
▁ుమా	-2671
▁డ్రైవ	-2672
▁బెట్ట	-2673
▁్యంగా	-2674
▁తయ	-2675
▁ొంగ	-2676
▁i	-2677
▁ఫర	-2678
▁ొండ	-2679
▁సక్తి	-2680
▁సమీపం	-2681
▁నుభ	-2682
▁ితంగా	-2683
▁టాల	-2684
▁నీయ	-2685
▁తయార	-2686
▁సామా	-2687
▁ానం	-2688
▁ఆవ	-2689
▁ద్దు	-2690
▁వెనుక	-2691
▁దాన	-2692
▁ార్పొ	-2693
▁ాలేజీ	-2694
▁ఆస్	-2695
▁ఐపీ	-2696
▁సమా	-2697
▁ంబర్	-2698
▁ింటి	-2699
▁యాణిక	-2700
▁ిగ్రహ	-2701
▁ధీ	-2702
▁హిళ	-2703
▁ఎందుక	-2704
చిత	-2705
▁అడు	-2706
▁ఉచిత	-2707
▁ీత	-2708
▁ోట	-2709
వంట	-2710
▁టువంట	-2711
▁ెన్సీ	-2712
▁ఉద్య	-2713
▁నస	-2714
▁ంటి	-2715
▁ౌండ్	-2716
▁ఇద్దర	-2717
▁సామాజ	-2718
▁ాలపై	-2719
▁ిమి	-2720
▁ఆస్పత	-2721
▁ನ್	-2722
▁మంత్ర	-2723
▁ీడ	-2724
▁ీట్	-2725
▁ఉత	-2726
టం	-2727
▁ఉత్ప	-2728
▁ార్తల	-2729
▁ఎన్ట	-2730
▁పూర్త	-2731
నాల	-2732
▁ోయి	-2733
▁రణించ	-2734
▁నిమిష	-2735
▁ేక్షక	-2736
▁ాంగ్	-2737
▁ఉద్యమ	-2738
▁షే	-2739
▁గ్న	-2740
▁ెబ్	-2741
▁ప్తి	-2742
▁ిరుపత	-2743
▁ा	-2744
▁ాస్త	-2745
▁ూహ	-2746
▁19	-2747
▁దిర	-2748
▁్చి	-2749
▁40	-2750
▁రస	-2751
▁ెడ	-2752
▁ోన	-2753
▁గర్	-2754
▁బీఆర్	-2755
▁కోట	-2756
▁భవన	-2757
▁మంజ	-2758
▁వది	-2759
▁్బ	-2760
▁యువక	-2761
▁ుడిగా	-2762
▁ୁ	-2763
▁ెట	-2764
▁ూర్త	-2765
▁లేఖ	-2766
▁ైమ్	-2767
▁ఫ్ట్	-2768
ha	-2769
▁ళి	-2770
▁ముర	-2771
▁ీతా	-2772
▁ోహి	-2773
▁వసాయ	-2774
▁ుమ్మ	-2775
▁ైళ్ల	-2776
▁ఖాన్	-2777
▁అవసరమ	-2778
▁నిట	-2779
▁అయింద	-2780
▁యూనివ	-2781
▁్రమాణ	-2782
▁ఠా	-2783
▁క్కడే	-2784
▁వెస్ట	-2785
▁ేత	-2786
▁బండి	-2787
▁న్డ	-2788
▁ేసుక	-2789
▁సృష్ట	-2790
గిస	-2791
▁ఖీ	-2792
▁రం	-2793
▁ాటక	-2794
▁ముగిస	-2795
▁లంక	-2796
▁ష్ణ	-2797
▁సుల	-2798
▁ాక్ష	-2799
▁ేగ	-2800
▁వివాహ	-2801
▁ఎన్నో	-2802
▁వికె	-2803
▁ేని	-2804
▁అంశాల	-2805
▁్గురు	-2806
▁ఈవ	-2807
▁ేసి	-2808
▁మరిక	-2809
▁నాలుగ	-2810
▁వేత్త	-2811
▁ాహ్నం	-2812
▁సీజ	-2813
▁క్రిత	-2814
▁గౌరవ	-2815
▁చోట్ల	-2816
▁ర్వీస	-2817
▁ిత్	-2818
▁ద్దేశ	-2819
▁ప్పుల	-2820
▁్యాయం	-2821
▁M	-2822
భాగ	-2823
▁కస్ట	-2824
▁ముందే	-2825
▁యాదవ్	-2826
▁ేలియా	-2827
▁ందిర	-2828
▁వదిల	-2829
▁గ్రహం	-2830
▁ోటో	-2831
▁తనను	-2832
▁ೋ	-2833
▁బొ	-2834
▁ంతర	-2835
▁మహారా	-2836
▁సీబీఐ	-2837
▁దన	-2838
▁తుర	-2839
▁ఓటర్ల	-2840
▁గుండె	-2841
▁విభాగ	-2842
▁సంచలన	-2843
▁ారంట	-2844
▁డ్యూ	-2845
▁కారణమ	-2846
రుప	-2847
▁ఆధ్వర	-2848
▁సమర్ప	-2849
▁పరే	-2850
▁ందుల	-2851
▁ల్లా	-2852
▁స్టా	-2853
▁స్తు	-2854
▁ఆన	-2855
▁కారు	-2856
▁గ్ల	-2857
▁నర్స	-2858
▁ెడ్డి	-2859
▁ైడ్	-2860
▁గురి	-2861
▁ాండ్	-2862
▁ిప్ప	-2863
▁ాలనుక	-2864
▁ేణ	-2865
▁దాట	-2866
▁ారాల	-2867
▁చర	-2868
▁ಿದ	-2869
▁మోస	-2870
▁ాఫ్	-2871
▁ీమా	-2872
▁ఖాతా	-2873
▁ిడెంట	-2874
▁ఏంట	-2875
▁ఇచ్చే	-2876
▁తప్పు	-2877
▁హౌ	-2878
▁ఆనంద	-2879
▁ుట	-2880
▁ತ್	-2881
▁ఊర	-2882
▁ద్భ	-2883
▁మ్మక	-2884
▁్చుక	-2885
▁నాయుడ	-2886
▁ముద్ర	-2887
▁గద	-2888
▁శే	-2889
▁సంప	-2890
▁ఎవరు	-2891
▁ర్థం	-2892
▁సెంట	-2893
▁తెచ్చ	-2894
▁అమిత్	-2895
▁డ్డుక	-2896
▁ిణీ	-2897
▁ొద్	-2898
▁హిళలు	-2899
ఖర	-2900
▁శ్వ	-2901
▁ైతే	-2902
▁ొడవ	-2903
▁ాఠశాల	-2904
▁ారంభం	-2905
▁ారణాల	-2906
▁ోహిత్	-2907
కాల	-2908
గిల	-2909
▁మిగిల	-2910
▁ొద్ది	-2911
▁ల్క	-2912
▁ాకు	-2913
▁ాగా	-2914
▁సమాధ	-2915
▁విభ	-2916
▁ిపల్	-2917
▁సోద	-2918
▁ాఫీ	-2919
▁గొట్ట	-2920
▁శాస్త	-2921
▁లమ	-2922
▁బృంద	-2923
▁ాలంట	-2924
▁ుమారు	-2925
▁వాహన	-2926
▁నాల	-2927
▁ష్ట్ర	-2928
▁ాహనాల	-2929
▁వని	-2930
▁స్క	-2931
▁్తా	-2932
▁్రో	-2933
▁త్రి	-2934
▁నోటీస	-2935
▁పోత	-2936
▁వాయి	-2937
▁సంఘటన	-2938
▁అగ్ర	-2939
▁ిద్ర	-2940
▁పక్కన	-2941
షనర	-2942
▁ట్రో	-2943
▁మిషనర	-2944
▁దీప్	-2945
▁ఒత్తి	-2946
▁ట్టుక	-2947
▁ువు	-2948
▁స్నే	-2949
▁ొద్ద	-2950
▁లభించ	-2951
▁ోర్డు	-2952
▁పల	-2953
▁న్నై	-2954
▁సింహ	-2955
▁జు	-2956
▁ఏడు	-2957
▁భాష	-2958
▁్త్	-2959
▁ంగ్ల	-2960
▁సాద్	-2961
▁డిజ	-2962
▁21	-2963
▁రచ	-2964
▁కోహ	-2965
▁ధ్వ	-2966
▁అర్హ	-2967
▁ఆమోద	-2968
▁రికీ	-2969
▁మాటల	-2970
▁ావతి	-2971
▁స్థాన	-2972
▁చంప	-2973
▁రూప	-2974
▁మద్యం	-2975
▁సక	-2976
▁ొక	-2977
▁గూడ	-2978
▁దుల	-2979
▁షాప	-2980
▁కాన్	-2981
▁న్షన్	-2982
▁I	-2983
▁వరూ	-2984
▁యంత్ర	-2985
▁నుక	-2986
▁ుడ్	-2987
▁టిల్	-2988
▁శేఖర	-2989
▁ిరంగ	-2990
▁సీజన్	-2991
▁్రీన్	-2992
▁జేస	-2993
▁టర్	-2994
▁పున	-2995
▁ఇంజ	-2996
▁ెయ్య	-2997
▁ల్ట	-2998
▁ర్సి	-2999
▁లబ	-3000
▁ుతాయి	-3001
▁ెన	-3002
▁నిఫ	-3003
▁్రహ	-3004
▁గ్రే	-3005
▁ాయపడ	-3006
▁గిన	-3007
▁ెగా	-3008
▁ెల్ల	-3009
▁ాశ	-3010
▁సేవ	-3011
▁్యాంగ	-3012
▁మణి	-3013
▁ర్బ	-3014
▁ైస్	-3015
▁పడ్డ	-3016
▁రిణ	-3017
▁ామీల	-3018
▁మేక	-3019
▁రుత	-3020
▁మ్యా	-3021
▁్యాధ	-3022
▁ైర	-3023
▁నిప	-3024
▁జరుప	-3025
▁్టేట్	-3026
▁ఔ	-3027
▁డ్జ	-3028
▁N	-3029
▁گ	-3030
▁్మీ	-3031
▁శాంతి	-3032
▁ద్ర	-3033
▁ద్వ	-3034
▁గ్రా	-3035
▁ర్యా	-3036
▁డుస్త	-3037
▁చేప	-3038
▁ాంప	-3039
▁అడిగ	-3040
▁సిస్ట	-3041
▁లింగ	-3042
▁శంకర్	-3043
▁ార్డు	-3044
▁ౌర	-3045
▁క్రీ	-3046
▁ళా	-3047
▁ుకొ	-3048
▁క్కుల	-3049
▁వార్త	-3050
▁పర్యట	-3051
▁కడ	-3052
▁ుట్ట	-3053
▁అప్	-3054
▁ీలు	-3055
▁ొడు	-3056
▁కర్న	-3057
▁లియన్	-3058
▁పట	-3059
▁ోచ	-3060
▁ేల్	-3061
▁స్తుత	-3062
▁రింగ్	-3063
▁ోర్స్	-3064
▁టెడ్	-3065
▁ొడుకు	-3066
▁ోలీసు	-3067
▁ునర	-3068
▁మున	-3069
▁ంతకు	-3070
▁హన	-3071
▁మల్	-3072
▁ించడం	-3073
▁ిస్ట్	-3074
▁ఆగ	-3075
▁టరీ	-3076
▁ధీన	-3077
▁షేర్	-3078
▁మేం	-3079
▁రియ	-3080
▁ేటీ	-3081
▁ష్యా	-3082
▁ఎగ	-3083
▁ీక్	-3084
▁నామిన	-3085
▁నిన్న	-3086
▁ాణి	-3087
▁న్నా	-3088
▁ెయిన్	-3089
▁ఫిక్	-3090
▁ాదించ	-3091
▁ిపించ	-3092
▁రేట	-3093
▁రిలో	-3094
▁ాళీ	-3095
▁నెట్	-3096
▁సెల్	-3097
▁శ్చి	-3098
▁ుంటూ	-3099
▁రావడం	-3100
▁విప	-3101
▁ప్యా	-3102
▁ೇ	-3103
▁ాదన	-3104
▁ఖర	-3105
▁ినె	-3106
▁ూలు	-3107
▁ల్లె	-3108
▁వేసి	-3109
▁నన్న	-3110
▁ఖండ	-3111
▁గుడ	-3112
▁రైన	-3113
▁కూర్చ	-3114
▁ہے	-3115
▁రవి	-3116
▁సాగు	-3117
ణయ	-3118
మత	-3119
▁ర్ప	-3120
▁మ్ము	-3121
▁ిర్ణయ	-3122
ور	-3123
▁ମ	-3124
▁ంచర	-3125
▁జో	-3126
▁మాజ	-3127
▁ిరం	-3128
▁దేవి	-3129
▁టమ	-3130
▁బై	-3131
▁మౌ	-3132
▁దీప	-3133
▁ాయం	-3134
▁ిపోవ	-3135
▁న్నిక	-3136
▁రీం	-3137
▁కృష	-3138
▁వెన	-3139
▁్సరం	-3140
▁మొత్త	-3141
▁యాక్ట	-3142
▁ఫై	-3143
▁రన్	-3144
▁బ్రా	-3145
▁ెంగ	-3146
▁కేత	-3147
▁డాక	-3148
▁ణకు	-3149
▁పార	-3150
▁లిగ	-3151
▁్వాన	-3152
▁ెలి	-3153
▁్తవ	-3154
▁ణ్	-3155
▁ంతు	-3156
▁దాన్న	-3157
▁కులు	-3158
▁్యార	-3159
▁నిబంధ	-3160
▁నిచ్చ	-3161
▁స్త్ర	-3162
▁షో	-3163
▁చూసి	-3164
▁ంగ్లా	-3165
▁కింగ్	-3166
▁మత	-3167
▁నిక	-3168
▁సున	-3169
▁ఐపీఎ	-3170
▁కప్ప	-3171
▁కేసుల	-3172
▁పంట	-3173
▁కలిస	-3174
▁ెర్	-3175
▁ోంద	-3176
▁వ్వు	-3177
▁కోస	-3178
▁మిట	-3179
▁ముస	-3180
▁c	-3181
▁తని	-3182
▁రాత్ర	-3183
▁త్క	-3184
▁ీపీ	-3185
▁ేమ్	-3186
▁్మి	-3187
▁తోనే	-3188
▁ర్సిట	-3189
▁మర్	-3190
▁ంట్స్	-3191
▁రజ	-3192
▁ింత	-3193
▁ాటా	-3194
▁ుకొని	-3195
▁డ్రా	-3196
▁డ్ల	-3197
▁ీటు	-3198
▁ుట్	-3199
▁ఫైనల్	-3200
▁ంగుల	-3201
▁ుడిని	-3202
▁థకాల	-3203
▁ాద్ర	-3204
▁ుప్ప	-3205
▁ొస	-3206
▁దుక	-3207
▁మరణ	-3208
▁ితి	-3209
▁ప్పగ	-3210
▁ుకునే	-3211
▁ుస	-3212
▁ాస్ప	-3213
▁కాని	-3214
▁పాన్	-3215
▁ః	-3216
▁పం	-3217
▁శ్	-3218
▁డేట	-3219
▁ిద్దర	-3220
▁హబ	-3221
▁దిశ	-3222
▁లుక	-3223
▁సెట	-3224
▁క్కో	-3225
▁ట్లో	-3226
▁ియన్	-3227
▁లుప	-3228
▁ిపి	-3229
▁లిక్	-3230
▁ପ	-3231
▁ామా	-3232
▁యన్	-3233
▁్లాక	-3234
▁్రవర	-3235
▁ర్చల	-3236
▁లాగ	-3237
▁త్తున	-3238
▁హరి	-3239
▁ిజి	-3240
▁నట	-3241
▁మొదట	-3242
la	-3243
▁్రీవ	-3244
▁కార	-3245
▁ఒక్కర	-3246
▁ార్థి	-3247
▁్ఫ	-3248
▁టమి	-3249
▁అనుమత	-3250
▁డుగుల	-3251
▁28	-3252
▁వీల	-3253
▁బాద్	-3254
▁ాలిక	-3255
▁ట్టాల	-3256
▁ండ్ర	-3257
▁దాయం	-3258
▁ార్ల	-3259
▁్రెస్	-3260
▁ుర్	-3261
▁్టూ	-3262
▁వృద్ధ	-3263
▁దో	-3264
▁వణ	-3265
▁ివ్	-3266
▁ెస్టు	-3267
▁కేజ	-3268
▁ీకరణ	-3269
▁ోటి	-3270
▁రంగం	-3271
▁ాలా	-3272
▁చ్చుక	-3273
▁ఘా	-3274
▁కాయ	-3275
▁దివ	-3276
▁్సె	-3277
▁టగా	-3278
▁నిష	-3279
▁మాస్	-3280
▁23	-3281
▁థన	-3282
▁దుర్	-3283
▁్రిక్	-3284
▁ద్దీ	-3285
▁పరిమ	-3286
▁ోవడం	-3287
▁100	-3288
▁సాగుత	-3289
▁డింది	-3290
▁్లిక్	-3291
▁ాత	-3292
▁్వరలో	-3293
▁సేన	-3294
▁ర్క్	-3295
▁గీ	-3296
▁ూరి	-3297
▁क	-3298
▁ోస్	-3299
▁రళ	-3300
▁కాలు	-3301
▁ండియా	-3302
▁్లోకి	-3303
▁హిం	-3304
▁్యర్	-3305
▁మ్మి	-3306
▁మెర	-3307
▁సమయ	-3308
▁ేటు	-3309
▁తీయ	-3310
▁ుడే	-3311
▁ండర్	-3312
▁రాత్	-3313
▁వెన్	-3314
▁ణు	-3315
▁పదే	-3316
▁ఎప్ప	-3317
▁టాని	-3318
▁ాక్ట	-3319
▁ిడి	-3320
▁ిరి	-3321
▁ెప	-3322
▁ర్ద	-3323
▁క్ష్మ	-3324
▁టార్	-3325
▁అవి	-3326
▁ఫీస	-3327
▁ాంక	-3328
▁27	-3329
▁మెజ	-3330
▁ీకు	-3331
er	-3332
▁గోప	-3333
▁సిక	-3334
▁్రణ	-3335
▁ేజ	-3336
▁ేడి	-3337
▁ఆప	-3338
▁ఎడ	-3339
▁హణ	-3340
▁నల్ల	-3341
▁నుమతి	-3342
▁కంట	-3343
▁్రిట	-3344
▁వేత	-3345
▁సైన	-3346
▁ఇచ్చి	-3347
▁ల్వ	-3348
▁జెండ	-3349
▁తేడా	-3350
▁ోనా	-3351
▁ాల్గ	-3352
▁26	-3353
▁టన్	-3354
▁ులై	-3355
▁్రికి	-3356
▁యిన	-3357
▁ీకే	-3358
▁షల్	-3359
▁ఎదుర	-3360
▁కాంత	-3361
▁ాలతో	-3362
an	-3363
▁v	-3364
▁ఆయా	-3365
▁ప్ట	-3366
▁టీడీ	-3367
▁అద	-3368
▁ేబ	-3369
▁ీవీ	-3370
▁ఇవి	-3371
▁షనల్	-3372
▁ుందో	-3373
▁ెప్ప	-3374
▁ేసిన	-3375
▁నొ	-3376
▁ఇప్పట	-3377
▁రణం	-3378
▁ృత	-3379
▁ెహ	-3380
▁ఎండ	-3381
▁ాణాల	-3382
▁ూడె	-3383
▁ంచాయ	-3384
▁ికల	-3385
▁యాప్	-3386
▁సెక	-3387
▁G	-3388
▁తెర	-3389
▁ర్ట్	-3390
▁సత్య	-3391
▁ూస	-3392
▁్టి	-3393
▁అడ్	-3394
▁ప్రవ	-3395
▁వించ	-3396
▁ికర	-3397
▁ాళ్ల	-3398
▁జేశ	-3399
▁జల	-3400
▁ల్డ	-3401
▁స్పె	-3402
▁ుందా	-3403
ار	-3404
▁విత	-3405
▁ంటలు	-3406
▁اس	-3407
▁వహ	-3408
▁ులా	-3409
▁స్సు	-3410
▁యూట్	-3411
▁స్టీ	-3412
▁పర	-3413
▁ంగీ	-3414
▁ాగ్	-3415
▁్సు	-3416
▁అందరి	-3417
▁ెక్ట్	-3418
▁్యారె	-3419
▁వల్	-3420
▁బంగ	-3421
▁ఎలక్	-3422
▁ప్పి	-3423
▁ును	-3424
▁చల్	-3425
▁య్యి	-3426
▁సన్న	-3427
▁ాగు	-3428
▁్లై	-3429
▁ూడెం	-3430
▁ل	-3431
▁ೊ	-3432
▁ూక	-3433
▁తిక	-3434
▁ాతో	-3435
▁ోల్	-3436
▁అల్ల	-3437
▁ଲ	-3438
▁ೀ	-3439
▁నిమ	-3440
▁లవు	-3441
▁ికె	-3442
▁ుగుత	-3443
▁దేశం	-3444
▁పొడ	-3445
▁ల్గ	-3446
▁సత్	-3447
▁ాసం	-3448
▁ూట్	-3449
▁గల్	-3450
▁రేపు	-3451
▁అడుగు	-3452
▁ాజి	-3453
▁డాల	-3454
▁ింక	-3455
▁మీర్	-3456
▁పడి	-3457
▁లక్	-3458
▁లోప	-3459
▁K	-3460
▁ణి	-3461
▁్రెస	-3462
▁డవ	-3463
▁లర	-3464
▁ంటీ	-3465
▁ుబా	-3466
▁జీవి	-3467
▁ారిలో	-3468
▁షియ	-3469
▁ాగర్	-3470
▁్లాస	-3471
▁చర్	-3472
▁హక్	-3473
▁రిశ	-3474
▁చెక్	-3475
▁మంత	-3476
▁స్స	-3477
▁వెంట	-3478
▁ిమానా	-3479
▁్యాక్	-3480
▁వగా	-3481
▁కండ	-3482
▁దాం	-3483
▁ధర్	-3484
▁రేణ	-3485
▁గుల	-3486
▁టిస్త	-3487
▁పీఎస్	-3488
▁భిస్త	-3489
▁తాజా	-3490
▁్లిం	-3491
▁ారంభమ	-3492
▁ువన	-3493
▁పుల్	-3494
▁లిపి	-3495
▁ిద్ధ	-3496
▁ెట్ర	-3497
▁60	-3498
▁జమ	-3499
▁ాథ	-3500
▁ుధ	-3501
▁డల్	-3502
▁సిడ	-3503
▁ేటా	-3504
▁మిన	-3505
▁సమ్మ	-3506
▁కరించ	-3507
▁ందల	-3508
▁క్స	-3509
▁ీకి	-3510
▁کو	-3511
▁వడ	-3512
▁ర్భ	-3513
▁తుల	-3514
▁లివ	-3515
▁సత	-3516
▁లువ	-3517
▁టిక్	-3518
▁జయ	-3519
▁పోర్ట	-3520
▁ఇరు	-3521
▁పంచ	-3522
▁స్పీ	-3523
▁్వుల	-3524
▁హార్	-3525
▁ای	-3526
▁మామ	-3527
▁లిక	-3528
▁బంగార	-3529
▁ికా	-3530
▁ామాల	-3531
▁ుద్ర	-3532
▁రప	-3533
▁లవ	-3534
▁ికెట్	-3535
▁లుగ	-3536
▁ాశ్	-3537
▁ిగ్	-3538
▁మ్యూ	-3539
▁ెక్ష	-3540
▁ొబ	-3541
▁ండా	-3542
▁జనం	-3543
▁ఎంస	-3544
▁యాం	-3545
▁ీరు	-3546
▁పాల్	-3547
▁రికా	-3548
▁్యాయ	-3549
▁వరం	-3550
▁ుదల	-3551
▁డెంట్	-3552
▁ికులు	-3553
▁్వే	-3554
▁డివ	-3555
▁ేము	-3556
▁మన్న	-3557
▁టోర	-3558
▁ూన్	-3559
▁క్షే	-3560
▁ిద్ధం	-3561
▁్సెస్	-3562
▁ాజ్	-3563
▁ుణ్	-3564
▁ప్రమ	-3565
▁ాఖ్య	-3566
▁ెండ్	-3567
▁31	-3568
▁ధ్య	-3569
▁29	-3570
▁ీవో	-3571
▁కార్	-3572
▁స్క్	-3573
▁र	-3574
▁విల	-3575
▁కొన్న	-3576
▁ಜ	-3577
▁ఆట	-3578
▁నకు	-3579
▁ెండ	-3580
▁ోసం	-3581
▁ఇష్ట	-3582
▁ట్యా	-3583
▁ాల్గొ	-3584
▁ిస్ట	-3585
▁చర్యల	-3586
▁చోట	-3587
▁స్ల	-3588
▁తారు	-3589
▁ان	-3590
▁నమ	-3591
▁టూర	-3592
▁ియం	-3593
▁ిక్స	-3594
▁ర్హ	-3595
▁దుర	-3596
▁క్కి	-3597
▁్యాన్	-3598
ేస	-3599
▁్శ	-3600
▁నారా	-3601
▁ంటారు	-3602
on	-3603
ائ	-3604
▁پر	-3605
▁ంజ్	-3606
▁పోట	-3607
▁రస్	-3608
▁నెలకొ	-3609
▁ైట	-3610
▁ెట్రో	-3611
▁۔	-3612
▁p	-3613
▁సార్	-3614
▁ులుగా	-3615
▁r	-3616
▁ాంగ	-3617
▁ించగా	-3618
▁ోగ్ర	-3619
▁ికుల	-3620
▁ప్రాణ	-3621
▁గ్గు	-3622
▁యక్	-3623
▁ిగి	-3624
▁్తి	-3625
▁నిస	-3626
▁ీటర్ల	-3627
▁ోజ	-3628
▁కాశ	-3629
▁ాము	-3630
▁ెక్స	-3631
ar	-3632
▁ହ	-3633
▁క్షణ	-3634
▁డత	-3635
▁ంటల	-3636
▁ేదన	-3637
▁ర్యాల	-3638
▁సల	-3639
▁ందా	-3640
▁త్తా	-3641
▁నార్	-3642
▁్పుల	-3643
▁డిగ	-3644
▁గుడ్	-3645
▁ట్రోల	-3646
▁లిస్ట	-3647
▁హక్కు	-3648
▁ుతారు	-3649
▁ుగు	-3650
▁ఉండటం	-3651
▁ెస	-3652
▁బడి	-3653
▁ెంప	-3654
▁యాన్	-3655
▁యిత	-3656
▁బిల్	-3657
▁సర్వ	-3658
▁D	-3659
▁ీస	-3660
▁ుకుప	-3661
▁త్తుల	-3662
▁భయ	-3663
▁గ్స్	-3664
▁్టిస్	-3665
▁ేచ	-3666
▁కాస	-3667
▁నిన	-3668
▁యాలు	-3669
▁రిస	-3670
▁ైడ	-3671
▁ోబ	-3672
▁గ్గ	-3673
▁తుక	-3674
▁పిల	-3675
▁ఫార	-3676
▁నెట	-3677
▁త్రిక	-3678
▁کا	-3679
▁ాభా	-3680
▁ికీ	-3681
▁ుది	-3682
▁నప	-3683
▁కాక	-3684
▁నాని	-3685
▁జస	-3686
▁్నీ	-3687
▁రిటీ	-3688
▁త్తమ	-3689
▁్యాప్	-3690
▁ూప	-3691
▁తలు	-3692
▁పెడ	-3693
▁చంద	-3694
▁ల్యా	-3695
▁ಚ	-3696
▁డల	-3697
▁తార	-3698
▁వేర	-3699
▁రంగా	-3700
▁బే	-3701
▁లక	-3702
▁ంగు	-3703
▁రహా	-3704
▁ాటి	-3705
▁ప్రో	-3706
▁کر	-3707
▁పెన్	-3708
▁మ్స్	-3709
▁రగతి	-3710
▁ాజీ	-3711
▁రాన్	-3712
▁విష్	-3713
▁సద	-3714
▁శ్రా	-3715
▁జాన	-3716
▁రిచ	-3717
▁ూల్	-3718
▁ాటర్	-3719
▁తద	-3720
▁వాణ	-3721
▁డెన్	-3722
▁యలు	-3723
▁ేరే	-3724
▁ట్లే	-3725
▁పేర	-3726
▁హార	-3727
▁మాచార	-3728
▁కాల్	-3729
▁పాటి	-3730
▁వసర	-3731
▁రక్త	-3732
▁ୟ	-3733
▁⁭	-3734
▁మంద	-3735
▁పడిన	-3736
▁దార	-3737
▁మీర	-3738
▁సభల	-3739
▁ిష్కర	-3740
▁రఫ	-3741
▁ెండి	-3742
▁చ్చి	-3743
▁g	-3744
▁ీజ్	-3745
▁ళ్లు	-3746
▁ిల్స్	-3747
▁పాక్	-3748
▁వర్త	-3749
▁ీశ	-3750
▁కపోయ	-3751
▁ిత్య	-3752
▁విష్య	-3753
▁ిస్టు	-3754
▁దృ	-3755
▁నది	-3756
▁ోడు	-3757
▁వంద	-3758
▁ఫెస	-3759
▁రాక	-3760
▁్తీ	-3761
▁మాకు	-3762
▁ిద్ద	-3763
▁ొమ్మ	-3764
▁ైస	-3765
▁ిమ్	-3766
▁ులి	-3767
▁గాలి	-3768
▁ట్రీ	-3769
▁దూర	-3770
▁డితే	-3771
▁డుగు	-3772
▁వర్క	-3773
▁చదువు	-3774
▁m	-3775
▁ఓట	-3776
▁లాల	-3777
▁టాక్	-3778
▁తాయి	-3779
▁త్సవ	-3780
▁టల్	-3781
▁బియ	-3782
▁బంధు	-3783
▁డియన్	-3784
▁ಎ	-3785
▁కాళ	-3786
▁లుల	-3787
▁ింద్	-3788
▁ఇద	-3789
▁రాబ	-3790
▁బోయ	-3791
▁అంతర	-3792
▁ధి	-3793
▁ీణ	-3794
▁త్రాల	-3795
▁ెంబ	-3796
▁కమ	-3797
▁ెళ	-3798
▁క్స్	-3799
▁ాఖ్యల	-3800
▁పరా	-3801
▁ర్తీ	-3802
▁్యూజ	-3803
▁ిల్లీ	-3804
భావ	-3805
▁ైత	-3806
▁పుణ	-3807
▁రాట	-3808
▁ండింగ	-3809
▁న్నది	-3810
▁రవీ	-3811
▁ర్జీ	-3812
▁్రభావ	-3813
▁యల్	-3814
▁ువా	-3815
▁వెల్	-3816
▁ెటర్	-3817
▁ాణాలు	-3818
▁కొన	-3819
▁దక్	-3820
▁హ్మ	-3821
▁ాతి	-3822
▁ులపై	-3823
▁ుకుంద	-3824
▁k	-3825
▁్యుల	-3826
▁ధు	-3827
▁జిల	-3828
▁దల	-3829
▁్లె	-3830
▁రేజ	-3831
▁ేర్	-3832
▁ెలవ	-3833
▁పక	-3834
▁న్వ	-3835
▁అర్థ	-3836
▁ఆర్ఎ	-3837
▁ଦ	-3838
▁ివ	-3839
▁రీస	-3840
▁ల్లే	-3841
▁డిపోయ	-3842
▁కల్	-3843
▁రంట	-3844
▁ఛా	-3845
▁రాధ	-3846
▁ాలక	-3847
▁ేవు	-3848
▁్రదేశ	-3849
▁ీవ్	-3850
▁్యర్థ	-3851
▁ఇస	-3852
▁తక	-3853
▁కన్	-3854
▁గీత	-3855
▁కోల్	-3856
▁రిశీల	-3857
▁ీష	-3858
▁సుక	-3859
▁ఫా	-3860
▁చక్	-3861
▁మార్	-3862
▁ఎత్తు	-3863
▁V	-3864
▁డీఎ	-3865
▁రివ	-3866
ان	-3867
▁రిజ	-3868
▁ందర్భ	-3869
▁ఆసక్త	-3870
▁نے	-3871
▁ిషి	-3872
▁లేష	-3873
▁ాన్య	-3874
▁బోర్	-3875
▁ూసుక	-3876
▁దున	-3877
▁ేవార	-3878
یڈ	-3879
▁గజ	-3880
▁కెన	-3881
▁ాడి	-3882
▁బంత	-3883
▁ుకా	-3884
▁ిపాల	-3885
▁మాద	-3886
▁వెల	-3887
▁ిథ	-3888
▁ీట	-3889
▁ెం	-3890
▁ిపై	-3891
▁స్టార	-3892
▁లప	-3893
▁ముల	-3894
▁ోయే	-3895
యాల	-3896
▁డో	-3897
▁రోసా	-3898
▁ిషయాల	-3899
▁ش	-3900
▁ట్నం	-3901
▁త్యా	-3902
▁ాష	-3903
▁ేడ్	-3904
▁రులో	-3905
▁్లోనే	-3906
▁జడ	-3907
▁ేన	-3908
లిచి	-3909
▁రని	-3910
▁శ్య	-3911
▁్ధి	-3912
▁ూన	-3913
▁కొల	-3914
▁రిహ	-3915
▁ఆర్ట	-3916
▁ణం	-3917
▁గిత	-3918
▁ట్టడ	-3919
▁ుబాటు	-3920
▁ఏసీ	-3921
▁తడి	-3922
▁యపడ	-3923
▁ేరి	-3924
▁మాన్	-3925
▁ందే	-3926
▁డంలో	-3927
▁ానిక	-3928
▁డప	-3929
▁మక	-3930
▁ీఏ	-3931
▁అడ్డ	-3932
▁నేది	-3933
▁లుగా	-3934
▁ాకర్	-3935
▁ంబర	-3936
▁ఆశ్	-3937
▁ధార	-3938
▁సూర	-3939
▁ప్రశ	-3940
▁రమైన	-3941
▁లాల్	-3942
ال	-3943
▁బర	-3944
▁అటు	-3945
▁రిగా	-3946
▁ోజన	-3947
▁సంస్	-3948
▁కబ	-3949
▁ఫీసర్	-3950
▁ాత్రల	-3951
▁ర్స	-3952
▁ాలె	-3953
▁ితీ	-3954
▁న్నర	-3955
▁ୋ	-3956
▁ఏదో	-3957
▁దరి	-3958
▁ండగా	-3959
▁క్షం	-3960
▁ర్తి	-3961
▁స్తా	-3962
▁అడ	-3963
▁త్తం	-3964
▁నివార	-3965
▁ాపు	-3966
▁టివ్	-3967
▁ిగ్గ	-3968
▁ిగారు	-3969
▁ోయారు	-3970
▁అబ	-3971
▁ଇ	-3972
▁టెం	-3973
▁అశ	-3974
▁రొ	-3975
▁గ్గా	-3976
▁డిపి	-3977
▁ిత్ర	-3978
▁ಅ	-3979
▁ావర	-3980
▁ప్రీ	-3981
▁రారు	-3982
▁వహించ	-3983
▁ెన్న	-3984
▁ಶ	-3985
▁ాకర	-3986
▁ావు	-3987
▁ియర్	-3988
▁سے	-3989
▁మాల	-3990
▁లవా	-3991
▁ోక్	-3992
▁కలిగి	-3993
▁స్టే	-3994
▁ౌత	-3995
▁కుం	-3996
▁ిచ్	-3997
▁్శించ	-3998
▁e	-3999
▁न	-4000
▁్ద	-4001
▁వంతం	-4002
▁ారంలో	-4003
▁టవ	-4004
▁యజ	-4005
▁ాష్	-4006
▁ంటర్	-4007
▁#	-4008
▁అమల	-4009
▁్వి	-4010
▁ోర్స	-4011
▁్మాన	-4012
▁ికంగా	-4013
▁ଟ	-4014
▁యే	-4015
▁రాల	-4016
▁ీగా	-4017
▁పత	-4018
▁ుతు	-4019
▁ఎక్క	-4020
▁డింగ్	-4021
▁ీఎ	-4022
▁అల్	-4023
▁కరం	-4024
▁ీతం	-4025
▁ೂ	-4026
▁నాట	-4027
▁ిపక్ష	-4028
▁కట్	-4029
▁అనంత	-4030
▁ఆదాయ	-4031
▁ఇం	-4032
▁ైక	-4033
▁చార	-4034
▁యంత	-4035
▁ీఎం	-4036
▁ଏ	-4037
▁పుత	-4038
▁ానా	-4039
▁్యవ	-4040
▁హారం	-4041
▁ంక్	-4042
▁ిక్ష	-4043
▁ార్క్	-4044
▁్రేక్	-4045
▁ోలో	-4046
▁డాది	-4047
▁ల్ని	-4048
▁70	-4049
▁ర్డ్	-4050
▁రత	-4051
▁అంగ	-4052
▁ాయు	-4053
▁ాడ్	-4054
▁ాలయం	-4055
▁ొట్ట	-4056
▁కారుల	-4057
▁H	-4058
▁వంట	-4059
▁గ్రీ	-4060
▁వన	-4061
▁అధి	-4062
▁ివి	-4063
▁యిల్	-4064
▁ాన్స	-4065
▁్యూట	-4066
▁కలక	-4067
▁నిల్	-4068
▁పోవ	-4069
▁యన్న	-4070
▁యోగం	-4071
▁నగా	-4072
▁సంక	-4073
▁ఆర్డ	-4074
▁ీళ్ల	-4075
▁యటి	-4076
▁పార్ట	-4077
▁తూర	-4078
▁యాల	-4079
▁సాం	-4080
▁్ను	-4081
▁స్కూ	-4082
▁పౌ	-4083
▁షు	-4084
▁డిచ	-4085
▁పిల్ల	-4086
▁యింది	-4087
▁ైవ	-4088
▁ైకి	-4089
▁్పీ	-4090
▁ిధుల	-4091
▁వాట	-4092
▁న్నం	-4093
▁ితుల	-4094
▁నియర్	-4095
یو	-4096
▁పబ	-4097
▁రిల	-4098
▁ిరా	-4099
th	-4100
▁శని	-4101
▁లియా	-4102
▁వాడు	-4103
▁ంచు	-4104
▁లేట	-4105
▁ావా	-4106
▁ಆ	-4107
▁ೈ	-4108
▁ూత్	-4109
▁క్య	-4110
▁्	-4111
▁తామ	-4112
▁నీల	-4113
▁ముక	-4114
▁ోని	-4115
▁80	-4116
▁ుఖ	-4117
▁ండల	-4118
▁లెట్	-4119
▁సుప	-4120
▁న్యం	-4121
▁ైం	-4122
▁ొమ	-4123
▁పడే	-4124
▁ిహ	-4125
▁ట్స్	-4126
▁మించ	-4127
▁b	-4128
▁ಷ	-4129
▁ణ్య	-4130
▁లుత	-4131
▁పట్టు	-4132
▁L	-4133
▁గిల	-4134
▁ైంద	-4135
యక	-4136
▁ీప్	-4137
▁ంతి	-4138
▁విశ్	-4139
▁గే	-4140
▁రట	-4141
▁ాయమ	-4142
▁ూబ్	-4143
▁ార్యక	-4144
▁ెమ	-4145
▁ెట్టి	-4146
▁సగ	-4147
▁ుపుత	-4148
▁ెల్లడ	-4149
▁తృ	-4150
▁తరుల	-4151
▁జామ	-4152
▁ారే	-4153
▁కాలన	-4154
▁నాన్	-4155
▁వ్యూ	-4156
▁్రస్త	-4157
▁E	-4158
▁کہ	-4159
▁చివ	-4160
▁ోలే	-4161
▁ాభ	-4162
▁ుపా	-4163
▁ెట్ల	-4164
▁ైద	-4165
▁రిత	-4166
▁పన్న	-4167
▁ొత్తగ	-4168
▁లూ	-4169
▁మెట	-4170
▁ଣ	-4171
▁ఎన	-4172
▁జమాన	-4173
▁ావించ	-4174
▁రీత	-4175
▁రెడ్	-4176
▁।	-4177
▁లాప	-4178
▁ేపు	-4179
▁వాలంట	-4180
▁35	-4181
▁పట్	-4182
▁చదువ	-4183
▁నెల్	-4184
▁సవ	-4185
▁త్తల	-4186
▁్యాట	-4187
▁త్తగా	-4188
ئی	-4189
▁ీప	-4190
▁ాయిల	-4191
▁దుప	-4192
▁జార్	-4193
▁దన్న	-4194
▁క్త	-4195
▁మూల	-4196
▁అవిన	-4197
▁ప్రె	-4198
▁ార్డ్	-4199
▁సరా	-4200
▁ారిన	-4201
▁గతం	-4202
▁బాగ	-4203
▁ినే	-4204
de	-4205
▁ంత్	-4206
▁బ్రి	-4207
▁ଥ	-4208
▁భర	-4209
▁200	-4210
▁లోన	-4211
▁ఎవరి	-4212
▁రుపు	-4213
▁స్మా	-4214
▁ిండి	-4215
▁ృతి	-4216
▁నుంద	-4217
▁్వాల	-4218
▁గన్	-4219
▁ులే	-4220
▁లింగ్	-4221
▁ీసీసీ	-4222
▁ెలిచి	-4223
▁పణ	-4224
▁ఏమీ	-4225
▁ుతో	-4226
▁ుమతి	-4227
▁గంగ	-4228
▁ింగ	-4229
▁యంగా	-4230
▁రిస్	-4231
▁రుస్త	-4232
▁ہو	-4233
▁ణన	-4234
▁ట్టల	-4235
▁చెన్న	-4236
ూప	-4237
▁ోం	-4238
▁రాహ	-4239
▁లాగే	-4240
▁ోస	-4241
▁మావ	-4242
▁పిల్	-4243
▁ಣ	-4244
▁اور	-4245
▁సిర	-4246
▁ెళ్త	-4247
▁లాండ్	-4248
▁ీలోని	-4249
ెన	-4250
▁45	-4251
▁ఓప	-4252
▁సన	-4253
▁ోళ	-4254
▁ందం	-4255
▁దుబ	-4256
▁మరీ	-4257
▁ేణు	-4258
▁్వల	-4259
▁క్కా	-4260
▁దులు	-4261
▁రుచ	-4262
▁్టీ	-4263
▁ఓపెన	-4264
▁ంజన	-4265
▁వరణ	-4266
▁చేయడ	-4267
▁శారు	-4268
▁ులుగ	-4269
▁గ్రూప	-4270
▁ెల్లి	-4271
▁దర్	-4272
▁భాస	-4273
▁పాడ	-4274
▁సాహ	-4275
▁ితం	-4276
▁ేవి	-4277
▁పంలో	-4278
▁J	-4279
▁నీట	-4280
▁హర్	-4281
▁ాఖల	-4282
▁ాదం	-4283
▁े	-4284
▁షీ	-4285
▁లన్న	-4286
▁శాల	-4287
▁్ట్	-4288
▁్వక	-4289
▁ాస్క	-4290
▁ిగిప	-4291
ea	-4292
▁ہے۔	-4293
▁్పా	-4294
▁ٹ	-4295
▁ಧ	-4296
▁in	-4297
▁ఏడ	-4298
▁డగ	-4299
▁పట్న	-4300
▁ଛ	-4301
▁శాత	-4302
▁క్రె	-4303
▁ప్రచ	-4304
▁ుభ	-4305
▁రుక	-4306
▁కెట్	-4307
▁క్వా	-4308
▁్రీల	-4309
▁రద	-4310
▁మాయ	-4311
▁రార	-4312
▁వాన	-4313
▁సాల	-4314
▁వాన్	-4315
▁ిసే	-4316
▁ోపి	-4317
▁్రసా	-4318
in	-4319
▁వత	-4320
▁పాఠ	-4321
▁మూర	-4322
▁ీతి	-4323
▁థా	-4324
▁మధ	-4325
▁ఇంద	-4326
▁ଭ	-4327
▁యె	-4328
▁భవి	-4329
▁పాలు	-4330
▁్రసాద	-4331
▁کیا	-4332
▁కిన	-4333
▁ణాలు	-4334
▁తీసి	-4335
▁ికే	-4336
▁్యత్	-4337
▁మాండ్	-4338
▁హ్	-4339
▁కోడ	-4340
▁ట్టే	-4341
▁భవిష	-4342
▁ిమాండ	-4343
▁డార	-4344
▁ంగానే	-4345
▁మార్క	-4346
▁ొట్టి	-4347
▁U	-4348
▁90	-4349
▁ూడి	-4350
▁ప్రెస	-4351
▁ెలుసు	-4352
▁l	-4353
▁ఆస్త	-4354
▁ుబడి	-4355
▁ుపర	-4356
▁ేసే	-4357
▁తిరిగ	-4358
▁ండీ	-4359
▁కుంటే	-4360
▁ఏట	-4361
▁ణాల	-4362
▁ట్రే	-4363
▁త్రం	-4364
▁ంగంలో	-4365
▁లయ	-4366
▁నికి	-4367
▁సర్క	-4368
▁ాచార	-4369
▁ట్రాక	-4370
ئے	-4371
▁ଡ	-4372
▁ఉమ	-4373
▁ఎమ	-4374
▁ండు	-4375
▁గతి	-4376
▁విస	-4377
▁ావి	-4378
▁ిసిన	-4379
ھا	-4380
▁ఎద	-4381
▁వం	-4382
▁ెట్టు	-4383
▁కాప	-4384
▁షన్స్	-4385
▁ti	-4386
▁్జ	-4387
▁ప్పల	-4388
▁ైర్మ	-4389
▁నపై	-4390
▁రత్	-4391
▁ివార	-4392
▁ామెంట	-4393
▁آ	-4394
▁తత	-4395
▁ానే	-4396
▁ిన్స	-4397
▁ि	-4398
▁శీ	-4399
▁ర్శ	-4400
▁డిస్	-4401
▁రాయి	-4402
▁్యాస	-4403
▁ఏటా	-4404
▁హాల	-4405
▁్సా	-4406
▁स	-4407
▁na	-4408
▁ఉత్	-4409
▁బీఐ	-4410
▁్లీలో	-4411
▁రౌ	-4412
▁దన్	-4413
▁మంట	-4414
▁ేలు	-4415
▁ఇందు	-4416
▁డియో	-4417
▁లింప	-4418
▁ోయిన	-4419
▁F	-4420
▁మస	-4421
▁లేర	-4422
▁విరా	-4423
▁పాక	-4424
▁ଜ	-4425
▁రుమ	-4426
▁లీక	-4427
▁ిచి	-4428
▁ిలిం	-4429
▁ీఎస్	-4430
▁;	-4431
▁థి	-4432
▁మగ	-4433
▁ేవ	-4434
▁ంటర	-4435
▁ౌండ	-4436
▁ెక్స్	-4437
▁म	-4438
▁ह	-4439
▁O	-4440
▁ేం	-4441
▁వాళ	-4442
▁వీడ	-4443
▁పారి	-4444
▁కోవ	-4445
▁ీరా	-4446
▁ంచార	-4447
▁హు	-4448
▁ేపట	-4449
▁దించ	-4450
▁దిరి	-4451
గ్	-4452
▁ଯ	-4453
▁ంజా	-4454
▁బాద	-4455
▁దార్	-4456
▁యంతో	-4457
▁ష్టం	-4458
▁కొందర	-4459
▁హోం	-4460
▁జెన్స	-4461
▁కత	-4462
▁బస	-4463
▁యూని	-4464
▁،	-4465
▁Ra	-4466
▁ایک	-4467
▁అందర	-4468
▁ఘటనల	-4469
▁బంధం	-4470
▁ెంబర	-4471
▁్నాన	-4472
ri	-4473
▁రుద	-4474
▁ిలా	-4475
లే	-4476
▁లిత	-4477
▁్లూ	-4478
▁టీటీ	-4479
▁తరలి	-4480
▁w	-4481
▁ేక	-4482
▁శ్వర	-4483
▁ావరణ	-4484
▁ోగుల	-4485
▁ికారు	-4486
▁చని	-4487
▁్రత	-4488
▁పొర	-4489
▁యస్	-4490
▁ారిప	-4491
▁లిట	-4492
▁హాయ	-4493
▁వర్స	-4494
▁తడ	-4495
▁ూబ	-4496
▁ేఖ	-4497
▁రువ	-4498
▁ోవా	-4499
▁ిలియ	-4500
▁ెలుస	-4501
▁ర్డుల	-4502
▁కలు	-4503
▁జన్	-4504
▁మాస	-4505
▁ఎక్స	-4506
▁ద్వార	-4507
▁ుట్టు	-4508
ام	-4509
▁ଆ	-4510
▁ీద	-4511
▁చిల	-4512
▁నీర	-4513
▁డుపు	-4514
▁యింట	-4515
▁ెచ్చ	-4516
▁ైప	-4517
▁శిల	-4518
▁ెగ్	-4519
▁ండగ	-4520
▁కరమ	-4521
▁ితమ	-4522
▁ాశాల	-4523
▁బోర్డ	-4524
▁ف	-4525
▁ిటి	-4526
▁్జా	-4527
▁్షణ	-4528
▁చర్ల	-4529
▁ంగి	-4530
▁ఈసీ	-4531
▁చిక	-4532
▁ాగి	-4533
▁మించి	-4534
▁న్నార	-4535
▁ాఖ	-4536
▁ైమ	-4537
▁్ది	-4538
▁రుతు	-4539
▁రోల్	-4540
or	-4541
▁ుం	-4542
▁500	-4543
▁ాడుక	-4544
▁కటి	-4545
▁ాయా	-4546
▁జనాల	-4547
▁రిపో	-4548
▁్వాత	-4549
▁లన్నీ	-4550
▁ఇటు	-4551
▁దిలా	-4552
نے	-4553
▁AL	-4554
▁టాన్	-4555
▁స్సా	-4556
▁డిక	-4557
▁రుస	-4558
▁ామం	-4559
▁ుంచ	-4560
▁ిశ్ర	-4561
▁కలె	-4562
▁గిర	-4563
▁న్ష	-4564
▁ూసి	-4565
▁కొని	-4566
▁క్తం	-4567
▁ాకపో	-4568
▁గాల	-4569
▁రాణ	-4570
▁ేశా	-4571
▁చూస్త	-4572
▁ారీగా	-4573
▁त	-4574
▁నరు	-4575
▁నలో	-4576
▁ుస్	-4577
▁తిష్	-4578
▁మిని	-4579
▁ోట్ల	-4580
▁్యాలు	-4581
▁కరు	-4582
▁కాం	-4583
▁ౌక	-4584
▁మ్య	-4585
▁చేశా	-4586
▁యితే	-4587
▁శ్రమ	-4588
▁చనిపో	-4589
▁ుకోవడ	-4590
▁ోర్ట్	-4591
EA	-4592
لی	-4593
یڈیو	-4594
▁బంగా	-4595
▁ాలుగా	-4596
al	-4597
▁an	-4598
▁లత	-4599
▁త్న	-4600
▁ికలు	-4601
▁్లిక	-4602
▁అజ	-4603
▁ఆర	-4604
▁ౌడ	-4605
▁ముడ	-4606
▁రుగ	-4607
▁ితు	-4608
▁రామా	-4609
وی	-4610
▁ra	-4611
▁ాజమ	-4612
▁ویڈیو	-4613
▁ल	-4614
▁ఝ	-4615
▁କର	-4616
▁హస	-4617
▁పుల	-4618
▁మెద	-4619
▁పెండ	-4620
▁నాన్న	-4621
▁్లే	-4622
▁అక్క	-4623
▁ిగించ	-4624
▁ేసింద	-4625
▁రణి	-4626
▁ాత్	-4627
▁ందుత	-4628
▁కప్పు	-4629
▁ెసి	-4630
▁మైంద	-4631
SO	-4632
▁W	-4633
▁ಇ	-4634
▁బండ	-4635
▁అడుగ	-4636
▁యింద	-4637
▁ణల	-4638
▁ుళ	-4639
▁ొగ	-4640
▁ండ్రి	-4641
▁వాలని	-4642
om	-4643
▁ల్ద	-4644
▁ిజం	-4645
▁ంకర్	-4646
▁జైల	-4647
▁మాం	-4648
▁దారు	-4649
▁తప	-4650
▁కిష	-4651
▁గార	-4652
▁టైం	-4653
▁నాల్	-4654
EAD	-4655
▁వంగ	-4656
▁సీస	-4657
▁READ	-4658
▁శో	-4659
▁యూజ	-4660
▁گیا	-4661
▁ALSO	-4662
▁ుల్ల	-4663
▁ంపు	-4664
▁ీలను	-4665
▁కొచ్చ	-4666
▁ं	-4667
▁ଉ	-4668
▁రంజ	-4669
▁తక్క	-4670
▁ర్వా	-4671
▁సిస్	-4672
▁ాబట్ట	-4673
ھی	-4674
▁ిపోయి	-4675
▁ी	-4676
▁ଅ	-4677
్యం	-4678
▁టల	-4679
▁బంద	-4680
▁సెల	-4681
▁ుమత	-4682
▁గట్ట	-4683
▁నుండ	-4684
▁రుగు	-4685
▁లోనూ	-4686
▁ిష్య	-4687
▁పత్తి	-4688
▁""	-4689
▁అన్	-4690
▁కొం	-4691
ات	-4692
▁sh	-4693
▁మీట	-4694
▁రపు	-4695
▁ేయర	-4696
▁ళ్లలో	-4697
▁وں	-4698
▁కడప	-4699
▁రికల	-4700
▁75	-4701
▁یہ	-4702
▁బాట	-4703
▁కాలే	-4704
▁చిన్	-4705
▁ాన్న	-4706
▁టిల	-4707
▁డీల	-4708
▁పోస	-4709
▁రంభ	-4710
▁కుడు	-4711
▁చివర	-4712
▁పత్ర	-4713
▁భక్త	-4714
▁ందరి	-4715
▁మాల్	-4716
▁ౌల	-4717
▁వత్	-4718
▁ట్టం	-4719
.5	-4720
▁భో	-4721
▁ంద్	-4722
▁పిం	-4723
▁వడం	-4724
▁ీఫ్	-4725
▁క్రా	-4726
▁క్రి	-4727
▁్రిల్	-4728
▁प	-4729
▁ష్క	-4730
di	-4731
▁ଗ	-4732
▁కెర	-4733
▁తాయ	-4734
▁లాస	-4735
▁స్థా	-4736
▁ద్దని	-4737
▁ాళ్లు	-4738
▁శం	-4739
▁పైగా	-4740
▁మర్శ	-4741
ری	-4742
▁మాని	-4743
▁ేర్చ	-4744
▁ుతాయ	-4745
▁ಭ	-4746
▁ట్రి	-4747
▁న్లు	-4748
▁్టాల	-4749
▁గవ	-4750
▁డట	-4751
▁ఖాన	-4752
▁ీదు	-4753
▁టిస్	-4754
▁ురించ	-4755
▁పశ	-4756
▁ెజ	-4757
▁వలన	-4758
▁వేట	-4759
▁ోగా	-4760
▁కరాల	-4761
▁చైర్	-4762
▁జిల్	-4763
▁డిగి	-4764
▁ాహి	-4765
▁డ్డు	-4766
▁్గుర	-4767
▁్దేశ	-4768
▁్వేష	-4769
▁ల్లుల	-4770
▁హం	-4771
▁రిమ	-4772
▁మిస్	-4773
▁కై	-4774
▁షి	-4775
▁నాం	-4776
▁రుడు	-4777
▁స్కా	-4778
▁ానిస	-4779
▁य	-4780
▁మిల	-4781
▁్కా	-4782
▁ేజీల	-4783
sh	-4784
▁36	-4785
▁ృత్	-4786
▁రాని	-4787
▁వితం	-4788
▁వేర్	-4789
▁రబ	-4790
▁ہیں	-4791
▁జల్	-4792
▁లూర	-4793
▁లికి	-4794
▁ర్లలో	-4795
▁ఐద	-4796
▁ాంట	-4797
▁్రవ	-4798
▁ాక్స్	-4799
لا	-4800
▁నుల	-4801
▁రష్	-4802
▁స్కర	-4803
▁కొద్ద	-4804
▁ఆటో	-4805
▁్బం	-4806
▁ట్లను	-4807
▁ల్యాణ	-4808
▁چ	-4809
▁గట	-4810
▁జం	-4811
▁కొర	-4812
▁ురు	-4813
▁రికి	-4814
జక	-4815
▁ంచి	-4816
▁ోటు	-4817
▁ంధ్ర	-4818
▁గం	-4819
▁ివర్	-4820
le	-4821
▁ఆరా	-4822
▁టిఫ	-4823
▁డ్య	-4824
▁సైట	-4825
▁ర్లను	-4826
చేస	-4827
▁పోయి	-4828
▁ిలిప	-4829
▁్యాక	-4830
▁నిచేస	-4831
▁Y	-4832
▁ୀ	-4833
▁tt	-4834
▁ుకల	-4835
▁ూమ	-4836
▁పాలి	-4837
▁మిర	-4838
▁మైనా	-4839
▁అప్పు	-4840
▁ుర్తి	-4841
▁ఫల	-4842
▁ంతక	-4843
▁మీప	-4844
▁ాటల	-4845
▁్నల	-4846
▁డ్డా	-4847
▁విన్	-4848
▁ాలోని	-4849
▁X	-4850
▁అక్	-4851
▁అలీ	-4852
▁లయా	-4853
▁శనం	-4854
▁్గా	-4855
▁ుఖ్యం	-4856
▁ియోజక	-4857
▁300	-4858
▁ోషి	-4859
▁ఇన్న	-4860
▁టుగా	-4861
▁మద్ద	-4862
▁48	-4863
▁గళ	-4864
▁డక	-4865
▁దయ	-4866
▁ేయి	-4867
▁ాయకు	-4868
▁*	-4869
▁టక	-4870
▁హే	-4871
▁బిన	-4872
▁ికార	-4873
▁ోన్ల	-4874
▁33	-4875
▁ాడే	-4876
▁ెడు	-4877
▁్మర	-4878
▁ందాల	-4879
▁హ్యా	-4880
▁కొడ	-4881
▁జయ్	-4882
▁లన్	-4883
▁క్కల	-4884
▁యిస్	-4885
▁ఒకట	-4886
▁తాల	-4887
▁వివ	-4888
▁హ్య	-4889
▁ుక్ర	-4890
▁32	-4891
▁ంజి	-4892
▁ఖాత	-4893
▁ంలోనే	-4894
یک	-4895
▁ధవ	-4896
▁ృద	-4897
▁దరు	-4898
▁శలు	-4899
▁ీడీ	-4900
▁దరిక	-4901
▁ଖ	-4902
▁పాయి	-4903
▁వ్వా	-4904
▁కాశాల	-4905
▁vi	-4906
▁మోద	-4907
▁పాడు	-4908
▁ోవాలి	-4909
▁ఘో	-4910
▁పస	-4911
▁నూర	-4912
▁సిల	-4913
▁ంద్రా	-4914
▁ాయుడు	-4915
da	-4916
▁u	-4917
▁దవ	-4918
▁షణ	-4919
▁ఘోర	-4920
▁బీజ	-4921
▁ట్లా	-4922
▁ంహ	-4923
▁టూ	-4924
▁బలం	-4925
▁్లు	-4926
▁కుంట	-4927
▁పుడు	-4928
▁్రామా	-4929
▁లబ్	-4930
▁ాయన	-4931
▁ితులు	-4932
▁ేశాడు	-4933
▁ండర	-4934
▁టీం	-4935
▁బట్ట	-4936
▁బయటప	-4937
▁శ్వాస	-4938
▁ుండటం	-4939
▁్గ	-4940
▁దైన	-4941
▁దురు	-4942
▁ెంట్ల	-4943
ol	-4944
▁Re	-4945
▁ఫోర	-4946
▁ేనని	-4947
▁ుతుంద	-4948
▁te	-4949
▁కాన	-4950
▁చెం	-4951
▁సిప	-4952
▁్నె	-4953
▁మ్మె	-4954
▁ాదాలు	-4955
▁ారాలు	-4956
▁దడ	-4957
▁చిద	-4958
▁బల్	-4959
▁డిని	-4960
▁ర్మన	-4961
▁द	-4962
▁కద	-4963
▁ంకే	-4964
▁ధ్ర	-4965
▁కాశం	-4966
▁ేశారు	-4967
he	-4968
▁42	-4969
▁పగ	-4970
▁మం	-4971
▁పెర	-4972
▁వేడ	-4973
▁తిన్	-4974
▁న్నద	-4975
▁లయ్య	-4976
▁ేటర్	-4977
▁గన	-4978
▁డొ	-4979
▁మయ	-4980
▁తమ్	-4981
▁డ్స్	-4982
▁భివృ	-4983
▁మాండ	-4984
▁వకాశ	-4985
▁యోగాల	-4986
▁పవన	-4987
▁్రాస	-4988
▁్ఘ	-4989
▁ిజ్	-4990
▁ియాల	-4991
▁లున్న	-4992
▁ోస్ట్	-4993
▁శాం	-4994
▁ీజీ	-4995
▁టుకు	-4996
▁్ణ	-4997
▁జ్ర	-4998
▁వైసీ	-4999
▁యిస్త	-5000
▁ح	-5001
▁ీఫ	-5002
▁ందన	-5003
▁లాట	-5004
▁్యమ	-5005
▁లాన్	-5006
▁ోపాల	-5007
▁మ్యాచ	-5008
▁్వాన్	-5009
lu	-5010
▁దగ	-5011
▁ెరిగి	-5012
▁రుకు	-5013
▁ెట్లు	-5014
ga	-5015
▁ଳ	-5016
▁చొ	-5017
▁ంకో	-5018
▁ోసి	-5019
▁్డ్	-5020
▁37	-5021
▁ఆల్	-5022
▁ఔట్	-5023
▁టలో	-5024
▁ిసి	-5025
▁ری	-5026
▁ంకర	-5027
▁ంటో	-5028
▁గుప	-5029
▁సగం	-5030
▁ہم	-5031
▁్యో	-5032
▁ప్రి	-5033
▁రణాల	-5034
▁34	-5035
▁ుపై	-5036
▁్కీ	-5037
▁తులు	-5038
▁బ్లీ	-5039
▁ర్గా	-5040
▁ర్లకు	-5041
▁ేస్తే	-5042
▁్రాన్	-5043
▁బం	-5044
▁ెవ	-5045
▁وائ	-5046
▁ింహ	-5047
▁లిసి	-5048
▁ଧ	-5049
▁రాధా	-5050
▁సెస్	-5051
▁ిర్య	-5052
ab	-5053
▁150	-5054
▁రిక్	-5055
▁కాలేజ	-5056
▁ଙ	-5057
▁నవర	-5058
▁రీల	-5059
▁త్రా	-5060
▁పండు	-5061
▁మూర్	-5062
▁ిన్నా	-5063
▁ేస్తా	-5064
▁యంగ	-5065
▁వీస	-5066
▁ణంలో	-5067
▁గిపోయ	-5068
ya	-5069
▁ిభ	-5070
రుగు	-5071
▁దయా	-5072
▁రేష	-5073
▁నప్ప	-5074
▁ారించ	-5075
st	-5076
▁nd	-5077
▁రోహ	-5078
▁సుమ	-5079
▁ోగి	-5080
▁్మల	-5081
▁ుఖ్	-5082
▁ెను	-5083
▁స్సుల	-5084
▁చల	-5085
▁లలు	-5086
▁ెరి	-5087
▁ిలువ	-5088
▁కట్టు	-5089
▁یا	-5090
▁ఏది	-5091
▁తరం	-5092
▁తాడ	-5093
▁పీడ	-5094
▁లాక్	-5095
▁ెడ్డ	-5096
▁కెళ్ల	-5097
▁క్కర్	-5098
▁గర	-5099
▁ృష	-5100
▁లెట	-5101
▁ీసీ	-5102
▁ుణం	-5103
▁్వీ	-5104
▁వింద	-5105
▁ండ్లు	-5106
▁్తారు	-5107
▁%	-5108
▁పటి	-5109
▁బెల	-5110
▁రాద	-5111
▁వాయ	-5112
▁ిధి	-5113
▁ేరా	-5114
▁పీసీ	-5115
▁ع	-5116
▁ो	-5117
▁హద	-5118
▁మెజా	-5119
▁్నాయ	-5120
▁్రాఫ	-5121
▁ట్రాన	-5122
▁తున్న	-5123
ir	-5124
ند	-5125
▁ెబ	-5126
▁tion	-5127
▁ప్రద	-5128
▁ిలిచ	-5129
▁ుమార	-5130
▁ఎక	-5131
▁ేడ	-5132
నుగో	-5133
▁చుక	-5134
▁రకు	-5135
▁ల్చ	-5136
▁ాడా	-5137
▁ీనం	-5138
▁శిక్	-5139
▁ాట్ల	-5140
▁మరికొ	-5141
▁ాయకుడ	-5142
▁ొనుగో	-5143
▁డుప	-5144
▁ర్డ	-5145
▁ినో	-5146
▁గంగా	-5147
▁్యలో	-5148
▁కట	-5149
▁ొట	-5150
▁పాస	-5151
▁భయం	-5152
▁ీటీ	-5153
▁ధిలో	-5154
am	-5155
▁h	-5156
▁ଚ	-5157
▁జంట	-5158
▁ీటర	-5159
▁ీఎల్	-5160
▁خ	-5161
▁ط	-5162
▁యిద	-5163
▁ేడు	-5164
▁ర్టీ	-5165
▁ాపుర	-5166
▁ప్రకా	-5167
▁వర్షా	-5168
▁సభ్యు	-5169
▁్టడ	-5170
▁త్రు	-5171
▁నగరం	-5172
▁ాదాల	-5173
▁రల	-5174
▁Cha	-5175
▁ోతు	-5176
▁తిరు	-5177
▁జరిగి	-5178
▁ಖ	-5179
▁ఐదో	-5180
▁షర్	-5181
▁్యల	-5182
▁మానం	-5183
▁వాదం	-5184
▁్యాప	-5185
▁మార్ప	-5186
▁o	-5187
▁మద	-5188
▁com	-5189
▁నివ	-5190
▁ుపుల	-5191
▁ఫే	-5192
▁ెత	-5193
▁తెగ	-5194
▁పాయ	-5195
▁యాడ	-5196
▁లార	-5197
▁ాసు	-5198
▁దిగి	-5199
▁రిపోయ	-5200
▁ొచ్చి	-5201
ic	-5202
va	-5203
▁نہ	-5204
▁యశ	-5205
▁ేకర	-5206
▁పిక్	-5207
▁విధి	-5208
▁ాయించ	-5209
▁ిర్యా	-5210
▁ూపించ	-5211
رل	-5212
▁AI	-5213
▁ఇన	-5214
▁డేవ	-5215
▁ాలీ	-5216
▁ందన్	-5217
▁కాలి	-5218
▁ర్చి	-5219
▁ళ్లకు	-5220
▁డూ	-5221
▁ఆప్	-5222
▁ఉదయ	-5223
▁బార	-5224
▁చేరి	-5225
▁ట్టిన	-5226
▁చక	-5227
▁ెష	-5228
▁ేళ	-5229
▁తకు	-5230
▁ప్య	-5231
▁ాచ్	-5232
▁్లర	-5233
▁రణకు	-5234
▁తామని	-5235
▁پی	-5236
▁రిష	-5237
▁సంబ	-5238
▁చేయి	-5239
▁లిటీ	-5240
▁మిస్త	-5241
టల	-5242
▁లీల	-5243
▁వరక	-5244
▁విమ	-5245
ew	-5246
تے	-5247
▁ଷ	-5248
లీజ	-5249
▁ణిక	-5250
▁్మద	-5251
▁్మా	-5252
▁ాణిక	-5253
▁్యూర	-5254
▁రిలీజ	-5255
▁ಫ	-5256
▁తిప	-5257
▁ండాల	-5258
▁రన్న	-5259
▁ంచం	-5260
▁ఈవో	-5261
▁దంట	-5262
▁లేవ	-5263
▁ళం	-5264
▁ఫిక	-5265
▁ీసు	-5266
▁్సి	-5267
▁ాముల	-5268
▁టన	-5269
▁ందీ	-5270
▁కంగ	-5271
▁చిత	-5272
▁ణలు	-5273
▁లిన	-5274
▁ోలి	-5275
▁وائرل	-5276
▁ందించ	-5277
وں	-5278
▁ଶ	-5279
▁డద	-5280
▁్దీ	-5281
▁ప్పం	-5282
▁క్యాప	-5283
▁్సిటీ	-5284
ala	-5285
▁vs	-5286
▁గుం	-5287
▁యాన	-5288
▁ిపే	-5289
▁ంగల్	-5290
▁ిరిగ	-5291
▁ब	-5292
▁ంస్	-5293
▁ోత్	-5294
▁కవర్	-5295
▁తీర్	-5296
▁ోలేద	-5297
▁కేషన్	-5298
▁్కార్	-5299
▁నిఖ	-5300
▁ాబు	-5301
▁ేశవ	-5302
▁నంగా	-5303
▁व	-5304
▁38	-5305
▁55	-5306
▁అక	-5307
▁తూ	-5308
▁ఘనత	-5309
▁డని	-5310
▁శీల	-5311
▁ాద్	-5312
▁రాసి	-5313
▁ువ్వ	-5314
▁వడంతో	-5315
▁ున్నద	-5316
▁f	-5317
▁ज	-5318
▁ౖ	-5319
▁ివే	-5320
▁డర్ల	-5321
▁యోగి	-5322
▁వకాశా	-5323
▁్ట్రా	-5324
▁శర	-5325
▁...	-5326
▁ిచే	-5327
▁తాలు	-5328
▁్తాన	-5329
▁ప్రాం	-5330
▁తం	-5331
▁రప్	-5332
▁రాత	-5333
▁వతి	-5334
▁ిసా	-5335
▁న్నట	-5336
▁ग	-5337
▁ام	-5338
▁ోటీ	-5339
▁కిల్	-5340
▁యిర్	-5341
en	-5342
▁సంద	-5343
▁్కో	-5344
▁ంతరం	-5345
▁కుడి	-5346
ja	-5347
▁41	-5348
▁65	-5349
▁دع	-5350
▁అవా	-5351
▁జస్	-5352
▁దాయ	-5353
▁ధుల	-5354
▁్కి	-5355
▁సిక్	-5356
▁తాయని	-5357
▁ుందుక	-5358
▁ఈటల	-5359
▁్లవ	-5360
▁చారి	-5361
▁డాన్	-5362
▁డాలి	-5363
▁పించ	-5364
▁భంగా	-5365
▁ఆగస్ట	-5366
▁మద్దత	-5367
▁ళీ	-5368
▁తాన	-5369
▁కూర్	-5370
▁ఫైనల	-5371
un	-5372
▁ఏఐ	-5373
▁ఖ్	-5374
▁ంబా	-5375
▁నాన	-5376
▁ిశా	-5377
▁ోను	-5378
▁కాకు	-5379
▁ంటికి	-5380
▁అన్నా	-5381
dh	-5382
▁Te	-5383
▁ఇస్	-5384
▁మేమ	-5385
▁ిపడ	-5386
▁జాగ్	-5387
ین	-5388
▁400	-5389
▁ఆపై	-5390
▁కామ	-5391
▁చుల	-5392
▁జాల	-5393
▁యిల	-5394
▁లాడ	-5395
▁అభివ	-5396
▁య్యా	-5397
▁ుండగ	-5398
▁నికల్	-5399
▁ోటీసు	-5400
▁Al	-5401
▁హత	-5402
▁ొర	-5403
▁్యత	-5404
▁చంద్	-5405
▁ామర్	-5406
▁ీసుకు	-5407
▁చన	-5408
▁బూ	-5409
▁విక్	-5410
▁లుస్త	-5411
▁తెల	-5412
▁దుపు	-5413
▁ిచేస	-5414
▁మానుల	-5415
▁ళ్లను	-5416
ews	-5417
▁Vi	-5418
▁యమ	-5419
▁ంధన	-5420
▁కదా	-5421
▁త్మ	-5422
▁పదో	-5423
▁పీల	-5424
▁లాం	-5425
▁్బా	-5426
▁ిహార	-5427
▁్రమే	-5428
▁జిట	-5429
▁ేసీ	-5430
▁్వం	-5431
▁ఖ్యా	-5432
▁జేపీ	-5433
▁జిస్ట	-5434
▁ଓ	-5435
▁జుల	-5436
▁్రై	-5437
▁నామా	-5438
▁వీకర	-5439
▁44	-5440
▁ఇబ	-5441
▁అసల	-5442
▁పడా	-5443
▁పిక	-5444
▁లామ	-5445
▁ాణం	-5446
▁కంగా	-5447
▁కారి	-5448
▁ుచేస	-5449
▁కులకు	-5450
▁ేయాలి	-5451
▁al	-5452
▁థ్	-5453
▁ామీ	-5454
▁ాయణ	-5455
▁ుగ్	-5456
▁్రు	-5457
▁తమైన	-5458
▁చేయలే	-5459
▁స్టుల	-5460
را	-5461
▁హాస	-5462
▁చేతి	-5463
▁హాన్	-5464
▁్యూస	-5465
▁బాధ్య	-5466
▁యన్స్	-5467
▁39	-5468
▁تص	-5469
▁నను	-5470
▁ముత	-5471
▁రుల	-5472
▁ునా	-5473
▁ేగం	-5474
▁نہیں	-5475
▁వరిక	-5476
ce	-5477
▁అండ	-5478
▁ఇష్	-5479
▁కాస్	-5480
▁ద్ది	-5481
▁రౌండ	-5482
نگ	-5483
▁ڈ	-5484
▁ಈ	-5485
▁er	-5486
▁پو	-5487
▁nth	-5488
▁మాత	-5489
▁రెట్	-5490
▁కున్న	-5491
▁ంఘ	-5492
▁కని	-5493
▁కమ్	-5494
▁డలో	-5495
▁నవా	-5496
▁ిసె	-5497
▁్తమ	-5498
▁డిపో	-5499
▁రును	-5500
▁ాస్తు	-5501
▁భం	-5502
▁ంగత	-5503
▁డుక	-5504
▁రదా	-5505
▁యోగా	-5506
▁కుత	-5507
▁పాన	-5508
▁కమైన	-5509
▁తిలో	-5510
▁టెంట్	-5511
▁వచ్చా	-5512
▁ిశ్రమ	-5513
▁دی	-5514
▁కస్	-5515
▁జుక	-5516
▁సిస	-5517
▁్ము	-5518
▁రద్ద	-5519
▁ాంత్	-5520
▁ిపార	-5521
▁్రావ	-5522
▁నిస్త	-5523
▁్తులు	-5524
▁46	-5525
▁رہ	-5526
▁నయ	-5527
▁కిర	-5528
▁డగా	-5529
▁యుత	-5530
▁ీబీ	-5531
▁అమిత	-5532
▁సూపర	-5533
▁అడ్డు	-5534
▁ఆత	-5535
▁ిఖ	-5536
▁స్ర	-5537
▁ేకం	-5538
▁లాండ	-5539
▁మట	-5540
▁్దు	-5541
▁ొందర	-5542
▁రించి	-5543
▁+	-5544
▁ز	-5545
▁ేహ	-5546
▁టెన	-5547
▁డుల	-5548
▁నేన	-5549
▁రుడ	-5550
▁సిట	-5551
▁ువార	-5552
▁ారంగా	-5553
ur	-5554
deo	-5555
▁re	-5556
▁ఓం	-5557
▁భంగ	-5558
▁ష్టమ	-5559
▁ాలిట	-5560
▁ెయిన	-5561
▁్యుత	-5562
dd	-5563
ss	-5564
▁2.	-5565
▁An	-5566
▁కరణ	-5567
▁యాక	-5568
▁ndra	-5569
▁ద్రా	-5570
▁్డర్	-5571
▁ేయించ	-5572
ma	-5573
▁ଁ	-5574
▁52	-5575
▁وال	-5576
▁చేవ	-5577
▁మాధ	-5578
▁ేపీ	-5579
▁డబ్బ	-5580
▁బెల్	-5581
▁ష్యం	-5582
▁స్కో	-5583
▁ిప్ర	-5584
▁్నర్	-5585
PS	-5586
ov	-5587
▁ఇష	-5588
▁Pra	-5589
▁వలస	-5590
▁సీన	-5591
▁ప్రభ	-5592
▁ించా	-5593
▁్దుల	-5594
▁తారని	-5595
▁ెరుగు	-5596
ka	-5597
▁గిం	-5598
▁యుల	-5599
▁యేట	-5600
▁ికన	-5601
اب	-5602
▁51	-5603
▁నాడ	-5604
▁నార	-5605
▁పిస	-5606
▁బెట	-5607
▁రేవ	-5608
▁ాయల	-5609
▁ుగో	-5610
▁్జు	-5611
▁బ్బు	-5612
▁మెరి	-5613
▁ుగుల	-5614
▁جس	-5615
▁విద	-5616
▁ంకుల	-5617
▁కొంట	-5618
▁పరిష	-5619
▁రెన్	-5620
▁శంకర	-5621
▁స్టో	-5622
▁ెలిప	-5623
▁ర్యాద	-5624
ఆర	-5625
▁తవ	-5626
▁ఫు	-5627
▁మంగ	-5628
▁సరే	-5629
▁ర్గం	-5630
▁్విట	-5631
▁శ్వర్	-5632
il	-5633
▁d	-5634
▁ٰ	-5635
اتھ	-5636
▁54	-5637
▁ండో	-5638
▁ంపి	-5639
▁దొర	-5640
▁సహజ	-5641
▁ట్రల	-5642
▁లించ	-5643
▁ల్లీ	-5644
▁్లాద	-5645
▁TS	-5646
▁gu	-5647
▁ంటె	-5648
▁గాడ	-5649
▁యాస	-5650
▁డ్లు	-5651
▁త్యం	-5652
▁నిజా	-5653
▁రాష్	-5654
▁వాసం	-5655
▁జెక్ట	-5656
▁్నాడు	-5657
▁ెక	-5658
▁మెన	-5659
▁యనా	-5660
▁ల్స	-5661
▁ామి	-5662
▁ేశం	-5663
▁శాల్	-5664
▁సవాల	-5665
▁ామన్	-5666
▁ార్గ	-5667
▁అయ్యి	-5668
▁టేషన్	-5669
▁పోయిన	-5670
▁ిస్తా	-5671
تا	-5672
▁49	-5673
▁Pa	-5674
▁st	-5675
▁ధా	-5676
▁అవక	-5677
▁మోడ	-5678
▁ఉంటా	-5679
▁్రయి	-5680
▁లేన	-5681
▁కించ	-5682
▁్వర్	-5683
کھا	-5684
▁43	-5685
▁?,	-5686
▁ఢీ	-5687
▁గొడ	-5688
▁లంత	-5689
▁లవ్	-5690
▁ున్	-5691
▁మాదం	-5692
▁ేదని	-5693
▁పట్టా	-5694
▁్పించ	-5695
▁్యలను	-5696
▁పెళ్ల	-5697
oo	-5698
نا	-5699
▁ఊరట	-5700
▁గడ్	-5701
▁్లడ	-5702
▁యాని	-5703
▁యినా	-5704
▁ినేష	-5705
▁ుండి	-5706
▁ోర్డ	-5707
▁శ్రీన	-5708
وٹ	-5709
▁@	-5710
abu	-5711
▁47	-5712
▁Ja	-5713
▁سو	-5714
▁కుడ	-5715
▁యిర	-5716
▁వహర	-5717
▁ీలన	-5718
▁ేకు	-5719
▁చించ	-5720
▁రాజీ	-5721
▁ాగ్ర	-5722
▁్యుడ	-5723
▁ఎన్టీ	-5724
ps	-5725
▁చద	-5726
▁వద	-5727
▁nga	-5728
▁టచ్	-5729
▁ీరం	-5730
▁పోతే	-5731
▁ఫ్రి	-5732
▁ర్శి	-5733
▁ిక్ర	-5734
▁ంటాయి	-5735
▁్రకార	-5736
▁(1	-5737
▁تھا	-5738
▁ియర	-5739
▁ుంటా	-5740
▁ంచుకో	-5741
▁ంట్లు	-5742
▁రించే	-5743
▁ుతుండ	-5744
▁120	-5745
▁بھی	-5746
▁టీవ	-5747
▁వామ	-5748
▁ساتھ	-5749
▁త్తర	-5750
▁రాస్	-5751
▁సిడె	-5752
▁ాటిల	-5753
▁ిమిత	-5754
▁యత్నం	-5755
▁్పాట్	-5756
▁ଫ	-5757
▁2,	-5758
▁ొల	-5759
▁ఆమ్	-5760
▁నన్	-5761
▁వైస	-5762
▁సము	-5763
▁ోరా	-5764
▁ہوئے	-5765
▁గాన్	-5766
▁గారు	-5767
▁డ్రి	-5768
▁ధారణ	-5769
▁మంత్	-5770
▁ారిక	-5771
▁వేశాల	-5772
▁ూరులో	-5773
▁&	-5774
▁ఎమ్	-5775
▁ిది	-5776
▁ుము	-5777
▁్యే	-5778
▁గాని	-5779
▁రూపా	-5780
▁video	-5781
▁మానిక	-5782
▁షన్లు	-5783
دی	-5784
سٹ	-5785
▁72	-5786
▁ికొ	-5787
▁ోట్	-5788
▁ర్చు	-5789
▁56	-5790
▁తగ	-5791
▁ಆದ	-5792
▁ಎಂ	-5793
▁టీన	-5794
▁రణల	-5795
▁ెరా	-5796
▁్పన	-5797
▁కపోత	-5798
▁థ్యం	-5799
▁ాలేద	-5800
▁క్షాల	-5801
▁ివర్స	-5802
▁్రంగా	-5803
at	-5804
▁ص	-5805
▁am	-5806
▁యల	-5807
▁ంటా	-5808
▁వున	-5809
▁దానిక	-5810
▁బ్బుల	-5811
▁స్టేట	-5812
ృహ	-5813
▁ु	-5814
▁అగ్	-5815
▁ఓటర	-5816
▁బోర	-5817
▁ష్మ	-5818
▁ಎಂಬ	-5819
▁చెల్	-5820
▁పణలు	-5821
▁ెయిల	-5822
▁తగ్గి	-5823
ing	-5824
▁اپ	-5825
▁ూజ	-5826
▁కగా	-5827
▁తంత	-5828
▁రమ్	-5829
▁తారా	-5830
▁నిమా	-5831
▁రాక్	-5832
▁్రాజ	-5833
ee	-5834
కే	-5835
▁(2	-5836
▁థం	-5837
▁గృహ	-5838
▁పౌర	-5839
▁రేక	-5840
▁ెప్	-5841
▁డిగా	-5842
▁రంభం	-5843
▁్చర్	-5844
▁్రాల్	-5845
ون	-5846
బంధన	-5847
▁Pla	-5848
▁కోన	-5849
▁సీఎ	-5850
▁ంతుల	-5851
▁కల్ల	-5852
▁టికి	-5853
▁ారణా	-5854
▁క్ష్య	-5855
▁ిబంధన	-5856
▁ಥ	-5857
▁1.	-5858
▁Na	-5859
▁la	-5860
▁అర	-5861
▁ఈయ	-5862
▁టుల	-5863
▁دعوی	-5864
మీ	-5865
▁nt	-5866
▁యడ	-5867
▁జిం	-5868
▁మంచ	-5869
▁లంట	-5870
▁్జ్	-5871
▁చేయగ	-5872
▁మ్మా	-5873
▁ర్షి	-5874
▁ప్పుక	-5875
اہ	-5876
▁In	-5877
▁ar	-5878
▁175	-5879
▁600	-5880
▁బాబ	-5881
▁సలు	-5882
▁నీతి	-5883
▁్మార	-5884
▁ni	-5885
▁ఇర	-5886
▁యవ	-5887
▁ఏమి	-5888
▁జాగ	-5889
▁తన్	-5890
▁నడి	-5891
▁రగత	-5892
▁ాయలు	-5893
▁డ్డార	-5894
▁ెప్పు	-5895
▁میڈ	-5896
▁పత్	-5897
▁లైన	-5898
▁విచ	-5899
▁సీత	-5900
▁స్న	-5901
▁ారమ	-5902
▁ాసా	-5903
▁ూటి	-5904
▁మ్మల	-5905
▁ెన్ష	-5906
wi	-5907
ddy	-5908
▁ات	-5909
▁250	-5910
▁పక్	-5911
▁ఫిర	-5912
▁విట	-5913
▁ంతర్	-5914
▁లాస్	-5915
▁్చిత	-5916
▁చర్చి	-5917
hi	-5918
▁سر	-5919
▁ین	-5920
▁جان	-5921
▁కిల	-5922
▁తుడ	-5923
▁నేట	-5924
▁ాలం	-5925
▁ీటర్	-5926
▁్నిస్	-5927
▁ంపా	-5928
▁ఇవే	-5929
▁ఈయన	-5930
▁బరి	-5931
▁మధు	-5932
▁వేష	-5933
▁శార	-5934
▁ూపు	-5935
▁ోరి	-5936
▁tter	-5937
▁ఆగ్ర	-5938
▁వులు	-5939
▁శుక్	-5940
▁ాగాన	-5941
▁డటంతో	-5942
▁స్టేష	-5943
▁ق	-5944
▁ఐస్	-5945
▁మనీ	-5946
▁ాయక	-5947
▁ివా	-5948
▁ందని	-5949
▁టాయి	-5950
▁సీని	-5951
▁ిటిష	-5952
نی	-5953
dia	-5954
▁దుగ	-5955
▁వెం	-5956
▁హీర	-5957
▁ాబాద	-5958
▁చిస్త	-5959
▁ీడీపీ	-5960
▁ار	-5961
▁నౌ	-5962
▁భ్	-5963
▁ీగ	-5964
▁జనా	-5965
▁టున	-5966
▁దావ	-5967
▁ాజు	-5968
▁ేబు	-5969
▁ేశి	-5970
▁్యక	-5971
▁గించ	-5972
▁తకాల	-5973
▁యంలో	-5974
▁రాను	-5975
▁ర్మా	-5976
▁్సెస	-5977
▁తులకు	-5978
▁లిపోయ	-5979
▁వర్గం	-5980
▁వస్తా	-5981
▁సీఆర్	-5982
▁ిటిషన	-5983
ویر	-5984
▁53	-5985
▁85	-5986
▁మతం	-5987
▁ినవ	-5988
▁ీకా	-5989
▁్క్	-5990
▁Play	-5991
▁టర్న	-5992
▁ద్దత	-5993
▁నింద	-5994
▁నిని	-5995
▁ింట్	-5996
▁ుండా	-5997
▁్రస్	-5998
▁تصویر	-5999
▁రించడ	-6000
▁ానించ	-6001
▁64	-6002
▁Ma	-6003
▁ంఖ	-6004
▁షక	-6005
▁ూచ	-6006
▁ుమ్	-6007
▁ోచన	-6008
▁ందరు	-6009
▁బ్లా	-6010
▁యాస్	-6011
▁ర్భం	-6012
▁ఆగ్రహ	-6013
so	-6014
▁దాడ	-6015
▁ోతే	-6016
▁చిత్	-6017
▁ధ్యా	-6018
▁పీలో	-6019
▁లెక్	-6020
▁వాలి	-6021
▁ుబాట	-6022
▁్రాం	-6023
▁1,	-6024
▁تو	-6025
▁ఏయ	-6026
▁జత	-6027
▁ైబ	-6028
▁ణుల	-6029
▁నిద	-6030
▁పాప	-6031
▁ితా	-6032
▁ొల్	-6033
▁క్రవ	-6034
▁చెరు	-6035
▁దిగా	-6036
▁ర్జా	-6037
▁ర్షం	-6038
▁ఏడో	-6039
▁ఓకే	-6040
▁సమర	-6041
▁సెస	-6042
▁ూస్	-6043
▁భాగం	-6044
▁ష్టి	-6045
▁ారుడ	-6046
▁ుర్క	-6047
▁57	-6048
▁59	-6049
▁وا	-6050
▁ٹی	-6051
▁తట	-6052
▁ంకా	-6053
▁రూం	-6054
▁ిద్	-6055
▁్టె	-6056
▁బీజే	-6057
▁రాలే	-6058
▁ర్తల	-6059
▁ీట్ల	-6060
▁్లిన	-6061
▁దరికీ	-6062
▁3.	-6063
▁తాం	-6064
▁దిక	-6065
▁యాట	-6066
▁లని	-6067
▁ౌంట	-6068
▁کرتے	-6069
▁న్సీ	-6070
▁రాణా	-6071
▁విని	-6072
▁میڈیا	-6073
ro	-6074
یر	-6075
PSC	-6076
▁ండే	-6077
▁చిర	-6078
▁పూట	-6079
▁లిచ	-6080
▁్రద	-6081
▁్ష్	-6082
▁క్షు	-6083
▁మంగా	-6084
▁ళ్యా	-6085
▁ష్టా	-6086
▁ాధార	-6087
▁ాహ్న	-6088
▁పిస్త	-6089
▁ినట్ట	-6090
▁ుస్తు	-6091
▁58	-6092
▁انہ	-6093
▁ఉద్	-6094
▁డిమ	-6095
▁తగా	-6096
▁లిస	-6097
▁ానమ	-6098
▁్మె	-6099
▁క్లి	-6100
▁నిస్	-6101
▁్రక్	-6102
▁లల్లో	-6103
ead	-6104
▁pic	-6105
▁మతి	-6106
▁రక్	-6107
▁ేతు	-6108
▁ంచాల	-6109
▁ఏర్ప	-6110
▁క్తి	-6111
▁ెప్పా	-6112
▁AP	-6113
▁హమ	-6114
▁ఏయే	-6115
▁నాక	-6116
▁ెచ్	-6117
▁ేను	-6118
▁్ధం	-6119
▁్రల	-6120
▁babu	-6121
▁دکھا	-6122
▁కూల్	-6123
▁తికి	-6124
▁స్థల	-6125
▁మొదలై	-6126
ad	-6127
▁62	-6128
▁63	-6129
▁66	-6130
▁ya	-6131
▁శవ	-6132
▁ఖ్య	-6133
▁తంగ	-6134
▁పిన	-6135
▁శాన	-6136
▁ాలల	-6137
▁ియల	-6138
▁ూటీ	-6139
▁mala	-6140
▁ంపుల	-6141
▁త్నం	-6142
▁్యాం	-6143
▁ଅନ	-6144
▁కాగ	-6145
▁కాబ	-6146
▁నతో	-6147
▁రాన	-6148
▁లోచ	-6149
▁ామె	-6150
▁ాసి	-6151
▁ీరో	-6152
▁ంటిక	-6153
▁ఓటర్	-6154
▁కర్ణ	-6155
▁స్పత	-6156
▁ుంచి	-6157
▁క్షేమ	-6158
▁ళ్యాణ	-6159
▁వరించ	-6160
شن	-6161
మే	-6162
ంబర	-6163
▁PM	-6164
▁ئی	-6165
▁رو	-6166
▁مو	-6167
▁के	-6168
▁ଏକ	-6169
▁ూవ	-6170
▁twi	-6171
▁جار	-6172
▁నీస	-6173
▁ీలకు	-6174
▁నవంబర	-6175
▁రోడ్డ	-6176
na	-6177
థ్య	-6178
▁بھ	-6179
▁ଛନ	-6180
▁షన	-6181
▁ట్న	-6182
▁బిల	-6183
▁రిం	-6184
▁సులో	-6185
▁ామిన	-6186
▁ిస్థ	-6187
▁ంటలకు	-6188
▁కార్డ	-6189
▁స్కూల	-6190
▁ాటికి	-6191
▁ేపథ్య	-6192
▁ೃ	-6193
▁‭	-6194
rea	-6195
▁ఎడమ	-6196
▁దనే	-6197
▁మయం	-6198
▁రమా	-6199
▁ిదా	-6200
▁ుచు	-6201
▁్యస	-6202
▁telu	-6203
▁ధ్యత	-6204
▁ోగాల	-6205
▁యింట్	-6206
▁ామినే	-6207
ch	-6208
▁भ	-6209
▁سی	-6210
▁లద	-6211
▁థలు	-6212
▁రీమ	-6213
▁ురం	-6214
▁ైలు	-6215
▁ోనే	-6216
▁کرنے	-6217
▁జర్వ	-6218
▁డుకు	-6219
▁రుడి	-6220
▁ర్చా	-6221
▁ష్కర	-6222
▁ీకార	-6223
▁ఉంటాయ	-6224
డియ	-6225
▁بی	-6226
▁దై	-6227
▁వమ	-6228
▁వైన	-6229
▁ైపు	-6230
▁ద్రి	-6231
▁ర్నా	-6232
▁షన్ల	-6233
▁చరించ	-6234
▁ట్లాడ	-6235
vi	-6236
▁ے	-6237
▁च	-6238
▁pa	-6239
▁ఖల	-6240
▁పడం	-6241
▁ేకా	-6242
▁చిపో	-6243
▁రాహు	-6244
▁రీస్	-6245
▁్బంద	-6246
▁కోర్ట	-6247
▁తిరుమ	-6248
▁మీడియ	-6249
▁రెక్ట	-6250
▁99	-6251
▁బన	-6252
▁రన	-6253
▁ంధు	-6254
▁గిప	-6255
▁థుల	-6256
▁దిప	-6257
▁వాత	-6258
▁ామర	-6259
▁ూడో	-6260
▁నిరస	-6261
▁మెట్	-6262
▁ోల్ప	-6263
▁్రహం	-6264
▁ంగ్స్	-6265
▁యాన్న	-6266
▁ానాలు	-6267
شل	-6268
ణం	-6269
▁अ	-6270
▁Fa	-6271
▁కగ	-6272
▁హక	-6273
▁ౌన	-6274
▁gov	-6275
▁ఆడే	-6276
▁కుమ	-6277
▁జెన	-6278
▁ాథ్	-6279
▁Tela	-6280
▁కేసీ	-6281
▁త్రుల	-6282
▁పొందు	-6283
▁ర్వాత	-6284
▁ోల్పో	-6285
me	-6286
ou	-6287
وگ	-6288
▁ट	-6289
▁IP	-6290
▁US	-6291
▁థల	-6292
▁ంగల	-6293
▁ఊరు	-6294
▁రసా	-6295
▁లిమ	-6296
▁వీట	-6297
▁వుడ	-6298
▁ాహా	-6299
▁Also	-6300
▁న్నప	-6301
▁ాప్త	-6302
▁ేయడం	-6303
▁ఆరోపణ	-6304
▁పడింద	-6305
▁్రదర్	-6306
>>	-6307
▁95	-6308
▁or	-6309
▁مل	-6310
▁ଏହ	-6311
▁ధ్	-6312
▁ఆడి	-6313
▁జలు	-6314
▁జీల	-6315
▁డిల	-6316
▁పెన	-6317
▁మేష	-6318
▁యావ	-6319
▁ాకి	-6320
▁్మన	-6321
▁క్షన	-6322
▁మాణం	-6323
▁లుసు	-6324
▁ోస్ట	-6325
▁ుస్తా	-6326
▁ొన్నా	-6327
RS	-6328
وم	-6329
lec	-6330
▁67	-6331
▁ఏర	-6332
▁Kal	-6333
▁డిన	-6334
▁పొగ	-6335
▁రకం	-6336
▁హాన	-6337
▁ిదే	-6338
▁ీవా	-6339
▁వరాల	-6340
▁లేకపో	-6341
BC	-6342
TC	-6343
▁`	-6344
▁4,	-6345
▁4.	-6346
▁జయం	-6347
▁తోప	-6348
▁దాల	-6349
▁యలో	-6350
▁యూర	-6351
▁ాడన	-6352
▁ాతా	-6353
▁ీఆర	-6354
▁ువై	-6355
▁ూరం	-6356
▁రైల్	-6357
▁లిస్	-6358
▁ెండు	-6359
▁ిలిచి	-6360
▁ోసారి	-6361
▁j	-6362
▁ಉ	-6363
▁144	-6364
▁ఏవీ	-6365
▁గడం	-6366
▁మకర	-6367
▁మను	-6368
▁ిపా	-6369
▁News	-6370
▁జెన్	-6371
▁టులు	-6372
▁ాంక్	-6373
▁గానిక	-6374
▁मे	-6375
▁800	-6376
▁ధాన	-6377
▁సెం	-6378
▁ెంద	-6379
▁ాంతి	-6380
▁ుగ్గ	-6381
▁ప్రయా	-6382
et	-6383
عد	-6384
▁61	-6385
▁में	-6386
▁టాక	-6387
▁షేర	-6388
▁హబ్	-6389
▁హ్ల	-6390
▁ోగ్	-6391
▁హాస్	-6392
▁ాదుల	-6393
▁్యకు	-6394
▁నేషన్	-6395
▁ప్రభు	-6396
▁ళ్లార	-6397
بر	-6398
سی	-6399
ہا	-6400
▁ంల	-6401
▁ణీ	-6402
▁ెటి	-6403
▁ెత్	-6404
▁ోకు	-6405
▁سوشل	-6406
▁డెంట	-6407
▁ప్తు	-6408
▁తానని	-6409
SR	-6410
um	-6411
لہ	-6412
▁3,	-6413
▁84	-6414
▁గస	-6415
▁యట	-6416
▁యడం	-6417
▁సీల	-6418
▁హ్న	-6419
▁ిషన	-6420
▁ేతల	-6421
▁్మక	-6422
▁్షు	-6423
▁సక్త	-6424
▁్లాం	-6425
▁ర్మన్	-6426
ts	-6427
up	-6428
▁ड	-6429
iru	-6430
▁6,	-6431
▁71	-6432
▁Pri	-6433
▁కోత	-6434
▁దిత	-6435
▁నౌక	-6436
▁రిద	-6437
▁ువల	-6438
▁ోతా	-6439
▁్సీ	-6440
▁తుగా	-6441
▁యాంగ	-6442
▁రువా	-6443
▁రోహి	-6444
▁ారంగ	-6445
▁ించగ	-6446
▁్గాల	-6447
▁్రేక	-6448
▁Reddy	-6449
▁వస్తు	-6450
▁69	-6451
▁76	-6452
▁یو	-6453
▁చలి	-6454
▁రాగ	-6455
▁ిటల	-6456
▁్నం	-6457
▁పోర్	-6458
▁సముద	-6459
▁స్టర	-6460
▁ిష్క	-6461
▁్యాడ	-6462
▁్వీక	-6463
▁మ్మడి	-6464
▁్వీట్	-6465
ئر	-6466
▁77	-6467
▁po	-6468
▁ww	-6469
▁డబ	-6470
▁నిబ	-6471
▁పెద	-6472
▁ిగు	-6473
▁ీలక	-6474
▁king	-6475
▁پوسٹ	-6476
▁ہمیں	-6477
▁బితా	-6478
▁శ్వా	-6479
▁ిసార	-6480
▁ేరుత	-6481
▁్రీన	-6482
▁TSPSC	-6483
▁కెట్ల	-6484
▁ార్మి	-6485
▁ీళ్లు	-6486
▁ులోని	-6487
▁్థానం	-6488
▁్రాణా	-6489
▁୨	-6490
▁IN	-6491
▁نگ	-6492
▁وی	-6493
▁షర	-6494
▁www	-6495
▁گئی	-6496
▁ఆదా	-6497
▁ట్స	-6498
▁రెన	-6499
▁ారత	-6500
▁ూప్	-6501
▁చెన్	-6502
▁నట్ల	-6503
▁యాదవ	-6504
▁రామం	-6505
▁ిబ్బ	-6506
▁ెడుత	-6507
▁పత్రి	-6508
▁రెంట్	-6509
ke	-6510
▁82	-6511
▁De	-6512
▁Mo	-6513
▁వట	-6514
▁శక	-6515
▁శల	-6516
▁140	-6517
▁కరీ	-6518
▁మద్	-6519
▁రను	-6520
▁రలు	-6521
▁ాటర	-6522
▁వసరమ	-6523
▁వుడ్	-6524
▁ిగిలి	-6525
▁श	-6526
gan	-6527
▁(3	-6528
▁th	-6529
▁جب	-6530
▁لی	-6531
▁ఈడ	-6532
▁బద	-6533
▁ంకట	-6534
▁ంచల	-6535
▁ాధ్	-6536
▁ానన	-6537
▁ువుర	-6538
▁అలాంట	-6539
▁కులను	-6540
▁న్నాయ	-6541
▁ేశించ	-6542
▁78	-6543
▁جو	-6544
▁فر	-6545
▁ଆର	-6546
▁ంటు	-6547
▁చిన	-6548
▁జిన	-6549
▁తల్	-6550
▁నక్	-6551
▁రెస	-6552
▁రైత	-6553
▁లకే	-6554
▁్థం	-6555
▁news	-6556
▁డికి	-6557
▁ర్ని	-6558
▁స్టు	-6559
▁ారన్	-6560
▁ృష్ట	-6561
▁ెలుప	-6562
▁ేల్చ	-6563
▁ర్నర్	-6564
اک	-6565
▁➦	-6566
▁6.	-6567
▁ab	-6568
▁ta	-6569
▁شی	-6570
▁طر	-6571
▁من	-6572
▁ఘట	-6573
▁యబ	-6574
▁700	-6575
▁బడా	-6576
▁మెల	-6577
▁లాక	-6578
▁ీజన	-6579
▁ెంచ	-6580
▁Tiru	-6581
▁రిగి	-6582
▁శాని	-6583
▁హారా	-6584
▁ాటిక	-6585
▁Jagan	-6586
▁tions	-6587
▁రూపాయ	-6588
▁ారులు	-6589
▁్రాలు	-6590
ge	-6591
టూ	-6592
▁്	-6593
wan	-6594
▁ri	-6595
▁دو	-6596
▁دیش	-6597
▁لئے	-6598
▁ఏదీ	-6599
▁గిస	-6600
▁గోల	-6601
▁చామ	-6602
▁యూస	-6603
▁సాద	-6604
▁ారె	-6605
▁ిలే	-6606
▁Brea	-6607
▁కోర్	-6608
▁గిలి	-6609
▁చ్చే	-6610
▁డియా	-6611
▁పరుగ	-6612
▁పులు	-6613
▁వ్యత	-6614
▁్వార	-6615
▁ంద్రబ	-6616
▁ర్టీల	-6617
▁ించార	-6618
▁ుకోలే	-6619
▁(4	-6620
▁7.	-6621
▁ck	-6622
▁నన	-6623
▁160	-6624
▁ంచా	-6625
▁తోట	-6626
▁పాధ	-6627
▁షమీ	-6628
▁ిపు	-6629
▁Read	-6630
▁post	-6631
▁డ్జె	-6632
▁ాంతం	-6633
▁ుత్వ	-6634
▁ండ్రు	-6635
▁వేస్త	-6636
ct	-6637
li	-6638
▁68	-6639
▁है	-6640
▁tha	-6641
▁دیک	-6642
▁మేన	-6643
▁ల్త	-6644
▁సభా	-6645
▁అయ్యా	-6646
▁ాట్లు	-6647
عل	-6648
▁்	-6649
▁73	-6650
▁కళ	-6651
▁శన	-6652
▁షల	-6653
▁ہند	-6654
▁కను	-6655
▁చలన	-6656
▁టలు	-6657
▁డేం	-6658
▁యాగ	-6659
▁ీతో	-6660
▁ురే	-6661
▁ూడు	-6662
▁్రయ	-6663
▁కేష్	-6664
▁పార్	-6665
▁టెస్ట	-6666
اد	-6667
رم	-6668
ول	-6669
ఢ్	-6670
ణు	-6671
▁_	-6672
స్థల	-6673
▁అణు	-6674
▁పదం	-6675
▁రాడ	-6676
▁రుష	-6677
▁కలకు	-6678
▁జెట్	-6679
▁న్నో	-6680
▁రేంద	-6681
▁్యంగ	-6682
▁ంస్థల	-6683
▁కార్ప	-6684
▁ిలోకి	-6685
re	-6686
▁غ	-6687
▁☛	-6688
▁108	-6689
▁119	-6690
▁ఓవర	-6691
▁కేం	-6692
▁తనక	-6693
▁నేల	-6694
▁వలం	-6695
▁షాల	-6696
▁ిరో	-6697
▁న్సి	-6698
▁మున్	-6699
▁్రిగ	-6700
▁కొడుక	-6701
▁ృష్టి	-6702
20	-6703
ho	-6704
تی	-6705
چھ	-6706
یس	-6707
▁5.	-6708
▁88	-6709
▁Ap	-6710
▁IM	-6711
▁اب	-6712
▁భీ	-6713
▁بار	-6714
▁అదీ	-6715
▁ఆనం	-6716
▁గఢ్	-6717
▁చెల	-6718
▁నడక	-6719
▁పీఎ	-6720
▁మయ్	-6721
▁రసన	-6722
▁ియే	-6723
▁ూచి	-6724
▁దివా	-6725
▁పంపి	-6726
▁ములు	-6727
▁రిన్	-6728
▁ళ్లి	-6729
▁వర్ల	-6730
▁ార్ప	-6731
im	-6732
భయ	-6733
▁5,	-6734
▁OT	-6735
▁مت	-6736
▁پہ	-6737
▁ణమ	-6738
▁ایس	-6739
▁ఆవు	-6740
▁ఈజీ	-6741
▁ఉభయ	-6742
▁తేజ	-6743
▁నేహ	-6744
▁ీటి	-6745
▁ుప్	-6746
▁ేగా	-6747
▁ైకో	-6748
▁ణంగా	-6749
▁ధ్యం	-6750
▁లంలో	-6751
▁ృద్ధ	-6752
▁ంభించ	-6753
▁యత్నా	-6754
▁़	-6755
▁7,	-6756
▁74	-6757
▁Ka	-6758
▁va	-6759
▁దజ	-6760
▁350	-6761
▁ఉరి	-6762
▁ఓట్	-6763
▁టుక	-6764
▁నిగ	-6765
▁ాలజ	-6766
▁ుంబ	-6767
▁ేదు	-6768
▁شیئر	-6769
▁త్వా	-6770
▁యార్	-6771
▁ెబ్బ	-6772
▁ంధించ	-6773
▁ించలే	-6774
▁ృద్ధి	-6775
▁ୂ	-6776
ارت	-6777
▁81	-6778
▁یں	-6779
▁సృ	-6780
umar	-6781
▁125	-6782
▁BRS	-6783
▁دور	-6784
▁ఐడీ	-6785
▁కున	-6786
▁పంద	-6787
▁పూల	-6788
▁రోస	-6789
▁ిచా	-6790
▁ుభవ	-6791
▁్శక	-6792
▁రీని	-6793
▁ిరేక	-6794
▁చేశాడ	-6795
▁్తింప	-6796
▁్నాలు	-6797
te	-6798
خت	-6799
యూ	-6800
▁ू	-6801
▁BJ	-6802
▁యస	-6803
▁Sha	-6804
▁ఎంట	-6805
▁కేర	-6806
▁లయం	-6807
▁్యప	-6808
▁ఇక్క	-6809
▁యిలో	-6810
▁యుడు	-6811
▁రాము	-6812
▁ర్వే	-6813
▁వంత్	-6814
▁విస్	-6815
▁్రలో	-6816
▁Prade	-6817
▁పొంది	-6818
TR	-6819
ig	-6820
ve	-6821
▁Z	-6822
▁଼	-6823
ابق	-6824
▁ne	-6825
▁وہ	-6826
▁ରେ	-6827
▁దక	-6828
▁10,	-6829
▁ఓయూ	-6830
▁తాత	-6831
▁ధాల	-6832
▁పేస	-6833
▁మిస	-6834
▁యార	-6835
▁హవా	-6836
▁ియు	-6837
▁్చా	-6838
▁Elec	-6839
▁అలాగ	-6840
▁టాలు	-6841
▁టింగ	-6842
▁ద్ధం	-6843
▁ెరిగ	-6844
▁పరుగు	-6845
▁ిలోని	-6846
▁ుంటాయ	-6847
▁్చారు	-6848
CC	-6849
id	-6850
▁y	-6851
▁ै	-6852
jay	-6853
امی	-6854
▁ru	-6855
▁ڈی	-6856
▁కస	-6857
▁టర	-6858
▁1.5	-6859
▁ఇక్	-6860
▁భీం	-6861
▁రాఫ	-6862
▁ల్య	-6863
▁ttps	-6864
▁టర్ల	-6865
▁ద్దే	-6866
▁రిపి	-6867
▁Pawan	-6868
▁రుగుత	-6869
قی	-6870
▁x	-6871
▁आ	-6872
▁ଘ	-6873
▁Lo	-6874
▁ఏఈ	-6875
▁లల	-6876
▁2.5	-6877
▁BJP	-6878
▁కలో	-6879
▁లంగ	-6880
▁సంవ	-6881
▁ిరే	-6882
▁ురై	-6883
▁ేకప	-6884
▁ౌడ్	-6885
▁Andh	-6886
▁డింద	-6887
▁దీన్న	-6888
▁ిలియన	-6889
▁ుతుంట	-6890
▁్పులు	-6891
ائی	-6892
▁89	-6893
▁GB	-6894
▁جن	-6895
▁की	-6896
▁ଏବ	-6897
▁BBC	-6898
▁Goo	-6899
▁ంతమ	-6900
▁కవి	-6901
▁గది	-6902
▁గోడ	-6903
▁ట్య	-6904
▁డీస	-6905
▁నయం	-6906
▁పథ్	-6907
▁పీక	-6908
▁యూన	-6909
▁రవే	-6910
▁ాలన	-6911
▁ఇంటర	-6912
▁ఉద్ద	-6913
▁గంలో	-6914
▁చింద	-6915
▁ర్టు	-6916
▁India	-6917
▁లిస్త	-6918
▁వ్వడం	-6919
▁ୱ	-6920
ورٹ	-6921
▁83	-6922
▁Sa	-6923
▁చం	-6924
▁లడ	-6925
▁sha	-6926
▁بعد	-6927
▁టిప	-6928
▁మిష	-6929
▁హల్	-6930
▁ంశాల	-6931
▁టించ	-6932
▁తుల్	-6933
▁బాటు	-6934
▁ాంతా	-6935
▁ాదని	-6936
▁్కార	-6937
▁్రామ	-6938
▁టానిక	-6939
▁ట్లలో	-6940
▁ప్రాధ	-6941
▁మన్నా	-6942
▁లర్లు	-6943
▁వాన్న	-6944
▁ిపారు	-6945
DP	-6946
RR	-6947
▁ୌ	-6948
old	-6949
▁9,	-6950
▁یک	-6951
▁Man	-6952
▁کہا	-6953
▁ంచన	-6954
▁అవే	-6955
▁కుప	-6956
▁డటం	-6957
▁థ్య	-6958
▁ఫాం	-6959
▁ురి	-6960
▁్కర	-6961
▁గారం	-6962
▁తంగా	-6963
▁ద్యం	-6964
▁బీబీ	-6965
▁ికిత	-6966
sa	-6967
اس	-6968
رہ	-6969
▁ध	-6970
▁Su	-6971
▁का	-6972
▁ధమ	-6973
▁طرح	-6974
▁ఊరి	-6975
▁డతా	-6976
▁తిల	-6977
▁తేద	-6978
▁నదీ	-6979
▁పుక	-6980
▁ులక	-6981
▁్డే	-6982
▁Kaly	-6983
▁Reva	-6984
▁ద్ధమ	-6985
▁లిలో	-6986
▁సీజన	-6987
▁ాదవ్	-6988
▁ారుత	-6989
▁ియోగ	-6990
▁అప్పట	-6991
▁ట్లకు	-6992
CR	-6993
▁ख	-6994
▁(5	-6995
▁8,	-6996
▁86	-6997
▁92	-6998
▁CM	-6999
▁II	-7000
▁ng	-7001
▁ళల	-7002
▁ంతం	-7003
▁కత్	-7004
▁గాం	-7005
▁టార	-7006
▁నెం	-7007
▁బలి	-7008
▁మరే	-7009
▁రుప	-7010
▁రోల	-7011
▁మెడి	-7012
▁రప్ర	-7013
▁రాలు	-7014
▁లోచన	-7015
▁ితుడ	-7016
▁క్కిం	-7017
▁చేశార	-7018
BI	-7019
ay	-7020
ld	-7021
لے	-7022
▁ذ	-7023
▁ھ	-7024
▁Ar	-7025
▁Ys	-7026
▁on	-7027
▁جھ	-7028
▁లన	-7029
▁180	-7030
▁20,	-7031
▁Che	-7032
▁gle	-7033
▁కేఏ	-7034
▁హుల	-7035
▁ారన	-7036
▁్తల	-7037
▁ంతాల	-7038
▁కిస్	-7039
▁తంలో	-7040
▁తువు	-7041
▁పంచా	-7042
▁రికొ	-7043
▁ాధిక	-7044
▁ికేష	-7045
▁్యూల	-7046
▁్లలో	-7047
▁ంటుంద	-7048
▁డియాల	-7049
▁తప్పి	-7050
▁ిగాయి	-7051
CP	-7052
گر	-7053
▁ʼ	-7054
oll	-7055
▁بن	-7056
▁گر	-7057
▁ଉକ	-7058
▁ఇత	-7059
▁దట	-7060
orld	-7061
▁طور	-7062
▁ଏବଂ	-7063
▁పడ్	-7064
▁భాల	-7065
▁ాయత	-7066
▁ోజు	-7067
▁్థా	-7068
▁والے	-7069
▁ہندو	-7070
▁ఆర్థ	-7071
▁దేశా	-7072
▁ద్వా	-7073
▁యెల్	-7074
▁రీన్	-7075
▁ికగా	-7076
▁్మిం	-7077
▁ించాల	-7078
ٹر	-7079
▁ए	-7080
▁RA	-7081
▁mi	-7082
▁of	-7083
▁تح	-7084
▁مط	-7085
▁ఖం	-7086
▁యక	-7087
▁110	-7088
▁130	-7089
▁370	-7090
▁ملا	-7091
▁کچھ	-7092
▁ఎటు	-7093
▁గణన	-7094
▁పిట	-7095
▁రోవ	-7096
▁సకల	-7097
▁ిఫి	-7098
▁ోగు	-7099
▁్వె	-7100
▁్షం	-7101
▁والی	-7102
▁న్నవ	-7103
▁పుట్	-7104
▁పేర్	-7105
▁ువకు	-7106
▁్బుల	-7107
▁دوران	-7108
▁పడ్డా	-7109
▁శారని	-7110
▁్లాడి	-7111
ود	-7112
وے	-7113
ٹی	-7114
▁ಒ	-7115
ana	-7116
▁Me	-7117
▁UP	-7118
▁Va	-7119
▁de	-7120
▁ال	-7121
▁15,	-7122
▁سرچ	-7123
▁ఏకం	-7124
▁తేమ	-7125
▁రజా	-7126
▁రలో	-7127
▁రేల	-7128
▁వరస	-7129
▁వైద	-7130
▁ాయప	-7131
▁తలను	-7132
▁నాయి	-7133
▁రికె	-7134
▁శాన్	-7135
▁స్త్	-7136
▁స్సీ	-7137
▁ీయాల	-7138
▁Price	-7139
▁చేయాల	-7140
▁టర్లు	-7141
▁తిరుప	-7142
▁య్యార	-7143
▁సింది	-7144
▁el	-7145
▁se	-7146
▁مس	-7147
▁ిళ	-7148
▁25,	-7149
▁Raj	-7150
▁lth	-7151
▁انی	-7152
▁ంశం	-7153
▁గట్	-7154
▁టెల	-7155
▁మీన	-7156
▁శాస	-7157
▁ిజె	-7158
▁ొంత	-7159
▁Gold	-7160
▁కోట్	-7161
▁ట్టా	-7162
▁దాన్	-7163
▁పంది	-7164
▁కావడం	-7165
▁ప్రాయ	-7166
▁యాలని	-7167
▁ాట్లా	-7168
▁ీట్లు	-7169
▁ుగులు	-7170
در	-7171
لم	-7172
పి	-7173
▁-1	-7174
▁79	-7175
▁87	-7176
▁96	-7177
▁97	-7178
▁تر	-7179
▁می	-7180
▁యర	-7181
▁تیا	-7182
▁لوگ	-7183
▁ఇదో	-7184
▁మెక	-7185
▁సాన	-7186
▁్చల	-7187
▁్యర	-7188
▁చనిప	-7189
▁జాగా	-7190
▁లల్ల	-7191
▁ినియ	-7192
▁ెల్స	-7193
▁World	-7194
▁ీక్షల	-7195
عم	-7196
బా	-7197
ارف	-7198
్వా	-7199
▁98	-7200
▁को	-7201
▁111	-7202
▁13,	-7203
▁IPL	-7204
▁bha	-7205
▁رہا	-7206
▁رہے	-7207
▁گئے	-7208
▁ఇదీ	-7209
▁తిడ	-7210
▁మత్	-7211
▁మమత	-7212
▁వుర	-7213
▁ాణా	-7214
▁ాతీ	-7215
▁اپنے	-7216
▁ండటం	-7217
▁క్షా	-7218
▁గ్గి	-7219
▁ద్దా	-7220
▁రింగ	-7221
▁షించ	-7222
▁ఇవ్వా	-7223
▁నాలను	-7224
▁న్నామ	-7225
▁పాట్ల	-7226
▁ల్లాల	-7227
▁ోగించ	-7228
RI	-7229
لک	-7230
▁To	-7231
▁ap	-7232
▁اں	-7233
▁ృం	-7234
▁(1)	-7235
▁12,	-7236
▁Ram	-7237
▁ing	-7238
▁କରି	-7239
▁ఉన్	-7240
▁గాన	-7241
▁పుడ	-7242
▁సమం	-7243
▁ాదే	-7244
▁్తో	-7245
▁Fact	-7246
▁ہونے	-7247
▁చూపి	-7248
▁స్తో	-7249
▁్యంత	-7250
▁్లార	-7251
▁بھارت	-7252
▁్పత్త	-7253
DA	-7254
یت	-7255
▁फ	-7256
▁St	-7257
▁ీహ	-7258
▁IND	-7259
▁آئی	-7260
▁پار	-7261
▁ంజీ	-7262
▁ఆగి	-7263
▁దీన	-7264
▁పడవ	-7265
▁బుల	-7266
▁ిగే	-7267
▁ిహా	-7268
▁ూసు	-7269
▁్చన	-7270
▁కమిట	-7271
▁చ్చా	-7272
▁దులో	-7273
▁పోలి	-7274
▁Vijay	-7275
▁శించి	-7276
▁ావిస్	-7277
▁ీల్లో	-7278
قع	-7279
han	-7280
ush	-7281
ائع	-7282
یکہ	-7283
▁8.	-7284
▁93	-7285
▁AN	-7286
▁ca	-7287
▁ka	-7288
▁li	-7289
▁دن	-7290
▁ون	-7291
▁్హ	-7292
▁Bha	-7293
▁the	-7294
▁ఆహా	-7295
▁ఈమె	-7296
▁ఉమా	-7297
▁డంప	-7298
▁సౌర	-7299
▁హత్	-7300
▁హిర	-7301
▁ాలర	-7302
▁ోయా	-7303
▁్కు	-7304
▁చార్	-7305
▁టారు	-7306
▁డ్డి	-7307
▁తిగా	-7308
▁ాంటి	-7309
▁ారిట	-7310
▁ేరుక	-7311
▁ఇజ్రా	-7312
yd	-7313
از	-7314
ظر	-7315
نڈ	-7316
گو	-7317
ائے	-7318
▁آر	-7319
▁ائ	-7320
▁టప	-7321
▁రడ	-7322
▁900	-7323
▁Cup	-7324
▁امی	-7325
▁تھی	-7326
▁ంధి	-7327
▁ఎగ్	-7328
▁ఘన్	-7329
▁చడం	-7330
▁డీఏ	-7331
▁బయో	-7332
▁యామ	-7333
▁ాధి	-7334
▁్తం	-7335
▁صارف	-7336
▁ండిప	-7337
▁నుకు	-7338
▁నుమా	-7339
▁ిమాన	-7340
▁ేలియ	-7341
▁్రీం	-7342
▁ఆర్టీ	-7343
mi	-7344
▁=	-7345
▁ଂ	-7346
day	-7347
యిల	-7348
▁(6	-7349
▁2)	-7350
▁>>	-7351
▁en	-7352
▁ఒప	-7353
▁104	-7354
▁115	-7355
▁ఓడి	-7356
▁కిం	-7357
▁కుక	-7358
▁తగు	-7359
▁తోష	-7360
▁్దా	-7361
▁్పే	-7362
▁్పొ	-7363
▁tips	-7364
▁ہیکہ	-7365
▁క్టు	-7366
▁క్షక	-7367
▁డుతూ	-7368
▁నిన్	-7369
▁లంటే	-7370
▁వాని	-7371
▁టీఆర్	-7372
▁బెయిల	-7373
▁యాంక్	-7374
▁యాలను	-7375
▁ోవచ్చ	-7376
IA	-7377
ST	-7378
▁Q	-7379
امل	-7380
▁91	-7381
▁to	-7382
▁اک	-7383
▁سب	-7384
▁کم	-7385
▁గప	-7386
▁14,	-7387
▁21,	-7388
▁30,	-7389
▁UPI	-7390
▁ఆపి	-7391
▁ఆశా	-7392
▁దళం	-7393
▁దళ్	-7394
▁నటన	-7395
▁లయ్	-7396
▁ెంక	-7397
▁్యయ	-7398
▁గులో	-7399
▁చుకో	-7400
▁శక్త	-7401
▁సూర్	-7402
▁్వడం	-7403
▁جارہا	-7404
▁్పాటు	-7405
ست	-7406
షా	-7407
ైవ	-7408
▁औ	-7409
ong	-7410
علق	-7411
▁MP	-7412
▁مق	-7413
▁ہی	-7414
laim	-7415
▁24,	-7416
▁کرد	-7417
▁ంపే	-7418
▁ఏక్	-7419
▁టాన	-7420
▁డిం	-7421
▁రెట	-7422
▁హేమ	-7423
▁ేతి	-7424
▁ఆస్ట	-7425
▁కొంద	-7426
▁గుర్	-7427
▁ధ్యక	-7428
▁మోడీ	-7429
▁వేశం	-7430
▁కపోవడ	-7431
▁ేసీఆర	-7432
بی	-7433
▁q	-7434
▁AC	-7435
▁تھ	-7436
▁ٹو	-7437
▁ଆଲ	-7438
▁ఆం	-7439
▁22,	-7440
▁Hyd	-7441
▁ایم	-7442
▁دیا	-7443
▁ంపల	-7444
▁తమై	-7445
▁దువ	-7446
▁నమ్	-7447
▁పీఏ	-7448
▁రోన	-7449
▁ుద్	-7450
▁ోసా	-7451
▁్షి	-7452
▁ress	-7453
▁اپنی	-7454
▁దుకు	-7455
▁పాత్	-7456
▁బంధన	-7457
▁బెంగ	-7458
▁షనర్	-7459
▁ోవాల	-7460
▁్రిప	-7461
▁యకర్త	-7462
▁ాయకుల	-7463
▁ుతోంద	-7464
▁్ట్రీ	-7465
▁CE	-7466
▁TT	-7467
▁بر	-7468
▁بڑ	-7469
▁سک	-7470
▁ంన	-7471
▁కప	-7472
▁11,	-7473
▁450	-7474
▁>>>	-7475
▁YSR	-7476
▁ంతే	-7477
▁ఆకు	-7478
▁మీక	-7479
▁రిన	-7480
▁ిషా	-7481
▁ెటర	-7482
▁్మో	-7483
▁్లమ	-7484
▁جانب	-7485
▁ఏడాద	-7486
▁కుంద	-7487
▁టీలో	-7488
▁యాక్	-7489
▁రింత	-7490
▁స్టి	-7491
▁హ్నం	-7492
▁ాధాన	-7493
▁ినిప	-7494
▁ినిమ	-7495
▁ెంటర	-7496
▁్లీల	-7497
▁kumar	-7498
▁مطابق	-7499
▁ఎమ్మె	-7500
0)	-7501
us	-7502
یل	-7503
▁ଠ	-7504
▁ക	-7505
లుగ	-7506
▁-2	-7507
▁94	-7508
▁co	-7509
▁تب	-7510
▁جا	-7511
▁را	-7512
▁(0)	-7513
▁135	-7514
▁Gan	-7515
▁RRR	-7516
▁بنگ	-7517
▁ఈవీ	-7518
▁చవి	-7519
▁పోర	-7520
▁మిద	-7521
▁రెం	-7522
▁రోడ	-7523
▁ీవి	-7524
▁ీసి	-7525
▁abad	-7526
▁ంటనే	-7527
▁దాలు	-7528
▁ద్దర	-7529
▁మత్త	-7530
▁స్థి	-7531
▁వెలుగ	-7532
▁ుట్టి	-7533
AS	-7534
ru	-7535
▁୧	-7536
jun	-7537
డుద	-7538
▁تل	-7539
▁رک	-7540
▁گھ	-7541
▁और	-7542
▁డర	-7543
▁దం	-7544
پورٹ	-7545
ర్వహ	-7546
▁18,	-7547
▁تعم	-7548
▁బహి	-7549
▁భట్	-7550
▁లాన	-7551
▁ుపె	-7552
▁ెద్	-7553
▁్జి	-7554
▁్టల	-7555
▁دعوے	-7556
▁కేటీ	-7557
▁గిపో	-7558
▁డారు	-7559
▁భ్యు	-7560
▁రిని	-7561
▁్రయో	-7562
▁ఖాస్త	-7563
▁విడుద	-7564
▁ిర్వహ	-7565
مہ	-7566
ہر	-7567
▁୦	-7568
▁9.	-7569
▁ce	-7570
▁me	-7571
▁مع	-7572
▁से	-7573
▁దప	-7574
▁మమ	-7575
▁వక	-7576
▁151	-7577
▁3.5	-7578
▁31,	-7579
▁OTT	-7580
▁TTD	-7581
▁انت	-7582
▁ہوا	-7583
▁ఐదవ	-7584
▁ఖర్	-7585
▁గళం	-7586
▁చాన	-7587
▁డను	-7588
▁డెం	-7589
▁బిత	-7590
▁ుమల	-7591
▁شائع	-7592
▁واقع	-7593
▁ంగ్ర	-7594
▁అంది	-7595
▁కల్య	-7596
▁గ్రె	-7597
▁తుకు	-7598
▁ప్షన	-7599
▁బహిర	-7600
▁మీటర	-7601
▁వుతా	-7602
▁ాయెల	-7603
▁ిగిన	-7604
▁رپورٹ	-7605
▁ఇస్తా	-7606
▁ట్టుబ	-7607
▁ట్లతో	-7608
▁ోయింద	-7609
ବର	-7610
వో	-7611
▁ୃ	-7612
▁di	-7613
▁مح	-7614
▁مد	-7615
▁وج	-7616
▁ఝా	-7617
▁ధం	-7618
▁102	-7619
▁16,	-7620
▁Kar	-7621
▁kar	-7622
▁حال	-7623
▁سال	-7624
▁ଏହି	-7625
▁ଖବର	-7626
▁ఏమో	-7627
▁ఏవో	-7628
▁ఖాస	-7629
▁జాడ	-7630
▁పబ్	-7631
▁ముద	-7632
▁మోత	-7633
▁యిం	-7634
▁రనే	-7635
▁రసం	-7636
▁వ్ర	-7637
▁సీట	-7638
▁ాగర	-7639
▁ిడె	-7640
▁ుసు	-7641
▁్నవ	-7642
▁్షా	-7643
▁Modi	-7644
▁గోలు	-7645
▁టీని	-7646
▁డింగ	-7647
▁ాజిక	-7648
▁ూముల	-7649
▁్టర్	-7650
▁్టిస	-7651
▁్తాయ	-7652
▁్తార	-7653
▁Hyder	-7654
▁ఇచ్చా	-7655
▁నట్టు	-7656
▁నట్లు	-7657
▁స్తాయ	-7658
AI	-7659
IM	-7660
se	-7661
زی	-7662
ضی	-7663
▁ٓ	-7664
▁इ	-7665
▁0.	-7666
▁BS	-7667
▁ma	-7668
▁جے	-7669
▁در	-7670
▁ور	-7671
▁షమ	-7672
rish	-7673
▁101	-7674
▁The	-7675
▁لیے	-7676
▁ملک	-7677
▁అరు	-7678
▁కతా	-7679
▁చరి	-7680
▁చీర	-7681
▁టాడ	-7682
▁నమో	-7683
▁బావ	-7684
▁మీల	-7685
▁యని	-7686
▁లీస	-7687
▁సమస	-7688
▁్గొ	-7689
▁్జీ	-7690
▁్నే	-7691
▁Allu	-7692
▁ایکس	-7693
▁గులు	-7694
▁నింగ	-7695
▁పులో	-7696
▁మెల్	-7697
▁రుతో	-7698
▁సీట్	-7699
▁پارٹی	-7700
▁గించి	-7701
▁చెంది	-7702
▁డియోల	-7703
▁తెలుగ	-7704
▁రాలకు	-7705
su	-7706
ub	-7707
لف	-7708
▁थ	-7709
▁ி	-7710
our	-7711
یان	-7712
▁(8	-7713
▁4)	-7714
▁AM	-7715
▁Di	-7716
▁rt	-7717
▁اع	-7718
▁ست	-7719
▁ସହ	-7720
▁ణా	-7721
▁118	-7722
▁170	-7723
▁IMD	-7724
▁KCR	-7725
▁TDP	-7726
▁cha	-7727
▁tra	-7728
▁ریس	-7729
▁ఆగం	-7730
▁ఎటూ	-7731
▁గుత	-7732
▁ధన్	-7733
▁భిన	-7734
▁లంద	-7735
▁లనే	-7736
▁ివృ	-7737
▁پولی	-7738
▁త్నా	-7739
▁మ్మడ	-7740
▁రియల	-7741
▁ేశ్వ	-7742
▁్రిక	-7743
▁పక్షా	-7744
▁లాడుత	-7745
▁్యమైన	-7746
it	-7747
ly	-7748
ne	-7749
ڑک	-7750
eng	-7751
ith	-7752
unt	-7753
اہر	-7754
ూరు	-7755
▁(7	-7756
▁-3	-7757
▁2-	-7758
▁NC	-7759
▁is	-7760
▁it	-7761
▁le	-7762
▁اف	-7763
▁پڑ	-7764
▁रह	-7765
▁ଉପ	-7766
▁ఐప	-7767
▁230	-7768
▁420	-7769
▁پشن	-7770
▁کسی	-7771
▁ఏకే	-7772
▁గస్	-7773
▁చనల	-7774
▁చిస	-7775
▁ణలో	-7776
▁నీత	-7777
▁మూవ	-7778
▁ిజన	-7779
▁ఎయిర	-7780
▁తులో	-7781
▁దిని	-7782
▁ప్పా	-7783
▁మోదీ	-7784
▁యమైన	-7785
▁ర్కా	-7786
▁ిరుద	-7787
▁ిశ్వ	-7788
▁్రియ	-7789
▁تعمال	-7790
▁پولیس	-7791
▁ర్టుల	-7792
MC	-7793
mb	-7794
رے	-7795
وع	-7796
یہ	-7797
▁ി	-7798
▁₹	-7799
ama	-7800
راہ	-7801
▁اد	-7802
▁پا	-7803
▁کھ	-7804
▁पर	-7805
▁ଉଲ	-7806
▁జక	-7807
▁మడ	-7808
▁వచ	-7809
▁(2)	-7810
▁224	-7811
▁240	-7812
▁29)	-7813
▁Ban	-7814
▁مخت	-7815
▁ఆంద	-7816
▁ఐజీ	-7817
▁చెర	-7818
▁నేడ	-7819
▁పన్	-7820
▁రమణ	-7821
▁ాంధ	-7822
▁دیکھ	-7823
▁క్కర	-7824
▁ర్కె	-7825
▁ష్మీ	-7826
▁ాడార	-7827
▁ుడిగ	-7828
▁Claim	-7829
▁ందుబా	-7830
▁గ్రెస	-7831
▁సీనియ	-7832
SC	-7833
du	-7834
oli	-7835
▁AD	-7836
▁PA	-7837
▁حم	-7838
▁سم	-7839
▁شر	-7840
▁غل	-7841
▁لگ	-7842
▁యధ	-7843
▁ొద	-7844
▁ಇದ	-7845
▁You	-7846
▁مار	-7847
▁نیو	-7848
▁ఊపు	-7849
▁చేం	-7850
▁దాద	-7851
▁నమః	-7852
▁ిబ్	-7853
▁ీపం	-7854
▁ందిస	-7855
▁ఎకరా	-7856
▁క్లా	-7857
▁చనాల	-7858
▁్లపై	-7859
▁Today	-7860
▁ప్రైవ	-7861
▁హరించ	-7862
▁్ట్స్	-7863
ET	-7864
وب	-7865
ఘు	-7866
▁ष	-7867
are	-7868
اوی	-7869
یاد	-7870
▁3)	-7871
▁Ch	-7872
▁EV	-7873
▁ML	-7874
▁da	-7875
▁qu	-7876
▁حک	-7877
▁ٹر	-7878
▁ଅପ	-7879
▁తజ	-7880
▁128	-7881
▁19,	-7882
▁23,	-7883
▁App	-7884
▁Pro	-7885
▁Shi	-7886
▁Tha	-7887
▁alu	-7888
▁ion	-7889
▁گوگ	-7890
▁ఏజ్	-7891
▁కళా	-7892
▁టామ	-7893
▁డుద	-7894
▁శవం	-7895
▁ాపి	-7896
▁్ధమ	-7897
▁్రస	-7898
▁امیج	-7899
▁ంగాల	-7900
▁అయిత	-7901
▁కాదన	-7902
▁జ్రా	-7903
▁పోతు	-7904
▁మండి	-7905
▁మోహన	-7906
▁రయ్య	-7907
▁రితం	-7908
▁లిగి	-7909
▁వసరం	-7910
▁ాజ్య	-7911
▁త్నాల	-7912
▁పరిస్	-7913
▁ివేది	-7914
▁ెన్షన	-7915
GB	-7916
ki	-7917
oc	-7918
ضم	-7919
▁•	-7920
ئیر	-7921
ریب	-7922
యలే	-7923
▁05	-7924
▁09	-7925
▁AT	-7926
▁CI	-7927
▁La	-7928
▁RC	-7929
▁ic	-7930
▁اے	-7931
▁شن	-7932
▁مب	-7933
▁کن	-7934
▁گی	-7935
▁ଯେ	-7936
▁ఈఈ	-7937
▁ఈత	-7938
▁ఠి	-7939
▁220	-7940
▁28,	-7941
▁and	-7942
▁غلط	-7943
▁ంజయ	-7944
▁ఊపి	-7945
▁టోన	-7946
▁డీఈ	-7947
▁తరా	-7948
▁నయా	-7949
▁మాక	-7950
▁రకా	-7951
▁రీక	-7952
▁రున	-7953
▁సెగ	-7954
▁హనీ	-7955
▁ూలం	-7956
▁ొలగ	-7957
▁ోనూ	-7958
▁گوگل	-7959
▁టిలో	-7960
▁దువు	-7961
▁నందు	-7962
▁ర్పి	-7963
▁సుకు	-7964
▁ేయలే	-7965
▁ోజుల	-7966
▁త్వాన	-7967
▁య్యాయ	-7968
▁ాగ్రత	-7969
▁్యులు	-7970
CL	-7971
PF	-7972
خص	-7973
قیق	-7974
్పత	-7975
▁Bo	-7976
▁es	-7977
▁mo	-7978
▁وز	-7979
▁پت	-7980
▁ెద	-7981
▁17)	-7982
▁21)	-7983
▁26,	-7984
▁Hea	-7985
▁Pay	-7986
▁kon	-7987
▁جات	-7988
▁خبر	-7989
▁ଏହା	-7990
▁ంధం	-7991
▁అమ్	-7992
▁ఆలం	-7993
▁ఎట్	-7994
▁టీఆ	-7995
▁రగడ	-7996
▁వలే	-7997
▁ాఖ్	-7998
▁ామన	-7999
▁ికం	-8000
▁ీపై	-8001
▁ెయ్	-8002
▁ౌరవ	-8003
▁్టు	-8004
▁بیان	-8005
▁لکھا	-8006
▁پہلے	-8007
▁ందిత	-8008
▁అనుమ	-8009
▁కోరి	-8010
▁గార్	-8011
▁గ్రత	-8012
▁టెన్	-8013
▁తాల్	-8014
▁త్పత	-8015
▁దర్భ	-8016
▁నిపో	-8017
▁మాజి	-8018
▁రితో	-8019
▁రిమి	-8020
▁ించు	-8021
▁ితాల	-8022
▁ిమాల	-8023
▁ియోల	-8024
▁ెంచు	-8025
▁్లకు	-8026
▁انہوں	-8027
▁مختلف	-8028
▁ల్సిన	-8029
▁ొచ్చా	-8030
ER	-8031
مل	-8032
େଇ	-8033
ine	-8034
لاق	-8035
ورس	-8036
పాట	-8037
▁1)	-8038
▁Ba	-8039
▁Ke	-8040
▁MA	-8041
▁پھ	-8042
▁یڈ	-8043
▁ఔష	-8044
▁రర	-8045
▁14)	-8046
▁30)	-8047
▁CEO	-8048
▁Var	-8049
▁ریا	-8050
▁سائ	-8051
▁پور	-8052
▁ھرا	-8053
▁కరి	-8054
▁గడప	-8055
▁భర్	-8056
▁మూత	-8057
▁లకొ	-8058
▁వైప	-8059
▁ునీ	-8060
▁ులం	-8061
▁Babu	-8062
▁rtha	-8063
▁جاری	-8064
▁فرضی	-8065
▁نیوز	-8066
▁థాన్	-8067
▁ద్యమ	-8068
▁నులు	-8069
▁సంఘట	-8070
▁్రాక	-8071
▁్లర్	-8072
▁لوگوں	-8073
▁చ్చాయ	-8074
▁తులను	-8075
▁తోపాట	-8076
▁యడంతో	-8077
▁స్థాయ	-8078
▁ిత్రా	-8079
▁ీడియా	-8080
سم	-8081
نٹ	-8082
وج	-8083
▁[	-8084
▁z	-8085
▁­	-8086
▁ఙ	-8087
▁ಏ	-8088
▁⁪	-8089
ram	-8090
انی	-8091
ینڈ	-8092
▁(9	-8093
▁1-	-8094
▁GP	-8095
▁SA	-8096
▁TV	-8097
▁YS	-8098
▁hi	-8099
▁il	-8100
▁un	-8101
▁او	-8102
▁بچ	-8103
▁فی	-8104
▁مہ	-8105
▁ణప	-8106
▁రథ	-8107
▁ీఐ	-8108
▁105	-8109
▁17,	-8110
▁360	-8111
▁4.5	-8112
▁ver	-8113
▁شخص	-8114
▁గని	-8115
▁చాడ	-8116
▁తలో	-8117
▁యమన	-8118
▁యశ్	-8119
▁శ్న	-8120
▁సక్	-8121
▁సవా	-8122
▁హనా	-8123
▁హన్	-8124
▁ినప	-8125
▁ోపా	-8126
▁بارے	-8127
▁గ్లా	-8128
▁రారం	-8129
▁ర్తు	-8130
▁లారు	-8131
▁ానాల	-8132
▁ువాత	-8133
▁్రోల	-8134
▁్లోక	-8135
▁YSRCP	-8136
▁دیکھا	-8137
▁వ్యవస	-8138
▁స్తాన	-8139
CI	-8140
MR	-8141
op	-8142
ul	-8143
▁ఋ	-8144
▁ಘ	-8145
▁03	-8146
▁ND	-8147
▁ad	-8148
▁ts	-8149
▁تق	-8150
▁کل	-8151
▁ने	-8152
▁भी	-8153
▁ణక	-8154
▁రయ	-8155
▁107	-8156
▁109	-8157
▁145	-8158
▁29,	-8159
▁750	-8160
▁Big	-8161
▁Nan	-8162
▁pap	-8163
▁son	-8164
▁war	-8165
▁رام	-8166
▁چین	-8167
▁ہوگ	-8168
▁یوب	-8169
▁یوٹ	-8170
▁ఈడి	-8171
▁ఓలా	-8172
▁కేష	-8173
▁తిష	-8174
▁నగల	-8175
▁నేం	-8176
▁పొం	-8177
▁మాచ	-8178
▁రఘు	-8179
▁రవా	-8180
▁హరీ	-8181
▁ాంల	-8182
▁ాతం	-8183
▁ాలత	-8184
▁ీసర	-8185
▁Nara	-8186
▁Ravi	-8187
▁جھوٹ	-8188
▁شامل	-8189
▁ہوئی	-8190
▁ఉండట	-8191
▁ఎంపి	-8192
▁త్యక	-8193
▁దాడు	-8194
▁లికా	-8195
▁వాలు	-8196
▁ిచిన	-8197
▁్సుల	-8198
▁Arjun	-8199
▁تحقیق	-8200
▁ఎక్కు	-8201
▁కావాల	-8202
▁తానిక	-8203
▁ిగింద	-8204
▁్రాఫి	-8205
AP	-8206
el	-8207
اف	-8208
▁த	-8209
▁‪	-8210
RTC	-8211
ood	-8212
اند	-8213
انے	-8214
▁Op	-8215
▁Ro	-8216
▁TG	-8217
▁لہ	-8218
▁نی	-8219
▁یٹ	-8220
▁ଓଡ	-8221
▁କୁ	-8222
▁ఇళ	-8223
▁డన	-8224
▁యగ	-8225
▁యత	-8226
▁(6)	-8227
▁15)	-8228
▁18)	-8229
▁RAM	-8230
▁Rah	-8231
▁San	-8232
▁اسی	-8233
▁انے	-8234
▁بتا	-8235
▁رہی	-8236
▁فار	-8237
▁لیک	-8238
▁پیش	-8239
▁گرد	-8240
▁ంధ్	-8241
▁ఈజ్	-8242
▁ఔషధ	-8243
▁జిక	-8244
▁టకు	-8245
▁తువ	-8246
▁పద్	-8247
▁మిళ	-8248
▁రేఖ	-8249
▁లీజ	-8250
▁శాయ	-8251
▁ులత	-8252
▁ేడా	-8253
▁ైద్	-8254
▁شئیر	-8255
▁پایا	-8256
▁కుని	-8257
▁పురు	-8258
▁రంభమ	-8259
▁రాజే	-8260
▁ల్వే	-8261
▁వినా	-8262
▁ాకుం	-8263
▁ిల్స	-8264
▁بنگلہ	-8265
▁تصاوی	-8266
▁వ్వాల	-8267
▁ార్లు	-8268
▁ుగురు	-8269
HO	-8270
kh	-8271
ہی	-8272
▁]	-8273
▁க	-8274
▁ೌ	-8275
ish	-8276
ندر	-8277
▁7)	-8278
▁Da	-8279
▁ah	-8280
▁nk	-8281
▁ur	-8282
▁ئے	-8283
▁بہ	-8284
▁نک	-8285
▁ଟି	-8286
▁మళ	-8287
▁శప	-8288
▁ెయ	-8289
▁103	-8290
▁NTR	-8291
▁Sab	-8292
▁nna	-8293
▁rma	-8294
▁tty	-8295
▁اسے	-8296
▁انڈ	-8297
▁این	-8298
▁لائ	-8299
▁وجہ	-8300
▁چلا	-8301
▁టేశ	-8302
▁నీడ	-8303
▁పదవ	-8304
▁బూర	-8305
▁రంప	-8306
▁వాగ	-8307
▁ిశీ	-8308
▁ేయడ	-8309
▁్బు	-8310
▁్వు	-8311
▁Push	-8312
▁Rain	-8313
▁مودی	-8314
▁ఎస్ట	-8315
▁చరిత	-8316
▁తుంద	-8317
▁ధికా	-8318
▁పారు	-8319
▁పోవడ	-8320
▁యాలి	-8321
▁ళ్లా	-8322
▁ళ్లీ	-8323
▁వాస్	-8324
▁వెను	-8325
▁ష్ణా	-8326
▁ీసుక	-8327
▁్షుడ	-8328
▁بتایا	-8329
▁గించే	-8330
▁తోంది	-8331
▁లితాల	-8332
▁సిపల్	-8333
▁ికారం	-8334
▁ెక్కి	-8335
▁ేదన్న	-8336
▁ోమవార	-8337
NG	-8338
SP	-8339
eo	-8340
اح	-8341
شت	-8342
قت	-8343
لو	-8344
کر	-8345
▁उ	-8346
ral	-8347
ube	-8348
اکس	-8349
یڈی	-8350
▁ch	-8351
▁ha	-8352
▁ఐస	-8353
▁121	-8354
▁19)	-8355
▁317	-8356
▁Sri	-8357
▁hea	-8358
▁nya	-8359
▁oor	-8360
▁آند	-8361
▁ترج	-8362
▁تھے	-8363
▁مدد	-8364
▁یوں	-8365
▁ంచక	-8366
▁ండె	-8367
▁ఏవి	-8368
▁కొద	-8369
▁గరం	-8370
▁జాం	-8371
▁డుగ	-8372
▁తోక	-8373
▁పరు	-8374
▁రైల	-8375
▁లోమ	-8376
▁వచ్	-8377
▁వయో	-8378
▁వేప	-8379
▁సరం	-8380
▁ికప	-8381
▁ిదం	-8382
▁ుతా	-8383
▁్గి	-8384
▁bhas	-8385
▁read	-8386
▁مسلم	-8387
▁نامی	-8388
▁క్కన	-8389
▁నంతర	-8390
▁నేషన	-8391
▁పెరి	-8392
▁రుద్	-8393
▁రెక్	-8394
▁లిచి	-8395
▁శాడు	-8396
▁ారిం	-8397
▁ీడర్	-8398
▁ెప్ట	-8399
▁్టుల	-8400
▁Gandh	-8401
▁reddy	-8402
▁متعلق	-8403
▁రువాత	-8404
▁్నారు	-8405
MA	-8406
NL	-8407
SS	-8408
TS	-8409
fe	-8410
جن	-8411
نت	-8412
نچ	-8413
▁ण	-8414
▁ଞ	-8415
▁ப	-8416
▁ന	-8417
ame	-8418
اری	-8419
▁3:	-8420
▁Bu	-8421
▁Ko	-8422
▁No	-8423
▁Vs	-8424
▁du	-8425
▁iP	-8426
▁ss	-8427
▁wa	-8428
▁آپ	-8429
▁بے	-8430
▁تم	-8431
▁دہ	-8432
▁شا	-8433
▁گا	-8434
▁یت	-8435
▁तो	-8436
▁ଆମ	-8437
▁ଆସ	-8438
▁శత	-8439
▁(4)	-8440
▁114	-8441
▁147	-8442
▁164	-8443
▁22)	-8444
▁27)	-8445
▁Par	-8446
▁ine	-8447
▁jee	-8448
▁سام	-8449
▁نام	-8450
▁نظر	-8451
▁وار	-8452
▁ویب	-8453
▁کرک	-8454
▁కిత	-8455
▁కుట	-8456
▁ఘట్	-8457
▁జాయ	-8458
▁టివ	-8459
▁తపన	-8460
▁రయి	-8461
▁లపా	-8462
▁సుఖ	-8463
▁ాపా	-8464
▁్జె	-8465
▁్దం	-8466
▁్శి	-8467
▁Beng	-8468
▁انتخ	-8469
▁لیکن	-8470
▁وزیر	-8471
▁کررہ	-8472
▁ంటార	-8473
▁ండియ	-8474
▁ందిక	-8475
▁యూటీ	-8476
▁రిగే	-8477
▁సారు	-8478
▁సోషల	-8479
▁్లాడ	-8480
▁ریورس	-8481
▁తుంది	-8482
▁తువుల	-8483
▁న్నాడ	-8484
▁ిచ్చా	-8485
▁్రత్య	-8486
ia	-8487
اج	-8488
ଟୋ	-8489
ఒక	-8490
▁ِ	-8491
▁ಐ	-8492
راد	-8493
▁5)	-8494
▁Fi	-8495
▁HD	-8496
▁Li	-8497
▁Mr	-8498
▁Mu	-8499
▁Ru	-8500
▁Sp	-8501
▁mu	-8502
▁su	-8503
▁ul	-8504
▁بک	-8505
▁ଅଧ	-8506
▁బత	-8507
▁రధ	-8508
▁ౌస	-8509
▁106	-8510
▁20)	-8511
▁27,	-8512
▁280	-8513
▁365	-8514
▁GPT	-8515
▁Har	-8516
▁Sur	-8517
▁WHO	-8518
▁ika	-8519
▁she	-8520
▁صدر	-8521
▁ٹری	-8522
▁کئی	-8523
▁ନେଇ	-8524
▁ଫଟୋ	-8525
▁ఆటా	-8526
▁ఉషా	-8527
▁ఓజీ	-8528
▁కేవ	-8529
▁జాబ	-8530
▁దవి	-8531
▁దశల	-8532
▁నప్	-8533
▁పల్	-8534
▁పూత	-8535
▁బీబ	-8536
▁బుత	-8537
▁భివ	-8538
▁యిస	-8539
▁రజత	-8540
▁లీవ	-8541
▁ాళ్	-8542
▁ేఖర	-8543
▁Jana	-8544
▁elec	-8545
▁تمام	-8546
▁جانچ	-8547
▁جانے	-8548
▁దుకో	-8549
▁ర్జి	-8550
▁ావిస	-8551
▁ిచార	-8552
▁ురువ	-8553
▁ూపర్	-8554
▁انہیں	-8555
▁ترجمہ	-8556
▁واقعہ	-8557
▁క్రమా	-8558
▁తోన్న	-8559
▁బ్బంద	-8560
▁ించాడ	-8561
▁ికారి	-8562
▁ీపంలో	-8563
▁ుగ్గు	-8564
▁్టెన్	-8565
BS	-8566
FC	-8567
IR	-8568
RC	-8569
ta	-8570
بل	-8571
ٹا	-8572
ఫా	-8573
▁া	-8574
▁യ	-8575
ovi	-8576
جود	-8577
لاف	-8578
لیٹ	-8579
▁01	-8580
▁02	-8581
▁07	-8582
▁3-	-8583
▁6)	-8584
▁Se	-8585
▁at	-8586
▁bo	-8587
▁خو	-8588
▁دھ	-8589
▁مش	-8590
▁گو	-8591
▁ఈస	-8592
▁ఏఏ	-8593
▁కష	-8594
▁నద	-8595
▁ಸಹ	-8596
ضمون	-8597
ظاہر	-8598
ాయిల	-8599
▁(3)	-8600
▁12)	-8601
▁190	-8602
▁KTR	-8603
▁Lok	-8604
▁Mar	-8605
▁NRI	-8606
▁rat	-8607
▁thi	-8608
▁wal	-8609
▁اری	-8610
▁دوس	-8611
▁ریل	-8612
▁لڑک	-8613
▁پتہ	-8614
▁ہور	-8615
▁یان	-8616
▁అయన	-8617
▁ఎకో	-8618
▁కచ్	-8619
▁టోల	-8620
▁దత్	-8621
▁నబీ	-8622
▁పశు	-8623
▁యష్	-8624
▁ితర	-8625
▁ొటో	-8626
▁ొదల	-8627
▁ోహ్	-8628
▁Bigg	-8629
▁Chat	-8630
▁Poli	-8631
▁Poll	-8632
▁Raja	-8633
▁Sing	-8634
▁Telu	-8635
▁تلنگ	-8636
▁تیار	-8637
▁کریں	-8638
▁జిస్	-8639
▁త్మక	-8640
▁దాదా	-8641
▁నట్ట	-8642
▁లర్ల	-8643
▁వైరల	-8644
▁ాష్ట	-8645
▁ోహన్	-8646
▁్తున	-8647
▁్రాయ	-8648
▁Kumar	-8649
▁حالیہ	-8650
▁مضمون	-8651
▁موجود	-8652
▁ఇవ్వడ	-8653
▁గళూరు	-8654
▁చాలని	-8655
▁ట్టడం	-8656
▁థాయిల	-8657
▁బీజేప	-8658
▁రానిక	-8659
▁ల్లీల	-8660
▁ికార్	-8661
▁ుపత్ర	-8662
ED	-8663
MS	-8664
RO	-8665
TV	-8666
▁°	-8667
ook	-8668
ریع	-8669
ومت	-8670
▁04	-8671
▁2:	-8672
▁Am	-8673
▁GH	-8674
▁Ha	-8675
▁ID	-8676
▁Po	-8677
▁SD	-8678
▁Sh	-8679
▁ct	-8680
▁lo	-8681
▁ro	-8682
▁اہ	-8683
▁مر	-8684
▁ھی	-8685
▁ఈఓ	-8686
▁గై	-8687
▁116	-8688
▁124	-8689
▁157	-8690
▁191	-8691
▁23)	-8692
▁550	-8693
▁اگر	-8694
▁بات	-8695
▁روپ	-8696
▁سیا	-8697
▁لیڈ	-8698
▁ٹیم	-8699
▁پھی	-8700
▁پیغ	-8701
▁یشن	-8702
▁یکل	-8703
▁ఘడ్	-8704
▁జగన	-8705
▁పుట	-8706
▁బజ్	-8707
▁మధ్	-8708
▁రథం	-8709
▁ళ్య	-8710
▁ేదా	-8711
▁ేషన	-8712
▁్పం	-8713
▁్రొ	-8714
▁BSNL	-8715
▁Chir	-8716
▁Mahe	-8717
▁Raji	-8718
▁Tube	-8719
▁Vish	-8720
▁taka	-8721
▁tela	-8722
▁very	-8723
▁ذریع	-8724
▁ریڈی	-8725
▁وائی	-8726
▁کردہ	-8727
▁ఇటీవ	-8728
▁కావడ	-8729
▁డాని	-8730
▁యాల్	-8731
▁వారా	-8732
▁షర్మ	-8733
▁ిరుమ	-8734
▁్రిత	-8735
▁konda	-8736
▁حکومت	-8737
▁దర్యా	-8738
▁్మెంట	-8739
AN	-8740
AR	-8741
ds	-8742
gi	-8743
ut	-8744
صل	-8745
وک	-8746
ିଜ	-8747
▁୪	-8748
▁ம	-8749
▁ಠ	-8750
▁00	-8751
▁ED	-8752
▁IC	-8753
▁SR	-8754
▁SS	-8755
▁ac	-8756
▁ep	-8757
▁mm	-8758
▁si	-8759
▁تی	-8760
▁تے	-8761
▁جگ	-8762
▁مج	-8763
▁ٹک	-8764
▁کت	-8765
▁گم	-8766
▁एक	-8767
▁ଅଭ	-8768
▁ଓଟ	-8769
▁ఓవ	-8770
▁దహ	-8771
▁113	-8772
▁13)	-8773
▁24)	-8774
▁288	-8775
▁50%	-8776
▁6.5	-8777
▁age	-8778
▁ban	-8779
▁for	-8780
▁lts	-8781
▁ple	-8782
▁ter	-8783
▁انک	-8784
▁فیس	-8785
▁ووٹ	-8786
▁ନିଜ	-8787
▁ఓపీ	-8788
▁కథా	-8789
▁కమై	-8790
▁కరా	-8791
▁కరె	-8792
▁కువ	-8793
▁ఛలో	-8794
▁జమా	-8795
▁డాన	-8796
▁ల్న	-8797
▁షనర	-8798
▁హజ్	-8799
▁ిశ్	-8800
▁ుకె	-8801
▁్లక	-8802
▁Bala	-8803
▁Loke	-8804
▁tiru	-8805
▁خلاف	-8806
▁دنوں	-8807
▁ستان	-8808
▁فارم	-8809
▁لیڈر	-8810
▁پاکس	-8811
▁ంటివ	-8812
▁అవకా	-8813
▁డులు	-8814
▁దికి	-8815
▁దుబా	-8816
▁రాబా	-8817
▁ల్యే	-8818
▁సర్ల	-8819
▁హక్క	-8820
▁ీసర్	-8821
▁్నాం	-8822
▁کررہے	-8823
▁گمراہ	-8824
▁ఆందోళ	-8825
▁గిస్త	-8826
▁గ్రహా	-8827
▁చేయను	-8828
▁డ్జెట	-8829
▁మయంలో	-8830
▁ోతుంద	-8831
▁్రాక్	-8832
si	-8833
yo	-8834
می	-8835
ٹس	-8836
ڈو	-8837
మన	-8838
▁ओ	-8839
▁ட	-8840
▁ு	-8841
▁പ	-8842
▁ു	-8843
ate	-8844
ائد	-8845
ایت	-8846
لکہ	-8847
▁2"	-8848
▁9)	-8849
▁CO	-8850
▁CS	-8851
▁Jo	-8852
▁LI	-8853
▁زب	-8854
▁گے	-8855
▁చడ	-8856
▁షూ	-8857
▁ెచ	-8858
ater	-8859
hats	-8860
▁(5)	-8861
▁132	-8862
▁149	-8863
▁2.0	-8864
▁225	-8865
▁25)	-8866
▁Ass	-8867
▁Del	-8868
▁NIA	-8869
▁Rea	-8870
▁SBI	-8871
▁cau	-8872
▁emb	-8873
▁man	-8874
▁pro	-8875
▁ram	-8876
▁ran	-8877
▁shi	-8878
▁ائی	-8879
▁بہت	-8880
▁خات	-8881
▁رنگ	-8882
▁سنگ	-8883
▁عام	-8884
▁అవు	-8885
▁ఎదో	-8886
▁ఏజీ	-8887
▁ఏడీ	-8888
▁ఐటి	-8889
▁చిప	-8890
▁డకు	-8891
▁తక్	-8892
▁పడక	-8893
▁రబా	-8894
▁రేం	-8895
▁లిద	-8896
▁శకం	-8897
▁శోభ	-8898
▁సీఏ	-8899
▁ాశి	-8900
▁ూవీ	-8901
▁్కొ	-8902
▁్రజ	-8903
▁Cong	-8904
▁Kavi	-8905
▁Shar	-8906
▁iPho	-8907
▁ther	-8908
▁بلکہ	-8909
▁سابق	-8910
▁شروع	-8911
▁پلیٹ	-8912
▁ఎందు	-8913
▁టును	-8914
▁పయోగ	-8915
▁పెట్	-8916
▁రావడ	-8917
▁శించ	-8918
▁హిళా	-8919
▁ికెట	-8920
▁ేశాడ	-8921
▁్టెం	-8922
▁TSRTC	-8923
▁Video	-8924
▁అనంతర	-8925
▁ట్టిం	-8926
▁న్నాం	-8927
▁ష్కరి	-8928
▁ిధిలో	-8929
▁ుత్వా	-8930
TA	-8931
US	-8932
UV	-8933
es	-8934
wa	-8935
رف	-8936
జం	-8937
▁$	-8938
▁ാ	-8939
ide	-8940
ini	-8941
دید	-8942
▁08	-8943
▁CP	-8944
▁Ex	-8945
▁My	-8946
▁NA	-8947
▁TC	-8948
▁UI	-8949
▁ga	-8950
▁go	-8951
▁pu	-8952
▁با	-8953
▁عن	-8954
▁عو	-8955
▁लि	-8956
▁ଏନ	-8957
▁112	-8958
▁134	-8959
▁159	-8960
▁26)	-8961
▁28)	-8962
▁Air	-8963
▁Chi	-8964
▁Cri	-8965
▁Day	-8966
▁EPF	-8967
▁RBI	-8968
▁Tra	-8969
▁Van	-8970
▁nce	-8971
▁van	-8972
▁آنے	-8973
▁انگ	-8974
▁ملی	-8975
▁ఆపే	-8976
▁కనీ	-8977
▁కమల	-8978
▁దఫా	-8979
▁దహన	-8980
▁పీస	-8981
▁భజన	-8982
▁భామ	-8983
▁మడి	-8984
▁మాడ	-8985
▁యోల	-8986
▁రశ్	-8987
▁రీన	-8988
▁లిం	-8989
▁లోయ	-8990
▁సిన	-8991
▁ాజర	-8992
▁ెనీ	-8993
▁ొలి	-8994
▁ోకే	-8995
▁nika	-8996
▁nkar	-8997
▁زبان	-8998
▁علاق	-8999
▁مندر	-9000
▁తాలో	-9001
▁ధులు	-9002
▁ప్పడ	-9003
▁బెట్	-9004
▁బోతు	-9005
▁మిటీ	-9006
▁ర్టి	-9007
▁స్తర	-9008
▁ాపూర	-9009
▁ించక	-9010
▁ివాద	-9011
▁ువగా	-9012
▁Singh	-9013
▁embly	-9014
▁krish	-9015
▁టించా	-9016
▁తీర్ప	-9017
▁రిస్థ	-9018
▁రుకున	-9019
▁ర్చుక	-9020
▁ిసెంబ	-9021
▁ెట్టా	-9022
▁్టీలు	-9023
▁్లాడు	-9024
DC	-9025
FI	-9026
ni	-9027
لس	-9028
وپ	-9029
ವರ	-9030
▁ض	-9031
▁ई	-9032
▁ি	-9033
idu	-9034
igh	-9035
ina	-9036
دیق	-9037
زار	-9038
▁06	-9039
▁Ac	-9040
▁HM	-9041
▁IS	-9042
▁IT	-9043
▁SI	-9044
▁SO	-9045
▁SP	-9046
▁Ti	-9047
▁Wi	-9048
▁mA	-9049
▁ry	-9050
▁ve	-9051
▁آب	-9052
▁از	-9053
▁تک	-9054
▁جی	-9055
▁خط	-9056
▁شش	-9057
▁مذ	-9058
▁مم	-9059
▁نا	-9060
▁نش	-9061
▁ଆକ	-9062
▁000	-9063
▁16)	-9064
▁270	-9065
▁650	-9066
▁ANI	-9067
▁Com	-9068
▁IPC	-9069
▁NDA	-9070
▁Rao	-9071
▁Vaa	-9072
▁Ven	-9073
▁ath	-9074
▁lme	-9075
▁nda	-9076
▁rol	-9077
▁ted	-9078
▁ung	-9079
▁فرو	-9080
▁فیک	-9081
▁ٹوئ	-9082
▁کام	-9083
▁అటూ	-9084
▁ఆజం	-9085
▁ఆరవ	-9086
▁ఆలీ	-9087
▁ఇటూ	-9088
▁ఎంఏ	-9089
▁ఐబీ	-9090
▁కలల	-9091
▁జేప	-9092
▁డ్స	-9093
▁తృత	-9094
▁దాఖ	-9095
▁దైవ	-9096
▁దోమ	-9097
▁బీఏ	-9098
▁యప్	-9099
▁యాచ	-9100
▁యాత	-9101
▁రచన	-9102
▁శిక	-9103
▁సీమ	-9104
▁హను	-9105
▁ోదు	-9106
▁్డా	-9107
▁ಅವರ	-9108
▁ಇದೇ	-9109
▁Nare	-9110
▁mila	-9111
▁with	-9112
▁ایسا	-9113
▁تعلق	-9114
▁زیاد	-9115
▁والا	-9116
▁چینل	-9117
▁کرنا	-9118
▁گردش	-9119
▁ఈసార	-9120
▁తాన్	-9121
▁దక్ష	-9122
▁పత్త	-9123
▁యంత్	-9124
▁ష్మి	-9125
▁సిల్	-9126
▁ాలయా	-9127
▁ిమర్	-9128
▁ివిధ	-9129
▁ెలియ	-9130
▁ోగ్య	-9131
▁్పాల	-9132
▁్రత్	-9133
▁్రేమ	-9134
▁్లతో	-9135
▁Polls	-9136
▁تصدیق	-9137
▁کردیا	-9138
▁ఉండాల	-9139
▁పోవడం	-9140
▁మండిప	-9141
▁ిరుద్	-9142
-6	-9143
LV	-9144
gh	-9145
io	-9146
ti	-9147
ty	-9148
ثر	-9149
ضح	-9150
జై	-9151
▁छ	-9152
▁ठ	-9153
▁ఱ	-9154
▁ಓ	-9155
ira	-9156
ksh	-9157
oma	-9158
تال	-9159
وان	-9160
وری	-9161
▁NE	-9162
▁UA	-9163
▁UK	-9164
▁Ve	-9165
▁as	-9166
▁ed	-9167
▁fa	-9168
▁اؤ	-9169
▁اش	-9170
▁جم	-9171
▁دس	-9172
▁دے	-9173
▁رڈ	-9174
▁لے	-9175
▁چھ	-9176
▁दे	-9177
▁ଏଥ	-9178
▁ଏଭ	-9179
▁నత	-9180
▁సప	-9181
▁1.2	-9182
▁10)	-9183
▁11)	-9184
▁123	-9185
▁126	-9186
▁127	-9187
▁138	-9188
▁162	-9189
▁167	-9190
▁181	-9191
▁199	-9192
▁2-3	-9193
▁3.1	-9194
▁IST	-9195
▁Mal	-9196
▁OTP	-9197
▁Sai	-9198
▁She	-9199
▁Tri	-9200
▁ers	-9201
▁ide	-9202
▁kha	-9203
▁raj	-9204
▁بیچ	-9205
▁رکھ	-9206
▁فری	-9207
▁لگا	-9208
▁لیا	-9209
▁وقت	-9210
▁ٹائ	-9211
▁چند	-9212
▁کئے	-9213
▁ంగళ	-9214
▁ఇషా	-9215
▁ఊసే	-9216
▁ఏబీ	-9217
▁ఐతే	-9218
▁ఒడి	-9219
▁కోక	-9220
▁చలో	-9221
▁జైన	-9222
▁దలై	-9223
▁దాత	-9224
▁నేష	-9225
▁బద్	-9226
▁లెం	-9227
▁లేత	-9228
▁విం	-9229
▁సిబ	-9230
▁్పో	-9231
▁్వయ	-9232
▁Naga	-9233
▁تلگو	-9234
▁جھنڈ	-9235
▁ریلی	-9236
▁سنگھ	-9237
▁سکتے	-9238
▁لڑکی	-9239
▁واضح	-9240
▁پورٹ	-9241
▁కూటమ	-9242
▁క్టర	-9243
▁క్షల	-9244
▁డుతో	-9245
▁ద్రం	-9246
▁ధ్వర	-9247
▁రీరా	-9248
▁రీవా	-9249
▁రులు	-9250
▁ర్శన	-9251
▁ాంకు	-9252
▁ావేశ	-9253
▁్కుల	-9254
▁Naidu	-9255
▁Shiva	-9256
▁Varma	-9257
▁Whats	-9258
▁ంద్రం	-9259
▁మాన్య	-9260
▁ల్లోక	-9261
▁ియాలో	-9262
▁ీసుకె	-9263
▁ేందుక	-9264
▁్టేషన	-9265
IB	-9266
tm	-9267
زر	-9268
لع	-9269
نک	-9270
▁ଵ	-9271
▁ട	-9272
CCI	-9273
rah	-9274
sta	-9275
الے	-9276
دیل	-9277
لیک	-9278
مبر	-9279
▁6-	-9280
▁At	-9281
▁CA	-9282
▁Do	-9283
▁Is	-9284
▁MS	-9285
▁NH	-9286
▁TR	-9287
▁et	-9288
▁gy	-9289
▁اخ	-9290
▁అట	-9291
▁ఈగ	-9292
▁యద	-9293
▁122	-9294
▁142	-9295
▁210	-9296
▁8.5	-9297
▁GST	-9298
▁ICC	-9299
▁Pre	-9300
▁fic	-9301
▁mAh	-9302
▁nic	-9303
▁rth	-9304
▁sth	-9305
▁zon	-9306
▁ارے	-9307
▁اون	-9308
▁بنا	-9309
▁تیل	-9310
▁جگہ	-9311
▁پھر	-9312
▁چاہ	-9313
▁అఫ్	-9314
▁ఉల్	-9315
▁ఏఈఈ	-9316
▁గంప	-9317
▁గరా	-9318
▁దిస	-9319
▁నవీ	-9320
▁నుం	-9321
▁పరం	-9322
▁పీట	-9323
▁మలి	-9324
▁రైవ	-9325
▁లేజ	-9326
▁వయా	-9327
▁షుల	-9328
▁హంస	-9329
▁ిజర	-9330
▁ోతో	-9331
▁Cour	-9332
▁GHMC	-9333
▁Khan	-9334
▁Movi	-9335
▁Sama	-9336
▁deva	-9337
▁امری	-9338
▁انٹر	-9339
▁ہزار	-9340
▁పల్ల	-9341
▁పిటి	-9342
▁పోయా	-9343
▁వేలు	-9344
▁ాంట్	-9345
▁ాపార	-9346
▁ిధిల	-9347
▁ుండట	-9348
▁ైనల్	-9349
▁ోతున	-9350
▁్రతి	-9351
▁Karna	-9352
▁Karth	-9353
▁انڈیا	-9354
▁تبدیل	-9355
▁ریاست	-9356
▁عنوان	-9357
▁فروخت	-9358
▁ంగ్రె	-9359
▁క్షకు	-9360
▁జిల్ల	-9361
▁తుల్ల	-9362
▁నానిక	-9363
▁భారతీ	-9364
▁రాబాద	-9365
▁రులను	-9366
CA	-9367
DI	-9368
SA	-9369
lo	-9370
▁घ	-9371
ber	-9372
ind	-9373
one	-9374
زید	-9375
▁8)	-9376
▁AS	-9377
▁FB	-9378
▁Ga	-9379
▁He	-9380
▁LG	-9381
▁SC	-9382
▁XI	-9383
▁ai	-9384
▁ex	-9385
▁no	-9386
▁om	-9387
▁sc	-9388
▁us	-9389
▁اح	-9390
▁مص	-9391
▁وف	-9392
▁कि	-9393
▁यह	-9394
▁ଜଣ	-9395
▁ରୁ	-9396
▁ఉష	-9397
▁కక	-9398
▁ఘం	-9399
▁శశ	-9400
▁్ఞ	-9401
ర్కొ	-9402
▁(10	-9403
▁(22	-9404
▁(24	-9405
▁(9)	-9406
▁117	-9407
▁12:	-9408
▁233	-9409
▁260	-9410
▁6.7	-9411
▁Ani	-9412
▁ISR	-9413
▁Jan	-9414
▁Pal	-9415
▁Sam	-9416
▁Wea	-9417
▁che	-9418
▁dge	-9419
▁nka	-9420
▁انا	-9421
▁ایپ	-9422
▁درم	-9423
▁دیو	-9424
▁سرک	-9425
▁صرف	-9426
▁طرف	-9427
▁ملے	-9428
▁ہوں	-9429
▁लिए	-9430
▁ంభం	-9431
▁అపర	-9432
▁ఈద్	-9433
▁ఓసీ	-9434
▁ఔరా	-9435
▁కవల	-9436
▁డచ్	-9437
▁డదు	-9438
▁దగా	-9439
▁దరా	-9440
▁దలు	-9441
▁నట్	-9442
▁నీచ	-9443
▁భలే	-9444
▁వకు	-9445
▁వహా	-9446
▁వేం	-9447
▁సనా	-9448
▁హమీ	-9449
▁ాబో	-9450
▁ిరస	-9451
▁ేటర	-9452
▁Shah	-9453
▁book	-9454
▁cide	-9455
▁خوات	-9456
▁سائٹ	-9457
▁فریم	-9458
▁مزید	-9459
▁منظر	-9460
▁گاند	-9461
▁ہوتا	-9462
▁ంజయ్	-9463
▁ంబ్ల	-9464
▁ఒత్త	-9465
▁కాను	-9466
▁తర్జ	-9467
▁పిటల	-9468
▁బులు	-9469
▁మాను	-9470
▁రిల్	-9471
▁రూప్	-9472
▁ర్షా	-9473
▁ల్పి	-9474
▁ల్సి	-9475
▁ామాన	-9476
▁ావాల	-9477
▁ెంగళ	-9478
▁్తిక	-9479
▁్మన్	-9480
▁్లుగ	-9481
▁Court	-9482
▁Priya	-9483
▁Sabha	-9484
▁water	-9485
▁تیلگو	-9486
▁جارہی	-9487
▁معامل	-9488
▁پڑتال	-9489
▁కోవడం	-9490
▁క్షిం	-9491
▁తొలగి	-9492
▁ేర్కొ	-9493
EI	-9494
IT	-9495
MI	-9496
NA	-9497
QI	-9498
اخ	-9499
تر	-9500
مد	-9501
وت	-9502
ృవ	-9503
▁্	-9504
anu	-9505
ard	-9506
lus	-9507
لاب	-9508
▁--	-9509
▁1/	-9510
▁BH	-9511
▁Co	-9512
▁Cy	-9513
▁NG	-9514
▁PS	-9515
▁ST	-9516
▁Ta	-9517
▁aj	-9518
▁bi	-9519
▁ir	-9520
▁lu	-9521
▁nc	-9522
▁wi	-9523
▁جہ	-9524
▁وڈ	-9525
▁ہر	-9526
▁ఇట	-9527
▁ఏస	-9528
▁మఠ	-9529
yodh	-9530
▁1.1	-9531
▁1.8	-9532
▁136	-9533
▁148	-9534
▁163	-9535
▁166	-9536
▁171	-9537
▁172	-9538
▁186	-9539
▁2.6	-9540
▁204	-9541
▁219	-9542
▁235	-9543
▁299	-9544
▁302	-9545
▁720	-9546
▁ATM	-9547
▁Ama	-9548
▁EVM	-9549
▁IAS	-9550
▁ORR	-9551
▁One	-9552
▁RCB	-9553
▁Sun	-9554
▁ame	-9555
▁der	-9556
▁kal	-9557
▁mal	-9558
▁nam	-9559
▁nts	-9560
▁ore	-9561
▁pat	-9562
▁pra	-9563
▁sea	-9564
▁جاس	-9565
▁فوج	-9566
▁مال	-9567
▁کار	-9568
▁کیے	-9569
▁ంగం	-9570
▁ందో	-9571
▁ంధా	-9572
▁కలత	-9573
▁కలప	-9574
▁కిస	-9575
▁గనక	-9576
▁గుహ	-9577
▁గోస	-9578
▁చట్	-9579
▁జతల	-9580
▁జనన	-9581
▁జీఓ	-9582
▁తలా	-9583
▁తాజ	-9584
▁ధృవ	-9585
▁నాశ	-9586
▁బోడ	-9587
▁మలు	-9588
▁యోజ	-9589
▁వనం	-9590
▁సేద	-9591
▁హగ్	-9592
▁ాజె	-9593
▁ావే	-9594
▁ాశం	-9595
▁ీఎస	-9596
▁ుపో	-9597
▁ేదీ	-9598
▁ేయా	-9599
▁్పక	-9600
▁్పి	-9601
▁BCCI	-9602
▁ISRO	-9603
▁Maha	-9604
▁Resu	-9605
▁also	-9606
▁kunt	-9607
▁nder	-9608
▁star	-9609
▁آباد	-9610
▁ابات	-9611
▁الیک	-9612
▁بارش	-9613
▁دہلی	-9614
▁قریب	-9615
▁ہینڈ	-9616
▁ందిన	-9617
▁కుమా	-9618
▁ప్పట	-9619
▁రెసి	-9620
▁వేడు	-9621
▁వేస్	-9622
▁ారిత	-9623
▁ాలన్	-9624
▁ేయాల	-9625
▁ోహిత	-9626
▁్చిన	-9627
▁్లను	-9628
▁viral	-9629
▁ٹوئٹر	-9630
▁యానిక	-9631
▁ర్ణాట	-9632
▁సంప్ర	-9633
10	-9634
AL	-9635
EE	-9636
gg	-9637
jp	-9638
mp	-9639
vo	-9640
جے	-9641
دا	-9642
سر	-9643
ରେ	-9644
▁ئ	-9645
▁র	-9646
▁ல	-9647
▁வ	-9648
▁౦	-9649
▁ത	-9650
ens	-9651
ert	-9652
ome	-9653
ree	-9654
ابل	-9655
بئی	-9656
رین	-9657
لاش	-9658
కుల	-9659
▁5%	-9660
▁Ca	-9661
▁En	-9662
▁MM	-9663
▁Mi	-9664
▁SL	-9665
▁fe	-9666
▁sa	-9667
▁ty	-9668
▁آف	-9669
▁اگ	-9670
▁تج	-9671
▁حص	-9672
▁حل	-9673
▁شد	-9674
▁شک	-9675
▁जी	-9676
▁ଆଇ	-9677
▁ଓର	-9678
▁యణ	-9679
RCTC	-9680
علان	-9681
▁(8)	-9682
▁165	-9683
▁174	-9684
▁182	-9685
▁2.1	-9686
▁256	-9687
▁31)	-9688
▁40%	-9689
▁543	-9690
▁7.5	-9691
▁AUS	-9692
▁Bab	-9693
▁CMO	-9694
▁Dee	-9695
▁Kan	-9696
▁MLA	-9697
▁ODI	-9698
▁Sal	-9699
▁USA	-9700
▁con	-9701
▁gan	-9702
▁ایش	-9703
▁بائ	-9704
▁بڑے	-9705
▁سیک	-9706
▁عمل	-9707
▁متن	-9708
▁وری	-9709
▁کتا	-9710
▁کلی	-9711
▁گھر	-9712
▁रहा	-9713
▁ంఘం	-9714
▁అద్	-9715
▁అభయ	-9716
▁ఆలా	-9717
▁ఏడవ	-9718
▁ఏపి	-9719
▁కసి	-9720
▁కుజ	-9721
▁కొట	-9722
▁చను	-9723
▁తనే	-9724
▁పనీ	-9725
▁పరమ	-9726
▁ఫన్	-9727
▁బడే	-9728
▁మాఘ	-9729
▁రఫా	-9730
▁విగ	-9731
▁శిం	-9732
▁సెప	-9733
▁ాగం	-9734
▁ిజా	-9735
▁ూజి	-9736
▁Deva	-9737
▁EPFO	-9738
▁Hanu	-9739
▁Mega	-9740
▁Open	-9741
▁Teja	-9742
▁boss	-9743
▁path	-9744
▁اعلی	-9745
▁تلاش	-9746
▁دیگر	-9747
▁عوام	-9748
▁ఆందో	-9749
▁ఆసుప	-9750
▁చాలన	-9751
▁జాబి	-9752
▁జీనా	-9753
▁టనలో	-9754
▁ముఖ్	-9755
▁రిధి	-9756
▁విగ్	-9757
▁శాలల	-9758
▁స్తే	-9759
▁ుందు	-9760
▁ుకుం	-9761
▁ుపతి	-9762
▁ూస్త	-9763
▁్పిన	-9764
▁్వామ	-9765
▁్వీట	-9766
▁్సర్	-9767
▁Ayodh	-9768
▁IRCTC	-9769
▁Kalva	-9770
▁اعلان	-9771
▁بنایا	-9772
▁تقریب	-9773
▁ذریعے	-9774
▁سیلاب	-9775
▁پھیلا	-9776
▁ఉంటార	-9777
▁ఉన్నప	-9778
▁జ్రాయ	-9779
▁నికుల	-9780
▁పించే	-9781
▁ప్పిన	-9782
▁ప్లాన	-9783
▁విగ్ర	-9784
▁ెప్పి	-9785
▁ెలిసి	-9786
▁్పత్ర	-9787
-1	-9788
EL	-9789
ES	-9790
IS	-9791
VI	-9792
ck	-9793
ks	-9794
mo	-9795
sk	-9796
قد	-9797
قہ	-9798
وف	-9799
پر	-9800
ڑے	-9801
یم	-9802
జి	-9803
నో	-9804
▁ث	-9805
▁ক	-9806
▁ୈ	-9807
▁୫	-9808
▁ர	-9809
▁ಊ	-9810
▁‐	-9811
ill	-9812
ily	-9813
mba	-9814
ter	-9815
الی	-9816
علی	-9817
తిర	-9818
▁AB	-9819
▁Ho	-9820
▁IA	-9821
▁IL	-9822
▁MB	-9823
▁NP	-9824
▁Sc	-9825
▁So	-9826
▁Up	-9827
▁do	-9828
▁ly	-9829
▁rs	-9830
▁ut	-9831
▁اج	-9832
▁اض	-9833
▁تف	-9834
▁جل	-9835
▁حا	-9836
▁ذا	-9837
▁نم	-9838
▁یش	-9839
▁जा	-9840
▁ଆପ	-9841
▁డణ	-9842
▁థు	-9843
amil	-9844
olly	-9845
▁(7)	-9846
▁1.3	-9847
▁143	-9848
▁146	-9849
▁153	-9850
▁185	-9851
▁188	-9852
▁194	-9853
▁195	-9854
▁2.4	-9855
▁20%	-9856
▁205	-9857
▁215	-9858
▁234	-9859
▁245	-9860
▁320	-9861
▁340	-9862
▁50,	-9863
▁Dha	-9864
▁Gop	-9865
▁LED	-9866
▁Leo	-9867
▁SMS	-9868
▁cap	-9869
▁ica	-9870
▁kap	-9871
▁ket	-9872
▁ort	-9873
▁vam	-9874
▁way	-9875
▁آیا	-9876
▁باب	-9877
▁بھر	-9878
▁جون	-9879
▁جیس	-9880
▁راہ	-9881
▁سین	-9882
▁شہر	-9883
▁ضلع	-9884
▁مہم	-9885
▁نتی	-9886
▁نوٹ	-9887
▁چیک	-9888
▁रहे	-9889
▁ଆମେ	-9890
▁అదో	-9891
▁ఆపద	-9892
▁ఇవీ	-9893
▁ఓయో	-9894
▁ఔర్	-9895
▁కథే	-9896
▁ఘర్	-9897
▁జపం	-9898
▁టిన	-9899
▁డడం	-9900
▁మకా	-9901
▁మెం	-9902
▁మేత	-9903
▁యంప	-9904
▁రబీ	-9905
▁శేఖ	-9906
▁ువ్	-9907
▁ూడా	-9908
▁ృద్	-9909
▁ెలం	-9910
▁ోమీ	-9911
▁్టా	-9912
▁Boss	-9913
▁Nani	-9914
▁Rash	-9915
▁Sala	-9916
▁cong	-9917
▁gram	-9918
▁kram	-9919
▁mika	-9920
▁جاتا	-9921
▁لینڈ	-9922
▁مقام	-9923
▁پانی	-9924
▁گروپ	-9925
▁ہندی	-9926
▁అంటు	-9927
▁కున్	-9928
▁గుతు	-9929
▁చుకు	-9930
▁నామి	-9931
▁యారు	-9932
▁ళూరు	-9933
▁విధా	-9934
▁ిద్య	-9935
▁ుందే	-9936
▁ుకెళ	-9937
▁ృష్ణ	-9938
▁్టేట	-9939
▁్రిల	-9940
▁Krish	-9941
▁Prasa	-9942
▁Rains	-9943
▁train	-9944
▁افراد	-9945
▁دوسرے	-9946
▁ستمبر	-9947
▁سیاسی	-9948
▁ందన్న	-9949
▁ఇలాంట	-9950
▁కసారి	-9951
▁దిస్త	-9952
▁దీనిక	-9953
▁బందుల	-9954
▁బిల్ల	-9955
▁ముగ్గ	-9956
▁ల్లడి	-9957
▁వాల్స	-9958
▁సాధార	-9959
▁హారాష	-9960
CM	-9961
NR	-9962
OS	-9963
hu	-9964
ji	-9965
to	-9966
ua	-9967
ye	-9968
ys	-9969
ؤں	-9970
بہ	-9971
دم	-9972
زہ	-9973
ظم	-9974
لب	-9975
نس	-9976
وس	-9977
وڈ	-9978
یٹ	-9979
చి	-9980
ೂಲ	-9981
▁ں	-9982
▁୩	-9983
▁ள	-9984
▁ா	-9985
▁വ	-9986
▁െ	-9987
end	-9988
ire	-9989
اہم	-9990
صیل	-9991
ورڈ	-9992
▁!!	-9993
▁6:	-9994
▁7:	-9995
▁Aa	-9996
▁Ab	-9997
▁BM	-9998
▁GO	-9999
▁HA	-10000
▁JN	-10001
▁LP	-10002
▁ON	-10003
▁SH	-10004
▁Si	-10005
▁We	-10006
▁Yo	-10007
▁be	-10008
▁ew	-10009
▁ip	-10010
▁we	-10011
▁آگ	-10012
▁اٹ	-10013
▁بس	-10014
▁بغ	-10015
▁حو	-10016
▁عم	-10017
▁عہ	-10018
▁لک	-10019
▁مک	-10020
▁پس	-10021
▁कर	-10022
▁हो	-10023
▁ଆଉ	-10024
▁ଏପ	-10025
▁ఎర	-10026
▁ఢి	-10027
▁దమ	-10028
▁రభ	-10029
▁ಅದ	-10030
▁ನಟ	-10031
تاثر	-10032
▁1.4	-10033
▁10%	-10034
▁10:	-10035
▁168	-10036
▁178	-10037
▁197	-10038
▁201	-10039
▁228	-10040
▁330	-10041
▁354	-10042
▁4.8	-10043
▁5.6	-10044
▁7.6	-10045
▁AQI	-10046
▁Ash	-10047
▁Con	-10048
▁Gee	-10049
▁Gen	-10050
▁Jio	-10051
▁MIM	-10052
▁Ran	-10053
▁Son	-10054
▁Sre	-10055
▁dia	-10056
▁ial	-10057
▁ice	-10058
▁red	-10059
▁tem	-10060
▁vaa	-10061
▁var	-10062
▁بند	-10063
▁بڑھ	-10064
▁جسے	-10065
▁روں	-10066
▁رین	-10067
▁سڑک	-10068
▁شرم	-10069
▁فون	-10070
▁لنک	-10071
▁مئی	-10072
▁منٹ	-10073
▁منی	-10074
▁کلپ	-10075
▁کی۔	-10076
▁یری	-10077
▁یون	-10078
▁ంబై	-10079
▁ంబ్	-10080
▁ఈషా	-10081
▁కథల	-10082
▁కనక	-10083
▁చెప	-10084
▁జయా	-10085
▁జీఐ	-10086
▁టీమ	-10087
▁దోశ	-10088
▁దోష	-10089
▁పనే	-10090
▁ఫలం	-10091
▁మఠం	-10092
▁మనో	-10093
▁మహత	-10094
▁మేధ	-10095
▁రగా	-10096
▁రయ్	-10097
▁వైఎ	-10098
▁్గర	-10099
▁్ధా	-10100
▁ಮೂಲ	-10101
▁Cric	-10102
▁Deep	-10103
▁HMDA	-10104
▁Plus	-10105
▁Visa	-10106
▁kaly	-10107
▁late	-10108
▁line	-10109
▁resu	-10110
▁wood	-10111
▁اعظم	-10112
▁انسٹ	-10113
▁اپنا	-10114
▁تاہم	-10115
▁تباہ	-10116
▁تیاب	-10117
▁جائے	-10118
▁دنیا	-10119
▁دینے	-10120
▁ظاہر	-10121
▁فیکٹ	-10122
▁مبلی	-10123
▁واٹس	-10124
▁پہنچ	-10125
▁కునే	-10126
▁జులు	-10127
▁నివా	-10128
▁బయటక	-10129
▁భించ	-10130
▁మాచా	-10131
▁మీపం	-10132
▁ర్పు	-10133
▁లీజ్	-10134
▁ిషనర	-10135
▁ుంబా	-10136
▁ుమాన	-10137
▁ూడాల	-10138
▁ూర్చ	-10139
▁Alert	-10140
▁INDIA	-10141
▁Movie	-10142
▁تفصیل	-10143
▁حمایت	-10144
▁متاثر	-10145
▁مقامی	-10146
▁ہینڈل	-10147
▁ందికి	-10148
▁చించి	-10149
▁చింది	-10150
▁దివార	-10151
▁నారాయ	-10152
▁ాధించ	-10153
▁ోట్లు	-10154
▁్నించ	-10155
AC	-10156
DO	-10157
MU	-10158
RF	-10159
SF	-10160
WS	-10161
bi	-10162
bs	-10163
اؤ	-10164
تح	-10165
جر	-10166
نم	-10167
وہ	-10168
ାଇ	-10169
ିଏ	-10170
ఘా	-10171
▁झ	-10172
▁ব	-10173
▁ଝ	-10174
▁ற	-10175
▁ಞ	-10176
▁ണ	-10177
▁ല	-10178
▁●	-10179
all	-10180
oci	-10181
oul	-10182
الک	-10183
اکھ	-10184
عدد	-10185
▁-5	-10186
▁1:	-10187
▁5:	-10188
▁CG	-10189
▁CR	-10190
▁DA	-10191
▁EC	-10192
▁FT	-10193
▁Hz	-10194
▁MI	-10195
▁MO	-10196
▁Ni	-10197
▁Of	-10198
▁On	-10199
▁Ph	-10200
▁RG	-10201
▁RT	-10202
▁TH	-10203
▁UN	-10204
▁VI	-10205
▁Ya	-10206
▁gh	-10207
▁ia	-10208
▁xy	-10209
▁تن	-10210
▁رس	-10211
▁ند	-10212
▁نس	-10213
▁अब	-10214
▁इस	-10215
▁ଅଞ	-10216
▁ବର	-10217
▁రశ	-10218
idda	-10219
علوم	-10220
▁1-0	-10221
▁10.	-10222
▁131	-10223
▁137	-10224
▁141	-10225
▁152	-10226
▁154	-10227
▁158	-10228
▁173	-10229
▁177	-10230
▁183	-10231
▁202	-10232
▁209	-10233
▁214	-10234
▁241	-10235
▁242	-10236
▁25%	-10237
▁272	-10238
▁275	-10239
▁303	-10240
▁33,	-10241
▁6.8	-10242
▁7-6	-10243
▁75%	-10244
▁950	-10245
▁ACB	-10246
▁Ana	-10247
▁CSK	-10248
▁Dil	-10249
▁Dis	-10250
▁Kap	-10251
▁Rep	-10252
▁SUV	-10253
▁Tea	-10254
▁UAE	-10255
▁app	-10256
▁goe	-10257
▁ker	-10258
▁mer	-10259
▁net	-10260
▁pur	-10261
▁tec	-10262
▁tic	-10263
▁tor	-10264
▁ائز	-10265
▁ابی	-10266
▁اوم	-10267
▁ایڈ	-10268
▁بین	-10269
▁تان	-10270
▁تحت	-10271
▁تین	-10272
▁داخ	-10273
▁رائ	-10274
▁ریو	-10275
▁ساح	-10276
▁سمج	-10277
▁علا	-10278
▁غزہ	-10279
▁فلم	-10280
▁فیص	-10281
▁منا	-10282
▁وگر	-10283
▁ଜଣେ	-10284
▁అబు	-10285
▁ఆచి	-10286
▁ఆలూ	-10287
▁ఇచ్	-10288
▁ఈవ్	-10289
▁ఎప్	-10290
▁కూన	-10291
▁గేయ	-10292
▁చోళ	-10293
▁తిత	-10294
▁ధనం	-10295
▁పతక	-10296
▁మలం	-10297
▁మిగ	-10298
▁మిత	-10299
▁మూక	-10300
▁యుడ	-10301
▁యూఐ	-10302
▁రతి	-10303
▁వడా	-10304
▁వలె	-10305
▁ాజే	-10306
▁ిరె	-10307
▁ులప	-10308
▁ెరు	-10309
▁ోహన	-10310
▁్టో	-10311
▁్లప	-10312
▁ಇದು	-10313
▁Amba	-10314
▁Chai	-10315
▁Face	-10316
▁Isra	-10317
▁beng	-10318
▁khan	-10319
▁wife	-10320
▁اؤنٹ	-10321
▁افسر	-10322
▁امتح	-10323
▁امید	-10324
▁اونٹ	-10325
▁باہر	-10326
▁تاری	-10327
▁جعلی	-10328
▁حاصل	-10329
▁حملہ	-10330
▁دیتے	-10331
▁شادی	-10332
▁کرتا	-10333
▁یوزر	-10334
▁క్ష్	-10335
▁గులక	-10336
▁డిప్	-10337
▁నేంద	-10338
▁బ్బం	-10339
▁మాలో	-10340
▁మ్మం	-10341
▁రింద	-10342
▁రిత్	-10343
▁ర్పా	-10344
▁లాంట	-10345
▁ళ్లక	-10346
▁వుతో	-10347
▁ిజర్	-10348
▁ుతున	-10349
▁్టీల	-10350
▁్తుం	-10351
▁Apple	-10352
▁Insta	-10353
▁Paytm	-10354
▁Viral	-10355
▁بنانے	-10356
▁جھوٹا	-10357
▁روپئے	-10358
▁سامنے	-10359
▁متعدد	-10360
▁مظاہر	-10361
▁معلوم	-10362
▁ందరిక	-10363
▁చరిత్	-10364
▁రింది	-10365
▁స్తార	-10366
▁ుత్వం	-10367
▁్యక్ర	-10368
..	-10369
AT	-10370
EC	-10371
FX	-10372
GF	-10373
KR	-10374
MB	-10375
MP	-10376
PL	-10377
RT	-10378
ba	-10379
ci	-10380
za	-10381
شم	-10382
ظہ	-10383
فر	-10384
ाथ	-10385
ଆଇ	-10386
ୋଇ	-10387
శం	-10388
▁َ	-10389
▁୮	-10390
▁ച	-10391
▁ഷ	-10392
▁⁠	-10393
amy	-10394
dra	-10395
eel	-10396
ent	-10397
irl	-10398
jri	-10399
الب	-10400
عقد	-10401
▁AF	-10402
▁BB	-10403
▁DR	-10404
▁ES	-10405
▁MV	-10406
▁QR	-10407
▁Rs	-10408
▁SE	-10409
▁SK	-10410
▁Th	-10411
▁Wa	-10412
▁he	-10413
▁if	-10414
▁ja	-10415
▁lt	-10416
▁اق	-10417
▁تش	-10418
▁تہ	-10419
▁حی	-10420
▁رق	-10421
▁شم	-10422
▁نع	-10423
▁نٹ	-10424
▁پٹ	-10425
▁چر	-10426
▁چی	-10427
▁یم	-10428
▁ये	-10429
▁ବହ	-10430
▁చవ	-10431
▁(12	-10432
▁1.6	-10433
▁156	-10434
▁169	-10435
▁196	-10436
▁2-0	-10437
▁212	-10438
▁221	-10439
▁227	-10440
▁259	-10441
▁262	-10442
▁266	-10443
▁267	-10444
▁3..	-10445
▁3.2	-10446
▁3.4	-10447
▁30%	-10448
▁312	-10449
▁35,	-10450
▁380	-10451
▁399	-10452
▁5.5	-10453
▁7.4	-10454
▁80%	-10455
▁Adi	-10456
▁Ami	-10457
▁CBI	-10458
▁CID	-10459
▁DAI	-10460
▁FIR	-10461
▁For	-10462
▁Jai	-10463
▁KGF	-10464
▁MLC	-10465
▁Met	-10466
▁Mic	-10467
▁Mon	-10468
▁NCR	-10469
▁Net	-10470
▁PIB	-10471
▁Pan	-10472
▁SRH	-10473
▁SSC	-10474
▁Saj	-10475
▁Sho	-10476
▁VFX	-10477
▁WTC	-10478
▁War	-10479
▁ams	-10480
▁cri	-10481
▁dar	-10482
▁mar	-10483
▁pha	-10484
▁ric	-10485
▁san	-10486
▁tti	-10487
▁آرٹ	-10488
▁امب	-10489
▁انس	-10490
▁باز	-10491
▁بیو	-10492
▁بیٹ	-10493
▁جرم	-10494
▁جیت	-10495
▁روز	-10496
▁ریٹ	-10497
▁قبل	-10498
▁منت	-10499
▁مہر	-10500
▁میچ	-10501
▁نوم	-10502
▁ٹوی	-10503
▁ٹھی	-10504
▁پاس	-10505
▁پیج	-10506
▁پیم	-10507
▁چار	-10508
▁یات	-10509
▁देश	-10510
▁ଏଆଇ	-10511
▁ପରେ	-10512
▁ହୋଇ	-10513
▁ంచగ	-10514
▁అలల	-10515
▁చనా	-10516
▁చీమ	-10517
▁జెం	-10518
▁డమ్	-10519
▁థాన	-10520
▁దంత	-10521
▁దమ్	-10522
▁పెష	-10523
▁ప్ష	-10524
▁ఫేం	-10525
▁బహు	-10526
▁బీఆ	-10527
▁మిం	-10528
▁మ్స	-10529
▁రణా	-10530
▁వశం	-10531
▁శశి	-10532
▁శైవ	-10533
▁షకు	-10534
▁సమ్	-10535
▁సీఈ	-10536
▁సొన	-10537
▁ొన్	-10538
▁్కడ	-10539
▁్తర	-10540
▁Baby	-10541
▁CISF	-10542
▁NDTV	-10543
▁NPCI	-10544
▁Sure	-10545
▁TGSR	-10546
▁TRAI	-10547
▁brah	-10548
▁mots	-10549
▁ndia	-10550
▁quor	-10551
▁rolo	-10552
▁ster	-10553
▁vind	-10554
▁تانی	-10555
▁جاتے	-10556
▁مارک	-10557
▁مبین	-10558
▁نشان	-10559
▁کرتی	-10560
▁کرین	-10561
▁ంతంగ	-10562
▁ఈరోజ	-10563
▁చ్చర	-10564
▁పాయల	-10565
▁రుమల	-10566
▁రేలి	-10567
▁వేశా	-10568
▁ిపోర	-10569
▁ీజన్	-10570
▁ేందు	-10571
▁ేశార	-10572
▁ేసుల	-10573
▁్యతల	-10574
▁్రీక	-10575
▁Inter	-10576
▁Kalki	-10577
▁Kejri	-10578
▁Manch	-10579
▁Mohan	-10580
▁Sande	-10581
▁Varun	-10582
▁بنگلو	-10583
▁بنیاد	-10584
▁جھنڈے	-10585
▁رکھنے	-10586
▁ریونت	-10587
▁منعقد	-10588
▁نکالے	-10589
▁గంటలక	-10590
▁చేసిం	-10591
▁డించి	-10592
▁పాల్ప	-10593
▁పొత్త	-10594
▁రాన్న	-10595
▁ుందన్	-10596
▁ువులు	-10597
▁ోగ్యం	-10598
▁్పింద	-10599
▁్యతిర	-10600
BB	-10601
IN	-10602
ME	-10603
OC	-10604
PC	-10605
RA	-10606
YC	-10607
ed	-10608
no	-10609
pe	-10610
جا	-10611
جد	-10612
ذا	-10613
زا	-10614
فت	-10615
وڑ	-10616
୍କ	-10617
ఖి	-10618
మై	-10619
షు	-10620
ిం	-10621
ోల	-10622
ౌక	-10623
▁ऐ	-10624
▁ढ	-10625
▁ন	-10626
▁ম	-10627
▁ଢ	-10628
▁୯	-10629
▁ോ	-10630
ERT	-10631
ita	-10632
olu	-10633
ord	-10634
ril	-10635
ure	-10636
ارہ	-10637
ریر	-10638
لائ	-10639
نوع	-10640
واز	-10641
▁8:	-10642
▁BA	-10643
▁CB	-10644
▁CC	-10645
▁Dr	-10646
▁GS	-10647
▁Go	-10648
▁NS	-10649
▁Ne	-10650
▁PV	-10651
▁Sr	-10652
▁TO	-10653
▁XL	-10654
▁ba	-10655
▁ea	-10656
▁ji	-10657
▁jo	-10658
▁ll	-10659
▁آد	-10660
▁آغ	-10661
▁رٹ	-10662
▁سس	-10663
▁عر	-10664
▁وک	-10665
▁پل	-10666
▁چم	-10667
▁چہ	-10668
▁ڈر	-10669
▁کس	-10670
▁یف	-10671
▁लो	-10672
▁ही	-10673
▁हु	-10674
▁ଆଯ	-10675
▁ଦି	-10676
▁డడ	-10677
▁లజ	-10678
▁(15	-10679
▁(20	-10680
▁(50	-10681
▁11.	-10682
▁133	-10683
▁176	-10684
▁192	-10685
▁193	-10686
▁198	-10687
▁217	-10688
▁239	-10689
▁244	-10690
▁253	-10691
▁255	-10692
▁329	-10693
▁385	-10694
▁440	-10695
▁5.8	-10696
▁506	-10697
▁6.1	-10698
▁640	-10699
▁9.5	-10700
▁90%	-10701
▁999	-10702
▁Anu	-10703
▁Bye	-10704
▁CNG	-10705
▁Cyc	-10706
▁DSC	-10707
▁KKR	-10708
▁New	-10709
▁PAK	-10710
▁RTC	-10711
▁Red	-10712
▁SIM	-10713
▁Twi	-10714
▁Xia	-10715
▁ama	-10716
▁ate	-10717
▁car	-10718
▁gar	-10719
▁ish	-10720
▁kur	-10721
▁mai	-10722
▁nal	-10723
▁org	-10724
▁pla	-10725
▁ttp	-10726
▁ush	-10727
▁ارہ	-10728
▁جائ	-10729
▁دھم	-10730
▁شدہ	-10731
▁طوف	-10732
▁غیر	-10733
▁فوٹ	-10734
▁قسم	-10735
▁مذہ	-10736
▁ونی	-10737
▁گے۔	-10738
▁یہی	-10739
▁रही	-10740
▁ଙ୍କ	-10741
▁ବହୁ	-10742
▁ంబం	-10743
▁అమీ	-10744
▁ఉర్	-10745
▁ఏమై	-10746
▁ఏస్	-10747
▁కపట	-10748
▁గజం	-10749
▁గుణ	-10750
▁గున	-10751
▁చౌక	-10752
▁జనవ	-10753
▁జయవ	-10754
▁టేష	-10755
▁దోస	-10756
▁నవల	-10757
▁నున	-10758
▁పేడ	-10759
▁బాయ	-10760
▁బేల	-10761
▁భరత	-10762
▁మజా	-10763
▁యాప	-10764
▁రెక	-10765
▁లతా	-10766
▁వంబ	-10767
▁వీణ	-10768
▁షనక	-10769
▁సిఐ	-10770
▁సీబ	-10771
▁హమ్	-10772
▁ాచా	-10773
▁ాధా	-10774
▁ామక	-10775
▁ావత	-10776
▁ిలు	-10777
▁ైని	-10778
▁ోకి	-10779
▁్దత	-10780
▁్దన	-10781
▁్నో	-10782
▁్రగ	-10783
▁్రబ	-10784
▁Bang	-10785
▁Gala	-10786
▁Game	-10787
▁High	-10788
▁ICMR	-10789
▁IMEI	-10790
▁Janh	-10791
▁MMTS	-10792
▁Mano	-10793
▁Mrun	-10794
▁Nave	-10795
▁Naya	-10796
▁Rana	-10797
▁Sams	-10798
▁UPSC	-10799
▁girl	-10800
▁lone	-10801
▁nadu	-10802
▁ndar	-10803
▁poll	-10804
▁tala	-10805
▁tics	-10806
▁اٹھا	-10807
▁اہلک	-10808
▁بورڈ	-10809
▁حیدر	-10810
▁داخل	-10811
▁زائد	-10812
▁سمند	-10813
▁سکتا	-10814
▁شدید	-10815
▁لاکھ	-10816
▁لوگو	-10817
▁لہذا	-10818
▁لینے	-10819
▁محمد	-10820
▁مسجد	-10821
▁کرکٹ	-10822
▁کرکے	-10823
▁ہاتھ	-10824
▁క్కె	-10825
▁గారె	-10826
▁ట్లన	-10827
▁తారన	-10828
▁తోన్	-10829
▁త్ని	-10830
▁నించ	-10831
▁భావి	-10832
▁లిచా	-10833
▁లేజీ	-10834
▁ల్చి	-10835
▁వ్వడ	-10836
▁సూచి	-10837
▁స్పి	-10838
▁ాడిన	-10839
▁ిచిం	-10840
▁ెద్ద	-10841
▁ెలిస	-10842
▁ేతలు	-10843
▁ోసార	-10844
▁్చార	-10845
▁్పార	-10846
▁Manda	-10847
▁Media	-10848
▁State	-10849
▁Vande	-10850
▁claim	-10851
▁count	-10852
▁riend	-10853
▁ریلوے	-10854
▁مبینہ	-10855
▁نتیجے	-10856
▁نومبر	-10857
▁کلیدی	-10858
▁నుగోల	-10859
▁న్నాన	-10860
▁పరిష్	-10861
▁పించడ	-10862
▁ిస్థి	-10863
▁ేటీఆర	-10864
▁్నాయి	-10865
▁్రులు	-10866
12	-10867
CD	-10868
PA	-10869
TE	-10870
dp	-10871
is	-10872
ky	-10873
ms	-10874
mu	-10875
ry	-10876
sc	-10877
tr	-10878
tt	-10879
ue	-10880
تم	-10881
حد	-10882
دھ	-10883
شی	-10884
نج	-10885
کت	-10886
کہ	-10887
گا	-10888
گی	-10889
या	-10890
ाम	-10891
ఓం	-10892
తన	-10893
▁ॉ	-10894
▁ল	-10895
▁ে	-10896
▁ச	-10897
▁അ	-10898
▁റ	-10899
▁►	-10900
abi	-10901
ddu	-10902
dha	-10903
ewe	-10904
gar	-10905
ove	-10906
ump	-10907
ئیٹ	-10908
ابت	-10909
ارک	-10910
زام	-10911
یکا	-10912
یکس	-10913
▁-4	-10914
▁2%	-10915
▁4-	-10916
▁4:	-10917
▁AA	-10918
▁Bi	-10919
▁CL	-10920
▁CN	-10921
▁CW	-10922
▁DC	-10923
▁HI	-10924
▁IF	-10925
▁IR	-10926
▁IV	-10927
▁Ju	-10928
▁KA	-10929
▁LA	-10930
▁Le	-10931
▁NB	-10932
▁RR	-10933
▁VV	-10934
▁Vo	-10935
▁bu	-10936
▁kg	-10937
▁ns	-10938
▁ny	-10939
▁op	-10940
▁pm	-10941
▁ys	-10942
▁اڈ	-10943
▁بد	-10944
▁شہ	-10945
▁صح	-10946
▁ضم	-10947
▁قص	-10948
▁لا	-10949
▁لڑ	-10950
▁ما	-10951
▁نظ	-10952
▁وس	-10953
▁پک	-10954
▁چل	-10955
▁کپ	-10956
▁ऐस	-10957
▁था	-10958
▁सच	-10959
▁ଅବ	-10960
▁ଆନ	-10961
▁ଇଣ	-10962
▁ଇମ	-10963
▁ଉଦ	-10964
▁ଏଡ	-10965
▁ఎస	-10966
▁భల	-10967
▁ಜನ	-10968
atch	-10969
nion	-10970
ائیل	-10971
قیقی	-10972
چھلی	-10973
▁(25	-10974
▁(39	-10975
▁(40	-10976
▁1.7	-10977
▁14:	-10978
▁155	-10979
▁161	-10980
▁2.7	-10981
▁2.9	-10982
▁206	-10983
▁208	-10984
▁213	-10985
▁231	-10986
▁238	-10987
▁274	-10988
▁285	-10989
▁294	-10990
▁3-4	-10991
▁3.7	-10992
▁304	-10993
▁323	-10994
▁338	-10995
▁376	-10996
▁396	-10997
▁4.1	-10998
▁4.2	-10999
▁4.3	-11000
▁6-7	-11001
▁6.4	-11002
▁660	-11003
▁7.2	-11004
▁7.8	-11005
▁850	-11006
▁9.4	-11007
▁Ast	-11008
▁CAA	-11009
▁Cor	-11010
▁Don	-11011
▁ENG	-11012
▁FTL	-11013
▁Gro	-11014
▁HCA	-11015
▁Jam	-11016
▁Kam	-11017
▁LPG	-11018
▁Loc	-11019
▁Nel	-11020
▁Pho	-11021
▁Sec	-11022
▁Sen	-11023
▁Sup	-11024
▁Tej	-11025
▁USB	-11026
▁YCP	-11027
▁all	-11028
▁bjp	-11029
▁can	-11030
▁dri	-11031
▁ema	-11032
▁hus	-11033
▁omi	-11034
▁ory	-11035
▁pol	-11036
▁rge	-11037
▁vas	-11038
▁vey	-11039
▁win	-11040
▁ائل	-11041
▁الہ	-11042
▁ایل	-11043
▁باد	-11044
▁بڑی	-11045
▁تبص	-11046
▁جمع	-11047
▁دون	-11048
▁راج	-11049
▁روک	-11050
▁ریز	-11051
▁زند	-11052
▁شری	-11053
▁طیا	-11054
▁معذ	-11055
▁نائ	-11056
▁ورڈ	-11057
▁ویو	-11058
▁پول	-11059
▁ڈیج	-11060
▁کھی	-11061
▁گرف	-11062
▁یلی	-11063
▁ଦିନ	-11064
▁ంపీ	-11065
▁అనా	-11066
▁ఊతం	-11067
▁ఎంఈ	-11068
▁ఏరో	-11069
▁కదం	-11070
▁గడల	-11071
▁చాప	-11072
▁టాయ	-11073
▁డక్	-11074
▁డీఐ	-11075
▁తొడ	-11076
▁దవే	-11077
▁దృష	-11078
▁నవ్	-11079
▁పసి	-11080
▁మడత	-11081
▁మూట	-11082
▁రచా	-11083
▁రఫీ	-11084
▁రము	-11085
▁లుస	-11086
▁వస్	-11087
▁సఖి	-11088
▁సబా	-11089
▁సరళ	-11090
▁హలో	-11091
▁ీమి	-11092
▁ువక	-11093
▁ౌలి	-11094
▁్కన	-11095
▁్నూ	-11096
▁ಅದೇ	-11097
▁Aadh	-11098
▁Amer	-11099
▁Gunt	-11100
▁Keer	-11101
▁Kora	-11102
▁Lakh	-11103
▁Madh	-11104
▁NEET	-11105
▁Raju	-11106
▁Rama	-11107
▁Revi	-11108
▁Road	-11109
▁Time	-11110
▁Yogi	-11111
▁band	-11112
▁jewe	-11113
▁modi	-11114
▁moul	-11115
▁poli	-11116
▁pudi	-11117
▁your	-11118
▁اضاف	-11119
▁اندر	-11120
▁بابو	-11121
▁تجاج	-11122
▁ثابت	-11123
▁جاتی	-11124
▁جیسے	-11125
▁حلال	-11126
▁دودھ	-11127
▁رائے	-11128
▁رہنم	-11129
▁ریکا	-11130
▁قابل	-11131
▁ٹائم	-11132
▁ٹویٹ	-11133
▁پریس	-11134
▁پہلی	-11135
▁کارر	-11136
▁گوشت	-11137
▁ందుగ	-11138
▁గిల్	-11139
▁డాక్	-11140
▁ణులు	-11141
▁తర్వ	-11142
▁తాని	-11143
▁తించ	-11144
▁దీంత	-11145
▁నంలో	-11146
▁పాట్	-11147
▁ఫార్	-11148
▁ముగ్	-11149
▁యంపై	-11150
▁యోజక	-11151
▁రఖాస	-11152
▁రిశ్	-11153
▁లీడర	-11154
▁ళ్లల	-11155
▁వంలో	-11156
▁శాస్	-11157
▁ాలీవ	-11158
▁ిపక్	-11159
▁ిర్మ	-11160
▁ుతార	-11161
▁ూరుల	-11162
▁ెరుగ	-11163
▁ొడుక	-11164
▁్తగా	-11165
▁్యాణ	-11166
▁Malli	-11167
▁Manoj	-11168
▁Sajja	-11169
▁Train	-11170
▁arjun	-11171
▁india	-11172
▁tamil	-11173
▁الزام	-11174
▁تاریخ	-11175
▁حقیقی	-11176
▁ذریعہ	-11177
▁علاقہ	-11178
▁مصنوع	-11179
▁ممبئی	-11180
▁مچھلی	-11181
▁ہورہا	-11182
▁కొంది	-11183
▁టించి	-11184
▁మ్మెల	-11185
▁ర్థుల	-11186
▁ాంగ్ర	-11187
FL	-11188
HA	-11189
IL	-11190
ag	-11191
gy	-11192
je	-11193
ju	-11194
تھ	-11195
دد	-11196
قل	-11197
ୋଟ	-11198
కె	-11199
చే	-11200
ఫీ	-11201
▁>	-11202
▁ृ	-11203
▁ত	-11204
▁ু	-11205
▁ய	-11206
▁ை	-11207
▁മ	-11208
▁സ	-11209
▁‒	-11210
adu	-11211
ata	-11212
lip	-11213
ort	-11214
raj	-11215
ran	-11216
rat	-11217
uru	-11218
ائل	-11219
انا	-11220
انس	-11221
انچ	-11222
باس	-11223
حاد	-11224
راب	-11225
رہا	-11226
ریق	-11227
قید	-11228
لاد	-11229
لاک	-11230
وجو	-11231
ڈیو	-11232
ینی	-11233
టుం	-11234
▁2/	-11235
▁AR	-11236
▁Au	-11237
▁BN	-11238
▁CH	-11239
▁Du	-11240
▁FD	-11241
▁FI	-11242
▁GR	-11243
▁IB	-11244
▁IG	-11245
▁JA	-11246
▁Lu	-11247
▁MD	-11248
▁NZ	-11249
▁OM	-11250
▁OS	-11251
▁PR	-11252
▁Ri	-11253
▁SU	-11254
▁Sw	-11255
▁UG	-11256
▁VD	-11257
▁Vy	-11258
▁cm	-11259
▁eS	-11260
▁ey	-11261
▁ik	-11262
▁im	-11263
▁ow	-11264
▁vo	-11265
▁آج	-11266
▁تع	-11267
▁دل	-11268
▁ذر	-11269
▁سچ	-11270
▁نت	-11271
▁چڑ	-11272
▁چک	-11273
▁یج	-11274
▁یے	-11275
▁ଅଗ	-11276
▁ଅମ	-11277
▁ଅର	-11278
▁ଉତ	-11279
▁ଏମ	-11280
▁ଦେ	-11281
▁ంవ	-11282
▁ఊహ	-11283
▁ొం	-11284
▁ಊಟ	-11285
▁ದಿ	-11286
lood	-11287
olle	-11288
سمبر	-11289
عداد	-11290
▁(35	-11291
▁-19	-11292
▁..!	-11293
▁1/2	-11294
▁11:	-11295
▁179	-11296
▁17:	-11297
▁189	-11298
▁2.3	-11299
▁2.8	-11300
▁203	-11301
▁207	-11302
▁20:	-11303
▁211	-11304
▁223	-11305
▁229	-11306
▁243	-11307
▁252	-11308
▁258	-11309
▁263	-11310
▁265	-11311
▁282	-11312
▁28:	-11313
▁295	-11314
▁296	-11315
▁3.6	-11316
▁310	-11317
▁311	-11318
▁324	-11319
▁333	-11320
▁336	-11321
▁34,	-11322
▁358	-11323
▁371	-11324
▁389	-11325
▁39,	-11326
▁4.4	-11327
▁40,	-11328
▁409	-11329
▁414	-11330
▁427	-11331
▁430	-11332
▁45,	-11333
▁47,	-11334
▁5.3	-11335
▁5.4	-11336
▁5.7	-11337
▁503	-11338
▁52,	-11339
▁535	-11340
▁540	-11341
▁560	-11342
▁590	-11343
▁6.3	-11344
▁7.7	-11345
▁740	-11346
▁8.4	-11347
▁80,	-11348
▁840	-11349
▁AAP	-11350
▁BMW	-11351
▁CBS	-11352
▁Cho	-11353
▁Des	-11354
▁Dul	-11355
▁EMI	-11356
▁FSS	-11357
▁GPS	-11358
▁Hin	-11359
▁IDF	-11360
▁INR	-11361
▁ITC	-11362
▁Kon	-11363
▁Mus	-11364
▁OBC	-11365
▁RGV	-11366
▁Spa	-11367
▁Tig	-11368
▁USD	-11369
▁ald	-11370
▁ass	-11371
▁ast	-11372
▁ava	-11373
▁awa	-11374
▁chi	-11375
▁dha	-11376
▁dis	-11377
▁ins	-11378
▁ity	-11379
▁jab	-11380
▁jay	-11381
▁kmp	-11382
▁nai	-11383
▁ncy	-11384
▁nde	-11385
▁nte	-11386
▁ori	-11387
▁par	-11388
▁sad	-11389
▁tri	-11390
▁val	-11391
▁you	-11392
▁آئے	-11393
▁انج	-11394
▁تار	-11395
▁جنگ	-11396
▁خوب	-11397
▁خود	-11398
▁درج	-11399
▁دوب	-11400
▁ضمن	-11401
▁قان	-11402
▁لوڈ	-11403
▁مقد	-11404
▁ٹار	-11405
▁پٹن	-11406
▁پیک	-11407
▁ڈال	-11408
▁ھیا	-11409
▁ہلی	-11410
▁یٹل	-11411
▁कोई	-11412
▁गया	-11413
▁लोग	-11414
▁साथ	-11415
▁ଯାଇ	-11416
▁అదా	-11417
▁ఆగమ	-11418
▁ఆటల	-11419
▁ఆమే	-11420
▁ఓజా	-11421
▁ఓన్	-11422
▁ఓలీ	-11423
▁కళల	-11424
▁కోయ	-11425
▁గను	-11426
▁గమ్	-11427
▁గాధ	-11428
▁చగా	-11429
▁టఫ్	-11430
▁టిగ	-11431
▁ణంగ	-11432
▁తనయ	-11433
▁తలల	-11434
▁తీగ	-11435
▁దాక	-11436
▁నసా	-11437
▁బీద	-11438
▁బోగ	-11439
▁మరల	-11440
▁ముం	-11441
▁యతి	-11442
▁లోహ	-11443
▁వంశ	-11444
▁శేష	-11445
▁సౌధ	-11446
▁ీశా	-11447
▁ులన	-11448
▁ూము	-11449
▁ెడి	-11450
▁ైతు	-11451
▁్ణా	-11452
▁్దే	-11453
▁్లం	-11454
▁Atta	-11455
▁Bach	-11456
▁Bhar	-11457
▁Cent	-11458
▁HDFC	-11459
▁Jail	-11460
▁Kash	-11461
▁Lava	-11462
▁Lens	-11463
▁Moha	-11464
▁PSLV	-11465
▁Para	-11466
▁Ragh	-11467
▁SSMB	-11468
▁Shri	-11469
▁Toma	-11470
▁Trip	-11471
▁Upda	-11472
▁abha	-11473
▁athi	-11474
▁case	-11475
▁dary	-11476
▁kart	-11477
▁lade	-11478
▁pati	-11479
▁اگست	-11480
▁اینڈ	-11481
▁براہ	-11482
▁ترنگ	-11483
▁تشدد	-11484
▁تیان	-11485
▁جبکہ	-11486
▁ریاس	-11487
▁سینا	-11488
▁لائن	-11489
▁مہار	-11490
▁مہرب	-11491
▁نرین	-11492
▁نوجو	-11493
▁نیشن	-11494
▁ٹرین	-11495
▁ٹیشن	-11496
▁پیدا	-11497
▁گولی	-11498
▁گھوٹ	-11499
▁ہلاک	-11500
▁ہوتی	-11501
▁ہوگا	-11502
▁ంగాణ	-11503
▁ఆధ్వ	-11504
▁డిపడ	-11505
▁ద్యా	-11506
▁ధంగా	-11507
▁పరిధ	-11508
▁పింద	-11509
▁యక్ష	-11510
▁రమాణ	-11511
▁రవేశ	-11512
▁లోకే	-11513
▁ల్గొ	-11514
▁ానున	-11515
▁ిగార	-11516
▁ుండె	-11517
▁ేత్త	-11518
▁్డార	-11519
▁్డిన	-11520
▁్యకర	-11521
▁్యాచ	-11522
▁్యాహ	-11523
▁April	-11524
▁Commi	-11525
▁Jawan	-11526
▁Kamal	-11527
▁Micha	-11528
▁NCERT	-11529
▁Nanda	-11530
▁Palla	-11531
▁Trivi	-11532
▁Venka	-11533
▁girlf	-11534
▁media	-11535
▁pathy	-11536
▁اتحاد	-11537
▁تنقید	-11538
▁جھوٹے	-11539
▁دسمبر	-11540
▁ذرائع	-11541
▁رائیل	-11542
▁لائبر	-11543
▁ٹوئیٹ	-11544
▁چاہئے	-11545
▁ంతంగా	-11546
▁కుటుం	-11547
▁చేయడం	-11548
▁పనిచే	-11549
▁పింది	-11550
▁ప్రస్	-11551
▁లిచిన	-11552
▁ారెడ్	-11553
▁ిషనర్	-11554
▁ిస్తు	-11555
▁ుధవార	-11556
▁్తిని	-11557
▁్రారం	-11558
-3	-11559
15	-11560
CU	-11561
Hi	-11562
OR	-11563
PN	-11564
TP	-11565
bu	-11566
cu	-11567
ec	-11568
gu	-11569
nu	-11570
pa	-11571
vy	-11572
اع	-11573
اق	-11574
اں	-11575
بت	-11576
تو	-11577
سب	-11578
صر	-11579
وظ	-11580
ٹل	-11581
ھے	-11582
गर	-11583
भी	-11584
ही	-11585
िर	-11586
ଦି	-11587
ఇక	-11588
గత	-11589
షి	-11590
▁؟	-11591
▁প	-11592
▁ৰ	-11593
▁୭	-11594
▁ந	-11595
▁ெ	-11596
▁ങ	-11597
▁ഡ	-11598
▁ര	-11599
▁ൽ	-11600
▁◉	-11601
▁♦	-11602
▁🇮	-11603
eal	-11604
ell	-11605
ero	-11606
ger	-11607
hli	-11608
lea	-11609
stu	-11610
ugh	-11611
اتے	-11612
ارٹ	-11613
دال	-11614
راف	-11615
شیر	-11616
لاس	-11617
نئی	-11618
وبل	-11619
یوٹ	-11620
▁-0	-11621
▁2'	-11622
▁5-	-11623
▁AG	-11624
▁Ak	-11625
▁BC	-11626
▁DE	-11627
▁DO	-11628
▁ET	-11629
▁FY	-11630
▁GT	-11631
▁Ge	-11632
▁JU	-11633
▁KH	-11634
▁Ki	-11635
▁LB	-11636
▁LS	-11637
▁LX	-11638
▁OG	-11639
▁Pu	-11640
▁Pw	-11641
▁Qu	-11642
▁RI	-11643
▁Tr	-11644
▁Un	-11645
▁cr	-11646
▁gi	-11647
▁ho	-11648
▁ib	-11649
▁ie	-11650
▁kW	-11651
▁ke	-11652
▁ml	-11653
▁nu	-11654
▁os	-11655
▁ph	-11656
▁sp	-11657
▁uk	-11658
▁آن	-11659
▁ؤں	-11660
▁اڑ	-11661
▁بج	-11662
▁بح	-11663
▁دف	-11664
▁دک	-11665
▁رے	-11666
▁زد	-11667
▁لج	-11668
▁مض	-11669
▁نق	-11670
▁ود	-11671
▁گز	-11672
▁یع	-11673
▁یل	-11674
▁आज	-11675
▁थी	-11676
▁बा	-11677
▁या	-11678
▁हर	-11679
▁ଅଫ	-11680
▁ଆହ	-11681
▁ଇତ	-11682
▁ଉଠ	-11683
▁ଦଳ	-11684
▁ନା	-11685
▁ମା	-11686
▁ସେ	-11687
▁అహ	-11688
▁ఓక	-11689
▁గయ	-11690
▁తఘ	-11691
▁తభ	-11692
▁సబ	-11693
▁ಈಗ	-11694
▁ಮೇ	-11695
▁ರೂ	-11696
agle	-11697
arth	-11698
جرات	-11699
ناخت	-11700
▁(14	-11701
▁(17	-11702
▁(19	-11703
▁(27	-11704
▁(28	-11705
▁(34	-11706
▁(38	-11707
▁-2,	-11708
▁0.1	-11709
▁0.5	-11710
▁1-2	-11711
▁12.	-11712
▁129	-11713
▁14.	-11714
▁16:	-11715
▁218	-11716
▁22:	-11717
▁23:	-11718
▁249	-11719
▁251	-11720
▁268	-11721
▁269	-11722
▁26:	-11723
▁273	-11724
▁278	-11725
▁289	-11726
▁290	-11727
▁292	-11728
▁306	-11729
▁307	-11730
▁331	-11731
▁332	-11732
▁366	-11733
▁4.6	-11734
▁41,	-11735
▁413	-11736
▁512	-11737
▁6.9	-11738
▁620	-11739
▁783	-11740
▁890	-11741
▁9.3	-11742
▁ASI	-11743
▁Bho	-11744
▁CGI	-11745
▁Cam	-11746
▁Cov	-11747
▁DNA	-11748
▁Gar	-11749
▁Get	-11750
▁Gov	-11751
▁III	-11752
▁IIT	-11753
▁ITR	-11754
▁KYC	-11755
▁LIC	-11756
▁LIV	-11757
▁Meh	-11758
▁NBK	-11759
▁NGO	-11760
▁NTA	-11761
▁Now	-11762
▁Opp	-11763
▁PAT	-11764
▁Per	-11765
▁Pin	-11766
▁Pul	-11767
▁SPG	-11768
▁Sat	-11769
▁Sea	-11770
▁Ser	-11771
▁Sid	-11772
▁Swi	-11773
▁Tem	-11774
▁VPN	-11775
▁bie	-11776
▁bir	-11777
▁ble	-11778
▁cgg	-11779
▁cla	-11780
▁eci	-11781
▁gad	-11782
▁ght	-11783
▁han	-11784
▁her	-11785
▁nha	-11786
▁nor	-11787
▁one	-11788
▁qua	-11789
▁que	-11790
▁rao	-11791
▁rch	-11792
▁tar	-11793
▁tta	-11794
▁آٹا	-11795
▁ائن	-11796
▁اتر	-11797
▁اشٹ	-11798
▁بال	-11799
▁برف	-11800
▁تاج	-11801
▁تیر	-11802
▁جوڑ	-11803
▁حصہ	-11804
▁خان	-11805
▁ختم	-11806
▁درا	-11807
▁ریت	-11808
▁زور	-11809
▁سبب	-11810
▁سرب	-11811
▁سزا	-11812
▁صور	-11813
▁طلب	-11814
▁علم	-11815
▁غور	-11816
▁قوم	-11817
▁لوک	-11818
▁ملز	-11819
▁منس	-11820
▁نگر	-11821
▁نیا	-11822
▁نیٹ	-11823
▁واد	-11824
▁واہ	-11825
▁ٹوڈ	-11826
▁پال	-11827
▁پنی	-11828
▁پڑھ	-11829
▁ڈاک	-11830
▁کتے	-11831
▁کیس	-11832
▁گاڑ	-11833
▁گرم	-11834
▁ہوج	-11835
▁ہٹا	-11836
▁یاد	-11837
▁یلا	-11838
▁یور	-11839
▁सभी	-11840
▁କିଏ	-11841
▁ଦେଇ	-11842
▁ବରଂ	-11843
▁ଯଦି	-11844
▁అనీ	-11845
▁అబూ	-11846
▁అరా	-11847
▁ఆలె	-11848
▁ఇజ్	-11849
▁ఈయూ	-11850
▁ఎంఐ	-11851
▁ఎడ్	-11852
▁ఏయూ	-11853
▁ఏరి	-11854
▁ఓజి	-11855
▁ఓడల	-11856
▁కేఈ	-11857
▁గాథ	-11858
▁డంత	-11859
▁తాట	-11860
▁దీం	-11861
▁దుత	-11862
▁దృఢ	-11863
▁నంగ	-11864
▁నభా	-11865
▁నూక	-11866
▁ఫతా	-11867
▁భోగ	-11868
▁మరక	-11869
▁మరా	-11870
▁మళ్	-11871
▁మవు	-11872
▁మూగ	-11873
▁మూఢ	-11874
▁యతల	-11875
▁యమై	-11876
▁రెడ	-11877
▁వీఐ	-11878
▁శనగ	-11879
▁శరం	-11880
▁సూత	-11881
▁సేక	-11882
▁హతం	-11883
▁ీయం	-11884
▁ుపు	-11885
▁్నమ	-11886
▁Anil	-11887
▁Cabi	-11888
▁DRDO	-11889
▁Disn	-11890
▁Gane	-11891
▁Hero	-11892
▁Jaya	-11893
▁Kira	-11894
▁Koda	-11895
▁MBBS	-11896
▁Mala	-11897
▁Nith	-11898
▁Paki	-11899
▁Plan	-11900
▁Raje	-11901
▁Rath	-11902
▁Rish	-11903
▁SRTC	-11904
▁Saba	-11905
▁Star	-11906
▁Yada	-11907
▁able	-11908
▁chai	-11909
▁eddy	-11910
▁fire	-11911
▁ions	-11912
▁kmph	-11913
▁mily	-11914
▁nger	-11915
▁port	-11916
▁quer	-11917
▁raju	-11918
▁soci	-11919
▁terr	-11920
▁that	-11921
▁vice	-11922
▁آشیر	-11923
▁آواز	-11924
▁ابھی	-11925
▁الاق	-11926
▁اللہ	-11927
▁امول	-11928
▁انگی	-11929
▁ایئر	-11930
▁ایود	-11931
▁ایڈو	-11932
▁براد	-11933
▁بغیر	-11934
▁بیوی	-11935
▁تیزی	-11936
▁جواب	-11937
▁روپے	-11938
▁رکھی	-11939
▁سالہ	-11940
▁سوال	-11941
▁سکتی	-11942
▁عدال	-11943
▁فرقہ	-11944
▁لائی	-11945
▁ملاح	-11946
▁نظام	-11947
▁وامی	-11948
▁پوجا	-11949
▁گائے	-11950
▁گھنٹ	-11951
▁ہورڈ	-11952
▁یابی	-11953
▁ఇంగ్	-11954
▁కోరు	-11955
▁కోవా	-11956
▁క్తు	-11957
▁గస్ట	-11958
▁జుల్	-11959
▁టివి	-11960
▁టీకి	-11961
▁తున్	-11962
▁ద్యు	-11963
▁నాయన	-11964
▁నిచ్	-11965
▁మారి	-11966
▁రాలన	-11967
▁రుస్	-11968
▁ికాల	-11969
▁ియోజ	-11970
▁ుగుర	-11971
▁ున్స	-11972
▁ుప్ర	-11973
▁ెండో	-11974
▁ేయిం	-11975
▁Bandh	-11976
▁Daily	-11977
▁Eagle	-11978
▁Hindi	-11979
▁March	-11980
▁Marri	-11981
▁Metro	-11982
▁Nanna	-11983
▁Space	-11984
▁Srini	-11985
▁Thala	-11986
▁Tiger	-11987
▁Trump	-11988
▁Vanga	-11989
▁Vastu	-11990
▁awada	-11991
▁karna	-11992
▁sidda	-11993
▁بنائی	-11994
▁تعداد	-11995
▁حوالے	-11996
▁دوبار	-11997
▁دوسری	-11998
▁سابقہ	-11999
▁ساحلی	-12000
▁سامنا	-12001
▁شناخت	-12002
▁علاوہ	-12003
▁مبارک	-12004
▁منتقل	-12005
▁کررہا	-12006
▁گجرات	-12007
▁ہورہی	-12008
▁ట్టార	-12009
▁ప్పాల	-12010
▁రిశ్ర	-12011
▁రులకు	-12012
▁హించి	-12013
▁ెలంగా	-12014
▁ోవాల్	-12015
2,	-12016
6,	-12017
DL	-12018
FE	-12019
FO	-12020
HS	-12021
LY	-12022
dk	-12023
do	-12024
dy	-12025
ep	-12026
gs	-12027
my	-12028
nd	-12029
nr	-12030
اص	-12031
بے	-12032
خر	-12033
رن	-12034
فٹ	-12035
وا	-12036
وص	-12037
پی	-12038
ڈی	-12039
گھ	-12040
ید	-12041
یش	-12042
ଥା	-12043
ଳି	-12044
జే	-12045
షో	-12046
ತಿ	-12047
▁ौ	-12048
▁॥	-12049
▁জ	-12050
▁স	-12051
▁ো	-12052
▁୬	-12053
▁ன	-12054
▁ಛ	-12055
▁ಢ	-12056
▁ജ	-12057
▁ള	-12058
▁ർ	-12059
▁★	-12060
▁❌	-12061
▁🇳	-12062
ani	-12063
bra	-12064
est	-12065
jal	-12066
lix	-12067
lon	-12068
med	-12069
mit	-12070
oco	-12071
rom	-12072
una	-12073
une	-12074
ادث	-12075
ارڈ	-12076
اعت	-12077
اہد	-12078
بال	-12079
زاد	-12080
شوم	-12081
عام	-12082
فرت	-12083
لیت	-12084
ینگ	-12085
హిం	-12086
▁-6	-12087
▁-8	-12088
▁2+	-12089
▁3%	-12090
▁AE	-12091
▁AV	-12092
▁BP	-12093
▁Cr	-12094
▁DM	-12095
▁EO	-12096
▁Fo	-12097
▁GA	-12098
▁Gu	-12099
▁HO	-12100
▁LL	-12101
▁NI	-12102
▁OP	-12103
▁RO	-12104
▁RX	-12105
▁SB	-12106
▁SV	-12107
▁TI	-12108
▁UT	-12109
▁Ur	-12110
▁WE	-12111
▁ak	-12112
▁av	-12113
▁ay	-12114
▁dd	-12115
▁eP	-12116
▁eg	-12117
▁eh	-12118
▁fi	-12119
▁fo	-12120
▁fs	-12121
▁ku	-12122
▁oo	-12123
▁pH	-12124
▁اء	-12125
▁اظ	-12126
▁اچ	-12127
▁بت	-12128
▁بل	-12129
▁حس	-12130
▁رت	-12131
▁رج	-12132
▁سن	-12133
▁سپ	-12134
▁ظہ	-12135
▁قب	-12136
▁مپ	-12137
▁ڈس	-12138
▁ڈے	-12139
▁کب	-12140
▁یر	-12141
▁یس	-12142
▁घर	-12143
▁बन	-12144
▁वो	-12145
▁ଆଗ	-12146
▁ଆଜ	-12147
▁ଆଣ	-12148
▁ଏଠ	-12149
▁ଏଲ	-12150
▁ଓକ	-12151
▁ତଳ	-12152
▁ବା	-12153
▁ଶେ	-12154
▁ఇగ	-12155
▁ఈద	-12156
▁ఐఓ	-12157
▁యీ	-12158
▁ీళ	-12159
▁ಹೊ	-12160
ance	-12161
gain	-12162
ircu	-12163
irus	-12164
outh	-12165
اؤنڈ	-12166
احول	-12167
లేదు	-12168
▁(16	-12169
▁(18	-12170
▁(36	-12171
▁(45	-12172
▁(47	-12173
▁-1,	-12174
▁0.2	-12175
▁0.6	-12176
▁0.9	-12177
▁1-1	-12178
▁1.9	-12179
▁13:	-12180
▁15%	-12181
▁15.	-12182
▁18-	-12183
▁187	-12184
▁18:	-12185
▁2..	-12186
▁2.2	-12187
▁2/3	-12188
▁222	-12189
▁237	-12190
▁248	-12191
▁24:	-12192
▁257	-12193
▁27:	-12194
▁281	-12195
▁297	-12196
▁3.0	-12197
▁3.8	-12198
▁301	-12199
▁313	-12200
▁318	-12201
▁33%	-12202
▁342	-12203
▁351	-12204
▁356	-12205
▁36,	-12206
▁364	-12207
▁367	-12208
▁375	-12209
▁38,	-12210
▁390	-12211
▁402	-12212
▁42,	-12213
▁445	-12214
▁460	-12215
▁474	-12216
▁480	-12217
▁502	-12218
▁505	-12219
▁520	-12220
▁538	-12221
▁54,	-12222
▁557	-12223
▁57,	-12224
▁58,	-12225
▁595	-12226
▁610	-12227
▁65,	-12228
▁68,	-12229
▁7,8	-12230
▁76,	-12231
▁777	-12232
▁8.7	-12233
▁883	-12234
▁888	-12235
▁9.1	-12236
▁ABP	-12237
▁ACP	-12238
▁Aha	-12239
▁Ali	-12240
▁And	-12241
▁Bus	-12242
▁COP	-12243
▁CWC	-12244
▁Car	-12245
▁Cro	-12246
▁HIV	-12247
▁IMA	-12248
▁IPS	-12249
▁JEE	-12250
▁Jee	-12251
▁Kri	-12252
▁LCD	-12253
▁NAS	-12254
▁NCD	-12255
▁Nag	-12256
▁Ntr	-12257
▁Oce	-12258
▁Pic	-12259
▁PwB	-12260
▁RSS	-12261
▁SOT	-12262
▁Sub	-12263
▁TCS	-12264
▁TVS	-12265
▁WFI	-12266
▁Way	-12267
▁XBB	-12268
▁XUV	-12269
▁abh	-12270
▁ala	-12271
▁are	-12272
▁bus	-12273
▁day	-12274
▁ert	-12275
▁gin	-12276
▁har	-12277
▁hor	-12278
▁ist	-12279
▁ite	-12280
▁law	-12281
▁may	-12282
▁mir	-12283
▁mur	-12284
▁ndi	-12285
▁nds	-12286
▁nes	-12287
▁nta	-12288
▁pam	-12289
▁pre	-12290
▁ral	-12291
▁sat	-12292
▁sen	-12293
▁tab	-12294
▁tro	-12295
▁wer	-12296
▁yan	-12297
▁اتے	-12298
▁ارا	-12299
▁الف	-12300
▁امد	-12301
▁ایف	-12302
▁بڑا	-12303
▁تمل	-12304
▁توڑ	-12305
▁توہ	-12306
▁حکم	-12307
▁خدم	-12308
▁دعو	-12309
▁ذکر	-12310
▁رقص	-12311
▁علی	-12312
▁فلس	-12313
▁لال	-12314
▁لام	-12315
▁مرے	-12316
▁معم	-12317
▁ملب	-12318
▁موب	-12319
▁میس	-12320
▁مین	-12321
▁میٹ	-12322
▁نار	-12323
▁وڈک	-12324
▁ٹاک	-12325
▁ٹرم	-12326
▁ٹسٹ	-12327
▁ٹول	-12328
▁پون	-12329
▁پھٹ	-12330
▁پیا	-12331
▁چھی	-12332
▁ڈیپ	-12333
▁کان	-12334
▁کرل	-12335
▁کری	-12336
▁کنا	-12337
▁کھڑ	-12338
▁گان	-12339
▁گلی	-12340
▁ہفت	-12341
▁یڈن	-12342
▁یڈو	-12343
▁یکٹ	-12344
▁अगर	-12345
▁हुआ	-12346
▁ଆପଣ	-12347
▁ଏବେ	-12348
▁ଭଳି	-12349
▁ଭୋଟ	-12350
▁అఘా	-12351
▁అమె	-12352
▁అయా	-12353
▁అరవ	-12354
▁అషు	-12355
▁ఆఘా	-12356
▁ఆడు	-12357
▁ఆశయ	-12358
▁ఆశల	-12359
▁ఈగల	-12360
▁ఊటీ	-12361
▁ఎనీ	-12362
▁ఎపి	-12363
▁ఐడి	-12364
▁ఐసీ	-12365
▁ఓక్	-12366
▁ఓరీ	-12367
▁కదన	-12368
▁ఘనా	-12369
▁ఛత్	-12370
▁జడల	-12371
▁జనస	-12372
▁టేట	-12373
▁డీఓ	-12374
▁తనం	-12375
▁థగ్	-12376
▁దూడ	-12377
▁నయన	-12378
▁పనస	-12379
▁బంక	-12380
▁బసవ	-12381
▁మడ్	-12382
▁మసి	-12383
▁మూస	-12384
▁మేఘ	-12385
▁రంత	-12386
▁రజక	-12387
▁రణక	-12388
▁రఫ్	-12389
▁రీర	-12390
▁లప్	-12391
▁లస్	-12392
▁వంక	-12393
▁వదర	-12394
▁వేక	-12395
▁శనక	-12396
▁శమీ	-12397
▁షఫీ	-12398
▁సతి	-12399
▁సదా	-12400
▁సైగ	-12401
▁సొర	-12402
▁ాఫి	-12403
▁ియమ	-12404
▁AICC	-12405
▁Abhi	-12406
▁Book	-12407
▁CCTV	-12408
▁Deve	-12409
▁Devi	-12410
▁Duss	-12411
▁Fake	-12412
▁Good	-12413
▁Hari	-12414
▁Jaga	-12415
▁Jobs	-12416
▁Kush	-12417
▁Mani	-12418
▁Mini	-12419
▁Miss	-12420
▁Muke	-12421
▁Name	-12422
▁ONDC	-12423
▁Pale	-12424
▁Poco	-12425
▁Radh	-12426
▁Rard	-12427
▁Renu	-12428
▁Rukh	-12429
▁Sath	-12430
▁Tara	-12431
▁Veer	-12432
▁Vive	-12433
▁XLRI	-12434
▁alli	-12435
▁clai	-12436
▁comp	-12437
▁crea	-12438
▁kaar	-12439
▁kone	-12440
▁mber	-12441
▁mmit	-12442
▁movi	-12443
▁naga	-12444
▁pama	-12445
▁reme	-12446
▁rukh	-12447
▁scam	-12448
▁stan	-12449
▁stra	-12450
▁teja	-12451
▁ture	-12452
▁wamy	-12453
▁ways	-12454
▁اداک	-12455
▁اننت	-12456
▁انکے	-12457
▁اکتو	-12458
▁ایجن	-12459
▁ایسی	-12460
▁ایسے	-12461
▁بغور	-12462
▁تحال	-12463
▁حادث	-12464
▁دبئی	-12465
▁دورہ	-12466
▁روبی	-12467
▁شراب	-12468
▁طالب	-12469
▁طریق	-12470
▁قصور	-12471
▁قومی	-12472
▁لڑکے	-12473
▁مارچ	-12474
▁ملزم	-12475
▁موسم	-12476
▁مکمل	-12477
▁ناڈو	-12478
▁نعرے	-12479
▁نفرت	-12480
▁نمائ	-12481
▁پوری	-12482
▁چارج	-12483
▁چنئی	-12484
▁کہتے	-12485
▁ہائی	-12486
▁یعنی	-12487
▁یوال	-12488
▁ఇండ్	-12489
▁గాలు	-12490
▁టేట్	-12491
▁ట్టణ	-12492
▁ట్వి	-12493
▁డ్రు	-12494
▁ద్రత	-12495
▁బస్స	-12496
▁లీస్	-12497
▁లున్	-12498
▁వురు	-12499
▁ష్టప	-12500
▁సెంబ	-12501
▁స్యల	-12502
▁ాయుడ	-12503
▁ిటీల	-12504
▁ిపిస	-12505
▁ియాక	-12506
▁ిసిం	-12507
▁్టిక	-12508
▁APPSC	-12509
▁Anush	-12510
▁Bhola	-12511
▁Earth	-12512
▁Group	-12513
▁Kanga	-12514
▁Kiran	-12515
▁Kohli	-12516
▁Laksh	-12517
▁Party	-12518
▁Salma	-12519
▁Trish	-12520
▁Union	-12521
▁Vaish	-12522
▁Virat	-12523
▁Virus	-12524
▁YSRTP	-12525
▁circu	-12526
▁daugh	-12527
▁gadda	-12528
▁prade	-12529
▁quake	-12530
▁اقلیت	-12531
▁انسان	-12532
▁انشوم	-12533
▁ترنگا	-12534
▁تقریر	-12535
▁جھوٹی	-12536
▁دیوال	-12537
▁دیکھی	-12538
▁عمارت	-12539
▁عوامی	-12540
▁عہدید	-12541
▁فیصلہ	-12542
▁ماحول	-12543
▁مذہبی	-12544
▁مقابل	-12545
▁مناظر	-12546
▁میلاد	-12547
▁والوں	-12548
▁ٹرائے	-12549
▁ٹھیلہ	-12550
▁پورٹل	-12551
▁پولنگ	-12552
▁کھانا	-12553
▁ہوگئی	-12554
▁ంవత్స	-12555
▁కమిషన	-12556
▁గుతాయ	-12557
▁గొన్న	-12558
▁చలేదు	-12559
▁రావాల	-12560
▁ర్మాణ	-12561
▁వకాశం	-12562
▁ివాస్	-12563
▁ేరుకు	-12564
▁్లించ	-12565
▁్వహిం	-12566
▁్వాని	-12567
11	-12568
16	-12569
17	-12570
30	-12571
35	-12572
AM	-12573
BA	-12574
Be	-12575
DR	-12576
DS	-12577
EM	-12578
FA	-12579
FT	-12580
JD	-12581
JI	-12582
MM	-12583
NP	-12584
Om	-12585
PR	-12586
RD	-12587
RL	-12588
SW	-12589
TU	-12590
TY	-12591
UM	-12592
UR	-12593
WR	-12594
YD	-12595
YS	-12596
bh	-12597
ca	-12598
go	-12599
hs	-12600
mc	-12601
ny	-12602
ot	-12603
pm	-12604
rb	-12605
بد	-12606
تب	-12607
تل	-12608
طہ	-12609
غر	-12610
لر	-12611
من	-12612
نب	-12613
ٹے	-12614
کی	-12615
ھن	-12616
ہم	-12617
ہن	-12618
ہے	-12619
गह	-12620
रह	-12621
ाई	-12622
िम	-12623
ଡ଼	-12624
ଭୟ	-12625
ୁବ	-12626
ୂଳ	-12627
ୋଗ	-12628
ఏఐ	-12629
జయ	-12630
ధా	-12631
ఫల	-12632
బి	-12633
హీ	-12634
ಚನ	-12635
ಡೆ	-12636
ತರ	-12637
▁ي	-12638
▁எ	-12639
▁ோ	-12640
▁ീ	-12641
▁🚩	-12642
CPA	-12643
DPP	-12644
EMA	-12645
MRC	-12646
ami	-12647
ati	-12648
con	-12649
ett	-12650
ich	-12651
ick	-12652
ids	-12653
ilm	-12654
imi	-12655
iti	-12656
kin	-12657
ooh	-12658
ous	-12659
ste	-12660
tor	-12661
uni	-12662
ver	-12663
ازت	-12664
انگ	-12665
ایا	-12666
رار	-12667
راٹ	-12668
سٹم	-12669
ضاک	-12670
فوظ	-12671
لاع	-12672
وار	-12673
چھے	-12674
ھاڑ	-12675
یرت	-12676
▁.2	-12677
▁1%	-12678
▁3/	-12679
▁6%	-12680
▁9:	-12681
▁AJ	-12682
▁Ad	-12683
▁Aw	-12684
▁BL	-12685
▁Be	-12686
▁DB	-12687
▁DK	-12688
▁DT	-12689
▁EG	-12690
▁EP	-12691
▁Ef	-12692
▁FA	-12693
▁Hu	-12694
▁Ji	-12695
▁KP	-12696
▁KU	-12697
▁Kh	-12698
▁LV	-12699
▁MG	-12700
▁MT	-12701
▁NF	-12702
▁NO	-12703
▁Nm	-12704
▁Or	-12705
▁RE	-12706
▁RK	-12707
▁RS	-12708
▁SG	-12709
▁UD	-12710
▁UL	-12711
▁WF	-12712
▁Yu	-12713
▁bh	-12714
▁cc	-12715
▁cu	-12716
▁cy	-12717
▁dh	-12718
▁ei	-12719
▁em	-12720
▁ft	-12721
▁ge	-12722
▁ig	-12723
▁ot	-12724
▁pe	-12725
▁so	-12726
▁ue	-12727
▁um	-12728
▁up	-12729
▁آس	-12730
▁بم	-12731
▁جر	-12732
▁حد	-12733
▁خل	-12734
▁ذہ	-12735
▁رز	-12736
▁زم	-12737
▁سا	-12738
▁سل	-12739
▁سٹ	-12740
▁سگ	-12741
▁ضر	-12742
▁لس	-12743
▁مڈ	-12744
▁وش	-12745
▁وے	-12746
▁ٹن	-12747
▁پج	-12748
▁گذ	-12749
▁گڈ	-12750
▁ہس	-12751
▁یپ	-12752
▁आप	-12753
▁खा	-12754
▁गए	-12755
▁चल	-12756
▁जो	-12757
▁ଅଟ	-12758
▁ଅତ	-12759
▁ଅସ	-12760
▁ଆୟ	-12761
▁ଇନ	-12762
▁ଇଭ	-12763
▁କଲ	-12764
▁ఐన	-12765
▁కణ	-12766
▁కధ	-12767
▁కఫ	-12768
▁ఛీ	-12769
▁దస	-12770
▁భగ	-12771
▁భళ	-12772
▁షం	-12773
▁ొప	-12774
▁ಎಐ	-12775
CICI	-12776
atra	-12777
imha	-12778
iraj	-12779
omen	-12780
onna	-12781
راہم	-12782
رمیم	-12783
ظہار	-12784
یادت	-12785
నిపై	-12786
▁(11	-12787
▁(42	-12788
▁(44	-12789
▁..?	-12790
▁0.8	-12791
▁01:	-12792
▁05)	-12793
▁13.	-12794
▁139	-12795
▁15-	-12796
▁17.	-12797
▁18.	-12798
▁19.	-12799
▁19:	-12800
▁2-1	-12801
▁21.	-12802
▁216	-12803
▁21:	-12804
▁276	-12805
▁277	-12806
▁286	-12807
▁291	-12808
▁29:	-12809
▁3-0	-12810
▁305	-12811
▁30:	-12812
▁315	-12813
▁32,	-12814
▁326	-12815
▁339	-12816
▁348	-12817
▁349	-12818
▁363	-12819
▁373	-12820
▁377	-12821
▁38.	-12822
▁4.7	-12823
▁401	-12824
▁403	-12825
▁410	-12826
▁411	-12827
▁412	-12828
▁425	-12829
▁43,	-12830
▁44,	-12831
▁444	-12832
▁449	-12833
▁463	-12834
▁466	-12835
▁468	-12836
▁470	-12837
▁48,	-12838
▁490	-12839
▁498	-12840
▁5-6	-12841
▁5.9	-12842
▁53%	-12843
▁545	-12844
▁55,	-12845
▁555	-12846
▁56,	-12847
▁580	-12848
▁60%	-12849
▁60,	-12850
▁615	-12851
▁618	-12852
▁639	-12853
▁64,	-12854
▁670	-12855
▁7.1	-12856
▁712	-12857
▁760	-12858
▁8.2	-12859
▁8.9	-12860
▁85%	-12861
▁860	-12862
▁9.6	-12863
▁96,	-12864
▁994	-12865
▁ABC	-12866
▁AFP	-12867
▁ALS	-12868
▁ANR	-12869
▁Ada	-12870
▁Ara	-12871
▁Ask	-12872
▁BAN	-12873
▁BSE	-12874
▁BSP	-12875
▁Bar	-12876
▁Bhu	-12877
▁Bih	-12878
▁CAR	-12879
▁CAS	-12880
▁CET	-12881
▁CPR	-12882
▁Cla	-12883
▁DCL	-12884
▁DSP	-12885
▁Dho	-12886
▁ESA	-12887
▁EWS	-12888
▁Far	-12889
▁GDP	-12890
▁Gma	-12891
▁Hai	-12892
▁IAF	-12893
▁IMS	-12894
▁IPO	-12895
▁Ima	-12896
▁JAY	-12897
▁JSP	-12898
▁LGB	-12899
▁MAY	-12900
▁MCA	-12901
▁MEA	-12902
▁MNR	-12903
▁MVA	-12904
▁May	-12905
▁Mee	-12906
▁NPS	-12907
▁PMO	-12908
▁Pad	-12909
▁Roh	-12910
▁SDX	-12911
▁SII	-12912
▁SIP	-12913
▁SSD	-12914
▁Sar	-12915
▁Ste	-12916
▁Stu	-12917
▁TRS	-12918
▁Tek	-12919
▁Ver	-12920
▁Zee	-12921
▁air	-12922
▁ami	-12923
▁ant	-12924
▁art	-12925
▁ash	-12926
▁cat	-12927
▁cer	-12928
▁cet	-12929
▁cup	-12930
▁ePe	-12931
▁est	-12932
▁ges	-12933
▁ggy	-12934
▁gna	-12935
▁his	-12936
▁ind	-12937
▁knr	-12938
▁kul	-12939
▁lee	-12940
▁ndu	-12941
▁nja	-12942
▁non	-12943
▁nti	-12944
▁ntr	-12945
▁ola	-12946
▁per	-12947
▁pri	-12948
▁pun	-12949
▁sho	-12950
▁sri	-12951
▁sta	-12952
▁stu	-12953
▁sur	-12954
▁tdp	-12955
▁tex	-12956
▁thu	-12957
▁tst	-12958
▁uhs	-12959
▁vis	-12960
▁wak	-12961
▁آرہ	-12962
▁اؤں	-12963
▁اتھ	-12964
▁ارک	-12965
▁انف	-12966
▁اہم	-12967
▁ایچ	-12968
▁برس	-12969
▁بھا	-12970
▁ترب	-12971
▁جلد	-12972
▁جمہ	-12973
▁جنا	-12974
▁جنہ	-12975
▁جگن	-12976
▁خاص	-12977
▁خیر	-12978
▁دار	-12979
▁دگی	-12980
▁راب	-12981
▁راس	-12982
▁رمی	-12983
▁رکن	-12984
▁رگو	-12985
▁ساز	-12986
▁سرخ	-12987
▁سرٹ	-12988
▁سرگ	-12989
▁سری	-12990
▁سنا	-12991
▁شاٹ	-12992
▁شرد	-12993
▁شکل	-12994
▁شیر	-12995
▁شیک	-12996
▁عیس	-12997
▁قتل	-12998
▁لنگ	-12999
▁لگی	-13000
▁مجم	-13001
▁محل	-13002
▁مصر	-13003
▁مغر	-13004
▁موت	-13005
▁مہا	-13006
▁میر	-13007
▁نئی	-13008
▁ناک	-13009
▁نشر	-13010
▁واز	-13011
▁وام	-13012
▁ٹور	-13013
▁ٹین	-13014
▁ٹیک	-13015
▁پاک	-13016
▁پرس	-13017
▁پیر	-13018
▁پیٹ	-13019
▁چیز	-13020
▁ڈائ	-13021
▁ڈیم	-13022
▁کرے	-13023
▁کول	-13024
▁کیر	-13025
▁کیف	-13026
▁گا۔	-13027
▁ہرا	-13028
▁ہیڈ	-13029
▁یوک	-13030
▁یگر	-13031
▁जगह	-13032
▁तरह	-13033
▁नही	-13034
▁फिर	-13035
▁राम	-13036
▁ଉଭୟ	-13037
▁ତଳେ	-13038
▁ବରଫ	-13039
▁ଶେଷ	-13040
▁అటే	-13041
▁అభం	-13042
▁అహం	-13043
▁ఆడక	-13044
▁ఆఫీ	-13045
▁ఆలు	-13046
▁ఇగా	-13047
▁ఇట్	-13048
▁ఇనే	-13049
▁ఉమ్	-13050
▁ఊడి	-13051
▁ఎడా	-13052
▁ఏఎం	-13053
▁ఏలా	-13054
▁ఏలో	-13055
▁ఐవీ	-13056
▁ఓటీ	-13057
▁ఓషో	-13058
▁కడే	-13059
▁కనే	-13060
▁కుర	-13061
▁ఖతం	-13062
▁గాఢ	-13063
▁గాణ	-13064
▁చిం	-13065
▁చీడ	-13066
▁జడ్	-13067
▁జరా	-13068
▁జావ	-13069
▁టాప	-13070
▁టుబ	-13071
▁డెన	-13072
▁తరహ	-13073
▁తుగ	-13074
▁దశమ	-13075
▁దూత	-13076
▁దోవ	-13077
▁ధూప	-13078
▁నరక	-13079
▁నహీ	-13080
▁నేక	-13081
▁న్ట	-13082
▁బసు	-13083
▁బాన	-13084
▁బ్య	-13085
▁భజే	-13086
▁భూత	-13087
▁యమం	-13088
▁యాయ	-13089
▁యెల	-13090
▁రహం	-13091
▁రీశ	-13092
▁వీక	-13093
▁శోక	-13094
▁షమి	-13095
▁షయం	-13096
▁సతీ	-13097
▁సొం	-13098
▁హావ	-13099
▁ిపె	-13100
▁ిషే	-13101
▁ుణు	-13102
▁ూడద	-13103
▁ేనన	-13104
▁్నై	-13105
▁్పట	-13106
▁ಇತರ	-13107
▁ಜನರ	-13108
▁ವಚನ	-13109
▁ಹೊಸ	-13110
▁Amar	-13111
▁Arts	-13112
▁BHIM	-13113
▁Bank	-13114
▁Brah	-13115
▁CBSE	-13116
▁CERT	-13117
▁CITY	-13118
▁COVI	-13119
▁Card	-13120
▁Cont	-13121
▁Coro	-13122
▁Crea	-13123
▁DMRC	-13124
▁Elon	-13125
▁Fest	-13126
▁Fina	-13127
▁Flip	-13128
▁Free	-13129
▁Gadd	-13130
▁Grea	-13131
▁Hira	-13132
▁JULY	-13133
▁Jose	-13134
▁LIVE	-13135
▁Limi	-13136
▁Loks	-13137
▁Lord	-13138
▁MSME	-13139
▁Meen	-13140
▁MrBe	-13141
▁Musk	-13142
▁NASA	-13143
▁NHAI	-13144
▁Nage	-13145
▁Oppo	-13146
▁Pant	-13147
▁Phon	-13148
▁Poth	-13149
▁Pres	-13150
▁Rail	-13151
▁Rate	-13152
▁Russ	-13153
▁SDRF	-13154
▁Scam	-13155
▁Soci	-13156
▁Spec	-13157
▁Sree	-13158
▁Suha	-13159
▁Tata	-13160
▁Team	-13161
▁Volu	-13162
▁With	-13163
▁agar	-13164
▁aksh	-13165
▁bati	-13166
▁comm	-13167
▁eSIM	-13168
▁fact	-13169
▁fice	-13170
▁flix	-13171
▁gava	-13172
▁hand	-13173
▁kash	-13174
▁mina	-13175
▁mula	-13176
▁neel	-13177
▁nhai	-13178
▁onei	-13179
▁traf	-13180
▁vast	-13181
▁vraj	-13182
▁اتار	-13183
▁اشوک	-13184
▁النب	-13185
▁انکی	-13186
▁ایشو	-13187
▁ایمس	-13188
▁تھان	-13189
▁جانک	-13190
▁جیسا	-13191
▁حملے	-13192
▁حکام	-13193
▁حیرت	-13194
▁خطاب	-13195
▁دفتر	-13196
▁دوست	-13197
▁دہند	-13198
▁دیشی	-13199
▁راجس	-13200
▁رضاک	-13201
▁زراف	-13202
▁ساحل	-13203
▁سلائ	-13204
▁سیاح	-13205
▁شاٹس	-13206
▁شرما	-13207
▁طلاق	-13208
▁عائد	-13209
▁علیہ	-13210
▁فوری	-13211
▁قرار	-13212
▁لامی	-13213
▁لباس	-13214
▁مجرم	-13215
▁مشین	-13216
▁مطلب	-13217
▁ملتا	-13218
▁مواز	-13219
▁میری	-13220
▁میسج	-13221
▁میٹر	-13222
▁نکال	-13223
▁وادی	-13224
▁وڈیا	-13225
▁ٹران	-13226
▁ٹرمپ	-13227
▁ٹریم	-13228
▁ٹریک	-13229
▁ٹوڈے	-13230
▁پربت	-13231
▁پوار	-13232
▁چندر	-13233
▁چھیڑ	-13234
▁ڈرائ	-13235
▁ڈینگ	-13236
▁کبھی	-13237
▁کروڑ	-13238
▁کمار	-13239
▁گاؤں	-13240
▁گزشت	-13241
▁گھوم	-13242
▁ہونا	-13243
▁ంబంధ	-13244
▁కత్వ	-13245
▁కొన్	-13246
▁గ్గర	-13247
▁చెప్	-13248
▁తుండ	-13249
▁తోంద	-13250
▁భ్యర	-13251
▁మరోవ	-13252
▁రస్త	-13253
▁రోవై	-13254
▁ర్ణా	-13255
▁ర్యట	-13256
▁వత్స	-13257
▁వర్య	-13258
▁విమా	-13259
▁శీలి	-13260
▁సమాచ	-13261
▁సుపత	-13262
▁సులు	-13263
▁హిస్	-13264
▁ారంల	-13265
▁ారాష	-13266
▁ిధాన	-13267
▁ిభాగ	-13268
▁ుందన	-13269
▁ుకున	-13270
▁ెనీల	-13271
▁ెబుత	-13272
▁ెలుగ	-13273
▁ెల్య	-13274
▁ేసార	-13275
▁ోషల్	-13276
▁్జెట	-13277
▁్రాన	-13278
▁్రేల	-13279
▁్లమె	-13280
▁్లోన	-13281
▁Bandi	-13282
▁Bolly	-13283
▁Covid	-13284
▁Hydra	-13285
▁ICICI	-13286
▁Jammu	-13287
▁Jonna	-13288
▁Kajal	-13289
▁Motor	-13290
▁Parli	-13291
▁Proje	-13292
▁Redmi	-13293
▁Sidda	-13294
▁Siddu	-13295
▁Srika	-13296
▁Sunny	-13297
▁Swamy	-13298
▁TGPSC	-13299
▁Tamil	-13300
▁Tolly	-13301
▁Vyooh	-13302
▁Yatra	-13303
▁shiva	-13304
▁today	-13305
▁trail	-13306
▁اترپر	-13307
▁اضافہ	-13308
▁اظہار	-13309
▁تبصرہ	-13310
▁ترمیم	-13311
▁تعمیر	-13312
▁تقبال	-13313
▁جماعت	-13314
▁حالان	-13315
▁دراصل	-13316
▁دیکھن	-13317
▁دیکھے	-13318
▁راہول	-13319
▁سمجھا	-13320
▁سچائی	-13321
▁شہزاد	-13322
▁فاؤنڈ	-13323
▁فراہم	-13324
▁قیادت	-13325
▁محفوظ	-13326
▁مشاہد	-13327
▁مطالب	-13328
▁ممالک	-13329
▁مناسب	-13330
▁پھٹنے	-13331
▁کرکٹر	-13332
▁گھروں	-13333
▁ہوگئے	-13334
▁ంతాల్	-13335
▁కుంటు	-13336
▁చ్చార	-13337
▁దరాబా	-13338
▁దేశాన	-13339
▁పోయాయ	-13340
▁ప్రధా	-13341
▁రేవంత	-13342
▁వైసీప	-13343
▁స్తామ	-13344
▁ారిగా	-13345
▁ాలేదు	-13346
▁ిద్యు	-13347
▁ీనిపై	-13348
▁ీసుకొ	-13349
▁ుంటార	-13350
▁ులోకి	-13351
▁్తున్	-13352
▁్రతిప	-13353
-9	-13354
1,	-13355
14	-13356
19	-13357
3,	-13358
4,	-13359
8,	-13360
AA	-13361
Aa	-13362
CB	-13363
EN	-13364
FF	-13365
Fi	-13366
HI	-13367
IE	-13368
LS	-13369
MD	-13370
OK	-13371
PM	-13372
PO	-13373
PT	-13374
TB	-13375
be	-13376
cn	-13377
co	-13378
cr	-13379
fi	-13380
ku	-13381
ll	-13382
ns	-13383
ph	-13384
sp	-13385
wn	-13386
بح	-13387
جہ	-13388
رت	-13389
سا	-13390
شر	-13391
طح	-13392
عو	-13393
مت	-13394
پس	-13395
چا	-13396
ڑپ	-13397
ژن	-13398
گڑ	-13399
یب	-13400
یح	-13401
ुछ	-13402
ାମ	-13403
ିଛ	-13404
ୁଇ	-13405
ఖ్	-13406
టా	-13407
డే	-13408
దా	-13409
హో	-13410
ీఆ	-13411
ದು	-13412
ನ್	-13413
ರ್	-13414
ಾಲ	-13415
ಾವ	-13416
▁\	-13417
▁đ	-13418
▁ّ	-13419
▁ञ	-13420
▁এ	-13421
▁ও	-13422
▁ধ	-13423
▁য	-13424
▁அ	-13425
▁ொ	-13426
▁ം	-13427
▁എ	-13428
▁ധ	-13429
▁ൂ	-13430
▁ൗ	-13431
CLR	-13432
CNG	-13433
ali	-13434
ans	-13435
art	-13436
asa	-13437
dhe	-13438
ear	-13439
gai	-13440
ggu	-13441
har	-13442
ink	-13443
int	-13444
ity	-13445
jaj	-13446
kar	-13447
kra	-13448
lia	-13449
now	-13450
omi	-13451
ory	-13452
qua	-13453
اؤن	-13454
ائج	-13455
اجد	-13456
ادر	-13457
ازہ	-13458
الہ	-13459
انت	-13460
اون	-13461
بلش	-13462
بوب	-13463
ترد	-13464
راک	-13465
سوس	-13466
صان	-13467
غیر	-13468
قعہ	-13469
لوس	-13470
لوک	-13471
لیش	-13472
ناز	-13473
ناہ	-13474
وتھ	-13475
وند	-13476
ویل	-13477
کمہ	-13478
گوا	-13479
ہاڑ	-13480
ہور	-13481
▁",	-13482
▁8%	-13483
▁?.	-13484
▁??	-13485
▁Af	-13486
▁Ai	-13487
▁BO	-13488
▁Bh	-13489
▁CD	-13490
▁DI	-13491
▁DP	-13492
▁Dh	-13493
▁EL	-13494
▁ER	-13495
▁EX	-13496
▁FM	-13497
▁GD	-13498
▁GM	-13499
▁HP	-13500
▁HU	-13501
▁Hi	-13502
▁JB	-13503
▁JO	-13504
▁Jr	-13505
▁KM	-13506
▁ME	-13507
▁MR	-13508
▁NR	-13509
▁OL	-13510
▁PE	-13511
▁PF	-13512
▁QF	-13513
▁RB	-13514
▁RD	-13515
▁RV	-13516
▁SF	-13517
▁SJ	-13518
▁SW	-13519
▁TE	-13520
▁TL	-13521
▁TQ	-13522
▁TY	-13523
▁Tu	-13524
▁Us	-13525
▁VT	-13526
▁WW	-13527
▁au	-13528
▁aw	-13529
▁bb	-13530
▁by	-13531
▁ci	-13532
▁ec	-13533
▁ef	-13534
▁hu	-13535
▁hy	-13536
▁kt	-13537
▁mg	-13538
▁nm	-13539
▁nn	-13540
▁ol	-13541
▁sf	-13542
▁tu	-13543
▁tw	-13544
▁آئ	-13545
▁آت	-13546
▁ئن	-13547
▁اص	-13548
▁رح	-13549
▁رم	-13550
▁شپ	-13551
▁طا	-13552
▁طب	-13553
▁عط	-13554
▁فض	-13555
▁مخ	-13556
▁مز	-13557
▁مگ	-13558
▁نج	-13559
▁وم	-13560
▁ٹس	-13561
▁ڈپ	-13562
▁گپ	-13563
▁گڑ	-13564
▁कह	-13565
▁थे	-13566
▁दी	-13567
▁दो	-13568
▁पा	-13569
▁फल	-13570
▁ଅଘ	-13571
▁ଅଡ	-13572
▁ଆଙ	-13573
▁ଆଦ	-13574
▁ଆବ	-13575
▁ଡ଼	-13576
▁ହେ	-13577
▁అగ	-13578
▁ఆమ	-13579
▁ఈక	-13580
▁ఐఏ	-13581
▁గక	-13582
▁ణణ	-13583
▁ళవ	-13584
▁ళు	-13585
▁వధ	-13586
▁వూ	-13587
▁హొ	-13588
▁ಓಂ	-13589
▁ಮಗ	-13590
SRTC	-13591
abad	-13592
alla	-13593
alls	-13594
amas	-13595
amir	-13596
irst	-13597
ooja	-13598
المی	-13599
انوی	-13600
شمول	-13601
صلعم	-13602
نڈول	-13603
یڈیم	-13604
క్టో	-13605
భావం	-13606
▁(13	-13607
▁(26	-13608
▁(31	-13609
▁(33	-13610
▁(49	-13611
▁(51	-13612
▁(60	-13613
▁(78	-13614
▁(84	-13615
▁-11	-13616
▁-20	-13617
▁0.4	-13618
▁02)	-13619
▁02:	-13620
▁03)	-13621
▁05:	-13622
▁07)	-13623
▁15:	-13624
▁17-	-13625
▁18%	-13626
▁2),	-13627
▁2):	-13628
▁2+2	-13629
▁2,3	-13630
▁21%	-13631
▁23.	-13632
▁236	-13633
▁246	-13634
▁247	-13635
▁264	-13636
▁27%	-13637
▁271	-13638
▁279	-13639
▁283	-13640
▁29%	-13641
▁29.	-13642
▁3.3	-13643
▁31:	-13644
▁321	-13645
▁337	-13646
▁34.	-13647
▁345	-13648
▁353	-13649
▁355	-13650
▁36%	-13651
▁361	-13652
▁382	-13653
▁397	-13654
▁4-1	-13655
▁417	-13656
▁421	-13657
▁426	-13658
▁438	-13659
▁452	-13660
▁457	-13661
▁458	-13662
▁467	-13663
▁469	-13664
▁471	-13665
▁482	-13666
▁494	-13667
▁499	-13668
▁5%,	-13669
▁5.1	-13670
▁5.2	-13671
▁508	-13672
▁509	-13673
▁511	-13674
▁530	-13675
▁534	-13676
▁539	-13677
▁542	-13678
▁547	-13679
▁563	-13680
▁591	-13681
▁61,	-13682
▁616	-13683
▁622	-13684
▁625	-13685
▁627	-13686
▁642	-13687
▁66,	-13688
▁665	-13689
▁67,	-13690
▁679	-13691
▁7.9	-13692
▁715	-13693
▁724	-13694
▁73,	-13695
▁730	-13696
▁77,	-13697
▁770	-13698
▁8-9	-13699
▁8.1	-13700
▁8.3	-13701
▁811	-13702
▁820	-13703
▁823	-13704
▁83%	-13705
▁839	-13706
▁848	-13707
▁857	-13708
▁864	-13709
▁880	-13710
▁885	-13711
▁889	-13712
▁9.7	-13713
▁909	-13714
▁910	-13715
▁973	-13716
▁AAR	-13717
▁ABS	-13718
▁ALH	-13719
▁AMT	-13720
▁ANA	-13721
▁ATF	-13722
▁Act	-13723
▁Age	-13724
▁All	-13725
▁Ari	-13726
▁BHK	-13727
▁BRO	-13728
▁Bea	-13729
▁Ben	-13730
▁Bol	-13731
▁Bor	-13732
▁CDC	-13733
▁CPI	-13734
▁Can	-13735
▁Cap	-13736
▁Col	-13737
▁Cur	-13738
▁DMU	-13739
▁Dan	-13740
▁Dea	-13741
▁DoT	-13742
▁Dra	-13743
▁ECI	-13744
▁Exp	-13745
▁FAC	-13746
▁GET	-13747
▁GMR	-13748
▁GTA	-13749
▁Gal	-13750
▁HRD	-13751
▁HYD	-13752
▁IMF	-13753
▁ISH	-13754
▁Ira	-13755
▁Jup	-13756
▁KIA	-13757
▁LBW	-13758
▁LDL	-13759
▁MAA	-13760
▁MLD	-13761
▁Max	-13762
▁NCS	-13763
▁NET	-13764
▁Nam	-13765
▁OMR	-13766
▁OPS	-13767
▁Odi	-13768
▁PET	-13769
▁PTE	-13770
▁PVR	-13771
▁Peo	-13772
▁RAW	-13773
▁RJD	-13774
▁RPF	-13775
▁RTR	-13776
▁Rau	-13777
▁SLV	-13778
▁SMA	-13779
▁Sch	-13780
▁Sil	-13781
▁Sys	-13782
▁Tdp	-13783
▁Ter	-13784
▁Thi	-13785
▁Tip	-13786
▁UFO	-13787
▁VIP	-13788
▁Wor	-13789
▁Yes	-13790
▁ail	-13791
▁aka	-13792
▁ane	-13793
▁ani	-13794
▁any	-13795
▁ara	-13796
▁ary	-13797
▁asp	-13798
▁ber	-13799
▁bhu	-13800
▁bom	-13801
▁des	-13802
▁dev	-13803
▁dio	-13804
▁doc	-13805
▁dog	-13806
▁ege	-13807
▁exp	-13808
▁gam	-13809
▁gat	-13810
▁get	-13811
▁gha	-13812
▁gon	-13813
▁has	-13814
▁iOS	-13815
▁ike	-13816
▁kWh	-13817
▁lea	-13818
▁lic	-13819
▁lip	-13820
▁lle	-13821
▁lli	-13822
▁lot	-13823
▁ney	-13824
▁ngh	-13825
▁ngu	-13826
▁not	-13827
▁oid	-13828
▁ors	-13829
▁out	-13830
▁pay	-13831
▁pet	-13832
▁rep	-13833
▁rju	-13834
▁rmy	-13835
▁rpm	-13836
▁rts	-13837
▁sto	-13838
▁tan	-13839
▁tch	-13840
▁tel	-13841
▁tes	-13842
▁tho	-13843
▁tir	-13844
▁tis	-13845
▁tya	-13846
▁ule	-13847
▁uma	-13848
▁vee	-13849
▁آٹے	-13850
▁اجی	-13851
▁اخذ	-13852
▁ارب	-13853
▁ازی	-13854
▁الا	-13855
▁الر	-13856
▁امن	-13857
▁اول	-13858
▁اوگ	-13859
▁باق	-13860
▁بچا	-13861
▁بچے	-13862
▁بیر	-13863
▁خری	-13864
▁خطر	-13865
▁دئے	-13866
▁درخ	-13867
▁رات	-13868
▁رسٹ	-13869
▁رقم	-13870
▁رلہ	-13871
▁رون	-13872
▁روٹ	-13873
▁روڈ	-13874
▁سان	-13875
▁سخت	-13876
▁سطح	-13877
▁سنچ	-13878
▁سون	-13879
▁شاپ	-13880
▁شبہ	-13881
▁شدت	-13882
▁صلی	-13883
▁طبی	-13884
▁عبد	-13885
▁عرف	-13886
▁فخر	-13887
▁قدر	-13888
▁قلع	-13889
▁لوج	-13890
▁لوں	-13891
▁لڈو	-13892
▁لگے	-13893
▁لہر	-13894
▁مرک	-13895
▁مشک	-13896
▁معا	-13897
▁منہ	-13898
▁میا	-13899
▁میز	-13900
▁نتن	-13901
▁نکل	-13902
▁نیل	-13903
▁وعد	-13904
▁ووڈ	-13905
▁ویل	-13906
▁ٹکر	-13907
▁پائ	-13908
▁پوپ	-13909
▁پٹی	-13910
▁پڑا	-13911
▁ڈیز	-13912
▁ڈیس	-13913
▁کاش	-13914
▁کتی	-13915
▁کلک	-13916
▁کنڑ	-13917
▁کھا	-13918
▁کھو	-13919
▁کہہ	-13920
▁گی۔	-13921
▁ہنس	-13922
▁ہوئ	-13923
▁یجن	-13924
▁ऐसा	-13925
▁कुछ	-13926
▁थीं	-13927
▁बार	-13928
▁भाई	-13929
▁लिख	-13930
▁वोट	-13931
▁हुए	-13932
▁हैं	-13933
▁ଅଟେ	-13934
▁ଖୁବ	-13935
▁ଦୁଇ	-13936
▁ଦେଶ	-13937
▁ମିଛ	-13938
▁ମୂଳ	-13939
▁ଯୋଗ	-13940
▁ంచవ	-13941
▁ంచే	-13942
▁ంధీ	-13943
▁అనం	-13944
▁అబ్	-13945
▁అలక	-13946
▁ఆని	-13947
▁ఆమీ	-13948
▁ఆవల	-13949
▁ఆషు	-13950
▁ఇటో	-13951
▁ఇళయ	-13952
▁ఉజ్	-13953
▁ఉడ్	-13954
▁ఊదా	-13955
▁ఋషి	-13956
▁ఐఓఏ	-13957
▁ఐకే	-13958
▁ఐనా	-13959
▁ఐరా	-13960
▁ఒన్	-13961
▁ఓటే	-13962
▁ఓలో	-13963
▁కడు	-13964
▁కలం	-13965
▁కాట	-13966
▁కాడ	-13967
▁కీర	-13968
▁కేక	-13969
▁కోశ	-13970
▁ఖరే	-13971
▁గడి	-13972
▁గడీ	-13973
▁గతే	-13974
▁గయా	-13975
▁గాక	-13976
▁జకా	-13977
▁జకీ	-13978
▁జనక	-13979
▁జరు	-13980
▁టబ్	-13981
▁టీల	-13982
▁డయా	-13983
▁డేగ	-13984
▁తరి	-13985
▁తున	-13986
▁పడగ	-13987
▁పడత	-13988
▁పఫ్	-13989
▁ఫతే	-13990
▁బచ్	-13991
▁బాష	-13992
▁మడమ	-13993
▁మదన	-13994
▁మయో	-13995
▁మేథ	-13996
▁మొర	-13997
▁మౌన	-13998
▁యను	-13999
▁రగన	-14000
▁రబడ	-14001
▁రభస	-14002
▁రవర	-14003
▁లకి	-14004
▁లఘు	-14005
▁వకా	-14006
▁షనల	-14007
▁షనీ	-14008
▁షోల	-14009
▁సజన	-14010
▁సఫల	-14011
▁సుత	-14012
▁ీచర	-14013
▁ుతం	-14014
▁ేరక	-14015
▁ైతం	-14016
▁్టమ	-14017
▁ಇದರ	-14018
▁ಯಾವ	-14019
▁Aish	-14020
▁Ajay	-14021
▁Amit	-14022
▁Andr	-14023
▁Anja	-14024
▁Anto	-14025
▁Arun	-14026
▁BMTC	-14027
▁Band	-14028
▁Bill	-14029
▁CARA	-14030
▁CBFC	-14031
▁CRDA	-14032
▁CRPF	-14033
▁Chri	-14034
▁Comm	-14035
▁CrPC	-14036
▁Dasa	-14037
▁Fast	-14038
▁Film	-14039
▁GOAT	-14040
▁Garu	-14041
▁Gate	-14042
▁Gemi	-14043
▁Juni	-14044
▁Kana	-14045
▁Kaur	-14046
▁King	-14047
▁Kish	-14048
▁Kuru	-14049
▁Life	-14050
▁Live	-14051
▁Loan	-14052
▁Love	-14053
▁Luck	-14054
▁MCLR	-14055
▁Make	-14056
▁Mans	-14057
▁Meda	-14058
▁Meta	-14059
▁Myth	-14060
▁NCRB	-14061
▁Neel	-14062
▁Niti	-14063
▁Onli	-14064
▁Pava	-14065
▁Pens	-14066
▁Pong	-14067
▁Poon	-14068
▁Puls	-14069
▁Regi	-14070
▁Reno	-14071
▁Roja	-14072
▁Rule	-14073
▁SLBC	-14074
▁Sach	-14075
▁Sale	-14076
▁Salm	-14077
▁Show	-14078
▁Sony	-14079
▁Stat	-14080
▁Tham	-14081
▁Tips	-14082
▁Tour	-14083
▁Ukra	-14084
▁Vivo	-14085
▁WFME	-14086
▁WiFi	-14087
▁Wife	-14088
▁Wome	-14089
▁amer	-14090
▁andh	-14091
▁ards	-14092
▁bala	-14093
▁bank	-14094
▁basa	-14095
▁bath	-14096
▁brea	-14097
▁coll	-14098
▁come	-14099
▁crip	-14100
▁devo	-14101
▁ebra	-14102
▁face	-14103
▁fake	-14104
▁fect	-14105
▁fina	-14106
▁gada	-14107
▁gath	-14108
▁ghmc	-14109
▁high	-14110
▁iCNG	-14111
▁iPad	-14112
▁mani	-14113
▁mini	-14114
▁nare	-14115
▁padu	-14116
▁plan	-14117
▁rath	-14118
▁real	-14119
▁rict	-14120
▁rjun	-14121
▁stal	-14122
▁stat	-14123
▁tabh	-14124
▁tech	-14125
▁vika	-14126
▁wali	-14127
▁wara	-14128
▁wari	-14129
▁ysja	-14130
▁آرہا	-14131
▁ائیر	-14132
▁ارجن	-14133
▁انتظ	-14134
▁اونچ	-14135
▁ایڈم	-14136
▁ایکٹ	-14137
▁بازی	-14138
▁بالک	-14139
▁بھاس	-14140
▁بھرا	-14141
▁بھری	-14142
▁بیوہ	-14143
▁بیٹے	-14144
▁تازہ	-14145
▁جانی	-14146
▁جلتا	-14147
▁جلوس	-14148
▁جمہو	-14149
▁جھڑپ	-14150
▁جیتن	-14151
▁حساس	-14152
▁حصوں	-14153
▁حلقہ	-14154
▁حماس	-14155
▁خالی	-14156
▁خاند	-14157
▁دریا	-14158
▁دہشت	-14159
▁دیوی	-14160
▁ریلے	-14161
▁زاوی	-14162
▁زمین	-14163
▁ساجد	-14164
▁سالا	-14165
▁سبھا	-14166
▁سروس	-14167
▁سسٹم	-14168
▁سمجھ	-14169
▁شمول	-14170
▁صحیح	-14171
▁طلبا	-14172
▁طینی	-14173
▁عربی	-14174
▁علاج	-14175
▁فائد	-14176
▁فلیش	-14177
▁فورس	-14178
▁فیصد	-14179
▁لڑنے	-14180
▁لگتا	-14181
▁متحد	-14182
▁مجسم	-14183
▁مجمع	-14184
▁مذاق	-14185
▁مذہب	-14186
▁مرتی	-14187
▁مساف	-14188
▁مضام	-14189
▁معذو	-14190
▁موقع	-14191
▁موہن	-14192
▁مہلک	-14193
▁نمبر	-14194
▁نوبل	-14195
▁نوٹس	-14196
▁واتے	-14197
▁واست	-14198
▁والد	-14199
▁والز	-14200
▁واپس	-14201
▁وروں	-14202
▁ویکس	-14203
▁ٹوپی	-14204
▁ٹھیک	-14205
▁ٹیوٹ	-14206
▁پارک	-14207
▁پانچ	-14208
▁پبلش	-14209
▁پتال	-14210
▁پسند	-14211
▁پلان	-14212
▁پناہ	-14213
▁پورہ	-14214
▁پہنی	-14215
▁پیار	-14216
▁پیٹا	-14217
▁چوری	-14218
▁چھاڑ	-14219
▁ڈاؤن	-14220
▁کرلی	-14221
▁کھنچ	-14222
▁کھول	-14223
▁کھڑے	-14224
▁کہنا	-14225
▁کیسے	-14226
▁گانے	-14227
▁ہراس	-14228
▁ہوگی	-14229
▁ంచగా	-14230
▁ఉపయో	-14231
▁కొత్	-14232
▁చేలా	-14233
▁ట్రం	-14234
▁ట్లత	-14235
▁దిస్	-14236
▁ద్యో	-14237
▁ధానం	-14238
▁పడతా	-14239
▁ఫిర్	-14240
▁బందు	-14241
▁మాత్	-14242
▁యన్స	-14243
▁యాత్	-14244
▁యాలయ	-14245
▁ర్పడ	-14246
▁ల్లల	-14247
▁వరంగ	-14248
▁వహార	-14249
▁సంజయ	-14250
▁ాటిన	-14251
▁ాతీయ	-14252
▁ారణం	-14253
▁ీనామ	-14254
▁ుపత్	-14255
▁ెంటన	-14256
▁ేషనల	-14257
▁్కడే	-14258
▁్తాం	-14259
▁్తుల	-14260
▁్వాస	-14261
▁Aamir	-14262
▁Bajaj	-14263
▁Colle	-14264
▁Crime	-14265
▁Daggu	-14266
▁Fiber	-14267
▁Hamas	-14268
▁Heart	-14269
▁Heavy	-14270
▁Kanna	-14271
▁Khush	-14272
▁Kriti	-14273
▁Laddu	-14274
▁Monde	-14275
▁Mudra	-14276
▁Plant	-14277
▁Pooja	-14278
▁Prime	-14279
▁Ranji	-14280
▁Siddh	-14281
▁Sudhe	-14282
▁Thama	-14283
▁Upasa	-14284
▁Venky	-14285
▁Watch	-14286
▁Water	-14287
▁bandh	-14288
▁colle	-14289
▁dance	-14290
▁pawan	-14291
▁polls	-14292
▁simha	-14293
▁women	-14294
▁world	-14295
▁اجازت	-14296
▁اروند	-14297
▁انتہا	-14298
▁انجام	-14299
▁انعام	-14300
▁انڈون	-14301
▁انڈین	-14302
▁برقعہ	-14303
▁بشمول	-14304
▁بنڈیو	-14305
▁بنگال	-14306
▁بھاری	-14307
▁تباہی	-14308
▁تبصرے	-14309
▁تحریر	-14310
▁تربیت	-14311
▁تردید	-14312
▁تنڈول	-14313
▁تہوار	-14314
▁دعووں	-14315
▁رابطہ	-14316
▁روایت	-14317
▁رہنما	-14318
▁ریلیز	-14319
▁ریڈیو	-14320
▁سالار	-14321
▁سوامی	-14322
▁سیکنڈ	-14323
▁شکایت	-14324
▁طیارہ	-14325
▁طیارے	-14326
▁عالمی	-14327
▁فرانس	-14328
▁فروری	-14329
▁متناز	-14330
▁محکمہ	-14331
▁مسترد	-14332
▁مشہور	-14333
▁مغربی	-14334
▁مقدمہ	-14335
▁منسلک	-14336
▁نتائج	-14337
▁نشانہ	-14338
▁نقصان	-14339
▁نیشنل	-14340
▁واقعے	-14341
▁وزارت	-14342
▁وصلعم	-14343
▁ٹیڈیم	-14344
▁پانوی	-14345
▁پیچھے	-14346
▁کررہی	-14347
▁کرلیا	-14348
▁کھانے	-14349
▁گھوٹا	-14350
▁یونیو	-14351
▁ంత్రం	-14352
▁అక్టో	-14353
▁అనుమా	-14354
▁ఆత్మహ	-14355
▁ఇంటిక	-14356
▁కటించ	-14357
▁కిస్త	-14358
▁చడంతో	-14359
▁చూడాల	-14360
▁న్టీఆ	-14361
▁పట్టి	-14362
▁యాల్స	-14363
▁రభావం	-14364
▁రాలను	-14365
▁ర్పుల	-14366
▁స్తుం	-14367
▁స్తున	-14368
▁ాజెక్	-14369
▁ార్లమ	-14370
▁ిపడ్డ	-14371
▁ీసులు	-14372
▁ుగోలు	-14373
▁ెంగళూ	-14374
▁ేస్తూ	-14375
▁్పటిక	-14376
-2	-14377
-8	-14378
13	-14379
24	-14380
34	-14381
5,	-14382
75	-14383
91	-14384
CS	-14385
GT	-14386
HB	-14387
HD	-14388
II	-14389
JA	-14390
Jr	-14391
MN	-14392
Me	-14393
NC	-14394
ND	-14395
NI	-14396
OG	-14397
OX	-14398
PE	-14399
SJ	-14400
TM	-14401
VP	-14402
WD	-14403
bn	-14404
by	-14405
dc	-14406
df	-14407
ie	-14408
ng	-14409
ok	-14410
os	-14411
pi	-14412
pt	-14413
ud	-14414
yu	-14415
ze	-14416
zz	-14417
ئل	-14418
ئن	-14419
اٹ	-14420
ای	-14421
با	-14422
بو	-14423
تہ	-14424
ذک	-14425
رٹ	-14426
زن	-14427
سل	-14428
شہ	-14429
فظ	-14430
لت	-14431
نہ	-14432
ڑت	-14433
کس	-14434
ھر	-14435
ہو	-14436
یز	-14437
एक	-14438
ाख	-14439
ुद	-14440
ूप	-14441
ूल	-14442
ତନ	-14443
ମୟ	-14444
అల	-14445
ఏం	-14446
ఖౌ	-14447
ఝా	-14448
ణి	-14449
తమ	-14450
వన	-14451
వై	-14452
శా	-14453
హా	-14454
హే	-14455
ಕೆ	-14456
ಗಿ	-14457
ಹಳ	-14458
ೂಡ	-14459
′′	-14460
▁~	-14461
▁·	-14462
▁×	-14463
▁ه	-14464
▁ँ	-14465
▁ऊ	-14466
▁ऑ	-14467
▁०	-14468
▁ড	-14469
▁দ	-14470
▁ফ	-14471
▁ଃ	-14472
▁ங	-14473
▁ீ	-14474
▁౩	-14475
▁ಃ	-14476
▁ಝ	-14477
▁ൾ	-14478
▁⦁	-14479
▁💪	-14480
▁🔥	-14481
▁🙏	-14482
😂😂	-14483
EIL	-14484
IBO	-14485
ISH	-14486
MSI	-14487
NAF	-14488
NDP	-14489
SOP	-14490
ale	-14491
ang	-14492
bhi	-14493
bps	-14494
cha	-14495
gne	-14496
khi	-14497
lob	-14498
ocl	-14499
ضہ	-14500
کا	-14501
ରି	-14502
ಳೆ	-14503
ಾಮ	-14504
ona	-14505
ons	-14506
ope	-14507
opi	-14508
pan	-14509
thi	-14510
uts	-14511
val	-14512
vid	-14513
vva	-14514
ائن	-14515
ابن	-14516
احت	-14517
افل	-14518
افی	-14519
امع	-14520
اہی	-14521
تاط	-14522
دان	-14523
دقہ	-14524
رلڈ	-14525
رکت	-14526
زیٹ	-14527
شاں	-14528
شمی	-14529
شنی	-14530
صلہ	-14531
صوب	-14532
قتد	-14533
لاح	-14534
لسل	-14535
نتی	-14536
ورت	-14537
ولس	-14538
ولڈ	-14539
وٹر	-14540
وکہ	-14541
کنہ	-14542
ہید	-14543
یال	-14544
یرس	-14545
یوں	-14546
▁".	-14547
▁-9	-14548
▁-:	-14549
▁1"	-14550
▁7%	-14551
▁AK	-14552
▁AQ	-14553
▁Ay	-14554
▁CT	-14555
▁DG	-14556
▁DS	-14557
▁DV	-14558
▁DY	-14559
▁EK	-14560
▁EU	-14561
▁Ec	-14562
▁Em	-14563
▁Ev	-14564
▁FL	-14565
▁GI	-14566
▁GV	-14567
▁HE	-14568
▁HT	-14569
▁IO	-14570
▁Im	-14571
▁KC	-14572
▁KY	-14573
▁Kl	-14574
▁LE	-14575
▁MC	-14576
▁Mp	-14577
▁NU	-14578
▁Nu	-14579
▁Om	-14580
▁PH	-14581
▁PO	-14582
▁PT	-14583
▁Pr	-14584
▁TB	-14585
▁TM	-14586
▁TU	-14587
▁TW	-14588
▁UV	-14589
▁VS	-14590
▁WA	-14591
▁WI	-14592
▁cw	-14593
▁ks	-14594
▁mh	-14595
▁ps	-14596
▁rh	-14597
▁tv	-14598
▁yo	-14599
vu	-14600
طل	-14601
وق	-14602
کو	-14603
▁়	-14604
CCF	-14605
gde	-14606
ins	-14607
inu	-14608
ore	-14609
خری	-14610
لوں	-14611
لیل	-14612
ٹھی	-14613
ھیل	-14614
▁JD	-14615
▁LY	-14616
▁OF	-14617
▁Ok	-14618
▁WK	-14619
▁ls	-14620
▁yu	-14621
▁آل	-14622
▁آم	-14623
▁اط	-14624
▁بو	-14625
▁تا	-14626
▁تخ	-14627
▁خر	-14628
▁رع	-14629
▁رگ	-14630
▁زی	-14631
▁قد	-14632
▁نص	-14633
▁وب	-14634
▁وض	-14635
▁ول	-14636
▁ين	-14637
▁ڈا	-14638
▁ڈھ	-14639
▁کک	-14640
▁کە	-14641
▁گئ	-14642
▁گل	-14643
▁یق	-14644
▁इन	-14645
▁दू	-14646
▁लग	-14647
▁सा	-14648
▁हम	-14649
▁ଅକ	-14650
▁ଅଜ	-14651
▁ଅହ	-14652
▁ଇଟ	-14653
▁ଏତ	-14654
▁ଏୟ	-14655
▁ଓମ	-14656
▁କି	-14657
▁ଦା	-14658
▁ବି	-14659
▁ମଇ	-14660
▁ଯା	-14661
▁୧୫	-14662
▁ఊచ	-14663
▁ఊట	-14664
▁ఐఐ	-14665
▁ఖో	-14666
▁ఠగ	-14667
▁డౌ	-14668
▁షై	-14669
▁ైగ	-14670
▁ಆತ	-14671
▁ಆರ	-14672
▁ಕೆ	-14673
▁ಕೈ	-14674
▁ಗೆ	-14675
▁ನಾ	-14676
▁ಮತ	-14677
▁₹2	-14678
MRCL	-14679
ello	-14680
ence	-14681
ingh	-14682
irth	-14683
khil	-14684
lick	-14685
oney	-14686
ouse	-14687
uake	-14688
uber	-14689
unki	-14690
الکڑ	-14691
جاوٹ	-14692
دارت	-14693
ذکرہ	-14694
زادی	-14695
شتمل	-14696
غیرہ	-14697
ناصر	-14698
وعیت	-14699
DPS	-14700
aba	-14701
eno	-14702
und	-14703
vya	-14704
ابس	-14705
ابی	-14706
رلہ	-14707
▁0,	-14708
▁DJ	-14709
▁PP	-14710
▁dL	-14711
▁ok	-14712
▁طن	-14713
▁ٹا	-14714
▁गई	-14715
over	-14716
unth	-14717
گھور	-14718
یوند	-14719
క్తు	-14720
▁(21	-14721
▁(23	-14722
▁(48	-14723
▁(52	-14724
▁(54	-14725
▁(85	-14726
▁(90	-14727
▁+91	-14728
▁-10	-14729
▁-3,	-14730
▁-40	-14731
▁-85	-14732
▁0-3	-14733
▁0.3	-14734
▁0.7	-14735
▁03,	-14736
▁07,	-14737
▁1,2	-14738
▁1/3	-14739
▁13%	-14740
▁13-	-14741
▁184	-14742
▁2-8	-14743
▁20.	-14744
▁21-	-14745
▁226	-14746
▁232	-14747
▁24.	-14748
▁25.	-14749
▁25:	-14750
▁284	-14751
▁287	-14752
▁3,4	-14753
▁3-1	-14754
▁3-5	-14755
▁30-	-14756
▁308	-14757
▁309	-14758
▁314	-14759
▁319	-14760
▁32%	-14761
▁325	-14762
▁33.	-14763
▁334	-14764
▁335	-14765
▁341	-14766
▁343	-14767
▁344	-14768
▁35%	-14769
▁369	-14770
▁37,	-14771
▁372	-14772
▁374	-14773
▁379	-14774
▁384	-14775
▁386	-14776
▁392	-14777
▁395	-14778
▁398	-14779
▁4-5	-14780
▁405	-14781
▁406	-14782
▁41.	-14783
▁415	-14784
▁416	-14785
▁429	-14786
▁434	-14787
▁437	-14788
▁45%	-14789
▁454	-14790
▁455	-14791
▁46.	-14792
▁462	-14793
▁475	-14794
▁484	-14795
▁487	-14796
▁5-0	-14797
▁5.0	-14798
▁50)	-14799
CH	-14800
ता	-14801
PSR	-14802
ros	-14803
سیج	-14804
وسی	-14805
ہاز	-14806
▁AU	-14807
▁BR	-14808
▁ag	-14809
▁jr	-14810
▁vN	-14811
▁وق	-14812
▁रा	-14813
▁୧୬	-14814
▁୨୦	-14815
▁୨୬	-14816
▁(29	-14817
▁(30	-14818
▁(37	-14819
▁(41	-14820
▁1..	-14821
▁3.9	-14822
▁4.0	-14823
▁473	-14824
▁504	-14825
▁51,	-14826
▁51.	-14827
▁513	-14828
▁52)	-14829
▁525	-14830
▁526	-14831
▁552	-14832
▁556	-14833
▁566	-14834
▁574	-14835
▁575	-14836
▁576	-14837
▁581	-14838
▁59,	-14839
▁594	-14840
▁597	-14841
▁6,7	-14842
▁6-8	-14843
▁6.2	-14844
▁6.6	-14845
▁60.	-14846
▁605	-14847
▁606	-14848
▁619	-14849
▁623	-14850
▁630	-14851
▁631	-14852
▁634	-14853
▁636	-14854
▁643	-14855
▁644	-14856
▁645	-14857
▁647	-14858
▁658	-14859
▁661	-14860
▁663	-14861
▁672	-14862
▁677	-14863
▁690	-14864
▁699	-14865
▁70%	-14866
▁70,	-14867
▁706	-14868
▁709	-14869
▁71%	-14870
▁71,	-14871
▁710	-14872
▁721	-14873
▁743	-14874
▁75,	-14875
▁763	-14876
▁765	-14877
▁780	-14878
▁787	-14879
▁79%	-14880
▁79,	-14881
▁793	-14882
▁796	-14883
▁81,	-14884
▁814	-14885
▁822	-14886
▁825	-14887
▁827	-14888
▁844	-14889
▁85,	-14890
▁858	-14891
▁870	-14892
▁902	-14893
▁911	-14894
▁912	-14895
▁95%	-14896
▁970	-14897
▁99%	-14898
▁ABN	-14899
No	-14900
VS	-14901
پٹ	-14902
ctc	-14903
igi	-14904
ves	-14905
ازی	-14906
رہم	-14907
قیم	-14908
یسر	-14909
▁Ry	-14910
▁Za	-14911
▁شو	-14912
olid	-14913
▁7.3	-14914
▁913	-14915
▁933	-14916
▁966	-14917
▁97,	-14918
▁982	-14919
▁986	-14920
▁ADR	-14921
▁AFG	-14922
▁APK	-14923
▁ARI	-14924
▁ASP	-14925
▁ATC	-14926
▁Ace	-14927
▁Add	-14928
▁Adu	-14929
▁Asi	-14930
▁BAB	-14931
▁BAP	-14932
▁BMI	-14933
▁BNS	-14934
▁Bhi	-14935
▁Bio	-14936
▁Bub	-14937
▁CBC	-14938
▁CMR	-14939
▁CNC	-14940
▁CNN	-14941
▁COM	-14942
▁Cre	-14943
▁Cru	-14944
▁DAN	-14945
▁DND	-14946
▁DRI	-14947
▁Dal	-14948
▁Dar	-14949
▁Dec	-14950
▁Dim	-14951
▁Dru	-14952
▁ECL	-14953
▁EGA	-14954
▁EOS	-14955
▁EPA	-14956
▁ESH	-14957
▁ETG	-14958
▁Ele	-14959
▁Eme	-14960
▁FDC	-14961
▁GCC	-14962
▁GOV	-14963
▁GRP	-14964
▁Gam	-14965
▁Geo	-14966
▁Gha	-14967
▁HCL	-14968
▁HMT	-14969
▁Haa	-14970
▁Has	-14971
▁Hon	-14972
▁ILL	-14973
▁IMX	-14974
▁INC	-14975
▁INS	-14976
▁IOC	-14977
▁IVF	-14978
▁JBL	-14979
▁JMM	-14980
▁JSW	-14981
▁Jas	-14982
▁KFC	-14983
▁Kha	-14984
▁Kol	-14985
▁LRO	-14986
▁LSG	-14987
▁LTE	-14988
▁LVM	-14989
▁Lay	-14990
▁MCC	-14991
▁MCR	-14992
▁MIT	-14993
▁Mat	-14994
▁Men	-14995
▁Mer	-14996
▁Min	-14997
▁NAT	-14998
▁NCA	-14999
▁NFC	-15000
▁NSG	-15001
▁Nar	-15002
▁Neh	-15003
▁Neo	-15004
▁Nep	-15005
▁NoV	-15006
▁OMG	-15007
▁ORS	-15008
▁PAC	-15009
▁PAN	-15010
▁PFI	-15011
▁PIA	-15012
▁PIN	-15013
▁PNG	-15014
▁PRO	-15015
▁Pha	-15016
▁Pil	-15017
▁RAC	-15018
▁RAN	-15019
▁RRB	-15020
▁RTI	-15021
▁RTM	-15022
▁RTO	-15023
▁Rem	-15024
▁Roy	-15025
▁SAG	-15026
▁SAR	-15027
▁SCR	-15028
▁SDM	-15029
▁SER	-15030
▁SKN	-15031
▁SLC	-15032
▁SOC	-15033
▁SOS	-15034
▁Saf	-15035
▁See	-15036
▁Sla	-15037
▁Smi	-15038
▁Sna	-15039
▁TAS	-15040
▁THE	-15041
▁Tab	-15042
▁Tro	-15043
▁Tru	-15044
▁Tup	-15045
▁UAP	-15046
▁UGC	-15047
▁UTI	-15048
▁Uni	-15049
▁VII	-15050
▁Vam	-15051
▁Vis	-15052
▁WPL	-15053
▁XMR	-15054
▁ZEE	-15055
▁ali	-15056
▁ays	-15057
▁bad	-15058
▁bal	-15059
▁bei	-15060
▁bra	-15061
▁bro	-15062
▁cal	-15063
▁cel	-15064
▁cko	-15065
▁col	-15066
▁ctc	-15067
▁dai	-15068
▁dra	-15069
▁duc	-15070
▁eme	-15071
▁emo	-15072
▁end	-15073
▁eng	-15074
▁eni	-15075
▁era	-15076
▁ery	-15077
▁esh	-15078
▁far	-15079
▁fec	-15080
▁fin	-15081
▁fla	-15082
▁flo	-15083
▁fly	-15084
▁gen	-15085
▁gic	-15086
▁gue	-15087
▁hel	-15088
▁hyd	-15089
▁ify	-15090
▁ila	-15091
▁inc	-15092
▁ipc	-15093
▁ive	-15094
▁kcr	-15095
▁kra	-15096
▁lal	-15097
▁lla	-15098
▁lly	-15099
▁men	-15100
▁mia	-15101
▁mis	-15102
▁mob	-15103
▁mus	-15104
▁nad	-15105
▁nar	-15106
▁nav	-15107
▁nch	-15108
▁nee	-15109
▁ner	-15110
▁nge	-15111
▁ngs	-15112
▁nit	-15113
▁nks	-15114
▁nra	-15115
▁nst	-15116
▁ora	-15117
▁our	-15118
▁ous	-15119
▁pan	-15120
▁ped	-15121
▁pho	-15122
▁psc	-15123
▁res	-15124
▁ret	-15125
▁rga	-15126
▁rou	-15127
▁roy	-15128
▁rsh	-15129
▁rya	-15130
▁sec	-15131
▁sga	-15132
▁sna	-15133
▁soc	-15134
▁srb	-15135
▁ssc	-15136
▁sti	-15137
▁sts	-15138
▁sup	-15139
▁tal	-15140
▁tam	-15141
▁tej	-15142
▁tme	-15143
▁tna	-15144
▁tre	-15145
▁uri	-15146
▁uty	-15147
▁vil	-15148
▁vin	-15149
▁waj	-15150
▁wan	-15151
▁web	-15152
▁who	-15153
▁wor	-15154
▁آتش	-15155
▁آتے	-15156
▁آرک	-15157
▁آگے	-15158
▁اتا	-15159
▁اتہ	-15160
▁اتی	-15161
▁اثر	-15162
▁ارس	-15163
▁اعض	-15164
▁الد	-15165
▁امک	-15166
▁امہ	-15167
▁انٹ	-15168
▁اکے	-15169
▁ایو	-15170
▁بان	-15171
▁بجے	-15172
▁بحث	-15173
▁بدل	-15174
▁برد	-15175
▁بری	-15176
▁بنڈ	-15177
▁بول	-15178
▁بچن	-15179
▁بھگ	-15180
▁بہا	-15181
▁بیں	-15182
▁تھر	-15183
▁جئے	-15184
▁جاپ	-15185
▁جلس	-15186
▁جنس	-15187
▁جنم	-15188
▁جڑے	-15189
▁جہت	-15190
▁جیک	-15191
▁حصے	-15192
▁دری	-15193
▁دعا	-15194
▁دلت	-15195
▁دوم	-15196
▁دوں	-15197
▁دین	-15198
▁دیں	-15199
▁دی۔	-15200
▁راؤ	-15201
▁راد	-15202
▁رجس	-15203
▁رحم	-15204
▁ردی	-15205
▁روس	-15206
▁رول	-15207
▁روہ	-15208
▁روی	-15209
▁رٹی	-15210
▁رکر	-15211
▁ریب	-15212
▁ریج	-15213
▁زار	-15214
▁ساد	-15215
▁سلس	-15216
▁سلم	-15217
▁سند	-15218
▁سنس	-15219
▁سیع	-15220
▁سیو	-15221
▁سیٹ	-15222
▁شان	-15223
▁شرپ	-15224
▁شنر	-15225
▁شوٹ	-15226
▁شیخ	-15227
▁صبح	-15228
▁صوب	-15229
▁عرب	-15230
▁عہد	-15231
▁فرم	-15232
▁لات	-15233
▁لاز	-15234
▁لکھ	-15235
▁لیب	-15236
▁لیس	-15237
▁لیٹ	-15238
▁لیں	-15239
▁ماد	-15240
▁محض	-15241
▁مرچ	-15242
▁مرہ	-15243
▁مری	-15244
▁مزد	-15245
▁مطل	-15246
▁ملت	-15247
▁مون	-15248
▁نئے	-15249
▁واس	-15250
▁واڑ	-15251
▁ودن	-15252
▁ورس	-15253
▁ونگ	-15254
▁وکر	-15255
▁ویں	-15256
▁ٹبل	-15257
▁ٹنٹ	-15258
▁ٹنگ	-15259
▁ٹوٹ	-15260
▁ٹکٹ	-15261
▁ٹیج	-15262
▁پئن	-15263
▁پلے	-15264
▁پڑے	-15265
▁پگھ	-15266
▁پہچ	-15267
▁چور	-15268
▁چون	-15269
▁چڑھ	-15270
▁چکا	-15271
▁چکر	-15272
▁چیت	-15273
▁چیخ	-15274
▁چیم	-15275
▁ڈیڈ	-15276
▁کاٹ	-15277
▁کرس	-15278
▁کشی	-15279
▁کوڈ	-15280
▁کہی	-15281
▁گار	-15282
▁گاہ	-15283
▁گلک	-15284
▁گنت	-15285
▁گود	-15286
▁گیر	-15287
▁گیس	-15288
▁گیم	-15289
▁ھار	-15290
▁ھوس	-15291
▁ہوس	-15292
▁یاب	-15293
▁یار	-15294
▁یشل	-15295
▁یشہ	-15296
▁یٹر	-15297
▁یکا	-15298
▁یکر	-15299
▁یکچ	-15300
▁یگی	-15301
▁ऐसे	-15302
▁नाम	-15303
▁बाद	-15304
▁रूप	-15305
▁लाख	-15306
▁सिम	-15307
▁हाथ	-15308
▁ଆଜି	-15309
▁ଆହତ	-15310
▁କଥା	-15311
▁ତଥା	-15312
▁ଦଳର	-15313
▁ରତନ	-15314
▁ସମୟ	-15315
▁ସହର	-15316
▁ସିଏ	-15317
▁ସେଖ	-15318
▁అకా	-15319
▁అటో	-15320
▁అబి	-15321
▁అబో	-15322
▁అలం	-15323
▁ఆగే	-15324
▁ఆజ్	-15325
▁ఆటే	-15326
▁ఆత్	-15327
▁ఆదం	-15328
▁ఆదే	-15329
▁ఆనో	-15330
▁ఆమడ	-15331
▁ఆయ్	-15332
▁ఆరె	-15333
▁ఆలి	-15334
▁ఆలే	-15335
▁ఆషా	-15336
▁ఈడు	-15337
▁ఈపీ	-15338
▁ఈసా	-15339
▁ఎకె	-15340
▁ఎటా	-15341
▁ఎటో	-15342
▁ఎలి	-15343
▁ఏటి	-15344
▁ఏసు	-15345
▁ఐజి	-15346
▁ఐషా	-15347
▁ఒకో	-15348
▁ఒలీ	-15349
▁ఓకా	-15350
▁ఓటూ	-15351
▁ఓనం	-15352
▁ఓమ్	-15353
▁ఓరి	-15354
▁ఓర్	-15355
▁ఓసి	-15356
▁ఔషద	-15357
▁కంచ	-15358
▁కలశ	-15359
▁కలే	-15360
▁కవన	-15361
▁కసం	-15362
▁కిట	-15363
▁కృప	-15364
▁కెళ	-15365
▁ఖడ్	-15366
▁ఖల్	-15367
▁గంల	-15368
▁గయే	-15369
▁గీస	-15370
▁గుస	-15371
▁చలవ	-15372
▁ఛాయ	-15373
▁జఖౌ	-15374
▁జగ్	-15375
▁జలం	-15376
▁జిస	-15377
▁జేఈ	-15378
▁టపడ	-15379
▁టీఎ	-15380
▁టీఏ	-15381
▁డన్	-15382
▁డున	-15383
▁తడక	-15384
▁తదే	-15385
▁తిస	-15386
▁తూచ	-15387
▁దగ్	-15388
▁దట్	-15389
▁దనం	-15390
▁దవడ	-15391
▁దాప	-15392
▁దిం	-15393
▁ధరే	-15394
▁పడీ	-15395
▁పిఏ	-15396
▁పీఓ	-15397
▁పూస	-15398
▁పేక	-15399
▁ఫణి	-15400
▁భలో	-15401
▁భళి	-15402
▁మనా	-15403
▁మరు	-15404
▁మరొ	-15405
▁మలై	-15406
▁మవా	-15407
▁మాఢ	-15408
▁మేళ	-15409
▁మైల	-15410
▁రండ	-15411
▁రబ్	-15412
▁రయా	-15413
▁రేగ	-15414
▁లాద	-15415
▁వంచ	-15416
▁వరల	-15417
▁షట్	-15418
▁షరా	-15419
▁సుధ	-15420
▁హరే	-15421
▁హవన	-15422
▁హిమ	-15423
▁ాణ్	-15424
▁ియన	-15425
▁ూని	-15426
▁ేత్	-15427
▁ోబర	-15428
▁్తన	-15429
▁్యట	-15430
▁ಅತಿ	-15431
▁ಆಗಿ	-15432
▁ಆರು	-15433
▁ಐದು	-15434
▁ಕೂಡ	-15435
▁ದಿನ	-15436
▁ಪತಿ	-15437
▁ಬಹಳ	-15438
▁ಮಳೆ	-15439
▁ರಾಮ	-15440
▁Abba	-15441
▁Abdu	-15442
▁Agar	-15443
▁Airt	-15444
▁Alia	-15445
▁Anch	-15446
▁Apps	-15447
▁Arha	-15448
▁BBMP	-15449
▁BHEL	-15450
▁Baba	-15451
▁Bask	-15452
▁Bell	-15453
▁Bhai	-15454
▁Camp	-15455
▁Chen	-15456
▁Chop	-15457
▁Cine	-15458
▁Comp	-15459
▁Cyli	-15460
▁DEMU	-15461
▁Deol	-15462
▁Dhar	-15463
▁Digi	-15464
▁Dime	-15465
▁Dist	-15466
▁Dogs	-15467
▁Faha	-15468
▁Fath	-15469
▁GRAP	-15470
▁GSDP	-15471
▁Gang	-15472
▁Govt	-15473
▁Guja	-15474
▁HMSI	-15475
▁Home	-15476
▁INDI	-15477
▁INOX	-15478
▁ITIR	-15479
▁Inde	-15480
▁Inte	-15481
▁JNTU	-15482
▁Jaba	-15483
▁KHAN	-15484
▁Kaar	-15485
▁Kali	-15486
▁Kesa	-15487
▁Kesi	-15488
▁Klin	-15489
▁Koma	-15490
▁Kona	-15491
▁LIBS	-15492
▁Leno	-15493
▁Ligh	-15494
▁MDMA	-15495
▁MEIL	-15496
▁MPDO	-15497
▁Mana	-15498
▁Mark	-15499
▁Meer	-15500
▁Meet	-15501
▁Mill	-15502
▁Moto	-15503
▁NAFE	-15504
▁NCCF	-15505
▁NDMA	-15506
▁NDPS	-15507
▁NDRF	-15508
▁NEFT	-15509
▁NEWS	-15510
▁Netw	-15511
▁Nomi	-15512
▁OTES	-15513
▁Odia	-15514
▁PDPP	-15515
▁PVNR	-15516
▁Pala	-15517
▁Pass	-15518
▁Paul	-15519
▁Pova	-15520
▁Puri	-15521
▁Rajp	-15522
▁Raut	-15523
▁Reut	-15524
▁SARS	-15525
▁SLIM	-15526
▁SNDP	-15527
▁SPSR	-15528
▁Sabi	-15529
▁Same	-15530
▁Samp	-15531
▁Sand	-15532
▁Sena	-15533
▁Seth	-15534
▁Shou	-15535
▁Sita	-15536
▁Solu	-15537
▁Stre	-15538
▁Suma	-15539
▁Suri	-15540
▁Sush	-15541
▁Tama	-15542
▁Tech	-15543
▁Temp	-15544
▁This	-15545
▁UPPL	-15546
▁Urva	-15547
▁Usta	-15548
▁Vach	-15549
▁Vara	-15550
▁Vasu	-15551
▁Vemu	-15552
▁Venu	-15553
▁Vine	-15554
▁Wave	-15555
▁Wind	-15556
▁Yash	-15557
▁adha	-15558
▁bled	-15559
▁care	-15560
▁cars	-15561
▁char	-15562
▁conn	-15563
▁cont	-15564
▁cope	-15565
▁cric	-15566
▁ddin	-15567
▁deep	-15568
▁fici	-15569
▁food	-15570
▁from	-15571
▁gane	-15572
▁gust	-15573
▁hone	-15574
▁indi	-15575
▁iocl	-15576
▁ival	-15577
▁join	-15578
▁kala	-15579
▁kana	-15580
▁khar	-15581
▁lady	-15582
▁link	-15583
▁mane	-15584
▁medi	-15585
▁mmer	-15586
▁muri	-15587
▁nath	-15588
▁ncbn	-15589
▁ndel	-15590
▁ndoo	-15591
▁ndya	-15592
▁nits	-15593
▁note	-15594
▁nter	-15595
▁orks	-15596
▁orts	-15597
▁para	-15598
▁phal	-15599
▁pres	-15600
▁rame	-15601
▁rate	-15602
▁rest	-15603
▁reva	-15604
▁rthy	-15605
▁ship	-15606
▁site	-15607
▁skar	-15608
▁stri	-15609
▁sure	-15610
▁this	-15611
▁time	-15612
▁ting	-15613
▁ttam	-15614
▁ttar	-15615
▁tube	-15616
▁udha	-15617
▁vers	-15618
▁vish	-15619
▁webs	-15620
▁wedd	-15621
▁will	-15622
▁yash	-15623
▁آخری	-15624
▁آرہی	-15625
▁آڈیو	-15626
▁اتنی	-15627
▁اتھا	-15628
▁اراد	-15629
▁اعتر	-15630
▁اقتد	-15631
▁اوری	-15632
▁اوگر	-15633
▁اگلے	-15634
▁اہلی	-15635
▁ایڈٹ	-15636
▁ایڈی	-15637
▁ایکڑ	-15638
▁باری	-15639
▁باوج	-15640
▁باکس	-15641
▁برلہ	-15642
▁بلڈو	-15643
▁بنام	-15644
▁بڑھا	-15645
▁بینچ	-15646
▁بیٹی	-15647
▁ترین	-15648
▁تھام	-15649
▁تیاز	-15650
▁تیرے	-15651
▁جائز	-15652
▁جامع	-15653
▁جانا	-15654
▁جمنا	-15655
▁جنتا	-15656
▁جنسی	-15657
▁جوڑے	-15658
▁جھیل	-15659
▁جہاز	-15660
▁حرکت	-15661
▁حقیق	-15662
▁خرید	-15663
▁خواہ	-15664
▁خیال	-15665
▁درجن	-15666
▁دعوت	-15667
▁دورے	-15668
▁دھرن	-15669
▁دیسا	-15670
▁دیشا	-15671
▁راجن	-15672
▁راما	-15673
▁راوت	-15674
▁راہل	-15675
▁رساں	-15676
▁رولی	-15677
▁رکھا	-15678
▁رہنے	-15679
▁ریزر	-15680
▁زندہ	-15681
▁سامع	-15682
▁سروے	-15683
▁سرکس	-15684
▁سماج	-15685
▁سوات	-15686
▁سوپر	-15687
▁سینٹ	-15688
▁شرکت	-15689
▁شمار	-15690
▁شکار	-15691
▁شہری	-15692
▁شہید	-15693
▁طاقت	-15694
▁طویل	-15695
▁عباس	-15696
▁عطیہ	-15697
▁عملہ	-15698
▁غریب	-15699
▁غلطی	-15700
▁فران	-15701
▁فشاں	-15702
▁فوجی	-15703
▁فیان	-15704
▁قائد	-15705
▁قبضہ	-15706
▁قدرت	-15707
▁لارڈ	-15708
▁لانچ	-15709
▁لیتے	-15710
▁لیفٹ	-15711
▁مارا	-15712
▁مارٹ	-15713
▁مالد	-15714
▁مانگ	-15715
▁مانی	-15716
▁مداح	-15717
▁مذکو	-15718
▁مرتب	-15719
▁مقدم	-15720
▁مقیم	-15721
▁ملاق	-15722
▁ملنے	-15723
▁منہہ	-15724
▁مواد	-15725
▁موٹر	-15726
▁موچا	-15727
▁مکھن	-15728
▁مہین	-15729
▁میرے	-15730
▁نائب	-15731
▁نازی	-15732
▁نامز	-15733
▁نمون	-15734
▁نواز	-15735
▁نیدر	-15736
▁وائٹ	-15737
▁وابس	-15738
▁واحد	-15739
▁وارم	-15740
▁وجئے	-15741
▁وراٹ	-15742
▁ورزی	-15743
▁ورلڈ	-15744
▁وزیٹ	-15745
▁وڈکٹ	-15746
▁وکیل	-15747
▁ٹریل	-15748
▁ٹوئٹ	-15749
▁ٹوری	-15750
▁ٹکرا	-15751
▁ٹکنا	-15752
▁ٹیسٹ	-15753
▁ٹینک	-15754
▁ٹیکس	-15755
▁پائی	-15756
▁پابن	-15757
▁پتھر	-15758
▁پھول	-15759
▁پھیل	-15760
▁پہاڑ	-15761
▁پہنے	-15762
▁پینے	-15763
▁چاہی	-15764
▁چلتا	-15765
▁چلنے	-15766
▁چکرا	-15767
▁چھوڑ	-15768
▁ڈانس	-15769
▁ڈیلی	-15770
▁کانت	-15771
▁کانس	-15772
▁کتاب	-15773
▁کتنی	-15774
▁کھیل	-15775
▁گارڈ	-15776
▁گذشت	-15777
▁گنتی	-15778
▁گپتا	-15779
▁گھڑت	-15780
▁ہنسا	-15781
▁ہوٹل	-15782
▁ہوکر	-15783
▁ہیرس	-15784
▁یجنل	-15785
▁یشان	-15786
▁یقین	-15787
▁یواس	-15788
▁یورپ	-15789
▁ంగాన	-15790
▁ంచడం	-15791
▁ఖాస్	-15792
▁ఖ్యమ	-15793
▁టెంట	-15794
▁థితి	-15795
▁ఫోర్	-15796
▁మస్య	-15797
▁మారా	-15798
▁మిత్	-15799
▁యతిర	-15800
▁యనకు	-15801
▁రమాల	-15802
▁రేషన	-15803
▁ర్లక	-15804
▁ర్లమ	-15805
▁ర్శక	-15806
▁లిపో	-15807
▁లీవు	-15808
▁లుస్	-15809
▁వహిం	-15810
▁విద్	-15811
▁సినా	-15812
▁ీబీఐ	-15813
▁ెరిక	-15814
▁్టాన	-15815
▁్డుల	-15816
▁్పత్	-15817
▁్షిణ	-15818
▁Again	-15819
▁Akhil	-15820
▁Akkin	-15821
▁Allia	-15822
▁Birth	-15823
▁CONAF	-15824
▁Camon	-15825
▁Caste	-15826
▁Const	-15827
▁Count	-15828
▁Cyber	-15829
▁David	-15830
▁Dunki	-15831
▁Flood	-15832
▁Force	-15833
▁Getty	-15834
▁Gouth	-15835
▁Harya	-15836
▁Hegde	-15837
▁Hello	-15838
▁Holid	-15839
▁IPEMA	-15840
▁Jagad	-15841
▁Japan	-15842
▁KMRCL	-15843
▁Kavya	-15844
▁Lucky	-15845
▁Madha	-15846
▁Malla	-15847
▁NCDRC	-15848
▁Namra	-15849
▁Onion	-15850
▁Payal	-15851
▁Payme	-15852
▁Pinne	-15853
▁Prave	-15854
▁Press	-15855
▁Quake	-15856
▁Raids	-15857
▁Relea	-15858
▁Satya	-15859
▁Siraj	-15860
▁Sobhi	-15861
▁Sonia	-15862
▁South	-15863
▁Subha	-15864
▁Sunil	-15865
▁TSDPS	-15866
▁Trans	-15867
▁Vigne	-15868
▁Vivek	-15869
▁Yadav	-15870
▁again	-15871
▁mukhi	-15872
▁pathi	-15873
▁satta	-15874
▁singh	-15875
▁vijay	-15876
▁visit	-15877
▁watch	-15878
▁whats	-15879
▁آزادی	-15880
▁اجلاس	-15881
▁اشارہ	-15882
▁اطلاع	-15883
▁ایئرف	-15884
▁بالکل	-15885
▁بجائے	-15886
▁برائے	-15887
▁بڑھان	-15888
▁بیرون	-15889
▁بیٹھے	-15890
▁تذکرہ	-15891
▁تیاری	-15892
▁جارہے	-15893
▁جنہیں	-15894
▁حادثے	-15895
▁حوالہ	-15896
▁حوصلہ	-15897
▁دارال	-15898
▁دکاند	-15899
▁دھوکہ	-15900
▁دیوار	-15901
▁ذہانت	-15902
▁رنگوں	-15903
▁روشنی	-15904
▁روپیر	-15905
▁روکنے	-15906
▁رگھور	-15907
▁ریڈیٹ	-15908
▁سجاوٹ	-15909
▁سپلائ	-15910
▁سیکرٹ	-15911
▁شاپنگ	-15912
▁صدارت	-15913
▁ضرورت	-15914
▁عناصر	-15915
▁فضائی	-15916
▁لوکیش	-15917
▁محبوب	-15918
▁محتاط	-15919
▁محسوس	-15920
▁مختصر	-15921
▁مرکزی	-15922
▁مسافر	-15923
▁مسلسل	-15924
▁مشتمل	-15925
▁مصدقہ	-15926
▁معافی	-15927
▁معذور	-15928
▁معمار	-15929
▁معمول	-15930
▁ممکنہ	-15931
▁منصوب	-15932
▁میدان	-15933
▁نوعیت	-15934
▁وضاحت	-15935
▁وغیرہ	-15936
▁وفیسر	-15937
▁ووٹوں	-15938
▁ٹائمز	-15939
▁پالکڑ	-15940
▁پاکست	-15941
▁پجاری	-15942
▁پڑوسی	-15943
▁چاہتے	-15944
▁ڈالنے	-15945
▁ڈاکٹر	-15946
▁ڈپارٹ	-15947
▁کرائی	-15948
▁కువగా	-15949
▁ట్రాల	-15950
▁దేశంల	-15951
▁న్సిప	-15952
▁పథకాల	-15953
▁ప్రదే	-15954
▁భక్తు	-15955
▁మర్శల	-15956
▁ర్చిం	-15957
▁ర్జాత	-15958
▁ర్తలు	-15959
▁లయంలో	-15960
▁వానిక	-15961
▁వేశార	-15962
▁సిరీస	-15963
▁హైదరా	-15964
▁ాప్షన	-15965
▁ినియో	-15966
▁ెచ్చర	-15967
▁ెలిపా	-15968
▁్యమంత	-15969
▁్యాని	-15970
LI	-15971
UC	-15972
XI	-15973
YZ	-15974
iv	-15975
rs	-15976
بھ	-15977
تد	-15978
رو	-15979
زل	-15980
عق	-15981
لچ	-15982
مب	-15983
उट	-15984
ଏନ	-15985
ିଁ	-15986
ୁଲ	-15987
ఆఖ	-15988
ఖీ	-15989
యత	-15990
▁ً	-15991
▁ভ	-15992
▁ఁ	-15993
▁ഈ	-15994
▁ശ	-15995
▁👌	-15996
ANI	-15997
ARP	-15998
ECK	-15999
NT	-16000
jo	-16001
lt	-16002
वं	-16003
ଈଟ	-16004
ିଂ	-16005
ఠన	-16006
డూ	-16007
▁চ	-16008
EEP	-16009
EIS	-16010
HIP	-16011
PER	-16012
ROS	-16013
SCI	-16014
bby	-16015
ice	-16016
ili	-16017
jdc	-16018
jin	-16019
lad	-16020
lly	-16021
ods	-16022
pec	-16023
sky	-16024
uaw	-16025
ull	-16026
vbh	-16027
vsp	-16028
wah	-16029
wai	-16030
اؤس	-16031
ائم	-16032
افٹ	-16033
سلا	-16034
شما	-16035
شیا	-16036
صمت	-16037
ظیم	-16038
عفر	-16039
لتف	-16040
لوڈ	-16041
لچل	-16042
نکی	-16043
وصی	-16044
وفی	-16045
پتہ	-16046
پیٹ	-16047
ھیا	-16048
یٹل	-16049
▁,7	-16050
▁/4	-16051
▁0-	-16052
▁BK	-16053
▁MN	-16054
▁PL	-16055
▁RU	-16056
▁VO	-16057
▁gj	-16058
▁iQ	-16059
▁zz	-16060
▁ئز	-16061
▁ئم	-16062
▁کش	-16063
▁उस	-16064
▁कल	-16065
▁ची	-16066
▁थू	-16067
▁हू	-16068
▁ଆଧ	-16069
▁ଈଟ	-16070
▁୨୪	-16071
▁என	-16072
▁అఆ	-16073
▁ఈబ	-16074
▁ఋణ	-16075
▁ఏఓ	-16076
▁కఛ	-16077
▁గధ	-16078
▁ళన	-16079
▁హగ	-16080
▁హల	-16081
▁హూ	-16082
▁్ళ	-16083
▁ಈತ	-16084
▁ರಫ	-16085
SRMB	-16086
ateh	-16087
elva	-16088
hmed	-16089
imbi	-16090
isan	-16091
jith	-16092
raud	-16093
rudh	-16094
vina	-16095
ارضی	-16096
ازیٹ	-16097
جیٹل	-16098
رنجن	-16099
BP	-16100
NK	-16101
cp	-16102
hn	-16103
zd	-16104
رس	-16105
ڈز	-16106
ମା	-16107
ஏற	-16108
భూ	-16109
యన	-16110
▁أ	-16111
▁ڑ	-16112
▁ট	-16113
▁ൃ	-16114
bai	-16115
imu	-16116
▁1⁄	-16117
▁MK	-16118
▁fl	-16119
▁gm	-16120
▁لئ	-16121
▁چا	-16122
▁ମନ	-16123
▁ஏற	-16124
علیم	-16125
نجاب	-16126
ڑتال	-16127
یلنج	-16128
▁"15	-16129
▁'24	-16130
▁(53	-16131
▁(75	-16132
▁(80	-16133
▁(97	-16134
▁-01	-16135
▁-4,	-16136
▁.20	-16137
▁.25	-16138
▁04)	-16139
▁06)	-16140
▁06,	-16141
▁09)	-16142
▁1/4	-16143
▁10-	-16144
▁3%,	-16145
▁3-9	-16146
▁3/4	-16147
▁346	-16148
▁4-2	-16149
▁43.	-16150
▁45)	-16151
▁48.	-16152
▁5-1	-16153
▁517	-16154
▁533	-16155
▁599	-16156
▁6-1	-16157
▁657	-16158
▁766	-16159
▁792	-16160
▁945	-16161
▁960	-16162
▁???	-16163
▁ACT	-16164
▁AEE	-16165
▁AJS	-16166
▁AMA	-16167
▁AMR	-16168
▁AOS	-16169
▁ATE	-16170
▁ATI	-16171
▁AVN	-16172
▁Aks	-16173
▁Aro	-16174
▁Asa	-16175
▁BAC	-16176
▁BCB	-16177
▁BEN	-16178
▁BIL	-16179
▁BLO	-16180
▁BNP	-16181
▁BRL	-16182
▁BSF	-16183
▁Box	-16184
▁CAG	-16185
▁CAT	-16186
▁CBT	-16187
▁CLP	-16188
▁CPL	-16189
▁CPM	-16190
▁CSC	-16191
▁CTE	-16192
▁Civ	-16193
▁CoS	-16194
▁CoV	-16195
▁Cry	-16196
▁DAV	-16197
▁DDR	-16198
▁DEO	-16199
18	-16200
53	-16201
63	-16202
BR	-16203
FS	-16204
HP	-16205
PI	-16206
RP	-16207
WB	-16208
lp	-16209
ثی	-16210
دو	-16211
دک	-16212
دہ	-16213
عن	-16214
दद	-16215
ीम	-16216
ेज	-16217
ಲ್	-16218
▁⁫	-16219
PET	-16220
ثیق	-16221
لمہ	-16222
یتن	-16223
▁Ey	-16224
▁Id	-16225
▁my	-16226
▁oT	-16227
▁وٹ	-16228
▁ھا	-16229
▁ھن	-16230
▁बद	-16231
▁ଛର	-16232
▁కభ	-16233
▁జౌ	-16234
CCRP	-16235
adna	-16236
▁"75	-16237
▁31-	-16238
▁418	-16239
▁68%	-16240
▁774	-16241
▁992	-16242
▁AMB	-16243
▁DMA	-16244
▁Deb	-16245
▁Det	-16246
▁Dhr	-16247
▁Dia	-16248
▁Die	-16249
▁DrS	-16250
▁ECG	-16251
▁EFE	-16252
▁EFL	-16253
▁EIS	-16254
▁EOW	-16255
▁EPH	-16256
▁End	-16257
▁Eng	-16258
▁Ent	-16259
▁FAL	-16260
▁FID	-16261
▁FNP	-16262
▁FOR	-16263
▁FRO	-16264
▁Fox	-16265
▁GAL	-16266
▁GPU	-16267
▁GRE	-16268
▁GWR	-16269
▁Gas	-16270
▁GoI	-16271
▁God	-16272
▁HAL	-16273
▁HCU	-16274
▁HER	-16275
▁IBM	-16276
▁ICL	-16277
▁IFS	-16278
▁IRB	-16279
▁ISA	-16280
▁ISK	-16281
▁ISS	-16282
▁ITI	-16283
▁JAC	-16284
▁JOS	-16285
▁JPC	-16286
▁KAT	-16287
▁KBR	-16288
▁KVP	-16289
▁Kur	-16290
▁LCU	-16291
▁LHS	-16292
▁LLP	-16293
▁LOC	-16294
▁Law	-16295
▁LeT	-16296
▁Liv	-16297
▁MAR	-16298
▁MED	-16299
FW	-16300
GE	-16301
Jb	-16302
TT	-16303
ZR	-16304
nm	-16305
خب	-16306
طی	-16307
فل	-16308
ير	-16309
పే	-16310
ದಿ	-16311
ಳಿ	-16312
▁ؤ	-16313
▁२	-16314
▁ಔ	-16315
HFL	-16316
IRF	-16317
ron	-16318
ارے	-16319
▁OZ	-16320
▁Ye	-16321
▁nh	-16322
▁ଓହ	-16323
▁ଗା	-16324
▁୫ଟ	-16325
▁మఖ	-16326
▁ಶು	-16327
▁46,	-16328
▁786	-16329
▁829	-16330
▁83,	-16331
▁897	-16332
▁ANG	-16333
▁Bhe	-16334
▁Bro	-16335
▁Lad	-16336
▁MIR	-16337
▁MNF	-16338
▁MOH	-16339
▁MRM	-16340
▁MSP	-16341
▁MVR	-16342
▁Mad	-16343
▁MrS	-16344
▁Muk	-16345
▁Mys	-16346
▁NCL	-16347
▁NFR	-16348
▁NSC	-16349
▁NSS	-16350
▁NTV	-16351
▁Nay	-16352
▁OSA	-16353
▁OTH	-16354
▁Ott	-16355
▁PAR	-16356
▁PCB	-16357
▁PLA	-16358
▁PMK	-16359
▁POL	-16360
▁PRA	-16361
▁PSU	-16362
▁PWD	-16363
▁PhD	-16364
▁Pur	-16365
▁Que	-16366
▁RDO	-16367
▁RIP	-16368
▁RMS	-16369
▁ROG	-16370
▁RTA	-16371
▁Rev	-16372
▁Rob	-16373
▁Ruk	-16374
▁SDF	-16375
▁SDP	-16376
▁SHE	-16377
▁SRK	-16378
▁STE	-16379
▁STF	-16380
▁Shu	-16381
▁Ski	-16382
▁Swa	-16383
▁TBA	-16384
▁TEK	-16385
▁TEL	-16386
▁TET	-16387
▁TFI	-16388
▁THA	-16389
▁THI	-16390
▁TID	-16391
▁Tik	-16392
▁Tur	-16393
▁UAV	-16394
▁UDF	-16395
▁UNE	-16396
▁UNG	-16397
▁URL	-16398
▁Upp	-16399
XA	-16400
ft	-16401
yi	-16402
ذف	-16403
ظت	-16404
فی	-16405
چے	-16406
ڑا	-16407
लो	-16408
हर	-16409
िल	-16410
ଠନ	-16411
కథ	-16412
నవ	-16413
ళ్	-16414
హై	-16415
▁౧	-16416
▁⁯	-16417
dya	-16418
itu	-16419
lar	-16420
اظت	-16421
روف	-16422
▁HB	-16423
▁OU	-16424
▁Rk	-16425
▁WC	-16426
▁حق	-16427
▁आध	-16428
▁नक	-16429
▁ఢవ	-16430
فاظت	-16431
▁(58	-16432
▁(87	-16433
▁4,5	-16434
▁651	-16435
▁680	-16436
▁738	-16437
▁77.	-16438
▁9.2	-16439
▁959	-16440
▁?..	-16441
▁ADG	-16442
▁HBD	-16443
▁Jih	-16444
▁Mac	-16445
▁Mos	-16446
▁NCP	-16447
▁OOK	-16448
▁VHP	-16449
▁VRA	-16450
▁VSP	-16451
▁Vox	-16452
▁WAT	-16453
▁WMC	-16454
▁WWF	-16455
▁Wah	-16456
▁Wed	-16457
▁XII	-16458
▁XYZ	-16459
▁YRF	-16460
▁adm	-16461
▁adu	-16462
▁aji	-16463
▁aki	-16464
▁ans	-16465
▁atu	-16466
▁avu	-16467
▁bbc	-16468
▁bhp	-16469
▁brs	-16470
▁but	-16471
▁cno	-16472
▁coe	-16473
▁cop	-16474
▁dam	-16475
▁dee	-16476
▁dhi	-16477
▁dif	-16478
▁efe	-16479
▁ens	-16480
▁fea	-16481
▁gas	-16482
▁gop	-16483
▁hip	-16484
▁htm	-16485
▁iRT	-16486
▁ibm	-16487
▁ich	-16488
▁ics	-16489
▁ign	-16490
▁igv	-16491
▁ilk	-16492
▁irc	-16493
▁isi	-16494
▁ism	-16495
▁iti	-16496
▁jds	-16497
▁kia	-16498
▁kph	-16499
05	-16500
iy	-16501
pp	-16502
جو	-16503
زف	-16504
لٹ	-16505
وخ	-16506
ڈر	-16507
ାତ	-16508
ୁଅ	-16509
▁গ	-16510
▁হ	-16511
▁౹	-16512
IAL	-16513
lov	-16514
ota	-16515
خمی	-16516
▁"9	-16517
▁IE	-16518
▁Sm	-16519
▁TA	-16520
▁तक	-16521
▁ಪದ	-16522
▁ಪರ	-16523
▁-08	-16524
▁.10	-16525
▁044	-16526
▁1-5	-16527
▁1/5	-16528
▁19-	-16529
▁4),	-16530
▁478	-16531
▁50.	-16532
▁553	-16533
▁604	-16534
▁613	-16535
▁675	-16536
▁90,	-16537
▁908	-16538
▁AAA	-16539
▁AIR	-16540
▁Ava	-16541
▁Dou	-16542
▁MBA	-16543
▁Mog	-16544
▁NCF	-16545
▁NIT	-16546
▁SIT	-16547
▁SSL	-16548
▁ars	-16549
▁clu	-16550
▁ela	-16551
▁emi	-16552
▁kam	-16553
▁loc	-16554
▁lti	-16555
▁lyn	-16556
▁mAa	-16557
▁maa	-16558
▁mam	-16559
▁mat	-16560
▁med	-16561
▁mes	-16562
▁mpt	-16563
▁nke	-16564
▁oAP	-16565
▁ody	-16566
▁oji	-16567
▁ond	-16568
▁ood	-16569
▁oon	-16570
▁opp	-16571
▁ott	-16572
▁ows	-16573
▁pdf	-16574
▁pec	-16575
▁peo	-16576
▁phe	-16577
▁pit	-16578
▁ppa	-16579
▁rod	-16580
▁rve	-16581
▁sbi	-16582
▁sca	-16583
▁scc	-16584
▁sed	-16585
▁sia	-16586
▁sky	-16587
▁tgs	-16588
▁tmo	-16589
▁tom	-16590
▁ube	-16591
▁ums	-16592
▁uni	-16593
▁veh	-16594
▁was	-16595
▁xAI	-16596
▁yar	-16597
▁yes	-16598
▁zie	-16599
DK	-16600
GS	-16601
NM	-16602
lk	-16603
td	-16604
zr	-16605
ثل	-16606
حہ	-16607
رق	-16608
ضر	-16609
ھو	-16610
ୁଁ	-16611
ୂଆ	-16612
ୋନ	-16613
గో	-16614
ೋಗ	-16615
▁ഭ	-16616
▁◆	-16617
mar	-16618
اثل	-16619
افت	-16620
برد	-16621
تبر	-16622
▁AY	-16623
▁BI	-16624
▁MU	-16625
▁بٹ	-16626
▁زر	-16627
▁یز	-16628
▁ఈట	-16629
irma	-16630
صوصی	-16631
▁507	-16632
▁52%	-16633
▁72%	-16634
▁745	-16635
▁813	-16636
▁Bla	-16637
▁CNX	-16638
▁Gir	-16639
▁LLB	-16640
▁Rew	-16641
▁Sor	-16642
▁ets	-16643
▁mlc	-16644
▁ven	-16645
▁vio	-16646
▁wam	-16647
▁yak	-16648
▁آبا	-16649
▁آخر	-16650
▁آمد	-16651
▁آپا	-16652
▁آپر	-16653
▁ائٹ	-16654
▁ادا	-16655
▁ارٹ	-16656
▁اشت	-16657
▁افت	-16658
▁افر	-16659
▁اوپ	-16660
▁اٹھ	-16661
▁اکر	-16662
▁اہل	-16663
▁باڑ	-16664
▁بگڑ	-16665
▁بہن	-16666
▁تئی	-16667
▁تاک	-16668
▁تقر	-16669
▁تنخ	-16670
▁تیہ	-16671
▁حذف	-16672
▁خار	-16673
▁خطے	-16674
▁خلل	-16675
▁خوف	-16676
▁داس	-16677
▁دوڑ	-16678
▁ذمہ	-16679
▁رتن	-16680
▁رکو	-16681
▁زدہ	-16682
▁زہر	-16683
▁سفر	-16684
▁سنت	-16685
▁سوڈ	-16686
▁سوک	-16687
▁سوگ	-16688
▁سچن	-16689
▁سکا	-16690
▁شام	-16691
▁صوص	-16692
▁صیہ	-16693
▁طبع	-16694
▁طنز	-16695
▁عنق	-16696
▁عکا	-16697
▁عید	-16698
▁فیم	-16699
GC	-16700
GM	-16701
JU	-16702
MV	-16703
PV	-16704
VT	-16705
cm	-16706
حر	-16707
شٹ	-16708
ڈل	-16709
ସି	-16710
▁ە	-16711
▁অ	-16712
▁👉	-16713
ائق	-16714
اہک	-16715
▁?:	-16716
▁PC	-16717
▁SQ	-16718
▁dy	-16719
▁ٹب	-16720
▁ఎఐ	-16721
▁శష	-16722
▁""8	-16723
▁26%	-16724
▁328	-16725
▁422	-16726
▁436	-16727
▁441	-16728
▁788	-16729
▁95,	-16730
▁AIS	-16731
▁EAM	-16732
▁TGS	-16733
▁TUM	-16734
▁ada	-16735
▁bun	-16736
▁hol	-16737
▁run	-16738
▁ths	-16739
▁ایت	-16740
▁تری	-16741
▁تلے	-16742
▁لحہ	-16743
▁مبر	-16744
▁متھ	-16745
▁مخص	-16746
▁مدھ	-16747
▁مقر	-16748
▁مڈپ	-16749
▁مگل	-16750
▁نال	-16751
▁نجی	-16752
▁نسر	-16753
▁نسل	-16754
▁نیپ	-16755
▁ورت	-16756
▁ولہ	-16757
▁ومی	-16758
▁ویٹ	-16759
▁ٹرک	-16760
▁ٹڈی	-16761
▁ٹیٹ	-16762
▁پاپ	-16763
▁پنچ	-16764
▁پڑی	-16765
▁چرن	-16766
▁چلے	-16767
▁چکے	-16768
▁چھت	-16769
▁چھپ	-16770
▁چہل	-16771
▁ڈاگ	-16772
▁ڈبل	-16773
▁ڈکر	-16774
▁ڈھی	-16775
▁کنٹ	-16776
▁کوچ	-16777
▁کوہ	-16778
▁کیو	-16779
▁گڑھ	-16780
▁گہر	-16781
▁گیٹ	-16782
▁ھان	-16783
▁ھیر	-16784
▁ہاٹ	-16785
▁ہدا	-16786
▁ہوم	-16787
▁یوم	-16788
▁یٹک	-16789
▁یکم	-16790
▁یگا	-16791
▁आउट	-16792
▁आता	-16793
▁आपा	-16794
▁एवं	-16795
▁ऐसी	-16796
▁करो	-16797
▁कहा	-16798
▁खुद	-16799
*)	-16800
XO	-16801
hd	-16802
tv	-16803
ui	-16804
ेर	-16805
ଂଶ	-16806
ଛି	-16807
ବୁ	-16808
ୀର	-16809
ಗರ	-16810
▁ः	-16811
▁শ	-16812
▁ூ	-16813
▁💚	-16814
hen	-16815
icy	-16816
بوط	-16817
بیع	-16818
▁"2	-16819
▁NQ	-16820
▁VE	-16821
▁eK	-16822
▁ki	-16823
▁زڈ	-16824
▁سد	-16825
▁वह	-16826
▁କହ	-16827
▁ఓచ	-16828
▁′′	-16829
lash	-16830
▁(*)	-16831
▁(63	-16832
▁408	-16833
▁431	-16834
▁45.	-16835
▁816	-16836
▁921	-16837
▁ATL	-16838
▁Ber	-16839
▁CXO	-16840
▁Fri	-16841
▁IIS	-16842
▁PAL	-16843
▁RAD	-16844
▁RAF	-16845
▁eap	-16846
▁ele	-16847
▁ile	-16848
▁met	-16849
▁uth	-16850
▁تیس	-16851
▁دھا	-16852
▁ریڈ	-16853
▁شیو	-16854
▁طبق	-16855
▁لگو	-16856
▁میو	-16857
▁ومو	-16858
▁پہن	-16859
▁चले	-16860
▁चीन	-16861
▁जिम	-16862
▁टीम	-16863
▁थूक	-16864
▁दूध	-16865
▁नकद	-16866
▁पास	-16867
▁बदल	-16868
▁बेर	-16869
▁भेज	-16870
▁राह	-16871
▁साल	-16872
▁हूं	-16873
▁ଅଂଶ	-16874
▁ଅଛି	-16875
▁ଅଫ୍	-16876
▁ଆପ୍	-16877
▁ଆସଦ	-16878
▁ଆସି	-16879
▁ଏଏନ	-16880
▁ଏତେ	-16881
▁କାମ	-16882
▁ଖୀର	-16883
▁ଗଠନ	-16884
▁ଘରେ	-16885
▁ଜଣା	-16886
▁ଜମା	-16887
▁ଦାସ	-16888
▁ଦେବ	-16889
▁ନାଁ	-16890
▁ନାଥ	-16891
▁ନୂଆ	-16892
▁ପୁଅ	-16893
▁ଫୋନ	-16894
▁ଭାଇ	-16895
▁ମାସ	-16896
▁ମୁଁ	-16897
▁ଯାଏ	-16898
▁ଯିଏ	-16899
عض	-16900
ढ़	-16901
▁ஜ	-16902
ارن	-16903
الت	-16904
పోవ	-16905
మెం	-16906
▁-7	-16907
▁3"	-16908
▁3'	-16909
▁4%	-16910
▁5'	-16911
▁9-	-16912
▁?"	-16913
▁As	-16914
▁TP	-16915
▁aq	-16916
▁ld	-16917
▁tS	-16918
▁wk	-16919
▁سع	-16920
▁03:	-16921
▁040	-16922
▁11/	-16923
▁23%	-16924
▁31.	-16925
▁61%	-16926
▁612	-16927
▁797	-16928
▁978	-16929
▁ICS	-16930
▁MCD	-16931
▁MOU	-16932
▁Ola	-16933
▁SDG	-16934
▁ati	-16935
▁cwc	-16936
▁erc	-16937
▁mla	-16938
▁ndo	-16939
▁بعض	-16940
▁دلا	-16941
▁سول	-16942
▁فور	-16943
▁کیں	-16944
▁گنا	-16945
▁ہنگ	-16946
▁ରାମ	-16947
▁ସିଂ	-16948
▁ହେଉ	-16949
▁ହେବ	-16950
▁୫ଟା	-16951
▁అంధ	-16952
▁అజ్	-16953
▁అటక	-16954
▁అరె	-16955
▁అలో	-16956
▁అవీ	-16957
▁అస్	-16958
▁ఆగా	-16959
▁ఆటు	-16960
▁ఆరి	-16961
▁ఇకడ	-16962
▁ఇగో	-16963
▁ఇని	-16964
▁ఇను	-16965
▁ఈకో	-16966
▁ఈట్	-16967
▁ఈతి	-16968
▁ఈదీ	-16969
▁ఈబే	-16970
▁ఈలు	-16971
▁ఈశా	-16972
▁ఉదర	-16973
▁ఊరూ	-16974
▁ఎరా	-16975
▁ఎలీ	-16976
▁ఎవా	-16977
▁ఎవి	-16978
▁ఏంత	-16979
▁ఏకి	-16980
▁ఏగా	-16981
▁ఏటీ	-16982
▁ఏమా	-16983
▁ఐకి	-16984
▁ఐటం	-16985
▁ఐడా	-16986
▁ఐలు	-16987
▁ఓచా	-16988
▁ఓబీ	-16989
▁ఓహో	-16990
▁కంద	-16991
▁కఛ్	-16992
▁కడా	-16993
▁కడి	-16994
▁కఫం	-16995
▁కభీ	-16996
▁కమీ	-16997
▁కలగ	-16998
▁కూత	-16999
KP	-17000
ାଲ	-17001
ASH	-17002
ائر	-17003
بوت	-17004
▁',	-17005
▁OH	-17006
▁Pe	-17007
▁UC	-17008
▁sj	-17009
▁tH	-17010
▁uj	-17011
▁رد	-17012
▁فو	-17013
▁مچ	-17014
▁जय	-17015
▁।"	-17016
▁அத	-17017
uman	-17018
▁11'	-17019
▁12%	-17020
▁347	-17021
▁36.	-17022
▁381	-17023
▁447	-17024
▁510	-17025
▁6-3	-17026
▁798	-17027
▁Coc	-17028
▁Mir	-17029
▁Ope	-17030
▁RAS	-17031
▁SRI	-17032
▁Som	-17033
▁TQI	-17034
▁Tax	-17035
▁Val	-17036
▁act	-17037
▁aga	-17038
▁cur	-17039
▁jun	-17040
▁ndh	-17041
▁nki	-17042
▁دفع	-17043
▁رنے	-17044
▁گھس	-17045
▁అతన	-17046
▁ఇరా	-17047
▁ఊరే	-17048
▁ఎసీ	-17049
▁ఐసా	-17050
▁ఐసు	-17051
▁కడం	-17052
▁కేశ	-17053
▁ఖని	-17054
▁గణం	-17055
▁గలీ	-17056
▁గూఢ	-17057
▁గూబ	-17058
▁ఘనం	-17059
▁ఘని	-17060
▁చావ	-17061
▁చేల	-17062
▁ఛట్	-17063
▁జహా	-17064
▁జీఈ	-17065
▁టక్	-17066
▁టపా	-17067
▁టీఐ	-17068
▁టీట	-17069
▁డుస	-17070
▁తనీ	-17071
▁తలై	-17072
▁తిం	-17073
▁తీత	-17074
▁తుం	-17075
▁థన్	-17076
▁దమన	-17077
▁దల్	-17078
▁ధని	-17079
▁ధవళ	-17080
▁నటీ	-17081
▁ననే	-17082
▁నవమ	-17083
▁నెర	-17084
▁పంబ	-17085
▁పచ్	-17086
▁పవి	-17087
▁పీత	-17088
▁పెం	-17089
▁పొత	-17090
▁పొద	-17091
▁ప్ె	-17092
▁ఫరా	-17093
▁బక్	-17094
▁బట్	-17095
▁బనా	-17096
▁బన్	-17097
▁బాస	-17098
▁బిఐ	-17099
sm	-17100
rsc	-17101
ختت	-17102
▁'.	-17103
▁AO	-17104
▁AX	-17105
▁Ae	-17106
▁OB	-17107
▁ae	-17108
▁ao	-17109
▁km	-17110
▁ms	-17111
▁nz	-17112
▁pi	-17113
▁سہ	-17114
▁پب	-17115
▁پش	-17116
▁ہت	-17117
▁ہج	-17118
▁ଏର	-17119
▁ಕೀ	-17120
▁ದಳ	-17121
▁ದೇ	-17122
▁14-	-17123
▁20-	-17124
▁30.	-17125
▁5),	-17126
▁50-	-17127
▁519	-17128
▁570	-17129
▁65)	-17130
▁846	-17131
▁CSR	-17132
▁LEA	-17133
▁NRS	-17134
▁Non	-17135
▁OIS	-17136
▁Pet	-17137
▁Pun	-17138
▁lie	-17139
▁nir	-17140
▁pal	-17141
▁ائے	-17142
▁اوق	-17143
▁جاچ	-17144
▁چرچ	-17145
▁گزر	-17146
▁ھنڈ	-17147
▁ینہ	-17148
▁అధా	-17149
▁అబీ	-17150
▁అయ్	-17151
▁ఎడం	-17152
▁కదూ	-17153
▁దవ్	-17154
▁నలక	-17155
▁ఫోన	-17156
▁బని	-17157
▁బీఈ	-17158
▁భల్	-17159
▁భాద	-17160
▁భీమ	-17161
▁మగా	-17162
▁మగ్	-17163
▁మఝా	-17164
▁మఠ్	-17165
▁మడు	-17166
▁మనూ	-17167
▁మహీ	-17168
▁మిశ	-17169
▁మెగ	-17170
▁మేడ	-17171
▁యమా	-17172
▁యషా	-17173
▁యుగ	-17174
▁యోః	-17175
▁రఖా	-17176
▁రజ్	-17177
▁రధం	-17178
▁రాచ	-17179
▁రోత	-17180
▁లఖ్	-17181
▁వాక	-17182
▁శఆఖ	-17183
▁శయన	-17184
▁శష్	-17185
▁శాక	-17186
▁షయా	-17187
▁సంస	-17188
▁సగర	-17189
▁సచ్	-17190
▁సమత	-17191
▁సరమ	-17192
▁సాక	-17193
▁హగై	-17194
▁హట్	-17195
▁హడా	-17196
▁హయా	-17197
▁హొం	-17198
▁హోమ	-17199
సో	-17200
mel	-17201
tti	-17202
لاگ	-17203
▁BY	-17204
▁Br	-17205
▁CU	-17206
▁GE	-17207
▁It	-17208
▁Ix	-17209
▁Mb	-17210
▁Mc	-17211
▁Ms	-17212
▁PI	-17213
▁RH	-17214
▁Sk	-17215
▁TK	-17216
▁Tw	-17217
▁dg	-17218
▁eo	-17219
▁id	-17220
▁kw	-17221
▁og	-17222
▁sy	-17223
▁بخ	-17224
▁عز	-17225
▁گہ	-17226
▁یچ	-17227
▁बच	-17228
▁ले	-17229
▁అచ	-17230
▁(71	-17231
▁16-	-17232
▁2".	-17233
▁25-	-17234
▁254	-17235
▁34%	-17236
▁5-7	-17237
▁638	-17238
▁687	-17239
▁713	-17240
▁728	-17241
▁887	-17242
▁ABV	-17243
▁Bra	-17244
▁CJI	-17245
▁Let	-17246
▁MHA	-17247
▁TSL	-17248
▁Vij	-17249
▁big	-17250
▁cke	-17251
▁gme	-17252
▁odi	-17253
▁oks	-17254
▁pee	-17255
▁بور	-17256
▁ترا	-17257
▁شوب	-17258
▁ٹیگ	-17259
▁کور	-17260
▁کین	-17261
▁ఆగక	-17262
▁ఏకో	-17263
▁ఓడు	-17264
▁గవి	-17265
▁చరమ	-17266
▁ధీర	-17267
▁పటం	-17268
▁పటా	-17269
▁పథం	-17270
▁పలస	-17271
▁శూర	-17272
▁ిధా	-17273
▁ుపత	-17274
▁ొచ్	-17275
▁ొట్	-17276
▁్కల	-17277
▁్థు	-17278
▁ಅದು	-17279
▁ಏರ್	-17280
▁ಕಡೆ	-17281
▁ಕಾಲ	-17282
▁ದೇಶ	-17283
▁ನಗರ	-17284
▁ನಾಶ	-17285
▁ಪಡೆ	-17286
▁ಪದೇ	-17287
▁ಬಳಿ	-17288
▁ಯೋಗ	-17289
▁ರನ್	-17290
▁ರಫಿ	-17291
▁ಶುಭ	-17292
▁ADGP	-17293
▁AJSU	-17294
▁ASLV	-17295
▁Acha	-17296
▁AePS	-17297
▁Afri	-17298
▁Agai	-17299
ank	-17300
lue	-17301
ارا	-17302
ویت	-17303
▁Dy	-17304
▁Eq	-17305
▁KL	-17306
▁KR	-17307
▁KS	-17308
▁VK	-17309
▁VR	-17310
▁VY	-17311
▁WR	-17312
▁gs	-17313
▁py	-17314
▁rk	-17315
▁rn	-17316
▁vE	-17317
▁لم	-17318
▁لٹ	-17319
▁پے	-17320
▁खब	-17321
▁রয	-17322
▁ಜೋ	-17323
▁"35	-17324
▁(56	-17325
▁04:	-17326
▁16%	-17327
▁316	-17328
▁394	-17329
▁54%	-17330
▁602	-17331
▁704	-17332
▁78%	-17333
▁91,	-17334
▁Ant	-17335
▁Aya	-17336
▁Bur	-17337
▁CEA	-17338
▁FoS	-17339
▁ICU	-17340
▁Nex	-17341
▁PBA	-17342
▁Sex	-17343
▁TMC	-17344
▁Tar	-17345
▁Win	-17346
▁apk	-17347
▁cow	-17348
▁dou	-17349
▁ian	-17350
▁ige	-17351
▁kka	-17352
▁kla	-17353
▁lim	-17354
▁mma	-17355
▁nan	-17356
▁ser	-17357
▁yam	-17358
▁اند	-17359
▁انو	-17360
▁ایٹ	-17361
▁جوں	-17362
▁ستی	-17363
▁لور	-17364
▁مان	-17365
▁نعر	-17366
▁وان	-17367
▁کجر	-17368
▁کون	-17369
▁یبل	-17370
▁खबर	-17371
▁అగమ	-17372
▁ఇదా	-17373
▁ధరం	-17374
▁పీఐ	-17375
▁మొల	-17376
▁హజీ	-17377
▁ుకూ	-17378
▁Akha	-17379
▁Alla	-17380
▁Alle	-17381
▁Alto	-17382
▁Anna	-17383
▁Anup	-17384
▁Anve	-17385
▁Ashi	-17386
▁Atlu	-17387
▁Ayya	-17388
▁BABU	-17389
▁BAPS	-17390
▁BNPB	-17391
▁BOMN	-17392
▁BOOK	-17393
▁Back	-17394
▁Bada	-17395
▁Barr	-17396
▁Basa	-17397
▁Bela	-17398
▁Bett	-17399
KM	-17400
دف	-17401
وض	-17402
ign	-17403
ئیل	-17404
الف	-17405
الو	-17406
▁EB	-17407
▁EM	-17408
▁Ee	-17409
▁Hg	-17410
▁JE	-17411
▁JI	-17412
▁JY	-17413
▁Ly	-17414
▁UM	-17415
▁Ug	-17416
▁eb	-17417
▁ee	-17418
▁fu	-17419
▁lb	-17420
▁lp	-17421
▁sr	-17422
▁tc	-17423
▁شع	-17424
▁کئ	-17425
▁सब	-17426
▁ଆଚ	-17427
▁ଇଲ	-17428
▁ଇସ	-17429
▁ଏଜ	-17430
onde	-17431
▁359	-17432
▁515	-17433
▁697	-17434
▁805	-17435
▁82%	-17436
▁907	-17437
▁988	-17438
▁CRS	-17439
▁Jin	-17440
▁Lea	-17441
▁Pea	-17442
▁Vin	-17443
▁WIL	-17444
▁gum	-17445
▁hos	-17446
▁int	-17447
▁ler	-17448
▁min	-17449
▁pea	-17450
▁tia	-17451
▁tit	-17452
▁آور	-17453
▁ائپ	-17454
▁اوں	-17455
▁دئی	-17456
▁سلف	-17457
▁شیڈ	-17458
▁موص	-17459
▁ہدف	-17460
▁ہلک	-17461
▁ସବୁ	-17462
▁ఉయక	-17463
▁ఊయల	-17464
▁ఏడూ	-17465
▁తృణ	-17466
▁పతన	-17467
▁పీఠ	-17468
▁ోళన	-17469
▁Bhil	-17470
▁Bide	-17471
▁Bike	-17472
▁Bose	-17473
▁Boys	-17474
▁Bubb	-17475
▁Buds	-17476
▁Buil	-17477
▁CDSC	-17478
▁CIBI	-17479
▁CMIE	-17480
▁COPE	-17481
▁CPRO	-17482
▁CSDS	-17483
▁CSIR	-17484
▁Cens	-17485
▁Cert	-17486
▁Cham	-17487
▁Chha	-17488
▁Chou	-17489
▁Chow	-17490
▁Cita	-17491
▁City	-17492
▁Code	-17493
▁Cold	-17494
▁Copi	-17495
▁Corp	-17496
[...]
