<unk>	0
<s>	0
</s>	0
▁ా	-0
▁క	-1
▁ి	-2
▁ప	-3
▁ు	-4
▁.	-5
▁న	-6
▁ల	-7
▁వ	-8
▁ర	-9
▁్	-10
▁స	-11
▁మ	-12
▁ం	-13
▁త	-14
న్	-15
ర్	-16
▁చ	-17
▁అ	-18
్ర	-19
ని	-20
రు	-21
ంద	-22
▁గ	-23
▁ద	-24
స్	-25
్ల	-26
▁,	-27
ంచ	-28
▁ారు	-29
న్న	-30
▁బ	-31
్య	-32
▁లో	-33
▁ే	-34
▁ట	-35
▁ఆ	-36
▁డ	-37
▁జ	-38
▁ీ	-39
▁చే	-40
ార	-41
్ట	-42
▁ాల	-43
ంది	-44
▁ప్ర	-45
▁ో	-46
▁ను	-47
▁ఎ	-48
▁ఇ	-49
▁ని	-50
ంట	-51
క్	-52
▁ఉ	-53
▁ించ	-54
▁కు	-55
లో	-56
▁ె	-57
▁ున్న	-58
ాల	-59
▁య	-60
గా	-61
▁భ	-62
స్త	-63
▁హ	-64
్ప	-65
ండ	-66
▁వి	-67
లు	-68
కు	-69
▁్ర	-70
త్	-71
డు	-72
▁రా	-73
▁ర్	-74
▁కా	-75
రి	-76
▁ిన	-77
▁గా	-78
యి	-79
▁్య	-80
ంత	-81
▁ఈ	-82
▁శ	-83
▁స్	-84
ల్	-85
ంగ	-86
ిక	-87
ుక	-88
▁ఫ	-89
▁లు	-90
▁ై	-91
ల్ల	-92
▁ొ	-93
▁ార	-94
▁కి	-95
▁ింది	-96
▁న్	-97
దు	-98
్చ	-99
▁రె	-100
ప్ప	-101
▁ూ	-102
డ్	-103
▁చేస	-104
▁2	-105
ుల	-106
▁ార్	-107
▁మా	-108
లి	-109
▁తె	-110
▁1	-111
▁ఏ	-112
▁ధ	-113
ను	-114
ట్ట	-115
న్ని	-116
▁చె	-117
▁ుల	-118
▁తో	-119
ీస	-120
ద్	-121
కి	-122
టీ	-123
▁లే	-124
▁క్	-125
త్ర	-126
చ్చ	-127
▁0	-128
ళ్ల	-129
▁ాయి	-130
▁కో	-131
▁కూ	-132
ంగ్	-133
టు	-134
▁రి	-135
తి	-136
▁వా	-137
▁పై	-138
ిన	-139
డా	-140
▁పె	-141
డి	-142
వా	-143
▁నే	-144
ది	-145
మా	-146
▁ంలో	-147
పీ	-148
▁్త	-149
ట్ల	-150
నే	-151
్యా	-152
▁"	-153
ేశ	-154
క్ష	-155
▁ష	-156
ంచి	-157
▁సం	-158
▁పా	-159
▁ిస్త	-160
▁నా	-161
ట్	-162
▁ము	-163
▁ుత	-164
▁పో	-165
▁వె	-166
ష్ట	-167
టి	-168
ంగా	-169
్మ	-170
్వ	-171
▁ఉన్న	-172
▁ులు	-173
▁ంగా	-174
▁రో	-175
▁ఒ	-176
▁కే	-177
▁వే	-178
ుత	-179
▁ుంది	-180
▁నుంచి	-181
▁చేశ	-182
▁కూడా	-183
క్క	-184
▁కొ	-185
ంతో	-186
▁ాని	-187
▁డి	-188
▁చేయ	-189
▁సి	-190
▁సీ	-191
▁ందు	-192
▁సా	-193
▁గు	-194
▁దా	-195
▁ానికి	-196
▁చేస్త	-197
త్త	-198
▁్యా	-199
▁్థ	-200
▁నిర్	-201
▁ఓ	-202
▁:	-203
▁సమ	-204
ర్య	-205
పు	-206
యం	-207
▁ాన్ని	-208
డ్డ	-209
▁చెప్ప	-210
▁ామ	-211
▁తెలి	-212
▁ాడు	-213
▁బా	-214
▁ాలని	-215
▁డం	-216
▁లా	-217
ంద్ర	-218
▁3	-219
▁న్న	-220
▁ిక	-221
▁ాలు	-222
▁మె	-223
▁క్ర	-224
▁తీస	-225
▁ుక	-226
ద్ద	-227
▁ద్	-228
▁అవ	-229
▁ధిక	-230
లా	-231
▁ాయ	-232
▁ల్ల	-233
పో	-234
ంబ	-235
ందని	-236
▁ిల్ల	-237
▁ార్టీ	-238
▁ుడు	-239
గు	-240
▁రెడ్డ	-241
త్వ	-242
▁భు	-243
▁భుత్వ	-244
▁5	-245
తే	-246
▁(	-247
▁ారం	-248
▁ఆయ	-249
▁దీ	-250
▁ల్	-251
▁ధికార	-252
మ్మ	-253
▁4	-254
షన్	-255
మి	-256
▁తీసుక	-257
▁ంద	-258
▁ఖ	-259
రో	-260
▁పే	-261
▁వచ్చ	-262
▁ది	-263
ంటి	-264
ాన	-265
ారి	-266
▁తన	-267
ష్	-268
▁అయి	-269
▁కల	-270
▁ఒక	-271
▁శా	-272
▁మే	-273
▁దేశ	-274
▁రు	-275
ించ	-276
▁ప్ప	-277
▁రెస్	-278
▁భార	-279
▁)	-280
▁వై	-281
▁ారని	-282
▁మీ	-283
▁రాజ	-284
▁పరి	-285
▁ఆయన	-286
▁త్	-287
నా	-288
▁ట్ల	-289
ఆర్	-290
▁-	-291
▁్లో	-292
ంధ	-293
▁ందుకు	-294
▁రోజ	-295
▁ఉంట	-296
వి	-297
▁రాష్ట	-298
త్రి	-299
▁రూ	-300
▁అని	-301
▁స్ట	-302
▁ాబ	-303
▁ుంట	-304
▁ోంది	-305
▁చి	-306
వు	-307
▁చూ	-308
ారం	-309
▁ఐ	-310
నీ	-311
▁గ్ర	-312
▁ింగ్	-313
యో	-314
▁ఉండ	-315
▁మంది	-316
్గ	-317
▁ీఆర్	-318
▁ఎన్ని	-319
▁ోర్	-320
▁నె	-321
సి	-322
▁9	-323
ధ్య	-324
▁వర	-325
ర్త	-326
▁తెలిప	-327
సం	-328
▁లోని	-329
సు	-330
▁యా	-331
▁ణ	-332
▁ట్	-333
ైన	-334
▁టీ	-335
▁ంట	-336
▁డీ	-337
ప్	-338
▁అంద	-339
▁్వ	-340
రిగ	-341
▁చ్చ	-342
పా	-343
ంక	-344
యా	-345
▁పు	-346
▁ంత్రి	-347
▁పోల	-348
ంలో	-349
బ్	-350
▁పెట్ట	-351
▁తీ	-352
▁డా	-353
ంప	-354
▁కాంగ్	-355
్యే	-356
తో	-357
▁ిని	-358
▁భా	-359
▁ిల్లా	-360
▁శ్ర	-361
▁లి	-362
▁ప్రజ	-363
▁కోసం	-364
▁ట్ట	-365
▁తా	-366
▁వ్య	-367
బు	-368
▁లేద	-369
▁మి	-370
▁ఆర్	-371
▁సె	-372
▁6	-373
▁ాబా	-374
▁హై	-375
▁రెండ	-376
▁లంగా	-377
వర	-378
▁ాల్	-379
▁8	-380
▁7	-381
ీయ	-382
▁ఇప్ప	-383
▁చేసుక	-384
▁ీజ	-385
▁పాటు	-386
▁అన్న	-387
▁ోవ	-388
ర్శ	-389
▁?	-390
▁ాబాద్	-391
▁ండ	-392
తు	-393
క్త	-394
▁విష	-395
▁లక్ష	-396
▁ఎం	-397
▁వీ	-398
▁ఘ	-399
▁డంతో	-400
▁లంగాణ	-401
▁చేసిన	-402
▁కుండ	-403
▁లను	-404
▁మహ	-405
▁ాజ	-406
▁ట్ర	-407
▁లేదు	-408
▁అయితే	-409
▁అభ	-410
ండి	-411
▁మూ	-412
స్ట	-413
▁పాల	-414
▁ముంద	-415
▁ంగ	-416
▁కుండా	-417
ఖ్య	-418
▁దు	-419
తా	-420
ద్య	-421
▁్ట	-422
▁వస్త	-423
▁ఎస్	-424
▁క్కు	-425
లీ	-426
▁ఇచ్చ	-427
సీ	-428
కా	-429
▁కార్య	-430
క్ట	-431
▁తర్	-432
▁చంద్ర	-433
ారణ	-434
▁యూ	-435
▁ారి	-436
▁ేంద్ర	-437
▁టిక	-438
▁మొ	-439
రం	-440
▁తర్వా	-441
శ్	-442
▁జీ	-443
ాయ	-444
▁ంప	-445
▁ామని	-446
▁ాలి	-447
▁కాల	-448
తుల	-449
▁ీజే	-450
▁ీడి	-451
▁తి	-452
▁ౌ	-453
▁సు	-454
▁ినిమా	-455
▁చాల	-456
▁ైన	-457
▁నీ	-458
▁టి	-459
▁య్య	-460
▁అనే	-461
▁ీజేపీ	-462
▁ద్ద	-463
▁పోలీస	-464
▁ప్రజల	-465
▁మో	-466
▁సూ	-467
▁తమ	-468
▁్యక్త	-469
ఎం	-470
▁ట్లు	-471
▁నిర్వ	-472
ంట్	-473
▁మైన	-474
▁మరో	-475
▁దే	-476
గ్గ	-477
▁డ్	-478
▁చాలా	-479
చ్	-480
రుగ	-481
ిత	-482
మె	-483
▁జా	-484
▁ఉంది	-485
▁ఏర్	-486
▁ళ	-487
▁తే	-488
▁వెళ్ల	-489
▁శ్రీ	-490
▁చెంద	-491
▁బాబు	-492
జీ	-493
ర్చ	-494
తం	-495
▁రీ	-496
▁ిపో	-497
▁జన	-498
▁రే	-499
▁నున్న	-500
▁వ్యా	-501
ర్క	-502
▁సో	-503
▁పడ	-504
నిక	-505
▁నేత	-506
టన	-507
▁సీఎం	-508
వే	-509
▁అంట	-510
▁లాంటి	-511
▁ఎమ్మ	-512
▁నెల	-513
▁ಿ	-514
ర్గ	-515
▁క్ష	-516
▁ాలను	-517
▁పూ	-518
▁థ	-519
ామ	-520
▁ెల	-521
▁ల్లో	-522
▁ాన	-523
▁ాల్ల	-524
▁ాల్లో	-525
▁క్కువ	-526
▁విజ	-527
ల్లి	-528
▁మ్మ	-529
ర్ల	-530
దీ	-531
▁మధ్య	-532
ోగ	-533
▁కోట్ల	-534
▁కీ	-535
▁సమయం	-536
▁స్ప	-537
బంధ	-538
▁రెండు	-539
ఫ్	-540
▁సభ	-541
▁టు	-542
▁కలి	-543
▁్క	-544
▁ుందని	-545
ారా	-546
▁రై	-547
▁క్క	-548
▁క్రమ	-549
▁ాహ	-550
▁పొ	-551
▁మాట్ల	-552
▁ఆమె	-553
▁్రా	-554
▁ప్రతి	-555
▁లె	-556
▁ిత	-557
ీసీ	-558
▁దీంతో	-559
▁నగ	-560
▁వరకు	-561
మార	-562
▁హైద	-563
▁క్ట	-564
య్య	-565
ద్ధ	-566
▁దర్శ	-567
▁గత	-568
క్కడ	-569
▁జరిగ	-570
దే	-571
▁ించి	-572
▁ెన్	-573
▁పని	-574
▁రోజుల	-575
▁ళ్ల	-576
▁హైదర	-577
▁ాద	-578
▁రణ	-579
▁పి	-580
నిప	-581
▁ొన్న	-582
మ్	-583
▁డానిక	-584
కాశ	-585
▁కానీ	-586
▁ప్	-587
▁కుమార	-588
▁ుగా	-589
▁మరి	-590
▁ముందు	-591
ధి	-592
▁్థాన	-593
▁ాం	-594
స్థ	-595
▁ెల్యే	-596
▁ోర్టు	-597
▁రిక	-598
దల	-599
▁ప్రా	-600
▁పెద్ద	-601
▁ర్ల	-602
▁ినట్ల	-603
▁అవకాశ	-604
బ్బ	-605
▁వారి	-606
▁ాడ	-607
▁హించ	-608
▁ేషన్	-609
రా	-610
▁సంబంధ	-611
▁ిప	-612
▁కర	-613
▁చేసి	-614
ాన్	-615
▁బీ	-616
▁నాయ	-617
▁ాయని	-618
▁యి	-619
▁కొత్త	-620
ల్లో	-621
కర	-622
▁ఏర్పా	-623
▁బి	-624
▁రించ	-625
సా	-626
▁హి	-627
▁పీ	-628
▁పట్ట	-629
▁್	-630
▁కేస	-631
▁వేల	-632
సర	-633
▁లకు	-634
▁ుకు	-635
ివ	-636
▁గ్రామ	-637
▁ింద	-638
▁జగ	-639
▁దీని	-640
▁ఢ	-641
▁గుర	-642
▁తొ	-643
▁్యూ	-644
▁బె	-645
్వర	-646
▁ండి	-647
▁ک	-648
▁కృ	-649
▁ండ్	-650
వం	-651
▁గంట	-652
▁ఇది	-653
▁అంత	-654
▁భారీ	-655
వేశ	-656
▁రోజు	-657
▁ూర్	-658
▁ిక్	-659
▁్ప	-660
▁సారి	-661
▁సహ	-662
▁అత	-663
▁నియో	-664
▁యు	-665
▁తప్ప	-666
▁్చ	-667
▁ియ	-668
▁అస	-669
▁ద్య	-670
▁ాణ	-671
▁మన	-672
▁వల్ల	-673
రే	-674
▁ఇవ	-675
▁జగన్	-676
▁భూ	-677
▁మార	-678
మాన	-679
▁నిర్మ	-680
▁ంచ	-681
▁ెలు	-682
▁స్వ	-683
వల	-684
▁ారంభ	-685
▁విషయ	-686
▁ెంట	-687
▁ంత	-688
▁లేదని	-689
యల	-690
▁ేశ	-691
▁నూ	-692
▁ఛ	-693
▁ప్రక	-694
▁ద్యోగ	-695
▁హె	-696
ద్ర	-697
దేశ	-698
ధాన	-699
▁అభ్య	-700
▁ిగ	-701
▁ువ	-702
▁్థి	-703
▁కనిప	-704
▁ఇవ్వ	-705
▁కావ	-706
▁వ్యాప	-707
▁గ్	-708
▁పద	-709
్యూ	-710
▁చేసే	-711
▁ొన్ని	-712
▁అమ	-713
▁్వారా	-714
▁రావు	-715
▁రామ	-716
▁వారు	-717
▁విద్య	-718
ండ్	-719
▁ిజ	-720
▁ప్రకట	-721
▁ీఆర్ఎ	-722
▁చూస	-723
▁ು	-724
▁కపో	-725
▁విజయ	-726
▁జ్	-727
▁ొత్త	-728
▁రిగ	-729
▁బు	-730
▁ీడియ	-731
పడ	-732
▁ర్య	-733
▁ఇక	-734
▁చెబ	-735
▁ుటు	-736
▁ుటుంబ	-737
▁డు	-738
▁కోర	-739
▁గంటల	-740
▁ರ	-741
▁టె	-742
▁స్థ	-743
▁ూర్తి	-744
ాని	-745
▁నాయక	-746
▁ూరు	-747
▁నిర్ణ	-748
▁ాచ	-749
▁శాఖ	-750
▁లక్షల	-751
▁సే	-752
▁కె	-753
▁పల్లి	-754
▁పేర్క	-755
▁చేర	-756
▁అన	-757
▁ర్థ	-758
▁చెబుత	-759
▁అభ్యర	-760
▁గె	-761
▁జరుగ	-762
▁పరిస	-763
▁ಾ	-764
▁మహి	-765
▁కారణ	-766
▁ుర	-767
▁ినా	-768
▁బో	-769
▁ిందని	-770
డుత	-771
▁ఏపీ	-772
▁ాగ	-773
రుల	-774
ాలు	-775
▁్రమా	-776
▁తర	-777
ప్ర	-778
▁నో	-779
▁ుడి	-780
▁ేప	-781
▁ుడ	-782
▁తగ్గ	-783
▁మహిళ	-784
▁మండ	-785
▁ొన	-786
▁మెంట్	-787
▁పోటీ	-788
ందర	-789
▁ప్రస	-790
ంటే	-791
▁సై	-792
▁యత్	-793
▁హా	-794
▁'	-795
▁ాత్ర	-796
▁ంజ	-797
▁ృ	-798
▁వద్ద	-799
▁ెలుగు	-800
▁ఎన్	-801
▁ప్ల	-802
▁మాజీ	-803
▁అవుత	-804
ుతం	-805
▁్తుతం	-806
▁ెస్	-807
తర	-808
▁ిచ	-809
▁భారత	-810
▁ఇన్	-811
▁అయ్య	-812
▁భారత్	-813
▁నిర	-814
▁బ్	-815
▁షా	-816
▁మొద	-817
▁గి	-818
▁ఇండి	-819
▁ನ	-820
▁ంది	-821
▁ొచ్చ	-822
▁భి	-823
▁అలా	-824
▁సంస్థ	-825
లిచ	-826
▁కేట	-827
ిల్ల	-828
▁యత్న	-829
వత	-830
▁మంచి	-831
▁ఢిల్ల	-832
డీ	-833
▁్లీ	-834
▁ందులో	-835
▁ార్థ	-836
▁ిపోయ	-837
▁ిమ	-838
▁ا	-839
▁మ్	-840
▁ుని	-841
▁త్ర	-842
ము	-843
పై	-844
▁ుంద	-845
▁ిన్	-846
▁బ్యా	-847
▁ర్మ	-848
▁కల్లో	-849
తీయ	-850
▁ఎంపీ	-851
▁లీ	-852
▁ర్ష	-853
▁ేస	-854
▁తీవ	-855
▁విశ	-856
వంత్	-857
▁ేవంత్	-858
▁శాతం	-859
ంబర్	-860
▁తీవ్ర	-861
▁ధర	-862
▁ధాని	-863
▁ఇండియ	-864
▁వాడ	-865
▁పవ	-866
▁ాలో	-867
▁తెలు	-868
▁్టే	-869
గుల	-870
▁రిగిన	-871
▁మావేశ	-872
▁ఒక్క	-873
▁చ్చిన	-874
వీ	-875
▁ులకు	-876
▁లై	-877
▁్యాచ్	-878
▁ుండ	-879
▁మీద	-880
రీ	-881
▁కీల	-882
▁మూడు	-883
▁సందర	-884
▁రోగ	-885
▁తెలుస	-886
▁ించిన	-887
▁ేసు	-888
▁్రాంత	-889
▁డీపీ	-890
▁ాత్రం	-891
▁ఇస్త	-892
▁స్వా	-893
▁వెల్ల	-894
▁్ల	-895
▁ఉప	-896
▁ాట	-897
▁10	-898
▁!	-899
▁ఫి	-900
▁తేదీ	-901
▁కీలక	-902
▁రాశ	-903
▁ాల్స	-904
▁అన్ని	-905
▁వాళ్ల	-906
▁ాంత	-907
▁గుర్త	-908
▁ునే	-909
▁త్యే	-910
▁ఆధ	-911
▁కలిసి	-912
▁సూచ	-913
▁ుఖ్య	-914
▁త్యేక	-915
▁వర్	-916
▁పవన్	-917
▁మండల	-918
▁కవ	-919
▁దేశ్	-920
సాగ	-921
▁ొనసాగ	-922
▁ఘటన	-923
▁సాధ	-924
డుదల	-925
▁ిడుదల	-926
▁త్వ	-927
▁ఠ	-928
▁ఉద	-929
▁క్యా	-930
భా	-931
▁రంగ	-932
▁ದ	-933
▁ుకో	-934
▁్లా	-935
▁రోగ్య	-936
▁లతో	-937
▁రావ	-938
▁ట్టు	-939
▁మాత్ర	-940
విత	-941
▁పంప	-942
▁ీడియో	-943
చార	-944
▁ైసీ	-945
▁ంలోని	-946
▁ఉందని	-947
▁ార్క	-948
▁జర	-949
▁చో	-950
▁ండ్ల	-951
ియ	-952
కూ	-953
▁నియోజ	-954
▁దేవ	-955
శ్న	-956
▁్రశ్న	-957
ంగళ	-958
▁టికే	-959
▁ానని	-960
▁ాజా	-961
▁కారణం	-962
▁రైతుల	-963
▁్మ	-964
▁వచ్చే	-965
ృష్ట	-966
▁డ్ర	-967
డం	-968
జ్	-969
▁్రమాద	-970
▁వైపు	-971
టో	-972
త్య	-973
▁ైసీపీ	-974
▁్రధాన	-975
▁గో	-976
▁తెలిస	-977
▁లలో	-978
▁ెళ్ల	-979
▁్రి	-980
▁ైనా	-981
▁రక	-982
డారు	-983
▁కవర్గ	-984
▁దాని	-985
▁కర్	-986
▁్యం	-987
▁ించే	-988
▁ాలకు	-989
▁గురు	-990
▁వార	-991
▁ుఖ్యమ	-992
ఎస్	-993
▁ేష్	-994
ట్టు	-995
▁్యంలో	-996
▁ించుక	-997
▁ున	-998
▁చూప	-999
▁పడుత	-1000
గి	-1001
▁ವ	-1002
▁ాస్	-1003
▁ాప	-1004
ుడ	-1005
▁కారం	-1006
▁ି	-1007
▁అధ	-1008
▁ాన్	-1009
▁ిం	-1010
▁మస్	-1011
▁బయ	-1012
▁ివర	-1013
▁్భ	-1014
▁ెయి	-1015
▁్వా	-1016
▁కాదు	-1017
▁డించ	-1018
▁రెస్ట	-1019
▁పాల్గ	-1020
▁్రీ	-1021
▁ఊ	-1022
▁ుబ	-1023
వాస	-1024
▁ప్పటి	-1025
▁త్త	-1026
ష్ణ	-1027
▁డె	-1028
▁చిన్న	-1029
ెంబ	-1030
పత	-1031
▁తీర	-1032
▁కృష్ణ	-1033
▁నిల	-1034
▁కింద	-1035
▁అసెంబ	-1036
▁జూ	-1037
త్స	-1038
▁అవసర	-1039
▁వ్వ	-1040
▁కేసు	-1041
▁చై	-1042
కీయ	-1043
▁ాజకీయ	-1044
▁యం	-1045
▁్రప	-1046
▁ాల్సి	-1047
▁ాచారం	-1048
▁ఫో	-1049
▁ొత్తం	-1050
▁మృ	-1051
▁నుంది	-1052
▁ిల్	-1053
▁పరిశ	-1054
▁నుండి	-1055
రుక	-1056
▁వంటి	-1057
▁హీ	-1058
▁పేట	-1059
రిక	-1060
▁ೆ	-1061
ర్మ	-1062
▁్ష	-1063
▁ోయ	-1064
▁్రంలో	-1065
▁ిమర్శ	-1066
వ్	-1067
▁జరగ	-1068
▁్రపంచ	-1069
▁ుప	-1070
▁్థితి	-1071
▁్భంగా	-1072
▁ేపట్ట	-1073
▁చేరుక	-1074
గే	-1075
▁ା	-1076
▁నగర్	-1077
▁సర్	-1078
▁ఇంటి	-1079
▁ేలా	-1080
▁ోడ్	-1081
▁వేస	-1082
▁ంపె	-1083
వరి	-1084
▁లుగు	-1085
ివృ	-1086
▁ాంతాల	-1087
▁ిరు	-1088
▁చిత్ర	-1089
▁దగ్గ	-1090
త్మ	-1091
▁చర్చ	-1092
▁ికి	-1093
▁సంఘ	-1094
▁ంపెనీ	-1095
▁ఆదేశ	-1096
▁బాధ	-1097
▁నివాస	-1098
▁ఆల	-1099
▁బయట	-1100
▁ుస్త	-1101
▁లేదా	-1102
▁ముఖ్య	-1103
▁ిఫ	-1104
▁రల్	-1105
▁పలు	-1106
▁సోష	-1107
▁శి	-1108
▁అమ్మ	-1109
▁୍	-1110
▁ఆరో	-1111
▁తాను	-1112
▁మస్యల	-1113
▁జై	-1114
▁లోకి	-1115
▁పుర	-1116
▁ోదీ	-1117
▁ెంబర్	-1118
▁ాక	-1119
▁ಲ	-1120
గ్ర	-1121
▁ద్ధి	-1122
స్టు	-1123
క్ర	-1124
▁నిజ	-1125
▁తొలి	-1126
▁కపోవ	-1127
▁ారికి	-1128
▁ತ	-1129
▁ఎలా	-1130
▁సోషల్	-1131
▁అదే	-1132
▁అక్కడ	-1133
▁ేశ్వర	-1134
ాల్	-1135
▁బాల	-1136
▁వుత	-1137
▁ైల్	-1138
వర్	-1139
ణ్	-1140
▁తల	-1141
▁పెంచ	-1142
ార్	-1143
▁టికీ	-1144
▁పొంద	-1145
▁టం	-1146
▁ితే	-1147
▁అంటూ	-1148
▁ింపు	-1149
▁జాతీయ	-1150
▁ిచారణ	-1151
▁ున్నా	-1152
▁ఇతర	-1153
ాయి	-1154
▁విషయం	-1155
▁వ్యవ	-1156
▁ಕ	-1157
▁అభివృ	-1158
▁ేష	-1159
▁మని	-1160
▁లేక	-1161
▁అను	-1162
▁ఏడా	-1163
▁ఆరోప	-1164
▁దూ	-1165
▁డై	-1166
▁మేర	-1167
▁నేతలు	-1168
▁దగ్గర	-1169
▁ర్యలు	-1170
▁హీరో	-1171
▁ఫోన్	-1172
▁ంటే	-1173
▁లోనే	-1174
▁సంవత	-1175
▁స్పంద	-1176
▁మై	-1177
▁ొంద	-1178
▁ర్థిక	-1179
జు	-1180
▁ుకోవ	-1181
▁م	-1182
▁హత్య	-1183
▁ీర్	-1184
▁ఏడాది	-1185
▁ష్	-1186
▁ాదా	-1187
▁స్ట్ర	-1188
▁మాన	-1189
▁దాడి	-1190
▁ంతా	-1191
▁గాంధ	-1192
▁నేప	-1193
▁తెలియ	-1194
▁జార	-1195
▁బ్ర	-1196
న్స	-1197
▁ాడుత	-1198
▁ెక్ట	-1199
▁ిందే	-1200
▁గాంధీ	-1201
▁మెరిక	-1202
▁అలాగే	-1203
శాల	-1204
▁గౌ	-1205
▁ఇదే	-1206
▁అం	-1207
▁ుంటే	-1208
▁క్ల	-1209
▁అప్ప	-1210
▁రుణ	-1211
▁ాధ్య	-1212
▁⁬	-1213
▁నంత	-1214
▁్పష్ట	-1215
▁్తంగా	-1216
▁అంటే	-1217
▁పేరు	-1218
▁ిల్లల	-1219
▁దిగ	-1220
▁పెరిగ	-1221
▁ంపై	-1222
▁ಯ	-1223
▁ెడ్	-1224
▁తు	-1225
▁అది	-1226
ప్ట	-1227
▁ోధ	-1228
▁భ్య	-1229
▁రుగుల	-1230
▁అధ్య	-1231
▁వివర	-1232
▁ిలీ	-1233
టిని	-1234
▁ಸ	-1235
▁షన్	-1236
▁న్యా	-1237
▁వెంక	-1238
▁కాలం	-1239
▁భద్ర	-1240
▁ఆడ	-1241
▁యో	-1242
▁ిట్	-1243
▁సిద్ధ	-1244
▁చూడ	-1245
▁తరు	-1246
▁ెంట్	-1247
▁డిమా	-1248
▁అయిన	-1249
▁ର	-1250
▁ాజాగా	-1251
▁క్తుల	-1252
▁ప్రాజ	-1253
▁జే	-1254
▁సింగ్	-1255
▁ాప్	-1256
సే	-1257
▁ಗ	-1258
▁నగర	-1259
▁దృష్ట	-1260
సన	-1261
▁ంబ	-1262
▁క్షన్	-1263
▁రాశి	-1264
▁న్స్	-1265
▁ఇలా	-1266
▁శివ	-1267
▁ర్గ	-1268
▁ఇబ్బ	-1269
▁వ్యాఖ	-1270
▁ందుక	-1271
ట్టి	-1272
పోయ	-1273
▁ఆహ	-1274
▁ట్రా	-1275
▁ఉత్త	-1276
▁ియా	-1277
▁ాదాపు	-1278
▁ఇంట	-1279
▁మెంట	-1280
▁అమలు	-1281
▁ిట	-1282
ోళ	-1283
▁ాక్	-1284
▁త్తు	-1285
▁గతంలో	-1286
▁క్రమం	-1287
▁ార్డ	-1288
▁కూడ	-1289
▁ేరు	-1290
▁్తే	-1291
▁ఏళ్ల	-1292
▁పూర్	-1293
▁ందోళ	-1294
▁ఇటీ	-1295
▁ందోళన	-1296
▁ేసులో	-1297
▁20	-1298
▁ప్రజా	-1299
▁ాగంగా	-1300
మో	-1301
▁డబ్	-1302
▁అనేక	-1303
▁ేశ్	-1304
నం	-1305
▁ికల్	-1306
▁రీక్ష	-1307
▁ెట్	-1308
▁ఇటీవల	-1309
▁ాడుతూ	-1310
▁వారం	-1311
▁డబ్బు	-1312
▁ావ	-1313
▁నంతరం	-1314
▁హైక	-1315
▁వ్యవహ	-1316
▁గల	-1317
▁ఆఫ్	-1318
నివ	-1319
▁సొ	-1320
▁లెక్ట	-1321
▁మూవీ	-1322
▁ఎవర	-1323
▁కొట్ట	-1324
▁తేల	-1325
▁్యాంక	-1326
▁బడ	-1327
▁కౌ	-1328
▁మోదు	-1329
▁ోల	-1330
▁ేయ	-1331
▁ోద	-1332
▁జట్టు	-1333
▁వెంకట	-1334
▁ాలయ	-1335
▁ఆఫ	-1336
▁ہ	-1337
▁జి	-1338
▁ారా	-1339
▁ాను	-1340
▁భ్యుల	-1341
▁ెంటనే	-1342
▁ందుకే	-1343
▁శు	-1344
▁జె	-1345
▁వైఎస్	-1346
▁మళ్ల	-1347
▁వాద	-1348
▁ులను	-1349
మోద	-1350
▁ఫలి	-1351
▁తరువా	-1352
▁ఫలిత	-1353
▁ైంది	-1354
▁నేను	-1355
▁కొంత	-1356
▁ీల	-1357
▁ిష	-1358
▁ెత్త	-1359
▁స్వామ	-1360
▁రక్ష	-1361
▁ాదు	-1362
▁ముగ	-1363
▁ర్షాల	-1364
▁పోస్ట	-1365
▁నియ	-1366
▁మాట	-1367
▁స్త	-1368
▁్రె	-1369
▁ಂ	-1370
▁దారుల	-1371
▁ళ్	-1372
▁జారీ	-1373
▁ఆధార	-1374
క్తి	-1375
▁వివా	-1376
▁వెళ	-1377
▁ష్ట	-1378
ారు	-1379
▁నేర	-1380
▁ెల్	-1381
▁కల్ప	-1382
డుక	-1383
▁ాహు	-1384
ంజ	-1385
ేట	-1386
▁డిప	-1387
▁గిరి	-1388
▁చారం	-1389
▁ంట్ల	-1390
▁వర్గ	-1391
▁ినప్ప	-1392
▁చీ	-1393
ణా	-1394
▁పెరుగ	-1395
▁నేపథ	-1396
▁అంచ	-1397
▁భావ	-1398
▁బోత	-1399
▁కంటే	-1400
▁మొదటి	-1401
యోగ	-1402
▁వు	-1403
▁ఉత్తర	-1404
▁ఎక్	-1405
▁రాజ్	-1406
▁వైర	-1407
▁నోట	-1408
▁్యాణ్	-1409
▁్డారు	-1410
▁గొ	-1411
▁న్యాయ	-1412
▁ళ్ళ	-1413
▁జీవిత	-1414
▁ిస్తూ	-1415
▁ేట	-1416
▁రోప	-1417
▁ిర	-1418
▁ోత	-1419
▁్తూ	-1420
▁ప్రత	-1421
ుడు	-1422
▁గ్రహ	-1423
పాయల	-1424
▁లోక్	-1425
▁అంచనా	-1426
▁ూపాయల	-1427
▁పర్	-1428
▁15	-1429
▁్యక్ష	-1430
▁ొందరు	-1431
▁ఫొ	-1432
▁ఫొటో	-1433
▁ఫిర్య	-1434
▁డైర	-1435
▁పైన	-1436
▁తల్లి	-1437
▁ాలన్న	-1438
▁ర్ట	-1439
▁వైద్య	-1440
▁ుగ	-1441
▁గానే	-1442
▁పక్ష	-1443
▁వస	-1444
▁ఉదయం	-1445
▁ింప	-1446
▁్టేష	-1447
▁ిధ	-1448
▁ోష	-1449
▁ాది	-1450
▁క్టర్	-1451
రిగి	-1452
▁ుర్త	-1453
▁నేతల	-1454
▁హాజ	-1455
▁A	-1456
▁ఆఫీస	-1457
▁ిపోత	-1458
▁చెల్ల	-1459
▁ఆంధ	-1460
▁ుర్తు	-1461
▁ఫ్	-1462
▁ఆంధ్ర	-1463
▁ఉపయోగ	-1464
▁ిస్తే	-1465
▁కుల	-1466
▁దర్శన	-1467
▁ర్చ	-1468
▁ాహుల్	-1469
▁సర	-1470
▁ఎంత	-1471
▁న్యూ	-1472
▁ెస్ట్	-1473
పొ	-1474
▁నెలల	-1475
▁ర్ర	-1476
▁లైన్	-1477
▁డైరె	-1478
▁చేత	-1479
▁హాజర	-1480
▁ಮ	-1481
▁కాగా	-1482
▁ార్పు	-1483
బీ	-1484
▁డాక్ట	-1485
▁ివరాల	-1486
▁జనసే	-1487
▁భాగ	-1488
▁డ్డ	-1489
▁జనసేన	-1490
▁బంధ	-1491
రేక	-1492
▁హిస్త	-1493
▁మేరకు	-1494
▁సంఖ్య	-1495
▁సాగ	-1496
▁పార్ల	-1497
▁ర్క	-1498
▁అతని	-1499
▁మార్చ	-1500
▁ిన్న	-1501
▁ాలుగు	-1502
▁ొంది	-1503
▁నిలిచ	-1504
▁వేద	-1505
▁ఆది	-1506
▁తరల	-1507
▁ర్ణ	-1508
▁టికె	-1509
▁్రక	-1510
▁మరింత	-1511
▁రెండో	-1512
▁నల	-1513
▁ామ్	-1514
▁టంతో	-1515
▁వాటి	-1516
▁నష్ట	-1517
▁క్రిక	-1518
▁్డ	-1519
నుక	-1520
▁న్ని	-1521
▁సంగ	-1522
▁ిక్క	-1523
▁్టార్	-1524
▁ిడ	-1525
▁ార్జ	-1526
▁ంక	-1527
▁ఉండే	-1528
▁ోర	-1529
▁ందర	-1530
▁వంత	-1531
▁తిరేక	-1532
▁సోమ	-1533
▁కూల	-1534
▁అందు	-1535
▁రోపణ	-1536
▁ఇంక	-1537
▁హో	-1538
▁్థుల	-1539
▁ాధ	-1540
▁పాలన	-1541
తావ	-1542
▁వాతావ	-1543
▁ిలో	-1544
▁సీట్ల	-1545
▁ాత్రి	-1546
▁యోగ	-1547
▁ుమ	-1548
▁ఏర్పడ	-1549
▁ంటూ	-1550
సుక	-1551
▁నంద	-1552
▁ోత్స	-1553
్త	-1554
నల్	-1555
▁12	-1556
ంత్ర	-1557
▁మళ్లీ	-1558
▁కేటాయ	-1559
▁వార్	-1560
▁హెచ్	-1561
▁ప్పుడ	-1562
▁రువు	-1563
▁రోపణల	-1564
▁మిషన్	-1565
▁ుష	-1566
▁యాత్ర	-1567
▁ేద	-1568
▁ోలీ	-1569
▁ోర్ట	-1570
▁్స	-1571
▁ీని	-1572
▁ఎదు	-1573
▁మర	-1574
▁ినీ	-1575
▁్లి	-1576
▁శాంత	-1577
▁ఎల్	-1578
▁్షుడు	-1579
▁ేవా	-1580
▁యించ	-1581
▁ఏం	-1582
▁ాట్	-1583
▁ఎఫ్	-1584
▁టై	-1585
▁నర్	-1586
▁30	-1587
▁ాధ్యత	-1588
▁ిల	-1589
▁ంతో	-1590
▁ంలోకి	-1591
▁ుజ	-1592
▁ంట్	-1593
▁బస్	-1594
▁ఉంటే	-1595
▁పాత్ర	-1596
▁కష్ట	-1597
▁దర	-1598
▁అధ్యక	-1599
▁సిబ్బ	-1600
▁ಡ	-1601
▁లేని	-1602
▁ిరిగి	-1603
▁్సర	-1604
▁అనుక	-1605
▁వైరల్	-1606
▁ైట్	-1607
▁భార్య	-1608
▁ఆలయ	-1609
▁్రకటన	-1610
▁ిగా	-1611
▁కౌంట	-1612
టర్	-1613
▁ఐదు	-1614
▁మూడ	-1615
▁ట్వ	-1616
▁ంత్ర	-1617
▁్థిత	-1618
▁و	-1619
▁బీసీ	-1620
▁ార్త	-1621
▁వర్ష	-1622
▁ార్కె	-1623
▁కర్త	-1624
▁ద్దతు	-1625
▁యాద	-1626
▁కమి	-1627
▁ీన్	-1628
ద్దర	-1629
▁పన	-1630
▁ఇక్కడ	-1631
▁ెక్టు	-1632
▁/	-1633
▁n	-1634
▁పండ	-1635
ణాట	-1636
▁ద్ధ	-1637
▁అత్య	-1638
▁కట్ట	-1639
▁ిట్ట	-1640
▁డిస	-1641
▁ామన్న	-1642
▁గణ	-1643
▁తను	-1644
▁సాయ	-1645
▁డమ	-1646
▁సౌ	-1647
▁్యు	-1648
▁విజయం	-1649
▁ోడీ	-1650
▁ఉంచ	-1651
ణాటక	-1652
▁్ణాటక	-1653
▁కీయ	-1654
▁సీపీ	-1655
▁ంట్లో	-1656
జన	-1657
లోచ	-1658
▁ఆలోచ	-1659
▁దని	-1660
▁ంద్ర	-1661
یں	-1662
నుగ	-1663
▁వేయ	-1664
▁నియోగ	-1665
యాణ	-1666
▁్రయాణ	-1667
▁్ని	-1668
▁ఏపీలో	-1669
▁ిద	-1670
▁ువుల	-1671
ుక్ర	-1672
▁శుక్ర	-1673
▁ిశ	-1674
▁క్కడి	-1675
▁వస్థ	-1676
య్	-1677
▁మార్గ	-1678
▁ాటు	-1679
▁పూజ	-1680
▁బుల్	-1681
▁ాడని	-1682
▁మంగళ	-1683
▁ర్న	-1684
▁ట్టి	-1685
▁జ్ఞ	-1686
▁విన	-1687
▁కమిటీ	-1688
▁పాట	-1689
▁్రం	-1690
ీల	-1691
▁న్నీ	-1692
▁ఎక్కడ	-1693
▁సహాయ	-1694
▁పను	-1695
▁ోలు	-1696
▁యువ	-1697
▁ైగా	-1698
▁ిందిత	-1699
▁ెళ్లి	-1700
▁ీనియ	-1701
▁ోలీస్	-1702
▁t	-1703
▁మొదల	-1704
▁నుమ	-1705
▁ఎక్స్	-1706
▁దె	-1707
▁దక్క	-1708
▁కిలో	-1709
▁ీమ్	-1710
▁భిమాన	-1711
▁విశ్వ	-1712
▁కీయాల	-1713
▁ప్లా	-1714
▁తనకు	-1715
▁క్షి	-1716
▁సీబీ	-1717
▁చట్ట	-1718
▁నాగ	-1719
▁్రమ	-1720
▁ోడ్డు	-1721
▁భూమి	-1722
▁రిష్	-1723
▁దర్శక	-1724
▁మహిళల	-1725
▁బ్యాట	-1726
▁ద్దరు	-1727
▁్రూ	-1728
▁11	-1729
▁్పు	-1730
▁ులో	-1731
▁నడ	-1732
▁హెచ్చ	-1733
▁చోటు	-1734
▁ుల్	-1735
▁ఆత్మ	-1736
ేమ	-1737
▁పనులు	-1738
▁సార్ల	-1739
▁ాలంటే	-1740
▁س	-1741
డుల	-1742
▁ుల్లో	-1743
▁ఇంకా	-1744
▁రాజు	-1745
▁పర్య	-1746
▁బెంగళ	-1747
▁ర్త	-1748
విస	-1749
▁ైర్	-1750
▁త్య	-1751
▁ుక్క	-1752
▁ర్స్	-1753
▁కూట	-1754
▁پ	-1755
▁ారన్న	-1756
▁ాయ్	-1757
▁రహ	-1758
కిస	-1759
▁సంత	-1760
▁పాకిస	-1761
వలం	-1762
▁ీలో	-1763
▁కేవలం	-1764
▁కలిగ	-1765
▁పరిధి	-1766
▁విస్త	-1767
▁చు	-1768
▁వేగ	-1769
▁రగ	-1770
▁నవ	-1771
▁శుభ	-1772
▁భావిస	-1773
▁ేమ	-1774
▁త్వం	-1775
▁ీనియర	-1776
▁ోక	-1777
▁ఆరు	-1778
స్య	-1779
▁సమస్య	-1780
▁తిర	-1781
▁కూటమి	-1782
▁వీర	-1783
▁ర్లు	-1784
▁రవ	-1785
▁వో	-1786
▁నాథ	-1787
▁బౌ	-1788
▁నాడు	-1789
▁ుకుంట	-1790
▁దూరం	-1791
▁ైల్వే	-1792
▁ైజ	-1793
▁వేశ	-1794
▁ఆదివ	-1795
▁వచ్చి	-1796
▁వృ	-1797
▁ేధ	-1798
▁బాధిత	-1799
▁న్ను	-1800
▁కన	-1801
▁ేజీ	-1802
▁ోందని	-1803
▁తమి	-1804
▁రిప	-1805
▁ర్వ	-1806
▁హింద	-1807
▁ప్లే	-1808
▁ారిని	-1809
▁ార్ట	-1810
▁େ	-1811
▁ీనా	-1812
▁ేజ్	-1813
▁సరి	-1814
▁రోడ్	-1815
▁ెయిల్	-1816
▁ిబ	-1817
▁మృతి	-1818
▁కం	-1819
▁ిలి	-1820
▁నిమి	-1821
▁ాళ	-1822
▁ఖర్చ	-1823
టర్ల	-1824
▁సిద్ద	-1825
▁సుప్ర	-1826
▁గూ	-1827
▁ిటీ	-1828
▁సన్	-1829
▁ానీ	-1830
మల	-1831
▁ధరల	-1832
▁పోరా	-1833
▁్రవేశ	-1834
▁ాయిలో	-1835
▁మోహ	-1836
▁అంశ	-1837
యారు	-1838
▁మహా	-1839
▁దుర్క	-1840
▁సూర్య	-1841
▁ేక్ష	-1842
▁ఫ్యా	-1843
▁బస్సు	-1844
▁జీవ	-1845
▁నిధ	-1846
▁ేది	-1847
▁ఫీ	-1848
▁రమ	-1849
▁తమిళ	-1850
▁రిస్త	-1851
▁నటి	-1852
▁చ్	-1853
▁విధాన	-1854
▁କ	-1855
▁నని	-1856
▁ఎంతో	-1857
▁కొనుగ	-1858
ాన్య	-1859
▁ధాన్య	-1860
▁చ్చు	-1861
▁ారాయ	-1862
▁భిప్ర	-1863
▁14	-1864
▁హర	-1865
▁తాము	-1866
▁ైల	-1867
▁వరద	-1868
▁్థాయి	-1869
یا	-1870
ికి	-1871
▁సొంత	-1872
▁జూన్	-1873
▁మీరు	-1874
▁కాద	-1875
▁దేశాల	-1876
▁నై	-1877
▁ిరుమల	-1878
▁తిని	-1879
▁బాగా	-1880
ఖల	-1881
▁ారాయణ	-1882
▁బహ	-1883
▁ిలీజ్	-1884
లువ	-1885
▁చివరి	-1886
▁విధ	-1887
▁యర్	-1888
▁టా	-1889
▁దొ	-1890
▁్న	-1891
▁తొల	-1892
▁బట్టి	-1893
▁ొని	-1894
ర్వ	-1895
▁అంతే	-1896
▁మరియ	-1897
▁ాలే	-1898
▁a	-1899
▁అర్	-1900
▁ఓట్ల	-1901
విధ	-1902
▁గ్యా	-1903
▁50	-1904
▁లపై	-1905
▁వచ్చు	-1906
ినే	-1907
▁ోదా	-1908
▁నాటి	-1909
▁పక్క	-1910
▁్తాన్	-1911
▁ాటులో	-1912
▁ఓడ	-1913
▁్రచార	-1914
▁ఒకర	-1915
▁అందుబ	-1916
▁ప్రేమ	-1917
▁వివిధ	-1918
▁R	-1919
▁సంజ	-1920
▁వెళ్త	-1921
▁ోన్	-1922
▁పథ	-1923
▁గుండ	-1924
▁మవ	-1925
▁ಲ್	-1926
కూల	-1927
▁ొక్క	-1928
▁దిల	-1929
▁కోల	-1930
▁బుధ	-1931
▁ుతూ	-1932
▁్యలు	-1933
▁డియ	-1934
▁మరియు	-1935
▁అక్ర	-1936
▁రిట	-1937
▁విర	-1938
▁ార్చ	-1939
▁ర్ధ	-1940
▁నీటి	-1941
▁వరకూ	-1942
▁ైవే	-1943
▁భావం	-1944
▁యన	-1945
▁చర్య	-1946
▁ుచ	-1947
▁టో	-1948
▁భద్రత	-1949
వార	-1950
▁ఖా	-1951
▁ఆశ	-1952
▁సీసీ	-1953
▁ర్కార	-1954
▁ేనే	-1955
▁ఆహార	-1956
▁సర్వే	-1957
▁ెర	-1958
▁మవుత	-1959
▁ంభ	-1960
▁ొప్ప	-1961
▁ఖర్చు	-1962
▁వేదిక	-1963
▁ంట్ర	-1964
▁నింగ్	-1965
▁లం	-1966
▁పాద	-1967
ూర	-1968
▁గమ	-1969
▁ుకుని	-1970
ముఖ	-1971
▁చైర్మ	-1972
▁్రముఖ	-1973
జా	-1974
▁దండ	-1975
▁కప్	-1976
▁సోమవ	-1977
▁అక్రమ	-1978
▁ీబ	-1979
▁రద్	-1980
▁కర్తల	-1981
▁భవ	-1982
▁అయ	-1983
▁ీచ	-1984
▁బౌల	-1985
▁ఫ్ల	-1986
▁నిధుల	-1987
▁శిక్ష	-1988
▁జైలు	-1989
▁రైతు	-1990
▁క్షిణ	-1991
▁ేళ్ల	-1992
▁అనేది	-1993
▁రిష్క	-1994
ామీ	-1995
▁హామీ	-1996
▁్తు	-1997
▁తొలగ	-1998
▁ుండగా	-1999
▁నుగ	-2000
▁ోహ	-2001
▁ర్గాల	-2002
▁విమాన	-2003
▁సెప్ట	-2004
▁ఫ్ర	-2005
▁ిధంగా	-2006
▁తినిధ	-2007
▁ెన్స్	-2008
▁లోక	-2009
▁త్తి	-2010
▁్యాండ	-2011
ినేత	-2012
▁న్య	-2013
▁బిజ	-2014
▁వీరి	-2015
▁ధినేత	-2016
▁25	-2017
▁న్ల	-2018
▁ాటిని	-2019
▁పురం	-2020
▁క్రియ	-2021
▁ాధారణ	-2022
▁వయ	-2023
▁24	-2024
▁లువు	-2025
▁ింట	-2026
▁అతి	-2027
▁ప్రభా	-2028
▁ఫ్ట	-2029
▁స్ట్	-2030
▁డమే	-2031
▁అండ్	-2032
▁నివే	-2033
▁ముంబ	-2034
▁మల్ల	-2035
▁ిష్ట	-2036
▁ొడ	-2037
▁ిష్	-2038
▁ీక	-2039
▁రకాల	-2040
▁ంగ్	-2041
▁ెక్	-2042
▁నివేద	-2043
▁సాయంత	-2044
▁నుకూల	-2045
▁ఎల	-2046
▁సూప	-2047
▁ిద్యా	-2048
▁ెగ	-2049
▁వేళ	-2050
▁ఇజ	-2051
▁ూల	-2052
▁ిజర్వ	-2053
▁ఇజ్ర	-2054
▁్స్	-2055
▁ండిపడ	-2056
▁సభ్య	-2057
▁ియల్	-2058
▁న్స	-2059
▁సామ	-2060
▁ిమా	-2061
▁ీస్	-2062
▁బయటకు	-2063
▁డే	-2064
▁విచార	-2065
▁ిస	-2066
▁ఎన్న	-2067
▁సంక్ష	-2068
▁ిల్లు	-2069
▁ఎయి	-2070
▁లర్	-2071
▁ేస్త	-2072
▁ఏక	-2073
▁క్టో	-2074
▁ంగారం	-2075
▁్వామి	-2076
జున	-2077
▁ీమ	-2078
▁పథక	-2079
▁ర్జున	-2080
▁గడ	-2081
▁వల	-2082
▁ీల్	-2083
▁ీర	-2084
▁పోయ	-2085
▁ీవు	-2086
▁ాండ	-2087
▁తండ	-2088
▁ాయె	-2089
▁వీటి	-2090
▁టే	-2091
▁యువత	-2092
▁లుసుక	-2093
▁కంప	-2094
▁ిస్	-2095
ాలి	-2096
▁నియమ	-2097
▁దర్య	-2098
▁య్యే	-2099
▁విక్ర	-2100
▁ొచ్చు	-2101
▁నమోద	-2102
▁మంగళవ	-2103
▁ఉంద	-2104
▁శనివ	-2105
▁నక	-2106
▁త్వర	-2107
▁సిటీ	-2108
▁స్తుల	-2109
▁టీసీ	-2110
▁మృత	-2111
▁ూత	-2112
▁వాహ	-2113
▁ేరుతో	-2114
▁ీవుడ్	-2115
▁వ్	-2116
▁కవిత	-2117
▁ఓవర్	-2118
▁ిజన్	-2119
▁ులతో	-2120
▁ాప్తు	-2121
▁కృత	-2122
▁లీడ	-2123
▁నేడు	-2124
▁ర్మిక	-2125
▁S	-2126
▁వుల	-2127
▁క్కడ	-2128
▁తేదీన	-2129
▁గురువ	-2130
ెంట	-2131
▁ఒకే	-2132
▁వాల్	-2133
▁దెబ్బ	-2134
▁పాత	-2135
▁ాలనే	-2136
▁గెలిచ	-2137
▁దాడుల	-2138
▁క్టోబ	-2139
▁ఫె	-2140
▁ేసులు	-2141
▁మారు	-2142
▁ప్రియ	-2143
రీర	-2144
▁టెక్	-2145
▁నాలు	-2146
▁శరీర	-2147
▁నం	-2148
▁ంధ	-2149
▁సిం	-2150
▁మణ	-2151
▁ిచ్చ	-2152
▁రద్దు	-2153
▁ోత్సవ	-2154
▁్ట్ర	-2155
▁ن	-2156
▁ఏద	-2157
▁చీఫ్	-2158
▁ార్చి	-2159
▁విలువ	-2160
▁మోహన్	-2161
▁ారిటీ	-2162
▁సింగ	-2163
▁ంక్ష	-2164
▁గెల	-2165
▁రియా	-2166
▁నిపోయ	-2167
▁దశ	-2168
▁లస	-2169
▁ెల్సీ	-2170
▁ఇంత	-2171
▁ిగత	-2172
▁ఓటు	-2173
▁జర్	-2174
▁స్వీ	-2175
▁దళ	-2176
▁ేల	-2177
▁వస్తే	-2178
▁ాల్ప	-2179
▁ఎకర	-2180
▁మనం	-2181
▁ిటల్	-2182
▁రిత్ర	-2183
▁సంజయ్	-2184
▁ాయెల్	-2185
▁బల	-2186
▁రాయ	-2187
▁ేక్	-2188
▁ఇంటర్	-2189
▁‍	-2190
▁అడి	-2191
▁ికు	-2192
▁ిండ	-2193
▁ాత్మ	-2194
▁ీష్	-2195
▁యిన్	-2196
▁నరే	-2197
▁పనుల	-2198
▁ుబడ	-2199
▁ప్షన్	-2200
▁అభి	-2201
▁స్మ	-2202
▁ఎత్త	-2203
▁బ్ద	-2204
▁ందరూ	-2205
▁నియా	-2206
▁ుద	-2207
▁భూమ	-2208
▁మండలం	-2209
▁ب	-2210
▁ت	-2211
▁ెక్క	-2212
▁భర్త	-2213
▁ూర	-2214
▁ప్రొ	-2215
▁ాస	-2216
సారి	-2217
▁ిప్	-2218
ర్ప	-2219
▁18	-2220
▁ర్మి	-2221
▁ాల్పడ	-2222
▁సహా	-2223
▁పుట్ట	-2224
▁్రుల	-2225
▁రామ్	-2226
▁వరు	-2227
▁ిక్స్	-2228
టిష	-2229
▁్గు	-2230
▁తది	-2231
▁ಪ	-2232
▁రైలు	-2233
▁విశా	-2234
▁్యాన	-2235
▁గడ్డ	-2236
▁ీక్ష	-2237
▁ెన్స	-2238
▁్యూటీ	-2239
▁నీరు	-2240
▁టింగ్	-2241
▁వన్	-2242
▁విశాఖ	-2243
▁కిత్స	-2244
▁అంబ	-2245
▁కూడద	-2246
▁డ్రై	-2247
▁ించడ	-2248
▁ుత్	-2249
▁ప్పు	-2250
▁్థాన్	-2251
▁నామ	-2252
▁ురాల	-2253
▁్యామ	-2254
▁వివాద	-2255
▁సంతో	-2256
▁కోల్ప	-2257
▁అందుక	-2258
▁రాస	-2259
ర్ట	-2260
▁ిర్	-2261
▁ొంట	-2262
▁నెలక	-2263
▁పదవి	-2264
▁తండ్ర	-2265
▁త్యంత	-2266
త్తి	-2267
▁ోస్టు	-2268
▁అంతర్	-2269
▁విదేశ	-2270
▁ోన్న	-2271
▁ీయ	-2272
▁తదితర	-2273
▁ాపూ	-2274
▁ఆక	-2275
▁ిడ్	-2276
▁అయినా	-2277
▁సంతోష	-2278
▁జరిగే	-2279
▁ఏమ	-2280
▁దారి	-2281
▁ాడారు	-2282
▁ల్లు	-2283
▁ోప	-2284
▁డర్	-2285
▁షాక	-2286
▁ేంద	-2287
▁నుంచ	-2288
▁ుష్	-2289
▁ీలి	-2290
▁రేట్	-2291
▁మహిళా	-2292
▁P	-2293
రించ	-2294
▁ంకు	-2295
▁ంత్రు	-2296
▁చుట్ట	-2297
▁చైనా	-2298
▁లెక్క	-2299
▁యుద్ధ	-2300
▁T	-2301
▁లభ	-2302
▁న్నత	-2303
▁C	-2304
▁ఆసు	-2305
జె	-2306
▁సార	-2307
▁ఎస్సీ	-2308
▁వయస	-2309
▁్థల	-2310
▁ింపుల	-2311
▁ీకర	-2312
▁స్వీక	-2313
▁ివరకు	-2314
▁ీబీసీ	-2315
▁నీళ్ల	-2316
▁13	-2317
వర్న	-2318
▁గవర్న	-2319
▁నిరసన	-2320
▁ఫర్	-2321
▁సహక	-2322
▁ైన్	-2323
▁ెస్ట	-2324
▁కన్న	-2325
▁బుధవ	-2326
▁క్యూ	-2327
▁ఆసుపత	-2328
▁వినిప	-2329
▁సూపర్	-2330
▁మారుత	-2331
▁శక్తి	-2332
▁నలు	-2333
▁కాపా	-2334
▁ాయాల	-2335
▁ోరు	-2336
▁నమ్మ	-2337
▁దర్శి	-2338
▁ేషనల్	-2339
▁ుద్ధ	-2340
▁ఎంప	-2341
▁వేడుక	-2342
▁ధర్మ	-2343
▁ారతీయ	-2344
▁ోమ	-2345
▁యోజన	-2346
▁ల్లి	-2347
▁ైవేట	-2348
▁అధిక	-2349
▁్సరాల	-2350
▁17	-2351
▁భూముల	-2352
▁ీలించ	-2353
▁రాజ్య	-2354
▁పూర	-2355
▁మున్స	-2356
▁రంగల్	-2357
▁్లాన్	-2358
▁రేషన్	-2359
▁16	-2360
▁ెంటర్	-2361
▁తీరు	-2362
▁ధన	-2363
▁ారో	-2364
▁ಲ್ಲ	-2365
▁ర్యటన	-2366
▁ంస	-2367
▁సీఐ	-2368
▁ాస్ట	-2369
▁్రాల	-2370
▁కాపాడ	-2371
▁తమకు	-2372
▁జాగ్ర	-2373
▁..	-2374
▁ోడ	-2375
▁జ్జ	-2376
▁నాకు	-2377
▁ాసన	-2378
▁کے	-2379
▁ేస్	-2380
▁ಬ	-2381
▁కూర	-2382
▁ఎయిర్	-2383
▁స్టర్	-2384
▁ی	-2385
▁నరేంద	-2386
▁ాపూర్	-2387
▁ొత్తు	-2388
▁ఈసారి	-2389
▁ాఫ	-2390
ప్రి	-2391
▁్నా	-2392
▁ఏప్రి	-2393
▁ాలలో	-2394
▁ీం	-2395
▁ట్రై	-2396
▁వరుస	-2397
▁ఎదురు	-2398
▁ర్మిల	-2399
▁మన్	-2400
▁సంచ	-2401
▁కపోతే	-2402
▁ఆన్	-2403
▁ాంబ	-2404
▁తిన	-2405
▁్వత	-2406
▁పేద	-2407
▁ోగ	-2408
▁ంప్ర	-2409
▁కామె	-2410
▁లువుర	-2411
▁త్స	-2412
▁ంచ్	-2413
▁దేళ్ల	-2414
▁రల్డ్	-2415
▁న్మ	-2416
▁ಟ	-2417
▁లాభ	-2418
▁పిటిష	-2419
▁ନ	-2420
▁సుర	-2421
▁22	-2422
▁ఆద	-2423
▁ూట	-2424
▁అసలు	-2425
▁ెట్ట	-2426
▁వాస	-2427
▁ిరీ	-2428
▁ేవారు	-2429
▁ీంక	-2430
▁s	-2431
▁సాయి	-2432
▁ବ	-2433
▁దాఖల	-2434
▁ఆస	-2435
▁పరిచ	-2436
▁ఎస్పీ	-2437
▁యాణ	-2438
▁అమర	-2439
▁ముఖ	-2440
▁ురా	-2441
▁ేటి	-2442
▁ోవడ	-2443
▁లేకప	-2444
▁ేందర్	-2445
▁మిక	-2446
▁ూడ	-2447
▁మెడ	-2448
▁రాం	-2449
▁లీడర్	-2450
▁ాలంలో	-2451
▁ସ	-2452
▁ైక్	-2453
ఖా	-2454
▁ీశ్	-2455
▁్రే	-2456
▁మద్య	-2457
▁د	-2458
▁విక	-2459
ఖాస	-2460
▁کی	-2461
▁పది	-2462
▁బడ్	-2463
▁్యాల	-2464
▁రణ్	-2465
▁ిరీస్	-2466
▁ాఠ	-2467
▁అమి	-2468
▁ంప్	-2469
▁కొండ	-2470
▁ేర	-2471
▁ఎంపిక	-2472
▁ితో	-2473
▁ీటిని	-2474
▁లహ	-2475
▁నాథ్	-2476
▁దరఖాస	-2477
▁ఈరో	-2478
▁బ్ల	-2479
▁హిత	-2480
▁ౌన్	-2481
▁సేకర	-2482
▁మెరుగ	-2483
▁ఐటీ	-2484
▁గౌడ	-2485
▁బడ్జె	-2486
▁ూనే	-2487
▁వేగం	-2488
▁మొదలు	-2489
▁ిణ	-2490
▁దిన	-2491
▁ారీ	-2492
▁మయ్య	-2493
▁ియేట	-2494
పం	-2495
▁ాహ్	-2496
మ్మం	-2497
▁ఖమ్మం	-2498
▁రక్షణ	-2499
▁ుణ	-2500
▁నిరు	-2501
▁గౌర	-2502
▁ంగార	-2503
▁ంచుక	-2504
▁ేర్ల	-2505
▁గ్జ	-2506
▁మైంది	-2507
▁ر	-2508
▁ాయింట	-2509
▁శ్రయ	-2510
▁ఈరోజు	-2511
▁చ్చని	-2512
▁నటించ	-2513
▁క్వ	-2514
▁జాత	-2515
ూల్	-2516
▁పట్టణ	-2517
▁్కూల్	-2518
▁ల్ప	-2519
▁స్య	-2520
▁ియో	-2521
▁ుక్	-2522
▁్కర్	-2523
▁ج	-2524
▁నిత	-2525
▁ఉపా	-2526
▁ిత్త	-2527
▁్రూప్	-2528
▁కాదని	-2529
▁కెప్ట	-2530
▁ార్ట్	-2531
రియ	-2532
▁ేట్	-2533
▁ీరియ	-2534
▁ీన	-2535
ra	-2536
▁ఎవ	-2537
▁میں	-2538
▁ఇంగ	-2539
▁ఇవా	-2540
▁ాక్స	-2541
▁ారుల	-2542
▁ందులు	-2543
▁ార్మ	-2544
▁బ్బ	-2545
▁వరి	-2546
▁శంక	-2547
▁శ్చ	-2548
▁ఉపాధ	-2549
▁వినీ	-2550
▁ఒకటి	-2551
▁కథ	-2552
▁ఇళ్ల	-2553
▁ఉమ్మ	-2554
▁ంప్రద	-2555
▁ఎకరాల	-2556
▁తయారు	-2557
▁్యూస్	-2558
▁ఈడీ	-2559
▁రెంట	-2560
▁ంశ	-2561
▁ాబ్	-2562
▁ఒప్ప	-2563
▁ిఫిక	-2564
▁షె	-2565
▁జ్య	-2566
▁ుద్ద	-2567
▁ౌన్స	-2568
▁విడ	-2569
▁ాబి	-2570
▁సేవల	-2571
▁చా	-2572
▁గాయ	-2573
▁దేహ	-2574
▁బర్	-2575
▁ిగ్ర	-2576
ీసు	-2577
▁లగ	-2578
▁ତ	-2579
▁నర	-2580
▁సియ	-2581
వేక	-2582
▁ారణ	-2583
▁వివేక	-2584
▁మూడో	-2585
▁లుపు	-2586
▁ల్స్	-2587
▁వినీత	-2588
▁మల	-2589
▁నుమాన	-2590
ీట	-2591
▁ీవ	-2592
▁సమీ	-2593
▁్పె	-2594
▁ల్లం	-2595
▁సైతం	-2596
▁ఆలోచన	-2597
▁ఇవాళ	-2598
▁ీచర్	-2599
▁బృ	-2600
▁గుంట	-2601
▁గమన	-2602
▁పతి	-2603
▁లిప	-2604
▁ందర్	-2605
▁ముంబై	-2606
▁ఎంద	-2607
షన	-2608
▁ారనే	-2609
▁మీటర్	-2610
▁ఉమ్మడ	-2611
పుణ	-2612
▁ర్జ	-2613
▁ఉండగా	-2614
▁నిపుణ	-2615
▁ఫైన	-2616
▁హెల	-2617
▁వంబర్	-2618
▁వార్డ	-2619
▁ీనామా	-2620
▁లియ	-2621
▁ఆయనకు	-2622
▁ఉన్నా	-2623
▁గస్టు	-2624
▁ಹ	-2625
▁డుత	-2626
▁ాన్స్	-2627
▁B	-2628
పొంద	-2629
▁ేలి	-2630
▁ఇంగ్ల	-2631
▁ాత్మక	-2632
▁ూపొంద	-2633
దుపు	-2634
▁చదు	-2635
▁వాల	-2636
▁ాకా	-2637
▁క్ట్	-2638
▁అదుపు	-2639
▁వర్షం	-2640
▁ಳ	-2641
రిప	-2642
▁అల	-2643
▁ప్త	-2644
▁జరిప	-2645
▁ేషన్ల	-2646
▁సబ్	-2647
▁ల్డ్	-2648
▁సాయం	-2649
▁ట్వీట	-2650
▁ఇండ	-2651
▁పట్ల	-2652
▁ీన్ని	-2653
లన	-2654
▁కనీస	-2655
▁ుచుక	-2656
▁య్	-2657
▁సభలో	-2658
▁్ధ	-2659
లుప	-2660
▁గెలుప	-2661
▁పెడుత	-2662
▁తాగ	-2663
▁్వర	-2664
▁ిషన్	-2665
▁జనవరి	-2666
▁అప	-2667
▁ఘన	-2668
▁ాబితా	-2669
▁నల్	-2670
▁ుమా	-2671
▁డ్రైవ	-2672
▁బెట్ట	-2673
▁్యంగా	-2674
▁తయ	-2675
▁ొంగ	-2676
▁i	-2677
▁ఫర	-2678
▁ొండ	-2679
▁సక్తి	-2680
▁సమీపం	-2681
▁నుభ	-2682
▁ితంగా	-2683
▁టాల	-2684
▁నీయ	-2685
▁తయార	-2686
▁సామా	-2687
▁ానం	-2688
▁ఆవ	-2689
▁ద్దు	-2690
▁వెనుక	-2691
▁దాన	-2692
▁ార్పొ	-2693
▁ాలేజీ	-2694
▁ఆస్	-2695
▁ఐపీ	-2696
▁సమా	-2697
▁ంబర్	-2698
▁ింటి	-2699
▁యాణిక	-2700
▁ిగ్రహ	-2701
▁ధీ	-2702
▁హిళ	-2703
▁ఎందుక	-2704
చిత	-2705
▁అడు	-2706
▁ఉచిత	-2707
▁ీత	-2708
▁ోట	-2709
వంట	-2710
▁టువంట	-2711
▁ెన్సీ	-2712
▁ఉద్య	-2713
▁నస	-2714
▁ంటి	-2715
▁ౌండ్	-2716
▁ఇద్దర	-2717
▁సామాజ	-2718
▁ాలపై	-2719
▁ిమి	-2720
▁ఆస్పత	-2721
▁ನ್	-2722
▁మంత్ర	-2723
▁ీడ	-2724
▁ీట్	-2725
▁ఉత	-2726
టం	-2727
▁ఉత్ప	-2728
▁ార్తల	-2729
▁ఎన్ట	-2730
▁పూర్త	-2731
నాల	-2732
▁ోయి	-2733
▁రణించ	-2734
▁నిమిష	-2735
▁ేక్షక	-2736
▁ాంగ్	-2737
▁ఉద్యమ	-2738
▁షే	-2739
▁గ్న	-2740
▁ెబ్	-2741
▁ప్తి	-2742
▁ిరుపత	-2743
▁ा	-2744
▁ాస్త	-2745
▁ూహ	-2746
▁19	-2747
▁దిర	-2748
▁్చి	-2749
▁40	-2750
▁రస	-2751
▁ెడ	-2752
▁ోన	-2753
▁గర్	-2754
▁బీఆర్	-2755
▁కోట	-2756
▁భవన	-2757
▁మంజ	-2758
▁వది	-2759
▁్బ	-2760
▁యువక	-2761
▁ుడిగా	-2762
▁ୁ	-2763
▁ెట	-2764
▁ూర్త	-2765
▁లేఖ	-2766
▁ైమ్	-2767
▁ఫ్ట్	-2768
ha	-2769
▁ళి	-2770
▁ముర	-2771
▁ీతా	-2772
▁ోహి	-2773
▁వసాయ	-2774
▁ుమ్మ	-2775
▁ైళ్ల	-2776
▁ఖాన్	-2777
▁అవసరమ	-2778
▁నిట	-2779
▁అయింద	-2780
▁యూనివ	-2781
▁్రమాణ	-2782
▁ఠా	-2783
▁క్కడే	-2784
▁వెస్ట	-2785
▁ేత	-2786
▁బండి	-2787
▁న్డ	-2788
▁ేసుక	-2789
▁సృష్ట	-2790
గిస	-2791
▁ఖీ	-2792
▁రం	-2793
▁ాటక	-2794
▁ముగిస	-2795
▁లంక	-2796
▁ష్ణ	-2797
▁సుల	-2798
▁ాక్ష	-2799
▁ేగ	-2800
▁వివాహ	-2801
▁ఎన్నో	-2802
▁వికె	-2803
▁ేని	-2804
▁అంశాల	-2805
▁్గురు	-2806
▁ఈవ	-2807
▁ేసి	-2808
▁మరిక	-2809
▁నాలుగ	-2810
▁వేత్త	-2811
▁ాహ్నం	-2812
▁సీజ	-2813
▁క్రిత	-2814
▁గౌరవ	-2815
▁చోట్ల	-2816
▁ర్వీస	-2817
▁ిత్	-2818
▁ద్దేశ	-2819
▁ప్పుల	-2820
▁్యాయం	-2821
▁M	-2822
భాగ	-2823
▁కస్ట	-2824
▁ముందే	-2825
▁యాదవ్	-2826
▁ేలియా	-2827
▁ందిర	-2828
▁వదిల	-2829
▁గ్రహం	-2830
▁ోటో	-2831
▁తనను	-2832
▁ೋ	-2833
▁బొ	-2834
▁ంతర	-2835
▁మహారా	-2836
▁సీబీఐ	-2837
▁దన	-2838
▁తుర	-2839
▁ఓటర్ల	-2840
▁గుండె	-2841
▁విభాగ	-2842
▁సంచలన	-2843
▁ారంట	-2844
▁డ్యూ	-2845
▁కారణమ	-2846
రుప	-2847
▁ఆధ్వర	-2848
▁సమర్ప	-2849
▁పరే	-2850
▁ందుల	-2851
▁ల్లా	-2852
▁స్టా	-2853
▁స్తు	-2854
▁ఆన	-2855
▁కారు	-2856
▁గ్ల	-2857
▁నర్స	-2858
▁ెడ్డి	-2859
▁ైడ్	-2860
▁గురి	-2861
▁ాండ్	-2862
▁ిప్ప	-2863
▁ాలనుక	-2864
▁ేణ	-2865
▁దాట	-2866
▁ారాల	-2867
▁చర	-2868
▁ಿದ	-2869
▁మోస	-2870
▁ాఫ్	-2871
▁ీమా	-2872
▁ఖాతా	-2873
▁ిడెంట	-2874
▁ఏంట	-2875
▁ఇచ్చే	-2876
▁తప్పు	-2877
▁హౌ	-2878
▁ఆనంద	-2879
▁ుట	-2880
▁ತ್	-2881
▁ఊర	-2882
▁ద్భ	-2883
▁మ్మక	-2884
▁్చుక	-2885
▁నాయుడ	-2886
▁ముద్ర	-2887
▁గద	-2888
▁శే	-2889
▁సంప	-2890
▁ఎవరు	-2891
▁ర్థం	-2892
▁సెంట	-2893
▁తెచ్చ	-2894
▁అమిత్	-2895
▁డ్డుక	-2896
▁ిణీ	-2897
▁ొద్	-2898
▁హిళలు	-2899
ఖర	-2900
▁శ్వ	-2901
▁ైతే	-2902
▁ొడవ	-2903
▁ాఠశాల	-2904
▁ారంభం	-2905
▁ారణాల	-2906
▁ోహిత్	-2907
కాల	-2908
గిల	-2909
▁మిగిల	-2910
▁ొద్ది	-2911
▁ల్క	-2912
▁ాకు	-2913
▁ాగా	-2914
▁సమాధ	-2915
▁విభ	-2916
▁ిపల్	-2917
▁సోద	-2918
▁ాఫీ	-2919
▁గొట్ట	-2920
▁శాస్త	-2921
▁లమ	-2922
▁బృంద	-2923
▁ాలంట	-2924
▁ుమారు	-2925
▁వాహన	-2926
▁నాల	-2927
▁ష్ట్ర	-2928
▁ాహనాల	-2929
▁వని	-2930
▁స్క	-2931
▁్తా	-2932
▁్రో	-2933
▁త్రి	-2934
▁నోటీస	-2935
▁పోత	-2936
▁వాయి	-2937
▁సంఘటన	-2938
▁అగ్ర	-2939
▁ిద్ర	-2940
▁పక్కన	-2941
షనర	-2942
▁ట్రో	-2943
▁మిషనర	-2944
▁దీప్	-2945
▁ఒత్తి	-2946
▁ట్టుక	-2947
▁ువు	-2948
▁స్నే	-2949
▁ొద్ద	-2950
▁లభించ	-2951
▁ోర్డు	-2952
▁పల	-2953
▁న్నై	-2954
▁సింహ	-2955
▁జు	-2956
▁ఏడు	-2957
▁భాష	-2958
▁్త్	-2959
▁ంగ్ల	-2960
▁సాద్	-2961
▁డిజ	-2962
▁21	-2963
▁రచ	-2964
▁కోహ	-2965
▁ధ్వ	-2966
▁అర్హ	-2967
▁ఆమోద	-2968
▁రికీ	-2969
▁మాటల	-2970
▁ావతి	-2971
▁స్థాన	-2972
▁చంప	-2973
▁రూప	-2974
▁మద్యం	-2975
▁సక	-2976
▁ొక	-2977
▁గూడ	-2978
▁దుల	-2979
▁షాప	-2980
▁కాన్	-2981
▁న్షన్	-2982
▁I	-2983
▁వరూ	-2984
▁యంత్ర	-2985
▁నుక	-2986
▁ుడ్	-2987
▁టిల్	-2988
▁శేఖర	-2989
▁ిరంగ	-2990
▁సీజన్	-2991
▁్రీన్	-2992
▁జేస	-2993
▁టర్	-2994
▁పున	-2995
▁ఇంజ	-2996
▁ెయ్య	-2997
▁ల్ట	-2998
▁ర్సి	-2999
▁లబ	-3000
▁ుతాయి	-3001
▁ెన	-3002
▁నిఫ	-3003
▁్రహ	-3004
▁గ్రే	-3005
▁ాయపడ	-3006
▁గిన	-3007
▁ెగా	-3008
▁ెల్ల	-3009
▁ాశ	-3010
▁సేవ	-3011
▁్యాంగ	-3012
▁మణి	-3013
▁ర్బ	-3014
▁ైస్	-3015
▁పడ్డ	-3016
▁రిణ	-3017
▁ామీల	-3018
▁మేక	-3019
▁రుత	-3020
▁మ్యా	-3021
▁్యాధ	-3022
▁ైర	-3023
▁నిప	-3024
▁జరుప	-3025
▁్టేట్	-3026
▁ఔ	-3027
▁డ్జ	-3028
▁N	-3029
▁گ	-3030
▁్మీ	-3031
▁శాంతి	-3032
▁ద్ర	-3033
▁ద్వ	-3034
▁గ్రా	-3035
▁ర్యా	-3036
▁డుస్త	-3037
▁చేప	-3038
▁ాంప	-3039
▁అడిగ	-3040
▁సిస్ట	-3041
▁లింగ	-3042
▁శంకర్	-3043
▁ార్డు	-3044
▁ౌర	-3045
▁క్రీ	-3046
▁ళా	-3047
▁ుకొ	-3048
▁క్కుల	-3049
▁వార్త	-3050
▁పర్యట	-3051
▁కడ	-3052
▁ుట్ట	-3053
▁అప్	-3054
▁ీలు	-3055
▁ొడు	-3056
▁కర్న	-3057
▁లియన్	-3058
▁పట	-3059
▁ోచ	-3060
▁ేల్	-3061
▁స్తుత	-3062
▁రింగ్	-3063
▁ోర్స్	-3064
▁టెడ్	-3065
▁ొడుకు	-3066
▁ోలీసు	-3067
▁ునర	-3068
▁మున	-3069
▁ంతకు	-3070
▁హన	-3071
▁మల్	-3072
▁ించడం	-3073
▁ిస్ట్	-3074
▁ఆగ	-3075
▁టరీ	-3076
▁ధీన	-3077
▁షేర్	-3078
▁మేం	-3079
▁రియ	-3080
▁ేటీ	-3081
▁ష్యా	-3082
▁ఎగ	-3083
▁ీక్	-3084
▁నామిన	-3085
▁నిన్న	-3086
▁ాణి	-3087
▁న్నా	-3088
▁ెయిన్	-3089
▁ఫిక్	-3090
▁ాదించ	-3091
▁ిపించ	-3092
▁రేట	-3093
▁రిలో	-3094
▁ాళీ	-3095
▁నెట్	-3096
▁సెల్	-3097
▁శ్చి	-3098
▁ుంటూ	-3099
▁రావడం	-3100
▁విప	-3101
▁ప్యా	-3102
▁ೇ	-3103
▁ాదన	-3104
▁ఖర	-3105
▁ినె	-3106
▁ూలు	-3107
▁ల్లె	-3108
▁వేసి	-3109
▁నన్న	-3110
▁ఖండ	-3111
▁గుడ	-3112
▁రైన	-3113
▁కూర్చ	-3114
▁ہے	-3115
▁రవి	-3116
▁సాగు	-3117
ణయ	-3118
మత	-3119
▁ర్ప	-3120
▁మ్ము	-3121
▁ిర్ణయ	-3122
ور	-3123
▁ମ	-3124
▁ంచర	-3125
▁జో	-3126
▁మాజ	-3127
▁ిరం	-3128
▁దేవి	-3129
▁టమ	-3130
▁బై	-3131
▁మౌ	-3132
▁దీప	-3133
▁ాయం	-3134
▁ిపోవ	-3135
▁న్నిక	-3136
▁రీం	-3137
▁కృష	-3138
▁వెన	-3139
▁్సరం	-3140
▁మొత్త	-3141
▁యాక్ట	-3142
▁ఫై	-3143
▁రన్	-3144
▁బ్రా	-3145
▁ెంగ	-3146
▁కేత	-3147
▁డాక	-3148
▁ణకు	-3149
▁పార	-3150
▁లిగ	-3151
▁్వాన	-3152
▁ెలి	-3153
▁్తవ	-3154
▁ణ్	-3155
▁ంతు	-3156
▁దాన్న	-3157
▁కులు	-3158
▁్యార	-3159
▁నిబంధ	-3160
▁నిచ్చ	-3161
▁స్త్ర	-3162
▁షో	-3163
▁చూసి	-3164
▁ంగ్లా	-3165
▁కింగ్	-3166
▁మత	-3167
▁నిక	-3168
▁సున	-3169
▁ఐపీఎ	-3170
▁కప్ప	-3171
▁కేసుల	-3172
▁పంట	-3173
▁కలిస	-3174
▁ెర్	-3175
▁ోంద	-3176
▁వ్వు	-3177
▁కోస	-3178
▁మిట	-3179
▁ముస	-3180
▁c	-3181
▁తని	-3182
▁రాత్ర	-3183
▁త్క	-3184
▁ీపీ	-3185
▁ేమ్	-3186
▁్మి	-3187
▁తోనే	-3188
▁ర్సిట	-3189
▁మర్	-3190
▁ంట్స్	-3191
▁రజ	-3192
▁ింత	-3193
▁ాటా	-3194
▁ుకొని	-3195
▁డ్రా	-3196
▁డ్ల	-3197
▁ీటు	-3198
▁ుట్	-3199
▁ఫైనల్	-3200
▁ంగుల	-3201
▁ుడిని	-3202
▁థకాల	-3203
▁ాద్ర	-3204
▁ుప్ప	-3205
▁ొస	-3206
▁దుక	-3207
▁మరణ	-3208
▁ితి	-3209
▁ప్పగ	-3210
▁ుకునే	-3211
▁ుస	-3212
▁ాస్ప	-3213
▁కాని	-3214
▁పాన్	-3215
▁ః	-3216
▁పం	-3217
▁శ్	-3218
▁డేట	-3219
▁ిద్దర	-3220
▁హబ	-3221
▁దిశ	-3222
▁లుక	-3223
▁సెట	-3224
▁క్కో	-3225
▁ట్లో	-3226
▁ియన్	-3227
▁లుప	-3228
▁ిపి	-3229
▁లిక్	-3230
▁ପ	-3231
▁ామా	-3232
▁యన్	-3233
▁్లాక	-3234
▁్రవర	-3235
▁ర్చల	-3236
▁లాగ	-3237
▁త్తున	-3238
▁హరి	-3239
▁ిజి	-3240
▁నట	-3241
▁మొదట	-3242
la	-3243
▁్రీవ	-3244
▁కార	-3245
▁ఒక్కర	-3246
▁ార్థి	-3247
▁్ఫ	-3248
▁టమి	-3249
▁అనుమత	-3250
▁డుగుల	-3251
▁28	-3252
▁వీల	-3253
▁బాద్	-3254
▁ాలిక	-3255
▁ట్టాల	-3256
▁ండ్ర	-3257
▁దాయం	-3258
▁ార్ల	-3259
▁్రెస్	-3260
▁ుర్	-3261
▁్టూ	-3262
▁వృద్ధ	-3263
▁దో	-3264
▁వణ	-3265
▁ివ్	-3266
▁ెస్టు	-3267
▁కేజ	-3268
▁ీకరణ	-3269
▁ోటి	-3270
▁రంగం	-3271
▁ాలా	-3272
▁చ్చుక	-3273
▁ఘా	-3274
▁కాయ	-3275
▁దివ	-3276
▁్సె	-3277
▁టగా	-3278
▁నిష	-3279
▁మాస్	-3280
▁23	-3281
▁థన	-3282
▁దుర్	-3283
▁్రిక్	-3284
▁ద్దీ	-3285
▁పరిమ	-3286
▁ోవడం	-3287
▁100	-3288
▁సాగుత	-3289
▁డింది	-3290
▁్లిక్	-3291
▁ాత	-3292
▁్వరలో	-3293
▁సేన	-3294
▁ర్క్	-3295
▁గీ	-3296
▁ూరి	-3297
▁क	-3298
▁ోస్	-3299
▁రళ	-3300
▁కాలు	-3301
▁ండియా	-3302
▁్లోకి	-3303
▁హిం	-3304
▁్యర్	-3305
▁మ్మి	-3306
▁మెర	-3307
▁సమయ	-3308
▁ేటు	-3309
▁తీయ	-3310
▁ుడే	-3311
▁ండర్	-3312
▁రాత్	-3313
▁వెన్	-3314
▁ణు	-3315
▁పదే	-3316
▁ఎప్ప	-3317
▁టాని	-3318
▁ాక్ట	-3319
▁ిడి	-3320
▁ిరి	-3321
▁ెప	-3322
▁ర్ద	-3323
▁క్ష్మ	-3324
▁టార్	-3325
▁అవి	-3326
▁ఫీస	-3327
▁ాంక	-3328
▁27	-3329
▁మెజ	-3330
▁ీకు	-3331
er	-3332
▁గోప	-3333
▁సిక	-3334
▁్రణ	-3335
▁ేజ	-3336
▁ేడి	-3337
▁ఆప	-3338
▁ఎడ	-3339
▁హణ	-3340
▁నల్ల	-3341
▁నుమతి	-3342
▁కంట	-3343
▁్రిట	-3344
▁వేత	-3345
▁సైన	-3346
▁ఇచ్చి	-3347
▁ల్వ	-3348
▁జెండ	-3349
▁తేడా	-3350
▁ోనా	-3351
▁ాల్గ	-3352
▁26	-3353
▁టన్	-3354
▁ులై	-3355
▁్రికి	-3356
▁యిన	-3357
▁ీకే	-3358
▁షల్	-3359
▁ఎదుర	-3360
▁కాంత	-3361
▁ాలతో	-3362
an	-3363
▁v	-3364
▁ఆయా	-3365
▁ప్ట	-3366
▁టీడీ	-3367
▁అద	-3368
▁ేబ	-3369
▁ీవీ	-3370
▁ఇవి	-3371
▁షనల్	-3372
▁ుందో	-3373
▁ెప్ప	-3374
▁ేసిన	-3375
▁నొ	-3376
▁ఇప్పట	-3377
▁రణం	-3378
▁ృత	-3379
▁ెహ	-3380
▁ఎండ	-3381
▁ాణాల	-3382
▁ూడె	-3383
▁ంచాయ	-3384
▁ికల	-3385
▁యాప్	-3386
▁సెక	-3387
▁G	-3388
▁తెర	-3389
▁ర్ట్	-3390
▁సత్య	-3391
▁ూస	-3392
▁్టి	-3393
▁అడ్	-3394
▁ప్రవ	-3395
▁వించ	-3396
▁ికర	-3397
▁ాళ్ల	-3398
▁జేశ	-3399
▁జల	-3400
▁ల్డ	-3401
▁స్పె	-3402
▁ుందా	-3403
ار	-3404
▁విత	-3405
▁ంటలు	-3406
▁اس	-3407
▁వహ	-3408
▁ులా	-3409
▁స్సు	-3410
▁యూట్	-3411
▁స్టీ	-3412
▁పర	-3413
▁ంగీ	-3414
▁ాగ్	-3415
▁్సు	-3416
▁అందరి	-3417
▁ెక్ట్	-3418
▁్యారె	-3419
▁వల్	-3420
▁బంగ	-3421
▁ఎలక్	-3422
▁ప్పి	-3423
▁ును	-3424
▁చల్	-3425
▁య్యి	-3426
▁సన్న	-3427
▁ాగు	-3428
▁్లై	-3429
▁ూడెం	-3430
▁ل	-3431
▁ೊ	-3432
▁ూక	-3433
▁తిక	-3434
▁ాతో	-3435
▁ోల్	-3436
▁అల్ల	-3437
▁ଲ	-3438
▁ೀ	-3439
▁నిమ	-3440
▁లవు	-3441
▁ికె	-3442
▁ుగుత	-3443
▁దేశం	-3444
▁పొడ	-3445
▁ల్గ	-3446
▁సత్	-3447
▁ాసం	-3448
▁ూట్	-3449
▁గల్	-3450
▁రేపు	-3451
▁అడుగు	-3452
▁ాజి	-3453
▁డాల	-3454
▁ింక	-3455
▁మీర్	-3456
▁పడి	-3457
▁లక్	-3458
▁లోప	-3459
▁K	-3460
▁ణి	-3461
▁్రెస	-3462
▁డవ	-3463
▁లర	-3464
▁ంటీ	-3465
▁ుబా	-3466
▁జీవి	-3467
▁ారిలో	-3468
▁షియ	-3469
▁ాగర్	-3470
▁్లాస	-3471
▁చర్	-3472
▁హక్	-3473
▁రిశ	-3474
▁చెక్	-3475
▁మంత	-3476
▁స్స	-3477
▁వెంట	-3478
▁ిమానా	-3479
▁్యాక్	-3480
▁వగా	-3481
▁కండ	-3482
▁దాం	-3483
▁ధర్	-3484
▁రేణ	-3485
▁గుల	-3486
▁టిస్త	-3487
▁పీఎస్	-3488
▁భిస్త	-3489
▁తాజా	-3490
▁్లిం	-3491
▁ారంభమ	-3492
▁ువన	-3493
▁పుల్	-3494
▁లిపి	-3495
▁ిద్ధ	-3496
▁ెట్ర	-3497
▁60	-3498
▁జమ	-3499
▁ాథ	-3500
▁ుధ	-3501
▁డల్	-3502
▁సిడ	-3503
▁ేటా	-3504
▁మిన	-3505
▁సమ్మ	-3506
▁కరించ	-3507
▁ందల	-3508
▁క్స	-3509
▁ీకి	-3510
▁کو	-3511
▁వడ	-3512
▁ర్భ	-3513
▁తుల	-3514
▁లివ	-3515
▁సత	-3516
▁లువ	-3517
▁టిక్	-3518
▁జయ	-3519
▁పోర్ట	-3520
▁ఇరు	-3521
▁పంచ	-3522
▁స్పీ	-3523
▁్వుల	-3524
▁హార్	-3525
▁ای	-3526
▁మామ	-3527
▁లిక	-3528
▁బంగార	-3529
▁ికా	-3530
▁ామాల	-3531
▁ుద్ర	-3532
▁రప	-3533
▁లవ	-3534
▁ికెట్	-3535
▁లుగ	-3536
▁ాశ్	-3537
▁ిగ్	-3538
▁మ్యూ	-3539
▁ెక్ష	-3540
▁ొబ	-3541
▁ండా	-3542
▁జనం	-3543
▁ఎంస	-3544
▁యాం	-3545
▁ీరు	-3546
▁పాల్	-3547
▁రికా	-3548
▁్యాయ	-3549
▁వరం	-3550
▁ుదల	-3551
▁డెంట్	-3552
▁ికులు	-3553
▁్వే	-3554
▁డివ	-3555
▁ేము	-3556
▁మన్న	-3557
▁టోర	-3558
▁ూన్	-3559
▁క్షే	-3560
▁ిద్ధం	-3561
▁్సెస్	-3562
▁ాజ్	-3563
▁ుణ్	-3564
▁ప్రమ	-3565
▁ాఖ్య	-3566
▁ెండ్	-3567
▁31	-3568
▁ధ్య	-3569
▁29	-3570
▁ీవో	-3571
▁కార్	-3572
▁స్క్	-3573
▁र	-3574
▁విల	-3575
▁కొన్న	-3576
▁ಜ	-3577
▁ఆట	-3578
▁నకు	-3579
▁ెండ	-3580
▁ోసం	-3581
▁ఇష్ట	-3582
▁ట్యా	-3583
▁ాల్గొ	-3584
▁ిస్ట	-3585
▁చర్యల	-3586
▁చోట	-3587
▁స్ల	-3588
▁తారు	-3589
▁ان	-3590
▁నమ	-3591
▁టూర	-3592
▁ియం	-3593
▁ిక్స	-3594
▁ర్హ	-3595
▁దుర	-3596
▁క్కి	-3597
▁్యాన్	-3598
ేస	-3599
▁్శ	-3600
▁నారా	-3601
▁ంటారు	-3602
on	-3603
ائ	-3604
▁پر	-3605
▁ంజ్	-3606
▁పోట	-3607
▁రస్	-3608
▁నెలకొ	-3609
▁ైట	-3610
▁ెట్రో	-3611
▁۔	-3612
▁p	-3613
▁సార్	-3614
▁ులుగా	-3615
▁r	-3616
▁ాంగ	-3617
▁ించగా	-3618
▁ోగ్ర	-3619
▁ికుల	-3620
▁ప్రాణ	-3621
▁గ్గు	-3622
▁యక్	-3623
▁ిగి	-3624
▁్తి	-3625
▁నిస	-3626
▁ీటర్ల	-3627
▁ోజ	-3628
▁కాశ	-3629
▁ాము	-3630
▁ెక్స	-3631
ar	-3632
▁ହ	-3633
▁క్షణ	-3634
▁డత	-3635
▁ంటల	-3636
▁ేదన	-3637
▁ర్యాల	-3638
▁సల	-3639
▁ందా	-3640
▁త్తా	-3641
▁నార్	-3642
▁్పుల	-3643
▁డిగ	-3644
▁గుడ్	-3645
▁ట్రోల	-3646
▁లిస్ట	-3647
▁హక్కు	-3648
▁ుతారు	-3649
▁ుగు	-3650
▁ఉండటం	-3651
▁ెస	-3652
▁బడి	-3653
▁ెంప	-3654
▁యాన్	-3655
▁యిత	-3656
▁బిల్	-3657
▁సర్వ	-3658
▁D	-3659
▁ీస	-3660
▁ుకుప	-3661
▁త్తుల	-3662
▁భయ	-3663
▁గ్స్	-3664
▁్టిస్	-3665
▁ేచ	-3666
▁కాస	-3667
▁నిన	-3668
▁యాలు	-3669
▁రిస	-3670
▁ైడ	-3671
▁ోబ	-3672
▁గ్గ	-3673
▁తుక	-3674
▁పిల	-3675
▁ఫార	-3676
▁నెట	-3677
▁త్రిక	-3678
▁کا	-3679
▁ాభా	-3680
▁ికీ	-3681
▁ుది	-3682
▁నప	-3683
▁కాక	-3684
▁నాని	-3685
▁జస	-3686
▁్నీ	-3687
▁రిటీ	-3688
▁త్తమ	-3689
▁్యాప్	-3690
▁ూప	-3691
▁తలు	-3692
▁పెడ	-3693
▁చంద	-3694
▁ల్యా	-3695
▁ಚ	-3696
▁డల	-3697
▁తార	-3698
▁వేర	-3699
▁రంగా	-3700
▁బే	-3701
▁లక	-3702
▁ంగు	-3703
▁రహా	-3704
▁ాటి	-3705
▁ప్రో	-3706
▁کر	-3707
▁పెన్	-3708
▁మ్స్	-3709
▁రగతి	-3710
▁ాజీ	-3711
▁రాన్	-3712
▁విష్	-3713
▁సద	-3714
▁శ్రా	-3715
▁జాన	-3716
▁రిచ	-3717
▁ూల్	-3718
▁ాటర్	-3719
▁తద	-3720
▁వాణ	-3721
▁డెన్	-3722
▁యలు	-3723
▁ేరే	-3724
▁ట్లే	-3725
▁పేర	-3726
▁హార	-3727
▁మాచార	-3728
▁కాల్	-3729
▁పాటి	-3730
▁వసర	-3731
▁రక్త	-3732
▁ୟ	-3733
▁⁭	-3734
▁మంద	-3735
▁పడిన	-3736
▁దార	-3737
▁మీర	-3738
▁సభల	-3739
▁ిష్కర	-3740
▁రఫ	-3741
▁ెండి	-3742
▁చ్చి	-3743
▁g	-3744
▁ీజ్	-3745
▁ళ్లు	-3746
▁ిల్స్	-3747
▁పాక్	-3748
▁వర్త	-3749
▁ీశ	-3750
▁కపోయ	-3751
▁ిత్య	-3752
▁విష్య	-3753
▁ిస్టు	-3754
▁దృ	-3755
▁నది	-3756
▁ోడు	-3757
▁వంద	-3758
▁ఫెస	-3759
▁రాక	-3760
▁్తీ	-3761
▁మాకు	-3762
▁ిద్ద	-3763
▁ొమ్మ	-3764
▁ైస	-3765
▁ిమ్	-3766
▁ులి	-3767
▁గాలి	-3768
▁ట్రీ	-3769
▁దూర	-3770
▁డితే	-3771
▁డుగు	-3772
▁వర్క	-3773
▁చదువు	-3774
▁m	-3775
▁ఓట	-3776
▁లాల	-3777
▁టాక్	-3778
▁తాయి	-3779
▁త్సవ	-3780
▁టల్	-3781
▁బియ	-3782
▁బంధు	-3783
▁డియన్	-3784
▁ಎ	-3785
▁కాళ	-3786
▁లుల	-3787
▁ింద్	-3788
▁ఇద	-3789
▁రాబ	-3790
▁బోయ	-3791
▁అంతర	-3792
▁ధి	-3793
▁ీణ	-3794
▁త్రాల	-3795
▁ెంబ	-3796
▁కమ	-3797
▁ెళ	-3798
▁క్స్	-3799
▁ాఖ్యల	-3800
▁పరా	-3801
▁ర్తీ	-3802
▁్యూజ	-3803
▁ిల్లీ	-3804
భావ	-3805
▁ైత	-3806
▁పుణ	-3807
▁రాట	-3808
▁ండింగ	-3809
▁న్నది	-3810
▁రవీ	-3811
▁ర్జీ	-3812
▁్రభావ	-3813
▁యల్	-3814
▁ువా	-3815
▁వెల్	-3816
▁ెటర్	-3817
▁ాణాలు	-3818
▁కొన	-3819
▁దక్	-3820
▁హ్మ	-3821
▁ాతి	-3822
▁ులపై	-3823
▁ుకుంద	-3824
▁k	-3825
▁్యుల	-3826
▁ధు	-3827
▁జిల	-3828
▁దల	-3829
▁్లె	-3830
▁రేజ	-3831
▁ేర్	-3832
▁ెలవ	-3833
▁పక	-3834
▁న్వ	-3835
▁అర్థ	-3836
▁ఆర్ఎ	-3837
▁ଦ	-3838
▁ివ	-3839
▁రీస	-3840
▁ల్లే	-3841
▁డిపోయ	-3842
▁కల్	-3843
▁రంట	-3844
▁ఛా	-3845
▁రాధ	-3846
▁ాలక	-3847
▁ేవు	-3848
▁్రదేశ	-3849
▁ీవ్	-3850
▁్యర్థ	-3851
▁ఇస	-3852
▁తక	-3853
▁కన్	-3854
▁గీత	-3855
▁కోల్	-3856
▁రిశీల	-3857
▁ీష	-3858
▁సుక	-3859
▁ఫా	-3860
▁చక్	-3861
▁మార్	-3862
▁ఎత్తు	-3863
▁V	-3864
▁డీఎ	-3865
▁రివ	-3866
ان	-3867
▁రిజ	-3868
▁ందర్భ	-3869
▁ఆసక్త	-3870
▁نے	-3871
▁ిషి	-3872
▁లేష	-3873
▁ాన్య	-3874
▁బోర్	-3875
▁ూసుక	-3876
▁దున	-3877
▁ేవార	-3878
یڈ	-3879
▁గజ	-3880
▁కెన	-3881
▁ాడి	-3882
▁బంత	-3883
▁ుకా	-3884
▁ిపాల	-3885
▁మాద	-3886
▁వెల	-3887
▁ిథ	-3888
▁ీట	-3889
▁ెం	-3890
▁ిపై	-3891
▁స్టార	-3892
▁లప	-3893
▁ముల	-3894
▁ోయే	-3895
యాల	-3896
▁డో	-3897
▁రోసా	-3898
▁ిషయాల	-3899
▁ش	-3900
▁ట్నం	-3901
▁త్యా	-3902
▁ాష	-3903
▁ేడ్	-3904
▁రులో	-3905
▁్లోనే	-3906
▁జడ	-3907
▁ేన	-3908
లిచి	-3909
▁రని	-3910
▁శ్య	-3911
▁్ధి	-3912
▁ూన	-3913
▁కొల	-3914
▁రిహ	-3915
▁ఆర్ట	-3916
▁ణం	-3917
▁గిత	-3918
▁ట్టడ	-3919
▁ుబాటు	-3920
▁ఏసీ	-3921
▁తడి	-3922
▁యపడ	-3923
▁ేరి	-3924
▁మాన్	-3925
▁ందే	-3926
▁డంలో	-3927
▁ానిక	-3928
▁డప	-3929
▁మక	-3930
▁ీఏ	-3931
▁అడ్డ	-3932
▁నేది	-3933
▁లుగా	-3934
▁ాకర్	-3935
▁ంబర	-3936
▁ఆశ్	-3937
▁ధార	-3938
▁సూర	-3939
▁ప్రశ	-3940
▁రమైన	-3941
▁లాల్	-3942
ال	-3943
▁బర	-3944
▁అటు	-3945
▁రిగా	-3946
▁ోజన	-3947
▁సంస్	-3948
▁కబ	-3949
▁ఫీసర్	-3950
▁ాత్రల	-3951
▁ర్స	-3952
▁ాలె	-3953
▁ితీ	-3954
▁న్నర	-3955
▁ୋ	-3956
▁ఏదో	-3957
▁దరి	-3958
▁ండగా	-3959
▁క్షం	-3960
▁ర్తి	-3961
▁స్తా	-3962
▁అడ	-3963
▁త్తం	-3964
▁నివార	-3965
▁ాపు	-3966
▁టివ్	-3967
▁ిగ్గ	-3968
▁ిగారు	-3969
▁ోయారు	-3970
▁అబ	-3971
▁ଇ	-3972
▁టెం	-3973
▁అశ	-3974
▁రొ	-3975
▁గ్గా	-3976
▁డిపి	-3977
▁ిత్ర	-3978
▁ಅ	-3979
▁ావర	-3980
▁ప్రీ	-3981
▁రారు	-3982
▁వహించ	-3983
▁ెన్న	-3984
▁ಶ	-3985
▁ాకర	-3986
▁ావు	-3987
▁ియర్	-3988
▁سے	-3989
▁మాల	-3990
▁లవా	-3991
▁ోక్	-3992
▁కలిగి	-3993
▁స్టే	-3994
▁ౌత	-3995
▁కుం	-3996
▁ిచ్	-3997
▁్శించ	-3998
▁e	-3999
▁न	-4000
▁్ద	-4001
▁వంతం	-4002
▁ారంలో	-4003
▁టవ	-4004
▁యజ	-4005
▁ాష్	-4006
▁ంటర్	-4007
▁#	-4008
▁అమల	-4009
▁్వి	-4010
▁ోర్స	-4011
▁్మాన	-4012
▁ికంగా	-4013
▁ଟ	-4014
▁యే	-4015
▁రాల	-4016
▁ీగా	-4017
▁పత	-4018
▁ుతు	-4019
▁ఎక్క	-4020
▁డింగ్	-4021
▁ీఎ	-4022
▁అల్	-4023
▁కరం	-4024
▁ీతం	-4025
▁ೂ	-4026
▁నాట	-4027
▁ిపక్ష	-4028
▁కట్	-4029
▁అనంత	-4030
▁ఆదాయ	-4031
▁ఇం	-4032
▁ైక	-4033
▁చార	-4034
▁యంత	-4035
▁ీఎం	-4036
▁ଏ	-4037
▁పుత	-4038
▁ానా	-4039
▁్యవ	-4040
▁హారం	-4041
▁ంక్	-4042
▁ిక్ష	-4043
▁ార్క్	-4044
▁్రేక్	-4045
▁ోలో	-4046
▁డాది	-4047
▁ల్ని	-4048
▁70	-4049
▁ర్డ్	-4050
▁రత	-4051
▁అంగ	-4052
▁ాయు	-4053
▁ాడ్	-4054
▁ాలయం	-4055
▁ొట్ట	-4056
▁కారుల	-4057
▁H	-4058
▁వంట	-4059
▁గ్రీ	-4060
▁వన	-4061
▁అధి	-4062
▁ివి	-4063
▁యిల్	-4064
▁ాన్స	-4065
▁్యూట	-4066
▁కలక	-4067
▁నిల్	-4068
▁పోవ	-4069
▁యన్న	-4070
▁యోగం	-4071
▁నగా	-4072
▁సంక	-4073
▁ఆర్డ	-4074
▁ీళ్ల	-4075
▁యటి	-4076
▁పార్ట	-4077
▁తూర	-4078
▁యాల	-4079
▁సాం	-4080
▁్ను	-4081
▁స్కూ	-4082
▁పౌ	-4083
▁షు	-4084
▁డిచ	-4085
▁పిల్ల	-4086
▁యింది	-4087
▁ైవ	-4088
▁ైకి	-4089
▁్పీ	-4090
▁ిధుల	-4091
▁వాట	-4092
▁న్నం	-4093
▁ితుల	-4094
▁నియర్	-4095
یو	-4096
▁పబ	-4097
▁రిల	-4098
▁ిరా	-4099
th	-4100
▁శని	-4101
▁లియా	-4102
▁వాడు	-4103
▁ంచు	-4104
▁లేట	-4105
▁ావా	-4106
▁ಆ	-4107
▁ೈ	-4108
▁ూత్	-4109
▁క్య	-4110
▁्	-4111
▁తామ	-4112
▁నీల	-4113
▁ముక	-4114
▁ోని	-4115
▁80	-4116
▁ుఖ	-4117
▁ండల	-4118
▁లెట్	-4119
▁సుప	-4120
▁న్యం	-4121
▁ైం	-4122
▁ొమ	-4123
▁పడే	-4124
▁ిహ	-4125
▁ట్స్	-4126
▁మించ	-4127
▁b	-4128
▁ಷ	-4129
▁ణ్య	-4130
▁లుత	-4131
▁పట్టు	-4132
▁L	-4133
▁గిల	-4134
▁ైంద	-4135
యక	-4136
▁ీప్	-4137
▁ంతి	-4138
▁విశ్	-4139
▁గే	-4140
▁రట	-4141
▁ాయమ	-4142
▁ూబ్	-4143
▁ార్యక	-4144
▁ెమ	-4145
▁ెట్టి	-4146
▁సగ	-4147
▁ుపుత	-4148
▁ెల్లడ	-4149
▁తృ	-4150
▁తరుల	-4151
▁జామ	-4152
▁ారే	-4153
▁కాలన	-4154
▁నాన్	-4155
▁వ్యూ	-4156
▁్రస్త	-4157
▁E	-4158
▁کہ	-4159
▁చివ	-4160
▁ోలే	-4161
▁ాభ	-4162
▁ుపా	-4163
▁ెట్ల	-4164
▁ైద	-4165
▁రిత	-4166
▁పన్న	-4167
▁ొత్తగ	-4168
▁లూ	-4169
▁మెట	-4170
▁ଣ	-4171
▁ఎన	-4172
▁జమాన	-4173
▁ావించ	-4174
▁రీత	-4175
▁రెడ్	-4176
▁।	-4177
▁లాప	-4178
▁ేపు	-4179
▁వాలంట	-4180
▁35	-4181
▁పట్	-4182
▁చదువ	-4183
▁నెల్	-4184
▁సవ	-4185
▁త్తల	-4186
▁్యాట	-4187
▁త్తగా	-4188
ئی	-4189
▁ీప	-4190
▁ాయిల	-4191
▁దుప	-4192
▁జార్	-4193
▁దన్న	-4194
▁క్త	-4195
▁మూల	-4196
▁అవిన	-4197
▁ప్రె	-4198
▁ార్డ్	-4199
▁సరా	-4200
▁ారిన	-4201
▁గతం	-4202
▁బాగ	-4203
▁ినే	-4204
de	-4205
▁ంత్	-4206
▁బ్రి	-4207
▁ଥ	-4208
▁భర	-4209
▁200	-4210
▁లోన	-4211
▁ఎవరి	-4212
▁రుపు	-4213
▁స్మా	-4214
▁ిండి	-4215
▁ృతి	-4216
▁నుంద	-4217
▁్వాల	-4218
▁గన్	-4219
▁ులే	-4220
▁లింగ్	-4221
▁ీసీసీ	-4222
▁ెలిచి	-4223
▁పణ	-4224
▁ఏమీ	-4225
▁ుతో	-4226
▁ుమతి	-4227
▁గంగ	-4228
▁ింగ	-4229
▁యంగా	-4230
▁రిస్	-4231
▁రుస్త	-4232
▁ہو	-4233
▁ణన	-4234
▁ట్టల	-4235
▁చెన్న	-4236
ూప	-4237
▁ోం	-4238
▁రాహ	-4239
▁లాగే	-4240
▁ోస	-4241
▁మావ	-4242
▁పిల్	-4243
▁ಣ	-4244
▁اور	-4245
▁సిర	-4246
▁ెళ్త	-4247
▁లాండ్	-4248
▁ీలోని	-4249
ెన	-4250
▁45	-4251
▁ఓప	-4252
▁సన	-4253
▁ోళ	-4254
▁ందం	-4255
▁దుబ	-4256
▁మరీ	-4257
▁ేణు	-4258
▁్వల	-4259
▁క్కా	-4260
▁దులు	-4261
▁రుచ	-4262
▁్టీ	-4263
▁ఓపెన	-4264
▁ంజన	-4265
▁వరణ	-4266
▁చేయడ	-4267
▁శారు	-4268
▁ులుగ	-4269
▁గ్రూప	-4270
▁ెల్లి	-4271
▁దర్	-4272
▁భాస	-4273
▁పాడ	-4274
▁సాహ	-4275
▁ితం	-4276
▁ేవి	-4277
▁పంలో	-4278
▁J	-4279
▁నీట	-4280
▁హర్	-4281
▁ాఖల	-4282
▁ాదం	-4283
▁े	-4284
▁షీ	-4285
▁లన్న	-4286
▁శాల	-4287
▁్ట్	-4288
▁్వక	-4289
▁ాస్క	-4290
▁ిగిప	-4291
ea	-4292
▁ہے۔	-4293
▁్పా	-4294
▁ٹ	-4295
▁ಧ	-4296
▁in	-4297
▁ఏడ	-4298
▁డగ	-4299
▁పట్న	-4300
▁ଛ	-4301
▁శాత	-4302
▁క్రె	-4303
▁ప్రచ	-4304
▁ుభ	-4305
▁రుక	-4306
▁కెట్	-4307
▁క్వా	-4308
▁్రీల	-4309
▁రద	-4310
▁మాయ	-4311
▁రార	-4312
▁వాన	-4313
▁సాల	-4314
▁వాన్	-4315
▁ిసే	-4316
▁ోపి	-4317
▁్రసా	-4318
in	-4319
▁వత	-4320
▁పాఠ	-4321
▁మూర	-4322
▁ీతి	-4323
▁థా	-4324
▁మధ	-4325
▁ఇంద	-4326
▁ଭ	-4327
▁యె	-4328
▁భవి	-4329
▁పాలు	-4330
▁్రసాద	-4331
▁کیا	-4332
▁కిన	-4333
▁ణాలు	-4334
▁తీసి	-4335
▁ికే	-4336
▁్యత్	-4337
▁మాండ్	-4338
▁హ్	-4339
▁కోడ	-4340
▁ట్టే	-4341
▁భవిష	-4342
▁ిమాండ	-4343
▁డార	-4344
▁ంగానే	-4345
▁మార్క	-4346
▁ొట్టి	-4347
▁U	-4348
▁90	-4349
▁ూడి	-4350
▁ప్రెస	-4351
▁ెలుసు	-4352
▁l	-4353
▁ఆస్త	-4354
▁ుబడి	-4355
▁ుపర	-4356
▁ేసే	-4357
▁తిరిగ	-4358
▁ండీ	-4359
▁కుంటే	-4360
▁ఏట	-4361
▁	-4362
్	-4363
ి	-4364
ా	-4365
ు	-4366
ర	-4367
న	-4368
ల	-4369
ం	-4370
క	-4371
ప	-4372
త	-4373
స	-4374
వ	-4375
ద	-4376
ట	-4377
ో	-4378
మ	-4379
ే	-4380
య	-4381
చ	-4382
డ	-4383
ీ	-4384
గ	-4385
.	-4386
ె	-4387
అ	-4388
జ	-4389
బ	-4390
ూ	-4391
,	-4392
శ	-4393
ష	-4394
ై	-4395
ఆ	-4396
హ	-4397
ధ	-4398
ఎ	-4399
భ	-4400
ొ	-4401
ఇ	-4402
ఉ	-4403
ణ	-4404
ళ	-4405
ఫ	-4406
ఈ	-4407
థ	-4408
0	-4409
2	-4410
1	-4411
ఏ	-4412
ఖ	-4413
"	-4414
ఒ	-4415
ృ	-4416
5	-4417
3	-4418
4	-4419
:	-4420
ౌ	-4421
ఓ	-4422
)	-4423
ఐ	-4424
(	-4425
9	-4426
-	-4427
6	-4428
8	-4429
7	-4430
ఘ	-4431
ی	-4432
ا	-4433
a	-4434
?	-4435
್	-4436
ಿ	-4437
ک	-4438
و	-4439
ر	-4440
e	-4441
i	-4442
ఢ	-4443
n	-4444
ے	-4445
ن	-4446
ఛ	-4447
ఠ	-4448
ہ	-4449
r	-4450
ು	-4451
ರ	-4452
ದ	-4453
م	-4454
ಾ	-4455
'	-4456
t	-4457
ನ	-4458
o	-4459
ಲ	-4460
s	-4461
س	-4462
!	-4463
ل	-4464
h	-4465
l	-4466
ି	-4467
A	-4468
ವ	-4469
ఊ	-4470
ت	-4471
ା	-4472
S	-4473
ೆ	-4474
ର	-4475
୍	-4476
d	-4477
ತ	-4478
ಕ	-4479
u	-4480
⁬	-4481
ಯ	-4482
R	-4483
ಸ	-4484
C	-4485
د	-4486
ಗ	-4487
ب	-4488
ں	-4489
P	-4490
ಂ	-4491
m	-4492
پ	-4493
I	-4494
T	-4495
ಮ	-4496
c	-4497
/	-4498
ಡ	-4499
େ	-4500
କ	-4501
ఞ	-4502
M	-4503
g	-4504
ئ	-4505
D	-4506
B	-4507
p	-4508
گ	-4509
ج	-4510
ھ	-4511
y	-4512
ନ	-4513
ٹ	-4514
v	-4515
N	-4516
ಬ	-4517
‍	-4518
k	-4519
ବ	-4520
ಪ	-4521
E	-4522
L	-4523
ा	-4524
ش	-4525
ಟ	-4526
ସ	-4527
O	-4528
w	-4529
ତ	-4530
G	-4531
۔	-4532
ಹ	-4533
ୁ	-4534
ڈ	-4535
ಳ	-4536
ع	-4537
b	-4538
ೋ	-4539
ମ	-4540
ପ	-4541
ೇ	-4542
ఔ	-4543
K	-4544
ః	-4545
V	-4546
ଲ	-4547
क	-4548
र	-4549
ହ	-4550
ف	-4551
े	-4552
H	-4553
ೊ	-4554
ق	-4555
ೀ	-4556
F	-4557
ಜ	-4558
چ	-4559
ୟ	-4560
ಚ	-4561
ز	-4562
ଇ	-4563
⁭	-4564
j	-4565
ح	-4566
ଦ	-4567
U	-4568
ୋ	-4569
ಎ	-4570
ଟ	-4571
J	-4572
%	-4573
न	-4574
ೂ	-4575
ص	-4576
ಶ	-4577
ଏ	-4578
ಅ	-4579
#	-4580
ी	-4581
ଣ	-4582
ೈ	-4583
।	-4584
ಆ	-4585
ह	-4586
्	-4587
ଥ	-4588
ಷ	-4589
ଭ	-4590
خ	-4591
ଡ	-4592
W	-4593
ि	-4594
،	-4595
ं	-4596
ಣ	-4597
ଛ	-4598
स	-4599
ଜ	-4600
ಧ	-4601
f	-4602
म	-4603
Y	-4604
آ	-4605
;	-4606
ط	-4607
ଯ	-4608
ଆ	-4609
ल	-4610
X	-4611
ो	-4612
त	-4613
ଉ	-4614
ఝ	-4615
ಇ	-4616
ଗ	-4617
ଅ	-4618
प	-4619
य	-4620
ಭ	-4621
ୀ	-4622
*	-4623
ڑ	-4624
द	-4625
ଳ	-4626
ଖ	-4627
ଧ	-4628
ଙ	-4629
ग	-4630
ଚ	-4631
ब	-4632
ଷ	-4633
ಖ	-4634
ज	-4635
ଶ	-4636
ಫ	-4637
व	-4638
ౖ	-4639
+	-4640
ଓ	-4641
ض	-4642
ಈ	-4643
x	-4644
ଁ	-4645
>	-4646
ଫ	-4647
ु	-4648
ٰ	-4649
ै	-4650
&	-4651
@	-4652
غ	-4653
ظ	-4654
ಥ	-4655
ଂ	-4656
ذ	-4657
च	-4658
भ	-4659
ट	-4660
ೃ	-4661
‭	-4662
अ	-4663
`	-4664
श	-4665
ए	-4666
Z	-4667
ಉ	-4668
Q	-4669
ड	-4670
z	-4671
ू	-4672
୨	-4673
്	-4674
➦	-4675
଼	-4676
ୂ	-4677
़	-4678
்	-4679
_	-4680
☛	-4681
q	-4682
आ	-4683
ଘ	-4684
ख	-4685
ध	-4686
ୱ	-4687
ୌ	-4688
ଠ	-4689
ʼ	-4690
ಒ	-4691
फ	-4692
୦	-4693
ؤ	-4694
थ	-4695
=	-4696
ث	-4697
औ	-4698
୧	-4699
ക	-4700
ୃ	-4701
इ	-4702
ٓ	-4703
ଞ	-4704
ி	-4705
ി	-4706
₹	-4707
ई	-4708
ष	-4709
•	-4710
த	-4711
[	-4712
]	-4713
­	-4714
ఙ	-4715
ಏ	-4716
⁪	-4717
ఋ	-4718
ಐ	-4719
ಘ	-4720
उ	-4721
ೌ	-4722
‪	-4723
க	-4724
ِ	-4725
ण	-4726
ப	-4727
ന	-4728
°	-4729
୪	-4730
া	-4731
യ	-4732
छ	-4733
ம	-4734
ு	-4735
ಠ	-4736
ു	-4737
ओ	-4738
ட	-4739
പ	-4740
$	-4741
ি	-4742
ാ	-4743
ठ	-4744
ఱ	-4745
౦	-4746
ಓ	-4747
घ	-4748
ଵ	-4749
୫	-4750
ട	-4751
র	-4752
্	-4753
ത	-4754
ক	-4755
ୈ	-4756
୩	-4757
ர	-4758
ல	-4759
வ	-4760
‐	-4761
୮	-4762
ற	-4763
ಊ	-4764
झ	-4765
୬	-4766
ள	-4767
ா	-4768
ല	-4769
വ	-4770
െ	-4771
ढ	-4772
ব	-4773
ଝ	-4774
ಞ	-4775
ണ	-4776
●	-4777
َ	-4778
ন	-4779
ম	-4780
୭	-4781
୯	-4782
ച	-4783
ഷ	-4784
⁠	-4785
ي	-4786
ऐ	-4787
ॉ	-4788
ে	-4789
ଢ	-4790
ോ	-4791
؟	-4792
ল	-4793
ু	-4794
ச	-4795
ய	-4796
അ	-4797
റ	-4798
►	-4799
ژ	-4800
ە	-4801
ृ	-4802
ौ	-4803
॥	-4804
ত	-4805
ৰ	-4806
ந	-4807
ன	-4808
ை	-4809
മ	-4810
ര	-4811
സ	-4812
‒	-4813
ء	-4814
প	-4815
য	-4816
ো	-4817
ெ	-4818
ങ	-4819
ഡ	-4820
ൽ	-4821
′	-4822
◉	-4823
♦	-4824
🇮	-4825
জ	-4826
স	-4827
ಛ	-4828
ಢ	-4829
ജ	-4830
ള	-4831
ർ	-4832
★	-4833
❌	-4834
🇳	-4835
়	-4836
எ	-4837
ோ	-4838
ീ	-4839
😂	-4840
🚩	-4841
\	-4842
đ	-4843
ه	-4844
ّ	-4845
ञ	-4846
এ	-4847
ও	-4848
ধ	-4849
அ	-4850
ங	-4851
ொ	-4852
౩	-4853
ം	-4854
എ	-4855
ധ	-4856
ൂ	-4857
ൗ	-4858
ൾ	-4859
~	-4860
·	-4861
×	-4862
ư	-4863
ُ	-4864
ँ	-4865
ऊ	-4866
ऑ	-4867
०	-4868
ট	-4869
ড	-4870
দ	-4871
ফ	-4872
হ	-4873
ଃ	-4874
ଈ	-4875
ண	-4876
ீ	-4877
ಃ	-4878
ಝ	-4879
⁄	-4880
⃣	-4881
⦁	-4882
️	-4883
💪	-4884
🔥	-4885
🙏	-4886
â	-4887
ơ	-4888
أ	-4889
ً	-4890
ڕ	-4891
ः	-4892
२	-4893
অ	-4894
গ	-4895
চ	-4896
ভ	-4897
শ	-4898
ী	-4899
ৱ	-4900
ஏ	-4901
ஜ	-4902
ூ	-4903
ఁ	-4904
౧	-4905
౹	-4906
ಔ	-4907
ഈ	-4908
ഭ	-4909
ശ	-4910
ൃ	-4911
േ	-4912
ൊ	-4913
ൻ	-4914
ố	-4915
⁫	-4916
⁯	-4917
◆	-4918
👉	-4919
👌	-4920
💚	-4921
😡	-4922
<	-4923
£	-4924
©	-4925
Á	-4926
æ	-4927
́	-4928
α	-4929
β	-4930
؛	-4931
إ	-4932
ى	-4933
ڵ	-4934
ۆ	-4935
ێ	-4936
४	-4937
ঃ	-4938
আ	-4939
ৈ	-4940
ஆ	-4941
இ	-4942
உ	-4943
ஊ	-4944
ஸ	-4945
ே	-4946
ఽ	-4947
ౄ	-4948
౪	-4949
౬	-4950
ആ	-4951
ഇ	-4952
ഒ	-4953
ഗ	-4954
ദ	-4955
ബ	-4956
ഴ	-4957
ൈ	-4958
ả	-4959
ầ	-4960
ậ	-4961
ệ	-4962
ớ	-4963
ờ	-4964
ở	-4965
ợ	-4966
ứ	-4967
‫	-4968
‬	-4969
€	-4970
∙	-4971
≠	-4972
▪	-4973
♥	-4974
✳	-4975
➡	-4976
🇪	-4977
🇬	-4978
🌹	-4979
🏼	-4980
👇	-4981
👊	-4982
👋	-4983
💐	-4984
💥	-4985
🔴	-4986
🔸	-4987
🔹	-4988
😉	-4989
😊	-4990
😜	-4991
😞	-4992
😠	-4993
😥	-4994
🙂	-4995
🤜	-4996
