[UNK]	0
[CLS]	1
[SEP]	2
[PAD]	3
[MASK]	4
!	5
"	6
#	7
$	8
%	9
&	10
'	11
(	12
)	13
*	14
+	15
,	16
-	17
.	18
/	19
0	20
1	21
2	22
3	23
4	24
5	25
6	26
7	27
8	28
9	29
:	30
;	31
<	32
=	33
>	34
?	35
@	36
[	37
\	38
]	39
_	40
`	41
a	42
b	43
c	44
d	45
e	46
f	47
g	48
h	49
i	50
j	51
k	52
l	53
m	54
n	55
o	56
p	57
q	58
r	59
s	60
t	61
u	62
v	63
w	64
x	65
y	66
z	67
~	68
£	69
©	70
­	71
°	72
·	73
×	74
á	75
â	76
æ	77
đ	78
ơ	79
ư	80
ʼ	81
́	82
α	83
β	84
،	85
؛	86
؟	87
ء	88
آ	89
أ	90
ؤ	91
إ	92
ئ	93
ا	94
ب	95
ت	96
ث	97
ج	98
ح	99
خ	100
د	101
ذ	102
ر	103
ز	104
س	105
ش	106
ص	107
ض	108
ط	109
ظ	110
ع	111
غ	112
ف	113
ق	114
ل	115
م	116
ن	117
ه	118
و	119
ى	120
ي	121
ً	122
َ	123
ُ	124
ِ	125
ّ	126
ٰ	127
ٹ	128
پ	129
چ	130
ڈ	131
ڑ	132
ڕ	133
ژ	134
ک	135
گ	136
ڵ	137
ں	138
ھ	139
ہ	140
ۆ	141
ی	142
ێ	143
ے	144
۔	145
ە	146
ँ	147
ं	148
ः	149
अ	150
आ	151
इ	152
ई	153
उ	154
ऊ	155
ए	156
ऐ	157
ऑ	158
ओ	159
औ	160
क	161
ख	162
ग	163
घ	164
च	165
छ	166
ज	167
झ	168
ञ	169
ट	170
ठ	171
ड	172
ढ	173
ण	174
त	175
थ	176
द	177
ध	178
न	179
प	180
फ	181
ब	182
भ	183
म	184
य	185
र	186
ल	187
व	188
श	189
ष	190
स	191
ह	192
़	193
ा	194
ि	195
ी	196
ु	197
ू	198
ृ	199
े	200
ै	201
ॉ	202
ो	203
ौ	204
्	205
।	206
॥	207
०	208
२	209
४	210
ঃ	211
অ	212
আ	213
এ	214
ও	215
ক	216
গ	217
চ	218
জ	219
ট	220
ড	221
ত	222
দ	223
ধ	224
ন	225
প	226
ফ	227
ব	228
ভ	229
ম	230
য	231
র	232
ল	233
শ	234
স	235
হ	236
়	237
া	238
ি	239
ী	240
ু	241
ে	242
ৈ	243
ো	244
্	245
ৰ	246
ৱ	247
ଁ	248
ଂ	249
ଃ	250
ଅ	251
ଆ	252
ଇ	253
ଈ	254
ଉ	255
ଏ	256
ଓ	257
କ	258
ଖ	259
ଗ	260
ଘ	261
ଙ	262
ଚ	263
ଛ	264
ଜ	265
ଝ	266
ଞ	267
ଟ	268
ଠ	269
ଡ	270
ଢ	271
ଣ	272
ତ	273
ଥ	274
ଦ	275
ଧ	276
ନ	277
ପ	278
ଫ	279
ବ	280
ଭ	281
ମ	282
ଯ	283
ର	284
ଲ	285
ଳ	286
ଵ	287
ଶ	288
ଷ	289
ସ	290
ହ	291
଼	292
ା	293
ି	294
ୀ	295
ୁ	296
ୂ	297
ୃ	298
େ	299
ୈ	300
ୋ	301
ୌ	302
୍	303
ୟ	304
୦	305
୧	306
୨	307
୩	308
୪	309
୫	310
୬	311
୭	312
୮	313
୯	314
ୱ	315
அ	316
ஆ	317
இ	318
உ	319
ஊ	320
எ	321
ஏ	322
க	323
ங	324
ச	325
ஜ	326
ட	327
ண	328
த	329
ந	330
ன	331
ப	332
ம	333
ய	334
ர	335
ற	336
ல	337
ள	338
வ	339
ஸ	340
ா	341
ி	342
ீ	343
ு	344
ூ	345
ெ	346
ே	347
ை	348
ொ	349
ோ	350
்	351
ఁ	352
ం	353
ః	354
అ	355
ఆ	356
ఇ	357
ఈ	358
ఉ	359
ఊ	360
ఋ	361
ఎ	362
ఏ	363
ఐ	364
ఒ	365
ఓ	366
ఔ	367
క	368
ఖ	369
గ	370
ఘ	371
ఙ	372
చ	373
ఛ	374
జ	375
ఝ	376
ఞ	377
ట	378
ఠ	379
డ	380
ఢ	381
ణ	382
త	383
థ	384
ద	385
ధ	386
న	387
ప	388
ఫ	389
బ	390
భ	391
మ	392
య	393
ర	394
ఱ	395
ల	396
ళ	397
వ	398
శ	399
ష	400
స	401
హ	402
ఽ	403
ా	404
ి	405
ీ	406
ు	407
ూ	408
ృ	409
ౄ	410
ె	411
ే	412
ై	413
ొ	414
ో	415
ౌ	416
్	417
ౖ	418
౦	419
౧	420
౩	421
౪	422
౬	423
౹	424
ಂ	425
ಃ	426
ಅ	427
ಆ	428
ಇ	429
ಈ	430
ಉ	431
ಊ	432
ಎ	433
ಏ	434
ಐ	435
ಒ	436
ಓ	437
ಔ	438
ಕ	439
ಖ	440
ಗ	441
ಘ	442
ಚ	443
ಛ	444
ಜ	445
ಝ	446
ಞ	447
ಟ	448
ಠ	449
ಡ	450
ಢ	451
ಣ	452
ತ	453
ಥ	454
ದ	455
ಧ	456
ನ	457
ಪ	458
ಫ	459
ಬ	460
ಭ	461
ಮ	462
ಯ	463
ರ	464
ಲ	465
ಳ	466
ವ	467
ಶ	468
ಷ	469
ಸ	470
ಹ	471
ಾ	472
ಿ	473
ೀ	474
ು	475
ೂ	476
ೃ	477
ೆ	478
ೇ	479
ೈ	480
ೊ	481
ೋ	482
ೌ	483
್	484
ം	485
അ	486
ആ	487
ഇ	488
ഈ	489
എ	490
ഒ	491
ക	492
ഗ	493
ങ	494
ച	495
ജ	496
ട	497
ഡ	498
ണ	499
ത	500
ദ	501
ധ	502
ന	503
പ	504
ബ	505
ഭ	506
മ	507
യ	508
ര	509
റ	510
ല	511
ള	512
ഴ	513
വ	514
ശ	515
ഷ	516
സ	517
ാ	518
ി	519
ീ	520
ു	521
ൂ	522
ൃ	523
െ	524
േ	525
ൈ	526
ൊ	527
ോ	528
്	529
ൗ	530
ൻ	531
ർ	532
ൽ	533
ൾ	534
ả	535
ầ	536
ậ	537
ệ	538
ố	539
ớ	540
ờ	541
ở	542
ợ	543
ứ	544
‌	545
‍	546
‎	547
‏	548
‐	549
‒	550
•	551
‪	552
‫	553
‬	554
‭	555
′	556
⁄	557
⁠	558
⁪	559
⁫	560
⁬	561
⁭	562
⁯	563
€	564
₹	565
⃣	566
∙	567
≠	568
▪	569
►	570
◆	571
◉	572
●	573
★	574
☛	575
♥	576
♦	577
✳	578
❌	579
➡	580
➦	581
⦁	582
️	583
🇪	584
🇬	585
🇮	586
🇳	587
🌹	588
🏼	589
👇	590
👉	591
👊	592
👋	593
👌	594
💐	595
💚	596
💥	597
💪	598
🔥	599
🔴	600
🔸	601
🔹	602
😂	603
😉	604
😊	605
😜	606
😞	607
😠	608
😡	609
😥	610
🙂	611
🙏	612
🚩	613
🤜	614
🤭	615
##ర	616
##ి	617
##య	618
##ా	619
##న	620
##ల	621
##ో	622
##ం	623
##ధ	624
##ే	625
##ీ	626
##గ	627
##ట	628
##్	629
##ు	630
##క	631
##‌	632
##భ	633
##ప	634
##స	635
##త	636
##బ	637
##ై	638
##ఎ	639
##వ	640
##ద	641
##ె	642
##డ	643
##ఖ	644
##జ	645
##మ	646
##చ	647
##ಗ	648
##ರ	649
##i	650
##r	651
##e	652
##w	653
##o	654
##k	655
##s	656
##ూ	657
##హ	658
##ష	659
##غ	660
##ر	661
##ب	662
##h	663
##n	664
##శ	665
##ణ	666
##థ	667
##m	668
##a	669
##l	670
##j	671
##c	672
##t	673
##ఈ	674
##ొ	675
##v	676
##p	677
##3	678
##8	679
##0	680
##ఛ	681
##ౌ	682
##ی	683
##ا	684
##ح	685
##و	686
##ں	687
##ఫ	688
##ୋ	689
##ଟ	690
##ର	691
##ମ	692
##ା	693
##ନ	694
##ଙ	695
##୍	696
##କ	697
##ୁ	698
##ఘ	699
##ೂ	700
##ಪ	701
##ಿ	702
##ಸ	703
##ದ	704
##್	705
##ఏ	706
##ಾ	707
##ಹ	708
##ತ	709
##ಯ	710
##ళ	711
##ೆ	712
##ು	713
##ఉ	714
##7	715
##y	716
##d	717
##ృ	718
##5	719
##1	720
##‍	721
##9	722
##2	723
##u	724
##ಲ	725
##ఠ	726
##ق	727
##ع	728
##ہ	729
##ा	730
##ब	731
##ఐ	732
##ಮ	733
##;	734
##ن	735
##श	736
##ो	737
##क	738
##4	739
##ಟ	740
##ಂ	741
##ಬ	742
##.	743
##:	744
##f	745
##ئ	746
##ೊ	747
##ھ	748
##س	749
##ಡ	750
##6	751
##ط	752
##g	753
##x	754
##ଇ	755
##ೀ	756
##ٹ	757
##ک	758
##ನ	759
##گ	760
##ت	761
##م	762
##ل	763
##ವ	764
##ଦ	765
##ଥ	766
##ಕ	767
##ಆ	768
##ಠ	769
##ಚ	770
##ಜ	771
##ଚ	772
##ି	773
##ଛ	774
##ତ	775
##د	776
##ಳ	777
##ڈ	778
##ସ	779
##ଧ	780
##େ	781
##ج	782
##అ	783
##ಶ	784
##ص	785
##ఆ	786
##ఓ	787
##ग	788
##त	789
##ପ	790
##स	791
##ఢ	792
##چ	793
##ః	794
##ఞ	795
##ि	796
##ं	797
##र	798
##b	799
##ఱ	800
##q	801
##z	802
##ಷ	803
##ೇ	804
##ಭ	805
##ಣ	806
##'	807
##ह	808
##ष	809
##्	810
##ଲ	811
##म	812
##े	813
##,	814
##ଠ	815
##ଣ	816
##ಥ	817
##୮	818
##ୱ	819
##ୟ	820
##،	821
##फ	822
##़	823
##`	824
##ट	825
##ी	826
##ے	827
##ش	828
##ଉ	829
##ବ	830
##ठ	831
##न	832
##🇬	833
##🌹	834
##ଗ	835
##ल	836
##ଯ	837
##ଏ	838
##ु	839
##ण	840
##य	841
##ఝ	842
##द	843
##ೃ	844
##ୃ	845
##ହ	846
##ڑ	847
##ଘ	848
##च	849
##ୀ	850
##ଷ	851
##୦	852
##ଡ	853
##ز	854
##ಎ	855
##ʼ	856
##ୌ	857
##ै	858
##ड	859
##ଵ	860
##ೋ	861
##ಖ	862
##଼	863
##ଖ	864
##پ	865
##خ	866
##ध	867
##ذ	868
##ଂ	869
##َ	870
##ଫ	871
##/	872
##­	873
##ఇ	874
##ଜ	875
##ଁ	876
##ಧ	877
##ಐ	878
##ଭ	879
##ई	880
##थ	881
##ए	882
##ض	883
##౦	884
##ف	885
##்	886
##ர	887
##ீ	888
##ء	889
##ఔ	890
##ಫ	891
##র	892
##গ	893
##ু	894
##ন	895
##া	896
##୨	897
##୯	898
##ଶ	899
##ୈ	900
##ଳ	901
##۔	902
##ఋ	903
##!	904
##ி	905
##ப	906
##ா	907
##ு	908
##ୂ	909
##"	910
##ଆ	911
##ଃ	912
##ೈ	913
##[	914
##ॉ	915
##ư	916
##ợ	917
##ू	918
##ெ	919
##ய	920
##ظ	921
##-	922
##୬	923
##ي	924
##ಇ	925
##ೌ	926
##ఁ	927
##ఒ	928
##୧	929
##)	930
##ख	931
##آ	932
##ఙ	933
##ଢ	934
##प	935
##व	936
##(	937
##െ	938
##യ	939
##്	940
##പ	941
##ട	942
##ു	943
##ന	944
##ज	945
##ّ	946
##ٰ	947
##ञ	948
##छ	949
##য	950
##়	951
##@	952
##ങ	953
##ക	954
##ി	955
##ؤ	956
##अ	957
###	958
##⁬	959
##ক	960
##ম	961
##ত	962
##্	963
##ീ	964
##ഡ	965
##ോ	966
##⁠	967
##க	968
##ம	969
##ِ	970
##>	971
##ಛ	972
##ভ	973
##প	974
##ি	975
##_	976
##?	977
##ത	978
##०	979
##२	980
##४	981
##ृ	982
##ఊ	983
##इ	984
##ൗ	985
##ജ	986
##ه	987
##झ	988
##ओ	989
##ற	990
##â	991
##ட	992
##ச	993
##ள	994
##ঃ	995
##ଓ	996
##ُ	997
##भ	998
##ಞ	999
##ث	1000
##ậ	1001
##ർ	1002
##മ	1003
##ച	1004
##ര	1005
##ढ	1006
##ଞ	1007
##ൽ	1008
##ಢ	1009
##؟	1010
##ট	1011
##ও	1012
##ಘ	1013
##😜	1014
##୩	1015
##ூ	1016
##ാ	1017
##ژ	1018
##ല	1019
##$	1020
##ே	1021
##౹	1022
##୭	1023
##୫	1024
##ந	1025
##த	1026
##ோ	1027
##ൂ	1028
##വ	1029
##ം	1030
##′	1031
##*	1032
##🚩	1033
##ಒ	1034
##ớ	1035
##ڕ	1036
##ờ	1037
##ଝ	1038
##ൊ	1039
##ള	1040
##ଈ	1041
##வ	1042
##ல	1043
##ۆ	1044
##ە	1045
##ധ	1046
##ौ	1047
##ệ	1048
##ொ	1049
##দ	1050
##ধ	1051
##ো	1052
##उ	1053
##आ	1054
##ಝ	1055
##😂	1056
##ଅ	1057
##ऊ	1058
##শ	1059
##ை	1060
##💐	1061
##ে	1062
##+	1063
##ى	1064
##ৰ	1065
##ী	1066
##ங	1067
##घ	1068
##ശ	1069
##ಉ	1070
##୪	1071
##জ	1072
##ầ	1073
##ൻ	1074
##ফ	1075
##স	1076
##ড	1077
##⃣	1078
##റ	1079
##േ	1080
##=	1081
##ৱ	1082
##ണ	1083
##ഷ	1084
##😉	1085
##౩	1086
##⁭	1087
##ண	1088
##🇳	1089
##ன	1090
##👌	1091
##🏼	1092
##💚	1093
##ব	1094
##ँ	1095
##ः	1096
##ఽ	1097
##ಅ	1098
##æ	1099
##ố	1100
##౬	1101
##এ	1102
##ơ	1103
##ڵ	1104
##।	1105
##ả	1106
##চ	1107
##ল	1108
##ൃ	1109
##🇮	1110
##ಃ	1111
##സ	1112
##ഴ	1113
##😡	1114
##ứ	1115
##]	1116
##ൾ	1117
##ൈ	1118
##ً	1119
##‎	1120
##💪	1121
##🔥	1122
##ஜ	1123
##ৈ	1124
##ێ	1125
##হ	1126
##ౄ	1127
##❌	1128
##🙂	1129
##😊	1130
##‌‌	1131
##ార	1132
##న్	1133
##్ర	1134
##ర్	1135
##ని	1136
##స్	1137
##లు	1138
##ంద	1139
##‌‌‌‌	1140
##లో	1141
##ల్	1142
##కు	1143
##ారు	1144
##్య	1145
##న్న	1146
##ట్	1147
##ంచ	1148
##క్	1149
##గా	1150
ప్ర	1151
##ంది	1152
##తు	1153
##ాల	1154
##‌‌‌‌‌‌‌‌	1155
##ను	1156
చే	1157
##ించ	1158
##ిన	1159
##ిక	1160
##ంట	1161
##ండ	1162
##ంత	1163
##ాయ	1164
##ప్	1165
##డు	1166
##త్	1167
##రు	1168
##రి	1169
వి	1170
##లి	1171
##ార్	1172
##కి	1173
##టు	1174
##డి	1175
##ంలో	1176
##ంగ	1177
##ంగా	1178
##సు	1179
##ప్ప	1180
##న్నారు	1181
ని	1182
##లా	1183
##ద్	1184
##డ్	1185
రా	1186
##స్తు	1187
##మా	1188
##తో	1189
##చ్	1190
##‌‌‌‌‌‌‌‌‌‌‌‌‌‌‌‌	1191
##తి	1192
..	1193
##వా	1194
##టి	1195
స్	1196
కా	1197
##టీ	1198
##ష్	1199
##న్ని	1200
##సి	1201
##్యా	1202
##చ్చ	1203
##నే	1204
##యా	1205
##గు	1206
తె	1207
##స్త	1208
చె	1209
##డా	1210
##ాయి	1211
##దు	1212
##ది	1213
##మ్	1214
##ందు	1215
##ళ్	1216
##రా	1217
##ేశ	1218
##క్ష	1219
ను	1220
కో	1221
##పు	1222
##పీ	1223
##ల్లో	1224
వె	1225
##ాలు	1226
కొ	1227
##పై	1228
##లకు	1229
##వు	1230
##ారం	1231
##ింది	1232
##ిత	1233
కే	1234
##సీ	1235
మా	1236
##నికి	1237
##లీ	1238
పె	1239
పో	1240
లో	1241
##మి	1242
కూ	1243
##ిల్	1244
##లను	1245
##ంతో	1246
ము	1247
కు	1248
##ంచి	1249
##ైన	1250
సి	1251
##మె	1252
##క్క	1253
##్రి	1254
పా	1255
##ట్ట	1256
సం	1257
##ించారు	1258
##పో	1259
##్వ	1260
తీ	1261
##ామ	1262
##ంగ్	1263
##ష్ట	1264
##రో	1265
రె	1266
##కో	1267
##ారి	1268
##లే	1269
##ికి	1270
##బ్	1271
##బా	1272
##ెస్	1273
##ద్ద	1274
##ట్లు	1275
##‌‌‌‌‌‌‌‌‌‌‌‌‌‌‌‌‌‌‌‌‌‌‌‌‌‌‌‌‌‌‌‌	1276
##ాన	1277
కూడా	1278
నుంచి	1279
అధ	1280
ఉన్న	1281
చేశ	1282
వే	1283
సీ	1284
##వి	1285
##డం	1286
##త్త	1287
లే	1288
అయ	1289
నిర్	1290
గు	1291
##పా	1292
##ంద్ర	1293
బీ	1294
##స్తున్న	1295
##ప్పు	1296
##షన్	1297
##కా	1298
చేయ	1299
వా	1300
##గ్	1301
##సిన	1302
సమ	1303
##సుకు	1304
##బు	1305
పార్	1306
ప్రభ	1307
##యం	1308
తెలి	1309
##జు	1310
##త్ర	1311
##టర్	1312
నే	1313
##వే	1314
##ాలని	1315
##ఆర్	1316
##ల్ల	1317
##నీ	1318
##ందని	1319
##ంట్	1320
##ండి	1321
##నా	1322
రో	1323
##్రా	1324
వ్య	1325
చెప్ప	1326
##ంటు	1327
##ుత్	1328
##్రీ	1329
##గి	1330
##ంటి	1331
భార	1332
##జ్	1333
##రీ	1334
వచ్చ	1335
##జీ	1336
##తున్న	1337
##డ్డి	1338
రూ	1339
##ందుకు	1340
##పి	1341
##ండ్	1342
చేశారు	1343
పరి	1344
##తం	1345
##యో	1346
##ూర్	1347
మీ	1348
అధిక	1349
##సం	1350
వై	1351
##ెట్	1352
ప్రభుత్	1353
పార్టీ	1354
దీ	1355
##ంటే	1356
##వం	1357
అవ	1358
##ించిన	1359
సా	1360
ఆయ	1361
అని	1362
##ంధ	1363
##డీ	1364
కార	1365
##ఎస్	1366
##కొ	1367
పే	1368
దా	1369
##స్థ	1370
##ట్టు	1371
బా	1372
##ద్య	1373
##ారని	1374
20	1375
ఒక	1376
##మ్మ	1377
##ళ్ల	1378
##ారా	1379
##వర	1380
##‌లో	1381
##వర్	1382
##ించి	1383
తన	1384
##దా	1385
ప్రా	1386
ఆయన	1387
ఎన్ని	1388
##ాలి	1389
##నం	1390
##ులు	1391
##జా	1392
రాష్ట	1393
##ాడు	1394
మొ	1395
##ంబ	1396
వీ	1397
##సే	1398
##త్య	1399
##తోంది	1400
##ంప	1401
అభ	1402
ఎన్నిక	1403
##ెక్	1404
##రే	1405
##ాలను	1406
##దే	1407
##రం	1408
చేసి	1409
##వీ	1410
##ితే	1411
తెలిప	1412
##ధి	1413
##ంత్రి	1414
##రుగు	1415
ఉండ	1416
నా	1417
చూ	1418
##జే	1419
##్రెస్	1420
వర	1421
##్యూ	1422
టీ	1423
##హి	1424
రాష్ట్ర	1425
సె	1426
జరి	1427
శా	1428
##మైన	1429
##వాత	1430
చేసిన	1431
##ధ్య	1432
##స్తున్నారు	1433
##క్కు	1434
##య్య	1435
##కే	1436
##లంగా	1437
##మే	1438
స్థ	1439
కాంగ	1440
మె	1441
##కోవ	1442
##ండా	1443
##ఖ్య	1444
కాంగ్రెస్	1445
కి	1446
##దేశ	1447
ప్రక	1448
హై	1449
##లతో	1450
##సా	1451
నె	1452
స్ట	1453
##యంలో	1454
##ప్పుడు	1455
పోలీ	1456
##ఫ్	1457
జిల్	1458
రి	1459
##ఎం	1460
##యే	1461
రాజ	1462
డి	1463
##ర్శ	1464
##బాద్	1465
మే	1466
మంది	1467
##క్ర	1468
గా	1469
##న్స్	1470
##యి	1471
మార్	1472
##దీ	1473
చి	1474
రోజు	1475
##తా	1476
##డంతో	1477
##ర్చ	1478
##ించింది	1479
మూ	1480
జిల్లా	1481
తా	1482
##ర్థ	1483
కోసం	1484
##తీ	1485
సు	1486
##ము	1487
రెండ	1488
సమా	1489
రై	1490
##న్‌	1491
రెడ్డి	1492
##కర	1493
వర్	1494
##‌‌‌‌‌‌‌‌‌‌‌‌‌‌‌‌‌‌‌‌‌‌‌‌‌‌‌‌‌‌‌‌‌‌‌‌‌‌‌‌‌‌‌‌‌‌‌‌‌‌‌‌‌‌‌‌‌‌‌‌‌‌‌‌	1495
తెలంగా	1496
##సులు	1497
తెలంగాణ	1498
మో	1499
విష	1500
##వారం	1501
##ుకు	1502
అయితే	1503
##ప్ర	1504
##లుగు	1505
చెప్పారు	1506
##కర్	1507
##కుండా	1508
##దని	1509
అను	1510
##ల్లి	1511
ఇచ్చ	1512
రే	1513
##చి	1514
కార్య	1515
ప్రభుత్వం	1516
##శ్	1517
తెలిపారు	1518
తి	1519
##ాలా	1520
భా	1521
తర్	1522
పొ	1523
##ట్ల	1524
##ామని	1525
తర్వాత	1526
##మో	1527
ప్రజ	1528
తీసుకు	1529
##ుల	1530
##రిక	1531
##ంటూ	1532
చంద్ర	1533
##టిక	1534
సిని	1535
##లోని	1536
బీజే	1537
##వహ	1538
అనే	1539
జరిగ	1540
దేశ	1541
పు	1542
##డానికి	1543
అధికారు	1544
బీజేపీ	1545
##స్ట	1546
సో	1547
##ించే	1548
##ట్టి	1549
##తున్నారు	1550
##పోయ	1551
చేస్త	1552
వ్యక్	1553
పై	1554
కలి	1555
ప్రతి	1556
మరో	1557
##జి	1558
##వ్	1559
##ర్య	1560
ఉంది	1561
ఏర్	1562
యా	1563
మంత్రి	1564
##తులు	1565
వ్యా	1566
##డే	1567
##బంధ	1568
సినిమా	1569
తే	1570
కేంద్ర	1571
అన్నారు	1572
ఆరో	1573
##మ్మె	1574
##కీ	1575
##ద్ధ	1576
##కూ	1577
తమ	1578
గ్ర	1579
##ాలకు	1580
శ్రీ	1581
పాటు	1582
లక్ష	1583
##టన	1584
##డ్డ	1585
ఎమ్మె	1586
##ణా	1587
ఎమ్మెల్	1588
##ాని	1589
##పాటు	1590
ఉంటు	1591
##చే	1592
క్ర	1593
చాలా	1594
##ళ్లు	1595
స్ప	1596
జా	1597
##తుంది	1598
##ట్లా	1599
నేత	1600
తో	1601
##కాశ	1602
సీఎం	1603
##ర్టు	1604
##బ్బ	1605
##స్తోంది	1606
##లం	1607
అంత	1608
##క్కువ	1609
జీ	1610
మాత్ర	1611
బె	1612
##టో	1613
మి	1614
##బాబు	1615
##ందిన	1616
వారి	1617
రెండు	1618
##శా	1619
విజ	1620
##రాబాద్	1621
##కులు	1622
##గ్ర	1623
అభి	1624
##ప్పటిక	1625
##వ్వ	1626
అస	1627
పని	1628
##గొ	1629
##మీ	1630
తీసు	1631
ది	1632
##హా	1633
##లలో	1634
మాట్లా	1635
##త్స	1636
ఆమె	1637
##మార్	1638
సర్	1639
సభ	1640
హైద	1641
దీంతో	1642
గత	1643
ప్రధ	1644
##ర్లు	1645
పి	1646
##ెన్	1647
##గే	1648
##దల	1649
జగ	1650
##ెడ్డి	1651
##స్తుంది	1652
అందు	1653
అవకాశ	1654
ముఖ్య	1655
""	1656
వెళ్	1657
చేసుకు	1658
ఆర్	1659
##ీల	1660
...	1661
ఎం	1662
##లాంటి	1663
హైదరాబాద్	1664
మధ్య	1665
##వేశ	1666
##ాన్	1667
చంద్రబాబు	1668
##గ్గ	1669
కానీ	1670
##ంత్	1671
తొ	1672
చెందిన	1673
##00	1674
##ాయని	1675
సూ	1676
వరకు	1677
ఎమ్మెల్యే	1678
##క్కడ	1679
బి	1680
కేసు	1681
##మెంట్	1682
##ినా	1683
ప్రాంత	1684
##సారి	1685
పోలీసులు	1686
చేస్తున్న	1687
##స్‌	1688
##స్తే	1689
పూర్	1690
ఇది	1691
కొత్త	1692
##తూ	1693
సంబంధ	1694
##బీ	1695
##ెం	1696
##చారం	1697
గుర్	1698
చేసింది	1699
##ర్‌	1700
##ర్కొ	1701
బీఆర్	1702
##చార	1703
నెల	1704
తెలు	1705
లా	1706
##స్ట్	1707
నీ	1708
నాయ	1709
అధికారులు	1710
##ందించ	1711
నిర్వహ	1712
బ్యా	1713
సంద	1714
##లపై	1715
202	1716
జన	1717
##ణి	1718
తర	1719
##ంపు	1720
కార్	1721
##స్య	1722
##ణ్	1723
పాల్	1724
నిర్ణ	1725
గె	1726
##ణం	1727
యూ	1728
మహి	1729
##ేషన్	1730
##ెంట్	1731
##ూరు	1732
వార	1733
సమయంలో	1734
భారీ	1735
ద్వ	1736
గుర	1737
##త్తు	1738
##గం	1739
##కపో	1740
##టా	1741
##ల్‌	1742
కల	1743
అన	1744
పెద్ద	1745
మహిళ	1746
ఉద్య	1747
##ుడు	1748
అమ	1749
యు	1750
##షి	1751
మరి	1752
ఎక్కువ	1753
##ాం	1754
##ర్యా	1755
##ారంభ	1756
##్లా	1757
##డియా	1758
కాల	1759
##ంలోని	1760
గంట	1761
కని	1762
ప్రారంభ	1763
అభ్య	1764
చేసే	1765
ఎన్నికల	1766
భూ	1767
ప్రస్తు	1768
శి	1769
##పించ	1770
##ందే	1771
##లోకి	1772
హా	1773
కేసీ	1774
##గర్	1775
##హ్	1776
ఇప్పుడు	1777
##ైనా	1778
ఫో	1779
ముందు	1780
##తే	1781
రాజకీ	1782
##పే	1783
##లేదు	1784
సై	1785
అత	1786
##ృష్	1787
##డిన	1788
##యోజ	1789
కేసీఆర్	1790
##వరి	1791
##చ్చు	1792
అవు	1793
విద్య	1794
మ్యా	1795
బీఆర్ఎస్	1796
అంద	1797
##నించ	1798
ఇవ్వ	1799
##ఫీ	1800
ఇక	1801
##కాల	1802
కుటు	1803
అర	1804
##ారీ	1805
##ద్ర	1806
జగన్	1807
మీడియా	1808
ప్రభుత్వ	1809
##ాయం	1810
ఫి	1811
##వన్	1812
##పె	1813
##ిల్లీ	1814
ఒక్క	1815
కల్	1816
##ర్మ	1817
విధ	1818
పేర్కొ	1819
సాధ	1820
చెబు	1821
ద్వారా	1822
##తంగా	1823
##ంక	1824
హె	1825
ఏర్పాటు	1826
కొన్ని	1827
ప్రకట	1828
##విత	1829
ప్రత్య	1830
##నూ	1831
##రుకు	1832
క్	1833
ఏపీ	1834
##స్థి	1835
##ర్భ	1836
మన	1837
డీ	1838
సమస్య	1839
కావ	1840
##క్రమ	1841
పెట్ట	1842
ప్రమా	1843
అధికార	1844
అయ్య	1845
10	1846
##‌కు	1847
కె	1848
##ందో	1849
సే	1850
జరుగు	1851
మహ	1852
##శి	1853
ఉంటుంది	1854
వచ్చిన	1855
##ంత్ర	1856
##స్తూ	1857
పలు	1858
కారణ	1859
##సీపీ	1860
అవకాశం	1861
##ికెట్	1862
##గో	1863
ఉద్యో	1864
వెలుగు	1865
##నున్న	1866
ధర	1867
పోటీ	1868
దీని	1869
##బో	1870
##ల్సి	1871
##తీయ	1872
మాజీ	1873
బయ	1874
##క్స్	1875
##తర	1876
రేవ	1877
రూప	1878
##ంజ	1879
పూర్తి	1880
##ార్థ	1881
ప్రస్తుతం	1882
##ాల్లో	1883
జరిగిన	1884
##ెస్ట్	1885
##మని	1886
##త్రి	1887
వచ్చే	1888
మొద	1889
అలా	1890
పరిస్థి	1891
ఇండి	1892
వల్ల	1893
ఆరోప	1894
గో	1895
##ంటారు	1896
##ల్స్	1897
అధ్య	1898
బు	1899
అభ్యర్థ	1900
##మంత్రి	1901
సహ	1902
శాఖ	1903
##ాక్	1904
##ేక	1905
##టం	1906
ఎస్	1907
##దం	1908
##స్టు	1909
కుటుంబ	1910
సంస్థ	1911
##వ్ర	1912
ఆధ	1913
వర్ష	1914
19	1915
##యర్	1916
ఎదు	1917
కొన	1918
##యత్	1919
##ాన్ని	1920
భారత్	1921
##టింగ్	1922
##ించుకు	1923
మార	1924
రేవంత్	1925
లేదు	1926
మొత్త	1927
విజయ	1928
తీవ్ర	1929
చేస్తున్నారు	1930
ఎంపీ	1931
విచార	1932
##ెక్టర్	1933
##‌‌‌‌‌‌‌‌‌‌‌‌‌‌‌‌‌‌‌‌‌‌‌‌‌‌‌‌‌‌‌‌‌‌‌‌‌‌‌‌‌‌‌‌‌‌‌‌‌‌‌‌‌‌‌‌‌‌‌‌‌‌‌‌‌‌‌‌‌‌‌‌‌‌‌‌‌‌‌‌‌‌‌‌‌‌‌‌‌‌‌‌‌‌‌‌‌‌‌‌‌‌‌‌‌‌‌‌‌‌‌‌‌‌‌‌‌‌‌‌‌‌‌‌‌‌‌‌	1934
##నాలు	1935
##తలు	1936
ఎన్నికల్లో	1937
##డీపీ	1938
చేప	1939
మండ	1940
ఉప	1941
201	1942
పాల్గొ	1943
హి	1944
ట్ర	1945
##ినీ	1946
మంచి	1947
భారత	1948
పేరు	1949
##డియో	1950
అన్ని	1951
##పూర్	1952
పీ	1953
ఇప్పటిక	1954
##‌ను	1955
వద్ద	1956
సమావేశ	1957
క్యా	1958
##కం	1959
కమి	1960
మూడు	1961
పాల	1962
చర్చ	1963
##ానికి	1964
##ట్టుకు	1965
##్యం	1966
దు	1967
నియోజ	1968
వెల్ల	1969
టీడీపీ	1970
##న్నా	1971
వారు	1972
ఇంట	1973
శు	1974
కీల	1975
ప్రయత్	1976
కలిసి	1977
##తున్నాయి	1978
గ్రామ	1979
##రగ	1980
అం	1981
లి	1982
పట్ట	1983
నమో	1984
బో	1985
విడు	1986
##తుల	1987
నియోజక	1988
నో	1989
స్థాన	1990
##స్తారు	1991
##పంచ	1992
##సింది	1993
తేదీ	1994
##రూ	1995
##రణ	1996
##దేశ్	1997
##ప్పటి	1998
##వై	1999
కొనసా	2000
చర్య	2001
##యన్	2002
##ంబర్	2003
ప్రత్యేక	2004
##ిల్ల	2005
పరిశ	2006
గురించి	2007
##త్తి	2008
##షల్	2009
మ్యాచ్	2010
##బర్	2011
##నర్	2012
##రాలు	2013
కుమార్	2014
వీడియో	2015
##భా	2016
##సర	2017
భాగ	2018
##ంగళ	2019
సందర్భ	2020
ఉందని	2021
కంప	2022
కీలక	2023
మాత్రం	2024
ప్రశ్	2025
విడుదల	2026
రాజకీయ	2027
##జర్	2028
##బ్లీ	2029
##లై	2030
##కె	2031
##ద్ధి	2032
వైసీపీ	2033
##్రో	2034
పవన్	2035
##హు	2036
తప్ప	2037
ఉన్నారు	2038
##హం	2039
చో	2040
వివర	2041
##డ్డు	2042
నియోజకవర్	2043
అధ్యక్ష	2044
ప్రధాన	2045
##మాండ్	2046
ఉన్నాయి	2047
వెళ్ల	2048
వెల్లడ	2049
శాతం	2050
విచారణ	2051
##మర్శ	2052
##యోగ	2053
ఉంట	2054
##ైంది	2055
##ద్దు	2056
ప్రభా	2057
ఢిల్లీ	2058
కర్	2059
##ంటున్న	2060
##దర్శ	2061
##ానని	2062
దే	2063
మాత్రమే	2064
##నున్నారు	2065
హో	2066
జూ	2067
దూ	2068
రావ	2069
##ష్టం	2070
##ించాలని	2071
విషయం	2072
బయట	2073
##వృ	2074
వ్యక్తం	2075
15	2076
పద	2077
ఎలా	2078
##ంటున్నారు	2079
ఘటన	2080
##దన	2081
అర్	2082
##వల	2083
##ారెడ్డి	2084
అసెం	2085
ఉద	2086
##పర్	2087
##లుగా	2088
అసెంబ్లీ	2089
##ట్‌	2090
తాజా	2091
ఉండే	2092
##పల్లి	2093
##లింగ్	2094
సభ్య	2095
##్రే	2096
జో	2097
అమ్మ	2098
##్వర	2099
##గిన	2100
##లోనే	2101
##ాలతో	2102
పూ	2103
వంటి	2104
అన్న	2105
వేల	2106
సమాచారం	2107
ముఖ్యమంత్రి	2108
ఎన్	2109
ఉత్త	2110
##దిక	2111
లీ	2112
షా	2113
సూచ	2114
చేయాలని	2115
##వో	2116
ఇప్పటికే	2117
##పడు	2118
కోట్ల	2119
##రారు	2120
##యు	2121
మాట్లాడు	2122
పోలీసు	2123
యువ	2124
ప్రపంచ	2125
##కోర్టు	2126
##పడ్డ	2127
##క్‌	2128
##టె	2129
విమర్శ	2130
దర్శ	2131
##రల్	2132
ప్రజలు	2133
##నుంది	2134
##ానం	2135
##ెనీ	2136
12	2137
##ినే	2138
ప్రధాని	2139
తిరు	2140
మృ	2141
చేసు	2142
నుండి	2143
అదే	2144
లక్షల	2145
జై	2146
##ించు	2147
కోర్టు	2148
ఆదేశ	2149
##క్షన్	2150
డై	2151
పను	2152
నాలు	2153
కంపెనీ	2154
వ్యక్తి	2155
##గ్గు	2156
హీ	2157
రాష్ట్రంలో	2158
##రెడ్డి	2159
##రిగి	2160
##వారు	2161
ఇండియా	2162
##టీఆర్	2163
సందర్భంగా	2164
##కంగా	2165
తెలుగు	2166
వాటి	2167
##ేశారు	2168
వెంట	2169
##కపోవ	2170
##ించడం	2171
ఎలాంటి	2172
సంఘ	2173
లై	2174
##డాది	2175
##ంలోకి	2176
తాను	2177
##ెల్	2178
మోదీ	2179
అత్య	2180
వార్	2181
తరు	2182
కింద	2183
తొలి	2184
మీద	2185
మొత్తం	2186
లేదా	2187
ప్రకారం	2188
వ్యవ	2189
ఆది	2190
ప్రయా	2191
చిత	2192
చిన్న	2193
##య్	2194
ఆల	2195
##బ్బంది	2196
##నల్	2197
న్యూ	2198
అమె	2199
విని	2200
వారికి	2201
##త్మ	2202
అంటూ	2203
నిర్మా	2204
##ంతరం	2205
రంగ	2206
నగ	2207
సిద్ధ	2208
అభివృ	2209
ఇతర	2210
చేయడం	2211
##సర్	2212
##ాము	2213
సోషల్	2214
ఇద్ద	2215
న్య	2216
రైతు	2217
ఆర్థ	2218
ప్రే	2219
ఆరోగ	2220
పిల్ల	2221
విద్యార్థ	2222
##టక	2223
##ల్సిన	2224
ప్లా	2225
నేతలు	2226
ఇం	2227
##ృష్ణ	2228
లేదని	2229
30	2230
చర్యలు	2231
##వత్స	2232
##తుందని	2233
##జన్	2234
##రికా	2235
అక్కడ	2236
దగ్గ	2237
##కుల	2238
హీరో	2239
స్వా	2240
ఎవర	2241
##సె	2242
కాదు	2243
##బ్బు	2244
గెలి	2245
ఆర్థిక	2246
టై	2247
##జెక్	2248
##వులు	2249
##శ్వ	2250
##రోజు	2251
##క్తి	2252
రు	2253
అంటే	2254
##గానే	2255
సంవత్స	2256
ఇందు	2257
##స్వా	2258
చేపట్ట	2259
##దారు	2260
ఇదే	2261
పనిచే	2262
పెంచ	2263
ఇలా	2264
అందించ	2265
##్యంలో	2266
##డుగు	2267
##ంధీ	2268
ఆఫీ	2269
విక	2270
11	2271
జరగ	2272
అలాగే	2273
అది	2274
##టమి	2275
పర్య	2276
##ళన	2277
##యాన్ని	2278
రామ	2279
గుర్త	2280
నిలి	2281
##తాయి	2282
##స్సు	2283
పరుగు	2284
##ందన్నారు	2285
##ప్తంగా	2286
##ంతా	2287
ఇన్	2288
##ల్డ్	2289
కౌ	2290
##నించారు	2291
##ప్రదేశ్	2292
పేర్కొన్నారు	2293
కోట్లు	2294
క్రమ	2295
అయిన	2296
ఇచ్చిన	2297
వెంక	2298
డిమాండ్	2299
తాజాగా	2300
ప్రాజెక్	2301
దాని	2302
వెళ్లి	2303
##రకు	2304
),	2305
##టే	2306
##యాలు	2307
బాల	2308
తెలియ	2309
##తారు	2310
##న్సి	2311
##పథ	2312
తెలిపింది	2313
##తిక	2314
##దాపు	2315
##ల్లు	2316
##స్తామని	2317
చెబుతున్నారు	2318
##సభ	2319
తీసుకోవ	2320
సొ	2321
##యూ	2322
స్వ	2323
దాదాపు	2324
అమలు	2325
సంబంధించిన	2326
ఫ్యా	2327
చేరుకు	2328
ఏడాది	2329
వచ్చి	2330
##ూడ	2331
గతంలో	2332
##లిక	2333
##ామీ	2334
##లేదని	2335
కార్యక్రమ	2336
పరిస్థితి	2337
##స్ప	2338
రోజుల	2339
ఇటీ	2340
తగ్గ	2341
తు	2342
భక్	2343
##పడి	2344
ట్రా	2345
##రీక్ష	2346
##స్తున్నాయి	2347
గాంధీ	2348
అక్క	2349
##లర్	2350
మాట్లాడుతూ	2351
##ందోళన	2352
డె	2353
##ంతి	2354
డబ్బు	2355
స్థాని	2356
వ్యవహ	2357
భాగంగా	2358
##ులకు	2359
##కుడు	2360
##ేశ్	2361
పెరుగు	2362
మూవీ	2363
బ్యాం	2364
లు	2365
చై	2366
##పక్ష	2367
గొ	2368
##పడ	2369
అమెరికా	2370
అనేక	2371
పడు	2372
##ార్డు	2373
కనిపి	2374
స్టార్	2375
నేపథ	2376
కారణంగా	2377
ఫలి	2378
##సన	2379
##చు	2380
అనంతరం	2381
నమోదు	2382
##క్ష్	2383
వైఎస్	2384
అభివృద్ధి	2385
లె	2386
వెంటనే	2387
జరిగింది	2388
##రంగా	2389
##పెట్ట	2390
సర	2391
ఆఫ్	2392
##టర్లు	2393
ప్రజా	2394
మళ్	2395
విషయంలో	2396
##మయ్య	2397
##కొని	2398
##శాఖ	2399
కొంత	2400
నేను	2401
అంచ	2402
##న్నీ	2403
పథ	2404
సమీ	2405
వ్యాఖ్య	2406
##డని	2407
నిర్ణయం	2408
##గాలు	2409
##ద్ది	2410
గౌ	2411
##ంధ్ర	2412
నిర్మ	2413
చీ	2414
##ెన్స్	2415
##ండు	2416
గంటల	2417
అంశ	2418
జారీ	2419
25	2420
##లుపు	2421
ఇందులో	2422
తరువాత	2423
రావు	2424
##an	2425
##క్షి	2426
##క్షణ	2427
పరీక్ష	2428
రూపాయ	2429
##ందరు	2430
దాడి	2431
వచ్చింది	2432
డ్ర	2433
రాహు	2434
నేపథ్యంలో	2435
కేసులో	2436
ఆశ	2437
ఆందోళన	2438
కేట	2439
##సేన	2440
##ారో	2441
##పడ్డారు	2442
ఫోన్	2443
##పోయిన	2444
ఫొ	2445
మాట్లాడ	2446
వివా	2447
వస్తు	2448
##ాయ్	2449
##స్తా	2450
##ర్యాదు	2451
##కొచ్చ	2452
##్యాల	2453
పాత్ర	2454
##ప్పటికీ	2455
##ళ్లి	2456
14	2457
##టంతో	2458
లేకుండా	2459
కళ	2460
హామీ	2461
ఫిర్యాదు	2462
##పేట	2463
పం	2464
జీవిత	2465
##డో	2466
చూడ	2467
##ర్చు	2468
తెలిసి	2469
దొ	2470
ఇచ్చారు	2471
ఎక్కువగా	2472
ఫొటో	2473
స్థాయి	2474
టా	2475
##కున్న	2476
యూని	2477
##బాటు	2478
##కెట్	2479
ఉదయం	2480
ప్రచారం	2481
##ాలపై	2482
##వారి	2483
రిక	2484
ప్రి	2485
తయ	2486
నియ	2487
##లువ	2488
ఖా	2489
##డర్	2490
చట్ట	2491
డైర	2492
##ించేందుకు	2493
సరి	2494
##మవు	2495
పెరి	2496
గుర్తు	2497
##పతి	2498
జిల్లాలో	2499
##ధు	2500
రీ	2501
చిత్ర	2502
దగ్గర	2503
మొదటి	2504
డాక్	2505
ఎంత	2506
మద్ద	2507
##రంలో	2508
డే	2509
బాధ్య	2510
పడి	2511
##నివా	2512
బంగ	2513
మార్పు	2514
##పోయింది	2515
##ంటీ	2516
హాజ	2517
##‌లోని	2518
సింగ్	2519
సౌ	2520
##నని	2521
##ందా	2522
నాలుగు	2523
స్టేషన్	2524
కాగా	2525
త్వర	2526
నిర్ణయ	2527
##స్తో	2528
వైద్య	2529
ఆరోపణ	2530
సాయ	2531
##బి	2532
బల	2533
##రువు	2534
##వరణ	2535
పార్ల	2536
##కాలు	2537
##సై	2538
న్యాయ	2539
పంప	2540
మరింత	2541
##వాడ	2542
##ధిక	2543
రెండో	2544
##వన	2545
##న్ను	2546
##ండగా	2547
సంఖ్య	2548
తల	2549
18	2550
##ాలలో	2551
##ెస్టు	2552
శ్రీనివా	2553
మీడియాలో	2554
జట్టు	2555
ట్వ	2556
##ట్స్	2557
తల్లి	2558
##వైపు	2559
రాహుల్	2560
కాలే	2561
##తిరే	2562
చేసుకోవ	2563
##నుగో	2564
అందుకే	2565
##టికి	2566
పాల్గొన్నారు	2567
క్రమంలో	2568
##చర్	2569
ప్రభుత్వా	2570
50	2571
వ్యాప	2572
##ణాలు	2573
తెలుస్తోంది	2574
ఇంటి	2575
ఆంధ్ర	2576
చేస్తూ	2577
ఉంటే	2578
##చుకు	2579
##మాన్	2580
గ్రా	2581
కథ	2582
##బడి	2583
ఇప్పటి	2584
##ంటర్	2585
24	2586
కొనసాగు	2587
##వ్యా	2588
వాతా	2589
##నియర్	2590
##ఫి	2591
మై	2592
వ్యతిరే	2593
ఇలాంటి	2594
జనసేన	2595
ఎందుకు	2596
మళ్లీ	2597
తెలంగాణలో	2598
హైకోర్టు	2599
అంది	2600
##విధ	2601
ప్	2602
లోని	2603
మేరకు	2604
##వార	2605
##నలు	2606
##యల్	2607
##మారు	2608
కేటీఆర్	2609
ఆరోపించారు	2610
##ేందుకు	2611
##త్వ	2612
అభ్యర్థి	2613
కలెక్టర్	2614
ఫై	2615
రిలీ	2616
17	2617
##షనల్	2618
##ార్లు	2619
అరెస్ట్	2620
ప్రజల	2621
##టర్ల	2622
ఏం	2623
విమా	2624
ఐదు	2625
తెలిసిందే	2626
నాయకులు	2627
##ఎల్	2628
సిబ్బంది	2629
బిల్	2630
వాహ	2631
##పోయారు	2632
##ోర్	2633
అధ్యక్షుడు	2634
భర్	2635
ప్రకటన	2636
##ల్లా	2637
##ాలే	2638
తిరిగి	2639
సంగ	2640
జాతీయ	2641
##రావు	2642
ఇటీవల	2643
మద్దతు	2644
##మై	2645
##డిగా	2646
ప్రాజెక్టు	2647
విన	2648
##గంలో	2649
ఆలో	2650
2024	2651
కర్ణా	2652
అప్ప	2653
ప్రొ	2654
రాత్రి	2655
సోమ	2656
శని	2657
##ముఖ	2658
టి	2659
##గాల	2660
13	2661
ఆధార	2662
##దో	2663
##یں	2664
200	2665
కర్ణాటక	2666
##స్టి	2667
పడ	2668
##టరీ	2669
##మల	2670
వెల్లడించారు	2671
##స్తాయి	2672
పంచ	2673
కొనుగో	2674
చు	2675
##ళి	2676
##స్టర్	2677
ఇక్కడ	2678
##భి	2679
##రికి	2680
కొందరు	2681
##్యార	2682
నిల	2683
శివ	2684
శుక్ర	2685
కంటే	2686
##ారాయ	2687
##్యు	2688
##తిని	2689
ఆస	2690
నింది	2691
##యిల్	2692
##శారు	2693
పైన	2694
##ంప్	2695
కమిటీ	2696
##ాను	2697
##న్నాయి	2698
వీటి	2699
స్టే	2700
విజయం	2701
తక్కువ	2702
##ర్మన్	2703
చా	2704
##ందర్	2705
16	2706
##సీసీ	2707
అవస	2708
తనకు	2709
మంగళ	2710
##ృష్ట	2711
##చిన	2712
గి	2713
నమ్మ	2714
##టల్	2715
భార్య	2716
కాకుండా	2717
గాయ	2718
వృ	2719
గురు	2720
ఇద్దరు	2721
నీటి	2722
ఇంకా	2723
హత్య	2724
ఉద్యోగు	2725
అందుకు	2726
##ంతు	2727
##ಲ್	2728
ఫు	2729
ఆగ	2730
##రేషన్	2731
ఉత్	2732
రైల్	2733
రోడ్డు	2734
కోరారు	2735
పైగా	2736
##దాలు	2737
చోటు	2738
##క్కి	2739
ఆంధ్రప్రదేశ్	2740
చని	2741
పనులు	2742
నిర	2743
వెంకట	2744
##వె	2745
కేవ	2746
కిలో	2747
##యిన్	2748
బెంగళ	2749
##ణు	2750
ఉపయోగ	2751
వైరల్	2752
##వరకు	2753
##మంది	2754
అతని	2755
బౌ	2756
##మాను	2757
పాకి	2758
##ప్రీ	2759
రాష్ట్రా	2760
తీసుకున్న	2761
22	2762
##కారం	2763
##ంద్	2764
స్పందించ	2765
పక్క	2766
##డుకు	2767
భావి	2768
##ారణ	2769
మారింది	2770
బెంగళూరు	2771
##ాలంటే	2772
ఆద	2773
కేవలం	2774
పోలీస్	2775
హెచ్చ	2776
ఇంట్	2777
మర	2778
##వాల్	2779
ఉంచ	2780
టికెట్	2781
షే	2782
##ేశ్వ	2783
పరిధి	2784
కారు	2785
##ఖా	2786
తీర్	2787
చేసుకున్న	2788
స్కూ	2789
అందులో	2790
మోడీ	2791
##డిని	2792
క్ష	2793
సాగు	2794
అడుగు	2795
##నేందుకు	2796
##ర్ర	2797
బై	2798
ఆరోగ్య	2799
ప్రాంతాల్లో	2800
##కరణ	2801
సూచించారు	2802
ఏళ్ల	2803
దేశంలో	2804
మొదల	2805
సర్క	2806
అల	2807
##చిత	2808
##ృష్టి	2809
##ల్ని	2810
##యానికి	2811
అతి	2812
దో	2813
అధికారంలోకి	2814
మాట	2815
మార్కెట్	2816
కార్యకర్	2817
వారిని	2818
రాశి	2819
##బుల్	2820
##య్యారు	2821
##గింది	2822
##తిలో	2823
##ామన్నారు	2824
##జయ్	2825
సూర్	2826
నిర్వ	2827
కోల్	2828
ఏపీలో	2829
మారు	2830
కట్ట	2831
##వ్యాప్తంగా	2832
2023	2833
కష్ట	2834
##నె	2835
##నగర్	2836
##థ్	2837
##చ్చి	2838
చెప్పు	2839
##డంలో	2840
కేంద్రం	2841
రైల్వే	2842
తమి	2843
వర్షాలు	2844
అవసరం	2845
మరోసారి	2846
భద్ర	2847
##డికి	2848
ముగి	2849
సంచ	2850
చేశాడు	2851
చేర	2852
##పొ	2853
మీరు	2854
ప్రజలకు	2855
అనుమ	2856
##క్రమా	2857
ఎంతో	2858
తాము	2859
ప్రై	2860
రిలీజ్	2861
జే	2862
##జ్ర	2863
సుప్రీ	2864
కొనుగోలు	2865
ప్రవేశ	2866
ఇంటర్	2867
ఆలోచ	2868
##ండ్ల	2869
స్పష్టం	2870
##‌‌‌‌‌‌‌‌‌‌‌‌‌‌‌‌‌‌‌‌‌‌‌‌‌‌‌‌‌‌‌‌‌‌‌‌‌‌‌‌‌‌‌‌‌‌‌‌‌‌‌‌‌‌‌‌‌‌‌‌‌‌‌‌‌‌‌‌‌‌‌‌‌‌‌‌‌‌‌‌‌‌‌‌‌‌‌‌‌‌‌‌‌‌‌‌‌‌‌‌‌‌‌‌‌‌‌‌‌‌‌‌‌‌‌‌‌‌‌‌‌‌‌‌‌‌‌‌‌‌‌‌‌‌‌‌‌‌‌‌‌‌‌‌‌‌‌‌‌‌‌‌‌‌‌‌‌‌‌‌‌‌‌‌‌‌‌‌‌‌‌‌‌‌‌‌‌‌‌‌‌‌‌‌‌‌‌‌‌‌‌‌‌‌‌‌‌‌‌‌‌‌‌‌‌‌‌‌‌‌‌‌‌‌‌‌‌‌‌‌‌‌‌‌‌‌‌‌‌‌‌‌‌‌‌‌‌‌‌‌‌‌‌‌‌‌‌‌‌‌‌‌‌‌‌‌	2871
##‌లు	2872
##ర్స్	2873
క్రి	2874
##పాల	2875
ఉంటాయి	2876
ఆహ	2877
##న్య	2878
##రియా	2879
నాగ	2880
##దన్నారు	2881
##ీర్	2882
మండి	2883
పోరా	2884
రోడ్	2885
##నాల	2886
##ధులు	2887
అందుబాటు	2888
తరల	2889
##یا	2890
చెల్ల	2891
##వచ్చు	2892
##శే	2893
తెలుసుకు	2894
పర్	2895
తెర	2896
డాక్టర్	2897
సొంత	2898
##వాల	2899
##ేమ	2900
సమయం	2901
రాజీ	2902
పెళ్లి	2903
ప్రకటించారు	2904
బాధ	2905
##ాక	2906
తొల	2907
అక్	2908
##మూ	2909
##కోవడం	2910
మృతి	2911
పెట్టు	2912
##డులు	2913
వివిధ	2914
వరు	2915
అంతే	2916
సుప్రీం	2917
##బ్ర	2918
##ండర్	2919
ఫా	2920
##ష్య	2921
##మైంది	2922
మరియు	2923
##జన	2924
గ్రూ	2925
పోలింగ్	2926
##ప్తు	2927
స్వీ	2928
వేయ	2929
కార్యాల	2930
డైరెక్టర్	2931
##వంత	2932
##ించాడు	2933
##సెస్	2934
##తన	2935
పరుగులు	2936
ఇంత	2937
పాట	2938
జూన్	2939
బస్సు	2940
సీనియర్	2941
##స్క	2942
వ్యాఖ్యలు	2943
##ించడానికి	2944
నరే	2945
##కింగ్	2946
##ండీ	2947
ముందుకు	2948
ప్రమాదం	2949
అవసర	2950
##డమే	2951
సేవ	2952
మరణ	2953
ప్లే	2954
లక్ష్	2955
కాల్	2956
21	2957
అడి	2958
##ినట్లు	2959
##ండ్రి	2960
వీరి	2961
##బీసీ	2962
ఆట	2963
ఆత్మ	2964
##మ్స్	2965
సర్వే	2966
##గిరి	2967
గంటలకు	2968
##క్త	2969
వ్యవస్థ	2970
ఇబ్బ	2971
ప్రమాద	2972
ప్రముఖ	2973
శుక్రవారం	2974
##ికల్	2975
మండల	2976
##ద్యా	2977
##ళ్ళ	2978
##తను	2979
##రులు	2980
నిర్వహి	2981
##పరి	2982
నిర్వహించారు	2983
##ెట్టి	2984
##‌తో	2985
బుధ	2986
జైలు	2987
నిజ	2988
##స్తుందని	2989
కూటమి	2990
##్రియ	2991
అనేది	2992
సోమవారం	2993
వేదిక	2994
వైపు	2995
##ించా	2996
మంత్ర	2997
##ానీ	2998
పరిష్	2999
బాధి	3000
భూమి	3001
క్రికెట్	3002
ఫలిత	3003
ఇబ్బందు	3004
పోస్టు	3005
సంబంధించి	3006
##ెట్లు	3007
ఎన్నికలు	3008
##వుడ్	3009
ఎవ	3010
వివరించారు	3011
##ర్ట్	3012
కర	3013
మరోవైపు	3014
##నింగ్	3015
వాటిని	3016
దీనిపై	3017
పెట్టి	3018
కార్యక్రమా	3019
##పోవ	3020
దీనికి	3021
అభిప్ర	3022
టె	3023
యో	3024
జి	3025
ఫీ	3026
##ోత్స	3027
##పించారు	3028
ఎన్న	3029
అప్	3030
ముంబ	3031
నివే	3032
ఇజ్ర	3033
##ండ్ర	3034
##ారిటీ	3035
##ారాయణ	3036
##తికి	3037
పరిశీల	3038
కృ	3039
##ప్టె	3040
##లాండ్	3041
##‌ల	3042
అధినే	3043
జరిగే	3044
ఉంటుందని	3045
##రాల	3046
##టీసీ	3047
యాద	3048
కనిపించ	3049
పూజ	3050
బొ	3051
రాయ	3052
##ణీ	3053
బయటకు	3054
100	3055
##లియా	3056
రిజర్	3057
ఎయి	3058
మాన	3059
బాగా	3060
వరద	3061
సెల	3062
చేస్తే	3063
##సూ	3064
##పాల్	3065
రోజుల్లో	3066
వస్తున్న	3067
ప్రశ్నించారు	3068
అప్పు	3069
##నుక	3070
##పడిన	3071
బోర్	3072
##ప్షన్	3073
జె	3074
ఆరు	3075
సంక్ష	3076
##బె	3077
##వాళ	3078
కేసులు	3079
చేసేందుకు	3080
దర్యా	3081
దక్షి	3082
వస్తే	3083
##చూ	3084
దృష్టి	3085
##ంత్రం	3086
##తున్నారని	3087
##జె	3088
ఆదివారం	3089
##టై	3090
##స్వామి	3091
##రావ	3092
నమోద	3093
ఇజ్రాయ	3094
అర్థ	3095
ఆప	3096
తమిళ	3097
అద	3098
ప్రతిపక్ష	3099
అండ్	3100
కమ	3101
నేడు	3102
పేరుతో	3103
##గ్రహం	3104
తీసుకె	3105
##పురం	3106
40	3107
పంట	3108
##ంటో	3109
బ్ర	3110
ఒకే	3111
##ెబ్బ	3112
తప్పు	3113
##జ్ఞ	3114
అక్టో	3115
పాలన	3116
చైర్మన్	3117
##స్తాన్	3118
కవిత	3119
##ారాన్ని	3120
##రికొ	3121
##న్సిప	3122
మంగళవారం	3123
విస్త	3124
చెన్న	3125
శ్రీనివాస్	3126
##గల	3127
పేర్కొంది	3128
దర్యాప్తు	3129
మార్చి	3130
శరీ	3131
##ంగల్	3132
బంగారం	3133
రద్దు	3134
##రుపు	3135
రైతులు	3136
చీఫ్	3137
వాతావరణ	3138
చేయడానికి	3139
##దుపు	3140
ఆరోపణలు	3141
శనివారం	3142
##ొచ్చు	3143
##రుగా	3144
##హ్మ	3145
చేస	3146
##ంస	3147
##ళీ	3148
అక్రమ	3149
నగర్	3150
##ులను	3151
##వాల్సి	3152
ఎమ్మెల్సీ	3153
##రాజ్	3154
ఓటు	3155
సాయంత్రం	3156
ఫ్	3157
##సిటీ	3158
కేటాయ	3159
##బీఐ	3160
ఏర్పా	3161
##ళ్లకు	3162
అభిమాను	3163
ఇంట్లో	3164
ఓవర్	3165
విలువ	3166
కల్యా	3167
##హె	3168
##్రమ	3169
సంజయ్	3170
సహాయ	3171
##కపోవడంతో	3172
అంచనా	3173
##తులకు	3174
అయ్యారు	3175
అధినేత	3176
వయ	3177
ప్రస	3178
బీసీ	3179
చివరి	3180
##కృష్ణ	3181
##చ్చని	3182
డిసె	3183
కృష్ణ	3184
బ్రి	3185
ప్రయాణి	3186
శం	3187
##ీవుడ్	3188
##20	3189
##ర్ల	3190
తేదీన	3191
##రంగ	3192
##గూడ	3193
కొట్ట	3194
##పోయి	3195
పిటి	3196
23	3197
మండలం	3198
చేశారని	3199
##ar	3200
##్యూటీ	3201
జరుగుతున్న	3202
పార్టీకి	3203
సెప్టె	3204
నడు	3205
ముగ్గు	3206
##హన్	3207
పోస్ట్	3208
##ణంలో	3209
దక్క	3210
సహా	3211
విశాఖ	3212
##కూడ	3213
##్యంగా	3214
##తులను	3215
తది	3216
##ాలనే	3217
తగ్	3218
##జిక	3219
##సుప	3220
##షా	3221
##త్వం	3222
రైలు	3223
##మ్మి	3224
##ికిత్స	3225
##ికా	3226
##నంగా	3227
కార్యక్రమంలో	3228
స్థానిక	3229
డ్రై	3230
##చారు	3231
శుభ	3232
##దర్శి	3233
సభ్యులు	3234
##డ్జ	3235
గే	3236
హు	3237
వివ	3238
##ించినట్లు	3239
##ళ్లలో	3240
##మిక	3241
##ితం	3242
##రికీ	3243
గురువారం	3244
##కులకు	3245
తయారు	3246
అత్యంత	3247
కళ్యా	3248
##తల	3249
నిజా	3250
అయినా	3251
అక్కడి	3252
విదేశ	3253
వంద	3254
సంతో	3255
నివేదిక	3256
ఎత్తు	3257
లాంటి	3258
విమర్శించారు	3259
##నియా	3260
##కపోతే	3261
మహిళా	3262
##న్లు	3263
అంగ	3264
##లేక	3265
##ర్మి	3266
వరకూ	3267
జరిగి	3268
సమస్యలు	3269
మాట్లాడారు	3270
పార్లమెంట్	3271
ఆసుప	3272
##ాలన్నారు	3273
విద్యా	3274
బీబీసీ	3275
పంపి	3276
నట	3277
##డవ	3278
##గాయి	3279
ఐపీ	3280
##ల్లోకి	3281
##ప్పుడ	3282
##ించారని	3283
పార్టీలో	3284
భారీగా	3285
మొదలు	3286
నిరసన	3287
గవర్	3288
##స్త్ర	3289
విధంగా	3290
##ించాలి	3291
##ళ్లను	3292
##పుణ	3293
నెలకొ	3294
##ట్రో	3295
లేని	3296
బిల్లు	3297
##బట్టి	3298
సింగ	3299
సిటీ	3300
అరెస్టు	3301
ఎదుర్కొ	3302
విక్ర	3303
గెలు	3304
చికిత్స	3305
ప్రాంతంలో	3306
##‌ని	3307
ప్రైవే	3308
భారతీయ	3309
##రియ	3310
##పం	3311
##ప్పి	3312
నిమి	3313
##శాల	3314
##న్నాడు	3315
##ద్దీ	3316
చేస్తామని	3317
##దేశం	3318
##ట్లను	3319
షర్మి	3320
బుధవారం	3321
అడ్డు	3322
##స్తున్నారని	3323
భక్తులు	3324
ఎక్కడ	3325
##‌గా	3326
##ಲ್ಲ	3327
28	3328
చైనా	3329
బంధ	3330
##బిత	3331
##ండె	3332
కాపా	3333
పది	3334
చేరు	3335
కావడంతో	3336
##ంపై	3337
నాకు	3338
తమకు	3339
గ్రామా	3340
##వుల	3341
ఆక	3342
నామ	3343
మున్సిప	3344
సాధారణ	3345
ట్యా	3346
##డ్జెట్	3347
యుద్ధ	3348
పర్యటన	3349
నరేంద్ర	3350
ఈసారి	3351
ప్రభావం	3352
టెక్	3353
##వాస	3354
పాఠ	3355
##ఖాస్తు	3356
చేసినట్లు	3357
##దులు	3358
##ప్రిల్	3359
ప్రకటించింది	3360
ఉపా	3361
کے	3362
ఏప్రిల్	3363
నవం	3364
##లిం	3365
దాఖ	3366
ప్రేమ	3367
ఖర్చు	3368
##ారులు	3369
దశ	3370
##ప్తి	3371
##గ్రత్త	3372
దెబ్బ	3373
ల్యా	3374
బాబు	3375
సమీప	3376
##ితంగా	3377
రోజులు	3378
వరుస	3379
##ఎఫ్	3380
పెట్టుకు	3381
తీసుకో	3382
అంతర్	3383
##టెన్	3384
##‌ర్	3385
##స్ట్రే	3386
ఎల	3387
విద్యుత్	3388
##డత	3389
ముఖ్యంగా	3390
కప్	3391
##ందం	3392
##నో	3393
కంట	3394
అడ్	3395
వరల్డ్	3396
డిప	3397
మందికి	3398
అసలు	3399
##್‌	3400
మెంట్	3401
వినియోగ	3402
అయి	3403
స్థాయిలో	3404
##సన్	3405
ఇవ్వాలని	3406
##సిడ	3407
పలువు	3408
పిటిషన్	3409
మెడ	3410
కార్మి	3411
బహి	3412
##ధ్యా	3413
ఆన	3414
ఎంప	3415
పదే	3416
భావ	3417
కళ్యాణ్	3418
యాక్	3419
భర్త	3420
కామెంట్	3421
బెయిల్	3422
సుప్రీంకోర్టు	3423
దర	3424
జిల్లాల్లో	3425
అంటున్నారు	3426
##డుక	3427
మండిపడ్డారు	3428
హక్కు	3429
జాగ్రత్త	3430
హాజర	3431
##హెచ్	3432
ఇండ	3433
నోటీ	3434
రికార్డు	3435
##వల్ల	3436
##చింది	3437
సూపర్	3438
క్వ	3439
##ండ్లు	3440
అవి	3441
అలాంటి	3442
##చ్చారు	3443
##స్తున్నట్లు	3444
హింద	3445
విమర్శలు	3446
స్వామి	3447
ఎంపిక	3448
తీర్పు	3449
ఖమ్మ	3450
సిరీ	3451
నటి	3452
##పూ	3453
దరఖాస్తు	3454
నూ	3455
పౌ	3456
వేగ	3457
వరంగల్	3458
##ీట్	3459
##ొక	3460
##మ్‌	3461
చేయాలి	3462
గ్రూప్	3463
నై	3464
లోక్	3465
##నాడు	3466
నష్ట	3467
బడ్జెట్	3468
##కోవాలని	3469
##టివ్	3470
ఉన్నట్లు	3471
##టిఫ	3472
##మిత్	3473
##స్థాన్	3474
పూర్తిగా	3475
ధరలు	3476
##గారు	3477
##కుమార్	3478
ఈరోజు	3479
షె	3480
విషయాన్ని	3481
ఇబ్బందులు	3482
کی	3483
చరి	3484
##య్యాయి	3485
ఆడ	3486
##నామా	3487
సామా	3488
##కంటే	3489
##గాల్లో	3490
ఎదురు	3491
##ంక్	3492
ఇంటికి	3493
ఫైన	3494
##డ్‌	3495
میں	3496
వెళ్లే	3497
మహారా	3498
వేడుక	3499
##మ్మడి	3500
2019	3501
తండ్రి	3502
##లన	3503
సమావేశం	3504
27	3505
డబ్బులు	3506
##ధాన్	3507
##గతి	3508
##్యాన్ని	3509
అవకాశాలు	3510
హరీ	3511
కోరు	3512
##ారన్నారు	3513
విజయవాడ	3514
బే	3515
##సింగ్	3516
##ష్ట్ర	3517
##జ్‌	3518
భయ	3519
##యన్స్	3520
క్ల	3521
##ారనే	3522
మూడో	3523
##ాప	3524
26	3525
అనుమా	3526
##కపోవడం	3527
##ంచే	3528
ట్రై	3529
చేసారు	3530
##డుతున్న	3531
స్పె	3532
సైతం	3533
ఇజ్రాయెల్	3534
కనీ	3535
ప్లాన్	3536
ఇంగ్	3537
వచ్చాయి	3538
ముంబై	3539
డిసెంబర్	3540
అక్టోబర్	3541
సెక	3542
వివే	3543
ఒకటి	3544
కురి	3545
ఆయనకు	3546
ఉండగా	3547
చేస్తు	3548
ఎక్స్	3549
లభ	3550
రూపొ	3551
చరిత్ర	3552
అదుపు	3553
మల్ల	3554
##ంగి	3555
కొద్ది	3556
##ించుకో	3557
చదు	3558
##పోయా	3559
##గ్రా	3560
దీన్ని	3561
##రించారు	3562
సెప్టెంబర్	3563
బృ	3564
సమర్	3565
ఫే	3566
పొత్తు	3567
ప్రేక్ష	3568
చేసుకున్నారు	3569
ప్యా	3570
##నిక	3571
జనవరి	3572
##ధ్యాహ్	3573
పట్టు	3574
ప్రయోజ	3575
లాభ	3576
##ఫె	3577
కాబట్టి	3578
జాబిత	3579
స్థానంలో	3580
చొ	3581
సమావేశంలో	3582
ఎందు	3583
పలువురు	3584
##వంటి	3585
అవినీ	3586
కార్పొ	3587
##ములు	3588
ప్రచార	3589
చెప్పిన	3590
కాలేజీ	3591
ఆగస్టు	3592
ఆస్ప	3593
మహా	3594
నిరు	3595
అనుకూ	3596
కల్యాణ్	3597
యాత్ర	3598
ఉచిత	3599
గణ	3600
సిద్ద	3601
సంప్ర	3602
ఆసక్తి	3603
ఎక్	3604
##ించనున్నారు	3605
విశ్వ	3606
ఇవాళ	3607
##ౌన్	3608
##ంటుంది	3609
##టువంటి	3610
##ంగ్స్	3611
##డ్స్	3612
పార్టీల	3613
తిరుమల	3614
సంక్షేమ	3615
తెలుసు	3616
విధాన	3617
అభిప్రాయ	3618
రోహి	3619
లేక	3620
ఆస్ట్రే	3621
నడి	3622
మద్య	3623
##ఖీ	3624
##కోవడానికి	3625
సామాజిక	3626
మధ్యాహ్	3627
##కార	3628
తీసుకొచ్చ	3629
ఉమ్మడి	3630
సంత	3631
##ష్ణ	3632
ఎన్టీఆర్	3633
##కొండ	3634
కన్	3635
అధికారి	3636
కార్యదర్శి	3637
ఐటీ	3638
##‌న	3639
##డ్యూ	3640
##ನ್	3641
##లియన్	3642
తీసుకున్నారు	3643
ఇబ్బంది	3644
లోక్‌	3645
##‌పై	3646
అప్పటి	3647
ఉత్తర	3648
##రమైన	3649
##నాథ్	3650
స్పష్ట	3651
కనిప	3652
పోలీసులకు	3653
వాయి	3654
##ందనే	3655
మనం	3656
##యంగా	3657
పార్టీలు	3658
ప్రాధాన్	3659
నవంబర్	3660
ఫ్ర	3661
వన్	3662
రాజీనామా	3663
అద్	3664
##ట్ర	3665
##al	3666
ఇచ్చింది	3667
పొంద	3668
పత్ర	3669
నీరు	3670
##ర్యంలో	3671
వ్యవస	3672
లెక్క	3673
ఎక	3674
##ట్లో	3675
##ప్టెన్	3676
ఎగ్	3677
వాళ్లు	3678
##ఎస్‌	3679
ఈడీ	3680
##రానికి	3681
##హీ	3682
##‌‌లో	3683
చేస్తారు	3684
సీట్లు	3685
##ండింగ్	3686
సబ్	3687
పారి	3688
##ప్‌	3689
లైన్	3690
అనుకు	3691
గుర్తి	3692
పండు	3693
వికెట్	3694
##రణ్	3695
కారణం	3696
యూనివర్	3697
షర్మిల	3698
##యాల్లో	3699
కామ	3700
కెప్టెన్	3701
31	3702
##సిక	3703
ఎన్నో	3704
ఎక్క	3705
చాల	3706
రష	3707
##ಿದ	3708
##దిరి	3709
తీరు	3710
అధికారిక	3711
బాధ్యత	3712
తెచ్చ	3713
మిగి	3714
భవి	3715
##ತ್	3716
##ద్దని	3717
##కేష్	3718
బండి	3719
నిబంధ	3720
##ద్దేశ	3721
సెంటర్	3722
మరికొ	3723
వది	3724
##ంశ	3725
##ఖ్యా	3726
##ంపల్లి	3727
500	3728
##భు	3729
##ల్ప	3730
తనను	3731
నిమిష	3732
కస్ట	3733
##ినేషన్	3734
##్వర్యంలో	3735
సీబీఐ	3736
సిరీస్	3737
##ణంగా	3738
##ఫా	3739
పేద	3740
వ్యాప్తంగా	3741
ఖమ్మం	3742
ఇచ్చి	3743
సర్వీ	3744
##ంక్ష	3745
##శ్ర	3746
క్యాప్షన్	3747
##కులను	3748
ఉత్ప	3749
వస్తుంది	3750
##ంబా	3751
##జూ	3752
విభా	3753
భవిష్య	3754
శక్తి	3755
##లిన	3756
గుండె	3757
కాలంలో	3758
##రింగ్	3759
##ంద్రా	3760
కమిషన్	3761
ఎవరు	3762
నిందితు	3763
##బూ	3764
తీవ్రంగా	3765
సూర్య	3766
ప్రయత్నం	3767
ముగ్గురు	3768
అరు	3769
##య్యా	3770
##ور	3771
కాదని	3772
##సాద్	3773
కలిగి	3774
ఆస్ట్రేలియా	3775
అందుబాటులో	3776
కోట్	3777
యాదవ్	3778
##ధాని	3779
##సార్లు	3780
నిర్వహించిన	3781
లోక్‌సభ	3782
##ాడని	3783
##భవ	3784
భే	3785
షో	3786
##నాన్ని	3787
స్పీ	3788
అమిత్	3789
సము	3790
తెలిసింది	3791
ఆధ్వర్యంలో	3792
జయ	3793
##జాతీయ	3794
మహిళలు	3795
##నున్నాయి	3796
వర్షం	3797
సత్య	3798
వ్యూ	3799
ట్వి	3800
##హత్య	3801
..?	3802
గ్యా	3803
ప్రో	3804
లేఖ	3805
చేయా	3806
రేపు	3807
పదవి	3808
నిపుణ	3809
సుమారు	3810
##‌ర	3811
##ద్రా	3812
##పాద	3813
##ెన్సీ	3814
నెలల	3815
క్రీ	3816
వెనుక	3817
సీపీ	3818
సినిమాలో	3819
ప్ర‌	3820
చేస్తున్నారని	3821
ధర్	3822
వ్యాపార	3823
##రగా	3824
కమిష	3825
ఒత్తి	3826
##షే	3827
##ఫిక్	3828
సంతోష	3829
అడ	3830
స్నే	3831
చదువు	3832
చూప	3833
తొలగ	3834
ఉండాలని	3835
రైతులకు	3836
ఆడి	3837
ఆమో	3838
కన	3839
##రవ	3840
##ండే	3841
##రేట్	3842
నియమ	3843
తిన	3844
ప్రభుత్వానికి	3845
##స్తాయని	3846
గుర్తించారు	3847
పొందు	3848
ఆత్మహత్య	3849
29	3850
##పడింది	3851
అంబ	3852
వివరాలు	3853
మధ్యాహ్నం	3854
కీ	3855
బ్లా	3856
##ఫర్	3857
వెన	3858
చెన్నై	3859
అంతర్జాతీయ	3860
##ాయింట్	3861
విషయ	3862
ప్రతిని	3863
తిరుపతి	3864
బ్రా	3865
##శు	3866
దాఖలు	3867
##ట్టే	3868
ఇచ్చే	3869
##లక్ష	3870
##ించాయి	3871
స్కా	3872
ఉన్నాయని	3873
##యింది	3874
##ంగు	3875
##వేత్త	3876
##మ్ము	3877
##ముల	3878
ఎల్	3879
అందరూ	3880
##టెడ్	3881
ట్వీట్	3882
చేస్తోంది	3883
వాళ్ల	3884
తీసుకోవాలని	3885
##తాయని	3886
మహారాష్ట్ర	3887
రోహిత్	3888
##వాల్సిన	3889
##ేశ్వర	3890
##రస్	3891
##్యో	3892
సీత	3893
ప్రక్రియ	3894
రిపో	3895
ఉద్దేశ	3896
సామ	3897
##గీ	3898
##ಿಯ	3899
##ళం	3900
##కౌ	3901
##దండ్ర	3902
##తుల్లో	3903
##ట్టిన	3904
విరా	3905
##గ్య	3906
రాష్ట్రాల్లో	3907
ఇన్‌	3908
##నంలో	3909
##సార్	3910
##గానికి	3911
నిరా	3912
##డ్డా	3913
అత్యధిక	3914
బరి	3915
##ار	3916
##కోవాలి	3917
##గొండ	3918
వెల్లడించింది	3919
##వని	3920
మద్యం	3921
రహ	3922
##ల్చి	3923
##ంపే	3924
ఇంజ	3925
##త్రికి	3926
##షణ	3927
##లేని	3928
పూర్త	3929
ఆగ్రహం	3930
కరీ	3931
తల్లిదండ్ర	3932
##కరి	3933
బహిరంగ	3934
అద్భు	3935
జరుపు	3936
##పడే	3937
అతను	3938
##యిన	3939
##ان	3940
##ంహ	3941
రాజు	3942
షేర్	3943
##ఫు	3944
కురు	3945
లేద	3946
మారి	3947
##ంభ	3948
చేస్తుంది	3949
స్థి	3950
##వారికి	3951
నర్	3952
##ra	3953
వెబ్	3954
##ౌండ్	3955
..!	3956
మెద	3957
తగ్గి	3958
##లాల	3959
##ించడంతో	3960
కోహ్	3961
హాజరు	3962
ఎప్పుడ	3963
గమ	3964
అనుమతి	3965
##నాలను	3966
##పోయాయి	3967
##యోగం	3968
పాకిస్తాన్	3969
##వాసం	3970
##ಲ್ಲಿ	3971
వేసి	3972
సీఐ	3973
##ూర్తి	3974
మెగా	3975
ఆధారంగా	3976
##రాల్లో	3977
సంఘం	3978
దిశ	3979
బ్యాంక్	3980
నిన్న	3981
ఫోటో	3982
రుణ	3983
##ోధ	3984
సభలో	3985
జన్	3986
పర	3987
##వల్	3988
##ఖర్	3989
భేటీ	3990
ప్రీ	3991
సీజన్	3992
కిలోమీ	3993
ఎయిర్	3994
##గ్రీ	3995
వాదన	3996
జిల్లాలోని	3997
##హ్వా	3998
ఆదేశించారు	3999
##స్తోందని	4000
##లింది	4001
రష్యా	4002
##టన్	4003
##నున్నట్లు	4004
60	4005
ہے	4006
ఏడు	4007
##స్తారని	4008
సమాధ	4009
షూ	4010
లోకేష్	4011
మేం	4012
అంతేకా	4013
##వాలు	4014
##ారానికి	4015
దిగు	4016
విజయ్	4017
ప్రతీ	4018
చూసి	4019
రావడం	4020
వడ్	4021
అర్హ	4022
రూపాయలు	4023
##ನ್ನ	4024
క్యూ	4025
##గత	4026
ఆలోచన	4027
##ణ్య	4028
పంపిణీ	4029
##సిడెంట్	4030
శర్మ	4031
##రుగ	4032
వేదికగా	4033
గుర్తింపు	4034
##లవ	4035
ప్రె	4036
##టిల్	4037
##పులు	4038
##వేషన్	4039
##బోయే	4040
భో	4041
విద్యార్థులు	4042
ఏర్పాట్లు	4043
35	4044
షాక్	4045
##వాన్ని	4046
పోష	4047
సంప్రద	4048
హాస్	4049
ఫ్యాన్స్	4050
కరీం	4051
పట్ల	4052
అవార్డు	4053
సరైన	4054
గిరి	4055
##రాజు	4056
భు	4057
##ద్రి	4058
వ్యతిరేక	4059
అప్ర	4060
హ్యా	4061
##తోందని	4062
##ారావు	4063
##ెక్ట	4064
##ండియా	4065
2022	4066
##ంగ్లా	4067
కల్పించ	4068
ప్రయత్ని	4069
చార్	4070
ఓడి	4071
సినీ	4072
నిద్ర	4073
##కరించారు	4074
45	4075
##వార్	4076
నేషనల్	4077
##వేల	4078
క్రితం	4079
##మర్	4080
##ెక్ట్	4081
తరలి	4082
టార్	4083
##ేష్	4084
##తరులు	4085
##డింగ్	4086
##ధీ	4087
##ంచు	4088
సర్కార్	4089
బంగ్లా	4090
దుర్	4091
దేవ	4092
మార్పులు	4093
చౌ	4094
##ంచ్	4095
##ంలోనే	4096
##ద్యో	4097
##ట్టింది	4098
##టానికి	4099
ఫిబ్ర	4100
పెట్టారు	4101
మంత్రులు	4102
##హాలు	4103
##ొక్క	4104
చెప్పింది	4105
రూపాయల	4106
హను	4107
కాన్	4108
##ానా	4109
అయింది	4110
ఎమ్మెల్యేలు	4111
##దారులు	4112
కృషి	4113
ఆహ్వా	4114
##హన	4115
వ్యాఖ్యా	4116
##రిని	4117
కుమారు	4118
అగ్ర	4119
##ఫ్ర	4120
కూడిన	4121
రైతుల	4122
తిరుగు	4123
ప్రారంభించారు	4124
భారతదేశ	4125
హౌ	4126
సెంట	4127
హెచ్	4128
శ్రే	4129
##తమైన	4130
##డప	4131
కొండ	4132
ఉండాలి	4133
##సారిగా	4134
సంవత్సరం	4135
దక్షిణ	4136
##స్తులు	4137
##ణానికి	4138
అదన	4139
##తకు	4140
ఉన్నా	4141
##శ్చి	4142
దారు	4143
సృష్ట	4144
##రింది	4145
##గులు	4146
ఎవరూ	4147
అవినీతి	4148
రాష్ట్రం	4149
ఆఫీసర్	4150
కనీసం	4151
ఇక్క	4152
##ఫ్ట్	4153
##జం	4154
గుజ	4155
ప్రశ్న	4156
పిల్లలు	4157
వచ్చారు	4158
వీర	4159
##షియల్	4160
సంఘటన	4161
##సులో	4162
సంగతి	4163
ఇవి	4164
##ంటాయి	4165
అయ్యింది	4166
బ్యాంకు	4167
మంజ	4168
##ಂದ	4169
##లిక్	4170
రాలే	4171
ఆర్టీసీ	4172
ఒక్కో	4173
ఫిబ్రవరి	4174
రాజ్	4175
పరిశోధ	4176
##ికేషన్	4177
##ట్రి	4178
బోర్డు	4179
యూనివర్సిటీ	4180
ఆన్	4181
పుష్	4182
##వ్వు	4183
ట్రాఫిక్	4184
##్రీన్	4185
దేశం	4186
అవుతుంది	4187
ఖాళీ	4188
సల	4189
##‌‌‌‌లో	4190
సీటు	4191
వెళ్లిన	4192
న్యూస్	4193
వ్యతిరేకంగా	4194
చాలామ	4195
##వ్యూ	4196
కాంట	4197
000	4198
##ైల్	4199
నుంచే	4200
ఐపీఎల్	4201
గూ	4202
కొడుకు	4203
గవర్నర్	4204
జడ్	4205
##త్యా	4206
##క్ట్	4207
విశ్	4208
##వరం	4209
ఉద్యమ	4210
ఇరు	4211
వారం	4212
ప్రదర్శ	4213
బాగు	4214
##స్వామ	4215
వాయిదా	4216
కోహ్లీ	4217
తని	4218
##దైనా	4219
##కోసం	4220
ఒప్ప	4221
##ృతి	4222
ప్రశా	4223
పరిధిలో	4224
ఇష్ట	4225
నలుగు	4226
వేశారు	4227
##థి	4228
##ad	4229
రామ్	4230
అంతా	4231
re	4232
##లూ	4233
##in	4234
కూతు	4235
##ట్నం	4236
##ాలంటూ	4237
కావడం	4238
నియోజకవర్గంలో	4239
స్కూల్	4240
గుజరా	4241
చాలామంది	4242
మంట	4243
రవి	4244
సాయం	4245
##సర్లు	4246
స్టా	4247
తరలించారు	4248
పట్టుకు	4249
ఫె	4250
##య్యే	4251
##ائ	4252
మిగ	4253
అర్థం	4254
##రై	4255
స్క	4256
పాత	4257
రాజధాని	4258
ప్రారంభం	4259
జాబితా	4260
సెక్ర	4261
##ులై	4262
##పడుతుంది	4263
సాయి	4264
##తుండ	4265
చెప్	4266
హాస్పి	4267
నీళ్లు	4268
శిక్ష	4269
##లైన్	4270
పార్లమె	4271
వ్యవసాయ	4272
ఖాన్	4273
ఆయా	4274
##వెన్	4275
##er	4276
ప్రాణ	4277
చూసిన	4278
ప్రజలను	4279
కార్యకర్తలు	4280
సముద్ర	4281
##సరి	4282
ఆదాయం	4283
ఓట్లు	4284
##తున్నట్లు	4285
ఆహార	4286
కరీంనగర్	4287
ఇన్ని	4288
లక్షలు	4289
త్వరలో	4290
బంధు	4291
##ಾರ	4292
##శ్చ	4293
##హాన్ని	4294
లబ్	4295
వాడ	4296
నియోజకవర్గం	4297
##ట్యూ	4298
విభ	4299
లోప	4300
##ించుకున్నారు	4301
కామెంట్స్	4302
ముస్	4303
##ఎంసీ	4304
నష్టం	4305
##ాయు	4306
నిధులు	4307
డిప్యూటీ	4308
షెడ్యూ	4309
మహబూ	4310
ఖాతా	4311
నిరుద్యో	4312
పండుగ	4313
రాజ్యా	4314
##కరించ	4315
ఉత్తర్	4316
##రవే	4317
బ్యాటింగ్	4318
##ించుకున్న	4319
మున్సిపల్	4320
నాయుడు	4321
అమరావ	4322
ప్రయత్నాలు	4323
చూపి	4324
##ర్చి	4325
చెంద	4326
అల్లు	4327
దళ	4328
ఫస్ట్	4329
##స్తానని	4330
తీసుకుని	4331
##ల్లే	4332
##న్నే	4333
##యాత్ర	4334
వేళ	4335
##ల్లం	4336
##ాలనుకు	4337
కిషన్	4338
పిలుపు	4339
రిజి	4340
కొత్తగా	4341
చేపట్టారు	4342
రూపొందించ	4343
ప‌	4344
##یک	4345
పెరిగి	4346
పున	4347
నిర్మాణ	4348
తనిఖీ	4349
##ఢిల్లీ	4350
పరిగ	4351
మనో	4352
ఆదేశాలు	4353
స్వాధీ	4354
అగ్	4355
కార్డు	4356
గుజరాత్	4357
##ార్టీ	4358
##క్కర్	4359
ఒకరు	4360
##ాలిటీ	4361
ఎన్నికలకు	4362
మెజ	4363
న్యూఢిల్లీ	4364
".	4365
హెల్	4366
ఎఫ్	4367
ముందే	4368
దాడులు	4369
ఆసి	4370
ఏమి	4371
వసూ	4372
రాశ	4373
##న్‌కు	4374
అభ్యర్థులు	4375
నిపుణులు	4376
జు	4377
పశ్చి	4378
ఎందుకంటే	4379
ఉంటారు	4380
అధి	4381
త్వరలోనే	4382
టార్గ	4383
##ఎన్	4384
##దావరి	4385
##డ్డికి	4386
పర్యా	4387
##య్యి	4388
##గ్గా	4389
నిర్వహణ	4390
మైన	4391
డిగ్రీ	4392
చేసుకుంది	4393
రిజర్వేషన్	4394
##చేశారు	4395
##మిండియా	4396
నెలలో	4397
జులై	4398
టీమిండియా	4399
సుర	4400
సోద	4401
ఎంట	4402
సద	4403
##పోయే	4404
##త్రం	4405
##వ్య	4406
ప్రస్తుత	4407
పరుగుల	4408
కాని	4409
##స్ట్ర	4410
నారాయణ	4411
##ార్డ్	4412
ముంద	4413
##ముందు	4414
##స్ట్రీ	4415
కౌన్సి	4416
డ్రగ్	4417
త్రి	4418
##ార్ట్	4419
పథకం	4420
బాధ్యతలు	4421
##నానికి	4422
2014	4423
అభిమానులు	4424
ఓటమి	4425
కేజ	4426
తీసుకుంట	4427
కుటుంబా	4428
విద్యార్థి	4429
పెంచు	4430
సార్లు	4431
తేడా	4432
కొనసాగ	4433
గౌడ్	4434
నామినేషన్	4435
స్వాధీనం	4436
టార్గెట్	4437
టెస్టు	4438
విగ్ర	4439
ఏక	4440
##వాహ	4441
టీ20	4442
ప్రమాణ	4443
ఇండియన్	4444
తమిళనాడు	4445
##ధుల	4446
##తె	4447
కుల	4448
కుటుంబం	4449
చిత్రం	4450
ఇప్పటివరకు	4451
లక్ష్మీ	4452
ఫార్	4453
##జున్	4454
అదుపులోకి	4455
ప్రాధాన్య	4456
ఏజ	4457
తగిన	4458
సారి	4459
అయో	4460
మౌ	4461
స్కో	4462
పెరగ	4463
సంఖ్యలో	4464
ప్రైవేట్	4465
ఏదైనా	4466
##th	4467
##జ్జ	4468
శ్రీవారి	4469
ఫుడ్	4470
##ನ್ನು	4471
##ంకర్	4472
శాంతి	4473
మృత	4474
నిర్మాణం	4475
##ష్ణో	4476
ఉండి	4477
రకాల	4478
##నాయ	4479
ఆటగా	4480
పాఠశాల	4481
##ాలీవుడ్	4482
##రుల	4483
##ంగం	4484
వేసిన	4485
సాం	4486
దానికి	4487
షి	4488
##నిఫ	4489
కాలం	4490
నోటీసులు	4491
గడు	4492
రాజే	4493
##ిల్స్	4494
##ఆర్‌	4495
టీమ్	4496
దొంగ	4497
اس	4498
అప	4499
అల్	4500
##కలు	4501
ప్రస్తా	4502
దాన్ని	4503
చుట్ట	4504
రచ	4505
##ుడి	4506
##ెండ్	4507
##రంజీ	4508
స్పెషల్	4509
ఓడ	4510
##ధా	4511
##హార్	4512
##ఠా	4513
గ్రామంలో	4514
##శేష	4515
కేజ్రీ	4516
##ట్టర్	4517
##త్తా	4518
రాష్ట్రాల	4519
చిరంజీ	4520
##చేసుకు	4521
చోట్ల	4522
కన్న	4523
తగ్గు	4524
థి	4525
రఘ	4526
వెళ	4527
పేపర్	4528
చెప్పుకొచ్చ	4529
డ్రైవర్	4530
హిందూ	4531
##ికె	4532
కోరుకు	4533
##సీబీ	4534
ఉన్నారని	4535
పంజా	4536
జర్	4537
##ರು	4538
ఫలితాలు	4539
అంగీ	4540
##ించగా	4541
పవర్	4542
వన	4543
బీజేపీకి	4544
##సో	4545
##డితే	4546
##యేషన్	4547
సందర్శ	4548
పురు	4549
##ందన్న	4550
##మాబాద్	4551
ఆలయ	4552
వినిపి	4553
స్పందించారు	4554
నేతల	4555
డెవల	4556
తదితరులు	4557
ఎలక్	4558
మృతదే	4559
క్యార	4560
గ్	4561
పరిశ్రమ	4562
రావడంతో	4563
చేపట్టిన	4564
పశ్చిమ	4565
##పున	4566
ముఖ	4567
##సేందుకు	4568
సెల్	4569
రిటై	4570
గ్రే	4571
అప్పగ	4572
కఠ	4573
చెయ్య	4574
##కర్స్	4575
##స్టే	4576
##on	4577
##ంచరీ	4578
##ళ్లుగా	4579
జనా	4580
పోలీసుల	4581
##చ్చితంగా	4582
కేర	4583
పెరిగింది	4584
రక్త	4585
నేరుగా	4586
కమిషనర్	4587
అట	4588
దాంతో	4589
##త్మక	4590
ఆటో	4591
##ంట్లు	4592
అవగా	4593
దేశవ్యాప్తంగా	4594
దూరంగా	4595
పర్యట	4596
బది	4597
పాద	4598
##దైన	4599
##చ్ఛ	4600
అధికారుల	4601
వార్త	4602
##లోనూ	4603
లోకి	4604
ఒత్తిడి	4605
టీటీ	4606
కల్ప	4607
చేసుకో	4608
టెస్ట్	4609
రక్షణ	4610
లభి	4611
##‌మ	4612
##್ರ	4613
##ెక్స్	4614
సంబంధం	4615
ముస్లిం	4616
రఘు	4617
##ళిక	4618
నాటికి	4619
తెలుగుదేశం	4620
గొప్ప	4621
సురే	4622
##న్‌ను	4623
లక్ష్యంగా	4624
హోం	4625
అప్పుడు	4626
కెమె	4627
అమ్మాయి	4628
నిబంధన	4629
అగ్ని	4630
గురి	4631
నగర	4632
మిగిలిన	4633
సికి	4634
ఉండటంతో	4635
మెడికల్	4636
కరో	4637
##చ్చిన	4638
చట్టం	4639
యాప్	4640
అనారో	4641
మంజూరు	4642
విడి	4643
మేనే	4644
##కాలం	4645
అటు	4646
విప	4647
సెంచరీ	4648
ఎస్సీ	4649
వెళ్లారు	4650
మిగతా	4651
కేరళ	4652
##బడు	4653
వికెట్లు	4654
బ్లాక్	4655
బదిలీ	4656
ఎవరి	4657
ఎన్డీ	4658
నల్ల	4659
బరువు	4660
##sh	4661
తెల్ల	4662
అధికారులకు	4663
సచి	4664
కాక	4665
వారిలో	4666
మరొక	4667
##ించాల్సి	4668
70	4669
దిన	4670
ధర్మ	4671
అంతకు	4672
199	4673
ఊహ	4674
##స్థాయి	4675
మేము	4676
సౌకర్	4677
కఠిన	4678
చక్క	4679
జస్టి	4680
మధు	4681
##కిల్	4682
స్టూడ	4683
##త్రిలో	4684
کو	4685
ఆల్	4686
మందు	4687
##మత్త	4688
జరుగుతోంది	4689
ఎండ	4690
గాలి	4691
నర	4692
##ఘా	4693
కొంతమంది	4694
ఢిల్లీలో	4695
నారా	4696
పొడి	4697
##డెన్	4698
శాస్త్ర	4699
##ల్యూ	4700
##లాలు	4701
సంస్థలు	4702
80	4703
##ంపులు	4704
కనిపిస్తోంది	4705
అప్రమత్త	4706
టో	4707
మహిళల	4708
సిద్ధం	4709
న్యాయం	4710
ఆవి	4711
##రాశి	4712
మార్చ	4713
ముందుగా	4714
##ತ್ತ	4715
##ూరి	4716
రాజ్య	4717
అధికారులను	4718
వన్డే	4719
ధ్వ	4720
కాస్త	4721
గుడ్	4722
పరిస్థితులు	4723
అవగాహన	4724
బూ	4725
మోసం	4726
పురుష	4727
డాల	4728
చేయడంతో	4729
సునీ	4730
జరుగుతుంది	4731
వ్యవహార	4732
##ంద్రాబాద్	4733
నటు	4734
ఆమెను	4735
టీటీడీ	4736
##ారంటూ	4737
##వింద్	4738
##స్టా	4739
##వేళ	4740
చెప్పి	4741
సికింద్రాబాద్	4742
##రని	4743
##త్‌	4744
ప్రొఫె	4745
ప్రెసిడెంట్	4746
కను	4747
##ధర్	4748
అధ్యయ	4749
గొడవ	4750
ప్రభుత్వాన్ని	4751
చిరంజీవి	4752
వేగంగా	4753
పడ్డ	4754
భద్రా	4755
వేలు	4756
##పాడు	4757
మీటింగ్	4758
కలిపి	4759
గెలుపు	4760
సరఫ	4761
స్నేహి	4762
నాయక	4763
చేయనున్నారు	4764
చూపు	4765
డేటా	4766
భద్రత	4767
ఏకంగా	4768
##ాయా	4769
##ಾಗ	4770
##తోపాటు	4771
మీకు	4772
చిరు	4773
ప్రకటించిన	4774
టాప్	4775
గడి	4776
సార	4777
వేసింది	4778
బిజె	4779
ప్రత్యేకంగా	4780
##పోయాడు	4781
##ఫ్రికా	4782
కాంట్రా	4783
థియే	4784
ధీ	4785
##ుకున్న	4786
##డర్లు	4787
రాష్ట్రంలోని	4788
సినిమ	4789
జనరల్	4790
ఆరోగ్యం	4791
నిజామాబాద్	4792
పండ	4793
సాధ్య	4794
తిరుమ	4795
పక్కన	4796
విజ్ఞ	4797
చెక్	4798
గోదావరి	4799
##యాలని	4800
##తారని	4801
చెల్లి	4802
ప్రయత్నించ	4803
రంగా	4804
##లాది	4805
జరిప	4806
ఎప్పుడూ	4807
##నిమి	4808
##కున్నారు	4809
پر	4810
అకౌ	4811
రమ	4812
వాస్త	4813
స్థానికులు	4814
##ష్ణోగ్ర	4815
పడే	4816
భి	4817
##బద్ధ	4818
హీరోయిన్	4819
వీటిని	4820
##ంక్షలు	4821
ఉష్ణోగ్ర	4822
ఎర్ర	4823
##రె	4824
##మిలీ	4825
హోదా	4826
ఆశ్ర	4827
##ులతో	4828
నిర్మి	4829
చేస్తున్నట్లు	4830
నోటిఫ	4831
తయారీ	4832
నెట్	4833
##కాన్ని	4834
##కాంత్	4835
##వంతంగా	4836
వివేక్	4837
నల్	4838
మల్	4839
సక్	4840
##ెయిన్	4841
##చె	4842
సీట్ల	4843
తరఫు	4844
కేటాయి	4845
హెచ్చరించారు	4846
పరిధిలోని	4847
కార్యకర్త	4848
అవసరమైన	4849
ఒడి	4850
లను	4851
##یو	4852
లోక	4853
దర్శకుడు	4854
75	4855
2018	4856
హరీశ్	4857
బంగ్లాదేశ్	4858
అయోధ్య	4859
##ాయతీ	4860
##డుతున్నారు	4861
రోజులుగా	4862
##టికల్	4863
కావాలని	4864
తీసుకెళ్ల	4865
##యాన్	4866
ఉండటం	4867
వస్తుందని	4868
ఎత్తున	4869
##ారన్న	4870
##ికీ	4871
విశేష	4872
చెరువు	4873
అధ్యక్షు	4874
పడింది	4875
##ల్లె	4876
##లంక	4877
చేసుకుని	4878
కిలోమీటర్ల	4879
వ్యాఖ్యానించారు	4880
జ్యో	4881
టే	4882
ఢీ	4883
కేంద్రంలో	4884
రోజున	4885
తొమ్మి	4886
ఇరా	4887
పబ్	4888
చేసినా	4889
మెట్రో	4890
పెట్టిన	4891
##శేఖర్	4892
##యిత	4893
##ించలేదు	4894
##లేకపో	4895
##వేదన	4896
వరుసగా	4897
స్పీకర్	4898
క్లా	4899
##స్క్	4900
అందరికీ	4901
అయ్యాయి	4902
నియోజకవర్గ	4903
##కూడదు	4904
పార్లమెంటు	4905
గ్యార	4906
##హారం	4907
##am	4908
##ెస్టో	4909
ఏఐ	4910
##న్నె	4911
##‌‌‌‌‌‌‌‌లో	4912
##ప్పున	4913
లీడర్	4914
ఎన్‌	4915
కుట్ర	4916
మెరుగు	4917
ఎస్పీ	4918
సంవత్సరాల	4919
భావిస్తున్నారు	4920
విలువైన	4921
ఎటువంటి	4922
##ందన	4923
అధికారం	4924
కార్యక్రమం	4925
##వులను	4926
మొబ	4927
##మీర్	4928
బాలిక	4929
##రక	4930
##లిస్తే	4931
అయ్యే	4932
పద్	4933
##మన్	4934
నిషే	4935
సంపాద	4936
లిక్కర్	4937
అర్జున్	4938
న్యాయవా	4939
సర్కారు	4940
సరఫరా	4941
##రమ	4942
##జేశారు	4943
##మిత	4944
చేయగా	4945
భాష	4946
వాతావర	4947
టెక్నాల	4948
ఎక్స్‌	4949
##భూ	4950
##ైన్	4951
తీసుకుంది	4952
చొప్పున	4953
భవ	4954
ర్యా	4955
##గడ్డ	4956
##మైనా	4957
ఉత్స	4958
##కాలను	4959
సెక్షన్	4960
##దీప్	4961
ఆమెకు	4962
స్థానాల్లో	4963
ప్రయాణ	4964
సంచలన	4965
##ికే	4966
శాసన	4967
మోహన్	4968
డీకే	4969
నల్గొండ	4970
బ్రే	4971
##దుగా	4972
రంగు	4973
నెలకొంది	4974
అస్	4975
ఘన	4976
రవా	4977
##یڈ	4978
##మాలు	4979
మీడియాతో	4980
ఇప్పటికీ	4981
##పడుతున్న	4982
##త్వంలో	4983
టిక్క	4984
కుక్క	4985
##ించిందని	4986
మేకర్స్	4987
##నిఫెస్టో	4988
డా	4989
##తాలు	4990
స్కీ	4991
##స్తున్నాడు	4992
##స్తున్నామని	4993
##కరమైన	4994
##కాలంలో	4995
##హ్మద్	4996
మ‌	4997
##పెట్టి	4998
##ాలన్న	4999
##వానికి	5000
##డాన్ని	5001
బయలు	5002
##‌‌‌‌‌‌‌‌‌‌‌‌‌‌‌‌‌‌‌‌‌‌‌‌‌‌‌‌‌‌‌‌‌‌‌‌‌‌‌‌‌‌‌‌‌‌‌‌‌‌‌‌‌‌‌‌‌‌‌‌‌‌‌‌‌‌‌‌‌‌‌‌‌‌‌‌‌‌‌‌‌‌‌‌‌‌‌‌‌‌‌‌‌‌‌‌‌‌‌‌‌‌‌‌‌‌‌‌‌‌‌‌‌‌‌‌‌‌‌‌‌‌‌‌‌‌‌‌‌‌‌‌‌‌‌‌‌‌‌‌‌‌‌‌‌‌‌‌‌‌‌‌‌‌‌‌‌‌‌‌‌‌‌‌‌‌‌‌‌‌‌‌‌‌‌‌‌‌‌‌‌‌‌‌‌‌‌‌‌‌‌‌‌‌‌‌‌‌‌‌‌‌‌‌‌‌‌‌‌‌‌‌‌‌‌‌‌‌‌‌‌‌‌‌‌‌‌‌‌‌‌‌‌‌‌‌‌‌‌‌‌‌‌‌‌‌‌‌‌‌‌‌‌‌‌‌‌‌‌‌‌‌‌‌‌‌‌‌‌‌‌‌‌‌‌‌‌‌‌‌‌‌‌‌‌‌‌‌‌‌‌‌‌‌‌‌‌‌‌‌‌‌‌‌‌‌‌‌‌‌‌‌‌‌‌‌‌‌‌‌‌‌‌‌‌‌‌‌‌‌‌‌‌‌‌‌‌‌‌‌‌‌‌‌‌‌‌‌‌‌‌‌‌‌‌‌‌‌‌‌‌‌‌‌‌‌‌‌‌‌‌‌‌‌‌‌‌‌‌‌‌‌‌‌‌‌‌‌‌‌‌‌‌‌‌‌‌‌‌‌‌‌‌‌‌‌‌‌‌‌‌‌‌‌‌‌‌‌‌‌‌‌‌‌‌‌‌‌‌‌‌‌‌‌‌‌‌‌‌‌‌‌‌‌‌‌‌‌‌‌‌‌‌‌‌‌‌‌‌‌‌‌‌‌‌‌‌‌‌‌‌‌‌‌‌‌‌‌‌‌‌‌‌‌‌‌‌‌‌‌‌‌‌‌‌‌‌‌‌‌‌‌‌‌‌‌‌‌‌‌‌‌	5003
షూటింగ్	5004
వల	5005
ప్రసాద్	5006
చేర్చ	5007
రానున్న	5008
##రాత్రి	5009
సంప	5010
అభిన	5011
బిజెపి	5012
డబుల్	5013
##్వే	5014
విచారణకు	5015
##మయ్యారు	5016
కరోనా	5017
దృష్ట	5018
పార్టీని	5019
2021	5020
ఎదుర	5021
మ్యూ	5022
##రత్	5023
##గలి	5024
##స్తాం	5025
దేశాల	5026
మహిళలకు	5027
వార్తలు	5028
షెడ్యూల్	5029
కేజ్రీవాల్	5030
టెక్నాలజీ	5031
##లానికి	5032
మానసిక	5033
ఇండస్ట్రీ	5034
టోర్	5035
నాడు	5036
##ార్జు	5037
##చ్చే	5038
##స్తీ	5039
మాకు	5040
##పాటి	5041
##స్థానం	5042
##ించేలా	5043
చుట్టూ	5044
భీ	5045
##స్‌‌	5046
వ్యక్తులు	5047
సమస్యలను	5048
చర్చలు	5049
నలుగురు	5050
జనాభా	5051
బహు	5052
##షీ	5053
##రాజ	5054
క్రికె	5055
కోర్టులో	5056
పిల్లల	5057
నంబర్	5058
రక్ష	5059
వేధి	5060
స్పంది	5061
బిడ్డ	5062
వయసు	5063
##್ದ	5064
##ర్యాల	5065
సంబంధిత	5066
##బోతున్న	5067
ఫైనల్	5068
నోటిఫికేషన్	5069
తరహా	5070
కల్పి	5071
క్లి	5072
పట్టణ	5073
సమీక్ష	5074
బయలుదే	5075
ఆవేదన	5076
పలిక	5077
##బిన	5078
##కుంటే	5079
##రామ	5080
బాలీవుడ్	5081
దారి	5082
##నగ	5083
స్టో	5084
సక్సెస్	5085
రవాణా	5086
జల	5087
##నారాయణ	5088
##క్తిక	5089
##పింగ్	5090
జన్మ	5091
ఫర్	5092
##గితే	5093
ప్రాజెక్ట్	5094
ట్విట్టర్	5095
డ్యా	5096
##యాల	5097
##నలి	5098
ప్రణా	5099
ముఖ్యమైన	5100
బౌలింగ్	5101
##బినెట్	5102
##ెక్కి	5103
ట్రంప్	5104
స్టేడి	5105
##బడిన	5106
రెడీ	5107
లేదన్నారు	5108
పరిచ	5109
నాయకుడు	5110
##ఎస్పీ	5111
పూజలు	5112
సెంట్ర	5113
ఓప	5114
క‌	5115
టాలీవుడ్	5116
విరు	5117
##ెట్ల	5118
నాయకు	5119
ఫ్యామిలీ	5120
##ట్లే	5121
##టిక్	5122
నాని	5123
కాలనీ	5124
శంకర్	5125
కామారెడ్డి	5126
హాస్పిటల్	5127
నొ	5128
##ంసం	5129
##ధం	5130
##ఫో	5131
##ందర	5132
నెటి	5133
కెరీ	5134
హయా	5135
##్యూని	5136
సినిమాలు	5137
మొదట	5138
کر	5139
ఎకర	5140
జీవితంలో	5141
##కస్	5142
##ఆర్ఎస్	5143
సూచి	5144
ఇటీవ	5145
ప్రియా	5146
నియంత్ర	5147
ఉద్యోగులు	5148
అందుబాటులోకి	5149
దిశగా	5150
డ్రా	5151
పక్ష	5152
##ాయన్నారు	5153
##వాళ్లు	5154
వాటర్	5155
సాను	5156
వర్గాలు	5157
మిషన్	5158
సాధించిన	5159
ప్రభాకర్	5160
రజ	5161
##್ಯ	5162
పట్టించుకో	5163
కార్పొరేషన్	5164
al	5165
ఎగు	5166
నార్	5167
మను	5168
##జిన	5169
కానుంది	5170
హైడ	5171
నెరవే	5172
వెళ్లా	5173
పెద్దగా	5174
వివరాలను	5175
ఉందన్నారు	5176
##దర	5177
నగదు	5178
##ంజ్	5179
##ర్ఘ	5180
సీసీ	5181
జీవ	5182
ఆకట్టుకు	5183
పంజాబ్	5184
ఛార్	5185
##ప్ల	5186
పరీక్షలు	5187
ఉత్పత్తి	5188
ఖాయ	5189
దశా	5190
పరిణ	5191
నాటి	5192
గ్రహ	5193
ఉద్యోగం	5194
అమరావతి	5195
ఈసీ	5196
##ఎస్సీ	5197
జర	5198
##లైన	5199
##ెత్త	5200
##ال	5201
##మానం	5202
ప్రాణాలు	5203
వ్యవహర	5204
ఫైర్	5205
ఆపరేషన్	5206
అనుకూలంగా	5207
జనం	5208
##ీయ	5209
##తుండగా	5210
ఒకవేళ	5211
ఇవ్వడం	5212
దూరం	5213
##గ్రామ్	5214
##విడ్	5215
##పోయినా	5216
దర్శక	5217
ఉపాధ్య	5218
భవిష్యత్తు	5219
ప్రెస్	5220
చేతిలో	5221
##స్తోన్న	5222
ఎనిమి	5223
మత	5224
శ్రీలంక	5225
భర్తీ	5226
సమాధానం	5227
పిలుపుని	5228
కొనసాగి	5229
##ట్రిక్	5230
ఎప్పుడు	5231
ఐదే	5232
మిన	5233
##మన్నారు	5234
దాడు	5235
##ినేని	5236
స్టూడెంట్	5237
##పట్నం	5238
##గాన్ని	5239
##ష్ణు	5240
అసో	5241
దశాబ్	5242
##ాల్సిన	5243
##కల	5244
చెల	5245
ఉద్యోగ	5246
అక్కడే	5247
కలుగు	5248
##మాని	5249
##్యానికి	5250
తెలియజే	5251
##గూడెం	5252
##పాయ	5253
##వసర	5254
##దార్	5255
మొక్క	5256
చంప	5257
రద్దీ	5258
##ಿಸ	5259
నియా	5260
ట్రాన్స్	5261
పంచాయతీ	5262
అలీ	5263
##ేత్ర	5264
వెండి	5265
##మితి	5266
##జిట్	5267
యూపీ	5268
##ంటున్నారని	5269
తీసుకోవడం	5270
సన్ని	5271
##ାର	5272
చేరారు	5273
కోర	5274
##పాదన	5275
గెలిచిన	5276
నిలిచింది	5277
ఛా	5278
##బల్	5279
##ర్ణ	5280
ఆయు	5281
జ్యోతి	5282
90	5283
ధో	5284
##వతి	5285
##రుడు	5286
అవుతోంది	5287
ఆసక్తిక	5288
డ్రగ్స్	5289
ప్రాధాన్యత	5290
##యని	5291
##ీత	5292
##ంతర	5293
పాక్	5294
చూస్తే	5295
రాజమ	5296
ఎవరైనా	5297
33	5298
వాల	5299
##ెట్టు	5300
చూపించ	5301
స్టేట్	5302
##ార్జున	5303
పాయింట్	5304
##ెర	5305
##పడుతున్నారు	5306
##ళ్ళు	5307
సాధారణంగా	5308
మణి	5309
వస	5310
##షన్స్	5311
నియోజకవర్గాల్లో	5312
##ేశ్వరం	5313
సమీపంలో	5314
అకౌంట్	5315
ఏదో	5316
మల	5317
రవీ	5318
వంశ	5319
##చారాన్ని	5320
##సింహ	5321
##నీయ	5322
ప్రణాళిక	5323
కోస	5324
నిర్లక్ష	5325
పుస్త	5326
మొదలుపెట్ట	5327
ఆడియన్స్	5328
ఇంది	5329
ఓట్ల	5330
##at	5331
పెండింగ్	5332
దేవు	5333
క్రా	5334
##వాన్	5335
##ల్లోనే	5336
మొదలైంది	5337
రాజ్యసభ	5338
##ಿಕ	5339
##కునే	5340
##పిక్	5341
##ెంట్లు	5342
వైద్యులు	5343
హెచ్చరిక	5344
బాధితు	5345
అదానీ	5346
అశ్వ	5347
వందే	5348
##ంఛ	5349
వేసుకు	5350
ఆహారం	5351
గ్రామానికి	5352
ఎంట్రీ	5353
రచయిత	5354
ఇస్తామని	5355
##ವು	5356
ఆఫీసర్లు	5357
ఉపాధి	5358
జంట	5359
##పరమైన	5360
##రాన్ని	5361
సెంట్రల్	5362
ఘో	5363
రెండే	5364
స్థానం	5365
##్యాలీ	5366
کا	5367
##ళా	5368
##దానికి	5369
అంచనాలు	5370
వంట	5371
##దర్	5372
##ఖ్	5373
##్రూ	5374
కుంభ	5375
రేప	5376
చేయాల్సి	5377
కుమారుడు	5378
థియేటర్	5379
ప్రమో	5380
కాంగ్రెస్‌	5381
చిక్కు	5382
దానిపై	5383
ఆకర్	5384
ఫ్రీ	5385
ప్రయాణం	5386
##నకు	5387
నియామ	5388
దంప	5389
##లర్లు	5390
పెన్	5391
నేతృ	5392
సరిహ	5393
వాతావరణం	5394
).	5395
గట్టి	5396
##కుని	5397
ముని	5398
##ట్టారు	5399
భూము	5400
అవుతున్న	5401
చిత్రా	5402
క్లారిటీ	5403
మెదక్	5404
ఇన్నింగ్స్	5405
సరిహద్దు	5406
ప్రశ	5407
##దేవి	5408
ఉద్యోగాలు	5409
సిద్ధంగా	5410
##క్ష్మి	5411
##ేశ్వర్	5412
కరెంట్	5413
ప్రచారంలో	5414
చెప్పుకొచ్చారు	5415
నినా	5416
##ట్రా	5417
సైన్	5418
ప్రమాదంలో	5419
రుణమా	5420
పాదయాత్ర	5421
మొబైల్	5422
పరిణామ	5423
టౌన్	5424
##చో	5425
##క్టర్	5426
##చ్చింది	5427
హీరోగా	5428
ఆరా	5429
రౌ	5430
##న్సర్	5431
##ిత్ర	5432
కుప్ప	5433
##తానికి	5434
అవకాశము	5435
అధికారంలో	5436
అభ్యర్థుల	5437
చోటుచేసుకు	5438
తరఫున	5439
##లికి	5440
##కరించిన	5441
లక్ష్య	5442
##ణాన్ని	5443
అందరి	5444
దక్షిణా	5445
లబ్ధి	5446
కెరీర్	5447
అండగా	5448
##వాద	5449
గుడి	5450
##జింగ్	5451
దిగారు	5452
విషయంపై	5453
నిలిచి	5454
పరిశీలించారు	5455
సెక్రటరీ	5456
గల	5457
తేల్	5458
బరిలోకి	5459
ఫ్రా	5460
##ందాం	5461
చెందు	5462
టీచర్	5463
రాజస్థాన్	5464
ప్రశ్నించ	5465
కంపెనీలు	5466
కొనసాగుతోంది	5467
ఆదాయ	5468
అంతేకాదు	5469
##లెట్	5470
##స్‌ను	5471
హనుమ	5472
రుణమాఫీ	5473
నంద	5474
బలంగా	5475
##యేట్	5476
కమ్యూని	5477
జరిగిందని	5478
టాక్	5479
వహ	5480
మీదుగా	5481
##త్యం	5482
సైబర్	5483
అదనపు	5484
పుష్ప	5485
ద్ర	5486
##బే	5487
##రామయ్య	5488
దిగ	5489
హిట్	5490
ఫుల్	5491
ధాన్	5492
ర్యాలీ	5493
##గాలను	5494
అయ్యా	5495
మేనిఫెస్టో	5496
ఘటనలో	5497
బౌలర్	5498
పరిగణ	5499
سے	5500
نے	5501
ఇందుకు	5502
బస్	5503
రెడ్డికి	5504
గుంటూ	5505
##దారుల	5506
##ృహ	5507
లీడర్లు	5508
చూడాలి	5509
##ెక్టరేట్	5510
హయాంలో	5511
భట్టి	5512
వ‌	5513
##ర్చ్	5514
నివ	5515
కొట్టి	5516
##మోహన్	5517
కలిగ	5518
ఆఫీస్	5519
##ంటోంది	5520
##శో	5521
##మాన	5522
చేశామని	5523
వర్మ	5524
నిర్ణయాలు	5525
పరిస్థితుల్లో	5526
తదితర	5527
ముందస్తు	5528
జస్టిస్	5529
##మార	5530
##ೆಯ	5531
సిద్ది	5532
దీనిని	5533
గౌర	5534
త్వరగా	5535
శ్ర	5536
నిలు	5537
##నెల	5538
చేరిన	5539
ఓపెన్	5540
##డిపి	5541
సాధి	5542
అనుకున్న	5543
##వికి	5544
##లాబాద్	5545
##పోటు	5546
బిగ్	5547
వాహన	5548
55	5549
వల్లే	5550
##వడం	5551
##ri	5552
##ికొ	5553
##ాయో	5554
##రిటీ	5555
అనుభ	5556
అనుచ	5557
ప్రొఫెసర్	5558
36	5559
బ్	5560
విపక్ష	5561
బ్యాక్	5562
పద్ధ	5563
##నిక్	5564
చెప్పే	5565
ఉండదు	5566
##ుకున్నారు	5567
తప్పని	5568
దానిని	5569
అంబే	5570
##ంపేట	5571
ప్రశాంత్	5572
300	5573
తప్పుడు	5574
భవన్	5575
వస్తున్నాయి	5576
##కోవచ్చు	5577
భూక	5578
కెన	5579
చేరుకున్న	5580
నీటిని	5581
వసూలు	5582
గర్భ	5583
##ేజ్	5584
##కారు	5585
##పణ	5586
కోచ్	5587
దేశంలోని	5588
తొలగి	5589
నన్ను	5590
##గుణంగా	5591
##పెద్ద	5592
కళా	5593
అలవా	5594
కార్యక్రమాలు	5595
నూతన	5596
##డె	5597
నిల్	5598
వర్గాల	5599
##జిక్	5600
పదార్థ	5601
జరగనుంది	5602
కోట్లకు	5603
గుంటూరు	5604
అబ్	5605
##ాల్సి	5606
##ఖండ్	5607
ఉన్నప్పుడు	5608
తాగు	5609
అభ్యర్	5610
వద్దకు	5611
తుది	5612
మానవ	5613
అలర్	5614
##క్టరీ	5615
##ష్ఠ	5616
##పోతున్న	5617
మోస	5618
జగిత	5619
ఒక్కసారిగా	5620
హౌస్	5621
అద్ద	5622
గ్రీన్	5623
##రిసి	5624
వివాదం	5625
తల్లిదండ్రులు	5626
37	5627
దృ	5628
బాలు	5629
హార్	5630
##ంబు	5631
కేబినెట్	5632
విదేశీ	5633
##వెన్యూ	5634
##ంకు	5635
##తామని	5636
##el	5637
రెవెన్యూ	5638
##ట్టుగా	5639
పెద్దపల్లి	5640
వ్యవహరి	5641
ఎడ	5642
సన్	5643
##ోభ	5644
##మ్రా	5645
మేర	5646
పిలి	5647
##తూనే	5648
నిర్వహించ	5649
దర్శనం	5650
పన్ను	5651
##లభ	5652
##మటి	5653
##en	5654
##ర్లను	5655
సినిమాకు	5656
విద్యార్థులకు	5657
ఇక్కడి	5658
అసోసి	5659
అసి	5660
##మిన	5661
##రిత	5662
కాలు	5663
వారిపై	5664
ఎస్టీ	5665
ప్రవేశపెట్ట	5666
రిజిస్ట్ర	5667
32	5668
ఖరారు	5669
యజ	5670
హర్	5671
నిర్ధ	5672
పుట్టిన	5673
వచ్చిందని	5674
బైక్	5675
ఉగ్ర	5676
సవాల్	5677
##ించినా	5678
మాట్లాడిన	5679
విమానా	5680
బట్టి	5681
##గమ	5682
##ట్‌లో	5683
##పోర్ట్	5684
రెడ్డిని	5685
పోరాటం	5686
అటవీ	5687
ఆశ్రయ	5688
గడ్	5689
##కలా	5690
పెట్రో	5691
##లేటి	5692
##కేజీ	5693
డివి	5694
వృద్ధ	5695
పాకిస్థాన్	5696
కుటుంబానికి	5697
రిటైర్	5698
తూర్	5699
పసు	5700
హమా	5701
##మికి	5702
##తోనే	5703
##యోగి	5704
వైస్	5705
##్యూరిటీ	5706
హాట్	5707
రాజకీయాలు	5708
వ్యక్తిగత	5709
విరాట్	5710
జర్నలి	5711
కదా	5712
నది	5713
##ಗೆ	5714
సురక్ష	5715
సిద్దిపేట	5716
జగిత్యాల	5717
ఇస	5718
##వెల్	5719
##ొద్దని	5720
##ఢ్	5721
ప్రవీ	5722
టీవీ	5723
మందిని	5724
విధానం	5725
తొలిసారి	5726
వంశీ	5727
in	5728
##వరీ	5729
##ರ್	5730
##ళ్లే	5731
లేవు	5732
హైదరాబాద్‌	5733
##‌ర‌	5734
స‌	5735
రాక	5736
రోజూ	5737
ఆయనను	5738
##శ్మీర్	5739
గెలిచి	5740
భద్రతా	5741
కార్యాలయంలో	5742
అన్	5743
బంతు	5744
##మొ	5745
##చల్	5746
##ించని	5747
కాళ	5748
##ాయితీ	5749
##లేదన్నారు	5750
జరిగాయి	5751
జూలై	5752
అన్నీ	5753
సింగరే	5754
యుద్ధం	5755
బృందం	5756
##నై	5757
##టప్పుడు	5758
##వెంట్	5759
తేలింది	5760
##ర్‌ను	5761
మంచిది	5762
రాశుల	5763
ధీమా	5764
ఖై	5765
ప్రదేశ	5766
అందజే	5767
ప్రేక్షకుల	5768
##రెన్స్	5769
##యడం	5770
అభ్యర్థిగా	5771
పెట్టుబడి	5772
కంట్రో	5773
ఏరియా	5774
##రాలి	5775
##క్య	5776
##so	5777
##కెక్క	5778
రాష్ట్రానికి	5779
##وں	5780
రాశారు	5781
డిజ	5782
గాజా	5783
యాజ	5784
ఆరోపి	5785
ప్రభావిత	5786
కర్నూ	5787
తక్కువగా	5788
ప్రవీణ్	5789
కట్టు	5790
##ରେ	5791
##గాలకు	5792
##లేరు	5793
కిడ్	5794
సాధించింది	5795
వీడియోను	5796
##ించుకోవడం	5797
పర్యవే	5798
కూతురు	5799
విజ్ఞప్తి	5800
కామె	5801
##నేది	5802
కుమార్తె	5803
ఆదిలాబాద్	5804
చెలరే	5805
రాబోయే	5806
చెప్పాడు	5807
పులి	5808
ఉండేది	5809
ప్రపంచవ్యాప్తంగా	5810
భక్తుల	5811
హాజరయ్యారు	5812
##లె	5813
##మూర్తి	5814
##ంటా	5815
గ్రౌండ్	5816
టోర్నీ	5817
భగ	5818
##ేజీ	5819
##స్కర్	5820
విఫ	5821
గెలవ	5822
ఓపె	5823
భవన	5824
బాల్	5825
సేవలు	5826
##య్యాడు	5827
పసుపు	5828
48	5829
గంగ	5830
##యస్	5831
చేసిందని	5832
టిడిపి	5833
ప్రియాంక	5834
ఇస్రో	5835
బతు	5836
విష్ణు	5837
ప్రతిపాదన	5838
సైని	5839
అత్యా	5840
యువత	5841
అప్పట్లో	5842
##పోవడంతో	5843
కృష్	5844
##మతి	5845
కోమటి	5846
సీఈ	5847
ఎమ్మెల్యేగా	5848
ఘటనపై	5849
రాలేదు	5850
##పోతుంది	5851
##కేతిక	5852
తరగతి	5853
198	5854
గ్రాముల	5855
ఉత్తర్వులు	5856
జ్	5857
బర్	5858
##గుల	5859
సాగ	5860
తీసుకునే	5861
కలక	5862
సెక్యూరిటీ	5863
##ಗಳ	5864
##న్ల	5865
##న్నం	5866
చిత్త	5867
పాలసీ	5868
రంగారెడ్డి	5869
జీవితం	5870
##కూడదని	5871
వందల	5872
విశ్లే	5873
34	5874
పాలు	5875
మరీ	5876
##ందంటూ	5877
##న్నర	5878
##స్తుండ	5879
రోజుకు	5880
##ర్‌గా	5881
ప్రశంస	5882
ప్రవర్	5883
##సుక	5884
##స్తుంటారు	5885
వేరే	5886
ప్రాంతాల	5887
ప్రభాస్	5888
కౌంటర్	5889
నిర్మించిన	5890
బీబీసీతో	5891
సాంకేతిక	5892
ఇల్లు	5893
కలు	5894
##పడ్డా	5895
##నుంచి	5896
లోనే	5897
కూర్చు	5898
##స్తున్నా	5899
వాట్	5900
##స్థాన	5901
##మేష్	5902
వెళ్తున్న	5903
శివకుమార్	5904
వడ్డీ	5905
##తగా	5906
సినిమాను	5907
హిందు	5908
నాలుగో	5909
ఇన్వ	5910
సీఐడీ	5911
##దారి	5912
##୍ତ	5913
ప్రతిష్ట	5914
జాత	5915
బెంగా	5916
జూనియర్	5917
అర్ధ	5918
అందించారు	5919
ఆమోదం	5920
ఈవెంట్	5921
వస్తోంది	5922
##ుల్లో	5923
పోర్టు	5924
పరిశీ	5925
వ్యవహారం	5926
ప్రస్తావ	5927
విమానాశ్ర	5928
##రాం	5929
రూమ్	5930
శిక్షణ	5931
సభ్యుల	5932
వెనక్కి	5933
41	5934
అల్ల	5935
సెట్	5936
తీసి	5937
చంద్రబాబుకు	5938
తరపున	5939
##జర్స్	5940
ఇంటర్వ్యూ	5941
నటించిన	5942
అఖ	5943
కడు	5944
##ay	5945
##್ಟ	5946
అనుగుణంగా	5947
....	5948
##స్‌కు	5949
భక్తులకు	5950
పరిష్కర	5951
వెళు	5952
తూర్పు	5953
మనీ	5954
##ات	5955
##లిజ	5956
##ందున	5957
##పుల	5958
వేర్	5959
వీరు	5960
డిజి	5961
విషా	5962
కార్యకలా	5963
మిలియన్	5964
గతే	5965
##దారులకు	5966
వైఎస్సార్	5967
##మవుతుంది	5968
కార్యాలయం	5969
లక్ష్మ	5970
కోసమే	5971
!!	5972
ఇటు	5973
సార్	5974
##వ‌	5975
అవినా	5976
పొంగు	5977
ట్రో	5978
టైమ్	5979
కనిపిస్తుంది	5980
డెవలప్	5981
##హార	5982
##రోసా	5983
2020	5984
పాల్గొన	5985
ప్లాంట్	5986
also	5987
సింగరేణి	5988
42	5989
ఖర్చ	5990
పరా	5991
నాణ్య	5992
దిగిన	5993
పిలు	5994
సమస్యల	5995
ఏమీ	5996
##୍ର	5997
##తుంటారు	5998
చేయకుండా	5999
##కేషన్	6000
##ులర్	6001
నిలిపి	6002
కస్టడీ	6003
యాజమాన్	6004
##ీణ	6005
##ెల	6006
##st	6007
##స్పె	6008
పొందిన	6009
చెబుతున్న	6010
జేడీ	6011
సమీపంలోని	6012
దినోత్స	6013
బ్రేక్	6014
మన్	6015
##ین	6016
##ంగానే	6017
##ంగ్‌	6018
అనిల్	6019
కిరణ్	6020
కార్తీ	6021
ఉత్తరా	6022
కార్యక్రమానికి	6023
##డల్	6024
##ام	6025
ప్రభుత్వంలో	6026
బలమైన	6027
తెలుసుకుందాం	6028
దశలో	6029
హరీష్	6030
పద్మ	6031
ఇస్త	6032
కడప	6033
ఛై	6034
మార్గ	6035
నాయక్	6036
రాజకీయాల్లో	6037
దేవర	6038
యువతి	6039
నిలదీ	6040
ఇళ్ల	6041
గంజ	6042
మని	6043
సహజ	6044
ఎదురుచూ	6045
నకి	6046
బార	6047
వస్తాయి	6048
##గురు	6049
##సీమ	6050
పోలిస్తే	6051
##తాన్ని	6052
చేస్తానని	6053
యాక్షన్	6054
##పోవడం	6055
ఓటర్లు	6056
టన్న	6057
కేజీ	6058
తీసుకువ	6059
నగరంలో	6060
చనిపోయిన	6061
మండలంలోని	6062
షు	6063
ప్రోత్స	6064
##ద్కర్	6065
కోర్	6066
##బ్ల్యూ	6067
హైక	6068
సెలవు	6069
అసిస్ట	6070
జ్ఞ	6071
##టెస్ట్	6072
##ృత	6073
##డ్డూ	6074
##శాతం	6075
గతేడాది	6076
##స్యం	6077
##రోధ	6078
##త్రీ	6079
##జీగా	6080
వర్క్	6081
బుక్	6082
గెలిపించ	6083
జాగ్రత్తగా	6084
read	6085
##గడ	6086
##వచ్చని	6087
విటమి	6088
##దుల	6089
కోడ్	6090
నెంబర్	6091
వీడియోలు	6092
పనులను	6093
గ్రామాల్లో	6094
శాస్త్రవేత్త	6095
##తనం	6096
##తులతో	6097
లేకపోవడంతో	6098
కెనడా	6099
సస్పె	6100
##తాధిక	6101
యూట్యూ	6102
మరిన్ని	6103
బృంద	6104
పబ్లిక్	6105
ఇద	6106
కచ్చితంగా	6107
జంతు	6108
##స్తి	6109
##ంతృ	6110
పోల్	6111
##ట్లుగా	6112
వేడి	6113
సీఎ	6114
సామాన్	6115
##ల్‌కు	6116
ఆదేశించింది	6117
##మయ్యాయి	6118
కనిపించింది	6119
హెల్త్	6120
ఆసియా	6121
అనారోగ్య	6122
ఓటర్	6123
##ద్దే	6124
పాల్గొన్న	6125
పనిచేస్తున్న	6126
ముగిసిన	6127
ఓవర్లలో	6128
మంటలు	6129
నటుడు	6130
అంటారు	6131
ఒంట	6132
##ప్పుడే	6133
సర్టిఫ	6134
ఎంపీగా	6135
స్వయంగా	6136
ఉంచు	6137
సామర్థ	6138
ఒడిశా	6139
ఇప్ప	6140
##రక్షణ	6141
విన్న	6142
తుపా	6143
నిర్ణయించారు	6144
నిలబ	6145
ఇటీవలే	6146
పెన్షన్	6147
ఇసుక	6148
ఏంట	6149
గర్	6150
##క్రా	6151
##రిగే	6152
##నేత	6153
మూడే	6154
##ెన్షన్	6155
బియ్య	6156
కర్ణాటకలో	6157
ప్లేయర్	6158
పొంగులేటి	6159
اور	6160
##ಡಿಯ	6161
##కుంట	6162
##ంగిక	6163
ములుగు	6164
మీటర్ల	6165
అవ్వ	6166
పాలనలో	6167
భూకంప	6168
అసోసియేషన్	6169
ఓటీ	6170
భరోసా	6171
##వారా	6172
విడత	6173
పాన్	6174
##పోతున్నారు	6175
తీసుకురావ	6176
పడుతున్నారు	6177
నిజం	6178
వాలంటీ	6179
లకు	6180
##దాన	6181
##స్‌‌‌‌	6182
##లాల్లో	6183
స్టీ	6184
##దురు	6185
##ేశాడు	6186
##ంబరు	6187
##స్టులు	6188
##కంఠ	6189
ప్రభావ	6190
డాక్టర్లు	6191
వెంకటస్వామి	6192
అతిపెద్ద	6193
నూనె	6194
کہ	6195
రాజా	6196
కూల్చి	6197
చేయలేదు	6198
##స్టల్	6199
సర్పంచ	6200
మధ్యలో	6201
ప్రత్యక్ష	6202
ఉద్రి	6203
లైంగిక	6204
చేరుకున్నారు	6205
గవర్న	6206
ఆశి	6207
##వాడు	6208
##ంటింగ్	6209
దీక్ష	6210
సెమీ	6211
##ల్‌ను	6212
##కాలిక	6213
##నర్జీ	6214
బంగారు	6215
ఆమోద	6216
రాజ్యాంగ	6217
ఏజెన్సీ	6218
గడువు	6219
జార్	6220
##సలు	6221
సీరియ	6222
ఏర్పడింది	6223
క్రై	6224
##ించుకుని	6225
రావాలని	6226
సంతోషంగా	6227
మహబూబ్	6228
కంట్రోల్	6229
కోమటిరెడ్డి	6230
గంజాయి	6231
ప్రదేశ్	6232
జిల్లాల	6233
చేసుకునే	6234
మారాయి	6235
వంటివి	6236
వివాహం	6237
హిందీ	6238
భోజ	6239
సలహా	6240
పండి	6241
రొ	6242
ముద్ర	6243
లేటెస్ట్	6244
బాక్	6245
##ద్ధికి	6246
టైటిల్	6247
పెరుగుతుంది	6248
అద్భుతమైన	6249
ట్రి	6250
సతీ	6251
##ట్లకు	6252
##టీషన్	6253
ఉన్నత	6254
విషయాలు	6255
సోనియా	6256
పిల్లలకు	6257
ఎవరికి	6258
అమెరికాలో	6259
జాబితాలో	6260
సచివాల	6261
కాళేశ్వరం	6262
65	6263
ہو	6264
ఘా	6265
##మూర్	6266
విసి	6267
పాప	6268
మెరుగ	6269
ఆర్మీ	6270
మధ్యప్రదేశ్	6271
ప్రధానంగా	6272
కార్మికులు	6273
ఇరాన్	6274
దిల్లీ	6275
##ాయికి	6276
మాస్టర్	6277
ఉన్నతాధిక	6278
##దాన్ని	6279
చూసుకు	6280
దేశాలు	6281
ఏర్పడిన	6282
వ్యాధి	6283
ప్రత్యర్థ	6284
పీసీసీ	6285
రాజకీయంగా	6286
రిపోర్టు	6287
పిలుపునిచ్చారు	6288
##బన్	6289
##మాస	6290
నేర	6291
వ్యక్త	6292
నెలల్లో	6293
అమ్ము	6294
ఎనిమిది	6295
##నలో	6296
##హరణ	6297
##లోపే	6298
##దిగా	6299
##ల్లూరు	6300
చివర	6301
ప్రాంతం	6302
రూపంలో	6303
##స్పద	6304
వీరిద్ద	6305
ఆనంద	6306
కోట్లతో	6307
లేదంటే	6308
కప్పు	6309
##కల్	6310
విద్యార్థుల	6311
##టనా	6312
ఫోకస్	6313
దుకా	6314
నమ్మకం	6315
##ించాల్సిన	6316
کیا	6317
అశో	6318
##గౌ	6319
##టిన	6320
కలిగిన	6321
ఉంటున్న	6322
సర్వ	6323
సాధించారు	6324
##ించుకుంది	6325
ఫ్యాక్టరీ	6326
అంశం	6327
అంబేద్కర్	6328
అక్ష	6329
గజ	6330
గిల్	6331
##ంసా	6332
యాంటీ	6333
అరవింద్	6334
దీనివల్ల	6335
తెరకెక్క	6336
ఆసుపత్రికి	6337
గ్లో	6338
దృష్టికి	6339
ఈనెల	6340
సమ్మ	6341
##ారే	6342
##ారామ	6343
పోస్టర్	6344
రెడ్	6345
నేటి	6346
అంశంపై	6347
ఉద్యోగుల	6348
గ్యాస్	6349
మెజార్టీ	6350
38	6351
అన్య	6352
ఆశ్చ	6353
ఏంటి	6354
జ‌	6355
ವಿ	6356
సంభవ	6357
##విని	6358
పుర	6359
చేస్తున్నాయి	6360
మద్దతుగా	6361
ఉద్యోగులకు	6362
ఫీజు	6363
ల్యాండ్	6364
వదిలే	6365
క్రికెటర్	6366
చరణ్	6367
##పర	6368
##ెక్షన్	6369
##ందరికీ	6370
రాష్ట్రపతి	6371
చేరుకుంది	6372
కురిసే	6373
నిందితుడు	6374
కృష్ణా	6375
ధై	6376
పల్లి	6377
##గతం	6378
##చంద్ర	6379
##హో	6380
చేరింది	6381
##గుల్	6382
తెగ	6383
మాల్	6384
సంబ	6385
పురా	6386
తీసుకొని	6387
సంస్థల	6388
పేరును	6389
నిర్ణయించింది	6390
బలహీ	6391
పర్వ	6392
జాగ్రత్తలు	6393
పరిచయం	6394
ఇత	6395
సదు	6396
##బరు	6397
##స్‌లో	6398
##ికెట్లు	6399
రేషన్	6400
లిమి	6401
కర్నా	6402
రంగంలోకి	6403
##వారిని	6404
ఉత్కంఠ	6405
అనుమత	6406
అభిప్రాయం	6407
భిన్న	6408
ఆగి	6409
రాసిన	6410
స్మార్	6411
సిట్టి	6412
##మ్మల	6413
పాటుగా	6414
వినో	6415
ఫ్రెండ్	6416
దళిత	6417
తేడాతో	6418
హైకమాండ్	6419
ఆదు	6420
##ంటె	6421
దీపా	6422
##క్రెయిన్	6423
మంచిర్యాల	6424
ప్రజాస్వామ	6425
ప్రొడ	6426
ప్రయాణికులు	6427
ఇస్	6428
##‌‌కు	6429
##తుంటే	6430
విధి	6431
కొర	6432
రాష్ట్రవ్యాప్తంగా	6433
సహాయం	6434
హోటల్	6435
దొరిక	6436
కాలేదు	6437
క్రమంలోనే	6438
అసిస్టెంట్	6439
ch	6440
ఆప్	6441
##రిన	6442
సంస్క	6443
చెప్పాలని	6444
ప్రాథ	6445
స్థానాలు	6446
ఆలయంలో	6447
గౌరవ	6448
అంశాలపై	6449
వివాహ	6450
ఫామ్	6451
##ಿದ್ದ	6452
నెటిజన్	6453
అలర్ట్	6454
ఛాన	6455
##లన్నీ	6456
##ప్రెస్	6457
##జో	6458
##పైకి	6459
హింస	6460
సమావేశాలు	6461
పడుతున్న	6462
పరిష్కారం	6463
పెట్టింది	6464
వాదనలు	6465
అర్హత	6466
అంతకుముందు	6467
ఢీకొ	6468
టిక్కెట్	6469
తప్పనిసరి	6470
హమాస్	6471
ఆన్‌	6472
ఏటా	6473
నవీ	6474
వాన	6475
##ర్యం	6476
##ర్షణ	6477
##స్తుండగా	6478
స్మ	6479
##క్షంలో	6480
అధికారులతో	6481
పిటీషన్	6482
రంగంలో	6483
జెండా	6484
##ొచ్చని	6485
నివార	6486
మాస్	6487
బాంబు	6488
తాగ	6489
తీసుకుంటామని	6490
కలకలం	6491
ఘనంగా	6492
##తుందో	6493
##డుతూ	6494
##తిప	6495
##జీపీ	6496
##ాంపి	6497
పెరిగిన	6498
ఇంగ్లాండ్	6499
గమనించ	6500
పునరు	6501
విపరీ	6502
తెల్లవారు	6503
44	6504
ఇస్తే	6505
ఛే	6506
##కాయ	6507
##de	6508
దీప	6509
తెలంగాణకు	6510
మహేష్	6511
ఎదుర్	6512
##వంతమైన	6513
మరికొన్ని	6514
విఫల	6515
ఇండ్లు	6516
ఖర్	6517
గృహ	6518
నవ	6519
##ైతే	6520
##ెత్తు	6521
వెలువ	6522
##మిషన్	6523
రేటు	6524
యాదా	6525
వీడియోలో	6526
విశేషం	6527
ప్రాథమిక	6528
ఈవీ	6529
బ్యార	6530
##ారట	6531
##ించడంలో	6532
##వుగా	6533
అనంత	6534
ఉంటాయని	6535
క్షేత్ర	6536
ట్రైలర్	6537
అధికారికంగా	6538
పడిన	6539
##దికి	6540
నిధు	6541
##క్షన్స్	6542
##ుకుని	6543
మంత్రిగా	6544
జోన్	6545
గుర్తించి	6546
విమానం	6547
అనుకూల	6548
ప్రతినిధి	6549
ఏకా	6550
వాయు	6551
##టైన	6552
##ئی	6553
##ందరూ	6554
సమర్థ	6555
##పిరి	6556
తనపై	6557
వర్గం	6558
##త్మకంగా	6559
రామకృష్ణ	6560
మాటలు	6561
##ేశ్వరరావు	6562
అప్పటిక	6563
##୍ୟ	6564
ప్రచు	6565
##్యాలు	6566
ఉన్నాడు	6567
చేశాయి	6568
పొలి	6569
##ట్‌మెంట్	6570
వదిలి	6571
బార్	6572
##ేలా	6573
##పించింది	6574
##ందంటే	6575
కొడ	6576
కొంద	6577
సాగర్	6578
బెదిరి	6579
బిజిన	6580
ప్రాంతాలకు	6581
క్యాన్సర్	6582
లీగ్	6583
2019లో	6584
సంప్రదాయ	6585
పటే	6586
ప్రకా	6587
పేలు	6588
మేలు	6589
భూములు	6590
ఆధార్	6591
సంవత్సరాలు	6592
సూర్యా	6593
సమర్పించ	6594
ఇంజినీ	6595
నౌ	6596
##‌‌ను	6597
##ించామని	6598
రాకుండా	6599
##సిన్	6600
##పోర్	6601
స్పందన	6602
జరుగుతున్నాయి	6603
నమోదైంది	6604
కాపాడు	6605
జడ్పీ	6606
ان	6607
##ీగా	6608
##it	6609
చేరి	6610
సిరిసి	6611
##జీలు	6612
##జిత్	6613
ఆర్డర్	6614
విచారణలో	6615
ముఖ్యమంత్రిగా	6616
విమాన	6617
పోస్టులు	6618
సర్వీస్	6619
బిజినెస్	6620
శే	6621
##బడులు	6622
##కాంక్షలు	6623
రిమాండ్	6624
##గ్రహ	6625
##ర్‌కు	6626
టైం	6627
మొదలైన	6628
బ్రిడ్	6629
##ల్లంఘ	6630
ఉద్రిక్త	6631
గద్ద	6632
జపా	6633
డో	6634
##రినీ	6635
##ధన్	6636
##‌న్	6637
##జరీ	6638
##ారిత	6639
##త్తీ	6640
జిల్లాకు	6641
అవుతున్నాయి	6642
పనిచేసే	6643
ఆవిష్	6644
యాదాద్రి	6645
ఫిల్	6646
హరి	6647
##రించింది	6648
##డాల్సి	6649
##వర్ణ	6650
ట్రే	6651
మ్యాచ్‌లో	6652
పెరుగుతున్న	6653
మున్సిపాలిటీ	6654
ధర్నా	6655
బంతుల్లో	6656
ఉల్లంఘ	6657
##ئے	6658
జిల్ల	6659
శ్రీధర్	6660
విజయాన్ని	6661
ఆదిత్య	6662
పథకాలు	6663
దెబ్బతి	6664
సంపద	6665
39	6666
ఉదా	6667
ఏళ్లు	6668
తుల	6669
##నార్	6670
##ూన్	6671
##్రు	6672
సోర్స్	6673
సేకర	6674
ప్రధానమంత్రి	6675
చేసుకోవచ్చు	6676
సంచల	6677
దృష్టిలో	6678
##స్థాయిలో	6679
రిజిస్ట్రేషన్	6680
కర్నాటక	6681
400	6682
ఏసీబీ	6683
##ూల	6684
##ండం	6685
##‌‌‌‌‌‌‌‌‌‌‌‌‌‌‌‌లో	6686
##పుల్	6687
##ంటుందని	6688
##కరంగా	6689
న్యూజి	6690
రమేశ్	6691
లక్	6692
##నికే	6693
##ాయక	6694
##త్తులు	6695
##డేట్	6696
మనకు	6697
కొనసాగుతున్న	6698
అందుకున్న	6699
వస్త	6700
దేశాల్లో	6701
మంత్రిత్వ	6702
తేల్చి	6703
హెడ్	6704
అసెంబ్లీలో	6705
సంవత్సరంలో	6706
సత్యనారాయణ	6707
ఓట	6708
మిత్ర	6709
##ಕ್	6710
కోట	6711
సిక్	6712
చేయి	6713
జీహెచ్	6714
జగన్‌	6715
అక్రమంగా	6716
భవిష్యత్	6717
డిజిటల్	6718
న్యూజిలాండ్	6719
ایک	6720
చది	6721
తగి	6722
##మంతా	6723
##లాన్ని	6724
ఉన్నప్పటికీ	6725
పరిహారం	6726
చంద్రుడి	6727
అసంతృ	6728
ఇద్దరూ	6729
పెరిగే	6730
హైడ్రా	6731
నిల్వ	6732
డివిజన్	6733
##విల్	6734
##దన్	6735
కోలు	6736
కోటి	6737
బ్యాటర్	6738
మారిన	6739
దేవాల	6740
చుట్టు	6741
ఎక్స్‌ప్రెస్	6742
కార్యకలాప	6743
vi	6744
ఎత్తి	6745
రమేష్	6746
##రించి	6747
##ల్ట్	6748
##ంటరీ	6749
##స్తుల	6750
##మింగ్	6751
సాంగ్	6752
##వర్గ	6753
చంద్రయాన్	6754
చంద్రబాబును	6755
గూగుల్	6756
భయం	6757
మట్టి	6758
##ic	6759
##re	6760
##ూహ	6761
చేయండి	6762
స్ట్రీ	6763
గోల్డ్	6764
##లైట్	6765
చోట	6766
కనుగొ	6767
సానుకూ	6768
ఓటీటీ	6769
కంప్	6770
చల్ల	6771
##లక	6772
##లక్ష్మి	6773
##వకు	6774
##ak	6775
పేర్లు	6776
వీరికి	6777
సూచన	6778
తొమ్మిది	6779
##లిజెన్స్	6780
శై	6781
ಮಾ	6782
##లుత	6783
##కుడి	6784
##ించవచ్చు	6785
##రిట	6786
జీవో	6787
##ಲ್‌	6788
కానిస్టే	6789
కసర	6790
##జిల్	6791
ప్రశ్నలు	6792
కోర్టుకు	6793
వ్యవధి	6794
##వంతం	6795
క్యారెట్ల	6796
ఆక్రమ	6797
ఇస్తున్న	6798
ఎప్పటిక	6799
రాం	6800
నిర్వాహ	6801
అభ్యర్థులను	6802
తీసుకోవాలి	6803
రికార్డ్	6804
హైకోర్టులో	6805
ఎద్దే	6806
##గఢ్	6807
##త్రిక	6808
మిస్	6809
ప్రైవేటు	6810
ఉత్తరప్రదేశ్	6811
ఎమో	6812
వేణు	6813
అధికంగా	6814
##మ్మల్ని	6815
టీఎస్	6816
గురైన	6817
అందజేశారు	6818
వెంకట్	6819
బాలకృష్ణ	6820
స్వీకారం	6821
అత్యధికంగా	6822
వెబ్‌	6823
##సాయి	6824
##శంకర్	6825
##మిడి	6826
సిస్ట	6827
రియల్	6828
##న్‌గా	6829
బీజేపీలో	6830
##సైడ్	6831
అధ్యయనం	6832
సిట్టింగ్	6833
బట్ట	6834
##గంట	6835
##ری	6836
తీసిన	6837
##వేత	6838
టీం	6839
కారణాలు	6840
##బోతోంది	6841
197	6842
ఆఫీసు	6843
నోటీసు	6844
సీతారామ	6845
కన్నడ	6846
54	6847
ఒలిం	6848
భర	6849
##న్నది	6850
##గామ	6851
నివాస	6852
సులభ	6853
దేశానికి	6854
శుభా	6855
వైఎస్ఆర్	6856
వాహనాలు	6857
ఒప్పందం	6858
ఫార	6859
##ంక్షన్	6860
##‌క	6861
సమాజ	6862
అతనికి	6863
వివరణ	6864
స్పష్టత	6865
తిరుమలలో	6866
సిరిసిల్ల	6867
ఖు	6868
మంద	6869
##హిత	6870
నివాసం	6871
##బాబాద్	6872
చూసు	6873
తొలుత	6874
ఆలస్య	6875
తెరక	6876
స్పష్టంగా	6877
ఎద్దేవా	6878
సగ	6879
##ప్రా	6880
##نے	6881
రాకపో	6882
సింహ	6883
అభివృద్ధికి	6884
అయినప్పటికీ	6885
ఫేక్	6886
ఉప్ప	6887
కంటి	6888
పవిత	6889
లడ్డూ	6890
##డక	6891
ప్రసా	6892
స్కిల్	6893
##మార్క	6894
దూరంలో	6895
రుతు	6896
తెలుసుకున్న	6897
49	6898
co	6899
రాము	6900
వాటా	6901
ఉండడంతో	6902
శరీరంలో	6903
బెంగాల్	6904
నకిలీ	6905
తదు	6906
పాస్	6907
రోజా	6908
ప్రకటి	6909
కలెక్టరేట్	6910
##బోతున్నారు	6911
ఇద్దరి	6912
##మవుతోంది	6913
న్యాయవాది	6914
గడ్డం	6915
ఓటింగ్	6916
##చాడు	6917
##ష్‌	6918
##వుతున్న	6919
పోర్	6920
చెప్పాలి	6921
వచ్చినా	6922
పేరిట	6923
##వ్‌	6924
ఇదిలా	6925
##ామున	6926
చేరుకుని	6927
ఫలితం	6928
##స్టిక్	6929
బరిలో	6930
తదుపరి	6931
ధన	6932
శ్	6933
##6లో	6934
పార్క్	6935
దాడికి	6936
##సాని	6937
నెల్లూరు	6938
అక్కడికి	6939
చేసుకోవాలని	6940
భూమిని	6941
##ాపన	6942
ఎకరాల	6943
నియంత్రణ	6944
మెరుగైన	6945
51	6946
ఫ్లా	6947
##శీ	6948
##ఫోర్	6949
స్వి	6950
స్వాత	6951
జరగనున్న	6952
సంగారెడ్డి	6953
వీటిలో	6954
కారులో	6955
గెలుచుకు	6956
అప్పటికే	6957
##రన్	6958
##కంలో	6959
##భార	6960
##ప‌	6961
##పరు	6962
##సరా	6963
##శై	6964
##మానికి	6965
వెల్	6966
బాడీ	6967
ఒకసారి	6968
ఉండడం	6969
##తీరు	6970
మాట్లాడే	6971
అవుతున్నారు	6972
తెలియదు	6973
చేసుకోవాలి	6974
మరణించారు	6975
గిరిజన	6976
బంగా	6977
##وی	6978
##ంతం	6979
##ండ్లలో	6980
చింత	6981
అనుబంధ	6982
వారితో	6983
ప్రశ్ని	6984
టాటా	6985
శ్రేణ	6986
ఫార్మా	6987
యూట్యూబ్	6988
సూర్యాపేట	6989
ఎంటర్	6990
ఘర్షణ	6991
బెస్ట్	6992
##ంథ	6993
##డైన	6994
##హర్	6995
##న్స	6996
##‌‌‌‌కు	6997
##త్న	6998
నివా	6999
పోరు	7000
##ామిక	7001
తేలిక	7002
అవుతుందని	7003
##స్తూనే	7004
150	7005
షాపు	7006
స్వల్ప	7007
ప్రియ	7008
ఫ్లో	7009
మరికొందరు	7010
మెజారిటీ	7011
ఉష్ణోగ్రతలు	7012
మించి	7013
##యితే	7014
##ాడ	7015
స్త్రీ	7016
కూరగా	7017
ముర	7018
సమక్షంలో	7019
జరిగితే	7020
సంబంధాలు	7021
లైఫ్	7022
అడిషనల్	7023
##టెక్	7024
రాగానే	7025
##ాలుగా	7026
వాణి	7027
సాక్ష	7028
షేక్	7029
రిపోర్ట్	7030
ప్రదర్శన	7031
వాట్సా	7032
బారిన	7033
డాక	7034
##ాయర్	7035
నిర్వహించే	7036
జట్టులో	7037
##బడింది	7038
విక్రమార్క	7039
##పూడి	7040
అభిప్రాయపడ్డారు	7041
మహబూబాబాద్	7042
కెమెరా	7043
##یڈیو	7044
జమ్మ	7045
##సిస్	7046
చెప్పడం	7047
తీసుకుంటున్న	7048
చేస్తారని	7049
కేసును	7050
ఉండేలా	7051
క్రియేట్	7052
సహాయక	7053
భారతదేశంలో	7054
పలికారు	7055
మణిపూర్	7056
ఖర్గే	7057
ఫండ్	7058
బ్యాల	7059
##తంత్ర	7060
##వస్థ	7061
##వళి	7062
##శ్రీ	7063
##స్మ	7064
##స్తుంటే	7065
##నేశ్వ	7066
##ఫ్టీ	7067
లక్ష్యం	7068
ఫోర్	7069
కీలకంగా	7070
పాత్రలో	7071
బ్రహ్	7072
##తుండటంతో	7073
ఊహించని	7074
కై	7075
న‌	7076
##దాల	7077
ప్రయోగ	7078
పెళ్ల	7079
పరిమిత	7080
##ళ్లతో	7081
పుట్ట	7082
చెబుతోంది	7083
వెలుగులోకి	7084
నిర్మాణానికి	7085
డెలి	7086
మనుష	7087
చోటుచేసుకుంది	7088
జపాన్	7089
కాలి	7090
కత్తి	7091
మంచు	7092
లూ	7093
వారా	7094
##రాయి	7095
##దరి	7096
రెగ్య	7097
వేస్తున్నారు	7098
##ంటున్నా	7099
చివరకు	7100
తీసుకొ	7101
భారత్‌లో	7102
నాలుగే	7103
సరిగ్గా	7104
బాధితులు	7105
ఇంజనీ	7106
అశ్వి	7107
శుభాకాంక్షలు	7108
ویڈیو	7109
##ಂಡ	7110
##మాన్ని	7111
లేకపోవడం	7112
ఆర్‌	7113
గంటలు	7114
లింగ	7115
ఆస్పత్రికి	7116
ఒంటరి	7117
ఆన్‌లైన్	7118
ఎప్పటికప్పుడు	7119
సగటు	7120
కూరగాయ	7121
కండ	7122
నిఘా	7123
##తిన్	7124
వెహ	7125
తీశారు	7126
##చేసి	7127
వైసీపీకి	7128
ఆలయం	7129
##మైతే	7130
పెట్టుబడులు	7131
జైలులో	7132
గ్రేటర్	7133
శాసనసభ	7134
##జను	7135
##ps	7136
##ర్బ	7137
##తుడు	7138
మాదిరి	7139
తమను	7140
ఫలితంగా	7141
క్రీడా	7142
##ಂದು	7143
ధాన్యం	7144
ఆక్	7145
ఉల్లి	7146
దసరా	7147
##as	7148
##ାଇ	7149
##తుందన్నారు	7150
##స్తామన్నారు	7151
కోరిక	7152
ప్రాంతానికి	7153
వివరాల	7154
ఆర్థికంగా	7155
##త్వంలోని	7156
జైలుకు	7157
శరీర	7158
##ಿದೆ	7159
వలస	7160
##లెన్స్	7161
##పక్క	7162
##ౌట్	7163
##7లో	7164
వెలు	7165
##మిక్	7166
వేచి	7167
క్రె	7168
సభ్యుడు	7169
వ్యక్తిని	7170
తెలియని	7171
బిల్డింగ్	7172
విభాగం	7173
మనిషి	7174
విటమిన్	7175
ఉదాహరణ	7176
జమ్మూ	7177
46	7178
గానీ	7179
##ھا	7180
##ార్క్	7181
వాడు	7182
వాగ్	7183
##టికీ	7184
##కూరు	7185
చేస్తున్నామని	7186
తీవ్రత	7187
ఇంటె	7188
##పాలన	7189
నాగార్జున	7190
వయస్సు	7191
వహి	7192
##క్రియ	7193
##టుగా	7194
##ందుకే	7195
##ంట్ల	7196
అనిపి	7197
వీలు	7198
కెసి	7199
అంశా	7200
ఉత్తమ	7201
ఐదుగురు	7202
ఇంటర్నే	7203
కార్యక్రమాన్ని	7204
ఫ్ల	7205
మ్యూజిక్	7206
ఛాన్స్	7207
బియ్యం	7208
డాక్యు	7209
ఐక్య	7210
##లండ్	7211
##لی	7212
##పుడు	7213
కొండా	7214
జగదీ	7215
కుటుంబాలకు	7216
తీవ్రమైన	7217
గ్రామీణ	7218
నిర్మాత	7219
అడుగులు	7220
ఆనంద్	7221
ఎకరాల్లో	7222
అశోక్	7223
##ంజు	7224
##తన్య	7225
##మణి	7226
##మాట	7227
సంకే	7228
##సేప	7229
సభకు	7230
ఆసుపత్రిలో	7231
లభించింది	7232
గ్యారంటీ	7233
ఇష్టం	7234
ఉప్పు	7235
బలోపే	7236
వరి	7237
##ai	7238
##ించకుండా	7239
##ద్దాం	7240
నేతలతో	7241
##గొట్ట	7242
లిస్ట్	7243
పారిశ్ర	7244
##ಡಿಯೋ	7245
ఆశా	7246
జట్టుకు	7247
టికెట్లు	7248
##రించిన	7249
##పించిన	7250
##శ్రా	7251
##యాంశ	7252
కూలీ	7253
తీర్చ	7254
##త్తం	7255
సమన్	7256
ఒకరి	7257
##మ్మద్	7258
అతడి	7259
చర్చనీ	7260
యువకుడు	7261
సౌత్	7262
నిమిషాల	7263
నిరాశ	7264
డయా	7265
వడ	7266
వస్తాయని	7267
సప్	7268
##ରି	7269
##పోత	7270
##స్తున్నాం	7271
##సేపు	7272
శ్రీరా	7273
నిర్వహించి	7274
##ూరులో	7275
##పూర్వ	7276
అన్నది	7277
యూనియన్	7278
హుస్	7279
కోరుతూ	7280
స్కామ్	7281
పవిత్ర	7282
వాట్సాప్	7283
47	7284
99	7285
گیا	7286
ఎల్ల	7287
గీ	7288
చర్మ	7289
పిల్	7290
##గల్	7291
##తంలో	7292
##చలం	7293
##ఫార్	7294
##నియ	7295
##ందింది	7296
మూసి	7297
సుదీ	7298
రాజకీయం	7299
భాగస్వామ	7300
చిన్నారి	7301
రోడ్లు	7302
ప్రసంగ	7303
నాయకత్వం	7304
పెట్రోల్	7305
డెలివరీ	7306
ఇళ్లు	7307
స్న	7308
పోల	7309
##లేద	7310
వాటికి	7311
##జాన్	7312
##ులైన	7313
తెలుస్తుంది	7314
జనతా	7315
##లికా	7316
అంశాలు	7317
##and	7318
వీరిలో	7319
గ్లోబల్	7320
43	7321
ఔట్	7322
##వారీ	7323
##హే	7324
##స్తాడు	7325
##కోవాల్సి	7326
డిపా	7327
##యింగ్	7328
అంతరి	7329
##గోపాల్	7330
పథకాల	7331
గాయాల	7332
##పోయిందని	7333
విభజన	7334
ధ్వంసం	7335
కసరత్తు	7336
59	7337
లలో	7338
##..	7339
##ప్ట్	7340
##టిక్స్	7341
ముక్క	7342
ప్రజల్లో	7343
ప్రారంభి	7344
స్వాగతం	7345
తనిఖీలు	7346
వేధింపు	7347
సస్పెండ్	7348
లిమిటెడ్	7349
ఐఏ	7350
జమ	7351
పార	7352
మిల్	7353
##తన్	7354
##వంగా	7355
##దె	7356
##డారు	7357
నితీ	7358
##నేయ	7359
వైరస్	7360
##ధ్యం	7361
##బంధు	7362
##హానికి	7363
##ల్‌గా	7364
గోడ	7365
పెరిగాయి	7366
అప్పుడే	7367
తీసుకెళ్	7368
శుభ్ర	7369
ఒప్పంద	7370
ఎన్డీఏ	7371
స్టోరీ	7372
ఆయుధ	7373
రాజమండ్రి	7374
వెబ్‌సై	7375
చర్చనీయాంశ	7376
ఆకా	7377
ఇంద్ర	7378
ఉంటూ	7379
ఎండీ	7380
థ్ర	7381
##లంలో	7382
ముప్పు	7383
##పాతం	7384
నెలలు	7385
తేదీల్లో	7386
పిల్లలను	7387
సొంతం	7388
ఇందిరా	7389
భోజనం	7390
పారిశ్రామిక	7391
ఆఫర్	7392
##or	7393
##షిక	7394
కొత్తగూడెం	7395
అయ్యి	7396
ఆధారాలు	7397
నిందితులు	7398
ఫలితాలను	7399
ఇంగ్లండ్	7400
నవీన్	7401
52	7402
##యన	7403
##కులతో	7404
##ంత్రా	7405
విగ్రహం	7406
##డీవో	7407
మెసే	7408
##కాశం	7409
కీలకమైన	7410
##ంటున్నాయి	7411
ఫాలో	7412
ఎయిర్‌	7413
సార్వ	7414
ఆశ్చర్య	7415
ఇంటెలిజెన్స్	7416
అహ్మద్	7417
ఏడా	7418
కేశ	7419
కబ్	7420
##మారి	7421
##ھی	7422
##ికో	7423
##మ్మా	7424
ఉన్నట్టు	7425
దాటి	7426
##రేటర్	7427
ప్రభుత్వంపై	7428
నేతలకు	7429
అతన్ని	7430
పడుతుంది	7431
వేడుకలు	7432
కోరుతున్నారు	7433
సీరియస్	7434
ఎగ	7435
చేతులు	7436
##ండెంట్	7437
కోటా	7438
కొట్టుకు	7439
భాస్కర్	7440
హామీలు	7441
తీర్మానం	7442
విశాఖపట్నం	7443
లభిస్తుంది	7444
దక్షిణాఫ్రికా	7445
పరంగా	7446
రాయ్	7447
##ద్వే	7448
పెడు	7449
లేకపోతే	7450
నాన్	7451
నెయ్యి	7452
##స్ట్రి	7453
ఉపయోగి	7454
సూచించింది	7455
సూచనలు	7456
##లికేషన్	7457
సీపీఐ	7458
ఆరుగు	7459
తహ	7460
పరిక	7461
##హాలను	7462
##le	7463
##డియం	7464
నిత్యం	7465
##సీస్	7466
సమగ్ర	7467
పదో	7468
వాటిలో	7469
సంఘాల	7470
కిలోల	7471
శంకు	7472
గేమ్	7473
క్వార్	7474
బ్రాండ్	7475
ఖండ	7476
పత	7477
వు	7478
##సార	7479
##టీస్	7480
##వుల్లో	7481
వచ్చాక	7482
చూసే	7483
స్థలానికి	7484
##సాహ	7485
బెడ్	7486
కారణమని	7487
క్షమా	7488
విక్రయ	7489
ఛైర్మన్	7490
పటేల్	7491
గార్	7492
##ంటారని	7493
బీమా	7494
సమయానికి	7495
తెలిసిన	7496
##టర్స్	7497
భాగం	7498
రాజీవ్	7499
ఎక్కడా	7500
ఏను	7501
వలన	7502
##పాలి	7503
##మెన్	7504
వాళ్లకు	7505
పిఠా	7506
##ల్‌క	7507
##షియా	7508
డీజీపీ	7509
ఎంపీలు	7510
శ్రీనివాస	7511
గుండెపోటు	7512
అదనంగా	7513
కడుపు	7514
చక్ర	7515
వేముల	7516
రివ్యూ	7517
మార్గం	7518
బిఆర్ఎస్	7519
##ర్యానా	7520
చెబుతున్నాయి	7521
నమ్ము	7522
నిర్వహిస్తున్నారు	7523
సిద్దం	7524
తినడం	7525
పరిశోధన	7526
అబ్దు	7527
బలం	7528
##నెట్	7529
##హిల్స్	7530
##ాలె	7531
##వర్స్	7532
##ణాల్లో	7533
బెది	7534
నాయకుల	7535
ధరణి	7536
ట్రాక్	7537
##ద్దీన్	7538
అంతేకాకుండా	7539
సునీల్	7540
56	7541
ఏసీ	7542
బదు	7543
##చారి	7544
##‌‌‌‌ను	7545
కూర్చ	7546
##ంతోనే	7547
తీయ	7548
##కానికి	7549
రూరల్	7550
పార్టీలకు	7551
టీజర్	7552
##స్టార	7553
కనిపిస్తున్నాయి	7554
ప్రజాప్ర	7555
నిర్మల్	7556
హత్యకు	7557
అడుగుల	7558
భువన	7559
స్కోరు	7560
go	7561
ఉందా	7562
త‌	7563
##గ్రి	7564
##ುತ್ತ	7565
##స్తం	7566
##వులకు	7567
##న్‌తో	7568
సహకార	7569
మొత్తంలో	7570
అప్లికేషన్	7571
రాయల	7572
అప్పులు	7573
గమనార్	7574
యాజమాన్యం	7575
గమనార్హం	7576
కన్నా	7577
గై	7578
గల్	7579
##కారులు	7580
##ಂಬ	7581
##గుట్ట	7582
సమయంలోనే	7583
మనసు	7584
తప్పకుండా	7585
ఘటనలు	7586
ఇందుకోసం	7587
దోపి	7588
కార్మికుల	7589
నెటిజన్లు	7590
ఇంటర్నేషనల్	7591
సమన్వ	7592
85	7593
అఫ్	7594
##కమ్మ	7595
##ఖరి	7596
నువ్వు	7597
పోషి	7598
##ానన్నారు	7599
నాశ	7600
హైవే	7601
సినిమాల్లో	7602
జనగామ	7603
సాధించ	7604
పాలస్తీ	7605
అంబా	7606
బయటికి	7607
##ించుకోవ	7608
టాపిక్	7609
పేదలకు	7610
అధ్యక్షుడిగా	7611
తెల్లవారుజ	7612
కరు	7613
పాలి	7614
##ବା	7615
విరమ	7616
మావో	7617
##స్తున్నది	7618
పొర	7619
జాబ్	7620
గంటల్లో	7621
ముందుగానే	7622
ఢిల్లీకి	7623
స్పందించిన	7624
ఎదుర్కొంటున్న	7625
ఎగ్జా	7626
సర్పంచ్	7627
బంగాళా	7628
సుదీర్ఘ	7629
یہ	7630
బల్	7631
##డూ	7632
##ଥି	7633
##న్నట్లు	7634
విజే	7635
నిరూ	7636
వేస	7637
వాల్	7638
ఎన్నికలలో	7639
నాట	7640
సెగ్	7641
##పోయారని	7642
కలిసిన	7643
ప్రారంభించిన	7644
పెట్టే	7645
అత్యు	7646
అత్యవసర	7647
సీతక్క	7648
నొప్పి	7649
నేతృత్వంలోని	7650
శంకుస్థ	7651
అచ్చ	7652
##ab	7653
##లింగ	7654
స్ఫ	7655
సోదాలు	7656
జాతర	7657
పనితీరు	7658
వెళ్ళ	7659
కాలంగా	7660
అనుమానం	7661
సురేష్	7662
సూచిస్తున్నారు	7663
సదుపాయ	7664
ఎంచ	7665
హర్యానా	7666
##దిన	7667
##ఫై	7668
స్పా	7669
కోల్‌క	7670
##నీటి	7671
తెలిపిన	7672
##కరించింది	7673
##చేయ	7674
##త్తుల	7675
మండలి	7676
పనులకు	7677
సంగీ	7678
సాగుతోంది	7679
పెట్టుకుని	7680
పరామర్శ	7681
కలుపు	7682
రస	7683
##మనే	7684
##ారంటే	7685
##్ర్	7686
##వాదం	7687
##టిస్	7688
##పైగా	7689
మామిడి	7690
కూల్	7691
అనుసర	7692
##షిప్	7693
దూసు	7694
పదవికి	7695
ప్రకటనలో	7696
సమాధాన	7697
స్కీమ్	7698
స్టేడియంలో	7699
కక్ష	7700
మంచ	7701
యొక్క	7702
సత్తా	7703
##నన్న	7704
##నైనా	7705
##హనం	7706
చేరే	7707
##సుల	7708
స్పి	7709
పెంపు	7710
వైర	7711
ప్రపంచంలో	7712
ఆశీర్	7713
##సీసీఐ	7714
లెక్కలు	7715
పండగ	7716
రవీంద్ర	7717
సీఎంగా	7718
58	7719
అంజ	7720
జట్లు	7721
##తుందా	7722
##త్వాన్ని	7723
విలీ	7724
కొల	7725
సిట్	7726
సిగ్	7727
సీజ్	7728
##ల్లికి	7729
బాస్	7730
టీఎంసీ	7731
##క్కులు	7732
మార్క్	7733
స్పే	7734
సందే	7735
డైలా	7736
కాల్పులు	7737
గెలుపొ	7738
మల్లిక	7739
స్మార్ట్	7740
--	7741
ہیں	7742
గది	7743
##రద	7744
##యాలను	7745
##భద్ర	7746
##వద్దని	7747
##చీ	7748
##ద్వారా	7749
తెరి	7750
కోరింది	7751
వేలాది	7752
మొన్న	7753
సమాచారాన్ని	7754
వర్కింగ్	7755
##ుకుంది	7756
బిలియన్	7757
ఎవరికీ	7758
గొంతు	7759
పౌర	7760
సెకండ్	7761
ప్రతినిధులు	7762
జుట్టు	7763
ప్రభావితం	7764
బలహీన	7765
బ్రిడ్జి	7766
భువనగిరి	7767
##బడ	7768
##ag	7769
##di	7770
##ట్లతో	7771
##ార్జ్	7772
మార్చు	7773
మార్గంలో	7774
హైదరాబాద్‌లో	7775
కలసి	7776
196	7777
ఢిల్లీలోని	7778
పోరాట	7779
ఆస్పత్రిలో	7780
ఉచితంగా	7781
ఏమిటి	7782
విశ్లేష	7783
టూ	7784
##ఐఆర్	7785
##ర్తి	7786
##వుతుంది	7787
సిలి	7788
మేయర్	7789
సమాచార	7790
ఆర్టి	7791
##షింగ్	7792
##పర్తి	7793
అమెరిక	7794
దొరక	7795
గ్రూపు	7796
అప్రమత్తంగా	7797
దృశ	7798
ఫౌ	7799
##యంతో	7800
##వత్	7801
##ంటాడు	7802
వెల్లు	7803
కొరియా	7804
బీసీసీఐ	7805
పరిణా	7806
నెలకు	7807
##క్రో	7808
పాల్పడిన	7809
ప్రభుత్వాలు	7810
కనిపించడం	7811
600	7812
ఒప్పు	7813
ధా	7814
సన్న	7815
##పించి	7816
చేస్తుందని	7817
నిధుల	7818
రాఘ	7819
స్ట్రా	7820
మోడల్	7821
సినిమాతో	7822
తోడు	7823
సందీ	7824
భూముల	7825
జరుగుతుందని	7826
సంచారం	7827
ప్రముఖులు	7828
లాభాలు	7829
ధర్మాస	7830
గ్లా	7831
లొ	7832
లారీ	7833
##ధ్	7834
##టల్స్	7835
##ct	7836
##డిట్	7837
##సిపి	7838
చెత్త	7839
సివిల్	7840
##ప్రసాద్	7841
చంద్రశేఖర్	7842
లక్షణాలు	7843
గురయ్యారు	7844
క్లీ	7845
స్థానాలకు	7846
క్వి	7847
ప్రయోజనాలు	7848
నిషేధ	7849
ఉపాధ్యాయ	7850
కూలి	7851
లేవని	7852
ఏర్పడి	7853
సరిగా	7854
చరిత్రలో	7855
కాకినా	7856
ప్రోత్సహ	7857
57	7858
ఇవ్	7859
ఏమైనా	7860
ఘటనా	7861
జాన	7862
##పిల్	7863
##మాల	7864
##9లో	7865
##ెస్ట	7866
నేపాల్	7867
మేష	7868
##తాం	7869
తిప్ప	7870
వచ్చినట్లు	7871
రీసె	7872
శరీరం	7873
విభే	7874
బతుకమ్మ	7875
అవినాష్	7876
నిలిపివే	7877
ವಿಡಿಯೋ	7878
ఈవీఎం	7879
కాకినాడ	7880
కన్నీ	7881
చాలు	7882
డౌన్	7883
##పారు	7884
##స్పా	7885
ప్రగతి	7886
##ామో	7887
పింఛ	7888
హాల్	7889
పనిచేసిన	7890
చేసుకోవడం	7891
వాహనం	7892
##ేశ్వరి	7893
క్రిమిన	7894
రిజర్వ్	7895
బ్రిటన్	7896
చౌదరి	7897
చక్కెర	7898
పడ్డారు	7899
డిజైన్	7900
చిత్తూరు	7901
పొలిటికల్	7902
లక్నో	7903
అవా	7904
ఏండ్ల	7905
కట్	7906
గద్	7907
పల్లె	7908
##కప్	7909
##ion	7910
##ದಲ್ಲಿ	7911
విల	7912
##పోతే	7913
రేంజ్	7914
##స్టార్	7915
కలిశారు	7916
గోల్	7917
లీక్	7918
కోల్పోయిన	7919
దారుణంగా	7920
రాజేంద్ర	7921
జేడీఎస్	7922
రాయలసీమ	7923
##ుని	7924
##డిక	7925
##చరణ	7926
##న్నర్	7927
##స్తరు	7928
లోపు	7929
జాన్	7930
అతడు	7931
ఎదుట	7932
చోరీ	7933
డేట్	7934
కథనం	7935
గాయపడిన	7936
వృత్తి	7937
నడుపు	7938
ఆసుపత్రి	7939
విషయాలను	7940
53	7941
64	7942
నంది	7943
బస	7944
సత్	7945
##ir	7946
##హరి	7947
##విటీ	7948
తాత్	7949
ఏర్పడ	7950
ఫోర్స్	7951
వార్డు	7952
సొసై	7953
పక్కా	7954
ముంబయి	7955
వెనక	7956
భువ	7957
మృతదేహాన్ని	7958
##రోధక	7959
72	7960
గరి	7961
దారిత	7962
బ్యూటీ	7963
సజ్జ	7964
##బడ్డ	7965
##వన్నీ	7966
##న్నాయని	7967
వెలి	7968
పోర్ట్	7969
సీఎస్	7970
##ారాబాద్	7971
మేడ్	7972
అనుభవ	7973
కేంద్రానికి	7974
అవుట్	7975
##ంజర్	7976
కుటుంబంలో	7977
గుర్తించ	7978
ఆందోళనకు	7979
నిబంధనలు	7980
హర్ష	7981
అఖి	7982
వినోద్	7983
బ్యారేజీ	7984
ఆస్తి	7985
##ందీ	7986
##వరకూ	7987
##యింట్	7988
##స్‌తో	7989
##కాలంగా	7990
కౌంటింగ్	7991
ముగియ	7992
"."	7993
ఆకర్ష	7994
నివసి	7995
##పరచ	7996
ప్రజాప్రతిని	7997
ಪ್ರ	7998
##హర	7999
విడా	8000
##ేశారని	8001
పాండ	8002
బీహార్	8003
రాజశేఖర్	8004
తీసుకుంటే	8005
తేలి	8006
మాట్లాడి	8007
ముఖ్యం	8008
బీఆర్‌	8009
తెలుపు	8010
195	8011
సమావేశానికి	8012
చైర్	8013
కృత	8014
##బెట్ట	8015
ఎలక్షన్	8016
జరుపుకు	8017
సెగ్మెంట్	8018
ఆడిన	8019
ఇష	8020
గూడ	8021
దళి	8022
##ର୍	8023
##5లో	8024
##కున్నా	8025
##ల్లోనూ	8026
##లేం	8027
##ప్పులు	8028
పేట	8029
ప్రాతిని	8030
మార్చుకు	8031
వారీగా	8032
పేర్కొన్న	8033
కాంట్రాక్	8034
నిర్లక్ష్యం	8035
అలవాటు	8036
63	8037
తార	8038
##దశి	8039
##ట్టం	8040
రెస్టార	8041
రాష్ట్రాలకు	8042
పొన్నం	8043
కల్తీ	8044
అంశాలను	8045
చూడాలని	8046
ఇజ్రాయె	8047
సాధ్యం	8048
తరహాలో	8049
బస్సులు	8050
సామాన్య	8051
కెసిఆర్	8052
సొసైటీ	8053
టెన్షన్	8054
డొ	8055
పల్	8056
సల్	8057
##ేయ	8058
##చారానికి	8059
##థా	8060
##لا	8061
##ాలూ	8062
##రిలో	8063
కాంబ	8064
##పైనే	8065
##దాని	8066
ఒక్కొక్క	8067
దూర	8068
గౌత	8069
ప్లేస్	8070
స్క్రీన్	8071
వినిపిస్తున్నాయి	8072
ఘోర	8073
పరిశీలి	8074
అంతరిక్ష	8075
కీర్	8076
వస్తున్నారు	8077
ವೈ	8078
##1లో	8079
##um	8080
##ଛି	8081
ప్రతిక	8082
రానుంది	8083
వెయ్యి	8084
టీపీ	8085
స్టాక్	8086
రైళ్లు	8087
విషయానికి	8088
కేంద్రంలోని	8089
హెలికా	8090
డీఎం	8091
చేసుకున్నాడు	8092
అడిగి	8093
కంటెంట్	8094
వెళ్లేందుకు	8095
అరుదైన	8096
జడ్జి	8097
దర్శకత్వంలో	8098
అన్యాయం	8099
బాలా	8100
మహ్మద్	8101
##et	8102
##గాయని	8103
##ప్స్	8104
మానే	8105
ఆయన్ను	8106
మేడి	8107
చిన్నారు	8108
పొగ	8109
జీవన	8110
పెద్దలు	8111
సమస్యను	8112
అందించిన	8113
నిలిచారు	8114
పరిస్థితిని	8115
వ్యాపారం	8116
మారుతోంది	8117
కాపాడ	8118
జయంతి	8119
భద్రాచలం	8120
మలయా	8121
దోపిడీ	8122
తాత్కాలిక	8123
ఇస్తున్నారు	8124
ఊపిరి	8125
టర్	8126
##చా	8127
##‌‌గా	8128
ఆయిల్	8129
నిర్వహించాలని	8130
అందించే	8131
స్వతంత్ర	8132
వైద్యం	8133
ఒకేసారి	8134
రహదారి	8135
చెందారు	8136
జరిపిన	8137
కేటాయింపు	8138
సార్వత్రిక	8139
ఎలి	8140
ధృ	8141
##ెన	8142
##మిని	8143
గులా	8144
##రంభ	8145
##్యూటర్	8146
సహకర	8147
ఆరోగ్యానికి	8148
రికార్	8149
గాయాలు	8150
సిటీలో	8151
ప్రాధాన్యం	8152
ప్రశాంత	8153
కౌన్సిల్	8154
##పోర్ట్స్	8155
సందీప్	8156
ఇవే	8157
టూరి	8158
పటి	8159
##నంద	8160
##బాయ్	8161
##ెయి	8162
##నుందని	8163
##రులకు	8164
##పుర	8165
బాట	8166
##ట్లలో	8167
పైకి	8168
దిగి	8169
కలవ	8170
లింక్	8171
తగ్గింది	8172
వ్యాఖ్యలపై	8173
బొమ్మ	8174
కమలా	8175
నిజానికి	8176
యజమాని	8177
వాణిజ	8178
క్షమాపణ	8179
ధర్మాసనం	8180
ra	8181
బక	8182
లండ	8183
##బొ	8184
##జార్	8185
##ొద్దు	8186
స్వే	8187
సమంత	8188
చూస్తున్న	8189
కేంద్రంగా	8190
కల్వకు	8191
వెల్లడి	8192
టాస్	8193
నియమి	8194
చేయాల్సిన	8195
సదరు	8196
2014లో	8197
భూకంపం	8198
కానిస్టేబుల్	8199
బంగాళాఖా	8200
భువనేశ్వ	8201
66	8202
కన్ను	8203
పాలకు	8204
##దాయ	8205
##గాడు	8206
తీర	8207
వేటు	8208
నాన్న	8209
శ్రీకా	8210
నేతలను	8211
విధించింది	8212
సాధించి	8213
మొత్తంగా	8214
చర్చించారు	8215
లీకేజీ	8216
కిందట	8217
తుఫ	8218
వ్యాపారులు	8219
##ండీస్	8220
ప్రీమి	8221
అధిష్ట	8222
డిగ్రీల	8223
మల్కా	8224
లోకేశ్	8225
ఎత్త	8226
ట్రీ	8227
##తాడు	8228
##ాలీ	8229
##పురంలో	8230
చేయడంలో	8231
##వేర్	8232
పనిచేశారు	8233
ఏపీకి	8234
మహే	8235
సంఘాలు	8236
వివాదా	8237
వృద్ధి	8238
వ్యవస్థను	8239
జీహెచ్ఎంసీ	8240
ఐఏఎస్	8241
అబ్బ	8242
తినే	8243
ల్	8244
##‌కి	8245
కొడు	8246
రెజ్	8247
ఇచ్చాడు	8248
సందర్బ	8249
##ించుకునే	8250
##క్కింది	8251
చనిపోయారు	8252
హనుమాన్	8253
చెప్తున్నారు	8254
అనుభవం	8255
పాయి	8256
వో	8257
##కత	8258
##తానని	8259
##ంగో	8260
తానే	8261
వర్గానికి	8262
తరచూ	8263
##ించుకునేందుకు	8264
పట్టించుకోవడం	8265
విడుదలైన	8266
ప్రపంచంలోనే	8267
చేసుకొని	8268
వైఎస్‌	8269
న్యాయమూర్తి	8270
తలెత్త	8271
##మైందని	8272
ఎన్డీయే	8273
కోల్‌కతా	8274
62	8275
77	8276
మగ	8277
##య‌	8278
##రులను	8279
కుమార	8280
##ులుగా	8281
మెరుపు	8282
##తాబ్	8283
చేస్తున్నాడు	8284
పీఎస్	8285
పనిచేయ	8286
హామీలను	8287
యూనిట్	8288
కష్టాలు	8289
పర్యావరణ	8290
ఉగ్రవా	8291
ఇన్వెస్	8292
వేర్వే	8293
ఖచ్చితంగా	8294
డ్రో	8295
దౌ	8296
మరు	8297
##చర్లు	8298
##un	8299
##ించండి	8300
పోయ	8301
చేస్తాయి	8302
జీర్ణ	8303
పనిలో	8304
##మెంట్స్	8305
భారతదేశం	8306
జైల్లో	8307
రంగం	8308
##ఫాబాద్	8309
అంబటి	8310
##ఫోన్	8311
హనుమకొండ	8312
లక్ష్మణ్	8313
అసంతృప్తి	8314
బలోపేతం	8315
మావోయి	8316
పరిణామాలు	8317
tel	8318
అజయ్	8319
ఏది	8320
##తక	8321
##ప్టర్	8322
మాస	8323
చేయలేదని	8324
##కోవడంతో	8325
##సానికి	8326
వర్తి	8327
మోట	8328
##చేసిన	8329
వర్షాల	8330
పోలీసులను	8331
యువకులు	8332
నగరం	8333
బెంగళూరులో	8334
స్టేడియం	8335
నెరవేర్చ	8336
శాస్త్రవేత్తలు	8337
దారితీ	8338
అండర్	8339
టూర్	8340
హృ	8341
కొంచ	8342
చూస్తున్నారు	8343
చేసినట్టు	8344
పురో	8345
సినిమాపై	8346
యూఎస్	8347
ఇకపై	8348
నిలిచిన	8349
ఫీచర్	8350
భవనం	8351
విరుద్ధ	8352
అద్దె	8353
టన్నుల	8354
ఆస్తులు	8355
ఇయర్	8356
ఇండ్ల	8357
పట్టి	8358
శ్రా	8359
##త్రా	8360
దాకా	8361
తిరస్	8362
మిలి	8363
సహకారం	8364
##ించుకోవాలని	8365
చేపట్టాలని	8366
న్యాయస్థానం	8367
తెలుసుకున్నారు	8368
ఆస్పత్రి	8369
అర్ధరాత్రి	8370
ప్రభావంతో	8371
ఆసీస్	8372
ఊర	8373
పసి	8374
బయో	8375
సమితి	8376
##ఐఎం	8377
##మెన్స్	8378
వేసు	8379
దీర్ఘ	8380
##చేందుకు	8381
##వేశారు	8382
శిశు	8383
దేవి	8384
టైంలో	8385
##భివృ	8386
జియో	8387
అదృ	8388
ఖాతాలో	8389
సోదరుడు	8390
ఆసక్తికర	8391
ఇస్లా	8392
మెసేజ్	8393
ద‌	8394
బంద్	8395
##విక	8396
తెచ్చి	8397
కొబ్బ	8398
సిం	8399
##పిక్స్	8400
ఇచ్చేందుకు	8401
పొందే	8402
గిరిజను	8403
దారుణ	8404
##స్టేట్	8405
కళాశాల	8406
కర్నూలు	8407
తెల్లవారుజామున	8408
ఐదో	8409
కండు	8410
##వాణి	8411
లోనూ	8412
స్థాయికి	8413
కింగ్	8414
డిఫ	8415
మోస్తరు	8416
సిద్ధరామయ్య	8417
స్వచ్ఛ	8418
స్టార్ట్	8419
దాడిలో	8420
వస్తువులు	8421
కబ్జా	8422
07	8423
61	8424
ఎస్‌	8425
గంగా	8426
తవ్వ	8427
దానం	8428
##శాయి	8429
##‌‌‌‌‌‌‌‌ను	8430
##నీరు	8431
సందేశ	8432
భూపాల	8433
మొత్తాన్ని	8434
గ్రామాల	8435
దగ్గరకు	8436
వికారాబాద్	8437
##మయ్యే	8438
##గాలని	8439
##వెళ్ల	8440
బైడెన్	8441
ముగిసింది	8442
నగరంలోని	8443
మునిగి	8444
అంట	8445
అబద్ధ	8446
ఐసీసీ	8447
##టేషన్	8448
##ఎండీ	8449
##దండ	8450
##శాలలో	8451
##ವನ್ನು	8452
స్పోర్ట్స్	8453
తీసే	8454
##లేషన్	8455
##ానంద	8456
##నాల్	8457
##భావం	8458
తప్పి	8459
అర్బన్	8460
నిందితులను	8461
రాష్ట్రాన్ని	8462
##మూరి	8463
ఎవరో	8464
విస్తరణ	8465
మనోజ్	8466
సదస్సు	8467
చిరుత	8468
చిత్రాన్ని	8469
నినాదాలు	8470
పండితులు	8471
కష్టం	8472
ధన్య	8473
మిల్ల	8474
సరికొ	8475
##ాంగ	8476
##కూర్	8477
##మల్	8478
##es	8479
##ందట	8480
##లోగా	8481
##వాదాలు	8482
##ుకునే	8483
ఇచ్చారని	8484
##శ్వాస	8485
జీవన్	8486
కేసుల్లో	8487
అనర్	8488
మహేశ్	8489
చైతన్య	8490
లాభం	8491
మౌలిక	8492
బయలుదేరి	8493
సైన్యం	8494
చంపే	8495
రకర	8496
##మంత్ర	8497
##కోండి	8498
పరిమ	8499
పైల	8500
ఎంజ	8501
పెట్టడం	8502
##బియా	8503
షిప్	8504
భూములను	8505
ఆంక్షలు	8506
తూ	8507
త్యా	8508
బండ	8509
##ణిక	8510
##న్‌లో	8511
ప్రార్థ	8512
##మానా	8513
కావాల్సిన	8514
సంస్	8515
##జేషన్	8516
బుమ్రా	8517
వార్తా	8518
ప్రియు	8519
సింగిల్	8520
భవిష్యత్తులో	8521
అవకాశముందని	8522
దీపావళి	8523
ವೈರ	8524
సరికొత్త	8525
):	8526
73	8527
ఆప్షన్	8528
ఛత్తీ	8529
సగం	8530
##ಿಗೆ	8531
వేసే	8532
లేన	8533
##కాడ	8534
రిటర్	8535
మూసీ	8536
అంతర	8537
కేసుల	8538
తెలుసా	8539
సమస్యలపై	8540
చర్చి	8541
తుమ్మల	8542
నిర్మించారు	8543
దోచుకు	8544
పర్యటనలో	8545
కురుస్తాయని	8546
నిరుద్యోగ	8547
అనారోగ	8548
మినహ	8549
ప్రమోషన్	8550
శంకుస్థాపన	8551
ఆర	8552
ఆదర్శ	8553
ఎఫ	8554
గడ్డ	8555
దయా	8556
##ొచ్చ	8557
వేలకు	8558
##ండ్లను	8559
బీజేపీతో	8560
మధ్యంతర	8561
ప్రారంభోత్స	8562
చెబుతారు	8563
విచారణను	8564
తెలుగులో	8565
సొమ్ము	8566
అడుగుపెట్ట	8567
పొందుతారు	8568
ట్రోఫీ	8569
నాశనం	8570
గమని	8571
పనికి	8572
##ند	8573
##ల్దార్	8574
పెడితే	8575
నేల	8576
పార్టీలోకి	8577
రిజ	8578
ప్రారంభించింది	8579
కావాలి	8580
పదవీ	8581
ఉత్తమ్	8582
##సభ్య	8583
ఫోన్లు	8584
పత్రిక	8585
నరసింహ	8586
నిషేధం	8587
చివరికి	8588
భూపాలపల్లి	8589
సరికా	8590
##పడా	8591
##న్నారని	8592
##ార్ట్‌మెంట్	8593
బయటపడ	8594
అందించాలని	8595
రాశిలో	8596
రోడ్లపై	8597
భావించారు	8598
సిద్దరామయ్య	8599
కమిషన	8600
లోపల	8601
స్టూడెంట్స్	8602
పేలుడు	8603
డైలాగ్	8604
ہم	8605
ఈవో	8606
##లార్	8607
##సెంట్	8608
##3లో	8609
##రియల్	8610
విత్త	8611
నిమ	8612
రాణ	8613
రాసి	8614
చేయాలనే	8615
చేస్తాం	8616
కలగ	8617
ఇవ్వలేదు	8618
ఆలస్యం	8619
రైతులను	8620
సేవలను	8621
ఫోటోలు	8622
వ్యతిరేకత	8623
అయ్యాడు	8624
నిలదీశారు	8625
రీసెర్చ్	8626
కంగ	8627
##టల	8628
##పించే	8629
##ూల్	8630
వెయి	8631
ముగ	8632
##వింగ్	8633
##జీవ	8634
ప్రాక్	8635
##ంబి	8636
నాంపల్లి	8637
స్థలం	8638
తెలంగాణలోని	8639
యూత్	8640
194	8641
##పడ్డాయి	8642
ఫిర్యాదులు	8643
జీవితాన్ని	8644
తయార	8645
చిత్రంలో	8646
గ్రాండ్	8647
పంటలు	8648
విభాగంలో	8649
కల్పించాలని	8650
##పెట్టింది	8651
ఓటే	8652
జడే	8653
##ంఠ	8654
చెరు	8655
పాటి	8656
రియా	8657
సుధా	8658
లావా	8659
నీర	8660
అధ్యక్షులు	8661
లుక్	8662
##సైజ్	8663
రోడ్డుపై	8664
బంధువులు	8665
టేబుల్	8666
కుంభకో	8667
కిడ్నా	8668
ಮಾಡ	8669
ఆరుగురు	8670
74	8671
అథ	8672
ఆకు	8673
ఛాంపి	8674
పవార్	8675
శారీ	8676
సపోర్ట్	8677
##దొ	8678
##మత	8679
##నివ్వ	8680
##నిస్తాన్	8681
##‌‌‌‌‌‌‌‌కు	8682
##లాల్	8683
మాధ	8684
వేరు	8685
##విద్య	8686
##సేన్	8687
ఎమ్మెల్యేల	8688
ఫోర్లు	8689
సైన్స్	8690
క్యాంప	8691
సంక్షేమం	8692
##లక్షల	8693
శ్రద్ధ	8694
",	8695
ఆరంభ	8696
ధను	8697
సవా	8698
##కార్	8699
##ାନ	8700
##ಿರು	8701
##ర్లకు	8702
##ితా	8703
రెండి	8704
##విలో	8705
ఏర్పాటుకు	8706
ట్రెండ్	8707
ప్రత్యేకమైన	8708
##కెళ్ల	8709
జరగనున్నాయి	8710
అడిగిన	8711
విక్రమ్	8712
అరుణ్	8713
రాజేందర్	8714
2018లో	8715
స్పందిస్తూ	8716
దంపతులు	8717
##పడ్డాడు	8718
విపరీతంగా	8719
ఏడాదికి	8720
ప్రతికూల	8721
హే	8722
##టమే	8723
##పిన	8724
##మం	8725
##ುದ	8726
##లాడు	8727
##మాత్రం	8728
##సియా	8729
రెస్పా	8730
శ్రీకాంత్	8731
ఉంటున్నారు	8732
##ించుకొని	8733
ఇండియాలో	8734
##చర్ల	8735
ఆలోచి	8736
మండలంలో	8737
హక్కుల	8738
ప్రయోజనం	8739
కన్వీ	8740
ఆసిఫాబాద్	8741
జరప	8742
ఊరు	8743
టు	8744
పవ	8745
శతాబ్	8746
సవరణ	8747
##మనం	8748
##ంటినీ	8749
తేజ	8750
అనూహ	8751
ఉపశ	8752
దూకుడు	8753
వేయాలని	8754
నిర్వహిస్తున్న	8755
నిర్వహిస్తారు	8756
నమోదైన	8757
సంతోష్	8758
బిల్లులు	8759
పదేళ్ల	8760
కనీస	8761
ఉద్దేశించి	8762
లబ్ది	8763
ఎలక్ట్రిక్	8764
నిర్ధార	8765
పునరుద్ధ	8766
హృద	8767
కొంచెం	8768
తక్షణ	8769
సరే	8770
##లూరు	8771
##క్ల	8772
ప్రయో	8773
##క్కీ	8774
##తున్నాడు	8775
బీజేపీని	8776
బెంచ్	8777
ఆశలు	8778
పక్కనే	8779
తీరుపై	8780
##ing	8781
ప్రత్యర్థి	8782
భిన్నంగా	8783
సమాజంలో	8784
స్వాతంత్ర	8785
క్వార్టర్	8786
జడేజా	8787
బాయ్	8788
శ్రమ	8789
##దలకు	8790
##డవు	8791
##କୁ	8792
##ాయత్	8793
పోయి	8794
##ెక్కు	8795
తిరి	8796
##జిన్	8797
##ెంజ్	8798
నిర్ణయాన్ని	8799
వారే	8800
వారంతా	8801
శివారు	8802
రూపాయి	8803
ఎస్సై	8804
పాల్గొని	8805
పెరుగుతోంది	8806
ఆరోగ్యంగా	8807
స్కోర్	8808
నెట్‌	8809
సంగీతం	8810
ای	8811
శోభ	8812
సమ్మె	8813
##‌త	8814
##ಾನ	8815
##క్వా	8816
##లాట	8817
##తోన్న	8818
##వాలో	8819
లోతు	8820
##ండ్లుగా	8821
సాగి	8822
అనుకో	8823
చేస్తామన్నారు	8824
బెల్ల	8825
బిజీగా	8826
ప్రాంతాలు	8827
##ల్లాపూర్	8828
ఇంటర్నెట్	8829
ఫాస్ట్	8830
యాక్ట్	8831
ఇంగ్లీ	8832
నిధులను	8833
రెగ్యులర్	8834
తహసీ	8835
కృతజ్ఞ	8836
95	8837
అరిక	8838
ఖరీ	8839
తృ	8840
##రెంట్	8841
##ధన	8842
##కారానికి	8843
##మర	8844
##را	8845
##స్తారా	8846
తెలిపాడు	8847
పేర్	8848
ఆయనపై	8849
సెర్చ్	8850
స్థా	8851
నెహ	8852
దేశాలకు	8853
హాస్టల్	8854
ఉద్యోగాల	8855
##పూర్ణ	8856
నాగేశ్వరరావు	8857
రిజర్వ	8858
పునరా	8859
తీసుకెళ్లారు	8860
సర్టిఫికెట్	8861
vs	8862
అలియా	8863
ఎనర్జీ	8864
నెక్	8865
శ్యా	8866
##ంపి	8867
##పెట్టు	8868
##ఫే	8869
##ur	8870
##గులకు	8871
##లీట్	8872
ముహ	8873
చేశాం	8874
##నాథ	8875
##ముందే	8876
నిర్వహించనున్నారు	8877
ప్రారంభించ	8878
ఒక్కరూ	8879
వచ్చినప్పుడు	8880
పలుకు	8881
అభ్యర్థులకు	8882
ఆధిక	8883
ఉంటారని	8884
వార్నింగ్	8885
##స్టిట్యూ	8886
వరుణ్	8887
టెలి	8888
విధానాన్ని	8889
హాజరుకా	8890
ఉద్యమం	8891
సురేఖ	8892
భద్రాద్రి	8893
క్రైమ్	8894
ఇంజినీరింగ్	8895
సిస్టమ్	8896
క్రెడిట్	8897
క్రిమినల్	8898
71	8899
##మండ	8900
##షభ	8901
##కునేందుకు	8902
##యాల్సి	8903
##పోతాయి	8904
చెప్పినట్లు	8905
వైయస్	8906
ఒకప్పుడు	8907
##‌లోకి	8908
##చింగ్	8909
##మీద	8910
ప్రారంభమైన	8911
పెట్టాలని	8912
పట్టా	8913
కంపెనీల	8914
గెలిచారు	8915
క్రమంగా	8916
యోగం	8917
యాదగిరి	8918
గ్యాంగ్	8919
గౌరవం	8920
78	8921
సృష్టి	8922
##బ్రి	8923
##గాంధీ	8924
##తులపై	8925
చెట్టు	8926
##బ్బా	8927
మొగ్గు	8928
నాగర్	8929
శాశ్వ	8930
రాజన్న	8931
మిని	8932
##త్తుగా	8933
విధ్వ	8934
గ్రామస్తులు	8935
##విధంగా	8936
##ంప్ల	8937
నిజంగా	8938
పత్రాలు	8939
ఎగ్జిట్	8940
2022లో	8941
##‌మ‌	8942
మేనేజర్	8943
సునీత	8944
విరుచుకు	8945
స్వేచ్ఛ	8946
an	8947
ఇస్తారు	8948
మస్క్	8949
రక్	8950
లెక్కి	8951
వదులు	8952
##దించారు	8953
##డ్యు	8954
##చర	8955
##ew	8956
##ఏసీ	8957
##ల్తా	8958
ప్రత్యా	8959
##ల్లోని	8960
అభిషే	8961
ఫిక్స్	8962
పోటీలో	8963
మండలాల్లో	8964
ఎలాగ	8965
ప్లాట్	8966
జట్టును	8967
పరిశీలించి	8968
విదేశాంగ	8969
అడ్డం	8970
డిపార్ట్	8971
తీర్పును	8972
##ందరగో	8973
హెచ్చరికలు	8974
com	8975
67	8976
76	8977
ఆత్	8978
ఉస్	8979
గందరగో	8980
రౌండ్	8981
##‌లను	8982
##దానం	8983
చేస్తోందని	8984
##ట్టుకో	8985
##సాగర్	8986
గాను	8987
##న్స్‌	8988
వ్యక్తికి	8989
యూజర్	8990
సభ్యులతో	8991
ప్ల	8992
విమానంలో	8993
ఉపయోగించి	8994
2023లో	8995
సంక్షోభ	8996
నైపుణ	8997
హెచ్‌	8998
ఏజెంట్	8999
ఉష్ణోగ్రత	9000
ఎడ్యు	9001
ప్రశంసలు	9002
ఇంటర్వ్యూలో	9003
కార్తీక	9004
శ్రేణులు	9005
రెస్టారెంట్	9006
టీపీసీసీ	9007
ప్రత్యామ్	9008
ఎస్టేట్	9009
పశు	9010
మత్తు	9011
##ష్యం	9012
##ଙ୍	9013
చేరిక	9014
##లిలో	9015
##డంపై	9016
చేయడమే	9017
కార్యా	9018
దాట	9019
##దేవీ	9020
రాష్ట్రాలు	9021
శాతానికి	9022
వర్షపాతం	9023
జూబ్లీ	9024
భాగంగానే	9025
అనుమానాలు	9026
రిజర్వేషన్లు	9027
ధోనీ	9028
కుప్పకూ	9029
అంబానీ	9030
అణ	9031
ఇరిగే	9032
ధ్రు	9033
వ్ర	9034
##యన్‌	9035
##మంత	9036
##మూరు	9037
##ఫార	9038
##نگ	9039
కుదు	9040
##దాబాద్	9041
##డేందుకు	9042
వారంలో	9043
ప్రారంభమైంది	9044
అభ్యంతరం	9045
సేవా	9046
పదవులు	9047
మళ్ళీ	9048
బొగ్గు	9049
ప్రతిపక్షాలు	9050
కేటాయించారు	9051
వికెట్ల	9052
ఆహ్వానించ	9053
క్యారెక్టర్	9054
క్లాస్	9055
సీఈవో	9056
షుగర్	9057
డయాబె	9058
స్పేస్	9059
మేడ్చల్	9060
وائ	9061
కట్టి	9062
జట్ల	9063
భయా	9064
హాని	9065
##కమైన	9066
##‌ట్లు	9067
##భ్య	9068
##ూర	9069
##vi	9070
##‌‌తో	9071
##ండో	9072
నిమ్మ	9073
నిదర్శ	9074
రావాల్సి	9075
##ామంటూ	9076
రూల్స్	9077
చూసేందుకు	9078
చేపట్టింది	9079
##వైసీ	9080
ఆదేశాల	9081
వెళ్లింది	9082
వ్యతిరేకి	9083
దరఖాస్తులు	9084
వివేకా	9085
కమ్యూనిటీ	9086
800	9087
అల్ప	9088
ఆడు	9089
ఎమర్	9090
కదల	9091
నెట్టి	9092
##క్యం	9093
##వాలను	9094
##ించలేదని	9095
నిండి	9096
##డాడు	9097
పేదల	9098
పేర్లను	9099
##వర్తి	9100
దిగ్గ	9101
విజయవంతంగా	9102
లిస్టు	9103
దర్శన	9104
120	9105
కౌశి	9106
ఫొటోలు	9107
శంషా	9108
కనిపించే	9109
వ్యవసాయం	9110
సినిమాల	9111
అభినంద	9112
స్టీల్	9113
సంచలనం	9114
సజ్జల	9115
ఇరిగేషన్	9116
କରି	9117
ఏడుగు	9118
దక్కు	9119
రన్	9120
##దవ	9121
##షు	9122
##ృతంగా	9123
##కుంటున్న	9124
##ండటంతో	9125
పోయింది	9126
జరిమానా	9127
##మేనని	9128
చిక్క	9129
సుఖ	9130
శుభవార్	9131
విద్యాశాఖ	9132
మల్లన్న	9133
మల్లారెడ్డి	9134
వ్యూహ	9135
గట్టిగా	9136
##వినియోగం	9137
పోలవరం	9138
ధన్యవాదాలు	9139
sh	9140
అసా	9141
తను	9142
##వితే	9143
##ನಲ್ಲಿ	9144
##ంగాన్ని	9145
నింప	9146
రాజ్‌	9147
కొద్దీ	9148
##ామం	9149
##త్రు	9150
##వరూ	9151
నెలా	9152
##ంజనేయ	9153
సభ్యులకు	9154
జరగకుండా	9155
పర్సన్	9156
సచిన్	9157
చెల్లింపు	9158
ఏఐసీసీ	9159
ఖాయమని	9160
విషాదం	9161
00	9162
ఈదురు	9163
ఎప్పటి	9164
ఓటర్ల	9165
మాల	9166
##డార్	9167
##టిగా	9168
సీన్	9169
శ్రీశై	9170
లాంచ్	9171
##షియం	9172
సిద్ధమవు	9173
గెలిస్తే	9174
డాలర్లు	9175
అభినందించ	9176
ఆరోపిస్తున్నారు	9177
పిలుస్తారు	9178
ఏకాదశి	9179
అంశాన్ని	9180
అమెరికన్	9181
శంషాబాద్	9182
పచ్చ	9183
మళ్ల	9184
##లాలను	9185
##పిల్ల	9186
##తిన	9187
##ందారు	9188
##‌‌‌‌గా	9189
##కుంది	9190
పాము	9191
చూపించారు	9192
దేశాన్ని	9193
టీడీపీకి	9194
##కెళ్	9195
15న	9196
##త్మిక	9197
##రోజుల	9198
దొరుకు	9199
మొదటిసారి	9200
మైక్రో	9201
బెంగళూరులోని	9202
శరీరానికి	9203
ఫ్లై	9204
విగ్రహాన్ని	9205
##చోట్ల	9206
కొరత	9207
రుతుప	9208
గౌతమ్	9209
రకరకాల	9210
లావాదేవీ	9211
68	9212
ఎడి	9213
డ్యూటీ	9214
పండ్లు	9215
బ‌	9216
భారం	9217
మసీ	9218
యంగ్	9219
రం	9220
##గణ	9221
##رل	9222
##ఫరెన్స్	9223
##రులతో	9224
సంక్రా	9225
వీసా	9226
##ించేవారు	9227
సైట్	9228
చెబుతూ	9229
జరిగినట్లు	9230
వర్షా	9231
##పల్లిలో	9232
తరుణంలో	9233
ఆందోళనలు	9234
కొట్టే	9235
పెట్టుకున్న	9236
మార్గదర్శ	9237
జార్ఖండ్	9238
ల్లో	9239
కార్యాచరణ	9240
69	9241
ఏళ్లుగా	9242
##ధారణ	9243
##కడ	9244
##ap	9245
ప్రచారాన్ని	9246
కాపు	9247
##పురి	9248
తీర్చి	9249
##పాన్ని	9250
పార్ట్	9251
రోల్	9252
##గిరీ	9253
##స్టో	9254
అందరినీ	9255
సేఫ్టీ	9256
కాలేజ్	9257
అందిస్తున్నారు	9258
వృషభ	9259
పర్స	9260
నిరసనలు	9261
జాబితాను	9262
క్రీడ	9263
మెగాస్టార్	9264
విడిచి	9265
##ವುದ	9266
రెండేళ్ల	9267
ప్రవర్త	9268
ఇదంతా	9269
తుపాను	9270
జిల్లాలకు	9271
నిర్వాహకులు	9272
విలీనం	9273
శ్రావ	9274
రష్	9275
##ଡି	9276
వెస్టి	9277
##పైన	9278
##వుతున్నారు	9279
##గ్‌	9280
##వేయ	9281
చెప్పడంతో	9282
##వర్గం	9283
నాటు	9284
వర్గాల్లో	9285
ప్రజల్లోకి	9286
కేంద్రాల్లో	9287
కేంద్రమంత్రి	9288
ఎంఐఎం	9289
ఇవ్వాలి	9290
విధించారు	9291
వెళ్లడం	9292
కొనసాగుతున్నాయి	9293
నామినే	9294
ట్యాపింగ్	9295
ఎక్సైజ్	9296
నివస	9297
సురక్షితంగా	9298
నెహ్రూ	9299
నచ్చ	9300
##పబ్	9301
##సల్	9302
##ెన్న	9303
##ro	9304
##تے	9305
##ప్తా	9306
##లిన్	9307
రాణి	9308
కాద	9309
వెను	9310
మామూ	9311
##‌‌‌‌‌‌‌‌‌‌‌‌‌‌‌‌‌‌‌‌‌‌‌‌‌‌‌‌‌‌‌‌లో	9312
చేయాలన్నారు	9313
##తున్నా	9314
మొహ	9315
స్టడీ	9316
భారత్‌కు	9317
అంకి	9318
సభ్యు	9319
పనుల	9320
వినిపించ	9321
##ang	9322
సాయంతో	9323
అనుమాని	9324
కస్టమర్	9325
దేవస్థానం	9326
ప్రతిష్టా	9327
బ్రహ్మో	9328
బకాయి	9329
84	9330
అండ	9331
ఆఫ	9332
ఏమాత్రం	9333
పంత్	9334
##ಸ್	9335
విడ	9336
కానుక	9337
##పీడ	9338
రిపబ్	9339
మార్కె	9340
సుధ	9341
తింటే	9342
జీఎస్	9343
పరిస్థితులను	9344
##ించుకోవడానికి	9345
మీదకు	9346
ఆదివా	9347
పథకాన్ని	9348
సరిపో	9349
జేపీ	9350
సెలవులు	9351
కౌన్సిలర్లు	9352
ఎలక్ట్రా	9353
దినోత్సవం	9354
తప్పనిసరిగా	9355
ఆలస్యంగా	9356
గాలు	9357
##గని	9358
##‌ల్	9359
##పరంగా	9360
##వడంతో	9361
##డబ్ల్యూ	9362
##జెన్సీ	9363
##షేక	9364
##ہیں	9365
రాకెట్	9366
పాజి	9367
చెప్పారని	9368
##గింపు	9369
కింగ్స్	9370
రిపే	9371
వ్యక్తుల	9372
ప్రతిపాద	9373
తోట	9374
చేసుకుంటున్నారు	9375
శివా	9376
సేవల	9377
పోటీకి	9378
శాఖల	9379
చర్చకు	9380
వివాద	9381
నమోదయ్యాయి	9382
వయసులో	9383
..!!	9384
మెదడు	9385
మందులు	9386
రజనీ	9387
##భారత్	9388
ఒంటరిగా	9389
ప్రాతినిధ్యం	9390
వివాదాస్పద	9391
1న	9392
పచ్చి	9393
##‌డం	9394
##పర్‌	9395
##జాల	9396
##ంగే	9397
##రామ్	9398
##వుతాయి	9399
కూట	9400
నేర్చ	9401
##మేజ్	9402
రెండవ	9403
భావన	9404
విదేశాల్లో	9405
నిమిత్తం	9406
కీపర్	9407
ఒలింపిక్స్	9408
సిలిండర్	9409
ఎంజాయ్	9410
అలం	9411
కమీ	9412
దిల్	9413
దక్కింది	9414
పంపు	9415
బ్యూ	9416
##భరణ	9417
##మన	9418
##ణికి	9419
##4లో	9420
నివాళ	9421
వెస్ట్	9422
##ితమైన	9423
##త్తారు	9424
బాగానే	9425
##ంబర్‌	9426
##ధిప	9427
వర్గీ	9428
చేసేలా	9429
సైనిక	9430
మీడియాకు	9431
క్యాంప్	9432
కొనసాగుతుంది	9433
ఇన్‌స్టా	9434
స్థితిలో	9435
బూత్	9436
వంశీకృష్ణ	9437
అశ్విన్	9438
ఇస్తుంది	9439
తలుపు	9440
హేమ	9441
##8లో	9442
##2లో	9443
కాంప్ల	9444
నుంచ	9445
##ంబీ	9446
మెయి	9447
##లతోపాటు	9448
తెలంగాణా	9449
##కుండానే	9450
ప్రాంతీయ	9451
ఎంపీపీ	9452
క్యాంపు	9453
పథకాలను	9454
గుర్తుచేశారు	9455
తీసుకున్నట్లు	9456
పర్మిషన్	9457
బాధపడుతున్న	9458
బాధితులకు	9459
##లేకపోయారు	9460
సుప్రీంకోర్టులో	9461
ఉప్పల్	9462
పరిమితం	9463
అభిషేక్	9464
ఫల	9465
##ర్రా	9466
##టూ	9467
##వైన	9468
##స్టింగ్	9469
చేతికి	9470
##ించడమే	9471
##డానికే	9472
లోన్	9473
##కరించి	9474
రెండుసార్లు	9475
##న్నాను	9476
వార్షిక	9477
ఇంటిని	9478
మైస	9479
22న	9480
బాధిత	9481
సహాయపడుతుంది	9482
క్లబ్	9483
బాధ్యతలను	9484
రహస్య	9485
పట్టుకుని	9486
విగ్రహ	9487
##రాజ్య	9488
ఉపాధ్యక్ష	9489
కామెడీ	9490
దేవరకొండ	9491
అల్పపీడ	9492
లవ్	9493
##సెట్	9494
##డతారు	9495
##ాయనే	9496
##వాళ్ల	9497
ముడి	9498
డిస్క	9499
వర్గ	9500
కార్డులు	9501
న్యూయ	9502
కమర్	9503
తీసుకెళ్లి	9504
అద్భుతంగా	9505
రంగాల్లో	9506
కట్టుబడి	9507
ప్రస్తావించారు	9508
సానుకూల	9509
శ్వాస	9510
గద్వాల	9511
వాణిజ్య	9512
కల్వకుంట్ల	9513
ఆమ్	9514
కాలా	9515
త‌న	9516
పరో	9517
##ారుల	9518
ప్రకాశం	9519
##ాయలు	9520
##్యాత్మిక	9521
##క్షా	9522
లోపం	9523
కలిగే	9524
డీసీ	9525
స్థానాలను	9526
అమెజాన్	9527
గాయపడ్డారు	9528
గణేష్	9529
ఎఫ్‌	9530
రవీందర్	9531
బ్లూ	9532
కిడ్నీ	9533
గెలిపించాలని	9534
ధైర్యం	9535
81	9536
ఇర	9537
జ్యు	9538
నటన	9539
రకాలు	9540
##వాలని	9541
కొన్నే	9542
పోల్స్	9543
సీనియ	9544
పరిసర	9545
చూశా	9546
స్టాలి	9547
పునర్	9548
శిబి	9549
##ర్భా	9550
డీఎస్పీ	9551
ఆరోగ్యాన్ని	9552
డెడ్	9553
స్టేషన్‌లో	9554
చేసుకోవడానికి	9555
హెచ్చరించింది	9556
సూర్యు	9557
ఇంతకు	9558
ఫలితాల	9559
ప్రయాణికుల	9560
##ప్‌మెంట్	9561
సీపీఎం	9562
మహారాష్ట్రలో	9563
ఇందిర	9564
ఖర్చులు	9565
ఫిల్మ్	9566
హెలికాప్టర్	9567
మేడిగడ్డ	9568
అధిష్టానం	9569
సందర్బంగా	9570
కౌశిక్	9571
##బర్‌	9572
##ెక్షన్స్	9573
##ون	9574
##స్తులను	9575
ముమ్మ	9576
ప్రతిరోజు	9577
లాల్	9578
2025	9579
జగన్మోహన్	9580
డీసీపీ	9581
దుబాయ్	9582
మ్యాచ్‌	9583
ఆఫీసులో	9584
బ్యాంకులు	9585
కళాక	9586
మారుతుంది	9587
లక్ష్మి	9588
అదృష్ట	9589
వేగంతో	9590
##ಾಗಿ	9591
ఖైదీ	9592
అత్యాచారం	9593
గవర్నమెంట్	9594
అనంతపురం	9595
బట్టలు	9596
సల్మాన్	9597
బంగాళాఖాతంలో	9598
భౌ	9599
##కాలకు	9600
##మన్న	9601
##స్వీ	9602
చేతి	9603
విరిగి	9604
కొలు	9605
సెషన్	9606
రేట్లు	9607
రేణు	9608
నెలలుగా	9609
##ణ్ణ	9610
ప్రమాదానికి	9611
కారణాల	9612
ఆధ్యాత్మిక	9613
##సెన్స్	9614
రుణాలు	9615
పంపించారు	9616
సౌకర్యాలు	9617
ఘనత	9618
బాక్సా	9619
ఎమోషనల్	9620
గల్ఫ్	9621
స్ఫూర్తి	9622
సుధాకర్	9623
ఉపశమనం	9624
బెల్లంపల్లి	9625
700	9626
?,	9627
پی	9628
ఇస్తూ	9629
##నెస్	9630
##ీస్	9631
##ృతిక	9632
##ారంలో	9633
##న్నత	9634
##మాటా	9635
##పైనా	9636
పెడుతున్నారు	9637
##ానో	9638
తేజ్	9639
ఆర్ఎస్	9640
అమల్లోకి	9641
ఒక్కటే	9642
ఉద్యోగి	9643
కుటుంబాలు	9644
రాజకీయాలకు	9645
పాత్రలు	9646
వినాయ	9647
స్థిర	9648
సన్నిహి	9649
టోర్నీలో	9650
నౌక	9651
తేలికపాటి	9652
ట్రీట్	9653
4న	9654
ఉక్రెయిన్	9655
తడి	9656
తద్వారా	9657
పత్తి	9658
బంతి	9659
వంత	9660
##రథ	9661
##షన	9662
##ହି	9663
##ండర్లు	9664
కానున్నారు	9665
##గుండం	9666
సింధ	9667
చేయనున్న	9668
##పిస్తే	9669
##సాన్	9670
రైళ్లను	9671
వర్సిటీ	9672
తర్వాతే	9673
తోపాటు	9674
అంబు	9675
సంవత్సర	9676
##ana	9677
##చిత్ర	9678
బాధితుల	9679
ఆసుపత్ర	9680
బ్రాహ్మ	9681
ఫెడ	9682
పరుగులకే	9683
సాంస్క	9684
ఆశ్రయించారు	9685
అఖిల	9686
وائرل	9687
బ్రహ్మోత్స	9688
బందో	9689
శిల్	9690
##ವಿ	9691
సంయు	9692
##పోతున్నాయి	9693
మెయిల్	9694
డిస్	9695
సుబ్బ	9696
పుట్టి	9697
బిర్యా	9698
శివు	9699
ఆధు	9700
ఉపసం	9701
పట్టాలు	9702
కంప్యూటర్	9703
250	9704
భావిస్తోంది	9705
చేరుకో	9706
##ారనేది	9707
సంతకం	9708
మిగిలి	9709
ఇక్కడే	9710
వనపర్తి	9711
వ్యవహారాల	9712
రిటైర్డ్	9713
కండువా	9714
అడ్డ	9715
ఇవన్నీ	9716
కింది	9717
టచ్	9718
యంత్రా	9719
శబ్	9720
##నాలకు	9721
##ెలు	9722
##ణాల	9723
##ొన్న	9724
కాశ్మీర్	9725
గుప్ప	9726
రింగ్	9727
అందువల్ల	9728
కార్మిక	9729
డైరెక్ట్	9730
కార్యకర్తల	9731
లేఖలో	9732
##ತ್ತು	9733
##లేకపోయా	9734
ప్రకాశ్	9735
గులాబీ	9736
కుమారస్వామి	9737
ವೈರಲ್‌	9738
అథారిటీ	9739
ఆభరణ	9740
ఈటల	9741
దగ్గు	9742
నక్ష	9743
##నొ	9744
##జికల్	9745
##షణ్	9746
##اب	9747
##وس	9748
##دی	9749
##్యంతో	9750
##తుకు	9751
##తుంటాయి	9752
##ించనుంది	9753
##ష్క	9754
##క్షంగా	9755
సంరక్షణ	9756
అవత	9757
స్ట్ర	9758
వ్యాక్	9759
నియోజకవర్గాల	9760
వెళ్లాలని	9761
హోట	9762
సిబ్బందికి	9763
మరణం	9764
అప్పుల	9765
శక్తిని	9766
ఆహ్వానించారు	9767
పట్టుకున్నారు	9768
ఆటగాళ్లు	9769
మేనేజ్	9770
సానుభూ	9771
మొదలుపెట్టారు	9772
జర్నలిస్టు	9773
పర్యవేక్షణ	9774
##విద్యాల	9775
తహసీల్దార్	9776
తీర్చిది	9777
సాంస్కృతిక	9778
బందోబ	9779
ఆకాశ	9780
ఐడీ	9781
గ్రీ	9782
జరగా	9783
నడ్డా	9784
బస్టా	9785
##రాలను	9786
##ନ୍ତ	9787
ప్రసి	9788
నిఖ	9789
##క్కడే	9790
తీర్థ	9791
##ామీల	9792
గురుకు	9793
##సంస్థ	9794
సమాన	9795
తీసుకుంటున్నారు	9796
జనార్	9797
హాఫ్	9798
మారే	9799
ప్రపంచం	9800
ప్లాస్టిక్	9801
ఆరోపణలపై	9802
దేశంలోనే	9803
మరణించిన	9804
కరె	9805
అప్డేట్	9806
వివేక	9807
ఎల్బీ	9808
గ్యారె	9809
పట్టణంలోని	9810
దర్శకత్వం	9811
రాకపోకలు	9812
ఎమర్జెన్సీ	9813
05	9814
ఉందో	9815
ఊరే	9816
కళ్ల	9817
చంద	9818
లంచ	9819
##సాలు	9820
##ైక	9821
##il	9822
##ఫల్	9823
##10	9824
చేతుల	9825
మాఫీ	9826
వేలం	9827
వాషింగ్	9828
##కొనే	9829
వీధి	9830
##ెక్సీ	9831
మూల	9832
చేస్తున్నా	9833
భారత్‌	9834
పీఎం	9835
కీలకం	9836
ఉండేందుకు	9837
జోక్యం	9838
సంవత్సరానికి	9839
పరీక్షల	9840
14న	9841
వాహనాల	9842
యోగా	9843
అక్టోబరు	9844
పర్యటనకు	9845
నైట్	9846
అర్హులైన	9847
చార్జి	9848
మైనారిటీ	9849
వ్యవహారంలో	9850
లోకల్	9851
##‌‌‌‌‌‌‌‌‌‌‌‌‌‌‌‌‌‌‌‌‌‌‌‌‌‌‌‌‌‌‌‌‌‌‌‌‌‌‌‌‌‌‌‌‌‌‌‌‌‌‌‌‌‌‌‌‌‌‌‌‌‌‌‌‌‌‌‌‌‌‌‌‌‌‌‌‌‌‌‌‌‌‌‌‌‌‌‌‌‌‌‌‌‌‌‌‌‌‌‌‌‌‌‌‌‌‌‌‌‌‌‌‌‌‌‌‌‌‌‌‌‌‌‌‌‌‌‌‌‌‌‌‌‌‌‌‌‌‌‌‌‌‌‌‌‌‌‌‌‌‌‌‌‌‌‌‌‌‌‌‌‌‌‌‌‌‌‌‌‌‌‌‌‌‌‌‌‌‌‌‌‌‌‌‌‌‌‌‌‌‌‌‌‌‌‌‌‌‌‌‌‌‌‌‌‌‌‌‌‌‌‌‌‌‌‌‌‌‌‌‌‌‌‌‌‌‌‌‌‌‌‌‌‌‌‌‌‌‌‌‌‌‌‌‌‌‌‌‌‌‌‌‌‌‌‌‌‌‌‌‌‌‌‌‌‌‌‌‌‌‌‌‌‌‌‌‌‌‌‌‌‌‌‌‌‌‌‌‌‌‌‌‌‌‌‌‌‌‌‌‌‌‌‌‌‌‌‌‌‌‌‌‌‌‌‌‌‌‌‌‌‌‌‌‌‌‌‌‌‌‌‌‌‌‌‌‌‌‌‌‌‌‌‌‌‌‌‌‌‌‌‌‌‌‌‌‌‌‌‌‌‌‌‌‌‌‌‌‌‌‌‌‌‌‌‌‌‌‌‌‌‌‌‌‌‌‌‌‌‌‌‌‌‌‌‌‌‌‌‌‌‌‌‌‌‌‌‌‌‌‌‌‌‌‌‌‌‌‌‌‌‌‌‌‌‌‌‌‌‌‌‌‌‌‌‌‌‌‌‌‌‌‌‌‌‌‌‌‌‌‌‌‌‌‌‌‌‌‌‌‌‌‌‌‌‌‌‌‌‌‌‌‌‌‌‌‌‌‌‌‌‌‌‌‌‌‌‌‌‌‌‌‌‌‌‌‌‌‌‌‌‌‌‌‌‌‌‌‌‌‌‌‌‌‌‌‌‌‌‌‌‌‌‌‌‌‌‌‌‌‌‌‌‌‌‌‌‌‌‌‌‌‌‌‌‌‌‌‌‌‌‌‌‌‌‌‌‌‌‌‌‌‌‌‌‌‌‌‌‌‌‌‌‌‌‌‌‌‌‌‌‌‌‌‌‌‌‌‌‌‌‌‌‌‌‌‌‌‌‌‌‌‌‌‌‌‌‌‌‌‌‌‌‌‌‌‌‌‌‌‌‌‌‌‌‌‌‌‌‌‌‌‌‌‌‌‌‌‌‌‌‌‌‌‌‌‌‌‌‌‌‌‌‌‌‌‌‌‌‌‌‌‌‌‌‌‌‌‌‌‌‌‌‌‌‌‌‌‌‌‌‌‌‌‌‌‌‌‌‌‌‌‌‌‌‌‌‌‌‌‌‌‌‌‌‌‌‌‌‌‌‌‌‌‌‌‌‌‌‌‌‌‌‌‌‌‌‌‌‌‌‌‌‌‌‌‌‌‌‌‌‌‌‌‌‌‌‌‌‌‌‌‌‌‌‌‌‌‌‌‌‌‌‌‌‌‌‌‌‌‌‌‌‌‌‌‌‌‌‌‌‌‌‌‌‌‌‌‌‌‌‌‌‌‌‌‌‌‌‌‌‌‌‌‌‌‌‌‌‌‌‌‌‌‌‌‌‌‌‌‌‌‌‌‌‌‌‌‌‌‌‌‌‌‌‌‌‌‌‌‌‌‌‌‌‌‌‌‌‌‌‌‌‌‌‌‌‌‌‌‌‌‌‌‌‌‌‌‌‌‌‌‌‌‌‌‌‌‌‌‌‌‌‌‌‌‌‌‌‌‌‌‌‌‌‌‌‌‌‌‌‌‌‌‌‌‌‌‌‌‌‌‌‌‌‌‌‌‌‌‌‌‌‌‌‌‌‌‌‌‌‌‌‌‌‌‌‌‌‌‌‌‌‌‌‌‌‌‌‌‌‌‌‌‌‌‌‌‌‌‌‌‌‌‌‌‌‌‌‌‌‌‌‌‌‌‌‌‌‌‌‌‌‌‌‌‌‌‌‌‌‌‌‌‌‌‌‌‌‌‌‌‌‌‌‌‌‌‌‌‌‌‌‌‌‌‌‌‌‌‌‌‌‌	9852
ఓపెనర్	9853
వెహిక	9854
స్నానం	9855
పాలస్తీనా	9856
లండన్	9857
కృతజ్ఞతలు	9858
ap	9859
ఎది	9860
ఒంటి	9861
తామ	9862
మర్చి	9863
##జర్లు	9864
##థో	9865
##ౌంట్	9866
##క్వ	9867
##ంటికి	9868
##లీల	9869
##ష్టంగా	9870
##బాల్	9871
2000	9872
ప్రాంతంలోని	9873
పట్టణంలో	9874
కర్కా	9875
నగరాల్లో	9876
బాలయ్య	9877
కేటగిరీ	9878
##మవుతాయి	9879
ఉద్యోగులను	9880
భావిస్తున్న	9881
కేటాయించిన	9882
కార్మికులకు	9883
తీసుకొచ్చారు	9884
కాన్ఫరెన్స్	9885
సముద్రంలో	9886
సురేశ్	9887
పర్యటించారు	9888
##బడుతుంది	9889
టోక	9890
డ్యాన్స్	9891
వందేభారత్	9892
రేపింది	9893
ఫౌండ	9894
ఎడ్యుకేషన్	9895
జ్వ	9896
శర	9897
##కరం	9898
##ించాం	9899
##ించనున్న	9900
కాపీ	9901
##రోజూ	9902
చేశాడని	9903
అవమా	9904
ఉండదని	9905
మెయిన్	9906
అంత్య	9907
బ్యాటరీ	9908
కలెక్షన్స్	9909
వర్షాలకు	9910
విజయనగ	9911
అమ్మకాలు	9912
దర్శనానికి	9913
తెలియజేశారు	9914
స్థానికంగా	9915
పడుతుందని	9916
2024లో	9917
కర్ణాటకలోని	9918
హుండీ	9919
స్పెష	9920
విశ్వవిద్యాల	9921
సంతోషం	9922
మల్టీ	9923
ఐదేళ్ల	9924
కలుగుతుంది	9925
సామర్థ్యం	9926
గద్దర్	9927
ఊరట	9928
రెస్పాన్స్	9929
అరే	9930
ఎము	9931
కవర్	9932
జాయింట్	9933
మత్	9934
##శాడు	9935
##ౌళి	9936
వచ్చాడు	9937
దాస్	9938
కిష	9939
చిట్	9940
లక్షలకు	9941
బెడ	9942
సందడి	9943
కనిపించారు	9944
##ర్మనీ	9945
పాల్గొంటారు	9946
వికా	9947
వెళ్లిపోయారు	9948
##పడతాయి	9949
చీర	9950
పెట్టుబడు	9951
##బెల్లి	9952
విస్తర	9953
చేస్తుండగా	9954
కార్పొరేట్	9955
##ala	9956
వ్యూహం	9957
తరలివ	9958
##ಾರೆ	9959
పెరగడంతో	9960
అవకాశముంది	9961
బెదిరింపు	9962
సిగ్నల్	9963
కిడ్నాప్	9964
دع	9965
అటువంటి	9966
ఉరి	9967
షారు	9968
##చినా	9969
##షనర్	9970
##ణే	9971
##ೊಂಡ	9972
##రుగ్గా	9973
రాగా	9974
##టీన్	9975
సిరాజ్	9976
##స్థా	9977
రోజురోజు	9978
పైనే	9979
జీపీ	9980
కార్డ్	9981
అమృ	9982
ఇండియన్స్	9983
జోరుగా	9984
నిలిచాడు	9985
బ్రిటి	9986
##ాలనుకునే	9987
నాణ్యత	9988
వారాహి	9989
ఐక్యరాజ్య	9990
బదులుగా	9991
కూర్చో	9992
మినహాయి	9993
ఇంగ్లీష్	9994
79	9995
మాయ	9996
వస్త్ర	9997
##ss	9998
##న్‌‌	9999
##నిర్	10000
వివరి	10001
నిండ	10002
##స్తులకు	10003
కాఫీ	10004
కోవిడ్	10005
##లకుండా	10006
##క్కో	10007
చేయనుంది	10008
లక్ష్యాన్ని	10009
పిండి	10010
ఇవ్వలేదని	10011
##ఫీస్	10012
ప్రభుత్వమే	10013
డీజిల్	10014
వివరించింది	10015
సిబ్బందిని	10016
బ్రహ్మ	10017
ఫ్రె	10018
కస్టమ	10019
సర్వీసు	10020
##ెక్టార్	10021
రఘురామ	10022
నిబంధనల	10023
డాలర్ల	10024
గొడవలు	10025
రేపటి	10026
కర్నూల్	10027
కీర్తి	10028
మసీదు	10029
ఆదివాసీ	10030
న్యూయార్క్	10031
బిర్యానీ	10032
బందోబస్తు	10033
ପ୍ର	10034
అన్నా	10035
అహ్మ	10036
చవి	10037
బంజ	10038
##కపోయినా	10039
##ొమా	10040
కాల్స్	10041
చెడు	10042
కోదండ	10043
మాన్	10044
లేదో	10045
##గ్న	10046
చెప్పినా	10047
సాగింది	10048
##దేవ్	10049
ఉండొచ్చు	10050
##టికే	10051
దూసుకు	10052
వాహనాలను	10053
ఆగస్ట్	10054
పొడిగ	10055
మినహా	10056
##స్థానంలో	10057
తెరకెక్కి	10058
థ్రిల్ల	10059
శ్రీకాకు	10060
పాయింట్లు	10061
కన్వీనర్	10062
##ol	10063
##తుందనే	10064
##రాడు	10065
ఉన్నది	10066
బీఎస్పీ	10067
సాఫ్ట్	10068
స్టె	10069
వారిద్ద	10070
##ల్‌పై	10071
యుక్రెయిన్	10072
రాజకీయా	10073
ఇవ్వడంతో	10074
ఇవ్వకుండా	10075
రేవణ్ణ	10076
##పడ్డారని	10077
రైతుబంధు	10078
ఇలాగే	10079
గుర్తించిన	10080
దాదాపుగా	10081
##చుకో	10082
ముగిసే	10083
విరాళ	10084
మనోహర్	10085
##మ్రాన్	10086
ఉన్నతాధికారులు	10087
అబ్బాయి	10088
ముహూర్	10089
కమర్షియల్	10090
ఆపై	10091
ఉరు	10092
కడియం	10093
టమాటా	10094
మలుపు	10095
రన్స్	10096
సంతా	10097
##టప్	10098
##‌ట	10099
##‌డ	10100
##ch	10101
##వాతి	10102
స్కి	10103
చేయవచ్చు	10104
##రీలు	10105
గాజు	10106
రైళ్ల	10107
భావో	10108
హిమా	10109
పీవీ	10110
దుండ	10111
కొంతకాలంగా	10112
డేవిడ్	10113
సౌదీ	10114
##ారాయన	10115
చాట్	10116
కట్టిన	10117
టెర్ర	10118
ఫీల్	10119
విస్తీర్	10120
స్పీడ్	10121
2021లో	10122
నార్త్	10123
నంద్యాల	10124
మరుస	10125
స్టాలిన్	10126
అంత్యక్రియ	10127
9న	10128
ఆపే	10129
ఎక్కు	10130
డబ్ల్యూ	10131
మెక్	10132
వేశ	10133
హామీల	10134
##పట్ల	10135
ప్రవ	10136
చేత	10137
##రియం	10138
స్తం	10139
ఉన్నందున	10140
నిర్దేశ	10141
##స్తున్నాయని	10142
##డీఏ	10143
పేష	10144
వీసీ	10145
రైస్	10146
పురుగు	10147
##కూర	10148
చేసుకుంటున్న	10149
బ్యానర్	10150
తరబడి	10151
యూకే	10152
అమర్	10153
కారణాలతో	10154
క్యాపి	10155
క్యాడర్	10156
నీటిలో	10157
కొట్టిన	10158
28న	10159
కాలేజీలో	10160
##rab	10161
##నాయక్	10162
నిర్మిస్తున్నారు	10163
తగిలింది	10164
చుట్టుపక్క	10165
స్ట్రీమింగ్	10166
మరుసటి	10167
82	10168
ai	10169
ఇంధ	10170
ఛాల	10171
తమ్మ	10172
##గలుగు	10173
##పత్ర	10174
##గాలి	10175
##ంతికి	10176
##ార్జి	10177
కొనియా	10178
వాసు	10179
వాడుకు	10180
##వేలు	10181
వ్యాయ	10182
రూట్	10183
మీన	10184
చూసింది	10185
ప్రకృతి	10186
ప్రతిభ	10187
జీతం	10188
చేసుకునేందుకు	10189
అరటి	10190
కొన్నిసార్లు	10191
గోపాల్	10192
టీడీపీలో	10193
భాగస్వామి	10194
పెంచే	10195
పర్యటి	10196
ఆశించిన	10197
వస్తువులను	10198
గ్రాడ్యు	10199
13న	10200
కష్టపడి	10201
గేమ్స్	10202
నివేదికను	10203
సింగపూర్	10204
కురిసిన	10205
చేస్తుంటారు	10206
సంఘటనలు	10207
అప్పగించారు	10208
మరొకరు	10209
అనుచరులు	10210
కన్నుమూ	10211
##ews	10212
భావోద్వే	10213
98	10214
ఈస్ట్	10215
ఫైనా	10216
బదులు	10217
మమ్మల్ని	10218
##టాన్	10219
##‌రెడ్డి	10220
##ter	10221
ప్రవా	10222
##ంటికీ	10223
##లియ	10224
కాకా	10225
##నాటి	10226
దివ	10227
ఆర్డిన	10228
విధులు	10229
మొదట్లో	10230
మంచిదని	10231
##కపోవచ్చు	10232
వినియోగం	10233
రుచి	10234
అందించేందుకు	10235
రామచంద్ర	10236
రెండోసారి	10237
మైదాన	10238
పంచు	10239
చాన్స్	10240
బస్సులో	10241
##స్కార్	10242
ఎగ్జిక	10243
పర్యాట	10244
పరిగణన	10245
ఉత్తరాఖండ్	10246
తాగడం	10247
అఫ్గా	10248
క్లీన్	10249
మోటార్	10250
ఫౌండేషన్	10251
88	10252
అర్చ	10253
అకాడ	10254
ఓం	10255
ఓబీసీ	10256
కళ్లు	10257
చిక	10258
ఫాం	10259
శీ	10260
##పర్చ	10261
##తలను	10262
##చాయి	10263
##శ్య	10264
ప్రతా	10265
##ంటాం	10266
పెను	10267
వాడే	10268
##వ్వాడ	10269
రావడానికి	10270
12వ	10271
పెంచింది	10272
##టేరియ	10273
##పేటలో	10274
కోల్పోయారు	10275
వేయడం	10276
చెన్నూరు	10277
సంతర	10278
ఎకరాలు	10279
నిమిషాలకు	10280
సీట్లలో	10281
జ్యోతిష్య	10282
నందమూరి	10283
ఆకాంక్ష	10284
అంటు	10285
గాయం	10286
బెట్	10287
##ంతులు	10288
##ారులకు	10289
పెద్ది	10290
లోత	10291
ముంపు	10292
ఉన్నవారు	10293
##పాఠ	10294
సాహ	10295
##వర్ధన్	10296
డివై	10297
మేఘ	10298
మోహ	10299
##గ్రే	10300
ప్రాంతాలలో	10301
శిథి	10302
పెరుగుతాయి	10303
గొర్ర	10304
##కరణకు	10305
యోగి	10306
ల్యాబ్	10307
మూడోసారి	10308
ట్రైన్	10309
సన్నివేశ	10310
కోర్సు	10311
నివారణ	10312
శ్రీశైలం	10313
కరెంటు	10314
మత్స్య	10315
08	10316
అకాల	10317
కంచ	10318
గడప	10319
జర్మనీ	10320
లతో	10321
##రకంగా	10322
##గంగా	10323
##కట్ట	10324
##వారని	10325
కోడి	10326
గుప్తా	10327
చేయొచ్చు	10328
పరిరక్షణ	10329
వైఖరి	10330
##ుకున్నాడు	10331
దివ్యా	10332
సమావేశాల్లో	10333
##పడుతున్నాయి	10334
12న	10335
చిత్రీ	10336
ఇంకో	10337
మూవీలో	10338
రీసెంట్	10339
17న	10340
నిరంతరం	10341
నటించారు	10342
దెబ్బతీ	10343
ల్యాండింగ్	10344
అయిదు	10345
ఆనందం	10346
పోషకాలు	10347
##ائی	10348
పర్యాటక	10349
పెరగడం	10350
సౌకర్యం	10351
మలయాళ	10352
ఎఫెక్ట్	10353
##క్వాడ్	10354
పరిగణనలోకి	10355
7న	10356
ఇట	10357
పరువు	10358
భరత్	10359
శ్వే	10360
##up	10361
##ారాలు	10362
##ట్లేదు	10363
ప్రాము	10364
##వుతున్నాయి	10365
లోటు	10366
##నాల్డ్	10367
తెలిపాయి	10368
నాథ్	10369
సెన్	10370
సెటై	10371
పూర్వ	10372
##ర్‌తో	10373
హింసా	10374
దర్శించుకున్నారు	10375
ఆలయానికి	10376
కనిపిస్తాయి	10377
ఫైబర్	10378
నిందితుల	10379
##ాకూర్	10380
కవితను	10381
బిల్లును	10382
బహిష్	10383
##ತ್ರ	10384
ఏకైక	10385
గడుపు	10386
ధ్వజ	10387
వెళ్లాడు	10388
##తిపదిక	10389
కొడాలి	10390
ఎగ్జామ్	10391
కాంప్లెక్స్	10392
?"	10393
ఏము	10394
నడవ	10395
##నూరు	10396
##‌యం	10397
##భవన్	10398
##తారా	10399
విశ్రా	10400
##మిలి	10401
##జ్జు	10402
వీలైన	10403
స్థలాన్ని	10404
వారాల	10405
10న	10406
##బోతుంది	10407
పాలక	10408
ప్రయత్నించారు	10409
ఆఫ్ఘ	10410
దగ్గరగా	10411
అరుణ	10412
స్కాం	10413
విశ్వాసం	10414
లక్ష్యంతో	10415
జర్నలిస్ట్	10416
జ్ఞాప	10417
రాంబాబు	10418
ఫండ్స్	10419
##భివృద్ధి	10420
పాజిటివ్	10421
చుట్టుపక్కల	10422
83	10423
ఆస్కార్	10424
ఎపి	10425
మస	10426
హడా	10427
##టాల	10428
##‌వ‌	10429
##ెత్తి	10430
##న్యూ	10431
కాలువ	10432
##టీఎం	10433
వైజా	10434
##‌లోనే	10435
వరదల	10436
మెడి	10437
రైజర్స్	10438
##గొట్టి	10439
పిచ్	10440
క్లో	10441
పెట్టారని	10442
పాలమూరు	10443
నియోజకవర్గానికి	10444
ఘటనకు	10445
అమెరికాలోని	10446
పంపారు	10447
చుక్క	10448
మొదలై	10449
కోల్పోయి	10450
ముగింపు	10451
బీబీసీకి	10452
యాక్టివ్	10453
ప్యాకేజీ	10454
ఆసక్తిగా	10455
ఇష్టపడ	10456
టోల్	10457
వీరిద్దరూ	10458
హుస్సేన్	10459
అబ్దుల్	10460
కొబ్బరి	10461
అనర్హ	10462
అలియాస్	10463
ఫైనాన్స్	10464
ఎగ్జిక్యూ	10465
8న	10466
86	10467
అరా	10468
టెం	10469
దామో	10470
రాయి	10471
వంతు	10472
##పక	10473
##సెక్	10474
##దెబ్బ	10475
##శక్తి	10476
##ಾದ	10477
##ಾಂ	10478
##dd	10479
##ల్దే	10480
##లిటీ	10481
##టీవీ	10482
తెప్ప	10483
కోన	10484
##ట్టా	10485
##పాక	10486
##నాతన	10487
శ్రీహరి	10488
తరగ	10489
క్లిక్	10490
##సరికి	10491
మోదీకి	10492
ఇంకొ	10493
మద్దతి	10494
పంపిన	10495
అందిస్తుంది	10496
ఉంచారు	10497
బస్సుల్లో	10498
నిజాం	10499
భయంతో	10500
తీసుకొచ్చింది	10501
నియమించారు	10502
ప్రక్రియను	10503
ఏమిట	10504
మైనార్టీ	10505
శ్రీవారిని	10506
కాంట్రాక్ట్	10507
క్రాస్	10508
కూల్చివే	10509
సులభంగా	10510
ఫారెస్ట్	10511
పిఠాపురం	10512
ధృవీ	10513
##స్టిట్యూట్	10514
ts	10515
تص	10516
نہیں	10517
ఆవరణ	10518
కమ్మ	10519
డోర్	10520
##కట్	10521
##శెట్టి	10522
##ନ୍	10523
##టులు	10524
రాబ	10525
కొవ్వు	10526
కూడ	10527
##తున్నాయని	10528
దాల్	10529
##య్యింది	10530
##న్‌పై	10531
కేంద్రాల	10532
ప్రాంతాలను	10533
కార్లు	10534
అనకా	10535
మహిళలను	10536
##పెడు	10537
15వ	10538
కంపెనీలో	10539
నిర్మాణాలు	10540
జరగడం	10541
కారణంగానే	10542
ప్రకటనలు	10543
అలె	10544
మార్కెట్లో	10545
అనుమతులు	10546
నడిచే	10547
అడగ	10548
రఘునంద	10549
అధ్యక్షురాలు	10550
గుడివాడ	10551
విసిరారు	10552
##పూర్వకంగా	10553
చికెన్	10554
కరి	10555
నమ	10556
##రెన్	10557
##యినా	10558
##సొ	10559
##డ్లు	10560
##టీయూ	10561
పెంప	10562
##కోట	10563
వేధ	10564
##పాత్ర	10565
నేర్	10566
నేరం	10567
వైష్ణ	10568
తీసుకురా	10569
##చేసింది	10570
పిడుగు	10571
గ్రామం	10572
##పడుతుందని	10573
ఇన్ఫె	10574
కార్యక్రమాలను	10575
పెరుగుదల	10576
వరదలు	10577
రోజుల్లోనే	10578
అడ్డుకున్నారు	10579
##డతామని	10580
తొమ్మిదే	10581
అస్సా	10582
ఫ్రాన్స్	10583
సైనికులు	10584
##స్తుండటంతో	10585
ఇన్వెస్ట్	10586
వేములవాడ	10587
వేర్వేరు	10588
ప్రాముఖ్య	10589
కం	10590
ఖాయం	10591
పగ	10592
వంగ	10593
##ఎల్‌	10594
##దనే	10595
##హౌ	10596
##ಾಮ	10597
##నియన్	10598
పెంచి	10599
నిర్వా	10600
##వంతు	10601
##తాబాద్	10602
తాక	10603
ఉంటుందో	10604
క్రూ	10605
##షియన్	10606
గంటకు	10607
బయల్దే	10608
మొత్తానికి	10609
సందర్భాల్లో	10610
అధ్యక్షతన	10611
పూజా	10612
యువతకు	10613
ప్లాట్‌	10614
లేకుండానే	10615
ఎంతగా	10616
ట్యాక్స్	10617
ల్యాండర్	10618
ఇండో	10619
ట్రైనింగ్	10620
రూపొంది	10621
ప్రయోజనాలను	10622
విధానంలో	10623
తీసుకొచ్చిన	10624
సెక్రటేరియ	10625
రూపొందించిన	10626
కుటుంబాన్ని	10627
స్నేహితులు	10628
జరిపారు	10629
నెటిజ	10630
నేతృత్వంలో	10631
చిత్రానికి	10632
డాక్యుమె	10633
చర్మం	10634
మల్లికార్జున	10635
విడాకులు	10636
లెక్కింపు	10637
అభినందించారు	10638
రాజకీయాల్లోకి	10639
శత్రు	10640
##మతులు	10641
##ul	10642
##పురు	10643
##ామన్న	10644
##ఆర్ఆర్	10645
మీట్	10646
పేజీ	10647
స్టోర్	10648
వర్సెస్	10649
##ులపై	10650
పూల	10651
సిద్ధా	10652
##స్తోందన్నారు	10653
మైనింగ్	10654
175	10655
చాటు	10656
మంగళగిరి	10657
కారును	10658
అడిగితే	10659
సర్వేలో	10660
పరిష్కార	10661
ప్రయాణికులకు	10662
ఖైర	10663
మురళీ	10664
అంతరాయం	10665
అభినందనలు	10666
th	10667
జరుగ	10668
దయ	10669
ధూ	10670
మమ	10671
##ధాన	10672
##జాలు	10673
##థు	10674
##ಸ್‌	10675
##ug	10676
##త్వానికి	10677
##డితో	10678
##నేని	10679
సిక్స్	10680
##పోతోంది	10681
వచ్చాయని	10682
వైఫల్	10683
పుణ్య	10684
యాపిల్	10685
జీతాలు	10686
##మార్లు	10687
చేసుకుంటే	10688
విద్యార్	10689
మహాన	10690
##బోమని	10691
కుటుంబసభ్య	10692
చర్యలకు	10693
హీరోయి	10694
##anth	10695
రీతిలో	10696
మాటల	10697
పోస్టుల	10698
##లేకపోయింది	10699
ఐపీఎస్	10700
వినియోగదారులు	10701
విశ్వస	10702
సలార్	10703
విద్యార్థిని	10704
తగ్గుతుంది	10705
కాంట్రాక్టర్	10706
ఆసక్తికరంగా	10707
బ్యాక్టీ	10708
పదార్థాలు	10709
నాణ్యమైన	10710
సంబరాలు	10711
##ಿದ್ದಾರೆ	10712
విభేదాలు	10713
ఎలాగైనా	10714
జూబ్లీహిల్స్	10715
కర్కాటక	10716
87	10717
ఐసీ	10718
గన్న	10719
ఠాకూర్	10720
పల్ల	10721
##చన	10722
##ణాలను	10723
##కుంటూ	10724
##కుంఠ	10725
కాకపోతే	10726
##ందుల	10727
పోడు	10728
గుట్ట	10729
వాస్తు	10730
అనిపించ	10731
తనదైన	10732
వరస	10733
##సాన్ని	10734
##యిర్	10735
సమాజం	10736
రెడ్డితో	10737
ప్రతిరోజూ	10738
లక్షలాది	10739
##హాన్	10740
##చార్య	10741
2016	10742
సందర్భంలో	10743
వైసీపీలో	10744
పెంచాలని	10745
అయినట్లు	10746
మాట్లాడటం	10747
టాస్క్	10748
డైరెక్షన్	10749
సంగీత	10750
టెండర్	10751
అప్‌	10752
రాయల్	10753
హాజరైన	10754
క్వాలిటీ	10755
విషయమై	10756
ఉద్దేశంతో	10757
వార్తల్లో	10758
వసతి	10759
ప్రత్యామ్నాయ	10760
ఇరవై	10761
స్తంభ	10762
ఖైరతాబాద్	10763
జవా	10764
జంక్షన్	10765
రాయితీ	10766
ಎಂದು	10767
##మలు	10768
##డిపై	10769
చేశా	10770
లేరు	10771
చేయాలంటూ	10772
##సుకుని	10773
20న	10774
తాడే	10775
క్రేజ్	10776
ముఖ్యమంత్ర	10777
చేసుకుంటూ	10778
ఆర్టికల్	10779
ప్రకటించ	10780
జోడ	10781
తొలిసారిగా	10782
25న	10783
హెచ్చరి	10784
దోష	10785
రోడ్ల	10786
బీసీలకు	10787
నడుస్తోంది	10788
లోపలికి	10789
రిజిస్టర్	10790
అధిగమ	10791
జన్మించిన	10792
డ్రామా	10793
ట్రాన్స్‌	10794
డిపాజిట్	10795
పాండ్యా	10796
పవన్‌	10797
విజయనగరం	10798
బ్రిటిష్	10799
శ్రీకాకుళం	10800
ఎగ్జిక్యూటివ్	10801
ఇబ్ర	10802
బచ్చ	10803
మర్	10804
రవితే	10805
##ేరు	10806
##భుత్	10807
##ౌన్స్	10808
##వానీ	10809
కుండ	10810
సిఫార్	10811
##ానంటూ	10812
##ించినట్టు	10813
ప్రాంగ	10814
##ంపూర్	10815
చూస్తుంటే	10816
జరిపి	10817
##ర్చీ	10818
బెనర్జీ	10819
మిమ్మల్ని	10820
అతడిని	10821
సమస్యలతో	10822
పెట్టాలి	10823
ప్రమాదాలు	10824
ఎస్ఐ	10825
సంస్థకు	10826
స్థానానికి	10827
చీక	10828
సరిపడా	10829
రిలీజ	10830
మొదలయ్యాయి	10831
ఇంతకీ	10832
కల్యాణ	10833
తీసుకొచ్చి	10834
స్పష్టమైన	10835
నిమిషాలు	10836
దృష్ట్యా	10837
రౌడీ	10838
బాలుడు	10839
విషాద	10840
సమ్మే	10841
ప్రకాష్	10842
ఉద్రిక్తత	10843
డయాబెటిస్	10844
కూటమికి	10845
పరోక్షంగా	10846
అహ్మదాబాద్	10847
వైజాగ్	10848
89	10849
91	10850
ఆధిప	10851
ఏంటో	10852
క్యాల	10853
జానీ	10854
ద్రో	10855
బద్ద	10856
రద్ద	10857
హన్	10858
##బరి	10859
##ುವ	10860
##లోపు	10861
##ందిగా	10862
##రాకు	10863
సిరియా	10864
చూశారు	10865
పురస్	10866
బిహార్	10867
కావాలంటే	10868
##ించుకుంటున్నారు	10869
ట్రస్ట్	10870
లైసెన్స్	10871
ఫ్యాన్	10872
డబ్బును	10873
సౌతా	10874
ప్రాజెక్టును	10875
టికెట్ల	10876
అంగన్	10877
నర్స	10878
ఎఫ్ఐఆర్	10879
అయోధ్యలో	10880
నిరూపించ	10881
మొన్నటి	10882
ఏడుగురు	10883
రవితేజ	10884
900	10885
ఇమేజ్	10886
కారి	10887
గను	10888
గీత	10889
తండా	10890
తట్టుకో	10891
దత్త	10892
షీ	10893
షార్ట్	10894
హార	10895
##పాలు	10896
##ہا	10897
##ସି	10898
##ర్డ్	10899
రాసు	10900
కాగ	10901
##మిరెడ్డి	10902
సిగ్గు	10903
##ష్టమైన	10904
రోజ	10905
అధికారాన్ని	10906
బాటి	10907
హోరా	10908
అసెంబ్లీకి	10909
నిర్మాణంలో	10910
రోజులపాటు	10911
##చుగా	10912
వస్తువు	10913
##కున్నాడు	10914
##ఫిడ	10915
కార్యాలయానికి	10916
1000	10917
##జెండా	10918
అభిమానుల	10919
తిరుగుబాటు	10920
స్క్రీ	10921
గడిచిన	10922
ఎర్రబెల్లి	10923
భాషల్లో	10924
రిటైర్మెంట్	10925
రామకృష్ణారెడ్డి	10926
ఫ్లెక్సీ	10927
పైలట్	10928
కమీషన్	10929
గ్యారెంటీ	10930
అకాడమీ	10931
అమా	10932
ఆస్తుల	10933
ఉక్కు	10934
నడప	10935
##గ‌	10936
##కల్ప	10937
##శీల	10938
##ೆದ	10939
##‌‌‌‌తో	10940
ప్రచారానికి	10941
విప్	10942
తెల	10943
చెక్క	10944
రెచ్చ	10945
సాక్షి	10946
##ారాశి	10947
ప్రాతిపదిక	10948
##ంప్ర	10949
మార్కులు	10950
వ్యాధులు	10951
జీవి	10952
##శాంతి	10953
వెళ్లను	10954
19న	10955
సభ్యులను	10956
##క్ష్మీ	10957
రూపాయలకు	10958
ప్రాజెక్టులు	10959
పాకిస్తా	10960
నెలకొన్న	10961
ఎక్కడి	10962
ఉత్పత్తు	10963
వ్యాపారవేత్త	10964
హ్యాండ్	10965
రాలేదని	10966
పరిగణి	10967
అంగీకరించ	10968
ఇండస్ట్రీలో	10969
కలిగించే	10970
యజమాను	10971
సంస్కృతి	10972
కంప్లీట్	10973
నివాసంలో	10974
ప్రశ్నిస్తున్నారు	10975
విరమణ	10976
ప్రశాంతంగా	10977
విరుద్ధంగా	10978
రిజర్వాయర్	10979
భయాందోళన	10980
బాక్సాఫీస్	10981
అంబులెన్స్	10982
##నొప్పి	10983
వివేకానంద	10984
రఘునందన్	10985
ఇటువంటి	10986
యత్	10987
సిల్	10988
##పట్	10989
##ುಕ	10990
పెండ్	10991
పెడుతున్న	10992
పాట్	10993
పావు	10994
ప్రాసెస్	10995
ఎన్నికలను	10996
##దేవ	10997
చూస్తూ	10998
చూద్దాం	10999
##ముద్ర	11000
రెడ్డిపై	11001
తిరగ	11002
వ్యాప్తి	11003
అసహనం	11004
నాయకులకు	11005
క్షి	11006
అయ్యప్ప	11007
ధరల	11008
దీనిలో	11009
వర్షాలతో	11010
విజయవంతం	11011
ఆదరణ	11012
##మూల	11013
డ్రైవ్	11014
ఆకస్	11015
##నికల్	11016
నర్సా	11017
క్యూసెక్	11018
సృష్టించింది	11019
నల్లగొండ	11020
దాడులకు	11021
##ికొండ	11022
##deo	11023
జీఎస్టీ	11024
ఇందిరమ్మ	11025
ఆధునిక	11026
ఇబ్రహీ	11027
పులు	11028
సన్నా	11029
ಆದ	11030
##లక్	11031
##తాలను	11032
##ఎన్‌	11033
##దశ	11034
##లిని	11035
కానున్నాయి	11036
##దుర్	11037
##దిక్	11038
##ితికి	11039
ముఠా	11040
పాటిల్	11041
పరిపాలన	11042
వైకుంఠ	11043
టీచర్లు	11044
సుభా	11045
##ప్రమా	11046
తరపు	11047
మ్యాచు	11048
డీఈ	11049
బుద్ధి	11050
30న	11051
డెంగ	11052
18న	11053
ఇప్పటివరకూ	11054
##ఫియా	11055
అందిస్తున్న	11056
ఆధారపడి	11057
చేసుకున్నట్లు	11058
ఆహారాన్ని	11059
చెల్లించాలని	11060
వ్యవస్థాప	11061
యుద్ధంలో	11062
అంతర్గత	11063
నటిస్తున్న	11064
బేస్	11065
ఆహ్వానం	11066
ఖాతాల్లో	11067
వాస్తవానికి	11068
అనారోగ్యంతో	11069
ఏంటంటే	11070
ఉదాహరణకు	11071
ఆత్మీ	11072
ఉస్మా	11073
##గణన	11074
అనకాపల్లి	11075
ఈశా	11076
కది	11077
గణా	11078
శెట్టి	11079
##లసిన	11080
##కండి	11081
##తాల	11082
##ಿತ	11083
##ಾಣ	11084
ప్రయోగం	11085
##ండరింగ్	11086
##ాయుడు	11087
రాఖీ	11088
##టివిటీ	11089
##టీలు	11090
##న్నింటినీ	11091
వెర్	11092
చేయని	11093
మొక్కులు	11094
##న్‌లు	11095
బ్యాటర్లు	11096
చేసేవారు	11097
అవుతాయి	11098
కల్పించారు	11099
ఉంటో	11100
న్యాయమూర్	11101
వినాయక	11102
వెంకటేశ్	11103
తీర్మా	11104
ఆటంక	11105
నైరు	11106
వదిల	11107
ప్రశ్నకు	11108
పుష్క	11109
చూసినా	11110
మధుమే	11111
డేటాను	11112
తిరుమలకు	11113
జడ్పీటీసీ	11114
బ్యాలెట్	11115
గాయాలయ్యాయి	11116
శ్రీనివాసరావు	11117
ప్రాక్టీస్	11118
వెస్టిండీస్	11119
విశ్రాంతి	11120
తరి	11121
భగీ	11122
షమీ	11123
##స‌	11124
##ాలయ	11125
##లిష్	11126
##ంగులు	11127
కావాల్సి	11128
వేద	11129
##కాన్	11130
చేయించారు	11131
చేయనున్నట్లు	11132
##వీర్	11133
సుమన్	11134
బెర్	11135
జగనన్న	11136
సూపరి	11137
##స్‌మెంట్	11138
సైంటి	11139
క్వా	11140
ఏపీలోని	11141
ప్రమాణం	11142
జూపల్లి	11143
ప్రపంచంలోని	11144
మృతుల	11145
టైగర్	11146
స్వయం	11147
చనిపోయాడు	11148
చెల్లించ	11149
23న	11150
##ఎఫ్‌	11151
భావించి	11152
పౌర్ణ	11153
ఆత్మహత్యకు	11154
చార్జ్	11155
వినిపిస్తోంది	11156
మ్యూజి	11157
మూడేళ్ల	11158
చర్చనీయాంశంగా	11159
అదృష్టం	11160
కదలిక	11161
బ్యూరో	11162
96	11163
ఆతి	11164
ఆడుతున్న	11165
శరత్	11166
##లెస్	11167
##పద	11168
##ందరి	11169
##స్తుందన్నారు	11170
##్వీ	11171
లేకుంటే	11172
పార్కు	11173
శాస్త	11174
మూత	11175
శ్రీకారం	11176
మ్యాన్	11177
ఇవ్వడానికి	11178
10వ	11179
మహమ్మద్	11180
పీజీ	11181
ఉత్తీర్	11182
స్వదేశ	11183
##మవుతున్నాయి	11184
బంగారాన్ని	11185
##వెల్లి	11186
సెప్టెంబరు	11187
విదేశాలకు	11188
ఫేస్	11189
జనవరిలో	11190
లేకపోయినా	11191
కనక	11192
స్థితి	11193
ఆహారంలో	11194
నియోజకవర్గంలోని	11195
##اتھ	11196
స్మగ్	11197
స్ట్రాంగ్	11198
సంక్రాంతి	11199
##షేకం	11200
శివాజీ	11201
సౌతాఫ్రికా	11202
2న	11203
news	11204
ఉధ	11205
మతం	11206
ನಾ	11207
##నస్	11208
##నన్నారు	11209
##ంకా	11210
##ష్ర్	11211
##ఛార్జ్	11212
##19	11213
చేర్	11214
కానున్న	11215
##గుంట	11216
కోడ	11217
కుడి	11218
బాని	11219
ప్రజ్వ	11220
విజయాలు	11221
సూత్ర	11222
అమర	11223
అమ్మవారి	11224
షాపింగ్	11225
##భిప్ర	11226
16న	11227
వందలాది	11228
పార్లమెంటరీ	11229
ప్రస్తావన	11230
##రాశిలో	11231
నిర్మిస్తున్న	11232
స్పందించి	11233
మొక్కలు	11234
ప్రణాళికలు	11235
ఎడమ	11236
పుట్టినరోజు	11237
మెజార్టీతో	11238
ఛానెల్	11239
ఆక్రమణ	11240
తెరకెక్కు	11241
మిల్లు	11242
ఏనుగు	11243
క్వింటా	11244
మావోయిస్టు	11245
ఛత్తీస్‌	11246
కిషోర్	11247
وال	11248
అందిన	11249
ఎట్ట	11250
ఠా	11251
నవ్వు	11252
పన్న	11253
లాయర్	11254
##వరు	11255
##డున్న	11256
##డియ	11257
స్పై	11258
##స్తారో	11259
##క్షేత్ర	11260
కేర్	11261
గురువు	11262
వాళ్లను	11263
పార్కింగ్	11264
##పిడి	11265
##మురు	11266
మిచ	11267
జనాలు	11268
వారస	11269
హాసన్	11270
అర్వింద్	11271
అన్నాడు	11272
కిందకు	11273
గెలిచింది	11274
పడిపోయింది	11275
##ించాడని	11276
కార్యక్రమాల్లో	11277
##‌ల‌	11278
ట్యాంక్	11279
అడ్వ	11280
27న	11281
విజయవాడలో	11282
రిపోర్	11283
ద్రవ	11284
ఆనందంగా	11285
సప్లై	11286
బెట్టింగ్	11287
ఎపిసో	11288
3న	11289
94	11290
جس	11291
అపో	11292
ఏలూరు	11293
దండ	11294
ఫేమ	11295
సెక్స్	11296
హబ్	11297
ಎಂಬ	11298
##తనాలు	11299
##12	11300
##ారె	11301
##ించాలనే	11302
##ంటామని	11303
నిష్	11304
నిరోధక	11305
##డ్జ్	11306
##ష్టి	11307
##సిడీ	11308
ముర్	11309
##పోర్టు	11310
వేస్తే	11311
వైట్	11312
ఆయనే	11313
##వర్క్	11314
ఆయనతో	11315
డిస్ట్రి	11316
చివర్	11317
##ించేది	11318
శ్రీరామ	11319
అనౌన్స్	11320
##బోతున్నట్లు	11321
##ించుకున్నాడు	11322
నోట్	11323
దేవే	11324
హోల్	11325
ఇండియాకు	11326
ప్రేమి	11327
11వ	11328
ఇచ్చినట్లు	11329
దొర	11330
పడకుండా	11331
ఉత్సాహ	11332
##శేఖ	11333
ఎన్నడూ	11334
వాతావరణంలో	11335
హక్కును	11336
కొద్దిసేప	11337
కనిపించిన	11338
పరిశోధకులు	11339
ఖాళీగా	11340
హోంమంత్రి	11341
పడ్డాయి	11342
రాజమౌళి	11343
గర్భి	11344
తాగునీటి	11345
బర్త్	11346
సలహాదారు	11347
ఆన్‌లైన్‌లో	11348
శుభ్రం	11349
ఇష్యూ	11350
అరేబియా	11351
బంజారా	11352
ఉత్తీర్ణ	11353
8వ	11354
ys	11355
ఆంజనేయ	11356
ఎప్పటికీ	11357
పట్	11358
బస్టర్	11359
##వక	11360
##జల్	11361
##హల్	11362
##tt	11363
##ିଡି	11364
##కుడిని	11365
##డిప	11366
##సిం	11367
చెట్లు	11368
##ేశం	11369
సిసో	11370
చేయటం	11371
వాళ్ళ	11372
పుతిన్	11373
జాతి	11374
ఎంఎస్	11375
##ర్యాద	11376
ఒక్కసారి	11377
క్యాచ్	11378
##న్నాడని	11379
ఇంట్రెస్	11380
చర్యలను	11381
రాజకీయాల	11382
షాకింగ్	11383
చేస్తూనే	11384
బౌలర్లు	11385
భావిస్తారు	11386
అతిథి	11387
మారుతున్న	11388
బోర్డ్	11389
నివేదికలు	11390
నివేదికలో	11391
##ప్పుడూ	11392
##హెచ్‌	11393
సమర్పించారు	11394
అనుకున్నారు	11395
తెచ్చిన	11396
##య్యాక	11397
పొందుతూ	11398
అగ్రనేత	11399
అంగీకర	11400
వాస్తవ	11401
నినాద	11402
గజ్వే	11403
శేఖర్	11404
అత్త	11405
ఆఫ్రికా	11406
ఔష	11407
చార	11408
##నర్లు	11409
##మంగా	11410
##నుప	11411
వింత	11412
రాథో	11413
##క్షిక	11414
పోసి	11415
ముట్ట	11416
మునుగో	11417
పాడ	11418
రెట్లు	11419
మీటర్లు	11420
తనతో	11421
పొడవు	11422
##స్టేషన్	11423
దింప	11424
ప్రాంతాన్ని	11425
నిర్వహించింది	11426
డీపీ	11427
19వ	11428
లిఫ్ట్	11429
నోరు	11430
కరెన్సీ	11431
బేబీ	11432
సూర్యుడు	11433
న్యాయవాదులు	11434
##చోట	11435
కాలుష్యం	11436
నితీశ్	11437
బెదిర	11438
అత్యున్నత	11439
కొనియాడారు	11440
ఆకస్మిక	11441
03	11442
06	11443
93	11444
ఉంచి	11445
కారం	11446
కశ్మీర్	11447
మల్లు	11448
##తతో	11449
##మంటూ	11450
##15	11451
##تا	11452
##స్కో	11453
##ికక్కడే	11454
##మెత్తారు	11455
##కోవాల్సిన	11456
చేయగల	11457
పేరుకు	11458
డిసైడ్	11459
పొరుగు	11460
తీసుకుంటారు	11461
అయ్యర్	11462
పలుమార్లు	11463
చేపట్టి	11464
2017	11465
విమర్శి	11466
18వ	11467
కోల్పో	11468
మండిపడుతున్నారు	11469
అప్లై	11470
సహాయంతో	11471
వివక్ష	11472
సంతృ	11473
సర్వీసెస్	11474
ప్రోగ్రామ్	11475
మారిపోయింది	11476
పద్ధతిలో	11477
ప్రజాస్వామ్య	11478
ఆదిత్యనాథ్	11479
##‌క‌	11480
మహేందర్	11481
శారీరక	11482
పర్సనల్	11483
ఉస్మానియా	11484
92	11485
అవే	11486
కపూర్	11487
కప్పి	11488
డ్రి	11489
దందా	11490
మినీ	11491
##లకే	11492
##ల్చుకు	11493
##క్తంగా	11494
విచారి	11495
రాళ్లు	11496
##సిక్	11497
ముక్కు	11498
వేరియం	11499
##స్తున్నట్టు	11500
##దాకా	11501
నాగే	11502
##ఫ్‌	11503
అనుసం	11504
##స్టరీ	11505
సోలార్	11506
##టాన్ని	11507
మహిళను	11508
కావచ్చు	11509
##పెట్టారు	11510
ప్రిన్సిప	11511
డైరెక్టరేట్	11512
గుర్తుకు	11513
##భిన్న	11514
సొంతంగా	11515
పాటలు	11516
నరేందర్	11517
పోస్టుమార్	11518
యోగీ	11519
కమల్	11520
అడ్వా	11521
కిలోమీటర్లు	11522
##చెప్ప	11523
ఉత్సవాలు	11524
video	11525
##ویر	11526
అనిపిస్తుంది	11527
వైఎస్‌ఆర్‌	11528
వెయిట్	11529
రక్తం	11530
నైరుతి	11531
చివర్లో	11532
మునుగోడు	11533
5న	11534
6న	11535
అబ	11536
అతీ	11537
అగర్	11538
ఎల్‌	11539
ఎంచు	11540
ఖర	11541
##్రె	11542
##్యాలను	11543
విజి	11544
చెందింది	11545
##ాయిల్	11546
ముంచ	11547
ముగు	11548
కుర్చీ	11549
##లేమని	11550
లేడీ	11551
చెప్పాల్సిన	11552
పరిష	11553
మీనా	11554
ఉండొచ్చని	11555
చేసినప్పుడు	11556
##య్యాయని	11557
##కేలకు	11558
##ఫ్ట్‌	11559
వర్కర్	11560
దిగ్	11561
యూరో	11562
కంపెనీకి	11563
లెవల్	11564
ఆరోపణలను	11565
ప్రతిపక్షాల	11566
పదిహే	11567
హాజరై	11568
ప్రేక్షకులను	11569
సబ్సిడీ	11570
అనుకుంటున్న	11571
అద్భుత	11572
హ్యాపీ	11573
భీమ	11574
రజినీ	11575
గమనించిన	11576
భువనేశ్వరి	11577
తుఫాను	11578
పురోగతి	11579
ఖరీదైన	11580
శుభవార్త	11581
రష్మిక	11582
గుప్పించారు	11583
కారిడార్	11584
ఆత్మీయ	11585
pl	11586
అజిత్	11587
ఈయన	11588
ఐఐ	11589
గెస్ట్	11590
జవహ	11591
##గర	11592
##పత్తి	11593
##సారు	11594
##తలకు	11595
##వూ	11596
##వాయ్	11597
##దన్న	11598
##ma	11599
##ಿಂದ	11600
##ya	11601
##న్మెంట్	11602
ప్రమే	11603
కుదర	11604
రెచ్చి	11605
##కోలేదు	11606
చేశానని	11607
వీటికి	11608
##సేనా	11609
సమాజా	11610
వర్గాలకు	11611
##జియా	11612
##శాల్	11613
గురై	11614
కేసీఆర్‌	11615
డీఎస్సీ	11616
ట్రె	11617
##పడుతోంది	11618
పెంచారు	11619
తమిళి	11620
ప్రసారం	11621
డిసెంబరు	11622
చేరుకొని	11623
తీసుకోవాల్సి	11624
కార్పొరే	11625
వ్యూహా	11626
అడవి	11627
పరమ	11628
పురంద	11629
ప్రొడక్షన్	11630
గుండెపోటుతో	11631
పల్నాడు	11632
కాంబో	11633
మాసంలో	11634
సుధీర్	11635
వీలైనంత	11636
ఉగా	11637
కర్ర	11638
భ‌	11639
ర‌	11640
షర	11641
హసీ	11642
హసన్	11643
##وٹ	11644
##ಾಜ	11645
##క్స్‌	11646
##ాయన్న	11647
లోడ్	11648
##ట్టమైన	11649
##నాల్లో	11650
ఎన్నికైన	11651
మందితో	11652
రెండూ	11653
మిర్యాల	11654
సభలు	11655
వెళ్తే	11656
##‌కుమార్	11657
గోవా	11658
లైట్	11659
ఆలయాన్ని	11660
అక్కడికక్కడే	11661
జరగలేదు	11662
పడితే	11663
కనిపించాయి	11664
పెట్టుకున్నారు	11665
క్వాలి	11666
ఫైనల్లో	11667
వేడుకల్లో	11668
కలిగిస్తుంది	11669
ప్రయత్నిస్తున్నారు	11670
అగ్రికల్	11671
##నాయుడు	11672
పులివె	11673
ఓటర్లను	11674
కార్యకలాపాలు	11675
వ్యాయామం	11676
భగీరథ	11677
ఎట్టకేలకు	11678
ఆద్	11679
ఒరి	11680
కన్య	11681
చమురు	11682
రచ్చ	11683
శరణ	11684
సెక్టార్	11685
##భై	11686
##భ్రా	11687
##హై	11688
##ఫికేషన్	11689
##స్‌‌‌‌‌‌‌‌	11690
##ాలన్నా	11691
నిరం	11692
నితిన్	11693
##‌‌‌‌‌‌‌‌‌‌‌‌‌‌‌‌కు	11694
##నేలా	11695
##దియా	11696
##వుతుందని	11697
సీక్	11698
##ంటిని	11699
##ండ్లకు	11700
మార్చే	11701
ఆర్డీవో	11702
శాఖకు	11703
దురద	11704
పూట	11705
లీడ్	11706
తరుపున	11707
పనిచేస్తున్నారు	11708
అందిస్తోంది	11709
పంచుకున్నారు	11710
ఇంట్లోనే	11711
పెట్టుకొని	11712
కాల్చి	11713
పేదరిక	11714
స్నేహితు	11715
టిక్కెట్లు	11716
ఇంజనీరింగ్	11717
ప్రజాప్రతినిధులు	11718
అరికట్ట	11719
వాషింగ్టన్	11720
శ్వేత	11721
పెండ్లి	11722
అణు	11723
కనుక	11724
మలే	11725
రకమైన	11726
##ంటానని	11727
రాకపోవడంతో	11728
##వాఖ	11729
కోస్తా	11730
కోణంలో	11731
కొరి	11732
పోగొ	11733
పాడి	11734
అనిపించింది	11735
బాబా	11736
ఉండవు	11737
మెహ	11738
డిపో	11739
##క్రే	11740
రోజువారీ	11741
సున్ని	11742
కార్యదర్శ	11743
నేతగా	11744
చేస్తున్నట్టు	11745
వారసు	11746
సేకరణ	11747
దుష్	11748
పరిశ్ర	11749
పనుల్లో	11750
గెలిచే	11751
##పెట్టిన	11752
వ్యాఖ్యలను	11753
అంశాల	11754
అభ్యర్థిని	11755
వెంకటేశ్వ	11756
##స్క్యూ	11757
అడిగారు	11758
జయశంకర్	11759
ఫెయిల్	11760
టెస్టులో	11761
సందర్శించారు	11762
అప్రమత్తం	11763
##జినల్	11764
దేవుడు	11765
హైదరాబాద్‌ః	11766
ప్రవర్తన	11767
రజనీకాంత్	11768
ఈశాన్య	11769
5వ	11770
అక్రమా	11771
ఓకే	11772
చైన	11773
పఠ	11774
శత	11775
సకాలంలో	11776
##టాని	11777
##సెన్	11778
##శ్రమ	11779
##ొని	11780
##0లో	11781
##ఐఏ	11782
##ాల‌ని	11783
రాధా	11784
సమయాన్ని	11785
రూం	11786
##పిస్తున్న	11787
అవకత	11788
##ారాం	11789
టీఆర్ఎస్	11790
కార్యవర్గ	11791
ఎమ్మెల్యేలను	11792
బుకింగ్	11793
గ్రామాలకు	11794
ఉండేవి	11795
వెంకట్రా	11796
అవసరమని	11797
రికార్డులు	11798
సంప్రది	11799
కురుస్తున్న	11800
##ాలనుకుంటున్న	11801
కౌన్సిలర్	11802
ఫార్ము	11803
వేసుకుని	11804
హార్దిక్	11805
ఘాట్	11806
ట్రేడ్	11807
##abu	11808
గెలుపొందారు	11809
తక్షణమే	11810
శాశ్వత	11811
సిసోడియా	11812
ఆరే	11813
ఏళ్ళ	11814
కట్టుకు	11815
ఖండి	11816
గల్ల	11817
పల్లా	11818
రథ	11819
##రప్	11820
##భ్ర	11821
##شن	11822
##లాస	11823
రాత్ర	11824
కాస్ట్	11825
కోపం	11826
కోట్లను	11827
వెన్ను	11828
కుల్	11829
వేట	11830
##ంట్లో	11831
రోవర్	11832
##సాహం	11833
##రికే	11834
అభివర్ణ	11835
అవకాశాన్ని	11836
ఆర్మూర్	11837
##పేట్	11838
ఒక్కరు	11839
జరుగుతాయి	11840
జరుగుతోందని	11841
పరిస్థితుల	11842
జోష్	11843
లైవ్	11844
కిందటే	11845
##స్తోన్నారు	11846
ఇంట్లోకి	11847
పోరాడ	11848
అదర	11849
తగ్గే	11850
గేట్	11851
##పూట	11852
26న	11853
ప్రేక్షకులు	11854
ఫిబ్రవరిలో	11855
నిబంధనలను	11856
సారథ	11857
ధోని	11858
##రాలిగా	11859
నిలబెట్టు	11860
సంస్కృ	11861
ఫ్లోర్	11862
పారదర్శ	11863
నితీష్	11864
అచ్చెన్న	11865
బీఆర్‌ఎస్‌	11866
##ಿರುವ	11867
నివసించే	11868
వెహికల్స్	11869
వికాస్	11870
పెద్దిరెడ్డి	11871
9వ	11872
చాంపి	11873
జబ్బు	11874
టెస్	11875
దాన	11876
భక్తి	11877
##బాయి	11878
##చంద్	11879
##ee	11880
##تی	11881
విభిన్న	11882
##లాన్	11883
##ద్‌	11884
రాళ్ల	11885
కొము	11886
ముద్దు	11887
కులాల	11888
రెస్క్యూ	11889
పేసర్	11890
ఉండాలంటే	11891
సుదర్శ	11892
సభల్లో	11893
##స్‌లు	11894
యునై	11895
మహీ	11896
##ార్థం	11897
బుల్ల	11898
2016లో	11899
సమావేశమయ్యారు	11900
ఉదయ్	11901
##ట్‌గా	11902
ప్రపంచకప్	11903
కోర్టును	11904
##ించడంపై	11905
##టేష్	11906
సరదా	11907
తలసాని	11908
భార్యను	11909
కోల్పోయింది	11910
అవసరమైతే	11911
బ్రె	11912
లాంటివి	11913
విద్యాసంస్థ	11914
ముంబైలో	11915
తొలగించి	11916
దొంగలు	11917
అగ్నిప్రమా	11918
పురుషులు	11919
కుక్కల	11920
కాలనీలో	11921
గ్రహాల	11922
చెందుతున్నారు	11923
కూర్చుని	11924
##್ಟ್‌	11925
ఫ్రెండ్స్	11926
వైఎస్ఆర్సీపీ	11927
పెళ్లికి	11928
సంకేతాలు	11929
దయాకర్	11930
శ్రావణ	11931
బస్టాండ్	11932
సూపరింటె	11933
గజ్వేల్	11934
ఆద్మీ	11935
పరిశ్రమల	11936
بھی	11937
అరి	11938
దర్	11939
పల	11940
ల‌	11941
హస్తం	11942
##ధులకు	11943
##ారికి	11944
##క్చర్	11945
##గాలలో	11946
##‌‌‌‌‌‌‌‌గా	11947
సంపూర్ణ	11948
చెప్పడానికి	11949
బాగ్	11950
స్థలంలో	11951
సర్జరీ	11952
ద్వీ	11953
##పేందుకు	11954
సహకరి	11955
రుణం	11956
ఇన్సూ	11957
సౌర	11958
వ్యాపారి	11959
నిలవ	11960
ఫుటే	11961
అవిశ్వాస	11962
పొందారు	11963
వడ్లు	11964
##వెన్షన్	11965
ప‌రి	11966
షిండే	11967
ప్రమోషన్స్	11968
చిక్కుకు	11969
కామెంట్లు	11970
2020లో	11971
కేజీల	11972
ఇదొక	11973
మాల్దీ	11974
సానుకూలంగా	11975
నివాసానికి	11976
జగదీశ్	11977
డిపాజి	11978
సహకారంతో	11979
థ్రిల్లర్	11980
ఫేమస్	11981
ఖరార	11982
4వ	11983
ساتھ	11984
అల్లం	11985
ఉంద	11986
ఏసీపీ	11987
చ‌	11988
చదర	11989
దవాఖ	11990
యశ	11991
##టంలో	11992
##og	11993
##హద	11994
##స్వి	11995
రాధ	11996
చెబ	11997
##ైనర్	11998
సీన్స్	11999
చెప్పాలంటే	12000
దాటిన	12001
నెమ్మ	12002
ఏర్పడే	12003
సినిమాకి	12004
శ్రీకృష్ణ	12005
అమర్చ	12006
మహాల	12007
##ల్సిందే	12008
మాట్లాడుతున్న	12009
జైపూర్	12010
అదిరి	12011
రిక్రూ	12012
##ఫిషియల్	12013
ఇక్కడికి	12014
ఆరోగ్యకరమైన	12015
విస్తృతంగా	12016
##ఫామ్	12017
ప్రోగ్రా	12018
మహారాష్ట్రలోని	12019
పూర్తయిన	12020
తల్లిదండ్రుల	12021
రాజ్యాంగం	12022
రూపొందించారు	12023
తమిళనాడులో	12024
అపాయింట్	12025
ఎకరాలకు	12026
దశాబ్దాల	12027
మేనిఫెస్టోలో	12028
ہوئے	12029
కరుణా	12030
రసాయ	12031
గదిలో	12032
ప్లస్	12033
అల్పపీడనం	12034
షారుఖ్	12035
ధ్వజమెత్తారు	12036
మమతా	12037
పుష్కలంగా	12038
రాథోడ్	12039
97	12040
అంటున్న	12041
ఫ్యూ	12042
బ్రో	12043
మచి	12044
మర్యాద	12045
హారి	12046
##గళం	12047
##చేశ	12048
##ష‌	12049
##కుమారి	12050
##స్తుందా	12051
##యాన	12052
మాని	12053
వ్యర్థ	12054
##దాపూర్	12055
టీజీ	12056
మూత్ర	12057
తాగి	12058
యాసి	12059
అంతస్తు	12060
బెల్	12061
సర్కిల్	12062
సభను	12063
##బీఎస్	12064
నిర్ణయానికి	12065
కలర్	12066
దుస్తులు	12067
బోగీ	12068
మ్యాచ్‌లు	12069
భాగస్వా	12070
##వోలు	12071
##పడుతున్నారని	12072
నగరానికి	12073
##డర్స్	12074
బలగాలు	12075
కలెక్టర్లు	12076
విమానాలు	12077
స్వీకరించారు	12078
విస్తృత	12079
కొట్టారు	12080
విక్రయి	12081
భావించిన	12082
తీరును	12083
ప్రశ్నలకు	12084
##తుండడంతో	12085
కులగణన	12086
పరిశ్రమలు	12087
కార్యకర్తలకు	12088
పద్మా	12089
అస్వస్థ	12090
హనుమంతు	12091
కార్తీక్	12092
సంస్కరణ	12093
ఈదురుగాలు	12094
యంత్రాంగం	12095
జ్వరం	12096
టెర్రరి	12097
జవాన్	12098
డ్రెస్	12099
సఫ	12100
##రక్ష	12101
##మను	12102
##av	12103
##ంతలు	12104
రాచ	12105
రాష్ర్	12106
కాదా	12107
##టీపీ	12108
లేవ	12109
వాగు	12110
##నీయంగా	12111
రోజే	12112
అవతర	12113
##సేలా	12114
నెగ్గ	12115
రిల	12116
రాజయ్య	12117
మేడ	12118
మార్చారు	12119
తర్వాతి	12120
మంత్రివర్గ	12121
##గ్రఫీ	12122
అమితా	12123
అందంగా	12124
డీఏ	12125
డీసీసీ	12126
పాలేరు	12127
##తికే	12128
2009	12129
వీటితో	12130
గింజ	12131
##క్కిరి	12132
ఆలోచనలు	12133
నిజమైన	12134
బొత్స	12135
తప్పులు	12136
జరుగుతున్నాయని	12137
రైలును	12138
సీజన్‌లో	12139
వ్యాఖ్యానించ	12140
డెవలప్‌మెంట్	12141
ఎగుమతి	12142
నియామకం	12143
గద్దె	12144
ఖండించారు	12145
వేసవి	12146
స్పిన్నర్	12147
డిఫెన్స్	12148
అనారోగ్యం	12149
వంతెన	12150
ఇన్సూరెన్స్	12151
చదరపు	12152
09	12153
1వ	12154
అజ	12155
ఇమ్రాన్	12156
ఉమా	12157
ఎవ్వ	12158
త్ర	12159
బలి	12160
లంక	12161
హల్	12162
##బౌ	12163
##ରା	12164
##ించగల	12165
నిత్యా	12166
రామ్మ	12167
##స్తుందో	12168
##పోతుందని	12169
##ఆర్టీసీ	12170
##జ్జన	12171
టీస్ప	12172
మెరి	12173
డిక్ల	12174
పొట్ట	12175
##వ్వులు	12176
యాని	12177
క్రిత	12178
తెలుస	12179
నాయకులను	12180
నిర్ణీత	12181
యూఏ	12182
ప్రారంభంలో	12183
ఫిలి	12184
సేకరి	12185
ఇప్పటికైనా	12186
కంపెనీలకు	12187
సిద్ధమైంది	12188
పిల్లలతో	12189
పనిచేస్తుంది	12190
పడుతోంది	12191
తలెత్తు	12192
కథనాలు	12193
అందిస్తామని	12194
పరిష్కారానికి	12195
పాఠశాలలో	12196
రికార్డును	12197
చొర	12198
చొరవ	12199
ఫ్రంట్	12200
సెంచరీలు	12201
కఠినంగా	12202
కల్పిస్తామని	12203
తీసుకురావాలని	12204
సెమీస్	12205
ధైర్య	12206
టూరిజం	12207
జనార్దన్	12208
హిమాచల్	12209
తాడేపల్లి	12210
ప్రజ్వల్	12211
تھا	12212
ఈజి	12213
ఖే	12214
దై	12215
ఫంక్షన్	12216
##యిక	12217
##వాయి	12218
##వల్లి	12219
##نا	12220
##ట్లేదని	12221
విము	12222
రావాల్సిన	12223
కోచింగ్	12224
కులం	12225
సంజీ	12226
సీట్లను	12227
మొట్ట	12228
గ్రంథ	12229
హైదరాబాద్‌లోని	12230
సమస్యలకు	12231
సంస్థలకు	12232
క్యాప్	12233
ప్రత్యేకత	12234
హోలీ	12235
అదేవిధంగా	12236
వాటిపై	12237
విద్యార్థులను	12238
టైటా	12239
చేరుకుంటారు	12240
చూడటం	12241
బలవంతంగా	12242
పంపింది	12243
ఆంధ్రప్రదేశ్‌లో	12244
మంత్రుల	12245
కేటాయించింది	12246
##ందనేది	12247
వ్యాపారాలు	12248
దుర్గా	12249
స్టాఫ్	12250
మన్మోహన్	12251
పొరపాటు	12252
జరుపుకుంటారు	12253
బ్యాక్టీరియా	12254
سو	12255
అమీ	12256
ఆర్య	12257
టవర్	12258
దమ్ము	12259
సులు	12260
##గర్‌	12261
##న్యా	12262
##లిస్ట్	12263
కొట్టింది	12264
కుమారి	12265
సిటి	12266
సంభా	12267
చేశామన్నారు	12268
##కాల్	12269
నేర్చు	12270
పరిస్	12271
వైసిపి	12272
##ంబర్లు	12273
##సేవ	12274
రాజగోపాల్	12275
పొన్న	12276
వ్యాధుల	12277
కేంద్రాలను	12278
దివ్య	12279
పిన్నె	12280
తొక్కి	12281
##టాక్	12282
కలపాలి	12283
హాస్ట	12284
##క్రమంగా	12285
193	12286
పీఆర్	12287
స్థానాన్ని	12288
షాప్	12289
పరిస్థితిలో	12290
తగ్గడం	12291
హైకోర్టును	12292
ఉంచుకుని	12293
తెరపైకి	12294
ఆకలి	12295
ఫైనాన్	12296
ఆస్పత్ర	12297
చదువుతున్న	12298
లేదంటూ	12299
ప్రీతి	12300
సృష్టించిన	12301
##తుండటం	12302
వాడకం	12303
##వ్యవస్థ	12304
లక్ష్మీదేవి	12305
చిక్కుకున్న	12306
సాధిస్తారు	12307
పోర్టల్	12308
వేధింపుల	12309
బసవ	12310
ఇన్‌స్టాగ్రామ్	12311
ఇన్ఫెక్షన్	12312
ఛత్తీస్‌గఢ్	12313
చారిత్ర	12314
ప్రిన్సిపల్	12315
ఫార్ములా	12316
మచిలీ	12317
చలి	12318
ಮತ್ತು	12319
##పల్లె	12320
##బట్టారు	12321
##వంత్	12322
##େଖ	12323
ప్రదీప్	12324
##ండటం	12325
##ప్లే	12326
##టిగే	12327
కొన్నా	12328
పెర్	12329
##క్కా	12330
వాళ్ళు	12331
##పియన్	12332
బాల్స్	12333
జరిగాయని	12334
శాటి	12335
ప్రకార	12336
ఇచ్చినా	12337
##శ్వాసం	12338
తిన్న	12339
##ట్లయితే	12340
పుంజు	12341
చేస్తున్నాం	12342
నిర్వహించేందుకు	12343
కలెక్షన్	12344
ఫిట్	12345
పెట్టేందుకు	12346
జరుగుతుందో	12347
##శివ	12348
నోటి	12349
##దారులను	12350
##పడటం	12351
ప్రాజెక్టుల	12352
కేటాయించాలని	12353
కృష్ణారావు	12354
భారతీయులు	12355
##పూరిత	12356
నిందితుడిని	12357
ప్రోత్	12358
దిగుబడి	12359
వీరంతా	12360
కాకతీయ	12361
ఆవిర్భా	12362
పురుషుల	12363
సినిమాలకు	12364
మానసికంగా	12365
బ్ల	12366
ప్రవేశపెట్టిన	12367
పర్యవేక్ష	12368
ప్రోత్సహి	12369
రాజాసింగ్	12370
ముద్రగడ	12371
##ంటెడ్	12372
చంద్రుడిపై	12373
వ్యవధిలో	12374
కూరగాయలు	12375
వెల్లుల్లి	12376
క్షమాపణలు	12377
డ్రోన్	12378
నెట్టింట	12379
సంతరించుకుంది	12380
సిఫార్సు	12381
బానిస	12382
యునైటెడ్	12383
చెబితే	12384
రిలయన్స్	12385
01	12386
పరాజ	12387
సస్ప	12388
##‌పూర్	12389
##ణె	12390
##ce	12391
##نی	12392
##టిన్	12393
కాళ్లు	12394
వెచ్చ	12395
పాస్‌	12396
##విగా	12397
##పాది	12398
##కాల్లో	12399
##డీసీ	12400
వీలుగా	12401
టీఎస్‌	12402
##కేట్	12403
పుట్టు	12404
అధికారులపై	12405
కేంద్రాన్ని	12406
స్పూన్	12407
అంతగా	12408
సర్దు	12409
నీట్	12410
##గర్భ	12411
విజయసాయి	12412
చర్చించి	12413
హోమ్	12414
రామాయ	12415
రాములు	12416
అమలులో	12417
##మవుతుందని	12418
24న	12419
17వ	12420
నిలకడ	12421
కట్టడి	12422
బస్సులను	12423
##పరిచే	12424
యోజన	12425
అవినీతికి	12426
చేయాలో	12427
మారిందని	12428
అవార్డులు	12429
యూనివర్సిటీలో	12430
ఉద్యమంలో	12431
ముఖం	12432
ఆకర్షి	12433
పరిణామం	12434
సీఈఓ	12435
##ଙ୍କ	12436
రకాలుగా	12437
దుండగులు	12438
ఇటలీ	12439
హసీనా	12440
డిక్లరేషన్	12441
ip	12442
mo	12443
అథ్	12444
ఆంధ	12445
ఇంక	12446
కనె	12447
గాల	12448
జ్యూ	12449
నానా	12450
##ధార	12451
##కంతో	12452
##ें	12453
##వాల్లో	12454
పెవి	12455
ఉన్నామని	12456
సెంటి	12457
రేసులో	12458
యాంకర్	12459
లక్షా	12460
జీ20	12461
అనవసర	12462
ప్రస్తుతానికి	12463
ధరించి	12464
దుబ్బా	12465
వీడియోలను	12466
##ించుకోవాలి	12467
వెంకటేష్	12468
సరస్	12469
నిర్మించ	12470
తలనొప్పి	12471
ఫైల్	12472
వినతిప	12473
అప్పీ	12474
మార్కెట్‌లో	12475
21న	12476
ఆత్మవి	12477
పరిష్కరించ	12478
ఫీల్డ్	12479
నైవే	12480
నష్టపోయిన	12481
ప్రయోజనాల	12482
కెప్టెన్సీ	12483
##భవంగా	12484
పరారీ	12485
హ్యాట్రిక్	12486
సముద్రం	12487
ప్రమాణస్వీ	12488
మృతదేహాలను	12489
పరిశ్రమలో	12490
పర్యటించనున్నారు	12491
భవనాలు	12492
స్కీం	12493
జాతకులు	12494
సతీమణి	12495
సందేహం	12496
ఇవ్వాల్సి	12497
కుదుర్చ	12498
ఇప్పుడే	12499
ఈమె	12500
కడ	12501
గండి	12502
మరే	12503
##గె	12504
##గన్	12505
##టస్	12506
##కథ	12507
##భర్	12508
##వనాలు	12509
##జెస్	12510
##od	12511
##می	12512
చేవెళ్ల	12513
##ికైనా	12514
కాసేపు	12515
##చ్చా	12516
##వును	12517
కేకే	12518
పోయిన	12519
ముచ్చ	12520
వాసులు	12521
నేనే	12522
##పిస్తుంది	12523
ఒకరోజు	12524
ప్రావి	12525
##దేనని	12526
చూశ	12527
##మేషన్	12528
తెలంగాణను	12529
తోనే	12530
అంతకంటే	12531
బెల్లం	12532
ఎంప్ల	12533
లావ	12534
నీట	12535
ఆరోపించింది	12536
బుద్ధ	12537
గ్రామంలోని	12538
జోరు	12539
కౌలు	12540
సాయు	12541
##దాలుగా	12542
అభిమానులను	12543
బేగ	12544
అభిప్రాయాలు	12545
పత్రం	12546
ట్విటర్	12547
రేపుతోంది	12548
ఓడిపోయారు	12549
దుర్గ	12550
ప్రాణాలతో	12551
రమణ	12552
కోరిన	12553
ప్రతిపాదనలు	12554
chand	12555
##ಕ್ಕ	12556
కనుగొన్న	12557
సీతారామన్	12558
కాంట్రాక్టు	12559
తామే	12560
دعوی	12561
ఉరుములు	12562
ప్రాతిపదికన	12563
పౌర్ణమి	12564
పోస్టుమార్టం	12565
పరిషత్	12566
దుబ్బాక	12567
pra	12568
అడు	12569
ఆడే	12570
ఏఈ	12571
ఏడో	12572
డు	12573
మంగ	12574
##టలు	12575
##టెంట్	12576
##ుడిని	12577
##జనల్	12578
##im	12579
##ମ୍	12580
##ार	12581
##्र	12582
##ర్లా	12583
స్టి	12584
##ాయిన్	12585
##పుర్	12586
పోటె	12587
లోయ	12588
సిద్ధి	12589
బీఎస్	12590
చేయాలంటే	12591
చేయగలి	12592
##యోగాలు	12593
పార్టీతో	12594
పేరెంట్	12595
వర్ధ	12596
మోడ	12597
ఆర్గ	12598
తరచుగా	12599
##ల్‌తో	12600
కలయిక	12601
మరిచి	12602
అరెస్ట	12603
కావాలనే	12604
##బోతున్నాయి	12605
నోట్ల	12606
నిర్మాతలు	12607
అందించడం	12608
##స్పెక్టర్	12609
ఆఫ్‌	12610
140	12611
ట్వీ	12612
##ఎల్పీ	12613
భార్యకు	12614
వెంకటరెడ్డి	12615
ఉపయోగించే	12616
##పాలెం	12617
రాయబ	12618
అభిమానులకు	12619
కాపాడుకు	12620
సబ్‌	12621
తిరుగుతూ	12622
సలహాలు	12623
బాగుంటుంది	12624
మంటలను	12625
అగ్నిమా	12626
ఎండలు	12627
ర్యాంక్	12628
నెరవేరు	12629
)..	12630
పాల్గొననున్నారు	12631
కత్తితో	12632
వెహికల్	12633
మాదిరిగా	12634
సదుపాయాలు	12635
నియమితుల	12636
##angana	12637
మార్కెటింగ్	12638
లంచం	12639
ఎంతగానో	12640
విశ్వసనీయ	12641
వెంకటేశ్వర్లు	12642
సూపరింటెండెంట్	12643
అమితాబ్	12644
04	12645
3వ	12646
اپ	12647
ఆడాడు	12648
ఇళ్లను	12649
పారా	12650
##లక్ష్మీ	12651
##గలు	12652
##తృ	12653
##కుడిగా	12654
చెక్కు	12655
##మిన్	12656
వేగం	12657
వాట	12658
##ప్రద	12659
##జిబి	12660
ఉంటుందన్నారు	12661
యూరప్	12662
విధించిన	12663
108	12664
ఉపరిత	12665
వెల్లడించాయి	12666
ఇంజిన్	12667
రుద్ర	12668
11న	12669
లెవ	12670
లెటర్	12671
వినయ్	12672
నిలబడి	12673
శివసేన	12674
కమిటీని	12675
కవితకు	12676
ఏర్పాట్లను	12677
డ్రైనే	12678
ర్యాం	12679
క్లియర్	12680
సీసీటీవీ	12681
ప్రసాద	12682
ఎలక్ట్రానిక్	12683
సానుభూతి	12684
పేషెంట్	12685
సుభాష్	12686
ముర్ము	12687
ప్రమేయం	12688
మిర్యాలగూడ	12689
అగ్రికల్చర్	12690
ఉపే	12691
గారు	12692
హాలీవుడ్	12693
##భయ	12694
##పల	12695
##విన	12696
##వశా	12697
##ld	12698
##కుల్లో	12699
##ంటల్	12700
##ండడంతో	12701
##లేనని	12702
##త్తమ	12703
బీర్	12704
బీపీ	12705
##తున్నామని	12706
వైభవంగా	12707
వీక్ష	12708
##ధిగా	12709
తిప్పు	12710
జరిగినా	12711
తేల	12712
వెళ్తున్నారు	12713
ఆర్ధిక	12714
పెద్దల	12715
అభ్యంత	12716
సిద్ధార్థ	12717
కౌర్	12718
రూపాయలుగా	12719
నేపథ్యంలోనే	12720
13వ	12721
ప్రసంగం	12722
అడ్డుకున్న	12723
ప్రయోజన	12724
నిరుద్యోగులకు	12725
అమరావతిః	12726
కూల్చివేత	12727
##గౌడ	12728
పురాతన	12729
ఒలింపిక్	12730
telug	12731
నెక్స్ట్	12732
గాలులు	12733
డిస్కౌంట్	12734
ఫెడరేషన్	12735
ఐక్యరాజ్యస	12736
మినహాయింపు	12737
మిచెల్	12738
ఎపిసోడ్	12739
టైటాన్స్	12740
చారిత్రక	12741
సస్పెన్షన్	12742
లావణ్య	12743
అగ్నిమాపక	12744
میڈ	12745
నిక	12746
నెస్	12747
పద్ద	12748
యె	12749
##ట‌	12750
##వస	12751
##esh	12752
చేతుల్లో	12753
తెచ్చారు	12754
##రాని	12755
##వుతోంది	12756
తీరం	12757
##నాడ్	12758
పరిస	12759
మెన్	12760
మెంబర్	12761
##యిరీ	12762
చేస్తా	12763
ప్రతిష్ఠ	12764
##మీటర్ల	12765
అవుతూ	12766
##శిక్ష	12767
చేయడంపై	12768
దగ్గర్	12769
మార్పుల	12770
అందింది	12771
##ాలేదు	12772
మృతిచె	12773
కార్యాలయ	12774
మార్చిలో	12775
ఎత్తులో	12776
నెలకొన్నాయి	12777
అడ్మిషన్	12778
సబ్జెక్	12779
శ్రేయ	12780
వసూళ్లు	12781
రాజేష్	12782
అన్వే	12783
కస్టడీకి	12784
ఉత్తరాంధ్ర	12785
షురూ	12786
బృందాలు	12787
భాగస్వామ్యం	12788
దృశ్యాలు	12789
##మండలి	12790
ధ్రువీ	12791
నిఖిల్	12792
బెడ్రూ	12793
దివంగ	12794
హింసాత్మక	12795
##ddy	12796
క్రితమే	12797
విముక్తి	12798
పిన్నెల్లి	12799
سر	12800
ఎల్లో	12801
ఐస్	12802
గ‌	12803
గారి	12804
శో	12805
సారా	12806
##గట్టు	12807
##కలను	12808
##‌లలో	12809
##బెట్టి	12810
##ెక్క	12811
##హ్లా	12812
##ನಾ	12813
##‌‌లు	12814
##ల్‌లో	12815
##తుల్	12816
##ించాలన్నారు	12817
##ండరీ	12818
##ప్త	12819
రాను	12820
కావే	12821
##దులను	12822
మాఫియా	12823
##ంతోపాటు	12824
##ానూ	12825
చేశారన్నారు	12826
చేయాలన్న	12827
వాంగ్	12828
##వేసింది	12829
##్రీయ	12830
భారతి	12831
##వర్గంలో	12832
కిసాన్	12833
స్టై	12834
తాత	12835
అనురా	12836
##హాల్	12837
బ్యాట్	12838
ద్వి	12839
బయటి	12840
వచ్చేలా	12841
వచ్చేది	12842
దుమ	12843
గ్రామస్థ	12844
125	12845
బాలినేని	12846
ప్రిన్సి	12847
జనసేనకు	12848
ఆధారిత	12849
##చ్చిబౌ	12850
చెల్లించాల్సి	12851
డ్రైవింగ్	12852
గ్రామాలు	12853
పొందుతున్న	12854
దుర్వినియోగం	12855
నిర్వహణకు	12856
పాఠశాలల్లో	12857
కేరళలో	12858
అస్సలు	12859
##್ಯಾ	12860
మతపరమైన	12861
రొమా	12862
తెరకెక్కించిన	12863
బల్దియా	12864
##ఫేర్	12865
రుతుపవనాలు	12866
అనర్హత	12867
అరాచ	12868
పురందేశ్వరి	12869
جان	12870
గచ్చిబౌ	12871
చాక్	12872
మకర	12873
##ప్రియ	12874
##తార	12875
##ొద్ద	12876
##୍ଟ	12877
##ళూరు	12878
##మాత్తుగా	12879
##పుల్స్	12880
వెరి	12881
కొన్న	12882
పరిమా	12883
సాగే	12884
ఒకటే	12885
ఎన్నికయ్యారు	12886
##వీస్	12887
##మేరకు	12888
హైస్	12889
రివర్స్	12890
వ్యక్తులను	12891
కేంద్రాలు	12892
శ్రీను	12893
క్రేజీ	12894
మిథు	12895
అభిమాని	12896
బ్యాగ్	12897
అవుతారు	12898
పెట్టాడు	12899
అలానే	12900
ఉపవాసం	12901
2017లో	12902
కొనసాగింది	12903
భాగ్య	12904
ప్రపంచానికి	12905
తగ్గిన	12906
పెరుగుతున్నాయి	12907
పడుతున్నాయి	12908
హామీని	12909
చట్టాన్ని	12910
##ధులతో	12911
జేసీ	12912
##ara	12913
విశాఖలో	12914
గేట్లు	12915
సిటీలోని	12916
పొందవచ్చు	12917
కనెక్ట్	12918
నిరుద్యోగులు	12919
చెందాడు	12920
జర్నీ	12921
సెల్ఫీ	12922
ఉత్సవ	12923
దాడుల	12924
విపక్షాలు	12925
పరిష్కరించాలని	12926
అవినాశ్	12927
నాలుగేళ్ల	12928
ప్రీమియర్	12929
دعویٰ	12930
ఆర్గనై	12931
tw	12932
కమా	12933
డబ్బ	12934
తై	12935
##ష‌న్	12936
##కుంటున్నారు	12937
##గాక	12938
చేస్తోన్న	12939
##ండాలు	12940
స్నా	12941
కాదన్నారు	12942
కోప	12943
కోత	12944
మాదాపూర్	12945
కుది	12946
వాళ్లే	12947
శాంస	12948
స్థాప	12949
స్టూ	12950
రిష	12951
చిహ్	12952
సుబ్ర	12953
విషయా	12954
ప్రజలతో	12955
సోష	12956
##పోయాయని	12957
ఆరోజు	12958
వెళ్తుండగా	12959
ద్వార	12960
ప్రారంభించి	12961
##పించాడు	12962
డీఆర్	12963
సేకరించిన	12964
అమెరికాకు	12965
చట్టపరమైన	12966
అప్పగి	12967
పడవ	12968
స్పందించింది	12969
నరేష్	12970
ప్రసంగా	12971
ట్యాంకర్	12972
అనుమానా	12973
ప్యాసి	12974
కార్పొరేటర్	12975
పోషించారు	12976
కెమెరాలు	12977
మధుసూ	12978
కార్యకర్తలను	12979
బహుమతి	12980
బౌలర్లలో	12981
జాతకులకు	12982
వీరిద్దరి	12983
విపరీతమైన	12984
ఎదుర్కోవాల్సి	12985
డాక్యుమెంట్	12986
ఆర్టిఫిషియల్	12987
డీఎంకే	12988
నిర్వాసి	12989
దివంగత	12990
అకస్	12991
ఐఎండీ	12992
నవా	12993
నమూ	12994
లగ్	12995
సద్	12996
స‌మ‌	12997
##رو	12998
##11	12999
##ಂತ	13000
ముద్ద	13001
కుర్రా	13002
##పానికి	13003
భార్యా	13004
వైడ్	13005
బాపట్ల	13006
వీడి	13007
చూడాల్సి	13008
మార్పిడి	13009
కలిసొ	13010
మిర్చి	13011
ప్రకటించే	13012
ఎదురుగా	13013
జోడీ	13014
మోదీని	13015
##శ్వర్	13016
మూవీస్	13017
##ధులను	13018
##బిడ్డ	13019
తీసుకున్నారని	13020
షేర్లు	13021
కష్టంగా	13022
అవసరాలకు	13023
అప్పుడ	13024
బంధం	13025
నటిస్తున్నారు	13026
తల్లిదండ్రులకు	13027
కాన్సె	13028
ధర్మపురి	13029
బాధితుడు	13030
దక్షిణాది	13031
ద్రౌ	13032
దిగజ	13033
పర్యవేక్షి	13034
విమానాశ్రయం	13035
కైవ	13036
నాటౌట్	13037
పరామర్శించారు	13038
ఇన్వెస్టిగే	13039
దీర్ఘకాలిక	13040
ఉపసంహర	13041
##ొమాటో	13042
అంత్యక్రియలు	13043
సెటైర్లు	13044
దుష్ప్ర	13045
ఎంబీ	13046
ఐరన్	13047
గంభ	13048
తాలి	13049
నవ్వ	13050
సన్‌	13051
సప్ల	13052
##ెండర్	13053
##మ్ర	13054
##is	13055
##اہ	13056
##ఫ్రా	13057
ప్రక్షా	13058
కావు	13059
##సిందని	13060
చెంది	13061
##డాన్	13062
కోట్లా	13063
వెంచ	13064
కేఎల్	13065
పెద	13066
రెట్టి	13067
గుణ	13068
##స్తున్నాను	13069
##బుల్స్	13070
అవ‌	13071
నాగ్	13072
మార్చ్	13073
తాగే	13074
##ప్రె	13075
యాస	13076
అందుకో	13077
అవకాశాలను	13078
బ్యాడ్	13079
##షిగా	13080
శిఖ	13081
సాధన	13082
మహమ్మ	13083
చేపలు	13084
లీగల్	13085
యువకుడి	13086
మృతు	13087
అందించింది	13088
జరగలేదని	13089
వ్యవహరించారు	13090
బ్యాంకింగ్	13091
గౌడ	13092
వివాదాలు	13093
##మవుతున్న	13094
సంఖ్యను	13095
కాలేదని	13096
16వ	13097
అందుకున్నారు	13098
వేయాలి	13099
సర్వేలు	13100
##ోత్సవం	13101
పరిశీలించిన	13102
దృష్టిని	13103
కొద్దిగా	13104
లెక్కల	13105
ఇచ్చిందని	13106
క్రీజు	13107
దారుణం	13108
చెయ్యడానికి	13109
##భూమి	13110
క్రికెటర్లు	13111
భూములకు	13112
పద్ధతి	13113
హార్మో	13114
విశ్లేషణ	13115
విమానాశ్రయంలో	13116
అల్లూరి	13117
వెళుతున్న	13118
సంభవించింది	13119
వానలు	13120
సంవత్సరాలుగా	13121
వెల్లువె	13122
రహదారిపై	13123
##ాయత్నం	13124
టోకెన్	13125
##ఫిడవి	13126
ఇస్తానని	13127
ఏవీ	13128
ఐశ్వ	13129
చాన	13130
జితే	13131
వదల	13132
వజ్ర	13133
##లెంట్	13134
##గతంగా	13135
##ah	13136
##କ୍ତ	13137
##ಿನ	13138
##ల్బ	13139
##తుందన్న	13140
విలేక	13141
విస్మ	13142
రాక్ష	13143
స్వర్ణ	13144
##రాబా	13145
##వుతారు	13146
##ెస్ట్రా	13147
ఉన్నానని	13148
##టర్లకు	13149
##ంపజే	13150
తాగితే	13151
##కరమని	13152
తేనె	13153
తోటి	13154
పిలవ	13155
ఫోన్‌	13156
వల్లనే	13157
గోధు	13158
మారారు	13159
రుజు	13160
జరగబోయే	13161
కార్యక్రమాలకు	13162
పెరుగుతుందని	13163
రూపాయలను	13164
చట్టాలు	13165
ప్రాజెక్టులో	13166
ఉపయోగపడుతుంది	13167
తెలుసుకునేందుకు	13168
వీరిని	13169
ఫ్లైట్	13170
ప్రయాణిస్తున్న	13171
రైలులో	13172
ట్యాగ్	13173
ఫేమ్	13174
ట్విస్ట్	13175
పదవిని	13176
నియమించింది	13177
ఫోటోలను	13178
పరస్ప	13179
పరిశోధనలు	13180
విభజ	13181
తగినంత	13182
రక్తంలో	13183
ముస్లింలు	13184
పార్లమెంటులో	13185
సెక్షన్ల	13186
చేర్చారు	13187
ఏంటని	13188
వాలంటీర్ల	13189
శరీరంలోని	13190
ప్రతిష్టాత్మకంగా	13191
ముమ్మరం	13192
అవమానించ	13193
నెటిజన్స్	13194
సిద్ధాంత	13195
పరారీలో	13196
కైవసం	13197
ఉద్	13198
పిత	13199
బజార్	13200
షకీ	13201
సబిత	13202
ನಡ	13203
##రించ	13204
##కని	13205
##దూ	13206
##జ్యం	13207
##క్వై	13208
రాని	13209
##వాడీ	13210
మాను	13211
మాది	13212
మీర్	13213
##ాలిక్	13214
ఉండవచ్చు	13215
ఉండాల్సి	13216
రాజేశ్వర్	13217
##తాను	13218
##తాల్లో	13219
##డంతోపాటు	13220
మిశ్రా	13221
అందుకోసం	13222
సాధించాడు	13223
సేల్స్	13224
ధరలను	13225
ఎదుగు	13226
టీడీపీతో	13227
నోట్లను	13228
భాగంలో	13229
30వ	13230
గుర్తించింది	13231
సమీకరణ	13232
నిర్మలా	13233
ఫొటోలను	13234
##ధుల్లో	13235
వినూ	13236
గిఫ్ట్	13237
పక్కకు	13238
కష్టమే	13239
శరీరాన్ని	13240
విద్యుత్తు	13241
గణపతి	13242
నిపుణుల	13243
##ఫుల్	13244
ఇష్టమైన	13245
మృతదేహం	13246
రక్తపోటు	13247
వ్యవహరించిన	13248
దంపతులకు	13249
పరిణామాల	13250
సురక్షిత	13251
##మొద	13252
బాల్క	13253
వదిలేసి	13254
వేధింపులకు	13255
వెబ్‌సైట్	13256
దౌత్య	13257
telangana	13258
భౌతిక	13259
నక్షత్ర	13260
تصویر	13261
నర్సాపూర్	13262
play	13263
టీస్పూన్	13264
ఆంధ్రా	13265
అఫిడవి	13266
జగ్గ	13267
నడక	13268
ఫ్రి	13269
##బ్యూ	13270
##ఠీ	13271
##ೊಂದ	13272
##ିକ	13273
##కుల్	13274
##క్షే	13275
మాసం	13276
పోస్టల్	13277
నేరగా	13278
రూల్	13279
అవయ	13280
ఆయ‌న	13281
20వ	13282
##దాస్	13283
మందిలో	13284
అనుసరి	13285
ఏర్పడుతుంది	13286
మిజో	13287
ఆర్బీఐ	13288
నీళ్ల	13289
వారణా	13290
అమల	13291
విధుల్లో	13292
సేపు	13293
వచ్చేసింది	13294
గోప	13295
దుమ్ము	13296
జోడో	13297
వినియోగి	13298
ఏడాదిలో	13299
గాంధీకి	13300
ఫిర్యాదులో	13301
##చర్యం	13302
మైండ్	13303
కొనుగోళ్లు	13304
మారుతున్నాయి	13305
బుధుడు	13306
##పోవడానికి	13307
కన్యా	13308
వాయిస్	13309
##కౌట్	13310
బహిరంగంగా	13311
తగ్గిస్తుంది	13312
ఆహ్వాని	13313
వెళితే	13314
టోర్న	13315
జంటగా	13316
గాజాలో	13317
వ్యవహారంపై	13318
మిలియన్ల	13319
ఎదురుచూస్తున్నారు	13320
సతీష్	13321
పర్వత	13322
సేకరించి	13323
జగదీష్	13324
ఆశీర్వ	13325
విశ్లేషకులు	13326
స్వచ్ఛంద	13327
అనూహ్య	13328
సంతాపం	13329
టెంపుల్	13330
గన్నవరం	13331
పురస్కర	13332
హోరాహో	13333
ನಾವು	13334
అచ్చెన్నాయుడు	13335
ద్రౌప	13336
ప్రక్షాళన	13337
7వ	13338
అడిగా	13339
చతు	13340
టాయి	13341
థర్డ్	13342
పృ	13343
##నక	13344
##నాలతో	13345
##ధానం	13346
##వైనా	13347
##ద‌	13348
##దార	13349
##మౌ	13350
##న్నపేట	13351
##‌‌‌‌‌‌‌‌తో	13352
చేనేత	13353
చేకూరు	13354
##డియన్	13355
స్లీ	13356
##క్షన్‌	13357
కోదా	13358
కొట్లా	13359
కేసుకు	13360
కూర	13361
పాపు	13362
##పోకుండా	13363
తీహార్	13364
##ప్పుల	13365
##గ్గి	13366
మీరే	13367
తీసుకుంటూ	13368
చంద్రుని	13369
##ంపుల్	13370
చేసేటప్పుడు	13371
కారణంతో	13372
చేపడుతున్న	13373
ప్రభావాన్ని	13374
##ించుకోవచ్చు	13375
కౌంట	13376
పరీక్షలకు	13377
పాత్రల్లో	13378
చూడొచ్చు	13379
చిత్రాలు	13380
##వారే	13381
అందుకుంది	13382
వెంకటేశ్వర	13383
జేఏసీ	13384
జరిగిందో	13385
హక్కులు	13386
భయపడ	13387
గణనీయంగా	13388
మరికొంత	13389
వెనుకబడిన	13390
అడ్ర	13391
న్యూఢిల్లీః	13392
పురుషులకు	13393
##దర్లాండ్	13394
కుప్పం	13395
వాహనదారులు	13396
హిందువులు	13397
సహజంగా	13398
వాలంటీర్లు	13399
అనుమతించ	13400
##itter	13401
సిక్సర్	13402
వెల్ఫేర్	13403
##psc	13404
ఆక్సి	13405
కక్ష్య	13406
చెరువులు	13407
##మర్రి	13408
గురుకుల	13409
పల్లవి	13410
ఔషధ	13411
twitter	13412
రిషబ్	13413
02	13414
دک	13415
అగ్రి	13416
ఇన్నా	13417
జత	13418
టెన్	13419
తమ్ము	13420
ధ్యా	13421
##పదే	13422
##ck	13423
##ಾಲ	13424
##us	13425
##ಷ್ಟ	13426
##ాలన్నీ	13427
##ండ్రీ	13428
##రుడ	13429
##సుగు	13430
##‌‌‌‌‌‌‌‌‌‌‌‌‌‌‌‌ను	13431
##రాష్ట్ర	13432
మాంసం	13433
ముది	13434
##్వి	13435
##స్తున్నానని	13436
వాచ్	13437
##నాబాద్	13438
రూపు	13439
##ారాల్లో	13440
నెదర్లాండ్	13441
రిఫ	13442
రేట్	13443
చేస్తారా	13444
జాప	13445
అసభ్య	13446
హైదరాబా	13447
వెళ్లకుండా	13448
##స్‌పై	13449
కలప	13450
లింగా	13451
జోగు	13452
షాపులు	13453
జైస్వా	13454
చేరుకుంటుంది	13455
కొనసాగుతుందని	13456
వాహనాన్ని	13457
2009లో	13458
చనిపో	13459
మరమ్మ	13460
కాల్పు	13461
పోస్టులను	13462
పరిశీలన	13463
అర్థరాత్రి	13464
ఓవర్లో	13465
తీసుకోవాల్సిన	13466
చేస్తుంటే	13467
బృహ	13468
నడిపి	13469
తెచ్చుకున్న	13470
స్నేహ	13471
29న	13472
భేటీలో	13473
భారతదేశంలోని	13474
శ్రేణు	13475
ఎన్‌ఫోర్	13476
ఎదురైంది	13477
రాశులవారికి	13478
కట్టుది	13479
సంచలనంగా	13480
ఓటరు	13481
వేణుగోపాల్	13482
మురళి	13483
మూసివే	13484
చేరేందుకు	13485
కొలెస్ట్రా	13486
పేర్ని	13487
విధ్వంసం	13488
విరుచుకుపడ్డారు	13489
కొలువు	13490
ప్రవహి	13491
ఆఫ్ఘనిస్తాన్	13492
ఆవరణలో	13493
అస్సాం	13494
##భిప్రాయ	13495
మొట్టమొద	13496
సెంటిమెంట్	13497
స్టూడియో	13498
అనుమానాస్పద	13499
pm	13500
है	13501
ఎర్	13502
ఖని	13503
టమాట	13504
తరుగు	13505
నదీ	13506
##రప్ప	13507
##ెంలో	13508
##ed	13509
##ఐసీ	13510
##రిక్	13511
నిధి	13512
చెట్ల	13513
పెర	13514
బీభ	13515
బీచ్	13516
సమయాల్లో	13517
సాంబ	13518
దాటే	13519
బాబర్	13520
తిరిగే	13521
పునా	13522
తమపై	13523
జామ్	13524
మిశ్రమ	13525
పనిని	13526
సూసైడ్	13527
మహిళకు	13528
కెప్టె	13529
##శిష్ట	13530
ప్రయత్నంలో	13531
నోటు	13532
ప్రధానిగా	13533
రంగనాథ్	13534
వృశ్చ	13535
కనిపించలేదు	13536
శుభ్	13537
##రియలు	13538
##సిడెన్	13539
వేగవంతం	13540
పత్రాలను	13541
కామన్	13542
వ్యూహాలు	13543
ఎప్పుడైనా	13544
చౌర	13545
సోదరి	13546
గురిచే	13547
##ందరినీ	13548
ఇటీవలి	13549
ఛార్జీ	13550
రాజ్యసభలో	13551
ర్యాలీలో	13552
దీపక్	13553
సగటున	13554
ప్రసంగించారు	13555
మేషరాశి	13556
##ంగోలు	13557
నిమజ్జ	13558
ఊరేగింపు	13559
మహీంద్రా	13560
దవాఖాన	13561
బ్లడ్	13562
అకస్మాత్తుగా	13563
కోదాడ	13564
వృశ్చిక	13565
అలి	13566
ఉందంటూ	13567
ఉభయ	13568
ఎట్టి	13569
ఒంగోలు	13570
ఓయూ	13571
ఔట	13572
ట్యూ	13573
తాలూ	13574
మంజు	13575
వామ	13576
సవర	13577
హార్ట్	13578
##ీద్	13579
##కృ	13580
##మయింది	13581
##aw	13582
##ారంగా	13583
##నిక్స్	13584
##స్స	13585
##క్స	13586
##ాయంగా	13587
విలే	13588
##డిద	13589
లోగో	13590
కూకట్	13591
##ానగర్	13592
సాగిన	13593
తాళం	13594
విషయాల్లో	13595
##ుకునేందుకు	13596
తీసుకువె	13597
కలిసే	13598
బెంగు	13599
విజయానికి	13600
ఎంక్వై	13601
తొక్క	13602
##స్‌గా	13603
ద్వారం	13604
అందమైన	13605
##ర్మిన	13606
ఎంపీటీసీ	13607
ఉంటానని	13608
దేవ్	13609
అమ్మే	13610
పోలీసులతో	13611
ఎవరె	13612
రామచ	13613
##ల్లులు	13614
అక్కడున్న	13615
లెబ	13616
అంచనాలను	13617
14వ	13618
144	13619
ప్రొడ్యూ	13620
చైనాలో	13621
పదేపదే	13622
కాలేజీల్లో	13623
గణేశ్	13624
పారిస్	13625
యూనివర్శి	13626
విషయాలపై	13627
బ్రాంచ్	13628
ఆలోచనలో	13629
కాన్వాయ్	13630
వాస్తవం	13631
##ೆಯಲ್ಲಿ	13632
గంగుల	13633
కూర్చున్న	13634
జ్ఞాన	13635
ట్రిపుల్	13636
దళితబంధు	13637
దొరికిన	13638
గెలుచుకుంది	13639
ఉల్లిపాయ	13640
కాంబినేషన్	13641
సహకరించాలని	13642
అబద్ధాలు	13643
లిస్టులో	13644
నివాళులర్	13645
తీర్చిదిద్ద	13646
డెంగ్యూ	13647
తమిళిసై	13648
రామ్మో	13649
సాయుధ	13650
ఎన్‌ఫోర్స్‌మెంట్	13651
ఆషా	13652
ఆగ్రహ	13653
ఇతరులు	13654
ఎక్కి	13655
కదులు	13656
న్	13657
పట్టింది	13658
రణ	13659
సమ్మి	13660
##పండు	13661
##బై	13662
##వాలా	13663
##వడానికి	13664
##వ‌ర్	13665
##హంక	13666
##50	13667
##ఐపీ	13668
##ಂಚ	13669
##ವರ	13670
##ంటాయని	13671
##రిగిన	13672
విజు	13673
##సురు	13674
నిశ్	13675
##లాగే	13676
కాం	13677
కొని	13678
సిఎం	13679
సంభ	13680
సంధ్య	13681
సంకీ	13682
##లేరని	13683
పేట్	13684
బాక్స్	13685
రోజులకు	13686
సున	13687
పుంగ	13688
##జిస్ట్	13689
మియా	13690
అవుతారని	13691
మ్యాప్	13692
ధరకు	13693
శాఖలో	13694
పీరియ	13695
షాకి	13696
ఆదేశాలతో	13697
ఆదిపురు	13698
పిల్లల్ని	13699
రామమంది	13700
##వారిలో	13701
రికవరీ	13702
అందించి	13703
ప్రాజెక్టుకు	13704
పంచాయితీ	13705
శుక్రుడు	13706
160	13707
స్పందించలేదు	13708
భద్రతను	13709
##పరిచారు	13710
పరిష్కరి	13711
కేటాయించ	13712
బ్రిటీ	13713
స్వామివారి	13714
యాత్రలో	13715
అనుకుంటే	13716
లోక్‌సభలో	13717
గ్యాప్	13718
పొందుతున్నారు	13719
reddy	13720
మైనర్	13721
నామినేషన్లు	13722
ఆటగాడు	13723
کرتے	13724
హైడ్రో	13725
భర్తీకి	13726
దశాబ్దాలుగా	13727
తేల్చ	13728
పిలిచే	13729
నదిలో	13730
దినోత్సవ	13731
కూరగాయల	13732
మంచినీ	13733
సమాచారంతో	13734
##ନ୍ତି	13735
శరద్	13736
తమ్ముడు	13737
##భుత్వం	13738
క్షిప	13739
ద్రవ్యో	13740
రజినీకాంత్	13741
సరదాగా	13742
میڈیا	13743
కోట్లాది	13744
హోరాహోరీ	13745
pic	13746
تو	13747
ఇప్పు	13748
కప్ప	13749
చదవ	13750
వారానికి	13751
##యమైన	13752
##ంకీ	13753
##బెల్	13754
##వతీ	13755
##శం	13756
##ాలయం	13757
##లిక్స్	13758
రాదు	13759
తెచ్చు	13760
వెతుకు	13761
కొట్టు	13762
##ెస్టి	13763
##ద్దామని	13764
నిర్ది	13765
##బుక్	13766
అవస్థ	13767
సాహిత	13768
ఒకరికి	13769
##ళ్లపై	13770
పైసలు	13771
అంతటా	13772
మిడి	13773
##గొట్టే	13774
##హాగా	13775
ఎంసీ	13776
నీతి	13777
ఇండిపె	13778
##ినేష్	13779
రామగుండం	13780
మూవీని	13781
బ్యాంకుల	13782
##ధికార	13783
సిబ్బందితో	13784
వృథా	13785
స్కూళ్లలో	13786
అలస	13787
వేదికపై	13788
ఎక్కడైనా	13789
నష్టానికి	13790
కురిసింది	13791
కన్వెన్షన్	13792
##‌న‌	13793
నిమిషంలో	13794
చూపించి	13795
"..	13796
చెప్పుకొచ్చాడు	13797
ఎవరిని	13798
డ్యామ్	13799
ఛార్జ్	13800
పుస్తకాలు	13801
మనీలా	13802
కొందరికి	13803
బ్యాలెన్స్	13804
శ్రీరాము	13805
కేశినేని	13806
##విక్ర	13807
ఫ్రెంచ్	13808
ముహూర్తం	13809
లోతట్టు	13810
అక్రమాలు	13811
యూఏఈ	13812
కనెక్షన్	13813
ఐక్యరాజ్యసమితి	13814
ఆస్తులను	13815
ఈజీ	13816
ఉందన్న	13817
ఎండి	13818
నమ్మి	13819
పదు	13820
పరే	13821
పగల	13822
పడ్డా	13823
రకం	13824
లపై	13825
##సస్	13826
##వద్ద	13827
##ఖరు	13828
##وگ	13829
##్యారీ	13830
##ప్తిని	13831
##ంగుల	13832
##మిట్	13833
ఉన్నాం	13834
ప్రాణం	13835
కాంగ్రెస్‌లో	13836
కాంగ్రెస్‌కు	13837
పొదుపు	13838
శ్రీలీల	13839
ఆమెపై	13840
ఆర్టీ	13841
హైదరాబాద్‌కు	13842
సేల్	13843
క్యాష్	13844
బయటపడింది	13845
రామారావు	13846
పాత్రను	13847
ప్రిలి	13848
తలపడ	13849
ఫైన్	13850
నాగరాజు	13851
కూటమిలో	13852
కృత్రి	13853
ఆపరే	13854
తీసుకెళ్లే	13855
ఎదుర్కొన్న	13856
ఎక్కడికి	13857
విధానాలు	13858
నిద్రలే	13859
పెరిగిందని	13860
##వాహక	13861
కోరుకుంటున్న	13862
ముఖేష్	13863
వహించిన	13864
ఏరియాలో	13865
నిలబడ	13866
సమన్వయ	13867
వైరల్‌గా	13868
సరికాదని	13869
గందరగోళం	13870
దర్శనమి	13871
రిపబ్లిక్	13872
మసాలా	13873
వెర్షన్	13874
బంజారాహిల్స్	13875
అతిథిగా	13876
ఉగాది	13877
సీక్వెల్	13878
మచిలీపట్నం	13879
ద్రవ్యోల్బ	13880
2వ	13881
ବି	13882
కరువు	13883
నారాయ	13884
నచ్చిన	13885
బండ్ల	13886
మెట్	13887
##లని	13888
##లెన్	13889
##గించి	13890
##బలి	13891
##30	13892
##ٹی	13893
##या	13894
విప్ల	13895
విశాల్	13896
##స్తుంటాయి	13897
##వాటి	13898
స్లా	13899
కేడర్	13900
వేస్తోంది	13901
వేస్తూ	13902
సీజే	13903
బీరు	13904
సమకూర్	13905
ఉండాల్సిన	13906
శాతంగా	13907
##కోవడంలో	13908
సుంద	13909
పొంది	13910
మిధు	13911
సభా	13912
చంద్రబాబుతో	13913
నీకు	13914
##ందించిన	13915
భూషణ్	13916
భూగర్భ	13917
దీనికోసం	13918
బురద	13919
2015	13920
బోనస్	13921
అన్నం	13922
128	13923
డైట్	13924
టైటి	13925
మూవీకి	13926
తల్లిని	13927
స్వీకరించిన	13928
కాల్పుల	13929
కనిపించకుండా	13930
సెలబ్రి	13931
సంక్షే	13932
దర్యాప్తులో	13933
దక్కలేదు	13934
నటిస్తోంది	13935
మహాత్	13936
తెచ్చింది	13937
కేజ్రీవా	13938
నిబంధనలకు	13939
ఆల్క	13940
##ಾಗಿದೆ	13941
నిర్లక్ష్యంగా	13942
లబ్ధిదారులకు	13943
తులసి	13944
పిఠాపురంలో	13945
కన్నీరు	13946
మల్కాజి	13947
గందరగోళ	13948
బకాయిలు	13949
సెన్సార్	13950
కుటుంబసభ్యులు	13951
నిరంజన్	13952
పోగొట్టుకు	13953
చౌరస్తా	13954
ఆఖరి	13955
ఈక్	13956
ఉడిక	13957
ఎండ్	13958
ఏయే	13959
ఓట్లను	13960
తల్లికి	13961
పతా	13962
ఫెస్టి	13963
##రైన	13964
##ేష	13965
##టైంది	13966
##పర్లు	13967
##స్ర	13968
##మంటే	13969
##na	13970
##ಲು	13971
##నులు	13972
##రితో	13973
##ార్ధ	13974
##డింది	13975
రాత్రికి	13976
##మానిక	13977
##వాసన	13978
##ాయిడ్	13979
పానీ	13980
##గిలి	13981
పరిమి	13982
##ించినప్పుడు	13983
##ఎస్‌‌	13984
ప్రకంప	13985
మేక	13986
##ుకుంటూ	13987
దేశంగా	13988
నేతలపై	13989
పిచ్చి	13990
కేసులను	13991
కార్ల	13992
నిర్ణయి	13993
##పించాలని	13994
అవుత	13995
అందరికి	13996
పోటీలు	13997
దీనితో	13998
ఎంపీడీవో	13999
##సరెడ్డి	14000
ఉంటాడు	14001
వేలంలో	14002
మాట్లాడుతున్నారని	14003
##క్‌పై	14004
##రోజులు	14005
ట్రాక్టర్	14006
##బిన్	14007
##ధికారి	14008
##చుకుంటూ	14009
చాట	14010
తీసుకున్నాడు	14011
స్వీకర	14012
వేయడానికి	14013
ప్లేయ	14014
హుటా	14015
ఖమ్మంలో	14016
ప్రేక్షకులకు	14017
ప్యాకెట్	14018
అభిప్రాయాలను	14019
##‌ర‌కు	14020
కొండచ	14021
హాస్పిటల్స్	14022
రాజ్యాంగాన్ని	14023
సోదరు	14024
ముందంజ	14025
మరొకటి	14026
కుట్రలు	14027
క‌థ	14028
నగదును	14029
కొనసాగిస్తున్నారు	14030
##ಗಳು	14031
అనుకూలమైన	14032
ఆవిష్కరణ	14033
దెబ్బతిన్న	14034
ఫ్లాట్	14035
ఘర్షణలు	14036
హుస్నాబాద్	14037
స్పాట్	14038
అనూహ్యంగా	14039
సంక్షోభం	14040
కానుకగా	14041
బ్రాహ్మణ	14042
ప్రతాప్	14043
తెలప	14044
మహాలక్ష్మి	14045
ప్రకారమే	14046
దుమారం	14047
లగ్జరీ	14048
యూనివర్శిటీ	14049
بی	14050
ఆవు	14051
ఐఫోన్	14052
లలి	14053
##గినా	14054
##ులే	14055
##పట్ట	14056
##వాలి	14057
##لک	14058
##క్తులు	14059
##ంతర్	14060
##ాయంటూ	14061
##డిలో	14062
రానున్నారు	14063
##సిస్తూ	14064
పోచ	14065
సిగర	14066
లేకపో	14067
##జీని	14068
వైమానిక	14069
##ాలనుకున్న	14070
మెకా	14071
కిమ్	14072
మార్గాలు	14073
రేటింగ్	14074
పుచ్చ	14075
జాగ	14076
మాట్లాడితే	14077
లాగి	14078
నిర్వహించడం	14079
ప్రారంభించనున్నారు	14080
సైబ	14081
సైకిల్	14082
ద్వారానే	14083
క్లై	14084
కుటుంబాల	14085
పీపుల్స్	14086
ఉండేవారు	14087
యువగళం	14088
వార్నర్	14089
వినిపించారు	14090
ఫ్యాక్ట్	14091
స్కూల్స్	14092
తరలించి	14093
బాధితులను	14094
బీసీల	14095
అలాంటిది	14096
నైతిక	14097
పొత్తులో	14098
పాఠశాలలు	14099
స్టూడెంట్లు	14100
##లేకపోతున్నారు	14101
దశాబ్ది	14102
370	14103
జంతువుల	14104
##గ్రహణం	14105
ఎల్లారెడ్డి	14106
ద‌ర్శ	14107
##ುದ್ದ	14108
నుంచీ	14109
##ారెడ్డికి	14110
దిగ్భ్రా	14111
##సేనాని	14112
దురదృష్ట	14113
సుదర్శన్	14114
బుల్లెట్	14115
శాటిలైట్	14116
గచ్చిబౌలి	14117
జైస్వాల్	14118
ఎంక్వైరీ	14119
के	14120
ఆస్వా	14121
ఉద్ధ	14122
ఏబీ	14123
డీల	14124
పప్పు	14125
మించిన	14126
లాయ	14127
సక్రమంగా	14128
హిత	14129
##ీమ్	14130
##కగా	14131
##ିତ	14132
##ೇಶ	14133
##‌‌పై	14134
##ల్లీ	14135
##క్సీ	14136
రామో	14137
##ష్టు	14138
చెమ	14139
సిక్కు	14140
వేసేందుకు	14141
లేరని	14142
వాదించారు	14143
##సినట్లు	14144
##నాన్	14145
రోగని	14146
ఒకవైపు	14147
##జాత	14148
రిపీ	14149
##యిందని	14150
పొందింది	14151
క్రో	14152
##గొట్టారు	14153
గుర్ర	14154
కల్కి	14155
కారణమైన	14156
సహకరించ	14157
సంస్థల్లో	14158
2011	14159
పాల్గొనే	14160
నోట్లు	14161
##ట్‌లు	14162
అందించాడు	14163
పరుగులతో	14164
క్రమం	14165
విషయంలోనూ	14166
నిర్ణయించుకున్న	14167
శ్రీనివాసరెడ్డి	14168
పడగొట్ట	14169
##్యులే	14170
హత్యలు	14171
ప్రాంతాల్లోని	14172
యోగ	14173
##‌ల‌కు	14174
కృష్ణయ్య	14175
నెలకొల్ప	14176
దశకు	14177
ఆగస్టులో	14178
సూర్యకుమార్	14179
స్నేహం	14180
కురుస్తున్నాయి	14181
స్థిరంగా	14182
350	14183
ఇరుక్కు	14184
నామినేషన్ల	14185
అమ్మాయిలు	14186
మెరుగుపరు	14187
మెరుగుపరచ	14188
థియేటర్స్	14189
అయ్యాక	14190
కాలుష్య	14191
వృద్ధులు	14192
ప్రొడక్	14193
##గంటల	14194
మాదిరిగానే	14195
gov	14196
##dia	14197
చిన్నారులు	14198
తుఫాన్	14199
విత్తనాలు	14200
కుంభకోణం	14201
స్వాతంత్ర్య	14202
ఛాలెం	14203
రోజంతా	14204
వైఎస్‌ఆర్‌సిపి	14205
అదిరిపోయే	14206
ఆదిపురుష్	14207
kal	14208
جار	14209
అలు	14210
ఆచూ	14211
ఏండ్లు	14212
జలా	14213
నాలా	14214
బండ్	14215
బన్నీ	14216
మలి	14217
మజ్	14218
##నరీ	14219
##‌ప‌	14220
##పంలో	14221
##పల్లికి	14222
##తరం	14223
##బంద	14224
##ik	14225
##ot	14226
చేర్చు	14227
##డాల్సిన	14228
కొను	14229
గుడ్డు	14230
పరిపాల	14231
వైభ	14232
అవన్నీ	14233
##‌లోడ్	14234
##ంబే	14235
##ుకుంటారు	14236
లాంఛ	14237
జనసేనాని	14238
మహిళలపై	14239
భూమికి	14240
కావడానికి	14241
##గోదావరి	14242
పాలిత	14243
పాలనా	14244
లియో	14245
చర్యల	14246
సంఘటనా	14247
##క్ష్మ	14248
చూడటానికి	14249
##బిలిటీ	14250
శివరాజ్	14251
##ంప్స్	14252
గిన్నె	14253
క్షీణ	14254
అతిథ	14255
క్రిస్మ	14256
అయిందని	14257
భావించే	14258
ఫైనల్స్	14259
##జ్‌మెంట్	14260
ప్యాక్	14261
##ట్రికల్	14262
నర్సింహ	14263
దిగుమతి	14264
నిరుద్యోగుల	14265
నారాయణపేట	14266
టెస్టులు	14267
తమిళనాడులోని	14268
లక్ష్మీనారాయణ	14269
కోరుకుంటున్నారు	14270
లభిస్తాయి	14271
నాయకత్వంలో	14272
హోదాలో	14273
కుక్కలు	14274
బాధితురాలు	14275
నిలిచిపోయాయి	14276
ఢీకొట్టింది	14277
##ెత్తున	14278
వదిలిపెట్ట	14279
ప్రసాదం	14280
మెజారిటీతో	14281
పవిత్రమైన	14282
పారిశ్రామికవేత్త	14283
అత్యుత్తమ	14284
##ction	14285
విలన్	14286
బీఆర్‌ఎస్	14287
అసాధారణ	14288
మొహమ్మద్	14289
మైదానంలో	14290
హెచ్చరిస్తున్నారు	14291
పాట్నా	14292
అగర్వాల్	14293
కొముర	14294
యాసిడ్	14295
యానిమల్	14296
నైవేద్య	14297
హుటాహు	14298
tir	14299
رہ	14300
అటె	14301
ఓనర్	14302
మచ్చ	14303
మిల్లీ	14304
వస్తారని	14305
##‌రు	14306
##పార్	14307
##ig	14308
##శ్వర	14309
##لے	14310
##ଛନ୍ତି	14311
##గాలతో	14312
##ించటం	14313
##ండని	14314
##ార్జున్	14315
నిరోధ	14316
రాంచ	14317
రామ్‌	14318
##స్తామ	14319
##రాన్	14320
కుంట	14321
చేశారో	14322
సీఆర్	14323
##విడిగా	14324
వాడిన	14325
##ంటిలో	14326
##ంటేషన్	14327
సాఫ్ట్‌	14328
దాటు	14329
దాచి	14330
శాంత	14331
రిలేషన్	14332
వర్త	14333
చంద్రుడు	14334
##వ్వడం	14335
##వ్వాలని	14336
ఆమెతో	14337
ఎంజీ	14338
చంద్రబాబుపై	14339
భూసే	14340
సైడ్	14341
మారడంతో	14342
ట్రయల్	14343
పీటీ	14344
అంపై	14345
తప్పదు	14346
తుర్	14347
డెయిరీ	14348
స్టార్టప్	14349
పరీక్షల్లో	14350
సింగ్‌	14351
##భిషేకం	14352
నిరంతర	14353
##మందికి	14354
వ్యవస్థలో	14355
28వ	14356
అడ్మిని	14357
వినియోగదారుల	14358
ఉద్యమకారు	14359
బంధువు	14360
త్రిపాఠ	14361
కల్పించేందుకు	14362
విపత్తు	14363
ఐదేళ్లలో	14364
కలుగుతాయి	14365
ఆరెంజ్	14366
మత్తులో	14367
దిగ్గజం	14368
బద్దలు	14369
నిలకడగా	14370
ద్రౌపది	14371
మనీలాండరింగ్	14372
మల్కాజిగిరి	14373
بھ	14374
دی	14375
అష్ట	14376
ఆచ	14377
ఈజీగా	14378
కంటో	14379
చర్	14380
నలు	14381
పరు	14382
సయ్య	14383
##రణి	14384
##నౌ	14385
##దంటూ	14386
##డెన్స్	14387
##ఖని	14388
##చడం	14389
##ha	14390
##ంచేశారు	14391
##క్తుల	14392
##న్నిస్	14393
తెరు	14394
లోన్లు	14395
##కోట్ల	14396
##ద్దా	14397
గుంపు	14398
వాసన	14399
వాపోయారు	14400
వైఖ	14401
ఒకటో	14402
##వరంలో	14403
రాజేశ్	14404
రాజయోగం	14405
తాకి	14406
దిక్కు	14407
ఆర్ఆర్ఆర్	14408
బిజీ	14409
##ర్‌పై	14410
పాల్పడి	14411
పాల్పడ్డారు	14412
సేకరించారు	14413
విజయాలను	14414
ఎంపీల	14415
వెళ్లడానికి	14416
అర్జు	14417
ఉదయా	14418
ఆదేశాలను	14419
110	14420
సమీకర	14421
##కొచ్చారు	14422
ఉంటేనే	14423
పోస్టులకు	14424
టెలిక	14425
##బెట్టిన	14426
విస్తరి	14427
చేరువ	14428
పదేళ్లలో	14429
అదుపులో	14430
ఫేజ్	14431
సంతకాలు	14432
కార్యదర్శిగా	14433
షోలో	14434
తరలింపు	14435
ప్రాణాలను	14436
##ాలనుకుంటే	14437
రిటైల్	14438
సౌకర్య	14439
వెళ్లాల్సి	14440
ఛార్జీలు	14441
థియేటర్లలో	14442
ఆదాయాన్ని	14443
బాలుడి	14444
##ಕ್ಷ	14445
అనుబంధం	14446
నమ్ముతారు	14447
##ଥିବା	14448
హర్షం	14449
తాత్కాలికంగా	14450
రికార్డ్స్	14451
ప్రీమియం	14452
కోనసీమ	14453
పెంపొ	14454
యూరోపియన్	14455
##హైడ	14456
పాపులర్	14457
జాప్యం	14458
?..	14459
us	14460
ری	14461
అల్లా	14462
సనాతన	14463
హత	14464
‌‌	14465
##ంబ్	14466
##ంక్స్	14467
##ణ్యం	14468
##ول	14469
##ತಿ	14470
##న్రు	14471
##ంద‌ని	14472
##కుడికి	14473
రాగి	14474
##తోందన్నారు	14475
##ష్ఠా	14476
##స్తానీ	14477
కేపీ	14478
పెయి	14479
పెడత	14480
##మెంట్లు	14481
తీసింది	14482
వేతనాలు	14483
వాది	14484
బాత్	14485
వీట	14486
##దేవు	14487
##వీపీ	14488
నాతో	14489
##మేనా	14490
కిరా	14491
ఇచ్చామని	14492
సినిమాని	14493
చేసుకుంటారు	14494
##పించడం	14495
మనవ	14496
##నున్నట్టు	14497
గోవి	14498
క్యాంటీ	14499
##రూమ్	14500
అమ్ముడు	14501
పూజి	14502
షాట్	14503
నాలుగ	14504
వాటితో	14505
కౌన్	14506
తుంగ	14507
పథకాలకు	14508
వస్తువుల	14509
నవంబరు	14510
మెడల్	14511
హక్కులను	14512
సెంటర్లు	14513
రిజర్వేషన్ల	14514
నాయకులతో	14515
کرنے	14516
##ಿಸಿದ	14517
కోరినట్లు	14518
బతుకు	14519
ఇప్పటికి	14520
సతీశ్	14521
సచివాలయంలో	14522
తెరకెక్కిన	14523
కొడంగల్	14524
గీతా	14525
ఆయుధాలు	14526
బదులి	14527
గైక్వాడ్	14528
ధాటికి	14529
ఉగ్రవాదులు	14530
నిండిన	14531
రిలీజైన	14532
సంప్రదింపులు	14533
శ్రేయస్సు	14534
బీభత్	14535
మహాత్మా	14536
ଏକ	14537
ହେ	14538
ఏమ	14539
ఓల్డ్	14540
కరంగా	14541
గన్	14542
జహీ	14543
తక్కు	14544
దహనం	14545
పట్నం	14546
మూర్	14547
మద్యా	14548
మద్రా	14549
షెల్	14550
హర	14551
##ేస్టో	14552
##గార	14553
##కడ్	14554
##కృత	14555
##‌ల్లో	14556
##పార్టీ	14557
##సలాట	14558
##దంలో	14559
##దలతో	14560
##ଟି	14561
##ست	14562
ప్రదర్శి	14563
విత్	14564
కాజీ	14565
కాసేప	14566
##న్నింగ్	14567
##నేతలు	14568
కొలి	14569
పాండే	14570
లేవన	14571
##ించినందుకు	14572
అనిత	14573
##ంబో	14574
నాసా	14575
నాదె	14576
స్థలాలు	14577
మేధా	14578
సుందర్	14579
##ములను	14580
ప్రతిష్ఠా	14581
యాభై	14582
తోసి	14583
దిగే	14584
ఆర్ట్స్	14585
మధ్యతర	14586
ఎమ్మెల్యేలకు	14587
విద్యను	14588
గోపీ	14589
కుటుంబంతో	14590
ట్రక్కు	14591
సమావేశాలకు	14592
బోధ	14593
జోషి	14594
వ్యక్తిగా	14595
తరుణ్	14596
చైర్మ	14597
##స్తాను	14598
శ్రీనివాసులు	14599
క్రియే	14600
పోరాడు	14601
తెలుసుకుని	14602
నిజాయితీ	14603
జరిగేలా	14604
వస్తున్నాయని	14605
బ్రూ	14606
పెట్టుకుంది	14607
యాక్సెస్	14608
యాక్సిడెంట్	14609
పౌరులు	14610
కాలేజీలు	14611
కన్సల్	14612
తొలగించారు	14613
తినాలి	14614
##ానాపూర్	14615
ఒక్కోసారి	14616
##ಾರ್	14617
##నిఫేస్టో	14618
చక్కగా	14619
డాన్స్	14620
వేధింపులు	14621
పుస్తకం	14622
టీచర్ల	14623
ఇతరులకు	14624
##టైనర్	14625
శైలిలో	14626
సింహరాశి	14627
లొంగి	14628
##బొమ్మ	14629
సింహా	14630
యాదగిరిగుట్ట	14631
హేమంత్	14632
డీసీఎం	14633
క్లోజ్	14634
ఇండోనే	14635
చీకటి	14636
##ିଡିଓ	14637
అస్వస్థతకు	14638
బసవరాజ్	14639
పెవిలియన్	14640
పృథ	14641
మొట్టమొదటి	14642
మిధున	14643
సైబరాబాద్	14644
రామోజీ	14645
?:	14646
ଅନ	14647
ଭିଡିଓ	14648
ఇంప	14649
ఊరి	14650
ఎగి	14651
కరా	14652
చత్తీ	14653
బందీ	14654
రంజ	14655
వయో	14656
హాలి	14657
##ంజి	14658
##‌లకు	14659
##పాయం	14660
##బ్యా	14661
##వచ్చ	14662
##ఖాన్	14663
##మర్స్	14664
##yan	14665
##ఠాయ	14666
##ర్లాండ్	14667
##స్టీ	14668
##క్లి	14669
విచిత్ర	14670
##ంగ్వే	14671
పెడ	14672
##ిల్లు	14673
కుజు	14674
రెగ	14675
తెలియాల్సి	14676
రోబో	14677
##ంటిక్	14678
##దాం	14679
చేసినప్పటికీ	14680
మార్గాల్లో	14681
సమానంగా	14682
తిని	14683
యాడ్	14684
గ్రో	14685
చాలాసార్లు	14686
సీఎంకు	14687
జీరో	14688
అసలైన	14689
##బీర్	14690
గెల	14691
##ందేనని	14692
పీడీ	14693
పాలయ్యారు	14694
విడుదలకు	14695
##కెండ్	14696
తప్పే	14697
రావాలి	14698
##క్‌లు	14699
జైన్	14700
పెంచడం	14701
గాంధీని	14702
ప్రజాపాలన	14703
బాధపడే	14704
అవసరాల	14705
నిర్వహిస్తామని	14706
బోర్డర్	14707
ఎమ్మెల్సీలు	14708
దాఖలైన	14709
అవకాశాలున్నాయి	14710
ఎగ్జిబి	14711
ఉద్దేశం	14712
పూర్తయ్యే	14713
##انی	14714
##ారన్నది	14715
ఖాయంగా	14716
బాధితురాలి	14717
కమ్యూనికేషన్	14718
సచివాలయ	14719
ఆవిష్కరించారు	14720
వెలువర	14721
ముక్కలు	14722
పదోన్న	14723
రాజేంద్రనగర్	14724
రెజ్లర్	14725
పొందేందుకు	14726
రిటర్నింగ్	14727
ఛాంపియన్	14728
హృదయ	14729
ఇంధన	14730
కన్నుమూశారు	14731
సమ్మేళ	14732
అమరవీ	14733
నెమ్మదిగా	14734
ఉపరితలం	14735
కాన్సెప్ట్	14736
రామ్మోహన్	14737
రోగనిరోధక	14738
కంటోన్మెంట్	14739
ఆడియో	14740
ఎద	14741
ఏవి	14742
ఒవైసీ	14743
డ్	14744
మరా	14745
లెక్	14746
షార్	14747
##యాలి	14748
##నెల్	14749
##ట్రీ	14750
##్‌	14751
##తర్	14752
##జయ	14753
##iv	14754
##rs	14755
##اد	14756
##‌‌లోని	14757
##లోడ్	14758
##ంచై	14759
##మాల్	14760
##టీన	14761
పోలి	14762
కుమ్మ	14763
##పోతారు	14764
##లేష్	14765
సీక్ర	14766
సీట్లకు	14767
చేయించి	14768
వాద	14769
వ్యయం	14770
వచ్చారని	14771
అనిరు	14772
##వరెడ్డి	14773
సెంటీ	14774
శాత	14775
సుల్తా	14776
దేశాయ్	14777
లాగా	14778
లాగే	14779
యూజర్లు	14780
##ర్యానికి	14781
సైలెంట్	14782
కావ్య	14783
సేన్	14784
కుటుంబాలను	14785
జోగి	14786
జైలర్	14787
ప్రేరే	14788
పెంచేందుకు	14789
తీసుకోవడానికి	14790
తగ్గించి	14791
దాడిని	14792
చట్టబద్ధ	14793
ఫైట్	14794
చెప్పులు	14795
పోలింగ్‌	14796
కాల్వ	14797
ఇబ్బందులను	14798
##ండ్రు	14799
రాయల్స్	14800
దక్కించుకుంది	14801
ఎదుర్కొంటున్నారు	14802
ముంబైలోని	14803
పట్టుకొని	14804
లాభాలను	14805
విధానాలను	14806
అభిప్రాయాన్ని	14807
ఫ్రూ	14808
తొలగించాలని	14809
తగ్గింపు	14810
ప్రస్తావి	14811
కల్పన	14812
కల్పించే	14813
పుస్తకంలో	14814
పరిగణించ	14815
పరిగణలోకి	14816
##మారక	14817
పదార్థాలను	14818
అద్దం	14819
రిజిస్ట్రార్	14820
ఓపెనింగ్	14821
భవనాల	14822
ప్రశంసించారు	14823
విడతలో	14824
వ్యక్తమవుతున్నాయి	14825
కర్నాటకలో	14826
మిత్రపక్ష	14827
కంప్లై	14828
అప్లికేషన్లు	14829
సమన్వయం	14830
కంగనా	14831
తృణ	14832
సంయుక్తంగా	14833
గ్రాడ్యుయేట్	14834
క్యూసెక్కుల	14835
తొక్కిసలాట	14836
మహమ్మారి	14837
బృహస్ప	14838
6వ	14839
bh	14840
में	14841
ఆశ్	14842
ఏంటీ	14843
ఏవైనా	14844
థా	14845
పటాన్	14846
యే	14847
శబరి	14848
ಸಾಮ	14849
ಸುದ್ದ	14850
##లరీ	14851
##లెట్లు	14852
##గారి	14853
##భం	14854
##dh	14855
##ನ್‌	14856
##bc	14857
##شل	14858
##ారై	14859
##స్టర్లు	14860
##గాని	14861
##నుకున్న	14862
##ించానని	14863
నిప్పు	14864
నింపు	14865
##వాస్య	14866
స్కే	14867
మామ	14868
రెసిడెన్	14869
సీడ్	14870
చేయొద్దని	14871
వైన్	14872
వైరా	14873
పార్టీగా	14874
బాండ్	14875
వీవీ	14876
##కోవాలంటే	14877
రాజ్యం	14878
మోర్చ	14879
##ుకుంటున్నారు	14880
అనుభూ	14881
తీసుకునేందుకు	14882
##చేసే	14883
బెటర్	14884
బెల్ట్	14885
పనిలేదు	14886
##ెన్యూ	14887
చేసేది	14888
అయ్యారని	14889
సేఫ్	14890
బుజ్జ	14891
2015లో	14892
చోప్రా	14893
ఎలాన్	14894
ఉదయ	14895
పూరీ	14896
అన్నమయ్య	14897
సిద్ధమయ్యారు	14898
రైతుకు	14899
గెలిపిస్తే	14900
రామయ్య	14901
దానివల్ల	14902
అభివృద్ధిని	14903
వ్యాఖ్యల	14904
చట్టాలను	14905
బాధ్యతను	14906
ప్రవేశి	14907
ప్రమాదకరమైన	14908
తగ్గాయి	14909
కంటెస్ట	14910
ఆసక్తిని	14911
భోజన	14912
తరలిస్తున్న	14913
చౌహాన్	14914
రవికుమార్	14915
పర్యావర	14916
సందర్శించి	14917
మార్చాలని	14918
##రమణ	14919
##షీరాబాద్	14920
యూపీఐ	14921
వసంత	14922
తొలగింపు	14923
##మినార్	14924
చెలరేగాయి	14925
హిందువుల	14926
పరిశీలిస్తే	14927
ప్రచురించిన	14928
తెరిచి	14929
##బడ్డాయి	14930
బాలాజీ	14931
కలగకుండా	14932
సభ్యుడిగా	14933
ఉపాధ్యక్షుడు	14934
వ్యాక్సిన్	14935
ప్రాముఖ్యత	14936
దత్తత	14937
ఆతిథ	14938
అడ్వాన్స్	14939
కార్పొరేటర్లు	14940
అగ్నిప్రమాదం	14941
యశస్వి	14942
ఫైనాన్షియల్	14943
అభ్యంతరాలు	14944
రెట్టింపు	14945
కృత్రిమ	14946
ఫెస్టివల్	14947
tirum	14948
am	14949
st	14950
ఆస్	14951
ఆరి	14952
ఇళ్లలో	14953
ఇపుడు	14954
కాయ	14955
జలు	14956
నాన	14957
నొక్క	14958
పైనా	14959
బష	14960
వండ	14961
వస్తారు	14962
హ‌	14963
##రాలకు	14964
##ిస్తూ	14965
##‌హ	14966
##‌మెంట్	14967
##సోర్	14968
##తార్	14969
##జనా	14970
##జొన్న	14971
##న్నో	14972
##ించనున్నట్లు	14973
రాబట్టి	14974
కాచి	14975
##దిద్దు	14976
వెంబ	14977
కుంగి	14978
సిమెంట్	14979
ఉన్నాడని	14980
పరిస్థ	14981
పరిమితి	14982
చూస్తున్నారని	14983
చేసినందుకు	14984
##య్యారని	14985
మెన్స్	14986
గానే	14987
##ానికే	14988
వెళ్ళి	14989
ఆర్జ	14990
లాంగ్	14991
కలలు	14992
ఫిలిం	14993
##స్థితి	14994
పీహెచ్	14995
క్యాన్స	14996
మూడుసార్లు	14997
##బర్గ్	14998
నియోజకవర్గాలకు	14999
జోస్యం	15000
##రోజులుగా	15001
పెంచిన	15002
తెలియక	15003
గతంలోనే	15004
ఫలితాల్లో	15005
దగ్గరికి	15006
180	15007
రోడ్డులో	15008
చేరడంతో	15009
నాగబాబు	15010
##పోవాలని	15011
కమలం	15012
పాలనను	15013
హుజూ	15014
##పూరి	15015
నిరుపే	15016
పేదలు	15017
సర్వీసులు	15018
వ్యాపారంలో	15019
కీర	15020
చెన్నైలో	15021
వడ్ల	15022
##రైజ్	15023
మనోభా	15024
శాంతిభద్ర	15025
ఓడించి	15026
అయ్యేలా	15027
##గలిగారు	15028
పాయింట్ల	15029
తాగునీరు	15030
శ్రీరామ్	15031
మెరుపులతో	15032
అద్దెకు	15033
మెడిసిన్	15034
వరసగా	15035
ఉంటోంది	15036
వినతిపత్రం	15037
పేరెంట్స్	15038
ప్రిన్సిపాల్	15039
కొలెస్ట్రాల్	15040
సీక్రెట్	15041
ନି	15042
ସେ	15043
ఆగ్ర	15044
గానూ	15045
జాయిన్	15046
టెట్	15047
తండ్ర	15048
పకడ్	15049
వర్చు	15050
ಆಗ	15051
##వంచ	15052
##జర	15053
##చక్ర	15054
##ూచి	15055
##ान	15056
##زی	15057
##గాయ	15058
##ంత్య	15059
##దిలో	15060
##కోట్లు	15061
వేతనం	15062
సీతా	15063
సీఎల్పీ	15064
##పాల్‌	15065
మెషీ	15066
##చివే	15067
ప్రజలే	15068
ప్రతిబి	15069
నేతలే	15070
జీవీ	15071
ఆర్సీబీ	15072
##ర్యాన్ని	15073
అరబ్	15074
ప్రకటించి	15075
##బోతో	15076
వచ్చేందుకు	15077
సమావేశమై	15078
##కెళ్లి	15079
వెళ్లినా	15080
వెల్లడైంది	15081
అక్కడక్కడ	15082
ఎవరికైనా	15083
పనిచేయడం	15084
తెలియదని	15085
కనిపిస్తున్న	15086
స్టార్స్	15087
కొంతకాలం	15088
చూడండి	15089
గుర్తుచేసుకు	15090
భర్తను	15091
భావిస్తున్నట్లు	15092
క్షేమ	15093
క్షతగా	15094
21వ	15095
జింబా	15096
ఓవర్లు	15097
##ాలనేది	15098
ఐపీసీ	15099
ప్రేమను	15100
##కపోవడంపై	15101
ఒత్తిడిని	15102
ప్రయత్నిస్తున్న	15103
స్క్రి	15104
చూపిస్తూ	15105
త్రిష	15106
ప్రయత్నించిన	15107
##బోతున్నాడు	15108
##నగర్‌	15109
ఆకర్షణ	15110
నియామకాలు	15111
ఫ్రాంచై	15112
సమ్మర్	15113
చుట్టుము	15114
డొనాల్డ్	15115
రిజల్ట్	15116
నెలాఖరు	15117
మెక్సిక	15118
తెరకెక్కుతున్న	15119
వేరియంట్	15120
ఐఐటీ	15121
అభివర్ణించారు	15122
హైస్కూ	15123
వారణాసి	15124
రామచంద్రా	15125
నారాయణ్	15126
హితవు	15127
tirumala	15128
హుజూరాబాద్	15129
ram	15130
ఇస్తోంది	15131
ఇనుప	15132
ఐర్లాండ్	15133
చల్	15134
బస్తీ	15135
మూర్తి	15136
రకంగా	15137
సన	15138
##నంత	15139
##నాలి	15140
##పించేందుకు	15141
##దనం	15142
##ళు	15143
##ಮ್	15144
##న్‌‌‌‌	15145
##గాం	15146
##లియం	15147
తెగి	15148
##పీఎస్సీ	15149
గుంట	15150
చేయకపోతే	15151
##వేంద్ర	15152
##ఎస్‌‌‌‌	15153
##మ్మీ	15154
##దాల్లో	15155
వీధుల్లో	15156
మెరుగ్గా	15157
దేశీయ	15158
సోక	15159
కలిసేందుకు	15160
కేంద్రాలకు	15161
సంబంధాలను	15162
లాంగ్వే	15163
బ్యాచ్	15164
భూభా	15165
సాధార	15166
తేదీకి	15167
##కెట్లు	15168
1500	15169
పనిచేయాలని	15170
119	15171
ఫ్యాషన్	15172
##పోయినట్లు	15173
రీల్స్	15174
మరింతగా	15175
ఆసరా	15176
మర్రి	15177
స్కూళ్లు	15178
బైఠాయ	15179
స్వీకరి	15180
సెలబ్ర	15181
పిటిషనర్	15182
అంగు	15183
డిపార్ట్‌మెంట్	15184
భయపడి	15185
సమర్పించిన	15186
స్కాంలో	15187
భుజ	15188
కార్డుల	15189
త్రిపుర	15190
అపార్ట్	15191
అంగీకరించారు	15192
బదిలీలు	15193
చక్కర్లు	15194
ధ్వంస	15195
##నీయమైన	15196
##ಿಕೊಂಡ	15197
ప్రశ్నించింది	15198
అనుభవి	15199
ప్రదేశంలో	15200
##ಗಳನ್ನು	15201
ప్రత్యక్షంగా	15202
ఇంజనీర్	15203
విజేత	15204
అర్చకులు	15205
సంతృప్తి	15206
ప్రమాణస్వీకారం	15207
వాంగ్మూ	15208
ఆచూకీ	15209
క్రిస్మస్	15210
సయ్యద్	15211
:-	15212
ele	15213
అమ్మా	15214
ఇస్తారని	15215
ఉనికి	15216
ఊహాగా	15217
ఏటీఎం	15218
గఢ్	15219
తగల	15220
నయన	15221
నికో	15222
బతక	15223
యము	15224
శృ	15225
షీట్	15226
సవాలు	15227
ಸ್	15228
##పతికి	15229
##తామన్నారు	15230
##బ్వే	15231
##వరా	15232
##om	15233
##శోర్	15234
##سی	15235
##ర్సీ	15236
ప్రణీ	15237
##లాగా	15238
రానా	15239
స్లి	15240
కాశీ	15241
లోన	15242
మురుగు	15243
సిర్	15244
సీఏ	15245
మెమో	15246
మూడవ	15247
మోస్ట్	15248
అనుష్క	15249
చేస్తాడు	15250
##ించుకుంటారు	15251
హిమ	15252
తప్పింది	15253
అన్నట్లు	15254
వ్యక్తిగతంగా	15255
ప్లానింగ్	15256
ఇంటిగ్రే	15257
170	15258
పడటంతో	15259
ఫుట్	15260
సాగుతుంది	15261
కట్టే	15262
కృతి	15263
##గలరు	15264
ప్రసంగి	15265
కాపాడేందుకు	15266
సుప్రీంకోర్టును	15267
వేడుకలకు	15268
లేఖను	15269
ఇన్‌స్పెక్టర్	15270
నిన్నటి	15271
ఫోటోను	15272
షూట్	15273
తిరుగుతున్న	15274
గ్రేట్	15275
కఠినమైన	15276
బహుశా	15277
బిడ్డకు	15278
పిలిచి	15279
విమానయాన	15280
దేవాలయం	15281
ఖుషి	15282
మందమర్రి	15283
రెగ్యుల	15284
స్నాన	15285
కడుపులో	15286
సమాధానాలు	15287
మల్లికార్జున్	15288
నిదర్శనం	15289
తలుపులు	15290
ప్రసిద్ధి	15291
మహానాడు	15292
అమావాస్య	15293
గణాంక	15294
మధుమేహం	15295
ఒరిజినల్	15296
గల్లంత	15297
పరిస్ధి	15298
సరస్వతి	15299
మధుసూదన్	15300
ఇన్వెస్టిగేషన్	15301
కొండచరియలు	15302
ఉదయాన్నే	15303
కౌన్సె	15304
బృహస్పతి	15305
కంటెస్టెంట్	15306
జింబాబ్వే	15307
سی	15308
ఉందనే	15309
కతా	15310
గరుడ	15311
పండ్ల	15312
బళ్ల	15313
రష్య	15314
రతన్	15315
లక్కీ	15316
హవా	15317
##ధికి	15318
##బ్యు	15319
##ెలా	15320
##మంచి	15321
##మట్టం	15322
##ರದ	15323
##ok	15324
##షీట్	15325
##tc	15326
##ಾಟ	15327
##ೆಲ	15328
##లుకు	15329
##నుండి	15330
రాత	15331
చెరో	15332
కూరుకు	15333
సిన్	15334
సిమ్	15335
ఉన్నవారికి	15336
ఉన్నాయన్నారు	15337
నిర్బంధ	15338
చేయడాన్ని	15339
బాటిల్	15340
వీఆర్	15341
వీరే	15342
శాస	15343
మెప్ప	15344
డిజా	15345
మార్చిన	15346
##మున్న	15347
రేఖ	15348
భాను	15349
తేమ	15350
స్పూ	15351
అసలే	15352
ఆర్జీ	15353
కార్బన్	15354
##షియ	15355
మ్యాజిక్	15356
ఫిదా	15357
పూర్తిస్థాయిలో	15358
సంస్థలో	15359
పీఠ	15360
సమావేశాల	15361
దువ్వాడ	15362
దేవాద	15363
గుర్తించడం	15364
తగ్గించేందుకు	15365
కనిపిస్తే	15366
పథకంలో	15367
ఫోన్లను	15368
స్టేషన్లలో	15369
2004	15370
వీటిపై	15371
బౌద్ధ	15372
క్షు	15373
ఏళ్లలో	15374
ప్రైమ్	15375
పాటకు	15376
దెబ్బకు	15377
వినియోగదారులకు	15378
ఇండెక్స్	15379
ఆడపిల్ల	15380
లభించే	15381
ఎకాన	15382
31న	15383
ప్రక్రియలో	15384
##ಿಯಲ್ಲಿ	15385
ఇన్‌స్టిట్యూట్	15386
సృష్టించారు	15387
వీరయ్య	15388
ఏమిటో	15389
ఏకపక్ష	15390
##వాహిక	15391
గ్లి	15392
చెయ్యాలని	15393
హోంశాఖ	15394
నరేశ్	15395
చెల్లింపులు	15396
భీం	15397
చిత్తశు	15398
మనీష్	15399
ఎదురుచూస్తున్న	15400
సామర్థ్యాన్ని	15401
స్మృతి	15402
సిక్సర్లు	15403
పరికరాలు	15404
రికార్డ	15405
హన్మ	15406
జవహర్	15407
##ಾಜಿಕ	15408
శరణార్థ	15409
కరుణాకర్	15410
సంభాషణ	15411
డ్రైనేజీ	15412
టోర్నమెంట్	15413
బ్రిటీష్	15414
రిపీట్	15415
బీభత్సం	15416
కంప్లైంట్	15417
జలుబు	15418
ఆపి	15419
ఎలు	15420
ఫ్రే	15421
బస్త	15422
లార	15423
ಯಾ	15424
ಹಂಚ	15425
##యెత్తున	15426
##నంతో	15427
##‌నే	15428
##సంగా	15429
##స్రా	15430
##సముద్ర	15431
##బడే	15432
##చిక	15433
##بر	15434
##ci	15435
##ఫ్యూ	15436
##da	15437
##ఓవర్	15438
##ଲି	15439
##ବାର	15440
##ହା	15441
##ర్నీ	15442
##గాను	15443
విల్	15444
రాబడి	15445
కాస్తా	15446
కురవ	15447
చేశాను	15448
##విస్	15449
లేకున్నా	15450
వాడి	15451
వాడీ	15452
##కొస్తే	15453
##రేజ్	15454
కిట	15455
కిటికీ	15456
సుకుమార్	15457
సమాధి	15458
##టికొ	15459
మంత్రివర్గంలో	15460
జగన్నా	15461
చేసుకున్నాయి	15462
చేస్తున్నాయని	15463
పాల్పడ్డారని	15464
పెద్దయెత్తున	15465
ప్రారంభమవుతుంది	15466
##కాలే	15467
##ర్భంగా	15468
కెపా	15469
తీవ్రస్థాయిలో	15470
స్థానాల	15471
పరిశు	15472
##లైంది	15473
అర్ధం	15474
ఎన్ఐఏ	15475
##టేజ్	15476
తగ్గించే	15477
ట్రావె	15478
తలనీ	15479
గ్రాస్	15480
##ాలేదని	15481
ఉపయోగించ	15482
పాటించాలని	15483
##చూపు	15484
పంటల	15485
విశాఖపట్	15486
తీసుకోలేదు	15487
యాక్టర్	15488
కోరుట్ల	15489
విజయవాడకు	15490
లభ్య	15491
విషయమే	15492
సామగ్రి	15493
జన్యు	15494
భారతదేశానికి	15495
వెళ్లినప్పుడు	15496
ఎంటర్‌	15497
మౌనంగా	15498
గాలింపు	15499
పట్టించుకోలేదు	15500
మనుగడ	15501
వసతులు	15502
లక్ష్యమని	15503
చెందుతున్న	15504
ప్రవేశపెట్టారు	15505
స్మార్ట్‌	15506
క్షేత్రస్థాయిలో	15507
అశ్విని	15508
వాగ్వాదం	15509
ముగియనుంది	15510
దూకుడుగా	15511
నెట్‌వర్క్	15512
నామినేటెడ్	15513
సుబ్బారెడ్డి	15514
కస్టమర్లు	15515
కోదండరాం	15516
##rababu	15517
శీతా	15518
అలెర్ట్	15519
ప్లాట్‌ఫార	15520
తట్టుకోలేక	15521
వారసత్వ	15522
ప్రావిన్స్	15523
ఐశ్వర్య	15524
గోధుమ	15525
త్రిపాఠి	15526
జహీరాబాద్	15527
ಸಾಮಾಜಿಕ	15528
కాచిగూడ	15529
وا	15530
ହୋ	15531
ఇన్స్	15532
ఊప	15533
ఒడ్డు	15534
చల	15535
వానా	15536
##ేల్	15537
##కన్నా	15538
##‌రావు	15539
##పన	15540
##ప్యా	15541
##బ్రా	15542
##మయం	15543
##ರ್‌	15544
##షాలు	15545
##16	15546
##عد	15547
##ಂಧ	15548
##ଲା	15549
##ాయంటే	15550
##డ్డీ	15551
##డ్కర్	15552
చెరి	15553
వెయ్య	15554
వెసులు	15555
గుండా	15556
చెప్పవచ్చు	15557
పార్టీపై	15558
##డీఓ	15559
ప్రాపర్	15560
మొండి	15561
ఉండటానికి	15562
తిలక్	15563
భాషా	15564
దేశాలలో	15565
యాత్రి	15566
మిల	15567
సూరత్	15568
బిర్లా	15569
వారికే	15570
పూర్తిచే	15571
పూర్తిస్థాయి	15572
పట్టిన	15573
కుమార్‌	15574
అక్కడకు	15575
##ూడో	15576
అంచనాల	15577
గుర్తుంచు	15578
స్టేషన్ల	15579
నిర్ణయాలను	15580
నిర్ణయించినట్లు	15581
కథలు	15582
సాగుతున్న	15583
అడిగే	15584
జిమ్	15585
నివేద	15586
నడుస్తున్న	15587
యాత్రకు	15588
యాత్రను	15589
అరుణా	15590
సామ్రా	15591
పూర్తయింది	15592
దిశలో	15593
జన్మని	15594
అవార్డును	15595
దుర్మార్	15596
అమరావతిలో	15597
ధర్మం	15598
అధ్యయనంలో	15599
సినిమాలతో	15600
ఎన్‌కౌ	15601
ప్రయాణించే	15602
దాడుల్లో	15603
పాయింట్లతో	15604
రౌండర్	15605
పోర్టులో	15606
గర్వ	15607
అక్షర్	15608
ఓటీటీలో	15609
చూసుకోవాలి	15610
స్వాతంత్య	15611
వెబ్‌సైట్‌లో	15612
ఎగ్జామ్స్	15613
పౌరస	15614
##agan	15615
పాలకులు	15616
మినిస్టర్	15617
అంకిత	15618
రిపబ్లిక	15619
జ్యుడీ	15620
ఉత్సాహంగా	15621
హారిస్	15622
యాసంగి	15623
తోసిపు	15624
ఆశ్చర్యం	15625
క్షతగాత్ర	15626
దేవాదాయ	15627
పరిశుభ్ర	15628
fa	15629
pri	15630
مو	15631
అట్ట	15632
అనా	15633
అహంక	15634
ఆడుకు	15635
ఊర్	15636
కించ	15637
ఖలీ	15638
పలక	15639
బడా	15640
వద్దు	15641
వస్తోన్న	15642
షబ్బ	15643
హస్త	15644
హ్యూ	15645
##కైనా	15646
స్వరూ	15647
##ేశాయి	15648
వెతిక	15649
వెన్నె	15650
##ట్టాడు	15651
##ట్టడంతో	15652
సంధ	15653
ఉన్నంత	15654
##త్తిన	15655
గుత్తా	15656
బీబీ	15657
నేటికీ	15658
##డ్డింగ్	15659
బావ	15660
ప్రాణా	15661
వీళ్ల	15662
ఎన్నికలపై	15663
స్టైల్	15664
##ఫ్ల	15665
పొలం	15666
పొద్దు	15667
వ్యక్తులకు	15668
అభియోగాలు	15669
లాక్	15670
అతిక	15671
డీల్	15672
ధరించిన	15673
విజయంతో	15674
విచారించిన	15675
క్యాండి	15676
##కపోవడమే	15677
డిమాండ్‌	15678
అమలుకు	15679
పడుతున్నారని	15680
నిర్మించి	15681
##ాయ్‌	15682
యూనిట్ల	15683
తలెత్తి	15684
రాత్రిపూట	15685
పరిధిలోకి	15686
మోడీకి	15687
కష్టాల్లో	15688
పాటను	15689
ప్రమాదకర	15690
నిర్వహిస్తోంది	15691
ఎన్నారై	15692
కార్మికులను	15693
క్లెయి	15694
ఫేస్‌	15695
పారిశు	15696
కామర్స్	15697
ఆస్ట్రేలియాతో	15698
చూపించిన	15699
##సార్సీపీ	15700
ఆఫీసర్ల	15701
సీటును	15702
పండుగను	15703
ఏకగ్రీ	15704
ప్రాధాన్యతను	15705
దొంగతనం	15706
యాప్స్	15707
ఆరోగ్యంపై	15708
జనాభాలో	15709
ఆయుష్	15710
ధోరణి	15711
ఆసక్తికరమైన	15712
##ಿಕೆಯ	15713
వేసుకున్న	15714
తేల్చారు	15715
##ent	15716
తుపాకీ	15717
ప్రజాస్వామ్యం	15718
##ూహిక	15719
##ంటున్నాను	15720
కోటాలో	15721
అనుసరించి	15722
జాన్వీ	15723
గరిష్ట	15724
జరపాలని	15725
లావాదేవీలు	15726
ఆభరణాలు	15727
వైష్ణవ్	15728
డాక్యుమెంటరీ	15729
ఆటంకం	15730
سوشل	15731
ఆవిర్భావ	15732
నికర	15733
నిమజ్జనం	15734
ఇండిపెండెంట్	15735
ହୋଇ	15736
ww	15737
అపరి	15738
అంటున్నారని	15739
ఆలేరు	15740
ఇళ్లకు	15741
ఎండు	15742
కచ్చ	15743
గతం	15744
చద	15745
పండ్లను	15746
మల్లి	15747
సజ్జన	15748
##బట్టే	15749
##జన్‌	15750
##మరీ	15751
##ରୁ	15752
##ళాలు	15753
##ಡಿ	15754
##ర్వే	15755
ప్రపో	15756
##తులలో	15757
##ంటని	15758
##ండల్	15759
##ండిల్	15760
##రిపై	15761
విమెన్స్	15762
స్మిత్	15763
##టీని	15764
సంపర్	15765
##కోలు	15766
##లేను	15767
##ప్పుడో	15768
##సుకున్నారు	15769
దీపం	15770
ప్రాసె	15771
టీఎస్పీ	15772
రాష్ట్రాలలో	15773
సెన్స	15774
స్ట్రో	15775
##క్రెయి	15776
##ానిర్	15777
అంతి	15778
సూర	15779
సూపర్‌	15780
##స్తేనే	15781
నీలం	15782
పాల్పడుతున్న	15783
మనవి	15784
192	15785
విజయలక్ష్మి	15786
పట్టే	15787
బోల్తా	15788
తప్పదని	15789
తప్పవని	15790
అభివృద్ది	15791
వచ్చిందన్నారు	15792
స్థానికుల	15793
ఐదుగు	15794
##రావుపేట	15795
వినతి	15796
##ముఖం	15797
130	15798
చురుగ్గా	15799
నీటితో	15800
##ప్రీత్	15801
సర్క్యూ	15802
భూమిలో	15803
టెండర్లు	15804
ప్రేమలో	15805
రికార్డులను	15806
సత్యం	15807
చూపించే	15808
సామూహిక	15809
లేదన్న	15810
గూఢ	15811
గూడ్స్	15812
మైనంపల్లి	15813
పెరగడానికి	15814
మేనేజ్‌మెంట్	15815
విపత్తుల	15816
లీడర్ల	15817
చంపిన	15818
దంపతుల	15819
శ్రవ	15820
ఆరోపిస్తూ	15821
లక్ష్మారెడ్డి	15822
పద్మనా	15823
దుకాణాలు	15824
##గౌడ్	15825
కార్యకలాపాలను	15826
అయ్యిందని	15827
ధనుస్సు	15828
శ్యామ్	15829
వ్రతం	15830
రిపేర్లు	15831
సూర్యుడి	15832
ఫీల్డింగ్	15833
?""	15834
క్యాలెండర్	15835
నాగేందర్	15836
తెలుసని	15837
సిటిజన్	15838
శాంసన్	15839
టాయిలెట్	15840
నిర్దిష్ట	15841
అవస్థలు	15842
భూసేకరణ	15843
పెంపొందించ	15844
de	15845
అదీ	15846
ఉమ	15847
ఉర్	15848
ఏదీ	15849
గడ	15850
తడ	15851
దె	15852
భంగం	15853
మట్ట	15854
మెస్	15855
మదన	15856
వాయ	15857
##యండి	15858
##యులు	15859
##య్యాన్ని	15860
##బార్	15861
##మండ్	15862
##اک	15863
##وم	15864
##್ಳ	15865
##ಳ್ಳ	15866
##ೋಸ	15867
##ల్యా	15868
##ినో	15869
##ంతల	15870
##ార్ల	15871
రామా	15872
##క్షం	15873
##వులపై	15874
పోస్టింగ్	15875
కుదిరి	15876
##ైనీ	15877
అధిన	15878
ఉన్నాయా	15879
సమస్	15880
నేరాలు	15881
##వేట్	15882
##ారాణి	15883
వీకెండ్	15884
##ుకుంటే	15885
తిరో	15886
వ్యాపించ	15887
అసౌ	15888
అందుతున్న	15889
సూక్ష్మ	15890
ప్రారంభమయ్యాయి	15891
మ్యానిఫేస్టో	15892
సాధిక	15893
అయ్యాయని	15894
2013	15895
హిజ్	15896
అంతు	15897
బోధన్	15898
##ద్దులు	15899
ఎన్సీపీ	15900
##పడుతూ	15901
మృణా	15902
ఎవరినీ	15903
చేపట్టే	15904
భక్తులను	15905
కథను	15906
స్టేటస్	15907
ఉంచాలని	15908
క్రియా	15909
మరణించారని	15910
నటించింది	15911
ప్రైవేటీ	15912
##పూజ	15913
ఎదురుదెబ్బ	15914
రషీద్	15915
నర్సం	15916
దిశానిర్	15917
హౌసింగ్	15918
మంజూర	15919
ఫెర్	15920
##రెడ్డికి	15921
సస్పెన్స్	15922
ఎత్తిపో	15923
భరించ	15924
మనుషుల	15925
మహేంద్ర	15926
ఇస్లామిక్	15927
లోతుగా	15928
రంజిత్	15929
ఇంతకుముందు	15930
ప్రవాహం	15931
హడావు	15932
tspsc	15933
వెళ్లనున్నారు	15934
పరిగణిస్తారు	15935
క్వాష్	15936
విజిలెన్స్	15937
కుల్దీప్	15938
సర్దుబాటు	15939
chandrababu	15940
కనుగొన్నాము	15941
పరిసరాల్లో	15942
భార్యాభర్	15943
సప్లయ్	15944
వినూత్న	15945
ఛాలెంజర్స్	15946
మధ్యతరగతి	15947
పృథ్వీ	15948
లెక్చర	15949
su	15950
ٹی	15951
అస్త	15952
ఆండ్ర	15953
ఇని	15954
ఏడే	15955
ఏకీ	15956
కమాండ్	15957
గృ	15958
జెట్	15959
దగ్	15960
నలభ	15961
హెన్	15962
##లత	15963
##దర్స్	15964
##ఘ్	15965
##ଣା	15966
##ంటప్పుడు	15967
##కిట	15968
##లాపూర్	15969
##చ్చాడు	15970
##దులో	15971
వెజ్	15972
పోయే	15973
##విరు	15974
వాడుతున్న	15975
పార్వతీ	15976
బాహు	15977
204	15978
ఉండగానే	15979
చూస్తారు	15980
మెట్రిక్	15981
చిత్తు	15982
పొత్తులు	15983
గ్రహాలు	15984
జీఎం	15985
పూర్తిక	15986
నీల్	15987
##పేరు	15988
కావలసిన	15989
##రూపం	15990
##ట్‌తో	15991
అమ్మవారిని	15992
లీటర్ల	15993
ప్రయాణాలు	15994
ప్రయాణీ	15995
ఆలౌట్	15996
స్వాతి	15997
టైమ్స్	15998
ఇన్సు	15999
కార్యక్రమాల	16000
వస్తుందా	16001
##చుకుంటే	16002
అందుకున్నాడు	16003
నిరసిస్తూ	16004
ఉంచిన	16005
మాటలను	16006
కట్టారు	16007
చేరడం	16008
ఆలోచించి	16009
ఎకరాకు	16010
పదవిలో	16011
ఓడిపోయిన	16012
నిర్వహణలో	16013
కల్పించింది	16014
తయారీకి	16015
బిడ్డను	16016
దృఢ	16017
నిర్ధారణ	16018
జెండాను	16019
నిల్వలు	16020
##స్ట్రియల్	16021
చక్రవర్తి	16022
అవాంఛ	16023
గడ్డపై	16024
సొమ్మును	16025
ఎల్బీనగర్	16026
సిల్వర్	16027
కొద్దిసేపటి	16028
సమాజానికి	16029
కాంబోలో	16030
చాంపియన్	16031
##ೊಂದಿಗೆ	16032
అడ్రస్	16033
ఆక్సిజన్	16034
వెసులుబాటు	16035
సజ్జనార్	16036
پوس	16037
का	16038
ఇండ్లను	16039
ఎటు	16040
ఖలి	16041
చండీ	16042
నృ	16043
పదం	16044
బాలి	16045
##రాయ	16046
##యుడు	16047
##టరింగ్	16048
##కల్లో	16049
##jp	16050
##ౌడ్	16051
##ut	16052
##ئر	16053
##న్నరే	16054
##నుకు	16055
##నుండగా	16056
చేరాడు	16057
##ించాను	16058
##ించవచ్చని	16059
చెపు	16060
సిరి	16061
సిఫార	16062
##పాక్షిక	16063
##నీర్	16064
##పిస్తున్నారు	16065
సాంప్ర	16066
పేర	16067
##త్యాల	16068
##లతోనే	16069
రిస్క్	16070
డిప్రె	16071
మూడి	16072
అనుచిత	16073
రేప్	16074
చంద్రచూ	16075
దిగింది	16076
గురైంది	16077
అమల్లో	16078
ఉద్యోగంలో	16079
బయటపడే	16080
ఉండేదని	16081
జరగడంతో	16082
పరుగులకు	16083
కోట్లుగా	16084
తగ్గించడంలో	16085
డెమో	16086
##పడటంతో	16087
25వ	16088
##ani	16089
పరీక్షలను	16090
బంగార	16091
పంపే	16092
కొనసాగుతూనే	16093
కేటీఆర్‌	16094
ఫైల్స్	16095
పడటం	16096
భార్యతో	16097
చనిపోయింది	16098
సాగుతున్నాయి	16099
పోరాడుతున్న	16100
చెల్లె	16101
బాధా	16102
ఆత్మగౌ	16103
మంత్రికి	16104
వయనాడ్	16105
నడుమ	16106
వినియోగదారు	16107
యాక్టి	16108
గణన	16109
##ತ್ಯ	16110
విభాగాల్లో	16111
జరుపుతున్నారు	16112
##انے	16113
విశ్వాస	16114
##రైన్	16115
బంధువుల	16116
గ్రేడ్	16117
చెయ్యడం	16118
చేసుకోండి	16119
సురేందర్	16120
నటులు	16121
వహించారు	16122
స‌మా	16123
కలుష	16124
డెవలప్మెంట్	16125
రిపోర్టులో	16126
ఇతరుల	16127
ఛేద	16128
శేరి	16129
ప్రియుడు	16130
వేసవిలో	16131
నడుపుతున్న	16132
భువనేశ్వర్	16133
రెజ్లింగ్	16134
మిలిటరీ	16135
గిరిజనులు	16136
సదస్సులో	16137
ہمیں	16138
ధనుష్	16139
స్వాతంత్ర్యం	16140
వెనుదిరి	16141
తెరకెక్కిస్తున్న	16142
విస్తీర్ణంలో	16143
కంచె	16144
the	16145
బచ్చన్	16146
ఉత్పత్తులను	16147
ఠాక్రే	16148
ఉత్తీర్ణత	16149
ముగుస్తుంది	16150
కార్యదర్శులు	16151
##ಕ್ಕೆ	16152
బెడ్రూం	16153
వామపక్ష	16154
ద్రవ్యోల్బణం	16155
ప్రకంపనలు	16156
మోర్చా	16157
శృంగ	16158
బళ్లారి	16159
డిజాస్టర్	16160
టీఎస్పీఎస్సీ	16161
నలభై	16162
me	16163
ఇప్పి	16164
గ్యాల	16165
త్రీ	16166
బహ	16167
భై	16168
మాయం	16169
మదన్	16170
రత్న	16171
వక్	16172
వ‌ర‌కు	16173
సడ	16174
ನೀ	16175
##నంటూ	16176
##కరీ	16177
##పత్రం	16178
##ైదు	16179
##దరణ	16180
##డనే	16181
##ost	16182
##la	16183
##gb	16184
##لہ	16185
##دہ	16186
##ార‌ని	16187
##న్సు	16188
##‌‌‌‌లు	16189
విర	16190
##స్తుంటుంది	16191
##వాళ్లకు	16192
కాంప	16193
కొల్ల	16194
##లేకుండా	16195
చేయలేదన్నారు	16196
వాపోతున్నారు	16197
ప్రభు	16198
మీదే	16199
వైవాహిక	16200
పేమెంట్	16201
సెటిల్	16202
జిల్లాలు	16203
మోతా	16204
బియ్యాన్ని	16205
చేస్తున్నది	16206
పాల్పడ్డాడు	16207
గురించే	16208
అమరుల	16209
అతడికి	16210
అవుతాయని	16211
##కాలతో	16212
సాధించడం	16213
సమస్యకు	16214
##నున్నాడు	16215
సంస్థలను	16216
190	16217
శుద్ధి	16218
విడుదలైంది	16219
##్రోజు	16220
పూడ్	16221
దర్శన్	16222
హీరోలు	16223
111	16224
సొరంగ	16225
చైన్	16226
##ళ్లిద్ద	16227
చూడవచ్చు	16228
##కున్నాయి	16229
ఆరోపణల	16230
##గాలంటే	16231
##మలత	16232
దోహద	16233
కార్యాలయాన్ని	16234
భూమిపై	16235
ఇబ్బందులకు	16236
##జెప్ప	16237
దక్కే	16238
టెక్నికల్	16239
##సిడెంట్లు	16240
##మ్‌లను	16241
వేడుకలను	16242
కురిపించారు	16243
నిందితుడిగా	16244
హాస్పిట	16245
##రవేగంగా	16246
##tha	16247
డ్రైవర్లు	16248
వనరులు	16249
చేసుకోవాల్సి	16250
స్నేహితుడు	16251
నెరవేర	16252
అటవీశాఖ	16253
ప్రదేశాల్లో	16254
తీసుకురావడానికి	16255
సచివాలయం	16256
దొరికే	16257
మాట్లాడేందుకు	16258
పోరులో	16259
పాలిటిక్స్	16260
ఇషాన్	16261
కమలాకర్	16262
దారితీసింది	16263
పునరుద్ధర	16264
మామూలు	16265
వర్గీకరణ	16266
కొన్నేళ్లుగా	16267
సంయుక్త	16268
##హౌస్	16269
రాష్ర్ట	16270
బెంగుళూరు	16271
సంభవి	16272
ఆల్కహాల్	16273
తక్కువే	16274
నాదెండ్ల	16275
మెక్సికో	16276
ఎకానమీ	16277
www	16278
అధినాయక	16279
అసౌకర్	16280
پوسٹ	16281
bre	16282
అందే	16283
ఆగ్	16284
ఇల్ల	16285
ఊపు	16286
చారిత	16287
జొన్న	16288
పంది	16289
పన్నె	16290
మంథ	16291
యంత్ర	16292
వస్తోందని	16293
శస్త్ర	16294
సవాళ్లు	16295
##నూర్	16296
##టూరు	16297
##టేశ్వర	16298
##క్రి	16299
##‌టి	16300
##‌మే	16301
##వద్దు	16302
##ెవరూ	16303
##డట	16304
##డ్రా	16305
##జూర్	16306
##చార్జి	16307
##ರೆ	16308
##ణుకు	16309
##tr	16310
##14	16311
##ଧ୍ୟ	16312
##ଲ୍	16313
##‌‌‌‌మెంట్	16314
నిత్య	16315
స్కాల	16316
##రాజన్	16317
కేఆర్	16318
పోతే	16319
వేతన	16320
వ్యో	16321
వైద్యా	16322
సాల్	16323
బాగో	16324
టీసీ	16325
తాండ	16326
సమాఖ్య	16327
ఉంటుందా	16328
తోడ్	16329
నిర్వహించడానికి	16330
బ్యాన్	16331
పాల్పడ్డ	16332
ఉద్యోగాలను	16333
##యర్స్	16334
చేపల	16335
చేపడు	16336
క్యాబినెట్	16337
రాజకీయాలను	16338
వెల్లడించిన	16339
దూబే	16340
ఆఫీసుకు	16341
##ార్డులు	16342
##చురల్	16343
లెవెల్	16344
పెరిగాయని	16345
ఇంటిపై	16346
చావు	16347
అతనిపై	16348
టికెట్లను	16349
ప్రైజ్	16350
పెళ్లిళ్లు	16351
వ్యవస్థకు	16352
[...]
