[UNK]	0
[CLS]	1
[SEP]	2
[PAD]	3
[MASK]	4
!	5
"	6
#	7
$	8
%	9
&	10
'	11
(	12
)	13
*	14
+	15
,	16
-	17
.	18
/	19
0	20
1	21
2	22
3	23
4	24
5	25
6	26
7	27
8	28
9	29
:	30
;	31
<	32
=	33
>	34
?	35
@	36
[	37
\	38
]	39
_	40
`	41
a	42
b	43
c	44
d	45
e	46
f	47
g	48
h	49
i	50
j	51
k	52
l	53
m	54
n	55
o	56
p	57
q	58
r	59
s	60
t	61
u	62
v	63
w	64
x	65
y	66
z	67
~	68
£	69
©	70
­	71
°	72
·	73
×	74
á	75
â	76
æ	77
đ	78
ơ	79
ư	80
ʼ	81
́	82
α	83
β	84
،	85
؛	86
؟	87
ء	88
آ	89
أ	90
ؤ	91
إ	92
ئ	93
ا	94
ب	95
ت	96
ث	97
ج	98
ح	99
خ	100
د	101
ذ	102
ر	103
ز	104
س	105
ش	106
ص	107
ض	108
ط	109
ظ	110
ع	111
غ	112
ف	113
ق	114
ل	115
م	116
ن	117
ه	118
و	119
ى	120
ي	121
ً	122
َ	123
ُ	124
ِ	125
ّ	126
ٰ	127
ٹ	128
پ	129
چ	130
ڈ	131
ڑ	132
ڕ	133
ژ	134
ک	135
گ	136
ڵ	137
ں	138
ھ	139
ہ	140
ۆ	141
ی	142
ێ	143
ے	144
۔	145
ە	146
ँ	147
ं	148
ः	149
अ	150
आ	151
इ	152
ई	153
उ	154
ऊ	155
ए	156
ऐ	157
ऑ	158
ओ	159
औ	160
क	161
ख	162
ग	163
घ	164
च	165
छ	166
ज	167
झ	168
ञ	169
ट	170
ठ	171
ड	172
ढ	173
ण	174
त	175
थ	176
द	177
ध	178
न	179
प	180
फ	181
ब	182
भ	183
म	184
य	185
र	186
ल	187
व	188
श	189
ष	190
स	191
ह	192
़	193
ा	194
ि	195
ी	196
ु	197
ू	198
ृ	199
े	200
ै	201
ॉ	202
ो	203
ौ	204
्	205
।	206
॥	207
०	208
२	209
४	210
ঃ	211
অ	212
আ	213
এ	214
ও	215
ক	216
গ	217
চ	218
জ	219
ট	220
ড	221
ত	222
দ	223
ধ	224
ন	225
প	226
ফ	227
ব	228
ভ	229
ম	230
য	231
র	232
ল	233
শ	234
স	235
হ	236
়	237
া	238
ি	239
ী	240
ু	241
ে	242
ৈ	243
ো	244
্	245
ৰ	246
ৱ	247
ଁ	248
ଂ	249
ଃ	250
ଅ	251
ଆ	252
ଇ	253
ଈ	254
ଉ	255
ଏ	256
ଓ	257
କ	258
ଖ	259
ଗ	260
ଘ	261
ଙ	262
ଚ	263
ଛ	264
ଜ	265
ଝ	266
ଞ	267
ଟ	268
ଠ	269
ଡ	270
ଢ	271
ଣ	272
ତ	273
ଥ	274
ଦ	275
ଧ	276
ନ	277
ପ	278
ଫ	279
ବ	280
ଭ	281
ମ	282
ଯ	283
ର	284
ଲ	285
ଳ	286
ଵ	287
ଶ	288
ଷ	289
ସ	290
ହ	291
଼	292
ା	293
ି	294
ୀ	295
ୁ	296
ୂ	297
ୃ	298
େ	299
ୈ	300
ୋ	301
ୌ	302
୍	303
ୟ	304
୦	305
୧	306
୨	307
୩	308
୪	309
୫	310
୬	311
୭	312
୮	313
୯	314
ୱ	315
அ	316
ஆ	317
இ	318
உ	319
ஊ	320
எ	321
ஏ	322
க	323
ங	324
ச	325
ஜ	326
ட	327
ண	328
த	329
ந	330
ன	331
ப	332
ம	333
ய	334
ர	335
ற	336
ல	337
ள	338
வ	339
ஸ	340
ா	341
ி	342
ீ	343
ு	344
ூ	345
ெ	346
ே	347
ை	348
ொ	349
ோ	350
்	351
ఁ	352
ం	353
ః	354
అ	355
ఆ	356
ఇ	357
ఈ	358
ఉ	359
ఊ	360
ఋ	361
ఎ	362
ఏ	363
ఐ	364
ఒ	365
ఓ	366
ఔ	367
క	368
ఖ	369
గ	370
ఘ	371
ఙ	372
చ	373
ఛ	374
జ	375
ఝ	376
ఞ	377
ట	378
ఠ	379
డ	380
ఢ	381
ణ	382
త	383
థ	384
ద	385
ధ	386
న	387
ప	388
ఫ	389
బ	390
భ	391
మ	392
య	393
ర	394
ఱ	395
ల	396
ళ	397
వ	398
శ	399
ష	400
స	401
హ	402
ఽ	403
ా	404
ి	405
ీ	406
ు	407
ూ	408
ృ	409
ౄ	410
ె	411
ే	412
ై	413
ొ	414
ో	415
ౌ	416
్	417
ౖ	418
౦	419
౧	420
౩	421
౪	422
౬	423
౹	424
ಂ	425
ಃ	426
ಅ	427
ಆ	428
ಇ	429
ಈ	430
ಉ	431
ಊ	432
ಎ	433
ಏ	434
ಐ	435
ಒ	436
ಓ	437
ಔ	438
ಕ	439
ಖ	440
ಗ	441
ಘ	442
ಚ	443
ಛ	444
ಜ	445
ಝ	446
ಞ	447
ಟ	448
ಠ	449
ಡ	450
ಢ	451
ಣ	452
ತ	453
ಥ	454
ದ	455
ಧ	456
ನ	457
ಪ	458
ಫ	459
ಬ	460
ಭ	461
ಮ	462
ಯ	463
ರ	464
ಲ	465
ಳ	466
ವ	467
ಶ	468
ಷ	469
ಸ	470
ಹ	471
ಾ	472
ಿ	473
ೀ	474
ು	475
ೂ	476
ೃ	477
ೆ	478
ೇ	479
ೈ	480
ೊ	481
ೋ	482
ೌ	483
್	484
ം	485
അ	486
ആ	487
ഇ	488
ഈ	489
എ	490
ഒ	491
ക	492
ഗ	493
ങ	494
ച	495
ജ	496
ട	497
ഡ	498
ണ	499
ത	500
ദ	501
ധ	502
ന	503
പ	504
ബ	505
ഭ	506
മ	507
യ	508
ര	509
റ	510
ല	511
ള	512
ഴ	513
വ	514
ശ	515
ഷ	516
സ	517
ാ	518
ി	519
ീ	520
ു	521
ൂ	522
ൃ	523
െ	524
േ	525
ൈ	526
ൊ	527
ോ	528
്	529
ൗ	530
ൻ	531
ർ	532
ൽ	533
ൾ	534
ả	535
ầ	536
ậ	537
ệ	538
ố	539
ớ	540
ờ	541
ở	542
ợ	543
ứ	544
‌	545
‍	546
‎	547
‏	548
‐	549
‒	550
•	551
‪	552
‫	553
‬	554
‭	555
′	556
⁄	557
⁠	558
⁪	559
⁫	560
⁬	561
⁭	562
⁯	563
€	564
₹	565
⃣	566
∙	567
≠	568
▪	569
►	570
◆	571
◉	572
●	573
★	574
☛	575
♥	576
♦	577
✳	578
❌	579
➡	580
➦	581
⦁	582
️	583
🇪	584
🇬	585
🇮	586
🇳	587
🌹	588
🏼	589
👇	590
👉	591
👊	592
👋	593
👌	594
💐	595
💚	596
💥	597
💪	598
🔥	599
🔴	600
🔸	601
🔹	602
😂	603
😉	604
😊	605
😜	606
😞	607
😠	608
😡	609
😥	610
🙂	611
🙏	612
🚩	613
🤜	614
🤭	615
##స	616
##్	617
##త	618
##ు	619
##ం	620
##డ	621
##ట	622
##ో	623
##କ	624
##୍	625
##‌	626
##ଚ	627
##ୁ	628
##ଏ	629
##ల	630
##హ	631
##ీ	632
##న	633
##ప	634
##ై	635
##ా	636
##ర	637
##ే	638
##ె	639
##గ	640
##య	641
##e	642
##m	643
##l	644
##శ	645
##క	646
##మ	647
##థ	648
##వ	649
##ధ	650
##భ	651
##జ	652
##బ	653
##ద	654
##ର	655
##ମ	656
##ଭ	657
##-	658
##ి	659
##ౌ	660
##చ	661
##ಬ	662
##್	663
##ರ	664
##ು	665
##ା	666
##ସ	667
##ణ	668
##ب	669
##ل	670
##ا	671
##غ	672
##ష	673
##ూ	674
##w	675
##େ	676
##ଇ	677
##ଛ	678
##ି	679
##ళ	680
##4	681
##3	682
##n	683
##a	684
##t	685
##6	686
##9	687
##ू	688
##र	689
##ा	690
##h	691
##r	692
##d	693
##j	694
##ی	695
##ڈ	696
##ِ	697
##د	698
##ر	699
##ఫ	700
##ئ	701
##ز	702
##5	703
##8	704
##i	705
##s	706
##ొ	707
##क	708
##ु	709
##ತ	710
##ಿ	711
##ಭ	712
##ಟ	713
##ನ	714
##ೆ	715
##ృ	716
##y	717
##o	718
##ଳ	719
##ఎ	720
##u	721
##x	722
##ಮ	723
##ೂ	724
##س	725
##ٹ	726
##و	727
##ج	728
##ن	729
##ं	730
##स	731
##्	732
##ఘ	733
##ട	734
##ി	735
##ക	736
##്	737
##ു	738
##റ	739
##പ	740
##ോ	741
##െ	742
##b	743
##1	744
##ಂ	745
##ी	746
##ब	747
##c	748
##ಾ	749
##ವ	750
##ఖ	751
##g	752
##z	753
##p	754
##v	755
##ఙ	756
##ھ	757
##ع	758
##ఒ	759
##ଷ	760
##ୀ	761
##ಲ	762
##ர	763
##ு	764
##ந	765
##்	766
##த	767
##ி	768
##ய	769
##ଉ	770
##ो	771
##द	772
##ट	773
##ଶ	774
##ନ	775
##ೊ	776
##ಗ	777
##ೇ	778
##ಕ	779
##ಪ	780
##୪	781
##ک	782
##ت	783
##ے	784
##ಷ	785
##q	786
##k	787
##ఠ	788
##ध	789
##ई	790
##ف	791
##ఐ	792
##ಜ	793
##ಧ	794
##ಸ	795
##ଲ	796
##ఛ	797
##ڑ	798
##ൻ	799
##౦	800
##ہ	801
##م	802
##ں	803
##ಡ	804
##ೋ	805
##ఝ	806
##f	807
##ಚ	808
##7	809
##0	810
##ಶ	811
##ದ	812
##୧	813
##ଜ	814
##ఈ	815
##त	816
##म	817
##چ	818
##ହ	819
##ش	820
##ఆ	821
##ଦ	822
##ह	823
##ெ	824
##ல	825
##ா	826
##ள	827
##ग	828
##ि	829
##ಯ	830
##न	831
##ୌ	832
##ଣ	833
##ಣ	834
##ح	835
##ث	836
##ಛ	837
##ବ	838
##ଧ	839
##ତ	840
##ଡ	841
##଼	842
##‍	843
##/	844
##ೈ	845
##ಎ	846
##ख	847
##ط	848
##ष	849
##ल	850
##फ	851
##थ	852
##ड	853
##़	854
##ୋ	855
##ଆ	856
##ற	857
##ம	858
##ृ	859
##అ	860
##.	861
##ೀ	862
##ଫ	863
##०	864
##२	865
##४	866
##ଖ	867
##ে	868
##প	869
##ি	870
##ক	871
##ఏ	872
##ଟ	873
##ୟ	874
##ఢ	875
##ఞ	876
##ু	877
##্	878
##ত	879
##য	880
##ো	881
##দ	882
##ধ	883
##া	884
##ذ	885
##2	886
##े	887
##ପ	888
##آ	889
##ః	890
##ಆ	891
##छ	892
##य	893
##_	894
##ଯ	895
##ज	896
##ല	897
##ാ	898
##ص	899
##୩	900
##گ	901
##ؤ	902
##ಖ	903
##ق	904
##ଠ	905
##ಳ	906
##ఓ	907
##ए	908
##च	909
##प	910
##ಹ	911
##व	912
##:	913
##$	914
##अ	915
##ଁ	916
##ै	917
##پ	918
##ଞ	919
##َ	920
##ژ	921
##ఽ	922
##ఉ	923
##ఱ	924
##ଗ	925
##श	926
##ೃ	927
##ୃ	928
##ଓ	929
##خ	930
##ଙ	931
###	932
##ଥ	933
##ୱ	934
##வ	935
##ட	936
##ಫ	937
##ض	938
##ম	939
##ন	940
##ড	941
##র	942
##ಐ	943
##ʼ	944
##ظ	945
##ُ	946
##⃣	947
##ٰ	948
##भ	949
##ଢ	950
##ఇ	951
##স	952
##"	953
##)	954
##ୂ	955
##ಇ	956
##യ	957
##മ	958
##ଘ	959
##ଂ	960
##ଅ	961
##ট	962
##ധ	963
##ന	964
##ও	965
##ố	966
##ൗ	967
##ണ	968
##ढ	969
##ಥ	970
##ệ	971
##୦	972
##💪	973
##🔥	974
##?	975
##േ	976
##ഡ	977
##ଝ	978
##ப	979
##ಢ	980
##চ	981
##ण	982
##ச	983
##>	984
##ৰ	985
##ব	986
##,	987
##౬	988
##ೌ	989
##ఋ	990
##❌	991
##⁬	992
##୨	993
##୯	994
##इ	995
##ء	996
##ە	997
##ڵ	998
##়	999
##ൂ	1000
##ത	1001
##ଵ	1002
##ഷ	1003
##ൾ	1004
##ொ	1005
##୬	1006
##ം	1007
##ങ	1008
##ര	1009
##ৱ	1010
##ಠ	1011
##ौ	1012
##୫	1013
##घ	1014
##â	1015
##শ	1016
##୮	1017
##'	1018
##ভ	1019
##ठ	1020
##க	1021
##ங	1022
##ை	1023
##ڕ	1024
##୭	1025
##ঃ	1026
##🇳	1027
##ള	1028
##ॉ	1029
##आ	1030
##ୈ	1031
##ീ	1032
##ଈ	1033
##@	1034
##`	1035
##;	1036
##ল	1037
##ư	1038
##ờ	1039
##ಘ	1040
##ಞ	1041
##🇬	1042
##🌹	1043
##ಅ	1044
##!	1045
##ي	1046
##ூ	1047
##ञ	1048
##۔	1049
##ശ	1050
##ả	1051
##😂	1052
##౹	1053
##ী	1054
##ఁ	1055
##ீ	1056
##ಉ	1057
##ஜ	1058
##ே	1059
##ன	1060
##ಒ	1061
##ജ	1062
##ഴ	1063
##ண	1064
##സ	1065
##വ	1066
##ứ	1067
##গ	1068
##ओ	1069
##🇮	1070
##ൊ	1071
##ଃ	1072
##ợ	1073
##ه	1074
##ൽ	1075
##জ	1076
##ৈ	1077
##ۆ	1078
##ൈ	1079
##ർ	1080
##ầ	1081
##ः	1082
##ച	1083
##ớ	1084
##झ	1085
##🙂	1086
##😊	1087
##उ	1088
##ோ	1089
##ఔ	1090
##′	1091
##হ	1092
##+	1093
##ّ	1094
##ফ	1095
##ً	1096
##ൃ	1097
##⁠	1098
##👌	1099
##🏼	1100
##💚	1101
##ơ	1102
##ౄ	1103
##­	1104
##ى	1105
##౩	1106
##ಃ	1107
##*	1108
##‌‌	1109
##ార	1110
##్ర	1111
##న్	1112
##ర్	1113
##ని	1114
##లు	1115
##స్	1116
##ంద	1117
##లో	1118
##ల్	1119
##‌‌‌‌	1120
##ారు	1121
##్య	1122
##కు	1123
##న్న	1124
##ట్	1125
##ంచ	1126
##క్	1127
ప్ర	1128
##ంది	1129
##గా	1130
##తు	1131
చే	1132
##ాల	1133
##రి	1134
##ను	1135
##ంట	1136
##ండ	1137
##ిన	1138
##ించ	1139
##త్	1140
##ప్	1141
##డు	1142
##ాయ	1143
##రు	1144
##ిక	1145
##ంత	1146
వి	1147
##లి	1148
##ార్	1149
ని	1150
##డి	1151
##టు	1152
##‌‌‌‌‌‌‌‌	1153
స్	1154
##ంగ	1155
##కి	1156
##సు	1157
##ంగా	1158
రా	1159
##ంలో	1160
##ద్	1161
##ప్ప	1162
##న్నారు	1163
##డ్	1164
##లా	1165
##చ్	1166
##మా	1167
##తి	1168
##స్తు	1169
లో	1170
కా	1171
##టి	1172
..	1173
##ష్	1174
##వా	1175
##టీ	1176
##స్త	1177
ను	1178
##న్ని	1179
##్యా	1180
##సి	1181
##చ్చ	1182
##యా	1183
##గు	1184
తె	1185
కు	1186
చె	1187
##దు	1188
##నే	1189
##‌‌‌	1190
##డా	1191
##ది	1192
##ాయి	1193
కో	1194
##మ్	1195
##ళ్	1196
##ందు	1197
##క్ష	1198
##తో	1199
##పు	1200
##ాలు	1201
##ేశ	1202
##ంచి	1203
పో	1204
##పీ	1205
##‌‌‌‌‌‌‌	1206
వె	1207
కొ	1208
కే	1209
##ారం	1210
పె	1211
మా	1212
##రా	1213
##ల్లో	1214
##ిత	1215
##వు	1216
కూ	1217
ము	1218
##నికి	1219
##లీ	1220
##సీ	1221
‌‌‌‌‌‌‌‌‌	1222
##ిల్	1223
##మి	1224
‌‌‌‌‌‌‌‌‌‌‌‌‌‌‌‌	1225
##ింది	1226
సి	1227
పా	1228
##ైన	1229
##లకు	1230
##్రి	1231
సం	1232
లే	1233
##క్క	1234
##మె	1235
తీ	1236
##ట్ట	1237
##్వ	1238
రె	1239
##ంగ్	1240
##ష్ట	1241
##ంతో	1242
##రో	1243
##లను	1244
##ారి	1245
##ామ	1246
వే	1247
##బ్	1248
##పై	1249
##ెస్	1250
##ద్ద	1251
నుంచి	1252
నే	1253
##బా	1254
##డం	1255
కూడా	1256
##ించారు	1257
వా	1258
చేశ	1259
సీ	1260
అధ	1261
##కో	1262
##కా	1263
ఉన్న	1264
##త్త	1265
గు	1266
##పో	1267
##ట్లు	1268
తో	1269
నిర్	1270
అయ	1271
బీ	1272
##ాన	1273
##ంద్ర	1274
చేయ	1275
##వి	1276
##షన్	1277
##స్తున్న	1278
##గ్	1279
##పా	1280
##యం	1281
సమ	1282
##వం	1283
గా	1284
పార్	1285
ప్రభ	1286
##సిన	1287
##ికి	1288
##ప్పు	1289
##బు	1290
##సుకు	1291
##ల్ల	1292
తెలి	1293
##నీ	1294
##జు	1295
##త్ర	1296
##టర్	1297
రో	1298
##ంట్	1299
##ాలని	1300
##ఆర్	1301
కి	1302
వచ్చ	1303
##ండి	1304
##తున్న	1305
వ్య	1306
చెప్ప	1307
##ందని	1308
##్రా	1309
##ుత్	1310
##గి	1311
##్రీ	1312
భార	1313
##ంటి	1314
పరి	1315
##ంటు	1316
##వే	1317
రూ	1318
##జ్	1319
##డ్డి	1320
##రీ	1321
##లే	1322
చేశారు	1323
##నా	1324
పై	1325
మీ	1326
##పి	1327
##ండ్	1328
##జీ	1329
##తం	1330
వై	1331
##యో	1332
పార్టీ	1333
అధిక	1334
##ూర్	1335
దీ	1336
ప్రభుత్	1337
దా	1338
##సం	1339
సా	1340
పే	1341
##ెట్	1342
అవ	1343
బా	1344
##ందుకు	1345
కార	1346
##కొ	1347
##ంటే	1348
ఆయ	1349
అని	1350
##ళ్ల	1351
##ంధ	1352
20	1353
నా	1354
##డీ	1355
##ద్య	1356
ఒక	1357
##ఎస్	1358
##స్థ	1359
##మ్మ	1360
##నం	1361
##ట్టు	1362
తన	1363
ప్రా	1364
##రం	1365
ఆయన	1366
ఎన్ని	1367
##ించిన	1368
##వర్	1369
రాష్ట	1370
వీ	1371
##దా	1372
##ారా	1373
##జా	1374
##ులు	1375
మొ	1376
##ారని	1377
##త్య	1378
##ాలి	1379
##ంబ	1380
ఎన్నిక	1381
అభ	1382
##ెక్	1383
##రే	1384
##సే	1385
చేసి	1386
శా	1387
టీ	1388
##ంప	1389
##ధి	1390
చూ	1391
వర	1392
##యి	1393
తెలిప	1394
##ంత్రి	1395
ఉండ	1396
##రుగు	1397
##ితే	1398
##్రెస్	1399
##వీ	1400
##జే	1401
##్యూ	1402
సె	1403
మె	1404
స్థ	1405
రాష్ట్ర	1406
చేసిన	1407
##హి	1408
జరి	1409
##ుల	1410
మే	1411
##దే	1412
రి	1413
##ధ్య	1414
##వాత	1415
స్ట	1416
నె	1417
డి	1418
కాంగ	1419
##క్కు	1420
##ండా	1421
##లంగా	1422
##ఖ్య	1423
మంది	1424
కాంగ్రెస్	1425
ప్రక	1426
హై	1427
##ాడు	1428
##ాలను	1429
రెడ్డి	1430
పోలీ	1431
జిల్	1432
##దేశ	1433
రాజ	1434
##రణ	1435
##ఫ్	1436
రోజు	1437
##ర్శ	1438
##యంలో	1439
##య్య	1440
మార్	1441
##బాద్	1442
##మైన	1443
##యే	1444
##ఎం	1445
##స్తున్నారు	1446
చి	1447
##సా	1448
##తా	1449
##క్ర	1450
##చి	1451
తా	1452
కోసం	1453
##మే	1454
##కే	1455
##‌లో	1456
మూ	1457
వర్	1458
##దీ	1459
జిల్లా	1460
##న్స్	1461
##ప్పుడు	1462
##ర్థ	1463
మో	1464
రై	1465
రెండ	1466
చేస్త	1467
సమా	1468
సు	1469
##తీ	1470
విష	1471
తెలంగా	1472
తెలంగాణ	1473
##కోవ	1474
##వారం	1475
##రించ	1476
##సులు	1477
అయితే	1478
రే	1479
##దని	1480
##ించి	1481
##లుగు	1482
చెప్పారు	1483
ది	1484
పు	1485
##ల్లి	1486
##ట్ల	1487
తి	1488
అను	1489
##కీ	1490
భా	1491
##కర్	1492
కార్య	1493
ప్రభుత్వం	1494
ఇచ్చ	1495
##శ్	1496
పొ	1497
తెలిపారు	1498
##ర్చ	1499
##డంతో	1500
తర్	1501
##ప్ర	1502
##ాలా	1503
లు	1504
తర్వాత	1505
##కుండా	1506
దేశ	1507
చంద్ర	1508
ప్రజ	1509
తీసుకు	1510
##ట్టి	1511
సిని	1512
##ంటూ	1513
బీజే	1514
##ించింది	1515
యా	1516
అనే	1517
జరిగ	1518
##వహ	1519
సో	1520
అధికారు	1521
బీజేపీ	1522
##మో	1523
##టిక	1524
తే	1525
వ్యక్	1526
ప్రతి	1527
కలి	1528
##తున్నారు	1529
లా	1530
##ము	1531
మరో	1532
పాటు	1533
##ామని	1534
మంత్రి	1535
ఉంది	1536
వ్యా	1537
ఏర్	1538
##ర్య	1539
##ుకు	1540
గ్ర	1541
##స్ట	1542
సినిమా	1543
కేంద్ర	1544
##వ్	1545
##జి	1546
అన్నారు	1547
లక్ష	1548
##బంధ	1549
ఆరో	1550
తమ	1551
##మ్మె	1552
##డే	1553
##ద్ధ	1554
##తులు	1555
శ్రీ	1556
వారి	1557
##డానికి	1558
##ాన్	1559
జీ	1560
##తుంది	1561
##టన	1562
ఎమ్మె	1563
మి	1564
ఎమ్మెల్	1565
##డ్డ	1566
క్ర	1567
నేత	1568
ఉంటు	1569
స్ప	1570
చాలా	1571
బె	1572
సీఎం	1573
##ాని	1574
##లం	1575
##ట్లా	1576
##ర్టు	1577
##కాశ	1578
జా	1579
##క్కువ	1580
##ోంది	1581
##బ్బ	1582
అంత	1583
##వర	1584
మాత్ర	1585
##ళ్లు	1586
ప్	1587
##న్‌	1588
రెండు	1589
##ించే	1590
##ందిన	1591
విజ	1592
##టో	1593
పి	1594
##ణా	1595
##రాబాద్	1596
పని	1597
అభి	1598
##పాటు	1599
##కులు	1600
తీసు	1601
##బాబు	1602
అస	1603
##దల	1604
##కూ	1605
సర్	1606
##పోయ	1607
సభ	1608
ఆర్	1609
##త్స	1610
మాట్లా	1611
ఎం	1612
ఆమె	1613
నెల	1614
##గ్ర	1615
##లోని	1616
హైద	1617
దీంతో	1618
గత	1619
ప్రధ	1620
##వరి	1621
##గొ	1622
జగ	1623
##ెన్	1624
చేసుకు	1625
వెళ్	1626
అందు	1627
అవకాశ	1628
##ాలకు	1629
పూర్	1630
##హా	1631
##ీల	1632
##వ్వ	1633
ముఖ్య	1634
""	1635
##గే	1636
##మార్	1637
బి	1638
మధ్య	1639
ఇప్ప	1640
వరకు	1641
మరి	1642
##లతో	1643
నీ	1644
హైదరాబాద్	1645
కానీ	1646
##మీ	1647
చంద్రబాబు	1648
ఎలా	1649
చేస్తున్న	1650
##గ్గ	1651
సూ	1652
##తూ	1653
తొ	1654
చెందిన	1655
వార	1656
కేసు	1657
ప్రాంత	1658
10	1659
ఎమ్మెల్యే	1660
‌‌‌‌	1661
##వేశ	1662
##క్కడ	1663
పోలీసులు	1664
నాయ	1665
చేసింది	1666
##ర్లు	1667
##తోంది	1668
##సారి	1669
కొత్త	1670
##శా	1671
##చారం	1672
ఇది	1673
సంబంధ	1674
##ెం	1675
గుర్	1676
##మెంట్	1677
బీఆర్	1678
##ర్కొ	1679
తెలు	1680
##స్తుంది	1681
బ్యా	1682
కార్	1683
##స్ట్	1684
##చార	1685
యూ	1686
జన	1687
##ందర్	1688
అధికారులు	1689
##గం	1690
నిర్వహ	1691
తర	1692
202	1693
పాల్	1694
క్	1695
##స్య	1696
##స్తే	1697
గె	1698
నిర్ణ	1699
ఎన్నికల	1700
ద్వ	1701
##ంపు	1702
##స్తోంది	1703
##బీ	1704
మహి	1705
##ెంట్	1706
సమయంలో	1707
##రించి	1708
##ేషన్	1709
యు	1710
కల	1711
భారీ	1712
కాల	1713
##ాయని	1714
##ినా	1715
##ెడ్డి	1716
పెద్ద	1717
##ూరు	1718
...	1719
లేదు	1720
##త్తు	1721
గంట	1722
కారణ	1723
##గర్	1724
మహిళ	1725
ఉద్య	1726
చేసే	1727
అమ	1728
అన	1729
అలా	1730
ఎక్కువ	1731
##ందించ	1732
భూ	1733
##ారంభ	1734
##ణి	1735
‌‌	1736
హా	1737
ప్రారంభ	1738
##డియా	1739
పెట్ట	1740
కని	1741
శి	1742
##ర్యా	1743
అభ్య	1744
##ానికి	1745
##ుడు	1746
##చే	1747
##హ్	1748
##షి	1749
ఫో	1750
##ైనా	1751
ముందు	1752
ప్రస్తు	1753
‌‌‌‌‌‌‌‌	1754
##క్స్	1755
##ందే	1756
సై	1757
##ేక	1758
##తే	1759
కేసీ	1760
ఇప్పుడు	1761
రాజకీ	1762
##ృష్	1763
డీ	1764
అత	1765
వల్ల	1766
మ్యా	1767
బో	1768
విద్య	1769
అవు	1770
##పించ	1771
కేసీఆర్	1772
##యోజ	1773
హె	1774
బీఆర్ఎస్	1775
##ాయం	1776
ఇవ్వ	1777
ఎస్	1778
ఇక	1779
##డిన	1780
##ంక	1781
కల్	1782
కుటు	1783
ఫి	1784
వారు	1785
అంద	1786
అర	1787
మీడియా	1788
జగన్	1789
ప్రభుత్వ	1790
కె	1791
##వన్	1792
##ఫీ	1793
ద్వారా	1794
ఒక్క	1795
విధ	1796
##ద్ర	1797
##ిల్లీ	1798
##ంలోని	1799
సాధ	1800
లోని	1801
పేర్కొ	1802
##ారీ	1803
చెబు	1804
ఇలా	1805
మన	1806
##00	1807
ఏర్పాటు	1808
##ర్మ	1809
కొన్ని	1810
ఏపీ	1811
##కాల	1812
##టా	1813
ప్రత్య	1814
కావ	1815
##తంగా	1816
##విత	1817
ప్రకట	1818
సమస్య	1819
##పే	1820
ప్రమా	1821
##స్థి	1822
##మని	1823
##ణ్	1824
అయ్య	1825
##తుల	1826
అధికార	1827
వచ్చిన	1828
##చ్చు	1829
జరుగు	1830
##క్రమ	1831
ఉంటుంది	1832
పలు	1833
అవకాశం	1834
##ంత్ర	1835
##ికెట్	1836
##ల్సి	1837
మహ	1838
తు	1839
బు	1840
పీ	1841
##శి	1842
పూర్తి	1843
ఉద్యో	1844
గో	1845
దే	1846
వెలుగు	1847
పోటీ	1848
##సీపీ	1849
రూప	1850
దీని	1851
లి	1852
బయ	1853
మాజీ	1854
శాఖ	1855
##రుకు	1856
##యర్	1857
##తీయ	1858
ప్రస్తుతం	1859
జరిగిన	1860
##ంజ	1861
వచ్చే	1862
షా	1863
##త్రి	1864
##లోకి	1865
పరిస్థి	1866
ఇండి	1867
##ందో	1868
##ెస్ట్	1869
వద్ద	1870
దు	1871
మొద	1872
##ార్థ	1873
##రగ	1874
19	1875
##దం	1876
పాల	1877
##ల్స్	1878
##టం	1879
ఆరోప	1880
ఉంట	1881
అధ్య	1882
అభ్యర్థ	1883
##వంత్	1884
సహ	1885
##ాల్లో	1886
చేస్తున్నారు	1887
##ాన్ని	1888
##కం	1889
కుటుంబ	1890
వర్ష	1891
##ాం	1892
##కపో	1893
ట్	1894
కొన	1895
సంస్థ	1896
##మంత్రి	1897
భారత్	1898
నో	1899
ఆధ	1900
ఎంపీ	1901
ఎదు	1902
##తర	1903
##వ్ర	1904
మొత్త	1905
మంచి	1906
మార	1907
మండ	1908
రేవంత్	1909
తీవ్ర	1910
##స్టు	1911
ట్ర	1912
హి	1913
##యత్	1914
విచార	1915
ఎన్నికల్లో	1916
విజయ	1917
##నించ	1918
పేరు	1919
##్యం	1920
##నర్	1921
ఉప	1922
##స్తూ	1923
##ెక్టర్	1924
చేప	1925
##ంబర్	1926
పాల్గొ	1927
భారత	1928
##టింగ్	1929
##డీపీ	1930
అన్ని	1931
##ంటర్	1932
201	1933
##డియో	1934
##గో	1935
క్యా	1936
##నాలు	1937
ఇప్పటిక	1938
##ల్‌	1939
స్థాన	1940
సమావేశ	1941
మూడు	1942
కమి	1943
పట్ట	1944
కుమార్	1945
##నున్న	1946
సందర్	1947
గ్రామ	1948
శు	1949
టీడీపీ	1950
నియోజ	1951
వెల్ల	1952
##ంటున్న	1953
ార	1954
ప్రయత్	1955
అం	1956
##యన్	1957
##తలు	1958
##బర్	1959
కలిసి	1960
కీల	1961
శాతం	1962
సే	1963
##నూ	1964
నమో	1965
తేదీ	1966
##ట్టుకు	1967
##లపై	1968
విడు	1969
##ణం	1970
నియోజక	1971
చర్య	1972
కోట్ల	1973
##త్తి	1974
##జర్	1975
##ిల్ల	1976
##దేశ్	1977
కొనసా	1978
ప్రత్యేక	1979
పరిశ	1980
గురించి	1981
##పంచ	1982
లేదని	1983
##షల్	1984
మ్యాచ్	1985
భాగ	1986
ధర	1987
చర్చ	1988
చో	1989
##భా	1990
వీడియో	1991
సందర్భ	1992
##హం	1993
మాత్రం	1994
##ద్ధి	1995
‌ను	1996
వేల	1997
ఉందని	1998
##రూ	1999
కర్	2000
విడుదల	2001
##ంగళ	2002
రాజకీయ	2003
వెళ్ల	2004
కీలక	2005
ప్రశ్	2006
కంప	2007
తప్ప	2008
##లేదు	2009
పవన్	2010
##బ్లీ	2011
##తున్నాయి	2012
##ైన్	2013
వైసీపీ	2014
##పూర్	2015
##లలో	2016
ఉన్నారు	2017
లను	2018
రు	2019
##కర	2020
ప్రధాన	2021
15	2022
అధ్యక్ష	2023
నియోజకవర్	2024
విచారణ	2025
ఉన్నాయి	2026
##డ్డు	2027
హో	2028
##మాండ్	2029
##పర్	2030
##వడం	2031
వెల్లడ	2032
##మర్శ	2033
##్రో	2034
న్	2035
ప్రభా	2036
పూ	2037
##హు	2038
లీ	2039
ఢిల్లీ	2040
దూ	2041
##పె	2042
##యోగ	2043
అన్న	2044
మాత్రమే	2045
##ష్టం	2046
##సింది	2047
జూ	2048
వ్యక్తం	2049
విషయం	2050
పద	2051
##దన	2052
##దర్శ	2053
బయట	2054
ఎన్	2055
ఘటన	2056
##రించారు	2057
##ైంది	2058
అర్	2059
జో	2060
##్వర	2061
అవస	2062
అసెం	2063
అప్ప	2064
ఉద	2065
##ినీ	2066
అసెంబ్లీ	2067
##వృ	2068
వారికి	2069
##కె	2070
##వై	2071
##కుల	2072
##ంటారు	2073
##ద్దు	2074
ఉండే	2075
##ాక్	2076
సభ్య	2077
తాజా	2078
లక్షల	2079
##ానం	2080
చేయాలని	2081
##స్తారు	2082
అమ్మ	2083
వంటి	2084
##క్షన్	2085
సమాచారం	2086
12	2087
ఉత్త	2088
ముఖ్యమంత్రి	2089
##వల	2090
##లింగ్	2091
సూచ	2092
దర్శ	2093
##వరణ	2094
ఇప్పటికే	2095
నుండి	2096
##బో	2097
చేసు	2098
యువ	2099
పోలీసు	2100
##గిన	2101
పడు	2102
##్రే	2103
ప్రపంచ	2104
##రల్	2105
##రారు	2106
##ారెడ్డి	2107
విమర్శ	2108
వాటి	2109
మాట్లాడు	2110
ప్రజలు	2111
##కోర్టు	2112
డై	2113
హీ	2114
##ెనీ	2115
మీద	2116
మృ	2117
##దిక	2118
##రిగి	2119
ప్రధాని	2120
తిరు	2121
వ్యక్తి	2122
వార్	2123
అదే	2124
పను	2125
కోర్టు	2126
నాలు	2127
##సర్	2128
కంపెనీ	2129
రాష్ట్రంలో	2130
ఇండియా	2131
##నున్నారు	2132
లేదా	2133
సంఘ	2134
సందర్భంగా	2135
తాను	2136
ఆదేశ	2137
వెంట	2138
‌కు	2139
చిన్న	2140
తెలుగు	2141
##గ్గు	2142
##టే	2143
##డాది	2144
రంగ	2145
తరు	2146
##టీఆర్	2147
ఎలాంటి	2148
వ్యవ	2149
##ంటున్నారు	2150
కింద	2151
స్వా	2152
##టె	2153
చిత	2154
##వో	2155
##నల్	2156
మోదీ	2157
మొత్తం	2158
అత్య	2159
తొలి	2160
ప్రకారం	2161
జై	2162
ప్రయా	2163
ఆది	2164
న్యూ	2165
విని	2166
##బ్బంది	2167
చేయడం	2168
నగ	2169
అమె	2170
ఆల	2171
##యు	2172
##తుందని	2173
నిర్మా	2174
##త్మ	2175
పిల్ల	2176
##పడ్డ	2177
అంటూ	2178
##ెల్	2179
##ంతరం	2180
##ినే	2181
సిద్ధ	2182
##కంగా	2183
30	2184
ఇతర	2185
ప్లా	2186
ఇం	2187
అభివృ	2188
సోషల్	2189
న్య	2190
కాదు	2191
సరి	2192
ప్రే	2193
ఇద్ద	2194
##జన్	2195
ఆరోగ	2196
నేతలు	2197
##నుంది	2198
ఆర్థ	2199
టై	2200
విద్యార్థ	2201
దగ్గ	2202
రామ	2203
##టక	2204
చర్యలు	2205
##ృష్ణ	2206
11	2207
రైతు	2208
##క్‌	2209
##ానని	2210
హీరో	2211
రావు	2212
##వత్స	2213
అక్కడ	2214
డబ్	2215
##య్	2216
ారు	2217
గెలి	2218
##శ్వ	2219
ఆర్థిక	2220
ంచ	2221
సంవత్స	2222
##క్తి	2223
##జెక్	2224
##ించుకు	2225
##స్‌	2226
అంటే	2227
చేపట్ట	2228
ఇందు	2229
ఇదే	2230
##ట్‌	2231
జరగ	2232
##ల్సిన	2233
##ించు	2234
అది	2235
విక	2236
కోట్లు	2237
##ంధీ	2238
##తారు	2239
ఆఫీ	2240
ల్	2241
##ించడం	2242
##తాయి	2243
దాని	2244
##టమి	2245
అలాగే	2246
పర్య	2247
అమెరి	2248
##వులు	2249
##ళన	2250
##స్సు	2251
##వడంతో	2252
##ేశారు	2253
##పల్లి	2254
##డుగు	2255
క్రమ	2256
గుర్త	2257
పరుగు	2258
నిలి	2259
ఇన్	2260
కౌ	2261
##ప్తంగా	2262
##సె	2263
రోజుల	2264
##కున్న	2265
పేర్కొన్నారు	2266
##ించాలని	2267
##ాము	2268
##్యంలో	2269
##ంలోకి	2270
##ల్డ్	2271
అందించ	2272
##ప్రదేశ్	2273
వెంక	2274
ఇచ్చిన	2275
వెళ్లి	2276
##లుగా	2277
అయిన	2278
గొ	2279
##యాన్ని	2280
డిమాండ్	2281
##కోవడం	2282
బాల	2283
తాజాగా	2284
ప్రాజెక్	2285
తెలియ	2286
##చు	2287
స్వ	2288
##నించారు	2289
తెలిపింది	2290
చెబుతున్నారు	2291
దాదా	2292
సొ	2293
ఏడాది	2294
##టికీ	2295
##స్వా	2296
నేప	2297
వచ్చి	2298
##లర్	2299
ఫ్యా	2300
##న్సి	2301
మేర	2302
అమలు	2303
దాదాపు	2304
డె	2305
సంబంధించిన	2306
ట్రా	2307
కార్యక్రమ	2308
##ష్క	2309
భక్	2310
పడ	2311
గతంలో	2312
పెంచ	2313
పం	2314
పరిస్థితి	2315
తగ్గ	2316
ంద	2317
లె	2318
పడి	2319
##యాలు	2320
##లై	2321
చేరుకు	2322
ఇటీ	2323
గాంధీ	2324
గౌ	2325
‌లో	2326
##ూడ	2327
##ంతి	2328
##సభ	2329
లకు	2330
టి	2331
##ల్లు	2332
##ందోళన	2333
##రీక్ష	2334
బ్యాం	2335
డబ్బు	2336
అక్క	2337
గంటల	2338
మాట్లాడుతూ	2339
##పడు	2340
స్థాని	2341
హామ	2342
అమెరికా	2343
భాగంగా	2344
స్టార్	2345
వ్యవహ	2346
పెరుగు	2347
మూవీ	2348
##దారు	2349
##ంతా	2350
##ేశ్	2351
అనేక	2352
ఫలి	2353
##స్ప	2354
నేపథ	2355
కారణంగా	2356
కనిపి	2357
అభివృద్ధి	2358
వైఎస్	2359
నమోదు	2360
రీ	2361
ఆఫ్	2362
అనంతరం	2363
##కుడు	2364
25	2365
##లిక	2366
##డర్	2367
ప్రజా	2368
వెంటనే	2369
జరిగింది	2370
##క్ష్	2371
##కోవాలని	2372
మళ్	2373
##పక్ష	2374
కొంత	2375
పథ	2376
##సన	2377
##రంగా	2378
విషయంలో	2379
నిర్ణయం	2380
##తిక	2381
నిర్మ	2382
దగ్గర	2383
చీ	2384
సమీ	2385
నేను	2386
వ్యాఖ్య	2387
లేకుండా	2388
డే	2389
##ార్డు	2390
స్థాయి	2391
మాట్లాడ	2392
అంచ	2393
##ద్ది	2394
లేద	2395
టా	2396
ఫోన్	2397
14	2398
##యూ	2399
##వాల	2400
జారీ	2401
##ంధ్ర	2402
చై	2403
పరీక్ష	2404
అంశ	2405
ఇందులో	2406
సర	2407
దాడి	2408
##డని	2409
##్యాల	2410
తరువాత	2411
##రోజు	2412
##లోనే	2413
వచ్చింది	2414
##రెడ్డి	2415
రూపాయ	2416
##న్నా	2417
వస్తు	2418
పాత్ర	2419
కేసులో	2420
##లుపు	2421
పనిచే	2422
నేపథ్యంలో	2423
సింగ్	2424
##క్షణ	2425
కొంద	2426
డ్ర	2427
ఆందోళన	2428
రాహు	2429
##స్తామని	2430
##గాలు	2431
వివా	2432
కేట	2433
ఆశ	2434
ఎక్కువగా	2435
ఫొ	2436
చూడ	2437
##ాలతో	2438
##స్క	2439
మై	2440
##ర్యాదు	2441
కళ	2442
##ెన్స్	2443
దొ	2444
జీవిత	2445
##నని	2446
ప్రి	2447
##క్షి	2448
##లువ	2449
##సేన	2450
కాగా	2451
ఫిర్యాదు	2452
ప్రచారం	2453
రిక	2454
తెలిసి	2455
ఫొటో	2456
యూని	2457
ఇచ్చారు	2458
##కొని	2459
నియ	2460
##ళ్లి	2461
ఉదయం	2462
##ర్చు	2463
చిత్ర	2464
గుర్తు	2465
తయ	2466
చట్ట	2467
##టర్లు	2468
పెరి	2469
##ాయ్	2470
డైర	2471
జిల్లాలో	2472
హామీ	2473
పైన	2474
##బాటు	2475
##ులకు	2476
##‌కు	2477
మొదటి	2478
##పతి	2479
##ండు	2480
18	2481
ఎంత	2482
డాక్	2483
సౌ	2484
స్టేషన్	2485
50	2486
మార్పు	2487
##శాఖ	2488
గ్రా	2489
మద్ద	2490
##నాల	2491
బాధ్య	2492
కథ	2493
ఇంట	2494
బంగ	2495
##పడి	2496
##డో	2497
హాజ	2498
##రాలు	2499
##కెట్	2500
##నియర్	2501
వైద్య	2502
వివ	2503
##న్నీ	2504
##చర్	2505
##య్యారు	2506
నాలుగు	2507
త్వర	2508
తల	2509
అంది	2510
బల	2511
##రికి	2512
ఖా	2513
##టర్ల	2514
నిర్ణయ	2515
క్రమంలో	2516
శ్రీని	2517
##పడ్డారు	2518
న్యాయ	2519
సాయ	2520
ఆరోపణ	2521
వివర	2522
సంఖ్య	2523
పార్ల	2524
మీడియాలో	2525
పోయ	2526
తల్లి	2527
మరింత	2528
శివ	2529
రాహుల్	2530
రెండో	2531
జట్టు	2532
పంప	2533
కాలే	2534
శ్రీనివా	2535
చేస్తూ	2536
##రువు	2537
ఇంటి	2538
##ెస్టు	2539
ట్వ	2540
లై	2541
వ్యాప	2542
పాల్గొన్నారు	2543
అందుకే	2544
##తిరే	2545
ఆంధ్ర	2546
##నుగో	2547
తెలుస్తోంది	2548
##ధిక	2549
##ీర్	2550
##నలు	2551
ఇప్పటి	2552
ఉంటే	2553
##పేట	2554
24	2555
##యల్	2556
##కొచ్చ	2557
వాతా	2558
##గాల	2559
##ండగా	2560
వ్యతిరే	2561
గి	2562
కొనసాగు	2563
17	2564
జనసేన	2565
##న్ను	2566
ప్రభుత్వా	2567
మేరకు	2568
##స్తా	2569
మళ్లీ	2570
కంటే	2571
ాల	2572
తెలంగాణలో	2573
ఇలాంటి	2574
ఎందుకు	2575
##మాన్	2576
వాతావరణ	2577
##కాలు	2578
ప్రజల	2579
ఏం	2580
##భి	2581
వస్తున్న	2582
##an	2583
##పోయిన	2584
అభ్యర్థి	2585
హైకోర్టు	2586
##రంలో	2587
##ేందుకు	2588
వాహ	2589
కేటీఆర్	2590
ఆరోపించారు	2591
మరణ	2592
##టికి	2593
తీర్	2594
పైగా	2595
కలెక్టర్	2596
13	2597
##షనల్	2598
చు	2599
##మారు	2600
##రిక	2601
న్న	2602
ంది	2603
నాయకులు	2604
రిలీ	2605
తిరిగి	2606
##టంతో	2607
##ఫి	2608
విమా	2609
##సై	2610
##వాడ	2611
బిల్	2612
అరెస్ట్	2613
##మల	2614
సిబ్బంది	2615
ఐదు	2616
ప్రకటన	2617
భర్	2618
తెలిసిందే	2619
##ోర్	2620
జాతీయ	2621
అధ్యక్షుడు	2622
16	2623
రాత్రి	2624
##వైపు	2625
##ణాలు	2626
చా	2627
మద్దతు	2628
##గానే	2629
##విధ	2630
2024	2631
##ారణ	2632
ప్రాజెక్టు	2633
ఇటీవల	2634
విన	2635
200	2636
సోమ	2637
ప్రొ	2638
శని	2639
##ట్స్	2640
సంగ	2641
##రాల	2642
ఆధార	2643
##వ్యా	2644
కర్ణా	2645
పంచ	2646
ఫై	2647
##ార్లు	2648
కర్ణాటక	2649
వారిని	2650
చేసుకున్న	2651
##ళి	2652
ఆలో	2653
##ందన్నారు	2654
ఫ్	2655
##త్వ	2656
వెల్లడించారు	2657
నూ	2658
##బడి	2659
కొనుగో	2660
ఫు	2661
##బి	2662
ఇక్కడ	2663
కొందరు	2664
శుక్ర	2665
స్టే	2666
వృ	2667
##టరీ	2668
నిల	2669
నింది	2670
నీటి	2671
విజయం	2672
##్యార	2673
కాకుండా	2674
##ముఖ	2675
క్ష	2676
##టల్	2677
##ధు	2678
కమిటీ	2679
దో	2680
##స్టర్	2681
వీటి	2682
##యిల్	2683
##ంతు	2684
##ంప్	2685
##یں	2686
కారు	2687
##ర్ర	2688
తక్కువ	2689
గురు	2690
మంగళ	2691
ఆస	2692
##చిన	2693
##ర్మన్	2694
గాయ	2695
##ండర్	2696
##ారో	2697
వస్త	2698
##యిన్	2699
హత్య	2700
##గంలో	2701
##శారు	2702
##ఎల్	2703
##బుల్	2704
తనకు	2705
భార్య	2706
నమ్మ	2707
కిలో	2708
రోడ్డు	2709
##ండ్ల	2710
తీసుకున్న	2711
##వన	2712
ల్లో	2713
ఇంకా	2714
ఇద్దరు	2715
ాయి	2716
మాట	2717
ఆగ	2718
రైల్	2719
ఎవర	2720
ఏళ్ల	2721
ఉద్యోగు	2722
అందుకు	2723
##వారు	2724
##ృష్ట	2725
##క్కి	2726
),	2727
ఉత్	2728
ఎక్స్	2729
చోటు	2730
పనులు	2731
ించ	2732
కోరారు	2733
పక్క	2734
చని	2735
వేయ	2736
##సీసీ	2737
ఆంధ్రప్రదేశ్	2738
నిర	2739
వెంకట	2740
పర్	2741
##స్టి	2742
ందు	2743
వైరల్	2744
బౌ	2745
ఉపయోగ	2746
కేవ	2747
షే	2748
##పడ	2749
బెంగళ	2750
##ంద్	2751
జి	2752
##ారాయ	2753
##రమైన	2754
బై	2755
##రేషన్	2756
అతని	2757
ఆద	2758
పాకి	2759
నగర్	2760
##ట్టిన	2761
జే	2762
టికెట్	2763
భావి	2764
##దాలు	2765
సాగు	2766
పోలీస్	2767
సుప	2768
మారింది	2769
బెంగళూరు	2770
కేవలం	2771
రాశి	2772
ఇంట్	2773
##ందా	2774
పరిధి	2775
##పోయింది	2776
స్కూ	2777
రాష్ట్రా	2778
హెచ్చ	2779
అభిమా	2780
అల	2781
అడుగు	2782
మోడీ	2783
##్యు	2784
అందులో	2785
ఆరోగ్య	2786
ాడు	2787
ప్రాంతాల్లో	2788
దేశంలో	2789
ఇంటర్	2790
22	2791
##ృష్టి	2792
అతి	2793
సూచించారు	2794
మొదల	2795
సర్క	2796
##మై	2797
చేశాడు	2798
##ించేందుకు	2799
ఎవరి	2800
##మవు	2801
##డిగా	2802
ఏపీలో	2803
మార్కెట్	2804
##ఖా	2805
##చుకు	2806
##ంటీ	2807
కోల్	2808
పెట్టి	2809
క్రి	2810
##థ్	2811
ముగి	2812
##పోయారు	2813
నిర్వ	2814
##వీక	2815
కార్యకర్	2816
అధికారంలోకి	2817
లేక	2818
సూర్	2819
మారు	2820
##చ్చి	2821
కేంద్రం	2822
2023	2823
##జయ్	2824
##చిత	2825
ప్రై	2826
##వాల్	2827
లేని	2828
ఫా	2829
వర్షాలు	2830
సంచ	2831
అవసరం	2832
రైల్వే	2833
భద్ర	2834
కష్ట	2835
తమి	2836
రోడ్	2837
వైపు	2838
చెప్పు	2839
అనుమ	2840
మరోసారి	2841
తాము	2842
ప్రజలకు	2843
పెట్టు	2844
మీరు	2845
##యానికి	2846
ఎంతో	2847
లక్ష్	2848
##్రీం	2849
స్పష్టం	2850
ఉంచ	2851
ప్రవేశ	2852
సీనియర్	2853
రిలీజ్	2854
కొనుగోలు	2855
సంద	2856
##ణు	2857
##జ్ర	2858
ఆలోచ	2859
పోరా	2860
మండి	2861
స్పందించ	2862
బాధ	2863
##క్రమా	2864
ఉంటాయి	2865
##ంత్	2866
బ్	2867
రావ	2868
చివరి	2869
ట్లు	2870
వరు	2871
##లేదని	2872
పెళ్లి	2873
##గింది	2874
అంతే	2875
##వ్యాప్తంగా	2876
తెర	2877
చెల్ల	2878
##‌ర్	2879
అందుబాటు	2880
యో	2881
సమయం	2882
తరల	2883
##నగర్	2884
సేవ	2885
సొంత	2886
##స్తాన్	2887
کی	2888
ారని	2889
మృతి	2890
టె	2891
##తిని	2892
డాక్టర్	2893
రాజీ	2894
తొల	2895
##రియా	2896
ప్రకటించారు	2897
అక్	2898
##ధులు	2899
పాట	2900
##ేమ	2901
ప్రమాదం	2902
##డులు	2903
వివిధ	2904
లతో	2905
##‌ను	2906
గుర	2907
సుప్రీం	2908
గంటలకు	2909
##ಲ್	2910
ప్లే	2911
##ష్య	2912
వ్యవస్థ	2913
గ్రూ	2914
##ేశ్వ	2915
కార్యాల	2916
కాల్	2917
మరియు	2918
పరుగులు	2919
పోలింగ్	2920
నాగ	2921
ఆహ	2922
##శాల	2923
వ్యాఖ్యలు	2924
డైరెక్టర్	2925
అడి	2926
బస్సు	2927
తెలుసుకు	2928
ఇంత	2929
లేకపో	2930
నరే	2931
జూన్	2932
ముందుకు	2933
##ికల్	2934
ఆత్మ	2935
##శే	2936
##నేందుకు	2937
##కోవాలి	2938
##ాలపై	2939
సర్వే	2940
##క్త	2941
వీరి	2942
ఫీ	2943
ఆట	2944
భూమి	2945
##ల్లా	2946
##జన	2947
##నె	2948
##ద్యా	2949
నిర్వహి	2950
మంత్ర	2951
శుక్రవారం	2952
##ండ్రి	2953
##ప్తు	2954
##వరకు	2955
వేదిక	2956
ఇబ్బ	2957
లాంటి	2958
ప్రముఖ	2959
##వుల	2960
రోజుల్లో	2961
మండల	2962
##బ్ర	2963
నిజ	2964
##మయ్య	2965
##ప్పటికీ	2966
నిర్వహించారు	2967
పోస్టు	2968
కూటమి	2969
అప్	2970
##వారి	2971
##డుకు	2972
##మ్స్	2973
బుధ	2974
##వంత	2975
ఫలిత	2976
##ర్స్	2977
ఎవ	2978
కట్ట	2979
పూజ	2980
జైలు	2981
వాటిని	2982
సోమవారం	2983
21	2984
##ర్ట్	2985
సంబంధించి	2986
ప్రమాద	2987
అనేది	2988
##కింగ్	2989
రాయ	2990
##సెస్	2991
కృ	2992
‌తో	2993
##ాక	2994
బొ	2995
క్రికెట్	2996
జె	2997
ఎన్నికలు	2998
##ర్‌	2999
##బీసీ	3000
ఇబ్బందు	3001
##ండీ	3002
పరిష్క	3003
బోర్	3004
##రులు	3005
స్త	3006
##తిలో	3007
వివరించారు	3008
##తన	3009
##గిరి	3010
చేస్తే	3011
మెంట్	3012
మరోవైపు	3013
పరిశీల	3014
చేస్తు	3015
##ారాయణ	3016
దీనికి	3017
కార్యక్రమా	3018
అభిప్ర	3019
##పొ	3020
బాధి	3021
##డిని	3022
##దో	3023
##రావు	3024
యాద	3025
మైన	3026
ముంబ	3027
నివే	3028
##వుడ్	3029
దీనిపై	3030
అందరి	3031
మాన	3032
చేసేందుకు	3033
ఇజ్ర	3034
##ారిటీ	3035
40	3036
కర	3037
ఎన్న	3038
##ితా	3039
##ానీ	3040
##్రియ	3041
అధినే	3042
జరిగే	3043
ఉంటుందని	3044
కనిపించ	3045
ప్రో	3046
##ప్టె	3047
బాగా	3048
రిజర్	3049
బయటకు	3050
##నింగ్	3051
ఎయి	3052
##న్య	3053
##నుక	3054
##లాండ్	3055
##పాల్	3056
సెల	3057
##ంత్రం	3058
దృష్టి	3059
అండ్	3060
కేసులు	3061
సంక్ష	3062
ప్రశ్నించారు	3063
ఆరు	3064
వస్తే	3065
##వచ్చు	3066
అప్పు	3067
పాలన	3068
లోకి	3069
బ్ర	3070
##ణీ	3071
ఆదివారం	3072
దక్షి	3073
పంట	3074
కృష్ణ	3075
దర్యా	3076
##ప్షన్	3077
##గ్రహం	3078
##టీసీ	3079
##ెట్లు	3080
##మూ	3081
పేరుతో	3082
##వాళ	3083
కమ	3084
చేయడానికి	3085
మార్చి	3086
నమోద	3087
ాయ	3088
శ్రీనివాస్	3089
##డికి	3090
నేడు	3091
తమిళ	3092
అర్థ	3093
ప్రతిపక్ష	3094
బంగారం	3095
చైర్మన్	3096
ఇజ్రాయ	3097
గే	3098
ప్రస	3099
##పాల	3100
తీసుకె	3101
బీసీ	3102
##ెబ్బ	3103
##స్తున్నాయి	3104
ఒకే	3105
చేరి	3106
##పురం	3107
##లియా	3108
అక్టో	3109
అద	3110
##తల	3111
##ళ్ళ	3112
మంగళవారం	3113
చెన్న	3114
కవిత	3115
దర్యాప్తు	3116
వయ	3117
విస్త	3118
పేర్కొంది	3119
శరీ	3120
##న్సిప	3121
సాయంత్రం	3122
తప్పు	3123
రద్దు	3124
చీఫ్	3125
ఆప	3126
##ండ్ర	3127
రైతులు	3128
చేస	3129
శనివారం	3130
వరద	3131
ఆరోపణలు	3132
అక్రమ	3133
##హ్మ	3134
చేశారని	3135
##ంగల్	3136
##దుపు	3137
తేదీన	3138
కల్యా	3139
విలువ	3140
ఎమ్మెల్సీ	3141
ఓటు	3142
##పించారు	3143
ఓవర్	3144
##డుతున్న	3145
##ంస	3146
##ళీ	3147
##రుపు	3148
##్రమ	3149
సంజయ్	3150
సహాయ	3151
అంచనా	3152
బ్రి	3153
ఏర్పా	3154
ఇంట్లో	3155
అభిమాను	3156
బాబు	3157
కేటాయ	3158
వరకూ	3159
అయ్యారు	3160
మండలం	3161
##హన్	3162
మర	3163
అధినేత	3164
##జ్ఞ	3165
డిసె	3166
మని	3167
పోస్ట్	3168
##రించిన	3169
పిటి	3170
##ీవుడ్	3171
ప్రయాణి	3172
తది	3173
దక్క	3174
సహా	3175
##ెట్టి	3176
జరుగుతున్న	3177
స్వామి	3178
పార్టీకి	3179
వంద	3180
హు	3181
వాళ్లు	3182
సెప్టె	3183
##ర్ల	3184
నడు	3185
##సూ	3186
ముగ్గు	3187
చెప్పిన	3188
##జె	3189
రైలు	3190
##న్నాయి	3191
విశాఖ	3192
##్యూటీ	3193
##తికి	3194
##ంకర్	3195
##వాల్సి	3196
##త్వం	3197
100	3198
##బీఐ	3199
##ికిత్స	3200
స్థానిక	3201
డ్రై	3202
శుభ	3203
##వె	3204
##మ్మి	3205
కార్యక్రమంలో	3206
23	3207
సభ్యులు	3208
కంట	3209
##రుగా	3210
తగ్	3211
##సిటీ	3212
సిటీ	3213
##ారాన్ని	3214
##సుప	3215
గురువారం	3216
##స్థాన్	3217
##ీక	3218
##ితం	3219
కళ్యా	3220
విద్యా	3221
పంపి	3222
##జిక	3223
అక్కడి	3224
తయారు	3225
అత్యంత	3226
టెక్	3227
ఎత్తు	3228
అయినా	3229
విధంగా	3230
భర్త	3231
విదేశ	3232
పెట్టుకు	3233
##పడిన	3234
నిజా	3235
##దర్శి	3236
##పుణ	3237
సమస్యలు	3238
##స్వామి	3239
సంతో	3240
##పం	3241
##ణంలో	3242
నివేదిక	3243
##మంది	3244
లోనూ	3245
చేస్తామని	3246
విమర్శించారు	3247
బంధ	3248
రోజులు	3249
మహిళా	3250
జరిగి	3251
మందికి	3252
నట	3253
స్థాయిలో	3254
నిమి	3255
అంగ	3256
పార్లమెంట్	3257
ఆసుప	3258
##చారు	3259
ప్రాంతంలో	3260
మాట్లాడారు	3261
##డ్జ	3262
ఐపీ	3263
బీబీసీ	3264
##ర్మి	3265
నిరసన	3266
గవర్	3267
##మిక	3268
సూపర్	3269
భారీగా	3270
మొదలు	3271
చైనా	3272
##్యంగా	3273
##ంచింది	3274
సహక	3275
సింగ	3276
చికిత్స	3277
##మైంది	3278
బిల్లు	3279
##దేశం	3280
##తులకు	3281
విక్ర	3282
పార్టీలో	3283
యుద్ధ	3284
కావడంతో	3285
దశ	3286
28	3287
##ాలంటే	3288
ఎక్కడ	3289
నామ	3290
అరెస్టు	3291
##సర	3292
##ందం	3293
ప్రేమ	3294
##లన	3295
గెలు	3296
చేరు	3297
భారతీయ	3298
ల్యా	3299
ప్రైవే	3300
కప్	3301
అంతర్	3302
నాకు	3303
భక్తులు	3304
పది	3305
##ప్తి	3306
చేసినట్లు	3307
తీసుకో	3308
సాధారణ	3309
బుధవారం	3310
##ట్రో	3311
##ారులు	3312
##గాయి	3313
ఎదుర్కొ	3314
##నియా	3315
షర్మి	3316
##డమే	3317
##బె	3318
అడ్డు	3319
ట్యా	3320
నెలకొ	3321
గ్రామా	3322
##రంగ	3323
కాపా	3324
పర్యటన	3325
ఖర్చు	3326
##ాబాద్	3327
పాఠ	3328
##ులను	3329
మున్సిప	3330
తమకు	3331
నై	3332
##రాజ్	3333
ప్రభావం	3334
వాళ్ల	3335
##డ్జెట్	3336
##తులను	3337
సమీప	3338
ందుకు	3339
దెబ్బ	3340
లైన్	3341
నరేంద్ర	3342
ఈసారి	3343
کے	3344
ఏప్ర	3345
కీ	3346
##‌ల	3347
ప్రకటించింది	3348
ఏప్రిల్	3349
రాజ్	3350
వరుస	3351
ఎల	3352
స్తు	3353
యాక్	3354
##ఖాస్తు	3355
నవం	3356
##బట్టి	3357
దాఖ	3358
విద్యుత్	3359
ఉపా	3360
##టెన్	3361
##గ్రత్త	3362
##ప్పి	3363
చేయాలి	3364
వరల్డ్	3365
హక్కు	3366
##లిం	3367
భావ	3368
అడ్	3369
##ండె	3370
స్వీక	3371
##ికా	3372
ముఖ్యంగా	3373
##20	3374
##స్ట్రే	3375
##కోవడానికి	3376
ఆక	3377
వేడు	3378
అయి	3379
అసలు	3380
##పెట్ట	3381
##ీట్	3382
##డవ	3383
##వాస	3384
డిప	3385
##ప్పుడ	3386
మెడ	3387
క్వ	3388
ఇవ్వాలని	3389
వినియోగ	3390
##రావ	3391
పిటిషన్	3392
##ొక	3393
కార్మి	3394
పలువు	3395
నటి	3396
##నామా	3397
చరి	3398
దర	3399
కొట్ట	3400
పదే	3401
బహి	3402
##ాలే	3403
##దులు	3404
కళ్యాణ్	3405
##ితంగా	3406
పౌ	3407
కామెంట్	3408
##ామన్నారు	3409
##ద్దీ	3410
ఎంప	3411
జిల్లాల్లో	3412
బెయిల్	3413
సుప్రీంకోర్టు	3414
హాజర	3415
తీర్పు	3416
వేగ	3417
అంటున్నారు	3418
##చూ	3419
జాగ్రత్త	3420
రికార్డు	3421
మండిపడ్డారు	3422
అవి	3423
బే	3424
అక్టోబర్	3425
##యాల్లో	3426
##రణ్	3427
నోటీ	3428
విమర్శలు	3429
నష్ట	3430
తెచ్చ	3431
##హె	3432
మహా	3433
##టై	3434
##కులకు	3435
అలాంటి	3436
ఆడ	3437
ఖమ్మ	3438
వరంగల్	3439
వెళ్లే	3440
హింద	3441
##సన్	3442
లోనే	3443
ఎంపిక	3444
సిరీ	3445
ఇండ	3446
డిసెంబర్	3447
లోక్	3448
##సిడ	3449
వు	3450
సామా	3451
గ్రూప్	3452
దరఖాస్తు	3453
ఆన	3454
బడ్జెట్	3455
27	3456
షె	3457
##ధ్యా	3458
##పుడు	3459
పూర్తిగా	3460
##ళ్లకు	3461
మల్ల	3462
##ంక్	3463
##పరి	3464
క్ల	3465
ఎదురు	3466
ధరలు	3467
ఉన్నట్లు	3468
ప్లాన్	3469
ఎల్	3470
ఫైన	3471
##బితా	3472
సెప్టెంబర్	3473
##మిత్	3474
విషయాన్ని	3475
##లేక	3476
స్థానంలో	3477
సమావేశం	3478
తండ్రి	3479
ఇబ్బందులు	3480
##ొచ్చు	3481
##రియ	3482
పల్లి	3483
తోపాటు	3484
##ండ్లు	3485
కోరు	3486
ఇంటికి	3487
میں	3488
బాధ్యత	3489
వేడుక	3490
##డత	3491
##గాల్లో	3492
కొద్ది	3493
##గూడ	3494
మహారా	3495
2019	3496
26	3497
గ్	3498
##నాడు	3499
డబ్బులు	3500
ఈరోజు	3501
##టిఫ	3502
##ar	3503
##మ్మడి	3504
హరీ	3505
ప్రాధ	3506
సెంటర్	3507
పట్టు	3508
##చింది	3509
అవకాశాలు	3510
భయ	3511
విజయవాడ	3512
చేసారు	3513
ప్యా	3514
ఫే	3515
దిగ	3516
స్పె	3517
ఇజ్రాయెల్	3518
ాం	3519
‌లు	3520
రాజు	3521
మూడో	3522
##లాల	3523
##పోయి	3524
పత్ర	3525
ఇంగ్	3526
##ముల	3527
వచ్చాయి	3528
కురి	3529
సైతం	3530
##ంగి	3531
యాత్ర	3532
లాభ	3533
అనుమా	3534
కనీ	3535
నుంచ	3536
ఒకటి	3537
చరిత్ర	3538
ముంబై	3539
తెలుసు	3540
##ౌన్	3541
సెక	3542
వివే	3543
ఉండగా	3544
చేసుకున్నారు	3545
నవంబర్	3546
##య్యాయి	3547
బృ	3548
ఆయనకు	3549
అదుపు	3550
ప్రయోజ	3551
నిర్వహించ	3552
##‌లోని	3553
చదు	3554
లభ	3555
##ధుల	3556
ట్టు	3557
దీన్ని	3558
##టివ్	3559
##నంగా	3560
పొత్తు	3561
##ಲ್ಲ	3562
శక్తి	3563
సమర్	3564
దారు	3565
జనవరి	3566
ప్రేక్ష	3567
##ట్లను	3568
రాజీనామా	3569
##నిక	3570
రూపొ	3571
కన్	3572
గణ	3573
చొ	3574
తిరుమల	3575
పాకిస్తాన్	3576
##ాప	3577
పొంద	3578
##ధ్యాహ్	3579
చేస్తారు	3580
సమావేశంలో	3581
##یا	3582
కాబట్టి	3583
వన్	3584
##ంగ్స్	3585
పలువురు	3586
ఆస్ప	3587
పార్టీల	3588
వాయి	3589
##యన్స్	3590
##తున్నారని	3591
అవినీ	3592
సంక్షేమ	3593
కల్యాణ్	3594
ఎందు	3595
కాలేజీ	3596
ఆగస్టు	3597
ఐటీ	3598
కార్పొ	3599
ఆసక్తి	3600
ఉచిత	3601
గల	3602
సబ్	3603
ప్రచార	3604
విశ్వ	3605
సిద్ద	3606
నిరు	3607
##ష్ట్ర	3608
అనుకూ	3609
సంప్ర	3610
ఉత్తర	3611
ప్రసా	3612
##చ్చని	3613
కార్యదర్శి	3614
ఇవాళ	3615
##ాను	3616
రోహి	3617
నీరు	3618
నడి	3619
ఫ్ర	3620
మద్య	3621
##కృష్ణ	3622
##ళ్లను	3623
ాన్ని	3624
##వంటి	3625
చేర	3626
##లియన్	3627
##దిరి	3628
పార్టీలు	3629
సంత	3630
##ళ్లలో	3631
ఆస్ట్రే	3632
మధ్యాహ్	3633
వ్యాప్తంగా	3634
సామాజిక	3635
కాలంలో	3636
##ల్ని	3637
లెక్క	3638
ఉమ్మడి	3639
ఎన్టీఆర్	3640
సేక	3641
అధికారి	3642
విధాన	3643
500	3644
మనం	3645
జాబితా	3646
పారి	3647
లలో	3648
##రేట్	3649
కనిప	3650
ఇబ్బంది	3651
##ఖీ	3652
తీసుకున్నారు	3653
అప్పటి	3654
నిమిష	3655
షర్మిల	3656
ప్రాధాన్	3657
నిపుణ	3658
అభిప్రాయ	3659
ప‌	3660
లోక్‌	3661
##స్త్ర	3662
పండు	3663
స్పష్ట	3664
##ప్టెన్	3665
పోలీసులకు	3666
##స్తాయి	3667
##డ్యూ	3668
##గతి	3669
ఈడీ	3670
తీరు	3671
ఇచ్చింది	3672
అద్	3673
పర	3674
బండి	3675
రామ్	3676
ఎగ్	3677
కెప్టెన్	3678
వ్యవస	3679
సీట్లు	3680
##భవ	3681
కాదని	3682
వర్షం	3683
ప్రయత్నం	3684
##హెచ్	3685
చేయా	3686
##ష్ణ	3687
గుర్తి	3688
కారణం	3689
సము	3690
తీసుకొచ్చ	3691
##షనర్	3692
కామ	3693
వికెట్	3694
##లిన	3695
##ర్యంలో	3696
సీపీ	3697
రష	3698
చూప	3699
##టువంటి	3700
ఎన్నో	3701
భవి	3702
##ండింగ్	3703
##ుకున్న	3704
మిగి	3705
అధికారిక	3706
చాల	3707
వస్తుంది	3708
కలిగి	3709
యూనివర్	3710
##కంటే	3711
ఖమ్మం	3712
##ఫె	3713
వ్యూ	3714
గ్యా	3715
##ార్డ్	3716
నిబంధ	3717
##్యాన్ని	3718
నెలల	3719
సూర్య	3720
వది	3721
షో	3722
పేద	3723
ప్ప	3724
యాదవ్	3725
రహ	3726
లేఖ	3727
##కేష్	3728
సిరీస్	3729
##ంక్ష	3730
##ద్దేశ	3731
తనను	3732
నిర్వహించిన	3733
##్వర్యంలో	3734
కస్ట	3735
భే	3736
విభా	3737
సీబీఐ	3738
గుండె	3739
రేపు	3740
31	3741
కొండ	3742
భవిష్య	3743
##లవ	3744
##ల్ప	3745
ఆస్ట్రేలియా	3746
పడ్డ	3747
క్యాప్షన్	3748
కమిషన్	3749
ఉత్ప	3750
##ఎఫ్	3751
సర్వీ	3752
ప్ర‌	3753
గర్	3754
##ాలలో	3755
అందుబాటులో	3756
##ళం	3757
పదవి	3758
ఎవరు	3759
ధర్	3760
##వార	3761
##ఖ్యా	3762
అరు	3763
##ట్ర	3764
తీవ్రంగా	3765
ముగ్గురు	3766
చేస్తున్నారని	3767
##భు	3768
వెనుక	3769
ఇచ్చి	3770
మరికొ	3771
లోక్‌సభ	3772
గిరి	3773
##‌న	3774
##ినేషన్	3775
మహిళలు	3776
సంతోష	3777
షి	3778
##తుల్లో	3779
హెచ్	3780
29	3781
##శ్ర	3782
##జూ	3783
తెలిసింది	3784
ఆధ్వర్యంలో	3785
అమిత్	3786
స్పీ	3787
##సిక	3788
ట్వి	3789
నియమ	3790
గవర్నర్	3791
సత్య	3792
ఎక్క	3793
కన	3794
##కొండ	3795
సినిమాలో	3796
##ంశ	3797
సుమారు	3798
జయ	3799
నర్	3800
##ించాడు	3801
##గ్రా	3802
##హత్య	3803
ఆత్మహత్య	3804
ఆడి	3805
ఎఫ్	3806
ఖాన్	3807
బ్రా	3808
##బూ	3809
##నాథ్	3810
##జాతీయ	3811
వేసి	3812
తొలగ	3813
తిన	3814
స్కా	3815
ఒత్తి	3816
సామ	3817
ానికి	3818
##వల్ల	3819
స్నే	3820
చేస్తోంది	3821
పొందు	3822
##ంబా	3823
##ఫర్	3824
చేస్తుంది	3825
##రానికి	3826
##టెడ్	3827
ప్రభుత్వానికి	3828
##ోత్స	3829
ఉండాలని	3830
రైతులకు	3831
##ించుకో	3832
బ్లా	3833
చేయాల	3834
వెన	3835
గుర్తించారు	3836
ట్వీట్	3837
ఆమో	3838
##ట్లో	3839
మద్యం	3840
మధ్యాహ్నం	3841
##పూ	3842
##కుమార్	3843
##ెన్సీ	3844
అడ	3845
##ములు	3846
##ద్రా	3847
##ూర్తి	3848
సంఘం	3849
చదువు	3850
##ణంగా	3851
వివరాలు	3852
##ఫిక్	3853
##న్లు	3854
చెన్నై	3855
##ధాని	3856
దుర్	3857
##ನ್	3858
##ల్చి	3859
##సింగ్	3860
తిరుపతి	3861
అంతర్జాతీయ	3862
##డంలో	3863
‌గా	3864
##ాయింట్	3865
వ్యాపార	3866
##చ్చారు	3867
దాఖలు	3868
##ంపల్లి	3869
క్రీ	3870
##ేశ్వర	3871
విషయ	3872
##ించడానికి	3873
ఉన్నాయని	3874
ప్రక్రియ	3875
రోహిత్	3876
స్థి	3877
రాష్ట్రాల్లో	3878
ఆగ్రహం	3879
అందరూ	3880
మహారాష్ట్ర	3881
##ور	3882
ప్రతిని	3883
తీసుకోవాలని	3884
జన్	3885
విరా	3886
##తోందని	3887
వాడ	3888
సీఐ	3889
ఉద్దేశ	3890
ఇచ్చే	3891
##షణ	3892
ఇన్‌	3893
పట్ల	3894
బరి	3895
##‌ని	3896
##యంగా	3897
##్యో	3898
##రింగ్	3899
మారి	3900
##గ్య	3901
రిపో	3902
పెట్టారు	3903
అత్యధిక	3904
60	3905
##సార్లు	3906
##వాసం	3907
సీత	3908
క్యూ	3909
##ాల్సి	3910
కురు	3911
వెల్లడించింది	3912
అనుమతి	3913
##దండ్ర	3914
##ತ್	3915
##యోగం	3916
షేర్	3917
అంబ	3918
ఉన్నా	3919
బ్యాంక్	3920
బహిరంగ	3921
ఇంజ	3922
##తను	3923
ప్రీ	3924
నిరా	3925
##హీ	3926
##మ్ము	3927
##‌ర	3928
##గల	3929
##షే	3930
##రాల్లో	3931
##వేత్త	3932
సభలో	3933
ప్రయత్ని	3934
గౌర	3935
తగ్గి	3936
కరీ	3937
##రగా	3938
##ంటుంది	3939
పూర్త	3940
తల్లిదండ్ర	3941
అద్భు	3942
శర్మ	3943
వెబ్	3944
అతను	3945
##ంహ	3946
రావడం	3947
రుణ	3948
జరుపు	3949
మెగా	3950
ఎప్పుడ	3951
వారం	3952
దిశ	3953
అర్హ	3954
##ఖర్	3955
హాజరు	3956
##కౌ	3957
మెద	3958
##ౌండ్	3959
సీజన్	3960
35	3961
##కునే	3962
వెళ్లిన	3963
##శు	3964
##al	3965
కోహ్	3966
దేవ	3967
ప్రె	3968
##పాద	3969
అంతేకా	3970
చార్	3971
కిలోమీ	3972
నిన్న	3973
ప్పుడు	3974
ట్రై	3975
పాఠశాల	3976
##ంభ	3977
##గానికి	3978
ఆధారంగా	3979
జిల్లాలోని	3980
వాదన	3981
ఫోటో	3982
ఆహ్	3983
##గొండ	3984
ہے	3985
భో	3986
చూసి	3987
వడ్	3988
##త్రికి	3989
##నాన్ని	3990
రష్యా	3991
భేటీ	3992
షూ	3993
మేం	3994
రూపాయలు	3995
##ున	3996
రైతుల	3997
ఎయిర్	3998
ఏడు	3999
ఆదేశించారు	4000
ఆలోచన	4001
##సిడెంట్	4002
##ించినట్లు	4003
##నో	4004
హౌ	4005
లోకేష్	4006
##టిల్	4007
##వాల్సిన	4008
విజయ్	4009
##ించుకున్న	4010
కాన్	4011
##సార్	4012
##జం	4013
వ్యతిరేక	4014
పంపిణీ	4015
##గ్రీ	4016
##ణ్య	4017
ప్రతీ	4018
నిద్ర	4019
దిగు	4020
గౌడ్	4021
##రుల	4022
##రుగ	4023
వేదికగా	4024
సంప్రద	4025
భు	4026
విద్యార్థులు	4027
లేదన్నారు	4028
లక్షలు	4029
##గత	4030
##ంగు	4031
గుర్తింపు	4032
హ్యా	4033
##ار	4034
సమాధ	4035
సరైన	4036
45	4037
##ఎస్‌	4038
ఏర్పాట్లు	4039
##కరణ	4040
##డప	4041
##షా	4042
##షియల్	4043
టార్	4044
సంవత్సరం	4045
కరీం	4046
చౌ	4047
ఫ్యాన్స్	4048
వేశారు	4049
పోష	4050
క్రితం	4051
అవార్డు	4052
హాస్	4053
కల్పించ	4054
##వేషన్	4055
నుంచే	4056
##టన్	4057
##ోధ	4058
##ెక్ట్	4059
రాష్ట్రం	4060
ఆఫీసర్	4061
##లింది	4062
రూపాయల	4063
##ంగ్లా	4064
##ఫ్ట్	4065
2022	4066
నిందితు	4067
సాయి	4068
దేశం	4069
##ృతి	4070
నేషనల్	4071
సినీ	4072
తరలి	4073
మార్పులు	4074
బంగ్లా	4075
మంత్రులు	4076
మంట	4077
శ్రే	4078
##್‌	4079
##స్తో	4080
స్టా	4081
..!	4082
##ంపే	4083
ఓడి	4084
##ేష్	4085
##ద్రి	4086
చెప్పింది	4087
సర్కార్	4088
##నాలను	4089
కుమారు	4090
ఫుడ్	4091
##మర్	4092
##ట్నం	4093
ప్రశ్న	4094
ంట	4095
##కులను	4096
తిరుగు	4097
వచ్చారు	4098
రవి	4099
##ప్‌	4100
ఫిబ్ర	4101
కృషి	4102
re	4103
ఫె	4104
##వల్	4105
పిల్లలు	4106
హను	4107
##ెక్ట	4108
అయింది	4109
ఎమ్మెల్యేలు	4110
తీసుకుంట	4111
కరీంనగర్	4112
కూడిన	4113
ప్రారంభించారు	4114
బోర్డు	4115
##ైల్	4116
న్యూస్	4117
దక్షిణ	4118
000	4119
##ad	4120
##ంచు	4121
##స్తుందని	4122
అవినీతి	4123
ఆహ్వా	4124
ందని	4125
అగ్ర	4126
##ద్యో	4127
వీర	4128
వయసు	4129
కనీసం	4130
అప్ర	4131
##తరులు	4132
##్రీన్	4133
ఉండాలి	4134
##శ్చి	4135
అంశం	4136
##పులు	4137
వ్యాఖ్యా	4138
సారి	4139
##ంచ్	4140
కొడుకు	4141
సంఘటన	4142
అదన	4143
##తాయని	4144
ఆర్టీసీ	4145
ఎవరూ	4146
సృష్ట	4147
గూ	4148
ఉద్యమ	4149
##క్ట్	4150
ప్రదర్శ	4151
##డింగ్	4152
గుజ	4153
ఇక్క	4154
##‌గా	4155
బ్యాంకు	4156
సంగతి	4157
ఇవి	4158
మంజ	4159
స్కూల్	4160
ఫిబ్రవరి	4161
##ండియా	4162
##సారిగా	4163
కావడం	4164
అయ్యింది	4165
ఐపీఎల్	4166
సముద్ర	4167
ఆన్	4168
##ుడి	4169
పాత	4170
జడ్	4171
##ొక్క	4172
కూతు	4173
దానికి	4174
నాయుడు	4175
ఒక్కో	4176
సీటు	4177
షాక్	4178
##స్తులు	4179
##గులు	4180
##కోవచ్చు	4181
భారతదేశ	4182
సల	4183
##ికేషన్	4184
నీళ్లు	4185
కాలం	4186
యూనివర్సిటీ	4187
విశ్	4188
అవుతుంది	4189
##నున్నాయి	4190
ఖాళీ	4191
##ಲ್ಲಿ	4192
##హాలు	4193
##ధీ	4194
ముందే	4195
వ్యతిరేకంగా	4196
##వాన్ని	4197
నియోజకవర్గం	4198
తని	4199
సాయం	4200
అంతా	4201
అర్థం	4202
ఒప్ప	4203
దాన్ని	4204
##పడింది	4205
##హన	4206
చెంద	4207
##మ్‌	4208
##ారానికి	4209
ఇరు	4210
మౌ	4211
చాలామ	4212
##హించ	4213
బాగు	4214
ప్రారంభం	4215
శిక్ష	4216
కొనసాగ	4217
##బోయే	4218
య్య	4219
కుల	4220
ఆదాయం	4221
వాయిదా	4222
##లిక్	4223
కోహ్లీ	4224
నలుగు	4225
##ట్లకు	4226
అనుకు	4227
పరిశోధ	4228
పరిధిలో	4229
కాంట	4230
నియోజకవర్గంలో	4231
వేళ	4232
బంధు	4233
కామెంట్స్	4234
ఇష్ట	4235
ామని	4236
ప్రశా	4237
పేపర్	4238
చూసిన	4239
కార్డు	4240
చాలామంది	4241
##ان	4242
స్క	4243
##ట్టింది	4244
దళ	4245
గుజరా	4246
ారా	4247
##ంగం	4248
గురి	4249
ట్రాఫిక్	4250
తరలించారు	4251
సార్లు	4252
##వాలు	4253
చెప్	4254
మిగ	4255
##నంలో	4256
##యాల	4257
##థి	4258
##ందనే	4259
లోప	4260
##ద్దని	4261
ప్రాణ	4262
రాజధాని	4263
కుటుంబం	4264
కమిషనర్	4265
##ఫ్ర	4266
టో	4267
##ನು	4268
సెక్ర	4269
నష్టం	4270
పట్టుకు	4271
##ల్లం	4272
##ారావు	4273
ఆయా	4274
కాని	4275
హాస్పి	4276
ఓట్లు	4277
చూపి	4278
ప్రజలను	4279
కార్యకర్తలు	4280
ఫార్	4281
భవ	4282
రాలే	4283
పార్లమె	4284
ఇన్ని	4285
నారాయణ	4286
##డ్డా	4287
##స్తున్నట్లు	4288
##వ్వు	4289
త్వరలో	4290
పండుగ	4291
##దైనా	4292
కిషన్	4293
త్రి	4294
##ಡಿ	4295
లబ్	4296
ప్రయత్నాలు	4297
##వెన్	4298
నిధులు	4299
రాశ	4300
ముస్	4301
దాడులు	4302
##లంక	4303
హెల్	4304
ఖాతా	4305
##వ్యూ	4306
##దావరి	4307
వేసిన	4308
చోట్ల	4309
నిర్మాణ	4310
ఆహార	4311
షెడ్యూ	4312
నిపుణులు	4313
డిప్యూటీ	4314
##శ్చ	4315
ఉత్తర్	4316
##ండే	4317
విభ	4318
##ులై	4319
##సరి	4320
##ಂದ	4321
మహబూ	4322
##త్యా	4323
..?	4324
వేలు	4325
పెట్టిన	4326
నిరుద్యో	4327
వ్యవసాయ	4328
ఎకర	4329
పడే	4330
బ్యాటింగ్	4331
మున్సిపల్	4332
##ట్రి	4333
##గీ	4334
మనో	4335
చుట్ట	4336
##ట్యూ	4337
##ర్చి	4338
అమరావ	4339
జు	4340
ఫస్ట్	4341
రకాల	4342
##పడే	4343
పెరిగి	4344
తీసుకుని	4345
పథకం	4346
అల్లు	4347
అధి	4348
రిజి	4349
రాజ్యా	4350
అవసర	4351
తనిఖీ	4352
అగ్	4353
##స్తున్నారని	4354
ఒకరు	4355
పిలుపు	4356
కొత్తగా	4357
చేపట్టారు	4358
లక్ష్మీ	4359
వారిలో	4360
ఆదేశాలు	4361
స్వాధీ	4362
##పోయా	4363
చిత్రం	4364
పరిగ	4365
ఎన్నికలకు	4366
చేసుకుంది	4367
గుజరాత్	4368
##ఢిల్లీ	4369
శాంతి	4370
పున	4371
న్యూఢిల్లీ	4372
##ించారని	4373
మెజ	4374
నిర్వహణ	4375
అభ్యర్థులు	4376
పశ్చి	4377
వల	4378
వసూ	4379
తేడా	4380
ఉంటారు	4381
చేపట్టిన	4382
త్వరలోనే	4383
కన్న	4384
##తమైన	4385
ముఖ	4386
పరుగుల	4387
ఏమి	4388
పెరగ	4389
డిగ్రీ	4390
చేసుకో	4391
ఎందుకంటే	4392
ఇస్త	4393
పర్యా	4394
స్కో	4395
ముంద	4396
##క్కర్	4397
ప్రమాణ	4398
టార్గ	4399
స్వాధీనం	4400
‌పై	4401
చెయ్య	4402
##జున్	4403
ఆసి	4404
సోద	4405
##రించింది	4406
జర్	4407
కూడ	4408
సుర	4409
##హాన్ని	4410
రిజర్వేషన్	4411
##er	4412
వాడు	4413
టీమి	4414
నేతల	4415
##దారులు	4416
జులై	4417
##ార్ట్	4418
##డ్‌	4419
##ట్టర్	4420
ప్రస్తుత	4421
డ్రగ్	4422
టీమిండియా	4423
##సర్లు	4424
నిర్మాణం	4425
శాస్త్ర	4426
కౌన్సి	4427
టార్గెట్	4428
اس	4429
థి	4430
##ాలిటీ	4431
సెల్	4432
##య్యే	4433
విద్యార్థి	4434
పెంచు	4435
పడింది	4436
అభిమానులు	4437
##య్యా	4438
రాష్ట్రాల	4439
నామినేషన్	4440
##ాల్సిన	4441
సాం	4442
బాధ్యతలు	4443
ఓటమి	4444
సద	4445
నాటికి	4446
సంఖ్యలో	4447
ప్రాధాన్య	4448
టెస్టు	4449
ామ	4450
##గ్గా	4451
ఏక	4452
వెళ	4453
కేజ	4454
కుటుంబా	4455
##త్రం	4456
టీ20	4457
ఇండియన్	4458
ఇప్పటివరకు	4459
తమిళనాడు	4460
డ్రైవర్	4461
టే	4462
##యిన	4463
2014	4464
మృత	4465
సంచలన	4466
##యాత్ర	4467
అయో	4468
##స్వామ	4469
ప్రైవేట్	4470
ఉండి	4471
ఏజ	4472
డా	4473
తగిన	4474
ుకు	4475
రాజే	4476
గ్రామంలో	4477
##త్మక	4478
అదుపులోకి	4479
అల్	4480
గడు	4481
వన	4482
దొంగ	4483
##ిల్స్	4484
స్పంది	4485
స్పెషల్	4486
విగ్ర	4487
శ్రీవారి	4488
ఏదైనా	4489
జనా	4490
నర	4491
##ఎంసీ	4492
భద్రత	4493
కాక	4494
సెంట	4495
రచ	4496
##ాలీవుడ్	4497
కుంట	4498
##స్ట్రీ	4499
నోటీసులు	4500
స్తున్న	4501
పాద	4502
పురు	4503
గ్రే	4504
ఫలితాలు	4505
##ష్ణో	4506
ఎక	4507
##ెక్స్	4508
ఆటగా	4509
ప్రస్తా	4510
##త్తా	4511
70	4512
రావడంతో	4513
క్యార	4514
నంబర్	4515
పవర్	4516
రక్త	4517
##రంజీ	4518
కేజ్రీ	4519
కోరుకు	4520
చిరంజీ	4521
పశ్చిమ	4522
రఘ	4523
ఉన్నారని	4524
పంజా	4525
##పడుతుంది	4526
ఎలక్	4527
హిందూ	4528
80	4529
##ెండ్	4530
మరొక	4531
హోం	4532
##నిఫ	4533
తగ్గు	4534
##ఠా	4535
అధికారుల	4536
చట్టం	4537
ఓడ	4538
##న్నాడు	4539
బీజేపీకి	4540
వినిపి	4541
చెప్పుకొచ్చ	4542
అప	4543
గాలి	4544
దిన	4545
##వార్	4546
డెవల	4547
స్పందించారు	4548
##స్ట్ర	4549
కల్ప	4550
##శేష	4551
తదితరులు	4552
రక్షణ	4553
వార్త	4554
మందు	4555
##వాహ	4556
##పున	4557
నేరుగా	4558
ందన్నారు	4559
మృతదే	4560
కఠ	4561
టీమ్	4562
##‌లు	4563
##డ్స్	4564
తెలుగుదేశం	4565
టెస్ట్	4566
##یک	4567
##ಾರ	4568
##మాబాద్	4569
వేసింది	4570
##య్యి	4571
పోలీసుల	4572
##వని	4573
##జ్జ	4574
##త్రిలో	4575
##రవే	4576
##ధా	4577
##ూరి	4578
##ంచరీ	4579
దూరంగా	4580
పెరిగింది	4581
##కూడ	4582
సంబంధం	4583
అప్పగ	4584
##హార్	4585
##న్నే	4586
సీట్ల	4587
ాను	4588
##చ్చితంగా	4589
కేర	4590
దాంతో	4591
అంగీక	4592
ఒత్తిడి	4593
ఆటో	4594
బది	4595
రంగా	4596
అవగా	4597
##యేషన్	4598
దేశవ్యాప్తంగా	4599
పరిశ్రమ	4600
గొప్ప	4601
సందర్శ	4602
ముస్లిం	4603
గమని	4604
నల్ల	4605
నివ	4606
టీటీ	4607
199	4608
విడి	4609
చెప్పి	4610
ఎస్సీ	4611
అట	4612
పెడు	4613
##ట్టే	4614
అమ్మాయి	4615
##కర్స్	4616
నిబంధన	4617
ప్పటికీ	4618
లభి	4619
కెమె	4620
ధర్మ	4621
సురే	4622
మహిళల	4623
సభ్యుల	4624
రూపొందించ	4625
లక్ష్యంగా	4626
మెడికల్	4627
బ్లాక్	4628
کو	4629
ఏసీ	4630
##డితే	4631
##ల్లోకి	4632
ఉండటంతో	4633
పర్యట	4634
మిగిలిన	4635
అగ్ని	4636
అప్పుడు	4637
దారి	4638
బూ	4639
##కిల్	4640
చేయడంతో	4641
సంవత్సరాల	4642
తోనే	4643
వెళ్లారు	4644
తీసుకెళ్ల	4645
బరువు	4646
సికి	4647
##ళిక	4648
##పోయాయి	4649
కేరళ	4650
కరో	4651
సార	4652
##డెన్	4653
##ائ	4654
అనారో	4655
సౌకర్	4656
##చ్ఛ	4657
సెంచరీ	4658
నెలలో	4659
మంజూరు	4660
అటు	4661
కపో	4662
##ాయు	4663
విప	4664
స్తుంది	4665
పొడి	4666
వికెట్లు	4667
మిగతా	4668
తెల్ల	4669
నాడు	4670
మేనే	4671
అధికారులకు	4672
భి	4673
బదిలీ	4674
ఆల్	4675
నారా	4676
మధు	4677
##లాది	4678
కఠిన	4679
##ారనే	4680
సిద్ధం	4681
పురుష	4682
నెట్	4683
సచి	4684
##రాజు	4685
మేము	4686
ఢిల్లీలో	4687
న్యాయం	4688
##దైన	4689
యాప్	4690
అంతకు	4691
నాయక	4692
గోదావరి	4693
ఎదుర	4694
ఎన్‌	4695
చక్క	4696
##ంకు	4697
స్టూడ	4698
జస్టి	4699
##కపోతే	4700
కను	4701
గుడ్	4702
మోసం	4703
జరుగుతోంది	4704
సంస్థలు	4705
ఎన్డీ	4706
కొంతమంది	4707
చూపు	4708
మార్చ	4709
ధ్వ	4710
మల్	4711
##ెయిన్	4712
##మత్త	4713
నగర	4714
స‌	4715
నటు	4716
కాస్త	4717
ప్రెసిడెంట్	4718
ఎండ	4719
##కలు	4720
రాజ్య	4721
కలిపి	4722
టాప్	4723
డానికి	4724
కోవ	4725
చేయనున్నారు	4726
##స్టే	4727
సాధ్య	4728
కనిపిస్తోంది	4729
నల్	4730
##తె	4731
##ించాలి	4732
చెక్	4733
డేటా	4734
అప్రమత్త	4735
డాల	4736
చెరువు	4737
వేగంగా	4738
##ాలన్నారు	4739
పరిస్థితులు	4740
ఆలయ	4741
వన్డే	4742
సికింద్ర	4743
##ాలనే	4744
##చ్చిన	4745
క‌	4746
జ్యో	4747
ఫర్	4748
##రిని	4749
రిటై	4750
అధికారులను	4751
ముందుగా	4752
జరుగుతుంది	4753
##ఫ్రికా	4754
అవగాహన	4755
ధీ	4756
##ికె	4757
సునీ	4758
ఆరోగ్యం	4759
గడి	4760
చెల్లి	4761
##వింద్	4762
ఆమెను	4763
పక్కన	4764
టీటీడీ	4765
in	4766
భద్రా	4767
రోజులుగా	4768
గొడవ	4769
కార్యక్రమం	4770
వ్యవహార	4771
ప్రసాద్	4772
చిరంజీవి	4773
సికింద్రాబాద్	4774
##న్సర్	4775
నాటి	4776
రోజున	4777
అధ్యయ	4778
సరఫ	4779
ప్రభుత్వాన్ని	4780
75	4781
చిరు	4782
జనరల్	4783
##దారుల	4784
##ధర్	4785
##కాలం	4786
پر	4787
ఆవి	4788
ఏఐ	4789
పండ	4790
##ాడని	4791
గెలుపు	4792
ప్రొఫె	4793
##್ರ	4794
మీటింగ్	4795
పుష్	4796
హోదా	4797
రమ	4798
##లక్ష	4799
స్నేహి	4800
##టికల్	4801
కేంద్రంలో	4802
##నున్నట్లు	4803
కిలోమీటర్ల	4804
ఏకంగా	4805
‌ల	4806
వివేక్	4807
థియే	4808
మ‌	4809
‌లోని	4810
##ra	4811
##ఘా	4812
విజ్ఞ	4813
జరిప	4814
ప్రకటించిన	4815
యువత	4816
##స్క్	4817
##ందన్న	4818
##ల్యూ	4819
మీకు	4820
##ళ్లుగా	4821
బిజె	4822
ప్రత్యేకంగా	4823
హీరోయిన్	4824
కాంట్రా	4825
స్థలా	4826
రాష్ట్రంలోని	4827
చేస్తున్నట్లు	4828
కేటాయి	4829
##ెట్ల	4830
ఎస్పీ	4831
వస్తుందని	4832
నిజామాబాద్	4833
al	4834
ఎంట	4835
ఎప్ప	4836
##కల	4837
కోరి	4838
లీడర్	4839
ాయని	4840
చేసుకుని	4841
చేసినా	4842
పబ్	4843
సక్	4844
##ఎన్	4845
వాస్త	4846
వైర	4847
మోహన్	4848
పిల్లల	4849
ఎప్పుడూ	4850
ఎర్ర	4851
##టానికి	4852
లోక	4853
పుర	4854
ఉష్ణో	4855
దని	4856
ఉండటం	4857
స్థానికులు	4858
అయోధ్య	4859
ఉష్ణోగ్ర	4860
వాల	4861
##జ్‌	4862
కావాలని	4863
తయారీ	4864
వీటిని	4865
##ంక్షలు	4866
అకౌ	4867
దేశాల	4868
బిడ్డ	4869
హరీశ్	4870
##ార్టీ	4871
##మీర్	4872
ఎత్తున	4873
ఒడి	4874
##మిలీ	4875
అధికారం	4876
దర్శకుడు	4877
పరిధిలోని	4878
హెచ్చరించారు	4879
##ఫా	4880
నిర్మి	4881
తరఫ	4882
అవసరమైన	4883
కార్యకర్త	4884
##టిఫికేషన్	4885
బంగ్లాదేశ్	4886
జ్	4887
పద్	4888
2018	4889
ఢీ	4890
##వ్య	4891
విశేష	4892
##ర్యాల	4893
##హారం	4894
##ాయతీ	4895
##ెక్కి	4896
##రించే	4897
క్లా	4898
అర్జున్	4899
##ండటంతో	4900
పరిచ	4901
భాష	4902
తొమ్మి	4903
బాలిక	4904
స్పీకర్	4905
డ్రా	4906
##ధం	4907
కుట్ర	4908
చేయగా	4909
రంగు	4910
##ించుకున్నారు	4911
ఆశ్ర	4912
##శేఖర్	4913
వ్యాఖ్యానించారు	4914
ఇరా	4915
##రికీ	4916
‌‌‌‌‌‌‌‌‌‌‌‌‌‌‌‌లో	4917
వరుసగా	4918
సరఫరా	4919
సీసీ	4920
##నానికి	4921
మెట్రో	4922
సినిమ	4923
అయ్యాయి	4924
##రత్	4925
రానున్న	4926
##వేళ	4927
##వేదన	4928
రాజకీయాల్లో	4929
అందరికీ	4930
భీ	4931
లపై	4932
సెక్షన్	4933
అనుభ	4934
##ంపులు	4935
పార్లమెంటు	4936
గ్యార	4937
స్థానాల్లో	4938
సమీక్ష	4939
نے	4940
کر	4941
##ప్పున	4942
మెరుగు	4943
తిరుమ	4944
విలువైన	4945
చొప్పున	4946
ఘన	4947
బ్రే	4948
రక్ష	4949
కుక్క	4950
భావిస్తున్నారు	4951
టెక్నాల	4952
ఎటువంటి	4953
##డర్లు	4954
##మన్	4955
##రాశి	4956
మొబ	4957
##సేందుకు	4958
పక్ష	4959
##ంట్లు	4960
నిషే	4961
తీసుకుంది	4962
##ನ್ನು	4963
ర్యా	4964
##సో	4965
##యిత	4966
స్కీ	4967
##కాంత్	4968
డీకే	4969
అయ్యే	4970
##కపోవడంతో	4971
సర్కారు	4972
ఓట్ల	4973
డు	4974
రవా	4975
##యాన్	4976
##ెస్టో	4977
శాసన	4978
లిక్కర్	4979
ఉత్స	4980
న్యాయవా	4981
నొ	4982
##ణానికి	4983
మీడియాతో	4984
ప్రయాణ	4985
అస్	4986
శంకర్	4987
సంప	4988
ఆమెకు	4989
మేకర్స్	4990
##వంతంగా	4991
నెలకొంది	4992
షెడ్యూల్	4993
నల్గొండ	4994
సంపాద	4995
##డ్డికి	4996
ఎక్స్‌	4997
హాస్పిటల్	4998
మత	4999
##యింది	5000
##జేశారు	5001
ఇప్పటికీ	5002
చుట్టూ	5003
బిజెపి	5004
##‌‌‌‌‌‌‌‌‌‌‌‌‌‌‌‌	5005
నాని	5006
##స్టా	5007
కోర్టులో	5008
ట్విట్టర్	5009
షూటింగ్	5010
కరోనా	5011
##ించాయి	5012
పార్టీని	5013
బయలు	5014
టెక్నాలజీ	5015
సన్	5016
##ెత్త	5017
##నిమి	5018
మాకు	5019
##ిత్ర	5020
టిక్క	5021
##నిఫెస్టో	5022
జల	5023
డబుల్	5024
##ెల	5025
పరిమ	5026
##ముందు	5027
క్లి	5028
సమస్యలను	5029
విచారణకు	5030
వార్తలు	5031
జనాభా	5032
రవాణా	5033
ఏంట	5034
ఛార్	5035
మ్యూ	5036
##దర	5037
##ంటాయి	5038
##ఆర్‌	5039
వర్గాలు	5040
అనుకున్న	5041
మహిళలకు	5042
చర్చలు	5043
టోర్	5044
బహు	5045
వ‌	5046
##మితి	5047
స్టో	5048
నాయకుడు	5049
2021	5050
కాలనీ	5051
మానసిక	5052
##హ్మద్	5053
ఇండస్ట్రీ	5054
పరా	5055
##స్థానం	5056
నలుగురు	5057
కేజ్రీవాల్	5058
##on	5059
##్వే	5060
వ్యక్తులు	5061
సంబంధిత	5062
తరహా	5063
దేవు	5064
స్టేడి	5065
డ్యా	5066
నార్	5067
అభిన	5068
##దీప్	5069
కల్పి	5070
నోటిఫికేషన్	5071
##ತ್ತ	5072
దృష్ట	5073
మను	5074
చేర్చ	5075
కుండా	5076
వేధి	5077
పట్టించుకో	5078
అధ్యక్షు	5079
నియోజకవర్గ	5080
##త్వంలో	5081
90	5082
##బద్ధ	5083
నియా	5084
##ానా	5085
ముఖ్యమైన	5086
ఆవేదన	5087
క్రికె	5088
బయలుదే	5089
##ంసం	5090
##స్తీ	5091
జీవ	5092
బాలీవుడ్	5093
జీవితంలో	5094
సమీపంలో	5095
ఫైనల్	5096
జన్మ	5097
దిశగా	5098
ానని	5099
##ెర	5100
##یڈ	5101
కానుంది	5102
##రాత్రి	5103
సక్సెస్	5104
##ంజ్	5105
##లైన్	5106
##బిన	5107
ప్రణా	5108
##జున	5109
పరిణ	5110
మిషన్	5111
జనం	5112
##ీయ	5113
విరు	5114
##దుగా	5115
వాటర్	5116
రాజస్థాన్	5117
పూజలు	5118
##మన	5119
ప్రెస్	5120
దాడు	5121
పోయింది	5122
బౌలింగ్	5123
సెంట్ర	5124
పలిక	5125
రెడీ	5126
ఉద్యోగం	5127
ట్రంప్	5128
జ్యోతి	5129
##బినెట్	5130
ాడని	5131
పోయి	5132
సాను	5133
స్థానం	5134
##బోతున్న	5135
ప్రాజెక్ట్	5136
ఫ్యామిలీ	5137
పల్ల	5138
##కపోవడం	5139
పట్టణ	5140
టాలీవుడ్	5141
ర్	5142
మొదట	5143
కామారెడ్డి	5144
##వులను	5145
నెటి	5146
హయా	5147
##th	5148
##sh	5149
సినిమాలు	5150
సూచి	5151
పెద్దగా	5152
కెరీ	5153
దూరం	5154
దర్శక	5155
ప్రియా	5156
నియంత్ర	5157
##లిస్తే	5158
##కాన్ని	5159
సాధించిన	5160
ప్రపంచంలో	5161
నగదు	5162
ఉద్యోగులు	5163
کا	5164
కోస	5165
ప్రభాకర్	5166
ఇటీవ	5167
పరీక్షలు	5168
అందుబాటులోకి	5169
రజ	5170
##నలి	5171
##కస్	5172
##ందన	5173
##మాలు	5174
హైడ	5175
నాయకు	5176
ఓప	5177
మణి	5178
##గడ్డ	5179
చేతిలో	5180
పడుతున్న	5181
వివరాలను	5182
##రమ	5183
##in	5184
##క్తిక	5185
##కోసం	5186
ఫైర్	5187
కార్పొరేషన్	5188
సమాధానం	5189
ఎగు	5190
తీసుకోవడం	5191
##కరమైన	5192
ఆపరేషన్	5193
అమరావతి	5194
ఉందన్నారు	5195
##ర్ఘ	5196
నెరవే	5197
ఆఫీసు	5198
ఖాయ	5199
దశా	5200
సంస్క	5201
మొక్క	5202
##్యూని	5203
ప్రయత్నించ	5204
ఉత్పత్తి	5205
పంజాబ్	5206
చంప	5207
రెడ్డికి	5208
కాంగ్రెస్‌	5209
అవుతున్న	5210
కొనసాగి	5211
ఫుల్	5212
స్మ	5213
ప్రాణాలు	5214
ాలను	5215
##నారాయణ	5216
##దర్	5217
పుస్త	5218
పాకిస్థాన్	5219
ఈసీ	5220
క్రా	5221
##జిన	5222
వెళ్లా	5223
ఇవ్వడం	5224
అనుకూలంగా	5225
భవిష్యత్తు	5226
డ్రగ్స్	5227
ఛా	5228
ఫ్రా	5229
##ష్ణు	5230
##విడ్	5231
ఒకవేళ	5232
పాయింట్	5233
వంశ	5234
##ోసి	5235
##ಾಗ	5236
##కున్నారు	5237
వెండి	5238
శ్రీలంక	5239
హయాంలో	5240
భర్తీ	5241
##ేశ్వరం	5242
ఎనిమి	5243
##టిక్	5244
కొట్టి	5245
##చేసుకు	5246
అభ్యర్థుల	5247
దానిపై	5248
ఉపాధ్య	5249
##ట్రిక్	5250
ఐదే	5251
్లో	5252
##పింగ్	5253
స్టూడెంట్	5254
కెరీర్	5255
ండ	5256
ఎప్పుడు	5257
మిన	5258
స్తోంది	5259
ట్రాన్స్	5260
పిలుపుని	5261
దశాబ్	5262
ధో	5263
చెల	5264
ప్రాధాన్యత	5265
##రై	5266
##బల్	5267
##పాదన	5268
అక్కడే	5269
##ెక్టరేట్	5270
కలుగు	5271
టౌన్	5272
తెలియజే	5273
పంచాయతీ	5274
##ార్జున	5275
గ్రహ	5276
##గ్రామ్	5277
అలీ	5278
రద్దీ	5279
##కాలను	5280
##ర్ణ	5281
చేయాల్సి	5282
ఇన్నింగ్స్	5283
##దన్నారు	5284
పెన్	5285
పాక్	5286
గెలిచిన	5287
ra	5288
మల	5289
చూస్తే	5290
యూపీ	5291
ఉద్యోగ	5292
వాతావరణం	5293
##్రు	5294
చేరారు	5295
ారన్నారు	5296
నిలిచింది	5297
##పట్నం	5298
##కాలంలో	5299
ఆహారం	5300
గుడి	5301
అవుతోంది	5302
ఆఫీస్	5303
".	5304
గట్టి	5305
ఘో	5306
##ీత	5307
##వతి	5308
##ంతర	5309
వర్గాల	5310
##జిట్	5311
ఎవరైనా	5312
నంద	5313
వంట	5314
సన్ని	5315
##వాద	5316
##ఎస్పీ	5317
స్టేట్	5318
‌‌లో	5319
##ళా	5320
##ల్చ	5321
##స్థాయి	5322
నియోజకవర్గాల్లో	5323
ప్రయాణం	5324
అదానీ	5325
సాధారణంగా	5326
హౌస్	5327
ప్రణాళిక	5328
రవీ	5329
##పోయే	5330
టీచర్	5331
సాధించ	5332
ఆసక్తిక	5333
పెట్టుబ	5334
అకౌంట్	5335
ఏదో	5336
##లూ	5337
##್ಯ	5338
##ినట్లు	5339
కుంభ	5340
ముని	5341
##పాడు	5342
ఆయు	5343
పదార్థ	5344
గ్రామానికి	5345
ఉపాధి	5346
కుమారుడు	5347
పరిణామ	5348
ఇంది	5349
##ేత్ర	5350
కుప్ప	5351
పెండింగ్	5352
నిర్లక్ష	5353
వైద్యులు	5354
బౌలర్	5355
ఆడియన్స్	5356
జర	5357
##یو	5358
చూపించ	5359
తాగ	5360
చేరిన	5361
అశ్వ	5362
వందే	5363
##తాలు	5364
##ఎస్సీ	5365
రచయిత	5366
రాజ్యసభ	5367
మొబైల్	5368
మన్	5369
##್ದ	5370
ఆఫీసర్లు	5371
హెచ్చరిక	5372
మొదలైంది	5373
ప్రొఫెసర్	5374
ంగా	5375
జంట	5376
రౌ	5377
##రక	5378
##యాలని	5379
##చారాన్ని	5380
##ప్ల	5381
రెండే	5382
రేప	5383
నాయక్	5384
##ినేని	5385
ఎంట్రీ	5386
ఇస్తామని	5387
ఫ్రీ	5388
బస్	5389
ాల్సి	5390
##ంఛ	5391
కాలు	5392
##ఆర్ఎస్	5393
రాజమ	5394
చిక్కు	5395
సైబర్	5396
సిద్ధంగా	5397
ధాన్	5398
పాలు	5399
##గుల	5400
గానే	5401
సైన్	5402
##్యాలీ	5403
ప్రమాదంలో	5404
జస్టిస్	5405
33	5406
##వరం	5407
వేసుకు	5408
వర్మ	5409
ఆకట్టుకు	5410
##వారికి	5411
పుష్ప	5412
సెంట్రల్	5413
##తారని	5414
##గాన్ని	5415
అంచనాలు	5416
థియేటర్	5417
దంప	5418
ాలి	5419
వల్లే	5420
##పడుతున్న	5421
బట్టి	5422
##నాయ	5423
ప్రమో	5424
##సింహ	5425
ప్రకటించ	5426
ఆకర్	5427
పడిన	5428
బర్	5429
హరి	5430
##వానికి	5431
చెప్పే	5432
రెడ్డిని	5433
నియామ	5434
చ్	5435
హర్	5436
##దార్	5437
##షీ	5438
##కుంటే	5439
ప్రశ	5440
దక్షిణా	5441
##పాటి	5442
నేతృ	5443
హీరోగా	5444
క్లారిటీ	5445
తరఫున	5446
టాక్	5447
భవన్	5448
##హద్దు	5449
##లాలు	5450
##యేట్	5451
పరిస్థితుల్లో	5452
సరిహద్దు	5453
కరెంట్	5454
మెదక్	5455
లబ్ధి	5456
పాదయాత్ర	5457
##వేల	5458
వారిపై	5459
ఉద్యోగాలు	5460
రుణమా	5461
చెప్పుకొచ్చారు	5462
##దుల	5463
లేవు	5464
చేశామని	5465
##త్యం	5466
అవకాశము	5467
అధికారంలో	5468
హిట్	5469
##నిక్	5470
కలిగ	5471
బ్యాక్	5472
ద్ర	5473
##్రూ	5474
##కుంటున్న	5475
మీదుగా	5476
చిత్రా	5477
సెక్రటరీ	5478
పేట	5479
దానిని	5480
నిలిచి	5481
దిగారు	5482
سے	5483
అండగా	5484
బలంగా	5485
##ోన్న	5486
##పాయ	5487
##ال	5488
##లేని	5489
టీవీ	5490
‌‌‌‌‌‌‌‌లో	5491
పరిశీలించారు	5492
హనుమ	5493
ఆరా	5494
చెందు	5495
శ్రీరా	5496
విషయంపై	5497
కళా	5498
జీవితం	5499
బరిలోకి	5500
##పోయాడు	5501
అబ్	5502
భట్టి	5503
సెట్	5504
మందిని	5505
కంపెనీలు	5506
చూడాలి	5507
కొనసాగుతోంది	5508
మానవ	5509
అంతేకాదు	5510
రుణమాఫీ	5511
ర్యాలీ	5512
##ఖ్	5513
##నేది	5514
##రించాలని	5515
చేరుకున్న	5516
కమ్యూని	5517
ప్రచారంలో	5518
కట్టు	5519
##యని	5520
##వాన్	5521
జరిగిందని	5522
యుద్ధం	5523
వచ్చు	5524
##టికే	5525
ఘటనలో	5526
దర్శనం	5527
అదనపు	5528
300	5529
##పణ	5530
##ృహ	5531
##ంటా	5532
మేనిఫెస్టో	5533
లక్ష్య	5534
వస్తున్నాయి	5535
తదితర	5536
నినా	5537
##మయ్యారు	5538
##ారన్నారు	5539
సాధి	5540
జరుగుతు	5541
పరిగణ	5542
ఇందుకు	5543
నది	5544
వస	5545
కోట్లకు	5546
బాల్	5547
లీడర్లు	5548
పడుతున్నారు	5549
##ರು	5550
##ర్చ్	5551
##మానం	5552
గుంటూ	5553
వివాదం	5554
గుంటూరు	5555
రాక	5556
కుమ	5557
అయ్యా	5558
##పిక్	5559
పోరాటం	5560
ఓపెన్	5561
లూ	5562
హార్	5563
సిద్ది	5564
బిగ్	5565
నిర్ణయాలు	5566
త్వరగా	5567
బాధితు	5568
ముందస్తు	5569
##రామయ్య	5570
‌‌‌‌లో	5571
దీనిని	5572
నీటిని	5573
36	5574
##లైన	5575
##స్తుల	5576
55	5577
##మోహన్	5578
తొలగి	5579
కోచ్	5580
జిల్లాల	5581
విధానం	5582
##రని	5583
##స్మ	5584
##ందాం	5585
సిరి	5586
కార్యక్రమాలు	5587
ప్రేక్షకుల	5588
కడు	5589
పద్ధ	5590
విపక్ష	5591
##లాబాద్	5592
##నీయ	5593
ఉండదు	5594
##జిక్	5595
తప్పని	5596
ప్రశాంత్	5597
రఘు	5598
గూడ	5599
దృ	5600
##డిపి	5601
అనుచ	5602
వసూలు	5603
తప్పుడు	5604
ాలు	5605
##‌న్	5606
##ాయా	5607
వద్దకు	5608
ఆదాయ	5609
పన్ను	5610
దేశంలోని	5611
నెలల్లో	5612
ఎస్టీ	5613
జరగనుంది	5614
అంబే	5615
అలర్	5616
గడ్	5617
నన్ను	5618
బాలు	5619
##రాన్ని	5620
‌‌‌‌‌‌‌‌‌‌‌‌‌‌‌‌‌	5621
వేర్	5622
పుట్టిన	5623
##శ్మీర్	5624
కెన	5625
నూతన	5626
అలవా	5627
గ్రీన్	5628
##లికి	5629
##లర్లు	5630
##రిటీ	5631
తాగు	5632
కౌంటర్	5633
భక్తుల	5634
నిలు	5635
##్యానికి	5636
##ిత్యాల	5637
ఉన్నప్పుడు	5638
పెద్దపల్లి	5639
తుది	5640
ఇస్తున్న	5641
ఊహించ	5642
కదా	5643
##న్నె	5644
##క్టరీ	5645
##గుణంగా	5646
నిర్ధ	5647
##రించడం	5648
హాట్	5649
బృందం	5650
నని	5651
##భం	5652
జగిత్యాల	5653
ఒక్కసారిగా	5654
వ్యక్తిగత	5655
వైస్	5656
##జింగ్	5657
తల్లిదండ్రులు	5658
అద్ద	5659
సవాల్	5660
##శో	5661
కేబినెట్	5662
రెవెన్	5663
##పోటు	5664
గ్రౌండ్	5665
అసోసి	5666
జగన్‌	5667
వెళ్తున్న	5668
ప్రాంతాల	5669
అభ్యర్	5670
వచ్చిందని	5671
రెవెన్యూ	5672
ఎడ	5673
##క్టర్	5674
వీరు	5675
పిలి	5676
వృద్ధ	5677
##ేశ్వర్	5678
ఇక్కడి	5679
##ఖండ్	5680
##స్తాయని	5681
చేసిందని	5682
మంచిది	5683
వ్యవహరి	5684
విరాట్	5685
యజ	5686
##మటి	5687
##బడిన	5688
##చేశారు	5689
##లేటి	5690
మోస	5691
భూక	5692
విద్యార్థులకు	5693
చోటుచేసుకు	5694
రాశుల	5695
కుటుంబానికి	5696
సార్	5697
##మ్రా	5698
సాగ	5699
సినిమాకు	5700
రిజిస్ట్ర	5701
రిటైర్	5702
ఖరారు	5703
##ష్ఠ	5704
మాట్లాడిన	5705
సురక్ష	5706
37	5707
ఉగ్ర	5708
తూర్	5709
హైదరాబాద్‌	5710
అందజే	5711
పెట్టుబడి	5712
##కేషన్	5713
##ుకున్నారు	5714
రాజకీయాలు	5715
క్యాన్సర్	5716
వందల	5717
##గూడెం	5718
అటవీ	5719
సిద్దిపేట	5720
పెట్రో	5721
డివి	5722
##తానికి	5723
ఆరోపి	5724
రికార్డ్	5725
బైక్	5726
జర్నలి	5727
పసు	5728
‌లను	5729
##పుల	5730
విద్యార్థుల	5731
ధీమా	5732
హమా	5733
##ృత	5734
ప్రవీ	5735
##ించనున్నారు	5736
పోర్టు	5737
రోజూ	5738
##్యూరిటీ	5739
##ెంట్లు	5740
ప్రభావిత	5741
జూనియర్	5742
##రాలి	5743
పులి	5744
గ్రాముల	5745
తొలిసారి	5746
గెలిచి	5747
దశలో	5748
అసి	5749
కృష్	5750
డ్	5751
భగ	5752
పైనే	5753
ఆయనను	5754
విమానా	5755
లక్ష్మ	5756
కూతురు	5757
ఇస	5758
##ri	5759
కాళ	5760
గాజా	5761
జరిగాయి	5762
ఖై	5763
##ఢ్	5764
రాశారు	5765
##చ్చే	5766
##ాయితీ	5767
తేలింది	5768
కర్నూ	5769
అన్నీ	5770
జూలై	5771
48	5772
##ంబు	5773
##ట్రా	5774
పోవ	5775
పాల్గొన	5776
ప్రభాస్	5777
రాష్ట్రానికి	5778
సింగరే	5779
జ్ఞ	5780
ఏరియా	5781
బంతు	5782
##వెంట్	5783
నిల్	5784
అభ్యర్థిగా	5785
భద్రతా	5786
విజ్ఞప్తి	5787
కోసమే	5788
##బే	5789
లోపు	5790
కిడ్	5791
డిజ	5792
198	5793
##క్ష్మి	5794
కార్యాలయంలో	5795
కంట్రో	5796
డం	5797
విష్ణు	5798
చెప్పాడు	5799
##కేజీ	5800
భూము	5801
ఉండేది	5802
ప్రవీణ్	5803
కలు	5804
ವಿ	5805
తీసి	5806
సీఈ	5807
రూమ్	5808
వీడియోను	5809
సేవలు	5810
రాలేదు	5811
##కలా	5812
##వరీ	5813
##ికే	5814
రాబోయే	5815
##పోర్ట్	5816
యాజ	5817
సాధించింది	5818
బుక్	5819
కుమార్తె	5820
పర్యవే	5821
తక్కువగా	5822
కొర	5823
సాగర్	5824
తీసుకునే	5825
ప్రతిష్ట	5826
సమస్యల	5827
ట్రో	5828
ఆదిలాబాద్	5829
విదేశీ	5830
చెలరే	5831
యజమా	5832
వస్తోంది	5833
కామె	5834
ప్రపంచవ్యాప్తంగా	5835
వాహన	5836
హాజరయ్యారు	5837
బతు	5838
నెంబర్	5839
తరగతి	5840
రంగారెడ్డి	5841
నిర్మించిన	5842
టోర్నీ	5843
ప్రదేశ	5844
##రిత	5845
విఫ	5846
చేయకుండా	5847
మార్గ	5848
ప్రతిపాదన	5849
##పోయినా	5850
టిడిపి	5851
చెల్లించ	5852
పసుపు	5853
##త్‌	5854
పేర్	5855
రోజుకు	5856
మిలియన్	5857
కలక	5858
టైమ్	5859
పనిచేస్తున్న	5860
కార్యాలయం	5861
ప్రస్తావ	5862
ప్రియాంక	5863
మనీ	5864
##లెట్	5865
##గారు	5866
##గాలను	5867
ఘటనపై	5868
గుర్తించ	5869
ఇస్రో	5870
ఇల్లు	5871
##జ్య	5872
##so	5873
ప్రవర్	5874
అత్యా	5875
చెబుతున్న	5876
అప్పట్లో	5877
వ్యవహారం	5878
##ళ్ళు	5879
ప్రశంస	5880
అన్	5881
##ರ್	5882
కోమటి	5883
వేడి	5884
వాట్	5885
చిత్త	5886
ఉత్తర్వులు	5887
!!	5888
ఓపె	5889
మరీ	5890
##డల్	5891
##‌పై	5892
##మిన	5893
##మూర్తి	5894
##ులర్	5895
సెక్యూరిటీ	5896
విశ్లే	5897
సాంకే	5898
గంగ	5899
##రెన్స్	5900
##స్కర్	5901
కూర్చు	5902
##యోగి	5903
సైని	5904
పాలసీ	5905
లేకపోవడంతో	5906
ఆమోదం	5907
సీఐడీ	5908
వెళు	5909
సాంకేతిక	5910
32	5911
శ్ర	5912
##సుక	5913
కిరణ్	5914
జాత	5915
ఎమ్మెల్యేగా	5916
ప్లేయర్	5917
##ంపేట	5918
34	5919
అర్ధ	5920
ప్లాంట్	5921
వడ్డీ	5922
డో	5923
##ವು	5924
వేరే	5925
మీటర్ల	5926
##రణి	5927
శిక్షణ	5928
శివకుమార్	5929
నటించిన	5930
బీబీసీతో	5931
ఆశ్రయ	5932
ఇటు	5933
##‌తో	5934
##ైర్	5935
##స్యం	5936
సినిమాను	5937
బెంగా	5938
హిందు	5939
నాలుగో	5940
వెనక్కి	5941
పద్మ	5942
##మతి	5943
##వెల్	5944
కోర్	5945
##దేవి	5946
డిజి	5947
దినోత్స	5948
బ్రేక్	5949
##పెద్ద	5950
నగరంలో	5951
అందించారు	5952
ఈవెంట్	5953
షు	5954
##ారుల	5955
డెవలప్	5956
##పరమైన	5957
##న్ల	5958
పొందిన	5959
##ుకుని	5960
##స్టల్	5961
దేవర	5962
ఇంటర్వ్యూ	5963
సింగరేణి	5964
ఘా	5965
##చల్	5966
##at	5967
విషా	5968
చంద్రబాబుకు	5969
తరపున	5970
కనిపిస్తుంది	5971
##క్య	5972
##న్నర	5973
##రుడు	5974
ఒకరి	5975
చేస్తానని	5976
అనుగుణంగా	5977
కార్యకలా	5978
కార్తీ	5979
సహజ	5980
నిలిపి	5981
భక్తులకు	5982
తూర్పు	5983
టన్న	5984
ట్రి	5985
అనిల్	5986
నాణ్య	5987
దిగిన	5988
పరిశీ	5989
వైఎస్సార్	5990
శ్రీనివాస	5991
వస్తాయి	5992
గ్రామాల్లో	5993
ఇళ్ల	5994
ప్రదేశ్	5995
##లిజ	5996
##మేష్	5997
పొంగు	5998
గతే	5999
ప్రాంతం	6000
నూనె	6001
పెట్టింది	6002
విమానాశ్ర	6003
అఖ	6004
##୍ତ	6005
##ీణ	6006
##పెట్టి	6007
##స్తి	6008
##కుని	6009
##గాలకు	6010
పురా	6011
పాల్గొన్న	6012
ఇన్వ	6013
ామన్నారు	6014
also	6015
##ోందని	6016
##రోసా	6017
అవినా	6018
యాజమాన్	6019
ఎంటర్	6020
ఏమీ	6021
##୍ର	6022
##చంద్ర	6023
##సుల	6024
రాజా	6025
కేజీ	6026
వర్క్	6027
పిలు	6028
బలమైన	6029
న్నాయి	6030
జేడీ	6031
కస్టడీ	6032
ch	6033
ہو	6034
బార	6035
వో	6036
##ାର	6037
రెడ్	6038
యువతి	6039
సమీపంలోని	6040
కడప	6041
ఛే	6042
యాక్షన్	6043
కార్యక్రమానికి	6044
read	6045
సస్	6046
చేయలేదు	6047
##మైనా	6048
2020	6049
తెలుసుకుందాం	6050
హరీష్	6051
గిల్	6052
##el	6053
చేసుకునే	6054
##పడుతున్నారు	6055
నిలదీ	6056
సలహా	6057
కంట్రోల్	6058
ఓటర్లు	6059
గంజ	6060
కోడ్	6061
రేషన్	6062
న్నారు	6063
శాస్త్రవేత్త	6064
నటుడు	6065
ان	6066
##ಿದ	6067
##స్తారని	6068
పోలిస్తే	6069
రూపంలో	6070
చనిపోయిన	6071
ఆసియా	6072
కెనడా	6073
నకి	6074
##వికి	6075
పాన్	6076
లేట	6077
కోట్లతో	6078
ప్రశ్ని	6079
మండలంలోని	6080
గమనించ	6081
##ద్కర్	6082
##దురు	6083
ముద్ర	6084
దేశాలు	6085
##డ్డూ	6086
ఉంటున్న	6087
ఆర్‌	6088
ప్రభుత్వంలో	6089
జాగ్రత్తగా	6090
##మికి	6091
స్టీ	6092
రాం	6093
పనులను	6094
కర్ణాటకలో	6095
నిలబ	6096
వెంకటస్వామి	6097
ఉంచు	6098
నిజం	6099
పాలనలో	6100
ల్యాండ్	6101
ఆమోద	6102
అనారోగ్య	6103
అసిస్ట	6104
పొంగులేటి	6105
గతేడాది	6106
کہ	6107
##బన్	6108
విన్న	6109
విటమి	6110
వెలువ	6111
మాస్టర్	6112
సామాన్	6113
బియ్య	6114
అమెరికాలో	6115
##నెల	6116
జాబితాలో	6117
భోజ	6118
అల్ల	6119
జార్	6120
##తనం	6121
విడత	6122
పోయా	6123
##షన్స్	6124
వీడియోలు	6125
రావాలని	6126
ప్రోత్స	6127
కనిపించింది	6128
భిన్న	6129
ఇసుక	6130
జంతు	6131
##హార	6132
దీక్ష	6133
హైక	6134
మధ్యలో	6135
లేదంటే	6136
పడ్డారు	6137
ఒడిశా	6138
పెన్షన్	6139
కాళేశ్వరం	6140
اور	6141
ఎక్	6142
ఓటీ	6143
ాడ	6144
##సీమ	6145
ఉత్తరా	6146
ఆనంద	6147
హెల్త్	6148
కచ్చితంగా	6149
##‌‌‌‌‌	6150
##ెన్షన్	6151
##జర్స్	6152
ఆదేశించింది	6153
గెలిపించ	6154
సామర్థ	6155
##‌ర‌	6156
సస్పె	6157
ఖర్చ	6158
##పోతున్న	6159
మూడే	6160
యూట్యూ	6161
తుపా	6162
ఎంపీగా	6163
మంచిర్యాల	6164
వివాహం	6165
ముగిసిన	6166
ఓవర్లలో	6167
మంటలు	6168
41	6169
an	6170
అంటారు	6171
##ుల్లో	6172
##ేజీ	6173
##గడ	6174
##క్షంలో	6175
##ంటింగ్	6176
##మ్మల	6177
##ంబరు	6178
రంగంలో	6179
స్వయంగా	6180
గ్యాస్	6181
ధర్మా	6182
అసోసియేషన్	6183
భూకంప	6184
ఇద	6185
##ంతృ	6186
కూల్చి	6187
పిల్లలకు	6188
ఇటీవలే	6189
##దాల	6190
మాల్	6191
తీయ	6192
మరిన్ని	6193
టైటిల్	6194
ఫామ్	6195
పబ్లిక్	6196
బంతుల్లో	6197
పరంగా	6198
భరోసా	6199
వేశ	6200
శ్	6201
శే	6202
స్తూ	6203
##ంగిక	6204
ములుగు	6205
కాలేదు	6206
సంతోషంగా	6207
డాక్టర్లు	6208
గడువు	6209
కృష్ణా	6210
ద్	6211
ుడు	6212
##ెక్షన్	6213
##ಿಕ	6214
స్తున్నారు	6215
అవ్వ	6216
సెమీ	6217
వ్యాధి	6218
క్రై	6219
తీసుకోవ	6220
వంటివి	6221
చేరుకున్నారు	6222
బంగారు	6223
లైంగిక	6224
ఐదుగు	6225
ఉద్యోగుల	6226
అతిపెద్ద	6227
మరికొంద	6228
42	6229
చరణ్	6230
దిల్లీ	6231
రొ	6232
##ئی	6233
సీరియ	6234
##్రాంతి	6235
##తాధిక	6236
పొన్న	6237
ఏర్పడిన	6238
ఫోకస్	6239
ప్రత్యక్ష	6240
పీసీసీ	6241
##కంఠ	6242
ఉద్రి	6243
పరిష్కారం	6244
బృంద	6245
వదిలే	6246
వలస	6247
ఏజెన్సీ	6248
ఇరాన్	6249
కోమటిరెడ్డి	6250
ఒంట	6251
పండి	6252
మవు	6253
##రక్షణ	6254
##త్రీ	6255
తీసుకుంటున్న	6256
మారాయి	6257
నిర్ణయించారు	6258
హిందీ	6259
గంజాయి	6260
##రిగే	6261
##టీషన్	6262
ఉన్నత	6263
##దానికి	6264
విషయాలు	6265
సోనియా	6266
ఏర్పడింది	6267
సర్పంచ	6268
##నర్జీ	6269
నమ్మకం	6270
దళిత	6271
మహబూబ్	6272
గానీ	6273
నవ	6274
##ంసా	6275
##್ಟ	6276
##కుడి	6277
##కాలిక	6278
ప్రదర్శన	6279
లేటెస్ట్	6280
కప్పు	6281
##ام	6282
మాస్	6283
సర్వ	6284
చేస్తున్నాయి	6285
పెరుగుతున్న	6286
పెరుగుతుంది	6287
##స్పద	6288
ఎవరికి	6289
గౌరవ	6290
అద్భుతమైన	6291
సతీ	6292
విసి	6293
##రాం	6294
మెరుగ	6295
ఆర్డర్	6296
పెట్టే	6297
స్థానాలు	6298
ప్రధానంగా	6299
జెండా	6300
అభిప్రాయం	6301
కార్మికులు	6302
సర్వీస్	6303
అర్హత	6304
ఎనిమిది	6305
##యస్	6306
నేటి	6307
చేశాయి	6308
ఆర్మీ	6309
మధ్యప్రదేశ్	6310
డీజీ	6311
రాజకీయంగా	6312
ప్రశ్నించ	6313
జోన్	6314
ఫ్యాక్టరీ	6315
##పెట్టారు	6316
వివేకా	6317
సచివాల	6318
ప్రకా	6319
వివరి	6320
తెగ	6321
ఉన్నతాధిక	6322
ప్రత్యర్థ	6323
సెలవు	6324
రిపోర్టు	6325
ట్రైలర్	6326
పిలుపునిచ్చారు	6327
ఓటర్	6328
##ీగా	6329
##en	6330
##భూ	6331
##ట్టారు	6332
##ద్దే	6333
చోట	6334
తుల	6335
##ay	6336
కలిగిన	6337
క్షేత్ర	6338
‌‌‌‌‌‌‌‌‌‌‌‌‌‌‌‌‌‌‌‌‌‌	6339
టు	6340
##హరణ	6341
కొడ	6342
##రోధ	6343
##క్రెయిన్	6344
వర్గం	6345
రంగంలోకి	6346
##లైట్	6347
గ్లో	6348
##ಡಿಯ	6349
పరిచయం	6350
టిక్కెట్	6351
అశో	6352
గజ	6353
##ట్టింగ్	6354
అరవింద్	6355
దుకా	6356
కొనసాగుతున్న	6357
کیا	6358
దృష్టికి	6359
ఆశి	6360
ఈనెల	6361
జ‌	6362
ఫిల్	6363
##టనా	6364
##దారి	6365
##చ్చింది	6366
##డాన్ని	6367
దీప	6368
యాంటీ	6369
దీనివల్ల	6370
సంస్థల	6371
ప్రభావ	6372
వదిలి	6373
రాజ్యాంగ	6374
మెజార్టీ	6375
తేడాతో	6376
అంబేద్కర్	6377
అక్ష	6378
సంభవ	6379
వాల్	6380
##ల్లూరు	6381
పాటుగా	6382
సాధించారు	6383
ఎదుర్	6384
ఆసుపత్రికి	6385
హమాస్	6386
ఇత	6387
విధి	6388
పోస్టర్	6389
తీసుకొని	6390
సహాయం	6391
##కెక్క	6392
పడుతు	6393
మద్దతుగా	6394
ప్రొడ	6395
ఫీజు	6396
కాపాడు	6397
కురిసే	6398
ఏంటి	6399
కై	6400
సదు	6401
సమ్మ	6402
##గుల్	6403
నేర	6404
బాక్	6405
టీఎస్	6406
హింస	6407
పేరును	6408
హోటల్	6409
అమ్ము	6410
బలహీ	6411
ఉద్యోగులకు	6412
చేరింది	6413
నిందితుడు	6414
ఆగి	6415
రాష్ట్రపతి	6416
సర్టిఫ	6417
గంటల్లో	6418
న్ని	6419
చేరుకుంది	6420
వినో	6421
వీరిద్ద	6422
జాగ్రత్తలు	6423
ఫ్రెండ్	6424
గృహ	6425
తూ	6426
##నై	6427
నున్న	6428
వెల్	6429
పాప	6430
రేటు	6431
నిర్ణయించింది	6432
అలర్ట్	6433
ఆప్	6434
వాయు	6435
##రవ	6436
నిధుల	6437
రాసిన	6438
పాస్	6439
లేరు	6440
చూసుకు	6441
చేసుకోవ	6442
##ించుకోవడం	6443
గుర్తించి	6444
ప్రజాస్వామ	6445
ఉత్కంఠ	6446
అన్య	6447
##ోన్	6448
##సిల్ల	6449
సంక	6450
బాంబు	6451
లిమి	6452
బ్రిడ్	6453
అంశంపై	6454
నెటిజన్	6455
హైకమాండ్	6456
ఆశ్చ	6457
##ికొ	6458
సంబ	6459
దీపా	6460
##తాన్ని	6461
వారితో	6462
కర్నా	6463
వివాహ	6464
ప్రయాణికులు	6465
వాదనలు	6466
400	6467
##నగ	6468
##బరు	6469
చెప్పాలని	6470
రాష్ట్రవ్యాప్తంగా	6471
##త్తుల	6472
టైం	6473
క్రమంలోనే	6474
అనుకూల	6475
కలకలం	6476
అసిస్టెంట్	6477
కన్నా	6478
పార	6479
బార్	6480
##ర్షణ	6481
##ికెట్లు	6482
స్మార్	6483
కోట	6484
ప్రాథ	6485
ఆలయంలో	6486
అంశాలపై	6487
ప్రియ	6488
తప్పనిసరి	6489
ఆదు	6490
ఆన్‌	6491
##మొ	6492
##ಗೆ	6493
##స్తానని	6494
దేశాల్లో	6495
పిటీషన్	6496
సమావేశాలు	6497
తెరక	6498
2019లో	6499
పరిశోధన	6500
అంతకుముందు	6501
ఏటా	6502
ఛాన	6503
##గతం	6504
కోటి	6505
అధికారులతో	6506
##ుకుంది	6507
మనసు	6508
ఇద్దరి	6509
##ట్‌మెంట్	6510
పెరిగిన	6511
ప్రతినిధి	6512
సంపద	6513
ఇండ్లు	6514
ఖర్	6515
ఛై	6516
##ండం	6517
రాకపో	6518
##దాద్రి	6519
మంత్రిగా	6520
లీగ్	6521
విమానం	6522
మాటలు	6523
ఇంగ్లాండ్	6524
అధికారికంగా	6525
తీసుకుంటామని	6526
ఘనంగా	6527
##ధన్	6528
##ాలంటూ	6529
భూములు	6530
##ాంపి	6531
పోయిన	6532
పోస్టులు	6533
పునరు	6534
విపరీ	6535
తెల్లవారు	6536
అంట	6537
ఇస్తే	6538
నౌ	6539
##గమ	6540
##వసర	6541
##ూన్	6542
రాకుండా	6543
##వేత	6544
తెలంగాణకు	6545
అనంత	6546
మహేష్	6547
నిర్మాత	6548
వెంకట్	6549
విఫల	6550
డిజిటల్	6551
ఏళ్లు	6552
మట్టి	6553
##ారామ	6554
##నేత	6555
పొలి	6556
యాదాద్రి	6557
వీడియోలో	6558
రామకృష్ణ	6559
ఒప్పందం	6560
విశేషం	6561
ప్రాథమిక	6562
##ల్ట్	6563
##ాయక	6564
చేయండి	6565
ప్రాంతాలకు	6566
ఉంటాయని	6567
ట్రే	6568
##పెట్టిన	6569
అందుకున్న	6570
ధర్నా	6571
65	6572
త‌	6573
మిత్ర	6574
వడ	6575
##టిన	6576
చేయి	6577
సంవత్సరాలు	6578
సమర్పించ	6579
ఇంజినీ	6580
##య్యాడు	6581
క్యారెట్ల	6582
38	6583
ంటే	6584
పటే	6585
##ెడ్	6586
పోర్	6587
సమర్థ	6588
మేలు	6589
స్పందన	6590
కలెక్టరేట్	6591
తీసుకెళ్	6592
మరికొన్ని	6593
vi	6594
బ్యార	6595
భయం	6596
ప్రచు	6597
##ాయికి	6598
##పిరి	6599
చూస్తున్న	6600
బిజిన	6601
చేసుకోవచ్చు	6602
సూర్యా	6603
క్రికెటర్	6604
గద్ద	6605
లక్	6606
బెదిరి	6607
ఆధార్	6608
విచారణలో	6609
పడుతుంది	6610
అనుమత	6611
లేకపోవడం	6612
ఉద్రిక్త	6613
39	6614
ఏకా	6615
చల్ల	6616
న‌	6617
స్తారు	6618
పేలు	6619
ప్రధానమంత్రి	6620
ముఖ్యమంత్రిగా	6621
ఈవీ	6622
కంటి	6623
నవీ	6624
##దాన	6625
##లాల్లో	6626
రియల్	6627
హెడ్	6628
అభివృద్ధ	6629
మొదలైన	6630
##పాలన	6631
జడ్పీ	6632
డివిజన్	6633
బిజినెస్	6634
వ్వ	6635
##తామని	6636
##డేట్	6637
ఆదిత్య	6638
చుట్టు	6639
ఎకరాల	6640
ంటు	6641
ಮಾ	6642
##చో	6643
##ూల	6644
##am	6645
స్తా	6646
##కాంక్షలు	6647
ఉన్నాడు	6648
రిమాండ్	6649
జిల్లాకు	6650
తేల్చి	6651
మంత్రిత్వ	6652
జీవో	6653
మిస్	6654
మ్యాచ్‌లో	6655
సంవత్సరంలో	6656
మున్సిపాలిటీ	6657
##ల్లంఘ	6658
శై	6659
##ీస్	6660
##ین	6661
##ొద్దని	6662
విజయాన్ని	6663
అవుతున్నాయి	6664
గూగుల్	6665
ండి	6666
రాము	6667
పరిహారం	6668
##జీగా	6669
శ్రీధర్	6670
జరుగుతున్నాయి	6671
సూచన	6672
పథకాలు	6673
దృష్టిలో	6674
నమోదైంది	6675
భవిష్యత్	6676
ఉల్లంఘ	6677
జపా	6678
ాన	6679
##ేజ్	6680
##మిషన్	6681
సాంగ్	6682
సత్యనారాయణ	6683
రిజిస్ట్రేషన్	6684
కర్నాటక	6685
ఉదా	6686
తగి	6687
బట్ట	6688
సిట్టింగ్	6689
దేశానికి	6690
రమేశ్	6691
న్యాయవాది	6692
ందా	6693
##దన్	6694
##తిప	6695
##రామ	6696
సోర్స్	6697
##వంతమైన	6698
ఎదురుచూ	6699
ఏసీబీ	6700
ఆవిష్క	6701
వరి	6702
సీఎ	6703
స్ట్రీ	6704
చంద్రుడి	6705
జీహెచ్	6706
న్యూజి	6707
శ్రేణ	6708
నిల్వ	6709
ధన	6710
##టైన	6711
##୍ୟ	6712
##జరీ	6713
##పుల్	6714
వాళ్లకు	6715
తనపై	6716
##వర్ణ	6717
చూసు	6718
మనకు	6719
గోల్డ్	6720
అసెంబ్లీలో	6721
తెలుసుకున్న	6722
సంప్రదాయ	6723
తొమ్మిది	6724
ایک	6725
ఎత్తి	6726
రమేష్	6727
##ప్రెస్	6728
##త్న	6729
##ంతం	6730
##మాన	6731
కోలు	6732
వాణి	6733
సమక్షంలో	6734
టీం	6735
ప్రకటి	6736
ఇద్దరూ	6737
పనిచేసే	6738
పెరిగే	6739
అక్రమంగా	6740
సిరిసిల్ల	6741
న్యూజిలాండ్	6742
చది	6743
ఫార	6744
మ్	6745
శో	6746
##ాయో	6747
వివరణ	6748
నివాసం	6749
ఉన్నప్పటికీ	6750
అధికంగా	6751
అసంతృ	6752
దేవాల	6753
మారిన	6754
హైకోర్టులో	6755
స్పష్టత	6756
##కూడదు	6757
ఢీకొ	6758
హైడ్రా	6759
సుల	6760
##లక	6761
##ات	6762
##తుండగా	6763
##ండటం	6764
సింహ	6765
చంద్రబాబును	6766
లింగ	6767
విమాన	6768
##ాపన	6769
పర్యావరణ	6770
ఎక్స్‌ప్రెస్	6771
పేర్లు	6772
చంద్రయాన్	6773
నిర్వహించే	6774
ఫోర్	6775
##స్టులు	6776
వ్యవధి	6777
బెంగాల్	6778
ఓటీటీ	6779
ఓట	6780
వారా	6781
##రిట	6782
పోరు	6783
మామి	6784
వేణు	6785
##తూనే	6786
చనిపో	6787
దెబ్బతి	6788
ఫేక్	6789
భారతదేశంలో	6790
కనుగొ	6791
సానుకూ	6792
##ౌట్	6793
##st	6794
వీరికి	6795
##టికప్పుడు	6796
బ్యాటర్	6797
197	6798
ప్రశ్నలు	6799
తెరకెక్క	6800
మంద	6801
వహ	6802
##ంటరీ	6803
##మింగ్	6804
వేస్తున్నారు	6805
వ్యక్త	6806
దేవి	6807
కథనం	6808
వెబ్‌	6809
కానిస్టే	6810
##లిజెన్స్	6811
co	6812
కంప్	6813
కసర	6814
టర్	6815
##గితే	6816
రోజా	6817
##ణాన్ని	6818
తీసుకోవాలి	6819
కోర్టుకు	6820
ఫ్ల	6821
కన్నడ	6822
అధ్యయనం	6823
అభ్యర్థులను	6824
ఫ్లో	6825
గురైన	6826
స్వీకారం	6827
సీతారామ	6828
49	6829
ఎద్దే	6830
##ూహ	6831
##ئے	6832
నిర్వాహ	6833
##జిత్	6834
ఉత్తరప్రదేశ్	6835
స్పష్టంగా	6836
##ేశ్వరరావు	6837
అత్యధికంగా	6838
గడ్డం	6839
ఇస్	6840
ఎమో	6841
గలి	6842
ಗಳ	6843
##తులతో	6844
తీసిన	6845
బాడీ	6846
బీజేపీలో	6847
##మార్క	6848
కారణాలు	6849
అందజేశారు	6850
##విత్ర	6851
వైఎస్ఆర్	6852
ప్రైవేటు	6853
గిరిజన	6854
ఎండీ	6855
కాలి	6856
ారో	6857
్ని	6858
##ంక్షన్	6859
##న్నది	6860
##మ్మల్ని	6861
చింత	6862
రుతు	6863
150	6864
##సైడ్	6865
వీటిలో	6866
ఒలిం	6867
మించి	6868
సగ	6869
##లుత	6870
వాటా	6871
ప్రారంభించ	6872
తీవ్రత	6873
దూరంలో	6874
ఆలస్య	6875
##త్మకంగా	6876
వాహనాలు	6877
##వంతం	6878
##నకు	6879
దాడికి	6880
వర్గ	6881
శుభా	6882
బాలకృష్ణ	6883
షేక్	6884
లేకపోతే	6885
విక్రమార్క	6886
నియంత్రణ	6887
స్కిల్	6888
##ామిక	6889
తేల్	6890
తీసుకొ	6891
అతనికి	6892
చేసుకోవాలని	6893
ఫలితం	6894
టాటా	6895
తిరుమలలో	6896
బయలుదేరి	6897
కార్యకలాప	6898
ఖు	6899
##సనం	6900
##డాల్సి	6901
తొలుత	6902
ఎద్దేవా	6903
ఘర్షణ	6904
స్వీ	6905
##సిన్	6906
ముర	6907
సిస్ట	6908
పార్క్	6909
పైకి	6910
పేరిట	6911
గంటలు	6912
అయినప్పటికీ	6913
##దారులకు	6914
సంగారెడ్డి	6915
అభివృద్ధికి	6916
జాన్	6917
రాయ్	6918
లడ్డూ	6919
##ెత్తు	6920
ఉండడంతో	6921
చేస్తున్నామని	6922
##శ్వర్	6923
అడిషనల్	6924
ఆసుపత్రిలో	6925
ఎదుర్కొంటున్న	6926
నకిలీ	6927
##ాయర్	6928
గెలవ	6929
చేసుకోవాలి	6930
సహాయక	6931
బరిలో	6932
ఫార్మా	6933
బారిన	6934
ఆక్రమ	6935
గల్	6936
తదు	6937
##వకు	6938
##ంపుల	6939
ఎస్‌	6940
ఫ్లా	6941
నిమిషాల	6942
47	6943
ఓటింగ్	6944
నివాస	6945
స్వి	6946
##వుగా	6947
వచ్చినా	6948
చెప్పాలి	6949
##వర్గ	6950
నెల్లూరు	6951
షాపు	6952
##ామున	6953
చేరుకుని	6954
వివరాల	6955
భూమిని	6956
రిపోర్ట్	6957
మెరుగైన	6958
తదుపరి	6959
బంగా	6960
##హిత	6961
##కాయ	6962
##విల్	6963
##గామ	6964
##బాబాద్	6965
##త్రిక	6966
ఒకసారి	6967
చేస్తారని	6968
ఇదిలా	6969
లిస్ట్	6970
అక్కడికి	6971
లైఫ్	6972
శరీరంలో	6973
మనుష	6974
లిమిటెడ్	6975
46	6976
##కారం	6977
##ದ್ದ	6978
తీశారు	6979
లక్ష్యం	6980
అప్పటికే	6981
ఆలయం	6982
జరగనున్న	6983
తెలియదు	6984
కాపాడ	6985
ఉప్ప	6986
గీ	6987
ఫండ్	6988
మిల్	6989
మంచు	6990
ఉండడం	6991
సమాజ	6992
భూముల	6993
నాలుగే	6994
స్వల్ప	6995
పాత్రలో	6996
మరణించారు	6997
కారులో	6998
##చుకున్న	6999
##రగాయ	7000
కెమెరా	7001
జపాన్	7002
ఇంద్ర	7003
మం	7004
అవత	7005
అనుబంధ	7006
మాట్లాడే	7007
జట్టులో	7008
పర్వ	7009
నోటీసు	7010
మెజారిటీ	7011
ఉష్ణోగ్రతలు	7012
బియ్యం	7013
యూట్యూబ్	7014
సూర్యాపేట	7015
44	7016
బెస్ట్	7017
స్వాత	7018
రాగానే	7019
చెప్పడం	7020
సాక్ష	7021
తేలిక	7022
కేసును	7023
సంబంధాలు	7024
అవుతుందని	7025
సరిగ్గా	7026
మరికొందరు	7027
కత్తి	7028
##రన్	7029
జరిగితే	7030
అవుతున్నారు	7031
గోడ	7032
ారనే	7033
నిలిచ	7034
విభాగం	7035
ధాన్యం	7036
ప్రయోగ	7037
##ాలన్న	7038
##త్తులు	7039
నివా	7040
ఉన్నట్టు	7041
##విని	7042
భాగం	7043
కీలకంగా	7044
నిర్మాణానికి	7045
వాట్సా	7046
వహి	7047
##హరి	7048
##పించిన	7049
##వారా	7050
##ంటీర్	7051
స్న	7052
##వుతున్న	7053
కూరగాయ	7054
వాగ్	7055
ఉండేలా	7056
గాయాల	7057
జైలులో	7058
రిజర్వ్	7059
మనిషి	7060
మహబూబాబాద్	7061
పరిమిత	7062
##یڈیو	7063
పలికారు	7064
పెట్రోల్	7065
డాక	7066
బ్యాల	7067
శం	7068
##పించి	7069
##రె	7070
నిఘా	7071
స్త్రీ	7072
నాన్	7073
చూస్తు	7074
చేసుకుంటున్న	7075
క్రియేట్	7076
మణిపూర్	7077
ఖర్గే	7078
99	7079
జమ్మ	7080
బలో	7081
##లంలో	7082
##క్కల	7083
రెగ్య	7084
##ులతో	7085
##ఫ్టీ	7086
అవుతు	7087
చెబుతోంది	7088
పరిష్కరించ	7089
పెట్టుబడులు	7090
ఊహించని	7091
ంత	7092
ఆఫర్	7093
ఉల్లి	7094
చక్ర	7095
##దరి	7096
కొడు	7097
మాదిరి	7098
చేయలే	7099
వెలుగులోకి	7100
గ్రామీణ	7101
##కరంగా	7102
డెలి	7103
అభిప్రాయపడ్డారు	7104
స్కామ్	7105
చోటుచేసుకుంది	7106
ویڈیو	7107
##సీస్	7108
చివరకు	7109
లుగా	7110
ప్రాంతానికి	7111
నిర్వహించి	7112
భారత్‌లో	7113
ఉత్తమ	7114
సంఘాల	7115
అడుగులు	7116
నాగార్జున	7117
బాధితులు	7118
వయస్సు	7119
ఆస్పత్రికి	7120
క్రీడా	7121
ఇంజనీ	7122
ఎప్పటికప్పుడు	7123
ఒంటరి	7124
శుభాకాంక్షలు	7125
కండ	7126
బలం	7127
##సరా	7128
కోరిక	7129
వెహ	7130
##తీరు	7131
వైసీపీకి	7132
తెలియని	7133
##ధులను	7134
##స్తోందని	7135
విటమిన్	7136
ఆన్‌లైన్	7137
సగటు	7138
పవిత్ర	7139
##మూర్	7140
##వ‌	7141
##జీలు	7142
నాయకుల	7143
వ్యక్తిని	7144
##స్టిక్	7145
గ్రేటర్	7146
కళాశాల	7147
##చె	7148
##నుల	7149
##ార్క్	7150
##తోన్న	7151
##పాతం	7152
##సాని	7153
తమను	7154
ఆర్థికంగా	7155
ఫలితంగా	7156
అశ్వి	7157
యాజమాన్యం	7158
54	7159
డయా	7160
దసరా	7161
భవన	7162
##తంత్ర	7163
##శై	7164
##నేయ	7165
కొండా	7166
వేచి	7167
మార్గం	7168
ప్రజల్లో	7169
క్రె	7170
సభకు	7171
ారంటూ	7172
సభ్యుడు	7173
బిల్డింగ్	7174
ఎకరాల్లో	7175
یہ	7176
ఆశా	7177
ఔట్	7178
##శంకర్	7179
##వళి	7180
##చలం	7181
వీలు	7182
మూసి	7183
రాజకీయం	7184
జైలుకు	7185
షిప్	7186
మ్యూజిక్	7187
ఛాన్స్	7188
ఉదాహరణ	7189
జమ్మూ	7190
କର	7191
జమ	7192
సప్	7193
##దికి	7194
##tt	7195
##ించగా	7196
నున్నారు	7197
##్యాలు	7198
దాటి	7199
దాకా	7200
అయ్యి	7201
కుటుంబాలకు	7202
అంశా	7203
పిల్లలను	7204
అంశాలు	7205
నిర్వహిస్తున్న	7206
వైరస్	7207
##లక్ష్మి	7208
##రాయి	7209
##తిన్	7210
సిక్	7211
సంకే	7212
రియా	7213
నేతలతో	7214
నెలలు	7215
##గ్రహ	7216
కెసి	7217
తీర్మానం	7218
కార్యక్రమాన్ని	7219
ఐదుగురు	7220
ఇష్టం	7221
ఐక్య	7222
జట్టుకు	7223
టికెట్లు	7224
##ھا	7225
విగ్రహం	7226
##పోర్	7227
టీజర్	7228
పుట్ట	7229
జగదీ	7230
అతడి	7231
వాటిలో	7232
ఇంటె	7233
##త్వంలోని	7234
ఆనంద్	7235
రాజమండ్రి	7236
భోజనం	7237
డాక్యు	7238
ఉంద	7239
ఉప్పు	7240
ధా	7241
పిల్	7242
##ری	7243
##క్షన్స్	7244
కూలీ	7245
ముప్పు	7246
వాటికి	7247
పథకాల	7248
ఇంటర్నే	7249
బ్రహ్	7250
లభించింది	7251
ఉపాధ్యాయ	7252
అలవాటు	7253
అశోక్	7254
گیا	7255
##తన్య	7256
##లండ్	7257
సమన్	7258
##ంట్ల	7259
అనిపి	7260
తీవ్రమైన	7261
యువకుడు	7262
రంగం	7263
యూనియన్	7264
కిలోల	7265
పారిశ్ర	7266
నిరాశ	7267
నాయకత్వం	7268
పారిశ్రామిక	7269
ఎల్ల	7270
ఐఏ	7271
చర్మ	7272
##re	7273
##ారిత	7274
స్తే	7275
##ంటుందని	7276
చిన్నారి	7277
అందిస్తున్న	7278
వస్తాయని	7279
శుభ్ర	7280
కోరుతూ	7281
విభజన	7282
శాసనసభ	7283
స్టోరీ	7284
గ్లోబల్	7285
##ಡಿಯೋ	7286
వాట్సాప్	7287
బలోపే	7288
సవా	7289
##డక	7290
##కార	7291
##ండెంట్	7292
##ప్పుడే	7293
అన్నది	7294
రోడ్లు	7295
శరీర	7296
హుస్	7297
##డ్డాడు	7298
సీరియస్	7299
ఇళ్లు	7300
##ab	7301
##وی	7302
##ారన్న	7303
##యాంశ	7304
కోటా	7305
##మిక్	7306
బీమా	7307
##నీయాంశ	7308
కింగ్	7309
##మ్మద్	7310
##ధ్యం	7311
మార్గంలో	7312
పొర	7313
సౌత్	7314
పౌర	7315
ధ్వంసం	7316
డెలివరీ	7317
టమా	7318
##గఢ్	7319
##‌‌లో	7320
సుదీ	7321
తెలుస్తుంది	7322
జనతా	7323
పెట్టడం	7324
వచ్చినట్లు	7325
స్వాగతం	7326
సరిపో	7327
నిర్మించ	7328
రాజీవ్	7329
వీరిలో	7330
నవీన్	7331
కబ్	7332
లొ	7333
##లెన్స్	7334
##హర్	7335
##షిక	7336
##ొచ్చని	7337
##ందింది	7338
మార్క్	7339
భాస్కర్	7340
నేతలకు	7341
తేదీల్లో	7342
కార్మికుల	7343
తినడం	7344
తనిఖీలు	7345
దక్షిణాఫ్రికా	7346
కసరత్తు	7347
##లె	7348
##పర	7349
డిపా	7350
వాహనం	7351
క్వార్	7352
ఆయుధ	7353
సస్పెండ్	7354
వెబ్‌సై	7355
కేశ	7356
థ్ర	7357
##మంతా	7358
అంతరి	7359
కొత్తగూడెం	7360
చర్చనీయాంశ	7361
పెరిగాయి	7362
ఫలితాలను	7363
అప్పుడే	7364
ఎన్డీఏ	7365
ఇందిరా	7366
ఇంటర్నేషనల్	7367
ఉంటూ	7368
టూ	7369
బల్	7370
##డైన	7371
చేతులు	7372
##నులు	7373
నితీ	7374
స్ఫ	7375
పోయే	7376
పెళ్ల	7377
చూసే	7378
నెయ్యి	7379
##బంధు	7380
వెళ్ళ	7381
ఆధారాలు	7382
అడుగుల	7383
ఫాలో	7384
సొంతం	7385
ప్లేస్	7386
విశాఖపట్నం	7387
సీపీఐ	7388
డీజీపీ	7389
మామిడి	7390
ఆక్	7391
ఉందా	7392
రం	7393
వలన	7394
##సలు	7395
నిత్యం	7396
##ప్పటి	7397
పోతున్న	7398
##సేజ్	7399
బెడ్	7400
కాలంగా	7401
ఎంపీలు	7402
2016	7403
నిందితులు	7404
పెట్టుకున్న	7405
ఇంగ్లండ్	7406
##క్రియ	7407
##డియం	7408
పోల్	7409
##మెన్	7410
ప్రారంభించిన	7411
తున్న	7412
హామీలు	7413
ఎయిర్‌	7414
స్కోరు	7415
ఛైర్మన్	7416
ఇంటెలిజెన్స్	7417
59	7418
అహ్మద్	7419
##తన్	7420
##శీ	7421
స్పి	7422
పోర్ట్	7423
సిం	7424
సమగ్ర	7425
##కూరు	7426
వారీగా	7427
అతన్ని	7428
ట్రాక్	7429
కోరుతున్నారు	7430
వేడుకలు	7431
ఎక్కడా	7432
##ಂದು	7433
స్థలానికి	7434
పల్లె	7435
సార్వ	7436
ఎగ	7437
తహ	7438
##జిల్	7439
కొట్టుకు	7440
మేయర్	7441
వారే	7442
క్షమా	7443
లభిస్తుంది	7444
సురేష్	7445
డిజైన్	7446
ఆశ్చర్య	7447
పటేల్	7448
శంకు	7449
##నమెంట్	7450
##ెన	7451
##కల్	7452
సిట్	7453
తీర్చ	7454
వేముల	7455
రూరల్	7456
##యింగ్	7457
తిర	7458
##కాశం	7459
కీలకమైన	7460
సూచించింది	7461
నిర్మల్	7462
##మవుతుంది	7463
పెట్టుకుని	7464
కడుపు	7465
ରେ	7466
గది	7467
పాలి	7468
##మణి	7469
##ps	7470
##టిక్స్	7471
లేవని	7472
సమయానికి	7473
##సాద్	7474
కారణమని	7475
దోపి	7476
అప్లిక	7477
ఆరుగు	7478
డమే	7479
##ic	7480
##ھی	7481
చేశా	7482
వచ్చాక	7483
##సేపు	7484
రివ్యూ	7485
##ించేలా	7486
మండలి	7487
భాగస్వామ	7488
సూచనలు	7489
వృత్తి	7490
##ద్దీన్	7491
నొప్పి	7492
ఆకా	7493
ఖండ	7494
నంది	7495
పత	7496
##ార్హం	7497
పాటి	7498
తెలిసిన	7499
##ెట్టు	7500
నాట	7501
##స్ట్రి	7502
బిఆర్ఎస్	7503
##ర్యానా	7504
ఫోర్స్	7505
పీఎస్	7506
ంచారు	7507
సంచారం	7508
సహకార	7509
సిద్దం	7510
గుండెపోటు	7511
బలహీన	7512
అఫ్	7513
ధరణి	7514
పట్టి	7515
పైనా	7516
పోషి	7517
##జాన్	7518
మోడల్	7519
సినిమాల్లో	7520
పిఠా	7521
అవుట్	7522
చెబుతున్నాయి	7523
మొత్తంలో	7524
##లికా	7525
ాలని	7526
అనుమానం	7527
అదనంగా	7528
అండర్	7529
కక్ష	7530
గమన	7531
##సాయి	7532
##ట్‌లో	7533
హాల్	7534
చేసుకోవడం	7535
టాపిక్	7536
హత్యకు	7537
ఆస్పత్రిలో	7538
బ్రాండ్	7539
సునీల్	7540
అబ్దు	7541
చిత్తూరు	7542
అవినాష్	7543
బ్రిడ్జి	7544
క్వార్టర్	7545
go	7546
రస	7547
సత్తా	7548
##హో	7549
##ణాల	7550
##لی	7551
##ak	7552
##ప్ట్	7553
పార్టీలకు	7554
మార్చు	7555
జాతర	7556
ఉపయోగి	7557
సంగీ	7558
రాయల	7559
అప్పులు	7560
అంతేకాకుండా	7561
ఏను	7562
##ద్వే	7563
వేస	7564
##త్తం	7565
బెది	7566
జాబ్	7567
సమయంలోనే	7568
అంబా	7569
##పూడి	7570
భువన	7571
స్కీమ్	7572
బదు	7573
##హనం	7574
కోల్‌	7575
కూర్చ	7576
నాశ	7577
తీసుకువ	7578
సినిమాతో	7579
బిలియన్	7580
పేర్కొన్న	7581
తప్పకుండా	7582
ఘటనలు	7583
ల్ని	7584
స్పందించిన	7585
ఉచితంగా	7586
అప్లికేషన్	7587
గమనార్హం	7588
జట్లు	7589
##గల్	7590
##యన	7591
##le	7592
##ర్తి	7593
ప్రగతి	7594
##పోవడంతో	7595
తోంది	7596
##దాన్ని	7597
మొన్న	7598
హైవే	7599
##ించిందని	7600
అనుస	7601
##స్టార	7602
ప్రారంభి	7603
బయటికి	7604
ఇందుకోసం	7605
అందించే	7606
దొరక	7607
నిజంగా	7608
నెటిజన్లు	7609
సులభ	7610
సమన్వ	7611
600	7612
డౌన్	7613
తార	7614
మన్నారు	7615
##డె	7616
##హాలను	7617
##ారంటూ	7618
పెడుతున్న	7619
మావో	7620
నేపాల్	7621
##డీవో	7622
##సేప	7623
తెలిపిన	7624
స్ట్రా	7625
జనగామ	7626
##ంజర్	7627
పాలస్తీ	7628
అత్యు	7629
కౌంటింగ్	7630
విక్రయ	7631
లాభాలు	7632
పేదలకు	7633
చౌదరి	7634
గ్యారంటీ	7635
అధ్యక్షుడిగా	7636
రవీంద్ర	7637
సామాన్య	7638
సర్పంచ్	7639
సన్న	7640
##గ్రి	7641
స్తుందని	7642
కొరియా	7643
ముక్క	7644
##వర్స్	7645
టీఎంసీ	7646
సెన్	7647
సెగ్	7648
తీసుకురావ	7649
స్పే	7650
పనితీరు	7651
కలసి	7652
‌‌కు	7653
ముందుగానే	7654
ఢిల్లీకి	7655
##and	7656
ఎగ్జా	7657
స్టేడియంలో	7658
తెల్లవారుజ	7659
బంగాళా	7660
భువనగిరి	7661
గార్	7662
హర్యానా	7663
##చరణ	7664
##ೆಯ	7665
##ంత్రా	7666
నిరూ	7667
నువ్వు	7668
కూలి	7669
టీపీ	7670
సోదాలు	7671
##గొట్ట	7672
పనులకు	7673
గొంతు	7674
నిర్వహిస్తున్నారు	7675
సీతక్క	7676
నేతృత్వంలోని	7677
సుదీర్ఘ	7678
శంకుస్థ	7679
ہیں	7680
అచ్చ	7681
ఇష	7682
కరు	7683
##ఖరి	7684
చేరే	7685
స్పా	7686
##టిస్	7687
కొల	7688
సీజ్	7689
తోడు	7690
కనిపిస్తున్నాయి	7691
వైద్యం	7692
సాగుతోంది	7693
పోరాట	7694
కేటాయించ	7695
సూచిస్తున్నారు	7696
##స్థాయిలో	7697
బతుక	7698
ఏండ్ల	7699
కట్	7700
సందే	7701
##ାଇ	7702
##ಡು	7703
విజే	7704
పెంపు	7705
##సాహ	7706
ప్రభుత్వంపై	7707
కలిసిన	7708
పదవికి	7709
శరీరం	7710
స్క్రీన్	7711
పరామర్శ	7712
దృశ	7713
ఈవీఎం	7714
కలుపు	7715
యొక్క	7716
##టల్స్	7717
##హే	7718
##ందరికీ	7719
##డిట్	7720
తెరి	7721
సిగ్	7722
##రేటర్	7723
చంద్రశేఖర్	7724
డీఎం	7725
రామచంద్ర	7726
ఆశీర్	7727
ప్రకటనలో	7728
##మయ్యాయి	7729
పండగ	7730
సదుపాయ	7731
సీఎంగా	7732
th	7733
ఆడు	7734
##హిల్స్	7735
##ాలీ	7736
చేసినట్టు	7737
##స్టుల	7738
##గోపాల్	7739
స్థానాలకు	7740
లీక్	7741
దూసు	7742
నమ్ము	7743
##ಲ್‌	7744
చేస్తుందని	7745
గేమ్	7746
మల్లిక	7747
సెకండ్	7748
లెక్కలు	7749
అర్హుల	7750
జుట్టు	7751
స్మార్ట్	7752
కోల్‌క	7753
ఆస్తి	7754
ట్రీ	7755
##‌క	7756
##వనే	7757
రాఘ	7758
వర్కింగ్	7759
##హానికి	7760
వార్డు	7761
కాల్పులు	7762
ప్రభావితం	7763
పొలిటికల్	7764
ఏడా	7765
దానం	7766
‌కి	7767
##టెక్	7768
##జో	7769
లేన	7770
వేసే	7771
వేలాది	7772
సమాచారాన్ని	7773
##పూర్వ	7774
డైలా	7775
సరిగా	7776
డేట్	7777
వ్యాపారం	7778
ఎవరికీ	7779
లక్ష్మి	7780
సిటీలో	7781
క్వి	7782
వెనక	7783
ప్రతినిధులు	7784
కోరింది	7785
వాలంటీర్	7786
ఏమైనా	7787
చాలు	7788
##పాలి	7789
##పించింది	7790
##وں	7791
విలీ	7792
కుంటున్న	7793
వెల్లు	7794
##వుల్లో	7795
బాట	7796
##పర్తి	7797
ఢిల్లీలోని	7798
జైల్లో	7799
చైర్	7800
గ్రూపు	7801
ఏమిటి	7802
43	7803
అంజ	7804
##న్నర్	7805
##సిపి	7806
సిలి	7807
బీసీసీ	7808
వ్యక్తుల	7809
ఎన్నికలలో	7810
కుటుంబంలో	7811
పనుల	7812
టాస్	7813
##ేశ్వరి	7814
కనిపించడం	7815
ప్రయోజనాలు	7816
ఒప్పంద	7817
అప్రమత్తంగా	7818
బీసీసీఐ	7819
ఇండ్ల	7820
ఫౌ	7821
లారీ	7822
లన్నీ	7823
ైన	7824
##డూ	7825
##7లో	7826
##టీస్	7827
నుంది	7828
##ందున	7829
వెలు	7830
పాల్పడిన	7831
జరుగుతుందని	7832
ప్రభుత్వాలు	7833
ప్రముఖులు	7834
ఎలక్షన్	7835
తిరస్క	7836
ఒప్పు	7837
కం	7838
త్	7839
##ైతే	7840
##ఫోర్	7841
గాను	7842
##పిక్స్	7843
క్లీ	7844
గోల్	7845
నగరం	7846
ఫీచర్	7847
చక్కెర	7848
ఆసీస్	7849
గంగా	7850
గడ్డ	7851
ಪ್ರ	7852
##భద్ర	7853
విరమ	7854
చెత్త	7855
వెయ్యి	7856
పాండ	7857
నాగర్	7858
ఏర్పడి	7859
లక్షణాలు	7860
హైదరాబాద్‌లో	7861
##ినాడ	7862
196	7863
గురయ్యారు	7864
బ్రిటన్	7865
చరిత్రలో	7866
గ్యాంగ్	7867
కాకినాడ	7868
56	7869
51	7870
sh	7871
గరి	7872
ఘటనా	7873
యే	7874
సల్	7875
##రద	7876
##వణ్	7877
##ai	7878
##ಂಬ	7879
##ాయన్నారు	7880
వేసు	7881
##జీవ	7882
స్థాయికి	7883
నెలకు	7884
టైంలో	7885
కోల్పోయిన	7886
ముగియ	7887
సమాధాన	7888
##రోధక	7889
బతుకమ్మ	7890
ఇయర్	7891
ులు	7892
##కంలో	7893
##వత్	7894
##వస్థ	7895
##వారీ	7896
##ధ్	7897
##దశి	7898
##షన	7899
##వాదం	7900
సివిల్	7901
వేలకు	7902
##పోవడం	7903
మేష	7904
మేడ్	7905
రింగ్	7906
##ణాల్లో	7907
....	7908
##షియా	7909
ఎదుట	7910
సందీ	7911
వెళ్లేందుకు	7912
గ్లా	7913
దారుణంగా	7914
నిరాక	7915
విభే	7916
డిగ్రీల	7917
ఘోర	7918
ವಿಡಿಯೋ	7919
58	7920
అంటున్న	7921
కీర్	7922
టెన్షన్	7923
డొ	7924
పల్	7925
బ్యూటీ	7926
##తంలో	7927
##నికే	7928
మాస	7929
రేంజ్	7930
కలిశారు	7931
పింఛ	7932
రీసె	7933
ప్రజాప్ర	7934
చేసుకున్నాడు	7935
గాయపడిన	7936
చేయాల్సిన	7937
లక్నో	7938
రాయలసీమ	7939
గద్	7940
ళ్	7941
##భార	7942
##ట్టం	7943
పరిణా	7944
నాథ్	7945
##్యూటర్	7946
రాజశేఖర్	7947
చోరీ	7948
పక్కా	7949
##మవుతోంది	7950
క్రిమిన	7951
గెలుపొ	7952
రాజేంద్ర	7953
భద్రాచలం	7954
జేడీఎస్	7955
బస	7956
సజ్జ	7957
##తుడు	7958
విల	7959
పెడితే	7960
##కానికి	7961
సమాచార	7962
##ుకునే	7963
కేంద్రానికి	7964
ఆర్టి	7965
అతడు	7966
లింక్	7967
##సైటీ	7968
ముంబయి	7969
జయంతి	7970
విషయాలను	7971
సాధ్యం	7972
భూకంపం	7973
కన్నీ	7974
బడు	7975
##తగా	7976
##ବା	7977
##రిస్తున్న	7978
వెలి	7979
##కోవాల్సి	7980
##నీటి	7981
##స్థాన	7982
కేంద్రంలోని	7983
కృత	7984
నిబంధనలు	7985
మృతదేహాన్ని	7986
బ్యారేజీ	7987
అవా	7988
ద‌	7989
##్ర్	7990
##పుతున్న	7991
##పైకి	7992
##ెస్ట	7993
సీఎస్	7994
##క్కులు	7995
తిప్ప	7996
తేలి	7997
ముఖ్యం	7998
##రగో	7999
గ్రామాల	8000
సొసైటీ	8001
ఆందోళనకు	8002
న్యాయమూర్తి	8003
జడ్జి	8004
అఖి	8005
పొన్నం	8006
వినోద్	8007
దోపిడీ	8008
ఇవ్	8009
ఎంచ	8010
##نے	8011
##ఛార్	8012
##స్పా	8013
స్తాయి	8014
##ద్దాం	8015
##యింట్	8016
ఏర్పడ	8017
మాట్లాడి	8018
తుఫ	8019
సమావేశానికి	8020
##భావం	8021
సంఘాలు	8022
చూడాలని	8023
##లవరం	8024
కౌన్సిల్	8025
నివసి	8026
కాంట్రాక్	8027
అనుభవం	8028
నిర్లక్ష్యం	8029
ఆకర్ష	8030
సెగ్మెంట్	8031
52	8032
ఆడిన	8033
జాన	8034
వస్తున్నారు	8035
##ెల్‌	8036
##కారులు	8037
##మ‌	8038
##di	8039
##ct	8040
విడా	8041
బీహార్	8042
##ారాబాద్	8043
స్థలం	8044
తాత్	8045
తీసుకుంటే	8046
పెద్దలు	8047
##షింగ్	8048
బొమ్మ	8049
ప్రాధాన్యం	8050
##కూడదని	8051
ధర్మాసనం	8052
కానిస్టేబుల్	8053
57	8054
బాలా	8055
సత్	8056
##తాల	8057
రానుంది	8058
గులా	8059
##పోతున్నారు	8060
జిల్ల	8061
రైళ్లు	8062
దిగి	8063
లాల్	8064
##ండీస్	8065
గిరిజ	8066
భువనే	8067
2014లో	8068
"."	8069
బస్సులు	8070
ప్రజాప్రతిని	8071
తను	8072
బడి	8073
##యడం	8074
##ికీ	8075
రెస్టార	8076
ప్రాతిని	8077
రాష్ట్రాలకు	8078
చేస్తాయి	8079
బీఆర్‌	8080
కల్తీ	8081
ఒక్కొక్క	8082
అంశాలను	8083
భావిస్తున్న	8084
వ్యవస్థను	8085
అడిగి	8086
కమలా	8087
తరహాలో	8088
పరిశీలి	8089
టూరి	8090
##మనం	8091
##చారి	8092
##నిస్తాన్	8093
చేయలేదని	8094
మెసేజ్	8095
మేడి	8096
వర్తి	8097
195	8098
భారతదేశం	8099
వెల్లడి	8100
నిందితుల	8101
గాయాలు	8102
ప్రసంగ	8103
అరుదైన	8104
లోకేశ్	8105
దర్శకత్వంలో	8106
హర్ష	8107
టన్నుల	8108
66	8109
85	8110
తినే	8111
ధృ	8112
పటి	8113
ాల్సిన	8114
ವೈ	8115
##ఫార్	8116
##or	8117
##కుంట	8118
కాంబ	8119
కొని	8120
##క్రో	8121
విషయానికి	8122
వారంతా	8123
కేసుల్లో	8124
‌‌‌‌కు	8125
గౌత	8126
వ్యాపారులు	8127
కంటెంట్	8128
అన్యాయం	8129
ఊపిరి	8130
కష్టం	8131
మహ్మద్	8132
రన్	8133
##కారు	8134
##ಿಯ	8135
వేటు	8136
ఆయిల్	8137
ఆయన్ను	8138
స్టాక్	8139
కల్వకు	8140
సమస్యను	8141
చేసుకొని	8142
నిలిచారు	8143
అందించిన	8144
స్వతంత్ర	8145
పరిస్థితిని	8146
మారుతోంది	8147
##స్తోన్న	8148
చెందారు	8149
మలయా	8150
సార్వత్రిక	8151
తాత్కాలిక	8152
కన్ను	8153
పాయి	8154
మగ	8155
##కన్	8156
##మానా	8157
తీర	8158
చిన్నారు	8159
పొగ	8160
కేంద్రంగా	8161
నిర్వహించాలని	8162
హెలికా	8163
ఉద్యోగాల	8164
వృద్ధి	8165
ఒకేసారి	8166
రహదారి	8167
ప్రశాంత	8168
వినిపిస్తున్నాయి	8169
మేనేజర్	8170
జరిపిన	8171
వంశీ	8172
విశ్లేష	8173
tel	8174
ఎలి	8175
దౌ	8176
బయో	8177
మరు	8178
##మన్నారు	8179
సమంత	8180
నాన్న	8181
కలగ	8182
ఆరోగ్యానికి	8183
##ించుకుని	8184
నిజానికి	8185
యజమాని	8186
అంతరిక్ష	8187
క్షమాపణ	8188
సందీప్	8189
ఇవే	8190
ఇస్తున్నారు	8191
##ప్రా	8192
##థా	8193
##as	8194
##స్తరు	8195
చూస్తున్నారు	8196
వర్గానికి	8197
చేస్తున్నాడు	8198
శిశు	8199
మహే	8200
దూర	8201
కిందట	8202
తగ్గింది	8203
తలెత్త	8204
పోయారు	8205
బెంగళూరులో	8206
##బెట్ట	8207
భవనం	8208
అధిష్ట	8209
మునిగి	8210
లండ	8211
రాణి	8212
##దిగా	8213
చేస్తాం	8214
అనుభవ	8215
పొందే	8216
జీవన్	8217
నేతలను	8218
దుబ	8219
వర్షాల	8220
మొత్తంగా	8221
వేయాలని	8222
బైడెన్	8223
సదరు	8224
మల్కా	8225
నిషేధ	8226
స్టేడియం	8227
77	8228
ఎత్త	8229
బక	8230
సమితి	8231
ప్రతిక	8232
##తుంటారు	8233
శ్రీకా	8234
జీవన	8235
పెట్టాలని	8236
విధించింది	8237
సాధించి	8238
ఏపీకి	8239
పరిస్థితుల	8240
ట్ల	8241
లీకేజీ	8242
##సభ్య	8243
యోగం	8244
కొట్టే	8245
సంక్షేమం	8246
ప్రీమి	8247
##స్టేట్	8248
కబ్జా	8249
బంగాళాఖా	8250
ne	8251
##لا	8252
##ట్లే	8253
##ండడంతో	8254
స్వే	8255
కోర	8256
##సీబీ	8257
బాస్	8258
తానే	8259
సందర్బ	8260
ప్రభావంతో	8261
జీహెచ్ఎంసీ	8262
అసంతృప్తి	8263
ఐఏఎస్	8264
బలోపేతం	8265
టూర్	8266
బంద్	8267
హే	8268
##కత	8269
##వచ్చని	8270
##జార్	8271
##లింగ	8272
మోస్తరు	8273
ఇచ్చాడు	8274
ట్లే	8275
పట్టించుకోవడం	8276
చర్చించారు	8277
అర్బన్	8278
తెలుగులో	8279
పనిచేసిన	8280
యూనిట్	8281
చనిపోయారు	8282
హనుమాన్	8283
చెప్తున్నారు	8284
సైన్యం	8285
లక్ష్మణ్	8286
దక్కి	8287
మాల	8288
##మాల	8289
##చారానికి	8290
రెజ్	8291
##బ్బు	8292
##విటీ	8293
జీర్ణ	8294
తరచూ	8295
విడుదలైన	8296
వైఎస్‌	8297
కష్టాలు	8298
అంబటి	8299
ఖాతాలో	8300
ఎన్డీయే	8301
ప్రపంచంలోనే	8302
అర్ధరాత్రి	8303
శాస్త్రవేత్తలు	8304
కెసిఆర్	8305
కోల్‌కతా	8306
హృ	8307
##ప్టర్	8308
##ేశం	8309
మెరుపు	8310
##తాబ్	8311
##జిన్	8312
పనిలో	8313
అధ్యక్షులు	8314
హామీలను	8315
న్యాయస్థానం	8316
2009	8317
జియో	8318
లోపల	8319
నిషేధం	8320
##పోర్ట్స్	8321
పరిణామాలు	8322
అబ్బ	8323
ఖచ్చితంగా	8324
డ్రో	8325
దళి	8326
పసి	8327
##గాయని	8328
తీసే	8329
బీజేపీతో	8330
కేసుల	8331
భూపాల	8332
నియమి	8333
లాభం	8334
చిరుత	8335
విరుద్ధ	8336
ఆసక్తికర	8337
హనుమకొండ	8338
ఉగ్రవా	8339
అజయ్	8340
ఆస్తులు	8341
ఏది	8342
యి	8343
##తక	8344
##ఫాబాద్	8345
##సిస్	8346
మానే	8347
చేయడంలో	8348
##వింగ్	8349
##తున్నట్లు	8350
దీర్ఘ	8351
మోట	8352
లుక్	8353
పనిచేశారు	8354
వద్దని	8355
యువకులు	8356
పోలీసులను	8357
సహకారం	8358
హెచ్‌	8359
వ్యతిరేకత	8360
నరసింహ	8361
వేర్వే	8362
అద్దె	8363
మావోయి	8364
ఐసీసీ	8365
వంతు	8366
##నెట్	8367
##మాన్ని	8368
కొంచ	8369
అనుకో	8370
సినిమాపై	8371
నిలిచిన	8372
స్టార్ట్	8373
వస్తువులు	8374
వివాదా	8375
ఆసుపత్రి	8376
తవ్వ	8377
నెక్	8378
##వస	8379
##వాలని	8380
##ంటో	8381
##మానికి	8382
##గుట్ట	8383
నేల	8384
##వేర్	8385
##నాల్	8386
హాస్టల్	8387
చేపట్టాలని	8388
దాడిలో	8389
స్టూడెంట్స్	8390
కుమార	8391
ఊర	8392
దయా	8393
మిల్ల	8394
శ్రమ	8395
సగం	8396
##టప్పుడు	8397
##‌ల్	8398
##పిల్	8399
##ాంగ	8400
##గౌ	8401
##ir	8402
స్పోర్ట్స్	8403
మాన్	8404
‌‌‌‌‌‌‌‌‌‌‌‌‌‌‌‌ను	8405
తప్పి	8406
సొమ్ము	8407
అదృ	8408
సోదరుడు	8409
నగరంలోని	8410
కర్నూలు	8411
ఇస్లా	8412
స్పేస్	8413
జట్ల	8414
##సార	8415
##సల్	8416
##ేలా	8417
##ధన	8418
##దె	8419
##ఐఆర్	8420
##ందరూ	8421
రాసి	8422
చెరు	8423
ఇచ్చేందుకు	8424
##కాలంగా	8425
తుమ్మల	8426
బుమ్రా	8427
డబ్ల్యూ	8428
వికారాబాద్	8429
చైతన్య	8430
##మైతే	8431
##ట్యూట్	8432
రాజేందర్	8433
నెరవేర్చ	8434
పండితులు	8435
తెల్లవారుజామున	8436
ందే	8437
ఇండ్	8438
ఐదో	8439
కండు	8440
ధన్య	8441
బండ	8442
మంచ	8443
ొచ్చు	8444
##ుని	8445
##లనం	8446
##చర్లు	8447
##ార్ట్‌మెంట్	8448
##టుగా	8449
తెచ్చి	8450
‌‌‌‌‌‌‌‌‌‌‌‌‌‌‌‌కు	8451
వచ్చని	8452
మిలి	8453
ప్రాంతాలు	8454
సైట్	8455
మొత్తాన్ని	8456
సిద్ధరామయ్య	8457
స్వచ్ఛ	8458
వ్యాఖ్యలపై	8459
పోయాయి	8460
రాష్ట్రాన్ని	8461
టేబుల్	8462
ఇన్వెస్	8463
ఎఫ	8464
బాయ్	8465
##డారు	8466
##నంద	8467
##యితే	8468
కొబ్బ	8469
పురో	8470
తేజ	8471
##షిప్	8472
ఫిక్స్	8473
మహేశ్	8474
దగ్గరకు	8475
ఫోన్లు	8476
ాలన్నారు	8477
పర్సన్	8478
ముగిసింది	8479
తెలుసుకున్నారు	8480
విస్తరణ	8481
ఉద్యమం	8482
సదస్సు	8483
అంగీకరించ	8484
పురస్క	8485
క్లాస్	8486
భవిష్యత్తులో	8487
63	8488
అబద్ధ	8489
వంత	8490
శ్రా	8491
##దిన	8492
##ಕ್	8493
##కాడ	8494
డిఫ	8495
మిశ	8496
సైన్స్	8497
ఎవరో	8498
నిరుద్యోగ	8499
చిత్రాన్ని	8500
నినాదాలు	8501
భూములను	8502
శంకుస్థాపన	8503
ہم	8504
మళ్ల	8505
హస్త	8506
##మం	8507
##ష్యం	8508
కావాల్సిన	8509
##దిద్ద	8510
##ళ్లే	8511
మాధ	8512
ఇచ్చారని	8513
ప్ల	8514
అనర్	8515
ఇకపై	8516
కావాలి	8517
ారన్న	8518
అమ్మవారి	8519
వార్తా	8520
##భివృ	8521
రాశిలో	8522
పర్యటనలో	8523
మౌలిక	8524
మనోజ్	8525
సంగీతం	8526
ఆప్షన్	8527
కట్టి	8528
త్యా	8529
రకర	8530
సపోర్ట్	8531
##డిక	8532
##టల	8533
##ఐఎం	8534
##ల్దార్	8535
రాణ	8536
##స్తాం	8537
వాన	8538
సీన్	8539
దాస్	8540
##కొత్త	8541
వారంలో	8542
ఎమ్మెల్యేల	8543
‌‌‌‌ను	8544
తుంది	8545
సరికొత్త	8546
నిర్మించారు	8547
##బియా	8548
నిందితులను	8549
విభాగంలో	8550
జరప	8551
##ైర్యం	8552
07	8553
ఆంక్షలు	8554
ఈవో	8555
ఊరు	8556
చంపే	8557
##సెంట్	8558
##డవు	8559
##ରେ	8560
ప్రార్థ	8561
స్తం	8562
పోలవరం	8563
కొద్దీ	8564
పైల	8565
పార్టీలోకి	8566
రిజ	8567
చేస్తామన్నారు	8568
మధ్యంతర	8569
యూత్	8570
యూఎస్	8571
ప్రారంభించింది	8572
చెబుతారు	8573
సమస్యలపై	8574
ఉపయోగించి	8575
##మూరి	8576
ాయన్నారు	8577
హక్కుల	8578
పదేళ్ల	8579
పత్రాలు	8580
దారుణ	8581
రూపొంది	8582
అవకాశముందని	8583
ట్రోఫీ	8584
ప్రత్యర్థి	8585
దీపావళి	8586
భూపాలపల్లి	8587
ఛత్త	8588
##um	8589
##ంగో	8590
##లానికి	8591
##ంబి	8592
రిటర్	8593
మూసీ	8594
తెలుసా	8595
డీసీ	8596
పట్టా	8597
చివరికి	8598
సేవలను	8599
కురుస్తాయని	8600
మినహ	8601
కొంచెం	8602
ఆదర్శ	8603
పనికి	8604
##టేషన్	8605
వెయి	8606
వేరు	8607
శాతానికి	8608
సుధా	8609
మిని	8610
ఎంజ	8611
నీర	8612
విచారణను	8613
ఆదేశాల	8614
అత్యవసర	8615
ందుకే	8616
సంతోష్	8617
లభించ	8618
పొందుతారు	8619
స్కోర్	8620
పెడుతున్నారు	8621
నాశనం	8622
ವೈರ	8623
78	8624
దామ	8625
ಿಸ	8626
##ంపి	8627
##ag	8628
పోతు	8629
##మెన్స్	8630
##వర్తి	8631
స్థా	8632
##స్టార్	8633
రోడ్డుపై	8634
ఉపయోగించ	8635
గెలుచుకు	8636
పత్రిక	8637
ఆస్పత్రి	8638
ప్రమోషన్	8639
షుగర్	8640
డైలాగ్	8641
మమ	8642
##కప్	8643
##ର୍	8644
##ూల్	8645
చెట్టు	8646
పోతుంది	8647
నాంపల్లి	8648
లావా	8649
అందించాలని	8650
ఆరోగ్యంగా	8651
రోడ్లపై	8652
పంటలు	8653
సింగిల్	8654
భావించారు	8655
సిద్దరామయ్య	8656
ఫోటోలు	8657
కుంభకో	8658
అయ్యాడు	8659
పేలుడు	8660
రీసెర్చ్	8661
ంచి	8662
ఆరం	8663
సరే	8664
విత్త	8665
##వాదాలు	8666
##నేని	8667
ముహ	8668
చేశాం	8669
##ప్పులు	8670
##శ్వాస	8671
##న్‌గా	8672
ప్రారంభోత్స	8673
ఫోర్లు	8674
ఇవ్వలేదు	8675
క్యాంప	8676
సేవా	8677
ఆలస్యం	8678
రైతులను	8679
జీవితాన్ని	8680
వాహనాల	8681
యాక్ట్	8682
అనారోగ	8683
నిలదీశారు	8684
పవార్	8685
శతాబ్	8686
##కడ	8687
##మల్	8688
##దండ	8689
##చన	8690
##5లో	8691
##త్నం	8692
##ప్స్	8693
##గ్‌	8694
ప్రాక్	8695
డిస్	8696
తెలంగాణలోని	8697
##డేజా	8698
బిజీగా	8699
##కెళ్ల	8700
ఫిర్యాదులు	8701
గ్రాండ్	8702
ప్రయోజనం	8703
అరుణ్	8704
ఉద్దేశించి	8705
కల్పించాలని	8706
బంధువులు	8707
లబ్ది	8708
53	8709
అథ	8710
ఓటే	8711
జడేజా	8712
ధను	8713
##పించే	8714
##యాలను	8715
##జాల	8716
వరదల	8717
ప్రవేశపెట్ట	8718
విక్రమ్	8719
స్పందిస్తూ	8720
ఎలక్ట్రిక్	8721
కోరిన	8722
దంపతులు	8723
శ్రద్ధ	8724
ఒలింపిక్స్	8725
క్రెడిట్	8726
ఆరుగురు	8727
కంగ	8728
గై	8729
ఛాంపి	8730
ఫల	8731
శ్యా	8732
శారీ	8733
##ేయ	8734
ప్రయో	8735
##ద్వారా	8736
కూల్	8737
##ల్లె	8738
##వర్గం	8739
నెలా	8740
ఏర్పాటుకు	8741
రూపాయి	8742
ట్రెండ్	8743
ఉత్తమ్	8744
చిత్రంలో	8745
తయార	8746
ఫలితాల	8747
నమోదైన	8748
సునీత	8749
2018లో	8750
కిడ్నా	8751
హృద	8752
ఈశ	8753
##శాయి	8754
##మూరు	8755
##వులకు	8756
##సేన్	8757
##చింగ్	8758
ఉంటున్నారు	8759
అంతర	8760
ప్రత్యేకమైన	8761
ఇండియాలో	8762
##యుడి	8763
ప్లాట్	8764
జరగనున్నాయి	8765
హామీల	8766
ఫాస్ట్	8767
అడిగిన	8768
కన్వీ	8769
వ్యవసాయం	8770
కూడదు	8771
నెట్‌	8772
సినిమాల	8773
నిలిపివే	8774
భిన్నంగా	8775
విపరీతంగా	8776
రెగ్యులర్	8777
ఏడాదికి	8778
ప్రతికూల	8779
ఆర	8780
ఎస్టేట్	8781
బ‌	8782
మత్తు	8783
##లార్	8784
##లూరు	8785
పెడ	8786
చేస్తోందని	8787
దేశాలకు	8788
శ్రీకాంత్	8789
అనూహ	8790
సరికా	8791
##సైజ్	8792
ఆలోచి	8793
పక్కనే	8794
టెలి	8795
బిల్లులు	8796
రాజ్‌	8797
ఆసిఫాబాద్	8798
కొరత	8799
విషాదం	8800
సమాజంలో	8801
స్వాతంత్ర	8802
వేసవి	8803
--	8804
ఓటర్ల	8805
సవరణ	8806
‌లలో	8807
##పారు	8808
##ూర	8809
##ఫోన్	8810
##un	8811
##రియల్	8812
##లాడు	8813
రెండి	8814
##ానూ	8815
రాష్ట్రాలు	8816
ఉపశ	8817
వెళ్లడం	8818
దూకుడు	8819
##గాలని	8820
నిర్వహిస్తారు	8821
అనుకుంటున్న	8822
సురేఖ	8823
ای	8824
గంద	8825
తక్షణ	8826
మస్క్	8827
రౌండ్	8828
వ్ర	8829
##వన్నీ	8830
##భై	8831
##చీ	8832
నిమ	8833
రాని	8834
##లీట్	8835
రూల్స్	8836
సాగి	8837
చిక్క	8838
బీజేపీని	8839
బెంచ్	8840
ప్రారంభమైన	8841
పదవీ	8842
క్రమంగా	8843
ఆశలు	8844
తీరుపై	8845
ఎఫ్‌	8846
కార్తీక	8847
పునరుద్ధ	8848
vs	8849
తృ	8850
##దాయ	8851
నిధులను	8852
కాంప్	8853
రెస్పా	8854
చూశా	8855
వర్గాల్లో	8856
##ెంజ్	8857
నిర్ణయాన్ని	8858
ఎస్సై	8859
194	8860
వర్షపాతం	8861
పాల్గొని	8862
##పూర్ణ	8863
పెరుగుతోంది	8864
శివారు	8865
మండలంలో	8866
యాదగిరి	8867
భద్రాద్రి	8868
క్రైమ్	8869
800	8870
ఎనర్జీ	8871
భారం	8872
రకాలు	8873
సమ్మె	8874
##వంగా	8875
##కోలేక	8876
రోల్	8877
అవమా	8878
సుధ	8879
యూజర్	8880
వచ్చినప్పుడు	8881
జట్టును	8882
ఇంటర్నెట్	8883
పరిశీలించి	8884
గౌరవం	8885
వ్యవహారాల	8886
సర్టిఫికెట్	8887
ఇంజినీరింగ్	8888
తహసీ	8889
కృతజ్ఞ	8890
64	8891
ఖరీ	8892
చర్చి	8893
హాని	8894
##కూర్	8895
##ଛି	8896
రావాల్సి	8897
లోన్	8898
లోతు	8899
##ాలుగా	8900
చేయడమే	8901
తెలిపాడు	8902
ఆయనపై	8903
సెర్చ్	8904
శాఖల	8905
కంపెనీల	8906
ించారు	8907
పాటించ	8908
నాగేశ్వరరావు	8909
ఇంగ్లీ	8910
విధానాన్ని	8911
2022లో	8912
రంగాల్లో	8913
తీసుకెళ్లారు	8914
కేటాయింపు	8915
నిర్ధార	8916
68	8917
72	8918
అలియా	8919
దారిత	8920
లవ్	8921
వని	8922
శెట్టి	8923
సృష్టి	8924
##విక	8925
##ణిక	8926
##త్వాన్ని	8927
నిండి	8928
గుప్	8929
##నీరు	8930
##త్రా	8931
నెహ	8932
‌‌‌‌‌‌‌‌ను	8933
ఉంటారని	8934
అభ్యర్థులకు	8935
వార్నింగ్	8936
వ్యవహరించ	8937
వరుణ్	8938
నటిస్తున్న	8939
తీర్పును	8940
కనీస	8941
వ్యూహ	8942
చేయాలన్నారు	8943
పునరా	8944
విడిచి	8945
స్వేచ్ఛ	8946
وائ	8947
పండ్లు	8948
##క్వా	8949
##స్తుండగా	8950
##వాణి	8951
##మ్మా	8952
వైయస్	8953
కార్యా	8954
ఒకప్పుడు	8955
శాశ్వ	8956
##ప్రసాద్	8957
ఆర్ఎస్	8958
ఒక్కరూ	8959
ఆధిక	8960
గెలిచారు	8961
అమెరికన్	8962
##చర్ల	8963
రిజర్వ	8964
చెప్పినట్లు	8965
డిపార్ట్	8966
ఎగ్జిట్	8967
వికెట్ల	8968
రెండేళ్ల	8969
ఎడ్యు	8970
69	8971
కదల	8972
గాలు	8973
టం	8974
పశు	8975
##కరం	8976
##ಸ್	8977
##కుతున్న	8978
##గాంధీ	8979
##రులను	8980
మొగ్గు	8981
రాజన్న	8982
బెల్ల	8983
పిండి	8984
అందువల్ల	8985
కలవ	8986
పోటీలో	8987
గ్రామస్తులు	8988
డెడ్	8989
వేయడం	8990
2023లో	8991
విదేశాంగ	8992
కీపర్	8993
విరుచుకు	8994
హెచ్చరికలు	8995
శోభ	8996
సిలిండర్	8997
క్రిమినల్	8998
లండన్	8999
67	9000
ఇస్తారు	9001
దర్	9002
నెట్టి	9003
వదులు	9004
##రెంట్	9005
##eo	9006
##ఫై	9007
##ల్తా	9008
ప్రత్యా	9009
##గాడు	9010
చేరిక	9011
##వీర్	9012
దేశాన్ని	9013
మండలాల్లో	9014
15న	9015
పడుతుందని	9016
ాలంటే	9017
విమానంలో	9018
బాధపడుతున్న	9019
సంక్షో	9020
నైపుణ	9021
అడ్డం	9022
ప్రశంసలు	9023
దినోత్సవం	9024
ఇంటర్వ్యూలో	9025
తెరకెక్కి	9026
డయాబె	9027
సజ్జల	9028
గందరగో	9029
ఉస్	9030
ధ్రు	9031
ుల	9032
##ెన్న	9033
##శ్రీ	9034
సిక్స్	9035
వ్యక్తికి	9036
ఎలాగ	9037
జరిగినట్లు	9038
మ్యాచ్‌	9039
పదవులు	9040
##ించుకునే	9041
వెళ్లింది	9042
పరీక్షల	9043
బాధిత	9044
నైట్	9045
ఏజెంట్	9046
సభ్యులతో	9047
సచిన్	9048
సీఈవో	9049
ఏకాదశి	9050
శ్రేణులు	9051
టీపీసీసీ	9052
రెస్టారెంట్	9053
నిక	9054
##డార్	9055
##పిన	9056
##భ్య	9057
##ంటినీ	9058
పోల్స్	9059
కొట్టిన	9060
ముడి	9061
##లేషన్	9062
జరిమానా	9063
##సానికి	9064
ప్రారంభమైంది	9065
సైనిక	9066
విధ్వ	9067
లిస్టు	9068
##ంజనేయ	9069
జూబ్లీ	9070
పడుతోంది	9071
భాగంగానే	9072
అనుమానాలు	9073
నిర్వహించనున్నారు	9074
చేయాలనే	9075
రిజర్వేషన్లు	9076
ధోనీ	9077
కమ్యూనిటీ	9078
అంబానీ	9079
గౌతమ్	9080
ఏళ్లుగా	9081
నైనా	9082
యంగ్	9083
##పరు	9084
##క్యం	9085
##రులకు	9086
తీర్థ	9087
##ామం	9088
పరికర	9089
పేదల	9090
అభిషే	9091
కారణాల	9092
అభ్యంతరం	9093
సేవల	9094
కౌశి	9095
మళ్ళీ	9096
బొగ్గు	9097
ప్రతిపక్షాలు	9098
స్థితిలో	9099
క్యారెక్టర్	9100
అభినంద	9101
స్ఫూర్తి	9102
కీర్తి	9103
ప్రత్యామ్	9104
ఇరిగే	9105
కాలా	9106
టప్పుడు	9107
##డ్యు	9108
##దవ	9109
నింప	9110
కాపు	9111
వెస్ట్	9112
వీసా	9113
చూసేందుకు	9114
దిగ్గ	9115
పూర్వ	9116
బ్యానర్	9117
##చేందుకు	9118
వర్షా	9119
చేపట్టింది	9120
మైక్రో	9121
ఫొటోలు	9122
దరఖాస్తులు	9123
మల్లన్న	9124
మల్లారెడ్డి	9125
..!!	9126
గట్టిగా	9127
స్టీల్	9128
శైలి	9129
com	9130
ఇరిగేషన్	9131
1న	9132
అణ	9133
అల్ప	9134
##ند	9135
నిమ్మ	9136
##క్కీ	9137
వాద	9138
తోట	9139
కింగ్స్	9140
లాంచ్	9141
చేస్తున్నా	9142
చేసేలా	9143
విజయవంతంగా	9144
మీదకు	9145
జేపీ	9146
సంచలనం	9147
శుభవార్	9148
విద్యాశాఖ	9149
కనిపించే	9150
క్రీడ	9151
ఎప్పటి	9152
కుప్పకూ	9153
పేర్లను	9154
କରି	9155
ఆస్క	9156
పచ్చ	9157
భయా	9158
రక్	9159
##బొ	9160
##ందీ	9161
కాబో	9162
పార్ట్	9163
దాట	9164
జీఎస్	9165
టీడీపీకి	9166
##వైసీ	9167
సభ్యులకు	9168
వృష	9169
తీసుకున్నట్లు	9170
అప్పుల	9171
ఇజ్రాయెల్‌	9172
క్లబ్	9173
అనుమాని	9174
కోరుకుంటున్న	9175
డాలర్లు	9176
ఖాయమని	9177
మేడ్చల్	9178
గద్వాల	9179
ధన్యవాదాలు	9180
ఈదురు	9181
ఎమర్	9182
ఏడుగు	9183
కళ్ల	9184
##‌త	9185
##మంత	9186
##బడు	9187
##కులతో	9188
కాశ్మీర్	9189
పాము	9190
గుట్ట	9191
తింటే	9192
##షియం	9193
##శ్వరి	9194
జరగకుండా	9195
ందో	9196
సమీకరణ	9197
ఏఐసీసీ	9198
ఆఫీసులో	9199
విలీనం	9200
దారితీ	9201
ధైర్యం	9202
లెక్కి	9203
##టాల	9204
##లెక్స్	9205
##ెయి	9206
##థో	9207
##షాబాద్	9208
##ದು	9209
##సులో	9210
లోపం	9211
##గులకు	9212
నాటు	9213
చూపించారు	9214
శ్రీశై	9215
##పోయారని	9216
గెల	9217
చెబుతూ	9218
సేఫ్టీ	9219
గెలిస్తే	9220
మొదటిసారి	9221
సాయంతో	9222
##మవుతున్న	9223
శరీరానికి	9224
ఆరోపిస్తున్నారు	9225
పిలుస్తారు	9226
##వినియోగం	9227
శంషాబాద్	9228
అంశాన్ని	9229
చర్మం	9230
62	9231
پی	9232
బ్యూ	9233
##ంఠ	9234
##భరణ	9235
##ఫార	9236
##ion	9237
చేత	9238
కుర	9239
పోవడం	9240
చేయాలను	9241
చెప్పడంతో	9242
##దాబాద్	9243
##దేవీ	9244
ఎంఐఎం	9245
‌‌ను	9246
దర్శన	9247
##త్మిక	9248
లేదో	9249
తీర్చి	9250
బెంగళూరులోని	9251
ప్రయాణికుల	9252
విగ్రహాన్ని	9253
బూత్	9254
రవీందర్	9255
ఓపెనర్	9256
ప్రోత్సహ	9257
తుపాను	9258
అనంతపురం	9259
రకరకాల	9260
లావాదేవీ	9261
61	9262
نہ	9263
ఆత్	9264
డ్యూటీ	9265
తట్టు	9266
పవ	9267
మసీ	9268
రష్	9269
##ఫరెన్స్	9270
##1లో	9271
ప్రచారాన్ని	9272
నిదర్శ	9273
రాకెట్	9274
##టీన్	9275
##జేషన్	9276
కేంద్రమంత్రి	9277
##ంపులకు	9278
‌‌‌‌‌‌‌‌కు	9279
నియోజకవర్గాల	9280
తరుణంలో	9281
ఆందోళనలు	9282
దొరుకు	9283
స్టేషన్‌లో	9284
వ్యతిరేకి	9285
ఆలోచించ	9286
బాధితుల	9287
అందరినీ	9288
చెన్నూరు	9289
కేటాయించారు	9290
భయంతో	9291
జాబితాను	9292
మెగాస్టార్	9293
వయసులో	9294
సురక్షితంగా	9295
మార్గదర్శ	9296
జార్ఖండ్	9297
ప్రకాశ్	9298
రుతుప	9299
జిల్లాలకు	9300
కార్యాచరణ	9301
00	9302
##తకు	9303
పరిపాలన	9304
మెయి	9305
తిరి	9306
తీసుకురా	9307
శ్రీహరి	9308
కార్డులు	9309
ఇవ్వాలి	9310
ారట	9311
వినిపించ	9312
కాలేజ్	9313
తీసుకెళ్లి	9314
నిరసనలు	9315
నామినే	9316
దేవస్థానం	9317
ఎక్సైజ్	9318
ఇదంతా	9319
నిర్వాహకులు	9320
అశ్విన్	9321
700	9322
దిల్	9323
మైంది	9324
‌ని	9325
##కమైన	9326
##షేక	9327
##3లో	9328
చేతుల	9329
మామూ	9330
వాడే	9331
మార్కె	9332
ప్రజల్లోకి	9333
కేంద్రాల్లో	9334
##మెంట్స్	9335
##త్తుగా	9336
విధించారు	9337
120	9338
కార్యకర్తల	9339
సెలవులు	9340
ట్యాపింగ్	9341
కస్టమర్	9342
అడవి	9343
ఉద్దేశంతో	9344
నివస	9345
నిబంధనల	9346
ఆలస్యంగా	9347
వివాదాస్పద	9348
కన్వీనర్	9349
నెహ్రూ	9350
ap	9351
ంతా	9352
ఎడి	9353
తామ	9354
తండా	9355
నచ్చ	9356
రాయి	9357
##పబ్	9358
##వితే	9359
##దలకు	9360
##దానం	9361
##ାନ	9362
##رل	9363
##vi	9364
##ఏసీ	9365
##క్ల	9366
##రినీ	9367
##ించడంతో	9368
కానుక	9369
వెస్టి	9370
పాజి	9371
##జీల	9372
మొహ	9373
స్టడీ	9374
సుఖ	9375
తేజ్	9376
లక్షలకు	9377
భారత్‌కు	9378
చర్చకు	9379
పథకాన్ని	9380
మైస	9381
వేగంతో	9382
పడ్డాయి	9383
ఉష్ణోగ్రత	9384
వాణిజ్య	9385
సల్మాన్	9386
అఖిల	9387
ప్రాతినిధ్యం	9388
బకాయి	9389
##భివృద్ధి	9390
ai	9391
ఏమా	9392
గానూ	9393
త‌న	9394
పచ్చి	9395
మర్	9396
##୍କ	9397
##షు	9398
##ాలూ	9399
చెప్పారని	9400
రిపబ్	9401
సమాన	9402
తెలంగాణా	9403
పునర్	9404
చేసుకుంటున్నారు	9405
తెలుపు	9406
పరిస్థితులను	9407
క్యాడర్	9408
అంకి	9409
వార్షిక	9410
పర్మిషన్	9411
##మయ్యే	9412
విదేశాల్లో	9413
రహస్య	9414
మెదడు	9415
పట్టుకుని	9416
కౌన్సిలర్లు	9417
ఎలక్ట్రా	9418
తప్పనిసరిగా	9419
ఏమాత్రం	9420
వ్	9421
##టాన్	9422
##లాట	9423
కాల్స్	9424
కుదు	9425
రిపే	9426
రెండవ	9427
ప్రాంతీయ	9428
పోటీకి	9429
క్యాంప్	9430
స్థానాలను	9431
బయటపడ	9432
నమోదయ్యాయి	9433
నిమిత్తం	9434
కార్పొరేట్	9435
స్థిర	9436
ఇన్‌స్టా	9437
ముఖం	9438
మందులు	9439
పరిమితం	9440
రజనీ	9441
ఇందిర	9442
శ్వాస	9443
ఒంటరిగా	9444
ఆమ్	9445
కరి	9446
కమీ	9447
చిక	9448
హేమ	9449
##పడా	9450
##పీడ	9451
వాసు	9452
బాగానే	9453
##ధిప	9454
స్ట్ర	9455
మూల	9456
పుట్టి	9457
##న్‌కు	9458
శిబి	9459
ఆదివా	9460
బ్రహ్మ	9461
సుప్రీంకోర్టులో	9462
సంతకం	9463
##ಾಗಿ	9464
కట్టుబడి	9465
సానుకూల	9466
అధిష్టానం	9467
దక్కింది	9468
ఎంజాయ్	9469
కౌశిక్	9470
).	9471
95	9472
ఇస్తూ	9473
దక్కు	9474
##‌ట	9475
ప్రకాశం	9476
చేతికి	9477
రాగా	9478
##గిరీ	9479
##ద్యాల	9480
మెయిల్	9481
భావన	9482
నెలలుగా	9483
మీడియాకు	9484
పథకాలను	9485
లేదంటూ	9486
కొనసాగుతుంది	9487
22న	9488
బ్లూ	9489
బాధితులకు	9490
##ీకృష్ణ	9491
వ్యూహం	9492
వంశీకృష్ణ	9493
బ్రహ్మో	9494
బంగాళాఖాతంలో	9495
ఇమే	9496
ఇస్తుంది	9497
తలుపు	9498
##ృతంగా	9499
##ండో	9500
నివాళ	9501
కాద	9502
మీట్	9503
రేట్లు	9504
రేణు	9505
జీపీ	9506
##వరూ	9507
రెండుసార్లు	9508
ఇవ్వకుండా	9509
ప్రభుత్వమే	9510
##కున్నా	9511
డైరెక్ట్	9512
అందిస్తున్నారు	9513
ాలనే	9514
మరణం	9515
పర్స	9516
కేటాయించిన	9517
ఉపాధ్యక్ష	9518
ప్రతిష్టా	9519
దేవరకొండ	9520
నౌక	9521
ఎమోషనల్	9522
ఉప్పల్	9523
కుమారస్వామి	9524
అభిషేక్	9525
అరి	9526
ఈటల	9527
ఉక్రెయిన్	9528
పరో	9529
##గలి	9530
##ಾವು	9531
##ందన్	9532
విడ	9533
కొన్న	9534
వీధి	9535
కలిగే	9536
ప్రమాదానికి	9537
ఎంపీపీ	9538
కనిపిస్తున్న	9539
250	9540
పాత్రలు	9541
కమర్	9542
సహాయపడుతుంది	9543
బాధ్యతలను	9544
గణేష్	9545
ఘనత	9546
కామెడీ	9547
అత్యాచారం	9548
స్నానం	9549
ఉపశమనం	9550
అల్పపీడ	9551
74	9552
ఎల్‌	9553
కట్టిన	9554
తడి	9555
బంతి	9556
భౌ	9557
శీ	9558
శత్ర	9559
##నూరు	9560
##జెన్సీ	9561
##చా	9562
విరిగి	9563
రాళ్ల	9564
##ేశాడు	9565
##ాలిన్	9566
డీసీపీ	9567
డీఎస్పీ	9568
చేసుకోవడానికి	9569
గుర్తుచేశారు	9570
ఫ్లై	9571
##బడింది	9572
సీపీఎం	9573
బ్రాహ్మ	9574
మహారాష్ట్రలో	9575
అద్భుతంగా	9576
వనపర్తి	9577
లోకల్	9578
రిటైర్డ్	9579
ట్రీట్	9580
కల్వకుంట్ల	9581
కండువా	9582
బెల్లంపల్లి	9583
వృషభ	9584
ఆభరణ	9585
జ్యు	9586
నటన	9587
య్	9588
##మంత్ర	9589
##బ్రి	9590
##ಲಿ	9591
చేతి	9592
కానున్నారు	9593
##్యాత్మిక	9594
కూట	9595
##త్తారు	9596
##గింపు	9597
వారాల	9598
శివా	9599
భారత్‌	9600
న్యూయ	9601
##సెన్స్	9602
తగ్గించ	9603
ఇంటిని	9604
వస్త్ర	9605
చేస్తుండగా	9606
చార్జి	9607
విగ్రహ	9608
డ్యాన్స్	9609
కిడ్నీ	9610
టోర్నీలో	9611
ప్రస్తావించారు	9612
గెలిపించాలని	9613
సందర్బంగా	9614
రుతుపవ	9615
4న	9616
وں	9617
ఐడీ	9618
నక్ష	9619
ైనా	9620
##జికల్	9621
##దొ	9622
##ఎండీ	9623
విశ	9624
కోడ	9625
##పురి	9626
సంరక్షణ	9627
##పాన్ని	9628
రూట్	9629
స్టాలిన్	9630
బెడ	9631
చేసుకుంట	9632
కార్మిక	9633
ఉద్యోగి	9634
ఆధు	9635
ప్లాస్టిక్	9636
ఆరోగ్యాన్ని	9637
హెచ్చరించింది	9638
రోడ్ల	9639
గురవు	9640
ఇంతకు	9641
సీట్లలో	9642
సౌకర్యాలు	9643
వందేభార	9644
నాణ్యత	9645
ఖర్చులు	9646
బట్టలు	9647
సిస్టమ్	9648
మేడిగడ్డ	9649
వందేభారత్	9650
ఇర	9651
కింది	9652
పత్తి	9653
భరత్	9654
##రికే	9655
##లిన్	9656
కొలు	9657
##రాజ్య	9658
ముగ	9659
చేశాడని	9660
పేట్	9661
సెషన్	9662
స్టోర్	9663
ప్రతిరోజు	9664
2025	9665
జగన్మోహన్	9666
రుణాలు	9667
పదో	9668
సభ్యు	9669
ప్రపంచం	9670
బ్యాంకులు	9671
కళాక	9672
మరణించిన	9673
ఫైబర్	9674
మారుతుంది	9675
గవర్నమెంట్	9676
ఖైదీ	9677
బాక్సా	9678
స్ట్రీమింగ్	9679
హెలికాప్టర్	9680
దుబాయ్	9681
ఆడే	9682
ఇట	9683
పంపు	9684
శబ్	9685
##లాల్	9686
కుంటే	9687
వెను	9688
కొన్నే	9689
##పోతుంది	9690
చేయనున్న	9691
ఒక్కటే	9692
పీఎం	9693
కుటుంబాలు	9694
ట్టే	9695
ఆధ్యాత్మిక	9696
మారే	9697
రాజకీయాలకు	9698
నగరాల్లో	9699
అమెజాన్	9700
పంపించారు	9701
కొనసాగుతున్నాయి	9702
దేశంలోనే	9703
అడ్మి	9704
శక్తిని	9705
సంతోషం	9706
గల్ఫ్	9707
గులాబీ	9708
సుధాకర్	9709
తహసీల్దార్	9710
ఒంటి	9711
శిల్	9712
##ur	9713
##స్టింగ్	9714
నివార	9715
పోతున్నారు	9716
పెంచి	9717
ముమ్మ	9718
వేలం	9719
కిష	9720
##ండ్లుగా	9721
డిస్క	9722
సుబ్బ	9723
అమల్లోకి	9724
‌‌గా	9725
వినియోగం	9726
గాయపడ్డారు	9727
అప్డేట్	9728
స్తామని	9729
అదృష్ట	9730
ల్యాండర్	9731
కనిపించిన	9732
మిగిలి	9733
లేఖలో	9734
సముద్రంలో	9735
మేనేజ్	9736
డాలర్ల	9737
తేలికపాటి	9738
ముహూర్	9739
కమర్షియల్	9740
కాయ	9741
జొ	9742
తాయి	9743
తద్వారా	9744
నడ్డా	9745
##ఫే	9746
##ଡି	9747
##ంగాన్ని	9748
##వాళ్లు	9749
కోవాల	9750
##లీల	9751
సింధ	9752
వర్సిటీ	9753
రైళ్ల	9754
రైళ్లను	9755
తర్వాతే	9756
##వరకూ	9757
పట్టాలు	9758
అంబు	9759
రుచి	9760
చీర	9761
14న	9762
పంచు	9763
వీటితో	9764
విశ్వవి	9765
కాన్ఫరెన్స్	9766
ఫెడ	9767
పరుగులకే	9768
సాంస్క	9769
ఆశ్రయించారు	9770
ఫిల్మ్	9771
وائرل	9772
.?	9773
ంచే	9774
టచ్	9775
బందో	9776
మత్	9777
##గణ	9778
##ందంటూ	9779
##పుర	9780
##ితమైన	9781
సంయు	9782
వచ్చాడు	9783
ప్రకృతి	9784
చిట్	9785
ప్పు	9786
బిర్యా	9787
##వేశారు	9788
పట్టణంలో	9789
భాగస్వామి	9790
భావిస్తోంది	9791
ఆసుపత్ర	9792
##పోయిందని	9793
సర్వీసు	9794
హాజరుకా	9795
ఇక్కడే	9796
పర్యాటక	9797
ఆటగాళ్లు	9798
కపోవడం	9799
పర్యవేక్షణ	9800
సామర్థ్యం	9801
##పరచ	9802
కొబ్బరి	9803
అథారిటీ	9804
ఇంగ్లీష్	9805
మసీదు	9806
అసా	9807
ఇవన్నీ	9808
ఉరి	9809
గ్రీ	9810
గడప	9811
నట్లు	9812
పరు	9813
బస్టా	9814
##ౌళి	9815
##‌‌‌‌లో	9816
##సియా	9817
మాఫీ	9818
##టర్స్	9819
జాతి	9820
శివు	9821
కుటుంబసభ్య	9822
కంప్యూటర్	9823
దర్శనానికి	9824
##చుకో	9825
సిబ్బందికి	9826
ఫీల్	9827
చేస్తుంటారు	9828
పట్టణంలోని	9829
దర్శకత్వం	9830
గద్దర్	9831
ವೈರಲ್‌	9832
రెస్పాన్స్	9833
సాంస్కృ	9834
73	9835
ఎది	9836
ఎంబ	9837
కమ్మ	9838
టానికి	9839
తారు	9840
దగ్గు	9841
మెక్	9842
##జ్యం	9843
కాపీ	9844
గుప్ప	9845
చూస్తూ	9846
మోహ	9847
రైస్	9848
పురుగు	9849
జనార్	9850
అమర్	9851
హాఫ్	9852
పలుకు	9853
గోవా	9854
ఉపసం	9855
గ్రామం	9856
వెళ్లాలని	9857
న్నీ	9858
జోరుగా	9859
జోక్యం	9860
సంవత్సరానికి	9861
వికా	9862
ఆశించిన	9863
యోగా	9864
మొదలుపెట్టారు	9865
ఎల్బీ	9866
##ప్‌మెంట్	9867
ఆహ్వానించారు	9868
పట్టుకున్నారు	9869
ఆవిర్	9870
నిర్మిస్తున్న	9871
పాలస్తీనా	9872
కాంప్లెక్స్	9873
ఎడ్యుకేషన్	9874
బ్రహ్మోత్స	9875
బందోబ	9876
సాంస్కృతిక	9877
76	9878
అడ్డ	9879
ఆకాశ	9880
ఆపే	9881
మర్చి	9882
యంత్రా	9883
##షణ్	9884
##కునేందుకు	9885
##కుళం	9886
లేరని	9887
వాషింగ్	9888
గురుకు	9889
చేయబో	9890
చేయనుంది	9891
##జుల	9892
జరిపి	9893
వ్యాక్	9894
జీతం	9895
ప్రాంతంలోని	9896
కలె	9897
గోపాల్	9898
పాలమూరు	9899
ట్రైన్	9900
పడితే	9901
పెరుగుదల	9902
ఆరోపణలపై	9903
సందడి	9904
కరె	9905
చేరుకో	9906
టోక	9907
అభినందించ	9908
సానుభూ	9909
ఐదేళ్ల	9910
రఘురామ	9911
కర్నూల్	9912
రాకపోకలు	9913
ఊరట	9914
శ్రావ	9915
ఎమర్జెన్సీ	9916
ts	9917
అమా	9918
ఉందో	9919
ఊరే	9920
కారి	9921
కవర్	9922
చవి	9923
మాయ	9924
##ws	9925
ప్రసి	9926
##ండేషన్	9927
ఉన్నందున	9928
##ల్లే	9929
##లేరు	9930
##ెక్సీ	9931
రైజర్స్	9932
##కూర	9933
పాల్పడ్డ	9934
కీలకం	9935
ఉండేందుకు	9936
బాలయ్య	9937
కేటగిరీ	9938
దొరికి	9939
మైనారిటీ	9940
అక్టోబరు	9941
పర్యటనకు	9942
స్తుంటారు	9943
స్కాం	9944
అడగ	9945
సురేశ్	9946
##మ్రాన్	9947
ఫండ్స్	9948
ఆకాంక్ష	9949
కృతజ్ఞతలు	9950
డయాబెటిస్	9951
పరోక్ష	9952
ఫాం	9953
లంచ	9954
##‌డ	9955
##నన్న	9956
##را	9957
##ଥି	9958
##ందర	9959
##రులతో	9960
##రుగ్గా	9961
##ంగే	9962
రావాల	9963
చేయవచ్చు	9964
2000	9965
##ట్టుగా	9966
మెయిన్	9967
వర్షాలకు	9968
కర్కా	9969
##విధంగా	9970
కర్ణాటకలోని	9971
టెర్ర	9972
గేమ్స్	9973
కార్మికులకు	9974
తీసుకొచ్చారు	9975
స్పీడ్	9976
తొలగించ	9977
జరుపుకు	9978
గ్యారె	9979
అర్హులైన	9980
కలెక్షన్స్	9981
ପ୍ର	9982
బద్ద	9983
##ైక	9984
##ందారు	9985
నిఖ	9986
వీసీ	9987
ఉండదని	9988
స్టె	9989
అంత్య	9990
బ్యాటరీ	9991
పెట్టారని	9992
##ఫీస్	9993
క్యాంపు	9994
అమ్మకాలు	9995
రైతుబంధు	9996
వెళ్లిపోయారు	9997
తెలియజేశారు	9998
పడకుండా	9999
స్థానికంగా	10000
వివాద	10001
17న	10002
సిబ్బందిని	10003
చాట్	10004
ఉద్యోగులను	10005
యోగి	10006
##వెళ్ల	10007
మల్టీ	10008
డ్రామా	10009
కలుగుతుంది	10010
నంద్యాల	10011
తాగడం	10012
రేపింది	10013
వెహిక	10014
గుప్తా	10015
విశ్వవిద్యాల	10016
am	10017
دع	10018
ఎము	10019
జాయింట్	10020
తమ్మ	10021
హార	10022
##తానని	10023
##‌యం	10024
##ఫల్	10025
కుడి	10026
చెడు	10027
కోడి	10028
కోదండ	10029
పోతే	10030
##మిలి	10031
సాగింది	10032
కేంద్రాల	10033
యుక్రెయిన్	10034
పంత్	10035
టికెట్ల	10036
కష్టపడి	10037
హుండీ	10038
##బెల్లి	10039
బహిష్క	10040
నిమిషాలకు	10041
##ఫెక్షన్	10042
ఆహ్వానించ	10043
పెరగడంతో	10044
వ్యవహారంలో	10045
2021లో	10046
##ಿದೆ	10047
ఉద్రిక్తత	10048
వారాహి	10049
బదులుగా	10050
అనర్హ	10051
అటువంటి	10052
ఉంచి	10053
కారం	10054
జరగా	10055
బెట్	10056
రన్స్	10057
వద్దు	10058
షారు	10059
సంతా	10060
##ంథ	10061
##ీస్‌	10062
##రథ	10063
##ధారణ	10064
##బడ	10065
ప్రవా	10066
స్టి	10067
లోటు	10068
కాఫీ	10069
కోవిడ్	10070
వెతు	10071
సిరాజ్	10072
పేష	10073
సమాజం	10074
లక్ష్యాన్ని	10075
కనిపించారు	10076
ఇండియన్స్	10077
గుర్తించిన	10078
కొంతకాలంగా	10079
డేవిడ్	10080
2024లో	10081
దోష	10082
మారుతున్న	10083
బస్సుల్లో	10084
బ్రిటి	10085
గొడవలు	10086
సన్నిహి	10087
రేపటి	10088
నిలిచాడు	10089
ఐక్యరాజ్య	10090
టమాటా	10091
కూర్చో	10092
సమన్వయ	10093
సిగ్నల్	10094
మినహాయి	10095
కిడ్నాప్	10096
ఆదివాసీ	10097
అరే	10098
అహ్మ	10099
ఈస్ట్	10100
##పడ్డాడు	10101
##ro	10102
చేతుల్లో	10103
##రిలో	10104
##టిగా	10105
పాడు	10106
##రోజూ	10107
##కోట	10108
రోగ	10109
##ండ్లలో	10110
సాఫ్ట్	10111
ఉండొచ్చు	10112
10న	10113
డీజిల్	10114
ఇవ్వలేదని	10115
##ర్మనీ	10116
పీవీ	10117
##ించుకుంది	10118
వాహనాలను	10119
వినాయ	10120
స్వామివారి	10121
##ీకరణ	10122
##ెక్టార్	10123
పర్యటించారు	10124
వివరించింది	10125
##వణ్ణ	10126
పాయింట్లు	10127
చికెన్	10128
న్యూయార్క్	10129
బిర్యానీ	10130
బందోబస్తు	10131
ఓం	10132
కడియం	10133
టెం	10134
పన్న	10135
బంజ	10136
##తాడు	10137
##శ్య	10138
##ొప్పి	10139
##ନ୍ତ	10140
##నుందని	10141
##క్షా	10142
పెడత	10143
నేర్చ	10144
ఉన్నది	10145
బీఎస్పీ	10146
వ్యాయ	10147
చెప్పినా	10148
చూసింది	10149
రెడ్డితో	10150
పురం	10151
తీసుకుంటున్నారు	10152
యూకే	10153
అమృ	10154
పాల్గొంటారు	10155
దూసుకు	10156
దాదాపుగా	10157
13న	10158
మాటల	10159
ఆగస్ట్	10160
నిరంతరం	10161
రోజుల్లోనే	10162
పోస్టుల	10163
సింగపూర్	10164
ప్రయోజనాల	10165
కస్టమ	10166
కాంట్రాక్ట్	10167
భాషల్లో	10168
జ్యోతిష్య	10169
మినహా	10170
లక్ష్యంతో	10171
క్లీన్	10172
శ్రీశైలం	10173
గారి	10174
మలుపు	10175
##వైన	10176
స్తోందని	10177
##ైనర్	10178
రేవణ్ణ	10179
చేసుకునేందుకు	10180
తరబడి	10181
ఇవ్వడంతో	10182
ఇలాగే	10183
దుండ	10184
##భావ	10185
అన్నా	10186
గెలిచ	10187
అయినట్లు	10188
ఫ్యాన్	10189
నీటిలో	10190
ముగిసే	10191
విస్తీర్	10192
28న	10193
మనోహర్	10194
క్రాస్	10195
పరిగణన	10196
##పెట్టింది	10197
ఉన్నతాధికారులు	10198
అబ్బాయి	10199
అలియాస్	10200
ఆఫ	10201
ఆపై	10202
ఆస్తుల	10203
ఉరు	10204
డాన్ని	10205
##ହି	10206
స్కి	10207
##స్తుంటారు	10208
##వాతి	10209
##గుండం	10210
నేరం	10211
మెడి	10212
మార్చుకు	10213
తిరగ	10214
##ానికే	10215
పెట్టాలి	10216
పాలక	10217
విజయనగ	10218
మైదాన	10219
సౌదీ	10220
గ్రాడ్యు	10221
##ang	10222
బస్సులో	10223
నిజాం	10224
స్పెష	10225
టోల్	10226
పెరగడం	10227
పొడిగ	10228
వెళ్లాడు	10229
ఫ్రాన్స్	10230
అవకాశముంది	10231
అనుచరులు	10232
కొడాలి	10233
నున్నట్లు	10234
తగిలింది	10235
థ్రిల్ల	10236
మరుస	10237
మత్స్య	10238
7న	10239
84	10240
9న	10241
గాయం	10242
డోర్	10243
నమ	10244
నడప	10245
ఫైనా	10246
##టమే	10247
##రియం	10248
కాకా	10249
సీక్	10250
నిర్దేశ	10251
వారిద్ద	10252
కారణాలతో	10253
అరటి	10254
కొన్నిసార్లు	10255
హిమా	10256
క్యాపి	10257
టీడీపీలో	10258
హోట	10259
12న	10260
పర్యటి	10261
రీతిలో	10262
చాన్స్	10263
యాక్టివ్	10264
కాలేజీలో	10265
మరొకరు	10266
సౌకర్యం	10267
స్థలాన్ని	10268
పెట్టుబడు	10269
పదార్థాలు	10270
ప్రకాష్	10271
మరుసటి	10272
ఫైనాన్స్	10273
ఆడుతున్న	10274
ఇంధ	10275
ఐసీ	10276
కళ్లు	10277
షీ	10278
##మండ	10279
##ರಿ	10280
##اب	10281
ప్రతా	10282
స్తున్నాయి	10283
##స్తులను	10284
కొనియా	10285
వాళ్ళ	10286
వాళ్లను	10287
##కోండి	10288
మీన	10289
రెడ్డిపై	10290
పుణ్య	10291
భావో	10292
ఆర్డిన	10293
స్థానానికి	10294
ంచు	10295
వస్తువులను	10296
స్తారని	10297
నివేదికను	10298
ల్యాబ్	10299
కురిసిన	10300
విరాళ	10301
సంఘటనలు	10302
అప్పగించారు	10303
ధ్వజ	10304
నార్త్	10305
##ತ್ತು	10306
కోర్సు	10307
అంత్యక్రియ	10308
భావోద్వే	10309
ఛాల	10310
బదులు	10311
మమ్మల్ని	10312
ల‌	10313
##బడ్డ	10314
##ತಿ	10315
##న్నత	10316
పెను	10317
పెంచింది	10318
##క్కడే	10319
##ష్టంగా	10320
వేద	10321
చేయొచ్చు	10322
##గ్న	10323
##వర్ధన్	10324
రోజురోజు	10325
ప్రతిపాద	10326
ఎంఎస్	10327
మ్యాన్	10328
విధులు	10329
మొదట్లో	10330
మంచిదని	10331
##కెళ్	10332
అందించేందుకు	10333
పెరుగుతాయి	10334
రెండోసారి	10335
రావడానికి	10336
నెలకొన్న	10337
ఎగ్జిక	10338
గర్భ	10339
విశ్వాసం	10340
ఎకరాలు	10341
రఘున	10342
##ಾರೆ	10343
నివారణ	10344
నందమూరి	10345
ఉత్తరాఖండ్	10346
ఫారెస్ట్	10347
ఫౌండేషన్	10348
బీఆర్‌ఎస్‌	10349
కన్నుమూ	10350
మోటార్	10351
అకాడ	10352
ఓబీసీ	10353
##ంజు	10354
##హాన్	10355
##పక్కల	10356
##ss	10357
##وس	10358
##نگ	10359
##ೊಂ	10360
##ందంటే	10361
పెద్ది	10362
నిర్వా	10363
పరిసర	10364
సాహ	10365
తాక	10366
దివ	10367
నీళ్ల	10368
పూల	10369
పూజా	10370
రోజులపాటు	10371
దొరిక	10372
కోల్పోయారు	10373
క్వాలిటీ	10374
ఆనందం	10375
ఫ్రె	10376
విధానంలో	10377
పోషకాలు	10378
నిర్మిస్తున్నారు	10379
అనుమతించ	10380
చుట్టుపక్కల	10381
సులభంగా	10382
శ్రీకాకుళం	10383
ఎఫెక్ట్	10384
కరెంటు	10385
అకాల	10386
ఠాక	10387
నన్నారు	10388
మతం	10389
సిల్	10390
సెక్స్	10391
##ధాన	10392
##ವಿ	10393
కుండ	10394
##డాడు	10395
కోన	10396
ముంపు	10397
##లకుండా	10398
వాళ్ళు	10399
ఉన్నవారు	10400
పరిరక్షణ	10401
##నాథ	10402
##సాన్	10403
లాగే	10404
##వ్వాడ	10405
శిథి	10406
12వ	10407
మాట్లాడుతున్న	10408
గొర్ర	10409
రీసెంట్	10410
పరిశీలన	10411
ట్యాక్స్	10412
కాపాడే	10413
మూడోసారి	10414
సంతరించ	10415
చదువుతున్న	10416
ప్రయత్నిస్తున్న	10417
అఫ్గా	10418
పిఠాపురం	10419
కిషోర్	10420
05	10421
ఎపి	10422
కంచ	10423
జర్మనీ	10424
పరువు	10425
శ్వే	10426
##టప్	10427
##ౌంట్	10428
ప్రవ	10429
లోత	10430
##ందుల	10431
##బ్బా	10432
##నాతన	10433
వైఖరి	10434
ప్రతిభ	10435
బెర్	10436
క్లో	10437
సమావేశాల్లో	10438
ఇంకో	10439
జరగడం	10440
మూవీలో	10441
దగ్గరగా	10442
పంపిన	10443
నటించారు	10444
ల్యాండింగ్	10445
అయిదు	10446
సన్నివేశ	10447
నేతృత్వంలో	10448
హుస్సేన్	10449
ప్రాక్టీస్	10450
జూబ్లీహిల్స్	10451
శత్రు	10452
పరిగణనలోకి	10453
8న	10454
88	10455
ాని	10456
ాము	10457
##రాడు	10458
##కాపల్లి	10459
##పోత	10460
చేయని	10461
##నాల్డ్	10462
##రేజ్	10463
మెరి	10464
దివ్యా	10465
పిచ్	10466
ప్రాంతాలలో	10467
ఎస్ఐ	10468
హింసా	10469
##ల్‌గా	10470
దర్శించుకున్నారు	10471
ఆలయానికి	10472
వివరించ	10473
##స్టిట్యూట్	10474
ఉంచారు	10475
కవితను	10476
కల్యాణ	10477
సహకరించ	10478
బిల్లును	10479
భావించిన	10480
బేస్	10481
ఏకైక	10482
వాస్తవ	10483
జర్నలిస్ట్	10484
##తిపదిక	10485
త్వ	10486
దండ	10487
ద్రో	10488
ధై	10489
##రద్	10490
##ెత్తి	10491
##మర	10492
##ారక	10493
##నియ	10494
##ంటె	10495
##లియ	10496
రాసు	10497
##యాల్సి	10498
కొవ్వు	10499
##వుతుంది	10500
వీలైన	10501
సెటై	10502
పుష్క	10503
పిడుగు	10504
##గొట్టి	10505
చేసుకుంటూ	10506
ఘటనకు	10507
చీక	10508
లేకుండానే	10509
లైసెన్స్	10510
అలె	10511
మొదలై	10512
టెండర్	10513
##నికల్	10514
లోపలికి	10515
కూడదని	10516
విద్యార్థిని	10517
ప్రవర్త	10518
రాంబాబు	10519
వివేకానంద	10520
అబ్దుల్	10521
ఎగ్జామ్	10522
దామో	10523
ఆస్కార్	10524
نہیں	10525
పాజిటివ్	10526
ఠాకూర్	10527
رہ	10528
అర్చ	10529
జరుగ	10530
ధూ	10531
ర‌	10532
హడా	10533
ನ್	10534
ಸಾ	10535
##పక	10536
##ేరు	10537
##రిన	10538
##ంటికీ	10539
పాట్	10540
##ానో	10541
వైజా	10542
ఆయనతో	10543
చూశారు	10544
##ముందే	10545
ఆర్టికల్	10546
క్లిక్	10547
ప్రయత్నించారు	10548
నియోజకవర్గానికి	10549
చిత్రీ	10550
అమెరికాలోని	10551
పంపారు	10552
2004	10553
హెచ్చరి	10554
కోల్పోయి	10555
ముగింపు	10556
టెండ	10557
బీబీసీకి	10558
ప్యాకేజీ	10559
ఆసక్తిగా	10560
సేకరణ	10561
నిమిషాలు	10562
అరుణ	10563
ప్రక్రియను	10564
సెక్రటే	10565
ఇండస్ట్రీలో	10566
పోయిందని	10567
జ్ఞాప	10568
వీరిద్దరూ	10569
ఎగ్జిక్యూ	10570
ఆవరణ	10571
ఏము	10572
చంద	10573
దత్త	10574
పులు	10575
##ap	10576
##ారే	10577
విప్	10578
కాలువ	10579
కాకపోతే	10580
##టీఎం	10581
వేధ	10582
వేస్తే	10583
##యిర్	10584
తెలిపాయి	10585
స్థలంలో	10586
మేఘ	10587
కార్లు	10588
తరగ	10589
బుద్ధి	10590
దేవ్	10591
సందర్భంలో	10592
15వ	10593
న్నా	10594
మోదీకి	10595
కారణంగానే	10596
ఆఫ్ఘ	10597
టాస్క్	10598
దొర	10599
మద్దతి	10600
అందిస్తుంది	10601
ప్రకటనలు	10602
మంగళగిరి	10603
లేకపోయినా	10604
##చిత్ర	10605
మైనార్టీ	10606
అభిమానుల	10607
ప్రయోజనాలను	10608
తీసుకొచ్చిన	10609
తీసుకొచ్చింది	10610
నియమించారు	10611
ఎక్కడి	10612
ఏమిట	10613
శ్రీవారిని	10614
ఉత్సవ	10615
ట్రాన్స్‌	10616
మల్లికార్జున	10617
71	10618
అరా	10619
అంటు	10620
అరిక	10621
ఊహ	10622
చార	10623
జ్వ	10624
పగ	10625
పలక	10626
మస	10627
శరత్	10628
ರು	10629
ಸು	10630
##ంతులు	10631
##ణే	10632
స్‌	10633
సిరియా	10634
బీర్	10635
బెనర్జీ	10636
గంటకు	10637
అనకాపల్లి	10638
ప్రమాదాలు	10639
కంపెనీలో	10640
నిర్మాణాలు	10641
కార్యక్రమాలను	10642
మాట్లాడటం	10643
మైనింగ్	10644
ాలంటూ	10645
మార్కెట్లో	10646
అనుమతులు	10647
వరదలు	10648
నడిచే	10649
బహిరంగంగా	10650
కోవడానికి	10651
అధ్యక్షురాలు	10652
గుడివాడ	10653
సైనికులు	10654
విసిరారు	10655
మలయాళ	10656
శుభవార్త	10657
బాక్సాఫీస్	10658
విజయనగరం	10659
تص	10660
వంగ	10661
##సొ	10662
##esh	10663
##دی	10664
రాబ	10665
కానున్నాయి	10666
##మిరెడ్డి	10667
నేర్	10668
వచ్చాయని	10669
##లేం	10670
వైష్ణ	10671
బాటి	10672
వరస	10673
##సాగర్	10674
చేస్తా	10675
##డేపల్లి	10676
చేసుకుంటే	10677
మహిళలను	10678
##చేసి	10679
సమస్యలతో	10680
చర్యలకు	10681
పడుతున్నాయి	10682
డైరెక్షన్	10683
##మైందని	10684
అడ్డుకున్నారు	10685
నర్స	10686
చేయాలంటూ	10687
కుటుంబాన్ని	10688
వార్తల్లో	10689
యువతకు	10690
తొమ్మిదే	10691
ాల్సిందే	10692
బ్యాక్టీ	10693
ఇన్వెస్ట్	10694
నివాసంలో	10695
వేములవాడ	10696
వేర్వేరు	10697
బ్రిటిష్	10698
కండి	10699
ఖాయం	10700
హన్	10701
##ంకా	10702
##تے	10703
##ల్దే	10704
రాదు	10705
పోడు	10706
వైఫల్	10707
20న	10708
వర్సెస్	10709
జీవి	10710
ఉంటుందో	10711
‌‌‌‌గా	10712
కార్డ్	10713
బయల్దే	10714
మొత్తానికి	10715
సందర్భాల్లో	10716
అధ్యక్షతన	10717
టైగర్	10718
కనిపిస్తాయి	10719
అంశాల	10720
ఎంతగా	10721
చేసుకున్నట్లు	10722
రాయల్	10723
బీసీలకు	10724
ఫేస్	10725
స్పష్టమైన	10726
విషయమై	10727
స్థితి	10728
ట్రైనింగ్	10729
రూపొందించిన	10730
స్నేహితులు	10731
రాజకీయాల్లోకి	10732
జన్మించిన	10733
చిత్రానికి	10734
వసతి	10735
రామకృష్ణారెడ్డి	10736
మురళీ	10737
డాక్యుమె	10738
పాండ్యా	10739
విడాకులు	10740
లెక్కింపు	10741
08	10742
ఏమ	10743
గీత	10744
దయ	10745
##సాలు	10746
##నాలకు	10747
##నైనా	10748
##శాడు	10749
ప్రాము	10750
ప్రయోగం	10751
లోడ్	10752
కుదర	10753
##బాల్	10754
వాగు	10755
రోజ	10756
రోజే	10757
##ఆర్ఆర్	10758
సాక్షి	10759
లాగా	10760
క్రేజ్	10761
సూత్ర	10762
డీపీ	10763
##పడ్డాయి	10764
కారును	10765
అడిగితే	10766
సర్వేలో	10767
ప్రయాణికులకు	10768
##జెండా	10769
ఐపీఎస్	10770
ఖాతాల్లో	10771
రిజిస్టర్	10772
కపోతే	10773
చెల్లింపు	10774
అస్సా	10775
ద్రవ	10776
కుమారి	10777
ఖైర	10778
శేఖర్	10779
నిరూపించ	10780
అంతరాయం	10781
##క్వాడ్	10782
అభినందనలు	10783
సెక్రటేరియ	10784
అండ	10785
గన్న	10786
బచ్చ	10787
భ‌	10788
ಲ್	10789
##మతులు	10790
##ంటోంది	10791
ముఠా	10792
పాటిల్	10793
##పిస్తున్న	10794
##పిస్తే	10795
##సంస్థ	10796
ప్రాంగ	10797
డివై	10798
##తాబాద్	10799
దింప	10800
వ్యాప్తి	10801
వ్యాధుల	10802
జీతాలు	10803
పూట	10804
25న	10805
వినాయక	10806
అప్‌	10807
మొదలుపెట్ట	10808
వినియోగదారులు	10809
ఎఫ్ఐఆర్	10810
సలార్	10811
తగ్గుతుంది	10812
డాలర్	10813
జరిపారు	10814
నెటిజ	10815
ఆసక్తికరంగా	10816
నాణ్యమైన	10817
సంబరాలు	10818
డిపాజిట్	10819
విభేదాలు	10820
news	10821
ఎలాగైనా	10822
900	10823
ఆధిప	10824
రాయితీ	10825
షార్ట్	10826
##సెన్	10827
##లాలను	10828
##కట్ట	10829
##ణికి	10830
##తుడి	10831
స్పై	10832
కాగ	10833
వెర్	10834
వాస్తు	10835
##పాఠ	10836
టీజీ	10837
మూత	10838
##ర్చీ	10839
యాపిల్	10840
ప్రతిరోజూ	10841
లక్షలాది	10842
క్రూ	10843
అసహనం	10844
ప్రాంతాలను	10845
అమర	10846
సంస్థకు	10847
ధరల	10848
వైసీపీలో	10849
హీరోయి	10850
##ించుకునేందుకు	10851
పెంచాలని	10852
డబ్బును	10853
18న	10854
చాటు	10855
ఆధారపడి	10856
డ్రైవ్	10857
హాజరైన	10858
తెచ్చుకున్న	10859
తీసుకొచ్చి	10860
చార్జ్	10861
హ్యాండ్	10862
దాడులకు	10863
మొన్నటి	10864
కూటమికి	10865
ఆధునిక	10866
ఇరవై	10867
##గణన	10868
శరణ	10869
ಎಂದು	10870
##సెక్	10871
##కుంఠ	10872
రాళ్లు	10873
పెంప	10874
పాడి	10875
తనతో	10876
తనదైన	10877
చేసేవారు	10878
అతడిని	10879
నోట్ల	10880
తొలిసారిగా	10881
ప్లాట్‌	10882
పడిపోయింది	10883
ందున	10884
బోర్డ్	10885
పౌర్ణ	10886
ఎర్రబెల్లి	10887
##ing	10888
రౌడీ	10889
బాలుడు	10890
విరమణ	10891
మాసంలో	10892
ప్రత్యామ్నాయ	10893
అభినందించారు	10894
ఎగ్జిక్యూటివ్	10895
ఖైరతాబాద్	10896
):	10897
98	10898
ఇబ్ర	10899
జానీ	10900
రద్ద	10901
రవితే	10902
##‌డం	10903
##బార్	10904
##ౌన్స్	10905
##ొద్దు	10906
##up	10907
##ದೇ	10908
ప్రచారానికి	10909
##ాలయ	10910
##ంటికి	10911
##ాయన	10912
కేర్	10913
ముట్ట	10914
సిఫార్	10915
##పాది	10916
వైట్	10917
సుమన్	10918
తిన్న	10919
మిమ్మల్ని	10920
ముఖ్యమంత్ర	10921
1000	10922
అనౌన్స్	10923
పెట్టేందుకు	10924
కావాలంటే	10925
బుల్	10926
పీజీ	10927
హోల్	10928
సరిపడా	10929
నిర్ణయించుకున్న	10930
వాతావరణంలో	10931
##ana	10932
రిలీజ	10933
ఇంతకీ	10934
అంగన్	10935
భావించి	10936
క్యూసెక్	10937
ంటాయి	10938
ఆహ్వానం	10939
చూసినా	10940
స్పందించి	10941
అయోధ్యలో	10942
దృష్ట్యా	10943
సంస్కృతి	10944
##చోట్ల	10945
చూస్తుంటే	10946
ధృవీక	10947
కమీషన్	10948
పరోక్షంగా	10949
అహ్మదాబాద్	10950
రవితేజ	10951
89	10952
చలి	10953
జంక్షన్	10954
నెస్	10955
బలి	10956
లాయర్	10957
##రకంగా	10958
##గంట	10959
##బరి	10960
##8లో	10961
చేర్	10962
##లిష్	10963
కుంటున్నారు	10964
వేస్తున్న	10965
అనిపించ	10966
ప్రాతిపదిక	10967
మెన్	10968
వ్యాధులు	10969
బిహార్	10970
ఫోన్‌	10971
ట్రస్ట్	10972
హోరా	10973
ఇచ్చినట్లు	10974
175	10975
##ఫిడ	10976
16న	10977
ప్రాజెక్టులు	10978
ప్రాజెక్టును	10979
కోల్పో	10980
లాంటివి	10981
వినియోగించు	10982
సేకరించ	10983
నర్సా	10984
తిరుగుబాటు	10985
రాలేదని	10986
అధిగమ	10987
భీమ	10988
ఏంటో	10989
రిటైర్మెంట్	10990
మూడేళ్ల	10991
కంప్లీట్	10992
స్ట్రాంగ్	10993
క్వింటా	10994
కాంట్రాక్టు	10995
ప్రశాంతంగా	10996
మహేందర్	10997
ఏడుగురు	10998
కర్కాటక	10999
వైజాగ్	11000
ప్రాముఖ్య	11001
?,	11002
ma	11003
ys	11004
ఏలూరు	11005
రకమైన	11006
ಕ್	11007
##నెస్	11008
##కరి	11009
##భవన్	11010
##దెబ్బ	11011
##dd	11012
##కుంది	11013
వైకుంఠ	11014
అధికారాన్ని	11015
మార్పి	11016
10వ	11017
క్వా	11018
విద్యార్	11019
ప్రమాణం	11020
19న	11021
విజయవంతం	11022
కుమార్‌	11023
అన్నట్లు	11024
జూపల్లి	11025
అసెంబ్లీకి	11026
లేదన్న	11027
రూపాయలకు	11028
సౌతా	11029
##క్కిరి	11030
వ్యవస్థాప	11031
కార్యాలయానికి	11032
ఫీల్డ్	11033
##ala	11034
గడిచిన	11035
కలిగించే	11036
ఫ్లెక్సీ	11037
ఫ్లోర్	11038
బ్యాలెట్	11039
పవన్‌	11040
అకాడమీ	11041
79	11042
8వ	11043
ఉక్కు	11044
కది	11045
గారు	11046
నన్న	11047
పట్	11048
హబ్	11049
##టూ	11050
##నొప్పి	11051
##పిల్ల	11052
##రెన్	11053
##కార్	11054
##్రమల	11055
##లోగా	11056
నిష్	11057
రాబో	11058
తెల	11059
సిగ్గు	11060
రెచ్చ	11061
రెట్లు	11062
##ంద్రా	11063
మార్కులు	11064
చేస్తున్నట్టు	11065
క్షి	11066
వర్షాలతో	11067
పరిశ్రమల	11068
సభ్యులను	11069
నడుస్తోంది	11070
బంధం	11071
ఇండో	11072
విశ్వస	11073
పొందుతున్న	11074
వ్యాపారవేత్త	11075
సముద్రం	11076
పరిగణి	11077
కపోవడంతో	11078
దేవుడు	11079
సహజంగా	11080
సమ్మే	11081
విరుద్ధంగా	11082
పైలట్	11083
రిజర్వాయర్	11084
భయాందోళన	11085
జీఎస్టీ	11086
బ్యూరో	11087
ఇందిరమ్మ	11088
అంబులెన్స్	11089
వాషింగ్టన్	11090
బంజారా	11091
రఘునందన్	11092
3న	11093
ఆకు	11094
ఎంచు	11095
క్యాల	11096
మల్లు	11097
##ెలు	11098
##కట్	11099
##deo	11100
##ug	11101
##ون	11102
##ಡೆ	11103
##2లో	11104
నిండ	11105
లోపే	11106
కావాల్సి	11107
పోసి	11108
కొనే	11109
చేయగల	11110
చేయనున్నట్లు	11111
##స్తున్నా	11112
పార్కు	11113
బాగ్	11114
ప్రాసెస్	11115
##ారాశి	11116
ఎన్నికలను	11117
చూద్దాం	11118
##మార్లు	11119
నాయకులకు	11120
సైంటి	11121
డీఈ	11122
అయ్యప్ప	11123
దీనిలో	11124
మృతుల	11125
సిద్ధా	11126
30న	11127
ంచింది	11128
ందనే	11129
డైరెక్టరేట్	11130
వివక్ష	11131
సంగీత	11132
ఆదరణ	11133
ఆటంక	11134
యుద్ధంలో	11135
ఆకస్	11136
కురుస్తున్న	11137
సృష్టించింది	11138
నల్లగొండ	11139
అనారోగ్యంతో	11140
గాయాలయ్యాయి	11141
ఆన్‌లైన్‌లో	11142
సుధీర్	11143
కదలిక	11144
వెస్టిండీస్	11145
ఇబ్రహీ	11146
po	11147
అలంక	11148
ఇటువంటి	11149
కడ	11150
సన్నా	11151
ిస్తారు	11152
##మ్య	11153
##వద్దని	11154
రాత్ర	11155
##స్తులకు	11156
##టీయూ	11157
పావు	11158
##బ్ల్యూ	11159
##పైగా	11160
గురువు	11161
మీటర్లు	11162
మొక్కులు	11163
టీచర్లు	11164
చేసినప్పుడు	11165
##దేవ్	11166
##సాహం	11167
వర్గాలకు	11168
ఎంసీ	11169
బ్యాటర్లు	11170
తరపు	11171
లిఫ్ట్	11172
##స్తూనే	11173
##భాష్	11174
ఉత్తీర్	11175
##చుగా	11176
డెంగ	11177
లైట్	11178
ఇప్పటివరకూ	11179
మొదలయ్యాయి	11180
పెట్టుకొని	11181
చెల్లించాలని	11182
ఆహారాన్ని	11183
నరేందర్	11184
కార్యక్రమాల్లో	11185
అంతర్గత	11186
పత్రం	11187
ప్రతినిధుల	11188
తరలివ	11189
పర్యాట	11190
వాస్తవానికి	11191
ఏంటంటే	11192
రాజమౌళి	11193
నియామకం	11194
విషాద	11195
ఉదాహరణకు	11196
భువనేశ్వరి	11197
అదృష్టం	11198
స్తంభ	11199
వెయిట్	11200
ఆత్మీ	11201
విశ్రాంతి	11202
బస్టాండ్	11203
ఉత్తీర్ణ	11204
2న	11205
గణా	11206
తరి	11207
దన్నారు	11208
##టలు	11209
##ంతికి	11210
రాఖీ	11211
చెందింది	11212
పెండ్	11213
బాబా	11214
జగనన్న	11215
అవుతాయి	11216
అయ్యర్	11217
19వ	11218
రాజకీయాల	11219
నిర్మాణంలో	11220
వెంకటేశ్	11221
ప్రోగ్రామ్	11222
23న	11223
నైరు	11224
హక్కును	11225
27న	11226
విజయవాడలో	11227
కనక	11228
పొందుతూ	11229
ప్రశ్నకు	11230
ఆహారంలో	11231
మధుమే	11232
డేటాను	11233
తిరుమలకు	11234
మ్యూజి	11235
మొక్కలు	11236
గ్రహాల	11237
ఘాట్	11238
శ్రీనివాసరావు	11239
మెజార్టీతో	11240
సంక్రాంతి	11241
జడ్పీటీసీ	11242
మిల్లు	11243
శుభ్రం	11244
చర్చనీయాంశంగా	11245
అత్యున్నత	11246
శివాజీ	11247
సౌతాఫ్రికా	11248
وال	11249
ఎక్కు	11250
జవా	11251
పఠ	11252
ఫ్యూ	11253
బస్టర్	11254
భగీ	11255
యత్	11256
షమీ	11257
##నస్	11258
##ಿಗೆ	11259
##నియన్	11260
నిరోధక	11261
కానున్న	11262
##సిక్	11263
##ారిస్	11264
చేయించారు	11265
రూం	11266
##రించు	11267
మిచ	11268
విజయాలు	11269
##గ్రే	11270
##శాంతి	11271
హాసన్	11272
మ్యాచు	11273
ఇవ్వడానికి	11274
ఏపీలోని	11275
ప్రపంచంలోని	11276
స్వయం	11277
పెంచే	11278
బంగారాన్ని	11279
పంపించ	11280
##ఫియా	11281
చనిపోయాడు	11282
అతిథి	11283
గేట్	11284
విదేశాలకు	11285
ఆకలి	11286
తెచ్చిన	11287
ఆత్మహత్యకు	11288
నియోజకవర్గంలోని	11289
సలహాదారు	11290
సెమీస్	11291
ఆరంభ	11292
నివసించే	11293
అత్త	11294
ఆచ	11295
ఆతి	11296
ఆంజనేయ	11297
కపూర్	11298
డ్రి	11299
దందా	11300
శత	11301
ಆದ	11302
‌లకు	11303
##య‌	11304
##ಾನ	11305
##్యంతో	11306
##లిటీ	11307
కాం	11308
కున్న	11309
##దిక్	11310
##పురు	11311
##రామ్	11312
##ితికి	11313
ముర్	11314
లేకుంటే	11315
వేత	11316
చేయించ	11317
తాగి	11318
లాక్	11319
శ్రీకారం	11320
‌‌తో	11321
కల్పించారు	11322
మహమ్మద్	11323
ఇండియాకు	11324
కిందకు	11325
వస్తువు	11326
ప్రియు	11327
పోరాడ	11328
కరెన్సీ	11329
కమల్	11330
సెప్టెంబరు	11331
జనవరిలో	11332
పరమ	11333
ఎడమ	11334
మ్మ	11335
ఆక్రమణ	11336
పురోగతి	11337
ఈశాన్	11338
కారిడార్	11339
అరేబియా	11340
దివ్యాంగ	11341
అందిన	11342
ఆఫ్రికా	11343
ఉధ	11344
ఐఐ	11345
దాన	11346
మినీ	11347
వారని	11348
సులు	11349
##్‌	11350
స్తో	11351
##మానియా	11352
చెక్క	11353
##ంట్లో	11354
రేట్	11355
దిగ్	11356
ప్రజ్వ	11357
##మురు	11358
సూపరి	11359
జనాలు	11360
బోతున్న	11361
ఒక్కసారి	11362
దేవే	11363
షాపింగ్	11364
నోరు	11365
రేవంత్‌	11366
చర్యలను	11367
ఇంకొ	11368
18వ	11369
చుక్క	11370
##పడతాయి	11371
ప్రతిపక్షాల	11372
ప్రసారం	11373
వందలాది	11374
ట్యాంక్	11375
అడ్వా	11376
ఫైనల్లో	11377
పార్లమెంటరీ	11378
ప్రస్తావన	11379
వినిపిస్తోంది	11380
స్మగ్	11381
ప్రణాళికలు	11382
కాలుష్యం	11383
పుట్టినరోజు	11384
తాగునీటి	11385
ప్రశ్నిస్తున్నారు	11386
ప్రొడక్షన్	11387
తెరకెక్	11388
ఇష్యూ	11389
గణాంక	11390
5న	11391
جس	11392
ఏళ్ళ	11393
ఔష	11394
ఠా	11395
త్ర	11396
పాలకు	11397
ఫేమ	11398
మన్న	11399
వహించ	11400
##ారులకు	11401
వింత	11402
రాధా	11403
కాస్ట్	11404
తెప్ప	11405
చెట్లు	11406
##ట్టా	11407
నేర్చు	11408
చేయటం	11409
పార్కింగ్	11410
పరిష	11411
బాని	11412
##ారాం	11413
సభల్లో	11414
వారస	11415
ప్రారంభంలో	11416
అన్నాడు	11417
అర్వింద్	11418
గెలిచింది	11419
లెవల్	11420
##anth	11421
##మూల	11422
ప్రసంగం	11423
సహాయంతో	11424
అడ్వ	11425
తల్లిదండ్రుల	11426
రాజ్యాంగం	11427
హోంమంత్రి	11428
##రాశిలో	11429
##్వేల్	11430
##ರುವ	11431
గమనించిన	11432
ఆనందంగా	11433
ఎదురుచూస్తున్న	11434
##اتھ	11435
కనుగొన్న	11436
సప్లై	11437
రకాలుగా	11438
##షేకం	11439
పర్సనల్	11440
బెట్టింగ్	11441
ఎపిసో	11442
నైరుతి	11443
5వ	11444
on	11445
st	11446
అల్లం	11447
ఎట్ట	11448
ఎక్కి	11449
కప్పి	11450
ಎಂಬ	11451
##ಾಂ	11452
రాథో	11453
కుల్	11454
##ాయిల్	11455
కోణంలో	11456
మాని	11457
##వుతాయి	11458
పాడ	11459
వాసులు	11460
##ప్పుల	11461
భారతి	11462
పొడవు	11463
సభలు	11464
ప్రాంతాన్ని	11465
శాఖకు	11466
జోడ	11467
ఇన్ఫెక్షన్	11468
చేస్తూనే	11469
ఉత్సాహ	11470
ఎన్నడూ	11471
పారిస్	11472
గర్భి	11473
ఖాళీగా	11474
పరిశోధకులు	11475
బర్త్	11476
ఫ్రెండ్స్	11477
ప్రజాస్వామ్య	11478
గదిలో	11479
86	11480
అపో	11481
ఎప్పటికీ	11482
మర్యా	11483
రథ	11484
##కాలకు	11485
##మత	11486
##ష్ర్	11487
##ce	11488
##నుప	11489
##స్తామన్నారు	11490
##సిడీ	11491
పోత	11492
కొరి	11493
కొట్టింది	11494
ముక్కు	11495
సిసో	11496
వేరియం	11497
పరిస	11498
##జ్జు	11499
శాస్త	11500
##ంప్ర	11501
డిసైడ్	11502
పుతిన్	11503
వెళ్తే	11504
షాకింగ్	11505
నోటి	11506
క్యాచ్	11507
ంచడం	11508
ంచాడు	11509
పంచుకున్నారు	11510
బౌలర్లు	11511
భావిస్తారు	11512
సొంతంగా	11513
పాటలు	11514
నివేదికలు	11515
నివేదికలో	11516
కొట్టారు	11517
బేబీ	11518
కిలోమీటర్లు	11519
అగ్రనేత	11520
అనుకున్నారు	11521
కౌన్సిలర్	11522
ప్రవర్తన	11523
గజ్వేల్	11524
ఛత్తీస్‌	11525
రక్తం	11526
##మండలి	11527
ఆత్మీయ	11528
పెండ్లి	11529
కట్టుకు	11530
కన్య	11531
మూర్తి	11532
##‌వ	11533
##శీల	11534
##ఫో	11535
##ారాలు	11536
కులాల	11537
కుర్చీ	11538
కోస్తా	11539
కోపం	11540
మునుగో	11541
ఆయనే	11542
డిస్ట్రి	11543
వర్కర్	11544
##చార్య	11545
##షియన్	11546
డీఏ	11547
పీఆర్	11548
క్యాప్	11549
రాములు	11550
11వ	11551
స్వదేశ	11552
గింజ	11553
ఉపయోగించు	11554
సందేశ	11555
సంతృ	11556
సూర్యుడు	11557
సర్వీసెస్	11558
మారిపోయింది	11559
##ತ್ರ	11560
కాంట్రాక్టర్	11561
కుక్కల	11562
న్యాయవాదులు	11563
పరిణామం	11564
నితీశ్	11565
##ఛార్జ్	11566
వైఎస్‌ఆర్‌	11567
రష్మిక	11568
వ్యాయామం	11569
ఆకస్మిక	11570
మునుగోడు	11571
9వ	11572
అవే	11573
ఈయన	11574
కర్ర	11575
జబ్బు	11576
నవ్వు	11577
రని	11578
##‌రి	11579
##పత్తి	11580
##జర్లు	11581
##ିଡି	11582
##ಾಣ	11583
##న్యూ	11584
##కుమ	11585
##క్చర్	11586
##ండరీ	11587
##డిప	11588
కులం	11589
కోట్లను	11590
##్వీ	11591
చేశానని	11592
మీనా	11593
##వర్లో	11594
మందితో	11595
చివర్లో	11596
పొరుగు	11597
తీసుకుంటారు	11598
##స్టరీ	11599
మహిళను	11600
పలుమార్లు	11601
విమర్శి	11602
వాటిపై	11603
గుర్తుకు	11604
ఇంట్రెస్	11605
##భిన్న	11606
తీర్మా	11607
మంత్రుల	11608
అప్లై	11609
వేడుకల్లో	11610
కొద్దిసేప	11611
ప‌రి	11612
అద్భుత	11613
వేధింపుల	11614
పద్ధతిలో	11615
ఆదిత్యనాథ్	11616
దెబ్బతిన్న	11617
నితీష్	11618
పల్నాడు	11619
శారీరక	11620
ఉస్మానియా	11621
గ్యారెంటీ	11622
బ్యాక్టీరియా	11623
పౌర్ణమి	11624
6న	11625
pl	11626
అగర్	11627
కశ్మీర్	11628
ఖర	11629
గెస్ట్	11630
డంతో	11631
దై	11632
దె	11633
పల్లా	11634
భక్తి	11635
##సెట్	11636
##పట్ల	11637
##యన్‌	11638
##ନ୍	11639
##క్షిక	11640
మాత	11641
వాళ్లే	11642
అనుసం	11643
సోలార్	11644
యూరో	11645
పెట్టాడు	11646
సాధన	11647
నోట్	11648
చేపట్టి	11649
కమిషన	11650
జోష్	11651
ఇంజిన్	11652
లైవ్	11653
ఉపయోగించే	11654
యోగీ	11655
గురై	11656
డిసెంబరు	11657
నడుస్తున్న	11658
పదిహే	11659
క్వాలి	11660
హాజరై	11661
సబ్సిడీ	11662
వాడకం	11663
ఆహ్వాని	11664
ఉత్సవాలు	11665
దశాబ్దాల	11666
ఛానెల్	11667
video	11668
స్తాం	11669
అనిపిస్తుంది	11670
##ویر	11671
ప్లస్	11672
ఖరీదైన	11673
ఫేమస్	11674
1వ	11675
అతీ	11676
అజిత్	11677
జవాన్	11678
థర్	11679
పారా	11680
##కారుల	11681
##జల్	11682
##ష‌న్	11683
##ారంటే	11684
##క్తంగా	11685
##ాలె	11686
విచారి	11687
##టివిటీ	11688
ముగు	11689
లేడీ	11690
చెప్పాల్సిన	11691
##కొనే	11692
వీటికి	11693
ఎన్నికైన	11694
ఉండొచ్చని	11695
##కేట్	11696
తేల్చ	11697
నేతగా	11698
సర్కిల్	11699
కేసీఆర్‌	11700
కావచ్చు	11701
కంపెనీకి	11702
అదిరి	11703
సింగ్‌	11704
రికార్	11705
ఆరోపణలను	11706
లేకపోయారు	11707
మండిపడుతున్నారు	11708
ఎదుర్కొన్న	11709
ప్రేక్షకులను	11710
కలిగిస్తుంది	11711
హ్యాపీ	11712
రజినీ	11713
##జినల్	11714
మేనిఫెస్టోలో	11715
వెళుతున్న	11716
కేజీల	11717
జగదీశ్	11718
గుండెపోటుతో	11719
ఏనుగు	11720
##పూర్వకంగా	11721
తుఫాను	11722
హస్తం	11723
అనారోగ్యం	11724
గుప్పించారు	11725
యంత్రాంగం	11726
కొనియాడారు	11727
ధ్వజమె	11728
పెద్దిరెడ్డి	11729
శ్వేత	11730
سو	11731
ఆద్	11732
ఖే	11733
చమురు	11734
జవహ	11735
బ్రో	11736
సెక్టార్	11737
##హల్	11738
నిధి	11739
రాకపోవడంతో	11740
##వాలో	11741
##వానీ	11742
##దియా	11743
రెచ్చి	11744
##త్తమ	11745
రోవర్	11746
పేసర్	11747
##డీఏ	11748
టీఆర్ఎస్	11749
డిపో	11750
మిర్యాల	11751
డీఎస్సీ	11752
దుష్	11753
పనుల్లో	11754
నగరానికి	11755
పెంచారు	11756
వ్యాపారి	11757
##బుల్లా	11758
తమిళి	11759
కాల్చి	11760
పెట్టుకున్నారు	11761
చేరుకొని	11762
తీసుకోవాల్సి	11763
సమర్పించారు	11764
టెస్టులో	11765
గూడెం	11766
ట్రేడ్	11767
ಮಾಡಿ	11768
కాంబో	11769
వికాస్	11770
వీలైనంత	11771
4వ	11772
بھی	11773
ండు	11774
కనుక	11775
##et	11776
##ణాలను	11777
##ಿಸ	11778
ప్రమే	11779
##ికక్కడే	11780
విభిన్న	11781
పేరుకు	11782
చివర	11783
తాడేపల్లి	11784
##మేర	11785
##కేలకు	11786
రెండూ	11787
యాని	11788
##స్టో	11789
బెల్	11790
ఆర్డీవో	11791
వెళ్లను	11792
##మార్టం	11793
నిర్వహించింది	11794
ఒక్కరు	11795
రుణం	11796
లీడ్	11797
ఆలయాన్ని	11798
అక్కడికక్కడే	11799
జరగలేదు	11800
ప్రిన్సిప	11801
ప్రాజెక్టుల	11802
నిలవ	11803
నడుపు	11804
కార్పొరే	11805
వ్యూహా	11806
నియమించ	11807
అగ్రికల్	11808
పురంద	11809
కాలనీలో	11810
వేసుకుని	11811
కార్తీక్	11812
ఓటర్లను	11813
గద్దె	11814
కార్యకలాపాలు	11815
థ్రిల్లర్	11816
అరికట్ట	11817
భగీరథ	11818
ఎట్టకేలకు	11819
ప్రిన్సిపల్	11820
అణు	11821
ఉగా	11822
రచ్చ	11823
షర	11824
హసీ	11825
హసన్	11826
##వూ	11827
##ారట	11828
##ారమే	11829
నిరం	11830
నితిన్	11831
##లాన్ని	11832
సీన్స్	11833
##కాన్	11834
నాగే	11835
కార్యవర్గ	11836
##వ్‌	11837
మిథ	11838
ద్వీ	11839
డీఆర్	11840
షాప్	11841
దురద	11842
స్థానాన్ని	11843
ఉండేవి	11844
తరుపున	11845
తగ్గడం	11846
ందన్న	11847
సరదా	11848
అందిస్తోంది	11849
##భిప్ర	11850
ఇంట్లోనే	11851
మార్కెట్‌లో	11852
బ్ల	11853
దెబ్బతీ	11854
పొందారు	11855
రిపోర్	11856
ఫెయిల్	11857
సృష్టించిన	11858
పురుషులు	11859
టిక్కెట్లు	11860
ఇంజనీరింగ్	11861
##abu	11862
ప్రజాప్రతినిధులు	11863
శాశ్వత	11864
ఇమేజ్	11865
ఈశాన్య	11866
ఆద్మీ	11867
87	11868
ری	11869
గండి	11870
పరమైన	11871
ఫంక్షన్	11872
లంక	11873
సకాలంలో	11874
##లక్	11875
##నర్లు	11876
##రప్	11877
##గర	11878
##గించి	11879
##కైనా	11880
##il	11881
##ಕೆ	11882
విజి	11883
కాదా	11884
వెన్ను	11885
లేవ	11886
వేట	11887
సీఎల్	11888
గాజు	11889
అనిపించింది	11890
ఉండవు	11891
రోజువారీ	11892
చేస్తోన్న	11893
సున్ని	11894
బెల్లం	11895
దుస్తులు	11896
ట్రె	11897
గ్రామాలకు	11898
చర్చించ	11899
గెలిచే	11900
అభ్యర్థిని	11901
అడిగారు	11902
##ల్లాపూర్	11903
జయశంకర్	11904
తిరుగుతున్న	11905
కులగణన	11906
స్క్రీ	11907
సారథ	11908
పురుషుల	11909
అప్రమత్తం	11910
పద్మా	11911
ఎగుమతి	11912
నినాద	11913
హైదరాబాద్‌ః	11914
పులివె	11915
కూర్చున్న	11916
2016లో	11917
టూరిజం	11918
రజనీకాంత్	11919
సిసోడియా	11920
تھا	11921
ఇమ్రాన్	11922
ఓకే	11923
ఖండి	11924
మలే	11925
ష్	11926
ాల్లో	11927
##క్రా	11928
##ସି	11929
##ళూరు	11930
##ందిగా	11931
##ండరింగ్	11932
##లాస	11933
##ష్టి	11934
##సిం	11935
మాసం	11936
సంపూర్ణ	11937
సమయాన్ని	11938
చెప్పడానికి	11939
##ండ్లను	11940
కార్యదర్శ	11941
ఎమ్మెల్యేలను	11942
బుకింగ్	11943
2017	11944
కోర్టును	11945
పిల్లలతో	11946
గౌడ	11947
వ్యాఖ్యలను	11948
సౌర	11949
న్యాయమూర్	11950
దోచుకు	11951
నమ్మక	11952
భావించే	11953
రికార్డులు	11954
వాయిస్	11955
పూర్తయిన	11956
ఫిబ్రవరిలో	11957
ఫార్ము	11958
అవసరమని	11959
తమిళనాడులో	11960
స్కీం	11961
ధోని	11962
హార్దిక్	11963
ఇదొక	11964
ఆశిస్తున్న	11965
##నైటెడ్	11966
అచ్చెన్న	11967
దయాకర్	11968
తక్షణమే	11969
అల్పపీడనం	11970
వెహికల్స్	11971
మర్యాద	11972
పురందేశ్వరి	11973
ساتھ	11974
ఐస్	11975
గల్ల	11976
తల్ల	11977
##ెండర్	11978
##క్వ	11979
##ంటాడు	11980
##డున్న	11981
##వాఖ	11982
##వాల్‌	11983
రెస్క	11984
##ష్టమైన	11985
వాడి	11986
వాంగ్	11987
అవకత	11988
##సేనా	11989
ఉండాలంటే	11990
మెంబర్	11991
నెమ్మ	11992
నెగ్గ	11993
రాజగోపాల్	11994
##సాన్ని	11995
సుదర్శ	11996
ఆర్మూర్	11997
అవకాశాన్ని	11998
##శాల్	11999
కలర్	12000
జరుగుతాయి	12001
జరుగుతోందని	12002
దుమ	12003
ప్రత్యేకత	12004
##టేష్	12005
చూడటం	12006
తలసాని	12007
##ఫిషియల్	12008
ఇంట్లోకి	12009
##ంటీర్లు	12010
తగ్గే	12011
26న	12012
ముంబైలో	12013
ప్రేక్షకులు	12014
షిండే	12015
తొలగించి	12016
స్టాఫ్	12017
అవసరమైతే	12018
దొంగలు	12019
సందర్శించారు	12020
నిబంధనలను	12021
దాడుల	12022
ప్రమోషన్స్	12023
2020లో	12024
కూల్చివే	12025
సంకేతాలు	12026
గెలుపొందారు	12027
పరిషత్	12028
రాథోడ్	12029
రెస్క్యూ	12030
అవకతవ	12031
81	12032
ఉమా	12033
చదర	12034
చాంపి	12035
పట్నం	12036
మూర్	12037
##గళం	12038
##6లో	12039
##ಾಜ	12040
రావాల్సిన	12041
కొము	12042
ముద్దు	12043
సమాజా	12044
యాసి	12045
##ుకుంటున్న	12046
సర్జరీ	12047
‌‌‌‌‌‌‌‌గా	12048
విధించిన	12049
మహీ	12050
ఉదయ్	12051
కిందటే	12052
##చువల్	12053
పనిచేస్తున్నారు	12054
బలగాలు	12055
ఫుటే	12056
భార్యను	12057
కోల్పోయింది	12058
ప్రవేశపెట్టిన	12059
కనిపించాయి	12060
అదర	12061
ప్రసాద	12062
నిపుణుల	12063
దుర్గా	12064
వడ్లు	12065
అపాయింట్	12066
పరిశ్రమలు	12067
సంస్కరణ	12068
మన్మోహన్	12069
చిక్కుకున్న	12070
చెందుతున్నారు	12071
కూర్చుని	12072
పోయాడు	12073
పారదర్శ	12074
వైఎస్ఆర్సీపీ	12075
పెళ్లికి	12076
స్పిన్నర్	12077
సహకారంతో	12078
వంతెన	12079
శ్రావణ	12080
ప్రజ్వల్	12081
ఖరార	12082
ఆరే	12083
ఉద్	12084
ఏసీపీ	12085
టెస్	12086
నడవ	12087
మంటూ	12088
ింది	12089
ಸ್	12090
##గ‌	12091
ప్రదీప్	12092
##తుంటే	12093
చెబ	12094
‌‌‌‌‌‌‌‌‌‌‌‌‌‌‌‌గా	12095
బీఎస్	12096
##తాం	12097
##క్రే	12098
సుభాష్	12099
శ్రీకృష్ణ	12100
నాయకులను	12101
ఫిట్	12102
బుల్ల	12103
సమావేశమయ్యారు	12104
వ్యవహరించిన	12105
కథనాలు	12106
##వెల్లి	12107
##ప్పుడూ	12108
అవిశ్వాస	12109
తీరును	12110
చేయాలో	12111
ఉత్పత్తు	12112
సీజన్‌లో	12113
##వెన్షన్	12114
ఎకరాలకు	12115
కామెంట్లు	12116
సానుకూలంగా	12117
నివాసానికి	12118
మమతా	12119
##ంటెండెంట్	12120
పుష్కలంగా	12121
జ్వరం	12122
మార్పిడి	12123
సూపరింటెండెంట్	12124
దవాఖ	12125
యశ	12126
శంక	12127
ుకున్న	12128
##వరు	12129
##వాయ్	12130
##చర	12131
##నిజ	12132
##స్ధ	12133
##ాయన్న	12134
కోచింగ్	12135
పోగొ	12136
‌‌‌‌‌‌‌‌‌‌‌‌‌‌‌‌తో	12137
సిటి	12138
సిద్ధి	12139
##ట్టమైన	12140
వేగం	12141
వాడుకు	12142
సీఆర్	12143
##పోతే	12144
వ్యర్థ	12145
చెప్పాలంటే	12146
##పియన్	12147
వైసిపి	12148
దాటిన	12149
టీస్ప	12150
రిల	12151
రాజయ్య	12152
మార్చారు	12153
ఏర్పడే	12154
సినిమాకి	12155
సభను	12156
తొక్కి	12157
నిర్ణయానికి	12158
నిర్ణీత	12159
డీసీసీ	12160
బయటి	12161
పాలేరు	12162
రుద్ర	12163
జైపూర్	12164
ఇన్సూ	12165
పడటం	12166
పడటంతో	12167
రిక్రూ	12168
విమానాలు	12169
ఫైల్	12170
ఇక్కడికి	12171
ఆరోగ్యకరమైన	12172
నిజమైన	12173
మైనర్	12174
విస్తృత	12175
విస్తృతంగా	12176
##‌ల‌	12177
మహారాష్ట్రలోని	12178
పాఠశాలలో	12179
ప్రశ్నలకు	12180
రూపొందించారు	12181
హనుమంతు	12182
ہوئے	12183
జంతువుల	12184
సందేహం	12185
షారుఖ్	12186
ధ్వజమెత్తారు	12187
96	12188
గన్	12189
జత	12190
డ్రెస్	12191
బజార్	12192
భరించ	12193
మచి	12194
##شن	12195
చేవెళ్ల	12196
రాధ	12197
రాష్ర్	12198
##గుంట	12199
పోతాయి	12200
పెర్	12201
బాక్స్	12202
మెహ	12203
మేడ	12204
పొట్ట	12205
‌‌‌‌తో	12206
యునైటెడ్	12207
అమితా	12208
అందంగా	12209
మహాల	12210
మ్యాచ్‌లు	12211
భాగస్వా	12212
ప్రేమి	12213
టిక్	12214
కలెక్టర్లు	12215
ఆలోచనలు	12216
కృష్ణారావు	12217
పల్లిలో	12218
లక్ష్మీదేవి	12219
డెవలప్‌మెంట్	12220
పరిశ్రమలో	12221
కార్యకర్తలకు	12222
అస్వస్థ	12223
పోవడానికి	12224
నిలబడ	12225
మాల్దీ	12226
పోర్టల్	12227
సీతారామన్	12228
డిపాజి	12229
గాలులు	12230
టెర్రరి	12231
ଦେ	12232
అక్రమా	12233
గఢ్	12234
దమ్ము	12235
బహ	12236
సారా	12237
ుకోవడం	12238
##ప‌	12239
##మలు	12240
##ul	12241
##ండడం	12242
విము	12243
నిత్యా	12244
రాచ	12245
##టీవీ	12246
చేశామన్నారు	12247
చేయాలంటే	12248
బాల్స్	12249
##దాపూర్	12250
మూత్ర	12251
తర్వాతి	12252
తెలుస	12253
సమస్యలకు	12254
##పడుతుందని	12255
ఆంధ్రప్రదేశ్‌లో	12256
కష్టంగా	12257
బొత్స	12258
తప్పులు	12259
ప్రయాణిస్తున్న	12260
జరుగుతున్నాయని	12261
రైలును	12262
విక్రయి	12263
అడ్డుకున్న	12264
స్వీకరించారు	12265
చొర	12266
ఫ్రంట్	12267
సేకరించిన	12268
##కౌట్	12269
సెంచరీలు	12270
కఠినంగా	12271
రమణ	12272
కల్పిస్తామని	12273
చిక్కుకు	12274
సతీమణి	12275
ఖండించారు	12276
డిఫెన్స్	12277
నెట్‌వర్	12278
జనార్దన్	12279
చారిత్ర	12280
ఎపిసోడ్	12281
ఫార్ములా	12282
చదరపు	12283
ఇన్సూరెన్స్	12284
ంలో	12285
ఒరి	12286
హల్	12287
##దనే	12288
##it	12289
##ొని	12290
##స్వి	12291
కొన్నా	12292
ముంచ	12293
##ామీ	12294
చేయబోతున్న	12295
ఉండబో	12296
తాత	12297
సోష	12298
ప్రతిష్ఠ	12299
ఇప్పటికైనా	12300
భాగంలో	12301
కంపెనీలకు	12302
సిద్ధమైంది	12303
సరికి	12304
అందిస్తామని	12305
దోహ	12306
##మవుతాయి	12307
లేకపోయింది	12308
కష్టమే	12309
పరిష్కారానికి	12310
భారతీయులు	12311
రికార్డును	12312
సిరీస్‌	12313
చొరవ	12314
ప్రీతి	12315
తిరుగుతూ	12316
##ائی	12317
సెక్షన్ల	12318
వ్యవధిలో	12319
నాలుగేళ్ల	12320
కూరగాయల	12321
పొరపాటు	12322
తీసుకురావాలని	12323
వెల్లుల్లి	12324
బసవ	12325
ఈదురుగాలు	12326
తీర్చిదిద్ద	12327
బ్రాహ్మణ	12328
మచిలీ	12329
06	12330
దారులు	12331
##సమితి	12332
##పట్	12333
##యిక	12334
##وٹ	12335
##్రె	12336
##ంటారని	12337
##మాదం	12338
##స్తాడు	12339
##ాయిడ్	12340
వెరి	12341
వెచ్చ	12342
చేశారన్నారు	12343
సీట్లను	12344
పరిస్	12345
నాగ్	12346
##ులుగా	12347
మొట్ట	12348
శాటి	12349
##వీస్	12350
డిక్ల	12351
దివ్య	12352
కేంద్రాలను	12353
##వ్వులు	12354
స్పూన్	12355
##గేషన్	12356
హైదరాబాద్‌లోని	12357
బ్యాడ్	12358
కలెక్షన్	12359
అమర్చ	12360
ఫిలి	12361
సంస్థలకు	12362
చర్చించి	12363
హోలీ	12364
అదేవిధంగా	12365
విద్యార్థులను	12366
అందించడం	12367
##తికే	12368
తలెత్తు	12369
బలవంతంగా	12370
పంపింది	12371
ాలన్న	12372
ఫ్లైట్	12373
నిలకడ	12374
వెంకట్రా	12375
##మవుతున్నాయి	12376
పోస్టుమార్టం	12377
కేటాయించింది	12378
కొద్దిరోజు	12379
భయపడ	12380
సబ్‌	12381
రేపుతోంది	12382
వ్యాపారాలు	12383
గడుపు	12384
కుప్పం	12385
జరుగుతుందో	12386
పర్యవేక్షి	12387
నెట్టింట	12388
బానిస	12389
ప్రమేయం	12390
mo	12391
ఈజి	12392
ఎవ్వ	12393
జ్యూ	12394
బడ	12395
##భర్	12396
##ವನ್ನು	12397
##تا	12398
##దుర్	12399
##పుల్స్	12400
##రాకు	12401
పాస్‌	12402
సంభా	12403
బీపీ	12404
వైడ్	12405
వీడి	12406
##ంపూర్	12407
సెంటి	12408
పుంజు	12409
గ్రంథ	12410
అంతస్తు	12411
పిన్నె	12412
చేస్తున్నాం	12413
వారసు	12414
కలపాలి	12415
బుద్ధ	12416
విజయసాయి	12417
భాగ్య	12418
రామాయ	12419
కౌర్	12420
వెంకటేష్	12421
చేరుకుంటారు	12422
తలనొప్పి	12423
17వ	12424
హైకోర్టును	12425
వెంకటరెడ్డి	12426
ఉంచుకుని	12427
తెరపైకి	12428
నష్టపోయిన	12429
వదిల	12430
గర్వ	12431
##పూరిత	12432
పాఠశాలల్లో	12433
అవార్డులు	12434
భవనాలు	12435
క్లియర్	12436
మానసికంగా	12437
సాధిస్తారు	12438
వీరిద్దరి	12439
##ికొండ	12440
చంద్రుడిపై	12441
విజేత	12442
ప్రీమియర్	12443
లంచం	12444
ఛత్తీస్‌గఢ్	12445
చెబితే	12446
3వ	12447
91	12448
دی	12449
ఆర్య	12450
చ‌	12451
ొచ్చ	12452
ಮತ್ತು	12453
##టస్	12454
##లరీ	12455
##జనల్	12456
##ha	12457
##ನಲ್ಲಿ	12458
##ంటల్	12459
రామ్మ	12460
కోత	12461
గుర్ర	12462
చేయలేక	12463
జరిగాయని	12464
రిష	12465
##మేషన్	12466
పుట్టు	12467
ఇచ్చినా	12468
##శ్వాసం	12469
ఎంప్ల	12470
మరిచి	12471
నిర్వహించేందుకు	12472
మహాన	12473
హోమ్	12474
11న	12475
పరిస్థితిలో	12476
140	12477
##వాలే	12478
కాలేదని	12479
నిలబడి	12480
వేయాలి	12481
##మవుతున్నారు	12482
పెట్టుకో	12483
యోజన	12484
కట్టడి	12485
కేటాయించాలని	12486
డ్రైవింగ్	12487
ఫైనాన్	12488
ఆస్పత్ర	12489
దుర్గ	12490
మారిందని	12491
ప్రయత్నిస్తున్నారు	12492
దిగుబడి	12493
హ్యాట్రిక్	12494
నిందితుడిని	12495
వీరంతా	12496
కాకతీయ	12497
సినిమాలకు	12498
పరాజ	12499
సంస్కృ	12500
ram	12501
రాజాసింగ్	12502
ముద్రగడ	12503
ప్రోత్సహి	12504
కూరగాయలు	12505
వాలంటీర్ల	12506
క్షమాపణలు	12507
టెంపుల్	12508
సంతరించుకుంది	12509
రిలయన్స్	12510
డిక్లరేషన్	12511
ar	12512
اپ	12513
అమీ	12514
కనె	12515
తాడు	12516
నమ్మి	12517
సస్ప	12518
ుడి	12519
ದ್ದ	12520
‌పూర్	12521
##తాలను	12522
##దన్న	12523
##చార్	12524
##ణె	12525
##ದಲ್ಲಿ	12526
##ాయనే	12527
కాళ్లు	12528
##వాడు	12529
చెట్ల	12530
పోతోంది	12531
##పాక	12532
అవార్డ్	12533
వీలుగా	12534
రివర్స్	12535
రేసులో	12536
##ట్లలో	12537
యాంకర్	12538
కేంద్రాన్ని	12539
క్రిత	12540
అంతగా	12541
సర్దు	12542
నీట్	12543
##బీఎస్	12544
బోగీ	12545
##టాక్	12546
##టాన్స్	12547
##క్రమంగా	12548
##శివ	12549
##ార్థం	12550
చేపడుతున్న	12551
టైటాన్స్	12552
24న	12553
జేసీ	12554
బస్సులను	12555
##శేఖ	12556
ప్రోత్	12557
ప్రోగ్రా	12558
భావించ	12559
అవినీతికి	12560
లెక్కల	12561
శ్రేయ	12562
యూనివర్సిటీలో	12563
కేరళలో	12564
సంపాదించ	12565
ఆకర్షి	12566
పద్ధతి	12567
సీఈఓ	12568
నిలబెట్టు	12569
వెహికల్	12570
మూసివే	12571
ఇన్‌స్టాగ్రామ్	12572
ఇటలీ	12573
ఎంబీ	12574
సానుభూతి	12575
పేషెంట్	12576
దుండగులు	12577
హిమాచల్	12578
ప్రాతిపదికన	12579
అగ్రికల్చర్	12580
హసీనా	12581
ip	12582
అథ్	12583
గ‌	12584
టవర్	12585
ధరించి	12586
పద్ద	12587
శారు	12588
ದಲ್ಲಿ	12589
##టైన్	12590
కావు	12591
కాసేపు	12592
కుంటారు	12593
##ాయిన్	12594
కేకే	12595
పెద	12596
సంజీ	12597
##క్కా	12598
తీరం	12599
ఉన్నామని	12600
తోటి	12601
వైభవ	12602
బాపట్ల	12603
##దాని	12604
తాగే	12605
సుబ్ర	12606
లావ	12607
జామ్	12608
కలయిక	12609
ప్రస్తుతానికి	12610
అరెస్ట	12611
వచ్చేలా	12612
దుబ్బా	12613
సేపు	12614
వీడియోలను	12615
వెల్లడించ	12616
చేయడంపై	12617
ంచిన	12618
బాలినేని	12619
అమలులో	12620
లెవ	12621
##డర్స్	12622
సాయు	12623
##ధుల్లో	12624
గాయపడ్డ	12625
వెంకటేశ్వర	12626
21న	12627
నైవే	12628
పరారీ	12629
కెప్టెన్సీ	12630
ఉద్యమంలో	12631
రాజేష్	12632
మృతదేహాలను	12633
ధర్మపురి	12634
జ్ఞాన	12635
జాతకులు	12636
chand	12637
కూల్చివేత	12638
##್ಟ್‌	12639
డ్రోన్	12640
అనర్హత	12641
విశ్వసనీయ	12642
చారిత్రక	12643
దుబ్బాక	12644
03	12645
pa	12646
us	12647
అడు	12648
తై	12649
నానా	12650
మరే	12651
సద్	12652
##రాలకు	12653
##గన్	12654
##భవి	12655
##బౌ	12656
##బద్ద	12657
##ాయుడు	12658
##డియ	12659
స్వర్ణ	12660
రాను	12661
##మాటో	12662
##డాన్	12663
పెవి	12664
మాఫియా	12665
కూర	12666
నేనే	12667
చేయగలి	12668
##్రీత్	12669
##ంటిని	12670
##జ్జన	12671
పేరెంట్	12672
ప్రావి	12673
##యిరీ	12674
చేస్తారా	12675
తెలంగాణను	12676
మంత్రివర్గ	12677
జీ20	12678
మియా	12679
మిర్చి	12680
అంతకంటే	12681
వెళ్తున్నారు	12682
బ్యాట్	12683
యూరప్	12684
పెద్దల	12685
కావాలనే	12686
ఉపవాసం	12687
ఉపరిత	12688
గ్రామంలోని	12689
ారంటే	12690
అప్పీ	12691
కౌలు	12692
లేదనే	12693
పనిచేస్తుంది	12694
ఆధారిత	12695
భార్యకు	12696
అభిమానులను	12697
విద్యాసంస్థ	12698
సంప్రది	12699
అభిప్రాయాలు	12700
ప్పటి	12701
ట్విటర్	12702
మంటలను	12703
సలహాలు	12704
బాగుంటుంది	12705
ప్రాణాలతో	12706
నిరుద్యోగులు	12707
##య్యాక	12708
పర్యటించనున్నారు	12709
ఎండలు	12710
పార్లమెంటులో	12711
ర్యాం	12712
ప్రతిపాదనలు	12713
విమానాశ్రయం	12714
కత్తితో	12715
మాదిరిగా	12716
సదుపాయాలు	12717
నియమితుల	12718
నెక్స్ట్	12719
మార్కెటింగ్	12720
తామే	12721
ఎలక్ట్రానిక్	12722
జరుపుకుంటారు	12723
دعوی	12724
ఉరుములు	12725
సిఫార్సు	12726
మిచెల్	12727
విముక్తి	12728
శాటిలైట్	12729
వైభవంగా	12730
ఇప్పుడే	12731
ఏడో	12732
##ీద్	12733
##ld	12734
##మంగా	12735
##భ్ర	12736
##ఫు	12737
##ಾದ	12738
##ఐఏ	12739
##నిర్	12740
##స్వీక	12741
##ించాల్సి	12742
##ాయత్నం	12743
##ంతలు	12744
##లిక్స్	12745
##లాన్	12746
##యాన	12747
కుదిరి	12748
పోటె	12749
ముద్ద	12750
వాడిన	12751
గుణ	12752
##ానన్నారు	12753
##నీయంగా	12754
##ంబర్లు	12755
యాస	12756
అధికారులపై	12757
లక్షా	12758
108	12759
తరచుగా	12760
కారణంతో	12761
##టాన్ని	12762
పీరియ	12763
అమ్మే	12764
నిర్మాతలు	12765
ంచడానికి	12766
నేపథ్యంలోనే	12767
మైండ్	12768
13వ	12769
కమిటీని	12770
వెంకటేశ్వ	12771
అభిమాని	12772
రాయబ	12773
స్తానని	12774
అభిమానులకు	12775
ఎత్తులో	12776
గ్రామాలు	12777
దుర్వినియోగం	12778
య్యాయి	12779
ప్రమాణస్వీక	12780
నెరవేరు	12781
బల్దియా	12782
ఆర్టిఫిషియల్	12783
telug	12784
ఎంతగానో	12785
ముర్ము	12786
అడ్వాన్స్	12787
అమితాబ్	12788
పిన్నెల్లి	12789
లావణ్య	12790
వెంకటేశ్వర్లు	12791
82	12792
ام	12793
ఇంక	12794
ఫైన్	12795
మాలి	12796
##టన్ని	12797
##వల్లి	12798
చేనేత	12799
కాదన్నారు	12800
వెన్న	12801
వేస్తూ	12802
వేసేందుకు	12803
##గ్గి	12804
##పాత్ర	12805
##సుకుని	12806
ఒకరోజు	12807
వీక్ష	12808
టీఎస్‌	12809
కాంగ్రెస్‌లో	12810
జరిగినా	12811
తేల	12812
##జియా	12813
##గ్రఫీ	12814
నీతి	12815
బోతున్నారు	12816
తుందని	12817
లింగా	12818
ఆరోపించింది	12819
పాల్గొనే	12820
అప్పగి	12821
లెటర్	12822
##క్ష్మీ	12823
ప్రిన్సి	12824
మార్పుల	12825
వినయ్	12826
వేయడానికి	12827
పరిష్కార	12828
మార్చిలో	12829
కవితకు	12830
ఏర్పాట్లను	12831
పరచ	12832
సీసీటీవీ	12833
పరిణామాల	12834
దక్షిణాది	12835
బాలుడి	12836
విశ్లేషణ	12837
మురళి	12838
ఇంజనీర్	12839
భాగస్వామ్యం	12840
##స్థానంలో	12841
రహదారిపై	12842
ఫెడరేషన్	12843
##angana	12844
మిర్యాలగూడ	12845
7వ	12846
سی	12847
ଥି	12848
ఆడాడు	12849
ఇళ్లను	12850
ఈమె	12851
టెన్	12852
థా	12853
బండ్ల	12854
మైనా	12855
వదల	12856
వజ్ర	12857
సన్‌	12858
హాలీవుడ్	12859
‌లతో	12860
##ee	12861
##గాలి	12862
##ంటెడ్	12863
##ంగత	12864
##మాపక	12865
చెక్కు	12866
##వుతున్నాయి	12867
ముచ్చ	12868
వాది	12869
##కాన	12870
##ఆర్టీసీ	12871
వచ్చా	12872
పరిమా	12873
రాజేశ్వర్	12874
వర్ధ	12875
ఆర్టీ	12876
ఆర్ధిక	12877
వెళ్తుండగా	12878
పీహెచ్	12879
సేల్స్	12880
లీగల్	12881
యువకుడి	12882
సిద్ధార్థ	12883
వినతిప	12884
ఆత్మవి	12885
వేదికపై	12886
పరిశీలించిన	12887
డ్రైనే	12888
సిటీలోని	12889
తెచ్చారు	12890
కాలేజీల్లో	12891
కనెక్ట్	12892
##పూట	12893
ఓడిపోయారు	12894
నిరుద్యోగులకు	12895
జర్నీ	12896
అగ్నిప్ర	12897
అగ్నిమాపక	12898
##rab	12899
అమరావతిః	12900
విపక్షాలు	12901
దినోత్సవ	12902
పురాతన	12903
బృందాలు	12904
సతీష్	12905
వేణుగోపాల్	12906
తెరకెక్కించిన	12907
సిక్సర్	12908
దృశ్యాలు	12909
ఇవ్వాల్సి	12910
మిశ్రా	12911
స్వాతంత్ర్య	12912
సంక్షోభం	12913
బెడ్రూ	12914
డిస్కౌంట్	12915
ఐక్యరాజ్యసమితి	12916
మినహాయింపు	12917
నిర్వాసి	12918
కనెక్షన్	12919
సస్పెన్షన్	12920
جان	12921
ఆంధ	12922
ఉపే	12923
గచ్చి	12924
ట్యూ	12925
నమూ	12926
ాధిక	12927
ైతే	12928
##సస్	12929
##హౌ	12930
##వశా	12931
##భయ	12932
##og	12933
##्र	12934
##ంతర్	12935
కేడర్	12936
మాంసం	12937
##పోర్టు	12938
కిసాన్	12939
##్రీయ	12940
యూఏ	12941
ద్వారం	12942
అవుతూ	12943
పీడీ	12944
2017లో	12945
ప్రపంచకప్	12946
ఏడాదిలో	12947
మూవీస్	12948
రూపాయలుగా	12949
పాత్రల్లో	12950
చిత్రాలు	12951
అందింది	12952
##దాలుగా	12953
స్తాడు	12954
గేట్లు	12955
అడ్మిషన్	12956
బేగ	12957
సబ్జెక్	12958
య్యారు	12959
వసూళ్లు	12960
ర్యాంక్	12961
అన్వే	12962
షురూ	12963
కస్టడీకి	12964
ఉత్తరాంధ్ర	12965
వదిలేసి	12966
ఎదుర్కోవాల్సి	12967
కక్ష్య	12968
కరుణా	12969
డీఎంకే	12970
గందరగోళం	12971
నిఖిల్	12972
హింసాత్మక	12973
ఆఫ్ఘనిస్తాన్	12974
క్రితమే	12975
سر	12976
के	12977
రణ	12978
సఫ	12979
ిన	12980
##టాలు	12981
##ీమ్	12982
##బట్టారు	12983
##wi	12984
##ch	12985
##ందట	12986
##్యాలను	12987
కావే	12988
##టిన్	12989
పోతుందని	12990
మాను	12991
##ామంటూ	12992
##కాల్	12993
శాతంగా	12994
శాంస	12995
##దేవ	12996
చిహ్	12997
వ్యక్తులను	12998
కలిసొ	12999
క్రేజీ	13000
అభియో	13001
ఆర్గ	13002
నీట	13003
##ంపుల్	13004
కలప	13005
భూషణ్	13006
బోతోంది	13007
ప్రకటించే	13008
వచ్చేది	13009
193	13010
క్యాష్	13011
వెల్లడించాయి	13012
జోరు	13013
##స్‌మెంట్	13014
##ించుకోవడానికి	13015
వివాదాలు	13016
ఏళ్లలో	13017
నరేష్	13018
బీసీల	13019
పత్రాలను	13020
రామ్‌	13021
నిర్వహణకు	13022
అప్పగించ	13023
అస్సలు	13024
మతపరమైన	13025
బహుమతి	13026
కమ్యూనికేషన్	13027
పాల్గొననున్నారు	13028
and	13029
వెబ్‌సైట్	13030
దౌత్య	13031
ధ్రువీక	13032
రుతుపవనాలు	13033
ఆవరణలో	13034
టీస్పూన్	13035
83	13036
میڈ	13037
ଙ୍କ	13038
ఎల్లో	13039
ఏవీ	13040
ఐరన్	13041
చాక్	13042
తారా	13043
పట్టింది	13044
మెట్	13045
మకర	13046
‌ట్లు	13047
##గంగా	13048
##ಿಂದ	13049
##ందరి	13050
##డియన్	13051
స్తున్నారని	13052
##మాత్తుగా	13053
##క్షేత్ర	13054
కేఎల్	13055
వాచ్	13056
##నాల్లో	13057
పార్టీతో	13058
సాగే	13059
బాబర్	13060
ఒకటే	13061
అనురా	13062
శ్రీను	13063
మిడి	13064
ఉంటుందన్నారు	13065
అభివర్ణ	13066
అమల	13067
అలానే	13068
ప్రారంభించి	13069
వల్లనే	13070
అవుతారు	13071
కుటుంబాల	13072
చర్యల	13073
ప్రపంచానికి	13074
ంచాలని	13075
పడవ	13076
తగ్గిన	13077
ందంటే	13078
సరస్	13079
చట్టాలు	13080
చట్టాన్ని	13081
చట్టపరమైన	13082
షేర్లు	13083
పరిష్కరించాలని	13084
విశాఖలో	13085
ఫేమ్	13086
ఎందుక	13087
సోదరి	13088
రక్తంలో	13089
కోరుకున్న	13090
కెమెరాలు	13091
టీచర్ల	13092
మిలియన్ల	13093
అవినాశ్	13094
రొమా	13095
నాటౌట్	13096
కుర్రా	13097
కొలువు	13098
##ఫేర్	13099
టోకెన్	13100
ఊరేగింపు	13101
ధైర్య	13102
గన్నవరం	13103
##ddy	13104
##బౌలి	13105
دعویٰ	13106
09	13107
pm	13108
to	13109
ବି	13110
ఆవు	13111
ఐఫోన్	13112
రకం	13113
లగ్	13114
ಿದ್ದ	13115
##డబ్ల్యూ	13116
##లెస్	13117
##హై	13118
##చంద్	13119
##0లో	13120
విన్	13121
విల్	13122
##డ్ల	13123
##పురంలో	13124
మామ	13125
మాదాపూర్	13126
##రాజ	13127
పాపు	13128
వేస్తోంది	13129
మీర్	13130
దాటే	13131
లాంగ్	13132
లాగి	13133
కేంద్రాలు	13134
నిర్వహించడం	13135
ద్వి	13136
##గర్భ	13137
సైడ్	13138
సైకిల్	13139
సేన్	13140
##స్వాల్	13141
అమెరికాకు	13142
వ్యాఖ్యల	13143
శివసేన	13144
తీసుకున్నారని	13145
కాల్పుల	13146
చేస్తుంటే	13147
ప్రసంగా	13148
నడుపుతున్న	13149
ట్యాంకర్	13150
నెలకొన్నాయి	13151
ప్యాసి	13152
ఉద్దేశం	13153
తల్లిదండ్రులకు	13154
పోషించారు	13155
చెందాడు	13156
ధర్మం	13157
క్రికెటర్లు	13158
పాయింట్ల	13159
బౌలర్లలో	13160
##నాయుడు	13161
జాతకులకు	13162
విపరీతమైన	13163
అత్యుత్తమ	13164
స్పాట్	13165
దీర్ఘకాలిక	13166
తట్టుకోలేక	13167
దివంగత	13168
అరాచ	13169
అస్సాం	13170
పరారీలో	13171
గచ్చిబౌలి	13172
01	13173
అకస్	13174
ఐఎండీ	13175
చాన	13176
జగ్గ	13177
టాయి	13178
నవ్వ	13179
వారానికి	13180
##దించ	13181
##im	13182
##نا	13183
##ండ్రీ	13184
##ంతరాలు	13185
స్నా	13186
రాక్ష	13187
లోయ	13188
##న్నిస్	13189
కుంది	13190
పోవడంతో	13191
కొట్టు	13192
సిఎం	13193
వానలు	13194
##కోవాల్సిన	13195
అవ‌	13196
మందిలో	13197
మార్చ్	13198
అవకాశాలను	13199
బిర్	13200
##హ్లా	13201
పీపుల్స్	13202
##శిక్ష	13203
షాపులు	13204
నోట్లను	13205
చేపలు	13206
జోడీ	13207
మోదీని	13208
కార్యక్రమాలకు	13209
ందంటూ	13210
బ్యాంకుల	13211
బ్యాంకింగ్	13212
పరీక్షలకు	13213
హామీని	13214
సంఖ్యను	13215
జనసేనకు	13216
16వ	13217
తరలించ	13218
స్తామన్నారు	13219
దృష్టిని	13220
వినియోగదారుల	13221
ఫైనల్స్	13222
కొద్దిగా	13223
దిగజ	13224
అనుమానా	13225
పొందవచ్చు	13226
వ్యూహాలు	13227
భవనాల	13228
అవసరాలకు	13229
ుకుని	13230
మృతదేహం	13231
ముస్లింలు	13232
మధుసూ	13233
వాస్తవం	13234
కార్యకర్తలను	13235
ఛార్జ్	13236
వెళ్లాల్సి	13237
తాగితే	13238
వేసుకున్న	13239
ద్రౌ	13240
బాధితుడు	13241
జర్నలిస్టు	13242
##రాలిగా	13243
ఓటరు	13244
జగదీష్	13245
పరామర్శించారు	13246
ద‌ర్శ	13247
సంతాపం	13248
అంత్యక్రియలు	13249
సెటైర్లు	13250
థర్డ్	13251
సాయుధ	13252
ఆర్గనై	13253
ٹی	13254
అఫిడ	13255
ఎర్	13256
ఎండ్	13257
కమా	13258
కరంగా	13259
గంభ	13260
చర్	13261
చతు	13262
నవా	13263
నడక	13264
పిత	13265
బడ్డ	13266
మచ్చ	13267
శరద్	13268
సప్ల	13269
##టెంట్	13270
##ఫికేషన్	13271
ప్రక్షా	13272
వెంచ	13273
రెట్టి	13274
గుంట	13275
##నాడ్	13276
##త్యాల	13277
ఎన్నికయ్యారు	13278
చూడాల్సి	13279
ఉండవచ్చు	13280
స్టూ	13281
మార్చే	13282
##కోవడంతో	13283
కలిసే	13284
శ్రీలీల	13285
హైదరా	13286
శిఖ	13287
అవుత	13288
మహమ్మ	13289
గ్రామస్థ	13290
అన్నం	13291
పడుతున్నారని	13292
జరగలేదని	13293
ందరూ	13294
##పడుతున్నాయి	13295
##చర్యం	13296
అందించింది	13297
160	13298
స్కూళ్లలో	13299
యోగ	13300
సర్వేలు	13301
రైలులో	13302
నటించ	13303
దారుణం	13304
సేకరించి	13305
ఇచ్చిందని	13306
నియమించింది	13307
క్రీజు	13308
reddy	13309
హెల్ప్	13310
చెయ్యడానికి	13311
సెల్ఫీ	13312
నామినేషన్ల	13313
తగినంత	13314
పల్లవి	13315
పుస్తకాలు	13316
దంపతుల	13317
సురక్షిత	13318
గాజాలో	13319
భూములకు	13320
వ్యవహారంపై	13321
విమానాశ్రయంలో	13322
అల్లూరి	13323
వెల్ఫేర్	13324
సంవత్సరాలుగా	13325
##tter	13326
శరీరంలోని	13327
అనూహ్య	13328
మర్చిపో	13329
దవాఖాన	13330
94	13331
జితే	13332
డబ్బ	13333
నచ్చిన	13334
పటాన్	13335
##କ୍ତ	13336
##లసిన	13337
##మనే	13338
##వసం	13339
##ିକ	13340
##rs	13341
విలేక	13342
స్లీ	13343
ఉన్నానని	13344
##ుత్వం	13345
భార్యా	13346
రూపు	13347
ఆయ‌న	13348
ప్రాణం	13349
##ధిగా	13350
##ఫ్ట్‌	13351
చంద్రుని	13352
తేనె	13353
##ుకునేందుకు	13354
##జిబి	13355
సూసైడ్	13356
కార్ల	13357
##పేందుకు	13358
గోధు	13359
ఎదురుగా	13360
మారారు	13361
కొనసాగింది	13362
రుజు	13363
వార్నర్	13364
30వ	13365
జరగబోయే	13366
పెరుగుతుందని	13367
రూపాయలను	13368
ప్రాజెక్టులో	13369
ఉపయోగపడుతుంది	13370
తెలుసుకునేందుకు	13371
వీరిని	13372
విద్యుత్తు	13373
హక్కులు	13374
పట్టుదల	13375
గణపతి	13376
పరస్ప	13377
కామన్	13378
చూపించి	13379
పదవిని	13380
ట్విస్ట్	13381
ఫోటోలను	13382
కాన్సె	13383
పరిశోధనలు	13384
ఇష్టమైన	13385
ఇస్తానని	13386
రక్తపోటు	13387
ఓడించ	13388
కల్పన	13389
స‌మ‌	13390
ఏంటని	13391
చేర్చారు	13392
కైవసం	13393
ఫ్లాట్	13394
తుఫాన్	13395
telangana	13396
2009లో	13397
చెరువులు	13398
లిస్టులో	13399
కుదుర్చ	13400
ప్రతిష్టాత్మకంగా	13401
భౌతిక	13402
##బ్రిటీ	13403
ముమ్మరం	13404
దొరికిన	13405
నెటిజన్స్	13406
ఆంధ్రా	13407
me	13408
తాలి	13409
ధ్యా	13410
నల	13411
యె	13412
షకీ	13413
ನಾವು	13414
##ోహన్	13415
##గట్టు	13416
##ధానం	13417
##న్నాయని	13418
మాది	13419
కూకట్	13420
పానీ	13421
##ెస్ట్రా	13422
సమయాల్లో	13423
కిమ్	13424
##జాత	13425
తిని	13426
##ప్రద	13427
ప్రజలతో	13428
మిజో	13429
సభా	13430
అందుకోసం	13431
చేసేటప్పుడు	13432
సాధించాడు	13433
శాఖలో	13434
ట్లుగా	13435
ఎదుగు	13436
సేల్	13437
ధరలను	13438
జోగు	13439
రామారావు	13440
గుర్తించింది	13441
నిర్మలా	13442
ఫొటోలను	13443
పక్కకు	13444
జేఏసీ	13445
కార్యాలయ	13446
పోస్టులను	13447
శరీరాన్ని	13448
ఆపరే	13449
చేరువ	13450
కన్యా	13451
గణేశ్	13452
గ్యాప్	13453
చెప్తున్న	13454
పట్టుకున్న	13455
వేధింపులకు	13456
దంపతులకు	13457
పరిగణించ	13458
బాల్క	13459
రాశులవారికి	13460
గంగుల	13461
ట్రిపుల్	13462
సంభవించింది	13463
##చోట	13464
ఆవిష్కరణ	13465
ఇన్వెస్టి	13466
ముహూర్తం	13467
ఉపసంహ	13468
تصویر	13469
నర్సాపూర్	13470
play	13471
సుదర్శన్	13472
సెంటిమెంట్	13473
అనుమానాస్పద	13474
గలుగు	13475
మంగ	13476
##గతంగా	13477
##నిరోధక	13478
##న్నపేట	13479
##ప్త	13480
నివ్వ	13481
పోస్టల్	13482
కేసుకు	13483
వాడుతున్న	13484
##స్తున్నాడు	13485
పైసలు	13486
సాంబ	13487
అవయ	13488
స్టై	13489
తాళం	13490
సుందర్	13491
విషయా	13492
అనుసరి	13493
తీసుకుంటూ	13494
ఏర్పడుతుంది	13495
పిచ్చి	13496
పనిని	13497
ఆర్బీఐ	13498
వారణా	13499
విధుల్లో	13500
పీఠ	13501
వచ్చేసింది	13502
దుమ్ము	13503
నోటు	13504
ప్రభావాన్ని	13505
జోడో	13506
పోలీసులతో	13507
వినియోగి	13508
దగ్గర్	13509
గాంధీకి	13510
ఆఫ్‌	13511
ఫిర్యాదులో	13512
చాట	13513
వినూ	13514
కొనుగోళ్లు	13515
ించడం	13516
బుధుడు	13517
జరిగిందో	13518
ట్యాగ్	13519
నటిస్తున్నారు	13520
ప్రసాదం	13521
##ోత్సవం	13522
తగ్గిస్తుంది	13523
నారాయణపేట	13524
వెళితే	13525
ఇటీవలి	13526
జంటగా	13527
హార్మో	13528
పర్యవేక్ష	13529
హిందువులు	13530
హిందువుల	13531
డాక్యుమెంట్	13532
ఆక్సి	13533
చేరేందుకు	13534
నివసిస్తున్న	13535
విశ్లేషకులు	13536
స్వచ్ఛంద	13537
విధ్వంసం	13538
నక్షత్ర	13539
గ్రాడ్యుయేట్	13540
క్యూసెక్కుల	13541
ఔషధ	13542
ఉగాది	13543
అచ్చెన్నాయుడు	13544
రిషబ్	13545
ద్రౌప	13546
అఫిడవి	13547
ప్రక్షాళన	13548
تو	13549
କୁ	13550
ఔట	13551
నదీ	13552
పృ	13553
పరే	13554
పర్చ	13555
రన	13556
షీట్	13557
ించి	13558
ుకునే	13559
##రప్ప	13560
##వడానికి	13561
##9లో	13562
##ఖరు	13563
##ఠీ	13564
##ें	13565
##తుల్	13566
చేకూరు	13567
##ంటీల	13568
##రుడ	13569
విస్మ	13570
చెంది	13571
పోచ	13572
సిన్	13573
తీహార్	13574
##ామన్న	13575
సీఏ	13576
##బుల్స్	13577
##గిలి	13578
##నాన్	13579
20వ	13580
టీసీ	13581
##య్యాయని	13582
చేస్తో	13583
తిప్పు	13584
తిరిగే	13585
##స్టేషన్	13586
వెళ్లకుండా	13587
తొక్క	13588
##శిష్ట	13589
డైట్	13590
##ినేష్	13591
ల్లా	13592
అంచనాల	13593
చూడొచ్చు	13594
గిఫ్ట్	13595
వాహనాన్ని	13596
అందుకున్నారు	13597
సాగుతున్న	13598
స్వీకరించ	13599
యాత్రలో	13600
గణనీయంగా	13601
వెనుకబడిన	13602
29న	13603
నర్సింహ	13604
అడ్ర	13605
తరలిస్తున్న	13606
ఇష్టపడ	13607
విభజ	13608
న్యూఢిల్లీః	13609
స్పందించింది	13610
పురుషులకు	13611
వాలంటీర్లు	13612
##ఫామ్	13613
రాజ్యసభలో	13614
నదిలో	13615
ఏరియాలో	13616
వాహనదారులు	13617
చెల్లించాల్సి	13618
తులసి	13619
ఆశీర్వ	13620
హోరాహో	13621
తెలప	13622
##కుమారి	13623
బ్లడ్	13624
దుమారం	13625
యాసిడ్	13626
అగ్నిప్రమాదం	13627
twi	13628
అగ్రి	13629
ఉభయ	13630
తమ్ము	13631
మించిన	13632
శక్	13633
##వాయి	13634
##ల్బ	13635
##రిక్	13636
##పుర్	13637
కొట్లా	13638
నేరగా	13639
సీనియ	13640
తోనూ	13641
బీచ్	13642
##లేట్	13643
మీరే	13644
దీప్	13645
సాగిన	13646
నెదర్	13647
రోజులకు	13648
తేమ	13649
##ముద్ర	13650
అసభ్య	13651
మహిళకు	13652
లియో	13653
టీడీపీతో	13654
125	13655
యువకు	13656
జైస్వాల్	13657
అక్కడున్న	13658
వ్యవహరించారు	13659
కొందరికి	13660
కొనసాగుతుందని	13661
పంచాయితీ	13662
పోరాడు	13663
అర్థరాత్రి	13664
ఓవర్లో	13665
మరమ్మ	13666
తీసుకోవాల్సిన	13667
నెలకొల్ప	13668
స్నేహ	13669
భేటీలో	13670
ఆలోచనలో	13671
భారతదేశంలోని	13672
నిరుద్యోగుల	13673
సంచలనంగా	13674
దేవుడి	13675
థియేటర్స్	13676
ర్యాలీలో	13677
కట్టుది	13678
పేర్ని	13679
ప్రస్తావించ	13680
దళితబంధు	13681
దీపక్	13682
##మొద	13683
చదివ	13684
వహించిన	13685
కొలెస్ట్రా	13686
వెల్లువె	13687
అవమానించ	13688
విరుచుకుపడ్డారు	13689
గురుకుల	13690
మైదానంలో	13691
మసాలా	13692
డెంగ్యూ	13693
నిరంజన్	13694
మహీంద్రా	13695
మొట్టమొద	13696
స్టూడియో	13697
హైదరాబా	13698
నెదర్లాండ్	13699
2వ	13700
بی	13701
है	13702
ఉందన్న	13703
ఎండి	13704
ఓయూ	13705
చైన	13706
తరుగు	13707
ఫ్రి	13708
వామ	13709
హార్ట్	13710
ాక	13711
ాడా	13712
##తార	13713
##లెన్	13714
##లెంట్	13715
##రక్ష	13716
##శం	13717
##శెట్టి	13718
##వెన్స్	13719
##ମ୍	13720
##ಸ್‌	13721
##కుల్	13722
##గాలలో	13723
##ండాల	13724
##వాడీ	13725
కోదా	13726
ముది	13727
సీడ్	13728
తోందని	13729
బీభ	13730
##నాబాద్	13731
దాల్	13732
రాజ్యం	13733
రాజయోగం	13734
##రణం	13735
విషయాల్లో	13736
తమపై	13737
జాప	13738
##హాల్	13739
బోనస్	13740
అవుతారని	13741
సమావేశాల	13742
ప్రధానిగా	13743
రంగనాథ్	13744
పిల్లల్ని	13745
తెలియకుండా	13746
పెరుగుతు	13747
14వ	13748
వృశ్చ	13749
వృథా	13750
ించిన	13751
పోలింగ్‌	13752
జెండ	13753
కనిపించలేదు	13754
వేగవంతం	13755
నిమిషంలో	13756
బ్రాంచ్	13757
చేయాలన్న	13758
ఎప్పుడైనా	13759
రిజర్వేషన్ల	13760
న్నింటినీ	13761
ఘర్షణలు	13762
ఉల్లిపాయ	13763
సగటున	13764
సింహా	13765
మేషరాశి	13766
##dia	13767
ప్రసంగించారు	13768
మిశ్రమ	13769
నిమజ్జ	13770
రిపబ్లిక్	13771
సీక్వెల్	13772
అకస్మాత్తుగా	13773
twitter	13774
కోదాడ	13775
వృశ్చిక	13776
ac	13777
دک	13778
ఎట్టి	13779
ఒంగో	13780
తాలూ	13781
సమ్మి	13782
##పక్క	13783
##పత్ర	13784
##పదే	13785
##రస్తా	13786
##క్వై	13787
విత్	13788
విలే	13789
##డిద	13790
##టులు	13791
స్‌‌	13792
కోట్లా	13793
##క్షే	13794
సంకీ	13795
సీతా	13796
ఒకరికి	13797
ఉండాల్సి	13798
##‌లోడ్	13799
మోడ	13800
బెంగు	13801
జాగ	13802
విజయానికి	13803
ఎంజీ	13804
ఎంక్వై	13805
##మీద	13806
##షిగా	13807
అందమైన	13808
ఉంటానని	13809
ఎంపీటీసీ	13810
రామమంది	13811
రామగుండం	13812
లెబ	13813
చేరుకుంటుంది	13814
పెరుగుతున్నాయి	13815
ప్రజాపాలన	13816
అంచనాలను	13817
న్నాయని	13818
##ంప్స్	13819
నిజమే	13820
చైనాలో	13821
సహకరించాలని	13822
పదేపదే	13823
నుంచీ	13824
బృహ	13825
యూనివర్శి	13826
##ట్రికల్	13827
విషయాలపై	13828
కాన్వాయ్	13829
చౌరస్తా	13830
కొనసాగించ	13831
నామినేషన్లు	13832
ఎదురైంది	13833
ఎన్‌ఫోర్	13834
భర్తీకి	13835
దశాబ్దాలుగా	13836
కాలుష్య	13837
##నాయక్	13838
పిలిచే	13839
ప్రవర్తి	13840
ఉందంటూ	13841
విలన్	13842
కాంబినేషన్	13843
ప్రీమియం	13844
అబద్ధాలు	13845
గెలుచుకుంది	13846
నివాళులర్	13847
తమ్ముడు	13848
తమిళిసై	13849
మహాలక్ష్మి	13850
ఒంగోలు	13851
కోట్లాది	13852
ఎంక్వైరీ	13853
ఎన్‌ఫోర్స్‌మెంట్	13854
04	13855
pic	13856
అలి	13857
ఇన్నా	13858
ఇతరులు	13859
కరువు	13860
కదులు	13861
ఫెస్	13862
హిత	13863
##తిన	13864
##୍ଟ	13865
##హంక	13866
##నక	13867
##ధులకు	13868
##కుంటూ	13869
##క్స	13870
విజు	13871
##ార్జున్	13872
నిశ్	13873
లోగో	13874
కోప	13875
తీసింది	13876
సీజే	13877
బీఐ	13878
బీరు	13879
వ్యయం	13880
##నాటి	13881
వీధుల్లో	13882
స్థాప	13883
పుంగ	13884
పునా	13885
దేశంగా	13886
క్రో	13887
బెల్ట్	13888
బ్యాగ్	13889
##ర్మిన	13890
షాకి	13891
చేపడు	13892
ధరకు	13893
అవసరాల	13894
ఆదేశాలతో	13895
క్రమం	13896
మూవీని	13897
పాత్రను	13898
రికవరీ	13899
అందించి	13900
ట్వీ	13901
ప్రాజెక్టుకు	13902
శుక్రుడు	13903
ఎవరిని	13904
భద్రతను	13905
తరలించి	13906
వ్యవస్థలో	13907
కట్టే	13908
పరిశీలించ	13909
ప్రసంగి	13910
బ్రిటీ	13911
దశకు	13912
స్వీకరించిన	13913
నష్టానికి	13914
ప్ర‌భ	13915
మరికొంత	13916
లోక్‌సభలో	13917
పొందుతున్నారు	13918
చౌహాన్	13919
అనుకుంటే	13920
ఆటగాడు	13921
کرتے	13922
ఎదురుచూస్తున్నారు	13923
గీతా	13924
బ్యాలెన్స్	13925
కేశినేని	13926
##psc	13927
సమాచారంతో	13928
బడింది	13929
ద్రవ్యో	13930
వెర్షన్	13931
రజినీకాంత్	13932
సరదాగా	13933
శ్రేయస్సు	13934
میڈیا	13935
హోరాహోరీ	13936
97	13937
92	13938
te	13939
ఉందనే	13940
కవ	13941
చదవ	13942
జైన్	13943
డాన్	13944
డీల	13945
మలి	13946
రకంగా	13947
ిస్తున్న	13948
ేనని	13949
ಕೆ	13950
##యమైన	13951
##శక్తి	13952
##జెస్	13953
##ారాల	13954
చేర్చు	13955
##సుగు	13956
పోలి	13957
##మిన్	13958
రెసిడ	13959
గాని	13960
వైన్	13961
సాహిత	13962
చూశ	13963
మేక	13964
స్టైల్	13965
హైస్	13966
రేటింగ్	13967
పొందింది	13968
అంతటా	13969
వెళ్ళి	13970
హాస్ట	13971
‌‌‌‌‌‌‌‌తో	13972
వెళ్లడానికి	13973
పూరి	13974
యువగళం	13975
ఆదిపురు	13976
ఫ్యాక్ట్	13977
##ల్లులు	13978
కూటమిలో	13979
కనిపించకుండా	13980
అప్పుడ	13981
ప్రసన్న	13982
దక్కించుకున్న	13983
ఎక్కడైనా	13984
పొత్తులో	13985
కన్వెన్షన్	13986
నడిపి	13987
పాఠశాలలు	13988
వడ్ల	13989
హాస్పిటల్స్	13990
కేజ్రీవాల్‌	13991
చెప్పుకొచ్చాడు	13992
##వాహక	13993
ఆల్క	13994
నాయకత్వంలో	13995
హైడ్రో	13996
##್ಯಾ	13997
రౌండర్	13998
మనీలా	13999
మనుషుల	14000
కుంభకోణం	14001
మత్తులో	14002
##ନ୍ତି	14003
ఫ్రెంచ్	14004
లోతట్టు	14005
తల్లికి	14006
అక్రమాలు	14007
మచిలీపట్నం	14008
యూఏఈ	14009
యూనివర్శిటీ	14010
ఆదిపురుష్	14011
kal	14012
ఆస్తులను	14013
ఊరి	14014
ఖానా	14015
నారాయ	14016
పదు	14017
పతా	14018
పగల	14019
ించింది	14020
##ರೆ	14021
##اہ	14022
##ళు	14023
##ಾಟ	14024
విశాల్	14025
రాబోతున్న	14026
##మానిక	14027
##డానికే	14028
పాండే	14029
##కాల్లో	14030
నిర్ది	14031
##ంటిలో	14032
రూల్	14033
వైమానిక	14034
అవస్థ	14035
బాత్	14036
##దాం	14037
కాంగ్రెస్‌కు	14038
ప్రకారమే	14039
పొదుపు	14040
నేతలపై	14041
ఆమెపై	14042
హైదరాబాద్‌కు	14043
మ్యాప్	14044
కావడానికి	14045
బురద	14046
గోవి	14047
బయటపడింది	14048
తగ్గించి	14049
##స్పెక్టర్	14050
ప్రిలి	14051
తల్లిని	14052
సిబ్బందితో	14053
ప్రొడ్యూ	14054
అందుకుంది	14055
స్కూల్స్	14056
అలస	14057
మారుతున్నాయి	14058
నాగరాజు	14059
బోర్డర్	14060
ఎక్కడికి	14061
ప్యాకెట్	14062
విధానాలు	14063
దిగుమతి	14064
పెరిగిందని	14065
ముఖేష్	14066
మరొకటి	14067
రిటైల్	14068
వైరల్‌గా	14069
చ్చ	14070
తీసుకెళ్లే	14071
సెన్సార్	14072
బాలాజీ	14073
సరికాదని	14074
ప్రతాప్	14075
సిద్ధాంత	14076
అతిథిగా	14077
వైఎస్‌ఆర్‌సిపి	14078
పేరెంట్స్	14079
ద్రవ్యోల్బ	14080
بھ	14081
అజ	14082
ఆషా	14083
ఓనర్	14084
నలు	14085
ాలో	14086
ವನ್ನು	14087
##స‌	14088
##దశ	14089
##ారికి	14090
##్యారీ	14091
##నుంచి	14092
##త్వానికి	14093
స్లా	14094
##వాల్లో	14095
తెచ్చు	14096
##పీఎస్సీ	14097
గుడ్డు	14098
సమకూర్	14099
నాతో	14100
రిఫ	14101
ప్రకంప	14102
సున	14103
దిక్కు	14104
మిధు	14105
##హాగా	14106
నీకు	14107
కేసులను	14108
నిర్ణయి	14109
కారణమైన	14110
భూగర్భ	14111
ద్వారానే	14112
తుర్	14113
పోటీలు	14114
దీనికోసం	14115
##ంజలో	14116
ఉంటా	14117
నోట్లు	14118
స్థానాల	14119
వేలంలో	14120
తెలియక	14121
మూవీకి	14122
తీసుకున్నాడు	14123
కృత్రి	14124
దర్యాప్తులో	14125
మర్రి	14126
దక్కలేదు	14127
తెచ్చింది	14128
ప్యాక్	14129
కురిసింది	14130
షోలో	14131
స్తున్నట్లు	14132
నిబంధనలకు	14133
కుక్కలు	14134
నిర్లక్ష్యంగా	14135
లబ్ధిదారులకు	14136
బాధితురాలి	14137
బెదిరింపు	14138
ఎక్స్‌ప్రెస్‌	14139
ఎల్లారెడ్డి	14140
తెరిచి	14141
కన్నీరు	14142
అనూహ్యంగా	14143
బకాయిలు	14144
అసాధారణ	14145
కుటుంబసభ్యులు	14146
ప్రవహి	14147
క్యాలెండర్	14148
అగర్వాల్	14149
దుష్ప్ర	14150
యానిమల్	14151
రామ్మోహన్	14152
పెవిలియన్	14153
పాపులర్	14154
6వ	14155
fa	14156
ନି	14157
ఇస్తు	14158
ఈజీ	14159
ఏయే	14160
ఓట్లను	14161
నాలా	14162
పండ్ల	14163
బండ్	14164
సింది	14165
సనాతన	14166
సక్రమంగా	14167
ಗೆ	14168
##ంక్స్	14169
##వతీ	14170
##బెట్టి	14171
##స్‌లో	14172
##ాయంగా	14173
##లిస్ట్	14174
రాత్రికి	14175
సంధ్య	14176
చేశారో	14177
గుంపు	14178
వ్య‌	14179
దాచి	14180
శాత	14181
ఉండాల్సిన	14182
మార్గాలు	14183
##తాల్లో	14184
ఆరోజు	14185
పాల్పడుతున్న	14186
అందరికి	14187
విధించ	14188
దీనితో	14189
ఇండిపె	14190
ఉంటాడు	14191
సంస్థల్లో	14192
ఎంపీడీవో	14193
పట్టిన	14194
మాట్లాడుతున్నారని	14195
పరీక్షల్లో	14196
వస్తారని	14197
ఎవరె	14198
సూర్యుడి	14199
స్పందించలేదు	14200
కృతి	14201
కృష్ణయ్య	14202
హుటా	14203
పెట్టుకుంది	14204
స్తుండగా	14205
ఫేజ్	14206
అదుపులో	14207
ప్రేక్షకులకు	14208
అభిప్రాయాలను	14209
స్నేహం	14210
ఇన్‌స్టిట్యూట్	14211
350	14212
సంప్రదించ	14213
ంటారు	14214
రాజ్యాంగాన్ని	14215
లక్ష్మీనారాయణ	14216
హోదాలో	14217
కుట్రలు	14218
నగదును	14219
నాయకులతో	14220
శ్రీరాము	14221
##స్మస్	14222
వృద్ధులు	14223
రికార్డ్స్	14224
శ్రీనివాసరెడ్డి	14225
ప్రొడక్	14226
అనుకూలమైన	14227
వర్గీకరణ	14228
అనుబంధం	14229
పర్వత	14230
హుస్నాబాద్	14231
ఆయుధాలు	14232
పిఠాపురంలో	14233
రెజ్లర్	14234
దిగ్గజం	14235
దర్శనమి	14236
కానుకగా	14237
##మర్రి	14238
ఐఐటీ	14239
దిగ్భ	14240
రాష్ర్ట	14241
లగ్జరీ	14242
పుంగనూరు	14243
జలా	14244
టెట్	14245
మిల్లీ	14246
లలి	14247
ాయో	14248
ొద్దు	14249
ನಿ	14250
##ार	14251
##ంగుల	14252
రామా	14253
##వాసన	14254
కున్నారు	14255
##డాల్సిన	14256
##వుతుందని	14257
సిగర	14258
చేయించి	14259
మార్గాల్లో	14260
పుచ్చ	14261
పొంది	14262
చంద్రుడు	14263
లాంఛ	14264
##జిగిరి	14265
మాట్లాడితే	14266
##మీటర్ల	14267
చంద్రబాబుతో	14268
భూమికి	14269
సైబ	14270
పీటీ	14271
గోప	14272
కుటుంబంతో	14273
ఉండేవారు	14274
##శ్వర్య	14275
##ించుకుంటున్నారు	14276
పరుగులతో	14277
పడగొట్ట	14278
పెంచడం	14279
ఫైట్	14280
అంతేగా	14281
నైతిక	14282
మెడల్	14283
అలాంటిది	14284
ఖమ్మంలో	14285
లభిస్తాయి	14286
స్టూడెంట్లు	14287
డ్యామ్	14288
దశాబ్ది	14289
370	14290
ప్రదేశంలో	14291
ానన్నారు	14292
మాదిరిగానే	14293
##గ్రహణం	14294
మల్కాజిగిరి	14295
డీసీఎం	14296
చీకటి	14297
రోజంతా	14298
యూరోపియన్	14299
దురదృష్ట	14300
ఫైనాన్షియల్	14301
ంటి	14302
అలు	14303
ఆస్వా	14304
ఆఖరి	14305
ఏవ	14306
తగల	14307
నాన	14308
నంటూ	14309
బన్నీ	14310
బతక	14311
మనే	14312
రంజ	14313
సవ	14314
ైంది	14315
ొద్దని	14316
##నరీ	14317
##పల	14318
##షర్	14319
##ya	14320
##ck	14321
##ారంలో	14322
##స్స	14323
##ాయలు	14324
విప్ల	14325
రానున్నారు	14326
##టివల్	14327
తెరు	14328
చెమ	14329
చెవి	14330
పోల్చ	14331
సిక్కు	14332
వాసన	14333
చేశాను	14334
వైభ	14335
ఒకవైపు	14336
మెకా	14337
రిపీ	14338
రాజేశ్	14339
రేఖ	14340
సూరత్	14341
క్లై	14342
కల్కి	14343
కావ్య	14344
తుంగ	14345
తుండగా	14346
పీల్	14347
పాలిత	14348
ప్రయత్నంలో	14349
సేన	14350
కౌన్	14351
విషయంలోనూ	14352
వస్తువుల	14353
చూడటానికి	14354
ఆరోపణల	14355
గిన్నె	14356
హత్యలు	14357
జిమ్	14358
ప్రాంతాల్లోని	14359
కాల్పు	14360
రాయల్స్	14361
బాధితులను	14362
ఏర్పాట	14363
నటిస్తోంది	14364
మహాత్	14365
కోరుతున్న	14366
ఆగస్టులో	14367
సూర్యకుమార్	14368
వ్యాపారంలో	14369
స్థిరంగా	14370
కురుస్తున్నాయి	14371
ఇరుక్కు	14372
స్క్రి	14373
టెస్టులు	14374
ుకుంటూ	14375
ఆటగాళ్ల	14376
అమ్మాయిలు	14377
క‌థ	14378
ఛార్జీలు	14379
పుస్తకం	14380
పదార్థాలను	14381
అయ్యాక	14382
అద్దం	14383
వ్యవహరిస్తున్న	14384
రాజేంద్రనగర్	14385
చిన్నారులు	14386
ట్లయితే	14387
విత్తనాలు	14388
వ్యాక్సిన్	14389
పాట్నా	14390
వేరియంట్	14391
అదిరిపోయే	14392
కొముర	14393
బుల్లెట్	14394
నైవేద్య	14395
బెంగుళూరు	14396
ఫెస్టివల్	14397
అటె	14398
ఆచూ	14399
ఇప్పు	14400
ఈజీగా	14401
ఏండ్లు	14402
కైనా	14403
జెట్	14404
నప్పుడు	14405
పప్పు	14406
లెక్	14407
వ‌ర	14408
హత	14409
##స్ర	14410
##టాని	14411
##‌మ	14412
##హాల	14413
##శోర్	14414
##చరియ	14415
##na	14416
##یر	14417
##ಂಚ	14418
స్కే	14419
పరిమి	14420
దాటు	14421
పేజీ	14422
అవన్నీ	14423
చేసినప్పటికీ	14424
వర్త	14425
తీసుకున్నా	14426
యాడ్	14427
ఆర్ఆర్ఆర్	14428
##ెన్షియల్	14429
చేసుకుంటారు	14430
కార్బన్	14431
జనసేనా	14432
విద్యను	14433
మారడంతో	14434
తప్పదు	14435
నాలుగ	14436
సంఘటనా	14437
జైలర్	14438
రామయ్య	14439
అందించాడు	14440
డెయిరీ	14441
స్టార్స్	14442
144	14443
నిరంతర	14444
పోస్టులకు	14445
పరిష్కరి	14446
బ్రె	14447
పంటల	14448
అయిందని	14449
హాజరవు	14450
కొండచరియ	14451
పూర్తయ్యే	14452
తమిళనాడులోని	14453
కోరుకుంటున్నారు	14454
రక్షించ	14455
ండగా	14456
బాధితురాలు	14457
రాకపోక	14458
దేవాలయం	14459
##ెత్తున	14460
మెజారిటీతో	14461
పవిత్రమైన	14462
పారిశ్రామికవేత్త	14463
ఉగ్రవాదులు	14464
నెలాఖరు	14465
హృదయ	14466
శైలిలో	14467
మొహమ్మద్	14468
సభ్యుడిగా	14469
బద్దలు	14470
ನ್ನು	14471
ఉత్తీర్ణత	14472
ద్రౌపది	14473
మొట్టమొదటి	14474
జాప్యం	14475
జనసేనాని	14476
tir	14477
గాల	14478
తరం	14479
దహనం	14480
వ‌ర్	14481
ుతుంది	14482
##సరికి	14483
##పరంగా	14484
##ెక్క	14485
##థన్	14486
##బలి	14487
##ఖని	14488
##ఐపీ	14489
##స్కో	14490
విచిత్ర	14491
##లాడ	14492
కొలి	14493
పెర	14494
##రాన్	14495
వేతనం	14496
##సుకున్న	14497
తెలియాల్సి	14498
పరిమితి	14499
నాసా	14500
నాదె	14501
మెన్స్	14502
మేధా	14503
##య్యింది	14504
మోర్చ	14505
##మోజీ	14506
అందుతున్న	14507
చంద్రబాబుపై	14508
పాలయ్యారు	14509
2011	14510
అంపై	14511
పూరీ	14512
జోగి	14513
జోషి	14514
వాటితో	14515
నగరాల	14516
కొంతకాలం	14517
##ధికార	14518
##భిషేకం	14519
ల్లోనూ	14520
##ారాయన	14521
రావాలి	14522
ప్రమాదకర	14523
బ్రూ	14524
పిటిషనర్	14525
సహకరి	14526
28వ	14527
యాక్సెస్	14528
వుతున్న	14529
##‌న‌	14530
వ్యాఖ్యాని	14531
బంధువు	14532
త్రిపాఠ	14533
డాన్స్	14534
కల్పించేందుకు	14535
స్థలాలు	14536
భీం	14537
పుస్తకంలో	14538
ఐదేళ్లలో	14539
కలుగుతాయి	14540
నిలిచిపోయాయి	14541
చెందుతున్న	14542
తొలగింపు	14543
మవుతుంది	14544
భువనేశ్వర్	14545
తాత్కాలికంగా	14546
పొందేందుకు	14547
##గౌడ	14548
గైక్వాడ్	14549
ఛాంపియన్	14550
ఆరెంజ్	14551
ఛాలెం	14552
క్లోజ్	14553
దత్తత	14554
నిండిన	14555
సంతృప్తి	14556
నిలకడగా	14557
ఉపరితలం	14558
మహమ్మారి	14559
మనీలాండరింగ్	14560
నారాయణ్	14561
హుటాహు	14562
جار	14563
ଏକ	14564
ସେ	14565
అష్ట	14566
అల్లా	14567
ఊర్	14568
ఏబీ	14569
ఐశ్వర్య	14570
గరుడ	14571
ధరించ	14572
వస్తారు	14573
షెల్	14574
సజీవ	14575
ుడ	14576
ుతున్న	14577
ుతూ	14578
ుడిని	14579
##‌రు	14580
##గలు	14581
##ುತ್ತ	14582
##ାଲ	14583
##ణ్యం	14584
##وگ	14585
##ہا	14586
##సురు	14587
రాదని	14588
లోన్లు	14589
##సిస్తూ	14590
##దులను	14591
వాపోయారు	14592
##లేష్	14593
##లేదన్నారు	14594
సాఫ్ట్‌	14595
ఒకటో	14596
##వర్గంలో	14597
తాకి	14598
సమానంగా	14599
దిగే	14600
సోక	14601
గ్రో	14602
ఆమెతో	14603
##గొట్టే	14604
బిజీ	14605
పాల్పడి	14606
పాల్పడ్డారు	14607
మహిళలపై	14608
ప్రారంభించనున్నారు	14609
పాలనా	14610
ట్రయల్	14611
విజయాలను	14612
క్యాంటీ	14613
సేఫ్	14614
ఆదేశాలను	14615
వినిపించారు	14616
టైటి	14617
##పడుతున్నారని	14618
పథకాలకు	14619
నిర్ణయించ	14620
పోయాయని	14621
శివరాజ్	14622
ఉంటేనే	14623
వస్తున్నాయని	14624
##మలత	14625
క్రిస్మస్	14626
జెండర్	14627
సంక్షే	14628
కంటోన్	14629
ఆడపిల్ల	14630
సమర్పించిన	14631
కన్సల్	14632
కార్యదర్శిగా	14633
సంతకాలు	14634
సేకరించారు	14635
##ుకున్నాడు	14636
పేదలు	14637
తగ్గింపు	14638
తరలింపు	14639
ప్రాణాలను	14640
ఓడించి	14641
విపత్తు	14642
చక్కగా	14643
లీడర్ల	14644
కొనసాగిస్తున్నారు	14645
థియేటర్లలో	14646
ఆదాయాన్ని	14647
విడతలో	14648
తెరకెక్కిన	14649
ధాటికి	14650
లొంగి	14651
కడుపులో	14652
gov	14653
రసాయ	14654
మల్లికార్జున్	14655
హర్షం	14656
వాదించారు	14657
కోనసీమ	14658
ఇన్వెస్టిగేషన్	14659
مو	14660
ହେ	14661
అడిగా	14662
ఓల్డ్	14663
చల్	14664
మరా	14665
మజ్	14666
సయ్య	14667
ాలతో	14668
##ేష	14669
##షీర్	14670
##ొన్న	14671
##yan	14672
విర	14673
స్తోన్న	14674
రాగి	14675
రామోజీ	14676
కాళ్ల	14677
కాసేప	14678
కొను	14679
పెయి	14680
సిమ్	14681
లేవన	14682
చేయకపోతే	14683
##నీర్	14684
వైఖ	14685
వైరా	14686
##ంటేషన్	14687
##సేకరణ	14688
పుడు	14689
ఇచ్చామని	14690
దేశీయ	14691
సినిమాని	14692
జీఎం	14693
బెన్	14694
ఇప్పటికి	14695
చేసేది	14696
భూసేకరణ	14697
బోయిన	14698
కెప్టె	14699
ఉదయా	14700
అమ్ముడు	14701
110	14702
వైద్యుల	14703
తలపడ	14704
శ్రీనివాసులు	14705
ప్రవేశం	14706
నిజాయితీ	14707
విస్తరించ	14708
ఎక్కడిక	14709
కాపాడుకు	14710
నవంబరు	14711
హక్కులను	14712
పదేళ్లలో	14713
పట్టుకొని	14714
కార్పొరేటర్	14715
ఫ్రూ	14716
కామర్స్	14717
రషీద్	14718
##ನ್ನ	14719
విషయాల	14720
ఒక్కోసారి	14721
త్రిష	14722
త్రిపుర	14723
సెంటర్లు	14724
గ్రేట్	14725
కల్పించే	14726
##జ్‌మెంట్	14727
کرنے	14728
ఖాయంగా	14729
లబ్ధిదారుల	14730
శ్రీరామ్	14731
సతీశ్	14732
ఢీకొట్టింది	14733
బదులి	14734
సమన్వయం	14735
ముక్కలు	14736
కోరినట్లు	14737
యాదగిరిగుట్ట	14738
అడ్మిని	14739
హెచ్చరిస్తున్నారు	14740
రిలీజైన	14741
వేతనాలు	14742
##భిప్రాయ	14743
సంప్రదింపులు	14744
కొలెస్ట్రాల్	14745
బీభత్	14746
మిధున	14747
మహాత్మా	14748
93	14749
ele	14750
में	14751
ଭିଡି	14752
ఉద్ధ	14753
కరా	14754
మద్రా	14755
శబరి	14756
హారిస్	14757
ిద్ద	14758
##లక్ష్మీ	14759
##రాలను	14760
##ళాల	14761
##ాయత్	14762
స్‌‌‌‌	14763
రాత	14764
కాచి	14765
కాశీ	14766
సీట్లకు	14767
##పానికి	14768
కిరా	14769
కిశోర్	14770
వీవీ	14771
సెంటీ	14772
రిలేషన్	14773
దేశాయ్	14774
యాభై	14775
తీసుకోవడానికి	14776
ఎలాన్	14777
ఎమ్మెల్యేలకు	14778
కలలు	14779
##ందించిన	14780
గోపీ	14781
ట్రక్కు	14782
2015	14783
##ల్‌ను	14784
సమావేశాలకు	14785
##కెండ్	14786
వ్యక్తిగా	14787
తరుణ్	14788
119	14789
జరగబో	14790
##స్పతి	14791
రీల్స్	14792
##బిన్	14793
అతిథ	14794
తెలుసుకుని	14795
జరిగేలా	14796
యాక్సిడెంట్	14797
పౌరులు	14798
లాభాలను	14799
కాలేజీలు	14800
తినాలి	14801
##నిఫే	14802
##ಾರ್	14803
యాప్స్	14804
వేధింపులు	14805
raj	14806
పదార్థాల	14807
రిజిస్ట్రార్	14808
ఇతరులకు	14809
ప్రచురించిన	14810
ఆవిష్కరించారు	14811
స్నాన	14812
వ్రతం	14813
హేమంత్	14814
క్షిప	14815
నెమ్మదిగా	14816
యశస్వి	14817
పోగొట్టుకు	14818
అస్వస్థతకు	14819
బసవరాజ్	14820
శాంసన్	14821
సరస్వతి	14822
ఆక్సిజన్	14823
పృథ	14824
సైబరాబాద్	14825
కంటోన్మెంట్	14826
ଭିଡିଓ	14827
ఈక్	14828
చత్త	14829
ధరించిన	14830
నొక్క	14831
బందీ	14832
మద్యా	14833
రతన్	14834
వయో	14835
షార్	14836
హవా	14837
ోత్స	14838
##సలాట	14839
##పాయం	14840
##కడ్	14841
##نی	14842
##ంతల	14843
##టుల	14844
##ంగ్వే	14845
రానా	14846
##టీన	14847
నున్నాయి	14848
##న్నింగ్	14849
వెజ్	14850
కేపీ	14851
##విడిగా	14852
రోబో	14853
వచ్చారని	14854
మీటర్	14855
వీఆర్	14856
వీళ్ల	14857
##్యూట్	14858
చేసినందుకు	14859
చేస్తాడు	14860
యావ	14861
జీరో	14862
చాలాసార్లు	14863
సీఎంకు	14864
ఆర్ట్స్	14865
తున్నారు	14866
2015లో	14867
మూడుసార్లు	14868
విడుదలకు	14869
పడతాయని	14870
గాంధీని	14871
ఫలితాల్లో	14872
దాడిని	14873
స్టేషన్లలో	14874
గ్రాస్	14875
క్షీణ	14876
రోడ్డులో	14877
ించే	14878
క్రియే	14879
చెప్పులు	14880
బాధపడే	14881
టెలిక	14882
నిర్వహిస్తామని	14883
సెలబ్రిటీ	14884
కమలం	14885
ఎమ్మెల్సీలు	14886
దాఖలైన	14887
వినియోగదారు	14888
##పరిచే	14889
భయపడి	14890
చేరడం	14891
ఎగ్జిబి	14892
తొలగించారు	14893
తొలగించాలని	14894
కార్డుల	14895
కోవాలి	14896
ఉత్సవాల	14897
స్మృతి	14898
ధోరణి	14899
వసంత	14900
ప్రశంసించారు	14901
ఓపెనింగ్	14902
సచివాలయంలో	14903
జ‌రి	14904
ఒలింపిక్	14905
పిల్లి	14906
కలగకుండా	14907
మంచినీ	14908
రిటర్నింగ్	14909
తృణ	14910
##విక్ర	14911
##ఫారమ్	14912
మెయింట	14913
కోదండరాం	14914
రోగనిరోధక	14915
ఇండోనే	14916
బంజారాహిల్స్	14917
కార్పొరేటర్లు	14918
నాగేందర్	14919
తొక్కిసలాట	14920
ప్రిన్సిపాల్	14921
##నిఫేస్టో	14922
de	14923
la	14924
مل	14925
وا	14926
का	14927
ଅନ	14928
ఆడియో	14929
ఏవి	14930
ఏంటీ	14931
ఏటీఎం	14932
ఒవైసీ	14933
కతా	14934
జహీ	14935
మల్లి	14936
య్యా	14937
ుతున్నారు	14938
ుకోవాలి	14939
##తరగ	14940
##జర	14941
##లోడ్	14942
##క్సీ	14943
##ాలయం	14944
##ప్తిని	14945
నిప్పు	14946
స్వరూ	14947
కాజీ	14948
కాస్తా	14949
కుజు	14950
కుంగి	14951
రెగ	14952
సీక్ర	14953
ఉన్నాం	14954
##పోతాయి	14955
వ్యయ	14956
##ంటిక్	14957
పార్టీగా	14958
బావి	14959
అనిరు	14960
చూస్తున్నారని	14961
##ఫ్‌	14962
సుల్తా	14963
భాను	14964
##ుకుంటూ	14965
అసలైన	14966
అందుకో	14967
యూజర్లు	14968
పెట్టడానికి	14969
సైలెంట్	14970
డీఎస్	14971
అరబ్	14972
##స్థితి	14973
కుటుంబాలను	14974
విచారించిన	14975
పదోన్న	14976
జోస్యం	14977
128	14978
##్రేట్	14979
##వోలు	14980
ప్రేరే	14981
పెంచేందుకు	14982
##క్ష్మ	14983
పనిచేయడం	14984
చట్టాలను	14985
చట్టబద్ధ	14986
ప్రైజ్	14987
పోరాడుతున్న	14988
పాలనను	14989
##బెట్టిన	14990
అవకాశాలున్నాయి	14991
ముంబైలోని	14992
లభించే	14993
విధానాలను	14994
అభిప్రాయాన్ని	14995
సామగ్రి	14996
ఫెర్	14997
పరిగణలోకి	14998
పోర్టులో	14999
వదిలిపెట్ట	15000
సమ్మర్	15001
మిత్రపక్ష	15002
కర్నాటకలో	15003
##టైనర్	15004
విమానయాన	15005
వ్యక్తమవుతున్నాయి	15006
రాయ్‌	15007
అప్లికేషన్లు	15008
రామచంద్రా	15009
నమ్ముతారు	15010
డొనాల్డ్	15011
కంగనా	15012
సుబ్బారెడ్డి	15013
సంయుక్తంగా	15014
కన్నుమూశారు	15015
వైష్ణవ్	15016
ప్రాముఖ్యత	15017
తెరకెక్కుతున్న	15018
కాన్సెప్ట్	15019
లెబనాన్	15020
సయ్యద్	15021
##తరగతి	15022
is	15023
ବା	15024
ండే	15025
ఉనికి	15026
టొ	15027
ఫ్రే	15028
బస్తీ	15029
రాల	15030
సెస్	15031
హాలి	15032
##సారు	15033
##పంలో	15034
##మర్స్	15035
##ృతం	15036
##ಮ್	15037
##ఠాయ	15038
##ದೆ	15039
##ర్లాండ్	15040
##ంచై	15041
##రుడి	15042
##ష్ఠా	15043
##వాస్య	15044
చెరి	15045
##రాని	15046
చేయక	15047
చేయొద్దని	15048
##డ్డింగ్	15049
మీదే	15050
##ంబే	15051
##వీపీ	15052
మెరుగ్గా	15053
సమాధి	15054
తీసుకునేందుకు	15055
నేతలే	15056
బెటర్	15057
నీల్	15058
వారికే	15059
అభ్యంతరాలు	15060
ఫిలిం	15061
అయ్యారని	15062
పీఏ	15063
ఎంపీల	15064
చేపల	15065
చేపడత	15066
శుద్ధి	15067
చోప్రా	15068
అన్నమయ్య	15069
అభివృద్ది	15070
దగ్గరికి	15071
గెలిపిస్తే	15072
దానివల్ల	15073
ట్రాక్టర్	15074
పెంచిన	15075
ందరికీ	15076
##లైంట్	15077
అభివృద్ధిని	15078
యూనిట్ల	15079
180	15080
లైన్స్	15081
చావు	15082
క్షేమ	15083
వీటిపై	15084
వస్తోన్న	15085
ప్రమాదకరమైన	15086
ఇబ్బందులను	15087
స్వామిని	15088
కంటెస్ట	15089
తగ్గాయి	15090
బాధ్యతను	15091
గణన	15092
ఆసక్తిని	15093
నడిపించ	15094
చెన్నైలో	15095
రవికుమార్	15096
చూపిస్తూ	15097
శాస్త్రం	15098
వనరుల	15099
సందర్శించి	15100
విపత్తుల	15101
మార్చాలని	15102
ధ్వంస	15103
##వ్యవస్థ	15104
బాలికల	15105
అనుభూ	15106
యూపీఐ	15107
##షీరాబాద్	15108
పరిశీలిస్తే	15109
ంటున్నారు	15110
మందమర్రి	15111
మెరుపులతో	15112
పెడతారు	15113
ఉపాధ్యక్షుడు	15114
మెక్సిక	15115
ఇంధన	15116
ಸುದ್ದ	15117
పెంపొ	15118
ఆతిథ	15119
##మేరకు	15120
వాంగ్మూ	15121
వినతిపత్రం	15122
రెట్టింపు	15123
నిమజ్జనం	15124
బృహస్పతి	15125
కృత్రిమ	15126
ఏవైనా	15127
వ‌ర‌కు	15128
tirum	15129
సీక్రెట్	15130
కంటెస్టెంట్	15131
لی	15132
ఆరి	15133
ఆపి	15134
ఇపుడు	15135
ఇళ్లలో	15136
ఉడిక	15137
కప్ప	15138
గార్డ్	15139
జాయిన్	15140
డూ	15141
నాల	15142
పదం	15143
లాయ	15144
సన	15145
సబ	15146
ిస్త	15147
ిస్తున్నారు	15148
ಸಿ	15149
##బంద	15150
##ಮಾಜ	15151
##ಗಳ	15152
##నులకు	15153
##ండల్	15154
##ప్లే	15155
##లియం	15156
రాంచ	15157
రాబట్టి	15158
కుమ్మ	15159
##ేశారని	15160
వెంబ	15161
సిర్	15162
గుండా	15163
నిర్బంధ	15164
చేయడాన్ని	15165
##స్తున్నామని	15166
అనిత	15167
##డీషియల్	15168
సోర్	15169
ప్రతిష్ఠా	15170
కేంద్రాలకు	15171
జీవీ	15172
బోనాల	15173
వచ్చేందుకు	15174
ఉంటోంది	15175
##గోదావరి	15176
సమావేశమై	15177
తేదీకి	15178
నియోజకవర్గాలకు	15179
లీటర్ల	15180
ఉదయ	15181
అక్కడక్కడ	15182
గుర్తించడం	15183
ఫ్యాషన్	15184
గతంలోనే	15185
కథలు	15186
170	15187
జింబా	15188
స్కూళ్లు	15189
ప్రవేశించ	15190
నాగబాబు	15191
భూమిలో	15192
21వ	15193
ఓవర్లు	15194
నడుచుకు	15195
ఐపీసీ	15196
యాక్టర్	15197
డిపార్ట్‌మెంట్	15198
ఇండెక్స్	15199
నిరుపే	15200
చేరడంతో	15201
చూపించిన	15202
వ్యూస్	15203
పేదరి	15204
సర్వీసులు	15205
ఇన్‌స్పెక్టర్	15206
ఉన్నాడని	15207
భుజ	15208
నిందితుడి	15209
ఓడిపో	15210
య్యే	15211
శాంతిభద్ర	15212
రంగానికి	15213
సౌకర్య	15214
తరఫు	15215
మెరుగుపరు	15216
అయ్యేలా	15217
టోర్నమెంట్	15218
తాగునీరు	15219
లక్ష్మారెడ్డి	15220
##మినార్	15221
క్షేత్రస్థాయిలో	15222
ఎత్తిపో	15223
సింహరాశి	15224
కంప్లైంట్	15225
##శైలి	15226
భాగస్వామ్య	15227
##ಡುಕ	15228
the	15229
రాఘవే	15230
##ction	15231
అద్దెకు	15232
తెరకెక్కిస్తున్న	15233
నామినేటెడ్	15234
వరసగా	15235
అమరవీ	15236
ఒరిజినల్	15237
బ్రిటీష్	15238
బీభత్సం	15239
bh	15240
it	15241
su	15242
ఆశ్	15243
ఇన్స్	15244
ఇనుప	15245
కచ్చ	15246
జలు	15247
తం	15248
తక్కు	15249
ధి	15250
పకడ్	15251
రమ్మ	15252
రత్న	15253
##సాల	15254
##‌ట్లు	15255
##‌నగర్	15256
##పన	15257
##షీట్	15258
##ూచి	15259
##ست	15260
##ول	15261
##ಹು	15262
##ారై	15263
##ారమైన	15264
##నిక్స్	15265
లేం	15266
లేకున్నా	15267
వాడీ	15268
##పోతున్నాయి	15269
బాండ్	15270
వర్ణ	15271
సుంద	15272
విషం	15273
అనుష్క	15274
ప్రతిబి	15275
ఆర్జీ	15276
ఆర్సీబీ	15277
ప్రకటించి	15278
పాలకులు	15279
సంస్థలో	15280
##ల్‌కు	15281
పట్టే	15282
వెళ్లినా	15283
తప్పే	15284
రావుకు	15285
##ించుకొని	15286
తెలియదని	15287
ఫోన్లను	15288
చూడండి	15289
మరింతగా	15290
వినతి	15291
ఫుట్	15292
క్షతగా	15293
భావిస్తున్నట్లు	15294
ఎవరికైనా	15295
కాల్వ	15296
దక్కించుకుంది	15297
హుజూ	15298
భర్తను	15299
ప్రేమను	15300
ఎదుర్కొంటున్నారు	15301
కీర	15302
కోరుట్ల	15303
తెలుసుకో	15304
ట్టుగా	15305
31న	15306
ఒత్తిడిని	15307
హోంశాఖ	15308
బిడ్డకు	15309
ప్రయాణించే	15310
దాడుల్లో	15311
ప్రయత్నించిన	15312
ఆకట్టుకునే	15313
ఆకర్షణ	15314
నియామకాలు	15315
పిలిచి	15316
చెలరేగాయి	15317
మనీష్	15318
ప్రత్యక్షంగా	15319
కొడంగల్	15320
ఇతరుల	15321
ఖుషి	15322
వాగ్వాదం	15323
కోటాలో	15324
వెబ్‌సైట్‌లో	15325
రంజిత్	15326
రిజల్ట్	15327
దూకుడుగా	15328
ఆవిర్భావ	15329
ప్రసిద్ధి	15330
అఫ్గానిస్తాన్	15331
రాసుకొచ్చ	15332
అర్చకులు	15333
సెక్రటేరియట్	15334
సీఎల్పీ	15335
ప్రావిన్స్	15336
యాసంగి	15337
ప్రమాణస్వీకారం	15338
అభివర్ణించారు	15339
మధుసూదన్	15340
వారణాసి	15341
హితవు	15342
tirumala	15343
ఆశ్చర్యం	15344
క్షతగాత్ర	15345
హుజూరాబాద్	15346
ఇస్తోంది	15347
ఎద	15348
ఐర్లాండ్	15349
కర్మ	15350
చారి	15351
నయన	15352
బళ్ల	15353
లార	15354
హ‌	15355
ాయా	15356
ుడైన	15357
ಆಗ	15358
##తార్	15359
##ంబ్	15360
##డెన్స్	15361
##‌మెంట్	15362
##పర్లు	15363
##పండు	15364
##జొన్న	15365
##బ్వే	15366
##ಲು	15367
##్యత	15368
నింపు	15369
కూరుకు	15370
సిమెంట్	15371
వాన్	15372
వాడిని	15373
##విస్	15374
తెలిసే	15375
##ారాల్లో	15376
##సేవ	15377
చూస్తారు	15378
మెమో	15379
మెట్రిక్	15380
మెషీ	15381
రిస్క్	15382
మూడవ	15383
మోర్	15384
మోస్ట్	15385
పొద్దు	15386
ప్రజలే	15387
కలిసేందుకు	15388
లాంగ్వే	15389
మంత్రివర్గంలో	15390
పిలవ	15391
పనిలేదు	15392
చేస్తున్నాయని	15393
సూక్ష్మ	15394
సంబంధాలను	15395
బ్యాచ్	15396
డీల్	15397
సాధార	15398
తప్పింది	15399
పూజి	15400
ప్లానింగ్	15401
రైతుకు	15402
స్థానికుల	15403
పనిచేయాలని	15404
గుర్తుంచు	15405
ఎంతమంది	15406
##బిలిటీ	15407
ఆసరా	15408
బైఠాయ	15409
ప్రవేశించిన	15410
మృతిచె	15411
పాటకు	15412
కట్టారు	15413
దెబ్బకు	15414
వేడుకలకు	15415
పొందడం	15416
లేఖను	15417
స్కాంలో	15418
విషయమే	15419
దిశలో	15420
వీరయ్య	15421
అపార్ట్	15422
బదిలీలు	15423
చక్కర్లు	15424
ఫ్రాంచై	15425
ప్రశ్నించింది	15426
ఓటీటీలో	15427
చక్రవర్తి	15428
అనుసరించి	15429
ఒప్పుకో	15430
మినిస్టర్	15431
శ్యామ్	15432
గందరగోళ	15433
అంకిత	15434
ప్రవాహం	15435
మెడిసిన్	15436
రికార్డ	15437
కార్యదర్శులు	15438
పరిస్ధి	15439
మహానాడు	15440
నిర్దిష్ట	15441
ఇండిపెండెంట్	15442
రిపీట్	15443
ఆచూకీ	15444
త్రిపాఠి	15445
.!	15446
ఇంప	15447
ఊహాగా	15448
చైన్	15449
పండ్లను	15450
సిన	15451
సవాలు	15452
##పర్చ	15453
##పడ్డా	15454
##ేల్	15455
##ేటర్	15456
##id	15457
##شل	15458
##ర్సీ	15459
##ంచేశారు	15460
ప్రణీ	15461
##ంటామని	15462
##ార్ల	15463
స్లి	15464
స్మిత్	15465
##ంగులు	15466
రాబడి	15467
##ష్టు	15468
మురుగు	15469
##్వి	15470
##ంగ్‌	15471
వానా	15472
ఉన్నవారికి	15473
వీరే	15474
మొండి	15475
దిగా	15476
భాషా	15477
స్పూ	15478
అనవస	15479
##క్స్‌	15480
బుజ్జ	15481
లియా	15482
షాద్	15483
అభ్యర్థన	15484
తీవ్రస్థాయిలో	15485
వెల్లడైంది	15486
వ్యక్తిగతంగా	15487
కనిపిస్తే	15488
చట్టాల	15489
స్టేటస్	15490
సాగుతుంది	15491
ఆలోచించి	15492
సెలబ్ర	15493
సుప్రీంకోర్టును	15494
సేకరి	15495
చూపించే	15496
ప్రక్రియలో	15497
జన్మని	15498
నిన్నటి	15499
ఫోటోను	15500
షూట్	15501
గూడ్స్	15502
మంజూర	15503
ఇస్తారని	15504
చెయ్యాలని	15505
వినిపిస్తున్న	15506
బహుశా	15507
ఆయుష్	15508
స్మార్ట్‌	15509
చుట్టుము	15510
బెదిరించ	15511
టీఎంసీల	15512
ఎగ్జామ్స్	15513
ఇషాన్	15514
సమాధానాలు	15515
##ಕ್ಷ	15516
సంక్షోభ	15517
పరికరాలు	15518
నిదర్శనం	15519
తలుపులు	15520
అమావాస్య	15521
కాపాడేందుకు	15522
బచ్చన్	15523
మధుమేహం	15524
గల్లంత	15525
ఫుటేజీ	15526
సిటిజన్	15527
సంభాషణ	15528
డ్రైనేజీ	15529
కొండచరియలు	15530
ఉదయాన్నే	15531
జింబాబ్వే	15532
అనా	15533
చంపి	15534
జల్	15535
బడా	15536
యము	15537
లక్కీ	15538
హ్యూ	15539
ాడో	15540
ುತ್ತ	15541
##ుడిని	15542
##పద	15543
##మయం	15544
##వడమే	15545
##నుకున్న	15546
##ంత్య	15547
విస్	15548
##డ్జ్	15549
##స్తవ	15550
##స్తానీ	15551
చెరో	15552
##క్షం	15553
పోతున్నాయి	15554
##ద్దా	15555
ఉన్నాయన్నారు	15556
తోసి	15557
కిట	15558
పరిస్థ	15559
పార్టీపై	15560
దీపం	15561
మెప్ప	15562
డిజా	15563
##ాలనుకునే	15564
తాండ	15565
సుమ	15566
సుకుమార్	15567
రేప్	15568
తిలక్	15569
##ప్రె	15570
చేసుకున్నా	15571
ఫిదా	15572
పూర్తిస్థాయిలో	15573
షాట్	15574
దువ్వాడ	15575
హిమ	15576
పట్టాల	15577
##ంటున్నాయి	15578
1500	15579
అర్ధం	15580
హీట్	15581
సిద్ధమయ్యారు	15582
టైర్	15583
ట్రావె	15584
తగ్గించు	15585
తగ్గించేందుకు	15586
పథకంలో	15587
పనిచేయ	15588
దోచుకున్న	15589
బౌద్ధ	15590
ఉపయోగించడం	15591
స్కూలు	15592
అంగు	15593
ప్రేమలో	15594
వినియోగదారులకు	15595
కార్మికులను	15596
ఇండస్ట్రి	15597
క్లెయి	15598
గ్లి	15599
యాత్రను	15600
సత్యం	15601
సామ్రా	15602
హౌజ్	15603
ఆఫీసర్ల	15604
కూతురి	15605
ఏమిటో	15606
ఏకపక్ష	15607
నరేశ్	15608
గాలింపు	15609
కఠినమైన	15610
ఆరోగ్యంపై	15611
చెల్లింపులు	15612
మెరుగుపరచ	15613
కొట్టివే	15614
శ్రీరామ	15615
వసతులు	15616
నిర్ధారణ	15617
భగవం	15618
సైనికుల	15619
సామర్థ్యాన్ని	15620
సస్పెన్స్	15621
సచివాలయ	15622
ప్రజాస్వామ్యం	15623
స్వల్పంగా	15624
సిక్సర్లు	15625
రాఘవ	15626
శిశువు	15627
నికర	15628
##బడుతుంది	15629
ప్పుడే	15630
హన్మ	15631
క్వాష్	15632
పఠాన్	15633
పరిసరాల్లో	15634
బెడ్రూం	15635
కరుణాకర్	15636
##హైడ	15637
మోర్చా	15638
జలుబు	15639
ହୋ	15640
ఆగ్ర	15641
ఆలేరు	15642
ఊప	15643
ఎలు	15644
ఎకాన	15645
త్రీ	15646
తండ్ర	15647
ధన్	15648
భంగం	15649
వణికి	15650
శృ	15651
ాలకు	15652
ిస్తే	15653
ుని	15654
ಹಂಚ	15655
##ంజి	15656
##ప్రియ	15657
##యెత్తున	15658
##కగా	15659
##దర్స్	15660
##ٹی	15661
##ಷ್ಟ	15662
##క్లి	15663
చెర	15664
##ిల్లు	15665
సంపర్	15666
లేనని	15667
బీబీ	15668
సమయ	15669
ప్రభు	15670
##వేట్	15671
నాగా	15672
##ంపజే	15673
పొలం	15674
మిల	15675
##ెన్యూ	15676
నీలం	15677
పెద్దయెత్తున	15678
కెపా	15679
దేవాద	15680
ఎన్ఐఏ	15681
స్వాతి	15682
చేపట్టే	15683
డెమో	15684
కార్యక్రమాల	15685
నిర్మించి	15686
చైర్మ	15687
తలనీ	15688
నిర్ణయాలను	15689
విమానాల	15690
ఫైల్స్	15691
క్షు	15692
సందేశం	15693
చెల్లించి	15694
పాటించాలని	15695
అడిగే	15696
టెక్నికల్	15697
విజయవాడకు	15698
ఫేస్‌	15699
గలరు	15700
రహదారుల	15701
అరుణా	15702
జన్యు	15703
వెళ్లినప్పుడు	15704
సంప్రదాయం	15705
భారతదేశానికి	15706
మౌనంగా	15707
బంధువుల	15708
డ్రైవర్లు	15709
దొంగతనం	15710
మేనేజ్‌మెంట్	15711
బిడ్డను	15712
సంపన్న	15713
సన్మా	15714
ఛార్జీ	15715
మనుగడ	15716
లక్ష్యమని	15717
ఆరోపిస్తూ	15718
చిత్తశు	15719
##భూమి	15720
స్ట్రీట్	15721
మనుషులు	15722
రెగ్యుల	15723
అశ్విని	15724
గడ్డపై	15725
ధనుష్	15726
ధనుస్సు	15727
శీతా	15728
ఆభరణాలు	15729
ఎల్బీనగర్	15730
పాల్పడ్డారని	15731
కస్టమర్లు	15732
ಸಾಮಾಜ	15733
చిత్రీక	15734
శరణార్థ	15735
ప్లాట్‌ఫారమ్	15736
సమ్మేళ	15737
ఉత్సాహంగా	15738
పద్మావతి	15739
కాచిగూడ	15740
జహీరాబాద్	15741
ಸಾಮಾಜಿಕ	15742
lo	15743
رو	15744
وی	15745
ఆగ్రహ	15746
ఉమ	15747
ఐఆర్	15748
ఒడ్డు	15749
కంది	15750
కించ	15751
చారు	15752
నృ	15753
పడ్డా	15754
మదన్	15755
##టేశ్వర	15756
##బెల్	15757
##ತೆ	15758
##ಂಧ	15759
##عد	15760
##ହା	15761
##ండిల్	15762
##కిట	15763
రావి	15764
##డ్లు	15765
కాంత	15766
##టీకరణ	15767
వెయ్య	15768
వెసులు	15769
ఉన్నంత	15770
గుత్తా	15771
వైపే	15772
పేర	15773
బాబ	15774
బాద్	15775
ఉండటానికి	15776
యాన్	15777
యాత్రి	15778
లాస్	15779
మిట్ట	15780
స్పెక్టర్	15781
అసలే	15782
ఇప్పి	15783
మ్యాజిక్	15784
బోధన్	15785
సాధించడం	15786
మనవి	15787
పూర్తిస్థాయి	15788
దేనని	15789
రుచ	15790
అక్కడకు	15791
డిమాండ్‌	15792
అమలుకు	15793
ందట	15794
##ూడో	15795
స్టేషన్ల	15796
నిర్ణయించినట్లు	15797
కేటీఆర్‌	15798
##ఫిన్	15799
నీటితో	15800
పాటను	15801
మైనంపల్లి	15802
ప్రోటీన్	15803
నడుమ	15804
యాత్రకు	15805
దుర్మార్	15806
పూర్తయింది	15807
అవార్డును	15808
సీటును	15809
పండుగను	15810
గ్రేడ్	15811
కల్పించింది	15812
అంగీకరించారు	15813
సురేందర్	15814
సినిమాలతో	15815
నొక్కి	15816
జనాభాలో	15817
##రమణ	15818
పాయింట్లతో	15819
విపక్షాల	15820
##ికేట్	15821
పద్మనా	15822
ాడట	15823
సచివాలయం	15824
రాముడి	15825
చూసుకోవాలి	15826
చదివి	15827
స్వాతంత్య	15828
ముగియనుంది	15829
మహేంద్ర	15830
##agan	15831
మైసూరు	15832
రిపబ్లిక	15833
రిపేర్	15834
జ్యుడీషియల్	15835
కంచె	15836
చాంపియన్	15837
##హౌస్	15838
బిర్లా	15839
సంకీర్ణ	15840
రెసిడెన్షియల్	15841
ఆల్కహాల్	15842
కౌన్సె	15843
election	15844
బళ్లారి	15845
తోసిపు	15846
ହୋଇ	15847
దేవాదాయ	15848
یا	15849
అహంక	15850
ఎండు	15851
గతం	15852
చద	15853
తడ	15854
బస్త	15855
భరి	15856
మెస్	15857
రష్య	15858
ಪೋ	15859
##లగ	15860
##పత్రం	15861
##బ్యు	15862
##దార	15863
##ౌక	15864
##ొచ్చ	15865
##స్టీ	15866
##‌‌‌‌ఎస్	15867
##ార్ధ	15868
కాను	15869
##వాళ్ల	15870
##వుడి	15871
నేటికీ	15872
చెప్పవచ్చు	15873
ప్రాపర్	15874
వీడ	15875
వీక్	15876
##ంపర్	15877
మేజర్	15878
స్ట్రో	15879
మార్చిన	15880
మార్గాన్ని	15881
మూడి	15882
వర్గీ	15883
వ్యక్తులకు	15884
##జిస్ట్	15885
అంతి	15886
బియ	15887
మధ్యతరగతి	15888
అమరుల	15889
బోల్తా	15890
విజయంతో	15891
విజయలక్ష్మి	15892
క్యాండి	15893
##రూపం	15894
తప్పదని	15895
పదవుల	15896
ఎన్టీ	15897
111	15898
ంచాలి	15899
కనిపిస్తు	15900
నిర్మల	15901
కథను	15902
తలెత్తి	15903
మరణాలు	15904
130	15905
చురుగ్గా	15906
రాత్రిపూట	15907
వస్తోందని	15908
పరిధిలోకి	15909
మోడీకి	15910
కష్టాల్లో	15911
ఉంచిన	15912
ఎన్నారై	15913
బ్రెయిన్	15914
స్తుంటే	15915
##ara	15916
కస్టమ్స్	15917
ఆస్ట్రేలియాతో	15918
దుర్గం	15919
శ్రేణు	15920
అమరావతిలో	15921
నిర్వహణలో	15922
ప్రాధాన్యతను	15923
ఏకగ్రీ	15924
మార్చడం	15925
అధ్యయనంలో	15926
చంపిన	15927
ఆసక్తికరమైన	15928
తుపాకీ	15929
అక్షర్	15930
నిల్వలు	15931
లింగంపల్లి	15932
తేల్చారు	15933
ఆశాభావం	15934
పాలిటిక్స్	15935
గరిష్ట	15936
జరపాలని	15937
డైలాగ్స్	15938
ఆధిక్యంలో	15939
కాలానికి	15940
దిగ్గజ	15941
లావాదేవీలు	15942
డాక్యుమెంటరీ	15943
ఆటంకం	15944
కుల్దీప్	15945
سوشل	15946
జవహర్	15947
అభియోగాలు	15948
గంభీర్	15949
అడ్రస్	15950
తాలూకా	15951
అవస్థలు	15952
ఛాలెంజర్స్	15953
02	15954
pr	15955
అనం	15956
ఇళ్లకు	15957
కమ్	15958
ఖలీ	15959
చలా	15960
చండీ	15961
చర్ల	15962
బడిన	15963
లైన	15964
వంక	15965
##తరం	15966
##‌టి	15967
##నాలి	15968
##పల్లె	15969
##మరీ	15970
##వంచ	15971
##వరా	15972
##బ్యూ	15973
##وم	15974
##bc	15975
##కుల్లో	15976
ప్రపో	15977
విమెన్స్	15978
##గుతున్న	15979
తెగి	15980
కుంటుంది	15981
కోవడం	15982
పోతారు	15983
పోస్టింగ్	15984
మాథ	15985
##నాం	15986
సాల్	15987
బావ	15988
చూపే	15989
సెటిల్	15990
##దేళ్ల	15991
విషమంగా	15992
తిప్పి	15993
దేశాలలో	15994
ఉంటుందనే	15995
బ్యాన్	15996
ఒక్కరి	15997
సాధిక	15998
పీఎఫ్	15999
రూపం	16000
ట్ట	16001
హిజ్	16002
అంతు	16003
తప్పవని	16004
వెల్లడించిన	16005
దర్శన్	16006
ప్రయాణాలు	16007
కోట్లుగా	16008
వచ్చిందన్నారు	16009
భక్తులను	16010
లెవెల్	16011
కొందరి	16012
పంపే	16013
దోమల	16014
నిరసిస్తూ	16015
వీరితో	16016
భూమిపై	16017
జెడ్	16018
స్తారా	16019
రికార్డులను	16020
గ్రూప్‌	16021
అనుమాన	16022
రహిత	16023
విభాగాల్లో	16024
ఉత్పత్తుల	16025
సామూహ	16026
హౌసింగ్	16027
ఓడిపోయిన	16028
గూఢ	16029
పెరగడానికి	16030
చెయ్యడం	16031
వనరులు	16032
##వాహిక	16033
సికింద్రాబాద్‌	16034
స్నేహితు	16035
దుకాణాలు	16036
ಗಳು	16037
కార్యకలాపాలను	16038
అయ్యిందని	16039
పౌరస	16040
పాల్పడినట్లు	16041
అంటున్నారని	16042
దౌర్	16043
అణచి	16044
రిపేర్లు	16045
ఫీల్డింగ్	16046
విస్తీర్ణంలో	16047
టెండర్లు	16048
వారసత్వ	16049
తెలుసని	16050
గోధుమ	16051
కాజీపేట	16052
గ్లింప్స్	16053
సామూహిక	16054
pri	16055
ww	16056
فر	16057
అట్ట	16058
అదీ	16059
ఇని	16060
ఉర్	16061
ఎగి	16062
ఏదీ	16063
డానికే	16064
దరి	16065
బాలి	16066
భై	16067
మదన	16068
శవ	16069
ాలా	16070
ివ్వ	16071
##డన్	16072
##‌య	16073
##పథ	16074
##మట్టం	16075
##వాలా	16076
##is	16077
##ଲା	16078
##డ్కర్	16079
పోకుండా	16080
##ైనీ	16081
లేమని	16082
నేరాలు	16083
ఉన్నాయా	16084
##ానగర్	16085
కివీస్	16086
సామ్	16087
బాహు	16088
బాటిల్	16089
వీకెండ్	16090
భాగాన్ని	16091
గ్రహాలు	16092
##ానిర్	16093
మ్యానిఫేస్టో	16094
ఒక్కరికీ	16095
కావలసిన	16096
అయ్యాయని	16097
##బర్గ్	16098
కర్త	16099
మృణా	16100
సొరంగ	16101
పడతారు	16102
తగ్గించే	16103
డబ్బుల	16104
25వ	16105
పోయారని	16106
మరణించారని	16107
న్నట్లు	16108
టికెట్లను	16109
ఎవరినీ	16110
##మవుతుందని	16111
సూర్యు	16112
ప్రైమ్	16113
ఉంచాలని	16114
ప్రవేశపెట్టారు	16115
విశాఖపట్	16116
సూపర్‌	16117
సింగర్	16118
తీసుకోకుండా	16119
##చూడ్	16120
ఎదురుదెబ్బ	16121
పొత్తుల	16122
పారిశు	16123
నర్సం	16124
దిశానిర్	16125
##కౌంటర్	16126
భోజన	16127
##సార్సీపీ	16128
అవార్డుల	16129
ఎన్‌కౌంటర్	16130
నటులు	16131
అనుభవి	16132
ఛాంబర్	16133
సరిహద్దుల్లో	16134
అభ్యర్దుల	16135
ఛేదన	16136
జంతువులు	16137
ప్రశ్నించిన	16138
గోల్డెన్	16139
విడాకుల	16140
మావోయిస్టు	16141
ఇస్లామిక్	16142
ہمیں	16143
లోతుగా	16144
ఇంతకుముందు	16145
సంయుక్త	16146
tspsc	16147
హీరోయిన్స్	16148
పరిగణిస్తారు	16149
కనుగొన్నాము	16150
కొద్దిసేపటి	16151
అనుసంధానం	16152
విజిలెన్స్	16153
సర్దుబాటు	16154
సప్లయ్	16155
వినూత్న	16156
ద్రవ్యోల్బణం	16157
లెక్చర	16158
పృథ్వీ	16159
అమరవీరుల	16160
డిజాస్టర్	16161
ఇండస్ట్రియల్	16162
cm	16163
he	16164
im	16165
ନା	16166
అంబర్	16167
కమాండ్	16168
గృ	16169
జెన్	16170
జ్వర	16171
దగ్	16172
ద్రా	16173
పంది	16174
పిన	16175
మంత	16176
షబ్బ	16177
సజ్జన	16178
ిస్తూ	16179
్లా	16180
ಚಿ	16181
ನೀ	16182
ರಾ	16183
##‌ణ	16184
##లకల	16185
##రైన	16186
##ెంలో	16187
##జయ	16188
##್ಳ	16189
##ot	16190
##ka	16191
##ర్వే	16192
##స్టర్లు	16193
ప్రదర్శి	16194
విండీస్	16195
##దులో	16196
##ద్దరి	16197
సీఎస్‌	16198
గురించే	16199
పార్వతీ	16200
పైప్	16201
సాంప్ర	16202
ప్రాసె	16203
శాంత	16204
ఉండగానే	16205
జరిపించ	16206
చిత్తు	16207
అనుచిత	16208
అనుకునే	16209
పొత్తులు	16210
##టికొ	16211
తమన్నా	16212
శ్రీదేవి	16213
అమల్లో	16214
ప్రారంభమవుతుంది	16215
ప్రారంభమయ్యాయి	16216
##ల్సిందే	16217
ఉపయోగం	16218
సూచించిన	16219
##టేజ్	16220
ఆలౌట్	16221
ఇన్సు	16222
##చురల్	16223
వస్తుందా	16224
రాహుల్‌	16225
దొరికే	16226
ఇంటిపై	16227
వస్తున్నారని	16228
చాటి	16229
చేసుకున్నాయి	16230
మాటలను	16231
అందుకున్నాడు	16232
##చుకున్నారు	16233
చెల్లె	16234
ట్యాప్	16235
నష్టాలు	16236
ఎంపికైన	16237
ఇంగ్లిష్	16238
ప్రయోజన	16239
నిమిషాల్లో	16240
పదవిలో	16241
సాయిరెడ్డి	16242
సృష్టించారు	16243
##ಂದಿಗೆ	16244
చేసుకోండి	16245
ఎకరాకు	16246
ప్రస్తావి	16247
తయారీకి	16248
##నీయమైన	16249
దృఢ	16250
డెవలప్మెంట్	16251
ఛేంజర్	16252
వెలువడ	16253
వేశారని	16254
వేశాడు	16255
శేరి	16256
జెండాను	16257
పోరులో	16258
ಗಳನ್ನು	16259
చేయలేదన్నారు	16260
సవాళ్లు	16261
సదుపాయాల	16262
గిరిజనులు	16263
సొమ్మును	16264
సదస్సులో	16265
అమ్మవారిని	16266
త్యాగం	16267
జొన్న	16268
పెట్టుబడుల	16269
సిల్వర్	16270
కాంబోలో	16271
సమాజానికి	16272
ఉత్పత్తులను	16273
ప్రొడ్యూసర్	16274
మెక్సికో	16275
శృంగ	16276
ಹಂಚಿಕ	16277
వెసులుబాటు	16278
బియ్యాన్ని	16279
షబ్బీర్	16280
సజ్జనార్	16281
شی	16282
پوس	16283
گئی	16284
అస్త	16285
ఇప్పుడ	16286
ఎటు	16287
ఏకీ	16288
ఖలి	16289
గార్డు	16290
బషీర్	16291
మాయం	16292
యం	16293
వాలి	16294
సలా	16295
హద్దు	16296
##సోర్	16297
##ుభ్ర	16298
##ంతుల	16299
##టూరు	16300
##କୁ	16301
##లెట్లు	16302
##wan	16303
##ಳ್ಳ	16304
##న్నో	16305
చేరాడు	16306
##ంటప్పుడు	16307
##ికో	16308
##లాడి	16309
##మాల్	16310
##స్తారో	16311
కేఆర్	16312
మున్	16313
##లీప్	16314
సిఫార	16315
సంధ	16316
##ప్పుడో	16317
వైద్యా	16318
సాంగ్స్	16319
పేమెంట్	16320
##దాన్	16321
టీఎస్పీ	16322
##ధ్యంలో	16323
డిప్రె	16324
వర్చువల్	16325
చంద్రచూడ్	16326
వ్యాపి	16327
##వరెడ్డి	16328
రెండున్నర	16329
చేస్తున్నది	16330
ఎన్నికలపై	16331
గంటా	16332
తుంటారు	16333
2013లో	16334
పరిశుభ్ర	16335
రాజకీయాలను	16336
ఉండేదని	16337
తిరుప	16338
ఆదేశం	16339
దగ్గరి	16340
జరగడంతో	16341
పరుగులకు	16342
కౌంట	16343
పడిందని	16344
సమీపిస్తున్న	16345
పరీక్షలను	16346
నిర్ణయాల	16347
ఇంటిగ్రే	16348
కొనసాగుతూనే	16349
##బిడ్డ	16350
స్టేజ్	16351
భార్యతో	16352
చనిపోయింది	16353
క్రియా	16354
ఫాల్	16355
గురైంది	16356
కార్యాలయాన్ని	16357
ఆత్మగౌ	16358
నిర్వహిస్తోంది	16359
మంత్రికి	16360
##పాలెం	16361
వయనాడ్	16362
పార్లమెంట్‌లో	16363
నిరసనగా	16364
యాక్టి	16365
వినియోగించ	16366
రికార్డుల	16367
దారుల	16368
నిందితుడిగా	16369
కుమారుడి	16370
విశ్వాస	16371
పర్యటించ	16372
నెరవేర	16373
కలుష	16374
ప్రదేశాల్లో	16375
ఎంటర్‌	16376
రిపోర్టులో	16377
ప్రియుడు	16378
ఛానల్	16379
మనసులో	16380
ట్రేడింగ్	16381
ంటుంది	16382
వారాల్లో	16383
వహించారు	16384
వహిస్తున్న	16385
అనుసరించ	16386
కరుణ	16387
అవాంఛ	16388
రెజ్లింగ్	16389
మిలిటరీ	16390
స్వాతంత్ర్యం	16391
నికో	16392
తీసుకురావడం	16393
ఠాక్రే	16394
ముగుస్తుంది	16395
##rababu	16396
ప్యాసింజర్	16397
టాయిలెట్	16398
స్లీపర్	16399
భార్యాభర్	16400
నలభై	16401
వామపక్ష	16402
ప్రకంపనలు	16403
నాదెండ్ల	16404
రెగ్యు	16405
##బ్యునల్	16406
پوسٹ	16407
టీఎస్పీఎస్సీ	16408
ఇంటిగ్రేటెడ్	16409
కెన్	16410
దినేష్	16411
భృతి	16412
రప్ప	16413
శస్త్ర	16414
షన్	16415
##ులే	16416
##టరింగ్	16417
##హ్రా	16418
##పాలు	16419
##రప	16420
##కరీ	16421
##మతుల	16422
##ిస్తూ	16423
##ut	16424
##ଲେ	16425
##ଣା	16426
విప్ప	16427
##ంగల్‌	16428
రాతి	16429
కొచ్చి	16430
కేక్	16431
తీరా	16432
వేత్త	16433
వాక్	16434
తోడ్	16435
##పాకు	16436
##పాక్షిక	16437
వైవాహిక	16438
బాగో	16439
203	16440
##మ్మతి	16441
జిల్లాలు	16442
దిగింది	16443
తిరో	16444
##జియన్	16445
మిడ్	16446
##కూల్	16447
పాల్పడ్డాడు	16448
అతడికి	16449
అవుతాయని	16450
కల్లు	16451
సమస్యకు	16452
పీఎస్సీ	16453
ఉద్యోగంలో	16454
190	16455
సంస్థలను	16456
పూడ్	16457
దూబే	16458
ఎన్సీపీ	16459
##కెట్లు	16460
ప్రయాణీ	16461
హీరోలు	16462
స్టార్టప్	16463
ించేందుకు	16464
సాగునీటి	16465
ముగిసి	16466
ఇబ్బందులకు	16467
దక్కే	16468
తయారుచే	16469
విదేశాల	16470
స్తుందా	16471
యాక్టింగ్	16472
వేడుకలను	16473
సామాజికవర్గం	16474
విరామం	16475
##ತ್ಯ	16476
కోహ్లి	16477
##انی	16478
డిగ్రీలు	16479
ముందంజలో	16480
టెస్టుల్లో	16481
స్నేహితుడు	16482
పట్టించుకోలేదు	16483
ధాన్యాన్ని	16484
అటవీశాఖ	16485
తగిలి	16486
కార్యకలాపాలకు	16487
ఫార్మాట్	16488
మాట్లాడేందుకు	16489
పతకం	16490
తీసుకురావడానికి	16491
ప్రజాప్రతినిధుల	16492
కమలాకర్	16493
ఇండ్లను	16494
వేసవిలో	16495
తీర్థం	16496
మామూలు	16497
కొన్నేళ్లుగా	16498
అలెర్ట్	16499
పదిహేను	16500
దోహద	16501
##ఫుల్	16502
ముచ్చట	16503
పితృ	16504
హైస్కూల్	16505
సిగరెట్	16506
సాఫ్ట్‌వేర్	16507
పేదరికం	16508
తక్కువే	16509
ఎకానమీ	16510
సాధికార	16511
www	16512
ال	16513
من	16514
پا	16515
అందే	16516
ఆదా	16517
ఇల్ల	16518
ఊపు	16519
ఏడే	16520
కట	16521
కసి	16522
జారి	16523
దంత	16524
బాయి	16525
బర్ర	16526
మెట్ల	16527
వక్	16528
సరుకు	16529
ಮು	16530
##సంగా	16531
##పస్	16532
##ైదు	16533
##కల్ప	16534
##మండ్	16535
##జనా	16536
##దరణ	16537
##بر	16538
##ିତ	16539
##ఫ్రా	16540
##us	16541
##ಕ್‌	16542
##ଧ୍ୟ	16543
##ఓవర్	16544
##ట్లేదు	16545
విందు	16546
నిత్య	16547
వెతిక	16548
కొమ్మ	16549
సంభవి	16550
##మెట్	16551
చేయబడిన	16552
చేయకూడదు	16553
వ్యో	16554
పేలి	16555
##డీఓ	16556
ఉండవల్లి	16557
రాష్ట్రాలలో	16558
మందిపై	16559
వర్గంలో	16560
మోతా	16561
సమాఖ్య	16562
##ట్లర్	16563
##కర్త	16564
మిస్టర్	16565
ఉంటుందా	16566
జగన్నా	16567
బిన్	16568
##బీర్	16569
ప్రారంభించాలని	16570
కావొచ్చు	16571
ఉద్యోగాలను	16572
పోటీల్లో	16573
పాలెం	16574
##కపోవచ్చు	16575
సంస్థను	16576
మారడం	16577
క్యాబినెట్	16578
##రూమ్	16579
##కరమని	16580
##బోస్	16581
ఆఫీసుకు	16582
గొల్ల	16583
మళ్లి	16584
యూనిట్లు	16585
పెరిగాయని	16586
దోషిగా	16587
అతనిపై	16588
సాగుతున్నాయి	16589
రైల్వేస్టేషన్	16590
పెళ్లిళ్లు	16591
వ్యవస్థకు	16592
తెలుసుకునే	16593
రాయుడు	16594
క్రికెట్‌లో	16595
[...]
