<unk>	0
<s>	0
</s>	0
▁ా	-0
▁క	-1
▁ి	-2
▁ప	-3
▁ు	-4
▁.	-5
▁న	-6
▁ల	-7
▁వ	-8
▁ర	-9
▁్	-10
▁స	-11
▁మ	-12
▁ం	-13
▁త	-14
న్	-15
ర్	-16
▁చ	-17
▁అ	-18
్ర	-19
ని	-20
రు	-21
ంద	-22
▁గ	-23
▁ద	-24
స్	-25
్ల	-26
▁,	-27
ంచ	-28
▁ారు	-29
న్న	-30
▁బ	-31
్య	-32
▁లో	-33
▁ే	-34
▁ట	-35
▁ఆ	-36
▁డ	-37
▁జ	-38
▁ీ	-39
▁చే	-40
ార	-41
్ట	-42
▁ాల	-43
ంది	-44
▁ప్ర	-45
▁ో	-46
▁ను	-47
▁ఎ	-48
▁ఇ	-49
▁ని	-50
ంట	-51
క్	-52
▁ఉ	-53
▁ించ	-54
▁కు	-55
లో	-56
▁ె	-57
▁ున్న	-58
ాల	-59
▁య	-60
గా	-61
▁భ	-62
స్త	-63
▁హ	-64
్ప	-65
ండ	-66
▁వి	-67
లు	-68
కు	-69
▁్ర	-70
త్	-71
డు	-72
▁రా	-73
▁ర్	-74
▁కా	-75
రి	-76
▁ిన	-77
▁గా	-78
యి	-79
▁్య	-80
ంత	-81
▁ఈ	-82
▁శ	-83
▁స్	-84
ల్	-85
ంగ	-86
ిక	-87
ుక	-88
▁ఫ	-89
▁లు	-90
▁ై	-91
ల్ల	-92
▁ొ	-93
▁ార	-94
▁కి	-95
▁ింది	-96
▁న్	-97
దు	-98
్చ	-99
▁రె	-100
ప్ప	-101
▁ూ	-102
డ్	-103
▁చేస	-104
▁2	-105
ుల	-106
▁ార్	-107
▁మా	-108
లి	-109
▁తె	-110
▁1	-111
▁ఏ	-112
▁ధ	-113
ను	-114
ట్ట	-115
న్ని	-116
▁చె	-117
▁ుల	-118
▁తో	-119
ీస	-120
ద్	-121
కి	-122
టీ	-123
▁లే	-124
▁క్	-125
త్ర	-126
చ్చ	-127
▁0	-128
ళ్ల	-129
▁ాయి	-130
▁కో	-131
▁కూ	-132
ంగ్	-133
టు	-134
▁రి	-135
తి	-136
▁వా	-137
▁పై	-138
ిన	-139
డా	-140
▁పె	-141
డి	-142
వా	-143
▁నే	-144
ది	-145
మా	-146
▁ంలో	-147
పీ	-148
▁్త	-149
ట్ల	-150
నే	-151
్యా	-152
▁"	-153
ేశ	-154
క్ష	-155
▁ష	-156
ంచి	-157
▁సం	-158
▁పా	-159
▁ిస్త	-160
▁నా	-161
ట్	-162
▁ము	-163
▁ుత	-164
▁పో	-165
▁వె	-166
ష్ట	-167
టి	-168
ంగా	-169
్మ	-170
్వ	-171
▁ఉన్న	-172
▁ులు	-173
▁ంగా	-174
▁రో	-175
▁ఒ	-176
▁కే	-177
▁వే	-178
ుత	-179
▁ుంది	-180
▁నుంచి	-181
▁చేశ	-182
▁కూడా	-183
క్క	-184
▁కొ	-185
ంతో	-186
▁ాని	-187
▁డి	-188
▁చేయ	-189
▁సి	-190
▁సీ	-191
▁ందు	-192
▁సా	-193
▁గు	-194
▁దా	-195
▁ానికి	-196
▁చేస్త	-197
త్త	-198
▁్యా	-199
▁్థ	-200
▁నిర్	-201
▁ఓ	-202
▁:	-203
▁సమ	-204
ర్య	-205
పు	-206
యం	-207
▁ాన్ని	-208
డ్డ	-209
▁చెప్ప	-210
▁ామ	-211
▁తెలి	-212
▁ాడు	-213
▁బా	-214
▁ాలని	-215
▁డం	-216
▁లా	-217
ంద్ర	-218
▁3	-219
▁న్న	-220
▁ిక	-221
▁ాలు	-222
▁మె	-223
▁క్ర	-224
▁తీస	-225
▁ుక	-226
ద్ద	-227
▁ద్	-228
▁అవ	-229
▁ధిక	-230
లా	-231
▁ాయ	-232
▁ల్ల	-233
పో	-234
ంబ	-235
ందని	-236
▁ిల్ల	-237
▁ార్టీ	-238
▁ుడు	-239
గు	-240
▁రెడ్డ	-241
త్వ	-242
▁భు	-243
▁భుత్వ	-244
▁5	-245
తే	-246
▁(	-247
▁ారం	-248
▁ఆయ	-249
▁దీ	-250
▁ల్	-251
▁ధికార	-252
మ్మ	-253
▁4	-254
షన్	-255
మి	-256
▁తీసుక	-257
▁ంద	-258
▁ఖ	-259
రో	-260
▁పే	-261
▁వచ్చ	-262
▁ది	-263
ంటి	-264
ాన	-265
ారి	-266
▁తన	-267
ష్	-268
▁అయి	-269
▁కల	-270
▁ఒక	-271
▁శా	-272
▁మే	-273
▁దేశ	-274
▁రు	-275
ించ	-276
▁ప్ప	-277
▁రెస్	-278
▁భార	-279
▁)	-280
▁వై	-281
▁ారని	-282
▁మీ	-283
▁రాజ	-284
▁పరి	-285
▁ఆయన	-286
▁త్	-287
నా	-288
▁ట్ల	-289
ఆర్	-290
▁-	-291
▁్లో	-292
ంధ	-293
▁ందుకు	-294
▁రోజ	-295
▁ఉంట	-296
వి	-297
▁రాష్ట	-298
త్రి	-299
▁రూ	-300
▁అని	-301
▁స్ట	-302
▁ాబ	-303
▁ుంట	-304
▁ోంది	-305
▁చి	-306
వు	-307
▁చూ	-308
ారం	-309
▁ఐ	-310
నీ	-311
▁గ్ర	-312
▁ింగ్	-313
యో	-314
▁ఉండ	-315
▁మంది	-316
్గ	-317
▁ీఆర్	-318
▁ఎన్ని	-319
▁ోర్	-320
▁నె	-321
సి	-322
▁9	-323
ధ్య	-324
▁వర	-325
ర్త	-326
▁తెలిప	-327
సం	-328
▁లోని	-329
సు	-330
▁యా	-331
▁ణ	-332
▁ట్	-333
ైన	-334
▁టీ	-335
▁ంట	-336
▁డీ	-337
ప్	-338
▁అంద	-339
▁్వ	-340
రిగ	-341
▁చ్చ	-342
పా	-343
ంక	-344
యా	-345
▁పు	-346
▁ంత్రి	-347
▁పోల	-348
ంలో	-349
బ్	-350
▁పెట్ట	-351
▁తీ	-352
▁డా	-353
ంప	-354
▁కాంగ్	-355
్యే	-356
తో	-357
▁ిని	-358
▁భా	-359
▁ిల్లా	-360
▁శ్ర	-361
▁లి	-362
▁ప్రజ	-363
▁కోసం	-364
▁ట్ట	-365
▁తా	-366
▁వ్య	-367
బు	-368
▁లేద	-369
▁మి	-370
▁ఆర్	-371
▁సె	-372
▁6	-373
▁ాబా	-374
▁హై	-375
▁రెండ	-376
▁లంగా	-377
వర	-378
▁ాల్	-379
▁8	-380
▁7	-381
ీయ	-382
▁ఇప్ప	-383
▁చేసుక	-384
▁ీజ	-385
▁పాటు	-386
▁అన్న	-387
▁ోవ	-388
ర్శ	-389
▁?	-390
▁ాబాద్	-391
▁ండ	-392
తు	-393
క్త	-394
▁విష	-395
▁లక్ష	-396
▁ఎం	-397
▁వీ	-398
▁ఘ	-399
▁డంతో	-400
▁లంగాణ	-401
▁చేసిన	-402
▁కుండ	-403
▁లను	-404
▁మహ	-405
▁ాజ	-406
▁ట్ర	-407
▁లేదు	-408
▁అయితే	-409
▁అభ	-410
ండి	-411
▁మూ	-412
స్ట	-413
▁పాల	-414
▁ముంద	-415
▁ంగ	-416
▁కుండా	-417
ఖ్య	-418
▁దు	-419
తా	-420
ద్య	-421
▁్ట	-422
▁వస్త	-423
▁ఎస్	-424
▁క్కు	-425
లీ	-426
▁ఇచ్చ	-427
సీ	-428
కా	-429
▁కార్య	-430
క్ట	-431
▁తర్	-432
▁చంద్ర	-433
ారణ	-434
▁యూ	-435
▁ారి	-436
▁ేంద్ర	-437
▁టిక	-438
▁మొ	-439
రం	-440
▁తర్వా	-441
శ్	-442
▁జీ	-443
ాయ	-444
▁ంప	-445
▁ామని	-446
▁ాలి	-447
▁కాల	-448
తుల	-449
▁ీజే	-450
▁ీడి	-451
▁తి	-452
▁ౌ	-453
▁సు	-454
▁ినిమా	-455
▁చాల	-456
▁ైన	-457
▁నీ	-458
▁టి	-459
▁య్య	-460
▁అనే	-461
▁ీజేపీ	-462
▁ద్ద	-463
▁పోలీస	-464
▁ప్రజల	-465
▁మో	-466
▁సూ	-467
▁తమ	-468
▁్యక్త	-469
ఎం	-470
▁ట్లు	-471
▁నిర్వ	-472
ంట్	-473
▁మైన	-474
▁మరో	-475
▁దే	-476
గ్గ	-477
▁డ్	-478
▁చాలా	-479
చ్	-480
రుగ	-481
ిత	-482
మె	-483
▁జా	-484
▁ఉంది	-485
▁ఏర్	-486
▁ళ	-487
▁తే	-488
▁వెళ్ల	-489
▁శ్రీ	-490
▁చెంద	-491
▁బాబు	-492
జీ	-493
ర్చ	-494
తం	-495
▁రీ	-496
▁ిపో	-497
▁జన	-498
▁రే	-499
▁నున్న	-500
▁వ్యా	-501
ర్క	-502
▁సో	-503
▁పడ	-504
నిక	-505
▁నేత	-506
టన	-507
▁సీఎం	-508
వే	-509
▁అంట	-510
▁లాంటి	-511
▁ఎమ్మ	-512
▁నెల	-513
▁ಿ	-514
ర్గ	-515
▁క్ష	-516
▁ాలను	-517
▁పూ	-518
▁థ	-519
ామ	-520
▁ెల	-521
▁ల్లో	-522
▁ాన	-523
▁ాల్ల	-524
▁ాల్లో	-525
▁క్కువ	-526
▁విజ	-527
ల్లి	-528
▁మ్మ	-529
ర్ల	-530
దీ	-531
▁మధ్య	-532
ోగ	-533
▁కోట్ల	-534
▁కీ	-535
▁సమయం	-536
▁స్ప	-537
బంధ	-538
▁రెండు	-539
ఫ్	-540
▁సభ	-541
▁టు	-542
▁కలి	-543
▁్క	-544
▁ుందని	-545
ారా	-546
▁రై	-547
▁క్క	-548
▁క్రమ	-549
▁ాహ	-550
▁పొ	-551
▁మాట్ల	-552
▁ఆమె	-553
▁్రా	-554
▁ప్రతి	-555
▁లె	-556
▁ిత	-557
ీసీ	-558
▁దీంతో	-559
▁నగ	-560
▁వరకు	-561
మార	-562
▁హైద	-563
▁క్ట	-564
య్య	-565
ద్ధ	-566
▁దర్శ	-567
▁గత	-568
క్కడ	-569
▁జరిగ	-570
దే	-571
▁ించి	-572
▁ెన్	-573
▁పని	-574
▁రోజుల	-575
▁ళ్ల	-576
▁హైదర	-577
▁ాద	-578
▁రణ	-579
▁పి	-580
నిప	-581
▁ొన్న	-582
మ్	-583
▁డానిక	-584
కాశ	-585
▁కానీ	-586
▁ప్	-587
▁కుమార	-588
▁ుగా	-589
▁మరి	-590
▁ముందు	-591
ధి	-592
▁్థాన	-593
▁ాం	-594
స్థ	-595
▁ెల్యే	-596
▁ోర్టు	-597
▁రిక	-598
దల	-599
▁ప్రా	-600
▁పెద్ద	-601
▁ర్ల	-602
▁ినట్ల	-603
▁అవకాశ	-604
బ్బ	-605
▁వారి	-606
▁ాడ	-607
▁హించ	-608
▁ేషన్	-609
రా	-610
▁సంబంధ	-611
▁ిప	-612
▁కర	-613
▁చేసి	-614
ాన్	-615
▁బీ	-616
▁నాయ	-617
▁ాయని	-618
▁యి	-619
▁కొత్త	-620
ల్లో	-621
కర	-622
▁ఏర్పా	-623
▁బి	-624
▁రించ	-625
సా	-626
▁హి	-627
▁పీ	-628
▁పట్ట	-629
▁್	-630
▁కేస	-631
▁వేల	-632
సర	-633
▁లకు	-634
▁ుకు	-635
ివ	-636
▁గ్రామ	-637
▁ింద	-638
▁జగ	-639
▁దీని	-640
▁ఢ	-641
▁గుర	-642
▁తొ	-643
▁్యూ	-644
▁బె	-645
్వర	-646
▁ండి	-647
▁ک	-648
▁కృ	-649
▁ండ్	-650
వం	-651
▁గంట	-652
▁ఇది	-653
▁అంత	-654
▁భారీ	-655
వేశ	-656
▁రోజు	-657
▁ూర్	-658
▁ిక్	-659
▁్ప	-660
▁సారి	-661
▁సహ	-662
▁అత	-663
▁నియో	-664
▁యు	-665
▁తప్ప	-666
▁్చ	-667
▁ియ	-668
▁అస	-669
▁ద్య	-670
▁ాణ	-671
▁మన	-672
▁వల్ల	-673
రే	-674
▁ఇవ	-675
▁జగన్	-676
▁భూ	-677
▁మార	-678
మాన	-679
▁నిర్మ	-680
▁ంచ	-681
▁ెలు	-682
▁స్వ	-683
వల	-684
▁ారంభ	-685
▁విషయ	-686
▁ెంట	-687
▁ంత	-688
▁లేదని	-689
యల	-690
▁ేశ	-691
▁నూ	-692
▁ఛ	-693
▁ప్రక	-694
▁ద్యోగ	-695
▁హె	-696
ద్ర	-697
దేశ	-698
ధాన	-699
▁అభ్య	-700
▁ిగ	-701
▁ువ	-702
▁్థి	-703
▁కనిప	-704
▁ఇవ్వ	-705
▁కావ	-706
▁వ్యాప	-707
▁గ్	-708
▁పద	-709
్యూ	-710
▁చేసే	-711
▁ొన్ని	-712
▁అమ	-713
▁్వారా	-714
▁రావు	-715
▁రామ	-716
▁వారు	-717
▁విద్య	-718
ండ్	-719
▁ిజ	-720
▁ప్రకట	-721
▁ీఆర్ఎ	-722
▁చూస	-723
▁ು	-724
▁కపో	-725
▁విజయ	-726
▁జ్	-727
▁ొత్త	-728
▁రిగ	-729
▁బు	-730
▁ీడియ	-731
పడ	-732
▁ర్య	-733
▁ఇక	-734
▁చెబ	-735
▁ుటు	-736
▁ుటుంబ	-737
▁డు	-738
▁కోర	-739
▁గంటల	-740
▁ರ	-741
▁టె	-742
▁స్థ	-743
▁ూర్తి	-744
ాని	-745
▁నాయక	-746
▁ూరు	-747
▁నిర్ణ	-748
▁ాచ	-749
▁శాఖ	-750
▁లక్షల	-751
▁సే	-752
▁కె	-753
▁పల్లి	-754
▁పేర్క	-755
▁చేర	-756
▁అన	-757
▁ర్థ	-758
▁చెబుత	-759
▁అభ్యర	-760
▁గె	-761
▁జరుగ	-762
▁పరిస	-763
▁ಾ	-764
▁మహి	-765
▁కారణ	-766
▁ుర	-767
▁ినా	-768
▁బో	-769
▁ిందని	-770
డుత	-771
▁ఏపీ	-772
▁ాగ	-773
రుల	-774
ాలు	-775
▁్రమా	-776
▁తర	-777
ప్ర	-778
▁నో	-779
▁ుడి	-780
▁ేప	-781
▁ుడ	-782
▁తగ్గ	-783
▁మహిళ	-784
▁మండ	-785
▁ొన	-786
▁మెంట్	-787
▁పోటీ	-788
ందర	-789
▁ప్రస	-790
ంటే	-791
▁సై	-792
▁యత్	-793
▁హా	-794
▁'	-795
▁ాత్ర	-796
▁ంజ	-797
▁ృ	-798
▁వద్ద	-799
▁ెలుగు	-800
▁ఎన్	-801
▁ప్ల	-802
▁మాజీ	-803
▁అవుత	-804
ుతం	-805
▁్తుతం	-806
▁ెస్	-807
తర	-808
▁ిచ	-809
▁భారత	-810
▁ఇన్	-811
▁అయ్య	-812
▁భారత్	-813
▁నిర	-814
▁బ్	-815
▁షా	-816
▁మొద	-817
▁గి	-818
▁ఇండి	-819
▁ನ	-820
▁ంది	-821
▁ొచ్చ	-822
▁భి	-823
▁అలా	-824
▁సంస్థ	-825
లిచ	-826
▁కేట	-827
ిల్ల	-828
▁యత్న	-829
వత	-830
▁మంచి	-831
▁ఢిల్ల	-832
డీ	-833
▁్లీ	-834
▁ందులో	-835
▁ార్థ	-836
▁ిపోయ	-837
▁ిమ	-838
▁ا	-839
▁మ్	-840
▁ుని	-841
▁త్ర	-842
ము	-843
పై	-844
▁ుంద	-845
▁ిన్	-846
▁బ్యా	-847
▁ర్మ	-848
▁కల్లో	-849
తీయ	-850
▁ఎంపీ	-851
▁లీ	-852
▁ర్ష	-853
▁ేస	-854
▁తీవ	-855
▁విశ	-856
వంత్	-857
▁ేవంత్	-858
▁శాతం	-859
ంబర్	-860
▁తీవ్ర	-861
▁ధర	-862
▁ధాని	-863
▁ఇండియ	-864
▁వాడ	-865
▁పవ	-866
▁ాలో	-867
▁తెలు	-868
▁్టే	-869
గుల	-870
▁రిగిన	-871
▁మావేశ	-872
▁ఒక్క	-873
▁చ్చిన	-874
వీ	-875
▁ులకు	-876
▁లై	-877
▁్యాచ్	-878
▁ుండ	-879
▁మీద	-880
రీ	-881
▁కీల	-882
▁మూడు	-883
▁సందర	-884
▁రోగ	-885
▁తెలుస	-886
▁ించిన	-887
▁ేసు	-888
▁్రాంత	-889
▁డీపీ	-890
▁ాత్రం	-891
▁ఇస్త	-892
▁స్వా	-893
▁వెల్ల	-894
▁్ల	-895
▁ఉప	-896
▁ాట	-897
▁10	-898
▁!	-899
▁ఫి	-900
▁తేదీ	-901
▁కీలక	-902
▁రాశ	-903
▁ాల్స	-904
▁అన్ని	-905
▁వాళ్ల	-906
▁ాంత	-907
▁గుర్త	-908
▁ునే	-909
▁త్యే	-910
▁ఆధ	-911
▁కలిసి	-912
▁సూచ	-913
▁ుఖ్య	-914
▁త్యేక	-915
▁వర్	-916
▁పవన్	-917
▁మండల	-918
▁కవ	-919
▁దేశ్	-920
సాగ	-921
▁ొనసాగ	-922
▁ఘటన	-923
▁సాధ	-924
డుదల	-925
▁ిడుదల	-926
▁త్వ	-927
▁ఠ	-928
▁ఉద	-929
▁క్యా	-930
భా	-931
▁రంగ	-932
▁ದ	-933
▁ుకో	-934
▁్లా	-935
▁రోగ్య	-936
▁లతో	-937
▁రావ	-938
▁ట్టు	-939
▁మాత్ర	-940
విత	-941
▁పంప	-942
▁ీడియో	-943
చార	-944
▁ైసీ	-945
▁ంలోని	-946
▁ఉందని	-947
▁ార్క	-948
▁జర	-949
▁చో	-950
▁ండ్ల	-951
ియ	-952
కూ	-953
▁నియోజ	-954
▁దేవ	-955
శ్న	-956
▁్రశ్న	-957
ంగళ	-958
▁టికే	-959
▁ానని	-960
▁ాజా	-961
▁కారణం	-962
▁రైతుల	-963
▁్మ	-964
▁వచ్చే	-965
ృష్ట	-966
▁డ్ర	-967
డం	-968
జ్	-969
▁్రమాద	-970
▁వైపు	-971
టో	-972
త్య	-973
▁ైసీపీ	-974
▁్రధాన	-975
▁గో	-976
▁తెలిస	-977
▁లలో	-978
▁ెళ్ల	-979
▁్రి	-980
▁ైనా	-981
▁రక	-982
డారు	-983
▁కవర్గ	-984
▁దాని	-985
▁కర్	-986
▁్యం	-987
▁ించే	-988
▁ాలకు	-989
▁గురు	-990
▁వార	-991
▁ుఖ్యమ	-992
ఎస్	-993
▁ేష్	-994
ట్టు	-995
▁్యంలో	-996
▁ించుక	-997
▁ున	-998
▁చూప	-999
▁పడుత	-1000
గి	-1001
▁ವ	-1002
▁ాస్	-1003
▁ాప	-1004
ుడ	-1005
▁కారం	-1006
▁ି	-1007
▁అధ	-1008
▁ాన్	-1009
▁ిం	-1010
▁మస్	-1011
▁బయ	-1012
▁ివర	-1013
▁్భ	-1014
▁ెయి	-1015
▁్వా	-1016
▁కాదు	-1017
▁డించ	-1018
▁రెస్ట	-1019
▁పాల్గ	-1020
▁్రీ	-1021
▁ఊ	-1022
▁ుబ	-1023
వాస	-1024
▁ప్పటి	-1025
▁త్త	-1026
ష్ణ	-1027
▁డె	-1028
▁చిన్న	-1029
ెంబ	-1030
పత	-1031
▁తీర	-1032
▁కృష్ణ	-1033
▁నిల	-1034
▁కింద	-1035
▁అసెంబ	-1036
▁జూ	-1037
త్స	-1038
▁అవసర	-1039
▁వ్వ	-1040
▁కేసు	-1041
▁చై	-1042
కీయ	-1043
▁ాజకీయ	-1044
▁యం	-1045
▁్రప	-1046
▁ాల్సి	-1047
▁ాచారం	-1048
▁ఫో	-1049
▁ొత్తం	-1050
▁మృ	-1051
▁నుంది	-1052
▁ిల్	-1053
▁పరిశ	-1054
▁నుండి	-1055
రుక	-1056
▁వంటి	-1057
▁హీ	-1058
▁పేట	-1059
రిక	-1060
▁ೆ	-1061
ర్మ	-1062
▁్ష	-1063
▁ోయ	-1064
▁్రంలో	-1065
▁ిమర్శ	-1066
వ్	-1067
▁జరగ	-1068
▁్రపంచ	-1069
▁ుప	-1070
▁్థితి	-1071
▁్భంగా	-1072
▁ేపట్ట	-1073
▁చేరుక	-1074
గే	-1075
▁ା	-1076
▁నగర్	-1077
▁సర్	-1078
▁ఇంటి	-1079
▁ేలా	-1080
▁ోడ్	-1081
▁వేస	-1082
▁ంపె	-1083
వరి	-1084
▁లుగు	-1085
ివృ	-1086
▁ాంతాల	-1087
▁ిరు	-1088
▁చిత్ర	-1089
▁దగ్గ	-1090
త్మ	-1091
▁చర్చ	-1092
▁ికి	-1093
▁సంఘ	-1094
▁ంపెనీ	-1095
▁ఆదేశ	-1096
▁బాధ	-1097
▁నివాస	-1098
▁ఆల	-1099
▁బయట	-1100
▁ుస్త	-1101
▁లేదా	-1102
▁ముఖ్య	-1103
▁ిఫ	-1104
▁రల్	-1105
▁పలు	-1106
▁సోష	-1107
▁శి	-1108
▁అమ్మ	-1109
▁୍	-1110
▁ఆరో	-1111
▁తాను	-1112
▁మస్యల	-1113
▁జై	-1114
▁లోకి	-1115
▁పుర	-1116
▁ోదీ	-1117
▁ెంబర్	-1118
▁ాక	-1119
▁ಲ	-1120
గ్ర	-1121
▁ద్ధి	-1122
స్టు	-1123
క్ర	-1124
▁నిజ	-1125
▁తొలి	-1126
▁కపోవ	-1127
▁ారికి	-1128
▁ತ	-1129
▁ఎలా	-1130
▁సోషల్	-1131
▁అదే	-1132
▁అక్కడ	-1133
▁ేశ్వర	-1134
ాల్	-1135
▁బాల	-1136
▁వుత	-1137
▁ైల్	-1138
వర్	-1139
ణ్	-1140
▁తల	-1141
▁పెంచ	-1142
ార్	-1143
▁టికీ	-1144
▁పొంద	-1145
▁టం	-1146
▁ితే	-1147
▁అంటూ	-1148
▁ింపు	-1149
▁జాతీయ	-1150
▁ిచారణ	-1151
▁ున్నా	-1152
▁ఇతర	-1153
ాయి	-1154
▁విషయం	-1155
▁వ్యవ	-1156
▁ಕ	-1157
▁అభివృ	-1158
▁ేష	-1159
▁మని	-1160
▁లేక	-1161
▁అను	-1162
▁ఏడా	-1163
▁ఆరోప	-1164
▁దూ	-1165
▁డై	-1166
▁మేర	-1167
▁నేతలు	-1168
▁దగ్గర	-1169
▁ర్యలు	-1170
▁హీరో	-1171
▁ఫోన్	-1172
▁ంటే	-1173
▁లోనే	-1174
▁సంవత	-1175
▁స్పంద	-1176
▁మై	-1177
▁ొంద	-1178
▁ర్థిక	-1179
జు	-1180
▁ుకోవ	-1181
▁م	-1182
▁హత్య	-1183
▁ీర్	-1184
▁ఏడాది	-1185
▁ష్	-1186
▁ాదా	-1187
▁స్ట్ర	-1188
▁మాన	-1189
▁దాడి	-1190
▁ంతా	-1191
▁గాంధ	-1192
▁నేప	-1193
▁తెలియ	-1194
▁జార	-1195
▁బ్ర	-1196
న్స	-1197
▁ాడుత	-1198
▁ెక్ట	-1199
▁ిందే	-1200
▁గాంధీ	-1201
▁మెరిక	-1202
▁అలాగే	-1203
శాల	-1204
▁గౌ	-1205
▁ఇదే	-1206
▁అం	-1207
▁ుంటే	-1208
▁క్ల	-1209
▁అప్ప	-1210
▁రుణ	-1211
▁ాధ్య	-1212
▁⁬	-1213
▁నంత	-1214
▁్పష్ట	-1215
▁్తంగా	-1216
▁అంటే	-1217
▁పేరు	-1218
▁ిల్లల	-1219
▁దిగ	-1220
▁పెరిగ	-1221
▁ంపై	-1222
▁ಯ	-1223
▁ెడ్	-1224
▁తు	-1225
▁అది	-1226
ప్ట	-1227
▁ోధ	-1228
▁భ్య	-1229
▁రుగుల	-1230
▁అధ్య	-1231
▁వివర	-1232
▁ిలీ	-1233
టిని	-1234
▁ಸ	-1235
▁షన్	-1236
▁న్యా	-1237
▁వెంక	-1238
▁కాలం	-1239
▁భద్ర	-1240
▁ఆడ	-1241
▁యో	-1242
▁ిట్	-1243
▁సిద్ధ	-1244
▁చూడ	-1245
▁తరు	-1246
▁ెంట్	-1247
▁డిమా	-1248
▁అయిన	-1249
▁ର	-1250
▁ాజాగా	-1251
▁క్తుల	-1252
▁ప్రాజ	-1253
▁జే	-1254
▁సింగ్	-1255
▁ాప్	-1256
సే	-1257
▁ಗ	-1258
▁నగర	-1259
▁దృష్ట	-1260
సన	-1261
▁ంబ	-1262
▁క్షన్	-1263
▁రాశి	-1264
▁న్స్	-1265
▁ఇలా	-1266
▁శివ	-1267
▁ర్గ	-1268
▁ఇబ్బ	-1269
▁వ్యాఖ	-1270
▁ందుక	-1271
ట్టి	-1272
పోయ	-1273
▁ఆహ	-1274
▁ట్రా	-1275
▁ఉత్త	-1276
▁ియా	-1277
▁ాదాపు	-1278
▁ఇంట	-1279
▁మెంట	-1280
▁అమలు	-1281
▁ిట	-1282
ోళ	-1283
▁ాక్	-1284
▁త్తు	-1285
▁గతంలో	-1286
▁క్రమం	-1287
▁ార్డ	-1288
▁కూడ	-1289
▁ేరు	-1290
▁్తే	-1291
▁ఏళ్ల	-1292
▁పూర్	-1293
▁ందోళ	-1294
▁ఇటీ	-1295
▁ందోళన	-1296
▁ేసులో	-1297
▁20	-1298
▁ప్రజా	-1299
▁ాగంగా	-1300
మో	-1301
▁డబ్	-1302
▁అనేక	-1303
▁ేశ్	-1304
నం	-1305
▁ికల్	-1306
▁రీక్ష	-1307
▁ెట్	-1308
▁ఇటీవల	-1309
▁ాడుతూ	-1310
▁వారం	-1311
▁డబ్బు	-1312
▁ావ	-1313
▁నంతరం	-1314
▁హైక	-1315
▁వ్యవహ	-1316
▁గల	-1317
▁ఆఫ్	-1318
నివ	-1319
▁సొ	-1320
▁లెక్ట	-1321
▁మూవీ	-1322
▁ఎవర	-1323
▁కొట్ట	-1324
▁తేల	-1325
▁్యాంక	-1326
▁బడ	-1327
▁కౌ	-1328
▁మోదు	-1329
▁ోల	-1330
▁ేయ	-1331
▁ోద	-1332
▁జట్టు	-1333
▁వెంకట	-1334
▁ాలయ	-1335
▁ఆఫ	-1336
▁ہ	-1337
▁జి	-1338
▁ారా	-1339
▁ాను	-1340
▁భ్యుల	-1341
▁ెంటనే	-1342
▁ందుకే	-1343
▁శు	-1344
▁జె	-1345
▁వైఎస్	-1346
▁మళ్ల	-1347
▁వాద	-1348
▁ులను	-1349
మోద	-1350
▁ఫలి	-1351
▁తరువా	-1352
▁ఫలిత	-1353
▁ైంది	-1354
▁నేను	-1355
▁కొంత	-1356
▁ీల	-1357
▁ిష	-1358
▁ెత్త	-1359
▁స్వామ	-1360
▁రక్ష	-1361
▁ాదు	-1362
▁ముగ	-1363
▁ర్షాల	-1364
▁పోస్ట	-1365
▁నియ	-1366
▁మాట	-1367
▁స్త	-1368
▁్రె	-1369
▁ಂ	-1370
▁దారుల	-1371
▁ళ్	-1372
▁జారీ	-1373
▁ఆధార	-1374
క్తి	-1375
▁వివా	-1376
▁వెళ	-1377
▁ష్ట	-1378
ారు	-1379
▁నేర	-1380
▁ెల్	-1381
▁కల్ప	-1382
డుక	-1383
▁ాహు	-1384
ంజ	-1385
ేట	-1386
▁డిప	-1387
▁గిరి	-1388
▁చారం	-1389
▁ంట్ల	-1390
▁వర్గ	-1391
▁ినప్ప	-1392
▁చీ	-1393
ణా	-1394
▁పెరుగ	-1395
▁నేపథ	-1396
▁అంచ	-1397
▁భావ	-1398
▁బోత	-1399
▁కంటే	-1400
▁మొదటి	-1401
యోగ	-1402
▁వు	-1403
▁ఉత్తర	-1404
▁ఎక్	-1405
▁రాజ్	-1406
▁వైర	-1407
▁నోట	-1408
▁్యాణ్	-1409
▁్డారు	-1410
▁గొ	-1411
▁న్యాయ	-1412
▁ళ్ళ	-1413
▁జీవిత	-1414
▁ిస్తూ	-1415
▁ేట	-1416
▁రోప	-1417
▁ిర	-1418
▁ోత	-1419
▁్తూ	-1420
▁ప్రత	-1421
ుడు	-1422
▁గ్రహ	-1423
పాయల	-1424
▁లోక్	-1425
▁అంచనా	-1426
▁ూపాయల	-1427
▁పర్	-1428
▁15	-1429
▁్యక్ష	-1430
▁ొందరు	-1431
▁ఫొ	-1432
▁ఫొటో	-1433
▁ఫిర్య	-1434
▁డైర	-1435
▁పైన	-1436
▁తల్లి	-1437
▁ాలన్న	-1438
▁ర్ట	-1439
▁వైద్య	-1440
▁ుగ	-1441
▁గానే	-1442
▁పక్ష	-1443
▁వస	-1444
▁ఉదయం	-1445
▁ింప	-1446
▁్టేష	-1447
▁ిధ	-1448
▁ోష	-1449
▁ాది	-1450
▁క్టర్	-1451
రిగి	-1452
▁ుర్త	-1453
▁నేతల	-1454
▁హాజ	-1455
▁A	-1456
▁ఆఫీస	-1457
▁ిపోత	-1458
▁చెల్ల	-1459
▁ఆంధ	-1460
▁ుర్తు	-1461
▁ఫ్	-1462
▁ఆంధ్ర	-1463
▁ఉపయోగ	-1464
▁ిస్తే	-1465
▁కుల	-1466
▁దర్శన	-1467
▁ర్చ	-1468
▁ాహుల్	-1469
▁సర	-1470
▁ఎంత	-1471
▁న్యూ	-1472
▁ెస్ట్	-1473
పొ	-1474
▁నెలల	-1475
▁ర్ర	-1476
▁లైన్	-1477
▁డైరె	-1478
▁చేత	-1479
▁హాజర	-1480
▁ಮ	-1481
▁కాగా	-1482
▁ార్పు	-1483
బీ	-1484
▁డాక్ట	-1485
▁ివరాల	-1486
▁జనసే	-1487
▁భాగ	-1488
▁డ్డ	-1489
▁జనసేన	-1490
▁బంధ	-1491
రేక	-1492
▁హిస్త	-1493
▁మేరకు	-1494
▁సంఖ్య	-1495
▁సాగ	-1496
▁పార్ల	-1497
▁ర్క	-1498
▁అతని	-1499
▁మార్చ	-1500
▁ిన్న	-1501
▁ాలుగు	-1502
▁ొంది	-1503
▁నిలిచ	-1504
▁వేద	-1505
▁ఆది	-1506
▁తరల	-1507
▁ర్ణ	-1508
▁టికె	-1509
▁్రక	-1510
▁మరింత	-1511
▁రెండో	-1512
▁నల	-1513
▁ామ్	-1514
▁టంతో	-1515
▁వాటి	-1516
▁నష్ట	-1517
▁క్రిక	-1518
▁్డ	-1519
నుక	-1520
▁న్ని	-1521
▁సంగ	-1522
▁ిక్క	-1523
▁్టార్	-1524
▁ిడ	-1525
▁ార్జ	-1526
▁ంక	-1527
▁ఉండే	-1528
▁ోర	-1529
▁ందర	-1530
▁వంత	-1531
▁తిరేక	-1532
▁సోమ	-1533
▁కూల	-1534
▁అందు	-1535
▁రోపణ	-1536
▁ఇంక	-1537
▁హో	-1538
▁్థుల	-1539
▁ాధ	-1540
▁పాలన	-1541
తావ	-1542
▁వాతావ	-1543
▁ిలో	-1544
▁సీట్ల	-1545
▁ాత్రి	-1546
▁యోగ	-1547
▁ుమ	-1548
▁ఏర్పడ	-1549
▁ంటూ	-1550
సుక	-1551
▁నంద	-1552
▁ోత్స	-1553
్త	-1554
నల్	-1555
▁12	-1556
ంత్ర	-1557
▁మళ్లీ	-1558
▁కేటాయ	-1559
▁వార్	-1560
▁హెచ్	-1561
▁ప్పుడ	-1562
▁రువు	-1563
▁రోపణల	-1564
▁మిషన్	-1565
▁ుష	-1566
▁యాత్ర	-1567
▁ేద	-1568
▁ోలీ	-1569
▁ోర్ట	-1570
▁్స	-1571
▁ీని	-1572
▁ఎదు	-1573
▁మర	-1574
▁ినీ	-1575
▁్లి	-1576
▁శాంత	-1577
▁ఎల్	-1578
▁్షుడు	-1579
▁ేవా	-1580
▁యించ	-1581
▁ఏం	-1582
▁ాట్	-1583
▁ఎఫ్	-1584
▁టై	-1585
▁నర్	-1586
▁30	-1587
▁ాధ్యత	-1588
▁ిల	-1589
▁ంతో	-1590
▁ంలోకి	-1591
▁ుజ	-1592
▁ంట్	-1593
▁బస్	-1594
▁ఉంటే	-1595
▁పాత్ర	-1596
▁కష్ట	-1597
▁దర	-1598
▁అధ్యక	-1599
▁సిబ్బ	-1600
▁ಡ	-1601
▁లేని	-1602
▁ిరిగి	-1603
▁్సర	-1604
▁అనుక	-1605
▁వైరల్	-1606
▁ైట్	-1607
▁భార్య	-1608
▁ఆలయ	-1609
▁్రకటన	-1610
▁ిగా	-1611
▁కౌంట	-1612
టర్	-1613
▁ఐదు	-1614
▁మూడ	-1615
▁ట్వ	-1616
▁ంత్ర	-1617
▁్థిత	-1618
▁و	-1619
▁బీసీ	-1620
▁ార్త	-1621
▁వర్ష	-1622
▁ార్కె	-1623
▁కర్త	-1624
▁ద్దతు	-1625
▁యాద	-1626
▁కమి	-1627
▁ీన్	-1628
ద్దర	-1629
▁పన	-1630
▁ఇక్కడ	-1631
▁ెక్టు	-1632
▁/	-1633
▁n	-1634
▁పండ	-1635
ణాట	-1636
▁ద్ధ	-1637
▁అత్య	-1638
▁కట్ట	-1639
▁ిట్ట	-1640
▁డిస	-1641
▁ామన్న	-1642
▁గణ	-1643
▁తను	-1644
▁సాయ	-1645
▁డమ	-1646
▁సౌ	-1647
▁్యు	-1648
▁విజయం	-1649
▁ోడీ	-1650
▁ఉంచ	-1651
ణాటక	-1652
▁్ణాటక	-1653
▁కీయ	-1654
▁సీపీ	-1655
▁ంట్లో	-1656
జన	-1657
లోచ	-1658
▁ఆలోచ	-1659
▁దని	-1660
▁ంద్ర	-1661
یں	-1662
నుగ	-1663
▁వేయ	-1664
▁నియోగ	-1665
యాణ	-1666
▁్రయాణ	-1667
▁్ని	-1668
▁ఏపీలో	-1669
▁ిద	-1670
▁ువుల	-1671
ుక్ర	-1672
▁శుక్ర	-1673
▁ిశ	-1674
▁క్కడి	-1675
▁వస్థ	-1676
య్	-1677
▁మార్గ	-1678
▁ాటు	-1679
▁పూజ	-1680
▁బుల్	-1681
▁ాడని	-1682
▁మంగళ	-1683
▁ర్న	-1684
▁ట్టి	-1685
▁జ్ఞ	-1686
▁విన	-1687
▁కమిటీ	-1688
▁పాట	-1689
▁్రం	-1690
ీల	-1691
▁న్నీ	-1692
▁ఎక్కడ	-1693
▁సహాయ	-1694
▁పను	-1695
▁ోలు	-1696
▁యువ	-1697
▁ైగా	-1698
▁ిందిత	-1699
▁ెళ్లి	-1700
▁ీనియ	-1701
▁ోలీస్	-1702
▁t	-1703
▁మొదల	-1704
▁నుమ	-1705
▁ఎక్స్	-1706
▁దె	-1707
▁దక్క	-1708
▁కిలో	-1709
▁ీమ్	-1710
▁భిమాన	-1711
▁విశ్వ	-1712
▁కీయాల	-1713
▁ప్లా	-1714
▁తనకు	-1715
▁క్షి	-1716
▁సీబీ	-1717
▁చట్ట	-1718
▁నాగ	-1719
▁్రమ	-1720
▁ోడ్డు	-1721
▁భూమి	-1722
▁రిష్	-1723
▁దర్శక	-1724
▁మహిళల	-1725
▁బ్యాట	-1726
▁ద్దరు	-1727
▁్రూ	-1728
▁11	-1729
▁్పు	-1730
▁ులో	-1731
▁నడ	-1732
▁హెచ్చ	-1733
▁చోటు	-1734
▁ుల్	-1735
▁ఆత్మ	-1736
ేమ	-1737
▁పనులు	-1738
▁సార్ల	-1739
▁ాలంటే	-1740
▁س	-1741
డుల	-1742
▁ుల్లో	-1743
▁ఇంకా	-1744
▁రాజు	-1745
▁పర్య	-1746
▁బెంగళ	-1747
▁ర్త	-1748
విస	-1749
▁ైర్	-1750
▁త్య	-1751
▁ుక్క	-1752
▁ర్స్	-1753
▁కూట	-1754
▁پ	-1755
▁ారన్న	-1756
▁ాయ్	-1757
▁రహ	-1758
కిస	-1759
▁సంత	-1760
▁పాకిస	-1761
వలం	-1762
▁ీలో	-1763
▁కేవలం	-1764
▁కలిగ	-1765
▁పరిధి	-1766
▁విస్త	-1767
▁చు	-1768
▁వేగ	-1769
▁రగ	-1770
▁నవ	-1771
▁శుభ	-1772
▁భావిస	-1773
▁ేమ	-1774
▁త్వం	-1775
▁ీనియర	-1776
▁ోక	-1777
▁ఆరు	-1778
స్య	-1779
▁సమస్య	-1780
▁తిర	-1781
▁కూటమి	-1782
▁వీర	-1783
▁ర్లు	-1784
▁రవ	-1785
▁వో	-1786
▁నాథ	-1787
▁బౌ	-1788
▁నాడు	-1789
▁ుకుంట	-1790
▁దూరం	-1791
▁ైల్వే	-1792
▁ైజ	-1793
▁వేశ	-1794
▁ఆదివ	-1795
▁వచ్చి	-1796
▁వృ	-1797
▁ేధ	-1798
▁బాధిత	-1799
▁న్ను	-1800
▁కన	-1801
▁ేజీ	-1802
▁ోందని	-1803
▁తమి	-1804
▁రిప	-1805
▁ర్వ	-1806
▁హింద	-1807
▁ప్లే	-1808
▁ారిని	-1809
▁ార్ట	-1810
▁େ	-1811
▁ీనా	-1812
▁ేజ్	-1813
▁సరి	-1814
▁రోడ్	-1815
▁ెయిల్	-1816
▁ిబ	-1817
▁మృతి	-1818
▁కం	-1819
▁ిలి	-1820
▁నిమి	-1821
▁ాళ	-1822
▁ఖర్చ	-1823
టర్ల	-1824
▁సిద్ద	-1825
▁సుప్ర	-1826
▁గూ	-1827
▁ిటీ	-1828
▁సన్	-1829
▁ానీ	-1830
మల	-1831
▁ధరల	-1832
▁పోరా	-1833
▁్రవేశ	-1834
▁ాయిలో	-1835
▁మోహ	-1836
▁అంశ	-1837
యారు	-1838
▁మహా	-1839
▁దుర్క	-1840
▁సూర్య	-1841
▁ేక్ష	-1842
▁ఫ్యా	-1843
▁బస్సు	-1844
▁జీవ	-1845
▁నిధ	-1846
▁ేది	-1847
▁ఫీ	-1848
▁రమ	-1849
▁తమిళ	-1850
▁రిస్త	-1851
▁నటి	-1852
▁చ్	-1853
▁విధాన	-1854
▁କ	-1855
▁నని	-1856
▁ఎంతో	-1857
▁కొనుగ	-1858
ాన్య	-1859
▁ధాన్య	-1860
▁చ్చు	-1861
▁ారాయ	-1862
▁భిప్ర	-1863
▁14	-1864
▁హర	-1865
▁తాము	-1866
▁ైల	-1867
▁వరద	-1868
▁్థాయి	-1869
یا	-1870
ికి	-1871
▁సొంత	-1872
▁జూన్	-1873
▁మీరు	-1874
▁కాద	-1875
▁దేశాల	-1876
▁నై	-1877
▁ిరుమల	-1878
▁తిని	-1879
▁బాగా	-1880
ఖల	-1881
▁ారాయణ	-1882
▁బహ	-1883
▁ిలీజ్	-1884
లువ	-1885
▁చివరి	-1886
▁విధ	-1887
▁యర్	-1888
▁టా	-1889
▁దొ	-1890
▁్న	-1891
▁తొల	-1892
▁బట్టి	-1893
▁ొని	-1894
ర్వ	-1895
▁అంతే	-1896
▁మరియ	-1897
▁ాలే	-1898
▁a	-1899
▁అర్	-1900
▁ఓట్ల	-1901
విధ	-1902
▁గ్యా	-1903
▁50	-1904
▁లపై	-1905
▁వచ్చు	-1906
ినే	-1907
▁ోదా	-1908
▁నాటి	-1909
▁పక్క	-1910
▁్తాన్	-1911
▁ాటులో	-1912
▁ఓడ	-1913
▁్రచార	-1914
▁ఒకర	-1915
▁అందుబ	-1916
▁ప్రేమ	-1917
▁వివిధ	-1918
▁R	-1919
▁సంజ	-1920
▁వెళ్త	-1921
▁ోన్	-1922
▁పథ	-1923
▁గుండ	-1924
▁మవ	-1925
▁ಲ್	-1926
కూల	-1927
▁ొక్క	-1928
▁దిల	-1929
▁కోల	-1930
▁బుధ	-1931
▁ుతూ	-1932
▁్యలు	-1933
▁డియ	-1934
▁మరియు	-1935
▁అక్ర	-1936
▁రిట	-1937
▁విర	-1938
▁ార్చ	-1939
▁ర్ధ	-1940
▁నీటి	-1941
▁వరకూ	-1942
▁ైవే	-1943
▁భావం	-1944
▁యన	-1945
▁చర్య	-1946
▁ుచ	-1947
▁టో	-1948
▁భద్రత	-1949
వార	-1950
▁ఖా	-1951
▁ఆశ	-1952
▁సీసీ	-1953
▁ర్కార	-1954
▁ేనే	-1955
▁ఆహార	-1956
▁సర్వే	-1957
▁ెర	-1958
▁మవుత	-1959
▁ంభ	-1960
▁ొప్ప	-1961
▁ఖర్చు	-1962
▁వేదిక	-1963
▁ంట్ర	-1964
▁నింగ్	-1965
▁లం	-1966
▁పాద	-1967
ూర	-1968
▁గమ	-1969
▁ుకుని	-1970
ముఖ	-1971
▁చైర్మ	-1972
▁్రముఖ	-1973
జా	-1974
▁దండ	-1975
▁కప్	-1976
▁సోమవ	-1977
▁అక్రమ	-1978
▁ీబ	-1979
▁రద్	-1980
▁కర్తల	-1981
▁భవ	-1982
▁అయ	-1983
▁ీచ	-1984
▁బౌల	-1985
▁ఫ్ల	-1986
▁నిధుల	-1987
▁శిక్ష	-1988
▁జైలు	-1989
▁రైతు	-1990
▁క్షిణ	-1991
▁ేళ్ల	-1992
▁అనేది	-1993
▁రిష్క	-1994
ామీ	-1995
▁హామీ	-1996
▁్తు	-1997
▁తొలగ	-1998
▁ుండగా	-1999
▁నుగ	-2000
▁ోహ	-2001
▁ర్గాల	-2002
▁విమాన	-2003
▁సెప్ట	-2004
▁ఫ్ర	-2005
▁ిధంగా	-2006
▁తినిధ	-2007
▁ెన్స్	-2008
▁లోక	-2009
▁త్తి	-2010
▁్యాండ	-2011
ినేత	-2012
▁న్య	-2013
▁బిజ	-2014
▁వీరి	-2015
▁ధినేత	-2016
▁25	-2017
▁న్ల	-2018
▁ాటిని	-2019
▁పురం	-2020
▁క్రియ	-2021
▁ాధారణ	-2022
▁వయ	-2023
▁24	-2024
▁లువు	-2025
▁ింట	-2026
▁అతి	-2027
▁ప్రభా	-2028
▁ఫ్ట	-2029
▁స్ట్	-2030
▁డమే	-2031
▁అండ్	-2032
▁నివే	-2033
▁ముంబ	-2034
▁మల్ల	-2035
▁ిష్ట	-2036
▁ొడ	-2037
▁ిష్	-2038
▁ీక	-2039
▁రకాల	-2040
▁ంగ్	-2041
▁ెక్	-2042
▁నివేద	-2043
▁సాయంత	-2044
▁నుకూల	-2045
▁ఎల	-2046
▁సూప	-2047
▁ిద్యా	-2048
▁ెగ	-2049
▁వేళ	-2050
▁ఇజ	-2051
▁ూల	-2052
▁ిజర్వ	-2053
▁ఇజ్ర	-2054
▁్స్	-2055
▁ండిపడ	-2056
▁సభ్య	-2057
▁ియల్	-2058
▁న్స	-2059
▁సామ	-2060
▁ిమా	-2061
▁ీస్	-2062
▁బయటకు	-2063
▁డే	-2064
▁విచార	-2065
▁ిస	-2066
▁ఎన్న	-2067
▁సంక్ష	-2068
▁ిల్లు	-2069
▁ఎయి	-2070
▁లర్	-2071
▁ేస్త	-2072
▁ఏక	-2073
▁క్టో	-2074
▁ంగారం	-2075
▁్వామి	-2076
జున	-2077
▁ీమ	-2078
▁పథక	-2079
▁ర్జున	-2080
▁గడ	-2081
▁వల	-2082
▁ీల్	-2083
▁ీర	-2084
▁పోయ	-2085
▁ీవు	-2086
▁ాండ	-2087
▁తండ	-2088
▁ాయె	-2089
▁వీటి	-2090
▁టే	-2091
▁యువత	-2092
▁లుసుక	-2093
▁కంప	-2094
▁ిస్	-2095
ాలి	-2096
▁నియమ	-2097
▁దర్య	-2098
▁య్యే	-2099
▁విక్ర	-2100
▁ొచ్చు	-2101
▁నమోద	-2102
▁మంగళవ	-2103
▁ఉంద	-2104
▁శనివ	-2105
▁నక	-2106
▁త్వర	-2107
▁సిటీ	-2108
▁స్తుల	-2109
▁టీసీ	-2110
▁మృత	-2111
▁ూత	-2112
▁వాహ	-2113
▁ేరుతో	-2114
▁ీవుడ్	-2115
▁వ్	-2116
▁కవిత	-2117
▁ఓవర్	-2118
▁ిజన్	-2119
▁ులతో	-2120
▁ాప్తు	-2121
▁కృత	-2122
▁లీడ	-2123
▁నేడు	-2124
▁ర్మిక	-2125
▁S	-2126
▁వుల	-2127
▁క్కడ	-2128
▁తేదీన	-2129
▁గురువ	-2130
ెంట	-2131
▁ఒకే	-2132
▁వాల్	-2133
▁దెబ్బ	-2134
▁పాత	-2135
▁ాలనే	-2136
▁గెలిచ	-2137
▁దాడుల	-2138
▁క్టోబ	-2139
▁ఫె	-2140
▁ేసులు	-2141
▁మారు	-2142
▁ప్రియ	-2143
రీర	-2144
▁టెక్	-2145
▁నాలు	-2146
▁శరీర	-2147
▁నం	-2148
▁ంధ	-2149
▁సిం	-2150
▁మణ	-2151
▁ిచ్చ	-2152
▁రద్దు	-2153
▁ోత్సవ	-2154
▁్ట్ర	-2155
▁ن	-2156
▁ఏద	-2157
▁చీఫ్	-2158
▁ార్చి	-2159
▁విలువ	-2160
▁మోహన్	-2161
▁ారిటీ	-2162
▁సింగ	-2163
▁ంక్ష	-2164
▁గెల	-2165
▁రియా	-2166
▁నిపోయ	-2167
▁దశ	-2168
▁లస	-2169
▁ెల్సీ	-2170
▁ఇంత	-2171
▁ిగత	-2172
▁ఓటు	-2173
▁జర్	-2174
▁స్వీ	-2175
▁దళ	-2176
▁ేల	-2177
▁వస్తే	-2178
▁ాల్ప	-2179
▁ఎకర	-2180
▁మనం	-2181
▁ిటల్	-2182
▁రిత్ర	-2183
▁సంజయ్	-2184
▁ాయెల్	-2185
▁బల	-2186
▁రాయ	-2187
▁ేక్	-2188
▁ఇంటర్	-2189
▁‍	-2190
▁అడి	-2191
▁ికు	-2192
▁ిండ	-2193
▁ాత్మ	-2194
▁ీష్	-2195
▁యిన్	-2196
▁నరే	-2197
▁పనుల	-2198
▁ుబడ	-2199
▁ప్షన్	-2200
▁అభి	-2201
▁స్మ	-2202
▁ఎత్త	-2203
▁బ్ద	-2204
▁ందరూ	-2205
▁నియా	-2206
▁ుద	-2207
▁భూమ	-2208
▁మండలం	-2209
▁ب	-2210
▁ت	-2211
▁ెక్క	-2212
▁భర్త	-2213
▁ూర	-2214
▁ప్రొ	-2215
▁ాస	-2216
సారి	-2217
▁ిప్	-2218
ర్ప	-2219
▁18	-2220
▁ర్మి	-2221
▁ాల్పడ	-2222
▁సహా	-2223
▁పుట్ట	-2224
▁్రుల	-2225
▁రామ్	-2226
▁వరు	-2227
▁ిక్స్	-2228
టిష	-2229
▁్గు	-2230
▁తది	-2231
▁ಪ	-2232
▁రైలు	-2233
▁విశా	-2234
▁్యాన	-2235
▁గడ్డ	-2236
▁ీక్ష	-2237
▁ెన్స	-2238
▁్యూటీ	-2239
▁నీరు	-2240
▁టింగ్	-2241
▁వన్	-2242
▁విశాఖ	-2243
▁కిత్స	-2244
▁అంబ	-2245
▁కూడద	-2246
▁డ్రై	-2247
▁ించడ	-2248
▁ుత్	-2249
▁ప్పు	-2250
▁్థాన్	-2251
▁నామ	-2252
▁ురాల	-2253
▁్యామ	-2254
▁వివాద	-2255
▁సంతో	-2256
▁కోల్ప	-2257
▁అందుక	-2258
▁రాస	-2259
ర్ట	-2260
▁ిర్	-2261
▁ొంట	-2262
▁నెలక	-2263
▁పదవి	-2264
▁తండ్ర	-2265
▁త్యంత	-2266
త్తి	-2267
▁ోస్టు	-2268
▁అంతర్	-2269
▁విదేశ	-2270
▁ోన్న	-2271
▁ీయ	-2272
▁తదితర	-2273
▁ాపూ	-2274
▁ఆక	-2275
▁ిడ్	-2276
▁అయినా	-2277
▁సంతోష	-2278
▁జరిగే	-2279
▁ఏమ	-2280
▁దారి	-2281
▁ాడారు	-2282
▁ల్లు	-2283
▁ోప	-2284
▁డర్	-2285
▁షాక	-2286
▁ేంద	-2287
▁నుంచ	-2288
▁ుష్	-2289
▁ీలి	-2290
▁రేట్	-2291
▁మహిళా	-2292
▁P	-2293
రించ	-2294
▁ంకు	-2295
▁ంత్రు	-2296
▁చుట్ట	-2297
▁చైనా	-2298
▁లెక్క	-2299
▁యుద్ధ	-2300
▁T	-2301
▁లభ	-2302
▁న్నత	-2303
▁C	-2304
▁ఆసు	-2305
జె	-2306
▁సార	-2307
▁ఎస్సీ	-2308
▁వయస	-2309
▁్థల	-2310
▁ింపుల	-2311
▁ీకర	-2312
▁స్వీక	-2313
▁ివరకు	-2314
▁ీబీసీ	-2315
▁నీళ్ల	-2316
▁13	-2317
వర్న	-2318
▁గవర్న	-2319
▁నిరసన	-2320
▁ఫర్	-2321
▁సహక	-2322
▁ైన్	-2323
▁ెస్ట	-2324
▁కన్న	-2325
▁బుధవ	-2326
▁క్యూ	-2327
▁ఆసుపత	-2328
▁వినిప	-2329
▁సూపర్	-2330
▁మారుత	-2331
▁శక్తి	-2332
▁నలు	-2333
▁కాపా	-2334
▁ాయాల	-2335
▁ోరు	-2336
▁నమ్మ	-2337
▁దర్శి	-2338
▁ేషనల్	-2339
▁ుద్ధ	-2340
▁ఎంప	-2341
▁వేడుక	-2342
▁ధర్మ	-2343
▁ారతీయ	-2344
▁ోమ	-2345
▁యోజన	-2346
▁ల్లి	-2347
▁ైవేట	-2348
▁అధిక	-2349
▁్సరాల	-2350
▁17	-2351
▁భూముల	-2352
▁ీలించ	-2353
▁రాజ్య	-2354
▁పూర	-2355
▁మున్స	-2356
▁రంగల్	-2357
▁్లాన్	-2358
▁రేషన్	-2359
▁16	-2360
▁ెంటర్	-2361
▁తీరు	-2362
▁ధన	-2363
▁ారో	-2364
▁ಲ್ಲ	-2365
▁ర్యటన	-2366
▁ంస	-2367
▁సీఐ	-2368
▁ాస్ట	-2369
▁్రాల	-2370
▁కాపాడ	-2371
▁తమకు	-2372
▁జాగ్ర	-2373
▁..	-2374
▁ోడ	-2375
▁జ్జ	-2376
▁నాకు	-2377
▁ాసన	-2378
▁کے	-2379
▁ేస్	-2380
▁ಬ	-2381
▁కూర	-2382
▁ఎయిర్	-2383
▁స్టర్	-2384
▁ی	-2385
▁నరేంద	-2386
▁ాపూర్	-2387
▁ొత్తు	-2388
▁ఈసారి	-2389
▁ాఫ	-2390
ప్రి	-2391
▁్నా	-2392
▁ఏప్రి	-2393
▁ాలలో	-2394
▁ీం	-2395
▁ట్రై	-2396
▁వరుస	-2397
▁ఎదురు	-2398
▁ర్మిల	-2399
▁మన్	-2400
▁సంచ	-2401
▁కపోతే	-2402
▁ఆన్	-2403
▁ాంబ	-2404
▁తిన	-2405
▁్వత	-2406
▁పేద	-2407
▁ోగ	-2408
▁ంప్ర	-2409
▁కామె	-2410
▁లువుర	-2411
▁త్స	-2412
▁ంచ్	-2413
▁దేళ్ల	-2414
▁రల్డ్	-2415
▁న్మ	-2416
▁ಟ	-2417
▁లాభ	-2418
▁పిటిష	-2419
▁ନ	-2420
▁సుర	-2421
▁22	-2422
▁ఆద	-2423
▁ూట	-2424
▁అసలు	-2425
▁ెట్ట	-2426
▁వాస	-2427
▁ిరీ	-2428
▁ేవారు	-2429
▁ీంక	-2430
▁s	-2431
▁సాయి	-2432
▁ବ	-2433
▁దాఖల	-2434
▁ఆస	-2435
▁పరిచ	-2436
▁ఎస్పీ	-2437
▁యాణ	-2438
▁అమర	-2439
▁ముఖ	-2440
▁ురా	-2441
▁ేటి	-2442
▁ోవడ	-2443
▁లేకప	-2444
▁ేందర్	-2445
▁మిక	-2446
▁ూడ	-2447
▁మెడ	-2448
▁రాం	-2449
▁లీడర్	-2450
▁ాలంలో	-2451
▁ସ	-2452
▁ైక్	-2453
ఖా	-2454
▁ీశ్	-2455
▁్రే	-2456
▁మద్య	-2457
▁د	-2458
▁విక	-2459
ఖాస	-2460
▁کی	-2461
▁పది	-2462
▁బడ్	-2463
▁్యాల	-2464
▁రణ్	-2465
▁ిరీస్	-2466
▁ాఠ	-2467
▁అమి	-2468
▁ంప్	-2469
▁కొండ	-2470
▁ేర	-2471
▁ఎంపిక	-2472
▁ితో	-2473
▁ీటిని	-2474
▁లహ	-2475
▁నాథ్	-2476
▁దరఖాస	-2477
▁ఈరో	-2478
▁బ్ల	-2479
▁హిత	-2480
▁ౌన్	-2481
▁సేకర	-2482
▁మెరుగ	-2483
▁ఐటీ	-2484
▁గౌడ	-2485
▁బడ్జె	-2486
▁ూనే	-2487
▁వేగం	-2488
▁మొదలు	-2489
▁ిణ	-2490
▁దిన	-2491
▁ారీ	-2492
▁మయ్య	-2493
▁ియేట	-2494
పం	-2495
▁ాహ్	-2496
మ్మం	-2497
▁ఖమ్మం	-2498
▁రక్షణ	-2499
▁ుణ	-2500
▁నిరు	-2501
▁గౌర	-2502
▁ంగార	-2503
▁ంచుక	-2504
▁ేర్ల	-2505
▁గ్జ	-2506
▁మైంది	-2507
▁ر	-2508
▁ాయింట	-2509
▁శ్రయ	-2510
▁ఈరోజు	-2511
▁చ్చని	-2512
▁నటించ	-2513
▁క్వ	-2514
▁జాత	-2515
ూల్	-2516
▁పట్టణ	-2517
▁్కూల్	-2518
▁ల్ప	-2519
▁స్య	-2520
▁ియో	-2521
▁ుక్	-2522
▁్కర్	-2523
▁ج	-2524
▁నిత	-2525
▁ఉపా	-2526
▁ిత్త	-2527
▁్రూప్	-2528
▁కాదని	-2529
▁కెప్ట	-2530
▁ార్ట్	-2531
రియ	-2532
▁ేట్	-2533
▁ీరియ	-2534
▁ీన	-2535
ra	-2536
▁ఎవ	-2537
▁میں	-2538
▁ఇంగ	-2539
▁ఇవా	-2540
▁ాక్స	-2541
▁ారుల	-2542
▁ందులు	-2543
▁ార్మ	-2544
▁బ్బ	-2545
▁వరి	-2546
▁శంక	-2547
▁శ్చ	-2548
▁ఉపాధ	-2549
▁వినీ	-2550
▁ఒకటి	-2551
▁కథ	-2552
▁ఇళ్ల	-2553
▁ఉమ్మ	-2554
▁ంప్రద	-2555
▁ఎకరాల	-2556
▁తయారు	-2557
▁్యూస్	-2558
▁ఈడీ	-2559
▁రెంట	-2560
▁ంశ	-2561
▁ాబ్	-2562
▁ఒప్ప	-2563
▁ిఫిక	-2564
▁షె	-2565
▁జ్య	-2566
▁ుద్ద	-2567
▁ౌన్స	-2568
▁విడ	-2569
▁ాబి	-2570
▁సేవల	-2571
▁చా	-2572
▁గాయ	-2573
▁దేహ	-2574
▁బర్	-2575
▁ిగ్ర	-2576
ీసు	-2577
▁లగ	-2578
▁ତ	-2579
▁నర	-2580
▁సియ	-2581
వేక	-2582
▁ారణ	-2583
▁వివేక	-2584
▁మూడో	-2585
▁లుపు	-2586
▁ల్స్	-2587
▁వినీత	-2588
▁మల	-2589
▁నుమాన	-2590
ీట	-2591
▁ీవ	-2592
▁సమీ	-2593
▁్పె	-2594
▁ల్లం	-2595
▁సైతం	-2596
▁ఆలోచన	-2597
▁ఇవాళ	-2598
▁ీచర్	-2599
▁బృ	-2600
▁గుంట	-2601
▁గమన	-2602
▁పతి	-2603
▁లిప	-2604
▁ందర్	-2605
▁ముంబై	-2606
▁ఎంద	-2607
షన	-2608
▁ారనే	-2609
▁మీటర్	-2610
▁ఉమ్మడ	-2611
పుణ	-2612
▁ర్జ	-2613
▁ఉండగా	-2614
▁నిపుణ	-2615
▁ఫైన	-2616
▁హెల	-2617
▁వంబర్	-2618
▁వార్డ	-2619
▁ీనామా	-2620
▁లియ	-2621
▁ఆయనకు	-2622
▁ఉన్నా	-2623
▁గస్టు	-2624
▁ಹ	-2625
▁డుత	-2626
▁ాన్స్	-2627
▁B	-2628
పొంద	-2629
▁ేలి	-2630
▁ఇంగ్ల	-2631
▁ాత్మక	-2632
▁ూపొంద	-2633
దుపు	-2634
▁చదు	-2635
▁వాల	-2636
▁ాకా	-2637
▁క్ట్	-2638
▁అదుపు	-2639
▁వర్షం	-2640
▁ಳ	-2641
రిప	-2642
▁అల	-2643
▁ప్త	-2644
▁జరిప	-2645
▁ేషన్ల	-2646
▁సబ్	-2647
▁ల్డ్	-2648
▁సాయం	-2649
▁ట్వీట	-2650
▁ఇండ	-2651
▁పట్ల	-2652
▁ీన్ని	-2653
లన	-2654
▁కనీస	-2655
▁ుచుక	-2656
▁య్	-2657
▁సభలో	-2658
▁్ధ	-2659
లుప	-2660
▁గెలుప	-2661
▁పెడుత	-2662
▁తాగ	-2663
▁్వర	-2664
▁ిషన్	-2665
▁జనవరి	-2666
▁అప	-2667
▁ఘన	-2668
▁ాబితా	-2669
▁నల్	-2670
▁ుమా	-2671
▁డ్రైవ	-2672
▁బెట్ట	-2673
▁్యంగా	-2674
▁తయ	-2675
▁ొంగ	-2676
▁i	-2677
▁ఫర	-2678
▁ొండ	-2679
▁సక్తి	-2680
▁సమీపం	-2681
▁నుభ	-2682
▁ితంగా	-2683
▁టాల	-2684
▁నీయ	-2685
▁తయార	-2686
▁సామా	-2687
▁ానం	-2688
▁ఆవ	-2689
▁ద్దు	-2690
▁వెనుక	-2691
▁దాన	-2692
▁ార్పొ	-2693
▁ాలేజీ	-2694
▁ఆస్	-2695
▁ఐపీ	-2696
▁సమా	-2697
▁ంబర్	-2698
▁ింటి	-2699
▁యాణిక	-2700
▁ిగ్రహ	-2701
▁ధీ	-2702
▁హిళ	-2703
▁ఎందుక	-2704
చిత	-2705
▁అడు	-2706
▁ఉచిత	-2707
▁ీత	-2708
▁ోట	-2709
వంట	-2710
▁టువంట	-2711
▁ెన్సీ	-2712
▁ఉద్య	-2713
▁నస	-2714
▁ంటి	-2715
▁ౌండ్	-2716
▁ఇద్దర	-2717
▁సామాజ	-2718
▁ాలపై	-2719
▁ిమి	-2720
▁ఆస్పత	-2721
▁ನ್	-2722
▁మంత్ర	-2723
▁ీడ	-2724
▁ీట్	-2725
▁ఉత	-2726
టం	-2727
▁ఉత్ప	-2728
▁ార్తల	-2729
▁ఎన్ట	-2730
▁పూర్త	-2731
నాల	-2732
▁ోయి	-2733
▁రణించ	-2734
▁నిమిష	-2735
▁ేక్షక	-2736
▁ాంగ్	-2737
▁ఉద్యమ	-2738
▁షే	-2739
▁గ్న	-2740
▁ెబ్	-2741
▁ప్తి	-2742
▁ిరుపత	-2743
▁ा	-2744
▁ాస్త	-2745
▁ూహ	-2746
▁19	-2747
▁దిర	-2748
▁్చి	-2749
▁40	-2750
▁రస	-2751
▁ెడ	-2752
▁ోన	-2753
▁గర్	-2754
▁బీఆర్	-2755
▁కోట	-2756
▁భవన	-2757
▁మంజ	-2758
▁వది	-2759
▁్బ	-2760
▁యువక	-2761
▁ుడిగా	-2762
▁ୁ	-2763
▁ెట	-2764
▁ూర్త	-2765
▁లేఖ	-2766
▁ైమ్	-2767
▁ఫ్ట్	-2768
ha	-2769
▁ళి	-2770
▁ముర	-2771
▁ీతా	-2772
▁ోహి	-2773
▁వసాయ	-2774
▁ుమ్మ	-2775
▁ైళ్ల	-2776
▁ఖాన్	-2777
▁అవసరమ	-2778
▁నిట	-2779
▁అయింద	-2780
▁యూనివ	-2781
▁్రమాణ	-2782
▁ఠా	-2783
▁క్కడే	-2784
▁వెస్ట	-2785
▁ేత	-2786
▁బండి	-2787
▁న్డ	-2788
▁ేసుక	-2789
▁సృష్ట	-2790
గిస	-2791
▁ఖీ	-2792
▁రం	-2793
▁ాటక	-2794
▁ముగిస	-2795
▁లంక	-2796
▁ష్ణ	-2797
▁సుల	-2798
▁ాక్ష	-2799
▁ేగ	-2800
▁వివాహ	-2801
▁ఎన్నో	-2802
▁వికె	-2803
▁ేని	-2804
▁అంశాల	-2805
▁్గురు	-2806
▁ఈవ	-2807
▁ేసి	-2808
▁మరిక	-2809
▁నాలుగ	-2810
▁వేత్త	-2811
▁ాహ్నం	-2812
▁సీజ	-2813
▁క్రిత	-2814
▁గౌరవ	-2815
▁చోట్ల	-2816
▁ర్వీస	-2817
▁ిత్	-2818
▁ద్దేశ	-2819
▁ప్పుల	-2820
▁్యాయం	-2821
▁M	-2822
భాగ	-2823
▁కస్ట	-2824
▁ముందే	-2825
▁యాదవ్	-2826
▁ేలియా	-2827
▁ందిర	-2828
▁వదిల	-2829
▁గ్రహం	-2830
▁ోటో	-2831
▁తనను	-2832
▁ೋ	-2833
▁బొ	-2834
▁ంతర	-2835
▁మహారా	-2836
▁సీబీఐ	-2837
▁దన	-2838
▁తుర	-2839
▁ఓటర్ల	-2840
▁గుండె	-2841
▁విభాగ	-2842
▁సంచలన	-2843
▁ారంట	-2844
▁డ్యూ	-2845
▁కారణమ	-2846
రుప	-2847
▁ఆధ్వర	-2848
▁సమర్ప	-2849
▁పరే	-2850
▁ందుల	-2851
▁ల్లా	-2852
▁స్టా	-2853
▁స్తు	-2854
▁ఆన	-2855
▁కారు	-2856
▁గ్ల	-2857
▁నర్స	-2858
▁ెడ్డి	-2859
▁ైడ్	-2860
▁గురి	-2861
▁ాండ్	-2862
▁ిప్ప	-2863
▁ాలనుక	-2864
▁ేణ	-2865
▁దాట	-2866
▁ారాల	-2867
▁చర	-2868
▁ಿದ	-2869
▁మోస	-2870
▁ాఫ్	-2871
▁ీమా	-2872
▁ఖాతా	-2873
▁ిడెంట	-2874
▁ఏంట	-2875
▁ఇచ్చే	-2876
▁తప్పు	-2877
▁హౌ	-2878
▁ఆనంద	-2879
▁ుట	-2880
▁ತ್	-2881
▁ఊర	-2882
▁ద్భ	-2883
▁మ్మక	-2884
▁్చుక	-2885
▁నాయుడ	-2886
▁ముద్ర	-2887
▁గద	-2888
▁శే	-2889
▁సంప	-2890
▁ఎవరు	-2891
▁ర్థం	-2892
▁సెంట	-2893
▁తెచ్చ	-2894
▁అమిత్	-2895
▁డ్డుక	-2896
▁ిణీ	-2897
▁ొద్	-2898
▁హిళలు	-2899
ఖర	-2900
▁శ్వ	-2901
▁ైతే	-2902
▁ొడవ	-2903
▁ాఠశాల	-2904
▁ారంభం	-2905
▁ారణాల	-2906
▁ోహిత్	-2907
కాల	-2908
గిల	-2909
▁మిగిల	-2910
▁ొద్ది	-2911
▁ల్క	-2912
▁ాకు	-2913
▁ాగా	-2914
▁సమాధ	-2915
▁విభ	-2916
▁ిపల్	-2917
▁సోద	-2918
▁ాఫీ	-2919
▁గొట్ట	-2920
▁శాస్త	-2921
▁లమ	-2922
▁బృంద	-2923
▁ాలంట	-2924
▁ుమారు	-2925
▁వాహన	-2926
▁నాల	-2927
▁ష్ట్ర	-2928
▁ాహనాల	-2929
▁వని	-2930
▁స్క	-2931
▁్తా	-2932
▁్రో	-2933
▁త్రి	-2934
▁నోటీస	-2935
▁పోత	-2936
▁వాయి	-2937
▁సంఘటన	-2938
▁అగ్ర	-2939
▁ిద్ర	-2940
▁పక్కన	-2941
షనర	-2942
▁ట్రో	-2943
▁మిషనర	-2944
▁దీప్	-2945
▁ఒత్తి	-2946
▁ట్టుక	-2947
▁ువు	-2948
▁స్నే	-2949
▁ొద్ద	-2950
▁లభించ	-2951
▁ోర్డు	-2952
▁పల	-2953
▁న్నై	-2954
▁సింహ	-2955
▁జు	-2956
▁ఏడు	-2957
▁భాష	-2958
▁్త్	-2959
▁ంగ్ల	-2960
▁సాద్	-2961
▁డిజ	-2962
▁21	-2963
▁రచ	-2964
▁కోహ	-2965
▁ధ్వ	-2966
▁అర్హ	-2967
▁ఆమోద	-2968
▁రికీ	-2969
▁మాటల	-2970
▁ావతి	-2971
▁స్థాన	-2972
▁చంప	-2973
▁రూప	-2974
▁మద్యం	-2975
▁సక	-2976
▁ొక	-2977
▁గూడ	-2978
▁దుల	-2979
▁షాప	-2980
▁కాన్	-2981
▁న్షన్	-2982
▁I	-2983
▁వరూ	-2984
▁యంత్ర	-2985
▁నుక	-2986
▁ుడ్	-2987
▁టిల్	-2988
▁శేఖర	-2989
▁ిరంగ	-2990
▁సీజన్	-2991
▁్రీన్	-2992
▁జేస	-2993
▁టర్	-2994
▁పున	-2995
▁ఇంజ	-2996
▁ెయ్య	-2997
▁ల్ట	-2998
▁ర్సి	-2999
▁లబ	-3000
▁ుతాయి	-3001
▁ెన	-3002
▁నిఫ	-3003
▁్రహ	-3004
▁గ్రే	-3005
▁ాయపడ	-3006
▁గిన	-3007
▁ెగా	-3008
▁ెల్ల	-3009
▁ాశ	-3010
▁సేవ	-3011
▁్యాంగ	-3012
▁మణి	-3013
▁ర్బ	-3014
▁ైస్	-3015
▁పడ్డ	-3016
▁రిణ	-3017
▁ామీల	-3018
▁మేక	-3019
▁రుత	-3020
▁మ్యా	-3021
▁్యాధ	-3022
▁ైర	-3023
▁నిప	-3024
▁జరుప	-3025
▁్టేట్	-3026
▁ఔ	-3027
▁డ్జ	-3028
▁N	-3029
▁گ	-3030
▁్మీ	-3031
▁శాంతి	-3032
▁ద్ర	-3033
▁ద్వ	-3034
▁గ్రా	-3035
▁ర్యా	-3036
▁డుస్త	-3037
▁చేప	-3038
▁ాంప	-3039
▁అడిగ	-3040
▁సిస్ట	-3041
▁లింగ	-3042
▁శంకర్	-3043
▁ార్డు	-3044
▁ౌర	-3045
▁క్రీ	-3046
▁ళా	-3047
▁ుకొ	-3048
▁క్కుల	-3049
▁వార్త	-3050
▁పర్యట	-3051
▁కడ	-3052
▁ుట్ట	-3053
▁అప్	-3054
▁ీలు	-3055
▁ొడు	-3056
▁కర్న	-3057
▁లియన్	-3058
▁పట	-3059
▁ోచ	-3060
▁ేల్	-3061
▁స్తుత	-3062
▁రింగ్	-3063
▁ోర్స్	-3064
▁టెడ్	-3065
▁ొడుకు	-3066
▁ోలీసు	-3067
▁ునర	-3068
▁మున	-3069
▁ంతకు	-3070
▁హన	-3071
▁మల్	-3072
▁ించడం	-3073
▁ిస్ట్	-3074
▁ఆగ	-3075
▁టరీ	-3076
▁ధీన	-3077
▁షేర్	-3078
▁మేం	-3079
▁రియ	-3080
▁ేటీ	-3081
▁ష్యా	-3082
▁ఎగ	-3083
▁ీక్	-3084
▁నామిన	-3085
▁నిన్న	-3086
▁ాణి	-3087
▁న్నా	-3088
▁ెయిన్	-3089
▁ఫిక్	-3090
▁ాదించ	-3091
▁ిపించ	-3092
▁రేట	-3093
▁రిలో	-3094
▁ాళీ	-3095
▁నెట్	-3096
▁సెల్	-3097
▁శ్చి	-3098
▁ుంటూ	-3099
▁రావడం	-3100
▁విప	-3101
▁ప్యా	-3102
▁ೇ	-3103
▁ాదన	-3104
▁ఖర	-3105
▁ినె	-3106
▁ూలు	-3107
▁ల్లె	-3108
▁వేసి	-3109
▁నన్న	-3110
▁ఖండ	-3111
▁గుడ	-3112
▁రైన	-3113
▁కూర్చ	-3114
▁ہے	-3115
▁రవి	-3116
▁సాగు	-3117
ణయ	-3118
మత	-3119
▁ర్ప	-3120
▁మ్ము	-3121
▁ిర్ణయ	-3122
ور	-3123
▁ମ	-3124
▁ంచర	-3125
▁జో	-3126
▁మాజ	-3127
▁ిరం	-3128
▁దేవి	-3129
▁టమ	-3130
▁బై	-3131
▁మౌ	-3132
▁దీప	-3133
▁ాయం	-3134
▁ిపోవ	-3135
▁న్నిక	-3136
▁రీం	-3137
▁కృష	-3138
▁వెన	-3139
▁్సరం	-3140
▁మొత్త	-3141
▁యాక్ట	-3142
▁ఫై	-3143
▁రన్	-3144
▁బ్రా	-3145
▁ెంగ	-3146
▁కేత	-3147
▁డాక	-3148
▁ణకు	-3149
▁పార	-3150
▁లిగ	-3151
▁్వాన	-3152
▁ెలి	-3153
▁్తవ	-3154
▁ణ్	-3155
▁ంతు	-3156
▁దాన్న	-3157
▁కులు	-3158
▁్యార	-3159
▁నిబంధ	-3160
▁నిచ్చ	-3161
▁స్త్ర	-3162
▁షో	-3163
▁చూసి	-3164
▁ంగ్లా	-3165
▁కింగ్	-3166
▁మత	-3167
▁నిక	-3168
▁సున	-3169
▁ఐపీఎ	-3170
▁కప్ప	-3171
▁కేసుల	-3172
▁పంట	-3173
▁కలిస	-3174
▁ెర్	-3175
▁ోంద	-3176
▁వ్వు	-3177
▁కోస	-3178
▁మిట	-3179
▁ముస	-3180
▁c	-3181
▁తని	-3182
▁రాత్ర	-3183
▁త్క	-3184
▁ీపీ	-3185
▁ేమ్	-3186
▁్మి	-3187
▁తోనే	-3188
▁ర్సిట	-3189
▁మర్	-3190
▁ంట్స్	-3191
▁రజ	-3192
▁ింత	-3193
▁ాటా	-3194
▁ుకొని	-3195
▁డ్రా	-3196
▁డ్ల	-3197
▁ీటు	-3198
▁ుట్	-3199
▁ఫైనల్	-3200
▁ంగుల	-3201
▁ుడిని	-3202
▁థకాల	-3203
▁ాద్ర	-3204
▁ుప్ప	-3205
▁ొస	-3206
▁దుక	-3207
▁మరణ	-3208
▁ితి	-3209
▁ప్పగ	-3210
▁ుకునే	-3211
▁ుస	-3212
▁ాస్ప	-3213
▁కాని	-3214
▁పాన్	-3215
▁ః	-3216
▁పం	-3217
▁శ్	-3218
▁డేట	-3219
▁ిద్దర	-3220
▁హబ	-3221
▁దిశ	-3222
▁లుక	-3223
▁సెట	-3224
▁క్కో	-3225
▁ట్లో	-3226
▁ియన్	-3227
▁లుప	-3228
▁ిపి	-3229
▁లిక్	-3230
▁ପ	-3231
▁ామా	-3232
▁యన్	-3233
▁్లాక	-3234
▁్రవర	-3235
▁ర్చల	-3236
▁లాగ	-3237
▁త్తున	-3238
▁హరి	-3239
▁ిజి	-3240
▁నట	-3241
▁మొదట	-3242
la	-3243
▁్రీవ	-3244
▁కార	-3245
▁ఒక్కర	-3246
▁ార్థి	-3247
▁్ఫ	-3248
▁టమి	-3249
▁అనుమత	-3250
▁డుగుల	-3251
▁28	-3252
▁వీల	-3253
▁బాద్	-3254
▁ాలిక	-3255
▁ట్టాల	-3256
▁ండ్ర	-3257
▁దాయం	-3258
▁ార్ల	-3259
▁్రెస్	-3260
▁ుర్	-3261
▁్టూ	-3262
▁వృద్ధ	-3263
▁దో	-3264
▁వణ	-3265
▁ివ్	-3266
▁ెస్టు	-3267
▁కేజ	-3268
▁ీకరణ	-3269
▁ోటి	-3270
▁రంగం	-3271
▁ాలా	-3272
▁చ్చుక	-3273
▁ఘా	-3274
▁కాయ	-3275
▁దివ	-3276
▁్సె	-3277
▁టగా	-3278
▁నిష	-3279
▁మాస్	-3280
▁23	-3281
▁థన	-3282
▁దుర్	-3283
▁్రిక్	-3284
▁ద్దీ	-3285
▁పరిమ	-3286
▁ోవడం	-3287
▁100	-3288
▁సాగుత	-3289
▁డింది	-3290
▁్లిక్	-3291
▁ాత	-3292
▁్వరలో	-3293
▁సేన	-3294
▁ర్క్	-3295
▁గీ	-3296
▁ూరి	-3297
▁क	-3298
▁ోస్	-3299
▁రళ	-3300
▁కాలు	-3301
▁ండియా	-3302
▁్లోకి	-3303
▁హిం	-3304
▁్యర్	-3305
▁మ్మి	-3306
▁మెర	-3307
▁సమయ	-3308
▁ేటు	-3309
▁తీయ	-3310
▁ుడే	-3311
▁ండర్	-3312
▁రాత్	-3313
▁వెన్	-3314
▁ణు	-3315
▁పదే	-3316
▁ఎప్ప	-3317
▁టాని	-3318
▁ాక్ట	-3319
▁ిడి	-3320
▁ిరి	-3321
▁ెప	-3322
▁ర్ద	-3323
▁క్ష్మ	-3324
▁టార్	-3325
▁అవి	-3326
▁ఫీస	-3327
▁ాంక	-3328
▁27	-3329
▁మెజ	-3330
▁ీకు	-3331
er	-3332
▁గోప	-3333
▁సిక	-3334
▁్రణ	-3335
▁ేజ	-3336
▁ేడి	-3337
▁ఆప	-3338
▁ఎడ	-3339
▁హణ	-3340
▁నల్ల	-3341
▁నుమతి	-3342
▁కంట	-3343
▁్రిట	-3344
▁వేత	-3345
▁సైన	-3346
▁ఇచ్చి	-3347
▁ల్వ	-3348
▁జెండ	-3349
▁తేడా	-3350
▁ోనా	-3351
▁ాల్గ	-3352
▁26	-3353
▁టన్	-3354
▁ులై	-3355
▁్రికి	-3356
▁యిన	-3357
▁ీకే	-3358
▁షల్	-3359
▁ఎదుర	-3360
▁కాంత	-3361
▁ాలతో	-3362
an	-3363
▁v	-3364
▁ఆయా	-3365
▁ప్ట	-3366
▁టీడీ	-3367
▁అద	-3368
▁ేబ	-3369
▁ీవీ	-3370
▁ఇవి	-3371
▁షనల్	-3372
▁ుందో	-3373
▁ెప్ప	-3374
▁ేసిన	-3375
▁నొ	-3376
▁ఇప్పట	-3377
▁రణం	-3378
▁ృత	-3379
▁ెహ	-3380
▁ఎండ	-3381
▁ాణాల	-3382
▁ూడె	-3383
▁ంచాయ	-3384
▁ికల	-3385
▁యాప్	-3386
▁సెక	-3387
▁G	-3388
▁తెర	-3389
▁ర్ట్	-3390
▁సత్య	-3391
▁ూస	-3392
▁్టి	-3393
▁అడ్	-3394
▁ప్రవ	-3395
▁వించ	-3396
▁ికర	-3397
▁ాళ్ల	-3398
▁జేశ	-3399
▁జల	-3400
▁ల్డ	-3401
▁స్పె	-3402
▁ుందా	-3403
ار	-3404
▁విత	-3405
▁ంటలు	-3406
▁اس	-3407
▁వహ	-3408
▁ులా	-3409
▁స్సు	-3410
▁యూట్	-3411
▁స్టీ	-3412
▁పర	-3413
▁ంగీ	-3414
▁ాగ్	-3415
▁్సు	-3416
▁అందరి	-3417
▁ెక్ట్	-3418
▁్యారె	-3419
▁వల్	-3420
▁బంగ	-3421
▁ఎలక్	-3422
▁ప్పి	-3423
▁ును	-3424
▁చల్	-3425
▁య్యి	-3426
▁సన్న	-3427
▁ాగు	-3428
▁్లై	-3429
▁ూడెం	-3430
▁ل	-3431
▁ೊ	-3432
▁ూక	-3433
▁తిక	-3434
▁ాతో	-3435
▁ోల్	-3436
▁అల్ల	-3437
▁ଲ	-3438
▁ೀ	-3439
▁నిమ	-3440
▁లవు	-3441
▁ికె	-3442
▁ుగుత	-3443
▁దేశం	-3444
▁పొడ	-3445
▁ల్గ	-3446
▁సత్	-3447
▁ాసం	-3448
▁ూట్	-3449
▁గల్	-3450
▁రేపు	-3451
▁అడుగు	-3452
▁ాజి	-3453
▁డాల	-3454
▁ింక	-3455
▁మీర్	-3456
▁పడి	-3457
▁లక్	-3458
▁లోప	-3459
▁K	-3460
▁ణి	-3461
▁్రెస	-3462
▁డవ	-3463
▁లర	-3464
▁ంటీ	-3465
▁ుబా	-3466
▁జీవి	-3467
▁ారిలో	-3468
▁షియ	-3469
▁ాగర్	-3470
▁్లాస	-3471
▁చర్	-3472
▁హక్	-3473
▁రిశ	-3474
▁చెక్	-3475
▁మంత	-3476
▁స్స	-3477
▁వెంట	-3478
▁ిమానా	-3479
▁్యాక్	-3480
▁వగా	-3481
▁కండ	-3482
▁దాం	-3483
▁ధర్	-3484
▁రేణ	-3485
▁గుల	-3486
▁టిస్త	-3487
▁పీఎస్	-3488
▁భిస్త	-3489
▁తాజా	-3490
▁్లిం	-3491
▁ారంభమ	-3492
▁ువన	-3493
▁పుల్	-3494
▁లిపి	-3495
▁ిద్ధ	-3496
▁ెట్ర	-3497
▁60	-3498
▁జమ	-3499
▁ాథ	-3500
▁ుధ	-3501
▁డల్	-3502
▁సిడ	-3503
▁ేటా	-3504
▁మిన	-3505
▁సమ్మ	-3506
▁కరించ	-3507
▁ందల	-3508
▁క్స	-3509
▁ీకి	-3510
▁کو	-3511
▁వడ	-3512
▁ర్భ	-3513
▁తుల	-3514
▁లివ	-3515
▁సత	-3516
▁లువ	-3517
▁టిక్	-3518
▁జయ	-3519
▁పోర్ట	-3520
▁ఇరు	-3521
▁పంచ	-3522
▁స్పీ	-3523
▁్వుల	-3524
▁హార్	-3525
▁ای	-3526
▁మామ	-3527
▁లిక	-3528
▁బంగార	-3529
▁ికా	-3530
▁ామాల	-3531
▁ుద్ర	-3532
▁రప	-3533
▁లవ	-3534
▁ికెట్	-3535
▁లుగ	-3536
▁ాశ్	-3537
▁ిగ్	-3538
▁మ్యూ	-3539
▁ెక్ష	-3540
▁ొబ	-3541
▁ండా	-3542
▁జనం	-3543
▁ఎంస	-3544
▁యాం	-3545
▁ీరు	-3546
▁పాల్	-3547
▁రికా	-3548
▁్యాయ	-3549
▁వరం	-3550
▁ుదల	-3551
▁డెంట్	-3552
▁ికులు	-3553
▁్వే	-3554
▁డివ	-3555
▁ేము	-3556
▁మన్న	-3557
▁టోర	-3558
▁ూన్	-3559
▁క్షే	-3560
▁ిద్ధం	-3561
▁్సెస్	-3562
▁ాజ్	-3563
▁ుణ్	-3564
▁ప్రమ	-3565
▁ాఖ్య	-3566
▁ెండ్	-3567
▁31	-3568
▁ధ్య	-3569
▁29	-3570
▁ీవో	-3571
▁కార్	-3572
▁స్క్	-3573
▁र	-3574
▁విల	-3575
▁కొన్న	-3576
▁ಜ	-3577
▁ఆట	-3578
▁నకు	-3579
▁ెండ	-3580
▁ోసం	-3581
▁ఇష్ట	-3582
▁ట్యా	-3583
▁ాల్గొ	-3584
▁ిస్ట	-3585
▁చర్యల	-3586
▁చోట	-3587
▁స్ల	-3588
▁తారు	-3589
▁ان	-3590
▁నమ	-3591
▁టూర	-3592
▁ియం	-3593
▁ిక్స	-3594
▁ర్హ	-3595
▁దుర	-3596
▁క్కి	-3597
▁్యాన్	-3598
ేస	-3599
▁్శ	-3600
▁నారా	-3601
▁ంటారు	-3602
on	-3603
ائ	-3604
▁پر	-3605
▁ంజ్	-3606
▁పోట	-3607
▁రస్	-3608
▁నెలకొ	-3609
▁ైట	-3610
▁ెట్రో	-3611
▁۔	-3612
▁p	-3613
▁సార్	-3614
▁ులుగా	-3615
▁r	-3616
▁ాంగ	-3617
▁ించగా	-3618
▁ోగ్ర	-3619
▁ికుల	-3620
▁ప్రాణ	-3621
▁గ్గు	-3622
▁యక్	-3623
▁ిగి	-3624
▁్తి	-3625
▁నిస	-3626
▁ీటర్ల	-3627
▁ోజ	-3628
▁కాశ	-3629
▁ాము	-3630
▁ెక్స	-3631
ar	-3632
▁ହ	-3633
▁క్షణ	-3634
▁డత	-3635
▁ంటల	-3636
▁ేదన	-3637
▁ర్యాల	-3638
▁సల	-3639
▁ందా	-3640
▁త్తా	-3641
▁నార్	-3642
▁్పుల	-3643
▁డిగ	-3644
▁గుడ్	-3645
▁ట్రోల	-3646
▁లిస్ట	-3647
▁హక్కు	-3648
▁ుతారు	-3649
▁ుగు	-3650
▁ఉండటం	-3651
▁ెస	-3652
▁బడి	-3653
▁ెంప	-3654
▁యాన్	-3655
▁యిత	-3656
▁బిల్	-3657
▁సర్వ	-3658
▁D	-3659
▁ీస	-3660
▁ుకుప	-3661
▁త్తుల	-3662
▁భయ	-3663
▁గ్స్	-3664
▁్టిస్	-3665
▁ేచ	-3666
▁కాస	-3667
▁నిన	-3668
▁యాలు	-3669
▁రిస	-3670
▁ైడ	-3671
▁ోబ	-3672
▁గ్గ	-3673
▁తుక	-3674
▁పిల	-3675
▁ఫార	-3676
▁నెట	-3677
▁త్రిక	-3678
▁کا	-3679
▁ాభా	-3680
▁ికీ	-3681
▁ుది	-3682
▁నప	-3683
▁కాక	-3684
▁నాని	-3685
▁జస	-3686
▁్నీ	-3687
▁రిటీ	-3688
▁త్తమ	-3689
▁్యాప్	-3690
▁ూప	-3691
▁తలు	-3692
▁పెడ	-3693
▁చంద	-3694
▁ల్యా	-3695
▁ಚ	-3696
▁డల	-3697
▁తార	-3698
▁వేర	-3699
▁రంగా	-3700
▁బే	-3701
▁లక	-3702
▁ంగు	-3703
▁రహా	-3704
▁ాటి	-3705
▁ప్రో	-3706
▁کر	-3707
▁పెన్	-3708
▁మ్స్	-3709
▁రగతి	-3710
▁ాజీ	-3711
▁రాన్	-3712
▁విష్	-3713
▁సద	-3714
▁శ్రా	-3715
▁జాన	-3716
▁రిచ	-3717
▁ూల్	-3718
▁ాటర్	-3719
▁తద	-3720
▁వాణ	-3721
▁డెన్	-3722
▁యలు	-3723
▁ేరే	-3724
▁ట్లే	-3725
▁పేర	-3726
▁హార	-3727
▁మాచార	-3728
▁కాల్	-3729
▁పాటి	-3730
▁వసర	-3731
▁రక్త	-3732
▁ୟ	-3733
▁⁭	-3734
▁మంద	-3735
▁పడిన	-3736
▁దార	-3737
▁మీర	-3738
▁సభల	-3739
▁ిష్కర	-3740
▁రఫ	-3741
▁ెండి	-3742
▁చ్చి	-3743
▁g	-3744
▁ీజ్	-3745
▁ళ్లు	-3746
▁ిల్స్	-3747
▁పాక్	-3748
▁వర్త	-3749
▁ీశ	-3750
▁కపోయ	-3751
▁ిత్య	-3752
▁విష్య	-3753
▁ిస్టు	-3754
▁దృ	-3755
▁నది	-3756
▁ోడు	-3757
▁వంద	-3758
▁ఫెస	-3759
▁రాక	-3760
▁్తీ	-3761
▁మాకు	-3762
▁ిద్ద	-3763
▁ొమ్మ	-3764
▁ైస	-3765
▁ిమ్	-3766
▁ులి	-3767
▁గాలి	-3768
▁ట్రీ	-3769
▁దూర	-3770
▁డితే	-3771
▁డుగు	-3772
▁వర్క	-3773
▁చదువు	-3774
▁m	-3775
▁ఓట	-3776
▁లాల	-3777
▁టాక్	-3778
▁తాయి	-3779
▁త్సవ	-3780
▁టల్	-3781
▁బియ	-3782
▁బంధు	-3783
▁డియన్	-3784
▁ಎ	-3785
▁కాళ	-3786
▁లుల	-3787
▁ింద్	-3788
▁ఇద	-3789
▁రాబ	-3790
▁బోయ	-3791
▁అంతర	-3792
▁ధి	-3793
▁ీణ	-3794
▁త్రాల	-3795
▁ెంబ	-3796
▁కమ	-3797
▁ెళ	-3798
▁క్స్	-3799
▁ాఖ్యల	-3800
▁పరా	-3801
▁ర్తీ	-3802
▁్యూజ	-3803
▁ిల్లీ	-3804
భావ	-3805
▁ైత	-3806
▁పుణ	-3807
▁రాట	-3808
▁ండింగ	-3809
▁న్నది	-3810
▁రవీ	-3811
▁ర్జీ	-3812
▁్రభావ	-3813
▁యల్	-3814
▁ువా	-3815
▁వెల్	-3816
▁ెటర్	-3817
▁ాణాలు	-3818
▁కొన	-3819
▁దక్	-3820
▁హ్మ	-3821
▁ాతి	-3822
▁ులపై	-3823
▁ుకుంద	-3824
▁k	-3825
▁్యుల	-3826
▁ధు	-3827
▁జిల	-3828
▁దల	-3829
▁్లె	-3830
▁రేజ	-3831
▁ేర్	-3832
▁ెలవ	-3833
▁పక	-3834
▁న్వ	-3835
▁అర్థ	-3836
▁ఆర్ఎ	-3837
▁ଦ	-3838
▁ివ	-3839
▁రీస	-3840
▁ల్లే	-3841
▁డిపోయ	-3842
▁కల్	-3843
▁రంట	-3844
▁ఛా	-3845
▁రాధ	-3846
▁ాలక	-3847
▁ేవు	-3848
▁్రదేశ	-3849
▁ీవ్	-3850
▁్యర్థ	-3851
▁ఇస	-3852
▁తక	-3853
▁కన్	-3854
▁గీత	-3855
▁కోల్	-3856
▁రిశీల	-3857
▁ీష	-3858
▁సుక	-3859
▁ఫా	-3860
▁చక్	-3861
▁మార్	-3862
▁ఎత్తు	-3863
▁V	-3864
▁డీఎ	-3865
▁రివ	-3866
ان	-3867
▁రిజ	-3868
▁ందర్భ	-3869
▁ఆసక్త	-3870
▁نے	-3871
▁ిషి	-3872
▁లేష	-3873
▁ాన్య	-3874
▁బోర్	-3875
▁ూసుక	-3876
▁దున	-3877
▁ేవార	-3878
یڈ	-3879
▁గజ	-3880
▁కెన	-3881
▁ాడి	-3882
▁బంత	-3883
▁ుకా	-3884
▁ిపాల	-3885
▁మాద	-3886
▁వెల	-3887
▁ిథ	-3888
▁ీట	-3889
▁ెం	-3890
▁ిపై	-3891
▁స్టార	-3892
▁లప	-3893
▁ముల	-3894
▁ోయే	-3895
యాల	-3896
▁డో	-3897
▁రోసా	-3898
▁ిషయాల	-3899
▁ش	-3900
▁ట్నం	-3901
▁త్యా	-3902
▁ాష	-3903
▁ేడ్	-3904
▁రులో	-3905
▁్లోనే	-3906
▁జడ	-3907
▁ేన	-3908
లిచి	-3909
▁రని	-3910
▁శ్య	-3911
▁్ధి	-3912
▁ూన	-3913
▁కొల	-3914
▁రిహ	-3915
▁ఆర్ట	-3916
▁ణం	-3917
▁గిత	-3918
▁ట్టడ	-3919
▁ుబాటు	-3920
▁ఏసీ	-3921
▁తడి	-3922
▁యపడ	-3923
▁ేరి	-3924
▁మాన్	-3925
▁ందే	-3926
▁డంలో	-3927
▁ానిక	-3928
▁డప	-3929
▁మక	-3930
▁ీఏ	-3931
▁అడ్డ	-3932
▁నేది	-3933
▁లుగా	-3934
▁ాకర్	-3935
▁ంబర	-3936
▁ఆశ్	-3937
▁ధార	-3938
▁సూర	-3939
▁ప్రశ	-3940
▁రమైన	-3941
▁లాల్	-3942
ال	-3943
▁బర	-3944
▁అటు	-3945
▁రిగా	-3946
▁ోజన	-3947
▁సంస్	-3948
▁కబ	-3949
▁ఫీసర్	-3950
▁ాత్రల	-3951
▁ర్స	-3952
▁ాలె	-3953
▁ితీ	-3954
▁న్నర	-3955
▁ୋ	-3956
▁ఏదో	-3957
▁దరి	-3958
▁ండగా	-3959
▁క్షం	-3960
▁ర్తి	-3961
▁స్తా	-3962
▁అడ	-3963
▁త్తం	-3964
▁నివార	-3965
▁ాపు	-3966
▁టివ్	-3967
▁ిగ్గ	-3968
▁ిగారు	-3969
▁ోయారు	-3970
▁అబ	-3971
▁ଇ	-3972
▁టెం	-3973
▁అశ	-3974
▁రొ	-3975
▁గ్గా	-3976
▁డిపి	-3977
▁ిత్ర	-3978
▁ಅ	-3979
▁ావర	-3980
▁ప్రీ	-3981
▁రారు	-3982
▁వహించ	-3983
▁ెన్న	-3984
▁ಶ	-3985
▁ాకర	-3986
▁ావు	-3987
▁ియర్	-3988
▁سے	-3989
▁మాల	-3990
▁లవా	-3991
▁ోక్	-3992
▁కలిగి	-3993
▁స్టే	-3994
▁ౌత	-3995
▁కుం	-3996
▁ిచ్	-3997
▁్శించ	-3998
▁e	-3999
▁न	-4000
▁్ద	-4001
▁వంతం	-4002
▁ారంలో	-4003
▁టవ	-4004
▁యజ	-4005
▁ాష్	-4006
▁ంటర్	-4007
▁#	-4008
▁అమల	-4009
▁్వి	-4010
▁ోర్స	-4011
▁్మాన	-4012
▁ికంగా	-4013
▁ଟ	-4014
▁యే	-4015
▁రాల	-4016
▁ీగా	-4017
▁పత	-4018
▁ుతు	-4019
▁ఎక్క	-4020
▁డింగ్	-4021
▁ీఎ	-4022
▁అల్	-4023
▁కరం	-4024
▁ీతం	-4025
▁ೂ	-4026
▁నాట	-4027
▁ిపక్ష	-4028
▁కట్	-4029
▁అనంత	-4030
▁ఆదాయ	-4031
▁ఇం	-4032
▁ైక	-4033
▁చార	-4034
▁యంత	-4035
▁ీఎం	-4036
▁ଏ	-4037
▁పుత	-4038
▁ానా	-4039
▁్యవ	-4040
▁హారం	-4041
▁ంక్	-4042
▁ిక్ష	-4043
▁ార్క్	-4044
▁్రేక్	-4045
▁ోలో	-4046
▁డాది	-4047
▁ల్ని	-4048
▁70	-4049
▁ర్డ్	-4050
▁రత	-4051
▁అంగ	-4052
▁ాయు	-4053
▁ాడ్	-4054
▁ాలయం	-4055
▁ొట్ట	-4056
▁కారుల	-4057
▁H	-4058
▁వంట	-4059
▁గ్రీ	-4060
▁వన	-4061
▁అధి	-4062
▁ివి	-4063
▁యిల్	-4064
▁ాన్స	-4065
▁్యూట	-4066
▁కలక	-4067
▁నిల్	-4068
▁పోవ	-4069
▁యన్న	-4070
▁యోగం	-4071
▁నగా	-4072
▁సంక	-4073
▁ఆర్డ	-4074
▁ీళ్ల	-4075
▁యటి	-4076
▁పార్ట	-4077
▁తూర	-4078
▁యాల	-4079
▁సాం	-4080
▁్ను	-4081
▁స్కూ	-4082
▁పౌ	-4083
▁షు	-4084
▁డిచ	-4085
▁పిల్ల	-4086
▁యింది	-4087
▁ైవ	-4088
▁ైకి	-4089
▁్పీ	-4090
▁ిధుల	-4091
▁వాట	-4092
▁న్నం	-4093
▁ితుల	-4094
▁నియర్	-4095
یو	-4096
▁పబ	-4097
▁రిల	-4098
▁ిరా	-4099
th	-4100
▁శని	-4101
▁లియా	-4102
▁వాడు	-4103
▁ంచు	-4104
▁లేట	-4105
▁ావా	-4106
▁ಆ	-4107
▁ೈ	-4108
▁ూత్	-4109
▁క్య	-4110
▁्	-4111
▁తామ	-4112
▁నీల	-4113
▁ముక	-4114
▁ోని	-4115
▁80	-4116
▁ుఖ	-4117
▁ండల	-4118
▁లెట్	-4119
▁సుప	-4120
▁న్యం	-4121
▁ైం	-4122
▁ొమ	-4123
▁పడే	-4124
▁ిహ	-4125
▁ట్స్	-4126
▁మించ	-4127
▁b	-4128
▁ಷ	-4129
▁ణ్య	-4130
▁లుత	-4131
▁పట్టు	-4132
▁L	-4133
▁గిల	-4134
▁ైంద	-4135
యక	-4136
▁ీప్	-4137
▁ంతి	-4138
▁విశ్	-4139
▁గే	-4140
▁రట	-4141
▁ాయమ	-4142
▁ూబ్	-4143
▁ార్యక	-4144
▁ెమ	-4145
▁ెట్టి	-4146
▁సగ	-4147
▁ుపుత	-4148
▁ెల్లడ	-4149
▁తృ	-4150
▁తరుల	-4151
▁జామ	-4152
▁ారే	-4153
▁కాలన	-4154
▁నాన్	-4155
▁వ్యూ	-4156
▁్రస్త	-4157
▁E	-4158
▁کہ	-4159
▁చివ	-4160
▁ోలే	-4161
▁ాభ	-4162
▁ుపా	-4163
▁ెట్ల	-4164
▁ైద	-4165
▁రిత	-4166
▁పన్న	-4167
▁ొత్తగ	-4168
▁లూ	-4169
▁మెట	-4170
▁ଣ	-4171
▁ఎన	-4172
▁జమాన	-4173
▁ావించ	-4174
▁రీత	-4175
▁రెడ్	-4176
▁।	-4177
▁లాప	-4178
▁ేపు	-4179
▁వాలంట	-4180
▁35	-4181
▁పట్	-4182
▁చదువ	-4183
▁నెల్	-4184
▁సవ	-4185
▁త్తల	-4186
▁్యాట	-4187
▁త్తగా	-4188
ئی	-4189
▁ీప	-4190
▁ాయిల	-4191
▁దుప	-4192
▁జార్	-4193
▁దన్న	-4194
▁క్త	-4195
▁మూల	-4196
▁అవిన	-4197
▁ప్రె	-4198
▁ార్డ్	-4199
▁సరా	-4200
▁ారిన	-4201
▁గతం	-4202
▁బాగ	-4203
▁ినే	-4204
de	-4205
▁ంత్	-4206
▁బ్రి	-4207
▁ଥ	-4208
▁భర	-4209
▁200	-4210
▁లోన	-4211
▁ఎవరి	-4212
▁రుపు	-4213
▁స్మా	-4214
▁ిండి	-4215
▁ృతి	-4216
▁నుంద	-4217
▁్వాల	-4218
▁గన్	-4219
▁ులే	-4220
▁లింగ్	-4221
▁ీసీసీ	-4222
▁ెలిచి	-4223
▁పణ	-4224
▁ఏమీ	-4225
▁ుతో	-4226
▁ుమతి	-4227
▁గంగ	-4228
▁ింగ	-4229
▁యంగా	-4230
▁రిస్	-4231
▁రుస్త	-4232
▁ہو	-4233
▁ణన	-4234
▁ట్టల	-4235
▁చెన్న	-4236
ూప	-4237
▁ోం	-4238
▁రాహ	-4239
▁లాగే	-4240
▁ోస	-4241
▁మావ	-4242
▁పిల్	-4243
▁ಣ	-4244
▁اور	-4245
▁సిర	-4246
▁ెళ్త	-4247
▁లాండ్	-4248
▁ీలోని	-4249
ెన	-4250
▁45	-4251
▁ఓప	-4252
▁సన	-4253
▁ోళ	-4254
▁ందం	-4255
▁దుబ	-4256
▁మరీ	-4257
▁ేణు	-4258
▁్వల	-4259
▁క్కా	-4260
▁దులు	-4261
▁రుచ	-4262
▁్టీ	-4263
▁ఓపెన	-4264
▁ంజన	-4265
▁వరణ	-4266
▁చేయడ	-4267
▁శారు	-4268
▁ులుగ	-4269
▁గ్రూప	-4270
▁ెల్లి	-4271
▁దర్	-4272
▁భాస	-4273
▁పాడ	-4274
▁సాహ	-4275
▁ితం	-4276
▁ేవి	-4277
▁పంలో	-4278
▁J	-4279
▁నీట	-4280
▁హర్	-4281
▁ాఖల	-4282
▁ాదం	-4283
▁े	-4284
▁షీ	-4285
▁లన్న	-4286
▁శాల	-4287
▁్ట్	-4288
▁్వక	-4289
▁ాస్క	-4290
▁ిగిప	-4291
ea	-4292
▁ہے۔	-4293
▁్పా	-4294
▁ٹ	-4295
▁ಧ	-4296
▁in	-4297
▁ఏడ	-4298
▁డగ	-4299
▁పట్న	-4300
▁ଛ	-4301
▁శాత	-4302
▁క్రె	-4303
▁ప్రచ	-4304
▁ుభ	-4305
▁రుక	-4306
▁కెట్	-4307
▁క్వా	-4308
▁్రీల	-4309
▁రద	-4310
▁మాయ	-4311
▁రార	-4312
▁వాన	-4313
▁సాల	-4314
▁వాన్	-4315
▁ిసే	-4316
▁ోపి	-4317
▁్రసా	-4318
in	-4319
▁వత	-4320
▁పాఠ	-4321
▁మూర	-4322
▁ీతి	-4323
▁థా	-4324
▁మధ	-4325
▁ఇంద	-4326
▁ଭ	-4327
▁యె	-4328
▁భవి	-4329
▁పాలు	-4330
▁్రసాద	-4331
▁کیا	-4332
▁కిన	-4333
▁ణాలు	-4334
▁తీసి	-4335
▁ికే	-4336
▁్యత్	-4337
▁మాండ్	-4338
▁హ్	-4339
▁కోడ	-4340
▁ట్టే	-4341
▁భవిష	-4342
▁ిమాండ	-4343
▁డార	-4344
▁ంగానే	-4345
▁మార్క	-4346
▁ొట్టి	-4347
▁U	-4348
▁90	-4349
▁ూడి	-4350
▁ప్రెస	-4351
▁ెలుసు	-4352
▁l	-4353
▁ఆస్త	-4354
▁ుబడి	-4355
▁ుపర	-4356
▁ేసే	-4357
▁తిరిగ	-4358
▁ండీ	-4359
▁కుంటే	-4360
▁ఏట	-4361
▁ణాల	-4362
▁ట్రే	-4363
▁త్రం	-4364
▁ంగంలో	-4365
▁లయ	-4366
▁నికి	-4367
▁సర్క	-4368
▁ాచార	-4369
▁ట్రాక	-4370
ئے	-4371
▁ଡ	-4372
▁ఉమ	-4373
▁ఎమ	-4374
▁ండు	-4375
▁గతి	-4376
▁విస	-4377
▁ావి	-4378
▁ిసిన	-4379
ھا	-4380
▁ఎద	-4381
▁వం	-4382
▁ెట్టు	-4383
▁కాప	-4384
▁షన్స్	-4385
▁ti	-4386
▁్జ	-4387
▁ప్పల	-4388
▁ైర్మ	-4389
▁నపై	-4390
▁రత్	-4391
▁ివార	-4392
▁ామెంట	-4393
▁آ	-4394
▁తత	-4395
▁ానే	-4396
▁ిన్స	-4397
▁ि	-4398
▁శీ	-4399
▁ర్శ	-4400
▁డిస్	-4401
▁రాయి	-4402
▁్యాస	-4403
▁ఏటా	-4404
▁హాల	-4405
▁్సా	-4406
▁स	-4407
▁na	-4408
▁ఉత్	-4409
▁బీఐ	-4410
▁్లీలో	-4411
▁రౌ	-4412
▁దన్	-4413
▁మంట	-4414
▁ేలు	-4415
▁ఇందు	-4416
▁డియో	-4417
▁లింప	-4418
▁ోయిన	-4419
▁F	-4420
▁మస	-4421
▁లేర	-4422
▁విరా	-4423
▁పాక	-4424
▁ଜ	-4425
▁రుమ	-4426
▁లీక	-4427
▁ిచి	-4428
▁ిలిం	-4429
▁ీఎస్	-4430
▁;	-4431
▁థి	-4432
▁మగ	-4433
▁ేవ	-4434
▁ంటర	-4435
▁ౌండ	-4436
▁ెక్స్	-4437
▁म	-4438
▁ह	-4439
▁O	-4440
▁ేం	-4441
▁వాళ	-4442
▁వీడ	-4443
▁పారి	-4444
▁కోవ	-4445
▁ీరా	-4446
▁ంచార	-4447
▁హు	-4448
▁ేపట	-4449
▁దించ	-4450
▁దిరి	-4451
గ్	-4452
▁ଯ	-4453
▁ంజా	-4454
▁బాద	-4455
▁దార్	-4456
▁యంతో	-4457
▁ష్టం	-4458
▁కొందర	-4459
▁హోం	-4460
▁జెన్స	-4461
▁కత	-4462
▁బస	-4463
▁యూని	-4464
▁،	-4465
▁Ra	-4466
▁ایک	-4467
▁అందర	-4468
▁ఘటనల	-4469
▁బంధం	-4470
▁ెంబర	-4471
▁్నాన	-4472
ri	-4473
▁రుద	-4474
▁ిలా	-4475
లే	-4476
▁లిత	-4477
▁్లూ	-4478
▁టీటీ	-4479
▁తరలి	-4480
▁w	-4481
▁ేక	-4482
▁శ్వర	-4483
▁ావరణ	-4484
▁ోగుల	-4485
▁ికారు	-4486
▁చని	-4487
▁్రత	-4488
▁పొర	-4489
▁యస్	-4490
▁ారిప	-4491
▁లిట	-4492
▁హాయ	-4493
▁వర్స	-4494
▁తడ	-4495
▁ూబ	-4496
▁ేఖ	-4497
▁రువ	-4498
▁ోవా	-4499
▁ిలియ	-4500
▁ెలుస	-4501
▁ర్డుల	-4502
▁కలు	-4503
▁జన్	-4504
▁మాస	-4505
▁ఎక్స	-4506
▁ద్వార	-4507
▁ుట్టు	-4508
ام	-4509
▁ଆ	-4510
▁ీద	-4511
▁చిల	-4512
▁నీర	-4513
▁డుపు	-4514
▁యింట	-4515
▁ెచ్చ	-4516
▁ైప	-4517
▁శిల	-4518
▁ెగ్	-4519
▁ండగ	-4520
▁కరమ	-4521
▁ితమ	-4522
▁ాశాల	-4523
▁బోర్డ	-4524
▁ف	-4525
▁ిటి	-4526
▁్జా	-4527
▁్షణ	-4528
▁చర్ల	-4529
▁ంగి	-4530
▁ఈసీ	-4531
▁చిక	-4532
▁ాగి	-4533
▁మించి	-4534
▁న్నార	-4535
▁ాఖ	-4536
▁ైమ	-4537
▁్ది	-4538
▁రుతు	-4539
▁రోల్	-4540
or	-4541
▁ుం	-4542
▁500	-4543
▁ాడుక	-4544
▁కటి	-4545
▁ాయా	-4546
▁జనాల	-4547
▁రిపో	-4548
▁్వాత	-4549
▁లన్నీ	-4550
▁ఇటు	-4551
▁దిలా	-4552
نے	-4553
▁AL	-4554
▁టాన్	-4555
▁స్సా	-4556
▁డిక	-4557
▁రుస	-4558
▁ామం	-4559
▁ుంచ	-4560
▁ిశ్ర	-4561
▁కలె	-4562
▁గిర	-4563
▁న్ష	-4564
▁ూసి	-4565
▁కొని	-4566
▁క్తం	-4567
▁ాకపో	-4568
▁గాల	-4569
▁రాణ	-4570
▁ేశా	-4571
▁చూస్త	-4572
▁ారీగా	-4573
▁त	-4574
▁నరు	-4575
▁నలో	-4576
▁ుస్	-4577
▁తిష్	-4578
▁మిని	-4579
▁ోట్ల	-4580
▁్యాలు	-4581
▁కరు	-4582
▁కాం	-4583
▁ౌక	-4584
▁మ్య	-4585
▁చేశా	-4586
▁యితే	-4587
▁శ్రమ	-4588
▁చనిపో	-4589
▁ుకోవడ	-4590
▁ోర్ట్	-4591
EA	-4592
لی	-4593
یڈیو	-4594
▁బంగా	-4595
▁ాలుగా	-4596
al	-4597
▁an	-4598
▁లత	-4599
▁త్న	-4600
▁ికలు	-4601
▁్లిక	-4602
▁అజ	-4603
▁ఆర	-4604
▁ౌడ	-4605
▁ముడ	-4606
▁రుగ	-4607
▁ితు	-4608
▁రామా	-4609
وی	-4610
▁ra	-4611
▁ాజమ	-4612
▁ویڈیو	-4613
▁ल	-4614
▁ఝ	-4615
▁କର	-4616
▁హస	-4617
▁పుల	-4618
▁మెద	-4619
▁పెండ	-4620
▁నాన్న	-4621
▁్లే	-4622
▁అక్క	-4623
▁ిగించ	-4624
▁ేసింద	-4625
▁రణి	-4626
▁ాత్	-4627
▁ందుత	-4628
▁కప్పు	-4629
▁ెసి	-4630
▁మైంద	-4631
SO	-4632
▁W	-4633
▁ಇ	-4634
▁బండ	-4635
▁అడుగ	-4636
▁యింద	-4637
▁ణల	-4638
▁ుళ	-4639
▁ొగ	-4640
▁ండ్రి	-4641
▁వాలని	-4642
om	-4643
▁ల్ద	-4644
▁ిజం	-4645
▁ంకర్	-4646
▁జైల	-4647
▁మాం	-4648
▁దారు	-4649
▁తప	-4650
▁కిష	-4651
▁గార	-4652
▁టైం	-4653
▁నాల్	-4654
EAD	-4655
▁వంగ	-4656
▁సీస	-4657
▁READ	-4658
▁శో	-4659
▁యూజ	-4660
▁گیا	-4661
▁ALSO	-4662
▁ుల్ల	-4663
▁ంపు	-4664
▁ీలను	-4665
▁కొచ్చ	-4666
▁ं	-4667
▁ଉ	-4668
▁రంజ	-4669
▁తక్క	-4670
▁ర్వా	-4671
▁సిస్	-4672
▁ాబట్ట	-4673
ھی	-4674
▁ిపోయి	-4675
▁ी	-4676
▁ଅ	-4677
్యం	-4678
▁టల	-4679
▁బంద	-4680
▁సెల	-4681
▁ుమత	-4682
▁గట్ట	-4683
▁నుండ	-4684
▁రుగు	-4685
▁లోనూ	-4686
▁ిష్య	-4687
▁పత్తి	-4688
▁""	-4689
▁అన్	-4690
▁కొం	-4691
ات	-4692
▁sh	-4693
▁మీట	-4694
▁రపు	-4695
▁ేయర	-4696
▁ళ్లలో	-4697
▁وں	-4698
▁కడప	-4699
▁రికల	-4700
▁75	-4701
▁یہ	-4702
▁బాట	-4703
▁కాలే	-4704
▁చిన్	-4705
▁ాన్న	-4706
▁టిల	-4707
▁డీల	-4708
▁పోస	-4709
▁రంభ	-4710
▁కుడు	-4711
▁చివర	-4712
▁పత్ర	-4713
▁భక్త	-4714
▁ందరి	-4715
▁మాల్	-4716
▁ౌల	-4717
▁వత్	-4718
▁ట్టం	-4719
.5	-4720
▁భో	-4721
▁ంద్	-4722
▁పిం	-4723
▁వడం	-4724
▁ీఫ్	-4725
▁క్రా	-4726
▁క్రి	-4727
▁్రిల్	-4728
▁प	-4729
▁ష్క	-4730
di	-4731
▁ଗ	-4732
▁కెర	-4733
▁తాయ	-4734
▁లాస	-4735
▁స్థా	-4736
▁ద్దని	-4737
▁ాళ్లు	-4738
▁శం	-4739
▁పైగా	-4740
▁మర్శ	-4741
ری	-4742
▁మాని	-4743
▁ేర్చ	-4744
▁ుతాయ	-4745
▁ಭ	-4746
▁ట్రి	-4747
▁న్లు	-4748
▁్టాల	-4749
▁గవ	-4750
▁డట	-4751
▁ఖాన	-4752
▁ీదు	-4753
▁టిస్	-4754
▁ురించ	-4755
▁పశ	-4756
▁ెజ	-4757
▁వలన	-4758
▁వేట	-4759
▁ోగా	-4760
▁కరాల	-4761
▁చైర్	-4762
▁జిల్	-4763
▁డిగి	-4764
▁ాహి	-4765
▁డ్డు	-4766
▁్గుర	-4767
▁్దేశ	-4768
▁్వేష	-4769
▁ల్లుల	-4770
▁హం	-4771
▁రిమ	-4772
▁మిస్	-4773
▁కై	-4774
▁షి	-4775
▁నాం	-4776
▁రుడు	-4777
▁స్కా	-4778
▁ానిస	-4779
▁य	-4780
▁మిల	-4781
▁్కా	-4782
▁ేజీల	-4783
sh	-4784
▁36	-4785
▁ృత్	-4786
▁రాని	-4787
▁వితం	-4788
▁వేర్	-4789
▁రబ	-4790
▁ہیں	-4791
▁జల్	-4792
▁లూర	-4793
▁లికి	-4794
▁ర్లలో	-4795
▁ఐద	-4796
▁ాంట	-4797
▁్రవ	-4798
▁ాక్స్	-4799
لا	-4800
▁నుల	-4801
▁రష్	-4802
▁స్కర	-4803
▁కొద్ద	-4804
▁ఆటో	-4805
▁్బం	-4806
▁ట్లను	-4807
▁ల్యాణ	-4808
▁چ	-4809
▁గట	-4810
▁జం	-4811
▁కొర	-4812
▁ురు	-4813
▁రికి	-4814
జక	-4815
▁ంచి	-4816
▁ోటు	-4817
▁ంధ్ర	-4818
▁గం	-4819
▁ివర్	-4820
le	-4821
▁ఆరా	-4822
▁టిఫ	-4823
▁డ్య	-4824
▁సైట	-4825
▁ర్లను	-4826
చేస	-4827
▁పోయి	-4828
▁ిలిప	-4829
▁్యాక	-4830
▁నిచేస	-4831
▁Y	-4832
▁ୀ	-4833
▁tt	-4834
▁ుకల	-4835
▁ూమ	-4836
▁పాలి	-4837
▁మిర	-4838
▁మైనా	-4839
▁అప్పు	-4840
▁ుర్తి	-4841
▁ఫల	-4842
▁ంతక	-4843
▁మీప	-4844
▁ాటల	-4845
▁్నల	-4846
▁డ్డా	-4847
▁విన్	-4848
▁ాలోని	-4849
▁X	-4850
▁అక్	-4851
▁అలీ	-4852
▁లయా	-4853
▁శనం	-4854
▁్గా	-4855
▁ుఖ్యం	-4856
▁ియోజక	-4857
▁300	-4858
▁ోషి	-4859
▁ఇన్న	-4860
▁టుగా	-4861
▁మద్ద	-4862
▁48	-4863
▁గళ	-4864
▁డక	-4865
▁దయ	-4866
▁ేయి	-4867
▁ాయకు	-4868
▁*	-4869
▁టక	-4870
▁హే	-4871
▁బిన	-4872
▁ికార	-4873
▁ోన్ల	-4874
▁33	-4875
▁ాడే	-4876
▁ెడు	-4877
▁్మర	-4878
▁ందాల	-4879
▁హ్యా	-4880
▁కొడ	-4881
▁జయ్	-4882
▁లన్	-4883
▁క్కల	-4884
▁యిస్	-4885
▁ఒకట	-4886
▁తాల	-4887
▁వివ	-4888
▁హ్య	-4889
▁ుక్ర	-4890
▁32	-4891
▁ంజి	-4892
▁ఖాత	-4893
▁ంలోనే	-4894
یک	-4895
▁ధవ	-4896
▁ృద	-4897
▁దరు	-4898
▁శలు	-4899
▁ీడీ	-4900
▁దరిక	-4901
▁ଖ	-4902
▁పాయి	-4903
▁వ్వా	-4904
▁కాశాల	-4905
▁vi	-4906
▁మోద	-4907
▁పాడు	-4908
▁ోవాలి	-4909
▁ఘో	-4910
▁పస	-4911
▁నూర	-4912
▁సిల	-4913
▁ంద్రా	-4914
▁ాయుడు	-4915
da	-4916
▁u	-4917
▁దవ	-4918
▁షణ	-4919
▁ఘోర	-4920
▁బీజ	-4921
▁ట్లా	-4922
▁ంహ	-4923
▁టూ	-4924
▁బలం	-4925
▁్లు	-4926
▁కుంట	-4927
▁పుడు	-4928
▁్రామా	-4929
▁లబ్	-4930
▁ాయన	-4931
▁ితులు	-4932
▁ేశాడు	-4933
▁ండర	-4934
▁టీం	-4935
▁బట్ట	-4936
▁బయటప	-4937
▁శ్వాస	-4938
▁ుండటం	-4939
▁్గ	-4940
▁దైన	-4941
▁దురు	-4942
▁ెంట్ల	-4943
ol	-4944
▁Re	-4945
▁ఫోర	-4946
▁ేనని	-4947
▁ుతుంద	-4948
▁te	-4949
▁కాన	-4950
▁చెం	-4951
▁సిప	-4952
▁్నె	-4953
▁మ్మె	-4954
▁ాదాలు	-4955
▁ారాలు	-4956
▁దడ	-4957
▁చిద	-4958
▁బల్	-4959
▁డిని	-4960
▁ర్మన	-4961
▁द	-4962
▁కద	-4963
▁ంకే	-4964
▁ధ్ర	-4965
▁కాశం	-4966
▁ేశారు	-4967
he	-4968
▁42	-4969
▁పగ	-4970
▁మం	-4971
▁పెర	-4972
▁వేడ	-4973
▁తిన్	-4974
▁న్నద	-4975
▁లయ్య	-4976
▁ేటర్	-4977
▁గన	-4978
▁డొ	-4979
▁మయ	-4980
▁తమ్	-4981
▁డ్స్	-4982
▁భివృ	-4983
▁మాండ	-4984
▁వకాశ	-4985
▁యోగాల	-4986
▁పవన	-4987
▁్రాస	-4988
▁్ఘ	-4989
▁ిజ్	-4990
▁ియాల	-4991
▁లున్న	-4992
▁ోస్ట్	-4993
▁శాం	-4994
▁ీజీ	-4995
▁టుకు	-4996
▁్ణ	-4997
▁జ్ర	-4998
▁వైసీ	-4999
▁యిస్త	-5000
▁ح	-5001
▁ీఫ	-5002
▁ందన	-5003
▁లాట	-5004
▁్యమ	-5005
▁లాన్	-5006
▁ోపాల	-5007
▁మ్యాచ	-5008
▁్వాన్	-5009
lu	-5010
▁దగ	-5011
▁ెరిగి	-5012
▁రుకు	-5013
▁ెట్లు	-5014
ga	-5015
▁ଳ	-5016
▁చొ	-5017
▁ంకో	-5018
▁ోసి	-5019
▁్డ్	-5020
▁37	-5021
▁ఆల్	-5022
▁ఔట్	-5023
▁టలో	-5024
▁ిసి	-5025
▁ری	-5026
▁ంకర	-5027
▁ంటో	-5028
▁గుప	-5029
▁సగం	-5030
▁ہم	-5031
▁్యో	-5032
▁ప్రి	-5033
▁రణాల	-5034
▁34	-5035
▁ుపై	-5036
▁్కీ	-5037
▁తులు	-5038
▁బ్లీ	-5039
▁ర్గా	-5040
▁ర్లకు	-5041
▁ేస్తే	-5042
▁్రాన్	-5043
▁బం	-5044
▁ెవ	-5045
▁وائ	-5046
▁ింహ	-5047
▁లిసి	-5048
▁ଧ	-5049
▁రాధా	-5050
▁సెస్	-5051
▁ిర్య	-5052
ab	-5053
▁150	-5054
▁రిక్	-5055
▁కాలేజ	-5056
▁ଙ	-5057
▁నవర	-5058
▁రీల	-5059
▁త్రా	-5060
▁పండు	-5061
▁మూర్	-5062
▁ిన్నా	-5063
▁ేస్తా	-5064
▁యంగ	-5065
▁వీస	-5066
▁ణంలో	-5067
▁గిపోయ	-5068
ya	-5069
▁ిభ	-5070
రుగు	-5071
▁దయా	-5072
▁రేష	-5073
▁నప్ప	-5074
▁ారించ	-5075
st	-5076
▁nd	-5077
▁రోహ	-5078
▁సుమ	-5079
▁ోగి	-5080
▁్మల	-5081
▁ుఖ్	-5082
▁ెను	-5083
▁స్సుల	-5084
▁చల	-5085
▁లలు	-5086
▁ెరి	-5087
▁ిలువ	-5088
▁కట్టు	-5089
▁یا	-5090
▁ఏది	-5091
▁తరం	-5092
▁తాడ	-5093
▁పీడ	-5094
▁లాక్	-5095
▁ెడ్డ	-5096
▁కెళ్ల	-5097
▁క్కర్	-5098
▁గర	-5099
▁ృష	-5100
▁లెట	-5101
▁ీసీ	-5102
▁ుణం	-5103
▁్వీ	-5104
▁వింద	-5105
▁ండ్లు	-5106
▁్తారు	-5107
▁%	-5108
▁పటి	-5109
▁బెల	-5110
▁రాద	-5111
▁వాయ	-5112
▁ిధి	-5113
▁ేరా	-5114
▁పీసీ	-5115
▁ع	-5116
▁ो	-5117
▁హద	-5118
▁మెజా	-5119
▁్నాయ	-5120
▁్రాఫ	-5121
▁ట్రాన	-5122
▁తున్న	-5123
ir	-5124
ند	-5125
▁ెబ	-5126
▁tion	-5127
▁ప్రద	-5128
▁ిలిచ	-5129
▁ుమార	-5130
▁ఎక	-5131
▁ేడ	-5132
నుగో	-5133
▁చుక	-5134
▁రకు	-5135
▁ల్చ	-5136
▁ాడా	-5137
▁ీనం	-5138
▁శిక్	-5139
▁ాట్ల	-5140
▁మరికొ	-5141
▁ాయకుడ	-5142
▁ొనుగో	-5143
▁డుప	-5144
▁ర్డ	-5145
▁ినో	-5146
▁గంగా	-5147
▁్యలో	-5148
▁కట	-5149
▁ొట	-5150
▁పాస	-5151
▁భయం	-5152
▁ీటీ	-5153
▁ధిలో	-5154
am	-5155
▁h	-5156
▁ଚ	-5157
▁జంట	-5158
▁ీటర	-5159
▁ీఎల్	-5160
▁خ	-5161
▁ط	-5162
▁యిద	-5163
▁ేడు	-5164
▁ర్టీ	-5165
▁ాపుర	-5166
▁ప్రకా	-5167
▁వర్షా	-5168
▁సభ్యు	-5169
▁్టడ	-5170
▁త్రు	-5171
▁నగరం	-5172
▁ాదాల	-5173
▁రల	-5174
▁Cha	-5175
▁ోతు	-5176
▁తిరు	-5177
▁జరిగి	-5178
▁ಖ	-5179
▁ఐదో	-5180
▁షర్	-5181
▁్యల	-5182
▁మానం	-5183
▁వాదం	-5184
▁్యాప	-5185
▁మార్ప	-5186
▁o	-5187
▁మద	-5188
▁com	-5189
▁నివ	-5190
▁ుపుల	-5191
▁ఫే	-5192
▁ెత	-5193
▁తెగ	-5194
▁పాయ	-5195
▁యాడ	-5196
▁లార	-5197
▁ాసు	-5198
▁దిగి	-5199
▁రిపోయ	-5200
▁ొచ్చి	-5201
ic	-5202
va	-5203
▁نہ	-5204
▁యశ	-5205
▁ేకర	-5206
▁పిక్	-5207
▁విధి	-5208
▁ాయించ	-5209
▁ిర్యా	-5210
▁ూపించ	-5211
رل	-5212
▁AI	-5213
▁ఇన	-5214
▁డేవ	-5215
▁ాలీ	-5216
▁ందన్	-5217
▁కాలి	-5218
▁ర్చి	-5219
▁ళ్లకు	-5220
▁డూ	-5221
▁ఆప్	-5222
▁ఉదయ	-5223
▁బార	-5224
▁చేరి	-5225
▁ట్టిన	-5226
▁చక	-5227
▁ెష	-5228
▁ేళ	-5229
▁తకు	-5230
▁ప్య	-5231
▁ాచ్	-5232
▁్లర	-5233
▁రణకు	-5234
▁తామని	-5235
▁پی	-5236
▁రిష	-5237
▁సంబ	-5238
▁చేయి	-5239
▁లిటీ	-5240
▁మిస్త	-5241
టల	-5242
▁లీల	-5243
▁వరక	-5244
▁విమ	-5245
ew	-5246
تے	-5247
▁ଷ	-5248
లీజ	-5249
▁ణిక	-5250
▁్మద	-5251
▁్మా	-5252
▁ాణిక	-5253
▁్యూర	-5254
▁రిలీజ	-5255
▁ಫ	-5256
▁తిప	-5257
▁ండాల	-5258
▁రన్న	-5259
▁ంచం	-5260
▁ఈవో	-5261
▁దంట	-5262
▁లేవ	-5263
▁ళం	-5264
▁ఫిక	-5265
▁ీసు	-5266
▁్సి	-5267
▁ాముల	-5268
▁టన	-5269
▁ందీ	-5270
▁కంగ	-5271
▁చిత	-5272
▁ణలు	-5273
▁లిన	-5274
▁ోలి	-5275
▁وائرل	-5276
▁ందించ	-5277
وں	-5278
▁ଶ	-5279
▁డద	-5280
▁్దీ	-5281
▁ప్పం	-5282
▁క్యాప	-5283
▁్సిటీ	-5284
ala	-5285
▁vs	-5286
▁గుం	-5287
▁యాన	-5288
▁ిపే	-5289
▁ంగల్	-5290
▁ిరిగ	-5291
▁ब	-5292
▁ంస్	-5293
▁ోత్	-5294
▁కవర్	-5295
▁తీర్	-5296
▁ోలేద	-5297
▁కేషన్	-5298
▁్కార్	-5299
▁నిఖ	-5300
▁ాబు	-5301
▁ేశవ	-5302
▁నంగా	-5303
▁व	-5304
▁38	-5305
▁55	-5306
▁అక	-5307
▁తూ	-5308
▁ఘనత	-5309
▁డని	-5310
▁శీల	-5311
▁ాద్	-5312
▁రాసి	-5313
▁ువ్వ	-5314
▁వడంతో	-5315
▁ున్నద	-5316
▁f	-5317
▁ज	-5318
▁ౖ	-5319
▁ివే	-5320
▁డర్ల	-5321
▁యోగి	-5322
▁వకాశా	-5323
▁్ట్రా	-5324
▁శర	-5325
▁...	-5326
▁ిచే	-5327
▁తాలు	-5328
▁్తాన	-5329
▁ప్రాం	-5330
▁తం	-5331
▁రప్	-5332
▁రాత	-5333
▁వతి	-5334
▁ిసా	-5335
▁న్నట	-5336
▁ग	-5337
▁ام	-5338
▁ోటీ	-5339
▁కిల్	-5340
▁యిర్	-5341
en	-5342
▁సంద	-5343
▁్కో	-5344
▁ంతరం	-5345
▁కుడి	-5346
ja	-5347
▁41	-5348
▁65	-5349
▁دع	-5350
▁అవా	-5351
▁జస్	-5352
▁దాయ	-5353
▁ధుల	-5354
▁్కి	-5355
▁సిక్	-5356
▁తాయని	-5357
▁ుందుక	-5358
▁ఈటల	-5359
▁్లవ	-5360
▁చారి	-5361
▁డాన్	-5362
▁డాలి	-5363
▁పించ	-5364
▁భంగా	-5365
▁ఆగస్ట	-5366
▁మద్దత	-5367
▁ళీ	-5368
▁తాన	-5369
▁కూర్	-5370
▁ఫైనల	-5371
un	-5372
▁ఏఐ	-5373
▁ఖ్	-5374
▁ంబా	-5375
▁నాన	-5376
▁ిశా	-5377
▁ోను	-5378
▁కాకు	-5379
▁ంటికి	-5380
▁అన్నా	-5381
dh	-5382
▁Te	-5383
▁ఇస్	-5384
▁మేమ	-5385
▁ిపడ	-5386
▁జాగ్	-5387
ین	-5388
▁400	-5389
▁ఆపై	-5390
▁కామ	-5391
▁చుల	-5392
▁జాల	-5393
▁యిల	-5394
▁లాడ	-5395
▁అభివ	-5396
▁య్యా	-5397
▁ుండగ	-5398
▁నికల్	-5399
▁ోటీసు	-5400
▁Al	-5401
▁హత	-5402
▁ొర	-5403
▁్యత	-5404
▁చంద్	-5405
▁ామర్	-5406
▁ీసుకు	-5407
▁చన	-5408
▁బూ	-5409
▁విక్	-5410
▁లుస్త	-5411
▁తెల	-5412
▁దుపు	-5413
▁ిచేస	-5414
▁మానుల	-5415
▁ళ్లను	-5416
ews	-5417
▁Vi	-5418
▁యమ	-5419
▁ంధన	-5420
▁కదా	-5421
▁త్మ	-5422
▁పదో	-5423
▁పీల	-5424
▁లాం	-5425
▁్బా	-5426
▁ిహార	-5427
▁్రమే	-5428
▁జిట	-5429
▁ేసీ	-5430
▁్వం	-5431
▁ఖ్యా	-5432
▁జేపీ	-5433
▁జిస్ట	-5434
▁ଓ	-5435
▁జుల	-5436
▁్రై	-5437
▁నామా	-5438
▁వీకర	-5439
▁44	-5440
▁ఇబ	-5441
▁అసల	-5442
▁పడా	-5443
▁పిక	-5444
▁లామ	-5445
▁ాణం	-5446
▁కంగా	-5447
▁కారి	-5448
▁ుచేస	-5449
▁కులకు	-5450
▁ేయాలి	-5451
▁al	-5452
▁థ్	-5453
▁ామీ	-5454
▁ాయణ	-5455
▁ుగ్	-5456
▁్రు	-5457
▁తమైన	-5458
▁చేయలే	-5459
▁స్టుల	-5460
را	-5461
▁హాస	-5462
▁చేతి	-5463
▁హాన్	-5464
▁్యూస	-5465
▁బాధ్య	-5466
▁యన్స్	-5467
▁39	-5468
▁تص	-5469
▁నను	-5470
▁ముత	-5471
▁రుల	-5472
▁ునా	-5473
▁ేగం	-5474
▁نہیں	-5475
▁వరిక	-5476
ce	-5477
▁అండ	-5478
▁ఇష్	-5479
▁కాస్	-5480
▁ద్ది	-5481
▁రౌండ	-5482
نگ	-5483
▁ڈ	-5484
▁ಈ	-5485
▁er	-5486
▁پو	-5487
▁nth	-5488
▁మాత	-5489
▁రెట్	-5490
▁కున్న	-5491
▁ంఘ	-5492
▁కని	-5493
▁కమ్	-5494
▁డలో	-5495
▁నవా	-5496
▁ిసె	-5497
▁్తమ	-5498
▁డిపో	-5499
▁రును	-5500
▁ాస్తు	-5501
▁భం	-5502
▁ంగత	-5503
▁డుక	-5504
▁రదా	-5505
▁యోగా	-5506
▁కుత	-5507
▁పాన	-5508
▁కమైన	-5509
▁తిలో	-5510
▁టెంట్	-5511
▁వచ్చా	-5512
▁ిశ్రమ	-5513
▁دی	-5514
▁కస్	-5515
▁జుక	-5516
▁సిస	-5517
▁్ము	-5518
▁రద్ద	-5519
▁ాంత్	-5520
▁ిపార	-5521
▁్రావ	-5522
▁నిస్త	-5523
▁్తులు	-5524
▁46	-5525
▁رہ	-5526
▁నయ	-5527
▁కిర	-5528
▁డగా	-5529
▁యుత	-5530
▁ీబీ	-5531
▁అమిత	-5532
▁సూపర	-5533
▁అడ్డు	-5534
▁ఆత	-5535
▁ిఖ	-5536
▁స్ర	-5537
▁ేకం	-5538
▁లాండ	-5539
▁మట	-5540
▁్దు	-5541
▁ొందర	-5542
▁రించి	-5543
▁+	-5544
▁ز	-5545
▁ేహ	-5546
▁టెన	-5547
▁డుల	-5548
▁నేన	-5549
▁రుడ	-5550
▁సిట	-5551
▁ువార	-5552
▁ారంగా	-5553
ur	-5554
deo	-5555
▁re	-5556
▁ఓం	-5557
▁భంగ	-5558
▁ష్టమ	-5559
▁ాలిట	-5560
▁ెయిన	-5561
▁్యుత	-5562
dd	-5563
ss	-5564
▁2.	-5565
▁An	-5566
▁కరణ	-5567
▁యాక	-5568
▁ndra	-5569
▁ద్రా	-5570
▁్డర్	-5571
▁ేయించ	-5572
ma	-5573
▁ଁ	-5574
▁52	-5575
▁وال	-5576
▁చేవ	-5577
▁మాధ	-5578
▁ేపీ	-5579
▁డబ్బ	-5580
▁బెల్	-5581
▁ష్యం	-5582
▁స్కో	-5583
▁ిప్ర	-5584
▁్నర్	-5585
PS	-5586
ov	-5587
▁ఇష	-5588
▁Pra	-5589
▁వలస	-5590
▁సీన	-5591
▁ప్రభ	-5592
▁ించా	-5593
▁్దుల	-5594
▁తారని	-5595
▁ెరుగు	-5596
ka	-5597
▁గిం	-5598
▁యుల	-5599
▁యేట	-5600
▁ికన	-5601
اب	-5602
▁51	-5603
▁నాడ	-5604
▁నార	-5605
▁పిస	-5606
▁బెట	-5607
▁రేవ	-5608
▁ాయల	-5609
▁ుగో	-5610
▁్జు	-5611
▁బ్బు	-5612
▁మెరి	-5613
▁ుగుల	-5614
▁جس	-5615
▁విద	-5616
▁ంకుల	-5617
▁కొంట	-5618
▁పరిష	-5619
▁రెన్	-5620
▁శంకర	-5621
▁స్టో	-5622
▁ెలిప	-5623
▁ర్యాద	-5624
ఆర	-5625
▁తవ	-5626
▁ఫు	-5627
▁మంగ	-5628
▁సరే	-5629
▁ర్గం	-5630
▁్విట	-5631
▁శ్వర్	-5632
il	-5633
▁d	-5634
▁ٰ	-5635
اتھ	-5636
▁54	-5637
▁ండో	-5638
▁ంపి	-5639
▁దొర	-5640
▁సహజ	-5641
▁ట్రల	-5642
▁లించ	-5643
▁ల్లీ	-5644
▁్లాద	-5645
▁TS	-5646
▁gu	-5647
▁ంటె	-5648
▁గాడ	-5649
▁యాస	-5650
▁డ్లు	-5651
▁త్యం	-5652
▁నిజా	-5653
▁రాష్	-5654
▁వాసం	-5655
▁జెక్ట	-5656
▁్నాడు	-5657
▁ెక	-5658
▁మెన	-5659
▁యనా	-5660
▁ల్స	-5661
▁ామి	-5662
▁ేశం	-5663
▁శాల్	-5664
▁సవాల	-5665
▁ామన్	-5666
▁ార్గ	-5667
▁అయ్యి	-5668
▁టేషన్	-5669
▁పోయిన	-5670
▁ిస్తా	-5671
تا	-5672
▁49	-5673
▁Pa	-5674
▁st	-5675
▁ధా	-5676
▁అవక	-5677
▁మోడ	-5678
▁ఉంటా	-5679
▁్రయి	-5680
▁లేన	-5681
▁కించ	-5682
▁్వర్	-5683
کھا	-5684
▁43	-5685
▁?,	-5686
▁ఢీ	-5687
▁గొడ	-5688
▁లంత	-5689
▁లవ్	-5690
▁ున్	-5691
▁మాదం	-5692
▁ేదని	-5693
▁పట్టా	-5694
▁్పించ	-5695
▁్యలను	-5696
▁పెళ్ల	-5697
oo	-5698
نا	-5699
▁ఊరట	-5700
▁గడ్	-5701
▁్లడ	-5702
▁యాని	-5703
▁యినా	-5704
▁ినేష	-5705
▁ుండి	-5706
▁ోర్డ	-5707
▁శ్రీన	-5708
وٹ	-5709
▁@	-5710
abu	-5711
▁47	-5712
▁Ja	-5713
▁سو	-5714
▁కుడ	-5715
▁యిర	-5716
▁వహర	-5717
▁ీలన	-5718
▁ేకు	-5719
▁చించ	-5720
▁రాజీ	-5721
▁ాగ్ర	-5722
▁్యుడ	-5723
▁ఎన్టీ	-5724
ps	-5725
▁చద	-5726
▁వద	-5727
▁nga	-5728
▁టచ్	-5729
▁ీరం	-5730
▁పోతే	-5731
▁ఫ్రి	-5732
▁ర్శి	-5733
▁ిక్ర	-5734
▁ంటాయి	-5735
▁్రకార	-5736
▁(1	-5737
▁تھا	-5738
▁ియర	-5739
▁ుంటా	-5740
▁ంచుకో	-5741
▁ంట్లు	-5742
▁రించే	-5743
▁ుతుండ	-5744
▁120	-5745
▁بھی	-5746
▁టీవ	-5747
▁వామ	-5748
▁ساتھ	-5749
▁త్తర	-5750
▁రాస్	-5751
▁సిడె	-5752
▁ాటిల	-5753
▁ిమిత	-5754
▁యత్నం	-5755
▁్పాట్	-5756
▁ଫ	-5757
▁2,	-5758
▁ొల	-5759
▁ఆమ్	-5760
▁నన్	-5761
▁వైస	-5762
▁సము	-5763
▁ోరా	-5764
▁ہوئے	-5765
▁గాన్	-5766
▁గారు	-5767
▁డ్రి	-5768
▁ధారణ	-5769
▁మంత్	-5770
▁ారిక	-5771
▁వేశాల	-5772
▁ూరులో	-5773
▁&	-5774
▁ఎమ్	-5775
▁ిది	-5776
▁ుము	-5777
▁్యే	-5778
▁గాని	-5779
▁రూపా	-5780
▁video	-5781
▁మానిక	-5782
▁షన్లు	-5783
دی	-5784
سٹ	-5785
▁72	-5786
▁ికొ	-5787
▁ోట్	-5788
▁ర్చు	-5789
▁56	-5790
▁తగ	-5791
▁ಆದ	-5792
▁ಎಂ	-5793
▁టీన	-5794
▁రణల	-5795
▁ెరా	-5796
▁్పన	-5797
▁కపోత	-5798
▁థ్యం	-5799
▁ాలేద	-5800
▁క్షాల	-5801
▁ివర్స	-5802
▁్రంగా	-5803
at	-5804
▁ص	-5805
▁am	-5806
▁యల	-5807
▁ంటా	-5808
▁వున	-5809
▁దానిక	-5810
▁బ్బుల	-5811
▁స్టేట	-5812
ృహ	-5813
▁ु	-5814
▁అగ్	-5815
▁ఓటర	-5816
▁బోర	-5817
▁ష్మ	-5818
▁ಎಂಬ	-5819
▁చెల్	-5820
▁పణలు	-5821
▁ెయిల	-5822
▁తగ్గి	-5823
ing	-5824
▁اپ	-5825
▁ూజ	-5826
▁కగా	-5827
▁తంత	-5828
▁రమ్	-5829
▁తారా	-5830
▁నిమా	-5831
▁రాక్	-5832
▁్రాజ	-5833
ee	-5834
కే	-5835
▁(2	-5836
▁థం	-5837
▁గృహ	-5838
▁పౌర	-5839
▁రేక	-5840
▁ెప్	-5841
▁డిగా	-5842
▁రంభం	-5843
▁్చర్	-5844
▁్రాల్	-5845
ون	-5846
బంధన	-5847
▁Pla	-5848
▁కోన	-5849
▁సీఎ	-5850
▁ంతుల	-5851
▁కల్ల	-5852
▁టికి	-5853
▁ారణా	-5854
▁క్ష్య	-5855
▁ిబంధన	-5856
▁ಥ	-5857
▁1.	-5858
▁Na	-5859
▁la	-5860
▁అర	-5861
▁ఈయ	-5862
▁టుల	-5863
▁دعوی	-5864
మీ	-5865
▁nt	-5866
▁యడ	-5867
▁జిం	-5868
▁మంచ	-5869
▁లంట	-5870
▁్జ్	-5871
▁చేయగ	-5872
▁మ్మా	-5873
▁ర్షి	-5874
▁ప్పుక	-5875
اہ	-5876
▁In	-5877
▁ar	-5878
▁175	-5879
▁600	-5880
▁బాబ	-5881
▁సలు	-5882
▁నీతి	-5883
▁్మార	-5884
▁ni	-5885
▁ఇర	-5886
▁యవ	-5887
▁ఏమి	-5888
▁జాగ	-5889
▁తన్	-5890
▁నడి	-5891
▁రగత	-5892
▁ాయలు	-5893
▁డ్డార	-5894
▁ెప్పు	-5895
▁میڈ	-5896
▁పత్	-5897
▁లైన	-5898
▁విచ	-5899
▁సీత	-5900
▁స్న	-5901
▁ారమ	-5902
▁ాసా	-5903
▁ూటి	-5904
▁మ్మల	-5905
▁ెన్ష	-5906
wi	-5907
ddy	-5908
▁ات	-5909
▁250	-5910
▁పక్	-5911
▁ఫిర	-5912
▁విట	-5913
▁ంతర్	-5914
▁లాస్	-5915
▁్చిత	-5916
▁చర్చి	-5917
hi	-5918
▁سر	-5919
▁ین	-5920
▁جان	-5921
▁కిల	-5922
▁తుడ	-5923
▁నేట	-5924
▁ాలం	-5925
▁ీటర్	-5926
▁్నిస్	-5927
▁ంపా	-5928
▁ఇవే	-5929
▁ఈయన	-5930
▁బరి	-5931
▁మధు	-5932
▁వేష	-5933
▁శార	-5934
▁ూపు	-5935
▁ోరి	-5936
▁tter	-5937
▁ఆగ్ర	-5938
▁వులు	-5939
▁శుక్	-5940
▁ాగాన	-5941
▁డటంతో	-5942
▁స్టేష	-5943
▁ق	-5944
▁ఐస్	-5945
▁మనీ	-5946
▁ాయక	-5947
▁ివా	-5948
▁ందని	-5949
▁టాయి	-5950
▁సీని	-5951
▁ిటిష	-5952
نی	-5953
dia	-5954
▁దుగ	-5955
▁వెం	-5956
▁హీర	-5957
▁ాబాద	-5958
▁చిస్త	-5959
▁ీడీపీ	-5960
▁ار	-5961
▁నౌ	-5962
▁భ్	-5963
▁ీగ	-5964
▁జనా	-5965
▁టున	-5966
▁దావ	-5967
▁ాజు	-5968
▁ేబు	-5969
▁ేశి	-5970
▁్యక	-5971
▁గించ	-5972
▁తకాల	-5973
▁యంలో	-5974
▁రాను	-5975
▁ర్మా	-5976
▁్సెస	-5977
▁తులకు	-5978
▁లిపోయ	-5979
▁వర్గం	-5980
▁వస్తా	-5981
▁సీఆర్	-5982
▁ిటిషన	-5983
ویر	-5984
▁53	-5985
▁85	-5986
▁మతం	-5987
▁ినవ	-5988
▁ీకా	-5989
▁్క్	-5990
▁Play	-5991
▁టర్న	-5992
▁ద్దత	-5993
▁నింద	-5994
▁నిని	-5995
▁ింట్	-5996
▁ుండా	-5997
▁్రస్	-5998
▁تصویر	-5999
▁రించడ	-6000
▁ానించ	-6001
▁64	-6002
▁Ma	-6003
▁ంఖ	-6004
▁షక	-6005
▁ూచ	-6006
▁ుమ్	-6007
▁ోచన	-6008
▁ందరు	-6009
▁బ్లా	-6010
▁యాస్	-6011
▁ర్భం	-6012
▁ఆగ్రహ	-6013
so	-6014
▁దాడ	-6015
▁ోతే	-6016
▁చిత్	-6017
▁ధ్యా	-6018
▁పీలో	-6019
▁లెక్	-6020
▁వాలి	-6021
▁ుబాట	-6022
▁్రాం	-6023
▁1,	-6024
▁تو	-6025
▁ఏయ	-6026
▁జత	-6027
▁ైబ	-6028
▁ణుల	-6029
▁నిద	-6030
▁పాప	-6031
▁ితా	-6032
▁ొల్	-6033
▁క్రవ	-6034
▁చెరు	-6035
▁దిగా	-6036
▁ర్జా	-6037
▁ర్షం	-6038
▁ఏడో	-6039
▁ఓకే	-6040
▁సమర	-6041
▁సెస	-6042
▁ూస్	-6043
▁భాగం	-6044
▁ష్టి	-6045
▁ారుడ	-6046
▁ుర్క	-6047
▁57	-6048
▁59	-6049
▁وا	-6050
▁ٹی	-6051
▁తట	-6052
▁ంకా	-6053
▁రూం	-6054
▁ిద్	-6055
▁్టె	-6056
▁బీజే	-6057
▁రాలే	-6058
▁ర్తల	-6059
▁ీట్ల	-6060
▁్లిన	-6061
▁దరికీ	-6062
▁3.	-6063
▁తాం	-6064
▁దిక	-6065
▁యాట	-6066
▁లని	-6067
▁ౌంట	-6068
▁کرتے	-6069
▁న్సీ	-6070
▁రాణా	-6071
▁విని	-6072
▁میڈیا	-6073
ro	-6074
یر	-6075
PSC	-6076
▁ండే	-6077
▁చిర	-6078
▁పూట	-6079
▁లిచ	-6080
▁్రద	-6081
▁్ష్	-6082
▁క్షు	-6083
▁మంగా	-6084
▁ళ్యా	-6085
▁ష్టా	-6086
▁ాధార	-6087
▁ాహ్న	-6088
▁పిస్త	-6089
▁ినట్ట	-6090
▁ుస్తు	-6091
▁58	-6092
▁انہ	-6093
▁ఉద్	-6094
▁డిమ	-6095
▁తగా	-6096
▁లిస	-6097
▁ానమ	-6098
▁్మె	-6099
▁క్లి	-6100
▁నిస్	-6101
▁్రక్	-6102
▁లల్లో	-6103
ead	-6104
▁pic	-6105
▁మతి	-6106
▁రక్	-6107
▁ేతు	-6108
▁ంచాల	-6109
▁ఏర్ప	-6110
▁క్తి	-6111
▁ెప్పా	-6112
▁AP	-6113
▁హమ	-6114
▁ఏయే	-6115
▁నాక	-6116
▁ెచ్	-6117
▁ేను	-6118
▁్ధం	-6119
▁్రల	-6120
▁babu	-6121
▁دکھا	-6122
▁కూల్	-6123
▁తికి	-6124
▁స్థల	-6125
▁మొదలై	-6126
ad	-6127
▁62	-6128
▁63	-6129
▁66	-6130
▁ya	-6131
▁శవ	-6132
▁ఖ్య	-6133
▁తంగ	-6134
▁పిన	-6135
▁శాన	-6136
▁ాలల	-6137
▁ియల	-6138
▁ూటీ	-6139
▁mala	-6140
▁ంపుల	-6141
▁త్నం	-6142
▁్యాం	-6143
▁ଅନ	-6144
▁కాగ	-6145
▁కాబ	-6146
▁నతో	-6147
▁రాన	-6148
▁లోచ	-6149
▁ామె	-6150
▁ాసి	-6151
▁ీరో	-6152
▁ంటిక	-6153
▁ఓటర్	-6154
▁కర్ణ	-6155
▁స్పత	-6156
▁ుంచి	-6157
▁క్షేమ	-6158
▁ళ్యాణ	-6159
▁వరించ	-6160
شن	-6161
మే	-6162
ంబర	-6163
▁PM	-6164
▁ئی	-6165
▁رو	-6166
▁مو	-6167
▁के	-6168
▁ଏକ	-6169
▁ూవ	-6170
▁twi	-6171
▁جار	-6172
▁నీస	-6173
▁ీలకు	-6174
▁నవంబర	-6175
▁రోడ్డ	-6176
na	-6177
థ్య	-6178
▁بھ	-6179
▁ଛନ	-6180
▁షన	-6181
▁ట్న	-6182
▁బిల	-6183
▁రిం	-6184
▁సులో	-6185
▁ామిన	-6186
▁ిస్థ	-6187
▁ంటలకు	-6188
▁కార్డ	-6189
▁స్కూల	-6190
▁ాటికి	-6191
▁ేపథ్య	-6192
▁ೃ	-6193
▁‭	-6194
rea	-6195
▁ఎడమ	-6196
▁దనే	-6197
▁మయం	-6198
▁రమా	-6199
▁ిదా	-6200
▁ుచు	-6201
▁్యస	-6202
▁telu	-6203
▁ధ్యత	-6204
▁ోగాల	-6205
▁యింట్	-6206
▁ామినే	-6207
ch	-6208
▁भ	-6209
▁سی	-6210
▁లద	-6211
▁థలు	-6212
▁రీమ	-6213
▁ురం	-6214
▁ైలు	-6215
▁ోనే	-6216
▁کرنے	-6217
▁జర్వ	-6218
▁డుకు	-6219
▁రుడి	-6220
▁ర్చా	-6221
▁ష్కర	-6222
▁ీకార	-6223
▁ఉంటాయ	-6224
డియ	-6225
▁بی	-6226
▁దై	-6227
▁వమ	-6228
▁వైన	-6229
▁ైపు	-6230
▁ద్రి	-6231
▁ర్నా	-6232
▁షన్ల	-6233
▁చరించ	-6234
▁ట్లాడ	-6235
vi	-6236
▁ے	-6237
▁च	-6238
▁pa	-6239
▁ఖల	-6240
▁పడం	-6241
▁ేకా	-6242
▁చిపో	-6243
▁రాహు	-6244
▁రీస్	-6245
▁్బంద	-6246
▁కోర్ట	-6247
▁తిరుమ	-6248
▁మీడియ	-6249
▁రెక్ట	-6250
▁99	-6251
▁బన	-6252
▁రన	-6253
▁ంధు	-6254
▁గిప	-6255
▁థుల	-6256
▁దిప	-6257
▁వాత	-6258
▁ామర	-6259
▁ూడో	-6260
▁నిరస	-6261
▁మెట్	-6262
▁ోల్ప	-6263
▁్రహం	-6264
▁ంగ్స్	-6265
▁యాన్న	-6266
▁ానాలు	-6267
شل	-6268
ణం	-6269
▁अ	-6270
▁Fa	-6271
▁కగ	-6272
▁హక	-6273
▁ౌన	-6274
▁gov	-6275
▁ఆడే	-6276
▁కుమ	-6277
▁జెన	-6278
▁ాథ్	-6279
▁Tela	-6280
▁కేసీ	-6281
▁త్రుల	-6282
▁పొందు	-6283
▁ర్వాత	-6284
▁ోల్పో	-6285
me	-6286
ou	-6287
وگ	-6288
▁ट	-6289
▁IP	-6290
▁US	-6291
▁థల	-6292
▁ంగల	-6293
▁ఊరు	-6294
▁రసా	-6295
▁లిమ	-6296
▁వీట	-6297
▁వుడ	-6298
▁ాహా	-6299
▁Also	-6300
▁న్నప	-6301
▁ాప్త	-6302
▁ేయడం	-6303
▁ఆరోపణ	-6304
▁పడింద	-6305
▁్రదర్	-6306
>>	-6307
▁95	-6308
▁or	-6309
▁مل	-6310
▁ଏହ	-6311
▁ధ్	-6312
▁ఆడి	-6313
▁జలు	-6314
▁జీల	-6315
▁డిల	-6316
▁పెన	-6317
▁మేష	-6318
▁యావ	-6319
▁ాకి	-6320
▁్మన	-6321
▁క్షన	-6322
▁మాణం	-6323
▁లుసు	-6324
▁ోస్ట	-6325
▁ుస్తా	-6326
▁ొన్నా	-6327
RS	-6328
وم	-6329
lec	-6330
▁67	-6331
▁ఏర	-6332
▁Kal	-6333
▁డిన	-6334
▁పొగ	-6335
▁రకం	-6336
▁హాన	-6337
▁ిదే	-6338
▁ీవా	-6339
▁వరాల	-6340
▁లేకపో	-6341
BC	-6342
TC	-6343
▁`	-6344
▁4,	-6345
▁4.	-6346
▁జయం	-6347
▁తోప	-6348
▁దాల	-6349
▁యలో	-6350
▁యూర	-6351
▁ాడన	-6352
▁ాతా	-6353
▁ీఆర	-6354
▁ువై	-6355
▁ూరం	-6356
▁రైల్	-6357
▁లిస్	-6358
▁ెండు	-6359
▁ిలిచి	-6360
▁ోసారి	-6361
▁j	-6362
▁ಉ	-6363
▁144	-6364
▁ఏవీ	-6365
▁గడం	-6366
▁మకర	-6367
▁మను	-6368
▁ిపా	-6369
▁News	-6370
▁జెన్	-6371
▁టులు	-6372
▁ాంక్	-6373
▁గానిక	-6374
▁मे	-6375
▁800	-6376
▁ధాన	-6377
▁సెం	-6378
▁ెంద	-6379
▁ాంతి	-6380
▁ుగ్గ	-6381
▁ప్రయా	-6382
et	-6383
عد	-6384
▁61	-6385
▁में	-6386
▁టాక	-6387
▁షేర	-6388
▁హబ్	-6389
▁హ్ల	-6390
▁ోగ్	-6391
▁హాస్	-6392
▁ాదుల	-6393
▁్యకు	-6394
▁నేషన్	-6395
▁ప్రభు	-6396
▁ళ్లార	-6397
بر	-6398
سی	-6399
ہا	-6400
▁ంల	-6401
▁ణీ	-6402
▁ెటి	-6403
▁ెత్	-6404
▁ోకు	-6405
▁سوشل	-6406
▁డెంట	-6407
▁ప్తు	-6408
▁తానని	-6409
SR	-6410
um	-6411
لہ	-6412
▁3,	-6413
▁84	-6414
▁గస	-6415
▁యట	-6416
▁యడం	-6417
▁సీల	-6418
▁హ్న	-6419
▁ిషన	-6420
▁ేతల	-6421
▁్మక	-6422
▁్షు	-6423
▁సక్త	-6424
▁్లాం	-6425
▁ర్మన్	-6426
ts	-6427
up	-6428
▁ड	-6429
iru	-6430
▁6,	-6431
▁71	-6432
▁Pri	-6433
▁కోత	-6434
▁దిత	-6435
▁నౌక	-6436
▁రిద	-6437
▁ువల	-6438
▁ోతా	-6439
▁్సీ	-6440
▁తుగా	-6441
▁యాంగ	-6442
▁రువా	-6443
▁రోహి	-6444
▁ారంగ	-6445
▁ించగ	-6446
▁్గాల	-6447
▁్రేక	-6448
▁Reddy	-6449
▁వస్తు	-6450
▁69	-6451
▁76	-6452
▁یو	-6453
▁చలి	-6454
▁రాగ	-6455
▁ిటల	-6456
▁్నం	-6457
▁పోర్	-6458
▁సముద	-6459
▁స్టర	-6460
▁ిష్క	-6461
▁్యాడ	-6462
▁్వీక	-6463
▁మ్మడి	-6464
▁్వీట్	-6465
ئر	-6466
▁77	-6467
▁po	-6468
▁ww	-6469
▁డబ	-6470
▁నిబ	-6471
▁పెద	-6472
▁ిగు	-6473
▁ీలక	-6474
▁king	-6475
▁پوسٹ	-6476
▁ہمیں	-6477
▁బితా	-6478
▁శ్వా	-6479
▁ిసార	-6480
▁ేరుత	-6481
▁్రీన	-6482
▁TSPSC	-6483
▁కెట్ల	-6484
▁ార్మి	-6485
▁ీళ్లు	-6486
▁ులోని	-6487
▁్థానం	-6488
▁్రాణా	-6489
▁୨	-6490
▁IN	-6491
▁نگ	-6492
▁وی	-6493
▁షర	-6494
▁www	-6495
▁گئی	-6496
▁ఆదా	-6497
▁ట్స	-6498
▁రెన	-6499
▁ారత	-6500
▁ూప్	-6501
▁చెన్	-6502
▁నట్ల	-6503
▁యాదవ	-6504
▁రామం	-6505
▁ిబ్బ	-6506
▁ెడుత	-6507
▁పత్రి	-6508
▁రెంట్	-6509
ke	-6510
▁82	-6511
▁De	-6512
▁Mo	-6513
▁వట	-6514
▁శక	-6515
▁శల	-6516
▁140	-6517
▁కరీ	-6518
▁మద్	-6519
▁రను	-6520
▁రలు	-6521
▁ాటర	-6522
▁వసరమ	-6523
▁వుడ్	-6524
▁ిగిలి	-6525
▁श	-6526
gan	-6527
▁(3	-6528
▁th	-6529
▁جب	-6530
▁لی	-6531
▁ఈడ	-6532
▁బద	-6533
▁ంకట	-6534
▁ంచల	-6535
▁ాధ్	-6536
▁ానన	-6537
▁ువుర	-6538
▁అలాంట	-6539
▁కులను	-6540
▁న్నాయ	-6541
▁ేశించ	-6542
▁78	-6543
▁جو	-6544
▁فر	-6545
▁ଆର	-6546
▁ంటు	-6547
▁చిన	-6548
▁జిన	-6549
▁తల్	-6550
▁నక్	-6551
▁రెస	-6552
▁రైత	-6553
▁లకే	-6554
▁్థం	-6555
▁news	-6556
▁డికి	-6557
▁ర్ని	-6558
▁స్టు	-6559
▁ారన్	-6560
▁ృష్ట	-6561
▁ెలుప	-6562
▁ేల్చ	-6563
▁ర్నర్	-6564
اک	-6565
▁➦	-6566
▁6.	-6567
▁ab	-6568
▁ta	-6569
▁شی	-6570
▁طر	-6571
▁من	-6572
▁ఘట	-6573
▁యబ	-6574
▁700	-6575
▁బడా	-6576
▁మెల	-6577
▁లాక	-6578
▁ీజన	-6579
▁ెంచ	-6580
▁Tiru	-6581
▁రిగి	-6582
▁శాని	-6583
▁హారా	-6584
▁ాటిక	-6585
▁Jagan	-6586
▁tions	-6587
▁రూపాయ	-6588
▁ారులు	-6589
▁్రాలు	-6590
ge	-6591
టూ	-6592
▁്	-6593
wan	-6594
▁ri	-6595
▁دو	-6596
▁دیش	-6597
▁لئے	-6598
▁ఏదీ	-6599
▁గిస	-6600
▁గోల	-6601
▁చామ	-6602
▁యూస	-6603
▁సాద	-6604
▁ారె	-6605
▁ిలే	-6606
▁Brea	-6607
▁కోర్	-6608
▁గిలి	-6609
▁చ్చే	-6610
▁డియా	-6611
▁పరుగ	-6612
▁పులు	-6613
▁వ్యత	-6614
▁్వార	-6615
▁ంద్రబ	-6616
▁ర్టీల	-6617
▁ించార	-6618
▁ుకోలే	-6619
▁(4	-6620
▁7.	-6621
▁ck	-6622
▁నన	-6623
▁160	-6624
▁ంచా	-6625
▁తోట	-6626
▁పాధ	-6627
▁షమీ	-6628
▁ిపు	-6629
▁Read	-6630
▁post	-6631
▁డ్జె	-6632
▁ాంతం	-6633
▁ుత్వ	-6634
▁ండ్రు	-6635
▁వేస్త	-6636
ct	-6637
li	-6638
▁68	-6639
▁है	-6640
▁tha	-6641
▁دیک	-6642
▁మేన	-6643
▁ల్త	-6644
▁సభా	-6645
▁అయ్యా	-6646
▁ాట్లు	-6647
عل	-6648
▁்	-6649
▁73	-6650
▁కళ	-6651
▁శన	-6652
▁షల	-6653
▁ہند	-6654
▁కను	-6655
▁చలన	-6656
▁టలు	-6657
▁డేం	-6658
▁యాగ	-6659
▁ీతో	-6660
▁ురే	-6661
▁ూడు	-6662
▁్రయ	-6663
▁కేష్	-6664
▁పార్	-6665
▁టెస్ట	-6666
اد	-6667
رم	-6668
ول	-6669
ఢ్	-6670
ణు	-6671
▁_	-6672
స్థల	-6673
▁అణు	-6674
▁పదం	-6675
▁రాడ	-6676
▁రుష	-6677
▁కలకు	-6678
▁జెట్	-6679
▁న్నో	-6680
▁రేంద	-6681
▁్యంగ	-6682
▁ంస్థల	-6683
▁కార్ప	-6684
▁ిలోకి	-6685
re	-6686
▁غ	-6687
▁☛	-6688
▁108	-6689
▁119	-6690
▁ఓవర	-6691
▁కేం	-6692
▁తనక	-6693
▁నేల	-6694
▁వలం	-6695
▁షాల	-6696
▁ిరో	-6697
▁న్సి	-6698
▁మున్	-6699
▁్రిగ	-6700
▁కొడుక	-6701
▁ృష్టి	-6702
20	-6703
ho	-6704
تی	-6705
چھ	-6706
یس	-6707
▁5.	-6708
▁88	-6709
▁Ap	-6710
▁IM	-6711
▁اب	-6712
▁భీ	-6713
▁بار	-6714
▁అదీ	-6715
▁ఆనం	-6716
▁గఢ్	-6717
▁చెల	-6718
▁నడక	-6719
▁పీఎ	-6720
▁మయ్	-6721
▁రసన	-6722
▁ియే	-6723
▁ూచి	-6724
▁దివా	-6725
▁పంపి	-6726
▁ములు	-6727
▁రిన్	-6728
▁ళ్లి	-6729
▁వర్ల	-6730
▁ార్ప	-6731
im	-6732
భయ	-6733
▁5,	-6734
▁OT	-6735
▁مت	-6736
▁پہ	-6737
▁ణమ	-6738
▁ایس	-6739
▁ఆవు	-6740
▁ఈజీ	-6741
▁ఉభయ	-6742
▁తేజ	-6743
▁నేహ	-6744
▁ీటి	-6745
▁ుప్	-6746
▁ేగా	-6747
▁ైకో	-6748
▁ణంగా	-6749
▁ధ్యం	-6750
▁లంలో	-6751
▁ృద్ధ	-6752
▁ంభించ	-6753
▁యత్నా	-6754
▁़	-6755
▁7,	-6756
▁74	-6757
▁Ka	-6758
▁va	-6759
▁దజ	-6760
▁350	-6761
▁ఉరి	-6762
▁ఓట్	-6763
▁టుక	-6764
▁నిగ	-6765
▁ాలజ	-6766
▁ుంబ	-6767
▁ేదు	-6768
▁شیئر	-6769
▁త్వా	-6770
▁యార్	-6771
▁ెబ్బ	-6772
▁ంధించ	-6773
▁ించలే	-6774
▁ృద్ధి	-6775
▁ୂ	-6776
ارت	-6777
▁81	-6778
▁یں	-6779
▁సృ	-6780
umar	-6781
▁125	-6782
▁BRS	-6783
▁دور	-6784
▁ఐడీ	-6785
▁కున	-6786
▁పంద	-6787
▁పూల	-6788
▁రోస	-6789
▁ిచా	-6790
▁ుభవ	-6791
▁్శక	-6792
▁రీని	-6793
▁ిరేక	-6794
▁చేశాడ	-6795
▁్తింప	-6796
▁్నాలు	-6797
te	-6798
خت	-6799
యూ	-6800
▁ू	-6801
▁BJ	-6802
▁యస	-6803
▁Sha	-6804
▁ఎంట	-6805
▁కేర	-6806
▁లయం	-6807
▁్యప	-6808
▁ఇక్క	-6809
▁యిలో	-6810
▁యుడు	-6811
▁రాము	-6812
▁ర్వే	-6813
▁వంత్	-6814
▁విస్	-6815
▁్రలో	-6816
▁Prade	-6817
▁పొంది	-6818
TR	-6819
ig	-6820
ve	-6821
▁Z	-6822
▁଼	-6823
ابق	-6824
▁ne	-6825
▁وہ	-6826
▁ରେ	-6827
▁దక	-6828
▁10,	-6829
▁ఓయూ	-6830
▁తాత	-6831
▁ధాల	-6832
▁పేస	-6833
▁మిస	-6834
▁యార	-6835
▁హవా	-6836
▁ియు	-6837
▁్చా	-6838
▁Elec	-6839
▁అలాగ	-6840
▁టాలు	-6841
▁టింగ	-6842
▁ద్ధం	-6843
▁ెరిగ	-6844
▁పరుగు	-6845
▁ిలోని	-6846
▁ుంటాయ	-6847
▁్చారు	-6848
CC	-6849
id	-6850
▁y	-6851
▁ै	-6852
jay	-6853
امی	-6854
▁ru	-6855
▁ڈی	-6856
▁కస	-6857
▁టర	-6858
▁1.5	-6859
▁ఇక్	-6860
▁భీం	-6861
▁రాఫ	-6862
▁ల్య	-6863
▁ttps	-6864
▁టర్ల	-6865
▁ద్దే	-6866
▁రిపి	-6867
▁Pawan	-6868
▁రుగుత	-6869
قی	-6870
▁x	-6871
▁आ	-6872
▁ଘ	-6873
▁Lo	-6874
▁ఏఈ	-6875
▁లల	-6876
▁2.5	-6877
▁BJP	-6878
▁కలో	-6879
▁లంగ	-6880
▁సంవ	-6881
▁ిరే	-6882
▁ురై	-6883
▁ేకప	-6884
▁ౌడ్	-6885
▁Andh	-6886
▁డింద	-6887
▁దీన్న	-6888
▁ిలియన	-6889
▁ుతుంట	-6890
▁్పులు	-6891
ائی	-6892
▁89	-6893
▁GB	-6894
▁جن	-6895
▁की	-6896
▁ଏବ	-6897
▁BBC	-6898
▁Goo	-6899
▁ంతమ	-6900
▁కవి	-6901
▁గది	-6902
▁గోడ	-6903
▁ట్య	-6904
▁డీస	-6905
▁నయం	-6906
▁పథ్	-6907
▁పీక	-6908
▁యూన	-6909
▁రవే	-6910
▁ాలన	-6911
▁ఇంటర	-6912
▁ఉద్ద	-6913
▁గంలో	-6914
▁చింద	-6915
▁ర్టు	-6916
▁India	-6917
▁లిస్త	-6918
▁వ్వడం	-6919
▁ୱ	-6920
ورٹ	-6921
▁83	-6922
▁Sa	-6923
▁చం	-6924
▁లడ	-6925
▁sha	-6926
▁بعد	-6927
▁టిప	-6928
▁మిష	-6929
▁హల్	-6930
▁ంశాల	-6931
▁టించ	-6932
▁తుల్	-6933
▁బాటు	-6934
▁ాంతా	-6935
▁ాదని	-6936
▁్కార	-6937
▁్రామ	-6938
▁టానిక	-6939
▁ట్లలో	-6940
▁ప్రాధ	-6941
▁మన్నా	-6942
▁లర్లు	-6943
▁వాన్న	-6944
▁ిపారు	-6945
DP	-6946
RR	-6947
▁ୌ	-6948
old	-6949
▁9,	-6950
▁یک	-6951
▁Man	-6952
▁کہا	-6953
▁ంచన	-6954
▁అవే	-6955
▁కుప	-6956
▁డటం	-6957
▁థ్య	-6958
▁ఫాం	-6959
▁ురి	-6960
▁్కర	-6961
▁గారం	-6962
▁తంగా	-6963
▁ద్యం	-6964
▁బీబీ	-6965
▁ికిత	-6966
sa	-6967
اس	-6968
رہ	-6969
▁ध	-6970
▁Su	-6971
▁का	-6972
▁ధమ	-6973
▁طرح	-6974
▁ఊరి	-6975
▁డతా	-6976
▁తిల	-6977
▁తేద	-6978
▁నదీ	-6979
▁పుక	-6980
▁ులక	-6981
▁్డే	-6982
▁Kaly	-6983
▁Reva	-6984
▁ద్ధమ	-6985
▁లిలో	-6986
▁సీజన	-6987
▁ాదవ్	-6988
▁ారుత	-6989
▁ియోగ	-6990
▁అప్పట	-6991
▁ట్లకు	-6992
CR	-6993
▁ख	-6994
▁(5	-6995
▁8,	-6996
▁86	-6997
▁92	-6998
▁CM	-6999
▁II	-7000
▁ng	-7001
▁ళల	-7002
▁ంతం	-7003
▁కత్	-7004
▁గాం	-7005
▁టార	-7006
▁నెం	-7007
▁బలి	-7008
▁మరే	-7009
▁రుప	-7010
▁రోల	-7011
▁మెడి	-7012
▁రప్ర	-7013
▁రాలు	-7014
▁లోచన	-7015
▁ితుడ	-7016
▁క్కిం	-7017
▁చేశార	-7018
BI	-7019
ay	-7020
ld	-7021
لے	-7022
▁ذ	-7023
▁ھ	-7024
▁Ar	-7025
▁Ys	-7026
▁on	-7027
▁جھ	-7028
▁లన	-7029
▁180	-7030
▁20,	-7031
▁Che	-7032
▁gle	-7033
▁కేఏ	-7034
▁హుల	-7035
▁ారన	-7036
▁్తల	-7037
▁ంతాల	-7038
▁కిస్	-7039
▁తంలో	-7040
▁తువు	-7041
▁పంచా	-7042
▁రికొ	-7043
▁ాధిక	-7044
▁ికేష	-7045
▁్యూల	-7046
▁్లలో	-7047
▁ంటుంద	-7048
▁డియాల	-7049
▁తప్పి	-7050
▁ిగాయి	-7051
CP	-7052
گر	-7053
▁ʼ	-7054
oll	-7055
▁بن	-7056
▁گر	-7057
▁ଉକ	-7058
▁ఇత	-7059
▁దట	-7060
orld	-7061
▁طور	-7062
▁ଏବଂ	-7063
▁పడ్	-7064
▁భాల	-7065
▁ాయత	-7066
▁ోజు	-7067
▁్థా	-7068
▁والے	-7069
▁ہندو	-7070
▁ఆర్థ	-7071
▁దేశా	-7072
▁ద్వా	-7073
▁యెల్	-7074
▁రీన్	-7075
▁ికగా	-7076
▁్మిం	-7077
▁ించాల	-7078
ٹر	-7079
▁ए	-7080
▁RA	-7081
▁mi	-7082
▁of	-7083
▁تح	-7084
▁مط	-7085
▁ఖం	-7086
▁యక	-7087
▁110	-7088
▁130	-7089
▁370	-7090
▁ملا	-7091
▁کچھ	-7092
▁ఎటు	-7093
▁గణన	-7094
▁పిట	-7095
▁రోవ	-7096
▁సకల	-7097
▁ిఫి	-7098
▁ోగు	-7099
▁్వె	-7100
▁్షం	-7101
▁والی	-7102
▁న్నవ	-7103
▁పుట్	-7104
▁పేర్	-7105
▁ువకు	-7106
▁్బుల	-7107
▁دوران	-7108
▁పడ్డా	-7109
▁శారని	-7110
▁్లాడి	-7111
ود	-7112
وے	-7113
ٹی	-7114
▁ಒ	-7115
ana	-7116
▁Me	-7117
▁UP	-7118
▁Va	-7119
▁de	-7120
▁ال	-7121
▁15,	-7122
▁سرچ	-7123
▁ఏకం	-7124
▁తేమ	-7125
▁రజా	-7126
▁రలో	-7127
▁రేల	-7128
▁వరస	-7129
▁వైద	-7130
▁ాయప	-7131
▁తలను	-7132
▁నాయి	-7133
▁రికె	-7134
▁శాన్	-7135
▁స్త్	-7136
▁స్సీ	-7137
▁ీయాల	-7138
▁Price	-7139
▁చేయాల	-7140
▁టర్లు	-7141
▁తిరుప	-7142
▁య్యార	-7143
▁సింది	-7144
▁el	-7145
▁se	-7146
▁مس	-7147
▁ిళ	-7148
▁25,	-7149
▁Raj	-7150
▁lth	-7151
▁انی	-7152
▁ంశం	-7153
▁గట్	-7154
▁టెల	-7155
▁మీన	-7156
▁శాస	-7157
▁ిజె	-7158
▁ొంత	-7159
▁Gold	-7160
▁కోట్	-7161
▁ట్టా	-7162
▁దాన్	-7163
▁పంది	-7164
▁కావడం	-7165
▁ప్రాయ	-7166
▁యాలని	-7167
▁ాట్లా	-7168
▁ీట్లు	-7169
▁ుగులు	-7170
در	-7171
لم	-7172
పి	-7173
▁-1	-7174
▁79	-7175
▁87	-7176
▁96	-7177
▁97	-7178
▁تر	-7179
▁می	-7180
▁యర	-7181
▁تیا	-7182
▁لوگ	-7183
▁ఇదో	-7184
▁మెక	-7185
▁సాన	-7186
▁్చల	-7187
▁్యర	-7188
▁చనిప	-7189
▁జాగా	-7190
▁లల్ల	-7191
▁ినియ	-7192
▁ెల్స	-7193
▁World	-7194
▁ీక్షల	-7195
عم	-7196
బా	-7197
ارف	-7198
్వా	-7199
▁98	-7200
▁को	-7201
▁111	-7202
▁13,	-7203
▁IPL	-7204
▁bha	-7205
▁رہا	-7206
▁رہے	-7207
▁گئے	-7208
▁ఇదీ	-7209
▁తిడ	-7210
▁మత్	-7211
▁మమత	-7212
▁వుర	-7213
▁ాణా	-7214
▁ాతీ	-7215
▁اپنے	-7216
▁ండటం	-7217
▁క్షా	-7218
▁గ్గి	-7219
▁ద్దా	-7220
▁రింగ	-7221
▁షించ	-7222
▁ఇవ్వా	-7223
▁నాలను	-7224
▁న్నామ	-7225
▁పాట్ల	-7226
▁ల్లాల	-7227
▁ోగించ	-7228
RI	-7229
لک	-7230
▁To	-7231
▁ap	-7232
▁اں	-7233
▁ృం	-7234
▁(1)	-7235
▁12,	-7236
▁Ram	-7237
▁ing	-7238
▁କରି	-7239
▁ఉన్	-7240
▁గాన	-7241
▁పుడ	-7242
▁సమం	-7243
▁ాదే	-7244
▁్తో	-7245
▁Fact	-7246
▁ہونے	-7247
▁చూపి	-7248
▁స్తో	-7249
▁్యంత	-7250
▁్లార	-7251
▁بھارت	-7252
▁్పత్త	-7253
DA	-7254
یت	-7255
▁फ	-7256
▁St	-7257
▁ీహ	-7258
▁IND	-7259
▁آئی	-7260
▁پار	-7261
▁ంజీ	-7262
▁ఆగి	-7263
▁దీన	-7264
▁పడవ	-7265
▁బుల	-7266
▁ిగే	-7267
▁ిహా	-7268
▁ూసు	-7269
▁్చన	-7270
▁కమిట	-7271
▁చ్చా	-7272
▁దులో	-7273
▁పోలి	-7274
▁Vijay	-7275
▁శించి	-7276
▁ావిస్	-7277
▁ీల్లో	-7278
قع	-7279
han	-7280
ush	-7281
ائع	-7282
یکہ	-7283
▁8.	-7284
▁93	-7285
▁AN	-7286
▁ca	-7287
▁ka	-7288
▁li	-7289
▁دن	-7290
▁ون	-7291
▁్హ	-7292
▁Bha	-7293
▁the	-7294
▁ఆహా	-7295
▁ఈమె	-7296
▁ఉమా	-7297
▁డంప	-7298
▁సౌర	-7299
▁హత్	-7300
▁హిర	-7301
▁ాలర	-7302
▁ోయా	-7303
▁్కు	-7304
▁చార్	-7305
▁టారు	-7306
▁డ్డి	-7307
▁తిగా	-7308
▁ాంటి	-7309
▁ారిట	-7310
▁ేరుక	-7311
▁ఇజ్రా	-7312
yd	-7313
از	-7314
ظر	-7315
نڈ	-7316
گو	-7317
ائے	-7318
▁آر	-7319
▁ائ	-7320
▁టప	-7321
▁రడ	-7322
▁900	-7323
▁Cup	-7324
▁امی	-7325
▁تھی	-7326
▁ంధి	-7327
▁ఎగ్	-7328
▁ఘన్	-7329
▁చడం	-7330
▁డీఏ	-7331
▁బయో	-7332
▁యామ	-7333
▁ాధి	-7334
▁్తం	-7335
▁صارف	-7336
▁ండిప	-7337
▁నుకు	-7338
▁నుమా	-7339
▁ిమాన	-7340
▁ేలియ	-7341
▁్రీం	-7342
▁ఆర్టీ	-7343
mi	-7344
▁=	-7345
▁ଂ	-7346
day	-7347
యిల	-7348
▁(6	-7349
▁2)	-7350
▁>>	-7351
▁en	-7352
▁ఒప	-7353
▁104	-7354
▁115	-7355
▁ఓడి	-7356
▁కిం	-7357
▁కుక	-7358
▁తగు	-7359
▁తోష	-7360
▁్దా	-7361
▁్పే	-7362
▁్పొ	-7363
▁tips	-7364
▁ہیکہ	-7365
▁క్టు	-7366
▁క్షక	-7367
▁డుతూ	-7368
▁నిన్	-7369
▁లంటే	-7370
▁వాని	-7371
▁టీఆర్	-7372
▁బెయిల	-7373
▁యాంక్	-7374
▁యాలను	-7375
▁ోవచ్చ	-7376
IA	-7377
ST	-7378
▁Q	-7379
امل	-7380
▁91	-7381
▁to	-7382
▁اک	-7383
▁سب	-7384
▁کم	-7385
▁గప	-7386
▁14,	-7387
▁21,	-7388
▁30,	-7389
▁UPI	-7390
▁ఆపి	-7391
▁ఆశా	-7392
▁దళం	-7393
▁దళ్	-7394
▁నటన	-7395
▁లయ్	-7396
▁ెంక	-7397
▁్యయ	-7398
▁గులో	-7399
▁చుకో	-7400
▁శక్త	-7401
▁సూర్	-7402
▁్వడం	-7403
▁جارہا	-7404
▁్పాటు	-7405
ست	-7406
షా	-7407
ైవ	-7408
▁औ	-7409
ong	-7410
علق	-7411
▁MP	-7412
▁مق	-7413
▁ہی	-7414
laim	-7415
▁24,	-7416
▁کرد	-7417
▁ంపే	-7418
▁ఏక్	-7419
▁టాన	-7420
▁డిం	-7421
▁రెట	-7422
▁హేమ	-7423
▁ేతి	-7424
▁ఆస్ట	-7425
▁కొంద	-7426
▁గుర్	-7427
▁ధ్యక	-7428
▁మోడీ	-7429
▁వేశం	-7430
▁కపోవడ	-7431
▁ేసీఆర	-7432
بی	-7433
▁q	-7434
▁AC	-7435
▁تھ	-7436
▁ٹو	-7437
▁ଆଲ	-7438
▁ఆం	-7439
▁22,	-7440
▁Hyd	-7441
▁ایم	-7442
▁دیا	-7443
▁ంపల	-7444
▁తమై	-7445
▁దువ	-7446
▁నమ్	-7447
▁పీఏ	-7448
▁రోన	-7449
▁ుద్	-7450
▁ోసా	-7451
▁్షి	-7452
▁ress	-7453
▁اپنی	-7454
▁దుకు	-7455
▁పాత్	-7456
▁బంధన	-7457
▁బెంగ	-7458
▁షనర్	-7459
▁ోవాల	-7460
▁్రిప	-7461
▁యకర్త	-7462
▁ాయకుల	-7463
▁ుతోంద	-7464
▁్ట్రీ	-7465
▁CE	-7466
▁TT	-7467
▁بر	-7468
▁بڑ	-7469
▁سک	-7470
▁ంన	-7471
▁కప	-7472
▁11,	-7473
▁450	-7474
▁>>>	-7475
▁YSR	-7476
▁ంతే	-7477
▁ఆకు	-7478
▁మీక	-7479
▁రిన	-7480
▁ిషా	-7481
▁ెటర	-7482
▁్మో	-7483
▁్లమ	-7484
▁جانب	-7485
▁ఏడాద	-7486
▁కుంద	-7487
▁టీలో	-7488
▁యాక్	-7489
▁రింత	-7490
▁స్టి	-7491
▁హ్నం	-7492
▁ాధాన	-7493
▁ినిప	-7494
▁ినిమ	-7495
▁ెంటర	-7496
▁్లీల	-7497
▁kumar	-7498
▁مطابق	-7499
▁ఎమ్మె	-7500
0)	-7501
us	-7502
یل	-7503
▁ଠ	-7504
▁ക	-7505
లుగ	-7506
▁-2	-7507
▁94	-7508
▁co	-7509
▁تب	-7510
▁جا	-7511
▁را	-7512
▁(0)	-7513
▁135	-7514
▁Gan	-7515
▁RRR	-7516
▁بنگ	-7517
▁ఈవీ	-7518
▁చవి	-7519
▁పోర	-7520
▁మిద	-7521
▁రెం	-7522
▁రోడ	-7523
▁ీవి	-7524
▁ీసి	-7525
▁abad	-7526
▁ంటనే	-7527
▁దాలు	-7528
▁ద్దర	-7529
▁మత్త	-7530
▁స్థి	-7531
▁వెలుగ	-7532
▁ుట్టి	-7533
AS	-7534
ru	-7535
▁୧	-7536
jun	-7537
డుద	-7538
▁تل	-7539
▁رک	-7540
▁گھ	-7541
▁और	-7542
▁డర	-7543
▁దం	-7544
پورٹ	-7545
ర్వహ	-7546
▁18,	-7547
▁تعم	-7548
▁బహి	-7549
▁భట్	-7550
▁లాన	-7551
▁ుపె	-7552
▁ెద్	-7553
▁్జి	-7554
▁్టల	-7555
▁دعوے	-7556
▁కేటీ	-7557
▁గిపో	-7558
▁డారు	-7559
▁భ్యు	-7560
▁రిని	-7561
▁్రయో	-7562
▁ఖాస్త	-7563
▁విడుద	-7564
▁ిర్వహ	-7565
مہ	-7566
ہر	-7567
▁୦	-7568
▁9.	-7569
▁ce	-7570
▁me	-7571
▁مع	-7572
▁से	-7573
▁దప	-7574
▁మమ	-7575
▁వక	-7576
▁151	-7577
▁3.5	-7578
▁31,	-7579
▁OTT	-7580
▁TTD	-7581
▁انت	-7582
▁ہوا	-7583
▁ఐదవ	-7584
▁ఖర్	-7585
▁గళం	-7586
▁చాన	-7587
▁డను	-7588
▁డెం	-7589
▁బిత	-7590
▁ుమల	-7591
▁شائع	-7592
▁واقع	-7593
▁ంగ్ర	-7594
▁అంది	-7595
▁కల్య	-7596
▁గ్రె	-7597
▁తుకు	-7598
▁ప్షన	-7599
▁బహిర	-7600
▁మీటర	-7601
▁వుతా	-7602
▁ాయెల	-7603
▁ిగిన	-7604
▁رپورٹ	-7605
▁ఇస్తా	-7606
▁ట్టుబ	-7607
▁ట్లతో	-7608
▁ోయింద	-7609
ବର	-7610
వో	-7611
▁ୃ	-7612
▁di	-7613
▁مح	-7614
▁مد	-7615
▁وج	-7616
▁ఝా	-7617
▁ధం	-7618
▁102	-7619
▁16,	-7620
▁Kar	-7621
▁kar	-7622
▁حال	-7623
▁سال	-7624
▁ଏହି	-7625
▁ଖବର	-7626
▁ఏమో	-7627
▁ఏవో	-7628
▁ఖాస	-7629
▁జాడ	-7630
▁పబ్	-7631
▁ముద	-7632
▁మోత	-7633
▁యిం	-7634
▁రనే	-7635
▁రసం	-7636
▁వ్ర	-7637
▁సీట	-7638
▁ాగర	-7639
▁ిడె	-7640
▁ుసు	-7641
▁్నవ	-7642
▁్షా	-7643
▁Modi	-7644
▁గోలు	-7645
▁టీని	-7646
▁డింగ	-7647
▁ాజిక	-7648
▁ూముల	-7649
▁్టర్	-7650
▁్టిస	-7651
▁్తాయ	-7652
▁్తార	-7653
▁Hyder	-7654
▁ఇచ్చా	-7655
▁నట్టు	-7656
▁నట్లు	-7657
▁స్తాయ	-7658
AI	-7659
IM	-7660
se	-7661
زی	-7662
ضی	-7663
▁ٓ	-7664
▁इ	-7665
▁0.	-7666
▁BS	-7667
▁ma	-7668
▁جے	-7669
▁در	-7670
▁ور	-7671
▁షమ	-7672
rish	-7673
▁101	-7674
▁The	-7675
▁لیے	-7676
▁ملک	-7677
▁అరు	-7678
▁కతా	-7679
▁చరి	-7680
▁చీర	-7681
▁టాడ	-7682
▁నమో	-7683
▁బావ	-7684
▁మీల	-7685
▁యని	-7686
▁లీస	-7687
▁సమస	-7688
▁్గొ	-7689
▁్జీ	-7690
▁్నే	-7691
▁Allu	-7692
▁ایکس	-7693
▁గులు	-7694
▁నింగ	-7695
▁పులో	-7696
▁మెల్	-7697
▁రుతో	-7698
▁సీట్	-7699
▁پارٹی	-7700
▁గించి	-7701
▁చెంది	-7702
▁డియోల	-7703
▁తెలుగ	-7704
▁రాలకు	-7705
su	-7706
ub	-7707
لف	-7708
▁थ	-7709
▁ி	-7710
our	-7711
یان	-7712
▁(8	-7713
▁4)	-7714
▁AM	-7715
▁Di	-7716
▁rt	-7717
▁اع	-7718
▁ست	-7719
▁ସହ	-7720
▁ణా	-7721
▁118	-7722
▁170	-7723
▁IMD	-7724
▁KCR	-7725
▁TDP	-7726
▁cha	-7727
▁tra	-7728
▁ریس	-7729
▁ఆగం	-7730
▁ఎటూ	-7731
▁గుత	-7732
▁ధన్	-7733
▁భిన	-7734
▁లంద	-7735
▁లనే	-7736
▁ివృ	-7737
▁پولی	-7738
▁త్నా	-7739
▁మ్మడ	-7740
▁రియల	-7741
▁ేశ్వ	-7742
▁్రిక	-7743
▁పక్షా	-7744
▁లాడుత	-7745
▁్యమైన	-7746
it	-7747
ly	-7748
ne	-7749
ڑک	-7750
eng	-7751
ith	-7752
unt	-7753
اہر	-7754
ూరు	-7755
▁(7	-7756
▁-3	-7757
▁2-	-7758
▁NC	-7759
▁is	-7760
▁it	-7761
▁le	-7762
▁اف	-7763
▁پڑ	-7764
▁रह	-7765
▁ଉପ	-7766
▁ఐప	-7767
▁230	-7768
▁420	-7769
▁پشن	-7770
▁کسی	-7771
▁ఏకే	-7772
▁గస్	-7773
▁చనల	-7774
▁చిస	-7775
▁ణలో	-7776
▁నీత	-7777
▁మూవ	-7778
▁ిజన	-7779
▁ఎయిర	-7780
▁తులో	-7781
▁దిని	-7782
▁ప్పా	-7783
▁మోదీ	-7784
▁యమైన	-7785
▁ర్కా	-7786
▁ిరుద	-7787
▁ిశ్వ	-7788
▁్రియ	-7789
▁تعمال	-7790
▁پولیس	-7791
▁ర్టుల	-7792
MC	-7793
mb	-7794
رے	-7795
وع	-7796
یہ	-7797
▁ി	-7798
▁₹	-7799
ama	-7800
راہ	-7801
▁اد	-7802
▁پا	-7803
▁کھ	-7804
▁पर	-7805
▁ଉଲ	-7806
▁జక	-7807
▁మడ	-7808
▁వచ	-7809
▁(2)	-7810
▁224	-7811
▁240	-7812
▁29)	-7813
▁Ban	-7814
▁مخت	-7815
▁ఆంద	-7816
▁ఐజీ	-7817
▁చెర	-7818
▁నేడ	-7819
▁పన్	-7820
▁రమణ	-7821
▁ాంధ	-7822
▁دیکھ	-7823
▁క్కర	-7824
▁ర్కె	-7825
▁ష్మీ	-7826
▁ాడార	-7827
▁ుడిగ	-7828
▁Claim	-7829
▁ందుబా	-7830
▁గ్రెస	-7831
▁సీనియ	-7832
SC	-7833
du	-7834
oli	-7835
▁AD	-7836
▁PA	-7837
▁حم	-7838
▁سم	-7839
▁شر	-7840
▁غل	-7841
▁لگ	-7842
▁యధ	-7843
▁ొద	-7844
▁ಇದ	-7845
▁You	-7846
▁مار	-7847
▁نیو	-7848
▁ఊపు	-7849
▁చేం	-7850
▁దాద	-7851
▁నమః	-7852
▁ిబ్	-7853
▁ీపం	-7854
▁ందిస	-7855
▁ఎకరా	-7856
▁క్లా	-7857
▁చనాల	-7858
▁్లపై	-7859
▁Today	-7860
▁ప్రైవ	-7861
▁హరించ	-7862
▁్ట్స్	-7863
ET	-7864
وب	-7865
ఘు	-7866
▁ष	-7867
are	-7868
اوی	-7869
یاد	-7870
▁3)	-7871
▁Ch	-7872
▁EV	-7873
▁ML	-7874
▁da	-7875
▁qu	-7876
▁حک	-7877
▁ٹر	-7878
▁ଅପ	-7879
▁తజ	-7880
▁128	-7881
▁19,	-7882
▁23,	-7883
▁App	-7884
▁Pro	-7885
▁Shi	-7886
▁Tha	-7887
▁alu	-7888
▁ion	-7889
▁گوگ	-7890
▁ఏజ్	-7891
▁కళా	-7892
▁టామ	-7893
▁డుద	-7894
▁శవం	-7895
▁ాపి	-7896
▁్ధమ	-7897
▁్రస	-7898
▁امیج	-7899
▁ంగాల	-7900
▁అయిత	-7901
▁కాదన	-7902
▁జ్రా	-7903
▁పోతు	-7904
▁మండి	-7905
▁మోహన	-7906
▁రయ్య	-7907
▁రితం	-7908
▁లిగి	-7909
▁వసరం	-7910
▁ాజ్య	-7911
▁త్నాల	-7912
▁పరిస్	-7913
▁ివేది	-7914
▁ెన్షన	-7915
GB	-7916
ki	-7917
oc	-7918
ضم	-7919
▁•	-7920
ئیر	-7921
ریب	-7922
యలే	-7923
▁05	-7924
▁09	-7925
▁AT	-7926
▁CI	-7927
▁La	-7928
▁RC	-7929
▁ic	-7930
▁اے	-7931
▁شن	-7932
▁مب	-7933
▁کن	-7934
▁گی	-7935
▁ଯେ	-7936
▁ఈఈ	-7937
▁ఈత	-7938
▁ఠి	-7939
▁220	-7940
▁28,	-7941
▁and	-7942
▁غلط	-7943
▁ంజయ	-7944
▁ఊపి	-7945
▁టోన	-7946
▁డీఈ	-7947
▁తరా	-7948
▁నయా	-7949
▁మాక	-7950
▁రకా	-7951
▁రీక	-7952
▁రున	-7953
▁సెగ	-7954
▁హనీ	-7955
▁ూలం	-7956
▁ొలగ	-7957
▁ోనూ	-7958
▁گوگل	-7959
▁టిలో	-7960
▁దువు	-7961
▁నందు	-7962
▁ర్పి	-7963
▁సుకు	-7964
▁ేయలే	-7965
▁ోజుల	-7966
▁త్వాన	-7967
▁య్యాయ	-7968
▁ాగ్రత	-7969
▁్యులు	-7970
CL	-7971
PF	-7972
خص	-7973
قیق	-7974
్పత	-7975
▁Bo	-7976
▁es	-7977
▁mo	-7978
▁وز	-7979
▁پت	-7980
▁ెద	-7981
▁17)	-7982
▁21)	-7983
▁26,	-7984
▁Hea	-7985
▁Pay	-7986
▁kon	-7987
▁جات	-7988
▁خبر	-7989
▁ଏହା	-7990
▁ంధం	-7991
▁అమ్	-7992
▁ఆలం	-7993
▁ఎట్	-7994
▁టీఆ	-7995
▁రగడ	-7996
▁వలే	-7997
▁ాఖ్	-7998
▁ామన	-7999
▁ికం	-8000
▁ీపై	-8001
▁ెయ్	-8002
▁ౌరవ	-8003
▁్టు	-8004
▁بیان	-8005
▁لکھا	-8006
▁پہلے	-8007
▁ందిత	-8008
▁అనుమ	-8009
▁కోరి	-8010
▁గార్	-8011
▁గ్రత	-8012
▁టెన్	-8013
▁తాల్	-8014
▁త్పత	-8015
▁దర్భ	-8016
▁నిపో	-8017
▁మాజి	-8018
▁రితో	-8019
▁రిమి	-8020
▁ించు	-8021
▁ితాల	-8022
▁ిమాల	-8023
▁ియోల	-8024
▁ెంచు	-8025
▁్లకు	-8026
▁انہوں	-8027
▁مختلف	-8028
▁ల్సిన	-8029
▁ొచ్చా	-8030
ER	-8031
مل	-8032
େଇ	-8033
ine	-8034
لاق	-8035
ورس	-8036
పాట	-8037
▁1)	-8038
▁Ba	-8039
▁Ke	-8040
▁MA	-8041
▁پھ	-8042
▁یڈ	-8043
▁ఔష	-8044
▁రర	-8045
▁14)	-8046
▁30)	-8047
▁CEO	-8048
▁Var	-8049
▁ریا	-8050
▁سائ	-8051
▁پور	-8052
▁ھرا	-8053
▁కరి	-8054
▁గడప	-8055
▁భర్	-8056
▁మూత	-8057
▁లకొ	-8058
▁వైప	-8059
▁ునీ	-8060
▁ులం	-8061
▁Babu	-8062
▁rtha	-8063
▁جاری	-8064
▁فرضی	-8065
▁نیوز	-8066
▁థాన్	-8067
▁ద్యమ	-8068
▁నులు	-8069
▁సంఘట	-8070
▁్రాక	-8071
▁్లర్	-8072
▁لوگوں	-8073
▁చ్చాయ	-8074
▁తులను	-8075
▁తోపాట	-8076
▁యడంతో	-8077
▁స్థాయ	-8078
▁ిత్రా	-8079
▁ీడియా	-8080
سم	-8081
نٹ	-8082
وج	-8083
▁[	-8084
▁z	-8085
▁­	-8086
▁ఙ	-8087
▁ಏ	-8088
▁⁪	-8089
ram	-8090
انی	-8091
ینڈ	-8092
▁(9	-8093
▁1-	-8094
▁GP	-8095
▁SA	-8096
▁TV	-8097
▁YS	-8098
▁hi	-8099
▁il	-8100
▁un	-8101
▁او	-8102
▁بچ	-8103
▁فی	-8104
▁مہ	-8105
▁ణప	-8106
▁రథ	-8107
▁ీఐ	-8108
▁105	-8109
▁17,	-8110
▁360	-8111
▁4.5	-8112
▁ver	-8113
▁شخص	-8114
▁గని	-8115
▁చాడ	-8116
▁తలో	-8117
▁యమన	-8118
▁యశ్	-8119
▁శ్న	-8120
▁సక్	-8121
▁సవా	-8122
▁హనా	-8123
▁హన్	-8124
▁ినప	-8125
▁ోపా	-8126
▁بارے	-8127
▁గ్లా	-8128
▁రారం	-8129
▁ర్తు	-8130
▁లారు	-8131
▁ానాల	-8132
▁ువాత	-8133
▁్రోల	-8134
▁్లోక	-8135
▁YSRCP	-8136
▁دیکھا	-8137
▁వ్యవస	-8138
▁స్తాన	-8139
CI	-8140
MR	-8141
op	-8142
ul	-8143
▁ఋ	-8144
▁ಘ	-8145
▁03	-8146
▁ND	-8147
▁ad	-8148
▁ts	-8149
▁تق	-8150
▁کل	-8151
▁ने	-8152
▁भी	-8153
▁ణక	-8154
▁రయ	-8155
▁107	-8156
▁109	-8157
▁145	-8158
▁29,	-8159
▁750	-8160
▁Big	-8161
▁Nan	-8162
▁pap	-8163
▁son	-8164
▁war	-8165
▁رام	-8166
▁چین	-8167
▁ہوگ	-8168
▁یوب	-8169
▁یوٹ	-8170
▁ఈడి	-8171
▁ఓలా	-8172
▁కేష	-8173
▁తిష	-8174
▁నగల	-8175
▁నేం	-8176
▁పొం	-8177
▁మాచ	-8178
▁రఘు	-8179
▁రవా	-8180
▁హరీ	-8181
▁ాంల	-8182
▁ాతం	-8183
▁ాలత	-8184
▁ీసర	-8185
▁Nara	-8186
▁Ravi	-8187
▁جھوٹ	-8188
▁شامل	-8189
▁ہوئی	-8190
▁ఉండట	-8191
▁ఎంపి	-8192
▁త్యక	-8193
▁దాడు	-8194
▁లికా	-8195
▁వాలు	-8196
▁ిచిన	-8197
▁్సుల	-8198
▁Arjun	-8199
▁تحقیق	-8200
▁ఎక్కు	-8201
▁కావాల	-8202
▁తానిక	-8203
▁ిగింద	-8204
▁్రాఫి	-8205
AP	-8206
el	-8207
اف	-8208
▁த	-8209
▁‪	-8210
RTC	-8211
ood	-8212
اند	-8213
انے	-8214
▁Op	-8215
▁Ro	-8216
▁TG	-8217
▁لہ	-8218
▁نی	-8219
▁یٹ	-8220
▁ଓଡ	-8221
▁କୁ	-8222
▁ఇళ	-8223
▁డన	-8224
▁యగ	-8225
▁యత	-8226
▁(6)	-8227
▁15)	-8228
▁18)	-8229
▁RAM	-8230
▁Rah	-8231
▁San	-8232
▁اسی	-8233
▁انے	-8234
▁بتا	-8235
▁رہی	-8236
▁فار	-8237
▁لیک	-8238
▁پیش	-8239
▁گرد	-8240
▁ంధ్	-8241
▁ఈజ్	-8242
▁ఔషధ	-8243
▁జిక	-8244
▁టకు	-8245
▁తువ	-8246
▁పద్	-8247
▁మిళ	-8248
▁రేఖ	-8249
▁లీజ	-8250
▁శాయ	-8251
▁ులత	-8252
▁ేడా	-8253
▁ైద్	-8254
▁شئیر	-8255
▁پایا	-8256
▁కుని	-8257
▁పురు	-8258
▁రంభమ	-8259
▁రాజే	-8260
▁ల్వే	-8261
▁వినా	-8262
▁ాకుం	-8263
▁ిల్స	-8264
▁بنگلہ	-8265
▁تصاوی	-8266
▁వ్వాల	-8267
▁ార్లు	-8268
▁ుగురు	-8269
HO	-8270
kh	-8271
ہی	-8272
▁]	-8273
▁க	-8274
▁ೌ	-8275
ish	-8276
ندر	-8277
▁7)	-8278
▁Da	-8279
▁ah	-8280
▁nk	-8281
▁ur	-8282
▁ئے	-8283
▁بہ	-8284
▁نک	-8285
▁ଟି	-8286
▁మళ	-8287
▁శప	-8288
▁ెయ	-8289
▁103	-8290
▁NTR	-8291
▁Sab	-8292
▁nna	-8293
▁rma	-8294
▁tty	-8295
▁اسے	-8296
▁انڈ	-8297
▁این	-8298
▁لائ	-8299
▁وجہ	-8300
▁چلا	-8301
▁టేశ	-8302
▁నీడ	-8303
▁పదవ	-8304
▁బూర	-8305
▁రంప	-8306
▁వాగ	-8307
▁ిశీ	-8308
▁ేయడ	-8309
▁్బు	-8310
▁్వు	-8311
▁Push	-8312
▁Rain	-8313
▁مودی	-8314
▁ఎస్ట	-8315
▁చరిత	-8316
▁తుంద	-8317
▁ధికా	-8318
▁పారు	-8319
▁పోవడ	-8320
▁యాలి	-8321
▁ళ్లా	-8322
▁ళ్లీ	-8323
▁వాస్	-8324
▁వెను	-8325
▁ష్ణా	-8326
▁ీసుక	-8327
▁్షుడ	-8328
▁بتایا	-8329
▁గించే	-8330
▁తోంది	-8331
▁లితాల	-8332
▁సిపల్	-8333
▁ికారం	-8334
▁ెక్కి	-8335
▁ేదన్న	-8336
▁ోమవార	-8337
NG	-8338
SP	-8339
eo	-8340
اح	-8341
شت	-8342
قت	-8343
لو	-8344
کر	-8345
▁उ	-8346
ral	-8347
ube	-8348
اکس	-8349
یڈی	-8350
▁ch	-8351
▁ha	-8352
▁ఐస	-8353
▁121	-8354
▁19)	-8355
▁317	-8356
▁Sri	-8357
▁hea	-8358
▁nya	-8359
▁oor	-8360
▁آند	-8361
▁ترج	-8362
▁تھے	-8363
▁مدد	-8364
▁یوں	-8365
▁ంచక	-8366
▁ండె	-8367
▁ఏవి	-8368
▁కొద	-8369
▁గరం	-8370
▁జాం	-8371
▁డుగ	-8372
▁తోక	-8373
▁పరు	-8374
▁రైల	-8375
▁లోమ	-8376
▁వచ్	-8377
▁వయో	-8378
▁వేప	-8379
▁సరం	-8380
▁ికప	-8381
▁ిదం	-8382
▁ుతా	-8383
▁్గి	-8384
▁bhas	-8385
▁read	-8386
▁مسلم	-8387
▁نامی	-8388
▁క్కన	-8389
▁నంతర	-8390
▁నేషన	-8391
▁పెరి	-8392
▁రుద్	-8393
▁రెక్	-8394
▁లిచి	-8395
▁శాడు	-8396
▁ారిం	-8397
▁ీడర్	-8398
▁ెప్ట	-8399
▁్టుల	-8400
▁Gandh	-8401
▁reddy	-8402
▁متعلق	-8403
▁రువాత	-8404
▁్నారు	-8405
MA	-8406
NL	-8407
SS	-8408
TS	-8409
fe	-8410
جن	-8411
نت	-8412
نچ	-8413
▁ण	-8414
▁ଞ	-8415
▁ப	-8416
▁ന	-8417
ame	-8418
اری	-8419
▁3:	-8420
▁Bu	-8421
▁Ko	-8422
▁No	-8423
▁Vs	-8424
▁du	-8425
▁iP	-8426
▁ss	-8427
▁wa	-8428
▁آپ	-8429
▁بے	-8430
▁تم	-8431
▁دہ	-8432
▁شا	-8433
▁گا	-8434
▁یت	-8435
▁तो	-8436
▁ଆମ	-8437
▁ଆସ	-8438
▁శత	-8439
▁(4)	-8440
▁114	-8441
▁147	-8442
▁164	-8443
▁22)	-8444
▁27)	-8445
▁Par	-8446
▁ine	-8447
▁jee	-8448
▁سام	-8449
▁نام	-8450
▁نظر	-8451
▁وار	-8452
▁ویب	-8453
▁کرک	-8454
▁కిత	-8455
▁కుట	-8456
▁ఘట్	-8457
▁జాయ	-8458
▁టివ	-8459
▁తపన	-8460
▁రయి	-8461
▁లపా	-8462
▁సుఖ	-8463
▁ాపా	-8464
▁్జె	-8465
▁్దం	-8466
▁్శి	-8467
▁Beng	-8468
▁انتخ	-8469
▁لیکن	-8470
▁وزیر	-8471
▁کررہ	-8472
▁ంటార	-8473
▁ండియ	-8474
▁ందిక	-8475
▁యూటీ	-8476
▁రిగే	-8477
▁సారు	-8478
▁సోషల	-8479
▁్లాడ	-8480
▁ریورس	-8481
▁తుంది	-8482
▁తువుల	-8483
▁న్నాడ	-8484
▁ిచ్చా	-8485
▁్రత్య	-8486
ia	-8487
اج	-8488
ଟୋ	-8489
ఒక	-8490
▁ِ	-8491
▁ಐ	-8492
راد	-8493
▁5)	-8494
▁Fi	-8495
▁HD	-8496
▁Li	-8497
▁Mr	-8498
▁Mu	-8499
▁Ru	-8500
▁Sp	-8501
▁mu	-8502
▁su	-8503
▁ul	-8504
▁بک	-8505
▁ଅଧ	-8506
▁బత	-8507
▁రధ	-8508
▁ౌస	-8509
▁106	-8510
▁20)	-8511
▁27,	-8512
▁280	-8513
▁365	-8514
▁GPT	-8515
▁Har	-8516
▁Sur	-8517
▁WHO	-8518
▁ika	-8519
▁she	-8520
▁صدر	-8521
▁ٹری	-8522
▁کئی	-8523
▁ନେଇ	-8524
▁ଫଟୋ	-8525
▁ఆటా	-8526
▁ఉషా	-8527
▁ఓజీ	-8528
▁కేవ	-8529
▁జాబ	-8530
▁దవి	-8531
▁దశల	-8532
▁నప్	-8533
▁పల్	-8534
▁పూత	-8535
▁బీబ	-8536
▁బుత	-8537
▁భివ	-8538
▁యిస	-8539
▁రజత	-8540
▁లీవ	-8541
▁ాళ్	-8542
▁ేఖర	-8543
▁Jana	-8544
▁elec	-8545
▁تمام	-8546
▁جانچ	-8547
▁جانے	-8548
▁దుకో	-8549
▁ర్జి	-8550
▁ావిస	-8551
▁ిచార	-8552
▁ురువ	-8553
▁ూపర్	-8554
▁انہیں	-8555
▁ترجمہ	-8556
▁واقعہ	-8557
▁క్రమా	-8558
▁తోన్న	-8559
▁బ్బంద	-8560
▁ించాడ	-8561
▁ికారి	-8562
▁ీపంలో	-8563
▁ుగ్గు	-8564
▁్టెన్	-8565
BS	-8566
FC	-8567
IR	-8568
RC	-8569
ta	-8570
بل	-8571
ٹا	-8572
ఫా	-8573
▁া	-8574
▁യ	-8575
ovi	-8576
جود	-8577
لاف	-8578
لیٹ	-8579
▁01	-8580
▁02	-8581
▁07	-8582
▁3-	-8583
▁6)	-8584
▁Se	-8585
▁at	-8586
▁bo	-8587
▁خو	-8588
▁دھ	-8589
▁مش	-8590
▁گو	-8591
▁ఈస	-8592
▁ఏఏ	-8593
▁కష	-8594
▁నద	-8595
▁ಸಹ	-8596
ضمون	-8597
ظاہر	-8598
ాయిల	-8599
▁(3)	-8600
▁12)	-8601
▁190	-8602
▁KTR	-8603
▁Lok	-8604
▁Mar	-8605
▁NRI	-8606
▁rat	-8607
▁thi	-8608
▁wal	-8609
▁اری	-8610
▁دوس	-8611
▁ریل	-8612
▁لڑک	-8613
▁پتہ	-8614
▁ہور	-8615
▁یان	-8616
▁అయన	-8617
▁ఎకో	-8618
▁కచ్	-8619
▁టోల	-8620
▁దత్	-8621
▁నబీ	-8622
▁పశు	-8623
▁యష్	-8624
▁ితర	-8625
▁ొటో	-8626
▁ొదల	-8627
▁ోహ్	-8628
▁Bigg	-8629
▁Chat	-8630
▁Poli	-8631
▁Poll	-8632
▁Raja	-8633
▁Sing	-8634
▁Telu	-8635
▁تلنگ	-8636
▁تیار	-8637
▁کریں	-8638
▁జిస్	-8639
▁త్మక	-8640
▁దాదా	-8641
▁నట్ట	-8642
▁లర్ల	-8643
▁వైరల	-8644
▁ాష్ట	-8645
▁ోహన్	-8646
▁్తున	-8647
▁్రాయ	-8648
▁Kumar	-8649
▁حالیہ	-8650
▁مضمون	-8651
▁موجود	-8652
▁ఇవ్వడ	-8653
▁గళూరు	-8654
▁చాలని	-8655
▁ట్టడం	-8656
▁థాయిల	-8657
▁బీజేప	-8658
▁రానిక	-8659
▁ల్లీల	-8660
▁ికార్	-8661
▁ుపత్ర	-8662
ED	-8663
MS	-8664
RO	-8665
TV	-8666
▁°	-8667
ook	-8668
ریع	-8669
ومت	-8670
▁04	-8671
▁2:	-8672
▁Am	-8673
▁GH	-8674
▁Ha	-8675
▁ID	-8676
▁Po	-8677
▁SD	-8678
▁Sh	-8679
▁ct	-8680
▁lo	-8681
▁ro	-8682
▁اہ	-8683
▁مر	-8684
▁ھی	-8685
▁ఈఓ	-8686
▁గై	-8687
▁116	-8688
▁124	-8689
▁157	-8690
▁191	-8691
▁23)	-8692
▁550	-8693
▁اگر	-8694
▁بات	-8695
▁روپ	-8696
▁سیا	-8697
▁لیڈ	-8698
▁ٹیم	-8699
▁پھی	-8700
▁پیغ	-8701
▁یشن	-8702
▁یکل	-8703
▁ఘడ్	-8704
▁జగన	-8705
▁పుట	-8706
▁బజ్	-8707
▁మధ్	-8708
▁రథం	-8709
▁ళ్య	-8710
▁ేదా	-8711
▁ేషన	-8712
▁్పం	-8713
▁్రొ	-8714
▁BSNL	-8715
▁Chir	-8716
▁Mahe	-8717
▁Raji	-8718
▁Tube	-8719
▁Vish	-8720
▁taka	-8721
▁tela	-8722
▁very	-8723
▁ذریع	-8724
▁ریڈی	-8725
▁وائی	-8726
▁کردہ	-8727
▁ఇటీవ	-8728
▁కావడ	-8729
▁డాని	-8730
▁యాల్	-8731
▁వారా	-8732
▁షర్మ	-8733
▁ిరుమ	-8734
▁్రిత	-8735
▁konda	-8736
▁حکومت	-8737
▁దర్యా	-8738
▁్మెంట	-8739
AN	-8740
AR	-8741
ds	-8742
gi	-8743
ut	-8744
صل	-8745
وک	-8746
ିଜ	-8747
▁୪	-8748
▁ம	-8749
▁ಠ	-8750
▁00	-8751
▁ED	-8752
▁IC	-8753
▁SR	-8754
▁SS	-8755
▁ac	-8756
▁ep	-8757
▁mm	-8758
▁si	-8759
▁تی	-8760
▁تے	-8761
▁جگ	-8762
▁مج	-8763
▁ٹک	-8764
▁کت	-8765
▁گم	-8766
▁एक	-8767
▁ଅଭ	-8768
▁ଓଟ	-8769
▁ఓవ	-8770
▁దహ	-8771
▁113	-8772
▁13)	-8773
▁24)	-8774
▁288	-8775
▁50%	-8776
▁6.5	-8777
▁age	-8778
▁ban	-8779
▁for	-8780
▁lts	-8781
▁ple	-8782
▁ter	-8783
▁انک	-8784
▁فیس	-8785
▁ووٹ	-8786
▁ନିଜ	-8787
▁ఓపీ	-8788
▁కథా	-8789
▁కమై	-8790
▁కరా	-8791
▁కరె	-8792
▁కువ	-8793
▁ఛలో	-8794
▁జమా	-8795
▁డాన	-8796
▁ల్న	-8797
▁షనర	-8798
▁హజ్	-8799
▁ిశ్	-8800
▁ుకె	-8801
▁్లక	-8802
▁Bala	-8803
▁Loke	-8804
▁tiru	-8805
▁خلاف	-8806
▁دنوں	-8807
▁ستان	-8808
▁فارم	-8809
▁لیڈر	-8810
▁پاکس	-8811
▁ంటివ	-8812
▁అవకా	-8813
▁డులు	-8814
▁దికి	-8815
▁దుబా	-8816
▁రాబా	-8817
▁ల్యే	-8818
▁సర్ల	-8819
▁హక్క	-8820
▁ీసర్	-8821
▁్నాం	-8822
▁کررہے	-8823
▁گمراہ	-8824
▁ఆందోళ	-8825
▁గిస్త	-8826
▁గ్రహా	-8827
▁చేయను	-8828
▁డ్జెట	-8829
▁మయంలో	-8830
▁ోతుంద	-8831
▁్రాక్	-8832
si	-8833
yo	-8834
می	-8835
ٹس	-8836
ڈو	-8837
మన	-8838
▁ओ	-8839
▁ட	-8840
▁ு	-8841
▁പ	-8842
▁ു	-8843
ate	-8844
ائد	-8845
ایت	-8846
لکہ	-8847
▁2"	-8848
▁9)	-8849
▁CO	-8850
▁CS	-8851
▁Jo	-8852
▁LI	-8853
▁زب	-8854
▁گے	-8855
▁చడ	-8856
▁షూ	-8857
▁ెచ	-8858
ater	-8859
hats	-8860
▁(5)	-8861
▁132	-8862
▁149	-8863
▁2.0	-8864
▁225	-8865
▁25)	-8866
▁Ass	-8867
▁Del	-8868
▁NIA	-8869
▁Rea	-8870
▁SBI	-8871
▁cau	-8872
▁emb	-8873
▁man	-8874
▁pro	-8875
▁ram	-8876
▁ran	-8877
▁shi	-8878
▁ائی	-8879
▁بہت	-8880
▁خات	-8881
▁رنگ	-8882
▁سنگ	-8883
▁عام	-8884
▁అవు	-8885
▁ఎదో	-8886
▁ఏజీ	-8887
▁ఏడీ	-8888
▁ఐటి	-8889
▁చిప	-8890
▁డకు	-8891
▁తక్	-8892
▁పడక	-8893
▁రబా	-8894
▁రేం	-8895
▁లిద	-8896
▁శకం	-8897
▁శోభ	-8898
▁సీఏ	-8899
▁ాశి	-8900
▁ూవీ	-8901
▁్కొ	-8902
▁్రజ	-8903
▁Cong	-8904
▁Kavi	-8905
▁Shar	-8906
▁iPho	-8907
▁ther	-8908
▁بلکہ	-8909
▁سابق	-8910
▁شروع	-8911
▁پلیٹ	-8912
▁ఎందు	-8913
▁టును	-8914
▁పయోగ	-8915
▁పెట్	-8916
▁రావడ	-8917
▁శించ	-8918
▁హిళా	-8919
▁ికెట	-8920
▁ేశాడ	-8921
▁్టెం	-8922
▁TSRTC	-8923
▁Video	-8924
▁అనంతర	-8925
▁ట్టిం	-8926
▁న్నాం	-8927
▁ష్కరి	-8928
▁ిధిలో	-8929
▁ుత్వా	-8930
TA	-8931
US	-8932
UV	-8933
es	-8934
wa	-8935
رف	-8936
జం	-8937
▁$	-8938
▁ാ	-8939
ide	-8940
ini	-8941
دید	-8942
▁08	-8943
▁CP	-8944
▁Ex	-8945
▁My	-8946
▁NA	-8947
▁TC	-8948
▁UI	-8949
▁ga	-8950
▁go	-8951
▁pu	-8952
▁با	-8953
▁عن	-8954
▁عو	-8955
▁लि	-8956
▁ଏନ	-8957
▁112	-8958
▁134	-8959
▁159	-8960
▁26)	-8961
▁28)	-8962
▁Air	-8963
▁Chi	-8964
▁Cri	-8965
▁Day	-8966
▁EPF	-8967
▁RBI	-8968
▁Tra	-8969
▁Van	-8970
▁nce	-8971
▁van	-8972
▁آنے	-8973
▁انگ	-8974
▁ملی	-8975
▁ఆపే	-8976
▁కనీ	-8977
▁కమల	-8978
▁దఫా	-8979
▁దహన	-8980
▁పీస	-8981
▁భజన	-8982
▁భామ	-8983
▁మడి	-8984
▁మాడ	-8985
▁యోల	-8986
▁రశ్	-8987
▁రీన	-8988
▁లిం	-8989
▁లోయ	-8990
▁సిన	-8991
▁ాజర	-8992
▁ెనీ	-8993
▁ొలి	-8994
▁ోకే	-8995
▁nika	-8996
▁nkar	-8997
▁زبان	-8998
▁علاق	-8999
▁مندر	-9000
▁తాలో	-9001
▁ధులు	-9002
▁ప్పడ	-9003
▁బెట్	-9004
▁బోతు	-9005
▁మిటీ	-9006
▁ర్టి	-9007
▁స్తర	-9008
▁ాపూర	-9009
▁ించక	-9010
▁ివాద	-9011
▁ువగా	-9012
▁Singh	-9013
▁embly	-9014
▁krish	-9015
▁టించా	-9016
▁తీర్ప	-9017
▁రిస్థ	-9018
▁రుకున	-9019
▁ర్చుక	-9020
▁ిసెంబ	-9021
▁ెట్టా	-9022
▁్టీలు	-9023
▁్లాడు	-9024
DC	-9025
FI	-9026
ni	-9027
لس	-9028
وپ	-9029
ವರ	-9030
▁ض	-9031
▁ई	-9032
▁ি	-9033
idu	-9034
igh	-9035
ina	-9036
دیق	-9037
زار	-9038
▁06	-9039
▁Ac	-9040
▁HM	-9041
▁IS	-9042
▁IT	-9043
▁SI	-9044
▁SO	-9045
▁SP	-9046
▁Ti	-9047
▁Wi	-9048
▁mA	-9049
▁ry	-9050
▁ve	-9051
▁آب	-9052
▁از	-9053
▁تک	-9054
▁جی	-9055
▁خط	-9056
▁شش	-9057
▁مذ	-9058
▁مم	-9059
▁نا	-9060
▁نش	-9061
▁ଆକ	-9062
▁000	-9063
▁16)	-9064
▁270	-9065
▁650	-9066
▁ANI	-9067
▁Com	-9068
▁IPC	-9069
▁NDA	-9070
▁Rao	-9071
▁Vaa	-9072
▁Ven	-9073
▁ath	-9074
▁lme	-9075
▁nda	-9076
▁rol	-9077
▁ted	-9078
▁ung	-9079
▁فرو	-9080
▁فیک	-9081
▁ٹوئ	-9082
▁کام	-9083
▁అటూ	-9084
▁ఆజం	-9085
▁ఆరవ	-9086
▁ఆలీ	-9087
▁ఇటూ	-9088
▁ఎంఏ	-9089
▁ఐబీ	-9090
▁కలల	-9091
▁జేప	-9092
▁డ్స	-9093
▁తృత	-9094
▁దాఖ	-9095
▁దైవ	-9096
▁దోమ	-9097
▁బీఏ	-9098
▁యప్	-9099
▁యాచ	-9100
▁యాత	-9101
▁రచన	-9102
▁శిక	-9103
▁సీమ	-9104
▁హను	-9105
▁ోదు	-9106
▁్డా	-9107
▁ಅವರ	-9108
▁ಇದೇ	-9109
▁Nare	-9110
▁mila	-9111
▁with	-9112
▁ایسا	-9113
▁تعلق	-9114
▁زیاد	-9115
▁والا	-9116
▁چینل	-9117
▁کرنا	-9118
▁گردش	-9119
▁ఈసార	-9120
▁తాన్	-9121
▁దక్ష	-9122
▁పత్త	-9123
▁యంత్	-9124
▁ష్మి	-9125
▁సిల్	-9126
▁ాలయా	-9127
▁ిమర్	-9128
▁ివిధ	-9129
▁ెలియ	-9130
▁ోగ్య	-9131
▁్పాల	-9132
▁్రత్	-9133
▁్రేమ	-9134
▁్లతో	-9135
▁Polls	-9136
▁تصدیق	-9137
▁کردیا	-9138
▁ఉండాల	-9139
▁పోవడం	-9140
▁మండిప	-9141
▁ిరుద్	-9142
-6	-9143
LV	-9144
gh	-9145
io	-9146
ti	-9147
ty	-9148
ثر	-9149
ضح	-9150
జై	-9151
▁छ	-9152
▁ठ	-9153
▁ఱ	-9154
▁ಓ	-9155
ira	-9156
ksh	-9157
oma	-9158
تال	-9159
وان	-9160
وری	-9161
▁NE	-9162
▁UA	-9163
▁UK	-9164
▁Ve	-9165
▁as	-9166
▁ed	-9167
▁fa	-9168
▁اؤ	-9169
▁اش	-9170
▁جم	-9171
▁دس	-9172
▁دے	-9173
▁رڈ	-9174
▁لے	-9175
▁چھ	-9176
▁दे	-9177
▁ଏଥ	-9178
▁ଏଭ	-9179
▁నత	-9180
▁సప	-9181
▁1.2	-9182
▁10)	-9183
▁11)	-9184
▁123	-9185
▁126	-9186
▁127	-9187
▁138	-9188
▁162	-9189
▁167	-9190
▁181	-9191
▁199	-9192
▁2-3	-9193
▁3.1	-9194
▁IST	-9195
▁Mal	-9196
▁OTP	-9197
▁Sai	-9198
▁She	-9199
▁Tri	-9200
▁ers	-9201
▁ide	-9202
▁kha	-9203
▁raj	-9204
▁بیچ	-9205
▁رکھ	-9206
▁فری	-9207
▁لگا	-9208
▁لیا	-9209
▁وقت	-9210
▁ٹائ	-9211
▁چند	-9212
▁کئے	-9213
▁ంగళ	-9214
▁ఇషా	-9215
▁ఊసే	-9216
▁ఏబీ	-9217
▁ఐతే	-9218
▁ఒడి	-9219
▁కోక	-9220
▁చలో	-9221
▁జైన	-9222
▁దలై	-9223
▁దాత	-9224
▁నేష	-9225
▁బద్	-9226
▁లెం	-9227
▁లేత	-9228
▁విం	-9229
▁సిబ	-9230
▁్పో	-9231
▁్వయ	-9232
▁Naga	-9233
▁تلگو	-9234
▁جھنڈ	-9235
▁ریلی	-9236
▁سنگھ	-9237
▁سکتے	-9238
▁لڑکی	-9239
▁واضح	-9240
▁پورٹ	-9241
▁కూటమ	-9242
▁క్టర	-9243
▁క్షల	-9244
▁డుతో	-9245
▁ద్రం	-9246
▁ధ్వర	-9247
▁రీరా	-9248
▁రీవా	-9249
▁రులు	-9250
▁ర్శన	-9251
▁ాంకు	-9252
▁ావేశ	-9253
▁్కుల	-9254
▁Naidu	-9255
▁Shiva	-9256
▁Varma	-9257
▁Whats	-9258
▁ంద్రం	-9259
▁మాన్య	-9260
▁ల్లోక	-9261
▁ియాలో	-9262
▁ీసుకె	-9263
▁ేందుక	-9264
▁్టేషన	-9265
IB	-9266
tm	-9267
زر	-9268
لع	-9269
نک	-9270
▁ଵ	-9271
▁ട	-9272
CCI	-9273
rah	-9274
sta	-9275
الے	-9276
دیل	-9277
لیک	-9278
مبر	-9279
▁6-	-9280
▁At	-9281
▁CA	-9282
▁Do	-9283
▁Is	-9284
▁MS	-9285
▁NH	-9286
▁TR	-9287
▁et	-9288
▁gy	-9289
▁اخ	-9290
▁అట	-9291
▁ఈగ	-9292
▁యద	-9293
▁122	-9294
▁142	-9295
▁210	-9296
▁8.5	-9297
▁GST	-9298
▁ICC	-9299
▁Pre	-9300
▁fic	-9301
▁mAh	-9302
▁nic	-9303
▁rth	-9304
▁sth	-9305
▁zon	-9306
▁ارے	-9307
▁اون	-9308
▁بنا	-9309
▁تیل	-9310
▁جگہ	-9311
▁پھر	-9312
▁چاہ	-9313
▁అఫ్	-9314
▁ఉల్	-9315
▁ఏఈఈ	-9316
▁గంప	-9317
▁గరా	-9318
▁దిస	-9319
▁నవీ	-9320
▁నుం	-9321
▁పరం	-9322
▁పీట	-9323
▁మలి	-9324
▁రైవ	-9325
▁లేజ	-9326
▁వయా	-9327
▁షుల	-9328
▁హంస	-9329
▁ిజర	-9330
▁ోతో	-9331
▁Cour	-9332
▁GHMC	-9333
▁Khan	-9334
▁Movi	-9335
▁Sama	-9336
▁deva	-9337
▁امری	-9338
▁انٹر	-9339
▁ہزار	-9340
▁పల్ల	-9341
▁పిటి	-9342
▁పోయా	-9343
▁వేలు	-9344
▁ాంట్	-9345
▁ాపార	-9346
▁ిధిల	-9347
▁ుండట	-9348
▁ైనల్	-9349
▁ోతున	-9350
▁్రతి	-9351
▁Karna	-9352
▁Karth	-9353
▁انڈیا	-9354
▁تبدیل	-9355
▁ریاست	-9356
▁عنوان	-9357
▁فروخت	-9358
▁ంగ్రె	-9359
▁క్షకు	-9360
▁జిల్ల	-9361
▁	-9362
్	-9363
ి	-9364
ా	-9365
ు	-9366
ర	-9367
న	-9368
ల	-9369
ం	-9370
క	-9371
ప	-9372
త	-9373
స	-9374
వ	-9375
ద	-9376
ట	-9377
ో	-9378
మ	-9379
ే	-9380
య	-9381
చ	-9382
డ	-9383
ీ	-9384
గ	-9385
.	-9386
ె	-9387
అ	-9388
జ	-9389
బ	-9390
ూ	-9391
,	-9392
శ	-9393
ష	-9394
ై	-9395
ఆ	-9396
హ	-9397
ధ	-9398
ఎ	-9399
భ	-9400
ొ	-9401
ఇ	-9402
ఉ	-9403
ణ	-9404
ళ	-9405
ఫ	-9406
ఈ	-9407
థ	-9408
0	-9409
2	-9410
1	-9411
ఏ	-9412
ఖ	-9413
"	-9414
ఒ	-9415
ృ	-9416
5	-9417
3	-9418
4	-9419
:	-9420
ౌ	-9421
ఓ	-9422
)	-9423
ఐ	-9424
(	-9425
9	-9426
-	-9427
6	-9428
8	-9429
7	-9430
ఘ	-9431
ی	-9432
ا	-9433
a	-9434
?	-9435
್	-9436
ಿ	-9437
ک	-9438
و	-9439
ر	-9440
e	-9441
i	-9442
ఢ	-9443
n	-9444
ے	-9445
ن	-9446
ఛ	-9447
ఠ	-9448
ہ	-9449
r	-9450
ು	-9451
ರ	-9452
ದ	-9453
م	-9454
ಾ	-9455
'	-9456
t	-9457
ನ	-9458
o	-9459
ಲ	-9460
s	-9461
س	-9462
!	-9463
ل	-9464
h	-9465
l	-9466
ି	-9467
A	-9468
ವ	-9469
ఊ	-9470
ت	-9471
ା	-9472
S	-9473
ೆ	-9474
ର	-9475
୍	-9476
d	-9477
ತ	-9478
ಕ	-9479
u	-9480
⁬	-9481
ಯ	-9482
R	-9483
ಸ	-9484
C	-9485
د	-9486
ಗ	-9487
ب	-9488
ں	-9489
P	-9490
ಂ	-9491
m	-9492
پ	-9493
I	-9494
T	-9495
ಮ	-9496
c	-9497
/	-9498
ಡ	-9499
େ	-9500
କ	-9501
ఞ	-9502
M	-9503
g	-9504
ئ	-9505
D	-9506
B	-9507
p	-9508
گ	-9509
ج	-9510
ھ	-9511
y	-9512
ନ	-9513
ٹ	-9514
v	-9515
N	-9516
ಬ	-9517
‍	-9518
k	-9519
ବ	-9520
ಪ	-9521
E	-9522
L	-9523
ा	-9524
ش	-9525
ಟ	-9526
ସ	-9527
O	-9528
w	-9529
ତ	-9530
G	-9531
۔	-9532
ಹ	-9533
ୁ	-9534
ڈ	-9535
ಳ	-9536
ع	-9537
b	-9538
ೋ	-9539
ମ	-9540
ପ	-9541
ೇ	-9542
ఔ	-9543
K	-9544
ః	-9545
V	-9546
ଲ	-9547
क	-9548
र	-9549
ହ	-9550
ف	-9551
े	-9552
H	-9553
ೊ	-9554
ق	-9555
ೀ	-9556
F	-9557
ಜ	-9558
چ	-9559
ୟ	-9560
ಚ	-9561
ز	-9562
ଇ	-9563
⁭	-9564
j	-9565
ح	-9566
ଦ	-9567
U	-9568
ୋ	-9569
ಎ	-9570
ଟ	-9571
J	-9572
%	-9573
न	-9574
ೂ	-9575
ص	-9576
ಶ	-9577
ଏ	-9578
ಅ	-9579
#	-9580
ी	-9581
ଣ	-9582
ೈ	-9583
।	-9584
ಆ	-9585
ह	-9586
्	-9587
ଥ	-9588
ಷ	-9589
ଭ	-9590
خ	-9591
ଡ	-9592
W	-9593
ि	-9594
،	-9595
ं	-9596
ಣ	-9597
ଛ	-9598
स	-9599
ଜ	-9600
ಧ	-9601
f	-9602
म	-9603
Y	-9604
آ	-9605
;	-9606
ط	-9607
ଯ	-9608
ଆ	-9609
ल	-9610
X	-9611
ो	-9612
त	-9613
ଉ	-9614
ఝ	-9615
ಇ	-9616
ଗ	-9617
ଅ	-9618
प	-9619
य	-9620
ಭ	-9621
ୀ	-9622
*	-9623
ڑ	-9624
द	-9625
ଳ	-9626
ଖ	-9627
ଧ	-9628
ଙ	-9629
ग	-9630
ଚ	-9631
ब	-9632
ଷ	-9633
ಖ	-9634
ज	-9635
ଶ	-9636
ಫ	-9637
व	-9638
ౖ	-9639
+	-9640
ଓ	-9641
ض	-9642
ಈ	-9643
x	-9644
ଁ	-9645
>	-9646
ଫ	-9647
ु	-9648
ٰ	-9649
ै	-9650
&	-9651
@	-9652
غ	-9653
ظ	-9654
ಥ	-9655
ଂ	-9656
ذ	-9657
च	-9658
भ	-9659
ट	-9660
ೃ	-9661
‭	-9662
अ	-9663
`	-9664
श	-9665
ए	-9666
Z	-9667
ಉ	-9668
Q	-9669
ड	-9670
z	-9671
ू	-9672
୨	-9673
്	-9674
➦	-9675
଼	-9676
ୂ	-9677
़	-9678
்	-9679
_	-9680
☛	-9681
q	-9682
आ	-9683
ଘ	-9684
ख	-9685
ध	-9686
ୱ	-9687
ୌ	-9688
ଠ	-9689
ʼ	-9690
ಒ	-9691
फ	-9692
୦	-9693
ؤ	-9694
थ	-9695
=	-9696
ث	-9697
औ	-9698
୧	-9699
ക	-9700
ୃ	-9701
इ	-9702
ٓ	-9703
ଞ	-9704
ி	-9705
ി	-9706
₹	-9707
ई	-9708
ष	-9709
•	-9710
த	-9711
[	-9712
]	-9713
­	-9714
ఙ	-9715
ಏ	-9716
⁪	-9717
ఋ	-9718
ಐ	-9719
ಘ	-9720
उ	-9721
ೌ	-9722
‪	-9723
க	-9724
ِ	-9725
ण	-9726
ப	-9727
ന	-9728
°	-9729
୪	-9730
া	-9731
യ	-9732
छ	-9733
ம	-9734
ு	-9735
ಠ	-9736
ു	-9737
ओ	-9738
ட	-9739
പ	-9740
$	-9741
ি	-9742
ാ	-9743
ठ	-9744
ఱ	-9745
౦	-9746
ಓ	-9747
घ	-9748
ଵ	-9749
୫	-9750
ട	-9751
র	-9752
্	-9753
ത	-9754
ক	-9755
ୈ	-9756
୩	-9757
ர	-9758
ல	-9759
வ	-9760
‐	-9761
୮	-9762
ற	-9763
ಊ	-9764
झ	-9765
୬	-9766
ள	-9767
ா	-9768
ല	-9769
വ	-9770
െ	-9771
ढ	-9772
ব	-9773
ଝ	-9774
ಞ	-9775
ണ	-9776
●	-9777
َ	-9778
ন	-9779
ম	-9780
୭	-9781
୯	-9782
ച	-9783
ഷ	-9784
⁠	-9785
ي	-9786
ऐ	-9787
ॉ	-9788
ে	-9789
ଢ	-9790
ോ	-9791
؟	-9792
ল	-9793
ু	-9794
ச	-9795
ய	-9796
അ	-9797
റ	-9798
►	-9799
ژ	-9800
ە	-9801
ृ	-9802
ौ	-9803
॥	-9804
ত	-9805
ৰ	-9806
ந	-9807
ன	-9808
ை	-9809
മ	-9810
ര	-9811
സ	-9812
‒	-9813
ء	-9814
প	-9815
য	-9816
ো	-9817
ெ	-9818
ങ	-9819
ഡ	-9820
ൽ	-9821
′	-9822
◉	-9823
♦	-9824
🇮	-9825
জ	-9826
স	-9827
ಛ	-9828
ಢ	-9829
ജ	-9830
ള	-9831
ർ	-9832
★	-9833
❌	-9834
🇳	-9835
়	-9836
எ	-9837
ோ	-9838
ീ	-9839
😂	-9840
🚩	-9841
\	-9842
đ	-9843
ه	-9844
ّ	-9845
ञ	-9846
এ	-9847
ও	-9848
ধ	-9849
அ	-9850
ங	-9851
ொ	-9852
౩	-9853
ം	-9854
എ	-9855
ധ	-9856
ൂ	-9857
ൗ	-9858
ൾ	-9859
~	-9860
·	-9861
×	-9862
ư	-9863
ُ	-9864
ँ	-9865
ऊ	-9866
ऑ	-9867
०	-9868
ট	-9869
ড	-9870
দ	-9871
ফ	-9872
হ	-9873
ଃ	-9874
ଈ	-9875
ண	-9876
ீ	-9877
ಃ	-9878
ಝ	-9879
⁄	-9880
⃣	-9881
⦁	-9882
️	-9883
💪	-9884
🔥	-9885
🙏	-9886
â	-9887
ơ	-9888
أ	-9889
ً	-9890
ڕ	-9891
ः	-9892
२	-9893
অ	-9894
গ	-9895
চ	-9896
ভ	-9897
শ	-9898
ী	-9899
ৱ	-9900
ஏ	-9901
ஜ	-9902
ூ	-9903
ఁ	-9904
౧	-9905
౹	-9906
ಔ	-9907
ഈ	-9908
ഭ	-9909
ശ	-9910
ൃ	-9911
േ	-9912
ൊ	-9913
ൻ	-9914
ố	-9915
⁫	-9916
⁯	-9917
◆	-9918
👉	-9919
👌	-9920
💚	-9921
😡	-9922
<	-9923
£	-9924
©	-9925
Á	-9926
æ	-9927
́	-9928
α	-9929
β	-9930
؛	-9931
إ	-9932
ى	-9933
ڵ	-9934
ۆ	-9935
ێ	-9936
४	-9937
ঃ	-9938
আ	-9939
ৈ	-9940
ஆ	-9941
இ	-9942
உ	-9943
ஊ	-9944
ஸ	-9945
ே	-9946
ఽ	-9947
ౄ	-9948
౪	-9949
౬	-9950
ആ	-9951
ഇ	-9952
ഒ	-9953
ഗ	-9954
ദ	-9955
ബ	-9956
ഴ	-9957
ൈ	-9958
ả	-9959
ầ	-9960
ậ	-9961
ệ	-9962
ớ	-9963
ờ	-9964
ở	-9965
ợ	-9966
ứ	-9967
‫	-9968
‬	-9969
€	-9970
∙	-9971
≠	-9972
▪	-9973
♥	-9974
✳	-9975
➡	-9976
🇪	-9977
🇬	-9978
🌹	-9979
🏼	-9980
👇	-9981
👊	-9982
👋	-9983
💐	-9984
💥	-9985
🔴	-9986
🔸	-9987
🔹	-9988
😉	-9989
😊	-9990
😜	-9991
😞	-9992
😠	-9993
😥	-9994
🙂	-9995
🤜	-9996
