[UNK]	0
[CLS]	1
[SEP]	2
[PAD]	3
[MASK]	4
!	5
"	6
#	7
$	8
%	9
&	10
'	11
(	12
)	13
*	14
+	15
,	16
-	17
.	18
/	19
0	20
1	21
2	22
3	23
4	24
5	25
6	26
7	27
8	28
9	29
:	30
;	31
<	32
=	33
>	34
?	35
@	36
[	37
\	38
]	39
_	40
`	41
a	42
b	43
c	44
d	45
e	46
f	47
g	48
h	49
i	50
j	51
k	52
l	53
m	54
n	55
o	56
p	57
q	58
r	59
s	60
t	61
u	62
v	63
w	64
x	65
y	66
z	67
~	68
£	69
©	70
­	71
°	72
·	73
×	74
á	75
â	76
æ	77
đ	78
ơ	79
ư	80
ʼ	81
́	82
α	83
β	84
،	85
؛	86
؟	87
ء	88
آ	89
أ	90
ؤ	91
إ	92
ئ	93
ا	94
ب	95
ت	96
ث	97
ج	98
ح	99
خ	100
د	101
ذ	102
ر	103
ز	104
س	105
ش	106
ص	107
ض	108
ط	109
ظ	110
ع	111
غ	112
ف	113
ق	114
ل	115
م	116
ن	117
ه	118
و	119
ى	120
ي	121
ً	122
َ	123
ُ	124
ِ	125
ّ	126
ٰ	127
ٹ	128
پ	129
چ	130
ڈ	131
ڑ	132
ڕ	133
ژ	134
ک	135
گ	136
ڵ	137
ں	138
ھ	139
ہ	140
ۆ	141
ی	142
ێ	143
ے	144
۔	145
ە	146
ँ	147
ं	148
ः	149
अ	150
आ	151
इ	152
ई	153
उ	154
ऊ	155
ए	156
ऐ	157
ऑ	158
ओ	159
औ	160
क	161
ख	162
ग	163
घ	164
च	165
छ	166
ज	167
झ	168
ञ	169
ट	170
ठ	171
ड	172
ढ	173
ण	174
त	175
थ	176
द	177
ध	178
न	179
प	180
फ	181
ब	182
भ	183
म	184
य	185
र	186
ल	187
व	188
श	189
ष	190
स	191
ह	192
़	193
ा	194
ि	195
ी	196
ु	197
ू	198
ृ	199
े	200
ै	201
ॉ	202
ो	203
ौ	204
्	205
।	206
॥	207
०	208
२	209
४	210
ঃ	211
অ	212
আ	213
এ	214
ও	215
ক	216
গ	217
চ	218
জ	219
ট	220
ড	221
ত	222
দ	223
ধ	224
ন	225
প	226
ফ	227
ব	228
ভ	229
ম	230
য	231
র	232
ল	233
শ	234
স	235
হ	236
়	237
া	238
ি	239
ী	240
ু	241
ে	242
ৈ	243
ো	244
্	245
ৰ	246
ৱ	247
ଁ	248
ଂ	249
ଃ	250
ଅ	251
ଆ	252
ଇ	253
ଈ	254
ଉ	255
ଏ	256
ଓ	257
କ	258
ଖ	259
ଗ	260
ଘ	261
ଙ	262
ଚ	263
ଛ	264
ଜ	265
ଝ	266
ଞ	267
ଟ	268
ଠ	269
ଡ	270
ଢ	271
ଣ	272
ତ	273
ଥ	274
ଦ	275
ଧ	276
ନ	277
ପ	278
ଫ	279
ବ	280
ଭ	281
ମ	282
ଯ	283
ର	284
ଲ	285
ଳ	286
ଵ	287
ଶ	288
ଷ	289
ସ	290
ହ	291
଼	292
ା	293
ି	294
ୀ	295
ୁ	296
ୂ	297
ୃ	298
େ	299
ୈ	300
ୋ	301
ୌ	302
୍	303
ୟ	304
୦	305
୧	306
୨	307
୩	308
୪	309
୫	310
୬	311
୭	312
୮	313
୯	314
ୱ	315
அ	316
ஆ	317
இ	318
உ	319
ஊ	320
எ	321
ஏ	322
க	323
ங	324
ச	325
ஜ	326
ட	327
ண	328
த	329
ந	330
ன	331
ப	332
ம	333
ய	334
ர	335
ற	336
ல	337
ள	338
வ	339
ஸ	340
ா	341
ி	342
ீ	343
ு	344
ூ	345
ெ	346
ே	347
ை	348
ொ	349
ோ	350
்	351
ఁ	352
ం	353
ః	354
అ	355
ఆ	356
ఇ	357
ఈ	358
ఉ	359
ఊ	360
ఋ	361
ఎ	362
ఏ	363
ఐ	364
ఒ	365
ఓ	366
ఔ	367
క	368
ఖ	369
గ	370
ఘ	371
ఙ	372
చ	373
ఛ	374
జ	375
ఝ	376
ఞ	377
ట	378
ఠ	379
డ	380
ఢ	381
ణ	382
త	383
థ	384
ద	385
ధ	386
న	387
ప	388
ఫ	389
బ	390
భ	391
మ	392
య	393
ర	394
ఱ	395
ల	396
ళ	397
వ	398
శ	399
ష	400
స	401
హ	402
ఽ	403
ా	404
ి	405
ీ	406
ు	407
ూ	408
ృ	409
ౄ	410
ె	411
ే	412
ై	413
ొ	414
ో	415
ౌ	416
్	417
ౖ	418
౦	419
౧	420
౩	421
౪	422
౬	423
౹	424
ಂ	425
ಃ	426
ಅ	427
ಆ	428
ಇ	429
ಈ	430
ಉ	431
ಊ	432
ಎ	433
ಏ	434
ಐ	435
ಒ	436
ಓ	437
ಔ	438
ಕ	439
ಖ	440
ಗ	441
ಘ	442
ಚ	443
ಛ	444
ಜ	445
ಝ	446
ಞ	447
ಟ	448
ಠ	449
ಡ	450
ಢ	451
ಣ	452
ತ	453
ಥ	454
ದ	455
ಧ	456
ನ	457
ಪ	458
ಫ	459
ಬ	460
ಭ	461
ಮ	462
ಯ	463
ರ	464
ಲ	465
ಳ	466
ವ	467
ಶ	468
ಷ	469
ಸ	470
ಹ	471
ಾ	472
ಿ	473
ೀ	474
ು	475
ೂ	476
ೃ	477
ೆ	478
ೇ	479
ೈ	480
ೊ	481
ೋ	482
ೌ	483
್	484
ം	485
അ	486
ആ	487
ഇ	488
ഈ	489
എ	490
ഒ	491
ക	492
ഗ	493
ങ	494
ച	495
ജ	496
ട	497
ഡ	498
ണ	499
ത	500
ദ	501
ധ	502
ന	503
പ	504
ബ	505
ഭ	506
മ	507
യ	508
ര	509
റ	510
ല	511
ള	512
ഴ	513
വ	514
ശ	515
ഷ	516
സ	517
ാ	518
ി	519
ീ	520
ു	521
ൂ	522
ൃ	523
െ	524
േ	525
ൈ	526
ൊ	527
ോ	528
്	529
ൗ	530
ൻ	531
ർ	532
ൽ	533
ൾ	534
ả	535
ầ	536
ậ	537
ệ	538
ố	539
ớ	540
ờ	541
ở	542
ợ	543
ứ	544
‌	545
‍	546
‎	547
‏	548
‐	549
‒	550
•	551
‪	552
‫	553
‬	554
‭	555
′	556
⁄	557
⁠	558
⁪	559
⁫	560
⁬	561
⁭	562
⁯	563
€	564
₹	565
⃣	566
∙	567
≠	568
▪	569
►	570
◆	571
◉	572
●	573
★	574
☛	575
♥	576
♦	577
✳	578
❌	579
➡	580
➦	581
⦁	582
️	583
🇪	584
🇬	585
🇮	586
🇳	587
🌹	588
🏼	589
👇	590
👉	591
👊	592
👋	593
👌	594
💐	595
💚	596
💥	597
💪	598
🔥	599
🔴	600
🔸	601
🔹	602
😂	603
😉	604
😊	605
😜	606
😞	607
😠	608
😡	609
😥	610
🙂	611
🙏	612
🚩	613
🤜	614
🤭	615
##ి	616
##ల	617
##్	618
##ు	619
##ం	620
##డ	621
##ే	622
##ట	623
##ో	624
##ళ	625
##ద	626
##చ	627
##గ	628
##త	629
##న	630
##ె	631
##స	632
##అ	633
##మ	634
##ర	635
##క	636
##ా	637
##ీ	638
##‌	639
##బ	640
##ొ	641
##ూ	642
##ప	643
##థ	644
##జ	645
##య	646
##వ	647
##శ	648
##ఎ	649
##ై	650
##ఆ	651
##ష	652
##భ	653
##e	654
##n	655
##v	656
##9	657
##7	658
##5	659
##హ	660
##ఫ	661
##ణ	662
##ಾ	663
##ಂ	664
##ఐ	665
##ధ	666
##ౌ	667
##ା	668
##ଣ	669
##ି	670
##ృ	671
##ی	672
##م	673
##ರ	674
##ು	675
##ವ	676
##ದ	677
##ಿ	678
##ಲ	679
##್	680
##ఓ	681
##2	682
##0	683
##ఞ	684
##ଜ	685
##୍	686
##ଞ	687
##ପ	688
##ନ	689
##ମ	690
##ବ	691
##ଧ	692
##ୀ	693
##ୟ	694
##h	695
##a	696
##t	697
##u	698
##l	699
##r	700
##ఢ	701
##े	702
##ं	703
##क	704
##س	705
##ل	706
##8	707
##)	708
##,	709
##k	710
##g	711
##ಜ	712
##ಐ	713
##ఏ	714
##ఈ	715
##4	716
##6	717
##o	718
##m	719
##ೇ	720
##ಸ	721
##ಥ	722
##ನ	723
##ఖ	724
##ః	725
##ಫ	726
##ೆ	727
##ಕ	728
##ಟ	729
##ೃ	730
##ಧ	731
##ಗ	732
##ఛ	733
##ఘ	734
##1	735
##ఱ	736
##ಯ	737
##و	738
##ت	739
##ا	740
##ؤ	741
##ں	742
##3	743
##p	744
##ఠ	745
##ತ	746
##w	747
##b	748
##s	749
##x	750
##d	751
##i	752
##ೀ	753
##ಮ	754
##c	755
##ಇ	756
##ಡ	757
##େ	758
##ର	759
##‍	760
##z	761
##ೋ	762
##ଟ	763
##ଲ	764
##ر	765
##ن	766
##ک	767
##ख	768
##ू	769
##ल	770
##र	771
##ो	772
##چ	773
##ଦ	774
##ଳ	775
##ଇ	776
##्	777
##ॉ	778
##प	779
##f	780
##ୁ	781
##ଫ	782
##ఇ	783
##ृ	784
##ह	785
##म	786
##त	787
##ी	788
##ଡ	789
##ଆ	790
##ग	791
##ಳ	792
##ೊ	793
##ୃ	794
##ତ	795
##ଷ	796
##ứ	797
##ೂ	798
##ب	799
##ض	800
##ہ	801
##پ	802
##ٹ	803
##ಣ	804
##🇮	805
##🇳	806
##ಪ	807
##j	808
##ಹ	809
##ಷ	810
##د	811
##ف	812
##گ	813
##q	814
##ئ	815
##ज	816
##ि	817
##ए	818
##ଛ	819
##y	820
##ଯ	821
##ଥ	822
##ڈ	823
##ा	824
##ୋ	825
##ش	826
##ق	827
##च	828
##ೈ	829
##ु	830
##न	831
##ے	832
##ఔ	833
##୦	834
##୧	835
##୭	836
##ع	837
##ھ	838
##ಶ	839
##ص	840
##.	841
##"	842
##କ	843
##ಬ	844
##ब	845
##ெ	846
##ப	847
##்	848
##ந	849
##ி	850
##ல	851
##ை	852
##ସ	853
##ఉ	854
##ହ	855
##ଂ	856
##ಭ	857
##ट	858
##स	859
##ଢ	860
##଼	861
##ೌ	862
##ಎ	863
##ಚ	864
##ଭ	865
##ന	866
##്	867
##ز	868
##😂	869
##ط	870
##ج	871
##ଗ	872
##த	873
##ு	874
##ै	875
##া	876
##ম	877
##ন	878
##ে	879
##ड	880
##़	881
##व	882
##ح	883
##?	884
##ଶ	885
##:	886
##उ	887
##ଉ	888
##ৰ	889
##ি	890
##ব	891
##ठ	892
##ଠ	893
##ڑ	894
##श	895
##ध	896
##य	897
##غ	898
##ଖ	899
##ଏ	900
##थ	901
##/	902
##ಆ	903
##ʼ	904
##ொ	905
##ட	906
##ர	907
##ா	908
##ம	909
##द	910
##ओ	911
##ଙ	912
##ಖ	913
##ଅ	914
##ୱ	915
##💐	916
##!	917
##ِ	918
##ఝ	919
##ई	920
##`	921
##خ	922
##(	923
##अ	924
##ಠ	925
##_	926
##घ	927
##@	928
##ष	929
##[	930
##ீ	931
##ോ	932
##സ	933
##റ	934
##ఊ	935
##ಃ	936
##-	937
##ఙ	938
##*	939
##ಒ	940
##ଵ	941
##ఒ	942
##ো	943
##ট	944
##ٰ	945
##'	946
##ଚ	947
##ذ	948
##୪	949
##ى	950
##ಅ	951
##ظ	952
##െ	953
##യ	954
##ർ	955
##ୂ	956
###	957
##ഴ	958
##ി	959
##ു	960
##ത	961
##ാ	962
##ണ	963
##🇬	964
##🌹	965
##ँ	966
##ण	967
##ث	968
##ஜ	969
##க	970
##ু	971
##ক	972
##্	973
##ত	974
##য	975
##দ	976
##ধ	977
##ಘ	978
##୨	979
##۔	980
##ێ	981
##ଓ	982
##ய	983
##ோ	984
##ಢ	985
##ौ	986
##୮	987
##+	988
##आ	989
##;	990
##പ	991
##ട	992
##ക	993
##മ	994
##ಞ	995
##ୌ	996
##æ	997
##ീ	998
##ഡ	999
##ൽ	1000
##]	1001
##⁠	1002
##ଁ	1003
##फ	1004
##इ	1005
##র	1006
##গ	1007
##ञ	1008
##َ	1009
##ര	1010
##ച	1011
##প	1012
##ژ	1013
##জ	1014
##ঃ	1015
##୩	1016
##ಛ	1017
##ە	1018
##ڵ	1019
##வ	1020
##ư	1021
##ờ	1022
##౦	1023
##়	1024
##ശ	1025
##ല	1026
##ഷ	1027
##آ	1028
##ఁ	1029
##′	1030
##ൗ	1031
##ء	1032
##୫	1033
##േ	1034
##ൾ	1035
##>	1036
##❌	1037
##ল	1038
##ற	1039
##স	1040
##ي	1041
##ً	1042
##भ	1043
##ண	1044
##ள	1045
##ன	1046
##ଘ	1047
##ூ	1048
##୯	1049
##ớ	1050
##ൃ	1051
##ൻ	1052
##ڕ	1053
##झ	1054
##ৈ	1055
##ّ	1056
##०	1057
##ଝ	1058
##ढ	1059
##ള	1060
##⁬	1061
##ಉ	1062
##ه	1063
##ୈ	1064
##ଃ	1065
##ậ	1066
##😡	1067
##ఋ	1068
##ധ	1069
##👌	1070
##🏼	1071
##💚	1072
##ী	1073
##­	1074
##छ	1075
##؟	1076
##‎	1077
##ச	1078
##ও	1079
##ே	1080
##ơ	1081
##=	1082
##ệ	1083
##വ	1084
##ം	1085
##ଈ	1086
##চ	1087
##،	1088
##😜	1089
##⃣	1090
##ங	1091
##এ	1092
##ऊ	1093
##ങ	1094
##ả	1095
##ൊ	1096
##ৱ	1097
##ൂ	1098
##ۆ	1099
##$	1100
##ợ	1101
##ầ	1102
##🙂	1103
##😊	1104
##ജ	1105
##ఽ	1106
##ः	1107
##ড	1108
##।	1109
##ফ	1110
##ố	1111
##୬	1112
##হ	1113
##२	1114
##४	1115
##💪	1116
##🔥	1117
##ౄ	1118
##ভ	1119
##🚩	1120
##ُ	1121
##ಝ	1122
##ൈ	1123
##౬	1124
##౩	1125
##😉	1126
##â	1127
##শ	1128
##⁭	1129
##౹	1130
##‌‌	1131
##ార	1132
##న్	1133
##్ర	1134
##ర్	1135
##ని	1136
##స్	1137
##లు	1138
##ంద	1139
##‌‌‌‌	1140
##లో	1141
##ల్	1142
##కు	1143
##ారు	1144
##్య	1145
##న్న	1146
##ట్	1147
##ంచ	1148
##క్	1149
##గా	1150
ప్ర	1151
##ంది	1152
##తు	1153
##ాల	1154
##‌‌‌‌‌‌‌‌	1155
##ను	1156
చే	1157
##ించ	1158
##ిన	1159
##ిక	1160
##ంట	1161
##ండ	1162
##ంత	1163
##ాయ	1164
##ప్	1165
##డు	1166
##త్	1167
##రు	1168
##రి	1169
వి	1170
##లి	1171
##ార్	1172
##కి	1173
##టు	1174
##డి	1175
##ంలో	1176
##ంగ	1177
##ంగా	1178
##సు	1179
##ప్ప	1180
##న్నారు	1181
ని	1182
##లా	1183
##ద్	1184
##డ్	1185
రా	1186
##స్తు	1187
##మా	1188
##తో	1189
##చ్	1190
##‌‌‌‌‌‌‌‌‌‌‌‌‌‌‌‌	1191
##తి	1192
..	1193
##వా	1194
##టి	1195
స్	1196
కా	1197
##టీ	1198
##ష్	1199
##న్ని	1200
##సి	1201
##్యా	1202
##చ్చ	1203
##నే	1204
##యా	1205
##గు	1206
తె	1207
##స్త	1208
చె	1209
##డా	1210
##ాయి	1211
##దు	1212
##ది	1213
##మ్	1214
##ందు	1215
##ళ్	1216
##రా	1217
##ేశ	1218
##క్ష	1219
ను	1220
కో	1221
##పు	1222
##పీ	1223
##ల్లో	1224
వె	1225
##ాలు	1226
కొ	1227
##పై	1228
##లకు	1229
##వు	1230
##ారం	1231
##ింది	1232
##ిత	1233
కే	1234
##సీ	1235
మా	1236
##నికి	1237
##లీ	1238
పె	1239
పో	1240
లో	1241
##మి	1242
కూ	1243
##ిల్	1244
##లను	1245
##ంతో	1246
ము	1247
కు	1248
##ంచి	1249
##ైన	1250
సి	1251
##మె	1252
##క్క	1253
##్రి	1254
పా	1255
##ట్ట	1256
సం	1257
##ించారు	1258
##పో	1259
##్వ	1260
తీ	1261
##ామ	1262
##ంగ్	1263
##ష్ట	1264
##రో	1265
రె	1266
##కో	1267
##ారి	1268
##లే	1269
##ికి	1270
##బ్	1271
##బా	1272
##ెస్	1273
##ద్ద	1274
##ట్లు	1275
##‌‌‌‌‌‌‌‌‌‌‌‌‌‌‌‌‌‌‌‌‌‌‌‌‌‌‌‌‌‌‌‌	1276
##ాన	1277
కూడా	1278
నుంచి	1279
అధ	1280
ఉన్న	1281
చేశ	1282
వే	1283
సీ	1284
##వి	1285
##డం	1286
##త్త	1287
లే	1288
అయ	1289
నిర్	1290
గు	1291
##పా	1292
##ంద్ర	1293
బీ	1294
##స్తున్న	1295
##ప్పు	1296
##షన్	1297
##కా	1298
చేయ	1299
వా	1300
##గ్	1301
##సిన	1302
సమ	1303
##సుకు	1304
##బు	1305
పార్	1306
ప్రభ	1307
##యం	1308
తెలి	1309
##జు	1310
##త్ర	1311
##టర్	1312
నే	1313
##వే	1314
##ాలని	1315
##ఆర్	1316
##ల్ల	1317
##నీ	1318
##ందని	1319
##ంట్	1320
##ండి	1321
##నా	1322
రో	1323
##్రా	1324
వ్య	1325
చెప్ప	1326
##ంటు	1327
##ుత్	1328
##్రీ	1329
##గి	1330
##ంటి	1331
భార	1332
##జ్	1333
##రీ	1334
వచ్చ	1335
##జీ	1336
##తున్న	1337
##డ్డి	1338
రూ	1339
##ందుకు	1340
##పి	1341
##ండ్	1342
చేశారు	1343
పరి	1344
##తం	1345
##యో	1346
##ూర్	1347
మీ	1348
అధిక	1349
##సం	1350
వై	1351
##ెట్	1352
ప్రభుత్	1353
పార్టీ	1354
దీ	1355
##ంటే	1356
##వం	1357
అవ	1358
##ించిన	1359
సా	1360
ఆయ	1361
అని	1362
##ంధ	1363
##డీ	1364
కార	1365
##ఎస్	1366
##కొ	1367
పే	1368
దా	1369
##స్థ	1370
##ట్టు	1371
బా	1372
##ద్య	1373
##ారని	1374
20	1375
ఒక	1376
##మ్మ	1377
##ళ్ల	1378
##ారా	1379
##వర	1380
##‌లో	1381
##వర్	1382
##ించి	1383
తన	1384
##దా	1385
ప్రా	1386
ఆయన	1387
ఎన్ని	1388
##ాలి	1389
##నం	1390
##ులు	1391
##జా	1392
రాష్ట	1393
##ాడు	1394
మొ	1395
##ంబ	1396
వీ	1397
##సే	1398
##త్య	1399
##తోంది	1400
##ంప	1401
అభ	1402
ఎన్నిక	1403
##ెక్	1404
##రే	1405
##ాలను	1406
##దే	1407
##రం	1408
చేసి	1409
##వీ	1410
##ితే	1411
తెలిప	1412
##ధి	1413
##ంత్రి	1414
##రుగు	1415
ఉండ	1416
నా	1417
చూ	1418
##జే	1419
##్రెస్	1420
వర	1421
##్యూ	1422
టీ	1423
##హి	1424
రాష్ట్ర	1425
సె	1426
జరి	1427
శా	1428
##మైన	1429
##వాత	1430
చేసిన	1431
##ధ్య	1432
##స్తున్నారు	1433
##క్కు	1434
##య్య	1435
##కే	1436
##లంగా	1437
##మే	1438
స్థ	1439
కాంగ	1440
మె	1441
##కోవ	1442
##ండా	1443
##ఖ్య	1444
కాంగ్రెస్	1445
కి	1446
##దేశ	1447
ప్రక	1448
హై	1449
##లతో	1450
##సా	1451
నె	1452
స్ట	1453
##యంలో	1454
##ప్పుడు	1455
పోలీ	1456
##ఫ్	1457
జిల్	1458
రి	1459
##ఎం	1460
##యే	1461
రాజ	1462
డి	1463
##ర్శ	1464
##బాద్	1465
మే	1466
మంది	1467
##క్ర	1468
గా	1469
##న్స్	1470
##యి	1471
మార్	1472
##దీ	1473
చి	1474
రోజు	1475
##తా	1476
##డంతో	1477
##ర్చ	1478
##ించింది	1479
మూ	1480
జిల్లా	1481
తా	1482
##ర్థ	1483
కోసం	1484
##తీ	1485
సు	1486
##ము	1487
రెండ	1488
సమా	1489
రై	1490
##న్‌	1491
రెడ్డి	1492
##కర	1493
వర్	1494
##‌‌‌‌‌‌‌‌‌‌‌‌‌‌‌‌‌‌‌‌‌‌‌‌‌‌‌‌‌‌‌‌‌‌‌‌‌‌‌‌‌‌‌‌‌‌‌‌‌‌‌‌‌‌‌‌‌‌‌‌‌‌‌‌	1495
తెలంగా	1496
##సులు	1497
తెలంగాణ	1498
మో	1499
విష	1500
##వారం	1501
##ుకు	1502
అయితే	1503
##ప్ర	1504
##లుగు	1505
చెప్పారు	1506
##కర్	1507
##కుండా	1508
##దని	1509
అను	1510
##ల్లి	1511
ఇచ్చ	1512
రే	1513
##చి	1514
కార్య	1515
ప్రభుత్వం	1516
##శ్	1517
తెలిపారు	1518
తి	1519
##ాలా	1520
భా	1521
తర్	1522
పొ	1523
##ట్ల	1524
##ామని	1525
తర్వాత	1526
##మో	1527
ప్రజ	1528
తీసుకు	1529
##ుల	1530
##రిక	1531
##ంటూ	1532
చంద్ర	1533
##టిక	1534
సిని	1535
##లోని	1536
బీజే	1537
##వహ	1538
అనే	1539
జరిగ	1540
దేశ	1541
పు	1542
##డానికి	1543
అధికారు	1544
బీజేపీ	1545
##స్ట	1546
సో	1547
##ించే	1548
##ట్టి	1549
##తున్నారు	1550
##పోయ	1551
చేస్త	1552
వ్యక్	1553
పై	1554
కలి	1555
ప్రతి	1556
మరో	1557
##జి	1558
##వ్	1559
##ర్య	1560
ఉంది	1561
ఏర్	1562
యా	1563
మంత్రి	1564
##తులు	1565
వ్యా	1566
##డే	1567
##బంధ	1568
సినిమా	1569
తే	1570
కేంద్ర	1571
అన్నారు	1572
ఆరో	1573
##మ్మె	1574
##కీ	1575
##ద్ధ	1576
##కూ	1577
తమ	1578
గ్ర	1579
##ాలకు	1580
శ్రీ	1581
పాటు	1582
లక్ష	1583
##టన	1584
##డ్డ	1585
ఎమ్మె	1586
##ణా	1587
ఎమ్మెల్	1588
##ాని	1589
##పాటు	1590
ఉంటు	1591
##చే	1592
క్ర	1593
చాలా	1594
##ళ్లు	1595
స్ప	1596
జా	1597
##తుంది	1598
##ట్లా	1599
నేత	1600
తో	1601
##కాశ	1602
సీఎం	1603
##ర్టు	1604
##బ్బ	1605
##స్తోంది	1606
##లం	1607
అంత	1608
##క్కువ	1609
జీ	1610
మాత్ర	1611
బె	1612
##టో	1613
మి	1614
##బాబు	1615
##ందిన	1616
వారి	1617
రెండు	1618
##శా	1619
విజ	1620
##రాబాద్	1621
##కులు	1622
##గ్ర	1623
అభి	1624
##ప్పటిక	1625
##వ్వ	1626
అస	1627
పని	1628
##గొ	1629
##మీ	1630
తీసు	1631
ది	1632
##హా	1633
##లలో	1634
మాట్లా	1635
##త్స	1636
ఆమె	1637
##మార్	1638
సర్	1639
సభ	1640
హైద	1641
దీంతో	1642
గత	1643
ప్రధ	1644
##ర్లు	1645
పి	1646
##ెన్	1647
##గే	1648
##దల	1649
జగ	1650
##ెడ్డి	1651
##స్తుంది	1652
అందు	1653
అవకాశ	1654
ముఖ్య	1655
""	1656
వెళ్	1657
చేసుకు	1658
ఆర్	1659
##ీల	1660
...	1661
ఎం	1662
##లాంటి	1663
హైదరాబాద్	1664
మధ్య	1665
##వేశ	1666
##ాన్	1667
చంద్రబాబు	1668
##గ్గ	1669
కానీ	1670
##ంత్	1671
తొ	1672
చెందిన	1673
##00	1674
##ాయని	1675
సూ	1676
వరకు	1677
ఎమ్మెల్యే	1678
##క్కడ	1679
బి	1680
కేసు	1681
##మెంట్	1682
##ినా	1683
ప్రాంత	1684
##సారి	1685
పోలీసులు	1686
చేస్తున్న	1687
##స్‌	1688
##స్తే	1689
పూర్	1690
ఇది	1691
కొత్త	1692
##తూ	1693
సంబంధ	1694
##బీ	1695
##ెం	1696
##చారం	1697
గుర్	1698
చేసింది	1699
##ర్‌	1700
##ర్కొ	1701
బీఆర్	1702
##చార	1703
నెల	1704
తెలు	1705
లా	1706
##స్ట్	1707
నీ	1708
నాయ	1709
అధికారులు	1710
##ందించ	1711
నిర్వహ	1712
బ్యా	1713
సంద	1714
##లపై	1715
202	1716
జన	1717
##ణి	1718
తర	1719
##ంపు	1720
కార్	1721
##స్య	1722
##ణ్	1723
పాల్	1724
నిర్ణ	1725
గె	1726
##ణం	1727
యూ	1728
మహి	1729
##ేషన్	1730
##ెంట్	1731
##ూరు	1732
వార	1733
సమయంలో	1734
భారీ	1735
ద్వ	1736
గుర	1737
##త్తు	1738
##గం	1739
##కపో	1740
##టా	1741
##ల్‌	1742
కల	1743
అన	1744
పెద్ద	1745
మహిళ	1746
ఉద్య	1747
##ుడు	1748
అమ	1749
యు	1750
##షి	1751
మరి	1752
ఎక్కువ	1753
##ాం	1754
##ర్యా	1755
##ారంభ	1756
##్లా	1757
##డియా	1758
కాల	1759
##ంలోని	1760
గంట	1761
కని	1762
ప్రారంభ	1763
అభ్య	1764
చేసే	1765
ఎన్నికల	1766
భూ	1767
ప్రస్తు	1768
శి	1769
##పించ	1770
##ందే	1771
##లోకి	1772
హా	1773
కేసీ	1774
##గర్	1775
##హ్	1776
ఇప్పుడు	1777
##ైనా	1778
ఫో	1779
ముందు	1780
##తే	1781
రాజకీ	1782
##పే	1783
##లేదు	1784
సై	1785
అత	1786
##ృష్	1787
##డిన	1788
##యోజ	1789
కేసీఆర్	1790
##వరి	1791
##చ్చు	1792
అవు	1793
విద్య	1794
మ్యా	1795
బీఆర్ఎస్	1796
అంద	1797
##నించ	1798
ఇవ్వ	1799
##ఫీ	1800
ఇక	1801
##కాల	1802
కుటు	1803
అర	1804
##ారీ	1805
##ద్ర	1806
జగన్	1807
మీడియా	1808
ప్రభుత్వ	1809
##ాయం	1810
ఫి	1811
##వన్	1812
##పె	1813
##ిల్లీ	1814
ఒక్క	1815
కల్	1816
##ర్మ	1817
విధ	1818
పేర్కొ	1819
సాధ	1820
చెబు	1821
ద్వారా	1822
##తంగా	1823
##ంక	1824
హె	1825
ఏర్పాటు	1826
కొన్ని	1827
ప్రకట	1828
##విత	1829
ప్రత్య	1830
##నూ	1831
##రుకు	1832
క్	1833
ఏపీ	1834
##స్థి	1835
##ర్భ	1836
మన	1837
డీ	1838
సమస్య	1839
కావ	1840
##క్రమ	1841
పెట్ట	1842
ప్రమా	1843
అధికార	1844
అయ్య	1845
10	1846
##‌కు	1847
కె	1848
##ందో	1849
సే	1850
జరుగు	1851
మహ	1852
##శి	1853
ఉంటుంది	1854
వచ్చిన	1855
##ంత్ర	1856
##స్తూ	1857
పలు	1858
కారణ	1859
##సీపీ	1860
అవకాశం	1861
##ికెట్	1862
##గో	1863
ఉద్యో	1864
వెలుగు	1865
##నున్న	1866
ధర	1867
పోటీ	1868
దీని	1869
##బో	1870
##ల్సి	1871
##తీయ	1872
మాజీ	1873
బయ	1874
##క్స్	1875
##తర	1876
రేవ	1877
రూప	1878
##ంజ	1879
పూర్తి	1880
##ార్థ	1881
ప్రస్తుతం	1882
##ాల్లో	1883
జరిగిన	1884
##ెస్ట్	1885
##మని	1886
##త్రి	1887
వచ్చే	1888
మొద	1889
అలా	1890
పరిస్థి	1891
ఇండి	1892
వల్ల	1893
ఆరోప	1894
గో	1895
##ంటారు	1896
##ల్స్	1897
అధ్య	1898
బు	1899
అభ్యర్థ	1900
##మంత్రి	1901
సహ	1902
శాఖ	1903
##ాక్	1904
##ేక	1905
##టం	1906
ఎస్	1907
##దం	1908
##స్టు	1909
కుటుంబ	1910
సంస్థ	1911
##వ్ర	1912
ఆధ	1913
వర్ష	1914
19	1915
##యర్	1916
ఎదు	1917
కొన	1918
##యత్	1919
##ాన్ని	1920
భారత్	1921
##టింగ్	1922
##ించుకు	1923
మార	1924
రేవంత్	1925
లేదు	1926
మొత్త	1927
విజయ	1928
తీవ్ర	1929
చేస్తున్నారు	1930
ఎంపీ	1931
విచార	1932
##ెక్టర్	1933
##‌‌‌‌‌‌‌‌‌‌‌‌‌‌‌‌‌‌‌‌‌‌‌‌‌‌‌‌‌‌‌‌‌‌‌‌‌‌‌‌‌‌‌‌‌‌‌‌‌‌‌‌‌‌‌‌‌‌‌‌‌‌‌‌‌‌‌‌‌‌‌‌‌‌‌‌‌‌‌‌‌‌‌‌‌‌‌‌‌‌‌‌‌‌‌‌‌‌‌‌‌‌‌‌‌‌‌‌‌‌‌‌‌‌‌‌‌‌‌‌‌‌‌‌‌‌‌‌	1934
##తలు	1935
##నాలు	1936
ఎన్నికల్లో	1937
##డీపీ	1938
చేప	1939
మండ	1940
ఉప	1941
201	1942
పాల్గొ	1943
హి	1944
ట్ర	1945
##ినీ	1946
మంచి	1947
భారత	1948
పేరు	1949
##డియో	1950
అన్ని	1951
##పూర్	1952
పీ	1953
ఇప్పటిక	1954
##‌ను	1955
వద్ద	1956
సమావేశ	1957
క్యా	1958
##కం	1959
కమి	1960
మూడు	1961
పాల	1962
చర్చ	1963
##ానికి	1964
##ట్టుకు	1965
##్యం	1966
దు	1967
నియోజ	1968
వెల్ల	1969
టీడీపీ	1970
##న్నా	1971
వారు	1972
ఇంట	1973
శు	1974
కీల	1975
ప్రయత్	1976
కలిసి	1977
##తున్నాయి	1978
గ్రామ	1979
##రగ	1980
అం	1981
లి	1982
పట్ట	1983
నమో	1984
బో	1985
విడు	1986
##తుల	1987
నియోజక	1988
నో	1989
స్థాన	1990
##స్తారు	1991
##పంచ	1992
##సింది	1993
తేదీ	1994
##రూ	1995
##రణ	1996
##దేశ్	1997
##ప్పటి	1998
##వై	1999
కొనసా	2000
చర్య	2001
##యన్	2002
##ంబర్	2003
ప్రత్యేక	2004
##ిల్ల	2005
పరిశ	2006
గురించి	2007
##త్తి	2008
##షల్	2009
మ్యాచ్	2010
##బర్	2011
##నర్	2012
##రాలు	2013
కుమార్	2014
వీడియో	2015
##భా	2016
##సర	2017
భాగ	2018
##ంగళ	2019
సందర్భ	2020
ఉందని	2021
కంప	2022
కీలక	2023
మాత్రం	2024
ప్రశ్	2025
విడుదల	2026
రాజకీయ	2027
##జర్	2028
##బ్లీ	2029
##లై	2030
##కె	2031
##ద్ధి	2032
వైసీపీ	2033
##్రో	2034
పవన్	2035
##హు	2036
తప్ప	2037
ఉన్నారు	2038
##హం	2039
చో	2040
వివర	2041
##డ్డు	2042
నియోజకవర్	2043
అధ్యక్ష	2044
ప్రధాన	2045
##మాండ్	2046
ఉన్నాయి	2047
వెళ్ల	2048
వెల్లడ	2049
శాతం	2050
విచారణ	2051
##మర్శ	2052
##యోగ	2053
ఉంట	2054
##ైంది	2055
##ద్దు	2056
ప్రభా	2057
ఢిల్లీ	2058
కర్	2059
##ంటున్న	2060
##దర్శ	2061
##ానని	2062
దే	2063
మాత్రమే	2064
##నున్నారు	2065
హో	2066
జూ	2067
దూ	2068
రావ	2069
##ష్టం	2070
##ించాలని	2071
విషయం	2072
బయట	2073
##వృ	2074
వ్యక్తం	2075
15	2076
పద	2077
ఎలా	2078
##ంటున్నారు	2079
ఘటన	2080
##దన	2081
అర్	2082
##వల	2083
##ారెడ్డి	2084
అసెం	2085
ఉద	2086
##పర్	2087
##లుగా	2088
అసెంబ్లీ	2089
##ట్‌	2090
తాజా	2091
ఉండే	2092
##పల్లి	2093
##లింగ్	2094
సభ్య	2095
##్రే	2096
జో	2097
అమ్మ	2098
##్వర	2099
##గిన	2100
##లోనే	2101
##ాలతో	2102
పూ	2103
వంటి	2104
అన్న	2105
వేల	2106
సమాచారం	2107
ముఖ్యమంత్రి	2108
ఎన్	2109
ఉత్త	2110
##దిక	2111
లీ	2112
షా	2113
సూచ	2114
చేయాలని	2115
##వో	2116
ఇప్పటికే	2117
##పడు	2118
కోట్ల	2119
##రారు	2120
##యు	2121
మాట్లాడు	2122
పోలీసు	2123
యువ	2124
ప్రపంచ	2125
##కోర్టు	2126
##పడ్డ	2127
##క్‌	2128
##టె	2129
విమర్శ	2130
దర్శ	2131
##రల్	2132
ప్రజలు	2133
##నుంది	2134
##ానం	2135
##ెనీ	2136
12	2137
##ినే	2138
ప్రధాని	2139
తిరు	2140
మృ	2141
చేసు	2142
నుండి	2143
అదే	2144
లక్షల	2145
జై	2146
##ించు	2147
కోర్టు	2148
ఆదేశ	2149
##క్షన్	2150
డై	2151
పను	2152
నాలు	2153
కంపెనీ	2154
వ్యక్తి	2155
##గ్గు	2156
హీ	2157
రాష్ట్రంలో	2158
##రెడ్డి	2159
##రిగి	2160
##వారు	2161
ఇండియా	2162
##టీఆర్	2163
సందర్భంగా	2164
##కంగా	2165
తెలుగు	2166
వాటి	2167
##ేశారు	2168
వెంట	2169
##కపోవ	2170
##ించడం	2171
ఎలాంటి	2172
సంఘ	2173
లై	2174
##డాది	2175
##ంలోకి	2176
తాను	2177
##ెల్	2178
మోదీ	2179
అత్య	2180
వార్	2181
తరు	2182
కింద	2183
తొలి	2184
మీద	2185
మొత్తం	2186
లేదా	2187
ప్రకారం	2188
వ్యవ	2189
ఆది	2190
ప్రయా	2191
చిత	2192
చిన్న	2193
##య్	2194
ఆల	2195
##బ్బంది	2196
##నల్	2197
న్యూ	2198
అమె	2199
విని	2200
వారికి	2201
##త్మ	2202
అంటూ	2203
నిర్మా	2204
##ంతరం	2205
రంగ	2206
నగ	2207
సిద్ధ	2208
అభివృ	2209
ఇతర	2210
చేయడం	2211
##సర్	2212
##ాము	2213
సోషల్	2214
ఇద్ద	2215
న్య	2216
రైతు	2217
ఆర్థ	2218
ప్రే	2219
ఆరోగ	2220
పిల్ల	2221
విద్యార్థ	2222
##టక	2223
##ల్సిన	2224
ప్లా	2225
నేతలు	2226
ఇం	2227
##ృష్ణ	2228
లేదని	2229
30	2230
చర్యలు	2231
##వత్స	2232
##తుందని	2233
##జన్	2234
##రికా	2235
అక్కడ	2236
దగ్గ	2237
##కుల	2238
హీరో	2239
స్వా	2240
ఎవర	2241
##సె	2242
కాదు	2243
##బ్బు	2244
గెలి	2245
ఆర్థిక	2246
టై	2247
##జెక్	2248
##వులు	2249
##శ్వ	2250
##రోజు	2251
##క్తి	2252
రు	2253
అంటే	2254
##గానే	2255
సంవత్స	2256
ఇందు	2257
##స్వా	2258
చేపట్ట	2259
##దారు	2260
ఇదే	2261
పనిచే	2262
పెంచ	2263
ఇలా	2264
అందించ	2265
##్యంలో	2266
##డుగు	2267
##ంధీ	2268
ఆఫీ	2269
విక	2270
11	2271
జరగ	2272
అలాగే	2273
అది	2274
##టమి	2275
పర్య	2276
##ళన	2277
##యాన్ని	2278
రామ	2279
గుర్త	2280
నిలి	2281
##తాయి	2282
##స్సు	2283
పరుగు	2284
##ందన్నారు	2285
##ప్తంగా	2286
##ంతా	2287
ఇన్	2288
##ల్డ్	2289
కౌ	2290
##నించారు	2291
##ప్రదేశ్	2292
పేర్కొన్నారు	2293
కోట్లు	2294
క్రమ	2295
అయిన	2296
ఇచ్చిన	2297
వెంక	2298
డిమాండ్	2299
తాజాగా	2300
ప్రాజెక్	2301
దాని	2302
వెళ్లి	2303
##రకు	2304
),	2305
##టే	2306
##యాలు	2307
బాల	2308
తెలియ	2309
##తారు	2310
##న్సి	2311
##పథ	2312
తెలిపింది	2313
##తిక	2314
##దాపు	2315
##ల్లు	2316
##స్తామని	2317
చెబుతున్నారు	2318
##సభ	2319
తీసుకోవ	2320
సొ	2321
##యూ	2322
స్వ	2323
దాదాపు	2324
అమలు	2325
సంబంధించిన	2326
ఫ్యా	2327
చేరుకు	2328
ఏడాది	2329
వచ్చి	2330
##ూడ	2331
గతంలో	2332
##లిక	2333
##ామీ	2334
##లేదని	2335
కార్యక్రమ	2336
పరిస్థితి	2337
##స్ప	2338
రోజుల	2339
ఇటీ	2340
తగ్గ	2341
తు	2342
భక్	2343
##పడి	2344
ట్రా	2345
##రీక్ష	2346
##స్తున్నాయి	2347
గాంధీ	2348
అక్క	2349
##లర్	2350
మాట్లాడుతూ	2351
##ందోళన	2352
డె	2353
##ంతి	2354
డబ్బు	2355
స్థాని	2356
వ్యవహ	2357
భాగంగా	2358
##ులకు	2359
##కుడు	2360
##ేశ్	2361
పెరుగు	2362
మూవీ	2363
బ్యాం	2364
లు	2365
చై	2366
##పక్ష	2367
గొ	2368
##పడ	2369
అమెరికా	2370
అనేక	2371
పడు	2372
##ార్డు	2373
కనిపి	2374
స్టార్	2375
నేపథ	2376
కారణంగా	2377
ఫలి	2378
##సన	2379
##చు	2380
అనంతరం	2381
నమోదు	2382
##క్ష్	2383
వైఎస్	2384
అభివృద్ధి	2385
లె	2386
వెంటనే	2387
జరిగింది	2388
##రంగా	2389
##పెట్ట	2390
సర	2391
ఆఫ్	2392
##టర్లు	2393
ప్రజా	2394
మళ్	2395
విషయంలో	2396
##మయ్య	2397
##కొని	2398
##శాఖ	2399
కొంత	2400
నేను	2401
అంచ	2402
##న్నీ	2403
పథ	2404
సమీ	2405
వ్యాఖ్య	2406
##డని	2407
నిర్ణయం	2408
##గాలు	2409
##ద్ది	2410
గౌ	2411
##ంధ్ర	2412
నిర్మ	2413
చీ	2414
##ెన్స్	2415
##ండు	2416
గంటల	2417
అంశ	2418
జారీ	2419
25	2420
##లుపు	2421
ఇందులో	2422
తరువాత	2423
రావు	2424
##an	2425
##క్షి	2426
##క్షణ	2427
పరీక్ష	2428
రూపాయ	2429
##ందరు	2430
దాడి	2431
వచ్చింది	2432
డ్ర	2433
రాహు	2434
నేపథ్యంలో	2435
కేసులో	2436
ఆశ	2437
ఆందోళన	2438
కేట	2439
##సేన	2440
##ారో	2441
##పడ్డారు	2442
ఫోన్	2443
##పోయిన	2444
ఫొ	2445
మాట్లాడ	2446
వివా	2447
వస్తు	2448
##ాయ్	2449
##స్తా	2450
##ర్యాదు	2451
##కొచ్చ	2452
##్యాల	2453
పాత్ర	2454
##ప్పటికీ	2455
##ళ్లి	2456
14	2457
##టంతో	2458
లేకుండా	2459
కళ	2460
హామీ	2461
ఫిర్యాదు	2462
##పేట	2463
పం	2464
జీవిత	2465
##డో	2466
చూడ	2467
##ర్చు	2468
తెలిసి	2469
దొ	2470
ఇచ్చారు	2471
ఎక్కువగా	2472
ఫొటో	2473
స్థాయి	2474
టా	2475
##కున్న	2476
యూని	2477
##బాటు	2478
##కెట్	2479
ఉదయం	2480
ప్రచారం	2481
##ాలపై	2482
##వారి	2483
రిక	2484
ప్రి	2485
తయ	2486
నియ	2487
##లువ	2488
ఖా	2489
##డర్	2490
చట్ట	2491
డైర	2492
##ించేందుకు	2493
సరి	2494
##మవు	2495
పెరి	2496
గుర్తు	2497
##పతి	2498
జిల్లాలో	2499
##ధు	2500
రీ	2501
చిత్ర	2502
దగ్గర	2503
మొదటి	2504
డాక్	2505
ఎంత	2506
మద్ద	2507
##రంలో	2508
డే	2509
బాధ్య	2510
పడి	2511
##నివా	2512
బంగ	2513
మార్పు	2514
##పోయింది	2515
##ంటీ	2516
హాజ	2517
##‌లోని	2518
సింగ్	2519
సౌ	2520
##నని	2521
##ందా	2522
నాలుగు	2523
స్టేషన్	2524
కాగా	2525
త్వర	2526
నిర్ణయ	2527
##స్తో	2528
వైద్య	2529
ఆరోపణ	2530
సాయ	2531
##బి	2532
బల	2533
##రువు	2534
##వరణ	2535
పార్ల	2536
##కాలు	2537
##సై	2538
న్యాయ	2539
పంప	2540
మరింత	2541
##వాడ	2542
##ధిక	2543
రెండో	2544
##వన	2545
##న్ను	2546
##ండగా	2547
సంఖ్య	2548
తల	2549
18	2550
##ాలలో	2551
##ెస్టు	2552
శ్రీనివా	2553
మీడియాలో	2554
జట్టు	2555
ట్వ	2556
##ట్స్	2557
తల్లి	2558
##వైపు	2559
రాహుల్	2560
కాలే	2561
##తిరే	2562
చేసుకోవ	2563
##నుగో	2564
అందుకే	2565
##టికి	2566
పాల్గొన్నారు	2567
క్రమంలో	2568
##చర్	2569
ప్రభుత్వా	2570
50	2571
వ్యాప	2572
##ణాలు	2573
తెలుస్తోంది	2574
ఇంటి	2575
ఆంధ్ర	2576
చేస్తూ	2577
ఉంటే	2578
##చుకు	2579
##మాన్	2580
గ్రా	2581
కథ	2582
##బడి	2583
ఇప్పటి	2584
##ంటర్	2585
24	2586
కొనసాగు	2587
##వ్యా	2588
వాతా	2589
##నియర్	2590
##ఫి	2591
మై	2592
వ్యతిరే	2593
ఇలాంటి	2594
జనసేన	2595
ఎందుకు	2596
మళ్లీ	2597
తెలంగాణలో	2598
హైకోర్టు	2599
అంది	2600
##విధ	2601
ప్	2602
లోని	2603
మేరకు	2604
##వార	2605
##నలు	2606
##మారు	2607
##యల్	2608
కేటీఆర్	2609
ఆరోపించారు	2610
##ేందుకు	2611
##త్వ	2612
అభ్యర్థి	2613
కలెక్టర్	2614
ఫై	2615
రిలీ	2616
17	2617
##షనల్	2618
##ార్లు	2619
అరెస్ట్	2620
ప్రజల	2621
##టర్ల	2622
ఏం	2623
విమా	2624
ఐదు	2625
తెలిసిందే	2626
నాయకులు	2627
##ఎల్	2628
సిబ్బంది	2629
బిల్	2630
వాహ	2631
##పోయారు	2632
##ోర్	2633
అధ్యక్షుడు	2634
భర్	2635
ప్రకటన	2636
##ల్లా	2637
##ాలే	2638
తిరిగి	2639
సంగ	2640
జాతీయ	2641
##రావు	2642
ఇటీవల	2643
మద్దతు	2644
##మై	2645
##డిగా	2646
ప్రాజెక్టు	2647
విన	2648
##గంలో	2649
ఆలో	2650
2024	2651
కర్ణా	2652
అప్ప	2653
ప్రొ	2654
రాత్రి	2655
సోమ	2656
శని	2657
##ముఖ	2658
టి	2659
##గాల	2660
13	2661
ఆధార	2662
##దో	2663
##یں	2664
200	2665
కర్ణాటక	2666
##స్టి	2667
పడ	2668
##టరీ	2669
##మల	2670
వెల్లడించారు	2671
##స్తాయి	2672
పంచ	2673
కొనుగో	2674
చు	2675
##ళి	2676
##స్టర్	2677
ఇక్కడ	2678
##భి	2679
##రికి	2680
కొందరు	2681
##్యార	2682
నిల	2683
శివ	2684
శుక్ర	2685
కంటే	2686
##ారాయ	2687
##్యు	2688
##తిని	2689
ఆస	2690
నింది	2691
##యిల్	2692
##శారు	2693
పైన	2694
##ంప్	2695
కమిటీ	2696
##ాను	2697
##న్నాయి	2698
వీటి	2699
స్టే	2700
విజయం	2701
తక్కువ	2702
##ర్మన్	2703
చా	2704
##ందర్	2705
16	2706
##సీసీ	2707
అవస	2708
తనకు	2709
మంగళ	2710
##ృష్ట	2711
##చిన	2712
గి	2713
నమ్మ	2714
##టల్	2715
భార్య	2716
కాకుండా	2717
గాయ	2718
వృ	2719
గురు	2720
ఇద్దరు	2721
నీటి	2722
ఇంకా	2723
హత్య	2724
ఉద్యోగు	2725
అందుకు	2726
##ంతు	2727
##ಲ್	2728
ఫు	2729
ఆగ	2730
##రేషన్	2731
ఉత్	2732
రైల్	2733
రోడ్డు	2734
కోరారు	2735
పైగా	2736
##దాలు	2737
చోటు	2738
##క్కి	2739
ఆంధ్రప్రదేశ్	2740
చని	2741
పనులు	2742
నిర	2743
వెంకట	2744
##వె	2745
కేవ	2746
కిలో	2747
##యిన్	2748
బెంగళ	2749
##ణు	2750
ఉపయోగ	2751
వైరల్	2752
##వరకు	2753
##మంది	2754
అతని	2755
బౌ	2756
##మాను	2757
పాకి	2758
##ప్రీ	2759
రాష్ట్రా	2760
తీసుకున్న	2761
22	2762
##కారం	2763
##ంద్	2764
స్పందించ	2765
పక్క	2766
##డుకు	2767
భావి	2768
##ారణ	2769
మారింది	2770
బెంగళూరు	2771
##ాలంటే	2772
ఆద	2773
కేవలం	2774
పోలీస్	2775
హెచ్చ	2776
ఇంట్	2777
మర	2778
##వాల్	2779
ఉంచ	2780
టికెట్	2781
షే	2782
##ేశ్వ	2783
పరిధి	2784
కారు	2785
##ఖా	2786
తీర్	2787
చేసుకున్న	2788
స్కూ	2789
అందులో	2790
మోడీ	2791
##డిని	2792
క్ష	2793
సాగు	2794
అడుగు	2795
##నేందుకు	2796
##ర్ర	2797
బై	2798
ఆరోగ్య	2799
ప్రాంతాల్లో	2800
##కరణ	2801
సూచించారు	2802
ఏళ్ల	2803
దేశంలో	2804
మొదల	2805
సర్క	2806
అల	2807
##చిత	2808
##ృష్టి	2809
##ల్ని	2810
##యానికి	2811
అతి	2812
దో	2813
అధికారంలోకి	2814
మాట	2815
మార్కెట్	2816
కార్యకర్	2817
వారిని	2818
రాశి	2819
##బుల్	2820
##య్యారు	2821
##గింది	2822
##తిలో	2823
##ామన్నారు	2824
##జయ్	2825
సూర్	2826
నిర్వ	2827
కోల్	2828
ఏపీలో	2829
మారు	2830
కట్ట	2831
##వ్యాప్తంగా	2832
2023	2833
కష్ట	2834
##నె	2835
##నగర్	2836
##థ్	2837
##చ్చి	2838
చెప్పు	2839
##డంలో	2840
కేంద్రం	2841
రైల్వే	2842
తమి	2843
వర్షాలు	2844
అవసరం	2845
మరోసారి	2846
భద్ర	2847
##డికి	2848
ముగి	2849
సంచ	2850
చేశాడు	2851
చేర	2852
##పొ	2853
మీరు	2854
ప్రజలకు	2855
అనుమ	2856
##క్రమా	2857
ఎంతో	2858
తాము	2859
ప్రై	2860
రిలీజ్	2861
జే	2862
##జ్ర	2863
సుప్రీ	2864
కొనుగోలు	2865
ప్రవేశ	2866
ఇంటర్	2867
ఆలోచ	2868
##ండ్ల	2869
స్పష్టం	2870
##‌‌‌‌‌‌‌‌‌‌‌‌‌‌‌‌‌‌‌‌‌‌‌‌‌‌‌‌‌‌‌‌‌‌‌‌‌‌‌‌‌‌‌‌‌‌‌‌‌‌‌‌‌‌‌‌‌‌‌‌‌‌‌‌‌‌‌‌‌‌‌‌‌‌‌‌‌‌‌‌‌‌‌‌‌‌‌‌‌‌‌‌‌‌‌‌‌‌‌‌‌‌‌‌‌‌‌‌‌‌‌‌‌‌‌‌‌‌‌‌‌‌‌‌‌‌‌‌‌‌‌‌‌‌‌‌‌‌‌‌‌‌‌‌‌‌‌‌‌‌‌‌‌‌‌‌‌‌‌‌‌‌‌‌‌‌‌‌‌‌‌‌‌‌‌‌‌‌‌‌‌‌‌‌‌‌‌‌‌‌‌‌‌‌‌‌‌‌‌‌‌‌‌‌‌‌‌‌‌‌‌‌‌‌‌‌‌‌‌‌‌‌‌‌‌‌‌‌‌‌‌‌‌‌‌‌‌‌‌‌‌‌‌‌‌‌‌‌‌‌‌‌‌‌‌‌	2871
##‌లు	2872
##ర్స్	2873
క్రి	2874
##పాల	2875
ఉంటాయి	2876
ఆహ	2877
##న్య	2878
##రియా	2879
నాగ	2880
##దన్నారు	2881
##ీర్	2882
మండి	2883
పోరా	2884
రోడ్	2885
##నాల	2886
##ధులు	2887
అందుబాటు	2888
తరల	2889
##یا	2890
చెల్ల	2891
##వచ్చు	2892
##శే	2893
తెలుసుకు	2894
పర్	2895
తెర	2896
డాక్టర్	2897
సొంత	2898
##వాల	2899
##ేమ	2900
సమయం	2901
రాజీ	2902
పెళ్లి	2903
ప్రకటించారు	2904
బాధ	2905
##ాక	2906
తొల	2907
అక్	2908
##మూ	2909
##కోవడం	2910
మృతి	2911
పెట్టు	2912
##డులు	2913
వివిధ	2914
వరు	2915
అంతే	2916
సుప్రీం	2917
##బ్ర	2918
##ండర్	2919
ఫా	2920
##ష్య	2921
##మైంది	2922
మరియు	2923
##జన	2924
గ్రూ	2925
పోలింగ్	2926
##ప్తు	2927
స్వీ	2928
వేయ	2929
కార్యాల	2930
డైరెక్టర్	2931
##వంత	2932
##ించాడు	2933
##తన	2934
##సెస్	2935
పరుగులు	2936
ఇంత	2937
పాట	2938
జూన్	2939
బస్సు	2940
సీనియర్	2941
##స్క	2942
వ్యాఖ్యలు	2943
##ించడానికి	2944
నరే	2945
##కింగ్	2946
##ండీ	2947
ముందుకు	2948
ప్రమాదం	2949
అవసర	2950
##డమే	2951
సేవ	2952
మరణ	2953
ప్లే	2954
లక్ష్	2955
కాల్	2956
21	2957
అడి	2958
##ినట్లు	2959
##ండ్రి	2960
వీరి	2961
##బీసీ	2962
ఆట	2963
ఆత్మ	2964
##మ్స్	2965
సర్వే	2966
##గిరి	2967
గంటలకు	2968
##క్త	2969
వ్యవస్థ	2970
ఇబ్బ	2971
ప్రమాద	2972
ప్రముఖ	2973
శుక్రవారం	2974
##ికల్	2975
మండల	2976
##ద్యా	2977
##ళ్ళ	2978
##తను	2979
##రులు	2980
నిర్వహి	2981
##పరి	2982
నిర్వహించారు	2983
##ెట్టి	2984
##‌తో	2985
బుధ	2986
జైలు	2987
నిజ	2988
##స్తుందని	2989
కూటమి	2990
##్రియ	2991
అనేది	2992
సోమవారం	2993
వేదిక	2994
వైపు	2995
##ించా	2996
మంత్ర	2997
##ానీ	2998
పరిష్	2999
బాధి	3000
భూమి	3001
క్రికెట్	3002
ఫలిత	3003
ఇబ్బందు	3004
పోస్టు	3005
సంబంధించి	3006
##ెట్లు	3007
ఎన్నికలు	3008
##వుడ్	3009
ఎవ	3010
వివరించారు	3011
##ర్ట్	3012
కర	3013
మరోవైపు	3014
##నింగ్	3015
వాటిని	3016
దీనిపై	3017
పెట్టి	3018
కార్యక్రమా	3019
##పోవ	3020
దీనికి	3021
అభిప్ర	3022
టె	3023
యో	3024
జి	3025
ఫీ	3026
##ోత్స	3027
##పించారు	3028
ఎన్న	3029
అప్	3030
ముంబ	3031
నివే	3032
ఇజ్ర	3033
##ండ్ర	3034
##ారిటీ	3035
##ారాయణ	3036
##తికి	3037
పరిశీల	3038
కృ	3039
##ప్టె	3040
##లాండ్	3041
##‌ల	3042
అధినే	3043
జరిగే	3044
ఉంటుందని	3045
##రాల	3046
##టీసీ	3047
యాద	3048
కనిపించ	3049
పూజ	3050
బొ	3051
రాయ	3052
##ణీ	3053
బయటకు	3054
100	3055
##లియా	3056
రిజర్	3057
ఎయి	3058
మాన	3059
బాగా	3060
వరద	3061
సెల	3062
చేస్తే	3063
##సూ	3064
##పాల్	3065
రోజుల్లో	3066
వస్తున్న	3067
ప్రశ్నించారు	3068
అప్పు	3069
##నుక	3070
##పడిన	3071
బోర్	3072
##ప్షన్	3073
జె	3074
ఆరు	3075
సంక్ష	3076
##బె	3077
##వాళ	3078
కేసులు	3079
చేసేందుకు	3080
దర్యా	3081
దక్షి	3082
వస్తే	3083
##చూ	3084
దృష్టి	3085
##ంత్రం	3086
##తున్నారని	3087
##జె	3088
ఆదివారం	3089
##టై	3090
##స్వామి	3091
##రావ	3092
నమోద	3093
ఇజ్రాయ	3094
అర్థ	3095
ఆప	3096
తమిళ	3097
అద	3098
ప్రతిపక్ష	3099
అండ్	3100
కమ	3101
నేడు	3102
పేరుతో	3103
##గ్రహం	3104
తీసుకె	3105
##పురం	3106
40	3107
పంట	3108
##ంటో	3109
బ్ర	3110
ఒకే	3111
##ెబ్బ	3112
తప్పు	3113
##జ్ఞ	3114
అక్టో	3115
పాలన	3116
చైర్మన్	3117
##స్తాన్	3118
కవిత	3119
##ారాన్ని	3120
##రికొ	3121
##న్సిప	3122
మంగళవారం	3123
విస్త	3124
చెన్న	3125
శ్రీనివాస్	3126
##గల	3127
పేర్కొంది	3128
దర్యాప్తు	3129
మార్చి	3130
శరీ	3131
##ంగల్	3132
బంగారం	3133
రద్దు	3134
##రుపు	3135
రైతులు	3136
చీఫ్	3137
వాతావరణ	3138
చేయడానికి	3139
##దుపు	3140
ఆరోపణలు	3141
శనివారం	3142
##ొచ్చు	3143
##రుగా	3144
##హ్మ	3145
చేస	3146
##ంస	3147
##ళీ	3148
అక్రమ	3149
నగర్	3150
##ులను	3151
##వాల్సి	3152
ఎమ్మెల్సీ	3153
##రాజ్	3154
ఓటు	3155
సాయంత్రం	3156
ఫ్	3157
##సిటీ	3158
కేటాయ	3159
##బీఐ	3160
ఏర్పా	3161
##ళ్లకు	3162
అభిమాను	3163
ఇంట్లో	3164
ఓవర్	3165
విలువ	3166
కల్యా	3167
##హె	3168
##్రమ	3169
సంజయ్	3170
సహాయ	3171
##కపోవడంతో	3172
అంచనా	3173
##తులకు	3174
అయ్యారు	3175
అధినేత	3176
వయ	3177
ప్రస	3178
బీసీ	3179
చివరి	3180
##కృష్ణ	3181
##చ్చని	3182
డిసె	3183
కృష్ణ	3184
బ్రి	3185
ప్రయాణి	3186
శం	3187
##ీవుడ్	3188
##20	3189
##ర్ల	3190
తేదీన	3191
##రంగ	3192
##గూడ	3193
కొట్ట	3194
##పోయి	3195
పిటి	3196
23	3197
మండలం	3198
చేశారని	3199
##ar	3200
##్యూటీ	3201
జరుగుతున్న	3202
పార్టీకి	3203
సెప్టె	3204
నడు	3205
ముగ్గు	3206
##హన్	3207
పోస్ట్	3208
##ణంలో	3209
దక్క	3210
సహా	3211
విశాఖ	3212
##కూడ	3213
##్యంగా	3214
##తులను	3215
తది	3216
##ాలనే	3217
తగ్	3218
##జిక	3219
##సుప	3220
##షా	3221
##త్వం	3222
రైలు	3223
##మ్మి	3224
##ికిత్స	3225
##ికా	3226
##నంగా	3227
కార్యక్రమంలో	3228
స్థానిక	3229
డ్రై	3230
##చారు	3231
శుభ	3232
##దర్శి	3233
సభ్యులు	3234
##డ్జ	3235
గే	3236
హు	3237
వివ	3238
##ించినట్లు	3239
##ళ్లలో	3240
##మిక	3241
##ితం	3242
##రికీ	3243
గురువారం	3244
##కులకు	3245
తయారు	3246
అత్యంత	3247
కళ్యా	3248
##తల	3249
నిజా	3250
అయినా	3251
అక్కడి	3252
విదేశ	3253
వంద	3254
సంతో	3255
నివేదిక	3256
ఎత్తు	3257
లాంటి	3258
విమర్శించారు	3259
##నియా	3260
##కపోతే	3261
మహిళా	3262
##న్లు	3263
అంగ	3264
##లేక	3265
##ర్మి	3266
వరకూ	3267
జరిగి	3268
సమస్యలు	3269
మాట్లాడారు	3270
పార్లమెంట్	3271
ఆసుప	3272
##ాలన్నారు	3273
విద్యా	3274
బీబీసీ	3275
పంపి	3276
నట	3277
##డవ	3278
##గాయి	3279
ఐపీ	3280
##ల్లోకి	3281
##ప్పుడ	3282
##ించారని	3283
పార్టీలో	3284
భారీగా	3285
మొదలు	3286
నిరసన	3287
గవర్	3288
##స్త్ర	3289
విధంగా	3290
##ించాలి	3291
##ళ్లను	3292
##పుణ	3293
నెలకొ	3294
##ట్రో	3295
లేని	3296
బిల్లు	3297
##బట్టి	3298
సింగ	3299
సిటీ	3300
అరెస్టు	3301
ఎదుర్కొ	3302
విక్ర	3303
గెలు	3304
చికిత్స	3305
ప్రాంతంలో	3306
##‌ని	3307
ప్రైవే	3308
భారతీయ	3309
##రియ	3310
##పం	3311
##ప్పి	3312
నిమి	3313
##శాల	3314
##న్నాడు	3315
##ద్దీ	3316
చేస్తామని	3317
##దేశం	3318
##ట్లను	3319
షర్మి	3320
బుధవారం	3321
అడ్డు	3322
##స్తున్నారని	3323
భక్తులు	3324
ఎక్కడ	3325
##‌గా	3326
##ಲ್ಲ	3327
28	3328
చైనా	3329
బంధ	3330
##బిత	3331
##ండె	3332
కాపా	3333
పది	3334
చేరు	3335
కావడంతో	3336
##ంపై	3337
నాకు	3338
తమకు	3339
గ్రామా	3340
##వుల	3341
ఆక	3342
నామ	3343
మున్సిప	3344
సాధారణ	3345
ట్యా	3346
##డ్జెట్	3347
యుద్ధ	3348
పర్యటన	3349
నరేంద్ర	3350
ఈసారి	3351
ప్రభావం	3352
టెక్	3353
##వాస	3354
పాఠ	3355
##ఖాస్తు	3356
చేసినట్లు	3357
##దులు	3358
##ప్రిల్	3359
ప్రకటించింది	3360
ఉపా	3361
کے	3362
ఏప్రిల్	3363
నవం	3364
##లిం	3365
దాఖ	3366
ప్రేమ	3367
ఖర్చు	3368
##ారులు	3369
దశ	3370
##ప్తి	3371
##గ్రత్త	3372
దెబ్బ	3373
ల్యా	3374
బాబు	3375
సమీప	3376
##ితంగా	3377
రోజులు	3378
వరుస	3379
##ఎఫ్	3380
పెట్టుకు	3381
తీసుకో	3382
అంతర్	3383
##టెన్	3384
##‌ర్	3385
##స్ట్రే	3386
ఎల	3387
విద్యుత్	3388
##డత	3389
ముఖ్యంగా	3390
కప్	3391
##ందం	3392
##నో	3393
కంట	3394
అడ్	3395
వరల్డ్	3396
డిప	3397
మందికి	3398
అసలు	3399
##್‌	3400
మెంట్	3401
వినియోగ	3402
అయి	3403
స్థాయిలో	3404
##సన్	3405
ఇవ్వాలని	3406
##సిడ	3407
పలువు	3408
పిటిషన్	3409
మెడ	3410
కార్మి	3411
బహి	3412
##ధ్యా	3413
ఆన	3414
ఎంప	3415
పదే	3416
భావ	3417
కళ్యాణ్	3418
యాక్	3419
భర్త	3420
కామెంట్	3421
బెయిల్	3422
సుప్రీంకోర్టు	3423
దర	3424
జిల్లాల్లో	3425
అంటున్నారు	3426
##డుక	3427
మండిపడ్డారు	3428
హక్కు	3429
జాగ్రత్త	3430
హాజర	3431
##హెచ్	3432
ఇండ	3433
నోటీ	3434
రికార్డు	3435
##చింది	3436
##వల్ల	3437
సూపర్	3438
క్వ	3439
##ండ్లు	3440
అవి	3441
అలాంటి	3442
##చ్చారు	3443
##స్తున్నట్లు	3444
హింద	3445
విమర్శలు	3446
స్వామి	3447
ఎంపిక	3448
తీర్పు	3449
ఖమ్మ	3450
సిరీ	3451
నటి	3452
##పూ	3453
దరఖాస్తు	3454
నూ	3455
పౌ	3456
వేగ	3457
వరంగల్	3458
##ీట్	3459
##ొక	3460
##మ్‌	3461
చేయాలి	3462
గ్రూప్	3463
నై	3464
లోక్	3465
##నాడు	3466
నష్ట	3467
బడ్జెట్	3468
##కోవాలని	3469
##టివ్	3470
ఉన్నట్లు	3471
##టిఫ	3472
##మిత్	3473
##స్థాన్	3474
పూర్తిగా	3475
ధరలు	3476
##గారు	3477
##కుమార్	3478
ఈరోజు	3479
షె	3480
విషయాన్ని	3481
ఇబ్బందులు	3482
کی	3483
చరి	3484
##య్యాయి	3485
ఆడ	3486
##నామా	3487
సామా	3488
##కంటే	3489
##గాల్లో	3490
ఎదురు	3491
##ంక్	3492
ఇంటికి	3493
ఫైన	3494
##డ్‌	3495
میں	3496
వెళ్లే	3497
మహారా	3498
వేడుక	3499
##మ్మడి	3500
2019	3501
తండ్రి	3502
##లన	3503
సమావేశం	3504
27	3505
డబ్బులు	3506
##గతి	3507
##ధాన్	3508
##్యాన్ని	3509
అవకాశాలు	3510
హరీ	3511
కోరు	3512
##ారన్నారు	3513
విజయవాడ	3514
బే	3515
##సింగ్	3516
##ష్ట్ర	3517
##జ్‌	3518
భయ	3519
##యన్స్	3520
క్ల	3521
##ారనే	3522
మూడో	3523
##ాప	3524
26	3525
అనుమా	3526
##కపోవడం	3527
##ంచే	3528
ట్రై	3529
చేసారు	3530
##డుతున్న	3531
స్పె	3532
సైతం	3533
ఇజ్రాయెల్	3534
కనీ	3535
ప్లాన్	3536
ఇంగ్	3537
వచ్చాయి	3538
ముంబై	3539
డిసెంబర్	3540
అక్టోబర్	3541
సెక	3542
వివే	3543
ఒకటి	3544
కురి	3545
ఆయనకు	3546
ఉండగా	3547
చేస్తు	3548
ఎక్స్	3549
లభ	3550
రూపొ	3551
చరిత్ర	3552
అదుపు	3553
మల్ల	3554
##ంగి	3555
కొద్ది	3556
##ించుకో	3557
చదు	3558
##పోయా	3559
##గ్రా	3560
దీన్ని	3561
##రించారు	3562
సెప్టెంబర్	3563
బృ	3564
సమర్	3565
ఫే	3566
పొత్తు	3567
ప్రేక్ష	3568
చేసుకున్నారు	3569
ప్యా	3570
##నిక	3571
జనవరి	3572
##ధ్యాహ్	3573
పట్టు	3574
ప్రయోజ	3575
లాభ	3576
##ఫె	3577
కాబట్టి	3578
జాబిత	3579
స్థానంలో	3580
చొ	3581
సమావేశంలో	3582
ఎందు	3583
పలువురు	3584
##వంటి	3585
అవినీ	3586
కార్పొ	3587
##ములు	3588
ప్రచార	3589
చెప్పిన	3590
కాలేజీ	3591
ఆగస్టు	3592
ఆస్ప	3593
మహా	3594
నిరు	3595
అనుకూ	3596
కల్యాణ్	3597
యాత్ర	3598
ఉచిత	3599
గణ	3600
సిద్ద	3601
సంప్ర	3602
ఆసక్తి	3603
ఎక్	3604
##ించనున్నారు	3605
విశ్వ	3606
ఇవాళ	3607
##ౌన్	3608
##ంటుంది	3609
##టువంటి	3610
##ంగ్స్	3611
##డ్స్	3612
పార్టీల	3613
తిరుమల	3614
సంక్షేమ	3615
తెలుసు	3616
విధాన	3617
అభిప్రాయ	3618
రోహి	3619
లేక	3620
ఆస్ట్రే	3621
నడి	3622
మద్య	3623
##ఖీ	3624
##కోవడానికి	3625
సామాజిక	3626
మధ్యాహ్	3627
##కార	3628
తీసుకొచ్చ	3629
ఉమ్మడి	3630
సంత	3631
##ష్ణ	3632
ఎన్టీఆర్	3633
##కొండ	3634
కన్	3635
అధికారి	3636
కార్యదర్శి	3637
ఐటీ	3638
##డ్యూ	3639
##‌న	3640
##ನ್	3641
##లియన్	3642
తీసుకున్నారు	3643
ఇబ్బంది	3644
లోక్‌	3645
##‌పై	3646
అప్పటి	3647
ఉత్తర	3648
##రమైన	3649
##నాథ్	3650
స్పష్ట	3651
కనిప	3652
పోలీసులకు	3653
వాయి	3654
##ందనే	3655
మనం	3656
##యంగా	3657
పార్టీలు	3658
ప్రాధాన్	3659
నవంబర్	3660
ఫ్ర	3661
వన్	3662
రాజీనామా	3663
అద్	3664
##ట్ర	3665
##al	3666
ఇచ్చింది	3667
పొంద	3668
పత్ర	3669
నీరు	3670
##ర్యంలో	3671
వ్యవస	3672
లెక్క	3673
ఎక	3674
##ట్లో	3675
##ప్టెన్	3676
ఎగ్	3677
వాళ్లు	3678
##ఎస్‌	3679
ఈడీ	3680
##రానికి	3681
##హీ	3682
##‌‌లో	3683
చేస్తారు	3684
సీట్లు	3685
##ండింగ్	3686
సబ్	3687
పారి	3688
##ప్‌	3689
లైన్	3690
అనుకు	3691
గుర్తి	3692
పండు	3693
వికెట్	3694
##రణ్	3695
కారణం	3696
యూనివర్	3697
షర్మిల	3698
##యాల్లో	3699
కామ	3700
కెప్టెన్	3701
31	3702
##సిక	3703
ఎన్నో	3704
ఎక్క	3705
చాల	3706
రష	3707
##ಿದ	3708
##దిరి	3709
తీరు	3710
అధికారిక	3711
బాధ్యత	3712
తెచ్చ	3713
మిగి	3714
భవి	3715
##ತ್	3716
##ద్దని	3717
##కేష్	3718
బండి	3719
నిబంధ	3720
##ద్దేశ	3721
సెంటర్	3722
మరికొ	3723
వది	3724
##ంశ	3725
##ఖ్యా	3726
##ంపల్లి	3727
500	3728
##భు	3729
##ల్ప	3730
తనను	3731
నిమిష	3732
కస్ట	3733
##ినేషన్	3734
##్వర్యంలో	3735
సీబీఐ	3736
సిరీస్	3737
##ఫా	3738
##ణంగా	3739
పేద	3740
వ్యాప్తంగా	3741
ఖమ్మం	3742
ఇచ్చి	3743
సర్వీ	3744
##ంక్ష	3745
##శ్ర	3746
క్యాప్షన్	3747
##కులను	3748
ఉత్ప	3749
వస్తుంది	3750
##ంబా	3751
##జూ	3752
విభా	3753
భవిష్య	3754
శక్తి	3755
##లిన	3756
గుండె	3757
కాలంలో	3758
##రింగ్	3759
##ంద్రా	3760
కమిషన్	3761
ఎవరు	3762
నిందితు	3763
##బూ	3764
తీవ్రంగా	3765
సూర్య	3766
ప్రయత్నం	3767
ముగ్గురు	3768
అరు	3769
##య్యా	3770
##ور	3771
కాదని	3772
##సాద్	3773
కలిగి	3774
ఆస్ట్రేలియా	3775
అందుబాటులో	3776
కోట్	3777
యాదవ్	3778
##సార్లు	3779
##ధాని	3780
నిర్వహించిన	3781
లోక్‌సభ	3782
##ాడని	3783
##భవ	3784
భే	3785
షో	3786
##నాన్ని	3787
స్పీ	3788
అమిత్	3789
సము	3790
తెలిసింది	3791
ఆధ్వర్యంలో	3792
జయ	3793
##జాతీయ	3794
మహిళలు	3795
##నున్నాయి	3796
వర్షం	3797
సత్య	3798
వ్యూ	3799
ట్వి	3800
##హత్య	3801
..?	3802
గ్యా	3803
ప్రో	3804
లేఖ	3805
చేయా	3806
రేపు	3807
పదవి	3808
నిపుణ	3809
సుమారు	3810
##ద్రా	3811
##‌ర	3812
##పాద	3813
##ెన్సీ	3814
నెలల	3815
క్రీ	3816
వెనుక	3817
సీపీ	3818
సినిమాలో	3819
ప్ర‌	3820
చేస్తున్నారని	3821
ధర్	3822
వ్యాపార	3823
##రగా	3824
కమిష	3825
ఒత్తి	3826
##షే	3827
##ఫిక్	3828
సంతోష	3829
అడ	3830
స్నే	3831
చదువు	3832
చూప	3833
తొలగ	3834
ఉండాలని	3835
రైతులకు	3836
ఆడి	3837
ఆమో	3838
కన	3839
##రవ	3840
##ండే	3841
##రేట్	3842
నియమ	3843
తిన	3844
ప్రభుత్వానికి	3845
##స్తాయని	3846
గుర్తించారు	3847
పొందు	3848
ఆత్మహత్య	3849
29	3850
##పడింది	3851
అంబ	3852
వివరాలు	3853
మధ్యాహ్నం	3854
కీ	3855
బ్లా	3856
##ఫర్	3857
వెన	3858
చెన్నై	3859
అంతర్జాతీయ	3860
##ాయింట్	3861
విషయ	3862
ప్రతిని	3863
తిరుపతి	3864
బ్రా	3865
##శు	3866
దాఖలు	3867
##ట్టే	3868
ఇచ్చే	3869
##లక్ష	3870
##ించాయి	3871
స్కా	3872
ఉన్నాయని	3873
##యింది	3874
##ంగు	3875
##వేత్త	3876
##మ్ము	3877
##ముల	3878
ఎల్	3879
అందరూ	3880
##టెడ్	3881
ట్వీట్	3882
చేస్తోంది	3883
వాళ్ల	3884
తీసుకోవాలని	3885
##తాయని	3886
మహారాష్ట్ర	3887
రోహిత్	3888
##వాల్సిన	3889
##ేశ్వర	3890
##రస్	3891
##్యో	3892
సీత	3893
ప్రక్రియ	3894
రిపో	3895
ఉద్దేశ	3896
సామ	3897
##గీ	3898
##ಿಯ	3899
##ళం	3900
##దండ్ర	3901
##కౌ	3902
##తుల్లో	3903
##ట్టిన	3904
విరా	3905
##గ్య	3906
రాష్ట్రాల్లో	3907
ఇన్‌	3908
##నంలో	3909
##సార్	3910
##గానికి	3911
నిరా	3912
##డ్డా	3913
అత్యధిక	3914
బరి	3915
##ار	3916
##కోవాలి	3917
##గొండ	3918
వెల్లడించింది	3919
##వని	3920
మద్యం	3921
రహ	3922
##ల్చి	3923
##ంపే	3924
ఇంజ	3925
##త్రికి	3926
##షణ	3927
##లేని	3928
పూర్త	3929
ఆగ్రహం	3930
కరీ	3931
తల్లిదండ్ర	3932
##కరి	3933
బహిరంగ	3934
అద్భు	3935
జరుపు	3936
##పడే	3937
అతను	3938
##యిన	3939
##ان	3940
##ంహ	3941
రాజు	3942
షేర్	3943
##ఫు	3944
కురు	3945
లేద	3946
మారి	3947
##ంభ	3948
చేస్తుంది	3949
స్థి	3950
##వారికి	3951
నర్	3952
##ra	3953
వెబ్	3954
##ౌండ్	3955
..!	3956
మెద	3957
తగ్గి	3958
##లాల	3959
##ించడంతో	3960
కోహ్	3961
హాజరు	3962
ఎప్పుడ	3963
గమ	3964
అనుమతి	3965
##నాలను	3966
##పోయాయి	3967
##యోగం	3968
పాకిస్తాన్	3969
##వాసం	3970
##ಲ್ಲಿ	3971
వేసి	3972
సీఐ	3973
##ూర్తి	3974
మెగా	3975
ఆధారంగా	3976
##రాల్లో	3977
సంఘం	3978
దిశ	3979
బ్యాంక్	3980
నిన్న	3981
ఫోటో	3982
రుణ	3983
##ోధ	3984
సభలో	3985
జన్	3986
పర	3987
##వల్	3988
##ఖర్	3989
భేటీ	3990
ప్రీ	3991
సీజన్	3992
కిలోమీ	3993
ఎయిర్	3994
##గ్రీ	3995
వాదన	3996
జిల్లాలోని	3997
##హ్వా	3998
ఆదేశించారు	3999
##స్తోందని	4000
##లింది	4001
రష్యా	4002
##టన్	4003
##నున్నట్లు	4004
60	4005
ہے	4006
ఏడు	4007
##స్తారని	4008
సమాధ	4009
షూ	4010
లోకేష్	4011
మేం	4012
అంతేకా	4013
##వాలు	4014
##ారానికి	4015
దిగు	4016
విజయ్	4017
ప్రతీ	4018
చూసి	4019
రావడం	4020
వడ్	4021
అర్హ	4022
రూపాయలు	4023
##ನ್ನ	4024
క్యూ	4025
##గత	4026
ఆలోచన	4027
##ణ్య	4028
పంపిణీ	4029
##సిడెంట్	4030
శర్మ	4031
##రుగ	4032
వేదికగా	4033
గుర్తింపు	4034
##లవ	4035
ప్రె	4036
##టిల్	4037
##పులు	4038
##వేషన్	4039
##బోయే	4040
భో	4041
విద్యార్థులు	4042
ఏర్పాట్లు	4043
35	4044
షాక్	4045
##వాన్ని	4046
పోష	4047
సంప్రద	4048
హాస్	4049
ఫ్యాన్స్	4050
కరీం	4051
పట్ల	4052
అవార్డు	4053
సరైన	4054
గిరి	4055
##రాజు	4056
భు	4057
##ద్రి	4058
వ్యతిరేక	4059
అప్ర	4060
హ్యా	4061
##తోందని	4062
##ారావు	4063
##ెక్ట	4064
##ండియా	4065
2022	4066
##ంగ్లా	4067
కల్పించ	4068
ప్రయత్ని	4069
చార్	4070
ఓడి	4071
సినీ	4072
నిద్ర	4073
##కరించారు	4074
45	4075
##వార్	4076
నేషనల్	4077
##వేల	4078
క్రితం	4079
##మర్	4080
##ెక్ట్	4081
తరలి	4082
టార్	4083
##ేష్	4084
##తరులు	4085
##డింగ్	4086
##ధీ	4087
##ంచు	4088
సర్కార్	4089
బంగ్లా	4090
దుర్	4091
దేవ	4092
మార్పులు	4093
చౌ	4094
##ంచ్	4095
##ంలోనే	4096
##ద్యో	4097
##ట్టింది	4098
##టానికి	4099
ఫిబ్ర	4100
పెట్టారు	4101
మంత్రులు	4102
##ొక్క	4103
##హాలు	4104
చెప్పింది	4105
రూపాయల	4106
హను	4107
కాన్	4108
##ానా	4109
అయింది	4110
ఎమ్మెల్యేలు	4111
##దారులు	4112
కృషి	4113
ఆహ్వా	4114
##హన	4115
వ్యాఖ్యా	4116
##రిని	4117
కుమారు	4118
అగ్ర	4119
##ఫ్ర	4120
కూడిన	4121
రైతుల	4122
తిరుగు	4123
ప్రారంభించారు	4124
భారతదేశ	4125
హౌ	4126
సెంట	4127
హెచ్	4128
శ్రే	4129
##డప	4130
##తమైన	4131
కొండ	4132
ఉండాలి	4133
##సారిగా	4134
సంవత్సరం	4135
దక్షిణ	4136
##స్తులు	4137
##ణానికి	4138
అదన	4139
##తకు	4140
ఉన్నా	4141
##శ్చి	4142
దారు	4143
సృష్ట	4144
##రింది	4145
##గులు	4146
ఎవరూ	4147
అవినీతి	4148
రాష్ట్రం	4149
ఆఫీసర్	4150
కనీసం	4151
ఇక్క	4152
##ఫ్ట్	4153
##జం	4154
గుజ	4155
ప్రశ్న	4156
పిల్లలు	4157
వచ్చారు	4158
వీర	4159
##షియల్	4160
సంఘటన	4161
##సులో	4162
సంగతి	4163
ఇవి	4164
##ంటాయి	4165
అయ్యింది	4166
బ్యాంకు	4167
మంజ	4168
##ಂದ	4169
##లిక్	4170
రాలే	4171
ఆర్టీసీ	4172
ఒక్కో	4173
ఫిబ్రవరి	4174
రాజ్	4175
పరిశోధ	4176
##ికేషన్	4177
##ట్రి	4178
బోర్డు	4179
యూనివర్సిటీ	4180
ఆన్	4181
పుష్	4182
##వ్వు	4183
ట్రాఫిక్	4184
##్రీన్	4185
దేశం	4186
అవుతుంది	4187
ఖాళీ	4188
సల	4189
##‌‌‌‌లో	4190
సీటు	4191
వెళ్లిన	4192
న్యూస్	4193
వ్యతిరేకంగా	4194
చాలామ	4195
##వ్యూ	4196
కాంట	4197
000	4198
##ైల్	4199
నుంచే	4200
ఐపీఎల్	4201
గూ	4202
కొడుకు	4203
గవర్నర్	4204
జడ్	4205
##త్యా	4206
##క్ట్	4207
విశ్	4208
##వరం	4209
ఉద్యమ	4210
ఇరు	4211
వారం	4212
ప్రదర్శ	4213
బాగు	4214
##స్వామ	4215
వాయిదా	4216
కోహ్లీ	4217
తని	4218
##దైనా	4219
##కోసం	4220
ఒప్ప	4221
##ృతి	4222
ప్రశా	4223
పరిధిలో	4224
ఇష్ట	4225
నలుగు	4226
వేశారు	4227
##థి	4228
##ad	4229
రామ్	4230
అంతా	4231
re	4232
##లూ	4233
##in	4234
కూతు	4235
##ట్నం	4236
##ాలంటూ	4237
కావడం	4238
నియోజకవర్గంలో	4239
స్కూల్	4240
గుజరా	4241
చాలామంది	4242
మంట	4243
రవి	4244
సాయం	4245
##సర్లు	4246
స్టా	4247
తరలించారు	4248
పట్టుకు	4249
ఫె	4250
##య్యే	4251
##ائ	4252
మిగ	4253
అర్థం	4254
##రై	4255
స్క	4256
పాత	4257
రాజధాని	4258
ప్రారంభం	4259
జాబితా	4260
సెక్ర	4261
##ులై	4262
##పడుతుంది	4263
సాయి	4264
##తుండ	4265
చెప్	4266
హాస్పి	4267
నీళ్లు	4268
శిక్ష	4269
##లైన్	4270
పార్లమె	4271
వ్యవసాయ	4272
ఖాన్	4273
ఆయా	4274
##వెన్	4275
##er	4276
ప్రాణ	4277
చూసిన	4278
ప్రజలను	4279
కార్యకర్తలు	4280
సముద్ర	4281
##సరి	4282
ఆదాయం	4283
ఓట్లు	4284
##తున్నట్లు	4285
ఆహార	4286
కరీంనగర్	4287
ఇన్ని	4288
లక్షలు	4289
త్వరలో	4290
బంధు	4291
##ಾರ	4292
##శ్చ	4293
##హాన్ని	4294
లబ్	4295
వాడ	4296
నియోజకవర్గం	4297
##ట్యూ	4298
విభ	4299
లోప	4300
##ించుకున్నారు	4301
కామెంట్స్	4302
ముస్	4303
##ఎంసీ	4304
నష్టం	4305
##ాయు	4306
నిధులు	4307
డిప్యూటీ	4308
షెడ్యూ	4309
మహబూ	4310
ఖాతా	4311
నిరుద్యో	4312
పండుగ	4313
రాజ్యా	4314
##కరించ	4315
ఉత్తర్	4316
##రవే	4317
బ్యాటింగ్	4318
##ించుకున్న	4319
మున్సిపల్	4320
నాయుడు	4321
అమరావ	4322
ప్రయత్నాలు	4323
చూపి	4324
##ర్చి	4325
చెంద	4326
అల్లు	4327
దళ	4328
ఫస్ట్	4329
##స్తానని	4330
తీసుకుని	4331
##ల్లే	4332
##న్నే	4333
##యాత్ర	4334
వేళ	4335
##ల్లం	4336
##ాలనుకు	4337
కిషన్	4338
పిలుపు	4339
రిజి	4340
కొత్తగా	4341
చేపట్టారు	4342
రూపొందించ	4343
ప‌	4344
##یک	4345
పెరిగి	4346
పున	4347
నిర్మాణ	4348
తనిఖీ	4349
##ఢిల్లీ	4350
పరిగ	4351
మనో	4352
ఆదేశాలు	4353
స్వాధీ	4354
అగ్	4355
కార్డు	4356
గుజరాత్	4357
##ార్టీ	4358
##క్కర్	4359
ఒకరు	4360
##ాలిటీ	4361
ఎన్నికలకు	4362
మెజ	4363
న్యూఢిల్లీ	4364
".	4365
హెల్	4366
ఎఫ్	4367
ముందే	4368
దాడులు	4369
ఆసి	4370
ఏమి	4371
వసూ	4372
రాశ	4373
##న్‌కు	4374
అభ్యర్థులు	4375
నిపుణులు	4376
జు	4377
పశ్చి	4378
ఎందుకంటే	4379
ఉంటారు	4380
అధి	4381
త్వరలోనే	4382
టార్గ	4383
##ఎన్	4384
##దావరి	4385
##డ్డికి	4386
పర్యా	4387
##య్యి	4388
##గ్గా	4389
నిర్వహణ	4390
మైన	4391
డిగ్రీ	4392
చేసుకుంది	4393
రిజర్వేషన్	4394
##చేశారు	4395
##మిండియా	4396
నెలలో	4397
జులై	4398
టీమిండియా	4399
సుర	4400
సోద	4401
ఎంట	4402
సద	4403
##పోయే	4404
##త్రం	4405
##వ్య	4406
ప్రస్తుత	4407
పరుగుల	4408
కాని	4409
##స్ట్ర	4410
నారాయణ	4411
##ార్డ్	4412
ముంద	4413
##ముందు	4414
##స్ట్రీ	4415
కౌన్సి	4416
డ్రగ్	4417
త్రి	4418
##ార్ట్	4419
పథకం	4420
బాధ్యతలు	4421
##నానికి	4422
2014	4423
అభిమానులు	4424
ఓటమి	4425
కేజ	4426
తీసుకుంట	4427
కుటుంబా	4428
విద్యార్థి	4429
పెంచు	4430
సార్లు	4431
తేడా	4432
కొనసాగ	4433
గౌడ్	4434
నామినేషన్	4435
స్వాధీనం	4436
టార్గెట్	4437
టెస్టు	4438
విగ్ర	4439
ఏక	4440
##వాహ	4441
టీ20	4442
ప్రమాణ	4443
ఇండియన్	4444
తమిళనాడు	4445
##తె	4446
##ధుల	4447
కుల	4448
కుటుంబం	4449
చిత్రం	4450
ఇప్పటివరకు	4451
లక్ష్మీ	4452
ఫార్	4453
##జున్	4454
అదుపులోకి	4455
ప్రాధాన్య	4456
ఏజ	4457
తగిన	4458
సారి	4459
అయో	4460
మౌ	4461
స్కో	4462
పెరగ	4463
సంఖ్యలో	4464
ప్రైవేట్	4465
ఏదైనా	4466
##th	4467
##జ్జ	4468
శ్రీవారి	4469
ఫుడ్	4470
##ನ್ನು	4471
##ంకర్	4472
శాంతి	4473
మృత	4474
నిర్మాణం	4475
##ష్ణో	4476
ఉండి	4477
రకాల	4478
##నాయ	4479
ఆటగా	4480
పాఠశాల	4481
##ాలీవుడ్	4482
##రుల	4483
##ంగం	4484
వేసిన	4485
సాం	4486
దానికి	4487
షి	4488
##నిఫ	4489
కాలం	4490
నోటీసులు	4491
గడు	4492
రాజే	4493
##ిల్స్	4494
##ఆర్‌	4495
టీమ్	4496
దొంగ	4497
اس	4498
అప	4499
అల్	4500
##కలు	4501
ప్రస్తా	4502
దాన్ని	4503
చుట్ట	4504
రచ	4505
##ుడి	4506
##ెండ్	4507
##రంజీ	4508
స్పెషల్	4509
ఓడ	4510
##హార్	4511
##ధా	4512
##ఠా	4513
గ్రామంలో	4514
##శేష	4515
కేజ్రీ	4516
##ట్టర్	4517
##త్తా	4518
రాష్ట్రాల	4519
చిరంజీ	4520
##చేసుకు	4521
చోట్ల	4522
కన్న	4523
తగ్గు	4524
థి	4525
రఘ	4526
వెళ	4527
పేపర్	4528
చెప్పుకొచ్చ	4529
డ్రైవర్	4530
హిందూ	4531
##ికె	4532
కోరుకు	4533
##సీబీ	4534
ఉన్నారని	4535
పంజా	4536
జర్	4537
##ರು	4538
ఫలితాలు	4539
అంగీ	4540
##ించగా	4541
పవర్	4542
వన	4543
బీజేపీకి	4544
##సో	4545
##డితే	4546
##యేషన్	4547
సందర్శ	4548
పురు	4549
##ందన్న	4550
##మాబాద్	4551
ఆలయ	4552
వినిపి	4553
స్పందించారు	4554
నేతల	4555
డెవల	4556
తదితరులు	4557
ఎలక్	4558
మృతదే	4559
క్యార	4560
గ్	4561
పరిశ్రమ	4562
రావడంతో	4563
చేపట్టిన	4564
పశ్చిమ	4565
##పున	4566
ముఖ	4567
##సేందుకు	4568
సెల్	4569
రిటై	4570
గ్రే	4571
అప్పగ	4572
కఠ	4573
చెయ్య	4574
##కర్స్	4575
##స్టే	4576
##on	4577
##ంచరీ	4578
##ళ్లుగా	4579
జనా	4580
పోలీసుల	4581
##చ్చితంగా	4582
కేర	4583
పెరిగింది	4584
రక్త	4585
నేరుగా	4586
కమిషనర్	4587
అట	4588
దాంతో	4589
##త్మక	4590
ఆటో	4591
##ంట్లు	4592
అవగా	4593
దేశవ్యాప్తంగా	4594
దూరంగా	4595
పర్యట	4596
బది	4597
పాద	4598
##దైన	4599
##చ్ఛ	4600
అధికారుల	4601
వార్త	4602
##లోనూ	4603
లోకి	4604
ఒత్తిడి	4605
టీటీ	4606
కల్ప	4607
చేసుకో	4608
టెస్ట్	4609
రక్షణ	4610
లభి	4611
##‌మ	4612
##್ರ	4613
##ెక్స్	4614
సంబంధం	4615
ముస్లిం	4616
రఘు	4617
##ళిక	4618
నాటికి	4619
తెలుగుదేశం	4620
గొప్ప	4621
సురే	4622
##న్‌ను	4623
లక్ష్యంగా	4624
హోం	4625
అప్పుడు	4626
కెమె	4627
అమ్మాయి	4628
నిబంధన	4629
అగ్ని	4630
గురి	4631
నగర	4632
మిగిలిన	4633
సికి	4634
ఉండటంతో	4635
మెడికల్	4636
కరో	4637
##చ్చిన	4638
చట్టం	4639
యాప్	4640
అనారో	4641
మంజూరు	4642
విడి	4643
మేనే	4644
##కాలం	4645
అటు	4646
విప	4647
సెంచరీ	4648
ఎస్సీ	4649
వెళ్లారు	4650
మిగతా	4651
కేరళ	4652
##బడు	4653
వికెట్లు	4654
బ్లాక్	4655
బదిలీ	4656
ఎవరి	4657
ఎన్డీ	4658
నల్ల	4659
బరువు	4660
##sh	4661
తెల్ల	4662
అధికారులకు	4663
సచి	4664
కాక	4665
వారిలో	4666
మరొక	4667
##ించాల్సి	4668
70	4669
దిన	4670
ధర్మ	4671
అంతకు	4672
199	4673
ఊహ	4674
##స్థాయి	4675
మేము	4676
సౌకర్	4677
కఠిన	4678
చక్క	4679
జస్టి	4680
మధు	4681
##కిల్	4682
స్టూడ	4683
##త్రిలో	4684
کو	4685
ఆల్	4686
మందు	4687
##మత్త	4688
జరుగుతోంది	4689
ఎండ	4690
గాలి	4691
నర	4692
##ఘా	4693
కొంతమంది	4694
ఢిల్లీలో	4695
నారా	4696
పొడి	4697
##డెన్	4698
శాస్త్ర	4699
##ల్యూ	4700
##లాలు	4701
సంస్థలు	4702
80	4703
##ంపులు	4704
కనిపిస్తోంది	4705
అప్రమత్త	4706
టో	4707
మహిళల	4708
సిద్ధం	4709
న్యాయం	4710
ఆవి	4711
##రాశి	4712
మార్చ	4713
ముందుగా	4714
##ತ್ತ	4715
##ూరి	4716
రాజ్య	4717
అధికారులను	4718
వన్డే	4719
ధ్వ	4720
కాస్త	4721
గుడ్	4722
పరిస్థితులు	4723
అవగాహన	4724
బూ	4725
మోసం	4726
పురుష	4727
డాల	4728
చేయడంతో	4729
సునీ	4730
జరుగుతుంది	4731
వ్యవహార	4732
##ంద్రాబాద్	4733
నటు	4734
ఆమెను	4735
టీటీడీ	4736
##ారంటూ	4737
##వింద్	4738
##స్టా	4739
##వేళ	4740
చెప్పి	4741
సికింద్రాబాద్	4742
##రని	4743
##త్‌	4744
ప్రొఫె	4745
ప్రెసిడెంట్	4746
కను	4747
##ధర్	4748
అధ్యయ	4749
గొడవ	4750
ప్రభుత్వాన్ని	4751
చిరంజీవి	4752
వేగంగా	4753
పడ్డ	4754
భద్రా	4755
వేలు	4756
##పాడు	4757
మీటింగ్	4758
కలిపి	4759
గెలుపు	4760
సరఫ	4761
స్నేహి	4762
నాయక	4763
చేయనున్నారు	4764
చూపు	4765
డేటా	4766
భద్రత	4767
ఏకంగా	4768
##ాయా	4769
##ಾಗ	4770
##తోపాటు	4771
మీకు	4772
చిరు	4773
ప్రకటించిన	4774
టాప్	4775
గడి	4776
సార	4777
వేసింది	4778
బిజె	4779
ప్రత్యేకంగా	4780
##పోయాడు	4781
##ఫ్రికా	4782
కాంట్రా	4783
థియే	4784
ధీ	4785
##ుకున్న	4786
##డర్లు	4787
రాష్ట్రంలోని	4788
సినిమ	4789
జనరల్	4790
ఆరోగ్యం	4791
నిజామాబాద్	4792
పండ	4793
సాధ్య	4794
తిరుమ	4795
పక్కన	4796
విజ్ఞ	4797
చెక్	4798
గోదావరి	4799
##తారని	4800
##యాలని	4801
చెల్లి	4802
ప్రయత్నించ	4803
రంగా	4804
##లాది	4805
జరిప	4806
ఎప్పుడూ	4807
##నిమి	4808
##కున్నారు	4809
پر	4810
అకౌ	4811
రమ	4812
వాస్త	4813
స్థానికులు	4814
##ష్ణోగ్ర	4815
పడే	4816
భి	4817
##బద్ధ	4818
హీరోయిన్	4819
వీటిని	4820
##ంక్షలు	4821
ఉష్ణోగ్ర	4822
ఎర్ర	4823
##రె	4824
##మిలీ	4825
హోదా	4826
ఆశ్ర	4827
##ులతో	4828
నిర్మి	4829
చేస్తున్నట్లు	4830
నోటిఫ	4831
తయారీ	4832
నెట్	4833
##కాన్ని	4834
##కాంత్	4835
##వంతంగా	4836
వివేక్	4837
నల్	4838
మల్	4839
సక్	4840
##చె	4841
##ెయిన్	4842
సీట్ల	4843
తరఫు	4844
కేటాయి	4845
హెచ్చరించారు	4846
పరిధిలోని	4847
కార్యకర్త	4848
అవసరమైన	4849
ఒడి	4850
లను	4851
##یو	4852
లోక	4853
దర్శకుడు	4854
75	4855
2018	4856
హరీశ్	4857
బంగ్లాదేశ్	4858
అయోధ్య	4859
##ాయతీ	4860
##డుతున్నారు	4861
రోజులుగా	4862
##టికల్	4863
కావాలని	4864
తీసుకెళ్ల	4865
##యాన్	4866
ఉండటం	4867
వస్తుందని	4868
ఎత్తున	4869
##ారన్న	4870
##ికీ	4871
విశేష	4872
చెరువు	4873
అధ్యక్షు	4874
పడింది	4875
##ల్లె	4876
##లంక	4877
చేసుకుని	4878
కిలోమీటర్ల	4879
వ్యాఖ్యానించారు	4880
జ్యో	4881
టే	4882
ఢీ	4883
కేంద్రంలో	4884
రోజున	4885
తొమ్మి	4886
ఇరా	4887
పబ్	4888
చేసినా	4889
మెట్రో	4890
పెట్టిన	4891
##శేఖర్	4892
##యిత	4893
##ించలేదు	4894
##లేకపో	4895
##వేదన	4896
వరుసగా	4897
స్పీకర్	4898
క్లా	4899
##స్క్	4900
అందరికీ	4901
అయ్యాయి	4902
నియోజకవర్గ	4903
##కూడదు	4904
పార్లమెంటు	4905
గ్యార	4906
##హారం	4907
##am	4908
##ెస్టో	4909
ఏఐ	4910
##న్నె	4911
##‌‌‌‌‌‌‌‌లో	4912
##ప్పున	4913
లీడర్	4914
ఎన్‌	4915
కుట్ర	4916
మెరుగు	4917
ఎస్పీ	4918
సంవత్సరాల	4919
భావిస్తున్నారు	4920
విలువైన	4921
ఎటువంటి	4922
##ందన	4923
అధికారం	4924
కార్యక్రమం	4925
##వులను	4926
మొబ	4927
##మీర్	4928
బాలిక	4929
##రక	4930
##లిస్తే	4931
అయ్యే	4932
పద్	4933
##మన్	4934
నిషే	4935
సంపాద	4936
లిక్కర్	4937
అర్జున్	4938
న్యాయవా	4939
సర్కారు	4940
సరఫరా	4941
##మిత	4942
##రమ	4943
##జేశారు	4944
చేయగా	4945
భాష	4946
వాతావర	4947
టెక్నాల	4948
ఎక్స్‌	4949
##ైన్	4950
##భూ	4951
తీసుకుంది	4952
చొప్పున	4953
భవ	4954
ర్యా	4955
##గడ్డ	4956
##మైనా	4957
ఉత్స	4958
##కాలను	4959
సెక్షన్	4960
##దీప్	4961
ఆమెకు	4962
స్థానాల్లో	4963
ప్రయాణ	4964
సంచలన	4965
##ికే	4966
శాసన	4967
మోహన్	4968
డీకే	4969
నల్గొండ	4970
బ్రే	4971
##దుగా	4972
రంగు	4973
నెలకొంది	4974
అస్	4975
ఘన	4976
రవా	4977
##یڈ	4978
##మాలు	4979
మీడియాతో	4980
ఇప్పటికీ	4981
##పడుతున్న	4982
##త్వంలో	4983
టిక్క	4984
కుక్క	4985
##ించిందని	4986
మేకర్స్	4987
##నిఫెస్టో	4988
డా	4989
##తాలు	4990
స్కీ	4991
##స్తున్నాడు	4992
##స్తున్నామని	4993
##కరమైన	4994
##కాలంలో	4995
##హ్మద్	4996
మ‌	4997
##పెట్టి	4998
##ాలన్న	4999
