{
  "version": "1.0",
  "truncation": null,
  "padding": null,
  "added_tokens": [
    {
      "id": 0,
      "content": "[UNK]",
      "single_word": false,
      "lstrip": false,
      "rstrip": false,
      "normalized": false,
      "special": true
    },
    {
      "id": 1,
      "content": "[CLS]",
      "single_word": false,
      "lstrip": false,
      "rstrip": false,
      "normalized": false,
      "special": true
    },
    {
      "id": 2,
      "content": "[SEP]",
      "single_word": false,
      "lstrip": false,
      "rstrip": false,
      "normalized": false,
      "special": true
    },
    {
      "id": 3,
      "content": "[PAD]",
      "single_word": false,
      "lstrip": false,
      "rstrip": false,
      "normalized": false,
      "special": true
    },
    {
      "id": 4,
      "content": "[MASK]",
      "single_word": false,
      "lstrip": false,
      "rstrip": false,
      "normalized": false,
      "special": true
    }
  ],
  "normalizer": {
    "type": "Sequence",
    "normalizers": [
      {
        "type": "NFKC"
      },
      {
        "type": "Lowercase"
      }
    ]
  },
  "pre_tokenizer": {
    "type": "Whitespace"
  },
  "post_processor": null,
  "decoder": {
    "type": "WordPiece",
    "prefix": "##",
    "cleanup": true
  },
  "model": {
    "type": "WordPiece",
    "unk_token": "[UNK]",
    "continuing_subword_prefix": "##",
    "max_input_chars_per_word": 100,
    "vocab": {
      "[UNK]": 0,
      "[CLS]": 1,
      "[SEP]": 2,
      "[PAD]": 3,
      "[MASK]": 4,
      "!": 5,
      "\"": 6,
      "#": 7,
      "$": 8,
      "%": 9,
      "&": 10,
      "'": 11,
      "(": 12,
      ")": 13,
      "*": 14,
      "+": 15,
      ",": 16,
      "-": 17,
      ".": 18,
      "/": 19,
      "0": 20,
      "1": 21,
      "2": 22,
      "3": 23,
      "4": 24,
      "5": 25,
      "6": 26,
      "7": 27,
      "8": 28,
      "9": 29,
      ":": 30,
      ";": 31,
      "<": 32,
      "=": 33,
      ">": 34,
      "?": 35,
      "@": 36,
      "[": 37,
      "\\": 38,
      "]": 39,
      "_": 40,
      "`": 41,
      "a": 42,
      "b": 43,
      "c": 44,
      "d": 45,
      "e": 46,
      "f": 47,
      "g": 48,
      "h": 49,
      "i": 50,
      "j": 51,
      "k": 52,
      "l": 53,
      "m": 54,
      "n": 55,
      "o": 56,
      "p": 57,
      "q": 58,
      "r": 59,
      "s": 60,
      "t": 61,
      "u": 62,
      "v": 63,
      "w": 64,
      "x": 65,
      "y": 66,
      "z": 67,
      "~": 68,
      "£": 69,
      "©": 70,
      "­": 71,
      "°": 72,
      "·": 73,
      "×": 74,
      "á": 75,
      "â": 76,
      "æ": 77,
      "đ": 78,
      "ơ": 79,
      "ư": 80,
      "ʼ": 81,
      "́": 82,
      "α": 83,
      "β": 84,
      "،": 85,
      "؛": 86,
      "؟": 87,
      "ء": 88,
      "آ": 89,
      "أ": 90,
      "ؤ": 91,
      "إ": 92,
      "ئ": 93,
      "ا": 94,
      "ب": 95,
      "ت": 96,
      "ث": 97,
      "ج": 98,
      "ح": 99,
      "خ": 100,
      "د": 101,
      "ذ": 102,
      "ر": 103,
      "ز": 104,
      "س": 105,
      "ش": 106,
      "ص": 107,
      "ض": 108,
      "ط": 109,
      "ظ": 110,
      "ع": 111,
      "غ": 112,
      "ف": 113,
      "ق": 114,
      "ل": 115,
      "م": 116,
      "ن": 117,
      "ه": 118,
      "و": 119,
      "ى": 120,
      "ي": 121,
      "ً": 122,
      "َ": 123,
      "ُ": 124,
      "ِ": 125,
      "ّ": 126,
      "ٰ": 127,
      "ٹ": 128,
      "پ": 129,
      "چ": 130,
      "ڈ": 131,
      "ڑ": 132,
      "ڕ": 133,
      "ژ": 134,
      "ک": 135,
      "گ": 136,
      "ڵ": 137,
      "ں": 138,
      "ھ": 139,
      "ہ": 140,
      "ۆ": 141,
      "ی": 142,
      "ێ": 143,
      "ے": 144,
      "۔": 145,
      "ە": 146,
      "ँ": 147,
      "ं": 148,
      "ः": 149,
      "अ": 150,
      "आ": 151,
      "इ": 152,
      "ई": 153,
      "उ": 154,
      "ऊ": 155,
      "ए": 156,
      "ऐ": 157,
      "ऑ": 158,
      "ओ": 159,
      "औ": 160,
      "क": 161,
      "ख": 162,
      "ग": 163,
      "घ": 164,
      "च": 165,
      "छ": 166,
      "ज": 167,
      "झ": 168,
      "ञ": 169,
      "ट": 170,
      "ठ": 171,
      "ड": 172,
      "ढ": 173,
      "ण": 174,
      "त": 175,
      "थ": 176,
      "द": 177,
      "ध": 178,
      "न": 179,
      "प": 180,
      "फ": 181,
      "ब": 182,
      "भ": 183,
      "म": 184,
      "य": 185,
      "र": 186,
      "ल": 187,
      "व": 188,
      "श": 189,
      "ष": 190,
      "स": 191,
      "ह": 192,
      "़": 193,
      "ा": 194,
      "ि": 195,
      "ी": 196,
      "ु": 197,
      "ू": 198,
      "ृ": 199,
      "े": 200,
      "ै": 201,
      "ॉ": 202,
      "ो": 203,
      "ौ": 204,
      "्": 205,
      "।": 206,
      "॥": 207,
      "०": 208,
      "२": 209,
      "४": 210,
      "ঃ": 211,
      "অ": 212,
      "আ": 213,
      "এ": 214,
      "ও": 215,
      "ক": 216,
      "গ": 217,
      "চ": 218,
      "জ": 219,
      "ট": 220,
      "ড": 221,
      "ত": 222,
      "দ": 223,
      "ধ": 224,
      "ন": 225,
      "প": 226,
      "ফ": 227,
      "ব": 228,
      "ভ": 229,
      "ম": 230,
      "য": 231,
      "র": 232,
      "ল": 233,
      "শ": 234,
      "স": 235,
      "হ": 236,
      "়": 237,
      "া": 238,
      "ি": 239,
      "ী": 240,
      "ু": 241,
      "ে": 242,
      "ৈ": 243,
      "ো": 244,
      "্": 245,
      "ৰ": 246,
      "ৱ": 247,
      "ଁ": 248,
      "ଂ": 249,
      "ଃ": 250,
      "ଅ": 251,
      "ଆ": 252,
      "ଇ": 253,
      "ଈ": 254,
      "ଉ": 255,
      "ଏ": 256,
      "ଓ": 257,
      "କ": 258,
      "ଖ": 259,
      "ଗ": 260,
      "ଘ": 261,
      "ଙ": 262,
      "ଚ": 263,
      "ଛ": 264,
      "ଜ": 265,
      "ଝ": 266,
      "ଞ": 267,
      "ଟ": 268,
      "ଠ": 269,
      "ଡ": 270,
      "ଢ": 271,
      "ଣ": 272,
      "ତ": 273,
      "ଥ": 274,
      "ଦ": 275,
      "ଧ": 276,
      "ନ": 277,
      "ପ": 278,
      "ଫ": 279,
      "ବ": 280,
      "ଭ": 281,
      "ମ": 282,
      "ଯ": 283,
      "ର": 284,
      "ଲ": 285,
      "ଳ": 286,
      "ଵ": 287,
      "ଶ": 288,
      "ଷ": 289,
      "ସ": 290,
      "ହ": 291,
      "଼": 292,
      "ା": 293,
      "ି": 294,
      "ୀ": 295,
      "ୁ": 296,
      "ୂ": 297,
      "ୃ": 298,
      "େ": 299,
      "ୈ": 300,
      "ୋ": 301,
      "ୌ": 302,
      "୍": 303,
      "ୟ": 304,
      "୦": 305,
      "୧": 306,
      "୨": 307,
      "୩": 308,
      "୪": 309,
      "୫": 310,
      "୬": 311,
      "୭": 312,
      "୮": 313,
      "୯": 314,
      "ୱ": 315,
      "அ": 316,
      "ஆ": 317,
      "இ": 318,
      "உ": 319,
      "ஊ": 320,
      "எ": 321,
      "ஏ": 322,
      "க": 323,
      "ங": 324,
      "ச": 325,
      "ஜ": 326,
      "ட": 327,
      "ண": 328,
      "த": 329,
      "ந": 330,
      "ன": 331,
      "ப": 332,
      "ம": 333,
      "ய": 334,
      "ர": 335,
      "ற": 336,
      "ல": 337,
      "ள": 338,
      "வ": 339,
      "ஸ": 340,
      "ா": 341,
      "ி": 342,
      "ீ": 343,
      "ு": 344,
      "ூ": 345,
      "ெ": 346,
      "ே": 347,
      "ை": 348,
      "ொ": 349,
      "ோ": 350,
      "்": 351,
      "ఁ": 352,
      "ం": 353,
      "ః": 354,
      "అ": 355,
      "ఆ": 356,
      "ఇ": 357,
      "ఈ": 358,
      "ఉ": 359,
      "ఊ": 360,
      "ఋ": 361,
      "ఎ": 362,
      "ఏ": 363,
      "ఐ": 364,
      "ఒ": 365,
      "ఓ": 366,
      "ఔ": 367,
      "క": 368,
      "ఖ": 369,
      "గ": 370,
      "ఘ": 371,
      "ఙ": 372,
      "చ": 373,
      "ఛ": 374,
      "జ": 375,
      "ఝ": 376,
      "ఞ": 377,
      "ట": 378,
      "ఠ": 379,
      "డ": 380,
      "ఢ": 381,
      "ణ": 382,
      "త": 383,
      "థ": 384,
      "ద": 385,
      "ధ": 386,
      "న": 387,
      "ప": 388,
      "ఫ": 389,
      "బ": 390,
      "భ": 391,
      "మ": 392,
      "య": 393,
      "ర": 394,
      "ఱ": 395,
      "ల": 396,
      "ళ": 397,
      "వ": 398,
      "శ": 399,
      "ష": 400,
      "స": 401,
      "హ": 402,
      "ఽ": 403,
      "ా": 404,
      "ి": 405,
      "ీ": 406,
      "ు": 407,
      "ూ": 408,
      "ృ": 409,
      "ౄ": 410,
      "ె": 411,
      "ే": 412,
      "ై": 413,
      "ొ": 414,
      "ో": 415,
      "ౌ": 416,
      "్": 417,
      "ౖ": 418,
      "౦": 419,
      "౧": 420,
      "౩": 421,
      "౪": 422,
      "౬": 423,
      "౹": 424,
      "ಂ": 425,
      "ಃ": 426,
      "ಅ": 427,
      "ಆ": 428,
      "ಇ": 429,
      "ಈ": 430,
      "ಉ": 431,
      "ಊ": 432,
      "ಎ": 433,
      "ಏ": 434,
      "ಐ": 435,
      "ಒ": 436,
      "ಓ": 437,
      "ಔ": 438,
      "ಕ": 439,
      "ಖ": 440,
      "ಗ": 441,
      "ಘ": 442,
      "ಚ": 443,
      "ಛ": 444,
      "ಜ": 445,
      "ಝ": 446,
      "ಞ": 447,
      "ಟ": 448,
      "ಠ": 449,
      "ಡ": 450,
      "ಢ": 451,
      "ಣ": 452,
      "ತ": 453,
      "ಥ": 454,
      "ದ": 455,
      "ಧ": 456,
      "ನ": 457,
      "ಪ": 458,
      "ಫ": 459,
      "ಬ": 460,
      "ಭ": 461,
      "ಮ": 462,
      "ಯ": 463,
      "ರ": 464,
      "ಲ": 465,
      "ಳ": 466,
      "ವ": 467,
      "ಶ": 468,
      "ಷ": 469,
      "ಸ": 470,
      "ಹ": 471,
      "ಾ": 472,
      "ಿ": 473,
      "ೀ": 474,
      "ು": 475,
      "ೂ": 476,
      "ೃ": 477,
      "ೆ": 478,
      "ೇ": 479,
      "ೈ": 480,
      "ೊ": 481,
      "ೋ": 482,
      "ೌ": 483,
      "್": 484,
      "ം": 485,
      "അ": 486,
      "ആ": 487,
      "ഇ": 488,
      "ഈ": 489,
      "എ": 490,
      "ഒ": 491,
      "ക": 492,
      "ഗ": 493,
      "ങ": 494,
      "ച": 495,
      "ജ": 496,
      "ട": 497,
      "ഡ": 498,
      "ണ": 499,
      "ത": 500,
      "ദ": 501,
      "ധ": 502,
      "ന": 503,
      "പ": 504,
      "ബ": 505,
      "ഭ": 506,
      "മ": 507,
      "യ": 508,
      "ര": 509,
      "റ": 510,
      "ല": 511,
      "ള": 512,
      "ഴ": 513,
      "വ": 514,
      "ശ": 515,
      "ഷ": 516,
      "സ": 517,
      "ാ": 518,
      "ി": 519,
      "ീ": 520,
      "ു": 521,
      "ൂ": 522,
      "ൃ": 523,
      "െ": 524,
      "േ": 525,
      "ൈ": 526,
      "ൊ": 527,
      "ോ": 528,
      "്": 529,
      "ൗ": 530,
      "ൻ": 531,
      "ർ": 532,
      "ൽ": 533,
      "ൾ": 534,
      "ả": 535,
      "ầ": 536,
      "ậ": 537,
      "ệ": 538,
      "ố": 539,
      "ớ": 540,
      "ờ": 541,
      "ở": 542,
      "ợ": 543,
      "ứ": 544,
      "‌": 545,
      "‍": 546,
      "‎": 547,
      "‏": 548,
      "‐": 549,
      "‒": 550,
      "•": 551,
      "‪": 552,
      "‫": 553,
      "‬": 554,
      "‭": 555,
      "′": 556,
      "⁄": 557,
      "⁠": 558,
      "⁪": 559,
      "⁫": 560,
      "⁬": 561,
      "⁭": 562,
      "⁯": 563,
      "€": 564,
      "₹": 565,
      "⃣": 566,
      "∙": 567,
      "≠": 568,
      "▪": 569,
      "►": 570,
      "◆": 571,
      "◉": 572,
      "●": 573,
      "★": 574,
      "☛": 575,
      "♥": 576,
      "♦": 577,
      "✳": 578,
      "❌": 579,
      "➡": 580,
      "➦": 581,
      "⦁": 582,
      "️": 583,
      "🇪": 584,
      "🇬": 585,
      "🇮": 586,
      "🇳": 587,
      "🌹": 588,
      "🏼": 589,
      "👇": 590,
      "👉": 591,
      "👊": 592,
      "👋": 593,
      "👌": 594,
      "💐": 595,
      "💚": 596,
      "💥": 597,
      "💪": 598,
      "🔥": 599,
      "🔴": 600,
      "🔸": 601,
      "🔹": 602,
      "😂": 603,
      "😉": 604,
      "😊": 605,
      "😜": 606,
      "😞": 607,
      "😠": 608,
      "😡": 609,
      "😥": 610,
      "🙂": 611,
      "🙏": 612,
      "🚩": 613,
      "🤜": 614,
      "🤭": 615,
      "##ె": 616,
      "##ం": 617,
      "##డ": 618,
      "##క": 619,
      "##్": 620,
      "##ష": 621,
      "##ర": 622,
      "##ా": 623,
      "##ల": 624,
      "##ో": 625,
      "##ొ": 626,
      "##ద": 627,
      "##‌": 628,
      "##ట": 629,
      "##ి": 630,
      "##జ": 631,
      "##ై": 632,
      "##న": 633,
      "##ప": 634,
      "##ౌ": 635,
      "##ు": 636,
      "##ధ": 637,
      "##గ": 638,
      "##ఎ": 639,
      "##స": 640,
      "##త": 641,
      "##మ": 642,
      "##భ": 643,
      "##ూ": 644,
      "##ృ": 645,
      "##హ": 646,
      "##ీ": 647,
      "##ఫ": 648,
      "##ే": 649,
      "##చ": 650,
      "##2": 651,
      "##ರ": 652,
      "##బ": 653,
      "##య": 654,
      "##ళ": 655,
      "##వ": 656,
      "##ೈ": 657,
      "##ಗ": 658,
      "##ವ": 659,
      "##ಸ": 660,
      "##ು": 661,
      "##ఈ": 662,
      "##ೆ": 663,
      "##ಚ": 664,
      "##್": 665,
      "##ೋ": 666,
      "##ಯ": 667,
      "##ನ": 668,
      "##ಿ": 669,
      "##ಂ": 670,
      "##ಳ": 671,
      "##ೇ": 672,
      "##ಕ": 673,
      "##ణ": 674,
      "##ఆ": 675,
      "##ି": 676,
      "##ଆ": 677,
      "##ଯ": 678,
      "##ା": 679,
      "##ଇ": 680,
      "##ଥ": 681,
      "##ଲ": 682,
      "##ఉ": 683,
      "##థ": 684,
      "##శ": 685,
      "##ఘ": 686,
      "##ః": 687,
      "##i": 688,
      "##d": 689,
      "##h": 690,
      "##u": 691,
      "##ହ": 692,
      "##୍": 693,
      "##ୟ": 694,
      "##ର": 695,
      "##େ": 696,
      "##1": 697,
      "##0": 698,
      "##7": 699,
      "##ଡ": 700,
      "##଼": 701,
      "##ଗ": 702,
      "##ಬ": 703,
      "##ತ": 704,
      "##ಧ": 705,
      "##o": 706,
      "##t": 707,
      "##b": 708,
      "##e": 709,
      "##ಾ": 710,
      "##ಟ": 711,
      "##y": 712,
      "##a": 713,
      "##n": 714,
      "##r": 715,
      "##s": 716,
      "##ఢ": 717,
      "##3": 718,
      "##9": 719,
      "##అ": 720,
      "##ا": 721,
      "##ل": 722,
      "##و": 723,
      "##ಪ": 724,
      "##ದ": 725,
      "##्": 726,
      "##र": 727,
      "##श": 728,
      "##ा": 729,
      "##स": 730,
      "##न": 731,
      "##ि": 732,
      "##क": 733,
      "##ر": 734,
      "##ئ": 735,
      "##4": 736,
      "##5": 737,
      "##ہ": 738,
      "##6": 739,
      "##ಡ": 740,
      "##ఖ": 741,
      "##f": 742,
      "##p": 743,
      "##8": 744,
      "##c": 745,
      "##l": 746,
      "##m": 747,
      "##v": 748,
      "##ಲ": 749,
      "##ଓ": 750,
      "##ଟ": 751,
      "##ఠ": 752,
      "##ಒ": 753,
      "##k": 754,
      "##ج": 755,
      "##ی": 756,
      "##ک": 757,
      "##ٹ": 758,
      "##-": 759,
      "##,": 760,
      "##ୋ": 761,
      "##ଜ": 762,
      "##ʼ": 763,
      "##ఛ": 764,
      "##غ": 765,
      "##م": 766,
      "##ب": 767,
      "##ఏ": 768,
      "##ୁ": 769,
      "##ఓ": 770,
      "##چ": 771,
      "##ں": 772,
      "##ھ": 773,
      "##‍": 774,
      "##ڑ": 775,
      "##ಶ": 776,
      "##ं": 777,
      "##द": 778,
      "##ن": 779,
      "##ز": 780,
      "##ೀ": 781,
      "##g": 782,
      "##ୀ": 783,
      "##କ": 784,
      "##ଷ": 785,
      "##ପ": 786,
      "##ी": 787,
      "##ମ": 788,
      "##ଚ": 789,
      "##ନ": 790,
      "##ଙ": 791,
      "##ଛ": 792,
      "##ତ": 793,
      "##گ": 794,
      "##ೊ": 795,
      "##ಷ": 796,
      "##س": 797,
      "##ध": 798,
      "##د": 799,
      "##ش": 800,
      "##ಹ": 801,
      "##ಮ": 802,
      "##ے": 803,
      "##ସ": 804,
      "##ఐ": 805,
      "##ق": 806,
      "##x": 807,
      "##ص": 808,
      "##ଉ": 809,
      "##ఞ": 810,
      "##:": 811,
      "##\"": 812,
      "##.": 813,
      "##ଅ": 814,
      "##ఇ": 815,
      "##ಖ": 816,
      "##ଞ": 817,
      "##ବ": 818,
      "##ف": 819,
      "##୮": 820,
      "##ڈ": 821,
      "##🇳": 822,
      "##j": 823,
      "##ೂ": 824,
      "##ଫ": 825,
      "##w": 826,
      "##त": 827,
      "##ଦ": 828,
      "##ଭ": 829,
      "##ल": 830,
      "##ो": 831,
      "##ா": 832,
      "##ற": 833,
      "##க": 834,
      "##ह": 835,
      "##ग": 836,
      "##े": 837,
      "##भ": 838,
      "##ఝ": 839,
      "##ت": 840,
      "##ಥ": 841,
      "##ଧ": 842,
      "##۔": 843,
      "##ଶ": 844,
      "##خ": 845,
      "##ാ": 846,
      "##ധ": 847,
      "##ി": 848,
      "##ക": 849,
      "##്": 850,
      "##ു": 851,
      "##ന": 852,
      "##ଂ": 853,
      "##ଳ": 854,
      "##म": 855,
      "##ଏ": 856,
      "##ಭ": 857,
      "##⁠": 858,
      "##ଠ": 859,
      "##ୱ": 860,
      "##प": 861,
      "##ح": 862,
      "##া": 863,
      "##র": 864,
      "##ু": 865,
      "##ক": 866,
      "##ോ": 867,
      "##സ": 868,
      "##റ": 869,
      "##ज": 870,
      "##ठ": 871,
      "##।": 872,
      "##ಜ": 873,
      "##ِ": 874,
      "##ٰ": 875,
      "##ض": 876,
      "##ಎ": 877,
      "##ಐ": 878,
      "##ई": 879,
      "##ଣ": 880,
      "##ء": 881,
      "##ಅ": 882,
      "##ଖ": 883,
      "##ु": 884,
      "##ड": 885,
      "##य": 886,
      "##ố": 887,
      "##پ": 888,
      "##z": 889,
      "##ع": 890,
      "##ط": 891,
      "##ଁ": 892,
      "##ப": 893,
      "##ர": 894,
      "##ை": 895,
      "##த": 896,
      "##்": 897,
      "##ظ": 898,
      "##⁬": 899,
      "##q": 900,
      "##ಣ": 901,
      "##ఱ": 902,
      "##্": 903,
      "##য": 904,
      "##়": 905,
      "##ू": 906,
      "##പ": 907,
      "##ൽ": 908,
      "##ে": 909,
      "##ন": 910,
      "##ृ": 911,
      "##ट": 912,
      "##౦": 913,
      "##୧": 914,
      "##ఒ": 915,
      "##_": 916,
      "##ೌ": 917,
      "##ؤ": 918,
      "##­": 919,
      "##ण": 920,
      "##व": 921,
      "##ല": 922,
      "##യ": 923,
      "##)": 924,
      "##ଵ": 925,
      "##थ": 926,
      "##उ": 927,
      "##ब": 928,
      "##ୌ": 929,
      "##ಫ": 930,
      "##ै": 931,
      "##ೃ": 932,
      "##،": 933,
      "##ய": 934,
      "##ோ": 935,
      "##ி": 936,
      "##ல": 937,
      "##़": 938,
      "##च": 939,
      "##ఔ": 940,
      "##ൂ": 941,
      "##ർ": 942,
      "##വ": 943,
      "##ख": 944,
      "##ಛ": 945,
      "##ಆ": 946,
      "##ष": 947,
      "##ত": 948,
      "##ি": 949,
      "##ো": 950,
      "##দ": 951,
      "##ধ": 952,
      "##@": 953,
      "##୦": 954,
      "##ങ": 955,
      "##ട": 956,
      "##ఁ": 957,
      "##]": 958,
      "##ী": 959,
      "##आ": 960,
      "##!": 961,
      "###": 962,
      "##ఙ": 963,
      "##ட": 964,
      "##ந": 965,
      "##স": 966,
      "##ఽ": 967,
      "##ಞ": 968,
      "##ল": 969,
      "##ট": 970,
      "##୫": 971,
      "##ढ": 972,
      "##୨": 973,
      "##୩": 974,
      "##æ": 975,
      "##?": 976,
      "##ு": 977,
      "##ம": 978,
      "##$": 979,
      "##`": 980,
      "##ও": 981,
      "##এ": 982,
      "##প": 983,
      "##آ": 984,
      "##வ": 985,
      "##ன": 986,
      "##ଝ": 987,
      "##౹": 988,
      "##ഷ": 989,
      "##ള": 990,
      "##െ": 991,
      "##/": 992,
      "##ى": 993,
      "##ي": 994,
      "##ە": 995,
      "##ଃ": 996,
      "##ए": 997,
      "##ୃ": 998,
      "##फ": 999,
      "##😡": 1000,
      "##इ": 1001,
      "##ৰ": 1002,
      "##ث": 1003,
      "##ಢ": 1004,
      "##୬": 1005,
      "##ذ": 1006,
      "##؟": 1007,
      "##*": 1008,
      "##ಇ": 1009,
      "##ொ": 1010,
      "##ச": 1011,
      "##ौ": 1012,
      "##ه": 1013,
      "##ൾ": 1014,
      "##ओ": 1015,
      "##ശ": 1016,
      "##ണ": 1017,
      "##ُ": 1018,
      "##ॉ": 1019,
      "##(": 1020,
      "##ಠ": 1021,
      "##ൻ": 1022,
      "##౩": 1023,
      "##ব": 1024,
      "##ّ": 1025,
      "##छ": 1026,
      "##ژ": 1027,
      "##ം": 1028,
      "##୪": 1029,
      "##ெ": 1030,
      "##ள": 1031,
      "##झ": 1032,
      "##୭": 1033,
      "##ൈ": 1034,
      "##ୂ": 1035,
      "##ఊ": 1036,
      "##ଢ": 1037,
      "##ୈ": 1038,
      "##ര": 1039,
      "##മ": 1040,
      "##َ": 1041,
      "##ư": 1042,
      "##ờ": 1043,
      "##ञ": 1044,
      "##ँ": 1045,
      "##ங": 1046,
      "##'": 1047,
      "##⃣": 1048,
      "##ێ": 1049,
      "##ৱ": 1050,
      "##হ": 1051,
      "##୯": 1052,
      "##ீ": 1053,
      "##ơ": 1054,
      "##💪": 1055,
      "##🔥": 1056,
      "##ả": 1057,
      "##ಃ": 1058,
      "##[": 1059,
      "##ଘ": 1060,
      "##ಘ": 1061,
      "##ൗ": 1062,
      "##ౄ": 1063,
      "##ಉ": 1064,
      "##ফ": 1065,
      "##ఋ": 1066,
      "##💐": 1067,
      "##ম": 1068,
      "##ത": 1069,
      "##ভ": 1070,
      "##ः": 1071,
      "##ۆ": 1072,
      "##अ": 1073,
      "##;": 1074,
      "##ಝ": 1075,
      "##ീ": 1076,
      "##ഡ": 1077,
      "##+": 1078,
      "##ച": 1079,
      "##জ": 1080,
      "##ৈ": 1081,
      "##౬": 1082,
      "##ண": 1083,
      "##०": 1084,
      "##२": 1085,
      "##४": 1086,
      "##ജ": 1087,
      "##ଈ": 1088,
      "##ً": 1089,
      "##🇬": 1090,
      "##🌹": 1091,
      "##ậ": 1092,
      "##ڵ": 1093,
      "##=": 1094,
      "##ே": 1095,
      "##ড": 1096,
      "##👌": 1097,
      "##🏼": 1098,
      "##💚": 1099,
      "##ூ": 1100,
      "##>": 1101,
      "##ൊ": 1102,
      "##গ": 1103,
      "##ऊ": 1104,
      "##घ": 1105,
      "##🚩": 1106,
      "##ഴ": 1107,
      "##′": 1108,
      "##🙂": 1109,
      "##😊": 1110,
      "##േ": 1111,
      "##🇮": 1112,
      "##â": 1113,
      "##😉": 1114,
      "##‎": 1115,
      "##ợ": 1116,
      "##ڕ": 1117,
      "##ঃ": 1118,
      "##ൃ": 1119,
      "##😜": 1120,
      "##❌": 1121,
      "##⁭": 1122,
      "##ஜ": 1123,
      "##😂": 1124,
      "##ệ": 1125,
      "##ứ": 1126,
      "##শ": 1127,
      "##ớ": 1128,
      "##চ": 1129,
      "##ầ": 1130,
      "##‌‌": 1131,
      "##ార": 1132,
      "##న్": 1133,
      "##్ర": 1134,
      "##ర్": 1135,
      "##ని": 1136,
      "##స్": 1137,
      "##లు": 1138,
      "##ంద": 1139,
      "##‌‌‌‌": 1140,
      "##లో": 1141,
      "##ల్": 1142,
      "##కు": 1143,
      "##ారు": 1144,
      "##్య": 1145,
      "##న్న": 1146,
      "##ట్": 1147,
      "##ంచ": 1148,
      "##క్": 1149,
      "##గా": 1150,
      "ప్ర": 1151,
      "##ంది": 1152,
      "##తు": 1153,
      "##ాల": 1154,
      "##‌‌‌‌‌‌‌‌": 1155,
      "##ను": 1156,
      "చే": 1157,
      "##ించ": 1158,
      "##ిన": 1159,
      "##ిక": 1160,
      "##ంట": 1161,
      "##ండ": 1162,
      "##ంత": 1163,
      "##ాయ": 1164,
      "##ప్": 1165,
      "##డు": 1166,
      "##త్": 1167,
      "##రు": 1168,
      "##రి": 1169,
      "వి": 1170,
      "##లి": 1171,
      "##ార్": 1172,
      "##కి": 1173,
      "##టు": 1174,
      "##డి": 1175,
      "##ంలో": 1176,
      "##ంగ": 1177,
      "##ంగా": 1178,
      "##సు": 1179,
      "##ప్ప": 1180,
      "##న్నారు": 1181,
      "ని": 1182,
      "##లా": 1183,
      "##ద్": 1184,
      "##డ్": 1185,
      "రా": 1186,
      "##స్తు": 1187,
      "##మా": 1188,
      "##తో": 1189,
      "##చ్": 1190,
      "##‌‌‌‌‌‌‌‌‌‌‌‌‌‌‌‌": 1191,
      "##తి": 1192,
      "..": 1193,
      "##వా": 1194,
      "##టి": 1195,
      "స్": 1196,
      "కా": 1197,
      "##టీ": 1198,
      "##ష్": 1199,
      "##న్ని": 1200,
      "##సి": 1201,
      "##్యా": 1202,
      "##చ్చ": 1203,
      "##నే": 1204,
      "##యా": 1205,
      "##గు": 1206,
      "తె": 1207,
      "##స్త": 1208,
      "చె": 1209,
      "##డా": 1210,
      "##ాయి": 1211,
      "##దు": 1212,
      "##ది": 1213,
      "##మ్": 1214,
      "##ందు": 1215,
      "##ళ్": 1216,
      "##రా": 1217,
      "##ేశ": 1218,
      "##క్ష": 1219,
      "ను": 1220,
      "కో": 1221,
      "##పు": 1222,
      "##పీ": 1223,
      "##ల్లో": 1224,
      "వె": 1225,
      "##ాలు": 1226,
      "కొ": 1227,
      "##పై": 1228,
      "##లకు": 1229,
      "##వు": 1230,
      "##ారం": 1231,
      "##ింది": 1232,
      "##ిత": 1233,
      "కే": 1234,
      "##సీ": 1235,
      "మా": 1236,
      "##నికి": 1237,
      "##లీ": 1238,
      "పె": 1239,
      "పో": 1240,
      "లో": 1241,
      "##మి": 1242,
      "కూ": 1243,
      "##ిల్": 1244,
      "##లను": 1245,
      "##ంతో": 1246,
      "ము": 1247,
      "కు": 1248,
      "##ంచి": 1249,
      "##ైన": 1250,
      "సి": 1251,
      "##మె": 1252,
      "##క్క": 1253,
      "##్రి": 1254,
      "పా": 1255,
      "##ట్ట": 1256,
      "సం": 1257,
      "##ించారు": 1258,
      "##పో": 1259,
      "##్వ": 1260,
      "తీ": 1261,
      "##ామ": 1262,
      "##ంగ్": 1263,
      "##ష్ట": 1264,
      "##రో": 1265,
      "రె": 1266,
      "##కో": 1267,
      "##ారి": 1268,
      "##లే": 1269,
      "##ికి": 1270,
      "##బ్": 1271,
      "##బా": 1272,
      "##ెస్": 1273,
      "##ద్ద": 1274,
      "##ట్లు": 1275,
      "##‌‌‌‌‌‌‌‌‌‌‌‌‌‌‌‌‌‌‌‌‌‌‌‌‌‌‌‌‌‌‌‌": 1276,
      "##ాన": 1277,
      "కూడా": 1278,
      "నుంచి": 1279,
      "అధ": 1280,
      "ఉన్న": 1281,
      "చేశ": 1282,
      "వే": 1283,
      "సీ": 1284,
      "##వి": 1285,
      "##డం": 1286,
      "##త్త": 1287,
      "లే": 1288,
      "అయ": 1289,
      "నిర్": 1290,
      "గు": 1291,
      "##పా": 1292,
      "##ంద్ర": 1293,
      "బీ": 1294,
      "##స్తున్న": 1295,
      "##ప్పు": 1296,
      "##షన్": 1297,
      "##కా": 1298,
      "చేయ": 1299,
      "వా": 1300,
      "##గ్": 1301,
      "##సిన": 1302,
      "సమ": 1303,
      "##సుకు": 1304,
      "##బు": 1305,
      "పార్": 1306,
      "ప్రభ": 1307,
      "##యం": 1308,
      "తెలి": 1309,
      "##జు": 1310,
      "##త్ర": 1311,
      "##టర్": 1312,
      "నే": 1313,
      "##వే": 1314,
      "##ాలని": 1315,
      "##ఆర్": 1316,
      "##ల్ల": 1317,
      "##నీ": 1318,
      "##ందని": 1319,
      "##ంట్": 1320,
      "##ండి": 1321,
      "##నా": 1322,
      "రో": 1323,
      "##్రా": 1324,
      "వ్య": 1325,
      "చెప్ప": 1326,
      "##ంటు": 1327,
      "##ుత్": 1328,
      "##్రీ": 1329,
      "##గి": 1330,
      "##ంటి": 1331,
      "భార": 1332,
      "##జ్": 1333,
      "##రీ": 1334,
      "వచ్చ": 1335,
      "##జీ": 1336,
      "##తున్న": 1337,
      "##డ్డి": 1338,
      "రూ": 1339,
      "##ందుకు": 1340,
      "##పి": 1341,
      "##ండ్": 1342,
      "చేశారు": 1343,
      "పరి": 1344,
      "##తం": 1345,
      "##యో": 1346,
      "##ూర్": 1347,
      "మీ": 1348,
      "అధిక": 1349,
      "##సం": 1350,
      "వై": 1351,
      "##ెట్": 1352,
      "ప్రభుత్": 1353,
      "పార్టీ": 1354,
      "దీ": 1355,
      "##ంటే": 1356,
      "##వం": 1357,
      "అవ": 1358,
      "##ించిన": 1359,
      "సా": 1360,
      "ఆయ": 1361,
      "అని": 1362,
      "##ంధ": 1363,
      "##డీ": 1364,
      "కార": 1365,
      "##ఎస్": 1366,
      "##కొ": 1367,
      "పే": 1368,
      "దా": 1369,
      "##స్థ": 1370,
      "##ట్టు": 1371,
      "బా": 1372,
      "##ద్య": 1373,
      "##ారని": 1374,
      "20": 1375,
      "ఒక": 1376,
      "##మ్మ": 1377,
      "##ళ్ల": 1378,
      "##ారా": 1379,
      "##వర": 1380,
      "##‌లో": 1381,
      "##వర్": 1382,
      "##ించి": 1383,
      "తన": 1384,
      "##దా": 1385,
      "ప్రా": 1386,
      "ఆయన": 1387,
      "ఎన్ని": 1388,
      "##ాలి": 1389,
      "##నం": 1390,
      "##ులు": 1391,
      "##జా": 1392,
      "రాష్ట": 1393,
      "##ాడు": 1394,
      "మొ": 1395,
      "##ంబ": 1396,
      "వీ": 1397,
      "##సే": 1398,
      "##త్య": 1399,
      "##తోంది": 1400,
      "##ంప": 1401,
      "అభ": 1402,
      "ఎన్నిక": 1403,
      "##ెక్": 1404,
      "##రే": 1405,
      "##ాలను": 1406,
      "##దే": 1407,
      "##రం": 1408,
      "చేసి": 1409,
      "##వీ": 1410,
      "##ితే": 1411,
      "తెలిప": 1412,
      "##ధి": 1413,
      "##ంత్రి": 1414,
      "##రుగు": 1415,
      "ఉండ": 1416,
      "నా": 1417,
      "చూ": 1418,
      "##జే": 1419,
      "##్రెస్": 1420,
      "వర": 1421,
      "##్యూ": 1422,
      "టీ": 1423,
      "##హి": 1424,
      "రాష్ట్ర": 1425,
      "సె": 1426,
      "జరి": 1427,
      "శా": 1428,
      "##మైన": 1429,
      "##వాత": 1430,
      "చేసిన": 1431,
      "##ధ్య": 1432,
      "##స్తున్నారు": 1433,
      "##క్కు": 1434,
      "##య్య": 1435,
      "##కే": 1436,
      "##లంగా": 1437,
      "##మే": 1438,
      "స్థ": 1439,
      "కాంగ": 1440,
      "మె": 1441,
      "##కోవ": 1442,
      "##ండా": 1443,
      "##ఖ్య": 1444,
      "కాంగ్రెస్": 1445,
      "కి": 1446,
      "##దేశ": 1447,
      "ప్రక": 1448,
      "హై": 1449,
      "##లతో": 1450,
      "##సా": 1451,
      "నె": 1452,
      "స్ట": 1453,
      "##యంలో": 1454,
      "##ప్పుడు": 1455,
      "పోలీ": 1456,
      "##ఫ్": 1457,
      "జిల్": 1458,
      "రి": 1459,
      "##ఎం": 1460,
      "##యే": 1461,
      "రాజ": 1462,
      "డి": 1463,
      "##ర్శ": 1464,
      "##బాద్": 1465,
      "మే": 1466,
      "మంది": 1467,
      "##క్ర": 1468,
      "గా": 1469,
      "##న్స్": 1470,
      "##యి": 1471,
      "మార్": 1472,
      "##దీ": 1473,
      "చి": 1474,
      "రోజు": 1475,
      "##తా": 1476,
      "##డంతో": 1477,
      "##ర్చ": 1478,
      "##ించింది": 1479,
      "మూ": 1480,
      "జిల్లా": 1481,
      "తా": 1482,
      "##ర్థ": 1483,
      "కోసం": 1484,
      "##తీ": 1485,
      "సు": 1486,
      "##ము": 1487,
      "రెండ": 1488,
      "సమా": 1489,
      "రై": 1490,
      "##న్‌": 1491,
      "రెడ్డి": 1492,
      "##కర": 1493,
      "వర్": 1494,
      "##‌‌‌‌‌‌‌‌‌‌‌‌‌‌‌‌‌‌‌‌‌‌‌‌‌‌‌‌‌‌‌‌‌‌‌‌‌‌‌‌‌‌‌‌‌‌‌‌‌‌‌‌‌‌‌‌‌‌‌‌‌‌‌‌": 1495,
      "తెలంగా": 1496,
      "##సులు": 1497,
      "తెలంగాణ": 1498,
      "మో": 1499,
      "విష": 1500,
      "##వారం": 1501,
      "##ుకు": 1502,
      "అయితే": 1503,
      "##ప్ర": 1504,
      "##లుగు": 1505,
      "చెప్పారు": 1506,
      "##కర్": 1507,
      "##కుండా": 1508,
      "##దని": 1509,
      "అను": 1510,
      "##ల్లి": 1511,
      "ఇచ్చ": 1512,
      "రే": 1513,
      "##చి": 1514,
      "కార్య": 1515,
      "ప్రభుత్వం": 1516,
      "##శ్": 1517,
      "తెలిపారు": 1518,
      "తి": 1519,
      "##ాలా": 1520,
      "భా": 1521,
      "తర్": 1522,
      "పొ": 1523,
      "##ట్ల": 1524,
      "##ామని": 1525,
      "తర్వాత": 1526,
      "##మో": 1527,
      "ప్రజ": 1528,
      "తీసుకు": 1529,
      "##ుల": 1530,
      "##రిక": 1531,
      "##ంటూ": 1532,
      "చంద్ర": 1533,
      "##టిక": 1534,
      "సిని": 1535,
      "##లోని": 1536,
      "బీజే": 1537,
      "##వహ": 1538,
      "అనే": 1539,
      "జరిగ": 1540,
      "దేశ": 1541,
      "పు": 1542,
      "##డానికి": 1543,
      "అధికారు": 1544,
      "బీజేపీ": 1545,
      "##స్ట": 1546,
      "సో": 1547,
      "##ించే": 1548,
      "##ట్టి": 1549,
      "##తున్నారు": 1550,
      "##పోయ": 1551,
      "చేస్త": 1552,
      "వ్యక్": 1553,
      "పై": 1554,
      "కలి": 1555,
      "ప్రతి": 1556,
      "మరో": 1557,
      "##జి": 1558,
      "##వ్": 1559,
      "##ర్య": 1560,
      "ఉంది": 1561,
      "ఏర్": 1562,
      "యా": 1563,
      "మంత్రి": 1564,
      "##తులు": 1565,
      "వ్యా": 1566,
      "##డే": 1567,
      "##బంధ": 1568,
      "సినిమా": 1569,
      "తే": 1570,
      "కేంద్ర": 1571,
      "అన్నారు": 1572,
      "ఆరో": 1573,
      "##మ్మె": 1574,
      "##కీ": 1575,
      "##ద్ధ": 1576,
      "##కూ": 1577,
      "తమ": 1578,
      "గ్ర": 1579,
      "##ాలకు": 1580,
      "శ్రీ": 1581,
      "పాటు": 1582,
      "లక్ష": 1583,
      "##టన": 1584,
      "##డ్డ": 1585,
      "ఎమ్మె": 1586,
      "##ణా": 1587,
      "ఎమ్మెల్": 1588,
      "##ాని": 1589,
      "##పాటు": 1590,
      "ఉంటు": 1591,
      "##చే": 1592,
      "క్ర": 1593,
      "చాలా": 1594,
      "##ళ్లు": 1595,
      "స్ప": 1596,
      "జా": 1597,
      "##తుంది": 1598,
      "##ట్లా": 1599,
      "నేత": 1600,
      "తో": 1601,
      "##కాశ": 1602,
      "సీఎం": 1603,
      "##ర్టు": 1604,
      "##బ్బ": 1605,
      "##స్తోంది": 1606,
      "##లం": 1607,
      "అంత": 1608,
      "##క్కువ": 1609,
      "జీ": 1610,
      "మాత్ర": 1611,
      "బె": 1612,
      "##టో": 1613,
      "మి": 1614,
      "##బాబు": 1615,
      "##ందిన": 1616,
      "వారి": 1617,
      "రెండు": 1618,
      "##శా": 1619,
      "విజ": 1620,
      "##రాబాద్": 1621,
      "##కులు": 1622,
      "##గ్ర": 1623,
      "అభి": 1624,
      "##ప్పటిక": 1625,
      "##వ్వ": 1626,
      "అస": 1627,
      "పని": 1628,
      "##గొ": 1629,
      "##మీ": 1630,
      "తీసు": 1631,
      "ది": 1632,
      "##హా": 1633,
      "##లలో": 1634,
      "మాట్లా": 1635,
      "##త్స": 1636,
      "ఆమె": 1637,
      "##మార్": 1638,
      "సర్": 1639,
      "సభ": 1640,
      "హైద": 1641,
      "దీంతో": 1642,
      "గత": 1643,
      "ప్రధ": 1644,
      "##ర్లు": 1645,
      "పి": 1646,
      "##ెన్": 1647,
      "##గే": 1648,
      "##దల": 1649,
      "జగ": 1650,
      "##ెడ్డి": 1651,
      "##స్తుంది": 1652,
      "అందు": 1653,
      "అవకాశ": 1654,
      "ముఖ్య": 1655,
      "\"\"": 1656,
      "వెళ్": 1657,
      "చేసుకు": 1658,
      "ఆర్": 1659,
      "##ీల": 1660,
      "...": 1661,
      "ఎం": 1662,
      "##లాంటి": 1663,
      "హైదరాబాద్": 1664,
      "మధ్య": 1665,
      "##వేశ": 1666,
      "##ాన్": 1667,
      "చంద్రబాబు": 1668,
      "##గ్గ": 1669,
      "కానీ": 1670,
      "##ంత్": 1671,
      "తొ": 1672,
      "చెందిన": 1673,
      "##00": 1674,
      "##ాయని": 1675,
      "సూ": 1676,
      "వరకు": 1677,
      "ఎమ్మెల్యే": 1678,
      "##క్కడ": 1679,
      "బి": 1680,
      "కేసు": 1681,
      "##మెంట్": 1682,
      "##ినా": 1683,
      "ప్రాంత": 1684,
      "##సారి": 1685,
      "పోలీసులు": 1686,
      "చేస్తున్న": 1687,
      "##స్‌": 1688,
      "##స్తే": 1689,
      "పూర్": 1690,
      "ఇది": 1691,
      "కొత్త": 1692,
      "##తూ": 1693,
      "సంబంధ": 1694,
      "##బీ": 1695,
      "##ెం": 1696,
      "##చారం": 1697,
      "గుర్": 1698,
      "చేసింది": 1699,
      "##ర్‌": 1700,
      "##ర్కొ": 1701,
      "బీఆర్": 1702,
      "##చార": 1703,
      "నెల": 1704,
      "తెలు": 1705,
      "లా": 1706,
      "##స్ట్": 1707,
      "నీ": 1708,
      "నాయ": 1709,
      "అధికారులు": 1710,
      "##ందించ": 1711,
      "నిర్వహ": 1712,
      "బ్యా": 1713,
      "సంద": 1714,
      "##లపై": 1715,
      "202": 1716,
      "జన": 1717,
      "##ణి": 1718,
      "తర": 1719,
      "##ంపు": 1720,
      "కార్": 1721,
      "##స్య": 1722,
      "##ణ్": 1723,
      "పాల్": 1724,
      "నిర్ణ": 1725,
      "గె": 1726,
      "##ణం": 1727,
      "యూ": 1728,
      "మహి": 1729,
      "##ేషన్": 1730,
      "##ెంట్": 1731,
      "##ూరు": 1732,
      "వార": 1733,
      "సమయంలో": 1734,
      "భారీ": 1735,
      "ద్వ": 1736,
      "గుర": 1737,
      "##త్తు": 1738,
      "##గం": 1739,
      "##కపో": 1740,
      "##టా": 1741,
      "##ల్‌": 1742,
      "కల": 1743,
      "అన": 1744,
      "పెద్ద": 1745,
      "మహిళ": 1746,
      "ఉద్య": 1747,
      "##ుడు": 1748,
      "అమ": 1749,
      "యు": 1750,
      "##షి": 1751,
      "మరి": 1752,
      "ఎక్కువ": 1753,
      "##ాం": 1754,
      "##ర్యా": 1755,
      "##ారంభ": 1756,
      "##్లా": 1757,
      "##డియా": 1758,
      "కాల": 1759,
      "##ంలోని": 1760,
      "గంట": 1761,
      "కని": 1762,
      "ప్రారంభ": 1763,
      "అభ్య": 1764,
      "చేసే": 1765,
      "ఎన్నికల": 1766,
      "భూ": 1767,
      "ప్రస్తు": 1768,
      "శి": 1769,
      "##పించ": 1770,
      "##ందే": 1771,
      "##లోకి": 1772,
      "హా": 1773,
      "కేసీ": 1774,
      "##గర్": 1775,
      "##హ్": 1776,
      "ఇప్పుడు": 1777,
      "##ైనా": 1778,
      "ఫో": 1779,
      "ముందు": 1780,
      "##తే": 1781,
      "రాజకీ": 1782,
      "##పే": 1783,
      "##లేదు": 1784,
      "సై": 1785,
      "అత": 1786,
      "##ృష్": 1787,
      "##డిన": 1788,
      "##యోజ": 1789,
      "కేసీఆర్": 1790,
      "##వరి": 1791,
      "##చ్చు": 1792,
      "అవు": 1793,
      "విద్య": 1794,
      "మ్యా": 1795,
      "బీఆర్ఎస్": 1796,
      "అంద": 1797,
      "##నించ": 1798,
      "ఇవ్వ": 1799,
      "##ఫీ": 1800,
      "ఇక": 1801,
      "##కాల": 1802,
      "కుటు": 1803,
      "అర": 1804,
      "##ారీ": 1805,
      "##ద్ర": 1806,
      "జగన్": 1807,
      "మీడియా": 1808,
      "ప్రభుత్వ": 1809,
      "##ాయం": 1810,
      "ఫి": 1811,
      "##వన్": 1812,
      "##పె": 1813,
      "##ిల్లీ": 1814,
      "ఒక్క": 1815,
      "కల్": 1816,
      "##ర్మ": 1817,
      "విధ": 1818,
      "పేర్కొ": 1819,
      "సాధ": 1820,
      "చెబు": 1821,
      "ద్వారా": 1822,
      "##తంగా": 1823,
      "##ంక": 1824,
      "హె": 1825,
      "ఏర్పాటు": 1826,
      "కొన్ని": 1827,
      "ప్రకట": 1828,
      "##విత": 1829,
      "ప్రత్య": 1830,
      "##నూ": 1831,
      "##రుకు": 1832,
      "క్": 1833,
      "ఏపీ": 1834,
      "##స్థి": 1835,
      "##ర్భ": 1836,
      "మన": 1837,
      "డీ": 1838,
      "సమస్య": 1839,
      "కావ": 1840,
      "##క్రమ": 1841,
      "పెట్ట": 1842,
      "ప్రమా": 1843,
      "అధికార": 1844,
      "అయ్య": 1845,
      "10": 1846,
      "##‌కు": 1847,
      "కె": 1848,
      "##ందో": 1849,
      "సే": 1850,
      "జరుగు": 1851,
      "మహ": 1852,
      "##శి": 1853,
      "ఉంటుంది": 1854,
      "వచ్చిన": 1855,
      "##ంత్ర": 1856,
      "##స్తూ": 1857,
      "పలు": 1858,
      "కారణ": 1859,
      "##సీపీ": 1860,
      "అవకాశం": 1861,
      "##ికెట్": 1862,
      "##గో": 1863,
      "ఉద్యో": 1864,
      "వెలుగు": 1865,
      "##నున్న": 1866,
      "ధర": 1867,
      "పోటీ": 1868,
      "దీని": 1869,
      "##బో": 1870,
      "##ల్సి": 1871,
      "##తీయ": 1872,
      "మాజీ": 1873,
      "బయ": 1874,
      "##క్స్": 1875,
      "##తర": 1876,
      "రేవ": 1877,
      "రూప": 1878,
      "##ంజ": 1879,
      "పూర్తి": 1880,
      "##ార్థ": 1881,
      "ప్రస్తుతం": 1882,
      "##ాల్లో": 1883,
      "జరిగిన": 1884,
      "##ెస్ట్": 1885,
      "##మని": 1886,
      "##త్రి": 1887,
      "వచ్చే": 1888,
      "మొద": 1889,
      "అలా": 1890,
      "పరిస్థి": 1891,
      "ఇండి": 1892,
      "వల్ల": 1893,
      "ఆరోప": 1894,
      "గో": 1895,
      "##ంటారు": 1896,
      "##ల్స్": 1897,
      "అధ్య": 1898,
      "బు": 1899,
      "అభ్యర్థ": 1900,
      "##మంత్రి": 1901,
      "సహ": 1902,
      "శాఖ": 1903,
      "##ాక్": 1904,
      "##టం": 1905,
      "##ేక": 1906,
      "ఎస్": 1907,
      "##దం": 1908,
      "##స్టు": 1909,
      "కుటుంబ": 1910,
      "సంస్థ": 1911,
      "##వ్ర": 1912,
      "ఆధ": 1913,
      "వర్ష": 1914,
      "19": 1915,
      "##యర్": 1916,
      "ఎదు": 1917,
      "కొన": 1918,
      "##యత్": 1919,
      "##ాన్ని": 1920,
      "భారత్": 1921,
      "##టింగ్": 1922,
      "##ించుకు": 1923,
      "మార": 1924,
      "రేవంత్": 1925,
      "లేదు": 1926,
      "మొత్త": 1927,
      "విజయ": 1928,
      "తీవ్ర": 1929,
      "చేస్తున్నారు": 1930,
      "ఎంపీ": 1931,
      "విచార": 1932,
      "##ెక్టర్": 1933,
      "##‌‌‌‌‌‌‌‌‌‌‌‌‌‌‌‌‌‌‌‌‌‌‌‌‌‌‌‌‌‌‌‌‌‌‌‌‌‌‌‌‌‌‌‌‌‌‌‌‌‌‌‌‌‌‌‌‌‌‌‌‌‌‌‌‌‌‌‌‌‌‌‌‌‌‌‌‌‌‌‌‌‌‌‌‌‌‌‌‌‌‌‌‌‌‌‌‌‌‌‌‌‌‌‌‌‌‌‌‌‌‌‌‌‌‌‌‌‌‌‌‌‌‌‌‌‌‌‌": 1934,
      "##నాలు": 1935,
      "##తలు": 1936,
      "ఎన్నికల్లో": 1937,
      "##డీపీ": 1938,
      "చేప": 1939,
      "మండ": 1940,
      "ఉప": 1941,
      "201": 1942,
      "పాల్గొ": 1943,
      "హి": 1944,
      "ట్ర": 1945,
      "##ినీ": 1946,
      "మంచి": 1947,
      "భారత": 1948,
      "పేరు": 1949,
      "##డియో": 1950,
      "అన్ని": 1951,
      "##పూర్": 1952,
      "పీ": 1953,
      "ఇప్పటిక": 1954,
      "##‌ను": 1955,
      "వద్ద": 1956,
      "సమావేశ": 1957,
      "క్యా": 1958,
      "##కం": 1959,
      "కమి": 1960,
      "మూడు": 1961,
      "పాల": 1962,
      "చర్చ": 1963,
      "##ానికి": 1964,
      "##ట్టుకు": 1965,
      "##్యం": 1966,
      "దు": 1967,
      "నియోజ": 1968,
      "వెల్ల": 1969,
      "టీడీపీ": 1970,
      "##న్నా": 1971,
      "వారు": 1972,
      "ఇంట": 1973,
      "శు": 1974,
      "కీల": 1975,
      "ప్రయత్": 1976,
      "కలిసి": 1977,
      "##తున్నాయి": 1978,
      "గ్రామ": 1979,
      "##రగ": 1980,
      "అం": 1981,
      "లి": 1982,
      "పట్ట": 1983,
      "నమో": 1984,
      "బో": 1985,
      "విడు": 1986,
      "##తుల": 1987,
      "నియోజక": 1988,
      "నో": 1989,
      "స్థాన": 1990,
      "##స్తారు": 1991,
      "##పంచ": 1992,
      "##సింది": 1993,
      "తేదీ": 1994,
      "##రూ": 1995,
      "##రణ": 1996,
      "##దేశ్": 1997,
      "##ప్పటి": 1998,
      "##వై": 1999,
      "కొనసా": 2000,
      "చర్య": 2001,
      "##యన్": 2002,
      "##ంబర్": 2003,
      "ప్రత్యేక": 2004,
      "##ిల్ల": 2005,
      "పరిశ": 2006,
      "గురించి": 2007,
      "##త్తి": 2008,
      "##షల్": 2009,
      "మ్యాచ్": 2010,
      "##బర్": 2011,
      "##నర్": 2012,
      "##రాలు": 2013,
      "కుమార్": 2014,
      "వీడియో": 2015,
      "##భా": 2016,
      "##సర": 2017,
      "భాగ": 2018,
      "##ంగళ": 2019,
      "సందర్భ": 2020,
      "ఉందని": 2021,
      "కంప": 2022,
      "కీలక": 2023,
      "మాత్రం": 2024,
      "ప్రశ్": 2025,
      "విడుదల": 2026,
      "రాజకీయ": 2027,
      "##జర్": 2028,
      "##బ్లీ": 2029,
      "##లై": 2030,
      "##కె": 2031,
      "##ద్ధి": 2032,
      "వైసీపీ": 2033,
      "##్రో": 2034,
      "పవన్": 2035,
      "##హు": 2036,
      "తప్ప": 2037,
      "ఉన్నారు": 2038,
      "##హం": 2039,
      "చో": 2040,
      "వివర": 2041,
      "##డ్డు": 2042,
      "నియోజకవర్": 2043,
      "అధ్యక్ష": 2044,
      "ప్రధాన": 2045,
      "##మాండ్": 2046,
      "ఉన్నాయి": 2047,
      "వెళ్ల": 2048,
      "వెల్లడ": 2049,
      "శాతం": 2050,
      "విచారణ": 2051,
      "##మర్శ": 2052,
      "##యోగ": 2053,
      "ఉంట": 2054,
      "##ైంది": 2055,
      "##ద్దు": 2056,
      "ప్రభా": 2057,
      "ఢిల్లీ": 2058,
      "కర్": 2059,
      "##ంటున్న": 2060,
      "##దర్శ": 2061,
      "##ానని": 2062,
      "దే": 2063,
      "మాత్రమే": 2064,
      "##నున్నారు": 2065,
      "హో": 2066,
      "జూ": 2067,
      "దూ": 2068,
      "రావ": 2069,
      "##ష్టం": 2070,
      "##ించాలని": 2071,
      "విషయం": 2072,
      "బయట": 2073,
      "##వృ": 2074,
      "వ్యక్తం": 2075,
      "15": 2076,
      "పద": 2077,
      "ఎలా": 2078,
      "##ంటున్నారు": 2079,
      "ఘటన": 2080,
      "##దన": 2081,
      "అర్": 2082,
      "##వల": 2083,
      "##ారెడ్డి": 2084,
      "అసెం": 2085,
      "ఉద": 2086,
      "##పర్": 2087,
      "##లుగా": 2088,
      "అసెంబ్లీ": 2089,
      "##ట్‌": 2090,
      "తాజా": 2091,
      "ఉండే": 2092,
      "##పల్లి": 2093,
      "##లింగ్": 2094,
      "సభ్య": 2095,
      "##్రే": 2096,
      "జో": 2097,
      "అమ్మ": 2098,
      "##్వర": 2099,
      "##గిన": 2100,
      "##లోనే": 2101,
      "##ాలతో": 2102,
      "పూ": 2103,
      "వంటి": 2104,
      "అన్న": 2105,
      "వేల": 2106,
      "సమాచారం": 2107,
      "ముఖ్యమంత్రి": 2108,
      "ఎన్": 2109,
      "ఉత్త": 2110,
      "##దిక": 2111,
      "లీ": 2112,
      "షా": 2113,
      "సూచ": 2114,
      "చేయాలని": 2115,
      "##వో": 2116,
      "ఇప్పటికే": 2117,
      "##పడు": 2118,
      "కోట్ల": 2119,
      "##రారు": 2120,
      "##యు": 2121,
      "మాట్లాడు": 2122,
      "పోలీసు": 2123,
      "యువ": 2124,
      "ప్రపంచ": 2125,
      "##కోర్టు": 2126,
      "##పడ్డ": 2127,
      "##క్‌": 2128,
      "##టె": 2129,
      "విమర్శ": 2130,
      "దర్శ": 2131,
      "##రల్": 2132,
      "ప్రజలు": 2133,
      "##నుంది": 2134,
      "##ానం": 2135,
      "##ెనీ": 2136,
      "12": 2137,
      "##ినే": 2138,
      "ప్రధాని": 2139,
      "తిరు": 2140,
      "మృ": 2141,
      "చేసు": 2142,
      "నుండి": 2143,
      "అదే": 2144,
      "లక్షల": 2145,
      "జై": 2146,
      "##ించు": 2147,
      "కోర్టు": 2148,
      "ఆదేశ": 2149,
      "##క్షన్": 2150,
      "డై": 2151,
      "పను": 2152,
      "నాలు": 2153,
      "కంపెనీ": 2154,
      "వ్యక్తి": 2155,
      "##గ్గు": 2156,
      "హీ": 2157,
      "రాష్ట్రంలో": 2158,
      "##రెడ్డి": 2159,
      "##రిగి": 2160,
      "##వారు": 2161,
      "ఇండియా": 2162,
      "##టీఆర్": 2163,
      "సందర్భంగా": 2164,
      "##కంగా": 2165,
      "తెలుగు": 2166,
      "వాటి": 2167,
      "##ేశారు": 2168,
      "వెంట": 2169,
      "##కపోవ": 2170,
      "##ించడం": 2171,
      "ఎలాంటి": 2172,
      "సంఘ": 2173,
      "లై": 2174,
      "##డాది": 2175,
      "##ంలోకి": 2176,
      "తాను": 2177,
      "##ెల్": 2178,
      "మోదీ": 2179,
      "అత్య": 2180,
      "వార్": 2181,
      "తరు": 2182,
      "కింద": 2183,
      "తొలి": 2184,
      "మీద": 2185,
      "మొత్తం": 2186,
      "లేదా": 2187,
      "ప్రకారం": 2188,
      "వ్యవ": 2189,
      "ఆది": 2190,
      "ప్రయా": 2191,
      "చిత": 2192,
      "చిన్న": 2193,
      "##య్": 2194,
      "ఆల": 2195,
      "##బ్బంది": 2196,
      "##నల్": 2197,
      "న్యూ": 2198,
      "అమె": 2199,
      "విని": 2200,
      "వారికి": 2201,
      "##త్మ": 2202,
      "అంటూ": 2203,
      "నిర్మా": 2204,
      "##ంతరం": 2205,
      "రంగ": 2206,
      "నగ": 2207,
      "సిద్ధ": 2208,
      "అభివృ": 2209,
      "ఇతర": 2210,
      "చేయడం": 2211,
      "##సర్": 2212,
      "##ాము": 2213,
      "సోషల్": 2214,
      "ఇద్ద": 2215,
      "న్య": 2216,
      "రైతు": 2217,
      "ఆర్థ": 2218,
      "ప్రే": 2219,
      "ఆరోగ": 2220,
      "పిల్ల": 2221,
      "విద్యార్థ": 2222,
      "##టక": 2223,
      "##ల్సిన": 2224,
      "ప్లా": 2225,
      "నేతలు": 2226,
      "ఇం": 2227,
      "##ృష్ణ": 2228,
      "లేదని": 2229,
      "30": 2230,
      "చర్యలు": 2231,
      "##వత్స": 2232,
      "##తుందని": 2233,
      "##జన్": 2234,
      "##రికా": 2235,
      "అక్కడ": 2236,
      "దగ్గ": 2237,
      "##కుల": 2238,
      "హీరో": 2239,
      "స్వా": 2240,
      "ఎవర": 2241,
      "##సె": 2242,
      "కాదు": 2243,
      "##బ్బు": 2244,
      "గెలి": 2245,
      "ఆర్థిక": 2246,
      "టై": 2247,
      "##జెక్": 2248,
      "##వులు": 2249,
      "##శ్వ": 2250,
      "##రోజు": 2251,
      "##క్తి": 2252,
      "రు": 2253,
      "అంటే": 2254,
      "##గానే": 2255,
      "సంవత్స": 2256,
      "ఇందు": 2257,
      "##స్వా": 2258,
      "చేపట్ట": 2259,
      "##దారు": 2260,
      "ఇదే": 2261,
      "పనిచే": 2262,
      "పెంచ": 2263,
      "ఇలా": 2264,
      "అందించ": 2265,
      "##్యంలో": 2266,
      "##డుగు": 2267,
      "##ంధీ": 2268,
      "ఆఫీ": 2269,
      "విక": 2270,
      "11": 2271,
      "జరగ": 2272,
      "అలాగే": 2273,
      "అది": 2274,
      "##టమి": 2275,
      "పర్య": 2276,
      "##ళన": 2277,
      "##యాన్ని": 2278,
      "రామ": 2279,
      "గుర్త": 2280,
      "నిలి": 2281,
      "##తాయి": 2282,
      "##స్సు": 2283,
      "పరుగు": 2284,
      "##ందన్నారు": 2285,
      "##ప్తంగా": 2286,
      "##ంతా": 2287,
      "ఇన్": 2288,
      "##ల్డ్": 2289,
      "కౌ": 2290,
      "##నించారు": 2291,
      "##ప్రదేశ్": 2292,
      "పేర్కొన్నారు": 2293,
      "కోట్లు": 2294,
      "క్రమ": 2295,
      "అయిన": 2296,
      "ఇచ్చిన": 2297,
      "వెంక": 2298,
      "డిమాండ్": 2299,
      "తాజాగా": 2300,
      "ప్రాజెక్": 2301,
      "దాని": 2302,
      "వెళ్లి": 2303,
      "##రకు": 2304,
      "),": 2305,
      "##టే": 2306,
      "##యాలు": 2307,
      "బాల": 2308,
      "తెలియ": 2309,
      "##తారు": 2310,
      "##న్సి": 2311,
      "##పథ": 2312,
      "తెలిపింది": 2313,
      "##తిక": 2314,
      "##దాపు": 2315,
      "##ల్లు": 2316,
      "##స్తామని": 2317,
      "చెబుతున్నారు": 2318,
      "##సభ": 2319,
      "తీసుకోవ": 2320,
      "సొ": 2321,
      "##యూ": 2322,
      "స్వ": 2323,
      "దాదాపు": 2324,
      "అమలు": 2325,
      "సంబంధించిన": 2326,
      "ఫ్యా": 2327,
      "చేరుకు": 2328,
      "ఏడాది": 2329,
      "వచ్చి": 2330,
      "##ూడ": 2331,
      "గతంలో": 2332,
      "##లిక": 2333,
      "##ామీ": 2334,
      "##లేదని": 2335,
      "కార్యక్రమ": 2336,
      "పరిస్థితి": 2337,
      "##స్ప": 2338,
      "రోజుల": 2339,
      "ఇటీ": 2340,
      "తగ్గ": 2341,
      "తు": 2342,
      "భక్": 2343,
      "##పడి": 2344,
      "ట్రా": 2345,
      "##రీక్ష": 2346,
      "##స్తున్నాయి": 2347,
      "గాంధీ": 2348,
      "అక్క": 2349,
      "##లర్": 2350,
      "మాట్లాడుతూ": 2351,
      "##ందోళన": 2352,
      "డె": 2353,
      "##ంతి": 2354,
      "డబ్బు": 2355,
      "స్థాని": 2356,
      "వ్యవహ": 2357,
      "భాగంగా": 2358,
      "##ులకు": 2359,
      "##కుడు": 2360,
      "##ేశ్": 2361,
      "పెరుగు": 2362,
      "మూవీ": 2363,
      "బ్యాం": 2364,
      "లు": 2365,
      "చై": 2366,
      "##పక్ష": 2367,
      "గొ": 2368,
      "##పడ": 2369,
      "అమెరికా": 2370,
      "అనేక": 2371,
      "పడు": 2372,
      "##ార్డు": 2373,
      "కనిపి": 2374,
      "స్టార్": 2375,
      "నేపథ": 2376,
      "కారణంగా": 2377,
      "ఫలి": 2378,
      "##సన": 2379,
      "##చు": 2380,
      "అనంతరం": 2381,
      "నమోదు": 2382,
      "##క్ష్": 2383,
      "వైఎస్": 2384,
      "అభివృద్ధి": 2385,
      "లె": 2386,
      "వెంటనే": 2387,
      "జరిగింది": 2388,
      "##రంగా": 2389,
      "##పెట్ట": 2390,
      "సర": 2391,
      "ఆఫ్": 2392,
      "##టర్లు": 2393,
      "ప్రజా": 2394,
      "మళ్": 2395,
      "విషయంలో": 2396,
      "##మయ్య": 2397,
      "##కొని": 2398,
      "##శాఖ": 2399,
      "కొంత": 2400,
      "నేను": 2401,
      "అంచ": 2402,
      "##న్నీ": 2403,
      "పథ": 2404,
      "సమీ": 2405,
      "వ్యాఖ్య": 2406,
      "##డని": 2407,
      "నిర్ణయం": 2408,
      "##గాలు": 2409,
      "##ద్ది": 2410,
      "గౌ": 2411,
      "##ంధ్ర": 2412,
      "నిర్మ": 2413,
      "చీ": 2414,
      "##ెన్స్": 2415,
      "##ండు": 2416,
      "గంటల": 2417,
      "అంశ": 2418,
      "జారీ": 2419,
      "25": 2420,
      "##లుపు": 2421,
      "ఇందులో": 2422,
      "తరువాత": 2423,
      "రావు": 2424,
      "##an": 2425,
      "##క్షి": 2426,
      "##క్షణ": 2427,
      "పరీక్ష": 2428,
      "రూపాయ": 2429,
      "##ందరు": 2430,
      "దాడి": 2431,
      "వచ్చింది": 2432,
      "డ్ర": 2433,
      "రాహు": 2434,
      "నేపథ్యంలో": 2435,
      "కేసులో": 2436,
      "ఆశ": 2437,
      "ఆందోళన": 2438,
      "కేట": 2439,
      "##సేన": 2440,
      "##ారో": 2441,
      "##పడ్డారు": 2442,
      "ఫోన్": 2443,
      "##పోయిన": 2444,
      "ఫొ": 2445,
      "మాట్లాడ": 2446,
      "వివా": 2447,
      "వస్తు": 2448,
      "##ాయ్": 2449,
      "##స్తా": 2450,
      "##ర్యాదు": 2451,
      "##కొచ్చ": 2452,
      "##్యాల": 2453,
      "పాత్ర": 2454,
      "##ప్పటికీ": 2455,
      "##ళ్లి": 2456,
      "14": 2457,
      "##టంతో": 2458,
      "లేకుండా": 2459,
      "కళ": 2460,
      "హామీ": 2461,
      "ఫిర్యాదు": 2462,
      "##పేట": 2463,
      "పం": 2464,
      "జీవిత": 2465,
      "##డో": 2466,
      "చూడ": 2467,
      "##ర్చు": 2468,
      "తెలిసి": 2469,
      "దొ": 2470,
      "ఇచ్చారు": 2471,
      "ఎక్కువగా": 2472,
      "ఫొటో": 2473,
      "స్థాయి": 2474,
      "టా": 2475,
      "##కున్న": 2476,
      "యూని": 2477,
      "##బాటు": 2478,
      "##కెట్": 2479,
      "ఉదయం": 2480,
      "ప్రచారం": 2481,
      "##ాలపై": 2482,
      "##వారి": 2483,
      "రిక": 2484,
      "ప్రి": 2485,
      "తయ": 2486,
      "నియ": 2487,
      "##లువ": 2488,
      "ఖా": 2489,
      "##డర్": 2490,
      "చట్ట": 2491,
      "డైర": 2492,
      "##ించేందుకు": 2493,
      "సరి": 2494,
      "##మవు": 2495,
      "పెరి": 2496,
      "గుర్తు": 2497,
      "##పతి": 2498,
      "జిల్లాలో": 2499,
      "##ధు": 2500,
      "రీ": 2501,
      "చిత్ర": 2502,
      "దగ్గర": 2503,
      "మొదటి": 2504,
      "డాక్": 2505,
      "ఎంత": 2506,
      "మద్ద": 2507,
      "##రంలో": 2508,
      "డే": 2509,
      "బాధ్య": 2510,
      "పడి": 2511,
      "##నివా": 2512,
      "బంగ": 2513,
      "మార్పు": 2514,
      "##పోయింది": 2515,
      "##ంటీ": 2516,
      "హాజ": 2517,
      "##‌లోని": 2518,
      "సింగ్": 2519,
      "సౌ": 2520,
      "##నని": 2521,
      "##ందా": 2522,
      "నాలుగు": 2523,
      "స్టేషన్": 2524,
      "కాగా": 2525,
      "త్వర": 2526,
      "నిర్ణయ": 2527,
      "##స్తో": 2528,
      "వైద్య": 2529,
      "ఆరోపణ": 2530,
      "సాయ": 2531,
      "##బి": 2532,
      "బల": 2533,
      "##రువు": 2534,
      "##వరణ": 2535,
      "పార్ల": 2536,
      "##కాలు": 2537,
      "##సై": 2538,
      "న్యాయ": 2539,
      "పంప": 2540,
      "మరింత": 2541,
      "##వాడ": 2542,
      "##ధిక": 2543,
      "రెండో": 2544,
      "##వన": 2545,
      "##న్ను": 2546,
      "##ండగా": 2547,
      "సంఖ్య": 2548,
      "తల": 2549,
      "18": 2550,
      "##ాలలో": 2551,
      "##ెస్టు": 2552,
      "శ్రీనివా": 2553,
      "మీడియాలో": 2554,
      "జట్టు": 2555,
      "ట్వ": 2556,
      "##ట్స్": 2557,
      "తల్లి": 2558,
      "##వైపు": 2559,
      "రాహుల్": 2560,
      "కాలే": 2561,
      "##తిరే": 2562,
      "చేసుకోవ": 2563,
      "##నుగో": 2564,
      "అందుకే": 2565,
      "##టికి": 2566,
      "పాల్గొన్నారు": 2567,
      "క్రమంలో": 2568,
      "##చర్": 2569,
      "ప్రభుత్వా": 2570,
      "50": 2571,
      "వ్యాప": 2572,
      "##ణాలు": 2573,
      "తెలుస్తోంది": 2574,
      "ఇంటి": 2575,
      "ఆంధ్ర": 2576,
      "చేస్తూ": 2577,
      "ఉంటే": 2578,
      "##చుకు": 2579,
      "##మాన్": 2580,
      "గ్రా": 2581,
      "కథ": 2582,
      "##బడి": 2583,
      "ఇప్పటి": 2584,
      "##ంటర్": 2585,
      "24": 2586,
      "కొనసాగు": 2587,
      "##వ్యా": 2588,
      "వాతా": 2589,
      "##నియర్": 2590,
      "##ఫి": 2591,
      "మై": 2592,
      "వ్యతిరే": 2593,
      "ఇలాంటి": 2594,
      "జనసేన": 2595,
      "ఎందుకు": 2596,
      "మళ్లీ": 2597,
      "తెలంగాణలో": 2598,
      "హైకోర్టు": 2599,
      "అంది": 2600,
      "##విధ": 2601,
      "ప్": 2602,
      "లోని": 2603,
      "మేరకు": 2604,
      "##వార": 2605,
      "##నలు": 2606,
      "##మారు": 2607,
      "##యల్": 2608,
      "కేటీఆర్": 2609,
      "ఆరోపించారు": 2610,
      "##ేందుకు": 2611,
      "##త్వ": 2612,
      "అభ్యర్థి": 2613,
      "కలెక్టర్": 2614,
      "ఫై": 2615,
      "రిలీ": 2616,
      "17": 2617,
      "##షనల్": 2618,
      "##ార్లు": 2619,
      "అరెస్ట్": 2620,
      "ప్రజల": 2621,
      "##టర్ల": 2622,
      "ఏం": 2623,
      "విమా": 2624,
      "ఐదు": 2625,
      "తెలిసిందే": 2626,
      "నాయకులు": 2627,
      "##ఎల్": 2628,
      "సిబ్బంది": 2629,
      "బిల్": 2630,
      "వాహ": 2631,
      "##పోయారు": 2632,
      "##ోర్": 2633,
      "అధ్యక్షుడు": 2634,
      "భర్": 2635,
      "ప్రకటన": 2636,
      "##ల్లా": 2637,
      "##ాలే": 2638,
      "తిరిగి": 2639,
      "సంగ": 2640,
      "జాతీయ": 2641,
      "##రావు": 2642,
      "ఇటీవల": 2643,
      "మద్దతు": 2644,
      "##మై": 2645,
      "##డిగా": 2646,
      "ప్రాజెక్టు": 2647,
      "విన": 2648,
      "##గంలో": 2649,
      "ఆలో": 2650,
      "2024": 2651,
      "కర్ణా": 2652,
      "అప్ప": 2653,
      "ప్రొ": 2654,
      "రాత్రి": 2655,
      "సోమ": 2656,
      "శని": 2657,
      "##ముఖ": 2658,
      "టి": 2659,
      "##గాల": 2660,
      "13": 2661,
      "ఆధార": 2662,
      "##దో": 2663,
      "##یں": 2664,
      "200": 2665,
      "కర్ణాటక": 2666,
      "##స్టి": 2667,
      "పడ": 2668,
      "##టరీ": 2669,
      "##మల": 2670,
      "వెల్లడించారు": 2671,
      "##స్తాయి": 2672,
      "పంచ": 2673,
      "కొనుగో": 2674,
      "చు": 2675,
      "##ళి": 2676,
      "##స్టర్": 2677,
      "ఇక్కడ": 2678,
      "##భి": 2679,
      "##రికి": 2680,
      "కొందరు": 2681,
      "##్యార": 2682,
      "నిల": 2683,
      "శివ": 2684,
      "శుక్ర": 2685,
      "కంటే": 2686,
      "##ారాయ": 2687,
      "##్యు": 2688,
      "##తిని": 2689,
      "ఆస": 2690,
      "నింది": 2691,
      "##యిల్": 2692,
      "##శారు": 2693,
      "పైన": 2694,
      "##ంప్": 2695,
      "కమిటీ": 2696,
      "##ాను": 2697,
      "##న్నాయి": 2698,
      "వీటి": 2699,
      "స్టే": 2700,
      "విజయం": 2701,
      "తక్కువ": 2702,
      "##ర్మన్": 2703,
      "చా": 2704,
      "##ందర్": 2705,
      "16": 2706,
      "##సీసీ": 2707,
      "అవస": 2708,
      "తనకు": 2709,
      "మంగళ": 2710,
      "##ృష్ట": 2711,
      "##చిన": 2712,
      "గి": 2713,
      "నమ్మ": 2714,
      "##టల్": 2715,
      "భార్య": 2716,
      "కాకుండా": 2717,
      "గాయ": 2718,
      "వృ": 2719,
      "గురు": 2720,
      "ఇద్దరు": 2721,
      "నీటి": 2722,
      "ఇంకా": 2723,
      "హత్య": 2724,
      "ఉద్యోగు": 2725,
      "అందుకు": 2726,
      "##ంతు": 2727,
      "##ಲ್": 2728,
      "ఫు": 2729,
      "ఆగ": 2730,
      "##రేషన్": 2731,
      "ఉత్": 2732,
      "రైల్": 2733,
      "రోడ్డు": 2734,
      "కోరారు": 2735,
      "పైగా": 2736,
      "##దాలు": 2737,
      "చోటు": 2738,
      "##క్కి": 2739,
      "ఆంధ్రప్రదేశ్": 2740,
      "చని": 2741,
      "పనులు": 2742,
      "నిర": 2743,
      "వెంకట": 2744,
      "##వె": 2745,
      "కేవ": 2746,
      "కిలో": 2747,
      "##యిన్": 2748,
      "బెంగళ": 2749,
      "##ణు": 2750,
      "ఉపయోగ": 2751,
      "వైరల్": 2752,
      "##వరకు": 2753,
      "##మంది": 2754,
      "అతని": 2755,
      "బౌ": 2756,
      "##మాను": 2757,
      "పాకి": 2758,
      "##ప్రీ": 2759,
      "రాష్ట్రా": 2760,
      "తీసుకున్న": 2761,
      "22": 2762,
      "##కారం": 2763,
      "##ంద్": 2764,
      "స్పందించ": 2765,
      "పక్క": 2766,
      "##డుకు": 2767,
      "భావి": 2768,
      "##ారణ": 2769,
      "మారింది": 2770,
      "బెంగళూరు": 2771,
      "##ాలంటే": 2772,
      "ఆద": 2773,
      "కేవలం": 2774,
      "పోలీస్": 2775,
      "హెచ్చ": 2776,
      "ఇంట్": 2777,
      "మర": 2778,
      "##వాల్": 2779,
      "ఉంచ": 2780,
      "టికెట్": 2781,
      "షే": 2782,
      "##ేశ్వ": 2783,
      "పరిధి": 2784,
      "కారు": 2785,
      "##ఖా": 2786,
      "తీర్": 2787,
      "చేసుకున్న": 2788,
      "స్కూ": 2789,
      "అందులో": 2790,
      "మోడీ": 2791,
      "##డిని": 2792,
      "క్ష": 2793,
      "సాగు": 2794,
      "అడుగు": 2795,
      "##నేందుకు": 2796,
      "##ర్ర": 2797,
      "బై": 2798,
      "ఆరోగ్య": 2799,
      "ప్రాంతాల్లో": 2800,
      "##కరణ": 2801,
      "సూచించారు": 2802,
      "ఏళ్ల": 2803,
      "దేశంలో": 2804,
      "మొదల": 2805,
      "సర్క": 2806,
      "అల": 2807,
      "##చిత": 2808,
      "##ృష్టి": 2809,
      "##ల్ని": 2810,
      "##యానికి": 2811,
      "అతి": 2812,
      "దో": 2813,
      "అధికారంలోకి": 2814,
      "మాట": 2815,
      "మార్కెట్": 2816,
      "కార్యకర్": 2817,
      "వారిని": 2818,
      "రాశి": 2819,
      "##బుల్": 2820,
      "##య్యారు": 2821,
      "##గింది": 2822,
      "##తిలో": 2823,
      "##ామన్నారు": 2824,
      "##జయ్": 2825,
      "సూర్": 2826,
      "నిర్వ": 2827,
      "కోల్": 2828,
      "ఏపీలో": 2829,
      "మారు": 2830,
      "కట్ట": 2831,
      "##వ్యాప్తంగా": 2832,
      "2023": 2833,
      "కష్ట": 2834,
      "##నె": 2835,
      "##నగర్": 2836,
      "##థ్": 2837,
      "##చ్చి": 2838,
      "చెప్పు": 2839,
      "##డంలో": 2840,
      "కేంద్రం": 2841,
      "రైల్వే": 2842,
      "తమి": 2843,
      "వర్షాలు": 2844,
      "అవసరం": 2845,
      "మరోసారి": 2846,
      "భద్ర": 2847,
      "##డికి": 2848,
      "ముగి": 2849,
      "సంచ": 2850,
      "చేశాడు": 2851,
      "చేర": 2852,
      "##పొ": 2853,
      "మీరు": 2854,
      "ప్రజలకు": 2855,
      "అనుమ": 2856,
      "##క్రమా": 2857,
      "ఎంతో": 2858,
      "తాము": 2859,
      "ప్రై": 2860,
      "రిలీజ్": 2861,
      "జే": 2862,
      "##జ్ర": 2863,
      "సుప్రీ": 2864,
      "కొనుగోలు": 2865,
      "ప్రవేశ": 2866,
      "ఇంటర్": 2867,
      "ఆలోచ": 2868,
      "##ండ్ల": 2869,
      "స్పష్టం": 2870,
      "##‌‌‌‌‌‌‌‌‌‌‌‌‌‌‌‌‌‌‌‌‌‌‌‌‌‌‌‌‌‌‌‌‌‌‌‌‌‌‌‌‌‌‌‌‌‌‌‌‌‌‌‌‌‌‌‌‌‌‌‌‌‌‌‌‌‌‌‌‌‌‌‌‌‌‌‌‌‌‌‌‌‌‌‌‌‌‌‌‌‌‌‌‌‌‌‌‌‌‌‌‌‌‌‌‌‌‌‌‌‌‌‌‌‌‌‌‌‌‌‌‌‌‌‌‌‌‌‌‌‌‌‌‌‌‌‌‌‌‌‌‌‌‌‌‌‌‌‌‌‌‌‌‌‌‌‌‌‌‌‌‌‌‌‌‌‌‌‌‌‌‌‌‌‌‌‌‌‌‌‌‌‌‌‌‌‌‌‌‌‌‌‌‌‌‌‌‌‌‌‌‌‌‌‌‌‌‌‌‌‌‌‌‌‌‌‌‌‌‌‌‌‌‌‌‌‌‌‌‌‌‌‌‌‌‌‌‌‌‌‌‌‌‌‌‌‌‌‌‌‌‌‌‌‌‌‌": 2871,
      "##‌లు": 2872,
      "##ర్స్": 2873,
      "క్రి": 2874,
      "##పాల": 2875,
      "ఉంటాయి": 2876,
      "ఆహ": 2877,
      "##న్య": 2878,
      "##రియా": 2879,
      "నాగ": 2880,
      "##దన్నారు": 2881,
      "##ీర్": 2882,
      "మండి": 2883,
      "పోరా": 2884,
      "రోడ్": 2885,
      "##నాల": 2886,
      "##ధులు": 2887,
      "అందుబాటు": 2888,
      "తరల": 2889,
      "##یا": 2890,
      "చెల్ల": 2891,
      "##వచ్చు": 2892,
      "##శే": 2893,
      "తెలుసుకు": 2894,
      "పర్": 2895,
      "తెర": 2896,
      "డాక్టర్": 2897,
      "సొంత": 2898,
      "##వాల": 2899,
      "##ేమ": 2900,
      "సమయం": 2901,
      "రాజీ": 2902,
      "పెళ్లి": 2903,
      "ప్రకటించారు": 2904,
      "బాధ": 2905,
      "##ాక": 2906,
      "తొల": 2907,
      "అక్": 2908,
      "##మూ": 2909,
      "##కోవడం": 2910,
      "మృతి": 2911,
      "పెట్టు": 2912,
      "##డులు": 2913,
      "వివిధ": 2914,
      "వరు": 2915,
      "అంతే": 2916,
      "సుప్రీం": 2917,
      "##బ్ర": 2918,
      "##ండర్": 2919,
      "ఫా": 2920,
      "##ష్య": 2921,
      "##మైంది": 2922,
      "మరియు": 2923,
      "##జన": 2924,
      "గ్రూ": 2925,
      "పోలింగ్": 2926,
      "##ప్తు": 2927,
      "స్వీ": 2928,
      "వేయ": 2929,
      "కార్యాల": 2930,
      "డైరెక్టర్": 2931,
      "##వంత": 2932,
      "##ించాడు": 2933,
      "##సెస్": 2934,
      "##తన": 2935,
      "పరుగులు": 2936,
      "ఇంత": 2937,
      "పాట": 2938,
      "జూన్": 2939,
      "బస్సు": 2940,
      "సీనియర్": 2941,
      "##స్క": 2942,
      "వ్యాఖ్యలు": 2943,
      "##ించడానికి": 2944,
      "నరే": 2945,
      "##కింగ్": 2946,
      "##ండీ": 2947,
      "ముందుకు": 2948,
      "ప్రమాదం": 2949,
      "అవసర": 2950,
      "##డమే": 2951,
      "సేవ": 2952,
      "మరణ": 2953,
      "ప్లే": 2954,
      "లక్ష్": 2955,
      "కాల్": 2956,
      "21": 2957,
      "అడి": 2958,
      "##ినట్లు": 2959,
      "##ండ్రి": 2960,
      "వీరి": 2961,
      "##బీసీ": 2962,
      "ఆట": 2963,
      "ఆత్మ": 2964,
      "##మ్స్": 2965,
      "సర్వే": 2966,
      "##గిరి": 2967,
      "గంటలకు": 2968,
      "##క్త": 2969,
      "వ్యవస్థ": 2970,
      "ఇబ్బ": 2971,
      "ప్రమాద": 2972,
      "ప్రముఖ": 2973,
      "శుక్రవారం": 2974,
      "##ికల్": 2975,
      "మండల": 2976,
      "##ద్యా": 2977,
      "##ళ్ళ": 2978,
      "##తను": 2979,
      "##రులు": 2980,
      "నిర్వహి": 2981,
      "##పరి": 2982,
      "నిర్వహించారు": 2983,
      "##ెట్టి": 2984,
      "##‌తో": 2985,
      "బుధ": 2986,
      "జైలు": 2987,
      "నిజ": 2988,
      "##స్తుందని": 2989,
      "కూటమి": 2990,
      "##్రియ": 2991,
      "అనేది": 2992,
      "సోమవారం": 2993,
      "వేదిక": 2994,
      "వైపు": 2995,
      "##ించా": 2996,
      "మంత్ర": 2997,
      "##ానీ": 2998,
      "పరిష్": 2999,
      "బాధి": 3000,
      "భూమి": 3001,
      "క్రికెట్": 3002,
      "ఫలిత": 3003,
      "ఇబ్బందు": 3004,
      "పోస్టు": 3005,
      "సంబంధించి": 3006,
      "##ెట్లు": 3007,
      "ఎన్నికలు": 3008,
      "##వుడ్": 3009,
      "ఎవ": 3010,
      "వివరించారు": 3011,
      "##ర్ట్": 3012,
      "కర": 3013,
      "మరోవైపు": 3014,
      "##నింగ్": 3015,
      "వాటిని": 3016,
      "దీనిపై": 3017,
      "పెట్టి": 3018,
      "కార్యక్రమా": 3019,
      "##పోవ": 3020,
      "దీనికి": 3021,
      "అభిప్ర": 3022,
      "టె": 3023,
      "యో": 3024,
      "జి": 3025,
      "ఫీ": 3026,
      "##ోత్స": 3027,
      "##పించారు": 3028,
      "ఎన్న": 3029,
      "అప్": 3030,
      "ముంబ": 3031,
      "నివే": 3032,
      "ఇజ్ర": 3033,
      "##ండ్ర": 3034,
      "##ారిటీ": 3035,
      "##ారాయణ": 3036,
      "##తికి": 3037,
      "పరిశీల": 3038,
      "కృ": 3039,
      "##ప్టె": 3040,
      "##లాండ్": 3041,
      "##‌ల": 3042,
      "అధినే": 3043,
      "జరిగే": 3044,
      "ఉంటుందని": 3045,
      "##రాల": 3046,
      "##టీసీ": 3047,
      "యాద": 3048,
      "కనిపించ": 3049,
      "పూజ": 3050,
      "బొ": 3051,
      "రాయ": 3052,
      "##ణీ": 3053,
      "బయటకు": 3054,
      "100": 3055,
      "##లియా": 3056,
      "రిజర్": 3057,
      "ఎయి": 3058,
      "మాన": 3059,
      "బాగా": 3060,
      "వరద": 3061,
      "సెల": 3062,
      "చేస్తే": 3063,
      "##సూ": 3064,
      "##పాల్": 3065,
      "రోజుల్లో": 3066,
      "వస్తున్న": 3067,
      "ప్రశ్నించారు": 3068,
      "అప్పు": 3069,
      "##నుక": 3070,
      "##పడిన": 3071,
      "బోర్": 3072,
      "##ప్షన్": 3073,
      "జె": 3074,
      "ఆరు": 3075,
      "సంక్ష": 3076,
      "##బె": 3077,
      "##వాళ": 3078,
      "కేసులు": 3079,
      "చేసేందుకు": 3080,
      "దర్యా": 3081,
      "దక్షి": 3082,
      "వస్తే": 3083,
      "##చూ": 3084,
      "దృష్టి": 3085,
      "##ంత్రం": 3086,
      "##తున్నారని": 3087,
      "##జె": 3088,
      "ఆదివారం": 3089,
      "##టై": 3090,
      "##స్వామి": 3091,
      "##రావ": 3092,
      "నమోద": 3093,
      "ఇజ్రాయ": 3094,
      "అర్థ": 3095,
      "ఆప": 3096,
      "తమిళ": 3097,
      "అద": 3098,
      "ప్రతిపక్ష": 3099,
      "అండ్": 3100,
      "కమ": 3101,
      "నేడు": 3102,
      "పేరుతో": 3103,
      "##గ్రహం": 3104,
      "తీసుకె": 3105,
      "##పురం": 3106,
      "40": 3107,
      "పంట": 3108,
      "##ంటో": 3109,
      "బ్ర": 3110,
      "ఒకే": 3111,
      "##ెబ్బ": 3112,
      "తప్పు": 3113,
      "##జ్ఞ": 3114,
      "అక్టో": 3115,
      "పాలన": 3116,
      "చైర్మన్": 3117,
      "##స్తాన్": 3118,
      "కవిత": 3119,
      "##ారాన్ని": 3120,
      "##రికొ": 3121,
      "##న్సిప": 3122,
      "మంగళవారం": 3123,
      "విస్త": 3124,
      "చెన్న": 3125,
      "శ్రీనివాస్": 3126,
      "##గల": 3127,
      "పేర్కొంది": 3128,
      "దర్యాప్తు": 3129,
      "మార్చి": 3130,
      "శరీ": 3131,
      "##ంగల్": 3132,
      "బంగారం": 3133,
      "రద్దు": 3134,
      "##రుపు": 3135,
      "రైతులు": 3136,
      "చీఫ్": 3137,
      "వాతావరణ": 3138,
      "చేయడానికి": 3139,
      "##దుపు": 3140,
      "ఆరోపణలు": 3141,
      "శనివారం": 3142,
      "##ొచ్చు": 3143,
      "##రుగా": 3144,
      "##హ్మ": 3145,
      "చేస": 3146,
      "##ంస": 3147,
      "##ళీ": 3148,
      "అక్రమ": 3149,
      "నగర్": 3150,
      "##ులను": 3151,
      "##వాల్సి": 3152,
      "ఎమ్మెల్సీ": 3153,
      "##రాజ్": 3154,
      "ఓటు": 3155,
      "సాయంత్రం": 3156,
      "ఫ్": 3157,
      "##సిటీ": 3158,
      "కేటాయ": 3159,
      "##బీఐ": 3160,
      "ఏర్పా": 3161,
      "##ళ్లకు": 3162,
      "అభిమాను": 3163,
      "ఇంట్లో": 3164,
      "ఓవర్": 3165,
      "విలువ": 3166,
      "కల్యా": 3167,
      "##హె": 3168,
      "##్రమ": 3169,
      "సంజయ్": 3170,
      "సహాయ": 3171,
      "##కపోవడంతో": 3172,
      "అంచనా": 3173,
      "##తులకు": 3174,
      "అయ్యారు": 3175,
      "అధినేత": 3176,
      "వయ": 3177,
      "ప్రస": 3178,
      "బీసీ": 3179,
      "చివరి": 3180,
      "##కృష్ణ": 3181,
      "##చ్చని": 3182,
      "డిసె": 3183,
      "కృష్ణ": 3184,
      "బ్రి": 3185,
      "ప్రయాణి": 3186,
      "శం": 3187,
      "##ీవుడ్": 3188,
      "##20": 3189,
      "##ర్ల": 3190,
      "తేదీన": 3191,
      "##రంగ": 3192,
      "##గూడ": 3193,
      "కొట్ట": 3194,
      "##పోయి": 3195,
      "పిటి": 3196,
      "23": 3197,
      "మండలం": 3198,
      "చేశారని": 3199,
      "##ar": 3200,
      "##్యూటీ": 3201,
      "జరుగుతున్న": 3202,
      "పార్టీకి": 3203,
      "సెప్టె": 3204,
      "నడు": 3205,
      "ముగ్గు": 3206,
      "##హన్": 3207,
      "పోస్ట్": 3208,
      "##ణంలో": 3209,
      "దక్క": 3210,
      "సహా": 3211,
      "విశాఖ": 3212,
      "##కూడ": 3213,
      "##్యంగా": 3214,
      "##తులను": 3215,
      "తది": 3216,
      "##ాలనే": 3217,
      "తగ్": 3218,
      "##జిక": 3219,
      "##సుప": 3220,
      "##షా": 3221,
      "##త్వం": 3222,
      "రైలు": 3223,
      "##మ్మి": 3224,
      "##ికిత్స": 3225,
      "##ికా": 3226,
      "##నంగా": 3227,
      "కార్యక్రమంలో": 3228,
      "స్థానిక": 3229,
      "డ్రై": 3230,
      "##చారు": 3231,
      "శుభ": 3232,
      "##దర్శి": 3233,
      "సభ్యులు": 3234,
      "##డ్జ": 3235,
      "గే": 3236,
      "హు": 3237,
      "వివ": 3238,
      "##ించినట్లు": 3239,
      "##ళ్లలో": 3240,
      "##మిక": 3241,
      "##ితం": 3242,
      "##రికీ": 3243,
      "గురువారం": 3244,
      "##కులకు": 3245,
      "తయారు": 3246,
      "అత్యంత": 3247,
      "కళ్యా": 3248,
      "##తల": 3249,
      "నిజా": 3250,
      "అయినా": 3251,
      "అక్కడి": 3252,
      "విదేశ": 3253,
      "వంద": 3254,
      "సంతో": 3255,
      "నివేదిక": 3256,
      "ఎత్తు": 3257,
      "లాంటి": 3258,
      "విమర్శించారు": 3259,
      "##నియా": 3260,
      "##కపోతే": 3261,
      "మహిళా": 3262,
      "##న్లు": 3263,
      "అంగ": 3264,
      "##లేక": 3265,
      "##ర్మి": 3266,
      "వరకూ": 3267,
      "జరిగి": 3268,
      "సమస్యలు": 3269,
      "మాట్లాడారు": 3270,
      "పార్లమెంట్": 3271,
      "ఆసుప": 3272,
      "##ాలన్నారు": 3273,
      "విద్యా": 3274,
      "బీబీసీ": 3275,
      "పంపి": 3276,
      "నట": 3277,
      "##డవ": 3278,
      "##గాయి": 3279,
      "ఐపీ": 3280,
      "##ల్లోకి": 3281,
      "##ప్పుడ": 3282,
      "##ించారని": 3283,
      "పార్టీలో": 3284,
      "భారీగా": 3285,
      "మొదలు": 3286,
      "నిరసన": 3287,
      "గవర్": 3288,
      "##స్త్ర": 3289,
      "విధంగా": 3290,
      "##ించాలి": 3291,
      "##ళ్లను": 3292,
      "##పుణ": 3293,
      "నెలకొ": 3294,
      "##ట్రో": 3295,
      "లేని": 3296,
      "బిల్లు": 3297,
      "##బట్టి": 3298,
      "సింగ": 3299,
      "సిటీ": 3300,
      "అరెస్టు": 3301,
      "ఎదుర్కొ": 3302,
      "విక్ర": 3303,
      "గెలు": 3304,
      "చికిత్స": 3305,
      "ప్రాంతంలో": 3306,
      "##‌ని": 3307,
      "ప్రైవే": 3308,
      "భారతీయ": 3309,
      "##రియ": 3310,
      "##పం": 3311,
      "##ప్పి": 3312,
      "నిమి": 3313,
      "##శాల": 3314,
      "##న్నాడు": 3315,
      "##ద్దీ": 3316,
      "చేస్తామని": 3317,
      "##దేశం": 3318,
      "##ట్లను": 3319,
      "షర్మి": 3320,
      "బుధవారం": 3321,
      "అడ్డు": 3322,
      "##స్తున్నారని": 3323,
      "భక్తులు": 3324,
      "ఎక్కడ": 3325,
      "##‌గా": 3326,
      "##ಲ್ಲ": 3327,
      "28": 3328,
      "చైనా": 3329,
      "బంధ": 3330,
      "##బిత": 3331,
      "##ండె": 3332,
      "కాపా": 3333,
      "పది": 3334,
      "చేరు": 3335,
      "కావడంతో": 3336,
      "##ంపై": 3337,
      "నాకు": 3338,
      "తమకు": 3339,
      "గ్రామా": 3340,
      "##వుల": 3341,
      "ఆక": 3342,
      "నామ": 3343,
      "మున్సిప": 3344,
      "సాధారణ": 3345,
      "ట్యా": 3346,
      "##డ్జెట్": 3347,
      "యుద్ధ": 3348,
      "పర్యటన": 3349,
      "నరేంద్ర": 3350,
      "ఈసారి": 3351,
      "ప్రభావం": 3352,
      "టెక్": 3353,
      "##వాస": 3354,
      "పాఠ": 3355,
      "##ఖాస్తు": 3356,
      "చేసినట్లు": 3357,
      "##దులు": 3358,
      "##ప్రిల్": 3359,
      "ప్రకటించింది": 3360,
      "ఉపా": 3361,
      "کے": 3362,
      "ఏప్రిల్": 3363,
      "నవం": 3364,
      "##లిం": 3365,
      "దాఖ": 3366,
      "ప్రేమ": 3367,
      "ఖర్చు": 3368,
      "##ారులు": 3369,
      "దశ": 3370,
      "##ప్తి": 3371,
      "##గ్రత్త": 3372,
      "దెబ్బ": 3373,
      "ల్యా": 3374,
      "బాబు": 3375,
      "సమీప": 3376,
      "##ితంగా": 3377,
      "రోజులు": 3378,
      "వరుస": 3379,
      "##ఎఫ్": 3380,
      "పెట్టుకు": 3381,
      "తీసుకో": 3382,
      "అంతర్": 3383,
      "##‌ర్": 3384,
      "##టెన్": 3385,
      "##స్ట్రే": 3386,
      "ఎల": 3387,
      "విద్యుత్": 3388,
      "##డత": 3389,
      "ముఖ్యంగా": 3390,
      "కప్": 3391,
      "##ందం": 3392,
      "##నో": 3393,
      "కంట": 3394,
      "అడ్": 3395,
      "వరల్డ్": 3396,
      "డిప": 3397,
      "మందికి": 3398,
      "అసలు": 3399,
      "##್‌": 3400,
      "మెంట్": 3401,
      "వినియోగ": 3402,
      "అయి": 3403,
      "స్థాయిలో": 3404,
      "##సన్": 3405,
      "ఇవ్వాలని": 3406,
      "##సిడ": 3407,
      "పలువు": 3408,
      "పిటిషన్": 3409,
      "మెడ": 3410,
      "కార్మి": 3411,
      "బహి": 3412,
      "##ధ్యా": 3413,
      "ఆన": 3414,
      "ఎంప": 3415,
      "పదే": 3416,
      "భావ": 3417,
      "కళ్యాణ్": 3418,
      "యాక్": 3419,
      "భర్త": 3420,
      "కామెంట్": 3421,
      "బెయిల్": 3422,
      "సుప్రీంకోర్టు": 3423,
      "దర": 3424,
      "జిల్లాల్లో": 3425,
      "అంటున్నారు": 3426,
      "##డుక": 3427,
      "మండిపడ్డారు": 3428,
      "హక్కు": 3429,
      "జాగ్రత్త": 3430,
      "హాజర": 3431,
      "##హెచ్": 3432,
      "ఇండ": 3433,
      "నోటీ": 3434,
      "రికార్డు": 3435,
      "##చింది": 3436,
      "##వల్ల": 3437,
      "సూపర్": 3438,
      "క్వ": 3439,
      "##ండ్లు": 3440,
      "అవి": 3441,
      "అలాంటి": 3442,
      "##చ్చారు": 3443,
      "##స్తున్నట్లు": 3444,
      "హింద": 3445,
      "విమర్శలు": 3446,
      "స్వామి": 3447,
      "ఎంపిక": 3448,
      "తీర్పు": 3449,
      "ఖమ్మ": 3450,
      "సిరీ": 3451,
      "నటి": 3452,
      "##పూ": 3453,
      "దరఖాస్తు": 3454,
      "నూ": 3455,
      "పౌ": 3456,
      "వేగ": 3457,
      "వరంగల్": 3458,
      "##ొక": 3459,
      "##ీట్": 3460,
      "##మ్‌": 3461,
      "చేయాలి": 3462,
      "గ్రూప్": 3463,
      "నై": 3464,
      "లోక్": 3465,
      "##నాడు": 3466,
      "నష్ట": 3467,
      "బడ్జెట్": 3468,
      "##కోవాలని": 3469,
      "##టివ్": 3470,
      "ఉన్నట్లు": 3471,
      "##టిఫ": 3472,
      "##మిత్": 3473,
      "##స్థాన్": 3474,
      "పూర్తిగా": 3475,
      "ధరలు": 3476,
      "##గారు": 3477,
      "##కుమార్": 3478,
      "ఈరోజు": 3479,
      "షె": 3480,
      "విషయాన్ని": 3481,
      "ఇబ్బందులు": 3482,
      "کی": 3483,
      "చరి": 3484,
      "##య్యాయి": 3485,
      "ఆడ": 3486,
      "##నామా": 3487,
      "సామా": 3488,
      "##కంటే": 3489,
      "##గాల్లో": 3490,
      "ఎదురు": 3491,
      "##ంక్": 3492,
      "ఇంటికి": 3493,
      "ఫైన": 3494,
      "##డ్‌": 3495,
      "میں": 3496,
      "వెళ్లే": 3497,
      "మహారా": 3498,
      "వేడుక": 3499,
      "##మ్మడి": 3500,
      "2019": 3501,
      "తండ్రి": 3502,
      "##లన": 3503,
      "సమావేశం": 3504,
      "27": 3505,
      "డబ్బులు": 3506,
      "##ధాన్": 3507,
      "##గతి": 3508,
      "##్యాన్ని": 3509,
      "అవకాశాలు": 3510,
      "హరీ": 3511,
      "కోరు": 3512,
      "##ారన్నారు": 3513,
      "విజయవాడ": 3514,
      "బే": 3515,
      "##సింగ్": 3516,
      "##ష్ట్ర": 3517,
      "##జ్‌": 3518,
      "భయ": 3519,
      "##యన్స్": 3520,
      "క్ల": 3521,
      "##ారనే": 3522,
      "మూడో": 3523,
      "##ాప": 3524,
      "26": 3525,
      "అనుమా": 3526,
      "##కపోవడం": 3527,
      "##ంచే": 3528,
      "ట్రై": 3529,
      "చేసారు": 3530,
      "##డుతున్న": 3531,
      "స్పె": 3532,
      "సైతం": 3533,
      "ఇజ్రాయెల్": 3534,
      "కనీ": 3535,
      "ప్లాన్": 3536,
      "ఇంగ్": 3537,
      "వచ్చాయి": 3538,
      "ముంబై": 3539,
      "డిసెంబర్": 3540,
      "అక్టోబర్": 3541,
      "సెక": 3542,
      "వివే": 3543,
      "ఒకటి": 3544,
      "కురి": 3545,
      "ఆయనకు": 3546,
      "ఉండగా": 3547,
      "చేస్తు": 3548,
      "ఎక్స్": 3549,
      "లభ": 3550,
      "రూపొ": 3551,
      "చరిత్ర": 3552,
      "అదుపు": 3553,
      "మల్ల": 3554,
      "##ంగి": 3555,
      "కొద్ది": 3556,
      "##ించుకో": 3557,
      "చదు": 3558,
      "##పోయా": 3559,
      "##గ్రా": 3560,
      "దీన్ని": 3561,
      "##రించారు": 3562,
      "సెప్టెంబర్": 3563,
      "బృ": 3564,
      "సమర్": 3565,
      "ఫే": 3566,
      "పొత్తు": 3567,
      "ప్రేక్ష": 3568,
      "చేసుకున్నారు": 3569,
      "ప్యా": 3570,
      "##నిక": 3571,
      "జనవరి": 3572,
      "##ధ్యాహ్": 3573,
      "పట్టు": 3574,
      "ప్రయోజ": 3575,
      "లాభ": 3576,
      "##ఫె": 3577,
      "కాబట్టి": 3578,
      "జాబిత": 3579,
      "స్థానంలో": 3580,
      "చొ": 3581,
      "సమావేశంలో": 3582,
      "ఎందు": 3583,
      "పలువురు": 3584,
      "##వంటి": 3585,
      "అవినీ": 3586,
      "కార్పొ": 3587,
      "##ములు": 3588,
      "ప్రచార": 3589,
      "చెప్పిన": 3590,
      "కాలేజీ": 3591,
      "ఆగస్టు": 3592,
      "ఆస్ప": 3593,
      "మహా": 3594,
      "నిరు": 3595,
      "అనుకూ": 3596,
      "కల్యాణ్": 3597,
      "యాత్ర": 3598,
      "ఉచిత": 3599,
      "గణ": 3600,
      "సిద్ద": 3601,
      "సంప్ర": 3602,
      "ఆసక్తి": 3603,
      "ఎక్": 3604,
      "##ించనున్నారు": 3605,
      "విశ్వ": 3606,
      "ఇవాళ": 3607,
      "##ౌన్": 3608,
      "##ంటుంది": 3609,
      "##టువంటి": 3610,
      "##ంగ్స్": 3611,
      "##డ్స్": 3612,
      "పార్టీల": 3613,
      "తిరుమల": 3614,
      "సంక్షేమ": 3615,
      "తెలుసు": 3616,
      "విధాన": 3617,
      "అభిప్రాయ": 3618,
      "రోహి": 3619,
      "లేక": 3620,
      "ఆస్ట్రే": 3621,
      "నడి": 3622,
      "మద్య": 3623,
      "##ఖీ": 3624,
      "##కోవడానికి": 3625,
      "సామాజిక": 3626,
      "మధ్యాహ్": 3627,
      "##కార": 3628,
      "తీసుకొచ్చ": 3629,
      "ఉమ్మడి": 3630,
      "సంత": 3631,
      "##ష్ణ": 3632,
      "ఎన్టీఆర్": 3633,
      "##కొండ": 3634,
      "కన్": 3635,
      "అధికారి": 3636,
      "కార్యదర్శి": 3637,
      "ఐటీ": 3638,
      "##డ్యూ": 3639,
      "##‌న": 3640,
      "##ನ್": 3641,
      "##లియన్": 3642,
      "తీసుకున్నారు": 3643,
      "ఇబ్బంది": 3644,
      "లోక్‌": 3645,
      "##‌పై": 3646,
      "అప్పటి": 3647,
      "ఉత్తర": 3648,
      "##రమైన": 3649,
      "##నాథ్": 3650,
      "స్పష్ట": 3651,
      "కనిప": 3652,
      "పోలీసులకు": 3653,
      "వాయి": 3654,
      "##ందనే": 3655,
      "మనం": 3656,
      "##యంగా": 3657,
      "పార్టీలు": 3658,
      "ప్రాధాన్": 3659,
      "నవంబర్": 3660,
      "ఫ్ర": 3661,
      "వన్": 3662,
      "రాజీనామా": 3663,
      "అద్": 3664,
      "##ట్ర": 3665,
      "##al": 3666,
      "ఇచ్చింది": 3667,
      "పొంద": 3668,
      "పత్ర": 3669,
      "నీరు": 3670,
      "##ర్యంలో": 3671,
      "వ్యవస": 3672,
      "లెక్క": 3673,
      "ఎక": 3674,
      "##ట్లో": 3675,
      "##ప్టెన్": 3676,
      "ఎగ్": 3677,
      "వాళ్లు": 3678,
      "##ఎస్‌": 3679,
      "ఈడీ": 3680,
      "##రానికి": 3681,
      "##హీ": 3682,
      "##‌‌లో": 3683,
      "చేస్తారు": 3684,
      "సీట్లు": 3685,
      "##ండింగ్": 3686,
      "సబ్": 3687,
      "పారి": 3688,
      "##ప్‌": 3689,
      "లైన్": 3690,
      "అనుకు": 3691,
      "గుర్తి": 3692,
      "పండు": 3693,
      "వికెట్": 3694,
      "##రణ్": 3695,
      "కారణం": 3696,
      "యూనివర్": 3697,
      "షర్మిల": 3698,
      "##యాల్లో": 3699,
      "కామ": 3700,
      "కెప్టెన్": 3701,
      "31": 3702,
      "##సిక": 3703,
      "ఎన్నో": 3704,
      "ఎక్క": 3705,
      "చాల": 3706,
      "రష": 3707,
      "##ಿದ": 3708,
      "##దిరి": 3709,
      "తీరు": 3710,
      "అధికారిక": 3711,
      "బాధ్యత": 3712,
      "తెచ్చ": 3713,
      "మిగి": 3714,
      "భవి": 3715,
      "##ತ್": 3716,
      "##ద్దని": 3717,
      "##కేష్": 3718,
      "బండి": 3719,
      "నిబంధ": 3720,
      "##ద్దేశ": 3721,
      "సెంటర్": 3722,
      "మరికొ": 3723,
      "వది": 3724,
      "##ంశ": 3725,
      "##ఖ్యా": 3726,
      "##ంపల్లి": 3727,
      "500": 3728,
      "##భు": 3729,
      "##ల్ప": 3730,
      "తనను": 3731,
      "నిమిష": 3732,
      "కస్ట": 3733,
      "##ినేషన్": 3734,
      "##్వర్యంలో": 3735,
      "సీబీఐ": 3736,
      "సిరీస్": 3737,
      "##ఫా": 3738,
      "##ణంగా": 3739,
      "పేద": 3740,
      "వ్యాప్తంగా": 3741,
      "ఖమ్మం": 3742,
      "ఇచ్చి": 3743,
      "సర్వీ": 3744,
      "##ంక్ష": 3745,
      "##శ్ర": 3746,
      "క్యాప్షన్": 3747,
      "##కులను": 3748,
      "ఉత్ప": 3749,
      "వస్తుంది": 3750,
      "##ంబా": 3751,
      "##జూ": 3752,
      "విభా": 3753,
      "భవిష్య": 3754,
      "శక్తి": 3755,
      "##లిన": 3756,
      "గుండె": 3757,
      "కాలంలో": 3758,
      "##రింగ్": 3759,
      "##ంద్రా": 3760,
      "కమిషన్": 3761,
      "ఎవరు": 3762,
      "నిందితు": 3763,
      "##బూ": 3764,
      "తీవ్రంగా": 3765,
      "సూర్య": 3766,
      "ప్రయత్నం": 3767,
      "ముగ్గురు": 3768,
      "అరు": 3769,
      "##య్యా": 3770,
      "##ور": 3771,
      "కాదని": 3772,
      "##సాద్": 3773,
      "కలిగి": 3774,
      "ఆస్ట్రేలియా": 3775,
      "అందుబాటులో": 3776,
      "కోట్": 3777,
      "యాదవ్": 3778,
      "##ధాని": 3779,
      "##సార్లు": 3780,
      "నిర్వహించిన": 3781,
      "లోక్‌సభ": 3782,
      "##ాడని": 3783,
      "##భవ": 3784,
      "భే": 3785,
      "షో": 3786,
      "##నాన్ని": 3787,
      "స్పీ": 3788,
      "అమిత్": 3789,
      "సము": 3790,
      "తెలిసింది": 3791,
      "ఆధ్వర్యంలో": 3792,
      "జయ": 3793,
      "##జాతీయ": 3794,
      "మహిళలు": 3795,
      "##నున్నాయి": 3796,
      "వర్షం": 3797,
      "సత్య": 3798,
      "వ్యూ": 3799,
      "ట్వి": 3800,
      "##హత్య": 3801,
      "..?": 3802,
      "గ్యా": 3803,
      "ప్రో": 3804,
      "లేఖ": 3805,
      "చేయా": 3806,
      "రేపు": 3807,
      "పదవి": 3808,
      "నిపుణ": 3809,
      "సుమారు": 3810,
      "##ద్రా": 3811,
      "##‌ర": 3812,
      "##పాద": 3813,
      "##ెన్సీ": 3814,
      "నెలల": 3815,
      "క్రీ": 3816,
      "వెనుక": 3817,
      "సీపీ": 3818,
      "సినిమాలో": 3819,
      "ప్ర‌": 3820,
      "చేస్తున్నారని": 3821,
      "ధర్": 3822,
      "వ్యాపార": 3823,
      "##రగా": 3824,
      "కమిష": 3825,
      "ఒత్తి": 3826,
      "##షే": 3827,
      "##ఫిక్": 3828,
      "సంతోష": 3829,
      "అడ": 3830,
      "స్నే": 3831,
      "చదువు": 3832,
      "చూప": 3833,
      "తొలగ": 3834,
      "ఉండాలని": 3835,
      "రైతులకు": 3836,
      "ఆడి": 3837,
      "ఆమో": 3838,
      "కన": 3839,
      "##రవ": 3840,
      "##ండే": 3841,
      "##రేట్": 3842,
      "నియమ": 3843,
      "తిన": 3844,
      "ప్రభుత్వానికి": 3845,
      "##స్తాయని": 3846,
      "గుర్తించారు": 3847,
      "పొందు": 3848,
      "ఆత్మహత్య": 3849,
      "29": 3850,
      "##పడింది": 3851,
      "అంబ": 3852,
      "వివరాలు": 3853,
      "మధ్యాహ్నం": 3854,
      "కీ": 3855,
      "బ్లా": 3856,
      "##ఫర్": 3857,
      "వెన": 3858,
      "చెన్నై": 3859,
      "అంతర్జాతీయ": 3860,
      "##ాయింట్": 3861,
      "విషయ": 3862,
      "ప్రతిని": 3863,
      "తిరుపతి": 3864,
      "బ్రా": 3865,
      "##శు": 3866,
      "దాఖలు": 3867,
      "##ట్టే": 3868,
      "ఇచ్చే": 3869,
      "##లక్ష": 3870,
      "##ించాయి": 3871,
      "స్కా": 3872,
      "ఉన్నాయని": 3873,
      "##యింది": 3874,
      "##ంగు": 3875,
      "##వేత్త": 3876,
      "##మ్ము": 3877,
      "##ముల": 3878,
      "ఎల్": 3879,
      "అందరూ": 3880,
      "##టెడ్": 3881,
      "ట్వీట్": 3882,
      "చేస్తోంది": 3883,
      "వాళ్ల": 3884,
      "తీసుకోవాలని": 3885,
      "##తాయని": 3886,
      "మహారాష్ట్ర": 3887,
      "రోహిత్": 3888,
      "##వాల్సిన": 3889,
      "##ేశ్వర": 3890,
      "##రస్": 3891,
      "##్యో": 3892,
      "సీత": 3893,
      "ప్రక్రియ": 3894,
      "రిపో": 3895,
      "ఉద్దేశ": 3896,
      "సామ": 3897,
      "##గీ": 3898,
      "##ಿಯ": 3899,
      "##ళం": 3900,
      "##కౌ": 3901,
      "##దండ్ర": 3902,
      "##తుల్లో": 3903,
      "##ట్టిన": 3904,
      "విరా": 3905,
      "##గ్య": 3906,
      "రాష్ట్రాల్లో": 3907,
      "ఇన్‌": 3908,
      "##నంలో": 3909,
      "##సార్": 3910,
      "##గానికి": 3911,
      "నిరా": 3912,
      "##డ్డా": 3913,
      "అత్యధిక": 3914,
      "బరి": 3915,
      "##ار": 3916,
      "##కోవాలి": 3917,
      "##గొండ": 3918,
      "వెల్లడించింది": 3919,
      "##వని": 3920,
      "మద్యం": 3921,
      "రహ": 3922,
      "##ల్చి": 3923,
      "##ంపే": 3924,
      "ఇంజ": 3925,
      "##త్రికి": 3926,
      "##షణ": 3927,
      "##లేని": 3928,
      "పూర్త": 3929,
      "ఆగ్రహం": 3930,
      "కరీ": 3931,
      "తల్లిదండ్ర": 3932,
      "##కరి": 3933,
      "బహిరంగ": 3934,
      "అద్భు": 3935,
      "జరుపు": 3936,
      "##పడే": 3937,
      "అతను": 3938,
      "##యిన": 3939,
      "##ان": 3940,
      "##ంహ": 3941,
      "రాజు": 3942,
      "షేర్": 3943,
      "##ఫు": 3944,
      "కురు": 3945,
      "లేద": 3946,
      "మారి": 3947,
      "##ంభ": 3948,
      "చేస్తుంది": 3949,
      "స్థి": 3950,
      "##వారికి": 3951,
      "నర్": 3952,
      "##ra": 3953,
      "వెబ్": 3954,
      "##ౌండ్": 3955,
      "..!": 3956,
      "మెద": 3957,
      "తగ్గి": 3958,
      "##లాల": 3959,
      "##ించడంతో": 3960,
      "కోహ్": 3961,
      "హాజరు": 3962,
      "ఎప్పుడ": 3963,
      "గమ": 3964,
      "అనుమతి": 3965,
      "##నాలను": 3966,
      "##పోయాయి": 3967,
      "##యోగం": 3968,
      "పాకిస్తాన్": 3969,
      "##వాసం": 3970,
      "##ಲ್ಲಿ": 3971,
      "వేసి": 3972,
      "సీఐ": 3973,
      "##ూర్తి": 3974,
      "మెగా": 3975,
      "ఆధారంగా": 3976,
      "##రాల్లో": 3977,
      "సంఘం": 3978,
      "దిశ": 3979,
      "బ్యాంక్": 3980,
      "నిన్న": 3981,
      "ఫోటో": 3982,
      "రుణ": 3983,
      "##ోధ": 3984,
      "సభలో": 3985,
      "జన్": 3986,
      "పర": 3987,
      "##వల్": 3988,
      "##ఖర్": 3989,
      "భేటీ": 3990,
      "ప్రీ": 3991,
      "సీజన్": 3992,
      "కిలోమీ": 3993,
      "ఎయిర్": 3994,
      "##గ్రీ": 3995,
      "వాదన": 3996,
      "జిల్లాలోని": 3997,
      "##హ్వా": 3998,
      "ఆదేశించారు": 3999,
      "##స్తోందని": 4000,
      "##లింది": 4001,
      "రష్యా": 4002,
      "##టన్": 4003,
      "##నున్నట్లు": 4004,
      "60": 4005,
      "ہے": 4006,
      "ఏడు": 4007,
      "##స్తారని": 4008,
      "సమాధ": 4009,
      "షూ": 4010,
      "లోకేష్": 4011,
      "మేం": 4012,
      "అంతేకా": 4013,
      "##వాలు": 4014,
      "##ారానికి": 4015,
      "దిగు": 4016,
      "విజయ్": 4017,
      "ప్రతీ": 4018,
      "చూసి": 4019,
      "రావడం": 4020,
      "వడ్": 4021,
      "అర్హ": 4022,
      "రూపాయలు": 4023,
      "##ನ್ನ": 4024,
      "క్యూ": 4025,
      "##గత": 4026,
      "ఆలోచన": 4027,
      "##ణ్య": 4028,
      "పంపిణీ": 4029,
      "##సిడెంట్": 4030,
      "శర్మ": 4031,
      "##రుగ": 4032,
      "వేదికగా": 4033,
      "గుర్తింపు": 4034,
      "##లవ": 4035,
      "ప్రె": 4036,
      "##టిల్": 4037,
      "##పులు": 4038,
      "##వేషన్": 4039,
      "##బోయే": 4040,
      "భో": 4041,
      "విద్యార్థులు": 4042,
      "ఏర్పాట్లు": 4043,
      "35": 4044,
      "షాక్": 4045,
      "##వాన్ని": 4046,
      "పోష": 4047,
      "సంప్రద": 4048,
      "హాస్": 4049,
      "ఫ్యాన్స్": 4050,
      "కరీం": 4051,
      "పట్ల": 4052,
      "అవార్డు": 4053,
      "సరైన": 4054,
      "గిరి": 4055,
      "##రాజు": 4056,
      "భు": 4057,
      "##ద్రి": 4058,
      "వ్యతిరేక": 4059,
      "అప్ర": 4060,
      "హ్యా": 4061,
      "##తోందని": 4062,
      "##ారావు": 4063,
      "##ెక్ట": 4064,
      "##ండియా": 4065,
      "2022": 4066,
      "##ంగ్లా": 4067,
      "కల్పించ": 4068,
      "ప్రయత్ని": 4069,
      "చార్": 4070,
      "ఓడి": 4071,
      "సినీ": 4072,
      "నిద్ర": 4073,
      "##కరించారు": 4074,
      "45": 4075,
      "##వార్": 4076,
      "నేషనల్": 4077,
      "##వేల": 4078,
      "క్రితం": 4079,
      "##మర్": 4080,
      "##ెక్ట్": 4081,
      "తరలి": 4082,
      "టార్": 4083,
      "##తరులు": 4084,
      "##ేష్": 4085,
      "##డింగ్": 4086,
      "##ధీ": 4087,
      "##ంచు": 4088,
      "సర్కార్": 4089,
      "బంగ్లా": 4090,
      "దుర్": 4091,
      "దేవ": 4092,
      "మార్పులు": 4093,
      "చౌ": 4094,
      "##ంచ్": 4095,
      "##ంలోనే": 4096,
      "##ద్యో": 4097,
      "##ట్టింది": 4098,
      "##టానికి": 4099,
      "ఫిబ్ర": 4100,
      "పెట్టారు": 4101,
      "మంత్రులు": 4102,
      "##ొక్క": 4103,
      "##హాలు": 4104,
      "చెప్పింది": 4105,
      "రూపాయల": 4106,
      "హను": 4107,
      "కాన్": 4108,
      "##ానా": 4109,
      "అయింది": 4110,
      "ఎమ్మెల్యేలు": 4111,
      "##దారులు": 4112,
      "కృషి": 4113,
      "ఆహ్వా": 4114,
      "##హన": 4115,
      "వ్యాఖ్యా": 4116,
      "##రిని": 4117,
      "కుమారు": 4118,
      "అగ్ర": 4119,
      "##ఫ్ర": 4120,
      "కూడిన": 4121,
      "రైతుల": 4122,
      "తిరుగు": 4123,
      "ప్రారంభించారు": 4124,
      "భారతదేశ": 4125,
      "హౌ": 4126,
      "సెంట": 4127,
      "హెచ్": 4128,
      "శ్రే": 4129,
      "##డప": 4130,
      "##తమైన": 4131,
      "కొండ": 4132,
      "ఉండాలి": 4133,
      "##సారిగా": 4134,
      "సంవత్సరం": 4135,
      "దక్షిణ": 4136,
      "##స్తులు": 4137,
      "##ణానికి": 4138,
      "అదన": 4139,
      "##తకు": 4140,
      "ఉన్నా": 4141,
      "##శ్చి": 4142,
      "దారు": 4143,
      "సృష్ట": 4144,
      "##రింది": 4145,
      "##గులు": 4146,
      "ఎవరూ": 4147,
      "అవినీతి": 4148,
      "రాష్ట్రం": 4149,
      "ఆఫీసర్": 4150,
      "కనీసం": 4151,
      "ఇక్క": 4152,
      "##ఫ్ట్": 4153,
      "##జం": 4154,
      "గుజ": 4155,
      "ప్రశ్న": 4156,
      "పిల్లలు": 4157,
      "వచ్చారు": 4158,
      "వీర": 4159,
      "##షియల్": 4160,
      "సంఘటన": 4161,
      "##సులో": 4162,
      "సంగతి": 4163,
      "ఇవి": 4164,
      "##ంటాయి": 4165,
      "అయ్యింది": 4166,
      "బ్యాంకు": 4167,
      "మంజ": 4168,
      "##ಂದ": 4169,
      "##లిక్": 4170,
      "రాలే": 4171,
      "ఆర్టీసీ": 4172,
      "ఒక్కో": 4173,
      "ఫిబ్రవరి": 4174,
      "రాజ్": 4175,
      "పరిశోధ": 4176,
      "##ికేషన్": 4177,
      "##ట్రి": 4178,
      "బోర్డు": 4179,
      "యూనివర్సిటీ": 4180,
      "ఆన్": 4181,
      "పుష్": 4182,
      "##వ్వు": 4183,
      "ట్రాఫిక్": 4184,
      "##్రీన్": 4185,
      "దేశం": 4186,
      "అవుతుంది": 4187,
      "ఖాళీ": 4188,
      "సల": 4189,
      "##‌‌‌‌లో": 4190,
      "సీటు": 4191,
      "వెళ్లిన": 4192,
      "న్యూస్": 4193,
      "వ్యతిరేకంగా": 4194,
      "చాలామ": 4195,
      "##వ్యూ": 4196,
      "కాంట": 4197,
      "000": 4198,
      "##ైల్": 4199,
      "నుంచే": 4200,
      "ఐపీఎల్": 4201,
      "గూ": 4202,
      "కొడుకు": 4203,
      "గవర్నర్": 4204,
      "జడ్": 4205,
      "##త్యా": 4206,
      "##క్ట్": 4207,
      "విశ్": 4208,
      "##వరం": 4209,
      "ఉద్యమ": 4210,
      "ఇరు": 4211,
      "వారం": 4212,
      "ప్రదర్శ": 4213,
      "బాగు": 4214,
      "##స్వామ": 4215,
      "వాయిదా": 4216,
      "కోహ్లీ": 4217,
      "తని": 4218,
      "##దైనా": 4219,
      "##కోసం": 4220,
      "ఒప్ప": 4221,
      "##ృతి": 4222,
      "ప్రశా": 4223,
      "పరిధిలో": 4224,
      "ఇష్ట": 4225,
      "నలుగు": 4226,
      "వేశారు": 4227,
      "##థి": 4228,
      "##ad": 4229,
      "రామ్": 4230,
      "అంతా": 4231,
      "re": 4232,
      "##లూ": 4233,
      "##in": 4234,
      "కూతు": 4235,
      "##ట్నం": 4236,
      "##ాలంటూ": 4237,
      "కావడం": 4238,
      "నియోజకవర్గంలో": 4239,
      "స్కూల్": 4240,
      "గుజరా": 4241,
      "చాలామంది": 4242,
      "మంట": 4243,
      "రవి": 4244,
      "సాయం": 4245,
      "##సర్లు": 4246,
      "స్టా": 4247,
      "తరలించారు": 4248,
      "పట్టుకు": 4249,
      "ఫె": 4250,
      "##య్యే": 4251,
      "##ائ": 4252,
      "మిగ": 4253,
      "అర్థం": 4254,
      "##రై": 4255,
      "స్క": 4256,
      "పాత": 4257,
      "రాజధాని": 4258,
      "ప్రారంభం": 4259,
      "జాబితా": 4260,
      "సెక్ర": 4261,
      "##ులై": 4262,
      "##పడుతుంది": 4263,
      "సాయి": 4264,
      "##తుండ": 4265,
      "చెప్": 4266,
      "హాస్పి": 4267,
      "నీళ్లు": 4268,
      "శిక్ష": 4269,
      "##లైన్": 4270,
      "పార్లమె": 4271,
      "వ్యవసాయ": 4272,
      "ఖాన్": 4273,
      "ఆయా": 4274,
      "##వెన్": 4275,
      "##er": 4276,
      "ప్రాణ": 4277,
      "చూసిన": 4278,
      "ప్రజలను": 4279,
      "కార్యకర్తలు": 4280,
      "సముద్ర": 4281,
      "##సరి": 4282,
      "ఆదాయం": 4283,
      "ఓట్లు": 4284,
      "##తున్నట్లు": 4285,
      "ఆహార": 4286,
      "కరీంనగర్": 4287,
      "ఇన్ని": 4288,
      "లక్షలు": 4289,
      "త్వరలో": 4290,
      "బంధు": 4291,
      "##ಾರ": 4292,
      "##శ్చ": 4293,
      "##హాన్ని": 4294,
      "లబ్": 4295,
      "వాడ": 4296,
      "నియోజకవర్గం": 4297,
      "##ట్యూ": 4298,
      "విభ": 4299,
      "లోప": 4300,
      "##ించుకున్నారు": 4301,
      "కామెంట్స్": 4302,
      "ముస్": 4303,
      "##ఎంసీ": 4304,
      "నష్టం": 4305,
      "##ాయు": 4306,
      "నిధులు": 4307,
      "డిప్యూటీ": 4308,
      "షెడ్యూ": 4309,
      "మహబూ": 4310,
      "ఖాతా": 4311,
      "నిరుద్యో": 4312,
      "పండుగ": 4313,
      "రాజ్యా": 4314,
      "##కరించ": 4315,
      "ఉత్తర్": 4316,
      "##రవే": 4317,
      "బ్యాటింగ్": 4318,
      "##ించుకున్న": 4319,
      "మున్సిపల్": 4320,
      "నాయుడు": 4321,
      "అమరావ": 4322,
      "ప్రయత్నాలు": 4323,
      "చూపి": 4324,
      "##ర్చి": 4325,
      "చెంద": 4326,
      "అల్లు": 4327,
      "దళ": 4328,
      "ఫస్ట్": 4329,
      "##స్తానని": 4330,
      "తీసుకుని": 4331,
      "##ల్లే": 4332,
      "##న్నే": 4333,
      "##యాత్ర": 4334,
      "వేళ": 4335,
      "##ల్లం": 4336,
      "##ాలనుకు": 4337,
      "కిషన్": 4338,
      "పిలుపు": 4339,
      "రిజి": 4340,
      "కొత్తగా": 4341,
      "చేపట్టారు": 4342,
      "రూపొందించ": 4343,
      "ప‌": 4344,
      "##یک": 4345,
      "పెరిగి": 4346,
      "పున": 4347,
      "నిర్మాణ": 4348,
      "తనిఖీ": 4349,
      "##ఢిల్లీ": 4350,
      "పరిగ": 4351,
      "మనో": 4352,
      "ఆదేశాలు": 4353,
      "స్వాధీ": 4354,
      "అగ్": 4355,
      "కార్డు": 4356,
      "గుజరాత్": 4357,
      "##ార్టీ": 4358,
      "##క్కర్": 4359,
      "ఒకరు": 4360,
      "##ాలిటీ": 4361,
      "ఎన్నికలకు": 4362,
      "మెజ": 4363,
      "న్యూఢిల్లీ": 4364,
      "\".": 4365,
      "హెల్": 4366,
      "ఎఫ్": 4367,
      "ముందే": 4368,
      "దాడులు": 4369,
      "ఆసి": 4370,
      "ఏమి": 4371,
      "వసూ": 4372,
      "రాశ": 4373,
      "##న్‌కు": 4374,
      "అభ్యర్థులు": 4375,
      "నిపుణులు": 4376,
      "జు": 4377,
      "పశ్చి": 4378,
      "ఎందుకంటే": 4379,
      "ఉంటారు": 4380,
      "అధి": 4381,
      "త్వరలోనే": 4382,
      "టార్గ": 4383,
      "##ఎన్": 4384,
      "##దావరి": 4385,
      "##డ్డికి": 4386,
      "పర్యా": 4387,
      "##య్యి": 4388,
      "##గ్గా": 4389,
      "నిర్వహణ": 4390,
      "మైన": 4391,
      "డిగ్రీ": 4392,
      "చేసుకుంది": 4393,
      "రిజర్వేషన్": 4394,
      "##చేశారు": 4395,
      "##మిండియా": 4396,
      "నెలలో": 4397,
      "జులై": 4398,
      "టీమిండియా": 4399,
      "సుర": 4400,
      "సోద": 4401,
      "ఎంట": 4402,
      "సద": 4403,
      "##పోయే": 4404,
      "##త్రం": 4405,
      "##వ్య": 4406,
      "ప్రస్తుత": 4407,
      "పరుగుల": 4408,
      "కాని": 4409,
      "##స్ట్ర": 4410,
      "నారాయణ": 4411,
      "##ార్డ్": 4412,
      "ముంద": 4413,
      "##ముందు": 4414,
      "##స్ట్రీ": 4415,
      "కౌన్సి": 4416,
      "డ్రగ్": 4417,
      "త్రి": 4418,
      "##ార్ట్": 4419,
      "పథకం": 4420,
      "బాధ్యతలు": 4421,
      "##నానికి": 4422,
      "2014": 4423,
      "అభిమానులు": 4424,
      "ఓటమి": 4425,
      "కేజ": 4426,
      "తీసుకుంట": 4427,
      "కుటుంబా": 4428,
      "విద్యార్థి": 4429,
      "పెంచు": 4430,
      "సార్లు": 4431,
      "తేడా": 4432,
      "కొనసాగ": 4433,
      "గౌడ్": 4434,
      "నామినేషన్": 4435,
      "స్వాధీనం": 4436,
      "టార్గెట్": 4437,
      "టెస్టు": 4438,
      "విగ్ర": 4439,
      "ఏక": 4440,
      "##వాహ": 4441,
      "టీ20": 4442,
      "ప్రమాణ": 4443,
      "ఇండియన్": 4444,
      "తమిళనాడు": 4445,
      "##ధుల": 4446,
      "##తె": 4447,
      "కుల": 4448,
      "కుటుంబం": 4449,
      "చిత్రం": 4450,
      "ఇప్పటివరకు": 4451,
      "లక్ష్మీ": 4452,
      "ఫార్": 4453,
      "##జున్": 4454,
      "అదుపులోకి": 4455,
      "ప్రాధాన్య": 4456,
      "ఏజ": 4457,
      "తగిన": 4458,
      "సారి": 4459,
      "అయో": 4460,
      "మౌ": 4461,
      "స్కో": 4462,
      "పెరగ": 4463,
      "సంఖ్యలో": 4464,
      "ప్రైవేట్": 4465,
      "ఏదైనా": 4466,
      "##th": 4467,
      "##జ్జ": 4468,
      "శ్రీవారి": 4469,
      "ఫుడ్": 4470,
      "##ನ್ನು": 4471,
      "##ంకర్": 4472,
      "శాంతి": 4473,
      "మృత": 4474,
      "నిర్మాణం": 4475,
      "##ష్ణో": 4476,
      "ఉండి": 4477,
      "రకాల": 4478,
      "##నాయ": 4479,
      "ఆటగా": 4480,
      "పాఠశాల": 4481,
      "##ాలీవుడ్": 4482,
      "##రుల": 4483,
      "##ంగం": 4484,
      "వేసిన": 4485,
      "సాం": 4486,
      "దానికి": 4487,
      "షి": 4488,
      "##నిఫ": 4489,
      "కాలం": 4490,
      "నోటీసులు": 4491,
      "గడు": 4492,
      "రాజే": 4493,
      "##ిల్స్": 4494,
      "##ఆర్‌": 4495,
      "టీమ్": 4496,
      "దొంగ": 4497,
      "اس": 4498,
      "అప": 4499,
      "అల్": 4500,
      "##కలు": 4501,
      "ప్రస్తా": 4502,
      "దాన్ని": 4503,
      "చుట్ట": 4504,
      "రచ": 4505,
      "##ెండ్": 4506,
      "##ుడి": 4507,
      "##రంజీ": 4508,
      "స్పెషల్": 4509,
      "ఓడ": 4510,
      "##ధా": 4511,
      "##హార్": 4512,
      "##ఠా": 4513,
      "గ్రామంలో": 4514,
      "##శేష": 4515,
      "కేజ్రీ": 4516,
      "##ట్టర్": 4517,
      "##త్తా": 4518,
      "రాష్ట్రాల": 4519,
      "చిరంజీ": 4520,
      "##చేసుకు": 4521,
      "చోట్ల": 4522,
      "కన్న": 4523,
      "తగ్గు": 4524,
      "థి": 4525,
      "రఘ": 4526,
      "వెళ": 4527,
      "పేపర్": 4528,
      "చెప్పుకొచ్చ": 4529,
      "డ్రైవర్": 4530,
      "హిందూ": 4531,
      "##ికె": 4532,
      "కోరుకు": 4533,
      "##సీబీ": 4534,
      "ఉన్నారని": 4535,
      "పంజా": 4536,
      "జర్": 4537,
      "##ರು": 4538,
      "ఫలితాలు": 4539,
      "అంగీ": 4540,
      "##ించగా": 4541,
      "పవర్": 4542,
      "వన": 4543,
      "బీజేపీకి": 4544,
      "##సో": 4545,
      "##డితే": 4546,
      "##యేషన్": 4547,
      "సందర్శ": 4548,
      "పురు": 4549,
      "##ందన్న": 4550,
      "##మాబాద్": 4551,
      "ఆలయ": 4552,
      "వినిపి": 4553,
      "స్పందించారు": 4554,
      "నేతల": 4555,
      "డెవల": 4556,
      "తదితరులు": 4557,
      "ఎలక్": 4558,
      "మృతదే": 4559,
      "క్యార": 4560,
      "గ్": 4561,
      "పరిశ్రమ": 4562,
      "రావడంతో": 4563,
      "చేపట్టిన": 4564,
      "పశ్చిమ": 4565,
      "##పున": 4566,
      "ముఖ": 4567,
      "##సేందుకు": 4568,
      "సెల్": 4569,
      "రిటై": 4570,
      "గ్రే": 4571,
      "అప్పగ": 4572,
      "కఠ": 4573,
      "చెయ్య": 4574,
      "##కర్స్": 4575,
      "##స్టే": 4576,
      "##on": 4577,
      "##ంచరీ": 4578,
      "##ళ్లుగా": 4579,
      "జనా": 4580,
      "పోలీసుల": 4581,
      "##చ్చితంగా": 4582,
      "కేర": 4583,
      "పెరిగింది": 4584,
      "రక్త": 4585,
      "నేరుగా": 4586,
      "కమిషనర్": 4587,
      "అట": 4588,
      "దాంతో": 4589,
      "##త్మక": 4590,
      "ఆటో": 4591,
      "##ంట్లు": 4592,
      "అవగా": 4593,
      "దేశవ్యాప్తంగా": 4594,
      "దూరంగా": 4595,
      "పర్యట": 4596,
      "బది": 4597,
      "పాద": 4598,
      "##దైన": 4599,
      "##చ్ఛ": 4600,
      "అధికారుల": 4601,
      "వార్త": 4602,
      "##లోనూ": 4603,
      "లోకి": 4604,
      "ఒత్తిడి": 4605,
      "టీటీ": 4606,
      "కల్ప": 4607,
      "చేసుకో": 4608,
      "టెస్ట్": 4609,
      "రక్షణ": 4610,
      "లభి": 4611,
      "##‌మ": 4612,
      "##್ರ": 4613,
      "##ెక్స్": 4614,
      "సంబంధం": 4615,
      "ముస్లిం": 4616,
      "రఘు": 4617,
      "##ళిక": 4618,
      "నాటికి": 4619,
      "తెలుగుదేశం": 4620,
      "గొప్ప": 4621,
      "సురే": 4622,
      "##న్‌ను": 4623,
      "లక్ష్యంగా": 4624,
      "హోం": 4625,
      "అప్పుడు": 4626,
      "కెమె": 4627,
      "అమ్మాయి": 4628,
      "నిబంధన": 4629,
      "అగ్ని": 4630,
      "గురి": 4631,
      "నగర": 4632,
      "మిగిలిన": 4633,
      "సికి": 4634,
      "ఉండటంతో": 4635,
      "మెడికల్": 4636,
      "కరో": 4637,
      "##చ్చిన": 4638,
      "చట్టం": 4639,
      "యాప్": 4640,
      "అనారో": 4641,
      "మంజూరు": 4642,
      "విడి": 4643,
      "మేనే": 4644,
      "##కాలం": 4645,
      "అటు": 4646,
      "విప": 4647,
      "సెంచరీ": 4648,
      "ఎస్సీ": 4649,
      "వెళ్లారు": 4650,
      "మిగతా": 4651,
      "కేరళ": 4652,
      "##బడు": 4653,
      "వికెట్లు": 4654,
      "బ్లాక్": 4655,
      "బదిలీ": 4656,
      "ఎవరి": 4657,
      "ఎన్డీ": 4658,
      "నల్ల": 4659,
      "బరువు": 4660,
      "##sh": 4661,
      "తెల్ల": 4662,
      "అధికారులకు": 4663,
      "సచి": 4664,
      "కాక": 4665,
      "వారిలో": 4666,
      "మరొక": 4667,
      "##ించాల్సి": 4668,
      "70": 4669,
      "దిన": 4670,
      "ధర్మ": 4671,
      "అంతకు": 4672,
      "199": 4673,
      "ఊహ": 4674,
      "##స్థాయి": 4675,
      "మేము": 4676,
      "సౌకర్": 4677,
      "కఠిన": 4678,
      "చక్క": 4679,
      "జస్టి": 4680,
      "మధు": 4681,
      "##కిల్": 4682,
      "స్టూడ": 4683,
      "##త్రిలో": 4684,
      "کو": 4685,
      "ఆల్": 4686,
      "మందు": 4687,
      "##మత్త": 4688,
      "జరుగుతోంది": 4689,
      "ఎండ": 4690,
      "గాలి": 4691,
      "నర": 4692,
      "##ఘా": 4693,
      "కొంతమంది": 4694,
      "ఢిల్లీలో": 4695,
      "నారా": 4696,
      "పొడి": 4697,
      "##డెన్": 4698,
      "శాస్త్ర": 4699,
      "##ల్యూ": 4700,
      "##లాలు": 4701,
      "సంస్థలు": 4702,
      "80": 4703,
      "##ంపులు": 4704,
      "కనిపిస్తోంది": 4705,
      "అప్రమత్త": 4706,
      "టో": 4707,
      "మహిళల": 4708,
      "సిద్ధం": 4709,
      "న్యాయం": 4710,
      "ఆవి": 4711,
      "##రాశి": 4712,
      "మార్చ": 4713,
      "ముందుగా": 4714,
      "##ತ್ತ": 4715,
      "##ూరి": 4716,
      "రాజ్య": 4717,
      "అధికారులను": 4718,
      "వన్డే": 4719,
      "ధ్వ": 4720,
      "కాస్త": 4721,
      "గుడ్": 4722,
      "పరిస్థితులు": 4723,
      "అవగాహన": 4724,
      "బూ": 4725,
      "మోసం": 4726,
      "పురుష": 4727,
      "డాల": 4728,
      "చేయడంతో": 4729,
      "సునీ": 4730,
      "జరుగుతుంది": 4731,
      "వ్యవహార": 4732,
      "##ంద్రాబాద్": 4733,
      "నటు": 4734,
      "ఆమెను": 4735,
      "టీటీడీ": 4736,
      "##ారంటూ": 4737,
      "##వింద్": 4738,
      "##స్టా": 4739,
      "##వేళ": 4740,
      "చెప్పి": 4741,
      "సికింద్రాబాద్": 4742,
      "##రని": 4743,
      "##త్‌": 4744,
      "ప్రొఫె": 4745,
      "ప్రెసిడెంట్": 4746,
      "కను": 4747,
      "##ధర్": 4748,
      "అధ్యయ": 4749,
      "గొడవ": 4750,
      "ప్రభుత్వాన్ని": 4751,
      "చిరంజీవి": 4752,
      "వేగంగా": 4753,
      "పడ్డ": 4754,
      "భద్రా": 4755,
      "వేలు": 4756,
      "##పాడు": 4757,
      "మీటింగ్": 4758,
      "కలిపి": 4759,
      "గెలుపు": 4760,
      "సరఫ": 4761,
      "స్నేహి": 4762,
      "నాయక": 4763,
      "చేయనున్నారు": 4764,
      "చూపు": 4765,
      "డేటా": 4766,
      "భద్రత": 4767,
      "ఏకంగా": 4768,
      "##ాయా": 4769,
      "##ಾಗ": 4770,
      "##తోపాటు": 4771,
      "మీకు": 4772,
      "చిరు": 4773,
      "ప్రకటించిన": 4774,
      "టాప్": 4775,
      "గడి": 4776,
      "సార": 4777,
      "వేసింది": 4778,
      "బిజె": 4779,
      "ప్రత్యేకంగా": 4780,
      "##పోయాడు": 4781,
      "##ఫ్రికా": 4782,
      "కాంట్రా": 4783,
      "థియే": 4784,
      "ధీ": 4785,
      "##ుకున్న": 4786,
      "##డర్లు": 4787,
      "రాష్ట్రంలోని": 4788,
      "సినిమ": 4789,
      "జనరల్": 4790,
      "ఆరోగ్యం": 4791,
      "నిజామాబాద్": 4792,
      "పండ": 4793,
      "సాధ్య": 4794,
      "తిరుమ": 4795,
      "పక్కన": 4796,
      "విజ్ఞ": 4797,
      "చెక్": 4798,
      "గోదావరి": 4799,
      "##తారని": 4800,
      "##యాలని": 4801,
      "చెల్లి": 4802,
      "ప్రయత్నించ": 4803,
      "రంగా": 4804,
      "##లాది": 4805,
      "జరిప": 4806,
      "ఎప్పుడూ": 4807,
      "##నిమి": 4808,
      "##కున్నారు": 4809,
      "پر": 4810,
      "అకౌ": 4811,
      "రమ": 4812,
      "వాస్త": 4813,
      "స్థానికులు": 4814,
      "##ష్ణోగ్ర": 4815,
      "పడే": 4816,
      "భి": 4817,
      "##బద్ధ": 4818,
      "హీరోయిన్": 4819,
      "వీటిని": 4820,
      "##ంక్షలు": 4821,
      "ఉష్ణోగ్ర": 4822,
      "ఎర్ర": 4823,
      "##రె": 4824,
      "##మిలీ": 4825,
      "హోదా": 4826,
      "ఆశ్ర": 4827,
      "##ులతో": 4828,
      "నిర్మి": 4829,
      "చేస్తున్నట్లు": 4830,
      "నోటిఫ": 4831,
      "తయారీ": 4832,
      "నెట్": 4833,
      "##కాన్ని": 4834,
      "##కాంత్": 4835,
      "##వంతంగా": 4836,
      "వివేక్": 4837,
      "నల్": 4838,
      "మల్": 4839,
      "సక్": 4840,
      "##ెయిన్": 4841,
      "##చె": 4842,
      "సీట్ల": 4843,
      "తరఫు": 4844,
      "కేటాయి": 4845,
      "హెచ్చరించారు": 4846,
      "పరిధిలోని": 4847,
      "కార్యకర్త": 4848,
      "అవసరమైన": 4849,
      "ఒడి": 4850,
      "లను": 4851,
      "##یو": 4852,
      "లోక": 4853,
      "దర్శకుడు": 4854,
      "75": 4855,
      "2018": 4856,
      "హరీశ్": 4857,
      "బంగ్లాదేశ్": 4858,
      "అయోధ్య": 4859,
      "##ాయతీ": 4860,
      "##డుతున్నారు": 4861,
      "రోజులుగా": 4862,
      "##టికల్": 4863,
      "కావాలని": 4864,
      "తీసుకెళ్ల": 4865,
      "##యాన్": 4866,
      "ఉండటం": 4867,
      "వస్తుందని": 4868,
      "ఎత్తున": 4869,
      "##ారన్న": 4870,
      "##ికీ": 4871,
      "విశేష": 4872,
      "చెరువు": 4873,
      "అధ్యక్షు": 4874,
      "పడింది": 4875,
      "##ల్లె": 4876,
      "##లంక": 4877,
      "చేసుకుని": 4878,
      "కిలోమీటర్ల": 4879,
      "వ్యాఖ్యానించారు": 4880,
      "జ్యో": 4881,
      "టే": 4882,
      "ఢీ": 4883,
      "కేంద్రంలో": 4884,
      "రోజున": 4885,
      "తొమ్మి": 4886,
      "ఇరా": 4887,
      "పబ్": 4888,
      "చేసినా": 4889,
      "మెట్రో": 4890,
      "పెట్టిన": 4891,
      "##శేఖర్": 4892,
      "##యిత": 4893,
      "##ించలేదు": 4894,
      "##లేకపో": 4895,
      "##వేదన": 4896,
      "వరుసగా": 4897,
      "స్పీకర్": 4898,
      "క్లా": 4899,
      "##స్క్": 4900,
      "అందరికీ": 4901,
      "అయ్యాయి": 4902,
      "నియోజకవర్గ": 4903,
      "##కూడదు": 4904,
      "పార్లమెంటు": 4905,
      "గ్యార": 4906,
      "##హారం": 4907,
      "##am": 4908,
      "##ెస్టో": 4909,
      "ఏఐ": 4910,
      "##న్నె": 4911,
      "##‌‌‌‌‌‌‌‌లో": 4912,
      "##ప్పున": 4913,
      "లీడర్": 4914,
      "ఎన్‌": 4915,
      "కుట్ర": 4916,
      "మెరుగు": 4917,
      "ఎస్పీ": 4918,
      "సంవత్సరాల": 4919,
      "భావిస్తున్నారు": 4920,
      "విలువైన": 4921,
      "ఎటువంటి": 4922,
      "##ందన": 4923,
      "అధికారం": 4924,
      "కార్యక్రమం": 4925,
      "##వులను": 4926,
      "మొబ": 4927,
      "##మీర్": 4928,
      "బాలిక": 4929,
      "##రక": 4930,
      "##లిస్తే": 4931,
      "అయ్యే": 4932,
      "పద్": 4933,
      "##మన్": 4934,
      "నిషే": 4935,
      "సంపాద": 4936,
      "లిక్కర్": 4937,
      "అర్జున్": 4938,
      "న్యాయవా": 4939,
      "సర్కారు": 4940,
      "సరఫరా": 4941,
      "##రమ": 4942,
      "##జేశారు": 4943,
      "##మిత": 4944,
      "చేయగా": 4945,
      "భాష": 4946,
      "వాతావర": 4947,
      "టెక్నాల": 4948,
      "ఎక్స్‌": 4949,
      "##ైన్": 4950,
      "##భూ": 4951,
      "తీసుకుంది": 4952,
      "చొప్పున": 4953,
      "భవ": 4954,
      "ర్యా": 4955,
      "##గడ్డ": 4956,
      "##మైనా": 4957,
      "ఉత్స": 4958,
      "##కాలను": 4959,
      "సెక్షన్": 4960,
      "##దీప్": 4961,
      "ఆమెకు": 4962,
      "స్థానాల్లో": 4963,
      "ప్రయాణ": 4964,
      "సంచలన": 4965,
      "##ికే": 4966,
      "శాసన": 4967,
      "మోహన్": 4968,
      "డీకే": 4969,
      "నల్గొండ": 4970,
      "బ్రే": 4971,
      "##దుగా": 4972,
      "రంగు": 4973,
      "నెలకొంది": 4974,
      "అస్": 4975,
      "ఘన": 4976,
      "రవా": 4977,
      "##یڈ": 4978,
      "##మాలు": 4979,
      "మీడియాతో": 4980,
      "ఇప్పటికీ": 4981,
      "##పడుతున్న": 4982,
      "##త్వంలో": 4983,
      "టిక్క": 4984,
      "కుక్క": 4985,
      "##ించిందని": 4986,
      "మేకర్స్": 4987,
      "##నిఫెస్టో": 4988,
      "డా": 4989,
      "##తాలు": 4990,
      "స్కీ": 4991,
      "##స్తున్నాడు": 4992,
      "##స్తున్నామని": 4993,
      "##కరమైన": 4994,
      "##కాలంలో": 4995,
      "##హ్మద్": 4996,
      "మ‌": 4997,
      "##పెట్టి": 4998,
      "##ాలన్న": 4999,
      "##వానికి": 5000,
      "##డాన్ని": 5001,
      "బయలు": 5002,
      "##‌‌‌‌‌‌‌‌‌‌‌‌‌‌‌‌‌‌‌‌‌‌‌‌‌‌‌‌‌‌‌‌‌‌‌‌‌‌‌‌‌‌‌‌‌‌‌‌‌‌‌‌‌‌‌‌‌‌‌‌‌‌‌‌‌‌‌‌‌‌‌‌‌‌‌‌‌‌‌‌‌‌‌‌‌‌‌‌‌‌‌‌‌‌‌‌‌‌‌‌‌‌‌‌‌‌‌‌‌‌‌‌‌‌‌‌‌‌‌‌‌‌‌‌‌‌‌‌‌‌‌‌‌‌‌‌‌‌‌‌‌‌‌‌‌‌‌‌‌‌‌‌‌‌‌‌‌‌‌‌‌‌‌‌‌‌‌‌‌‌‌‌‌‌‌‌‌‌‌‌‌‌‌‌‌‌‌‌‌‌‌‌‌‌‌‌‌‌‌‌‌‌‌‌‌‌‌‌‌‌‌‌‌‌‌‌‌‌‌‌‌‌‌‌‌‌‌‌‌‌‌‌‌‌‌‌‌‌‌‌‌‌‌‌‌‌‌‌‌‌‌‌‌‌‌‌‌‌‌‌‌‌‌‌‌‌‌‌‌‌‌‌‌‌‌‌‌‌‌‌‌‌‌‌‌‌‌‌‌‌‌‌‌‌‌‌‌‌‌‌‌‌‌‌‌‌‌‌‌‌‌‌‌‌‌‌‌‌‌‌‌‌‌‌‌‌‌‌‌‌‌‌‌‌‌‌‌‌‌‌‌‌‌‌‌‌‌‌‌‌‌‌‌‌‌‌‌‌‌‌‌‌‌‌‌‌‌‌‌‌‌‌‌‌‌‌‌‌‌‌‌‌‌‌‌‌‌‌‌‌‌‌‌‌‌‌‌‌‌‌‌‌‌‌‌‌‌‌‌‌‌‌‌‌‌‌‌‌‌‌‌‌‌‌‌‌‌‌‌‌‌‌‌‌‌‌‌‌‌‌‌‌‌‌‌‌‌‌‌‌‌‌‌‌‌‌‌‌‌‌‌‌‌‌‌‌‌‌‌‌‌‌‌‌‌‌‌‌‌‌‌‌‌‌‌‌‌‌‌‌‌‌‌‌‌‌‌‌‌‌‌‌‌‌‌‌‌‌‌‌‌‌": 5003,
      "షూటింగ్": 5004,
      "వల": 5005,
      "ప్రసాద్": 5006,
      "చేర్చ": 5007,
      "రానున్న": 5008,
      "##రాత్రి": 5009,
      "సంప": 5010,
      "అభిన": 5011,
      "బిజెపి": 5012,
      "డబుల్": 5013,
      "##్వే": 5014,
      "విచారణకు": 5015,
      "##మయ్యారు": 5016,
      "కరోనా": 5017,
      "దృష్ట": 5018,
      "పార్టీని": 5019,
      "2021": 5020,
      "ఎదుర": 5021,
      "మ్యూ": 5022,
      "##రత్": 5023,
      "##గలి": 5024,
      "##స్తాం": 5025,
      "దేశాల": 5026,
      "మహిళలకు": 5027,
      "వార్తలు": 5028,
      "షెడ్యూల్": 5029,
      "కేజ్రీవాల్": 5030,
      "టెక్నాలజీ": 5031,
      "##లానికి": 5032,
      "మానసిక": 5033,
      "ఇండస్ట్రీ": 5034,
      "టోర్": 5035,
      "నాడు": 5036,
      "##ార్జు": 5037,
      "##చ్చే": 5038,
      "##స్తీ": 5039,
      "మాకు": 5040,
      "##పాటి": 5041,
      "##స్థానం": 5042,
      "##ించేలా": 5043,
      "చుట్టూ": 5044,
      "భీ": 5045,
      "##స్‌‌": 5046,
      "వ్యక్తులు": 5047,
      "సమస్యలను": 5048,
      "చర్చలు": 5049,
      "నలుగురు": 5050,
      "జనాభా": 5051,
      "బహు": 5052,
      "##షీ": 5053,
      "##రాజ": 5054,
      "క్రికె": 5055,
      "కోర్టులో": 5056,
      "పిల్లల": 5057,
      "నంబర్": 5058,
      "రక్ష": 5059,
      "వేధి": 5060,
      "స్పంది": 5061,
      "బిడ్డ": 5062,
      "వయసు": 5063,
      "##್ದ": 5064,
      "##ర్యాల": 5065,
      "సంబంధిత": 5066,
      "##బోతున్న": 5067,
      "ఫైనల్": 5068,
      "నోటిఫికేషన్": 5069,
      "తరహా": 5070,
      "కల్పి": 5071,
      "క్లి": 5072,
      "పట్టణ": 5073,
      "సమీక్ష": 5074,
      "బయలుదే": 5075,
      "ఆవేదన": 5076,
      "పలిక": 5077,
      "##బిన": 5078,
      "##కుంటే": 5079,
      "##రామ": 5080,
      "బాలీవుడ్": 5081,
      "దారి": 5082,
      "##నగ": 5083,
      "స్టో": 5084,
      "సక్సెస్": 5085,
      "రవాణా": 5086,
      "జల": 5087,
      "##నారాయణ": 5088,
      "##క్తిక": 5089,
      "##పింగ్": 5090,
      "జన్మ": 5091,
      "ఫర్": 5092,
      "##గితే": 5093,
      "ప్రాజెక్ట్": 5094,
      "ట్విట్టర్": 5095,
      "డ్యా": 5096,
      "##నలి": 5097,
      "##యాల": 5098,
      "ప్రణా": 5099,
      "ముఖ్యమైన": 5100,
      "బౌలింగ్": 5101,
      "##బినెట్": 5102,
      "##ెక్కి": 5103,
      "ట్రంప్": 5104,
      "స్టేడి": 5105,
      "##బడిన": 5106,
      "రెడీ": 5107,
      "లేదన్నారు": 5108,
      "పరిచ": 5109,
      "నాయకుడు": 5110,
      "##ఎస్పీ": 5111,
      "పూజలు": 5112,
      "సెంట్ర": 5113,
      "ఓప": 5114,
      "క‌": 5115,
      "టాలీవుడ్": 5116,
      "విరు": 5117,
      "##ెట్ల": 5118,
      "నాయకు": 5119,
      "ఫ్యామిలీ": 5120,
      "##ట్లే": 5121,
      "##టిక్": 5122,
      "నాని": 5123,
      "కాలనీ": 5124,
      "శంకర్": 5125,
      "కామారెడ్డి": 5126,
      "హాస్పిటల్": 5127,
      "నొ": 5128,
      "##ంసం": 5129,
      "##ధం": 5130,
      "##ఫో": 5131,
      "##ందర": 5132,
      "నెటి": 5133,
      "కెరీ": 5134,
      "హయా": 5135,
      "##్యూని": 5136,
      "సినిమాలు": 5137,
      "మొదట": 5138,
      "کر": 5139,
      "ఎకర": 5140,
      "జీవితంలో": 5141,
      "##కస్": 5142,
      "##ఆర్ఎస్": 5143,
      "సూచి": 5144,
      "ఇటీవ": 5145,
      "ప్రియా": 5146,
      "నియంత్ర": 5147,
      "ఉద్యోగులు": 5148,
      "అందుబాటులోకి": 5149,
      "దిశగా": 5150,
      "డ్రా": 5151,
      "పక్ష": 5152,
      "##ాయన్నారు": 5153,
      "##వాళ్లు": 5154,
      "వాటర్": 5155,
      "సాను": 5156,
      "వర్గాలు": 5157,
      "మిషన్": 5158,
      "సాధించిన": 5159,
      "ప్రభాకర్": 5160,
      "రజ": 5161,
      "##್ಯ": 5162,
      "పట్టించుకో": 5163,
      "కార్పొరేషన్": 5164,
      "al": 5165,
      "ఎగు": 5166,
      "నార్": 5167,
      "మను": 5168,
      "##జిన": 5169,
      "కానుంది": 5170,
      "హైడ": 5171,
      "నెరవే": 5172,
      "వెళ్లా": 5173,
      "పెద్దగా": 5174,
      "వివరాలను": 5175,
      "ఉందన్నారు": 5176,
      "##దర": 5177,
      "నగదు": 5178,
      "##ంజ్": 5179,
      "##ర్ఘ": 5180,
      "సీసీ": 5181,
      "జీవ": 5182,
      "ఆకట్టుకు": 5183,
      "పంజాబ్": 5184,
      "ఛార్": 5185,
      "##ప్ల": 5186,
      "పరీక్షలు": 5187,
      "ఉత్పత్తి": 5188,
      "ఖాయ": 5189,
      "దశా": 5190,
      "పరిణ": 5191,
      "నాటి": 5192,
      "గ్రహ": 5193,
      "ఉద్యోగం": 5194,
      "అమరావతి": 5195,
      "ఈసీ": 5196,
      "##ఎస్సీ": 5197,
      "జర": 5198,
      "##ెత్త": 5199,
      "##లైన": 5200,
      "##ال": 5201,
      "##మానం": 5202,
      "ప్రాణాలు": 5203,
      "వ్యవహర": 5204,
      "ఫైర్": 5205,
      "ఆపరేషన్": 5206,
      "అనుకూలంగా": 5207,
      "జనం": 5208,
      "##ీయ": 5209,
      "##తుండగా": 5210,
      "ఒకవేళ": 5211,
      "ఇవ్వడం": 5212,
      "దూరం": 5213,
      "##గ్రామ్": 5214,
      "##విడ్": 5215,
      "##పోయినా": 5216,
      "దర్శక": 5217,
      "ఉపాధ్య": 5218,
      "భవిష్యత్తు": 5219,
      "ప్రెస్": 5220,
      "చేతిలో": 5221,
      "##స్తోన్న": 5222,
      "ఎనిమి": 5223,
      "మత": 5224,
      "శ్రీలంక": 5225,
      "భర్తీ": 5226,
      "సమాధానం": 5227,
      "పిలుపుని": 5228,
      "కొనసాగి": 5229,
      "##ట్రిక్": 5230,
      "ఎప్పుడు": 5231,
      "ఐదే": 5232,
      "మిన": 5233,
      "##మన్నారు": 5234,
      "దాడు": 5235,
      "##ినేని": 5236,
      "స్టూడెంట్": 5237,
      "##పట్నం": 5238,
      "##గాన్ని": 5239,
      "##ష్ణు": 5240,
      "అసో": 5241,
      "దశాబ్": 5242,
      "##కల": 5243,
      "##ాల్సిన": 5244,
      "చెల": 5245,
      "ఉద్యోగ": 5246,
      "అక్కడే": 5247,
      "కలుగు": 5248,
      "##మాని": 5249,
      "##్యానికి": 5250,
      "తెలియజే": 5251,
      "##గూడెం": 5252,
      "##దార్": 5253,
      "##పాయ": 5254,
      "##వసర": 5255,
      "మొక్క": 5256,
      "చంప": 5257,
      "రద్దీ": 5258,
      "##ಿಸ": 5259,
      "నియా": 5260,
      "ట్రాన్స్": 5261,
      "పంచాయతీ": 5262,
      "అలీ": 5263,
      "##ేత్ర": 5264,
      "వెండి": 5265,
      "##మితి": 5266,
      "##జిట్": 5267,
      "యూపీ": 5268,
      "##ంటున్నారని": 5269,
      "తీసుకోవడం": 5270,
      "సన్ని": 5271,
      "##ାର": 5272,
      "చేరారు": 5273,
      "కోర": 5274,
      "##పాదన": 5275,
      "గెలిచిన": 5276,
      "నిలిచింది": 5277,
      "ఛా": 5278,
      "##బల్": 5279,
      "##ర్ణ": 5280,
      "ఆయు": 5281,
      "జ్యోతి": 5282,
      "90": 5283,
      "ధో": 5284,
      "##వతి": 5285,
      "##రుడు": 5286,
      "అవుతోంది": 5287,
      "ఆసక్తిక": 5288,
      "డ్రగ్స్": 5289,
      "ప్రాధాన్యత": 5290,
      "##ీత": 5291,
      "##యని": 5292,
      "##ంతర": 5293,
      "పాక్": 5294,
      "చూస్తే": 5295,
      "రాజమ": 5296,
      "ఎవరైనా": 5297,
      "33": 5298,
      "వాల": 5299,
      "##ెట్టు": 5300,
      "చూపించ": 5301,
      "స్టేట్": 5302,
      "##ార్జున": 5303,
      "పాయింట్": 5304,
      "##ెర": 5305,
      "##పడుతున్నారు": 5306,
      "##ళ్ళు": 5307,
      "సాధారణంగా": 5308,
      "మణి": 5309,
      "వస": 5310,
      "##షన్స్": 5311,
      "నియోజకవర్గాల్లో": 5312,
      "##ేశ్వరం": 5313,
      "సమీపంలో": 5314,
      "అకౌంట్": 5315,
      "ఏదో": 5316,
      "మల": 5317,
      "రవీ": 5318,
      "వంశ": 5319,
      "##చారాన్ని": 5320,
      "##సింహ": 5321,
      "##నీయ": 5322,
      "ప్రణాళిక": 5323,
      "కోస": 5324,
      "నిర్లక్ష": 5325,
      "పుస్త": 5326,
      "మొదలుపెట్ట": 5327,
      "ఆడియన్స్": 5328,
      "ఇంది": 5329,
      "ఓట్ల": 5330,
      "##at": 5331,
      "పెండింగ్": 5332,
      "దేవు": 5333,
      "క్రా": 5334,
      "##వాన్": 5335,
      "##ల్లోనే": 5336,
      "మొదలైంది": 5337,
      "రాజ్యసభ": 5338,
      "##ಿಕ": 5339,
      "##కునే": 5340,
      "##పిక్": 5341,
      "##ెంట్లు": 5342,
      "వైద్యులు": 5343,
      "హెచ్చరిక": 5344,
      "బాధితు": 5345,
      "అదానీ": 5346,
      "అశ్వ": 5347,
      "వందే": 5348,
      "##ంఛ": 5349,
      "వేసుకు": 5350,
      "ఆహారం": 5351,
      "గ్రామానికి": 5352,
      "ఎంట్రీ": 5353,
      "రచయిత": 5354,
      "ఇస్తామని": 5355,
      "##ವು": 5356,
      "ఆఫీసర్లు": 5357,
      "ఉపాధి": 5358,
      "జంట": 5359,
      "##పరమైన": 5360,
      "##రాన్ని": 5361,
      "సెంట్రల్": 5362,
      "ఘో": 5363,
      "రెండే": 5364,
      "స్థానం": 5365,
      "##్యాలీ": 5366,
      "کا": 5367,
      "##ళా": 5368,
      "##దానికి": 5369,
      "అంచనాలు": 5370,
      "వంట": 5371,
      "##దర్": 5372,
      "##ఖ్": 5373,
      "##్రూ": 5374,
      "కుంభ": 5375,
      "రేప": 5376,
      "చేయాల్సి": 5377,
      "కుమారుడు": 5378,
      "థియేటర్": 5379,
      "ప్రమో": 5380,
      "కాంగ్రెస్‌": 5381,
      "చిక్కు": 5382,
      "దానిపై": 5383,
      "ఆకర్": 5384,
      "ఫ్రీ": 5385,
      "ప్రయాణం": 5386,
      "##నకు": 5387,
      "నియామ": 5388,
      "దంప": 5389,
      "##లర్లు": 5390,
      "పెన్": 5391,
      "నేతృ": 5392,
      "సరిహ": 5393,
      "వాతావరణం": 5394,
      ").": 5395,
      "గట్టి": 5396,
      "##కుని": 5397,
      "ముని": 5398,
      "##ట్టారు": 5399,
      "భూము": 5400,
      "అవుతున్న": 5401,
      "చిత్రా": 5402,
      "క్లారిటీ": 5403,
      "మెదక్": 5404,
      "ఇన్నింగ్స్": 5405,
      "సరిహద్దు": 5406,
      "ప్రశ": 5407,
      "##దేవి": 5408,
      "ఉద్యోగాలు": 5409,
      "సిద్ధంగా": 5410,
      "##క్ష్మి": 5411,
      "##ేశ్వర్": 5412,
      "కరెంట్": 5413,
      "ప్రచారంలో": 5414,
      "చెప్పుకొచ్చారు": 5415,
      "నినా": 5416,
      "##ట్రా": 5417,
      "సైన్": 5418,
      "ప్రమాదంలో": 5419,
      "రుణమా": 5420,
      "పాదయాత్ర": 5421,
      "మొబైల్": 5422,
      "పరిణామ": 5423,
      "టౌన్": 5424,
      "##చో": 5425,
      "##క్టర్": 5426,
      "##చ్చింది": 5427,
      "హీరోగా": 5428,
      "ఆరా": 5429,
      "రౌ": 5430,
      "##న్సర్": 5431,
      "##ిత్ర": 5432,
      "కుప్ప": 5433,
      "##తానికి": 5434,
      "అవకాశము": 5435,
      "అధికారంలో": 5436,
      "అభ్యర్థుల": 5437,
      "చోటుచేసుకు": 5438,
      "తరఫున": 5439,
      "##లికి": 5440,
      "##కరించిన": 5441,
      "లక్ష్య": 5442,
      "##ణాన్ని": 5443,
      "అందరి": 5444,
      "దక్షిణా": 5445,
      "లబ్ధి": 5446,
      "కెరీర్": 5447,
      "అండగా": 5448,
      "##వాద": 5449,
      "గుడి": 5450,
      "##జింగ్": 5451,
      "దిగారు": 5452,
      "విషయంపై": 5453,
      "నిలిచి": 5454,
      "పరిశీలించారు": 5455,
      "సెక్రటరీ": 5456,
      "గల": 5457,
      "తేల్": 5458,
      "బరిలోకి": 5459,
      "ఫ్రా": 5460,
      "##ందాం": 5461,
      "చెందు": 5462,
      "టీచర్": 5463,
      "రాజస్థాన్": 5464,
      "ప్రశ్నించ": 5465,
      "కంపెనీలు": 5466,
      "కొనసాగుతోంది": 5467,
      "ఆదాయ": 5468,
      "అంతేకాదు": 5469,
      "##లెట్": 5470,
      "##స్‌ను": 5471,
      "హనుమ": 5472,
      "రుణమాఫీ": 5473,
      "నంద": 5474,
      "బలంగా": 5475,
      "##యేట్": 5476,
      "కమ్యూని": 5477,
      "జరిగిందని": 5478,
      "టాక్": 5479,
      "వహ": 5480,
      "మీదుగా": 5481,
      "##త్యం": 5482,
      "సైబర్": 5483,
      "అదనపు": 5484,
      "పుష్ప": 5485,
      "ద్ర": 5486,
      "##బే": 5487,
      "##రామయ్య": 5488,
      "దిగ": 5489,
      "హిట్": 5490,
      "ఫుల్": 5491,
      "ధాన్": 5492,
      "ర్యాలీ": 5493,
      "##గాలను": 5494,
      "అయ్యా": 5495,
      "మేనిఫెస్టో": 5496,
      "ఘటనలో": 5497,
      "బౌలర్": 5498,
      "పరిగణ": 5499,
      "سے": 5500,
      "نے": 5501,
      "ఇందుకు": 5502,
      "బస్": 5503,
      "రెడ్డికి": 5504,
      "గుంటూ": 5505,
      "##దారుల": 5506,
      "##ృహ": 5507,
      "లీడర్లు": 5508,
      "చూడాలి": 5509,
      "##ెక్టరేట్": 5510,
      "హయాంలో": 5511,
      "భట్టి": 5512,
      "వ‌": 5513,
      "##ర్చ్": 5514,
      "నివ": 5515,
      "కొట్టి": 5516,
      "##మోహన్": 5517,
      "కలిగ": 5518,
      "ఆఫీస్": 5519,
      "##ంటోంది": 5520,
      "##శో": 5521,
      "##మాన": 5522,
      "చేశామని": 5523,
      "వర్మ": 5524,
      "నిర్ణయాలు": 5525,
      "పరిస్థితుల్లో": 5526,
      "తదితర": 5527,
      "ముందస్తు": 5528,
      "జస్టిస్": 5529,
      "##మార": 5530,
      "##ೆಯ": 5531,
      "సిద్ది": 5532,
      "దీనిని": 5533,
      "గౌర": 5534,
      "త్వరగా": 5535,
      "శ్ర": 5536,
      "నిలు": 5537,
      "##నెల": 5538,
      "చేరిన": 5539,
      "ఓపెన్": 5540,
      "##డిపి": 5541,
      "సాధి": 5542,
      "అనుకున్న": 5543,
      "##వికి": 5544,
      "##లాబాద్": 5545,
      "##పోటు": 5546,
      "బిగ్": 5547,
      "వాహన": 5548,
      "55": 5549,
      "వల్లే": 5550,
      "##వడం": 5551,
      "##ri": 5552,
      "##ికొ": 5553,
      "##ాయో": 5554,
      "##రిటీ": 5555,
      "అనుభ": 5556,
      "అనుచ": 5557,
      "ప్రొఫెసర్": 5558,
      "36": 5559,
      "బ్": 5560,
      "విపక్ష": 5561,
      "బ్యాక్": 5562,
      "పద్ధ": 5563,
      "##నిక్": 5564,
      "చెప్పే": 5565,
      "ఉండదు": 5566,
      "##ుకున్నారు": 5567,
      "తప్పని": 5568,
      "దానిని": 5569,
      "అంబే": 5570,
      "##ంపేట": 5571,
      "ప్రశాంత్": 5572,
      "300": 5573,
      "తప్పుడు": 5574,
      "భవన్": 5575,
      "వస్తున్నాయి": 5576,
      "##కోవచ్చు": 5577,
      "భూక": 5578,
      "కెన": 5579,
      "చేరుకున్న": 5580,
      "నీటిని": 5581,
      "వసూలు": 5582,
      "గర్భ": 5583,
      "##కారు": 5584,
      "##పణ": 5585,
      "##ేజ్": 5586,
      "కోచ్": 5587,
      "దేశంలోని": 5588,
      "తొలగి": 5589,
      "నన్ను": 5590,
      "##గుణంగా": 5591,
      "##పెద్ద": 5592,
      "కళా": 5593,
      "అలవా": 5594,
      "కార్యక్రమాలు": 5595,
      "నూతన": 5596,
      "##డె": 5597,
      "నిల్": 5598,
      "వర్గాల": 5599,
      "##జిక్": 5600,
      "పదార్థ": 5601,
      "జరగనుంది": 5602,
      "కోట్లకు": 5603,
      "గుంటూరు": 5604,
      "అబ్": 5605,
      "##ాల్సి": 5606,
      "##ఖండ్": 5607,
      "ఉన్నప్పుడు": 5608,
      "తాగు": 5609,
      "అభ్యర్": 5610,
      "వద్దకు": 5611,
      "తుది": 5612,
      "మానవ": 5613,
      "అలర్": 5614,
      "##క్టరీ": 5615,
      "##ష్ఠ": 5616,
      "##పోతున్న": 5617,
      "మోస": 5618,
      "జగిత": 5619,
      "ఒక్కసారిగా": 5620,
      "హౌస్": 5621,
      "అద్ద": 5622,
      "గ్రీన్": 5623,
      "##రిసి": 5624,
      "వివాదం": 5625,
      "తల్లిదండ్రులు": 5626,
      "37": 5627,
      "దృ": 5628,
      "బాలు": 5629,
      "హార్": 5630,
      "##ంబు": 5631,
      "కేబినెట్": 5632,
      "విదేశీ": 5633,
      "##వెన్యూ": 5634,
      "##ంకు": 5635,
      "##తామని": 5636,
      "##el": 5637,
      "రెవెన్యూ": 5638,
      "##ట్టుగా": 5639,
      "పెద్దపల్లి": 5640,
      "వ్యవహరి": 5641,
      "ఎడ": 5642,
      "సన్": 5643,
      "##ోభ": 5644,
      "##మ్రా": 5645,
      "మేర": 5646,
      "పిలి": 5647,
      "##తూనే": 5648,
      "నిర్వహించ": 5649,
      "దర్శనం": 5650,
      "పన్ను": 5651,
      "##లభ": 5652,
      "##మటి": 5653,
      "##en": 5654,
      "##ర్లను": 5655,
      "సినిమాకు": 5656,
      "విద్యార్థులకు": 5657,
      "ఇక్కడి": 5658,
      "అసోసి": 5659,
      "అసి": 5660,
      "##మిన": 5661,
      "##రిత": 5662,
      "కాలు": 5663,
      "వారిపై": 5664,
      "ఎస్టీ": 5665,
      "ప్రవేశపెట్ట": 5666,
      "రిజిస్ట్ర": 5667,
      "32": 5668,
      "ఖరారు": 5669,
      "యజ": 5670,
      "హర్": 5671,
      "నిర్ధ": 5672,
      "పుట్టిన": 5673,
      "వచ్చిందని": 5674,
      "బైక్": 5675,
      "ఉగ్ర": 5676,
      "సవాల్": 5677,
      "##ించినా": 5678,
      "మాట్లాడిన": 5679,
      "విమానా": 5680,
      "బట్టి": 5681,
      "##గమ": 5682,
      "##ట్‌లో": 5683,
      "##పోర్ట్": 5684,
      "రెడ్డిని": 5685,
      "పోరాటం": 5686,
      "అటవీ": 5687,
      "ఆశ్రయ": 5688,
      "గడ్": 5689,
      "##కలా": 5690,
      "పెట్రో": 5691,
      "##లేటి": 5692,
      "##కేజీ": 5693,
      "డివి": 5694,
      "వృద్ధ": 5695,
      "పాకిస్థాన్": 5696,
      "కుటుంబానికి": 5697,
      "రిటైర్": 5698,
      "తూర్": 5699,
      "పసు": 5700,
      "హమా": 5701,
      "##మికి": 5702,
      "##తోనే": 5703,
      "##యోగి": 5704,
      "వైస్": 5705,
      "##్యూరిటీ": 5706,
      "హాట్": 5707,
      "రాజకీయాలు": 5708,
      "వ్యక్తిగత": 5709,
      "విరాట్": 5710,
      "జర్నలి": 5711,
      "కదా": 5712,
      "నది": 5713,
      "##ಗೆ": 5714,
      "సురక్ష": 5715,
      "సిద్దిపేట": 5716,
      "జగిత్యాల": 5717,
      "ఇస": 5718,
      "##ొద్దని": 5719,
      "##వెల్": 5720,
      "##ఢ్": 5721,
      "ప్రవీ": 5722,
      "టీవీ": 5723,
      "మందిని": 5724,
      "విధానం": 5725,
      "తొలిసారి": 5726,
      "వంశీ": 5727,
      "in": 5728,
      "##ರ್": 5729,
      "##వరీ": 5730,
      "##ళ్లే": 5731,
      "లేవు": 5732,
      "హైదరాబాద్‌": 5733,
      "##‌ర‌": 5734,
      "స‌": 5735,
      "రాక": 5736,
      "రోజూ": 5737,
      "ఆయనను": 5738,
      "##శ్మీర్": 5739,
      "గెలిచి": 5740,
      "భద్రతా": 5741,
      "కార్యాలయంలో": 5742,
      "అన్": 5743,
      "బంతు": 5744,
      "##మొ": 5745,
      "##చల్": 5746,
      "##ించని": 5747,
      "కాళ": 5748,
      "##ాయితీ": 5749,
      "##లేదన్నారు": 5750,
      "జరిగాయి": 5751,
      "జూలై": 5752,
      "అన్నీ": 5753,
      "సింగరే": 5754,
      "యుద్ధం": 5755,
      "బృందం": 5756,
      "##టప్పుడు": 5757,
      "##నై": 5758,
      "##వెంట్": 5759,
      "తేలింది": 5760,
      "##ర్‌ను": 5761,
      "మంచిది": 5762,
      "రాశుల": 5763,
      "ధీమా": 5764,
      "ఖై": 5765,
      "ప్రదేశ": 5766,
      "అందజే": 5767,
      "ప్రేక్షకుల": 5768,
      "##రెన్స్": 5769,
      "##యడం": 5770,
      "అభ్యర్థిగా": 5771,
      "పెట్టుబడి": 5772,
      "కంట్రో": 5773,
      "ఏరియా": 5774,
      "##క్య": 5775,
      "##రాలి": 5776,
      "##so": 5777,
      "##కెక్క": 5778,
      "రాష్ట్రానికి": 5779,
      "##وں": 5780,
      "రాశారు": 5781,
      "డిజ": 5782,
      "గాజా": 5783,
      "యాజ": 5784,
      "ఆరోపి": 5785,
      "ప్రభావిత": 5786,
      "కర్నూ": 5787,
      "తక్కువగా": 5788,
      "ప్రవీణ్": 5789,
      "కట్టు": 5790,
      "##ରେ": 5791,
      "##గాలకు": 5792,
      "##లేరు": 5793,
      "కిడ్": 5794,
      "సాధించింది": 5795,
      "వీడియోను": 5796,
      "##ించుకోవడం": 5797,
      "పర్యవే": 5798,
      "కూతురు": 5799,
      "విజ్ఞప్తి": 5800,
      "కామె": 5801,
      "##నేది": 5802,
      "కుమార్తె": 5803,
      "ఆదిలాబాద్": 5804,
      "చెలరే": 5805,
      "రాబోయే": 5806,
      "చెప్పాడు": 5807,
      "పులి": 5808,
      "ఉండేది": 5809,
      "ప్రపంచవ్యాప్తంగా": 5810,
      "భక్తుల": 5811,
      "హాజరయ్యారు": 5812,
      "##లె": 5813,
      "##మూర్తి": 5814,
      "##ంటా": 5815,
      "గ్రౌండ్": 5816,
      "టోర్నీ": 5817,
      "భగ": 5818,
      "##ేజీ": 5819,
      "##స్కర్": 5820,
      "విఫ": 5821,
      "గెలవ": 5822,
      "ఓపె": 5823,
      "భవన": 5824,
      "బాల్": 5825,
      "సేవలు": 5826,
      "##య్యాడు": 5827,
      "పసుపు": 5828,
      "48": 5829,
      "గంగ": 5830,
      "##యస్": 5831,
      "చేసిందని": 5832,
      "టిడిపి": 5833,
      "ప్రియాంక": 5834,
      "ఇస్రో": 5835,
      "బతు": 5836,
      "విష్ణు": 5837,
      "ప్రతిపాదన": 5838,
      "సైని": 5839,
      "అత్యా": 5840,
      "యువత": 5841,
      "అప్పట్లో": 5842,
      "##పోవడంతో": 5843,
      "కృష్": 5844,
      "##మతి": 5845,
      "కోమటి": 5846,
      "సీఈ": 5847,
      "ఎమ్మెల్యేగా": 5848,
      "ఘటనపై": 5849,
      "రాలేదు": 5850,
      "##పోతుంది": 5851,
      "##కేతిక": 5852,
      "తరగతి": 5853,
      "198": 5854,
      "గ్రాముల": 5855,
      "ఉత్తర్వులు": 5856,
      "జ్": 5857,
      "బర్": 5858,
      "##గుల": 5859,
      "సాగ": 5860,
      "తీసుకునే": 5861,
      "కలక": 5862,
      "సెక్యూరిటీ": 5863,
      "##ಗಳ": 5864,
      "##న్ల": 5865,
      "##న్నం": 5866,
      "చిత్త": 5867,
      "పాలసీ": 5868,
      "రంగారెడ్డి": 5869,
      "జీవితం": 5870,
      "##కూడదని": 5871,
      "వందల": 5872,
      "విశ్లే": 5873,
      "34": 5874,
      "పాలు": 5875,
      "మరీ": 5876,
      "##ందంటూ": 5877,
      "##న్నర": 5878,
      "##స్తుండ": 5879,
      "రోజుకు": 5880,
      "##ర్‌గా": 5881,
      "ప్రశంస": 5882,
      "ప్రవర్": 5883,
      "##సుక": 5884,
      "##స్తుంటారు": 5885,
      "వేరే": 5886,
      "ప్రాంతాల": 5887,
      "ప్రభాస్": 5888,
      "కౌంటర్": 5889,
      "నిర్మించిన": 5890,
      "బీబీసీతో": 5891,
      "సాంకేతిక": 5892,
      "ఇల్లు": 5893,
      "కలు": 5894,
      "##పడ్డా": 5895,
      "##నుంచి": 5896,
      "లోనే": 5897,
      "కూర్చు": 5898,
      "##స్తున్నా": 5899,
      "వాట్": 5900,
      "##స్థాన": 5901,
      "##మేష్": 5902,
      "వెళ్తున్న": 5903,
      "శివకుమార్": 5904,
      "వడ్డీ": 5905,
      "##తగా": 5906,
      "సినిమాను": 5907,
      "హిందు": 5908,
      "నాలుగో": 5909,
      "ఇన్వ": 5910,
      "సీఐడీ": 5911,
      "##దారి": 5912,
      "##୍ତ": 5913,
      "ప్రతిష్ట": 5914,
      "జాత": 5915,
      "బెంగా": 5916,
      "జూనియర్": 5917,
      "అర్ధ": 5918,
      "అందించారు": 5919,
      "ఆమోదం": 5920,
      "ఈవెంట్": 5921,
      "వస్తోంది": 5922,
      "##ుల్లో": 5923,
      "పోర్టు": 5924,
      "పరిశీ": 5925,
      "వ్యవహారం": 5926,
      "ప్రస్తావ": 5927,
      "విమానాశ్ర": 5928,
      "##రాం": 5929,
      "రూమ్": 5930,
      "శిక్షణ": 5931,
      "సభ్యుల": 5932,
      "వెనక్కి": 5933,
      "41": 5934,
      "అల్ల": 5935,
      "సెట్": 5936,
      "తీసి": 5937,
      "చంద్రబాబుకు": 5938,
      "తరపున": 5939,
      "##జర్స్": 5940,
      "ఇంటర్వ్యూ": 5941,
      "నటించిన": 5942,
      "అఖ": 5943,
      "కడు": 5944,
      "##್ಟ": 5945,
      "##ay": 5946,
      "అనుగుణంగా": 5947,
      "....": 5948,
      "##స్‌కు": 5949,
      "భక్తులకు": 5950,
      "పరిష్కర": 5951,
      "వెళు": 5952,
      "తూర్పు": 5953,
      "మనీ": 5954,
      "##ات": 5955,
      "##లిజ": 5956,
      "##ందున": 5957,
      "##పుల": 5958,
      "వేర్": 5959,
      "వీరు": 5960,
      "డిజి": 5961,
      "విషా": 5962,
      "కార్యకలా": 5963,
      "మిలియన్": 5964,
      "గతే": 5965,
      "##దారులకు": 5966,
      "వైఎస్సార్": 5967,
      "##మవుతుంది": 5968,
      "కార్యాలయం": 5969,
      "లక్ష్మ": 5970,
      "కోసమే": 5971,
      "!!": 5972,
      "ఇటు": 5973,
      "సార్": 5974,
      "##వ‌": 5975,
      "అవినా": 5976,
      "పొంగు": 5977,
      "ట్రో": 5978,
      "టైమ్": 5979,
      "కనిపిస్తుంది": 5980,
      "డెవలప్": 5981,
      "##హార": 5982,
      "##రోసా": 5983,
      "2020": 5984,
      "పాల్గొన": 5985,
      "ప్లాంట్": 5986,
      "also": 5987,
      "సింగరేణి": 5988,
      "42": 5989,
      "ఖర్చ": 5990,
      "పరా": 5991,
      "నాణ్య": 5992,
      "దిగిన": 5993,
      "పిలు": 5994,
      "సమస్యల": 5995,
      "ఏమీ": 5996,
      "##୍ର": 5997,
      "##తుంటారు": 5998,
      "చేయకుండా": 5999,
      "##కేషన్": 6000,
      "##ులర్": 6001,
      "నిలిపి": 6002,
      "కస్టడీ": 6003,
      "యాజమాన్": 6004,
      "##ెల": 6005,
      "##ీణ": 6006,
      "##st": 6007,
      "##స్పె": 6008,
      "పొందిన": 6009,
      "చెబుతున్న": 6010,
      "జేడీ": 6011,
      "సమీపంలోని": 6012,
      "దినోత్స": 6013,
      "బ్రేక్": 6014,
      "మన్": 6015,
      "##ین": 6016,
      "##ంగానే": 6017,
      "##ంగ్‌": 6018,
      "అనిల్": 6019,
      "కిరణ్": 6020,
      "కార్తీ": 6021,
      "ఉత్తరా": 6022,
      "కార్యక్రమానికి": 6023,
      "##డల్": 6024,
      "##ام": 6025,
      "ప్రభుత్వంలో": 6026,
      "బలమైన": 6027,
      "తెలుసుకుందాం": 6028,
      "దశలో": 6029,
      "హరీష్": 6030,
      "పద్మ": 6031,
      "ఇస్త": 6032,
      "కడప": 6033,
      "ఛై": 6034,
      "మార్గ": 6035,
      "నాయక్": 6036,
      "రాజకీయాల్లో": 6037,
      "దేవర": 6038,
      "యువతి": 6039,
      "నిలదీ": 6040,
      "ఇళ్ల": 6041,
      "గంజ": 6042,
      "మని": 6043,
      "సహజ": 6044,
      "ఎదురుచూ": 6045,
      "నకి": 6046,
      "బార": 6047,
      "వస్తాయి": 6048,
      "##గురు": 6049,
      "##సీమ": 6050,
      "పోలిస్తే": 6051,
      "##తాన్ని": 6052,
      "చేస్తానని": 6053,
      "యాక్షన్": 6054,
      "##పోవడం": 6055,
      "ఓటర్లు": 6056,
      "టన్న": 6057,
      "కేజీ": 6058,
      "తీసుకువ": 6059,
      "నగరంలో": 6060,
      "చనిపోయిన": 6061,
      "మండలంలోని": 6062,
      "షు": 6063,
      "ప్రోత్స": 6064,
      "##ద్కర్": 6065,
      "కోర్": 6066,
      "##బ్ల్యూ": 6067,
      "హైక": 6068,
      "సెలవు": 6069,
      "అసిస్ట": 6070,
      "జ్ఞ": 6071,
      "##టెస్ట్": 6072,
      "##ృత": 6073,
      "##డ్డూ": 6074,
      "##శాతం": 6075,
      "గతేడాది": 6076,
      "##స్యం": 6077,
      "##రోధ": 6078,
      "##త్రీ": 6079,
      "##జీగా": 6080,
      "వర్క్": 6081,
      "బుక్": 6082,
      "గెలిపించ": 6083,
      "జాగ్రత్తగా": 6084,
      "read": 6085,
      "##గడ": 6086,
      "##వచ్చని": 6087,
      "విటమి": 6088,
      "##దుల": 6089,
      "కోడ్": 6090,
      "నెంబర్": 6091,
      "వీడియోలు": 6092,
      "పనులను": 6093,
      "గ్రామాల్లో": 6094,
      "శాస్త్రవేత్త": 6095,
      "##తనం": 6096,
      "##తులతో": 6097,
      "లేకపోవడంతో": 6098,
      "కెనడా": 6099,
      "సస్పె": 6100,
      "##తాధిక": 6101,
      "యూట్యూ": 6102,
      "మరిన్ని": 6103,
      "బృంద": 6104,
      "పబ్లిక్": 6105,
      "ఇద": 6106,
      "కచ్చితంగా": 6107,
      "జంతు": 6108,
      "##స్తి": 6109,
      "##ంతృ": 6110,
      "పోల్": 6111,
      "##ట్లుగా": 6112,
      "వేడి": 6113,
      "సీఎ": 6114,
      "సామాన్": 6115,
      "##ల్‌కు": 6116,
      "ఆదేశించింది": 6117,
      "##మయ్యాయి": 6118,
      "కనిపించింది": 6119,
      "హెల్త్": 6120,
      "ఆసియా": 6121,
      "అనారోగ్య": 6122,
      "ఓటర్": 6123,
      "##ద్దే": 6124,
      "పాల్గొన్న": 6125,
      "పనిచేస్తున్న": 6126,
      "ముగిసిన": 6127,
      "ఓవర్లలో": 6128,
      "మంటలు": 6129,
      "నటుడు": 6130,
      "అంటారు": 6131,
      "ఒంట": 6132,
      "##ప్పుడే": 6133,
      "సర్టిఫ": 6134,
      "ఎంపీగా": 6135,
      "స్వయంగా": 6136,
      "ఉంచు": 6137,
      "సామర్థ": 6138,
      "ఒడిశా": 6139,
      "ఇప్ప": 6140,
      "##రక్షణ": 6141,
      "విన్న": 6142,
      "తుపా": 6143,
      "నిర్ణయించారు": 6144,
      "నిలబ": 6145,
      "ఇటీవలే": 6146,
      "పెన్షన్": 6147,
      "ఇసుక": 6148,
      "ఏంట": 6149,
      "గర్": 6150,
      "##క్రా": 6151,
      "##రిగే": 6152,
      "##నేత": 6153,
      "మూడే": 6154,
      "##ెన్షన్": 6155,
      "బియ్య": 6156,
      "కర్ణాటకలో": 6157,
      "ప్లేయర్": 6158,
      "పొంగులేటి": 6159,
      "اور": 6160,
      "##ಡಿಯ": 6161,
      "##కుంట": 6162,
      "##ంగిక": 6163,
      "ములుగు": 6164,
      "మీటర్ల": 6165,
      "అవ్వ": 6166,
      "పాలనలో": 6167,
      "భూకంప": 6168,
      "అసోసియేషన్": 6169,
      "ఓటీ": 6170,
      "భరోసా": 6171,
      "##వారా": 6172,
      "విడత": 6173,
      "పాన్": 6174,
      "##పోతున్నారు": 6175,
      "తీసుకురావ": 6176,
      "పడుతున్నారు": 6177,
      "నిజం": 6178,
      "వాలంటీ": 6179,
      "లకు": 6180,
      "##దాన": 6181,
      "##స్‌‌‌‌": 6182,
      "##లాల్లో": 6183,
      "స్టీ": 6184,
      "##దురు": 6185,
      "##ేశాడు": 6186,
      "##ంబరు": 6187,
      "##స్టులు": 6188,
      "##కంఠ": 6189,
      "ప్రభావ": 6190,
      "డాక్టర్లు": 6191,
      "వెంకటస్వామి": 6192,
      "అతిపెద్ద": 6193,
      "నూనె": 6194,
      "کہ": 6195,
      "రాజా": 6196,
      "కూల్చి": 6197,
      "చేయలేదు": 6198,
      "##స్టల్": 6199,
      "సర్పంచ": 6200,
      "మధ్యలో": 6201,
      "ప్రత్యక్ష": 6202,
      "ఉద్రి": 6203,
      "లైంగిక": 6204,
      "చేరుకున్నారు": 6205,
      "గవర్న": 6206,
      "ఆశి": 6207,
      "##వాడు": 6208,
      "##ంటింగ్": 6209,
      "దీక్ష": 6210,
      "సెమీ": 6211,
      "##ల్‌ను": 6212,
      "##కాలిక": 6213,
      "##నర్జీ": 6214,
      "బంగారు": 6215,
      "ఆమోద": 6216,
      "రాజ్యాంగ": 6217,
      "ఏజెన్సీ": 6218,
      "గడువు": 6219,
      "జార్": 6220,
      "##సలు": 6221,
      "సీరియ": 6222,
      "ఏర్పడింది": 6223,
      "క్రై": 6224,
      "##ించుకుని": 6225,
      "రావాలని": 6226,
      "సంతోషంగా": 6227,
      "మహబూబ్": 6228,
      "కంట్రోల్": 6229,
      "కోమటిరెడ్డి": 6230,
      "గంజాయి": 6231,
      "ప్రదేశ్": 6232,
      "జిల్లాల": 6233,
      "చేసుకునే": 6234,
      "మారాయి": 6235,
      "వంటివి": 6236,
      "వివాహం": 6237,
      "హిందీ": 6238,
      "భోజ": 6239,
      "సలహా": 6240,
      "పండి": 6241,
      "రొ": 6242,
      "ముద్ర": 6243,
      "లేటెస్ట్": 6244,
      "బాక్": 6245,
      "##ద్ధికి": 6246,
      "టైటిల్": 6247,
      "పెరుగుతుంది": 6248,
      "అద్భుతమైన": 6249,
      "ట్రి": 6250,
      "సతీ": 6251,
      "##ట్లకు": 6252,
      "##టీషన్": 6253,
      "ఉన్నత": 6254,
      "విషయాలు": 6255,
      "సోనియా": 6256,
      "పిల్లలకు": 6257,
      "ఎవరికి": 6258,
      "అమెరికాలో": 6259,
      "జాబితాలో": 6260,
      "సచివాల": 6261,
      "కాళేశ్వరం": 6262,
      "65": 6263,
      "ہو": 6264,
      "ఘా": 6265,
      "##మూర్": 6266,
      "విసి": 6267,
      "పాప": 6268,
      "మెరుగ": 6269,
      "ఆర్మీ": 6270,
      "మధ్యప్రదేశ్": 6271,
      "ప్రధానంగా": 6272,
      "కార్మికులు": 6273,
      "ఇరాన్": 6274,
      "దిల్లీ": 6275,
      "##ాయికి": 6276,
      "మాస్టర్": 6277,
      "ఉన్నతాధిక": 6278,
      "##దాన్ని": 6279,
      "చూసుకు": 6280,
      "దేశాలు": 6281,
      "ఏర్పడిన": 6282,
      "వ్యాధి": 6283,
      "ప్రత్యర్థ": 6284,
      "పీసీసీ": 6285,
      "రాజకీయంగా": 6286,
      "రిపోర్టు": 6287,
      "పిలుపునిచ్చారు": 6288,
      "##బన్": 6289,
      "##మాస": 6290,
      "నేర": 6291,
      "వ్యక్త": 6292,
      "నెలల్లో": 6293,
      "అమ్ము": 6294,
      "ఎనిమిది": 6295,
      "##నలో": 6296,
      "##హరణ": 6297,
      "##లోపే": 6298,
      "##దిగా": 6299,
      "##ల్లూరు": 6300,
      "చివర": 6301,
      "ప్రాంతం": 6302,
      "రూపంలో": 6303,
      "##స్పద": 6304,
      "వీరిద్ద": 6305,
      "ఆనంద": 6306,
      "కోట్లతో": 6307,
      "లేదంటే": 6308,
      "కప్పు": 6309,
      "##కల్": 6310,
      "విద్యార్థుల": 6311,
      "##టనా": 6312,
      "ఫోకస్": 6313,
      "దుకా": 6314,
      "నమ్మకం": 6315,
      "##ించాల్సిన": 6316,
      "کیا": 6317,
      "అశో": 6318,
      "##టిన": 6319,
      "##గౌ": 6320,
      "కలిగిన": 6321,
      "ఉంటున్న": 6322,
      "సర్వ": 6323,
      "సాధించారు": 6324,
      "##ించుకుంది": 6325,
      "ఫ్యాక్టరీ": 6326,
      "అంశం": 6327,
      "అంబేద్కర్": 6328,
      "అక్ష": 6329,
      "గజ": 6330,
      "గిల్": 6331,
      "##ంసా": 6332,
      "యాంటీ": 6333,
      "అరవింద్": 6334,
      "దీనివల్ల": 6335,
      "తెరకెక్క": 6336,
      "ఆసుపత్రికి": 6337,
      "గ్లో": 6338,
      "దృష్టికి": 6339,
      "ఈనెల": 6340,
      "సమ్మ": 6341,
      "##ారే": 6342,
      "##ారామ": 6343,
      "పోస్టర్": 6344,
      "రెడ్": 6345,
      "నేటి": 6346,
      "అంశంపై": 6347,
      "ఉద్యోగుల": 6348,
      "గ్యాస్": 6349,
      "మెజార్టీ": 6350,
      "38": 6351,
      "అన్య": 6352,
      "ఆశ్చ": 6353,
      "ఏంటి": 6354,
      "జ‌": 6355,
      "ವಿ": 6356,
      "సంభవ": 6357,
      "##విని": 6358,
      "పుర": 6359,
      "చేస్తున్నాయి": 6360,
      "మద్దతుగా": 6361,
      "ఉద్యోగులకు": 6362,
      "ఫీజు": 6363,
      "ల్యాండ్": 6364,
      "వదిలే": 6365,
      "క్రికెటర్": 6366,
      "చరణ్": 6367,
      "##ెక్షన్": 6368,
      "##పర": 6369,
      "##ందరికీ": 6370,
      "రాష్ట్రపతి": 6371,
      "చేరుకుంది": 6372,
      "కురిసే": 6373,
      "నిందితుడు": 6374,
      "కృష్ణా": 6375,
      "ధై": 6376,
      "పల్లి": 6377,
      "##గతం": 6378,
      "##హో": 6379,
      "##చంద్ర": 6380,
      "చేరింది": 6381,
      "##గుల్": 6382,
      "తెగ": 6383,
      "మాల్": 6384,
      "సంబ": 6385,
      "పురా": 6386,
      "తీసుకొని": 6387,
      "సంస్థల": 6388,
      "పేరును": 6389,
      "నిర్ణయించింది": 6390,
      "బలహీ": 6391,
      "పర్వ": 6392,
      "జాగ్రత్తలు": 6393,
      "పరిచయం": 6394,
      "ఇత": 6395,
      "సదు": 6396,
      "##బరు": 6397,
      "##స్‌లో": 6398,
      "##ికెట్లు": 6399,
      "రేషన్": 6400,
      "లిమి": 6401,
      "కర్నా": 6402,
      "రంగంలోకి": 6403,
      "##వారిని": 6404,
      "ఉత్కంఠ": 6405,
      "అనుమత": 6406,
      "అభిప్రాయం": 6407,
      "భిన్న": 6408,
      "ఆగి": 6409,
      "రాసిన": 6410,
      "స్మార్": 6411,
      "సిట్టి": 6412,
      "##మ్మల": 6413,
      "పాటుగా": 6414,
      "వినో": 6415,
      "ఫ్రెండ్": 6416,
      "దళిత": 6417,
      "తేడాతో": 6418,
      "హైకమాండ్": 6419,
      "ఆదు": 6420,
      "##ంటె": 6421,
      "దీపా": 6422,
      "##క్రెయిన్": 6423,
      "మంచిర్యాల": 6424,
      "ప్రజాస్వామ": 6425,
      "ప్రొడ": 6426,
      "ప్రయాణికులు": 6427,
      "ఇస్": 6428,
      "##‌‌కు": 6429,
      "##తుంటే": 6430,
      "విధి": 6431,
      "కొర": 6432,
      "రాష్ట్రవ్యాప్తంగా": 6433,
      "సహాయం": 6434,
      "హోటల్": 6435,
      "దొరిక": 6436,
      "కాలేదు": 6437,
      "క్రమంలోనే": 6438,
      "అసిస్టెంట్": 6439,
      "ch": 6440,
      "ఆప్": 6441,
      "##రిన": 6442,
      "సంస్క": 6443,
      "చెప్పాలని": 6444,
      "ప్రాథ": 6445,
      "స్థానాలు": 6446,
      "ఆలయంలో": 6447,
      "గౌరవ": 6448,
      "అంశాలపై": 6449,
      "వివాహ": 6450,
      "ఫామ్": 6451,
      "##ಿದ್ದ": 6452,
      "నెటిజన్": 6453,
      "అలర్ట్": 6454,
      "ఛాన": 6455,
      "##లన్నీ": 6456,
      "##జో": 6457,
      "##ప్రెస్": 6458,
      "##పైకి": 6459,
      "హింస": 6460,
      "సమావేశాలు": 6461,
      "పడుతున్న": 6462,
      "పరిష్కారం": 6463,
      "పెట్టింది": 6464,
      "వాదనలు": 6465,
      "అర్హత": 6466,
      "అంతకుముందు": 6467,
      "ఢీకొ": 6468,
      "టిక్కెట్": 6469,
      "తప్పనిసరి": 6470,
      "హమాస్": 6471,
      "ఆన్‌": 6472,
      "ఏటా": 6473,
      "నవీ": 6474,
      "వాన": 6475,
      "##ర్యం": 6476,
      "##ర్షణ": 6477,
      "##స్తుండగా": 6478,
      "స్మ": 6479,
      "##క్షంలో": 6480,
      "అధికారులతో": 6481,
      "పిటీషన్": 6482,
      "రంగంలో": 6483,
      "జెండా": 6484,
      "##ొచ్చని": 6485,
      "నివార": 6486,
      "మాస్": 6487,
      "బాంబు": 6488,
      "తాగ": 6489,
      "తీసుకుంటామని": 6490,
      "కలకలం": 6491,
      "ఘనంగా": 6492,
      "##తుందో": 6493,
      "##డుతూ": 6494,
      "##తిప": 6495,
      "##జీపీ": 6496,
      "##ాంపి": 6497,
      "పెరిగిన": 6498,
      "ఇంగ్లాండ్": 6499,
      "గమనించ": 6500,
      "పునరు": 6501,
      "విపరీ": 6502,
      "తెల్లవారు": 6503,
      "44": 6504,
      "ఇస్తే": 6505,
      "ఛే": 6506,
      "##కాయ": 6507,
      "##de": 6508,
      "దీప": 6509,
      "తెలంగాణకు": 6510,
      "మహేష్": 6511,
      "ఎదుర్": 6512,
      "##వంతమైన": 6513,
      "మరికొన్ని": 6514,
      "విఫల": 6515,
      "ఇండ్లు": 6516,
      "ఖర్": 6517,
      "గృహ": 6518,
      "నవ": 6519,
      "##ెత్తు": 6520,
      "##ైతే": 6521,
      "వెలువ": 6522,
      "##మిషన్": 6523,
      "రేటు": 6524,
      "యాదా": 6525,
      "వీడియోలో": 6526,
      "విశేషం": 6527,
      "ప్రాథమిక": 6528,
      "ఈవీ": 6529,
      "బ్యార": 6530,
      "##ారట": 6531,
      "##ించడంలో": 6532,
      "##వుగా": 6533,
      "అనంత": 6534,
      "ఉంటాయని": 6535,
      "క్షేత్ర": 6536,
      "ట్రైలర్": 6537,
      "అధికారికంగా": 6538,
      "పడిన": 6539,
      "##దికి": 6540,
      "నిధు": 6541,
      "##క్షన్స్": 6542,
      "##ుకుని": 6543,
      "మంత్రిగా": 6544,
      "జోన్": 6545,
      "గుర్తించి": 6546,
      "విమానం": 6547,
      "అనుకూల": 6548,
      "ప్రతినిధి": 6549,
      "ఏకా": 6550,
      "వాయు": 6551,
      "##టైన": 6552,
      "##ئی": 6553,
      "##ందరూ": 6554,
      "సమర్థ": 6555,
      "##పిరి": 6556,
      "తనపై": 6557,
      "వర్గం": 6558,
      "##త్మకంగా": 6559,
      "రామకృష్ణ": 6560,
      "మాటలు": 6561,
      "##ేశ్వరరావు": 6562,
      "అప్పటిక": 6563,
      "##୍ୟ": 6564,
      "ప్రచు": 6565,
      "##్యాలు": 6566,
      "ఉన్నాడు": 6567,
      "చేశాయి": 6568,
      "పొలి": 6569,
      "##ట్‌మెంట్": 6570,
      "వదిలి": 6571,
      "బార్": 6572,
      "##పించింది": 6573,
      "##ేలా": 6574,
      "##ందంటే": 6575,
      "కొడ": 6576,
      "కొంద": 6577,
      "సాగర్": 6578,
      "బెదిరి": 6579,
      "బిజిన": 6580,
      "ప్రాంతాలకు": 6581,
      "క్యాన్సర్": 6582,
      "లీగ్": 6583,
      "2019లో": 6584,
      "సంప్రదాయ": 6585,
      "పటే": 6586,
      "ప్రకా": 6587,
      "పేలు": 6588,
      "మేలు": 6589,
      "భూములు": 6590,
      "ఆధార్": 6591,
      "సంవత్సరాలు": 6592,
      "సూర్యా": 6593,
      "సమర్పించ": 6594,
      "ఇంజినీ": 6595,
      "నౌ": 6596,
      "##‌‌ను": 6597,
      "##ించామని": 6598,
      "రాకుండా": 6599,
      "##సిన్": 6600,
      "##పోర్": 6601,
      "స్పందన": 6602,
      "జరుగుతున్నాయి": 6603,
      "నమోదైంది": 6604,
      "కాపాడు": 6605,
      "జడ్పీ": 6606,
      "ان": 6607,
      "##ీగా": 6608,
      "##it": 6609,
      "చేరి": 6610,
      "సిరిసి": 6611,
      "##జీలు": 6612,
      "##జిత్": 6613,
      "ఆర్డర్": 6614,
      "విచారణలో": 6615,
      "ముఖ్యమంత్రిగా": 6616,
      "విమాన": 6617,
      "పోస్టులు": 6618,
      "సర్వీస్": 6619,
      "బిజినెస్": 6620,
      "శే": 6621,
      "##బడులు": 6622,
      "##కాంక్షలు": 6623,
      "రిమాండ్": 6624,
      "##గ్రహ": 6625,
      "##ర్‌కు": 6626,
      "టైం": 6627,
      "మొదలైన": 6628,
      "బ్రిడ్": 6629,
      "##ల్లంఘ": 6630,
      "ఉద్రిక్త": 6631,
      "గద్ద": 6632,
      "జపా": 6633,
      "డో": 6634,
      "##రినీ": 6635,
      "##‌న్": 6636,
      "##జరీ": 6637,
      "##ధన్": 6638,
      "##ారిత": 6639,
      "##త్తీ": 6640,
      "జిల్లాకు": 6641,
      "అవుతున్నాయి": 6642,
      "పనిచేసే": 6643,
      "ఆవిష్": 6644,
      "యాదాద్రి": 6645,
      "ఫిల్": 6646,
      "హరి": 6647,
      "##రించింది": 6648,
      "##డాల్సి": 6649,
      "##వర్ణ": 6650,
      "ట్రే": 6651,
      "మ్యాచ్‌లో": 6652,
      "పెరుగుతున్న": 6653,
      "మున్సిపాలిటీ": 6654,
      "ధర్నా": 6655,
      "బంతుల్లో": 6656,
      "ఉల్లంఘ": 6657,
      "##ئے": 6658,
      "జిల్ల": 6659,
      "శ్రీధర్": 6660,
      "విజయాన్ని": 6661,
      "ఆదిత్య": 6662,
      "పథకాలు": 6663,
      "దెబ్బతి": 6664,
      "సంపద": 6665,
      "39": 6666,
      "ఉదా": 6667,
      "ఏళ్లు": 6668,
      "తుల": 6669,
      "##నార్": 6670,
      "##ూన్": 6671,
      "##్రు": 6672,
      "సోర్స్": 6673,
      "సేకర": 6674,
      "ప్రధానమంత్రి": 6675,
      "చేసుకోవచ్చు": 6676,
      "సంచల": 6677,
      "దృష్టిలో": 6678,
      "##స్థాయిలో": 6679,
      "రిజిస్ట్రేషన్": 6680,
      "కర్నాటక": 6681,
      "400": 6682,
      "ఏసీబీ": 6683,
      "##ూల": 6684,
      "##ండం": 6685,
      "##‌‌‌‌‌‌‌‌‌‌‌‌‌‌‌‌లో": 6686,
      "##పుల్": 6687,
      "##ంటుందని": 6688,
      "##కరంగా": 6689,
      "న్యూజి": 6690,
      "రమేశ్": 6691,
      "లక్": 6692,
      "##నికే": 6693,
      "##ాయక": 6694,
      "##త్తులు": 6695,
      "##డేట్": 6696,
      "మనకు": 6697,
      "కొనసాగుతున్న": 6698,
      "అందుకున్న": 6699,
      "వస్త": 6700,
      "దేశాల్లో": 6701,
      "మంత్రిత్వ": 6702,
      "తేల్చి": 6703,
      "హెడ్": 6704,
      "అసెంబ్లీలో": 6705,
      "సంవత్సరంలో": 6706,
      "సత్యనారాయణ": 6707,
      "ఓట": 6708,
      "మిత్ర": 6709,
      "##ಕ್": 6710,
      "కోట": 6711,
      "సిక్": 6712,
      "చేయి": 6713,
      "జీహెచ్": 6714,
      "జగన్‌": 6715,
      "అక్రమంగా": 6716,
      "భవిష్యత్": 6717,
      "డిజిటల్": 6718,
      "న్యూజిలాండ్": 6719,
      "ایک": 6720,
      "చది": 6721,
      "తగి": 6722,
      "##మంతా": 6723,
      "##లాన్ని": 6724,
      "ఉన్నప్పటికీ": 6725,
      "పరిహారం": 6726,
      "చంద్రుడి": 6727,
      "అసంతృ": 6728,
      "ఇద్దరూ": 6729,
      "పెరిగే": 6730,
      "హైడ్రా": 6731,
      "నిల్వ": 6732,
      "డివిజన్": 6733,
      "##దన్": 6734,
      "##విల్": 6735,
      "కోలు": 6736,
      "కోటి": 6737,
      "బ్యాటర్": 6738,
      "మారిన": 6739,
      "దేవాల": 6740,
      "చుట్టు": 6741,
      "ఎక్స్‌ప్రెస్": 6742,
      "కార్యకలాప": 6743,
      "vi": 6744,
      "ఎత్తి": 6745,
      "రమేష్": 6746,
      "##రించి": 6747,
      "##ల్ట్": 6748,
      "##ంటరీ": 6749,
      "##స్తుల": 6750,
      "##మింగ్": 6751,
      "సాంగ్": 6752,
      "##వర్గ": 6753,
      "చంద్రయాన్": 6754,
      "చంద్రబాబును": 6755,
      "గూగుల్": 6756,
      "భయం": 6757,
      "మట్టి": 6758,
      "##ూహ": 6759,
      "##ic": 6760,
      "##re": 6761,
      "చేయండి": 6762,
      "స్ట్రీ": 6763,
      "గోల్డ్": 6764,
      "##లైట్": 6765,
      "చోట": 6766,
      "కనుగొ": 6767,
      "సానుకూ": 6768,
      "ఓటీటీ": 6769,
      "కంప్": 6770,
      "చల్ల": 6771,
      "##లక": 6772,
      "##లక్ష్మి": 6773,
      "##వకు": 6774,
      "##ak": 6775,
      "పేర్లు": 6776,
      "వీరికి": 6777,
      "సూచన": 6778,
      "తొమ్మిది": 6779,
      "##లిజెన్స్": 6780,
      "శై": 6781,
      "ಮಾ": 6782,
      "##లుత": 6783,
      "##కుడి": 6784,
      "##ించవచ్చు": 6785,
      "##రిట": 6786,
      "జీవో": 6787,
      "##ಲ್‌": 6788,
      "కానిస్టే": 6789,
      "కసర": 6790,
      "##జిల్": 6791,
      "ప్రశ్నలు": 6792,
      "కోర్టుకు": 6793,
      "వ్యవధి": 6794,
      "##వంతం": 6795,
      "క్యారెట్ల": 6796,
      "ఆక్రమ": 6797,
      "ఇస్తున్న": 6798,
      "ఎప్పటిక": 6799,
      "రాం": 6800,
      "నిర్వాహ": 6801,
      "అభ్యర్థులను": 6802,
      "తీసుకోవాలి": 6803,
      "రికార్డ్": 6804,
      "హైకోర్టులో": 6805,
      "ఎద్దే": 6806,
      "##గఢ్": 6807,
      "##త్రిక": 6808,
      "మిస్": 6809,
      "ప్రైవేటు": 6810,
      "ఉత్తరప్రదేశ్": 6811,
      "ఎమో": 6812,
      "వేణు": 6813,
      "అధికంగా": 6814,
      "##మ్మల్ని": 6815,
      "టీఎస్": 6816,
      "గురైన": 6817,
      "అందజేశారు": 6818,
      "వెంకట్": 6819,
      "బాలకృష్ణ": 6820,
      "స్వీకారం": 6821,
      "అత్యధికంగా": 6822,
      "వెబ్‌": 6823,
      "##సాయి": 6824,
      "##శంకర్": 6825,
      "##మిడి": 6826,
      "సిస్ట": 6827,
      "రియల్": 6828,
      "##న్‌గా": 6829,
      "బీజేపీలో": 6830,
      "##సైడ్": 6831,
      "అధ్యయనం": 6832,
      "సిట్టింగ్": 6833,
      "బట్ట": 6834,
      "##గంట": 6835,
      "##ری": 6836,
      "తీసిన": 6837,
      "##వేత": 6838,
      "టీం": 6839,
      "కారణాలు": 6840,
      "##బోతోంది": 6841,
      "197": 6842,
      "ఆఫీసు": 6843,
      "నోటీసు": 6844,
      "సీతారామ": 6845,
      "కన్నడ": 6846,
      "54": 6847,
      "ఒలిం": 6848,
      "భర": 6849,
      "##న్నది": 6850,
      "##గామ": 6851,
      "నివాస": 6852,
      "సులభ": 6853,
      "దేశానికి": 6854,
      "శుభా": 6855,
      "వైఎస్ఆర్": 6856,
      "వాహనాలు": 6857,
      "ఒప్పందం": 6858,
      "ఫార": 6859,
      "##ంక్షన్": 6860,
      "##‌క": 6861,
      "సమాజ": 6862,
      "అతనికి": 6863,
      "వివరణ": 6864,
      "స్పష్టత": 6865,
      "తిరుమలలో": 6866,
      "సిరిసిల్ల": 6867,
      "ఖు": 6868,
      "మంద": 6869,
      "##హిత": 6870,
      "నివాసం": 6871,
      "##బాబాద్": 6872,
      "చూసు": 6873,
      "తొలుత": 6874,
      "ఆలస్య": 6875,
      "తెరక": 6876,
      "స్పష్టంగా": 6877,
      "ఎద్దేవా": 6878,
      "సగ": 6879,
      "##ప్రా": 6880,
      "##نے": 6881,
      "రాకపో": 6882,
      "సింహ": 6883,
      "అభివృద్ధికి": 6884,
      "అయినప్పటికీ": 6885,
      "ఫేక్": 6886,
      "ఉప్ప": 6887,
      "కంటి": 6888,
      "పవిత": 6889,
      "లడ్డూ": 6890,
      "##డక": 6891,
      "ప్రసా": 6892,
      "స్కిల్": 6893,
      "##మార్క": 6894,
      "దూరంలో": 6895,
      "రుతు": 6896,
      "తెలుసుకున్న": 6897,
      "49": 6898,
      "co": 6899,
      "రాము": 6900,
      "వాటా": 6901,
      "ఉండడంతో": 6902,
      "శరీరంలో": 6903,
      "బెంగాల్": 6904,
      "నకిలీ": 6905,
      "తదు": 6906,
      "పాస్": 6907,
      "రోజా": 6908,
      "ప్రకటి": 6909,
      "కలెక్టరేట్": 6910,
      "##బోతున్నారు": 6911,
      "ఇద్దరి": 6912,
      "##మవుతోంది": 6913,
      "న్యాయవాది": 6914,
      "గడ్డం": 6915,
      "ఓటింగ్": 6916,
      "##చాడు": 6917,
      "##ష్‌": 6918,
      "##వుతున్న": 6919,
      "పోర్": 6920,
      "చెప్పాలి": 6921,
      "వచ్చినా": 6922,
      "పేరిట": 6923,
      "##వ్‌": 6924,
      "ఇదిలా": 6925,
      "##ామున": 6926,
      "చేరుకుని": 6927,
      "ఫలితం": 6928,
      "##స్టిక్": 6929,
      "బరిలో": 6930,
      "తదుపరి": 6931,
      "ధన": 6932,
      "శ్": 6933,
      "##6లో": 6934,
      "పార్క్": 6935,
      "దాడికి": 6936,
      "##సాని": 6937,
      "నెల్లూరు": 6938,
      "అక్కడికి": 6939,
      "చేసుకోవాలని": 6940,
      "భూమిని": 6941,
      "##ాపన": 6942,
      "ఎకరాల": 6943,
      "నియంత్రణ": 6944,
      "మెరుగైన": 6945,
      "51": 6946,
      "ఫ్లా": 6947,
      "##ఫోర్": 6948,
      "##శీ": 6949,
      "స్వి": 6950,
      "స్వాత": 6951,
      "జరగనున్న": 6952,
      "సంగారెడ్డి": 6953,
      "వీటిలో": 6954,
      "కారులో": 6955,
      "గెలుచుకు": 6956,
      "అప్పటికే": 6957,
      "##కంలో": 6958,
      "##రన్": 6959,
      "##ప‌": 6960,
      "##పరు": 6961,
      "##సరా": 6962,
      "##భార": 6963,
      "##శై": 6964,
      "##మానికి": 6965,
      "వెల్": 6966,
      "బాడీ": 6967,
      "ఒకసారి": 6968,
      "ఉండడం": 6969,
      "##తీరు": 6970,
      "మాట్లాడే": 6971,
      "అవుతున్నారు": 6972,
      "తెలియదు": 6973,
      "చేసుకోవాలి": 6974,
      "మరణించారు": 6975,
      "గిరిజన": 6976,
      "బంగా": 6977,
      "##وی": 6978,
      "##ంతం": 6979,
      "##ండ్లలో": 6980,
      "చింత": 6981,
      "అనుబంధ": 6982,
      "వారితో": 6983,
      "ప్రశ్ని": 6984,
      "టాటా": 6985,
      "శ్రేణ": 6986,
      "ఫార్మా": 6987,
      "యూట్యూబ్": 6988,
      "సూర్యాపేట": 6989,
      "ఎంటర్": 6990,
      "ఘర్షణ": 6991,
      "బెస్ట్": 6992,
      "##ంథ": 6993,
      "##డైన": 6994,
      "##హర్": 6995,
      "##న్స": 6996,
      "##‌‌‌‌కు": 6997,
      "##త్న": 6998,
      "నివా": 6999,
      "పోరు": 7000,
      "##ామిక": 7001,
      "తేలిక": 7002,
      "అవుతుందని": 7003,
      "##స్తూనే": 7004,
      "150": 7005,
      "షాపు": 7006,
      "స్వల్ప": 7007,
      "ప్రియ": 7008,
      "ఫ్లో": 7009,
      "మరికొందరు": 7010,
      "మెజారిటీ": 7011,
      "ఉష్ణోగ్రతలు": 7012,
      "మించి": 7013,
      "##ాడ": 7014,
      "##యితే": 7015,
      "స్త్రీ": 7016,
      "కూరగా": 7017,
      "ముర": 7018,
      "సమక్షంలో": 7019,
      "జరిగితే": 7020,
      "సంబంధాలు": 7021,
      "లైఫ్": 7022,
      "అడిషనల్": 7023,
      "##టెక్": 7024,
      "రాగానే": 7025,
      "##ాలుగా": 7026,
      "వాణి": 7027,
      "సాక్ష": 7028,
      "షేక్": 7029,
      "రిపోర్ట్": 7030,
      "ప్రదర్శన": 7031,
      "వాట్సా": 7032,
      "బారిన": 7033,
      "డాక": 7034,
      "##ాయర్": 7035,
      "నిర్వహించే": 7036,
      "జట్టులో": 7037,
      "##బడింది": 7038,
      "విక్రమార్క": 7039,
      "##పూడి": 7040,
      "అభిప్రాయపడ్డారు": 7041,
      "మహబూబాబాద్": 7042,
      "కెమెరా": 7043,
      "##یڈیو": 7044,
      "జమ్మ": 7045,
      "##సిస్": 7046,
      "చెప్పడం": 7047,
      "తీసుకుంటున్న": 7048,
      "చేస్తారని": 7049,
      "కేసును": 7050,
      "ఉండేలా": 7051,
      "క్రియేట్": 7052,
      "సహాయక": 7053,
      "భారతదేశంలో": 7054,
      "పలికారు": 7055,
      "మణిపూర్": 7056,
      "ఖర్గే": 7057,
      "ఫండ్": 7058,
      "బ్యాల": 7059,
      "##తంత్ర": 7060,
      "##వస్థ": 7061,
      "##వళి": 7062,
      "##శ్రీ": 7063,
      "##స్మ": 7064,
      "##స్తుంటే": 7065,
      "##నేశ్వ": 7066,
      "##ఫ్టీ": 7067,
      "లక్ష్యం": 7068,
      "ఫోర్": 7069,
      "కీలకంగా": 7070,
      "పాత్రలో": 7071,
      "బ్రహ్": 7072,
      "##తుండటంతో": 7073,
      "ఊహించని": 7074,
      "కై": 7075,
      "న‌": 7076,
      "##దాల": 7077,
      "ప్రయోగ": 7078,
      "పెళ్ల": 7079,
      "పరిమిత": 7080,
      "##ళ్లతో": 7081,
      "పుట్ట": 7082,
      "చెబుతోంది": 7083,
      "వెలుగులోకి": 7084,
      "నిర్మాణానికి": 7085,
      "డెలి": 7086,
      "మనుష": 7087,
      "చోటుచేసుకుంది": 7088,
      "జపాన్": 7089,
      "కాలి": 7090,
      "కత్తి": 7091,
      "మంచు": 7092,
      "లూ": 7093,
      "వారా": 7094,
      "##రాయి": 7095,
      "##దరి": 7096,
      "రెగ్య": 7097,
      "వేస్తున్నారు": 7098,
      "##ంటున్నా": 7099,
      "చివరకు": 7100,
      "తీసుకొ": 7101,
      "భారత్‌లో": 7102,
      "నాలుగే": 7103,
      "సరిగ్గా": 7104,
      "బాధితులు": 7105,
      "ఇంజనీ": 7106,
      "అశ్వి": 7107,
      "శుభాకాంక్షలు": 7108,
      "ویڈیو": 7109,
      "##ಂಡ": 7110,
      "##మాన్ని": 7111,
      "లేకపోవడం": 7112,
      "ఆర్‌": 7113,
      "గంటలు": 7114,
      "లింగ": 7115,
      "ఆస్పత్రికి": 7116,
      "ఒంటరి": 7117,
      "ఆన్‌లైన్": 7118,
      "ఎప్పటికప్పుడు": 7119,
      "సగటు": 7120,
      "కూరగాయ": 7121,
      "కండ": 7122,
      "నిఘా": 7123,
      "##తిన్": 7124,
      "వెహ": 7125,
      "తీశారు": 7126,
      "##చేసి": 7127,
      "వైసీపీకి": 7128,
      "ఆలయం": 7129,
      "##మైతే": 7130,
      "పెట్టుబడులు": 7131,
      "జైలులో": 7132,
      "గ్రేటర్": 7133,
      "శాసనసభ": 7134,
      "##జను": 7135,
      "##ps": 7136,
      "##ర్బ": 7137,
      "##తుడు": 7138,
      "మాదిరి": 7139,
      "తమను": 7140,
      "ఫలితంగా": 7141,
      "క్రీడా": 7142,
      "##ಂದು": 7143,
      "ధాన్యం": 7144,
      "ఆక్": 7145,
      "ఉల్లి": 7146,
      "దసరా": 7147,
      "##ାଇ": 7148,
      "##as": 7149,
      "##తుందన్నారు": 7150,
      "##స్తామన్నారు": 7151,
      "కోరిక": 7152,
      "ప్రాంతానికి": 7153,
      "వివరాల": 7154,
      "ఆర్థికంగా": 7155,
      "##త్వంలోని": 7156,
      "జైలుకు": 7157,
      "శరీర": 7158,
      "##ಿದೆ": 7159,
      "వలస": 7160,
      "##లెన్స్": 7161,
      "##పక్క": 7162,
      "##ౌట్": 7163,
      "##7లో": 7164,
      "వెలు": 7165,
      "##మిక్": 7166,
      "వేచి": 7167,
      "క్రె": 7168,
      "సభ్యుడు": 7169,
      "వ్యక్తిని": 7170,
      "తెలియని": 7171,
      "బిల్డింగ్": 7172,
      "విభాగం": 7173,
      "మనిషి": 7174,
      "విటమిన్": 7175,
      "ఉదాహరణ": 7176,
      "జమ్మూ": 7177,
      "46": 7178,
      "గానీ": 7179,
      "##ھا": 7180,
      "##ార్క్": 7181,
      "వాడు": 7182,
      "వాగ్": 7183,
      "##టికీ": 7184,
      "##కూరు": 7185,
      "చేస్తున్నామని": 7186,
      "తీవ్రత": 7187,
      "ఇంటె": 7188,
      "##పాలన": 7189,
      "నాగార్జున": 7190,
      "వయస్సు": 7191,
      "వహి": 7192,
      "##క్రియ": 7193,
      "##టుగా": 7194,
      "##ందుకే": 7195,
      "##ంట్ల": 7196,
      "అనిపి": 7197,
      "వీలు": 7198,
      "కెసి": 7199,
      "అంశా": 7200,
      "ఉత్తమ": 7201,
      "ఐదుగురు": 7202,
      "ఇంటర్నే": 7203,
      "కార్యక్రమాన్ని": 7204,
      "ఫ్ల": 7205,
      "మ్యూజిక్": 7206,
      "ఛాన్స్": 7207,
      "బియ్యం": 7208,
      "డాక్యు": 7209,
      "ఐక్య": 7210,
      "##లండ్": 7211,
      "##لی": 7212,
      "##పుడు": 7213,
      "కొండా": 7214,
      "జగదీ": 7215,
      "కుటుంబాలకు": 7216,
      "తీవ్రమైన": 7217,
      "గ్రామీణ": 7218,
      "నిర్మాత": 7219,
      "అడుగులు": 7220,
      "ఆనంద్": 7221,
      "ఎకరాల్లో": 7222,
      "అశోక్": 7223,
      "##ంజు": 7224,
      "##తన్య": 7225,
      "##మణి": 7226,
      "##మాట": 7227,
      "సంకే": 7228,
      "##సేప": 7229,
      "సభకు": 7230,
      "ఆసుపత్రిలో": 7231,
      "లభించింది": 7232,
      "గ్యారంటీ": 7233,
      "ఇష్టం": 7234,
      "ఉప్పు": 7235,
      "బలోపే": 7236,
      "వరి": 7237,
      "##ai": 7238,
      "##ించకుండా": 7239,
      "##ద్దాం": 7240,
      "నేతలతో": 7241,
      "##గొట్ట": 7242,
      "లిస్ట్": 7243,
      "పారిశ్ర": 7244,
      "##ಡಿಯೋ": 7245,
      "ఆశా": 7246,
      "జట్టుకు": 7247,
      "టికెట్లు": 7248,
      "##రించిన": 7249,
      "##పించిన": 7250,
      "##శ్రా": 7251,
      "##యాంశ": 7252,
      "కూలీ": 7253,
      "తీర్చ": 7254,
      "##త్తం": 7255,
      "సమన్": 7256,
      "ఒకరి": 7257,
      "##మ్మద్": 7258,
      "అతడి": 7259,
      "చర్చనీ": 7260,
      "యువకుడు": 7261,
      "సౌత్": 7262,
      "నిమిషాల": 7263,
      "నిరాశ": 7264,
      "డయా": 7265,
      "వడ": 7266,
      "వస్తాయని": 7267,
      "సప్": 7268,
      "##ରି": 7269,
      "##పోత": 7270,
      "##స్తున్నాం": 7271,
      "##సేపు": 7272,
      "శ్రీరా": 7273,
      "నిర్వహించి": 7274,
      "##ూరులో": 7275,
      "##పూర్వ": 7276,
      "అన్నది": 7277,
      "యూనియన్": 7278,
      "హుస్": 7279,
      "కోరుతూ": 7280,
      "స్కామ్": 7281,
      "పవిత్ర": 7282,
      "వాట్సాప్": 7283,
      "47": 7284,
      "99": 7285,
      "گیا": 7286,
      "ఎల్ల": 7287,
      "గీ": 7288,
      "చర్మ": 7289,
      "పిల్": 7290,
      "##గల్": 7291,
      "##తంలో": 7292,
      "##ఫార్": 7293,
      "##చలం": 7294,
      "##నియ": 7295,
      "##ందింది": 7296,
      "మూసి": 7297,
      "సుదీ": 7298,
      "రాజకీయం": 7299,
      "భాగస్వామ": 7300,
      "చిన్నారి": 7301,
      "రోడ్లు": 7302,
      "ప్రసంగ": 7303,
      "నాయకత్వం": 7304,
      "పెట్రోల్": 7305,
      "డెలివరీ": 7306,
      "ఇళ్లు": 7307,
      "స్న": 7308,
      "పోల": 7309,
      "##లేద": 7310,
      "వాటికి": 7311,
      "##జాన్": 7312,
      "##ులైన": 7313,
      "తెలుస్తుంది": 7314,
      "జనతా": 7315,
      "##లికా": 7316,
      "అంశాలు": 7317,
      "##and": 7318,
      "వీరిలో": 7319,
      "గ్లోబల్": 7320,
      "43": 7321,
      "ఔట్": 7322,
      "##హే": 7323,
      "##వారీ": 7324,
      "##స్తాడు": 7325,
      "##కోవాల్సి": 7326,
      "డిపా": 7327,
      "##యింగ్": 7328,
      "అంతరి": 7329,
      "##గోపాల్": 7330,
      "పథకాల": 7331,
      "గాయాల": 7332,
      "##పోయిందని": 7333,
      "విభజన": 7334,
      "ధ్వంసం": 7335,
      "కసరత్తు": 7336,
      "59": 7337,
      "లలో": 7338,
      "##..": 7339,
      "##ప్ట్": 7340,
      "##టిక్స్": 7341,
      "ముక్క": 7342,
      "ప్రజల్లో": 7343,
      "ప్రారంభి": 7344,
      "స్వాగతం": 7345,
      "తనిఖీలు": 7346,
      "వేధింపు": 7347,
      "సస్పెండ్": 7348,
      "లిమిటెడ్": 7349,
      "ఐఏ": 7350,
      "జమ": 7351,
      "పార": 7352,
      "మిల్": 7353,
      "##డారు": 7354,
      "##దె": 7355,
      "##తన్": 7356,
      "##వంగా": 7357,
      "నితీ": 7358,
      "##నేయ": 7359,
      "వైరస్": 7360,
      "##ధ్యం": 7361,
      "##బంధు": 7362,
      "##హానికి": 7363,
      "##ల్‌గా": 7364,
      "గోడ": 7365,
      "పెరిగాయి": 7366,
      "అప్పుడే": 7367,
      "తీసుకెళ్": 7368,
      "శుభ్ర": 7369,
      "ఒప్పంద": 7370,
      "ఎన్డీఏ": 7371,
      "స్టోరీ": 7372,
      "ఆయుధ": 7373,
      "రాజమండ్రి": 7374,
      "వెబ్‌సై": 7375,
      "చర్చనీయాంశ": 7376,
      "ఆకా": 7377,
      "ఇంద్ర": 7378,
      "ఉంటూ": 7379,
      "ఎండీ": 7380,
      "థ్ర": 7381,
      "##లంలో": 7382,
      "ముప్పు": 7383,
      "##పాతం": 7384,
      "నెలలు": 7385,
      "తేదీల్లో": 7386,
      "పిల్లలను": 7387,
      "సొంతం": 7388,
      "ఇందిరా": 7389,
      "భోజనం": 7390,
      "పారిశ్రామిక": 7391,
      "ఆఫర్": 7392,
      "##షిక": 7393,
      "##or": 7394,
      "కొత్తగూడెం": 7395,
      "అయ్యి": 7396,
      "ఆధారాలు": 7397,
      "నిందితులు": 7398,
      "ఫలితాలను": 7399,
      "ఇంగ్లండ్": 7400,
      "నవీన్": 7401,
      "52": 7402,
      "##యన": 7403,
      "##కులతో": 7404,
      "##ంత్రా": 7405,
      "విగ్రహం": 7406,
      "##డీవో": 7407,
      "మెసే": 7408,
      "##కాశం": 7409,
      "కీలకమైన": 7410,
      "##ంటున్నాయి": 7411,
      "ఫాలో": 7412,
      "ఎయిర్‌": 7413,
      "సార్వ": 7414,
      "ఆశ్చర్య": 7415,
      "ఇంటెలిజెన్స్": 7416,
      "అహ్మద్": 7417,
      "ఏడా": 7418,
      "కేశ": 7419,
      "కబ్": 7420,
      "##మారి": 7421,
      "##ھی": 7422,
      "##ికో": 7423,
      "##మ్మా": 7424,
      "ఉన్నట్టు": 7425,
      "దాటి": 7426,
      "##రేటర్": 7427,
      "ప్రభుత్వంపై": 7428,
      "నేతలకు": 7429,
      "అతన్ని": 7430,
      "పడుతుంది": 7431,
      "వేడుకలు": 7432,
      "కోరుతున్నారు": 7433,
      "సీరియస్": 7434,
      "ఎగ": 7435,
      "చేతులు": 7436,
      "##ండెంట్": 7437,
      "కోటా": 7438,
      "కొట్టుకు": 7439,
      "భాస్కర్": 7440,
      "హామీలు": 7441,
      "తీర్మానం": 7442,
      "విశాఖపట్నం": 7443,
      "లభిస్తుంది": 7444,
      "దక్షిణాఫ్రికా": 7445,
      "పరంగా": 7446,
      "రాయ్": 7447,
      "##ద్వే": 7448,
      "పెడు": 7449,
      "లేకపోతే": 7450,
      "నాన్": 7451,
      "నెయ్యి": 7452,
      "##స్ట్రి": 7453,
      "ఉపయోగి": 7454,
      "సూచించింది": 7455,
      "సూచనలు": 7456,
      "##లికేషన్": 7457,
      "సీపీఐ": 7458,
      "ఆరుగు": 7459,
      "తహ": 7460,
      "పరిక": 7461,
      "##హాలను": 7462,
      "##le": 7463,
      "##డియం": 7464,
      "నిత్యం": 7465,
      "##సీస్": 7466,
      "సమగ్ర": 7467,
      "పదో": 7468,
      "వాటిలో": 7469,
      "సంఘాల": 7470,
      "కిలోల": 7471,
      "శంకు": 7472,
      "గేమ్": 7473,
      "క్వార్": 7474,
      "బ్రాండ్": 7475,
      "ఖండ": 7476,
      "పత": 7477,
      "వు": 7478,
      "##సార": 7479,
      "##టీస్": 7480,
      "##వుల్లో": 7481,
      "వచ్చాక": 7482,
      "చూసే": 7483,
      "స్థలానికి": 7484,
      "##సాహ": 7485,
      "బెడ్": 7486,
      "కారణమని": 7487,
      "క్షమా": 7488,
      "విక్రయ": 7489,
      "ఛైర్మన్": 7490,
      "పటేల్": 7491,
      "గార్": 7492,
      "##ంటారని": 7493,
      "బీమా": 7494,
      "సమయానికి": 7495,
      "తెలిసిన": 7496,
      "##టర్స్": 7497,
      "భాగం": 7498,
      "రాజీవ్": 7499,
      "ఎక్కడా": 7500,
      "ఏను": 7501,
      "వలన": 7502,
      "##పాలి": 7503,
      "##మెన్": 7504,
      "వాళ్లకు": 7505,
      "పిఠా": 7506,
      "##ల్‌క": 7507,
      "##షియా": 7508,
      "డీజీపీ": 7509,
      "ఎంపీలు": 7510,
      "శ్రీనివాస": 7511,
      "గుండెపోటు": 7512,
      "అదనంగా": 7513,
      "కడుపు": 7514,
      "చక్ర": 7515,
      "వేముల": 7516,
      "రివ్యూ": 7517,
      "మార్గం": 7518,
      "బిఆర్ఎస్": 7519,
      "##ర్యానా": 7520,
      "చెబుతున్నాయి": 7521,
      "నమ్ము": 7522,
      "నిర్వహిస్తున్నారు": 7523,
      "సిద్దం": 7524,
      "తినడం": 7525,
      "పరిశోధన": 7526,
      "అబ్దు": 7527,
      "బలం": 7528,
      "##నెట్": 7529,
      "##హిల్స్": 7530,
      "##ాలె": 7531,
      "##వర్స్": 7532,
      "##ణాల్లో": 7533,
      "బెది": 7534,
      "నాయకుల": 7535,
      "ధరణి": 7536,
      "ట్రాక్": 7537,
      "##ద్దీన్": 7538,
      "అంతేకాకుండా": 7539,
      "సునీల్": 7540,
      "56": 7541,
      "ఏసీ": 7542,
      "బదు": 7543,
      "##చారి": 7544,
      "##‌‌‌‌ను": 7545,
      "కూర్చ": 7546,
      "##ంతోనే": 7547,
      "తీయ": 7548,
      "##కానికి": 7549,
      "రూరల్": 7550,
      "పార్టీలకు": 7551,
      "టీజర్": 7552,
      "##స్టార": 7553,
      "కనిపిస్తున్నాయి": 7554,
      "ప్రజాప్ర": 7555,
      "నిర్మల్": 7556,
      "హత్యకు": 7557,
      "అడుగుల": 7558,
      "భువన": 7559,
      "స్కోరు": 7560,
      "go": 7561,
      "ఉందా": 7562,
      "త‌": 7563,
      "##గ్రి": 7564,
      "##ುತ್ತ": 7565,
      "##స్తం": 7566,
      "##వులకు": 7567,
      "##న్‌తో": 7568,
      "సహకార": 7569,
      "మొత్తంలో": 7570,
      "అప్లికేషన్": 7571,
      "రాయల": 7572,
      "అప్పులు": 7573,
      "గమనార్": 7574,
      "యాజమాన్యం": 7575,
      "గమనార్హం": 7576,
      "కన్నా": 7577,
      "గై": 7578,
      "గల్": 7579,
      "##కారులు": 7580,
      "##ಂಬ": 7581,
      "##గుట్ట": 7582,
      "సమయంలోనే": 7583,
      "మనసు": 7584,
      "తప్పకుండా": 7585,
      "ఘటనలు": 7586,
      "ఇందుకోసం": 7587,
      "దోపి": 7588,
      "కార్మికుల": 7589,
      "నెటిజన్లు": 7590,
      "ఇంటర్నేషనల్": 7591,
      "సమన్వ": 7592,
      "85": 7593,
      "అఫ్": 7594,
      "##కమ్మ": 7595,
      "##ఖరి": 7596,
      "నువ్వు": 7597,
      "పోషి": 7598,
      "##ానన్నారు": 7599,
      "నాశ": 7600,
      "హైవే": 7601,
      "సినిమాల్లో": 7602,
      "జనగామ": 7603,
      "సాధించ": 7604,
      "పాలస్తీ": 7605,
      "అంబా": 7606,
      "బయటికి": 7607,
      "##ించుకోవ": 7608,
      "టాపిక్": 7609,
      "పేదలకు": 7610,
      "అధ్యక్షుడిగా": 7611,
      "తెల్లవారుజ": 7612,
      "కరు": 7613,
      "పాలి": 7614,
      "##ବା": 7615,
      "విరమ": 7616,
      "మావో": 7617,
      "##స్తున్నది": 7618,
      "పొర": 7619,
      "జాబ్": 7620,
      "గంటల్లో": 7621,
      "ముందుగానే": 7622,
      "ఢిల్లీకి": 7623,
      "స్పందించిన": 7624,
      "ఎదుర్కొంటున్న": 7625,
      "ఎగ్జా": 7626,
      "సర్పంచ్": 7627,
      "బంగాళా": 7628,
      "సుదీర్ఘ": 7629,
      "یہ": 7630,
      "బల్": 7631,
      "##డూ": 7632,
      "##ଥି": 7633,
      "##న్నట్లు": 7634,
      "విజే": 7635,
      "నిరూ": 7636,
      "వేస": 7637,
      "వాల్": 7638,
      "ఎన్నికలలో": 7639,
      "నాట": 7640,
      "సెగ్": 7641,
      "##పోయారని": 7642,
      "కలిసిన": 7643,
      "ప్రారంభించిన": 7644,
      "పెట్టే": 7645,
      "అత్యు": 7646,
      "అత్యవసర": 7647,
      "సీతక్క": 7648,
      "నొప్పి": 7649,
      "నేతృత్వంలోని": 7650,
      "శంకుస్థ": 7651,
      "అచ్చ": 7652,
      "##ab": 7653,
      "##లింగ": 7654,
      "స్ఫ": 7655,
      "సోదాలు": 7656,
      "జాతర": 7657,
      "పనితీరు": 7658,
      "వెళ్ళ": 7659,
      "కాలంగా": 7660,
      "అనుమానం": 7661,
      "సురేష్": 7662,
      "సూచిస్తున్నారు": 7663,
      "సదుపాయ": 7664,
      "ఎంచ": 7665,
      "హర్యానా": 7666,
      "##దిన": 7667,
      "##ఫై": 7668,
      "స్పా": 7669,
      "కోల్‌క": 7670,
      "##నీటి": 7671,
      "తెలిపిన": 7672,
      "##కరించింది": 7673,
      "##చేయ": 7674,
      "##త్తుల": 7675,
      "మండలి": 7676,
      "పనులకు": 7677,
      "సంగీ": 7678,
      "సాగుతోంది": 7679,
      "పెట్టుకుని": 7680,
      "పరామర్శ": 7681,
      "కలుపు": 7682,
      "రస": 7683,
      "##మనే": 7684,
      "##ారంటే": 7685,
      "##్ర్": 7686,
      "##వాదం": 7687,
      "##టిస్": 7688,
      "##పైగా": 7689,
      "మామిడి": 7690,
      "కూల్": 7691,
      "అనుసర": 7692,
      "##షిప్": 7693,
      "దూసు": 7694,
      "పదవికి": 7695,
      "ప్రకటనలో": 7696,
      "సమాధాన": 7697,
      "స్కీమ్": 7698,
      "స్టేడియంలో": 7699,
      "కక్ష": 7700,
      "మంచ": 7701,
      "యొక్క": 7702,
      "సత్తా": 7703,
      "##నన్న": 7704,
      "##నైనా": 7705,
      "##హనం": 7706,
      "చేరే": 7707,
      "##సుల": 7708,
      "స్పి": 7709,
      "పెంపు": 7710,
      "వైర": 7711,
      "ప్రపంచంలో": 7712,
      "ఆశీర్": 7713,
      "##సీసీఐ": 7714,
      "లెక్కలు": 7715,
      "పండగ": 7716,
      "రవీంద్ర": 7717,
      "సీఎంగా": 7718,
      "58": 7719,
      "అంజ": 7720,
      "జట్లు": 7721,
      "##తుందా": 7722,
      "##త్వాన్ని": 7723,
      "విలీ": 7724,
      "కొల": 7725,
      "సిట్": 7726,
      "సిగ్": 7727,
      "సీజ్": 7728,
      "##ల్లికి": 7729,
      "బాస్": 7730,
      "టీఎంసీ": 7731,
      "##క్కులు": 7732,
      "మార్క్": 7733,
      "స్పే": 7734,
      "సందే": 7735,
      "డైలా": 7736,
      "కాల్పులు": 7737,
      "గెలుపొ": 7738,
      "మల్లిక": 7739,
      "స్మార్ట్": 7740,
      "--": 7741,
      "ہیں": 7742,
      "గది": 7743,
      "##రద": 7744,
      "##భద్ర": 7745,
      "##చీ": 7746,
      "##యాలను": 7747,
      "##వద్దని": 7748,
      "##ద్వారా": 7749,
      "తెరి": 7750,
      "కోరింది": 7751,
      "వేలాది": 7752,
      "మొన్న": 7753,
      "సమాచారాన్ని": 7754,
      "వర్కింగ్": 7755,
      "##ుకుంది": 7756,
      "బిలియన్": 7757,
      "ఎవరికీ": 7758,
      "గొంతు": 7759,
      "పౌర": 7760,
      "సెకండ్": 7761,
      "ప్రతినిధులు": 7762,
      "జుట్టు": 7763,
      "ప్రభావితం": 7764,
      "బలహీన": 7765,
      "బ్రిడ్జి": 7766,
      "భువనగిరి": 7767,
      "##బడ": 7768,
      "##di": 7769,
      "##ag": 7770,
      "##ట్లతో": 7771,
      "##ార్జ్": 7772,
      "మార్చు": 7773,
      "మార్గంలో": 7774,
      "హైదరాబాద్‌లో": 7775,
      "కలసి": 7776,
      "196": 7777,
      "ఢిల్లీలోని": 7778,
      "పోరాట": 7779,
      "ఆస్పత్రిలో": 7780,
      "ఉచితంగా": 7781,
      "ఏమిటి": 7782,
      "విశ్లేష": 7783,
      "టూ": 7784,
      "##ఐఆర్": 7785,
      "##ర్తి": 7786,
      "##వుతుంది": 7787,
      "సిలి": 7788,
      "మేయర్": 7789,
      "సమాచార": 7790,
      "ఆర్టి": 7791,
      "##షింగ్": 7792,
      "##పర్తి": 7793,
      "అమెరిక": 7794,
      "దొరక": 7795,
      "గ్రూపు": 7796,
      "అప్రమత్తంగా": 7797,
      "దృశ": 7798,
      "ఫౌ": 7799,
      "##యంతో": 7800,
      "##వత్": 7801,
      "##ంటాడు": 7802,
      "వెల్లు": 7803,
      "కొరియా": 7804,
      "బీసీసీఐ": 7805,
      "పరిణా": 7806,
      "నెలకు": 7807,
      "##క్రో": 7808,
      "పాల్పడిన": 7809,
      "ప్రభుత్వాలు": 7810,
      "కనిపించడం": 7811,
      "600": 7812,
      "ఒప్పు": 7813,
      "ధా": 7814,
      "సన్న": 7815,
      "##పించి": 7816,
      "చేస్తుందని": 7817,
      "నిధుల": 7818,
      "రాఘ": 7819,
      "స్ట్రా": 7820,
      "మోడల్": 7821,
      "సినిమాతో": 7822,
      "తోడు": 7823,
      "సందీ": 7824,
      "భూముల": 7825,
      "జరుగుతుందని": 7826,
      "సంచారం": 7827,
      "ప్రముఖులు": 7828,
      "లాభాలు": 7829,
      "ధర్మాస": 7830,
      "గ్లా": 7831,
      "లొ": 7832,
      "లారీ": 7833,
      "##టల్స్": 7834,
      "##ధ్": 7835,
      "##ct": 7836,
      "##డిట్": 7837,
      "##సిపి": 7838,
      "చెత్త": 7839,
      "సివిల్": 7840,
      "##ప్రసాద్": 7841,
      "చంద్రశేఖర్": 7842,
      "లక్షణాలు": 7843,
      "గురయ్యారు": 7844,
      "క్లీ": 7845,
      "స్థానాలకు": 7846,
      "క్వి": 7847,
      "ప్రయోజనాలు": 7848,
      "నిషేధ": 7849,
      "ఉపాధ్యాయ": 7850,
      "కూలి": 7851,
      "లేవని": 7852,
      "ఏర్పడి": 7853,
      "సరిగా": 7854,
      "చరిత్రలో": 7855,
      "కాకినా": 7856,
      "ప్రోత్సహ": 7857,
      "57": 7858,
      "ఇవ్": 7859,
      "ఏమైనా": 7860,
      "ఘటనా": 7861,
      "జాన": 7862,
      "##పిల్": 7863,
      "##మాల": 7864,
      "##9లో": 7865,
      "##ెస్ట": 7866,
      "నేపాల్": 7867,
      "మేష": 7868,
      "##తాం": 7869,
      "తిప్ప": 7870,
      "వచ్చినట్లు": 7871,
      "రీసె": 7872,
      "శరీరం": 7873,
      "విభే": 7874,
      "బతుకమ్మ": 7875,
      "అవినాష్": 7876,
      "నిలిపివే": 7877,
      "ವಿಡಿಯೋ": 7878,
      "ఈవీఎం": 7879,
      "కాకినాడ": 7880,
      "కన్నీ": 7881,
      "చాలు": 7882,
      "డౌన్": 7883,
      "##పారు": 7884,
      "##స్పా": 7885,
      "ప్రగతి": 7886,
      "##ామో": 7887,
      "పింఛ": 7888,
      "హాల్": 7889,
      "పనిచేసిన": 7890,
      "చేసుకోవడం": 7891,
      "వాహనం": 7892,
      "##ేశ్వరి": 7893,
      "క్రిమిన": 7894,
      "రిజర్వ్": 7895,
      "బ్రిటన్": 7896,
      "చౌదరి": 7897,
      "చక్కెర": 7898,
      "పడ్డారు": 7899,
      "డిజైన్": 7900,
      "చిత్తూరు": 7901,
      "పొలిటికల్": 7902,
      "లక్నో": 7903,
      "అవా": 7904,
      "ఏండ్ల": 7905,
      "కట్": 7906,
      "గద్": 7907,
      "పల్లె": 7908,
      "##కప్": 7909,
      "##ion": 7910,
      "##ದಲ್ಲಿ": 7911,
      "విల": 7912,
      "##పోతే": 7913,
      "రేంజ్": 7914,
      "##స్టార్": 7915,
      "కలిశారు": 7916,
      "గోల్": 7917,
      "లీక్": 7918,
      "కోల్పోయిన": 7919,
      "దారుణంగా": 7920,
      "రాజేంద్ర": 7921,
      "జేడీఎస్": 7922,
      "రాయలసీమ": 7923,
      "##డిక": 7924,
      "##ుని": 7925,
      "##చరణ": 7926,
      "##న్నర్": 7927,
      "##స్తరు": 7928,
      "లోపు": 7929,
      "జాన్": 7930,
      "అతడు": 7931,
      "ఎదుట": 7932,
      "చోరీ": 7933,
      "డేట్": 7934,
      "కథనం": 7935,
      "గాయపడిన": 7936,
      "వృత్తి": 7937,
      "నడుపు": 7938,
      "ఆసుపత్రి": 7939,
      "విషయాలను": 7940,
      "53": 7941,
      "64": 7942,
      "నంది": 7943,
      "బస": 7944,
      "సత్": 7945,
      "##హరి": 7946,
      "##ir": 7947,
      "##విటీ": 7948,
      "తాత్": 7949,
      "ఏర్పడ": 7950,
      "ఫోర్స్": 7951,
      "వార్డు": 7952,
      "సొసై": 7953,
      "పక్కా": 7954,
      "ముంబయి": 7955,
      "వెనక": 7956,
      "భువ": 7957,
      "మృతదేహాన్ని": 7958,
      "##రోధక": 7959,
      "72": 7960,
      "గరి": 7961,
      "దారిత": 7962,
      "బ్యూటీ": 7963,
      "సజ్జ": 7964,
      "##బడ్డ": 7965,
      "##వన్నీ": 7966,
      "##న్నాయని": 7967,
      "వెలి": 7968,
      "పోర్ట్": 7969,
      "సీఎస్": 7970,
      "##ారాబాద్": 7971,
      "మేడ్": 7972,
      "అనుభవ": 7973,
      "కేంద్రానికి": 7974,
      "అవుట్": 7975,
      "##ంజర్": 7976,
      "కుటుంబంలో": 7977,
      "గుర్తించ": 7978,
      "ఆందోళనకు": 7979,
      "నిబంధనలు": 7980,
      "హర్ష": 7981,
      "అఖి": 7982,
      "వినోద్": 7983,
      "బ్యారేజీ": 7984,
      "ఆస్తి": 7985,
      "##ందీ": 7986,
      "##వరకూ": 7987,
      "##యింట్": 7988,
      "##స్‌తో": 7989,
      "##కాలంగా": 7990,
      "కౌంటింగ్": 7991,
      "ముగియ": 7992,
      "\".\"": 7993,
      "ఆకర్ష": 7994,
      "నివసి": 7995,
      "##పరచ": 7996,
      "ప్రజాప్రతిని": 7997,
      "ಪ್ರ": 7998,
      "##హర": 7999,
      "విడా": 8000,
      "##ేశారని": 8001,
      "పాండ": 8002,
      "బీహార్": 8003,
      "రాజశేఖర్": 8004,
      "తీసుకుంటే": 8005,
      "తేలి": 8006,
      "మాట్లాడి": 8007,
      "ముఖ్యం": 8008,
      "బీఆర్‌": 8009,
      "తెలుపు": 8010,
      "195": 8011,
      "సమావేశానికి": 8012,
      "చైర్": 8013,
      "కృత": 8014,
      "##బెట్ట": 8015,
      "ఎలక్షన్": 8016,
      "జరుపుకు": 8017,
      "సెగ్మెంట్": 8018,
      "ఆడిన": 8019,
      "ఇష": 8020,
      "గూడ": 8021,
      "దళి": 8022,
      "##ର୍": 8023,
      "##5లో": 8024,
      "##కున్నా": 8025,
      "##ల్లోనూ": 8026,
      "##లేం": 8027,
      "##ప్పులు": 8028,
      "పేట": 8029,
      "ప్రాతిని": 8030,
      "మార్చుకు": 8031,
      "వారీగా": 8032,
      "పేర్కొన్న": 8033,
      "కాంట్రాక్": 8034,
      "నిర్లక్ష్యం": 8035,
      "అలవాటు": 8036,
      "63": 8037,
      "తార": 8038,
      "##దశి": 8039,
      "##ట్టం": 8040,
      "రెస్టార": 8041,
      "రాష్ట్రాలకు": 8042,
      "పొన్నం": 8043,
      "కల్తీ": 8044,
      "అంశాలను": 8045,
      "చూడాలని": 8046,
      "ఇజ్రాయె": 8047,
      "సాధ్యం": 8048,
      "తరహాలో": 8049,
      "బస్సులు": 8050,
      "సామాన్య": 8051,
      "కెసిఆర్": 8052,
      "సొసైటీ": 8053,
      "టెన్షన్": 8054,
      "డొ": 8055,
      "పల్": 8056,
      "సల్": 8057,
      "##ేయ": 8058,
      "##చారానికి": 8059,
      "##థా": 8060,
      "##لا": 8061,
      "##ాలూ": 8062,
      "##రిలో": 8063,
      "కాంబ": 8064,
      "##పైనే": 8065,
      "##దాని": 8066,
      "ఒక్కొక్క": 8067,
      "దూర": 8068,
      "గౌత": 8069,
      "ప్లేస్": 8070,
      "స్క్రీన్": 8071,
      "వినిపిస్తున్నాయి": 8072,
      "ఘోర": 8073,
      "పరిశీలి": 8074,
      "అంతరిక్ష": 8075,
      "కీర్": 8076,
      "వస్తున్నారు": 8077,
      "ವೈ": 8078,
      "##um": 8079,
      "##1లో": 8080,
      "##ଛି": 8081,
      "ప్రతిక": 8082,
      "రానుంది": 8083,
      "వెయ్యి": 8084,
      "టీపీ": 8085,
      "స్టాక్": 8086,
      "రైళ్లు": 8087,
      "విషయానికి": 8088,
      "కేంద్రంలోని": 8089,
      "హెలికా": 8090,
      "డీఎం": 8091,
      "చేసుకున్నాడు": 8092,
      "అడిగి": 8093,
      "కంటెంట్": 8094,
      "వెళ్లేందుకు": 8095,
      "అరుదైన": 8096,
      "జడ్జి": 8097,
      "దర్శకత్వంలో": 8098,
      "అన్యాయం": 8099,
      "బాలా": 8100,
      "మహ్మద్": 8101,
      "##et": 8102,
      "##గాయని": 8103,
      "##ప్స్": 8104,
      "మానే": 8105,
      "ఆయన్ను": 8106,
      "మేడి": 8107,
      "చిన్నారు": 8108,
      "పొగ": 8109,
      "జీవన": 8110,
      "పెద్దలు": 8111,
      "సమస్యను": 8112,
      "అందించిన": 8113,
      "నిలిచారు": 8114,
      "పరిస్థితిని": 8115,
      "వ్యాపారం": 8116,
      "మారుతోంది": 8117,
      "కాపాడ": 8118,
      "జయంతి": 8119,
      "భద్రాచలం": 8120,
      "మలయా": 8121,
      "దోపిడీ": 8122,
      "తాత్కాలిక": 8123,
      "ఇస్తున్నారు": 8124,
      "ఊపిరి": 8125,
      "టర్": 8126,
      "##చా": 8127,
      "##‌‌గా": 8128,
      "ఆయిల్": 8129,
      "నిర్వహించాలని": 8130,
      "అందించే": 8131,
      "స్వతంత్ర": 8132,
      "వైద్యం": 8133,
      "ఒకేసారి": 8134,
      "రహదారి": 8135,
      "చెందారు": 8136,
      "జరిపిన": 8137,
      "కేటాయింపు": 8138,
      "సార్వత్రిక": 8139,
      "ఎలి": 8140,
      "ధృ": 8141,
      "##ెన": 8142,
      "##మిని": 8143,
      "గులా": 8144,
      "##రంభ": 8145,
      "##్యూటర్": 8146,
      "సహకర": 8147,
      "ఆరోగ్యానికి": 8148,
      "రికార్": 8149,
      "గాయాలు": 8150,
      "సిటీలో": 8151,
      "ప్రాధాన్యం": 8152,
      "ప్రశాంత": 8153,
      "కౌన్సిల్": 8154,
      "##పోర్ట్స్": 8155,
      "సందీప్": 8156,
      "ఇవే": 8157,
      "టూరి": 8158,
      "పటి": 8159,
      "##ెయి": 8160,
      "##నంద": 8161,
      "##బాయ్": 8162,
      "##నుందని": 8163,
      "##రులకు": 8164,
      "##పుర": 8165,
      "బాట": 8166,
      "##ట్లలో": 8167,
      "పైకి": 8168,
      "దిగి": 8169,
      "కలవ": 8170,
      "లింక్": 8171,
      "తగ్గింది": 8172,
      "వ్యాఖ్యలపై": 8173,
      "బొమ్మ": 8174,
      "కమలా": 8175,
      "నిజానికి": 8176,
      "యజమాని": 8177,
      "వాణిజ": 8178,
      "క్షమాపణ": 8179,
      "ధర్మాసనం": 8180,
      "ra": 8181,
      "బక": 8182,
      "లండ": 8183,
      "##ొద్దు": 8184,
      "##జార్": 8185,
      "##బొ": 8186,
      "స్వే": 8187,
      "సమంత": 8188,
      "చూస్తున్న": 8189,
      "కేంద్రంగా": 8190,
      "కల్వకు": 8191,
      "వెల్లడి": 8192,
      "టాస్": 8193,
      "నియమి": 8194,
      "చేయాల్సిన": 8195,
      "సదరు": 8196,
      "2014లో": 8197,
      "భూకంపం": 8198,
      "కానిస్టేబుల్": 8199,
      "బంగాళాఖా": 8200,
      "భువనేశ్వ": 8201,
      "66": 8202,
      "కన్ను": 8203,
      "పాలకు": 8204,
      "##దాయ": 8205,
      "##గాడు": 8206,
      "తీర": 8207,
      "వేటు": 8208,
      "నాన్న": 8209,
      "శ్రీకా": 8210,
      "నేతలను": 8211,
      "విధించింది": 8212,
      "సాధించి": 8213,
      "మొత్తంగా": 8214,
      "చర్చించారు": 8215,
      "లీకేజీ": 8216,
      "కిందట": 8217,
      "తుఫ": 8218,
      "వ్యాపారులు": 8219,
      "##ండీస్": 8220,
      "ప్రీమి": 8221,
      "అధిష్ట": 8222,
      "డిగ్రీల": 8223,
      "మల్కా": 8224,
      "లోకేశ్": 8225,
      "ఎత్త": 8226,
      "ట్రీ": 8227,
      "##తాడు": 8228,
      "##ాలీ": 8229,
      "##పురంలో": 8230,
      "చేయడంలో": 8231,
      "##వేర్": 8232,
      "పనిచేశారు": 8233,
      "ఏపీకి": 8234,
      "మహే": 8235,
      "సంఘాలు": 8236,
      "వివాదా": 8237,
      "వృద్ధి": 8238,
      "వ్యవస్థను": 8239,
      "జీహెచ్ఎంసీ": 8240,
      "ఐఏఎస్": 8241,
      "అబ్బ": 8242,
      "తినే": 8243,
      "ల్": 8244,
      "##‌కి": 8245,
      "కొడు": 8246,
      "రెజ్": 8247,
      "ఇచ్చాడు": 8248,
      "సందర్బ": 8249,
      "##ించుకునే": 8250,
      "##క్కింది": 8251,
      "చనిపోయారు": 8252,
      "హనుమాన్": 8253,
      "చెప్తున్నారు": 8254,
      "అనుభవం": 8255,
      "పాయి": 8256,
      "వో": 8257,
      "##కత": 8258,
      "##తానని": 8259,
      "##ంగో": 8260,
      "తానే": 8261,
      "వర్గానికి": 8262,
      "తరచూ": 8263,
      "##ించుకునేందుకు": 8264,
      "పట్టించుకోవడం": 8265,
      "విడుదలైన": 8266,
      "ప్రపంచంలోనే": 8267,
      "చేసుకొని": 8268,
      "వైఎస్‌": 8269,
      "న్యాయమూర్తి": 8270,
      "తలెత్త": 8271,
      "##మైందని": 8272,
      "ఎన్డీయే": 8273,
      "కోల్‌కతా": 8274,
      "62": 8275,
      "77": 8276,
      "మగ": 8277,
      "##య‌": 8278,
      "##రులను": 8279,
      "కుమార": 8280,
      "##ులుగా": 8281,
      "మెరుపు": 8282,
      "##తాబ్": 8283,
      "చేస్తున్నాడు": 8284,
      "పీఎస్": 8285,
      "పనిచేయ": 8286,
      "హామీలను": 8287,
      "యూనిట్": 8288,
      "కష్టాలు": 8289,
      "పర్యావరణ": 8290,
      "ఉగ్రవా": 8291,
      "ఇన్వెస్": 8292,
      "వేర్వే": 8293,
      "ఖచ్చితంగా": 8294,
      "డ్రో": 8295,
      "దౌ": 8296,
      "మరు": 8297,
      "##చర్లు": 8298,
      "##un": 8299,
      "##ించండి": 8300,
      "పోయ": 8301,
      "చేస్తాయి": 8302,
      "జీర్ణ": 8303,
      "పనిలో": 8304,
      "##మెంట్స్": 8305,
      "భారతదేశం": 8306,
      "జైల్లో": 8307,
      "రంగం": 8308,
      "##ఫాబాద్": 8309,
      "అంబటి": 8310,
      "##ఫోన్": 8311,
      "హనుమకొండ": 8312,
      "లక్ష్మణ్": 8313,
      "అసంతృప్తి": 8314,
      "బలోపేతం": 8315,
      "మావోయి": 8316,
      "పరిణామాలు": 8317,
      "tel": 8318,
      "అజయ్": 8319,
      "ఏది": 8320,
      "##తక": 8321,
      "##ప్టర్": 8322,
      "మాస": 8323,
      "చేయలేదని": 8324,
      "##కోవడంతో": 8325,
      "##సానికి": 8326,
      "వర్తి": 8327,
      "మోట": 8328,
      "##చేసిన": 8329,
      "వర్షాల": 8330,
      "పోలీసులను": 8331,
      "యువకులు": 8332,
      "నగరం": 8333,
      "బెంగళూరులో": 8334,
      "స్టేడియం": 8335,
      "నెరవేర్చ": 8336,
      "శాస్త్రవేత్తలు": 8337,
      "దారితీ": 8338,
      "అండర్": 8339,
      "టూర్": 8340,
      "హృ": 8341,
      "కొంచ": 8342,
      "చూస్తున్నారు": 8343,
      "చేసినట్టు": 8344,
      "పురో": 8345,
      "సినిమాపై": 8346,
      "యూఎస్": 8347,
      "ఇకపై": 8348,
      "నిలిచిన": 8349,
      "ఫీచర్": 8350,
      "భవనం": 8351,
      "విరుద్ధ": 8352,
      "అద్దె": 8353,
      "టన్నుల": 8354,
      "ఆస్తులు": 8355,
      "ఇయర్": 8356,
      "ఇండ్ల": 8357,
      "పట్టి": 8358,
      "శ్రా": 8359,
      "##త్రా": 8360,
      "దాకా": 8361,
      "తిరస్": 8362,
      "మిలి": 8363,
      "సహకారం": 8364,
      "##ించుకోవాలని": 8365,
      "చేపట్టాలని": 8366,
      "న్యాయస్థానం": 8367,
      "తెలుసుకున్నారు": 8368,
      "ఆస్పత్రి": 8369,
      "అర్ధరాత్రి": 8370,
      "ప్రభావంతో": 8371,
      "ఆసీస్": 8372,
      "ఊర": 8373,
      "పసి": 8374,
      "బయో": 8375,
      "సమితి": 8376,
      "##ఐఎం": 8377,
      "##మెన్స్": 8378,
      "వేసు": 8379,
      "దీర్ఘ": 8380,
      "##చేందుకు": 8381,
      "##వేశారు": 8382,
      "శిశు": 8383,
      "దేవి": 8384,
      "టైంలో": 8385,
      "##భివృ": 8386,
      "జియో": 8387,
      "అదృ": 8388,
      "ఖాతాలో": 8389,
      "సోదరుడు": 8390,
      "ఆసక్తికర": 8391,
      "ఇస్లా": 8392,
      "మెసేజ్": 8393,
      "ద‌": 8394,
      "బంద్": 8395,
      "##విక": 8396,
      "తెచ్చి": 8397,
      "కొబ్బ": 8398,
      "సిం": 8399,
      "##పిక్స్": 8400,
      "ఇచ్చేందుకు": 8401,
      "పొందే": 8402,
      "గిరిజను": 8403,
      "దారుణ": 8404,
      "##స్టేట్": 8405,
      "కళాశాల": 8406,
      "కర్నూలు": 8407,
      "తెల్లవారుజామున": 8408,
      "ఐదో": 8409,
      "కండు": 8410,
      "##వాణి": 8411,
      "లోనూ": 8412,
      "స్థాయికి": 8413,
      "కింగ్": 8414,
      "డిఫ": 8415,
      "మోస్తరు": 8416,
      "సిద్ధరామయ్య": 8417,
      "స్వచ్ఛ": 8418,
      "స్టార్ట్": 8419,
      "దాడిలో": 8420,
      "వస్తువులు": 8421,
      "కబ్జా": 8422,
      "07": 8423,
      "61": 8424,
      "ఎస్‌": 8425,
      "గంగా": 8426,
      "తవ్వ": 8427,
      "దానం": 8428,
      "##శాయి": 8429,
      "##‌‌‌‌‌‌‌‌ను": 8430,
      "##నీరు": 8431,
      "సందేశ": 8432,
      "భూపాల": 8433,
      "మొత్తాన్ని": 8434,
      "గ్రామాల": 8435,
      "దగ్గరకు": 8436,
      "వికారాబాద్": 8437,
      "##మయ్యే": 8438,
      "##గాలని": 8439,
      "##వెళ్ల": 8440,
      "బైడెన్": 8441,
      "ముగిసింది": 8442,
      "నగరంలోని": 8443,
      "మునిగి": 8444,
      "అంట": 8445,
      "అబద్ధ": 8446,
      "ఐసీసీ": 8447,
      "##దండ": 8448,
      "##టేషన్": 8449,
      "##ఎండీ": 8450,
      "##ವನ್ನು": 8451,
      "##శాలలో": 8452,
      "స్పోర్ట్స్": 8453,
      "తీసే": 8454,
      "##లేషన్": 8455,
      "##ానంద": 8456,
      "##నాల్": 8457,
      "##భావం": 8458,
      "తప్పి": 8459,
      "అర్బన్": 8460,
      "నిందితులను": 8461,
      "రాష్ట్రాన్ని": 8462,
      "##మూరి": 8463,
      "ఎవరో": 8464,
      "విస్తరణ": 8465,
      "మనోజ్": 8466,
      "సదస్సు": 8467,
      "చిరుత": 8468,
      "చిత్రాన్ని": 8469,
      "నినాదాలు": 8470,
      "పండితులు": 8471,
      "కష్టం": 8472,
      "ధన్య": 8473,
      "మిల్ల": 8474,
      "సరికొ": 8475,
      "##కూర్": 8476,
      "##ాంగ": 8477,
      "##మల్": 8478,
      "##es": 8479,
      "##ందట": 8480,
      "##లోగా": 8481,
      "##వాదాలు": 8482,
      "##ుకునే": 8483,
      "ఇచ్చారని": 8484,
      "##శ్వాస": 8485,
      "జీవన్": 8486,
      "కేసుల్లో": 8487,
      "అనర్": 8488,
      "మహేశ్": 8489,
      "చైతన్య": 8490,
      "లాభం": 8491,
      "మౌలిక": 8492,
      "బయలుదేరి": 8493,
      "సైన్యం": 8494,
      "చంపే": 8495,
      "రకర": 8496,
      "##మంత్ర": 8497,
      "##కోండి": 8498,
      "పరిమ": 8499,
      "పైల": 8500,
      "ఎంజ": 8501,
      "పెట్టడం": 8502,
      "##బియా": 8503,
      "షిప్": 8504,
      "భూములను": 8505,
      "ఆంక్షలు": 8506,
      "తూ": 8507,
      "త్యా": 8508,
      "బండ": 8509,
      "##ణిక": 8510,
      "##న్‌లో": 8511,
      "ప్రార్థ": 8512,
      "##మానా": 8513,
      "కావాల్సిన": 8514,
      "సంస్": 8515,
      "##జేషన్": 8516,
      "బుమ్రా": 8517,
      "వార్తా": 8518,
      "ప్రియు": 8519,
      "సింగిల్": 8520,
      "భవిష్యత్తులో": 8521,
      "అవకాశముందని": 8522,
      "దీపావళి": 8523,
      "ವೈರ": 8524,
      "సరికొత్త": 8525,
      "):": 8526,
      "73": 8527,
      "ఆప్షన్": 8528,
      "ఛత్తీ": 8529,
      "సగం": 8530,
      "##ಿಗೆ": 8531,
      "వేసే": 8532,
      "లేన": 8533,
      "##కాడ": 8534,
      "రిటర్": 8535,
      "మూసీ": 8536,
      "అంతర": 8537,
      "కేసుల": 8538,
      "తెలుసా": 8539,
      "సమస్యలపై": 8540,
      "చర్చి": 8541,
      "తుమ్మల": 8542,
      "నిర్మించారు": 8543,
      "దోచుకు": 8544,
      "పర్యటనలో": 8545,
      "కురుస్తాయని": 8546,
      "నిరుద్యోగ": 8547,
      "అనారోగ": 8548,
      "మినహ": 8549,
      "ప్రమోషన్": 8550,
      "శంకుస్థాపన": 8551,
      "ఆర": 8552,
      "ఆదర్శ": 8553,
      "ఎఫ": 8554,
      "గడ్డ": 8555,
      "దయా": 8556,
      "##ొచ్చ": 8557,
      "వేలకు": 8558,
      "##ండ్లను": 8559,
      "బీజేపీతో": 8560,
      "మధ్యంతర": 8561,
      "ప్రారంభోత్స": 8562,
      "చెబుతారు": 8563,
      "విచారణను": 8564,
      "తెలుగులో": 8565,
      "సొమ్ము": 8566,
      "అడుగుపెట్ట": 8567,
      "పొందుతారు": 8568,
      "ట్రోఫీ": 8569,
      "నాశనం": 8570,
      "గమని": 8571,
      "పనికి": 8572,
      "##ند": 8573,
      "##ల్దార్": 8574,
      "పెడితే": 8575,
      "నేల": 8576,
      "పార్టీలోకి": 8577,
      "రిజ": 8578,
      "ప్రారంభించింది": 8579,
      "కావాలి": 8580,
      "పదవీ": 8581,
      "ఉత్తమ్": 8582,
      "##సభ్య": 8583,
      "ఫోన్లు": 8584,
      "పత్రిక": 8585,
      "నరసింహ": 8586,
      "నిషేధం": 8587,
      "చివరికి": 8588,
      "భూపాలపల్లి": 8589,
      "సరికా": 8590,
      "##పడా": 8591,
      "##న్నారని": 8592,
      "##ార్ట్‌మెంట్": 8593,
      "బయటపడ": 8594,
      "అందించాలని": 8595,
      "రాశిలో": 8596,
      "రోడ్లపై": 8597,
      "భావించారు": 8598,
      "సిద్దరామయ్య": 8599,
      "కమిషన": 8600,
      "లోపల": 8601,
      "స్టూడెంట్స్": 8602,
      "పేలుడు": 8603,
      "డైలాగ్": 8604,
      "ہم": 8605,
      "ఈవో": 8606,
      "##లార్": 8607,
      "##సెంట్": 8608,
      "##3లో": 8609,
      "##రియల్": 8610,
      "విత్త": 8611,
      "నిమ": 8612,
      "రాణ": 8613,
      "రాసి": 8614,
      "చేయాలనే": 8615,
      "చేస్తాం": 8616,
      "కలగ": 8617,
      "ఇవ్వలేదు": 8618,
      "ఆలస్యం": 8619,
      "రైతులను": 8620,
      "సేవలను": 8621,
      "ఫోటోలు": 8622,
      "వ్యతిరేకత": 8623,
      "అయ్యాడు": 8624,
      "నిలదీశారు": 8625,
      "రీసెర్చ్": 8626,
      "కంగ": 8627,
      "##టల": 8628,
      "##పించే": 8629,
      "##ూల్": 8630,
      "వెయి": 8631,
      "ముగ": 8632,
      "##వింగ్": 8633,
      "##జీవ": 8634,
      "ప్రాక్": 8635,
      "##ంబి": 8636,
      "నాంపల్లి": 8637,
      "స్థలం": 8638,
      "తెలంగాణలోని": 8639,
      "యూత్": 8640,
      "194": 8641,
      "##పడ్డాయి": 8642,
      "ఫిర్యాదులు": 8643,
      "జీవితాన్ని": 8644,
      "తయార": 8645,
      "చిత్రంలో": 8646,
      "గ్రాండ్": 8647,
      "పంటలు": 8648,
      "విభాగంలో": 8649,
      "కల్పించాలని": 8650,
      "##పెట్టింది": 8651,
      "ఓటే": 8652,
      "జడే": 8653,
      "##ంఠ": 8654,
      "చెరు": 8655,
      "పాటి": 8656,
      "రియా": 8657,
      "సుధా": 8658,
      "లావా": 8659,
      "నీర": 8660,
      "అధ్యక్షులు": 8661,
      "లుక్": 8662,
      "##సైజ్": 8663,
      "రోడ్డుపై": 8664,
      "బంధువులు": 8665,
      "టేబుల్": 8666,
      "కుంభకో": 8667,
      "కిడ్నా": 8668,
      "ಮಾಡ": 8669,
      "ఆరుగురు": 8670,
      "74": 8671,
      "అథ": 8672,
      "ఆకు": 8673,
      "ఛాంపి": 8674,
      "పవార్": 8675,
      "శారీ": 8676,
      "సపోర్ట్": 8677,
      "##దొ": 8678,
      "##మత": 8679,
      "##నివ్వ": 8680,
      "##నిస్తాన్": 8681,
      "##‌‌‌‌‌‌‌‌కు": 8682,
      "##లాల్": 8683,
      "మాధ": 8684,
      "వేరు": 8685,
      "##విద్య": 8686,
      "##సేన్": 8687,
      "ఎమ్మెల్యేల": 8688,
      "ఫోర్లు": 8689,
      "సైన్స్": 8690,
      "క్యాంప": 8691,
      "సంక్షేమం": 8692,
      "##లక్షల": 8693,
      "శ్రద్ధ": 8694,
      "\",": 8695,
      "ఆరంభ": 8696,
      "ధను": 8697,
      "సవా": 8698,
      "##కార్": 8699,
      "##ಿರು": 8700,
      "##ାନ": 8701,
      "##ర్లకు": 8702,
      "##ితా": 8703,
      "రెండి": 8704,
      "##విలో": 8705,
      "ఏర్పాటుకు": 8706,
      "ట్రెండ్": 8707,
      "ప్రత్యేకమైన": 8708,
      "##కెళ్ల": 8709,
      "జరగనున్నాయి": 8710,
      "అడిగిన": 8711,
      "విక్రమ్": 8712,
      "అరుణ్": 8713,
      "రాజేందర్": 8714,
      "2018లో": 8715,
      "స్పందిస్తూ": 8716,
      "దంపతులు": 8717,
      "##పడ్డాడు": 8718,
      "విపరీతంగా": 8719,
      "ఏడాదికి": 8720,
      "ప్రతికూల": 8721,
      "హే": 8722,
      "##టమే": 8723,
      "##పిన": 8724,
      "##మం": 8725,
      "##ುದ": 8726,
      "##లాడు": 8727,
      "##మాత్రం": 8728,
      "##సియా": 8729,
      "రెస్పా": 8730,
      "శ్రీకాంత్": 8731,
      "ఉంటున్నారు": 8732,
      "##ించుకొని": 8733,
      "ఇండియాలో": 8734,
      "##చర్ల": 8735,
      "ఆలోచి": 8736,
      "మండలంలో": 8737,
      "హక్కుల": 8738,
      "ప్రయోజనం": 8739,
      "కన్వీ": 8740,
      "ఆసిఫాబాద్": 8741,
      "జరప": 8742,
      "ఊరు": 8743,
      "టు": 8744,
      "పవ": 8745,
      "శతాబ్": 8746,
      "సవరణ": 8747,
      "##మనం": 8748,
      "##ంటినీ": 8749,
      "తేజ": 8750,
      "అనూహ": 8751,
      "ఉపశ": 8752,
      "దూకుడు": 8753,
      "వేయాలని": 8754,
      "నిర్వహిస్తున్న": 8755,
      "నిర్వహిస్తారు": 8756,
      "నమోదైన": 8757,
      "సంతోష్": 8758,
      "బిల్లులు": 8759,
      "పదేళ్ల": 8760,
      "కనీస": 8761,
      "ఉద్దేశించి": 8762,
      "లబ్ది": 8763,
      "ఎలక్ట్రిక్": 8764,
      "నిర్ధార": 8765,
      "పునరుద్ధ": 8766,
      "హృద": 8767,
      "కొంచెం": 8768,
      "తక్షణ": 8769,
      "సరే": 8770,
      "##లూరు": 8771,
      "##క్ల": 8772,
      "ప్రయో": 8773,
      "##క్కీ": 8774,
      "##తున్నాడు": 8775,
      "బీజేపీని": 8776,
      "బెంచ్": 8777,
      "ఆశలు": 8778,
      "పక్కనే": 8779,
      "తీరుపై": 8780,
      "##ing": 8781,
      "ప్రత్యర్థి": 8782,
      "భిన్నంగా": 8783,
      "సమాజంలో": 8784,
      "స్వాతంత్ర": 8785,
      "క్వార్టర్": 8786,
      "జడేజా": 8787,
      "బాయ్": 8788,
      "శ్రమ": 8789,
      "##డవు": 8790,
      "##దలకు": 8791,
      "##କୁ": 8792,
      "##ాయత్": 8793,
      "పోయి": 8794,
      "##ెక్కు": 8795,
      "తిరి": 8796,
      "##జిన్": 8797,
      "##ెంజ్": 8798,
      "నిర్ణయాన్ని": 8799,
      "వారే": 8800,
      "వారంతా": 8801,
      "శివారు": 8802,
      "రూపాయి": 8803,
      "ఎస్సై": 8804,
      "పాల్గొని": 8805,
      "పెరుగుతోంది": 8806,
      "ఆరోగ్యంగా": 8807,
      "స్కోర్": 8808,
      "నెట్‌": 8809,
      "సంగీతం": 8810,
      "ای": 8811,
      "శోభ": 8812,
      "సమ్మె": 8813,
      "##‌త": 8814,
      "##ಾನ": 8815,
      "##క్వా": 8816,
      "##లాట": 8817,
      "##తోన్న": 8818,
      "##వాలో": 8819,
      "లోతు": 8820,
      "##ండ్లుగా": 8821,
      "సాగి": 8822,
      "అనుకో": 8823,
      "చేస్తామన్నారు": 8824,
      "బెల్ల": 8825,
      "బిజీగా": 8826,
      "ప్రాంతాలు": 8827,
      "##ల్లాపూర్": 8828,
      "ఇంటర్నెట్": 8829,
      "ఫాస్ట్": 8830,
      "యాక్ట్": 8831,
      "ఇంగ్లీ": 8832,
      "నిధులను": 8833,
      "రెగ్యులర్": 8834,
      "తహసీ": 8835,
      "కృతజ్ఞ": 8836,
      "95": 8837,
      "అరిక": 8838,
      "ఖరీ": 8839,
      "తృ": 8840,
      "##కారానికి": 8841,
      "##రెంట్": 8842,
      "##ధన": 8843,
      "##మర": 8844,
      "##را": 8845,
      "##స్తారా": 8846,
      "తెలిపాడు": 8847,
      "పేర్": 8848,
      "ఆయనపై": 8849,
      "సెర్చ్": 8850,
      "స్థా": 8851,
      "నెహ": 8852,
      "దేశాలకు": 8853,
      "హాస్టల్": 8854,
      "ఉద్యోగాల": 8855,
      "##పూర్ణ": 8856,
      "నాగేశ్వరరావు": 8857,
      "రిజర్వ": 8858,
      "పునరా": 8859,
      "తీసుకెళ్లారు": 8860,
      "సర్టిఫికెట్": 8861,
      "vs": 8862,
      "అలియా": 8863,
      "ఎనర్జీ": 8864,
      "నెక్": 8865,
      "శ్యా": 8866,
      "##ంపి": 8867,
      "##పెట్టు": 8868,
      "##ఫే": 8869,
      "##ur": 8870,
      "##గులకు": 8871,
      "##లీట్": 8872,
      "ముహ": 8873,
      "చేశాం": 8874,
      "##నాథ": 8875,
      "##ముందే": 8876,
      "నిర్వహించనున్నారు": 8877,
      "ప్రారంభించ": 8878,
      "ఒక్కరూ": 8879,
      "వచ్చినప్పుడు": 8880,
      "పలుకు": 8881,
      "అభ్యర్థులకు": 8882,
      "ఆధిక": 8883,
      "ఉంటారని": 8884,
      "వార్నింగ్": 8885,
      "##స్టిట్యూ": 8886,
      "వరుణ్": 8887,
      "టెలి": 8888,
      "విధానాన్ని": 8889,
      "హాజరుకా": 8890,
      "ఉద్యమం": 8891,
      "సురేఖ": 8892,
      "భద్రాద్రి": 8893,
      "క్రైమ్": 8894,
      "ఇంజినీరింగ్": 8895,
      "సిస్టమ్": 8896,
      "క్రెడిట్": 8897,
      "క్రిమినల్": 8898,
      "71": 8899,
      "##షభ": 8900,
      "##మండ": 8901,
      "##కునేందుకు": 8902,
      "##యాల్సి": 8903,
      "##పోతాయి": 8904,
      "చెప్పినట్లు": 8905,
      "వైయస్": 8906,
      "ఒకప్పుడు": 8907,
      "##‌లోకి": 8908,
      "##చింగ్": 8909,
      "##మీద": 8910,
      "ప్రారంభమైన": 8911,
      "పెట్టాలని": 8912,
      "పట్టా": 8913,
      "కంపెనీల": 8914,
      "గెలిచారు": 8915,
      "క్రమంగా": 8916,
      "యోగం": 8917,
      "యాదగిరి": 8918,
      "గ్యాంగ్": 8919,
      "గౌరవం": 8920,
      "78": 8921,
      "సృష్టి": 8922,
      "##బ్రి": 8923,
      "##గాంధీ": 8924,
      "##తులపై": 8925,
      "చెట్టు": 8926,
      "##బ్బా": 8927,
      "మొగ్గు": 8928,
      "నాగర్": 8929,
      "శాశ్వ": 8930,
      "రాజన్న": 8931,
      "మిని": 8932,
      "##త్తుగా": 8933,
      "విధ్వ": 8934,
      "గ్రామస్తులు": 8935,
      "##విధంగా": 8936,
      "##ంప్ల": 8937,
      "నిజంగా": 8938,
      "పత్రాలు": 8939,
      "ఎగ్జిట్": 8940,
      "2022లో": 8941,
      "##‌మ‌": 8942,
      "మేనేజర్": 8943,
      "సునీత": 8944,
      "విరుచుకు": 8945,
      "స్వేచ్ఛ": 8946,
      "an": 8947,
      "ఇస్తారు": 8948,
      "మస్క్": 8949,
      "రక్": 8950,
      "లెక్కి": 8951,
      "వదులు": 8952,
      "##డ్యు": 8953,
      "##దించారు": 8954,
      "##చర": 8955,
      "##ew": 8956,
      "##ఏసీ": 8957,
      "##ల్తా": 8958,
      "ప్రత్యా": 8959,
      "##ల్లోని": 8960,
      "అభిషే": 8961,
      "ఫిక్స్": 8962,
      "పోటీలో": 8963,
      "మండలాల్లో": 8964,
      "ఎలాగ": 8965,
      "ప్లాట్": 8966,
      "జట్టును": 8967,
      "పరిశీలించి": 8968,
      "విదేశాంగ": 8969,
      "అడ్డం": 8970,
      "డిపార్ట్": 8971,
      "తీర్పును": 8972,
      "##ందరగో": 8973,
      "హెచ్చరికలు": 8974,
      "com": 8975,
      "67": 8976,
      "76": 8977,
      "ఆత్": 8978,
      "ఉస్": 8979,
      "గందరగో": 8980,
      "రౌండ్": 8981,
      "##దానం": 8982,
      "##‌లను": 8983,
      "చేస్తోందని": 8984,
      "##ట్టుకో": 8985,
      "##సాగర్": 8986,
      "గాను": 8987,
      "##న్స్‌": 8988,
      "వ్యక్తికి": 8989,
      "యూజర్": 8990,
      "సభ్యులతో": 8991,
      "ప్ల": 8992,
      "విమానంలో": 8993,
      "ఉపయోగించి": 8994,
      "2023లో": 8995,
      "సంక్షోభ": 8996,
      "నైపుణ": 8997,
      "హెచ్‌": 8998,
      "ఏజెంట్": 8999,
      "ఉష్ణోగ్రత": 9000,
      "ఎడ్యు": 9001,
      "ప్రశంసలు": 9002,
      "ఇంటర్వ్యూలో": 9003,
      "కార్తీక": 9004,
      "శ్రేణులు": 9005,
      "రెస్టారెంట్": 9006,
      "టీపీసీసీ": 9007,
      "ప్రత్యామ్": 9008,
      "ఎస్టేట్": 9009,
      "పశు": 9010,
      "మత్తు": 9011,
      "##ష్యం": 9012,
      "##ଙ୍": 9013,
      "చేరిక": 9014,
      "##లిలో": 9015,
      "##డంపై": 9016,
      "చేయడమే": 9017,
      "కార్యా": 9018,
      "దాట": 9019,
      "##దేవీ": 9020,
      "రాష్ట్రాలు": 9021,
      "శాతానికి": 9022,
      "వర్షపాతం": 9023,
      "జూబ్లీ": 9024,
      "భాగంగానే": 9025,
      "అనుమానాలు": 9026,
      "రిజర్వేషన్లు": 9027,
      "ధోనీ": 9028,
      "కుప్పకూ": 9029,
      "అంబానీ": 9030,
      "అణ": 9031,
      "ఇరిగే": 9032,
      "ధ్రు": 9033,
      "వ్ర": 9034,
      "##మంత": 9035,
      "##మూరు": 9036,
      "##ఫార": 9037,
      "##యన్‌": 9038,
      "##نگ": 9039,
      "కుదు": 9040,
      "##దాబాద్": 9041,
      "##డేందుకు": 9042,
      "వారంలో": 9043,
      "ప్రారంభమైంది": 9044,
      "అభ్యంతరం": 9045,
      "సేవా": 9046,
      "పదవులు": 9047,
      "మళ్ళీ": 9048,
      "బొగ్గు": 9049,
      "ప్రతిపక్షాలు": 9050,
      "కేటాయించారు": 9051,
      "వికెట్ల": 9052,
      "ఆహ్వానించ": 9053,
      "క్యారెక్టర్": 9054,
      "క్లాస్": 9055,
      "సీఈవో": 9056,
      "షుగర్": 9057,
      "డయాబె": 9058,
      "స్పేస్": 9059,
      "మేడ్చల్": 9060,
      "وائ": 9061,
      "కట్టి": 9062,
      "జట్ల": 9063,
      "భయా": 9064,
      "హాని": 9065,
      "##కమైన": 9066,
      "##‌ట్లు": 9067,
      "##భ్య": 9068,
      "##ూర": 9069,
      "##vi": 9070,
      "##‌‌తో": 9071,
      "##ండో": 9072,
      "నిమ్మ": 9073,
      "నిదర్శ": 9074,
      "రావాల్సి": 9075,
      "##ామంటూ": 9076,
      "రూల్స్": 9077,
      "చూసేందుకు": 9078,
      "చేపట్టింది": 9079,
      "##వైసీ": 9080,
      "ఆదేశాల": 9081,
      "వెళ్లింది": 9082,
      "వ్యతిరేకి": 9083,
      "దరఖాస్తులు": 9084,
      "వివేకా": 9085,
      "కమ్యూనిటీ": 9086,
      "800": 9087,
      "అల్ప": 9088,
      "ఆడు": 9089,
      "ఎమర్": 9090,
      "కదల": 9091,
      "నెట్టి": 9092,
      "##క్యం": 9093,
      "##దవ": 9094,
      "##ించలేదని": 9095,
      "నిండి": 9096,
      "##డాడు": 9097,
      "పేదల": 9098,
      "పేర్లను": 9099,
      "##వర్తి": 9100,
      "దిగ్గ": 9101,
      "విజయవంతంగా": 9102,
      "లిస్టు": 9103,
      "దర్శన": 9104,
      "120": 9105,
      "కౌశి": 9106,
      "ఫొటోలు": 9107,
      "శంషా": 9108,
      "కనిపించే": 9109,
      "వ్యవసాయం": 9110,
      "సినిమాల": 9111,
      "అభినంద": 9112,
      "స్టీల్": 9113,
      "సంచలనం": 9114,
      "సజ్జల": 9115,
      "ఇరిగేషన్": 9116,
      "କରି": 9117,
      "ఏడుగు": 9118,
      "దక్కు": 9119,
      "రన్": 9120,
      "##షు": 9121,
      "##ృతంగా": 9122,
      "##వాలను": 9123,
      "##కుంటున్న": 9124,
      "##ండటంతో": 9125,
      "పోయింది": 9126,
      "జరిమానా": 9127,
      "##మేనని": 9128,
      "చిక్క": 9129,
      "సుఖ": 9130,
      "శుభవార్": 9131,
      "విద్యాశాఖ": 9132,
      "మల్లన్న": 9133,
      "మల్లారెడ్డి": 9134,
      "వ్యూహ": 9135,
      "గట్టిగా": 9136,
      "##వినియోగం": 9137,
      "పోలవరం": 9138,
      "ధన్యవాదాలు": 9139,
      "sh": 9140,
      "అసా": 9141,
      "తను": 9142,
      "##వితే": 9143,
      "##ನಲ್ಲಿ": 9144,
      "##ంగాన్ని": 9145,
      "నింప": 9146,
      "రాజ్‌": 9147,
      "కొద్దీ": 9148,
      "##ామం": 9149,
      "##త్రు": 9150,
      "##వరూ": 9151,
      "నెలా": 9152,
      "##ంజనేయ": 9153,
      "సభ్యులకు": 9154,
      "జరగకుండా": 9155,
      "పర్సన్": 9156,
      "సచిన్": 9157,
      "చెల్లింపు": 9158,
      "ఏఐసీసీ": 9159,
      "ఖాయమని": 9160,
      "విషాదం": 9161,
      "00": 9162,
      "ఈదురు": 9163,
      "ఎప్పటి": 9164,
      "ఓటర్ల": 9165,
      "మాల": 9166,
      "##డార్": 9167,
      "##టిగా": 9168,
      "సీన్": 9169,
      "శ్రీశై": 9170,
      "లాంచ్": 9171,
      "##షియం": 9172,
      "సిద్ధమవు": 9173,
      "గెలిస్తే": 9174,
      "డాలర్లు": 9175,
      "అభినందించ": 9176,
      "ఆరోపిస్తున్నారు": 9177,
      "పిలుస్తారు": 9178,
      "ఏకాదశి": 9179,
      "అంశాన్ని": 9180,
      "అమెరికన్": 9181,
      "శంషాబాద్": 9182,
      "పచ్చ": 9183,
      "మళ్ల": 9184,
      "##లాలను": 9185,
      "##పిల్ల": 9186,
      "##తిన": 9187,
      "##ందారు": 9188,
      "##‌‌‌‌గా": 9189,
      "##కుంది": 9190,
      "పాము": 9191,
      "చూపించారు": 9192,
      "దేశాన్ని": 9193,
      "టీడీపీకి": 9194,
      "##కెళ్": 9195,
      "15న": 9196,
      "##త్మిక": 9197,
      "##రోజుల": 9198,
      "దొరుకు": 9199,
      "మొదటిసారి": 9200,
      "మైక్రో": 9201,
      "బెంగళూరులోని": 9202,
      "శరీరానికి": 9203,
      "ఫ్లై": 9204,
      "విగ్రహాన్ని": 9205,
      "##చోట్ల": 9206,
      "కొరత": 9207,
      "రుతుప": 9208,
      "గౌతమ్": 9209,
      "రకరకాల": 9210,
      "లావాదేవీ": 9211,
      "68": 9212,
      "ఎడి": 9213,
      "డ్యూటీ": 9214,
      "పండ్లు": 9215,
      "బ‌": 9216,
      "భారం": 9217,
      "మసీ": 9218,
      "యంగ్": 9219,
      "రం": 9220,
      "##గణ": 9221,
      "##ఫరెన్స్": 9222,
      "##رل": 9223,
      "##రులతో": 9224,
      "సంక్రా": 9225,
      "వీసా": 9226,
      "##ించేవారు": 9227,
      "సైట్": 9228,
      "చెబుతూ": 9229,
      "జరిగినట్లు": 9230,
      "వర్షా": 9231,
      "##పల్లిలో": 9232,
      "తరుణంలో": 9233,
      "ఆందోళనలు": 9234,
      "కొట్టే": 9235,
      "పెట్టుకున్న": 9236,
      "మార్గదర్శ": 9237,
      "జార్ఖండ్": 9238,
      "ల్లో": 9239,
      "కార్యాచరణ": 9240,
      "69": 9241,
      "ఏళ్లుగా": 9242,
      "##కడ": 9243,
      "##ధారణ": 9244,
      "##ap": 9245,
      "ప్రచారాన్ని": 9246,
      "కాపు": 9247,
      "##పురి": 9248,
      "తీర్చి": 9249,
      "##పాన్ని": 9250,
      "పార్ట్": 9251,
      "రోల్": 9252,
      "##గిరీ": 9253,
      "##స్టో": 9254,
      "అందరినీ": 9255,
      "సేఫ్టీ": 9256,
      "కాలేజ్": 9257,
      "అందిస్తున్నారు": 9258,
      "వృషభ": 9259,
      "పర్స": 9260,
      "నిరసనలు": 9261,
      "జాబితాను": 9262,
      "క్రీడ": 9263,
      "మెగాస్టార్": 9264,
      "విడిచి": 9265,
      "##ವುದ": 9266,
      "రెండేళ్ల": 9267,
      "ప్రవర్త": 9268,
      "ఇదంతా": 9269,
      "తుపాను": 9270,
      "జిల్లాలకు": 9271,
      "నిర్వాహకులు": 9272,
      "విలీనం": 9273,
      "శ్రావ": 9274,
      "రష్": 9275,
      "##ଡି": 9276,
      "వెస్టి": 9277,
      "##పైన": 9278,
      "##వుతున్నారు": 9279,
      "##గ్‌": 9280,
      "##వేయ": 9281,
      "చెప్పడంతో": 9282,
      "##వర్గం": 9283,
      "నాటు": 9284,
      "వర్గాల్లో": 9285,
      "ప్రజల్లోకి": 9286,
      "కేంద్రాల్లో": 9287,
      "కేంద్రమంత్రి": 9288,
      "ఎంఐఎం": 9289,
      "ఇవ్వాలి": 9290,
      "విధించారు": 9291,
      "వెళ్లడం": 9292,
      "కొనసాగుతున్నాయి": 9293,
      "నామినే": 9294,
      "ట్యాపింగ్": 9295,
      "ఎక్సైజ్": 9296,
      "నివస": 9297,
      "సురక్షితంగా": 9298,
      "నెహ్రూ": 9299,
      "నచ్చ": 9300,
      "##ెన్న": 9301,
      "##పబ్": 9302,
      "##సల్": 9303,
      "##ro": 9304,
      "##تے": 9305,
      "##ప్తా": 9306,
      "##లిన్": 9307,
      "రాణి": 9308,
      "కాద": 9309,
      "వెను": 9310,
      "మామూ": 9311,
      "##‌‌‌‌‌‌‌‌‌‌‌‌‌‌‌‌‌‌‌‌‌‌‌‌‌‌‌‌‌‌‌‌లో": 9312,
      "చేయాలన్నారు": 9313,
      "##తున్నా": 9314,
      "మొహ": 9315,
      "స్టడీ": 9316,
      "భారత్‌కు": 9317,
      "అంకి": 9318,
      "సభ్యు": 9319,
      "పనుల": 9320,
      "వినిపించ": 9321,
      "##ang": 9322,
      "సాయంతో": 9323,
      "అనుమాని": 9324,
      "కస్టమర్": 9325,
      "దేవస్థానం": 9326,
      "ప్రతిష్టా": 9327,
      "బ్రహ్మో": 9328,
      "బకాయి": 9329,
      "84": 9330,
      "అండ": 9331,
      "ఆఫ": 9332,
      "ఏమాత్రం": 9333,
      "పంత్": 9334,
      "##ಸ್": 9335,
      "విడ": 9336,
      "కానుక": 9337,
      "##పీడ": 9338,
      "రిపబ్": 9339,
      "మార్కె": 9340,
      "సుధ": 9341,
      "తింటే": 9342,
      "జీఎస్": 9343,
      "పరిస్థితులను": 9344,
      "##ించుకోవడానికి": 9345,
      "మీదకు": 9346,
      "ఆదివా": 9347,
      "పథకాన్ని": 9348,
      "సరిపో": 9349,
      "జేపీ": 9350,
      "సెలవులు": 9351,
      "కౌన్సిలర్లు": 9352,
      "ఎలక్ట్రా": 9353,
      "దినోత్సవం": 9354,
      "తప్పనిసరిగా": 9355,
      "ఆలస్యంగా": 9356,
      "గాలు": 9357,
      "##డబ్ల్యూ": 9358,
      "##షేక": 9359,
      "##‌ల్": 9360,
      "##జెన్సీ": 9361,
      "##పరంగా": 9362,
      "##గని": 9363,
      "##వడంతో": 9364,
      "##ہیں": 9365,
      "రాకెట్": 9366,
      "పాజి": 9367,
      "చెప్పారని": 9368,
[...]
