<unk>	0
<s>	0
</s>	0
ార	-0
▁ప	-1
ని	-2
▁క	-3
న్	-4
్ర	-5
ర్	-6
స్	-7
▁వ	-8
లు	-9
▁అ	-10
▁మ	-11
ంద	-12
లో	-13
▁చ	-14
▁స	-15
ల్	-16
ారు	-17
కు	-18
▁త	-19
్య	-20
▁ర	-21
ట్	-22
న్న	-23
ంచ	-24
గా	-25
ను	-26
క్	-27
ంది	-28
▁ప్ర	-29
తు	-30
▁ఆ	-31
ాల	-32
▁చే	-33
▁బ	-34
ించ	-35
▁ఇ	-36
▁న	-37
డి	-38
ంట	-39
డు	-40
▁ఉ	-41
రి	-42
▁జ	-43
ంత	-44
▁ఎ	-45
▁ద	-46
ిన	-47
ప్	-48
కి	-49
ాయ	-50
లి	-51
త్	-52
రు	-53
▁గ	-54
▁వి	-55
ార్	-56
డ్	-57
టి	-58
లా	-59
టు	-60
ంలో	-61
ంగ	-62
ంగా	-63
▁ని	-64
సు	-65
ప్ప	-66
టీ	-67
న్నారు	-68
..	-69
ద్	-70
▁ఈ	-71
తి	-72
▁రా	-73
డా	-74
స్తు	-75
మా	-76
యా	-77
చ్	-78
▁ల	-79
స్త	-80
వా	-81
▁స్	-82
▁హ	-83
▁భ	-84
▁కా	-85
ష్	-86
సి	-87
న్ని	-88
▁లో	-89
నే	-90
చ్చ	-91
్యా	-92
గు	-93
ిక	-94
▁ను	-95
తో	-96
▁తె	-97
ండ	-98
▁చె	-99
▁శ	-100
ాయి	-101
ది	-102
దు	-103
▁ఏ	-104
మ్	-105
ందు	-106
ళ్	-107
రా	-108
ేశ	-109
ెం	-110
▁ఫ	-111
క్ష	-112
▁కు	-113
▁కో	-114
పు	-115
పీ	-116
ల్లో	-117
నా	-118
▁కొ	-119
వు	-120
ారం	-121
లకు	-122
ింది	-123
మి	-124
▁కే	-125
్రి	-126
▁మా	-127
నికి	-128
సీ	-129
▁పో	-130
పై	-131
లీ	-132
▁వె	-133
▁కూ	-134
వి	-135
ెట్	-136
ంతో	-137
▁ము	-138
ారి	-139
ంచి	-140
▁సి	-141
లను	-142
ట్ర	-143
▁పా	-144
క్క	-145
ిల్	-146
▁సం	-147
ాలు	-148
▁2	-149
ించారు	-150
▁తీ	-151
ంగ్	-152
ామ	-153
▁1	-154
పో	-155
రో	-156
కో	-157
కా	-158
ెస్	-159
▁డ	-160
▁ఒ	-161
లే	-162
బ్	-163
ిత	-164
్వ	-165
బా	-166
ద్ద	-167
ైన	-168
▁కూడా	-169
▁నుంచి	-170
▁అధ	-171
మ్మ	-172
▁వే	-173
▁ఉన్న	-174
▁చేశ	-175
▁సీ	-176
డం	-177
ట్లు	-178
▁లే	-179
త్త	-180
పా	-181
▁నిర్	-182
▁అయ	-183
▁గు	-184
ంద్ర	-185
స్తున్న	-186
▁బీ	-187
ెడ్	-188
నీ	-189
▁వా	-190
▁పె	-191
షన్	-192
ప్పు	-193
▁చేయ	-194
టర్	-195
గ్	-196
సిన	-197
యం	-198
▁సమ	-199
సుకు	-200
బు	-201
▁పార్	-202
▁ప్రభ	-203
▁ట	-204
ట్ట	-205
జు	-206
▁తెలి	-207
వే	-208
ాలని	-209
▁నే	-210
▁ఓ	-211
ఆర్	-212
ంటి	-213
ందని	-214
త్ర	-215
ల్ల	-216
తం	-217
▁రో	-218
▁వ్య	-219
కే	-220
యో	-221
▁చెప్ప	-222
ంటు	-223
ుత్	-224
నం	-225
గి	-226
ెడ్డి	-227
▁గా	-228
కొ	-229
జ్	-230
▁వచ్చ	-231
తున్న	-232
జీ	-233
ండి	-234
▁భార	-235
రీ	-236
▁పరి	-237
ందుకు	-238
▁రూ	-239
పి	-240
▁చేశారు	-241
్రీ	-242
ూర్	-243
సం	-244
▁అధిక	-245
▁(	-246
▁వై	-247
▁ప్రభుత్	-248
▁పార్టీ	-249
ంటే	-250
▁దీ	-251
వం	-252
ించిన	-253
▁మీ	-254
▁అవ	-255
▁దా	-256
▁సా	-257
ంధ	-258
▁ఆయ	-259
▁బా	-260
▁పే	-261
▁కార	-262
దా	-263
డీ	-264
స్థ	-265
ండ్	-266
ారని	-267
ద్య	-268
▁అని	-269
▁య	-270
ష్ట్ర	-271
ఎస్	-272
ారా	-273
ళ్ల	-274
ించి	-275
ధా	-276
వర్	-277
ెల్	-278
▁తన	-279
జా	-280
▁ప్రా	-281
▁ష	-282
ులు	-283
▁ఆయన	-284
▁ఎన్ని	-285
వీ	-286
▁రాష్ట్ర	-287
▁20	-288
ాడు	-289
రం	-290
మె	-291
▁ఒక	-292
▁మొ	-293
ాలి	-294
రే	-295
సే	-296
▁వీ	-297
త్య	-298
ెంట్	-299
ెక్	-300
ధి	-301
▁అభ	-302
▁ఎన్నిక	-303
కీ	-304
ంప	-305
్రా	-306
ాలను	-307
దే	-308
▁నా	-309
▁చేసి	-310
ంత్రి	-311
▁తెలిప	-312
ట్టు	-313
వర	-314
జే	-315
▁చూ	-316
రుగు	-317
క్ర	-318
▁వర	-319
▁టీ	-320
హి	-321
▁ఉండ	-322
ితే	-323
▁కి	-324
▁జరి	-325
▁శా	-326
్రెస్	-327
తా	-328
ధ్య	-329
మే	-330
▁చి	-331
▁చేసిన	-332
స్తున్నారు	-333
వాత	-334
ష్ట	-335
క్కు	-336
▁రి	-337
య్య	-338
▁స్థ	-339
లంగా	-340
కోవ	-341
సా	-342
ఖ్య	-343
ంగ్రెస్	-344
దేశ	-345
▁ప్రక	-346
▁కాంగ్రెస్	-347
ండా	-348
▁హై	-349
ఎం	-350
ుల	-351
▁పోలీ	-352
ప్పుడు	-353
యంలో	-354
▁రెడ్డి	-355
▁జిల్	-356
మైన	-357
▁డి	-358
యే	-359
ర్శ	-360
▁ఖ	-361
ఫ్	-362
బాద్	-363
▁మంది	-364
ప్పటి	-365
▁రాజ	-366
▁"	-367
యి	-368
▁ధ	-369
న్స్	-370
▁మే	-371
కర	-372
దీ	-373
▁సె	-374
తీ	-375
▁స్ట	-376
▁మార్	-377
చి	-378
▁పై	-379
▁రోజు	-380
▁తో	-381
▁నె	-382
ించింది	-383
▁తా	-384
డంతో	-385
ట్ల	-386
▁కోసం	-387
ర్థ	-388
▁జిల్లా	-389
▁మూ	-390
▁రై	-391
▁వర్	-392
▁సమా	-393
ుకు	-394
▁వారి	-395
సులు	-396
లంగాణ	-397
▁విష	-398
▁మో	-399
న్య	-400
▁మె	-401
▁చేస్త	-402
వారం	-403
▁తెలంగాణ	-404
▁ఐ	-405
లుగు	-406
ంబ	-407
▁అయితే	-408
▁సు	-409
▁చెప్పారు	-410
కర్	-411
శ్	-412
ల్లి	-413
దని	-414
కుండా	-415
▁అను	-416
▁రే	-417
▁ఇచ్చ	-418
▁తి	-419
▁కార్య	-420
▁ప్రభుత్వం	-421
ర్చ	-422
ము	-423
▁తెలిపారు	-424
ాలా	-425
్యూ	-426
▁భా	-427
లతో	-428
ప్ర	-429
▁తర్	-430
▁పొ	-431
ామని	-432
▁3	-433
▁పెట్	-434
▁తర్వాత	-435
మో	-436
▁తీసుకు	-437
ంటూ	-438
▁ప్రజ	-439
ర్య	-440
▁పు	-441
వహ	-442
▁చంద్ర	-443
▁జరిగ	-444
▁సిని	-445
▁అనే	-446
జేపీ	-447
▁దేశ	-448
డానికి	-449
▁అధికారు	-450
▁ప్రతి	-451
లోని	-452
ించే	-453
తున్నారు	-454
▁బీజేపీ	-455
పోయ	-456
▁సో	-457
▁వ్యక్	-458
▁కలి	-459
కూ	-460
జి	-461
▁యా	-462
వ్	-463
▁మంత్రి	-464
▁మరో	-465
▁ఉంది	-466
▁ఏర్	-467
▁వ్యా	-468
తులు	-469
బంధ	-470
▁తే	-471
ాన	-472
▁అన్నారు	-473
▁ఆరో	-474
స్తో	-475
▁సినిమా	-476
▁కేంద్ర	-477
▁గ్ర	-478
▁తమ	-479
డే	-480
ాలకు	-481
▁సభ	-482
▁పాటు	-483
లాంటి	-484
టన	-485
▁ఎమ్మ	-486
▁శ్రీ	-487
ణా	-488
00	-489
▁ఎమ్మెల్	-490
▁లక్ష	-491
▁జా	-492
▁స్ప	-493
మీ	-494
చే	-495
▁ఉంటు	-496
పాటు	-497
శా	-498
ళ్లు	-499
▁,	-500
▁చాలా	-501
తుంది	-502
▁నేత	-503
ట్లా	-504
ర్టు	-505
టో	-506
బ్బ	-507
▁రెం	-508
▁సీఎం	-509
▁జీ	-510
క్కువ	-511
లం	-512
▁మాత్ర	-513
▁అంత	-514
▁మి	-515
ందిన	-516
▁రెండు	-517
హా	-518
కాశ	-519
బాబు	-520
ద్ధ	-521
ట్టి	-522
కులు	-523
▁అభి	-524
▁విజ	-525
గ్ర	-526
గొ	-527
▁తీసు	-528
రాబాద్	-529
▁పని	-530
▁అస	-531
మార్	-532
వ్వ	-533
డ్డ	-534
▁మాట్లా	-535
బర్	-536
▁ది	-537
త్స	-538
▁సర్	-539
▁ఆమె	-540
▁ట్ర	-541
▁పి	-542
▁నెల	-543
▁దీంతో	-544
▁ప్రధా	-545
గే	-546
స్తుంది	-547
▁హైద	-548
▁గత	-549
టా	-550
ెన్	-551
▁ఘ	-552
ర్లు	-553
▁ఆర్	-554
▁అందు	-555
▁జగ	-556
▁పూర్	-557
▁వెళ్	-558
దల	-559
▁ఎం	-560
▁ముఖ్య	-561
▁క్ర	-562
▁4	-563
▁చేసుకు	-564
▁5	-565
▁అవకాశ	-566
▁మరి	-567
ీల	-568
▁మధ్య	-569
వరి	-570
వేశ	-571
▁రె	-572
స్తోంది	-573
▁చంద్రబాబు	-574
▁హైదరాబాద్	-575
ంత్	-576
గ్గ	-577
▁చెందిన	-578
▁సూ	-579
▁వరకు	-580
▁తొ	-581
ాయని	-582
▁కానీ	-583
బీ	-584
▁బె	-585
▁కేసు	-586
▁ఎమ్మెల్యే	-587
▁ప్రాంత	-588
సారి	-589
▁చేస్తున్న	-590
▁పోలీసులు	-591
స్తే	-592
▁క్	-593
▁బి	-594
...	-595
▁సంబంధ	-596
ణి	-597
తూ	-598
చారం	-599
▁కొత్త	-600
కెట్	-601
▁గుర్	-602
▁చేసింది	-603
▁ఇప్పటి	-604
ర్కొ	-605
ర్యా	-606
▁తెలు	-607
చార	-608
▁నీ	-609
▁ఇది	-610
▁బీఆర్	-611
ందర్	-612
▁నాయ	-613
తోంది	-614
ందించ	-615
▁అధికారులు	-616
▁నిర్వహ	-617
స్ట్	-618
▁బ్యా	-619
▁పాల్	-620
▁తర	-621
▁కార్	-622
ణ్	-623
▁న్య	-624
ైనా	-625
స్య	-626
▁నిర్ణ	-627
ణం	-628
ూరు	-629
లపై	-630
▁సమయంలో	-631
▁గె	-632
తే	-633
▁గుర	-634
▁మహి	-635
త్తు	-636
▁భారీ	-637
▁యూ	-638
కపో	-639
▁ఎన్నికల	-640
గర్	-641
▁ఇం	-642
గం	-643
▁హా	-644
▁కల	-645
▁ک	-646
ందే	-647
ుడు	-648
ంపు	-649
ృష్	-650
▁జన	-651
▁పెద్ద	-652
▁ఫో	-653
▁ఉద్య	-654
▁మహిళ	-655
క్స్	-656
▁అన	-657
▁202	-658
▁ద్వ	-659
▁సై	-660
▁ఎక్కువ	-661
ారంభ	-662
డియా	-663
▁యు	-664
ంలోని	-665
ినా	-666
▁కాల	-667
▁గంట	-668
▁కని	-669
▁ప్రారంభ	-670
▁అభ్య	-671
క్కడ	-672
▁చేసే	-673
హ్	-674
త్రి	-675
ేషన్	-676
▁జగన్	-677
▁భూ	-678
▁అమ	-679
షి	-680
▁ఎస్	-681
పించ	-682
ాం	-683
ారీ	-684
▁శి	-685
వన్	-686
లోకి	-687
యోజ	-688
▁ప్రస్తు	-689
▁కేసీ	-690
▁లు	-691
▁ముందు	-692
▁ప్	-693
లలో	-694
లేదు	-695
▁రాజకీ	-696
పే	-697
కాల	-698
నాలు	-699
▁మ్యా	-700
▁ఇప్పుడు	-701
నించ	-702
▁విద్య	-703
▁అవు	-704
▁లా	-705
చ్చు	-706
▁కేసీఆర్	-707
▁ఇవ్వ	-708
ర్మ	-709
▁బీఆర్ఎస్	-710
▁అత	-711
ాన్	-712
ఫీ	-713
▁కుటు	-714
▁మీడియా	-715
▁అర	-716
డిన	-717
▁అంద	-718
ద్ర	-719
▁ప్రభుత్వ	-720
నూ	-721
ిల్లీ	-722
▁ఫి	-723
తంగా	-724
▁ఒక్క	-725
▁పేర్కొ	-726
▁కల్	-727
▁ద్వారా	-728
▁చెబు	-729
▁డీ	-730
▁ఇక	-731
▁సాధ	-732
▁స్థా	-733
స్థి	-734
▁ఏర్పాటు	-735
▁ప్రకట	-736
మెంట్	-737
ాయం	-738
రుకు	-739
▁కొన్ని	-740
▁ప్రత్య	-741
క్రమ	-742
శి	-743
▁సమస్య	-744
▁కావ	-745
▁సే	-746
▁ప్రమా	-747
▁అయ్య	-748
▁ఏపీ	-749
ందో	-750
స్తూ	-751
▁జరుగు	-752
▁మన	-753
▁ఉంటుంది	-754
▁-	-755
గో	-756
▁అధికార	-757
▁వచ్చిన	-758
▁6	-759
▁కారణ	-760
▁పలు	-761
ాల్లో	-762
తీయ	-763
▁అవకాశం	-764
ల్స్	-765
▁పూర్తి	-766
▁ఉద్యో	-767
▁పెట్ట	-768
▁పోటీ	-769
▁ధర	-770
సీపీ	-771
వాల్	-772
తర	-773
యర్	-774
టం	-775
కం	-776
ెస్ట్	-777
▁బయ	-778
▁మాజీ	-779
▁దీని	-780
నున్న	-781
బో	-782
ంత్ర	-783
▁రూప	-784
ార్థ	-785
▁రేవ	-786
▁పరిస్థి	-787
▁మహ	-788
▁జరిగిన	-789
▁బు	-790
మని	-791
▁లోని	-792
కంగా	-793
▁వెలుగు	-794
▁కె	-795
▁వల్ల	-796
▁వచ్చే	-797
▁ఆరోప	-798
ంటారు	-799
మంత్రి	-800
▁మొద	-801
▁ప్రస్తుతం	-802
▁అధ్య	-803
▁అభ్యర్థ	-804
ఢిల్లీ	-805
▁అలా	-806
▁గో	-807
▁పీ	-808
▁టి	-809
▁శాఖ	-810
▁అం	-811
▁సహ	-812
▁షా	-813
దం	-814
▁ఇండి	-815
▁లేదు	-816
వ్ర	-817
▁సంస్థ	-818
యన్	-819
స్టు	-820
స్ట	-821
▁కుటుంబ	-822
▁ఎదు	-823
▁వర్ష	-824
▁7	-825
▁కొన	-826
టింగ్	-827
యత్	-828
సింది	-829
ించుకు	-830
▁ఆధ	-831
▁చేస్తున్నారు	-832
జర్	-833
▁తీవ్ర	-834
▁రేవంత్	-835
తలు	-836
▁హి	-837
▁ఎంపీ	-838
▁మొత్త	-839
▁విచార	-840
నర్	-841
▁చేప	-842
డీపీ	-843
▁మార	-844
▁ఎన్నికల్లో	-845
భా	-846
ెక్టర్	-847
▁ఉప	-848
▁భారత్	-849
▁పాల్గొ	-850
▁మంచి	-851
ద్ధి	-852
డియో	-853
▁లి	-854
▁మండ	-855
ంటర్	-856
▁పేరు	-857
▁అన్ని	-858
▁వద్ద	-859
▁భారత	-860
▁సమావేశ	-861
▁క్యా	-862
▁దు	-863
▁విజయ	-864
న్నా	-865
▁కమి	-866
్యం	-867
▁201	-868
▁సందర్	-869
▁వెల్ల	-870
▁మూడు	-871
▁నియోజ	-872
▁పాల	-873
▁బో	-874
▁కుమార్	-875
▁కలిసి	-876
▁ప్రయత్	-877
వై	-878
▁కీల	-879
తున్నాయి	-880
▁వారు	-881
రగ	-882
త్తి	-883
▁టీడీపీ	-884
▁నమో	-885
▁గ్రామ	-886
షల్	-887
▁శు	-888
▁విడు	-889
తుల	-890
రూ	-891
▁నియోజక	-892
యోగ	-893
ైన్	-894
స్తారు	-895
కె	-896
▁8	-897
▁తేదీ	-898
▁10	-899
పంచ	-900
రణ	-901
▁చర్య	-902
▁కొనసా	-903
▁నో	-904
▁పట్ట	-905
▁ప్రత్యే	-906
▁ఛ	-907
▁పవన్	-908
దేశ్	-909
▁గురించి	-910
▁పరిశ	-911
▁""	-912
▁మ్యాచ్	-913
ానికి	-914
▁చర్చ	-915
హం	-916
▁భాగ	-917
ంగళ	-918
రాలు	-919
▁ఉందని	-920
▁వీడియో	-921
▁కంప	-922
▁ఎన్	-923
▁మాత్రం	-924
పూర్	-925
▁ప్రశ్	-926
▁సందర్భ	-927
▁కోట్ల	-928
▁విడుదల	-929
బ్లీ	-930
ైంది	-931
హు	-932
▁19	-933
▁రాజకీయ	-934
▁ఉన్నారు	-935
▁తప్ప	-936
పర్	-937
▁వైసీపీ	-938
▁వివర	-939
▁చో	-940
ిల్ల	-941
మాండ్	-942
▁అధ్యక్ష	-943
▁ఉన్నాయి	-944
▁నియోజకవర్	-945
▁ఇన్	-946
▁వెళ్ల	-947
▁శాతం	-948
డ్డు	-949
మర్శ	-950
▁వెల్లడ	-951
▁ఉంట	-952
▁విచారణ	-953
▁దే	-954
సర	-955
▁హె	-956
ారెడ్డి	-957
▁కర్	-958
▁ప్రధాన	-959
దర్శ	-960
ంటున్న	-961
▁ప్రభా	-962
▁మాత్రమే	-963
నున్నారు	-964
ద్దు	-965
▁వాటి	-966
▁హో	-967
▁ఢిల్లీ	-968
ినీ	-969
ష్టం	-970
రల్	-971
▁దూ	-972
ించాలని	-973
వృ	-974
▁రావ	-975
▁విషయం	-976
క్తి	-977
▁వ్యక్తం	-978
ంటున్నారు	-979
▁వెం	-980
▁ఎలా	-981
▁పద	-982
దన	-983
▁ఘటన	-984
వల	-985
▁వ్యక్తి	-986
▁ఊ	-987
ెంబ్లీ	-988
పల్లి	-989
▁అర్	-990
▁ఉద	-991
క్షన్	-992
▁అసెంబ్లీ	-993
లుగా	-994
▁ఉండే	-995
▁పం	-996
▁డా	-997
డాది	-998
పెట్	-999
▁సభ్య	-1000
లింగ్	-1001
▁కీలక	-1002
▁ముఖ్యమంత్రి	-1003
▁జో	-1004
గిన	-1005
లోనే	-1006
ాలతో	-1007
▁పూ	-1008
▁విధ	-1009
▁వంటి	-1010
▁సమాచారం	-1011
▁తాజా	-1012
టే	-1013
దిక	-1014
▁సూచ	-1015
▁చేయాలని	-1016
▁లీ	-1017
▁9	-1018
▁జూ	-1019
పడు	-1020
▁వేల	-1021
▁అమ్మ	-1022
▁మాట్లాడు	-1023
▁ఉత్త	-1024
రారు	-1025
కోర్టు	-1026
్వర	-1027
ాన్ని	-1028
▁అన్న	-1029
▁పోలీసు	-1030
▁ఇప్పటికే	-1031
జన్	-1032
పడ్డ	-1033
▁విమర్శ	-1034
ంట్	-1035
▁ఇంటి	-1036
సర్	-1037
నుంది	-1038
▁దర్శ	-1039
వారి	-1040
ెనీ	-1041
▁యువ	-1042
▁ప్రజలు	-1043
వో	-1044
▁ا	-1045
▁నుండి	-1046
▁చేసు	-1047
▁ప్రపంచ	-1048
▁ప్రధాని	-1049
.1	-1050
నల్	-1051
▁మృ	-1052
ించు	-1053
▁రెండ	-1054
▁ఆదేశ	-1055
▁లక్షల	-1056
వారు	-1057
▁పను	-1058
▁కంపెనీ	-1059
▁కోర్టు	-1060
▁నాలు	-1061
▁రు	-1062
గ్గు	-1063
ినే	-1064
▁హీ	-1065
▁అదే	-1066
రిగి	-1067
టీఆర్	-1068
▁సందర్భంగా	-1069
ేశారు	-1070
▁రాష్ట్రంలో	-1071
▁డై	-1072
కపోవ	-1073
ించడం	-1074
▁తిరు	-1075
▁వెంట	-1076
▁బయట	-1077
""	-1078
ానని	-1079
▁సంఘ	-1080
▁ఎలాంటి	-1081
ంలోకి	-1082
ెంబర్	-1083
▁ప్రత్యేక	-1084
▁కింద	-1085
▁తరు	-1086
▁తాను	-1087
▁అత్య	-1088
▁వార్	-1089
▁ప్రకారం	-1090
వృద్ధి	-1091
▁తొలి	-1092
▁మొత్తం	-1093
య్	-1094
▁లేదా	-1095
▁ప్రయా	-1096
▁తెలుగు	-1097
▁వ్యవ	-1098
బ్బంది	-1099
▁మోదీ	-1100
▁చిత	-1101
▁ఆల	-1102
▁విని	-1103
టమి	-1104
▁ఇండియా	-1105
▁అక్క	-1106
▁మీద	-1107
▁సోషల్	-1108
క్టర్	-1109
త్మ	-1110
▁వారికి	-1111
▁చిన్న	-1112
కున్న	-1113
▁న్యూ	-1114
విత	-1115
ంతరం	-1116
▁జై	-1117
▁నిర్మా	-1118
▁ఆది	-1119
యు	-1120
▁చేయడం	-1121
ాము	-1122
▁అమె	-1123
▁అంటూ	-1124
▁నగ	-1125
▁ఇతర	-1126
▁ఆస్	-1127
▁ప్లా	-1128
▁రంగ	-1129
టక	-1130
▁ఇద్ద	-1131
▁ఆరోగ	-1132
▁విద్యార్థ	-1133
▁ఆర్థ	-1134
▁రైతు	-1135
▁నేతలు	-1136
▁లేదని	-1137
▁ప్రే	-1138
యాలు	-1139
ృష్ణ	-1140
▁స్వా	-1141
▁పిల్ల	-1142
▁చర్యలు	-1143
వత్స	-1144
రికా	-1145
తుందని	-1146
కుల	-1147
▁దగ్గ	-1148
జెక్	-1149
▁టా	-1150
▁కాదు	-1151
లిచ	-1152
▁హీరో	-1153
రోజు	-1154
వులు	-1155
20	-1156
▁ఆర్థిక	-1157
ల్సి	-1158
▁టై	-1159
బ్బు	-1160
▁పెట్టు	-1161
▁సంవత్స	-1162
▁చేపట్ట	-1163
ంతా	-1164
▁పనిచే	-1165
▁ఏడాది	-1166
▁అంటే	-1167
ెన్స్	-1168
▁అందించ	-1169
దారు	-1170
డుగు	-1171
గానే	-1172
▁కౌ	-1173
▁అభివృద్ధి	-1174
▁ఇదే	-1175
ంధీ	-1176
▁పెంచ	-1177
్యంలో	-1178
▁ఆఫీ	-1179
▁జరగ	-1180
▁ఇందు	-1181
▁పర్య	-1182
ళన	-1183
▁సిద్ధ	-1184
▁ఇలా	-1185
▁15	-1186
▁గుర్త	-1187
ందన్నారు	-1188
ప్తంగా	-1189
▁పరుగు	-1190
యాన్ని	-1191
తాయి	-1192
▁రామ	-1193
▁అలాగే	-1194
▁م	-1195
▁అది	-1196
కల్	-1197
స్సు	-1198
▁దాడి	-1199
నించారు	-1200
ంతి	-1201
ల్డ్	-1202
▁పేర్కొన్నారు	-1203
▁క్రి	-1204
▁క్రమ	-1205
▁కోట్లు	-1206
ంజ	-1207
▁అయిన	-1208
▁మెంట్	-1209
▁ఇచ్చిన	-1210
),	-1211
▁డిమాండ్	-1212
▁ఫోన్	-1213
ప్రదేశ్	-1214
రెడ్డి	-1215
▁వెళ్లి	-1216
▁ప్రాజెక్	-1217
న్సి	-1218
రకు	-1219
ళ్లి	-1220
▁తెలియ	-1221
▁దాని	-1222
లర్	-1223
తారు	-1224
ల్లు	-1225
లై	-1226
▁తెలిపింది	-1227
దాపు	-1228
▁చెబుతున్నారు	-1229
పథ	-1230
స్తామని	-1231
▁తీసుకోవ	-1232
▁వెంక	-1233
చు	-1234
▁పరిస్థితి	-1235
▁రావు	-1236
ప్ట	-1237
ూడ	-1238
▁తాజాగా	-1239
▁సొ	-1240
▁స్వ	-1241
నని	-1242
▁సంబంధించిన	-1243
పడి	-1244
▁చేరుకు	-1245
▁అమలు	-1246
▁వచ్చి	-1247
▁సరి	-1248
▁దాదాపు	-1249
లేదని	-1250
▁రోజుల	-1251
స్వా	-1252
▁కార్యక్రమ	-1253
▁బాల	-1254
▁ఫ్యా	-1255
▁డ్ర	-1256
▁తగ్గ	-1257
▁స్థాయి	-1258
▁గాంధీ	-1259
▁భక్	-1260
▁తు	-1261
స్తున్నాయి	-1262
▁ఇటీ	-1263
▁గతంలో	-1264
ులకు	-1265
▁మాట్లాడుతూ	-1266
ందోళన	-1267
శ్వ	-1268
ర్స్	-1269
▁12	-1270
▁భాగంగా	-1271
▁బ్యాం	-1272
▁వ్యవహ	-1273
కుడు	-1274
▁డబ్బు	-1275
▁హామ	-1276
ేశ్	-1277
▁పెరుగు	-1278
పక్ష	-1279
▁మూవీ	-1280
▁స్థాని	-1281
▁గొ	-1282
▁పడు	-1283
▁స్టార్	-1284
▁వార	-1285
రీక్ష	-1286
▁అనేక	-1287
▁ట్రా	-1288
డని	-1289
▁కనిపి	-1290
▁కారణంగా	-1291
▁నేపథ	-1292
▁జట్టు	-1293
▁నమోదు	-1294
సన	-1295
▁ఫలి	-1296
ార్డు	-1297
▁జరిగింది	-1298
ట్లో	-1299
పతి	-1300
▁డే	-1301
▁అనంతరం	-1302
▁వైఎస్	-1303
▁వెంటనే	-1304
▁అమెరికా	-1305
▁విషయంలో	-1306
క్ష్	-1307
మయ్య	-1308
▁11	-1309
▁ఆఫ్	-1310
కొని	-1311
న్నీ	-1312
కొచ్చ	-1313
▁పథ	-1314
ద్ది	-1315
శాఖ	-1316
▁చీ	-1317
▁అంచ	-1318
▁ప్రజా	-1319
▁వ్యాఖ్య	-1320
గాలు	-1321
▁సమీ	-1322
ంధ్ర	-1323
▁నిర్ణయం	-1324
రికి	-1325
▁గౌ	-1326
▁కొంత	-1327
▁గంటల	-1328
▁అంశ	-1329
▁జారీ	-1330
▁లె	-1331
▁రీ	-1332
▁చై	-1333
పడ	-1334
▁నిర్మ	-1335
▁తరువాత	-1336
లుపు	-1337
ందరు	-1338
క్షణ	-1339
▁రూపాయ	-1340
క్షి	-1341
▁వచ్చింది	-1342
▁పరీక్ష	-1343
▁'	-1344
ట్స్	-1345
▁నేపథ్యంలో	-1346
▁కేసులో	-1347
▁ఆశ	-1348
▁సర	-1349
ారో	-1350
పడ్డారు	-1351
▁ఆందోళన	-1352
▁కేట	-1353
an	-1354
పోయిన	-1355
ొటో	-1356
ర్యాదు	-1357
▁ఇందులో	-1358
బి	-1359
▁వివా	-1360
ప్పటికీ	-1361
▁మళ్	-1362
▁వస్తు	-1363
ాయ్	-1364
▁అక్కడ	-1365
▁పాత్ర	-1366
రిక	-1367
▁రాహు	-1368
▁లేకుండా	-1369
.5	-1370
కాలు	-1371
▁రిక	-1372
▁ہ	-1373
▁థ	-1374
టంతో	-1375
సేన	-1376
▁ఫిర్యాదు	-1377
ాలపై	-1378
▁హామీ	-1379
▁కళ	-1380
▁ఖా	-1381
▁మాట్లాడ	-1382
టికి	-1383
▁తెలిసి	-1384
వె	-1385
▁ఇచ్చారు	-1386
▁ఎక్కువగా	-1387
పేట	-1388
▁దొ	-1389
▁ఫొటో	-1390
బాటు	-1391
డో	-1392
▁ప్రచారం	-1393
▁ఉదయం	-1394
▁యూని	-1395
స్తా	-1396
▁తయ	-1397
▁సింగ్	-1398
ించేందుకు	-1399
▁నియ	-1400
▁డె	-1401
▁పడి	-1402
▁నేను	-1403
మవు	-1404
▁గుర్తు	-1405
▁పెరి	-1406
▁లోక్	-1407
▁ప్రి	-1408
▁జిల్లాలో	-1409
లువ	-1410
▁చట్ట	-1411
▁తల్లి	-1412
ాలలో	-1413
▁చిత్ర	-1414
ంటీ	-1415
▁డైర	-1416
▁రాహుల్	-1417
▁స్టేషన్	-1418
రంగా	-1419
▁మద్ద	-1420
▁ఎంత	-1421
▁మొదటి	-1422
నియర్	-1423
▁బాధ్య	-1424
ందా	-1425
డర్	-1426
▁బ్ర	-1427
ధిక	-1428
నలు	-1429
రంలో	-1430
పోయింది	-1431
▁హాజ	-1432
▁మార్పు	-1433
బడి	-1434
నివా	-1435
▁చూడ	-1436
▁బంగ	-1437
ఎల్	-1438
▁నిర్ణయ	-1439
▁కాగా	-1440
ర్చు	-1441
▁ఆరోపణ	-1442
▁నాలుగు	-1443
వరణ	-1444
పత్రి	-1445
ఫి	-1446
▁సౌ	-1447
▁వైద్య	-1448
యల్	-1449
▁మీడియాలో	-1450
▁మరింత	-1451
▁పంప	-1452
▁క్రిక	-1453
రువు	-1454
ండగా	-1455
▁పార్ల	-1456
▁తల	-1457
▁సంఖ్య	-1458
▁సాయ	-1459
▁న్యాయ	-1460
వన	-1461
న్ను	-1462
ెస్టు	-1463
▁ట్	-1464
▁డాక్టర్	-1465
▁త్వర	-1466
▁రెండో	-1467
▁టికెట్	-1468
▁కాలే	-1469
భి	-1470
▁గ్రా	-1471
▁చేసుకోవ	-1472
వాడ	-1473
వైపు	-1474
▁దగ్గర	-1475
నుగో	-1476
▁పాల్గొన్నారు	-1477
▁బల	-1478
కారు	-1479
ణాలు	-1480
▁క్రమంలో	-1481
▁తెలుస్తోంది	-1482
▁ప్రభుత్వా	-1483
తిరే	-1484
▁వ్యాప	-1485
▁అభ్యర్థి	-1486
▁ఉంటే	-1487
▁చేస్తూ	-1488
చుకు	-1489
పె	-1490
▁శ్రీనివా	-1491
▁కొనసాగు	-1492
షనల్	-1493
▁లై	-1494
వ్యా	-1495
▁వాతా	-1496
▁అందుకే	-1497
▁ఆంధ్ర	-1498
చర్	-1499
యిన్	-1500
ర్మన్	-1501
▁వ్యతిరే	-1502
▁రాత్రి	-1503
▁కథ	-1504
పెట్ట	-1505
▁ఎందుకు	-1506
▁మళ్లీ	-1507
▁అంది	-1508
▁మేరకు	-1509
మారు	-1510
▁హైకోర్టు	-1511
▁ఆరోపించారు	-1512
త్వ	-1513
▁ఇలాంటి	-1514
▁మై	-1515
▁తెలంగాణలో	-1516
▁కోల్	-1517
ళి	-1518
▁కేటీఆర్	-1519
ట్టుకు	-1520
ార్లు	-1521
ధు	-1522
▁తీర్	-1523
▁కలెక్టర్	-1524
▁చా	-1525
ారణ	-1526
▁14	-1527
బుల్	-1528
▁అరెస్ట్	-1529
▁రిలీ	-1530
▁తెలిసిందే	-1531
▁30	-1532
▁ప్రజల	-1533
ల్సిన	-1534
▁వైరల్	-1535
▁నాయకులు	-1536
స్టర్	-1537
▁విమా	-1538
టల్	-1539
▁ఏం	-1540
▁ఫ్	-1541
ాలే	-1542
డికి	-1543
డిగా	-1544
▁సిబ్బంది	-1545
▁వాహ	-1546
▁అధ్యక్షుడు	-1547
▁భర్	-1548
▁బిల్	-1549
పోయారు	-1550
▁ప్రకటన	-1551
▁ఐదు	-1552
.3	-1553
విధ	-1554
▁తిరిగి	-1555
▁ప్రాజెక్టు	-1556
▁మద్దతు	-1557
▁జనసేన	-1558
గంలో	-1559
▁ఆలో	-1560
మల	-1561
▁సంగ	-1562
ణాటక	-1563
▁స్థాన	-1564
یں	-1565
దో	-1566
గాల	-1567
▁ఇటీవల	-1568
▁జాతీయ	-1569
మై	-1570
▁.	-1571
▁క్ష	-1572
స్తాయి	-1573
టరీ	-1574
▁వెల్లడించారు	-1575
▁ఫు	-1576
▁పంచ	-1577
▁చు	-1578
▁విన	-1579
▁కొనుగో	-1580
▁కంటే	-1581
్యార	-1582
▁గి	-1583
▁నిల	-1584
ముఖ	-1585
▁కర్ణాటక	-1586
▁కొందరు	-1587
.2	-1588
▁పైన	-1589
▁శని	-1590
▁ప్రొ	-1591
ారాయ	-1592
▁దృష్	-1593
యిల్	-1594
తిని	-1595
శారు	-1596
▁సోమ	-1597
▁పడ	-1598
ేందుకు	-1599
▁శివ	-1600
న్నాయి	-1601
యూ	-1602
▁ఆస	-1603
డుకు	-1604
పొ	-1605
▁కమిటీ	-1606
▁నింది	-1607
▁వీటి	-1608
▁విజయం	-1609
ంప్	-1610
సీసీ	-1611
ర్ర	-1612
▁స్టే	-1613
▁శుక్ర	-1614
్యు	-1615
టర్ల	-1616
▁తక్కువ	-1617
▁పోలీస్	-1618
▁అవస	-1619
▁అప్ప	-1620
▁కాకుండా	-1621
▁నీటి	-1622
▁..	-1623
▁అతి	-1624
ಲ್	-1625
▁భార్య	-1626
▁ఫై	-1627
▁తనకు	-1628
రేషన్	-1629
ంతు	-1630
▁పెళ్లి	-1631
ంగళూరు	-1632
కారం	-1633
▁నమ్మ	-1634
▁ఇద్దరు	-1635
▁ఉద్యోగు	-1636
▁రైల్	-1637
▁హత్య	-1638
▁కోరారు	-1639
▁రోడ్డు	-1640
▁వృ	-1641
▁చోటు	-1642
▁అందుకు	-1643
దాలు	-1644
▁పైగా	-1645
▁18	-1646
▁ఎవర	-1647
▁పనులు	-1648
▁ఇంకా	-1649
▁ఉత్	-1650
ంద్	-1651
▁25	-1652
▁చని	-1653
▁కిలో	-1654
▁నిర	-1655
▁మార్కెట్	-1656
▁భావి	-1657
▁ఉపయోగ	-1658
మాను	-1659
వరకు	-1660
క్కి	-1661
▁బై	-1662
▁తీసుకున్న	-1663
ేశ్వ	-1664
కార్	-1665
▁కేవ	-1666
▁బౌ	-1667
▁స్పందించ	-1668
▁గురు	-1669
▁లైన్	-1670
మంది	-1671
▁ఆధార	-1672
సై	-1673
ాలంటే	-1674
▁అతని	-1675
▁పక్క	-1676
▁మారింది	-1677
తన	-1678
▁ఆంధ్రప్రదేశ్	-1679
ఖా	-1680
ండర్	-1681
డిని	-1682
▁హెచ్చ	-1683
▁పరిధి	-1684
▁సుప	-1685
▁ల్	-1686
▁ఆద	-1687
టర్లు	-1688
▁కేవలం	-1689
▁చేసుకున్న	-1690
▁ర్	-1691
▁మంగళ	-1692
▁సాగు	-1693
▁అల	-1694
▁షే	-1695
▁2024	-1696
▁అడుగు	-1697
నేందుకు	-1698
కరణ	-1699
ాలీ	-1700
▁మర	-1701
బ్ర	-1702
▁కారు	-1703
▁ఫా	-1704
▁రాశి	-1705
▁ఆరోగ్య	-1706
▁ప్రాంతాల్లో	-1707
▁సూచించారు	-1708
ీర్	-1709
▁మోడీ	-1710
▁స్కూ	-1711
ోర్	-1712
▁బెంగళూరు	-1713
▁ఏళ్ల	-1714
చిత	-1715
జయ్	-1716
▁అందులో	-1717
▁మొదల	-1718
▁పర్	-1719
▁ఉంచ	-1720
గింది	-1721
యానికి	-1722
▁ఇంటర్	-1723
డింగ్	-1724
ణు	-1725
▁దో	-1726
ల్లా	-1727
థ్	-1728
స్ట్ర	-1729
▁దేశంలో	-1730
▁మాట	-1731
ించా	-1732
నె	-1733
▁వారిని	-1734
▁అధికారంలోకి	-1735
▁పాకి	-1736
▁కార్యకర్	-1737
▁ఎవరి	-1738
తిలో	-1739
ామన్నారు	-1740
▁నిర్వ	-1741
▁కూటమి	-1742
▁ఇక్కడ	-1743
మ్స్	-1744
▁ప్రై	-1745
▁మృతి	-1746
మూ	-1747
▁24	-1748
రావు	-1749
▁గెలి	-1750
▁మారు	-1751
▁కష్ట	-1752
▁నగర్	-1753
య్యారు	-1754
یا	-1755
▁చెప్పు	-1756
నగర్	-1757
ల్ని	-1758
క్రమా	-1759
▁అవసరం	-1760
▁వర్షాలు	-1761
▁కట్ట	-1762
▁సంద	-1763
▁సూర్	-1764
వ్యాప్తంగా	-1765
డంలో	-1766
▁ముగి	-1767
▁ఎక్స్	-1768
▁అనుమ	-1769
▁చేశాడు	-1770
▁కేంద్రం	-1771
జ్ర	-1772
▁భద్ర	-1773
▁200	-1774
▁రైల్వే	-1775
▁ఏపీలో	-1776
నాల	-1777
్రీం	-1778
▁సంచ	-1779
▁ఆగ	-1780
▁మరోసారి	-1781
ెండ్	-1782
▁ఎంతో	-1783
▁ప్రజలకు	-1784
▁కొనుగోలు	-1785
చ్చి	-1786
▁ప్రవేశ	-1787
▁సీనియర్	-1788
▁ఆలోచ	-1789
▁A	-1790
పాల	-1791
▁స్పష్టం	-1792
స్టి	-1793
స్తాన్	-1794
్రో	-1795
▁తాము	-1796
▁ఆసక్తి	-1797
▁ఉంటాయి	-1798
▁రిలీజ్	-1799
రియా	-1800
▁మండి	-1801
దన్నారు	-1802
▁రోడ్	-1803
▁پ	-1804
▁పోరా	-1805
▁తమి	-1806
▁వికెట్	-1807
ధులు	-1808
జన	-1809
▁తరల	-1810
ండ్రి	-1811
▁భూమి	-1812
▁అందుబాటు	-1813
ేమ	-1814
▁జే	-1815
డులు	-1816
శే	-1817
▁س	-1818
వచ్చు	-1819
▁తెలుసుకు	-1820
▁శ్ర	-1821
▁చివరి	-1822
స్ప	-1823
▁చెల్ల	-1824
▁తెర	-1825
▁సమయం	-1826
▁ప్రకటించారు	-1827
వాల	-1828
▁17	-1829
▁తొల	-1830
▁అంతే	-1831
కోవడం	-1832
▁రాజీ	-1833
▁సొంత	-1834
ష్య	-1835
ర్ట్	-1836
▁వివిధ	-1837
▁13	-1838
కింగ్	-1839
▁వెంకట	-1840
ోంది	-1841
▁వరు	-1842
▁స్వీ	-1843
▁ప్లే	-1844
▁సుప్రీం	-1845
ాను	-1846
మాన్	-1847
్యాల	-1848
▁మరియు	-1849
▁మీరు	-1850
ప్తు	-1851
▁కాల్	-1852
▁కార్యాల	-1853
సెస్	-1854
ించాడు	-1855
▁సేవ	-1856
మైంది	-1857
▁గ్రూ	-1858
▁పరుగులు	-1859
▁ఆహ	-1860
బీసీ	-1861
▁విధా	-1862
▁పోలింగ్	-1863
▁2023	-1864
▁వ్యాఖ్యలు	-1865
▁బస్సు	-1866
ించడానికి	-1867
▁లను	-1868
▁ముందుకు	-1869
▁పాట	-1870
▁అవసర	-1871
డమే	-1872
సభ	-1873
వంత	-1874
▁మరణ	-1875
▁వేయ	-1876
▁ప్రమాదం	-1877
తను	-1878
▁నరే	-1879
▁వీరి	-1880
▁గంటలకు	-1881
ండీ	-1882
▁అడి	-1883
▁సర్వే	-1884
▁నాగ	-1885
▁వ్యవస్థ	-1886
▁ఆత్మ	-1887
▁డైరెక్టర్	-1888
▁ఇంత	-1889
జిక	-1890
▁ఇబ్బ	-1891
▁ప్రమాద	-1892
▁పోస్టు	-1893
ద్యా	-1894
▁నిర్వహి	-1895
▁బ్	-1896
▁నిర్వహించారు	-1897
ండ్ల	-1898
నాన్ని	-1899
క్టో	-1900
▁ప్రముఖ	-1901
▁ఫీ	-1902
రులు	-1903
క్త	-1904
▁16	-1905
గిరి	-1906
▁గాయ	-1907
▁వైపు	-1908
స్తుందని	-1909
ళ్ళ	-1910
పాల్	-1911
▁మండల	-1912
▁జూన్	-1913
▁జైలు	-1914
▁వేదిక	-1915
▁అనేది	-1916
▁సామా	-1917
▁లక్ష్	-1918
ోత్స	-1919
్రియ	-1920
▁పరిష్	-1921
▁అప్పటి	-1922
పరి	-1923
▁ఇబ్బందు	-1924
▁సంబంధించి	-1925
▁చైర్మన్	-1926
నింగ్	-1927
▁ఫలిత	-1928
▁బాధి	-1929
▁క్రికెట్	-1930
▁శుక్రవారం	-1931
▁వివరించారు	-1932
▁పెట్టి	-1933
▁ఎన్నికలు	-1934
ంగల్	-1935
▁బోర్	-1936
▁కార్యక్రమా	-1937
▁అభిప్ర	-1938
▁నిజ	-1939
▁ఎవ	-1940
పించారు	-1941
▁దీనిపై	-1942
▁జి	-1943
▁వాటిని	-1944
▁కర	-1945
▁సోమవారం	-1946
ారిటీ	-1947
▁కృ	-1948
▁ఎన్న	-1949
▁నివే	-1950
▁మరోవైపు	-1951
సె	-1952
ారాయణ	-1953
▁నిలిచ	-1954
వుడ్	-1955
▁దీనికి	-1956
▁పరిశీల	-1957
▁అధినే	-1958
▁అక్కడి	-1959
ినట్లు	-1960
▁అప్	-1961
▁ఉంటుందని	-1962
▁జరిగే	-1963
▁కనిపించ	-1964
▁బుధ	-1965
ంత్రం	-1966
పోవ	-1967
▁పూజ	-1968
ణీ	-1969
▁యాద	-1970
▁50	-1971
▁అందరి	-1972
హన్	-1973
▁శ్రీనివాస్	-1974
▁బయటకు	-1975
▁బాధ	-1976
లియా	-1977
▁బొ	-1978
టీసీ	-1979
స్వామి	-1980
▁బాగా	-1981
▁రిజర్	-1982
యిర్	-1983
▁చేస్తే	-1984
▁ముంబ	-1985
▁సెల	-1986
▁రోజుల్లో	-1987
సూ	-1988
▁ఇజ్ర	-1989
▁ప్రశ్నించారు	-1990
కృష్ణ	-1991
▁వస్తున్న	-1992
పడిన	-1993
కార	-1994
సన్	-1995
ప్షన్	-1996
▁మాన	-1997
రావ	-1998
చూ	-1999
▁రాయ	-2000
▁వరద	-2001
నో	-2002
▁వస్తే	-2003
▁కేసులు	-2004
▁చేసేందుకు	-2005
▁అండ్	-2006
▁ఆరు	-2007
▁దర్యా	-2008
▁దృష్టి	-2009
ండ్ర	-2010
ప్పుడ	-2011
ళీ	-2012
నంగా	-2013
తున్నారని	-2014
▁సంక్ష	-2015
▁నమోద	-2016
▁అర్థ	-2017
▁తీసుకె	-2018
గ్రహం	-2019
▁పేరుతో	-2020
జ్ఞ	-2021
ెబ్బ	-2022
పురం	-2023
▁కమ	-2024
ారాన్ని	-2025
గల	-2026
▁పాలన	-2027
▁పేర్కొంది	-2028
▁ప్రతిపక్ష	-2029
నుక	-2030
పం	-2031
రంగ	-2032
▁విస్త	-2033
▁చేరి	-2034
▁తప్పు	-2035
▁పంట	-2036
న్సిప	-2037
▁దర్యాప్తు	-2038
లాండ్	-2039
▁బంగారం	-2040
ట్రో	-2041
▁రద్దు	-2042
మిక	-2043
▁శం	-2044
▁చీఫ్	-2045
▁దక్షి	-2046
ులను	-2047
రుపు	-2048
▁ఆరోపణలు	-2049
▁చేయడానికి	-2050
దుపు	-2051
▁తమిళ	-2052
▁ఇజ్రాయ	-2053
రుగా	-2054
▁రైతులు	-2055
ొచ్చు	-2056
▁నేడు	-2057
▁కవిత	-2058
▁వాతావరణ	-2059
▁ఆదివారం	-2060
▁శరీ	-2061
▁మంత్ర	-2062
వాళ	-2063
మ్మి	-2064
తులకు	-2065
▁కేటాయ	-2066
▁ఎమ్మెల్సీ	-2067
▁ఆట	-2068
ళ్లకు	-2069
సిటీ	-2070
ృష్ట	-2071
▁చేస	-2072
▁ఏర్పా	-2073
▁సాయంత్రం	-2074
▁ఓటు	-2075
▁ఓవర్	-2076
▁కల్యా	-2077
▁ఒకే	-2078
కపోవడంతో	-2079
▁అభిమాను	-2080
హ్మ	-2081
▁టె	-2082
▁అధినేత	-2083
▁అక్రమ	-2084
▁అయ్యారు	-2085
▁ఆప	-2086
▁సహాయ	-2087
▁విలువ	-2088
▁అంచనా	-2089
▁మంగళవారం	-2090
▁సంజయ్	-2091
చ్చని	-2092
▁ఇంట్లో	-2093
▁ప్రస	-2094
▁చెన్న	-2095
▁తేదీన	-2096
▁శనివారం	-2097
పోయి	-2098
▁ప్రయాణి	-2099
▁22	-2100
▁వయ	-2101
▁బీసీ	-2102
▁కొట్ట	-2103
▁మండలం	-2104
▁పిటి	-2105
▁కృష్ణ	-2106
రాల	-2107
▁చేశారని	-2108
▁స్టా	-2109
్యూటీ	-2110
▁జరుగుతున్న	-2111
రీస్	-2112
▁బ్రి	-2113
▁పోస్ట్	-2114
▁పార్టీకి	-2115
ణంలో	-2116
▁నడు	-2117
▁సహా	-2118
దర్శి	-2119
నియా	-2120
గూడ	-2121
రాజ్	-2122
▁దక్క	-2123
తులను	-2124
హె	-2125
ంక	-2126
్యంగా	-2127
▁తది	-2128
కూడ	-2129
కిత్స	-2130
▁ఇజ్రాయెల్	-2131
▁గే	-2132
▁తగ్	-2133
భవ	-2134
▁రైలు	-2135
▁కార్యక్రమంలో	-2136
ాలనే	-2137
▁మార్చి	-2138
స్థాన్	-2139
▁ముగ్గు	-2140
నంలో	-2141
▁సభ్యులు	-2142
త్వం	-2143
ar	-2144
▁బాబు	-2145
ించినట్లు	-2146
ళ్లలో	-2147
.4	-2148
కులకు	-2149
▁తయారు	-2150
▁స్థానిక	-2151
తల	-2152
పుణ	-2153
▁వివ	-2154
▁హు	-2155
▁లాంటి	-2156
ర్ల	-2157
ప్రి	-2158
▁కళ్యా	-2159
డ్జ	-2160
▁అత్యంత	-2161
▁నివేదిక	-2162
▁విమర్శించారు	-2163
కపోతే	-2164
▁సంతో	-2165
▁ఎత్తు	-2166
▁డ్రై	-2167
▁పదవి	-2168
▁ఆసు	-2169
లేక	-2170
ప్తి	-2171
▁అయినా	-2172
▁విదేశ	-2173
డవ	-2174
▁ب	-2175
ర్మి	-2176
▁వరకూ	-2177
▁జరిగి	-2178
▁వంద	-2179
▁మాట్లాడారు	-2180
ప్పి	-2181
▁సమస్యలు	-2182
ల్లోకి	-2183
ాలన్నారు	-2184
షా	-2185
స్త్ర	-2186
గాయి	-2187
▁పంపి	-2188
▁మొదలు	-2189
▁నట	-2190
▁నిజా	-2191
▁మహిళా	-2192
ించారని	-2193
▁పార్లమెంట్	-2194
▁గురువారం	-2195
▁ఎక్క	-2196
▁లేని	-2197
▁పార్టీలో	-2198
▁సిటీ	-2199
▁జీవిత	-2200
▁నిరసన	-2201
▁విద్యా	-2202
నాడు	-2203
▁అంగ	-2204
ళ్లను	-2205
▁విధంగా	-2206
ించాలి	-2207
▁అప్పు	-2208
▁నెలకొ	-2209
▁భారీగా	-2210
▁R	-2211
ఫిక	-2212
బట్టి	-2213
▁బిల్లు	-2214
▁ఎదుర్కొ	-2215
ంస	-2216
▁కంట	-2217
▁సూపర్	-2218
▁విక్ర	-2219
▁అరెస్టు	-2220
▁ప్రాంతంలో	-2221
▁విశాఖ	-2222
▁గవర్	-2223
▁గెలు	-2224
దేశం	-2225
వాల్సి	-2226
▁నిలి	-2227
▁చికిత్స	-2228
▁و	-2229
▁చేస్తామని	-2230
▁నిమి	-2231
▁బీబీసీ	-2232
ంక్	-2233
స్తున్నారని	-2234
▁ఐపీ	-2235
▁ట్యా	-2236
▁ల్యా	-2237
000	-2238
ట్లను	-2239
ಲ್ಲ	-2240
▁అక్టో	-2241
▁అడ్డు	-2242
▁ప్రైవే	-2243
▁కావడంతో	-2244
ద్దీ	-2245
▁స్వామి	-2246
ందం	-2247
బిత	-2248
▁పది	-2249
▁చేరు	-2250
▁బంధ	-2251
▁సింగ	-2252
▁కాపా	-2253
▁భక్తులు	-2254
▁కప్	-2255
▁గ్రామా	-2256
వుల	-2257
డ్జెట్	-2258
జూ	-2259
▁షర్మి	-2260
▁పర్యటన	-2261
ేక్	-2262
▁నామ	-2263
▁టెక్	-2264
▁తమకు	-2265
▁భారతీయ	-2266
▁ప్రభావం	-2267
ನ್	-2268
▁మున్సిప	-2269
▁అంతర్	-2270
▁నరేంద్ర	-2271
▁చేసినట్లు	-2272
వాస	-2273
శ్ర	-2274
ప్రిల్	-2275
▁పట్టు	-2276
▁ప్రకటించింది	-2277
▁21	-2278
▁کے	-2279
▁ఆన్	-2280
▁పాఠ	-2281
శాల	-2282
దులు	-2283
▁దాఖ	-2284
గ్రత్త	-2285
▁ఎయిర్	-2286
ొక	-2287
▁రోజులు	-2288
▁సాధారణ	-2289
రియ	-2290
▁డిస	-2291
▁సమీప	-2292
▁దశ	-2293
స్థా	-2294
▁ఉపా	-2295
▁తీసుకో	-2296
▁దెబ్బ	-2297
▁వరంగల్	-2298
▁బుధవారం	-2299
బీఐ	-2300
లిం	-2301
▁ప్లాన్	-2302
▁వరుస	-2303
▁మందికి	-2304
లవ	-2305
ఠా	-2306
▁ప్రేమ	-2307
కొండ	-2308
▁ఈసారి	-2309
టై	-2310
▁భావ	-2311
▁ఖర్చు	-2312
▁వినియోగ	-2313
▁స్థాయిలో	-2314
▁ఇవ్వాలని	-2315
క్ట్	-2316
▁చైనా	-2317
▁విద్యుత్	-2318
▁అయి	-2319
▁పిటిషన్	-2320
▁అడ్	-2321
▁పలువు	-2322
గతి	-2323
▁ಮ	-2324
▁సెప్ట	-2325
▁అమి	-2326
▁డిప	-2327
పూ	-2328
▁బహి	-2329
▁కార్మి	-2330
▁తండ్రి	-2331
▁ఎంప	-2332
▁ముఖ్యంగా	-2333
సిడ	-2334
▁నాకు	-2335
ికా	-2336
▁ఎల	-2337
▁కళ్యాణ్	-2338
▁కామెంట్	-2339
ఎన్	-2340
▁ఫ్ర	-2341
▁అంటున్నారు	-2342
▁జిల్లాల్లో	-2343
▁బెయిల్	-2344
▁మండిపడ్డారు	-2345
▁దర	-2346
▁అసలు	-2347
▁వరల్డ్	-2348
ఎఫ్	-2349
డుక	-2350
ధ్యా	-2351
ఖాస్తు	-2352
▁పదే	-2353
ెన్సీ	-2354
▁భర్త	-2355
▁నోటీ	-2356
▁హాజర	-2357
▁సుప్రీంకోర్టు	-2358
ితంగా	-2359
▁హక్కు	-2360
ెడ	-2361
లిక	-2362
నానికి	-2363
▁జాగ్రత్త	-2364
స్తున్నట్లు	-2365
▁ఆన	-2366
▁రికార్డు	-2367
ండ్లు	-2368
▁సిరీస్	-2369
▁విమర్శలు	-2370
కంటే	-2371
▁ఎంపిక	-2372
▁తీర్పు	-2373
జె	-2374
▁నూ	-2375
మ్మడి	-2376
▁నటి	-2377
▁చేయాలి	-2378
▁దరఖాస్తు	-2379
హెచ్	-2380
▁వేగ	-2381
▁తెచ్చ	-2382
▁ن	-2383
యోగం	-2384
ులతో	-2385
కోవాలని	-2386
డుతున్న	-2387
▁ఆక	-2388
▁గెలిచ	-2389
▁ఉన్నట్లు	-2390
రస్	-2391
▁పౌ	-2392
టివ్	-2393
▁అవి	-2394
▁క్ల	-2395
ంగ్స్	-2396
▁నష్ట	-2397
▁అలాంటి	-2398
▁పూర్తిగా	-2399
ౌన్	-2400
▁మహా	-2401
▁గ్రూప్	-2402
▁నై	-2403
తె	-2404
▁బడ్జెట్	-2405
▁విషయాన్ని	-2406
▁ఇబ్బందులు	-2407
గారు	-2408
నామా	-2409
▁జీవి	-2410
▁ಸ	-2411
▁ధరలు	-2412
▁کی	-2413
▁ఖమ్మ	-2414
గాల్లో	-2415
▁ఎదురు	-2416
▁సమావేశం	-2417
▁చరి	-2418
▁కామ	-2419
▁ఇంటికి	-2420
▁వెళ్లే	-2421
ారన్నారు	-2422
▁బే	-2423
వల్ల	-2424
న్నాడు	-2425
▁میں	-2426
▁ఏప్రిల్	-2427
▁వేడుక	-2428
లన	-2429
▁ఆడ	-2430
లియన్	-2431
య్యాయి	-2432
్యాన్ని	-2433
▁ఇండ	-2434
▁డబ్బులు	-2435
▁అవకాశాలు	-2436
▁ನ	-2437
తికి	-2438
▁కోరు	-2439
ారనే	-2440
▁హింద	-2441
యన్స్	-2442
▁ت	-2443
ంపై	-2444
▁సెంటర్	-2445
గ్రా	-2446
కపోవడం	-2447
▁ఈరోజు	-2448
▁ఎల్	-2449
▁చేసారు	-2450
▁అధికారి	-2451
▁అనుమా	-2452
▁సైతం	-2453
ంగి	-2454
▁భయ	-2455
▁లోకి	-2456
▁ج	-2457
ంచే	-2458
▁మూడో	-2459
▁వచ్చాయి	-2460
వంబర్	-2461
▁రాజ్	-2462
▁మహారా	-2463
▁కురి	-2464
▁ఉండగా	-2465
ండె	-2466
ార్ట్	-2467
▁చేస్తు	-2468
▁లభ	-2469
▁ఒకటి	-2470
▁ವ	-2471
▁రూపొ	-2472
▁అదుపు	-2473
▁కనీ	-2474
ించుకో	-2475
▁గ్	-2476
లక్ష	-2477
▁హరీ	-2478
న్లు	-2479
▁2019	-2480
▁ప్యా	-2481
▁వివే	-2482
▁ఆయనకు	-2483
▁చదు	-2484
▁సమర్	-2485
▁చరిత్ర	-2486
నాలను	-2487
తిక	-2488
పోయా	-2489
▁సెక	-2490
▁చేసుకున్నారు	-2491
▁బృ	-2492
పర	-2493
ములు	-2494
▁కొద్ది	-2495
▁దీన్ని	-2496
వంటి	-2497
▁ట్వీ	-2498
▁స్థానంలో	-2499
రవ	-2500
▁పెం	-2501
▁ముంబై	-2502
▁ప్రయోజ	-2503
▁సమావేశంలో	-2504
▁జాబిత	-2505
▁పొత్తు	-2506
▁ప్రేక్ష	-2507
ట్రే	-2508
▁د	-2509
డ్స్	-2510
▁చెప్పిన	-2511
▁పలువురు	-2512
▁చొ	-2513
దిరి	-2514
▁యాత్ర	-2515
▁కల్యాణ్	-2516
ంభ	-2517
▁అనుకూ	-2518
▁కాలేజీ	-2519
▁కాబట్టి	-2520
▁యుద్ధ	-2521
▁ప్రచార	-2522
▁కార్యదర్శి	-2523
ంటుంది	-2524
▁అవినీ	-2525
ించనున్నారు	-2526
ట్రా	-2527
టిఫిక	-2528
▁సంప్ర	-2529
▁శుభ	-2530
టువంటి	-2531
▁సిద్ద	-2532
▁అభిప్రాయ	-2533
హ్నం	-2534
▁స్పె	-2535
▁కార్పొ	-2536
▁తెలుసు	-2537
▁పార్టీల	-2538
▁విజయవాడ	-2539
▁లాభ	-2540
▁లేక	-2541
▁నడి	-2542
▁నిరు	-2543
▁శక్తి	-2544
▁గణ	-2545
ష్ణ	-2546
▁మధ్యా	-2547
కోవడానికి	-2548
▁తీసుకొచ్చ	-2549
న్యం	-2550
▁ఉచిత	-2551
▁మద్య	-2552
ఖీ	-2553
రించారు	-2554
▁సంక్షేమ	-2555
▁తీసుకున్నారు	-2556
▁తిరుమల	-2557
▁ఇబ్బంది	-2558
▁వాయి	-2559
in	-2560
▁వన్	-2561
▁ఇవాళ	-2562
.6	-2563
హీ	-2564
▁రోహి	-2565
ందనే	-2566
▁జనవరి	-2567
al	-2568
▁ఎందు	-2569
▁ప్రాధా	-2570
▁స్పష్ట	-2571
▁ఆసుపత్రి	-2572
▁కన్	-2573
▁చేర	-2574
▁సీపీ	-2575
▁సామాజిక	-2576
▁పార్టీలు	-2577
▁రాజీనామా	-2578
▁పోలీసులకు	-2579
▁ఉమ్మడి	-2580
▁ఇచ్చింది	-2581
▁పొంద	-2582
ತ್	-2583
▁నీరు	-2584
ర్యంలో	-2585
.7	-2586
▁ఐటీ	-2587
▁పాకిస్తాన్	-2588
సింగ్	-2589
▁లెక్క	-2590
▁పత్ర	-2591
కున్నారు	-2592
▁ఇంగ్	-2593
▁చేస్తారు	-2594
▁అద్	-2595
▁కనిప	-2596
▁షి	-2597
▁నెట్	-2598
రానికి	-2599
ంశ	-2600
ఫిక్	-2601
▁సీట్లు	-2602
భు	-2603
ంపల్లి	-2604
▁వాళ్లు	-2605
రేట్	-2606
▁బండి	-2607
▁ఉత్తర	-2608
▁కారణం	-2609
▁ఆస్ట్రే	-2610
▁వ్యాప్తంగా	-2611
▁40	-2612
▁వ్యవస	-2613
▁గుర్తి	-2614
రణ్	-2615
▁28	-2616
యంగా	-2617
▁సభలో	-2618
ಿದ	-2619
కేష్	-2620
▁తీరు	-2621
▁పారి	-2622
▁యూనివర్	-2623
ద్దని	-2624
▁అంబ	-2625
▁పండు	-2626
చ్చారు	-2627
▁బాధ్యత	-2628
▁షర్మిల	-2629
▁అధికారిక	-2630
▁ఎన్టీఆర్	-2631
జాతీయ	-2632
ద్దేశ	-2633
యాల్లో	-2634
▁అక్టోబర్	-2635
▁ఎన్నో	-2636
▁విశ్వ	-2637
ఖ్యా	-2638
▁వది	-2639
▁మిగి	-2640
▁డిసెంబర్	-2641
▁ఎగ్	-2642
▁మనం	-2643
▁సబ్	-2644
షనర్	-2645
▁ఇంట	-2646
▁నిపుణ	-2647
▁నిబంధ	-2648
్వర్యంలో	-2649
▁మార్చ	-2650
ణంగా	-2651
విష్య	-2652
ప్టెన్	-2653
▁ఇచ్చి	-2654
▁కాలంలో	-2655
▁నిమిష	-2656
కరి	-2657
కౌ	-2658
లిన	-2659
కులను	-2660
ినేషన్	-2661
▁క్యాప్షన్	-2662
శు	-2663
▁సామ	-2664
ంద్రా	-2665
▁విభా	-2666
▁వస్తుంది	-2667
ంబా	-2668
▁స్థి	-2669
▁ఈడీ	-2670
▁తనను	-2671
▁కమిషన్	-2672
బూ	-2673
ఫ్ట్	-2674
▁ఉత్ప	-2675
▁సర్వీ	-2676
▁తీవ్రంగా	-2677
ور	-2678
డత	-2679
రింగ్	-2680
▁మరికొ	-2681
▁యాదవ్	-2682
▁ప్రయత్నం	-2683
▁సెప్టెంబర్	-2684
టిల్	-2685
టెడ్	-2686
▁కలిగి	-2687
▁కాదని	-2688
హత్య	-2689
గత	-2690
▁చాల	-2691
సార్లు	-2692
▁సీబీఐ	-2693
▁పేద	-2694
▁అందుబాటులో	-2695
▁నిర్వహించిన	-2696
సాద్	-2697
▁ఫైన	-2698
▁ఎవరు	-2699
ఫర్	-2700
▁గుండె	-2701
▁భే	-2702
▁కస్ట	-2703
▁తెలిసింది	-2704
టన్	-2705
▁కీ	-2706
▁రవి	-2707
▁ఆధ్వర్యంలో	-2708
ండు	-2709
కాం	-2710
▁షో	-2711
ద్రా	-2712
య్యా	-2713
▁ఖమ్మం	-2714
▁లేఖ	-2715
▁ప్రీ	-2716
▁స్పీ	-2717
▁వర్షం	-2718
▁భవిష్య	-2719
..?	-2720
▁అరు	-2721
▁ఆడి	-2722
▁నిందితు	-2723
ధాని	-2724
▁చేయా	-2725
▁సూర్య	-2726
▁నెలల	-2727
▁23	-2728
▁ఇక్క	-2729
▁అమిత్	-2730
▁ముగ్గురు	-2731
పాద	-2732
▁ఆగస్టు	-2733
▁ట్వీట్	-2734
▁సము	-2735
▁సినిమాలో	-2736
▁చేస్తున్నారని	-2737
▁గ్యా	-2738
రగా	-2739
▁ధర్	-2740
▁ఎక్కడ	-2741
ండే	-2742
ందరి	-2743
▁అల్	-2744
ండియా	-2745
నున్నాయి	-2746
▁అడ	-2747
▁100	-2748
▁ప్రో	-2749
ఖర్	-2750
▁ఒత్తి	-2751
▁మహిళలు	-2752
▁రష	-2753
▁సంతోష	-2754
▁తొలగ	-2755
▁చదువు	-2756
▁ఉండాలని	-2757
▁కన	-2758
▁సంత	-2759
కుమార్	-2760
▁వ్యాపార	-2761
▁బ్యాంక్	-2762
▁ప్రభుత్వానికి	-2763
▁తిన	-2764
▁వ్యూ	-2765
స్తాయని	-2766
▁ప్రెస్	-2767
▁గుర్తించారు	-2768
ముల	-2769
▁జయ	-2770
▁పొందు	-2771
వల్	-2772
▁చూప	-2773
▁ఆత్మహత్య	-2774
▁ఆస్ట్రేలియా	-2775
50	-2776
▁ఆమో	-2777
▁నియమ	-2778
▁స్నే	-2779
పడింది	-2780
▁గవర్నర్	-2781
▁రైతులకు	-2782
▁వివరాలు	-2783
▁తిరుపతి	-2784
▁మారి	-2785
▁రేపు	-2786
▁ఉన్నా	-2787
ఫె	-2788
ల్చ	-2789
▁సత్య	-2790
▁విషయ	-2791
▁C	-2792
▁వెన	-2793
యింది	-2794
▁మెడి	-2795
▁రిపో	-2796
▁షేర్	-2797
షే	-2798
▁ఇచ్చే	-2799
▁దాఖలు	-2800
▁ప్రతిని	-2801
▁మధ్యాహ్నం	-2802
ించాయి	-2803
▁ఉన్నాయని	-2804
ళం	-2805
▁క్రీ	-2806
▁గర్	-2807
ట్లకు	-2808
్రీన్	-2809
▁సీజన్	-2810
▁తీసుకోవాలని	-2811
▁చేస్తోంది	-2812
తాయని	-2813
▁వాళ్ల	-2814
▁P	-2815
▁బ్రా	-2816
్యో	-2817
▁కుల	-2818
వాల్సిన	-2819
ಿಯ	-2820
ంగు	-2821
నిక	-2822
▁ఖాన్	-2823
▁ఉద్దేశ	-2824
▁ప్రక్రియ	-2825
▁27	-2826
▁అంతర్జాతీయ	-2827
దండ్ర	-2828
▁హౌ	-2829
వేత్త	-2830
తుల్లో	-2831
▁వెనుక	-2832
▁రాష్ట్రాల్లో	-2833
గ్య	-2834
▁బ్లా	-2835
మర్	-2836
మ్ము	-2837
▁బరి	-2838
▁నిరా	-2839
▁రామ్	-2840
కోవాలి	-2841
గానికి	-2842
▁సుమారు	-2843
ల్చి	-2844
▁అత్యధిక	-2845
▁వెల్లడించింది	-2846
వారికి	-2847
▁అందరూ	-2848
▁నవంబర్	-2849
ار	-2850
గొండ	-2851
▁రోహిత్	-2852
ان	-2853
▁చార్	-2854
▁పూర్త	-2855
నాల్లో	-2856
▁మద్యం	-2857
▁ఆగ్రహం	-2858
షణ	-2859
ైల్	-2860
▁ట్వి	-2861
▁పర	-2862
▁గిరి	-2863
▁రాజు	-2864
▁మహారాష్ట్ర	-2865
వని	-2866
పడే	-2867
▁రహ	-2868
లేని	-2869
▁లేద	-2870
▁జరుపు	-2871
▁చెన్నై	-2872
ేశ్వర	-2873
▁దారు	-2874
▁విరా	-2875
▁బహిరంగ	-2876
ెంట్లు	-2877
ంహ	-2878
తమైన	-2879
▁సీత	-2880
▁26	-2881
▁నివ	-2882
▁చేస్తుంది	-2883
యిన	-2884
▁నర్	-2885
▁తల్లిదండ్ర	-2886
▁ఎక	-2887
▁కురు	-2888
▁అద్భు	-2889
▁అతను	-2890
▁వెబ్	-2891
ంబర్	-2892
ించడంతో	-2893
▁న్యూస్	-2894
▁తగ్గి	-2895
▁ఆస్పత్రి	-2896
ౌండ్	-2897
▁గమ	-2898
పోయాయి	-2899
▁హాజరు	-2900
▁అనుమతి	-2901
వాసం	-2902
ಲ್ಲಿ	-2903
ూర్తి	-2904
▁వేసి	-2905
▁ఎప్పుడ	-2906
▁ఆధారంగా	-2907
బెట్	-2908
▁ఆహ్	-2909
కుంటే	-2910
▁కోహ్	-2911
▁సంఘం	-2912
▁T	-2913
▁కరీ	-2914
▁మెద	-2915
▁ఔ	-2916
..!	-2917
▁ఫోటో	-2918
▁అంతేకా	-2919
ోధ	-2920
▁రుణ	-2921
▁దుర్	-2922
▁S	-2923
డ్డా	-2924
▁దారి	-2925
▁భేటీ	-2926
-2	-2927
ద్రి	-2928
▁వడ్	-2929
▁ప్రె	-2930
ంపే	-2931
సార్	-2932
▁ఓడి	-2933
రాల్లో	-2934
▁ఆదేశించారు	-2935
్రమ	-2936
పులు	-2937
▁సీఐ	-2938
▁కిలోమీ	-2939
ra	-2940
▁వాదన	-2941
▁జిల్లాలోని	-2942
▁నిన్న	-2943
▁ہے	-2944
కుని	-2945
స్తారని	-2946
▁జె	-2947
గ్రీ	-2948
ారానికి	-2949
నున్నట్లు	-2950
కృ	-2951
▁చూసి	-2952
▁రావడం	-2953
ున	-2954
▁گ	-2955
ನ್ನ	-2956
▁రూపాయలు	-2957
కునే	-2958
లింది	-2959
▁ఆలోచన	-2960
▁మెగా	-2961
▁శర్మ	-2962
ణ్య	-2963
షియల్	-2964
▁అర్హ	-2965
సిడెంట్	-2966
▁వేదికగా	-2967
▁ఏడు	-2968
▁దిగు	-2969
▁పుట్ట	-2970
▁పంపిణీ	-2971
▁లోకేష్	-2972
ంనగర్	-2973
వేషన్	-2974
▁షూ	-2975
బోయే	-2976
▁గుర్తింపు	-2977
వేల	-2978
వాన్ని	-2979
▁సమాధా	-2980
▁ఏర్పాట్లు	-2981
ద్యో	-2982
వాలు	-2983
ెక్ట్	-2984
▁షాక్	-2985
▁విద్యార్థులు	-2986
▁నేషనల్	-2987
ేష్	-2988
▁పోష	-2989
▁హాస్	-2990
▁తీసుకుంట	-2991
ఫా	-2992
▁(1	-2993
లిక్	-2994
▁క్యూ	-2995
▁పట్ల	-2996
▁సంప్రద	-2997
▁అవార్డు	-2998
ేస్	-2999
ారావు	-3000
తోందని	-3001
▁ట్రాఫిక్	-3002
▁ధా	-3003
▁క్వ	-3004
రుగ	-3005
▁వ్యతిరేక	-3006
ంగ్లా	-3007
▁అప్ర	-3008
▁ప్రతీ	-3009
▁కల్పించ	-3010
▁ప్రయత్ని	-3011
రాజు	-3012
▁కాన్	-3013
▁ట్రై	-3014
▁ఆఫీసర్	-3015
▁మైన	-3016
▁కృషి	-3017
▁ఆర్టీసీ	-3018
▁ఫ్యాన్స్	-3019
ెక్ట	-3020
▁హ్యా	-3021
▁సరైన	-3022
▁క్రితం	-3023
పత్ర	-3024
ొక్క	-3025
▁వారం	-3026
▁సెల్	-3027
కరించారు	-3028
▁తరలి	-3029
▁భో	-3030
తరులు	-3031
▁హెచ్	-3032
▁విజయ్	-3033
▁భు	-3034
▁సినీ	-3035
▁నిద్ర	-3036
▁రష్యా	-3037
▁స్కూల్	-3038
ంచు	-3039
ట్టింది	-3040
▁సర్కార్	-3041
▁పెట్టారు	-3042
▁మార్పులు	-3043
జం	-3044
ంచ్	-3045
ంలోనే	-3046
▁కెప్టెన్	-3047
▁చౌ	-3048
▁రూపాయల	-3049
▁చెప్పింది	-3050
హన	-3051
▁అయింది	-3052
▁రాలే	-3053
▁మంత్రులు	-3054
గులు	-3055
న్యూ	-3056
స్తులు	-3057
▁వ్యాఖ్యా	-3058
▁ఆహ్వా	-3059
▁టార్	-3060
టానికి	-3061
▁కూడిన	-3062
▁కుమారు	-3063
దారులు	-3064
హాలు	-3065
ాడని	-3066
▁ఉండాలి	-3067
▁ఎమ్మెల్యేలు	-3068
డప	-3069
ధీ	-3070
వ్యూ	-3071
కేషన్	-3072
ణానికి	-3073
▁తిరుగు	-3074
▁రైతుల	-3075
▁సంవత్సరం	-3076
▁ప్రారంభించారు	-3077
జరా	-3078
ట్రి	-3079
▁కొండ	-3080
ఫ్ర	-3081
▁ఐపీఎల్	-3082
సో	-3083
▁అవినీతి	-3084
తకు	-3085
కోసం	-3086
▁అగ్ర	-3087
సులో	-3088
సారిగా	-3089
▁సంఘటన	-3090
▁ప్రశ్న	-3091
▁వచ్చారు	-3092
▁ఎవరూ	-3093
▁పాయి	-3094
బ్రవరి	-3095
▁కరీంనగర్	-3096
శ్చి	-3097
ార్టీ	-3098
▁సంగతి	-3099
▁అయ్యింది	-3100
▁రాష్ట్రం	-3101
ಂದ	-3102
సరి	-3103
▁2022	-3104
▁బోర్డు	-3105
▁భారతదేశ	-3106
▁అదన	-3107
▁బ్యాంకు	-3108
.8	-3109
▁31	-3110
▁బంగ్లా	-3111
▁పిల్లలు	-3112
ట్టే	-3113
▁మంజ	-3114
▁కనీసం	-3115
థి	-3116
దర	-3117
▁పరిశోధ	-3118
▁శ్రే	-3119
▁దేవ	-3120
▁ఒక్కో	-3121
▁యూనివర్సిటీ	-3122
▁అవుతుంది	-3123
లికి	-3124
▁స్క	-3125
ంటాయి	-3126
▁ఓటమి	-3127
▁వెళ్లిన	-3128
▁1,	-3129
▁జడ్	-3130
▁ఖాళీ	-3131
▁వ్యతిరేకంగా	-3132
▁లలో	-3133
▁హను	-3134
క్షలు	-3135
▁సీటు	-3136
▁చాలామ	-3137
▁నుంచే	-3138
▁సృష్ట	-3139
త్యా	-3140
వ్వు	-3141
▁దక్షిణ	-3142
గ్స్	-3143
▁దేశం	-3144
న్మ	-3145
జున్	-3146
▁కాంట	-3147
▁విశ్	-3148
▁కొడుకు	-3149
▁మున్సిపల్	-3150
దైనా	-3151
▁తని	-3152
▁బాగు	-3153
▁ఇవి	-3154
ెడ్యూ	-3155
▁ఉత్తర్	-3156
▁వేశారు	-3157
▁పరిధిలో	-3158
▁ప్రదర్శ	-3159
లూ	-3160
▁ఇష్ట	-3161
▁వాయిదా	-3162
▁కామెంట్స్	-3163
▁జిల్ల	-3164
నాథ్	-3165
▁లకు	-3166
▁ఒప్ప	-3167
▁ఉద్యమ	-3168
▁ఇరు	-3169
▁మంట	-3170
▁కావడం	-3171
సర్లు	-3172
▁కోహ్లీ	-3173
▁గూ	-3174
▁కూతు	-3175
▁చాలామంది	-3176
▁తరలించారు	-3177
▁సాయం	-3178
ائ	-3179
▁దిశ	-3180
▁అంతా	-3181
▁ప్రశా	-3182
▁నియోజకవర్గంలో	-3183
ట్నం	-3184
క్కర్	-3185
▁అర్థం	-3186
▁నలుగు	-3187
▁పేపర్	-3188
ార్డ్	-3189
పడుతుంది	-3190
▁ప్రారంభం	-3191
▁మేం	-3192
▁చెప్	-3193
▁సెక్ర	-3194
▁జాబితా	-3195
తుండ	-3196
▁ఎఫ్	-3197
▁పరిమి	-3198
▁హాస్పి	-3199
▁యో	-3200
▁సల	-3201
ర్చి	-3202
ాలంటూ	-3203
▁సాయి	-3204
▁ఫిబ్రవరి	-3205
▁వీర	-3206
▁చూసిన	-3207
▁నీళ్లు	-3208
▁పార్లమె	-3209
▁మిగ	-3210
య్యే	-3211
▁ఆదాయం	-3212
▁ಕ	-3213
▁రాజధాని	-3214
తున్నట్లు	-3215
ಾರ	-3216
శ్చ	-3217
▁ఓట్లు	-3218
▁ఆయా	-3219
▁బంధు	-3220
▁ప్రజలను	-3221
▁కార్యకర్తలు	-3222
▁నియోజకవర్గం	-3223
ట్యూ	-3224
య్యి	-3225
▁గౌడ్	-3226
▁విద్యార్థి	-3227
th	-3228
▁ఆహార	-3229
▁కార్డు	-3230
ల్లే	-3231
దావరి	-3232
హాన్ని	-3233
▁కమిషనర్	-3234
▁వ్యవసాయ	-3235
ించుకున్నారు	-3236
▁లోప	-3237
▁వేళ	-3238
▁ఇన్ని	-3239
గీ	-3240
వ్య	-3241
▁లబ్	-3242
▁గుజరా	-3243
▁లక్షలు	-3244
కిల్	-3245
▁వాడ	-3246
ెక్స్	-3247
▁నష్టం	-3248
▁పండుగ	-3249
▁సముద్ర	-3250
ారులు	-3251
▁ఖాతా	-3252
▁ప్రాణ	-3253
▁నిధులు	-3254
یک	-3255
రవే	-3256
▁విభ	-3257
▁నాయుడు	-3258
ాయు	-3259
న్నే	-3260
▁పాత	-3261
▁హెల్	-3262
▁షెడ్యూ	-3263
ించుకున్న	-3264
▁ప్రయత్నాలు	-3265
▁లోనే	-3266
▁బ్యాటింగ్	-3267
బరు	-3268
ల్లం	-3269
▁చూపి	-3270
▁చెంద	-3271
స్తానని	-3272
▁ఇంజ	-3273
▁తీసుకుని	-3274
కరించ	-3275
▁పిలుపు	-3276
▁చేపట్టారు	-3277
▁పుష్	-3278
▁రూపొందించ	-3279
యాత్ర	-3280
▁పరిగ	-3281
▁ఫార్	-3282
▁కిషన్	-3283
▁పెరిగి	-3284
▁స్వాధీ	-3285
▁ఆదేశాలు	-3286
▁డిప్యూటీ	-3287
డెన్	-3288
▁పున	-3289
స్వామ	-3290
▁నిరుద్యో	-3291
ాలిటీ	-3292
▁తనిఖీ	-3293
▁ముందే	-3294
▁నిర్మాణ	-3295
▁29	-3296
ెయిన్	-3297
▁రాజ్యా	-3298
గెట్	-3299
ముందు	-3300
▁యాక్	-3301
▁కొత్తగా	-3302
▁?	-3303
▁B	-3304
జీవి	-3305
▁ఒకరు	-3306
▁నిపుణులు	-3307
▁మెజ	-3308
▁మహబూ	-3309
▁రిజి	-3310
▁అమరావ	-3311
▁దాడులు	-3312
▁వసూ	-3313
▁టీమ్	-3314
▁దళ	-3315
▁ఫస్ట్	-3316
▁ఎన్నికలకు	-3317
▁అభ్యర్థులు	-3318
గ్ని	-3319
▁ఏమి	-3320
▁ఉంటారు	-3321
▁త్వరలో	-3322
▁ముస్	-3323
▁అల్లు	-3324
గ్గా	-3325
▁అధి	-3326
▁ఫుడ్	-3327
▁సారి	-3328
▁బస్	-3329
▁చేసుకుంది	-3330
-1	-3331
▁మల్ల	-3332
▁ప్రైవేట్	-3333
▁మనో	-3334
▁పర్యా	-3335
▁డిగ్రీ	-3336
▁బ్లాక్	-3337
▁నిర్వహణ	-3338
▁ఆసి	-3339
మిండియా	-3340
▁రిజర్వేషన్	-3341
ుడి	-3342
ంకర్	-3343
పోయే	-3344
వాహ	-3345
▁పరుగుల	-3346
▁పథకం	-3347
▁పశ్చి	-3348
▁కౌన్సి	-3349
▁గుజరాత్	-3350
▁ఢ	-3351
▁కాని	-3352
▁టార్గెట్	-3353
▁త్వరలోనే	-3354
కలు	-3355
ధుల	-3356
▁ముఖ	-3357
స్థాయి	-3358
▁పెంచు	-3359
▁కుటుంబా	-3360
▁టీమిండియా	-3361
er	-3362
▁సార్లు	-3363
▁బాధ్యతలు	-3364
▁స్వాధీనం	-3365
▁గుడ్	-3366
▁తేడా	-3367
▁విగ్ర	-3368
▁శాంతి	-3369
▁శిక్ష	-3370
▁కొనసాగ	-3371
▁అభిమానులు	-3372
▁నామినేషన్	-3373
త్తా	-3374
▁త్రి	-3375
▁యాప్	-3376
▁టెస్టు	-3377
▁స్పెషల్	-3378
ాలీవుడ్	-3379
▁ప్రాధాన్య	-3380
పన	-3381
▁అట	-3382
▁కుటుంబం	-3383
ోన్	-3384
▁స్కా	-3385
▁చిత్రం	-3386
▁ప్రమాణ	-3387
▁అదుపులోకి	-3388
▁న్యూఢిల్లీ	-3389
దరు	-3390
▁ఉండి	-3391
స్ట్రీ	-3392
▁సుర	-3393
▁పెరగ	-3394
▁చుట్ట	-3395
▁ఇప్పటివరకు	-3396
నాయ	-3397
▁స్కో	-3398
ంగం	-3399
ನ್ನು	-3400
▁కేజ	-3401
▁రాశ	-3402
▁ముంద	-3403
▁వేసిన	-3404
▁సంఖ్యలో	-3405
▁ఎందుకంటే	-3406
▁తమిళనాడు	-3407
on	-3408
ష్ణో	-3409
▁తగిన	-3410
▁ఏక	-3411
కర్స్	-3412
▁2014	-3413
▁రకాల	-3414
▁నిర్మాణం	-3415
▁శ్రీవారి	-3416
▁మౌ	-3417
▁ఆటగా	-3418
▁ప్రస్తుత	-3419
నిఫ	-3420
▁కాలం	-3421
▁ఇండియన్	-3422
▁నోటీసులు	-3423
▁ಪ	-3424
కరమైన	-3425
▁పాఠశాల	-3426
▁ప్రస్తా	-3427
శేష	-3428
▁న్	-3429
▁గడు	-3430
▁మృత	-3431
,1	-3432
,000	-3433
▁రచ	-3434
హార్	-3435
▁దానికి	-3436
రాజ	-3437
▁ఏజ	-3438
చేసుకు	-3439
▁చోట్ల	-3440
ರು	-3441
పున	-3442
▁వెళ	-3443
▁చెప్పుకొచ్చ	-3444
ఎంసీ	-3445
▁సెంట	-3446
▁ఏదైనా	-3447
▁కోరుకు	-3448
▁ఉన్నారని	-3449
▁اس	-3450
▁జు	-3451
▁గ్రామంలో	-3452
▁అయో	-3453
▁రాజే	-3454
▁కళా	-3455
ించగా	-3456
▁దొంగ	-3457
▁తగ్గు	-3458
్రీవాల్	-3459
▁దాన్ని	-3460
▁లక్ష్మీ	-3461
▁రాష్ట్రాల	-3462
▁జర్	-3463
▁సాం	-3464
▁అంగీ	-3465
▁ఫలితాలు	-3466
یو	-3467
ెత్త	-3468
యేషన్	-3469
▁చిరం	-3470
▁మరొక	-3471
▁నారాయణ	-3472
▁సందర్శ	-3473
కుంటున్న	-3474
ంటో	-3475
ందన్న	-3476
మాబాద్	-3477
▁వినిపి	-3478
▁అమ్మాయి	-3479
▁డ్రైవర్	-3480
▁స్పందించారు	-3481
జ్జ	-3482
▁పవర్	-3483
▁థి	-3484
▁రఘ	-3485
డితే	-3486
▁ఆల్	-3487
▁డెవల	-3488
▁నేతల	-3489
▁రావడంతో	-3490
▁అప్పగ	-3491
సేందుకు	-3492
▁మెడికల్	-3493
▁చేపట్టిన	-3494
▁తదితరులు	-3495
▁నగర	-3496
▁పరిశ్రమ	-3497
కాలం	-3498
ెట్ల	-3499
▁ఆలయ	-3500
▁క్యార	-3501
▁మృతదే	-3502
▁బీజేపీకి	-3503
▁ر	-3504
రుష	-3505
▁చెయ్య	-3506
▁కఠ	-3507
▁వన	-3508
ంచరీ	-3509
ళ్లుగా	-3510
▁కేజ్రీవాల్	-3511
ులై	-3512
▁రెస్	-3513
▁గ్రే	-3514
▁పెరిగింది	-3515
త్మక	-3516
మీర్	-3517
ట్టర్	-3518
▁పంజా	-3519
▁నర	-3520
▁చిరంజీవి	-3521
▁କ	-3522
▁కన్న	-3523
▁పర్యట	-3524
▁పోలీసుల	-3525
sh	-3526
▁అవగా	-3527
▁గాలి	-3528
▁దాంతో	-3529
▁దూరంగా	-3530
చ్చితంగా	-3531
▁హీరోయిన్	-3532
▁బది	-3533
▁ఒత్తిడి	-3534
▁దేశవ్యాప్తంగా	-3535
▁రక్త	-3536
▁పశ్చిమ	-3537
▁అధికారుల	-3538
దైన	-3539
▁గురి	-3540
▁హిందూ	-3541
▁నేరుగా	-3542
▁అప	-3543
▁టాప్	-3544
చేశారు	-3545
▁చేసుకో	-3546
ధర్	-3547
▁సంబంధం	-3548
▁లభి	-3549
▁నాటికి	-3550
చ్ఛ	-3551
▁ఛార్	-3552
తాన్ని	-3553
▁గొప్ప	-3554
▁వార్త	-3555
▁లక్ష్యంగా	-3556
ళిక	-3557
స్క్	-3558
್ರ	-3559
రుల	-3560
రళ	-3561
టీడీ	-3562
▁నెలలో	-3563
▁ఉండటంతో	-3564
▁తెలుగుదేశం	-3565
యాన్	-3566
▁హోం	-3567
▁చెక్	-3568
▁రక్షణ	-3569
▁ఓడ	-3570
▁ఆటో	-3571
▁పాద	-3572
▁కెమె	-3573
▁మోహన్	-3574
▁టెస్ట్	-3575
▁0	-3576
▁ಹ	-3577
లాది	-3578
▁విప	-3579
▁నిబంధన	-3580
▁మంజూరు	-3581
▁సెంచరీ	-3582
ఘా	-3583
శేఖర్	-3584
▁మేనే	-3585
▁సురే	-3586
▁వారిలో	-3587
▁మిగిలిన	-3588
▁వెళ్లారు	-3589
బడు	-3590
రిని	-3591
ిల్స్	-3592
▁విడి	-3593
▁చట్టం	-3594
▁బదిలీ	-3595
▁వికెట్లు	-3596
.9	-3597
▁అనారో	-3598
▁దిన	-3599
▁బరువు	-3600
కల	-3601
మత్త	-3602
▁అగ్ని	-3603
▁అధికారులకు	-3604
▁కరో	-3605
▁ఏసీ	-3606
▁కఠిన	-3607
▁జనరల్	-3608
▁నంబర్	-3609
▁అప్పుడు	-3610
▁کو	-3611
▁తెల్ల	-3612
▁మిగతా	-3613
▁సౌకర్	-3614
ెట్లు	-3615
▁చక్క	-3616
▁సంస్	-3617
▁సీట్ల	-3618
▁షెడ్యూల్	-3619
▁జరుగుతోంది	-3620
రాశి	-3621
▁స్టూడ	-3622
▁ఢిల్లీలో	-3623
▁అటు	-3624
▁పొడి	-3625
▁జస్టి	-3626
చె	-3627
▁ఊహ	-3628
▁జనా	-3629
▁మందు	-3630
▁అర్జున్	-3631
▁శాస్త్ర	-3632
▁కేరళ	-3633
▁నల్ల	-3634
▁అంతకు	-3635
▁ఎన్డీ	-3636
▁అద	-3637
▁మధు	-3638
▁రంగా	-3639
▁ముస్లిం	-3640
▁సంస్థలు	-3641
▁కనిపిస్తోంది	-3642
▁60	-3643
▁ఫర్	-3644
▁నారా	-3645
▁పట్టుకు	-3646
▁అప్రమత్త	-3647
ತ್ತ	-3648
లాలు	-3649
▁సచి	-3650
ంపులు	-3651
బె	-3652
▁నిర్మి	-3653
ూరి	-3654
కింద్రా	-3655
▁అవగాహన	-3656
▁అధికారులను	-3657
,5	-3658
▁ఆవి	-3659
▁ధ్వ	-3660
▁ఎదుర	-3661
ారంటూ	-3662
▁సిద్ధం	-3663
▁చేయడంతో	-3664
▁ముందుగా	-3665
▁జరుగుతుంది	-3666
యిత	-3667
రామ	-3668
▁బూ	-3669
లోనూ	-3670
▁కాక	-3671
▁ధర్మ	-3672
▁కాస్త	-3673
▁వన్డే	-3674
కింద్రాబాద్	-3675
▁పరిస్థితులు	-3676
చిన	-3677
టికల్	-3678
▁జులై	-3679
▁స్ట్ర	-3680
▁న్యాయం	-3681
▁గోదావరి	-3682
▁వ్యవహార	-3683
▁కొంతమంది	-3684
▁డాల	-3685
రత్	-3686
▁నటు	-3687
న్సర్	-3688
▁వేలు	-3689
కాలంలో	-3690
ాయా	-3691
▁(2	-3692
▁కను	-3693
▁మోసం	-3694
▁అధ్యయ	-3695
▁చెప్పి	-3696
▁ప్రొఫె	-3697
▁గొడవ	-3698
▁పడ్డ	-3699
▁రాజ్య	-3700
▁డేటా	-3701
▁మేము	-3702
▁సునీ	-3703
▁గడి	-3704
▁సరఫ	-3705
▁కలిపి	-3706
▁మహిళల	-3707
▁వేగంగా	-3708
▁ప్రభుత్వాన్ని	-3709
ల్యూ	-3710
▁ఆమెను	-3711
▁చేయనున్నారు	-3712
కస్	-3713
జెపి	-3714
పాడు	-3715
▁ఎంట	-3716
▁చూపు	-3717
ెన్షన్	-3718
స్తోందని	-3719
▁మీటింగ్	-3720
▁ప్రెసిడెంట్	-3721
షీ	-3722
ಾಗ	-3723
ఫ్రికా	-3724
▁స్నేహి	-3725
తారని	-3726
వింద్	-3727
ుకున్న	-3728
▁భద్రత	-3729
▁వేసింది	-3730
▁ప్రకటించిన	-3731
వేళ	-3732
▁గెలుపు	-3733
▁జల	-3734
▁ధీ	-3735
డర్లు	-3736
▁నాయక	-3737
▁పురుష	-3738
▁టీటీడీ	-3739
▁సెక్షన్	-3740
▁ప్రత్యేకంగా	-3741
రాన్	-3742
▁చెల్లి	-3743
▁కాంట్రా	-3744
▁I	-3745
నిమి	-3746
▁పక్కన	-3747
▁సాధ్య	-3748
ించాల్సి	-3749
▁భి	-3750
ెల్లి	-3751
▁ర్యా	-3752
పోయాడు	-3753
▁ఏకంగా	-3754
▁ప్రయత్నించ	-3755
▁M	-3756
▁టో	-3757
ెండా	-3758
▁చిరు	-3759
▁సమ్మ	-3760
▁తిరుమ	-3761
▁విజ్ఞ	-3762
మిలీ	-3763
యాలని	-3764
▁రిటై	-3765
▁ఫైనల్	-3766
▁ఎప్పుడూ	-3767
▁రాష్ట్రంలోని	-3768
▁پر	-3769
▁ఎండ	-3770
ఆర్ఎస్	-3771
ష్ణోగ్ర	-3772
▁ఆరోగ్యం	-3773
రమ	-3774
▁పడే	-3775
▁ఎర్ర	-3776
▁కోరి	-3777
▁జరిప	-3778
▁వివేక్	-3779
▁ప్రాజెక్ట్	-3780
▁స్థానికులు	-3781
రని	-3782
▁సినిమ	-3783
భూ	-3784
బద్ధ	-3785
▁అకౌ	-3786
▁హౌస్	-3787
▁నిజామాబాద్	-3788
▁చేస్తున్నట్లు	-3789
కాంత్	-3790
▁హోదా	-3791
▁వీటిని	-3792
టిఫికేషన్	-3793
▁ఉష్ణోగ్ర	-3794
▁తరఫ	-3795
▁సన్	-3796
▁సార	-3797
▁తయారీ	-3798
▁కేటాయి	-3799
▁పరిధిలోని	-3800
▁హెచ్చరించారు	-3801
▁థియే	-3802
▁అవసరమైన	-3803
వార	-3804
సిక	-3805
▁నల్	-3806
▁ఆశ్ర	-3807
▁బిజెపి	-3808
▁స్కీ	-3809
▁భద్రా	-3810
▁వర్క్	-3811
▁ఎత్తున	-3812
▁కావాలని	-3813
▁రోజులుగా	-3814
డుతున్నారు	-3815
▁తీసుకెళ్ల	-3816
టిక్	-3817
ాయతీ	-3818
▁ఉండటం	-3819
▁వాస్త	-3820
▁పెట్టిన	-3821
▁వస్తుందని	-3822
వంతంగా	-3823
▁పడింది	-3824
▁కార్యకర్త	-3825
కుంట	-3826
▁సక్	-3827
ారన్న	-3828
▁ఎస్సీ	-3829
▁విశేష	-3830
▁చేసుకుని	-3831
▁దర్శకుడు	-3832
▁వ్యాఖ్యానించారు	-3833
▁మీకు	-3834
▁అధ్యక్షు	-3835
▁కిలోమీటర్ల	-3836
▁199	-3837
కాలను	-3838
▁రోజున	-3839
హారం	-3840
▁జ్యో	-3841
పెట్టి	-3842
▁హరీశ్	-3843
▁చేసినా	-3844
▁స్పీకర్	-3845
▁సికింద్రాబాద్	-3846
వేదన	-3847
ఎస్సీ	-3848
కాన్ని	-3849
తోపాటు	-3850
ించలేదు	-3851
▁చెరువు	-3852
▁లిక్కర్	-3853
▁కేంద్రంలో	-3854
విడ్	-3855
ేత్ర	-3856
▁అయ్యాయి	-3857
▁ఢీ	-3858
నిక్	-3859
కూడదు	-3860
లేకపో	-3861
ెస్టో	-3862
▁గ్యార	-3863
▁జస్టిస్	-3864
▁నియోజకవర్గ	-3865
ରେ	-3866
▁రమ	-3867
▁పార్లమెంటు	-3868
ప్పున	-3869
▁తొమ్మి	-3870
▁మెట్రో	-3871
▁వరుసగా	-3872
▁భావిస్తున్నారు	-3873
ందన	-3874
ృతి	-3875
▁ఎలక్	-3876
నారాయణ	-3877
▁కుట్ర	-3878
▁అయోధ్య	-3879
▁మెరుగు	-3880
▁కార్యక్రమం	-3881
దర్	-3882
▁ఒడి	-3883
▁అందరికీ	-3884
▁విలువైన	-3885
▁ఉత్పత్తి	-3886
▁సంవత్సరాల	-3887
ంజ్	-3888
వులను	-3889
▁అయ్యే	-3890
▁పబ్	-3891
లిస్తే	-3892
▁చేయగా	-3893
▁సంపాద	-3894
▁మల్	-3895
▁స్త	-3896
▁డ్రా	-3897
రాత్రి	-3898
▁సరఫరా	-3899
▁ఎటువంటి	-3900
▁న్యాయవా	-3901
లంక	-3902
గడ్డ	-3903
▁పరిచ	-3904
▁వాతావర	-3905
▁సర్కారు	-3906
▁ఓప	-3907
ల్లె	-3908
▁భాష	-3909
▁నిషే	-3910
▁వేర్	-3911
▁చొప్పున	-3912
▁డ్రగ్స్	-3913
▁మేకర్స్	-3914
▁తీసుకుంది	-3915
▁హాస్పిటల్	-3916
మైనా	-3917
చ్చిన	-3918
▁క్లా	-3919
▁ఎస్పీ	-3920
▁బంగ్లాదేశ్	-3921
▁స్థానాల్లో	-3922
దుగా	-3923
▁ప్రయాణ	-3924
▁అధికారం	-3925
నాలజీ	-3926
ర్యాల	-3927
▁బాలిక	-3928
▁సంచలన	-3929
▁నెలకొంది	-3930
یڈ	-3931
▁ఏఐ	-3932
▁ఘన	-3933
▁మొబ	-3934
ెట్టి	-3935
▁2018	-3936
▁ఉత్స	-3937
▁శాసన	-3938
పడుతున్న	-3939
వాన్	-3940
నిఫెస్టో	-3941
ించిందని	-3942
▁మీడియాతో	-3943
స్తున్నాడు	-3944
తాలు	-3945
మాలు	-3946
▁ఓట్ల	-3947
▁టిక్క	-3948
స్తున్నామని	-3949
▁బయలు	-3950
▁రంగు	-3951
వానికి	-3952
▁నల్గొండ	-3953
.30	-3954
▁రవా	-3955
▁ఆమెకు	-3956
▁చేర్చ	-3957
ెర	-3958
డల్	-3959
డాన్ని	-3960
మయ్యారు	-3961
▁పద్	-3962
▁డీకే	-3963
▁నాడు	-3964
గ్రామ్	-3965
▁దేశాల	-3966
▁ప్రసాద్	-3967
వాద	-3968
పాటి	-3969
స్తాం	-3970
జేశారు	-3971
లానికి	-3972
▁డబుల్	-3973
▁స్టేట్	-3974
▁షూటింగ్	-3975
▁ఇప్పటికీ	-3976
▁ସ	-3977
గలి	-3978
ాలన్న	-3979
▁అభిన	-3980
▁ఎప్పటి	-3981
▁డెవలప్	-3982
▁విచారణకు	-3983
బల్	-3984
▁వల	-3985
ించేలా	-3986
▁లీడర్	-3987
▁కామారెడ్డి	-3988
మొ	-3989
జిట్	-3990
▁ఫుల్	-3991
▁కుక్క	-3992
▁చర్చలు	-3993
▁వార్తలు	-3994
▁పార్టీని	-3995
▁సమస్యలను	-3996
▁వ్యక్తులు	-3997
▁చుట్టూ	-3998
▁కోర్టులో	-3999
▁అస్	-4000
▁సంప	-4001
హ్మద్	-4002
▁సీసీ	-4003
▁స్పంది	-4004
▁టెక్నాలజీ	-4005
್ದ	-4006
ంట్ల	-4007
▁టోర్	-4008
▁ఫైర్	-4009
▁మ్యూ	-4010
▁వేధి	-4011
త్వంలో	-4012
్రాంతి	-4013
▁కరోనా	-4014
▁బిడ్డ	-4015
▁రానున్న	-4016
▁నోటిఫికేషన్	-4017
▁తరహా	-4018
▁కల్పి	-4019
▁జనాభా	-4020
▁బయలుదే	-4021
బిన	-4022
మన్	-4023
స్తీ	-4024
ఎస్పీ	-4025
▁రక్ష	-4026
▁ఆవేదన	-4027
▁నలుగురు	-4028
▁మహిళలకు	-4029
▁ఇన్నింగ్స్	-4030
ెక్కి	-4031
▁ఫ్రా	-4032
స్థానం	-4033
▁పట్టణ	-4034
▁క్రికె	-4035
రై	-4036
▁ర్య	-4037
▁జన్మ	-4038
▁నాటి	-4039
తానికి	-4040
▁సంబంధిత	-4041
▁భీ	-4042
గితే	-4043
▁వయసు	-4044
ట్రిక్	-4045
నలి	-4046
▁బహు	-4047
▁బాలీ	-4048
బినెట్	-4049
▁రవాణా	-4050
▁బౌలింగ్	-4051
ట్లే	-4052
▁గడ్	-4053
కరంగా	-4054
▁పిల్లల	-4055
▁లేదన్నారు	-4056
30	-4057
▁పండ	-4058
బోతున్న	-4059
▁ముఖ్యమైన	-4060
ಕ್	-4061
ರ್	-4062
దేవి	-4063
వాళ్లు	-4064
▁పూజలు	-4065
▁స్టేడి	-4066
▁సక్సెస్	-4067
జున	-4068
బడిన	-4069
▁డ్యా	-4070
▁బాల్	-4071
▁రెడీ	-4072
▁కౌంటర్	-4073
▁నొ	-4074
▁విరు	-4075
▁కాలనీ	-4076
▁నాయకుడు	-4077
రక	-4078
ంసం	-4079
ేజ్	-4080
్రల్	-4081
▁భవన్	-4082
▁ఇండస్ట్రీ	-4083
▁రాజస్థాన్	-4084
am	-4085
ధం	-4086
▁భవ	-4087
వార్	-4088
▁బర్	-4089
▁హయా	-4090
▁ప్రణా	-4091
▁వాటర్	-4092
▁బాలీవుడ్	-4093
ళా	-4094
ీస్	-4095
రీర్	-4096
▁ఎకర	-4097
▁టౌన్	-4098
▁మిషన్	-4099
▁ట్రంప్	-4100
ేబుల్	-4101
▁నెటి	-4102
▁సూచి	-4103
▁దిశగా	-4104
▁టాలీవుడ్	-4105
▁అందుబాటులోకి	-4106
▁کر	-4107
▁స్టో	-4108
▁నాయకు	-4109
ాయన్నారు	-4110
▁వర్గాలు	-4111
▁ఉద్యోగులు	-4112
▁N	-4113
జిన	-4114
▁వెండి	-4115
▁సాధించిన	-4116
▁సినిమాలు	-4117
▁2021	-4118
▁వెళ్లా	-4119
▁కానుంది	-4120
▁పెద్దగా	-4121
మానం	-4122
▁అదా	-4123
్యూని	-4124
▁మాకు	-4125
▁నెరవే	-4126
▁జీవితంలో	-4127
▁వివరాలను	-4128
▁ఉందన్నారు	-4129
▁పట్టించుకో	-4130
నీయ	-4131
లైన	-4132
▁ఇటీవ	-4133
▁షిప్	-4134
▁సాను	-4135
ಸ್	-4136
ర్ఘ	-4137
▁ఫె	-4138
▁నగదు	-4139
▁పక్ష	-4140
▁బుక్	-4141
▁ప్రియా	-4142
▁ఫ్యామిలీ	-4143
ال	-4144
▁ఎగు	-4145
▁ఖాయ	-4146
▁క్లి	-4147
▁గ్రహ	-4148
▁నాని	-4149
▁పరిణ	-4150
▁బ్యాక్	-4151
▁పరీక్షలు	-4152
ోసి	-4153
▁దశా	-4154
".	-4155
▁జర	-4156
▁నార్	-4157
▁మొదట	-4158
▁వ్యవహర	-4159
▁నియంత్ర	-4160
▁ప్రభాకర్	-4161
తుండగా	-4162
▁ఇవ్వడం	-4163
▁సెంట్రల్	-4164
▁అనుకూలంగా	-4165
లక్ష్	-4166
ేశ్వర్	-4167
▁ప్రాణాలు	-4168
▁మను	-4169
▁దూరం	-4170
▁దర్శక	-4171
▁ఉద్యోగం	-4172
కలా	-4173
▁రజ	-4174
▁జనం	-4175
▁సస్ప	-4176
▁భర్తీ	-4177
▁శంకర్	-4178
మన్నారు	-4179
▁ఉపాధ్య	-4180
▁కెరీర్	-4181
▁సమాధానం	-4182
▁పిలుపుని	-4183
▁కార్పొరేషన్	-4184
ష్టా	-4185
▁హైడ	-4186
ప్ల	-4187
▁చేతిలో	-4188
▁స్థానం	-4189
▁అమరావతి	-4190
▁కొనసాగి	-4191
ర్ణ	-4192
▁ఎడ	-4193
పట్నం	-4194
ినేని	-4195
▁దాడు	-4196
▁సైట్	-4197
గాన్ని	-4198
పోయినా	-4199
▁పంజాబ్	-4200
▁మొబైల్	-4201
▁ట్విట్టర్	-4202
▁ఈసీ	-4203
▁మిన	-4204
▁దశాబ్	-4205
▁మెదక్	-4206
్యానికి	-4207
ష్ణు	-4208
▁కలుగు	-4209
▁తెలియజే	-4210
▁స్టూడెంట్	-4211
పాయ	-4212
గూడెం	-4213
▁బైక్	-4214
▁ఎనిమి	-4215
▁పోర్టు	-4216
వసర	-4217
▁రౌ	-4218
దీప్	-4219
▁చెల	-4220
▁భవిష్యత్తు	-4221
▁ل	-4222
▁ಬ	-4223
చ్చే	-4224
▁ఐదే	-4225
▁చంప	-4226
▁పాక్	-4227
▁మొక్క	-4228
▁రద్దీ	-4229
▁అక్కడే	-4230
▁ఎప్పుడు	-4231
▁తీసుకోవడం	-4232
ంతర	-4233
▁ఆఫీస్	-4234
▁చేరారు	-4235
పాదన	-4236
మాని	-4237
▁సన్ని	-4238
▁నిలిచింది	-4239
▁ఛా	-4240
దార్	-4241
▁అలీ	-4242
పరమైన	-4243
▁పంచాయతీ	-4244
▁అవుతోంది	-4245
▁ప్రాధాన్యత	-4246
యని	-4247
▁మత	-4248
వెల్	-4249
▁వంశ	-4250
▁జ్యోతి	-4251
▁నియా	-4252
▁హిట్	-4253
▁చూపించ	-4254
మాస్	-4255
ళ్ళు	-4256
▁చూస్తే	-4257
▁సమీక్ష	-4258
▁సమీపంలో	-4259
పటి	-4260
యస్	-4261
▁జీవ	-4262
ేశ్వరం	-4263
▁రెడ్డికి	-4264
పడుతున్నారు	-4265
▁ఆయు	-4266
▁కల్ప	-4267
ాక	-4268
ల్ప	-4269
▁వస	-4270
▁కోస	-4271
▁పుస్త	-4272
▁పాకిస్థాన్	-4273
క్య	-4274
ల్లోనే	-4275
▁ఉద్యోగ	-4276
చారాన్ని	-4277
▁నియోజకవర్గాల్లో	-4278
▁ఓపెన్	-4279
▁బౌలర్	-4280
▁గెలిచిన	-4281
▁ట్రాన్స్	-4282
▁నిర్లక్ష	-4283
▁ప్రణాళిక	-4284
▁మొదలైంది	-4285
ెల	-4286
▁ధో	-4287
దానికి	-4288
▁ఒకవేళ	-4289
▁సవాల్	-4290
▁శ్రీలంక	-4291
ంఛ	-4292
ీయ	-4293
సింహ	-4294
▁ఎంట్రీ	-4295
▁ఎవరైనా	-4296
▁వేసుకు	-4297
▁పెండింగ్	-4298
▁వైద్యులు	-4299
ವು	-4300
పిక్	-4301
▁అన్	-4302
▁రవీ	-4303
▁కట్టు	-4304
▁హెచ్చరిక	-4305
▁ప్రొఫెసర్	-4306
▁గ్రామానికి	-4307
ఖ్	-4308
▁జంట	-4309
పింగ్	-4310
పెద్ద	-4311
శ్మీర్	-4312
▁ఉపాధి	-4313
▁రచయిత	-4314
▁బాధితు	-4315
▁ఆఫీసర్లు	-4316
▁ఇస్తామని	-4317
టిన	-4318
▁ఏదో	-4319
▁నది	-4320
▁దేవు	-4321
▁లక్ష్య	-4322
▁రాజ్యసభ	-4323
▁ఆడియన్స్	-4324
బే	-4325
▁ପ	-4326
మోహన్	-4327
▁యూపీ	-4328
▁రాజమ	-4329
▁ఆహారం	-4330
▁చేరిన	-4331
▁ఆపరేషన్	-4332
▁کا	-4333
▁మణి	-4334
▁ఇంది	-4335
రాన్ని	-4336
▁అదానీ	-4337
▁అంచనాలు	-4338
▁సాధారణంగా	-4339
▁क	-4340
యేట్	-4341
▁చిక్కు	-4342
ెక్టరేట్	-4343
▁కుమారుడు	-4344
్రూ	-4345
▁ద్ర	-4346
మాన	-4347
▁దానిపై	-4348
▁ప్రయాణం	-4349
▁ఆకర్	-4350
▁నేతృ	-4351
▁ప్రమో	-4352
లర్లు	-4353
హద్దు	-4354
▁నిలు	-4355
▁పెన్	-4356
▁ముని	-4357
▁గట్టి	-4358
▁చిత్రా	-4359
▁అవుతున్న	-4360
▁వాతావరణం	-4361
▁	-4362
్	-4363
ి	-4364
ా	-4365
ు	-4366
ర	-4367
న	-4368
ల	-4369
ం	-4370
క	-4371
ప	-4372
త	-4373
స	-4374
వ	-4375
ద	-4376
ట	-4377
ో	-4378
మ	-4379
ే	-4380
య	-4381
చ	-4382
డ	-4383
ీ	-4384
గ	-4385
.	-4386
ె	-4387
అ	-4388
జ	-4389
బ	-4390
ూ	-4391
,	-4392
శ	-4393
ష	-4394
ై	-4395
ఆ	-4396
హ	-4397
ధ	-4398
ఎ	-4399
భ	-4400
ొ	-4401
ఇ	-4402
ఉ	-4403
ణ	-4404
ళ	-4405
ఫ	-4406
ఈ	-4407
థ	-4408
0	-4409
2	-4410
1	-4411
ఏ	-4412
ఖ	-4413
"	-4414
ఒ	-4415
ృ	-4416
5	-4417
3	-4418
4	-4419
:	-4420
ౌ	-4421
ఓ	-4422
)	-4423
ఐ	-4424
(	-4425
9	-4426
-	-4427
6	-4428
8	-4429
7	-4430
ఘ	-4431
ی	-4432
ا	-4433
a	-4434
?	-4435
್	-4436
ಿ	-4437
ک	-4438
و	-4439
ر	-4440
e	-4441
i	-4442
ఢ	-4443
n	-4444
ے	-4445
ن	-4446
ఛ	-4447
ఠ	-4448
ہ	-4449
r	-4450
ು	-4451
ರ	-4452
ದ	-4453
م	-4454
ಾ	-4455
'	-4456
t	-4457
ನ	-4458
o	-4459
ಲ	-4460
s	-4461
س	-4462
!	-4463
ل	-4464
h	-4465
l	-4466
ି	-4467
A	-4468
ವ	-4469
ఊ	-4470
ت	-4471
ା	-4472
S	-4473
ೆ	-4474
ର	-4475
୍	-4476
d	-4477
ತ	-4478
ಕ	-4479
u	-4480
⁬	-4481
ಯ	-4482
R	-4483
ಸ	-4484
C	-4485
د	-4486
ಗ	-4487
ب	-4488
ں	-4489
P	-4490
ಂ	-4491
m	-4492
پ	-4493
I	-4494
T	-4495
ಮ	-4496
c	-4497
/	-4498
ಡ	-4499
େ	-4500
କ	-4501
ఞ	-4502
M	-4503
g	-4504
ئ	-4505
D	-4506
B	-4507
p	-4508
گ	-4509
ج	-4510
ھ	-4511
y	-4512
ନ	-4513
ٹ	-4514
v	-4515
N	-4516
ಬ	-4517
‍	-4518
k	-4519
ବ	-4520
ಪ	-4521
E	-4522
L	-4523
ा	-4524
ش	-4525
ಟ	-4526
ସ	-4527
O	-4528
w	-4529
ତ	-4530
G	-4531
۔	-4532
ಹ	-4533
ୁ	-4534
ڈ	-4535
ಳ	-4536
ع	-4537
b	-4538
ೋ	-4539
ମ	-4540
ପ	-4541
ೇ	-4542
ఔ	-4543
K	-4544
ః	-4545
V	-4546
ଲ	-4547
क	-4548
र	-4549
ହ	-4550
ف	-4551
े	-4552
H	-4553
ೊ	-4554
ق	-4555
ೀ	-4556
F	-4557
ಜ	-4558
چ	-4559
ୟ	-4560
ಚ	-4561
ز	-4562
ଇ	-4563
⁭	-4564
j	-4565
ح	-4566
ଦ	-4567
U	-4568
ୋ	-4569
ಎ	-4570
ଟ	-4571
J	-4572
%	-4573
न	-4574
ೂ	-4575
ص	-4576
ಶ	-4577
ଏ	-4578
ಅ	-4579
#	-4580
ी	-4581
ଣ	-4582
ೈ	-4583
।	-4584
ಆ	-4585
ह	-4586
्	-4587
ଥ	-4588
ಷ	-4589
ଭ	-4590
خ	-4591
ଡ	-4592
W	-4593
ि	-4594
،	-4595
آ	-4596
ं	-4597
ಣ	-4598
ଛ	-4599
स	-4600
ଜ	-4601
ಧ	-4602
f	-4603
म	-4604
Y	-4605
;	-4606
ط	-4607
ଯ	-4608
ଆ	-4609
ल	-4610
X	-4611
ो	-4612
त	-4613
ଉ	-4614
ఝ	-4615
ಇ	-4616
ଗ	-4617
ଅ	-4618
प	-4619
य	-4620
ಭ	-4621
ୀ	-4622
*	-4623
ڑ	-4624
द	-4625
ଳ	-4626
ଖ	-4627
ଧ	-4628
ଙ	-4629
ग	-4630
ଚ	-4631
ब	-4632
ଷ	-4633
ಖ	-4634
ज	-4635
ଶ	-4636
ಫ	-4637
व	-4638
+	-4639
ଓ	-4640
ض	-4641
ಈ	-4642
x	-4643
ଁ	-4644
>	-4645
ଫ	-4646
ु	-4647
ٰ	-4648
ै	-4649
&	-4650
@	-4651
غ	-4652
ظ	-4653
ಥ	-4654
ଂ	-4655
ذ	-4656
च	-4657
भ	-4658
ट	-4659
ೃ	-4660
‭	-4661
अ	-4662
`	-4663
श	-4664
ए	-4665
Z	-4666
ಉ	-4667
Q	-4668
ड	-4669
z	-4670
ू	-4671
୨	-4672
്	-4673
➦	-4674
଼	-4675
ୂ	-4676
़	-4677
்	-4678
_	-4679
☛	-4680
q	-4681
आ	-4682
ଘ	-4683
ख	-4684
ध	-4685
ୱ	-4686
ୌ	-4687
ଠ	-4688
ʼ	-4689
ಒ	-4690
फ	-4691
୦	-4692
ؤ	-4693
थ	-4694
=	-4695
ث	-4696
औ	-4697
୧	-4698
ക	-4699
ୃ	-4700
इ	-4701
ଞ	-4702
ி	-4703
ി	-4704
₹	-4705
ई	-4706
ष	-4707
•	-4708
த	-4709
[	-4710
]	-4711
­	-4712
ఙ	-4713
ಏ	-4714
⁪	-4715
ఋ	-4716
ಐ	-4717
ಘ	-4718
उ	-4719
ೌ	-4720
‪	-4721
க	-4722
ِ	-4723
ण	-4724
ப	-4725
ന	-4726
°	-4727
୪	-4728
া	-4729
യ	-4730
छ	-4731
ம	-4732
ு	-4733
ಠ	-4734
ു	-4735
ओ	-4736
ட	-4737
പ	-4738
$	-4739
ি	-4740
ാ	-4741
ठ	-4742
ఱ	-4743
౦	-4744
ಓ	-4745
घ	-4746
ଵ	-4747
୫	-4748
ട	-4749
র	-4750
্	-4751
ത	-4752
ক	-4753
ୈ	-4754
୩	-4755
ர	-4756
ல	-4757
வ	-4758
‐	-4759
୮	-4760
ற	-4761
ಊ	-4762
झ	-4763
୬	-4764
ள	-4765
ா	-4766
ല	-4767
വ	-4768
െ	-4769
ढ	-4770
ব	-4771
ଝ	-4772
ಞ	-4773
ണ	-4774
●	-4775
َ	-4776
ন	-4777
ম	-4778
୭	-4779
୯	-4780
ച	-4781
ഷ	-4782
⁠	-4783
ي	-4784
ऐ	-4785
ॉ	-4786
ে	-4787
ଢ	-4788
ോ	-4789
؟	-4790
ল	-4791
ু	-4792
ச	-4793
ய	-4794
അ	-4795
റ	-4796
►	-4797
ژ	-4798
ە	-4799
ृ	-4800
ौ	-4801
॥	-4802
ত	-4803
ৰ	-4804
ந	-4805
ன	-4806
ை	-4807
മ	-4808
ര	-4809
സ	-4810
‒	-4811
ء	-4812
প	-4813
য	-4814
ো	-4815
ெ	-4816
ങ	-4817
ഡ	-4818
ൽ	-4819
′	-4820
◉	-4821
♦	-4822
🇮	-4823
জ	-4824
স	-4825
ಛ	-4826
ಢ	-4827
ജ	-4828
ള	-4829
ർ	-4830
★	-4831
❌	-4832
🇳	-4833
়	-4834
எ	-4835
ோ	-4836
ീ	-4837
😂	-4838
🚩	-4839
\	-4840
đ	-4841
ه	-4842
ّ	-4843
ञ	-4844
এ	-4845
ও	-4846
ধ	-4847
அ	-4848
ங	-4849
ொ	-4850
౩	-4851
ം	-4852
എ	-4853
ധ	-4854
ൂ	-4855
ൗ	-4856
ൾ	-4857
~	-4858
·	-4859
×	-4860
ư	-4861
ُ	-4862
ँ	-4863
ऊ	-4864
ऑ	-4865
०	-4866
ট	-4867
ড	-4868
দ	-4869
ফ	-4870
হ	-4871
ଃ	-4872
ଈ	-4873
ண	-4874
ீ	-4875
ಃ	-4876
ಝ	-4877
⁄	-4878
⃣	-4879
⦁	-4880
️	-4881
💪	-4882
🔥	-4883
🙏	-4884
â	-4885
ơ	-4886
أ	-4887
ً	-4888
ڕ	-4889
ः	-4890
२	-4891
অ	-4892
গ	-4893
চ	-4894
ভ	-4895
শ	-4896
ী	-4897
ৱ	-4898
ஏ	-4899
ஜ	-4900
ூ	-4901
ఁ	-4902
౧	-4903
౹	-4904
ಔ	-4905
ഈ	-4906
ഭ	-4907
ശ	-4908
ൃ	-4909
േ	-4910
ൊ	-4911
ൻ	-4912
ố	-4913
⁫	-4914
⁯	-4915
◆	-4916
👉	-4917
👌	-4918
💚	-4919
😡	-4920
<	-4921
£	-4922
©	-4923
Á	-4924
æ	-4925
́	-4926
α	-4927
β	-4928
؛	-4929
إ	-4930
ى	-4931
ڵ	-4932
ۆ	-4933
ێ	-4934
४	-4935
ঃ	-4936
আ	-4937
ৈ	-4938
ஆ	-4939
இ	-4940
உ	-4941
ஊ	-4942
ஸ	-4943
ே	-4944
ఽ	-4945
ౄ	-4946
ౖ	-4947
౪	-4948
౬	-4949
ആ	-4950
ഇ	-4951
ഒ	-4952
ഗ	-4953
ദ	-4954
ബ	-4955
ഴ	-4956
ൈ	-4957
ả	-4958
ầ	-4959
ậ	-4960
ệ	-4961
ớ	-4962
ờ	-4963
ở	-4964
ợ	-4965
ứ	-4966
‫	-4967
‬	-4968
€	-4969
∙	-4970
≠	-4971
▪	-4972
♥	-4973
✳	-4974
➡	-4975
🇪	-4976
🇬	-4977
🌹	-4978
🏼	-4979
👇	-4980
👊	-4981
👋	-4982
💐	-4983
💥	-4984
🔴	-4985
🔸	-4986
🔹	-4987
😉	-4988
😊	-4989
😜	-4990
😞	-4991
😠	-4992
😥	-4993
🙂	-4994
🤜	-4995
🤭	-4996
