<unk>	0
<s>	0
</s>	0
ar	-0
an	-1
er	-2
in	-3
▁b	-4
ın	-5
de	-6
▁k	-7
il	-8
▁y	-9
en	-10
▁s	-11
da	-12
ir	-13
al	-14
▁g	-15
ma	-16
lar	-17
ak	-18
▁o	-19
la	-20
et	-21
el	-22
▁t	-23
ek	-24
▁v	-25
▁i	-26
di	-27
un	-28
or	-29
ler	-30
▁,	-31
at	-32
dı	-33
iy	-34
ay	-35
on	-36
es	-37
▁h	-38
▁B	-39
▁m	-40
ur	-41
▁d	-42
as	-43
▁A	-44
le	-45
▁ve	-46
li	-47
▁de	-48
aş	-49
ün	-50
ıl	-51
▁bir	-52
▁n	-53
ür	-54
▁ç	-55
ık	-56
▁T	-57
im	-58
ul	-59
iz	-60
▁ol	-61
▁S	-62
▁K	-63
em	-64
▁a	-65
ap	-66
st	-67
ır	-68
▁"	-69
ör	-70
▁da	-71
▁M	-72
ik	-73
am	-74
ında	-75
▁e	-76
▁il	-77
inde	-78
ey	-79
▁p	-80
ğı	-81
▁ö	-82
iş	-83
az	-84
dan	-85
ış	-86
ya	-87
▁'	-88
▁D	-89
ını	-90
du	-91
ab	-92
▁al	-93
um	-94
ah	-95
▁G	-96
ini	-97
▁H	-98
▁1	-99
üz	-100
▁ş	-101
ti	-102
ki	-103
lı	-104
▁E	-105
esi	-106
▁yap	-107
▁İ	-108
yor	-109
▁ar	-110
tı	-111
den	-112
sı	-113
ları	-114
it	-115
ce	-116
▁2	-117
lan	-118
▁f	-119
ol	-120
ok	-121
▁iç	-122
ine	-123
▁Y	-124
leri	-125
ği	-126
▁bu	-127
ük	-128
is	-129
ına	-130
ım	-131
iye	-132
uz	-133
ül	-134
ağ	-135
▁gör	-136
ız	-137
uş	-138
▁baş	-139
▁et	-140
▁P	-141
cak	-142
▁kar	-143
ut	-144
▁.	-145
af	-146
ev	-147
▁C	-148
▁r	-149
me	-150
ta	-151
ön	-152
▁F	-153
oğ	-154
ürk	-155
inin	-156
anı	-157
te	-158
ların	-159
▁son	-160
▁için	-161
eri	-162
ca	-163
▁O	-164
▁ile	-165
▁gel	-166
▁oldu	-167
us	-168
▁ön	-169
ec	-170
▁z	-171
dır	-172
eç	-173
av	-174
uk	-175
iyor	-176
▁kon	-177
▁an	-178
▁Türk	-179
▁ma	-180
▁ler	-181
▁di	-182
▁ver	-183
üm	-184
lik	-185
▁bil	-186
alar	-187
ması	-188
ad	-189
üş	-190
len	-191
iler	-192
▁aç	-193
se	-194
unu	-195
ez	-196
yon	-197
mak	-198
▁u	-199
öy	-200
▁ay	-201
lu	-202
ra	-203
ından	-204
cı	-205
laş	-206
erek	-207
▁lar	-208
▁bul	-209
▁ne	-210
öz	-211
▁yıl	-212
▁-	-213
ye	-214
▁20	-215
▁3	-216
▁ed	-217
ci	-218
lık	-219
om	-220
lay	-221
▁en	-222
▁in	-223
▁R	-224
▁tar	-225
op	-226
eş	-227
▁çık	-228
ası	-229
▁kal	-230
dığı	-231
▁Türkiye	-232
ib	-233
dir	-234
üy	-235
ildi	-236
▁bel	-237
▁olduğ	-238
▁yer	-239
▁değ	-240
ip	-241
▁Ç	-242
ının	-243
▁iş	-244
larak	-245
▁sür	-246
▁yaş	-247
▁Ş	-248
▁Bu	-249
nin	-250
man	-251
▁gün	-252
▁geç	-253
▁Ö	-254
eler	-255
ıyor	-256
▁N	-257
üt	-258
tan	-259
▁yar	-260
▁(	-261
▁olarak	-262
▁ist	-263
mek	-264
öyle	-265
tir	-266
ade	-267
eh	-268
▁kad	-269
▁or	-270
▁L	-271
▁Baş	-272
eni	-273
ken	-274
ro	-275
lama	-276
▁çok	-277
ıs	-278
ılan	-279
let	-280
ama	-281
▁olan	-282
▁c	-283
ha	-284
ili	-285
▁üz	-286
ada	-287
lü	-288
▁An	-289
▁çal	-290
▁kay	-291
ecek	-292
asında	-293
ğini	-294
eye	-295
ede	-296
ru	-297
▁mil	-298
iyet	-299
cu	-300
▁kur	-301
aya	-302
▁bulun	-303
aber	-304
▁belir	-305
edi	-306
yla	-307
▁4	-308
ist	-309
▁ise	-310
▁çalış	-311
▁karş	-312
arı	-313
▁var	-314
▁üzer	-315
▁dev	-316
ilm	-317
▁ken	-318
ilen	-319
▁el	-320
mış	-321
▁açık	-322
▁daha	-323
▁5	-324
ibi	-325
alı	-326
iyle	-327
tır	-328
uşt	-329
▁ter	-330
si	-331
▁yön	-332
▁kul	-333
▁at	-334
aç	-335
▁ek	-336
▁oy	-337
▁V	-338
▁201	-339
▁sor	-340
unda	-341
▁top	-342
ece	-343
▁dur	-344
eb	-345
aman	-346
leş	-347
▁gü	-348
öl	-349
▁yak	-350
inden	-351
por	-352
▁yüz	-353
▁Er	-354
▁bin	-355
ara	-356
nın	-357
ih	-358
mas	-359
kan	-360
▁düş	-361
▁kiş	-362
os	-363
ğını	-364
▁yan	-365
üyük	-366
▁U	-367
ep	-368
▁gö	-369
ğr	-370
▁ki	-371
▁dön	-372
▁taraf	-373
..	-374
ıldı	-375
kanı	-376
imiz	-377
▁uy	-378
▁kullan	-379
eli	-380
lam	-381
▁her	-382
diği	-383
00	-384
dür	-385
▁sonra	-386
arak	-387
tığı	-388
▁gir	-389
▁etti	-390
▁sağ	-391
yi	-392
▁kadar	-393
▁gibi	-394
▁sah	-395
▁ü	-396
ark	-397
miş	-398
sa	-399
ılı	-400
▁kap	-401
▁gerek	-402
▁tek	-403
▁hal	-404
oy	-405
▁kat	-406
▁belirt	-407
▁ger	-408
dü	-409
unun	-410
▁Al	-411
▁mü	-412
▁tak	-413
ladı	-414
met	-415
▁ül	-416
lerin	-417
▁ola	-418
larını	-419
der	-420
▁Ar	-421
san	-422
▁söyle	-423
oli	-424
▁ak	-425
isi	-426
▁li	-427
▁hak	-428
maya	-429
▁6	-430
▁karşı	-431
lem	-432
▁dedi	-433
▁terör	-434
acak	-435
ayı	-436
ğu	-437
▁yeni	-438
akan	-439
▁Z	-440
ran	-441
esinde	-442
gi	-443
▁ev	-444
▁öz	-445
eti	-446
aat	-447
asyon	-448
bil	-449
▁böl	-450
kin	-451
lığı	-452
▁göre	-453
lerini	-454
▁Ü	-455
▁büyük	-456
ne	-457
re	-458
▁if	-459
ot	-460
yan	-461
▁7	-462
art	-463
▁as	-464
▁ülk	-465
çek	-466
mesi	-467
▁ce	-468
men	-469
▁l	-470
dım	-471
▁düz	-472
▁alın	-473
erk	-474
▁do	-475
▁ilk	-476
lara	-477
▁hay	-478
etir	-479
if	-480
cağı	-481
▁dün	-482
una	-483
▁getir	-484
hur	-485
ter	-486
ven	-487
stan	-488
▁on	-489
▁olduğunu	-490
ef	-491
▁ifade	-492
tr	-493
cü	-494
etim	-495
▁olduğu	-496
▁uz	-497
umhur	-498
bul	-499
▁neden	-500
çe	-501
elik	-502
mız	-503
▁ör	-504
▁ilg	-505
▁pro	-506
▁doğ	-507
▁ort	-508
▁yol	-509
▁Bir	-510
▁alan	-511
▁olma	-512
▁zaman	-513
uy	-514
▁Haber	-515
▁göz	-516
yı	-517
▁sal	-518
▁ama	-519
per	-520
▁tut	-521
▁yüzde	-522
larının	-523
▁sır	-524
▁den	-525
▁öğr	-526
▁maç	-527
azet	-528
gu	-529
ers	-530
▁Cumhur	-531
▁AB	-532
üks	-533
▁çek	-534
▁ya	-535
oc	-536
▁şek	-537
▁önem	-538
▁:	-539
malar	-540
tü	-541
uh	-542
▁8	-543
▁has	-544
ed	-545
tar	-546
▁değil	-547
▁devam	-548
ünü	-549
▁dı	-550
▁Öz	-551
lat	-552
uç	-553
▁ları	-554
▁sev	-555
▁gerçek	-556
▁tarafından	-557
rup	-558
▁Mü	-559
▁ih	-560
▁ot	-561
güt	-562
▁biz	-563
▁alt	-564
ünde	-565
▁arasında	-566
uştur	-567
stanbul	-568
▁göst	-569
▁I	-570
nde	-571
▁poli	-572
dından	-573
▁yaz	-574
▁gen	-575
iç	-576
erb	-577
alan	-578
tık	-579
▁yapılan	-580
be	-581
tik	-582
ac	-583
▁İstanbul	-584
ğü	-585
uyor	-586
▁kendi	-587
▁diye	-588
ten	-589
atı	-590
liği	-591
ans	-592
▁Ak	-593
▁iki	-594
▁göster	-595
doğ	-596
▁Ay	-597
bir	-598
▁Sur	-599
▁durum	-600
iv	-601
eyi	-602
▁ardından	-603
▁milyon	-604
dar	-605
▁Av	-606
na	-607
ğer	-608
▁düzen	-609
▁söz	-610
▁ilgili	-611
▁kaz	-612
▁saat	-613
▁önce	-614
baş	-615
gün	-616
ddi	-617
larda	-618
▁10	-619
alık	-620
diyor	-621
▁saldır	-622
usu	-623
▁bek	-624
▁es	-625
▁eden	-626
▁...	-627
▁Gen	-628
▁insan	-629
▁iz	-630
▁har	-631
▁sav	-632
▁bölg	-633
uştu	-634
▁görev	-635
▁san	-636
▁örgüt	-637
▁Başkanı	-638
▁bulundu	-639
▁özel	-640
ındaki	-641
oz	-642
atır	-643
▁önemli	-644
eleri	-645
atan	-646
▁19	-647
▁15	-648
▁öğren	-649
▁Kur	-650
▁öl	-651
nı	-652
ıp	-653
ıla	-654
▁yok	-655
▁is	-656
han	-657
▁gelen	-658
id	-659
dık	-660
▁par	-661
ileri	-662
ka	-663
▁güven	-664
▁ad	-665
▁ür	-666
up	-667
sız	-668
▁hem	-669
▁söyledi	-670
▁karar	-671
üp	-672
▁9	-673
ram	-674
▁İn	-675
ic	-676
▁dönem	-677
oğlu	-678
▁yet	-679
erkez	-680
▁J	-681
▁oyun	-682
ET	-683
▁dir	-684
ocuk	-685
▁iyi	-686
▁Haberleri	-687
▁geldi	-688
yen	-689
▁ABD	-690
▁haf	-691
bol	-692
rı	-693
iyas	-694
ika	-695
▁İl	-696
leştir	-697
dığını	-698
▁dest	-699
tör	-700
▁açıklama	-701
▁ada	-702
iniz	-703
▁te	-704
işim	-705
azı	-706
▁birlik	-707
nun	-708
▁bağ	-709
▁say	-710
doğan	-711
▁değer	-712
▁içinde	-713
▁2016	-714
▁ko	-715
raf	-716
▁la	-717
ağı	-718
▁ben	-719
▁der	-720
▁yüks	-721
▁yaptığı	-722
ulu	-723
rak	-724
▁tarih	-725
▁fark	-726
cel	-727
▁kam	-728
▁im	-729
aret	-730
▁ede	-731
▁hayat	-732
cek	-733
▁kor	-734
perasyon	-735
üs	-736
▁tem	-737
▁ediyor	-738
▁bas	-739
ilir	-740
▁dış	-741
daki	-742
deki	-743
meye	-744
▁ok	-745
▁duy	-746
▁verdi	-747
lendir	-748
▁İs	-749
ile	-750
▁şeh	-751
▁vur	-752
ub	-753
▁dik	-754
▁az	-755
▁Mah	-756
▁olay	-757
▁bak	-758
▁)	-759
ali	-760
det	-761
▁iliş	-762
layan	-763
daş	-764
lah	-765
▁yay	-766
cade	-767
▁Erdoğan	-768
taş	-769
iyat	-770
eme	-771
▁kişi	-772
▁edildi	-773
▁ağ	-774
sun	-775
▁şekil	-776
▁zor	-777
tür	-778
esini	-779
üyor	-780
▁gi	-781
▁görüş	-782
▁Kar	-783
ig	-784
ısı	-785
▁tes	-786
▁aş	-787
▁kim	-788
▁miz	-789
▁Gazet	-790
▁güç	-791
enin	-792
▁haz	-793
▁çıkar	-794
▁takım	-795
▁ların	-796
lere	-797
▁bulunan	-798
asar	-799
ank	-800
esine	-801
▁;	-802
larına	-803
▁Rus	-804
▁eş	-805
ETÖ	-806
▁dar	-807
▁taş	-808
▁tüm	-809
▁kan	-810
yal	-811
▁mes	-812
lerinin	-813
siz	-814
▁konuş	-815
▁şey	-816
▁Avrup	-817
ılma	-818
▁üzerine	-819
▁polis	-820
▁lir	-821
▁sı	-822
bet	-823
azla	-824
lerde	-825
▁operasyon	-826
▁çocuk	-827
▁Suriye	-828
▁birlikte	-829
▁sat	-830
▁Gün	-831
ülen	-832
za	-833
▁!	-834
▁hav	-835
▁Cumhurbaş	-836
ılması	-837
▁şekilde	-838
▁Or	-839
ılık	-840
▁kes	-841
utbol	-842
eyen	-843
▁bilg	-844
▁fazla	-845
▁kazan	-846
onom	-847
▁hakk	-848
▁dav	-849
ket	-850
▁kr	-851
▁üst	-852
uv	-853
▁seç	-854
▁haber	-855
▁ser	-856
dur	-857
▁Avrupa	-858
ilmesi	-859
▁Bel	-860
▁em	-861
▁hazır	-862
▁0	-863
▁Son	-864
▁Par	-865
▁vatan	-866
larında	-867
▁değiş	-868
ektör	-869
ğit	-870
▁git	-871
▁Bakan	-872
▁Genel	-873
dik	-874
▁hiç	-875
▁Bur	-876
▁leri	-877
▁Müdür	-878
▁FETÖ	-879
ilerin	-880
▁geçir	-881
▁konuştu	-882
▁Dün	-883
▁ulaş	-884
▁yür	-885
lerine	-886
▁destek	-887
▁olacak	-888
ulan	-889
mir	-890
kat	-891
▁Kon	-892
landı	-893
▁olmak	-894
▁Mil	-895
bar	-896
▁kaç	-897
ıcı	-898
iyon	-899
nda	-900
alat	-901
istem	-902
▁yaptı	-903
▁mücade	-904
▁ask	-905
lanan	-906
▁kö	-907
▁konu	-908
▁tama	-909
▁Gazetesi	-910
sel	-911
ahçe	-912
oj	-913
▁sayı	-914
▁aynı	-915
adece	-916
lerinde	-917
lenen	-918
▁ekip	-919
▁art	-920
ımız	-921
▁11	-922
▁bır	-923
üne	-924
usunda	-925
▁İş	-926
▁geliş	-927
ov	-928
ilik	-929
▁mız	-930
▁er	-931
▁yaşan	-932
▁ark	-933
KK	-934
▁suç	-935
▁ci	-936
▁saldırı	-937
▁na	-938
eceği	-939
▁Beş	-940
▁iddi	-941
tal	-942
▁Em	-943
▁sahip	-944
çi	-945
mi	-946
▁kab	-947
▁dikkat	-948
▁En	-949
▁tel	-950
▁nin	-951
▁fa	-952
ğitim	-953
iliyor	-954
▁harek	-955
▁bugün	-956
▁bur	-957
likle	-958
▁bırak	-959
gan	-960
aları	-961
▁muh	-962
▁sık	-963
▁le	-964
▁dak	-965
edef	-966
ilah	-967
alt	-968
▁Fen	-969
▁gön	-970
bilir	-971
▁veya	-972
acağı	-973
kara	-974
▁vatandaş	-975
olu	-976
▁şu	-977
est	-978
luk	-979
▁oyn	-980
▁tan	-981
▁12	-982
ize	-983
▁nedeniyle	-984
▁yapan	-985
▁PKK	-986
kü	-987
▁kaps	-988
lantı	-989
ret	-990
leme	-991
▁ortaya	-992
▁mah	-993
▁sistem	-994
esinin	-995
▁diğer	-996
ımı	-997
▁kıs	-998
▁yakın	-999
▁üzere	-1000
▁Bak	-1001
ri	-1002
▁çıktı	-1003
▁kez	-1004
▁yardım	-1005
▁Tem	-1006
▁lı	-1007
oloj	-1008
▁üzerinde	-1009
▁yor	-1010
▁TL	-1011
kil	-1012
▁uç	-1013
▁Has	-1014
ağını	-1015
AR	-1016
▁As	-1017
▁mi	-1018
iktaş	-1019
▁tekn	-1020
ilecek	-1021
▁devlet	-1022
▁Tr	-1023
▁hedef	-1024
mer	-1025
▁Ankara	-1026
▁şir	-1027
▁başladı	-1028
▁Fenerb	-1029
▁edilen	-1030
▁istedi	-1031
ob	-1032
gı	-1033
masını	-1034
▁Beşiktaş	-1035
ğimiz	-1036
▁Cumhurbaşkanı	-1037
▁Biz	-1038
▁doğru	-1039
ütün	-1040
muz	-1041
▁isim	-1042
▁futbol	-1043
asıl	-1044
▁merkez	-1045
▁gerçekleştir	-1046
ge	-1047
lüğü	-1048
▁yaklaş	-1049
▁geçen	-1050
▁Spor	-1051
▁W	-1052
▁Yar	-1053
▁yatır	-1054
▁olur	-1055
ök	-1056
▁içer	-1057
▁yas	-1058
▁sadece	-1059
▁Söz	-1060
üküm	-1061
▁millet	-1062
▁kapsam	-1063
larla	-1064
▁bazı	-1065
▁mey	-1066
▁Fenerbahçe	-1067
▁?	-1068
▁Ben	-1069
▁aldı	-1070
▁sun	-1071
mıştı	-1072
▁yönelik	-1073
▁Galat	-1074
asaray	-1075
ezon	-1076
▁200	-1077
izi	-1078
▁siyas	-1079
▁sın	-1080
masına	-1081
imi	-1082
çı	-1083
▁Rusya	-1084
▁kadın	-1085
all	-1086
▁nın	-1087
anlı	-1088
ilmiş	-1089
▁pay	-1090
kı	-1091
▁bun	-1092
▁dolar	-1093
yar	-1094
▁Ter	-1095
▁Ancak	-1096
lak	-1097
▁tutuk	-1098
▁sonu	-1099
▁kaldır	-1100
▁Galatasaray	-1101
▁Ek	-1102
▁kend	-1103
▁Ün	-1104
▁Başb	-1105
▁Hal	-1106
▁günü	-1107
isinde	-1108
▁tamam	-1109
▁proj	-1110
niyet	-1111
▁ni	-1112
laya	-1113
▁ik	-1114
▁araç	-1115
oş	-1116
▁üç	-1117
▁sen	-1118
▁mücadele	-1119
▁hafta	-1120
▁nı	-1121
okt	-1122
▁çalışmalar	-1123
van	-1124
▁hast	-1125
AN	-1126
osyal	-1127
gil	-1128
▁düşün	-1129
▁tab	-1130
▁plan	-1131
ing	-1132
ayan	-1133
▁boy	-1134
▁gol	-1135
▁gönder	-1136
▁bildir	-1137
▁Cumhuriyet	-1138
lük	-1139
urt	-1140
▁Başkan	-1141
▁sonr	-1142
▁yle	-1143
▁yla	-1144
▁Dev	-1145
nak	-1146
▁dan	-1147
▁görün	-1148
adaş	-1149
omb	-1150
▁süre	-1151
▁yerine	-1152
dav	-1153
▁iht	-1154
▁uygu	-1155
ehir	-1156
▁lerin	-1157
▁girişim	-1158
kem	-1159
▁bit	-1160
ivers	-1161
vet	-1162
▁silah	-1163
▁uyg	-1164
ıldığı	-1165
▁güvenlik	-1166
▁tur	-1167
spor	-1168
▁oyuncu	-1169
iversit	-1170
▁Dem	-1171
▁mo	-1172
▁lira	-1173
▁terörist	-1174
▁nasıl	-1175
▁ayr	-1176
ust	-1177
▁tah	-1178
▁mı	-1179
▁değerlendir	-1180
eğ	-1181
endi	-1182
ğlu	-1183
▁kır	-1184
▁Alman	-1185
izmet	-1186
▁yönetim	-1187
▁şöyle	-1188
▁yılında	-1189
liğ	-1190
gram	-1191
okr	-1192
▁pat	-1193
▁hareket	-1194
üph	-1195
▁milyar	-1196
▁kız	-1197
ana	-1198
▁Meh	-1199
▁hakkında	-1200
anın	-1201
▁ilç	-1202
▁şirket	-1203
▁sezon	-1204
▁hat	-1205
▁gazet	-1206
muş	-1207
▁bile	-1208
▁Yıl	-1209
pr	-1210
▁Ama	-1211
▁yanı	-1212
trol	-1213
▁anlaş	-1214
▁dünya	-1215
mez	-1216
▁kil	-1217
▁yüksek	-1218
uma	-1219
kinci	-1220
tiği	-1221
ılacak	-1222
▁üy	-1223
ışma	-1224
ER	-1225
▁tal	-1226
iyoruz	-1227
orm	-1228
dana	-1229
▁çev	-1230
▁Es	-1231
▁14	-1232
duğu	-1233
▁biri	-1234
▁dır	-1235
▁mut	-1236
HP	-1237
▁Temmuz	-1238
▁konusunda	-1239
manın	-1240
▁lere	-1241
ahat	-1242
▁su	-1243
rar	-1244
▁darbe	-1245
▁işlem	-1246
".	-1247
▁kurul	-1248
isyon	-1249
eki	-1250
▁met	-1251
▁farklı	-1252
ğın	-1253
▁ancak	-1254
▁Kom	-1255
aştır	-1256
gel	-1257
▁yatırım	-1258
ğa	-1259
amp	-1260
asına	-1261
las	-1262
▁tedav	-1263
▁lara	-1264
▁yayın	-1265
▁Mehmet	-1266
sini	-1267
▁etm	-1268
▁açıklamada	-1269
▁Tek	-1270
▁kontrol	-1271
▁18	-1272
indeki	-1273
▁arkadaş	-1274
afa	-1275
▁kabul	-1276
▁olması	-1277
ale	-1278
▁hız	-1279
▁yaşındaki	-1280
üç	-1281
lendi	-1282
aliyet	-1283
üb	-1284
▁paylaş	-1285
imdi	-1286
▁larını	-1287
▁13	-1288
▁Ko	-1289
▁soruştur	-1290
üldü	-1291
azar	-1292
▁ün	-1293
▁başkan	-1294
efon	-1295
▁2015	-1296
ısında	-1297
rıca	-1298
ça	-1299
üzel	-1300
istan	-1301
▁geri	-1302
▁nız	-1303
▁ekonom	-1304
▁Beledi	-1305
▁San	-1306
▁iti	-1307
ğunu	-1308
▁At	-1309
▁Pro	-1310
.00	-1311
ünün	-1312
altına	-1313
▁sağlık	-1314
▁tür	-1315
▁Mar	-1316
▁böyle	-1317
aj	-1318
▁başka	-1319
▁uzun	-1320
▁16	-1321
▁hizmet	-1322
▁etmek	-1323
dem	-1324
▁genel	-1325
▁Başbakan	-1326
▁bab	-1327
▁önc	-1328
▁eski	-1329
▁eğitim	-1330
tu	-1331
▁ağır	-1332
mayı	-1333
▁Büyük	-1334
ciler	-1335
▁17	-1336
lum	-1337
▁şehit	-1338
▁oluştur	-1339
▁El	-1340
▁lan	-1341
▁25	-1342
▁rak	-1343
▁ilişkin	-1344
▁bölüm	-1345
fer	-1346
▁yaşa	-1347
▁Bakanı	-1348
omo	-1349
▁hes	-1350
▁30	-1351
▁asker	-1352
▁un	-1353
▁bütün	-1354
eci	-1355
▁Devlet	-1356
lardan	-1357
▁savaş	-1358
▁Tur	-1359
▁ber	-1360
▁film	-1361
▁sınır	-1362
▁mem	-1363
▁şüph	-1364
▁bomb	-1365
oğun	-1366
▁Sözcü	-1367
▁olduk	-1368
oğraf	-1369
▁teh	-1370
▁teş	-1371
▁kapsamında	-1372
▁med	-1373
▁toplantı	-1374
ledi	-1375
şam	-1376
mişti	-1377
▁Parti	-1378
▁telefon	-1379
▁men	-1380
min	-1381
▁hep	-1382
▁yüksel	-1383
gin	-1384
▁Doğ	-1385
▁Den	-1386
▁rağ	-1387
suz	-1388
azi	-1389
medi	-1390
▁Kan	-1391
eği	-1392
▁büy	-1393
▁bulunduğu	-1394
▁Top	-1395
▁taşı	-1396
▁Dünya	-1397
▁ara	-1398
etin	-1399
alarında	-1400
maz	-1401
arası	-1402
▁etki	-1403
▁sak	-1404
▁çalışan	-1405
tin	-1406
çok	-1407
▁gözaltına	-1408
▁rağmen	-1409
▁ülkeler	-1410
▁orta	-1411
▁belirten	-1412
▁Ah	-1413
meler	-1414
▁AK	-1415
▁müz	-1416
ırken	-1417
▁seb	-1418
tiğini	-1419
ley	-1420
▁..	-1421
▁bilir	-1422
ani	-1423
▁çıkan	-1424
▁alınan	-1425
▁kaybet	-1426
deş	-1427
▁siz	-1428
▁hastan	-1429
▁ettiği	-1430
▁sok	-1431
iyorum	-1432
▁kararı	-1433
▁kişinin	-1434
▁Müdürlüğü	-1435
uru	-1436
umu	-1437
▁koy	-1438
▁Mahall	-1439
aha	-1440
▁ait	-1441
▁örgütü	-1442
ver	-1443
▁Ne	-1444
▁çöz	-1445
ladığı	-1446
▁İz	-1447
vek	-1448
▁tesp	-1449
lim	-1450
▁bar	-1451
▁genç	-1452
unları	-1453
▁tep	-1454
mı	-1455
▁sürdür	-1456
▁ülke	-1457
kın	-1458
▁tır	-1459
ümüz	-1460
fa	-1461
ala	-1462
▁Hav	-1463
▁fin	-1464
▁dakik	-1465
▁yapıl	-1466
▁lerini	-1467
▁hüküm	-1468
▁ail	-1469
▁ziy	-1470
▁fiyat	-1471
▁Terör	-1472
ınız	-1473
▁yen	-1474
ekli	-1475
▁mev	-1476
sil	-1477
erj	-1478
lo	-1479
net	-1480
▁cez	-1481
▁yaklaşık	-1482
▁oğlu	-1483
▁Kay	-1484
-1	-1485
▁Merkez	-1486
▁hava	-1487
▁gelir	-1488
ünkü	-1489
kes	-1490
▁çağ	-1491
▁Sav	-1492
▁etk	-1493
can	-1494
din	-1495
ılığı	-1496
▁sektör	-1497
tep	-1498
▁karşılaş	-1499
▁Ali	-1500
dırım	-1501
▁oluş	-1502
cısı	-1503
▁bağlı	-1504
▁sonuç	-1505
▁öldür	-1506
ışı	-1507
▁Mahallesi	-1508
▁Ser	-1509
▁ceza	-1510
▁konusu	-1511
ıt	-1512
▁aldığı	-1513
▁sab	-1514
dül	-1515
yas	-1516
▁para	-1517
▁kom	-1518
▁başlat	-1519
▁ikinci	-1520
laması	-1521
▁Ab	-1522
▁beklen	-1523
uslar	-1524
sine	-1525
▁başar	-1526
▁hiçbir	-1527
▁On	-1528
▁sosyal	-1529
▁altında	-1530
sal	-1531
▁Os	-1532
dde	-1533
ayet	-1534
ari	-1535
▁Zaman	-1536
▁anlat	-1537
▁am	-1538
▁yaralan	-1539
eceğini	-1540
▁anla	-1541
▁tanı	-1542
▁pu	-1543
umlu	-1544
▁tespit	-1545
▁Bil	-1546
▁Hak	-1547
▁başv	-1548
▁program	-1549
▁incel	-1550
▁Kurulu	-1551
▁bunu	-1552
▁ey	-1553
▁Gü	-1554
▁av	-1555
▁güzel	-1556
▁Yıldırım	-1557
▁din	-1558
▁ihtiy	-1559
▁yeniden	-1560
zon	-1561
▁alındı	-1562
uslararası	-1563
ılmaz	-1564
▁Bay	-1565
▁Her	-1566
unuyor	-1567
ültür	-1568
▁Bakanlığı	-1569
▁Yeni	-1570
▁İngil	-1571
▁ele	-1572
▁ateş	-1573
apor	-1574
leyen	-1575
▁Dav	-1576
rub	-1577
▁dem	-1578
▁yürüt	-1579
otoğraf	-1580
▁beraber	-1581
▁Must	-1582
▁birçok	-1583
enk	-1584
▁grup	-1585
▁Üniversit	-1586
üçük	-1587
▁çar	-1588
üf	-1589
▁bizim	-1590
▁Mustafa	-1591
ince	-1592
ampiyon	-1593
asını	-1594
▁50	-1595
▁Fran	-1596
▁itibar	-1597
ch	-1598
ni	-1599
ent	-1600
▁eder	-1601
▁savun	-1602
▁yine	-1603
▁Dr	-1604
abzon	-1605
▁Yön	-1606
...	-1607
ayas	-1608
▁dile	-1609
▁Özel	-1610
▁artık	-1611
ullah	-1612
▁Bunun	-1613
ere	-1614
ancı	-1615
▁res	-1616
▁Şub	-1617
▁okul	-1618
▁engel	-1619
▁per	-1620
▁kamu	-1621
▁anlam	-1622
▁du	-1623
▁Emniyet	-1624
▁diyor	-1625
▁veren	-1626
-0	-1627
lin	-1628
alarda	-1629
cağını	-1630
▁kullandı	-1631
ga	-1632
ğında	-1633
▁lerden	-1634
▁can	-1635
▁soru	-1636
uvvet	-1637
▁Lig	-1638
masının	-1639
▁söy	-1640
▁bor	-1641
▁Trabzon	-1642
şı	-1643
pan	-1644
▁sey	-1645
ocu	-1646
▁his	-1647
▁kı	-1648
inci	-1649
larından	-1650
unca	-1651
rans	-1652
yanın	-1653
lerinden	-1654
▁100	-1655
▁tart	-1656
▁içerisinde	-1657
▁toplam	-1658
▁geçti	-1659
▁Kal	-1660
▁hale	-1661
▁istem	-1662
▁ul	-1663
▁mak	-1664
▁üzerinden	-1665
▁1.	-1666
▁tük	-1667
od	-1668
▁belirtildi	-1669
▁vurgu	-1670
ğiz	-1671
▁dönüş	-1672
▁diz	-1673
talya	-1674
▁kısa	-1675
▁ses	-1676
▁yoğun	-1677
tay	-1678
▁şekl	-1679
▁sonrası	-1680
▁rahat	-1681
▁kardeş	-1682
ej	-1683
▁tam	-1684
▁Ahmet	-1685
ğünü	-1686
sü	-1687
nün	-1688
▁CHP	-1689
mekte	-1690
▁anda	-1691
tif	-1692
AŞ	-1693
▁yapıyor	-1694
▁mer	-1695
omobil	-1696
cisi	-1697
▁Uz	-1698
▁kayde	-1699
▁oran	-1700
▁for	-1701
▁Yap	-1702
▁spor	-1703
▁Sü	-1704
▁bey	-1705
▁hey	-1706
▁kav	-1707
▁Tar	-1708
-2	-1709
undan	-1710
▁meydana	-1711
▁Ön	-1712
▁Demir	-1713
▁dolay	-1714
ğe	-1715
ide	-1716
▁Poli	-1717
abilir	-1718
▁fotoğraf	-1719
laştır	-1720
▁Şu	-1721
▁artır	-1722
▁Amer	-1723
ilere	-1724
▁larının	-1725
işleri	-1726
▁satış	-1727
▁adım	-1728
tiv	-1729
mızı	-1730
iyi	-1731
▁kurum	-1732
▁sıra	-1733
▁Almanya	-1734
▁ziyaret	-1735
▁ortak	-1736
▁edil	-1737
▁kaynak	-1738
▁belirtti	-1739
siniz	-1740
uro	-1741
▁medya	-1742
▁öde	-1743
▁Hastan	-1744
▁Ad	-1745
amaz	-1746
▁götür	-1747
▁adam	-1748
lıyor	-1749
▁bunun	-1750
▁22	-1751
▁mu	-1752
▁edecek	-1753
sin	-1754
▁zar	-1755
▁24	-1756
▁man	-1757
▁yaşam	-1758
▁gerçekleş	-1759
▁Der	-1760
▁DE	-1761
ort	-1762
▁Bey	-1763
▁21	-1764
ecli	-1765
▁burada	-1766
br	-1767
▁Kas	-1768
▁verdiği	-1769
▁Bar	-1770
▁sorun	-1771
uldu	-1772
▁Muh	-1773
▁bilin	-1774
▁han	-1775
▁Kara	-1776
▁Diy	-1777
▁faaliyet	-1778
esel	-1779
yle	-1780
▁madde	-1781
tem	-1782
lek	-1783
▁lardan	-1784
▁yaşanan	-1785
Bu	-1786
üncü	-1787
aba	-1788
▁Geç	-1789
malı	-1790
ıntı	-1791
▁seçim	-1792
ağa	-1793
▁akşam	-1794
▁lerle	-1795
ektr	-1796
▁tir	-1797
▁araştır	-1798
▁futbolcu	-1799
▁Osman	-1800
landır	-1801
▁belirterek	-1802
▁Ör	-1803
esiyle	-1804
akır	-1805
▁Hol	-1806
▁otur	-1807
▁nda	-1808
▁cev	-1809
elim	-1810
▁DA	-1811
▁verildi	-1812
alama	-1813
▁kent	-1814
▁müda	-1815
▁İlk	-1816
arb	-1817
▁lerinin	-1818
üc	-1819
▁Az	-1820
▁sırasında	-1821
dın	-1822
▁nokt	-1823
▁yakalan	-1824
▁mesaj	-1825
▁teknik	-1826
▁ekipleri	-1827
▁Sağ	-1828
▁kit	-1829
▁larına	-1830
▁ndan	-1831
▁hatır	-1832
lerle	-1833
▁fır	-1834
anıyor	-1835
▁kol	-1836
▁Mart	-1837
▁ye	-1838
▁Can	-1839
▁dil	-1840
▁Deniz	-1841
▁kalan	-1842
▁trans	-1843
▁Li	-1844
▁hayatını	-1845
▁basın	-1846
▁sin	-1847
▁dah	-1848
ılıyor	-1849
▁çalışma	-1850
ukuk	-1851
▁boz	-1852
▁Millet	-1853
▁".	-1854
etmen	-1855
▁puan	-1856
abancı	-1857
▁Milli	-1858
▁düzenlenen	-1859
of	-1860
▁kaydet	-1861
▁niz	-1862
oloji	-1863
▁Şubat	-1864
▁bah	-1865
▁gelecek	-1866
▁çevr	-1867
▁toplum	-1868
▁fir	-1869
gen	-1870
▁Do	-1871
▁oluyor	-1872
▁müdah	-1873
▁Böl	-1874
▁ilişk	-1875
ceki	-1876
▁sonucu	-1877
▁Hay	-1878
▁uzak	-1879
▁pr	-1880
▁demokr	-1881
▁larla	-1882
sında	-1883
ören	-1884
▁Üniversitesi	-1885
▁eylem	-1886
ılmış	-1887
▁nden	-1888
akat	-1889
▁soruşturma	-1890
erji	-1891
şehir	-1892
▁ayında	-1893
▁özellikle	-1894
emek	-1895
▁Ev	-1896
▁İzmir	-1897
▁Daha	-1898
siyon	-1899
ivil	-1900
▁alıyor	-1901
ami	-1902
ıda	-1903
▁indir	-1904
▁oda	-1905
▁rek	-1906
▁olsun	-1907
▁herkes	-1908
▁ürün	-1909
▁Sal	-1910
▁takip	-1911
ebilir	-1912
▁dönemde	-1913
▁sevk	-1914
▁yapmak	-1915
▁Su	-1916
▁gerekiyor	-1917
▁Ocak	-1918
▁üretim	-1919
▁yapılacak	-1920
tak	-1921
su	-1922
düğü	-1923
mar	-1924
▁Gök	-1925
gın	-1926
▁siyasi	-1927
▁sırada	-1928
▁diy	-1929
▁inş	-1930
▁kapat	-1931
ku	-1932
▁yurt	-1933
▁bay	-1934
▁sanat	-1935
▁boş	-1936
▁40	-1937
▁yaptık	-1938
▁um	-1939
▁yapıldı	-1940
▁otomobil	-1941
▁öğrenildi	-1942
uluk	-1943
▁mal	-1944
ğinde	-1945
▁Güven	-1946
og	-1947
▁üc	-1948
▁Kor	-1949
sik	-1950
abı	-1951
▁bağı	-1952
ternet	-1953
▁kas	-1954
ünden	-1955
▁benim	-1956
▁gece	-1957
gür	-1958
etr	-1959
lerden	-1960
▁kaydetti	-1961
▁Olay	-1962
▁çat	-1963
▁yandan	-1964
▁23	-1965
▁olabilir	-1966
▁pazar	-1967
▁şeklinde	-1968
layacak	-1969
▁geliyor	-1970
ova	-1971
▁Gül	-1972
▁benz	-1973
ğim	-1974
▁ihra	-1975
AK	-1976
yesi	-1977
▁Har	-1978
▁piyas	-1979
▁Fet	-1980
▁mek	-1981
▁gal	-1982
▁aktar	-1983
AT	-1984
▁yana	-1985
▁ederek	-1986
kün	-1987
▁halk	-1988
ici	-1989
altı	-1990
▁yıllık	-1991
▁tat	-1992
▁üret	-1993
▁başarı	-1994
lif	-1995
▁dair	-1996
▁cin	-1997
▁çocu	-1998
▁kesin	-1999
▁Ey	-2000
▁ta	-2001
▁Bank	-2002
for	-2003
▁Irak	-2004
umuz	-2005
▁çif	-2006
▁altına	-2007
▁Tay	-2008
eza	-2009
ünüyor	-2010
▁temsil	-2011
▁mez	-2012
▁değişik	-2013
anan	-2014
▁aday	-2015
müş	-2016
▁giy	-2017
▁isteyen	-2018
▁Ada	-2019
▁Yardım	-2020
▁sahibi	-2021
▁Ot	-2022
dıkları	-2023
aşa	-2024
▁Çünkü	-2025
madı	-2026
lamak	-2027
▁bilgi	-2028
ücü	-2029
ola	-2030
▁Kür	-2031
▁değiştir	-2032
cih	-2033
▁seviy	-2034
▁önünde	-2035
▁yağ	-2036
ğin	-2037
▁günde	-2038
▁bulunuyor	-2039
▁Dış	-2040
yip	-2041
▁kir	-2042
▁/	-2043
▁devr	-2044
▁ettik	-2045
▁Man	-2046
▁ciddi	-2047
▁görüntü	-2048
▁iddia	-2049
▁Fat	-2050
aların	-2051
ılıç	-2052
▁müm	-2053
sinin	-2054
▁Di	-2055
▁mül	-2056
eştir	-2057
▁uçak	-2058
▁dakika	-2059
▁Kad	-2060
▁Tak	-2061
▁yetkil	-2062
ğına	-2063
▁Allah	-2064
▁çiz	-2065
▁lider	-2066
▁dok	-2067
▁tekrar	-2068
▁Br	-2069
▁sar	-2070
▁köy	-2071
ılım	-2072
may	-2073
ayın	-2074
▁Kul	-2075
ser	-2076
emiz	-2077
▁önceki	-2078
üsü	-2079
▁biliyor	-2080
manı	-2081
▁tav	-2082
▁ann	-2083
uzey	-2084
duk	-2085
acı	-2086
▁cen	-2087
▁ölüm	-2088
elerin	-2089
▁tepki	-2090
▁mümkün	-2091
▁arac	-2092
▁Bugün	-2093
▁tercih	-2094
▁dakikada	-2095
▁mens	-2096
erbest	-2097
▁askeri	-2098
▁bölgede	-2099
ınca	-2100
▁Tekn	-2101
▁sivil	-2102
▁Ayrıca	-2103
▁politik	-2104
▁it	-2105
ton	-2106
▁izin	-2107
uyu	-2108
▁şunları	-2109
eşit	-2110
▁bes	-2111
▁kolay	-2112
eg	-2113
tığını	-2114
▁artış	-2115
▁sit	-2116
▁Genç	-2117
▁adet	-2118
vekili	-2119
▁Yılmaz	-2120
izm	-2121
▁hap	-2122
▁küçük	-2123
▁uygulan	-2124
▁ris	-2125
▁çarp	-2126
▁Aralık	-2127
▁Gazi	-2128
makta	-2129
▁Mecli	-2130
jan	-2131
sat	-2132
ceği	-2133
▁İran	-2134
▁28	-2135
ump	-2136
▁2.	-2137
▁muhal	-2138
AL	-2139
maları	-2140
▁kaldı	-2141
▁elektr	-2142
▁larımız	-2143
▁mode	-2144
▁giriş	-2145
▁dışında	-2146
liyor	-2147
▁halinde	-2148
▁zamanda	-2149
▁tedavi	-2150
▁kadro	-2151
▁rapor	-2152
do	-2153
one	-2154
osu	-2155
▁Per	-2156
▁Euro	-2157
mesini	-2158
▁Trabzonspor	-2159
▁İç	-2160
ii	-2161
▁transfer	-2162
erli	-2163
izyon	-2164
ula	-2165
ört	-2166
▁Kılıç	-2167
▁zarar	-2168
▁sayıda	-2169
▁organ	-2170
alim	-2171
meyi	-2172
çesi	-2173
▁Davut	-2174
▁talep	-2175
ete	-2176
emal	-2177
▁Yönetim	-2178
▁açıklam	-2179
▁koş	-2180
▁şimdi	-2181
▁düny	-2182
▁Diyarb	-2183
ırı	-2184
▁Ekonom	-2185
▁kuruluş	-2186
▁mas	-2187
tım	-2188
▁olmaya	-2189
▁şah	-2190
lediği	-2191
30	-2192
ba	-2193
ayasa	-2194
diğini	-2195
▁tr	-2196
▁Diyarbakır	-2197
utlu	-2198
▁hemen	-2199
iyatı	-2200
sta	-2201
lerce	-2202
imizin	-2203
▁`	-2204
▁olmadığını	-2205
iliği	-2206
▁duyur	-2207
▁sına	-2208
▁tartış	-2209
meden	-2210
▁geliştir	-2211
▁Ül	-2212
▁gereken	-2213
▁Kasım	-2214
▁başlayan	-2215
▁Ul	-2216
nek	-2217
▁len	-2218
▁uygun	-2219
▁İşte	-2220
asının	-2221
Şİ	-2222
diler	-2223
▁Ceza	-2224
▁amacı	-2225
aşı	-2226
▁yapı	-2227
▁tehdi	-2228
▁internet	-2229
▁yorum	-2230
abil	-2231
eyin	-2232
▁kah	-2233
▁öne	-2234
▁şid	-2235
▁kötü	-2236
lanması	-2237
▁Mahkem	-2238
▁yaşayan	-2239
▁sayısı	-2240
YD	-2241
▁nde	-2242
▁başına	-2243
▁Komut	-2244
▁ücret	-2245
▁Af	-2246
▁Aç	-2247
▁Bun	-2248
kenin	-2249
▁vardı	-2250
elere	-2251
İN	-2252
▁durumda	-2253
larımız	-2254
▁İst	-2255
▁Gülen	-2256
elen	-2257
▁açıkladı	-2258
▁Şeh	-2259
hangi	-2260
▁hesap	-2261
▁adı	-2262
▁),	-2263
▁3.	-2264
▁yanında	-2265
▁gerektiğini	-2266
▁Oy	-2267
▁gec	-2268
▁Davutoğlu	-2269
aten	-2270
▁Çin	-2271
eral	-2272
▁Sar	-2273
▁Ok	-2274
▁hen	-2275
▁larından	-2276
▁uygulama	-2277
▁Mur	-2278
▁sa	-2279
▁Ber	-2280
▁Dur	-2281
▁Gör	-2282
adolu	-2283
▁si	-2284
▁Haz	-2285
▁traf	-2286
▁hukuk	-2287
▁inan	-2288
▁eleştir	-2289
▁kalk	-2290
▁itibaren	-2291
▁teklif	-2292
mat	-2293
isan	-2294
rek	-2295
▁boyunca	-2296
EN	-2297
▁27	-2298
eden	-2299
ğine	-2300
▁birbir	-2301
▁Anadolu	-2302
▁bank	-2303
▁kendiler	-2304
▁taraftar	-2305
dük	-2306
leşme	-2307
▁adına	-2308
▁ayak	-2309
▁dolayı	-2310
rubu	-2311
▁sabah	-2312
▁olmayan	-2313
▁ten	-2314
▁Orta	-2315
lül	-2316
▁Yun	-2317
▁Hat	-2318
▁yük	-2319
teki	-2320
FA	-2321
bay	-2322
▁oyna	-2323
▁500	-2324
▁ifadelerini	-2325
▁şart	-2326
▁çeşit	-2327
luğu	-2328
▁ana	-2329
▁laz	-2330
▁kayb	-2331
▁söyleyen	-2332
▁sürec	-2333
▁Ligi	-2334
he	-2335
▁serbest	-2336
▁faiz	-2337
isinin	-2338
ısından	-2339
▁2014	-2340
desi	-2341
▁erk	-2342
▁ora	-2343
▁adlı	-2344
▁mik	-2345
▁elde	-2346
▁Süper	-2347
▁yabancı	-2348
▁Kö	-2349
▁Hastanesi	-2350
▁etkin	-2351
▁uluslararası	-2352
▁HD	-2353
▁Kaz	-2354
▁yat	-2355
▁199	-2356
▁eşi	-2357
erson	-2358
▁lerinden	-2359
arken	-2360
▁Eğitim	-2361
▁derece	-2362
▁Antalya	-2363
▁şehir	-2364
▁başında	-2365
İL	-2366
▁bana	-2367
),	-2368
▁Çok	-2369
▁onun	-2370
▁Koç	-2371
▁çalışıyor	-2372
EŞ	-2373
▁Prof	-2374
▁tasar	-2375
▁yönet	-2376
▁Kır	-2377
isini	-2378
▁düştü	-2379
▁gider	-2380
▁zorunda	-2381
▁ayrı	-2382
elç	-2383
▁Belediye	-2384
▁arasındaki	-2385
▁görül	-2386
emi	-2387
▁Ağ	-2388
▁getirdi	-2389
SK	-2390
▁26	-2391
▁ha	-2392
▁mark	-2393
▁cenaz	-2394
▁Rece	-2395
▁Sağlık	-2396
▁Mes	-2397
▁araya	-2398
larıyla	-2399
▁başvur	-2400
cat	-2401
AB	-2402
oh	-2403
▁Recep	-2404
▁Tayyip	-2405
▁mağ	-2406
esinden	-2407
▁Müdürü	-2408
üman	-2409
miyor	-2410
ildiği	-2411
▁koru	-2412
▁verilen	-2413
darma	-2414
▁milli	-2415
taj	-2416
ısıyla	-2417
lanma	-2418
▁bize	-2419
▁karış	-2420
OR	-2421
▁düşünüyor	-2422
tim	-2423
▁sig	-2424
▁istiyor	-2425
▁29	-2426
▁şark	-2427
▁güçlü	-2428
▁parti	-2429
efer	-2430
lında	-2431
▁Mus	-2432
zı	-2433
tere	-2434
▁tic	-2435
mektedir	-2436
▁darb	-2437
sas	-2438
▁Ma	-2439
▁Val	-2440
▁Güvenlik	-2441
▁ayrıca	-2442
▁Ol	-2443
▁se	-2444
cılık	-2445
leriyle	-2446
▁konuda	-2447
▁tarihi	-2448
ahim	-2449
▁pek	-2450
mada	-2451
acağız	-2452
▁belli	-2453
▁resmi	-2454
▁Şimdi	-2455
▁herhangi	-2456
▁kut	-2457
▁Şen	-2458
▁Polis	-2459
▁istih	-2460
▁ip	-2461
▁Yardımcısı	-2462
eder	-2463
ısına	-2464
elerde	-2465
▁yıldı	-2466
▁kurtar	-2467
kaç	-2468
▁durumu	-2469
▁ir	-2470
oktor	-2471
▁ünlü	-2472
▁süreç	-2473
▁sonunda	-2474
cil	-2475
liye	-2476
▁kayded	-2477
asi	-2478
yız	-2479
▁Örgüt	-2480
▁geniş	-2481
emesi	-2482
dal	-2483
▁İslam	-2484
cağız	-2485
▁Sarı	-2486
▁mülte	-2487
▁dünyanın	-2488
▁dep	-2489
▁iler	-2490
▁Alt	-2491
ısını	-2492
▁kurt	-2493
▁teslim	-2494
▁karşısında	-2495
▁ödül	-2496
▁Böyle	-2497
üst	-2498
▁şik	-2499
▁Kemal	-2500
▁saatlerinde	-2501
▁sokak	-2502
lemek	-2503
lilik	-2504
▁ileri	-2505
▁Dışişleri	-2506
▁temiz	-2507
▁ner	-2508
▁edilm	-2509
▁hastalık	-2510
▁lazım	-2511
▁yı	-2512
▁dışı	-2513
▁tören	-2514
▁katıldı	-2515
▁Kap	-2516
▁alma	-2517
▁şiddet	-2518
▁yarat	-2519
▁35	-2520
▁yi	-2521
▁ülkenin	-2522
▁kredi	-2523
▁alacak	-2524
ber	-2525
▁avuk	-2526
▁taleb	-2527
▁Kr	-2528
▁sol	-2529
▁Yüks	-2530
diş	-2531
▁Ch	-2532
▁HDP	-2533
▁May	-2534
▁Birliği	-2535
▁ettiğini	-2536
▁şampiyon	-2537
▁Murat	-2538
▁cevap	-2539
birliği	-2540
▁erkek	-2541
▁olabil	-2542
▁yaralı	-2543
▁ı	-2544
keme	-2545
▁nedenle	-2546
▁Yak	-2547
▁parç	-2548
▁poz	-2549
▁alış	-2550
▁haft	-2551
▁bakan	-2552
▁İki	-2553
▁büyü	-2554
▁kayıt	-2555
▁ilçesinde	-2556
▁dahil	-2557
ke	-2558
imize	-2559
▁çözüm	-2560
atürk	-2561
▁belg	-2562
▁yılda	-2563
▁Bah	-2564
▁Kam	-2565
▁taz	-2566
ast	-2567
▁onu	-2568
imizi	-2569
sın	-2570
▁İngiltere	-2571
▁çift	-2572
▁Nisan	-2573
▁Trump	-2574
lüyor	-2575
▁maçında	-2576
eşil	-2577
▁Bin	-2578
artesi	-2579
▁düşür	-2580
▁temel	-2581
▁tehdit	-2582
▁Sul	-2583
▁sonrasında	-2584
▁rol	-2585
▁Atatürk	-2586
ebek	-2587
mıştır	-2588
▁yöntem	-2589
▁hükümet	-2590
ulması	-2591
▁tehlik	-2592
liy	-2593
neği	-2594
▁imza	-2595
▁Şah	-2596
asyonu	-2597
▁Ve	-2598
antep	-2599
▁maçı	-2600
▁Suriy	-2601
▁almak	-2602
▁duruş	-2603
ŞİD	-2604
▁mahkem	-2605
▁person	-2606
▁yapacak	-2607
,5	-2608
▁PYD	-2609
▁yılı	-2610
▁sını	-2611
▁Mo	-2612
▁Fatih	-2613
▁Zir	-2614
▁göç	-2615
▁ham	-2616
yacak	-2617
Türk	-2618
▁kilo	-2619
▁Aydın	-2620
lenmesi	-2621
▁ilet	-2622
▁canlı	-2623
▁yöneti	-2624
▁Hava	-2625
▁ediliyor	-2626
cusu	-2627
▁Sam	-2628
▁Kürt	-2629
▁kans	-2630
lış	-2631
taki	-2632
▁Sor	-2633
▁galib	-2634
▁Müs	-2635
forman	-2636
▁başarılı	-2637
▁arada	-2638
▁gördü	-2639
▁işaret	-2640
adan	-2641
▁giden	-2642
▁bilgiye	-2643
macı	-2644
▁yansı	-2645
▁acı	-2646
▁lik	-2647
▁IŞİD	-2648
▁açıl	-2649
▁kriz	-2650
▁sarı	-2651
▁yolu	-2652
▁Dir	-2653
▁Mer	-2654
dam	-2655
tur	-2656
azlı	-2657
▁lık	-2658
▁net	-2659
▁DAEŞ	-2660
▁yarış	-2661
▁ülkede	-2662
lenme	-2663
▁kart	-2664
▁amacıyla	-2665
▁Gaziantep	-2666
▁ban	-2667
▁yapma	-2668
▁durdur	-2669
İR	-2670
evizyon	-2671
▁Cad	-2672
▁edece	-2673
evi	-2674
▁türlü	-2675
▁bomba	-2676
▁katkı	-2677
▁sınav	-2678
▁Merkezi	-2679
.,	-2680
eyecek	-2681
ısının	-2682
ve	-2683
▁uğr	-2684
▁İnsan	-2685
▁tarihinde	-2686
▁yık	-2687
▁part	-2688
liğini	-2689
▁yanıt	-2690
▁edilmiş	-2691
▁Cumhurbaşkan	-2692
dek	-2693
dum	-2694
▁Mayıs	-2695
▁getiren	-2696
▁Sin	-2697
▁gez	-2698
▁özgür	-2699
0'	-2700
var	-2701
▁4.	-2702
▁açı	-2703
▁yağı	-2704
▁kültür	-2705
kur	-2706
▁Jan	-2707
▁arama	-2708
▁Fransa	-2709
▁hızlı	-2710
▁görüyor	-2711
▁sistemi	-2712
unma	-2713
cileri	-2714
▁Futbol	-2715
▁bildirildi	-2716
▁ted	-2717
alım	-2718
▁henüz	-2719
▁model	-2720
etrol	-2721
iyeti	-2722
layıcı	-2723
masında	-2724
▁Ekonomi	-2725
▁ekonomik	-2726
IR	-2727
▁atan	-2728
▁risk	-2729
▁yemek	-2730
▁İlçesi	-2731
▁düzey	-2732
▁Kim	-2733
▁list	-2734
adem	-2735
uvar	-2736
▁giz	-2737
▁ortam	-2738
ğun	-2739
▁St	-2740
▁fay	-2741
▁Cen	-2742
ilerek	-2743
▁maçta	-2744
layarak	-2745
▁ihtiyaç	-2746
▁st	-2747
▁üyesi	-2748
sav	-2749
▁Sab	-2750
▁isimli	-2751
▁dol	-2752
▁emniyet	-2753
▁açısından	-2754
▁ab	-2755
▁nok	-2756
▁elektrik	-2757
▁kendisine	-2758
UR	-2759
▁Çocuk	-2760
▁Kuvvet	-2761
uml	-2762
▁çeken	-2763
▁kişiler	-2764
dim	-2765
▁Gel	-2766
▁yılın	-2767
▁performan	-2768
pek	-2769
çak	-2770
▁kaf	-2771
ormal	-2772
▁lerine	-2773
01	-2774
▁mış	-2775
landa	-2776
meyen	-2777
▁mızı	-2778
▁anlattı	-2779
▁rej	-2780
▁öner	-2781
▁Osmanlı	-2782
▁düşük	-2783
▁aylık	-2784
▁gitti	-2785
fes	-2786
üle	-2787
▁Kup	-2788
▁unut	-2789
▁Güney	-2790
▁olmadığı	-2791
ST	-2792
umsuz	-2793
▁kilom	-2794
oca	-2795
▁enerji	-2796
deniz	-2797
▁doğal	-2798
▁kamer	-2799
▁sebeb	-2800
▁sığın	-2801
iyah	-2802
▁amaç	-2803
▁kork	-2804
▁diyen	-2805
▁gazetec	-2806
fi	-2807
▁Mahkemesi	-2808
▁istik	-2809
▁vak	-2810
▁akıl	-2811
▁hiss	-2812
▁gören	-2813
▁veriyor	-2814
ena	-2815
avuş	-2816
▁Ob	-2817
▁sız	-2818
lanıyor	-2819
ucu	-2820
▁Sok	-2821
▁kür	-2822
▁sıkıntı	-2823
▁sene	-2824
▁yaptır	-2825
▁çeşitli	-2826
onu	-2827
▁sebep	-2828
inç	-2829
isine	-2830
▁dört	-2831
doğu	-2832
▁Kız	-2833
▁gide	-2834
asıyla	-2835
▁sıcak	-2836
▁fiyatı	-2837
ite	-2838
▁45	-2839
▁giren	-2840
▁Burada	-2841
dağ	-2842
▁Ham	-2843
▁siyaset	-2844
gun	-2845
meni	-2846
▁Açık	-2847
▁anlatan	-2848
lüğ	-2849
▁konut	-2850
▁31	-2851
▁imz	-2852
mıyor	-2853
çev	-2854
usal	-2855
▁diyerek	-2856
ele	-2857
udi	-2858
▁mizi	-2859
▁çer	-2860
sunuz	-2861
▁yani	-2862
▁öncesi	-2863
daroğlu	-2864
▁Sosyal	-2865
▁konuşan	-2866
▁Kılıçdaroğlu	-2867
▁olsa	-2868
▁yerde	-2869
İT	-2870
rail	-2871
▁gid	-2872
▁ikti	-2873
ğının	-2874
▁finans	-2875
▁olm	-2876
▁fayda	-2877
dip	-2878
▁nit	-2879
meleri	-2880
▁ister	-2881
▁görevli	-2882
▁Halep	-2883
▁önlem	-2884
▁yıldır	-2885
yum	-2886
sına	-2887
▁Öte	-2888
▁biraz	-2889
▁geçmiş	-2890
alara	-2891
yaspor	-2892
▁Bas	-2893
▁çerçev	-2894
▁söylüyor	-2895
atik	-2896
▁Bor	-2897
IN	-2898
acağını	-2899
▁aralarında	-2900
ekk	-2901
▁beni	-2902
▁başta	-2903
▁Amerika	-2904
▁müş	-2905
▁olup	-2906
▁Eylül	-2907
EM	-2908
gaz	-2909
▁Kat	-2910
▁buna	-2911
▁dayan	-2912
▁hapis	-2913
▁mutlu	-2914
▁çekti	-2915
▁gerekir	-2916
▁sürekli	-2917
sını	-2918
▁Dak	-2919
▁yarın	-2920
dıklarını	-2921
▁Sen	-2922
▁otob	-2923
▁görüşmeler	-2924
anak	-2925
başı	-2926
▁Yunan	-2927
▁mensup	-2928
emin	-2929
▁yal	-2930
sızlık	-2931
gü	-2932
▁Sev	-2933
▁Ekim	-2934
▁uzman	-2935
işi	-2936
dikleri	-2937
▁Meclis	-2938
▁İngiliz	-2939
▁Fa	-2940
▁ekran	-2941
▁num	-2942
▁Çal	-2943
▁Yani	-2944
▁etkili	-2945
▁önüne	-2946
▁iy	-2947
▁Hüs	-2948
▁leştir	-2949
▁yaşadığı	-2950
▁Yüksek	-2951
elerinde	-2952
▁hangi	-2953
▁Başsav	-2954
▁Van	-2955
▁Müsl	-2956
▁öğretmen	-2957
▁hakim	-2958
▁birkaç	-2959
▁yönünde	-2960
lanacak	-2961
cut	-2962
▁2017	-2963
▁larıyla	-2964
▁üniversit	-2965
xx	-2966
▁edilmesi	-2967
▁tutuklandı	-2968
▁Tu	-2969
▁girdi	-2970
▁tahmin	-2971
▁yanlış	-2972
▁azal	-2973
▁eğ	-2974
▁Adana	-2975
▁doktor	-2976
▁hayata	-2977
▁gerekli	-2978
▁Bal	-2979
▁Tab	-2980
▁ces	-2981
▁günlerde	-2982
uar	-2983
▁tı	-2984
▁anne	-2985
▁nokta	-2986
▁rakam	-2987
▁Fetullah	-2988
▁bekleniyor	-2989
iran	-2990
▁Yaş	-2991
▁yazılı	-2992
▁soruml	-2993
▁şüphel	-2994
ayi	-2995
bey	-2996
▁Eş	-2997
▁ydi	-2998
kleri	-2999
brahim	-3000
▁meş	-3001
▁öyle	-3002
▁kuvvet	-3003
▁Araştır	-3004
▁bizi	-3005
▁Güncel	-3006
▁gösterdi	-3007
▁vaz	-3008
▁alanda	-3009
▁değildir	-3010
nız	-3011
sak	-3012
▁dö	-3013
lacak	-3014
laşma	-3015
▁Göz	-3016
▁işlet	-3017
▁Bizim	-3018
EK	-3019
▁Kendi	-3020
▁Tüm	-3021
ladık	-3022
▁attı	-3023
ümüzdeki	-3024
raman	-3025
ğur	-3026
▁60	-3027
▁cih	-3028
▁sert	-3029
▁yarar	-3030
▁döneminde	-3031
▁Han	-3032
▁Dakika	-3033
▁şüpheli	-3034
abet	-3035
▁Bul	-3036
duğunu	-3037
▁kitap	-3038
▁Se	-3039
▁Caddesi	-3040
tepe	-3041
▁oku	-3042
ilerinin	-3043
▁Özellikle	-3044
har	-3045
▁ilan	-3046
▁Ömer	-3047
▁yerinde	-3048
err	-3049
▁Nur	-3050
▁sürücü	-3051
elerinin	-3052
▁sayesinde	-3053
bo	-3054
▁Ken	-3055
▁İsrail	-3056
▁olumsuz	-3057
▁Müslüman	-3058
yo	-3059
▁bö	-3060
▁str	-3061
▁Teknik	-3062
▁karşılık	-3063
AS	-3064
▁Bölg	-3065
▁DEAŞ	-3066
▁davran	-3067
▁tedbir	-3068
zi	-3069
ümü	-3070
▁cep	-3071
▁haline	-3072
▁ihracat	-3073
▁lig	-3074
ediye	-3075
▁yardımcı	-3076
larca	-3077
tıyor	-3078
▁etmiş	-3079
oma	-3080
vis	-3081
ınan	-3082
▁yere	-3083
▁vardır	-3084
▁bildirdi	-3085
rik	-3086
▁kuş	-3087
▁kesim	-3088
med	-3089
▁yargı	-3090
yu	-3091
▁esn	-3092
▁Tel	-3093
▁Eğer	-3094
▁oluşan	-3095
▁galibiyet	-3096
▁itir	-3097
örü	-3098
▁Şehit	-3099
ow	-3100
şem	-3101
▁Kı	-3102
▁kapı	-3103
olojik	-3104
▁başvuru	-3105
▁amel	-3106
▁Güneş	-3107
▁Amerik	-3108
▁kendisini	-3109
hal	-3110
▁Go	-3111
▁hastalı	-3112
▁j	-3113
▁(2	-3114
cılığı	-3115
ektörü	-3116
▁altın	-3117
kır	-3118
▁aile	-3119
▁dü	-3120
▁hüc	-3121
▁ydı	-3122
▁sona	-3123
▁olmaz	-3124
aka	-3125
ON	-3126
dak	-3127
▁ruh	-3128
▁buluş	-3129
▁yetiş	-3130
▁kampan	-3131
▁İbrahim	-3132
sen	-3133
▁beri	-3134
▁ders	-3135
▁yarg	-3136
▁etmeye	-3137
▁günlük	-3138
▁tamamen	-3139
▁Belediyesi	-3140
▁etkil	-3141
▁etkisiz	-3142
▁kalp	-3143
▁bakım	-3144
▁Et	-3145
▁Obama	-3146
▁Haberler	-3147
ela	-3148
ıyla	-3149
ğiniz	-3150
▁yaşında	-3151
▁Şampiyon	-3152
▁kaydedildi	-3153
▁yav	-3154
▁demek	-3155
ıma	-3156
lal	-3157
▁Kadın	-3158
▁yolcu	-3159
▁ediyorum	-3160
ğust	-3161
▁Buna	-3162
▁Grubu	-3163
▁kulüb	-3164
▁cezası	-3165
▁dava	-3166
▁ölü	-3167
▁Aynı	-3168
▁Kültür	-3169
atif	-3170
▁yıldız	-3171
▁Derneği	-3172
eyn	-3173
▁plak	-3174
▁Batı	-3175
▁kaybe	-3176
▁Bankası	-3177
ona	-3178
▁kulüp	-3179
▁Mal	-3180
▁yarı	-3181
▁deniz	-3182
▁süren	-3183
▁mot	-3184
alel	-3185
▁beş	-3186
▁def	-3187
▁dağı	-3188
▁başla	-3189
leye	-3190
ndan	-3191
▁sonuc	-3192
▁Hüseyin	-3193
apı	-3194
▁İh	-3195
▁ıs	-3196
▁uyar	-3197
▁karak	-3198
▁kaybetti	-3199
ğan	-3200
▁Da	-3201
▁zaten	-3202
oğu	-3203
▁Aş	-3204
leyi	-3205
BM	-3206
▁Uy	-3207
▁Çelik	-3208
▁kendini	-3209
üyle	-3210
mesine	-3211
▁yayım	-3212
▁babası	-3213
▁zir	-3214
▁etme	-3215
▁personel	-3216
▁kullandığı	-3217
ülü	-3218
▁Re	-3219
▁mar	-3220
ekkür	-3221
etik	-3222
▁dost	-3223
▁2015'	-3224
▁civar	-3225
alimanı	-3226
▁gerekç	-3227
▁of	-3228
etre	-3229
▁Gür	-3230
ğustos	-3231
▁MHP	-3232
▁zam	-3233
▁bede	-3234
▁veri	-3235
ıyoruz	-3236
▁Sokak	-3237
▁merak	-3238
ze	-3239
▁final	-3240
▁dışarı	-3241
▁tali	-3242
▁yapıla	-3243
▁silahlı	-3244
▁Boz	-3245
▁leş	-3246
sinde	-3247
▁tesi	-3248
▁Kupası	-3249
AD	-3250
İK	-3251
▁ona	-3252
▁toprak	-3253
▁Suriyeli	-3254
ij	-3255
▁yum	-3256
ire	-3257
▁çıkma	-3258
▁Demokr	-3259
▁müdahale	-3260
ren	-3261
▁ağr	-3262
demir	-3263
▁Yas	-3264
▁Çağ	-3265
engin	-3266
▁davet	-3267
▁olduğuna	-3268
▁lu	-3269
▁bağım	-3270
elerini	-3271
▁Yapılan	-3272
▁durumunda	-3273
▁televizyon	-3274
fı	-3275
▁Geçen	-3276
▁forma	-3277
▁belirlendi	-3278
wit	-3279
abir	-3280
▁baz	-3281
ıldığını	-3282
▁Hasan	-3283
abilecek	-3284
▁LAR	-3285
▁edin	-3286
lasyon	-3287
EL	-3288
PG	-3289
▁bundan	-3290
▁yüzden	-3291
▁yaralandı	-3292
▁geril	-3293
▁çıkış	-3294
emiş	-3295
gar	-3296
▁Bunu	-3297
▁Emre	-3298
oto	-3299
▁orada	-3300
▁gösteren	-3301
mail	-3302
▁Kurt	-3303
▁borç	-3304
▁getirildi	-3305
ime	-3306
▁TÜ	-3307
▁çağrı	-3308
Türkiye	-3309
▁oldukça	-3310
fet	-3311
▁çatış	-3312
▁avukat	-3313
▁petrol	-3314
▁Hollanda	-3315
▁Büyükşehir	-3316
tren	-3317
▁Hem	-3318
▁idar	-3319
▁hesab	-3320
▁alarak	-3321
▁fik	-3322
▁hik	-3323
▁Şube	-3324
▁Jandarma	-3325
sının	-3326
▁doğr	-3327
▁ettir	-3328
▁miktar	-3329
EFA	-3330
▁çab	-3331
▁Bursa	-3332
▁derin	-3333
▁ekibi	-3334
▁mevcut	-3335
▁normal	-3336
maktadır	-3337
▁dünyada	-3338
▁edildiği	-3339
bi	-3340
▁ca	-3341
▁hâ	-3342
▁Yor	-3343
▁gay	-3344
▁Feder	-3345
▁güncel	-3346
son	-3347
uzu	-3348
▁Yan	-3349
▁erken	-3350
▁başkanlık	-3351
Ben	-3352
mut	-3353
▁diş	-3354
▁enf	-3355
lığını	-3356
▁Sultan	-3357
▁gündem	-3358
tesi	-3359
▁çey	-3360
alarının	-3361
▁teşekkür	-3362
İY	-3363
ant	-3364
▁BM	-3365
▁Tan	-3366
▁Hüküm	-3367
▁pozisyon	-3368
▁öğrenciler	-3369
▁Ara	-3370
landığı	-3371
▁Uluslararası	-3372
▁Ka	-3373
▁Vol	-3374
▁UEFA	-3375
cilerin	-3376
▁yalnız	-3377
ılır	-3378
▁yapılması	-3379
.'	-3380
▁In	-3381
▁po	-3382
▁ilgi	-3383
▁90	-3384
▁Sah	-3385
▁dal	-3386
▁krit	-3387
▁sanık	-3388
gisi	-3389
▁Vak	-3390
▁sine	-3391
▁barış	-3392
▁örnek	-3393
▁Albay	-3394
▁bölge	-3395
barı	-3396
barat	-3397
▁fırsat	-3398
▁Başkanlığı	-3399
oda	-3400
ayla	-3401
▁Mücade	-3402
▁girişimi	-3403
▁hazırlık	-3404
▁Bab	-3405
▁Mad	-3406
▁pas	-3407
▁muhalif	-3408
▁TV	-3409
espor	-3410
menin	-3411
ES	-3412
▁etmesi	-3413
▁Anayasa	-3414
▁Ağustos	-3415
▁değişiklik	-3416
AM	-3417
▁kims	-3418
▁öden	-3419
eceğiz	-3420
witter	-3421
alarını	-3422
eksiyon	-3423
▁başken	-3424
▁dos	-3425
▁tip	-3426
ıldız	-3427
▁Sayın	-3428
▁hatta	-3429
▁olumlu	-3430
▁insanlar	-3431
▁çalışmaları	-3432
▁geçiş	-3433
▁mağdur	-3434
▁not	-3435
erken	-3436
madan	-3437
▁gündeme	-3438
▁metre	-3439
▁geldiği	-3440
▁müdahal	-3441
▁trafik	-3442
▁insanların	-3443
▁isten	-3444
▁ediyoruz	-3445
▁Milletvekili	-3446
ecr	-3447
▁36	-3448
▁bilen	-3449
▁heyec	-3450
▁müdür	-3451
▁çıkıyor	-3452
▁vermek	-3453
▁ülkemiz	-3454
▁Ap	-3455
cunun	-3456
▁Çavuş	-3457
▁32	-3458
meli	-3459
▁Kah	-3460
▁renk	-3461
▁hakem	-3462
▁namaz	-3463
▁ölç	-3464
▁yola	-3465
▁bitir	-3466
▁Örgütü	-3467
▁ton	-3468
▁Samsun	-3469
geç	-3470
▁Müz	-3471
▁2013	-3472
gr	-3473
car	-3474
sur	-3475
nden	-3476
▁ilaç	-3477
▁olmadı	-3478
paşa	-3479
▁ordu	-3480
şık	-3481
deri	-3482
irken	-3483
▁ihtim	-3484
▁nerede	-3485
AY	-3486
ham	-3487
▁34	-3488
eyim	-3489
▁Hakan	-3490
▁kuzey	-3491
▁bölgesinde	-3492
ED	-3493
▁prot	-3494
▁içeri	-3495
▁min	-3496
▁bilim	-3497
▁detay	-3498
dat	-3499
çeli	-3500
ışık	-3501
▁Abd	-3502
lamaya	-3503
▁ti	-3504
▁ima	-3505
▁İnş	-3506
▁defa	-3507
▁yasak	-3508
▁Fer	-3509
▁Tun	-3510
süz	-3511
▁Mev	-3512
▁müs	-3513
allah	-3514
ulmuş	-3515
▁kırmızı	-3516
▁şikayet	-3517
▁şar	-3518
▁Fakat	-3519
▁patlayıcı	-3520
ker	-3521
türk	-3522
▁sürede	-3523
▁İsmail	-3524
▁yapmaya	-3525
▁geçtiğimiz	-3526
tiler	-3527
▁cihaz	-3528
▁Şahin	-3529
onya	-3530
uzur	-3531
ınar	-3532
▁tas	-3533
PD	-3534
blem	-3535
ding	-3536
esin	-3537
▁mis	-3538
▁hain	-3539
▁mutlak	-3540
▁üçüncü	-3541
.30	-3542
▁De	-3543
▁Mücadele	-3544
go	-3545
iği	-3546
▁New	-3547
lasman	-3548
▁gidiyor	-3549
▁Cumhuriyeti	-3550
siy	-3551
▁300	-3552
▁Doğan	-3553
▁Şir	-3554
▁sakat	-3555
▁verecek	-3556
kor	-3557
yalı	-3558
▁adr	-3559
▁bilgiler	-3560
his	-3561
lılık	-3562
mediği	-3563
▁Dar	-3564
▁kara	-3565
▁Haziran	-3566
bur	-3567
▁70	-3568
▁peş	-3569
▁Bazı	-3570
▁Doğu	-3571
lamada	-3572
▁hayal	-3573
▁proje	-3574
ücu	-3575
▁mesel	-3576
▁katılım	-3577
▁vurgulayan	-3578
rika	-3579
▁işç	-3580
ağına	-3581
▁kamp	-3582
▁Oğ	-3583
▁rejim	-3584
▁uyarı	-3585
itir	-3586
▁Film	-3587
▁İspan	-3588
▁kanser	-3589
diklerini	-3590
▁öğ	-3591
ahmet	-3592
liler	-3593
vekil	-3594
▁Komisyon	-3595
▁Peki	-3596
▁maliyet	-3597
▁yıllarda	-3598
▁kullanıcı	-3599
büs	-3600
▁3'	-3601
▁198	-3602
▁ambul	-3603
▁aşama	-3604
▁müzik	-3605
▁neler	-3606
▁sürüyor	-3607
▁yaparak	-3608
▁teknoloj	-3609
▁Fır	-3610
▁incelem	-3611
BMM	-3612
cilik	-3613
▁emekli	-3614
▁merkezi	-3615
▁Vatan	-3616
▁aşağı	-3617
▁aslında	-3618
ban	-3619
bek	-3620
▁sem	-3621
urken	-3622
▁varsa	-3623
▁baba	-3624
▁Kulüb	-3625
▁düşen	-3626
▁endiş	-3627
▁Bayram	-3628
▁karşıya	-3629
▁düşüş	-3630
▁oranı	-3631
▁altını	-3632
▁küresel	-3633
▁don	-3634
▁kup	-3635
▁laş	-3636
▁soy	-3637
ediği	-3638
▁katıl	-3639
▁kayıp	-3640
▁sefer	-3641
▁bilecek	-3642
ndeki	-3643
▁kanal	-3644
▁düzenlen	-3645
▁istiyorum	-3646
▁kullanılan	-3647
▁yerleş	-3648
▁kişilik	-3649
▁nak	-3650
▁park	-3651
▁rakip	-3652
AH	-3653
uncu	-3654
▁eser	-3655
▁eksik	-3656
▁yitir	-3657
nu	-3658
▁Gö	-3659
▁Yal	-3660
kurmay	-3661
▁kilometre	-3662
▁75	-3663
anet	-3664
atej	-3665
▁LER	-3666
▁kaybeden	-3667
▁­	-3668
▁biç	-3669
▁miş	-3670
sizlik	-3671
▁Sanat	-3672
▁yazı	-3673
▁lideri	-3674
▁dünyaya	-3675
slan	-3676
▁müh	-3677
▁grub	-3678
lanmış	-3679
▁kaçır	-3680
▁ulaştı	-3681
▁taşıyan	-3682
eyle	-3683
▁Fin	-3684
▁Twitter	-3685
ekiz	-3686
▁tık	-3687
▁TBMM	-3688
▁ekib	-3689
▁katılan	-3690
▁çıkacak	-3691
▁ilişkiler	-3692
▁olacağını	-3693
unuz	-3694
▁Tıp	-3695
▁halde	-3696
▁problem	-3697
▁Havalimanı	-3698
▁Genelkurmay	-3699
▁Kıs	-3700
cılar	-3701
▁Altın	-3702
▁içine	-3703
▁ilişki	-3704
adi	-3705
utin	-3706
üstü	-3707
▁Ban	-3708
▁Siz	-3709
▁Öğr	-3710
▁alına	-3711
▁yürüy	-3712
elerine	-3713
▁savunma	-3714
▁Cem	-3715
▁İsv	-3716
▁Gökhan	-3717
▁larında	-3718
▁kişilerin	-3719
par	-3720
▁80	-3721
▁güc	-3722
uluyor	-3723
▁Diğer	-3724
▁civarında	-3725
▁nizi	-3726
▁başkanı	-3727
▁muhabir	-3728
cılı	-3729
hane	-3730
▁Üst	-3731
▁Benim	-3732
▁tatil	-3733
▁vergi	-3734
▁yıllar	-3735
▁Am	-3736
seri	-3737
mur	-3738
nan	-3739
▁Eski	-3740
▁otel	-3741
mayan	-3742
▁Kuzey	-3743
▁birim	-3744
▁çünkü	-3745
▁bağlantı	-3746
▁Pazar	-3747
▁oğ	-3748
▁Sür	-3749
▁depr	-3750
▁2016'	-3751
▁demokrasi	-3752
Biz	-3753
anam	-3754
▁Bağ	-3755
▁cam	-3756
▁leriyle	-3757
▁ameliyat	-3758
▁gıda	-3759
▁baskı	-3760
▁Yunanistan	-3761
▁Bat	-3762
▁Ger	-3763
▁pil	-3764
▁Hakk	-3765
▁ayır	-3766
▁larda	-3767
▁yakalandı	-3768
▁operasyonda	-3769
AP	-3770
rem	-3771
ult	-3772
iber	-3773
ital	-3774
▁Port	-3775
▁Muham	-3776
▁Komutan	-3777
▁büt	-3778
▁çap	-3779
▁şarkı	-3780
▁YPG	-3781
iyatro	-3782
▁attığı	-3783
▁Hep	-3784
▁Kaya	-3785
▁Harek	-3786
▁gerekçesiyle	-3787
kr	-3788
estiv	-3789
▁çevir	-3790
▁mahkeme	-3791
âr	-3792
▁2'	-3793
▁Konya	-3794
▁inşaat	-3795
▁istiyoruz	-3796
sim	-3797
▁Taş	-3798
▁Yüz	-3799
▁dık	-3800
▁vuruş	-3801
▁görüldü	-3802
▁Yol	-3803
sanız	-3804
▁Arab	-3805
▁yoktur	-3806
▁Kuvvetleri	-3807
mit	-3808
keti	-3809
itesi	-3810
▁Arena	-3811
▁olmas	-3812
▁Kurumu	-3813
▁hayvan	-3814
▁iktidar	-3815
▁yıla	-3816
▁Başak	-3817
▁hafif	-3818
▁annesi	-3819
▁dolarlık	-3820
▁yürütülen	-3821
▁sıralarında	-3822
hi	-3823
ou	-3824
teri	-3825
ündem	-3826
▁yeri	-3827
liğinde	-3828
▁yaptıkları	-3829
va	-3830
▁Yen	-3831
▁ade	-3832
▁Cuma	-3833
▁yavaş	-3834
▁turist	-3835
▁uygulam	-3836
▁ortalama	-3837
▁deplasman	-3838
▁buldu	-3839
▁sonuna	-3840
▁gelişmeler	-3841
onal	-3842
▁İyi	-3843
▁asıl	-3844
▁Sadece	-3845
ati	-3846
ina	-3847
▁dağ	-3848
▁satın	-3849
▁saygı	-3850
▁yapımı	-3851
▁döv	-3852
▁gaz	-3853
▁olama	-3854
alarına	-3855
▁kamuoy	-3856
▁yargılan	-3857
▁sığınmacı	-3858
▁vatandaşlar	-3859
▁çerçevesinde	-3860
▁sorgu	-3861
▁Adalet	-3862
ko	-3863
lâ	-3864
▁soğ	-3865
ester	-3866
▁emek	-3867
▁topu	-3868
▁mutlaka	-3869
▁Le	-3870
▁Dan	-3871
▁köpr	-3872
ilirken	-3873
▁kazandı	-3874
▁düzenlem	-3875
iyer	-3876
tarı	-3877
▁altı	-3878
▁hastaneye	-3879
▁alk	-3880
▁bal	-3881
▁boğ	-3882
▁Proj	-3883
▁Karşı	-3884
▁güçleri	-3885
▁özellik	-3886
▁Operasyon	-3887
▁red	-3888
ersiz	-3889
general	-3890
ıf	-3891
aket	-3892
tılı	-3893
▁dök	-3894
▁nüf	-3895
▁pen	-3896
▁ref	-3897
isyen	-3898
▁öldü	-3899
▁zengin	-3900
▁iP	-3901
▁otobüs	-3902
▁Mu	-3903
eker	-3904
▁oynan	-3905
ulma	-3906
▁iptal	-3907
▁yönetimi	-3908
ond	-3909
▁şif	-3910
▁Suudi	-3911
▁alanı	-3912
▁onların	-3913
▁kaldırıldı	-3914
ons	-3915
▁sahn	-3916
▁lerde	-3917
▁görüşme	-3918
▁sonucunda	-3919
▁ayı	-3920
▁şeyi	-3921
▁Volkan	-3922
▁İtalya	-3923
▁hatırlat	-3924
İM	-3925
osk	-3926
ubay	-3927
▁sorumlu	-3928
▁geldiğini	-3929
▁açıklaması	-3930
▁yapar	-3931
▁ortadan	-3932
▁Araştırma	-3933
▁gar	-3934
ırnak	-3935
▁siniz	-3936
▁açıldı	-3937
▁yaşama	-3938
▁Kil	-3939
▁huzur	-3940
▁mağlu	-3941
▁mücadel	-3942
▁sağlıklı	-3943
yası	-3944
▁AKP	-3945
▁yasa	-3946
▁Yeşil	-3947
▁ederken	-3948
▁muhalef	-3949
▁edilecek	-3950
hat	-3951
▁0,	-3952
ikat	-3953
ilme	-3954
▁direktör	-3955
▁sunuz	-3956
▁Savunma	-3957
▁gösteriyor	-3958
▁Sh	-3959
▁İd	-3960
ansı	-3961
▁şans	-3962
▁kaydeden	-3963
▁vide	-3964
▁yerli	-3965
▁sorunu	-3966
ene	-3967
gör	-3968
etici	-3969
▁aracı	-3970
▁sözleş	-3971
vert	-3972
▁terk	-3973
▁hisse	-3974
▁kimse	-3975
▁antren	-3976
▁süreci	-3977
▁Holding	-3978
▁09	-3979
▁ah	-3980
siyle	-3981
▁seyir	-3982
▁İkinci	-3983
lament	-3984
▁numar	-3985
▁bunlar	-3986
▁milletvekil	-3987
▁şaş	-3988
▁memur	-3989
▁yaptığını	-3990
▁tuz	-3991
▁anlay	-3992
▁olmuş	-3993
asından	-3994
▁malz	-3995
▁sınıf	-3996
▁müt	-3997
elikle	-3998
▁söyley	-3999
▁istediği	-4000
▁Jo	-4001
▁Üç	-4002
tern	-4003
yalet	-4004
▁Ağır	-4005
▁asla	-4006
civert	-4007
▁2016,	-4008
▁sınız	-4009
▁evinde	-4010
şe	-4011
akar	-4012
▁maz	-4013
▁ödeme	-4014
rim	-4015
▁Çar	-4016
ersin	-4017
▁daki	-4018
▁olursa	-4019
▁önümüzdeki	-4020
muştu	-4021
▁Silah	-4022
▁unsur	-4023
▁desteği	-4024
DI	-4025
▁Car	-4026
▁bilinen	-4027
▁başlayacak	-4028
tel	-4029
▁KO	-4030
▁gizli	-4031
▁açılış	-4032
▁kaldığı	-4033
▁65	-4034
uluğu	-4035
▁büyüm	-4036
▁Çetin	-4037
▁%	-4038
▁ez	-4039
amız	-4040
enek	-4041
üler	-4042
iklet	-4043
tadır	-4044
▁benzer	-4045
▁büyüme	-4046
▁belirlen	-4047
vik	-4048
▁3,	-4049
raki	-4050
▁Yet	-4051
mızılı	-4052
▁doğum	-4053
▁sürdü	-4054
▁yeterli	-4055
▁operasyonu	-4056
▁dolu	-4057
▁size	-4058
▁bebek	-4059
mesinin	-4060
▁cinsel	-4061
▁Şırnak	-4062
▁genelinde	-4063
▁Güm	-4064
akanı	-4065
▁alıp	-4066
▁derb	-4067
tıkları	-4068
▁şeyler	-4069
▁takımın	-4070
izik	-4071
▁bat	-4072
▁işi	-4073
▁imha	-4074
ira	-4075
▁App	-4076
▁Arap	-4077
▁müsab	-4078
▁ambulans	-4079
▁diren	-4080
▁krizi	-4081
ilendir	-4082
▁Bütün	-4083
▁rekor	-4084
▁bugüne	-4085
▁verilm	-4086
▁bulutlu	-4087
▁denildi	-4088
▁yerleştir	-4089
vi	-4090
▁Ker	-4091
▁Ver	-4092
▁Ordu	-4093
▁Uzun	-4094
▁kimlik	-4095
▁stratej	-4096
▁iletişim	-4097
▁saç	-4098
estor	-4099
▁tecr	-4100
▁memnun	-4101
▁alanında	-4102
▁olduklarını	-4103
:00	-4104
bette	-4105
▁Arda	-4106
▁açtı	-4107
▁cami	-4108
▁vade	-4109
▁dokun	-4110
▁görülen	-4111
▁olacağı	-4112
▁rahatsız	-4113
▁Gir	-4114
▁Sta	-4115
▁Musul	-4116
▁imkan	-4117
▁yaralanan	-4118
▁kendilerine	-4119
imde	-4120
orta	-4121
▁Mel	-4122
▁başı	-4123
▁Sonra	-4124
▁2016-0	-4125
hone	-4126
▁fak	-4127
▁laştır	-4128
umartesi	-4129
▁birinci	-4130
▁vurguladı	-4131
▁düşünüyorum	-4132
▁Ef	-4133
▁evde	-4134
▁olmalı	-4135
are	-4136
rid	-4137
▁Sa	-4138
▁ın	-4139
▁kısm	-4140
▁evine	-4141
▁taban	-4142
▁vazgeç	-4143
▁yaşandı	-4144
▁binlerce	-4145
▁bunların	-4146
HA	-4147
rag	-4148
emez	-4149
▁inşa	-4150
▁skor	-4151
ülüyor	-4152
▁siyah	-4153
▁açılan	-4154
▁Böylece	-4155
zu	-4156
mür	-4157
oman	-4158
▁Mey	-4159
▁yağış	-4160
▁yerel	-4161
▁harekete	-4162
▁Direktörü	-4163
iri	-4164
▁muz	-4165
▁kaçak	-4166
▁yenil	-4167
▁tazmin	-4168
▁işbirliği	-4169
▁bulunduğunu	-4170
yse	-4171
ekim	-4172
▁Ege	-4173
▁Sinan	-4174
▁aşırı	-4175
▁Kulübü	-4176
İZ	-4177
▁vit	-4178
▁Putin	-4179
▁takımı	-4180
▁Komutanlığı	-4181
dası	-4182
▁Tic	-4183
▁sizin	-4184
▁anlamda	-4185
▁yapacağı	-4186
gal	-4187
▁bı	-4188
▁ku	-4189
▁nö	-4190
▁Erz	-4191
▁Kons	-4192
▁ismi	-4193
liyoruz	-4194
▁gördük	-4195
▁Un	-4196
▁Bek	-4197
areti	-4198
▁kuru	-4199
▁Dolay	-4200
▁belki	-4201
klerini	-4202
▁yurtdı	-4203
▁sanatçı	-4204
▁arkasında	-4205
▁Ri	-4206
▁çi	-4207
amet	-4208
▁Çev	-4209
▁Halk	-4210
▁Köpr	-4211
▁konum	-4212
▁tüket	-4213
▁veril	-4214
aladı	-4215
▁Belç	-4216
▁kuruş	-4217
▁alınması	-4218
▁33	-4219
onik	-4220
tisi	-4221
▁Hiç	-4222
▁fil	-4223
▁Yıldız	-4224
▁Kayseri	-4225
▁hakaret	-4226
▁toplantısında	-4227
isay	-4228
▁arka	-4229
▁Bunlar	-4230
soy	-4231
utan	-4232
▁Tor	-4233
▁salon	-4234
▁liraya	-4235
▁yapmış	-4236
▁devletin	-4237
▁2,	-4238
elçuk	-4239
ceğini	-4240
▁(1	-4241
▁55	-4242
▁Nec	-4243
▁Asya	-4244
▁Kart	-4245
▁döndü	-4246
▁almaya	-4247
▁1,	-4248
▁Düz	-4249
▁odak	-4250
▁vücu	-4251
▁gelin	-4252
▁Arabistan	-4253
▁belirtilen	-4254
▁Yav	-4255
▁maaş	-4256
▁meslek	-4257
▁Bo	-4258
▁mor	-4259
▁Küçük	-4260
▁yazar	-4261
maların	-4262
▁kendisi	-4263
▁sağlamak	-4264
▁Tah	-4265
▁2012	-4266
▁alty	-4267
▁İlçe	-4268
madığı	-4269
▁Apple	-4270
▁alama	-4271
▁endek	-4272
▁kapas	-4273
▁onlar	-4274
▁etkilen	-4275
▁lerinde	-4276
▁mülteci	-4277
▁üye	-4278
▁Ödül	-4279
▁güney	-4280
▁anayasa	-4281
▁sonraki	-4282
▁ifadesini	-4283
▁öncesinde	-4284
DE	-4285
ck	-4286
▁AL	-4287
▁Uzman	-4288
▁yalan	-4289
▁ticaret	-4290
▁rö	-4291
atör	-4292
kray	-4293
▁kop	-4294
▁2011	-4295
▁dahi	-4296
▁istis	-4297
▁seyahat	-4298
▁yaşamını	-4299
▁Başakşehir	-4300
düm	-4301
iyan	-4302
reti	-4303
▁Paris	-4304
▁işada	-4305
▁Mersin	-4306
▁çatışma	-4307
ori	-4308
ubu	-4309
▁bür	-4310
▁eve	-4311
▁Grup	-4312
acılık	-4313
beyazlı	-4314
bilecek	-4315
▁Selçuk	-4316
▁anlaşma	-4317
▁oynanan	-4318
▁tutuklan	-4319
IK	-4320
▁Q	-4321
danı	-4322
emen	-4323
▁Aziz	-4324
▁önde	-4325
▁hakkı	-4326
▁cumhur	-4327
▁değişim	-4328
▁çıkardı	-4329
ese	-4330
▁sunu	-4331
▁koşul	-4332
▁giderek	-4333
▁Amerikan	-4334
▁edeceğiz	-4335
ımda	-4336
▁And	-4337
▁adli	-4338
▁Enerji	-4339
▁iPhone	-4340
▁katıldığı	-4341
ruk	-4342
▁5'	-4343
▁gur	-4344
ülmesi	-4345
▁Yargı	-4346
ğanüstü	-4347
rum	-4348
▁CE	-4349
▁keş	-4350
esiz	-4351
matı	-4352
▁mizin	-4353
▁dikkati	-4354
▁teknoloji	-4355
▁Dolayısıyla	-4356
plo	-4357
▁süt	-4358
▁Şim	-4359
▁psik	-4360
▁alb	-4361
▁del	-4362
ıyorum	-4363
▁Orman	-4364
▁gelmiş	-4365
▁yetkililer	-4366
ezil	-4367
kale	-4368
▁tez	-4369
neğin	-4370
▁tane	-4371
▁verm	-4372
▁Karab	-4373
▁haberine	-4374
▁4'	-4375
▁AN	-4376
ayıf	-4377
▁Jap	-4378
▁fon	-4379
▁yolc	-4380
elikop	-4381
▁kurulan	-4382
▁doldur	-4383
▁bölgeye	-4384
▁inti	-4385
▁Ukray	-4386
▁hasta	-4387
▁kişiyi	-4388
▁medyada	-4389
▁süredir	-4390
▁çocukları	-4391
▁Suç	-4392
▁gem	-4393
▁içi	-4394
▁alım	-4395
▁iade	-4396
▁stan	-4397
▁test	-4398
▁kapalı	-4399
▁metrek	-4400
▁hır	-4401
▁edip	-4402
▁banka	-4403
▁akıllı	-4404
▁başlan	-4405
laşık	-4406
ülent	-4407
▁beyaz	-4408
▁korun	-4409
▁cezaev	-4410
▁dolara	-4411
▁onları	-4412
▁me	-4413
▁sap	-4414
usunu	-4415
▁Turan	-4416
▁konuk	-4417
▁tesis	-4418
▁eyalet	-4419
▁başlıyor	-4420
-3	-4421
▁197	-4422
usuna	-4423
▁Toto	-4424
amazan	-4425
▁Tabii	-4426
▁yapım	-4427
▁sokağa	-4428
▁indirim	-4429
▁yapılıyor	-4430
▁Bülent	-4431
▁Saldır	-4432
▁sahada	-4433
▁bunları	-4434
▁Ortadoğu	-4435
▁belediye	-4436
▁tartışma	-4437
▁çalışması	-4438
gulan	-4439
▁ktan	-4440
▁kızı	-4441
▁Madrid	-4442
▁halkın	-4443
▁çıkart	-4444
▁örgütün	-4445
po	-4446
lana	-4447
▁Men	-4448
▁Sey	-4449
luluk	-4450
▁istif	-4451
▁takdir	-4452
▁Albayrak	-4453
▁kullanan	-4454
▁5.	-4455
▁beğ	-4456
▁düğ	-4457
leniyor	-4458
▁Denizli	-4459
▁bekliyor	-4460
▁Başbakanı	-4461
ürr	-4462
▁37	-4463
▁Haf	-4464
▁gül	-4465
▁hab	-4466
▁Herk	-4467
▁Koca	-4468
▁sayf	-4469
▁kurulu	-4470
nik	-4471
liğe	-4472
▁Maç	-4473
▁tüf	-4474
ımıza	-4475
▁nızı	-4476
▁uçuş	-4477
▁adeta	-4478
▁lardı	-4479
▁çıktığı	-4480
▁açıklandı	-4481
▁hac	-4482
erbay	-4483
veriş	-4484
ımızın	-4485
▁çağır	-4486
▁inanıyor	-4487
PDY	-4488
lemeye	-4489
saspor	-4490
alisyon	-4491
▁Birleş	-4492
▁itibarı	-4493
▁başlattı	-4494
▁olmasına	-4495
gül	-4496
book	-4497
▁yiz	-4498
▁yeme	-4499
▁zirv	-4500
▁Avust	-4501
▁hazırlanan	-4502
Bir	-4503
yet	-4504
lerimiz	-4505
▁saldırıda	-4506
▁Res	-4507
▁Siv	-4508
▁çağr	-4509
▁motor	-4510
▁taşın	-4511
▁teşvik	-4512
▁üzerindeki	-4513
ash	-4514
ock	-4515
▁eg	-4516
▁Boğ	-4517
▁olun	-4518
cebook	-4519
▁Tarih	-4520
▁kalma	-4521
▁Öztürk	-4522
▁patlama	-4523
▁tutuklu	-4524
▁ac	-4525
illi	-4526
▁kıy	-4527
faiye	-4528
şembe	-4529
▁Oğuz	-4530
▁kanı	-4531
işehir	-4532
▁boyut	-4533
▁üstün	-4534
▁servis	-4535
▁çalıştı	-4536
▁içindeki	-4537
▁insanları	-4538
▁yapıldığı	-4539
▁Köy	-4540
edeki	-4541
▁Uğur	-4542
ılarak	-4543
▁terörle	-4544
▁öğrenci	-4545
▁Abdullah	-4546
dıktan	-4547
▁Hayat	-4548
▁kapan	-4549
▁noktada	-4550
▁kazandır	-4551
ıza	-4552
kili	-4553
lığa	-4554
uman	-4555
▁cil	-4556
lığına	-4557
▁hisset	-4558
▁istihdam	-4559
inc	-4560
▁AR	-4561
afer	-4562
▁Fak	-4563
▁deki	-4564
▁mize	-4565
▁balık	-4566
▁Azerbay	-4567
▁konuşma	-4568
▁çocukların	-4569
ink	-4570
maat	-4571
eysel	-4572
Gündem	-4573
▁tanım	-4574
▁programı	-4575
▁ef	-4576
▁Pat	-4577
▁işe	-4578
▁şok	-4579
▁Akın	-4580
▁kısı	-4581
▁hayır	-4582
▁güvenli	-4583
▁oynadığı	-4584
▁vatandaşların	-4585
zan	-4586
▁İL	-4587
idin	-4588
▁Tat	-4589
▁ödem	-4590
ağında	-4591
▁Kurul	-4592
azartesi	-4593
▁Komutanı	-4594
▁Başsavcılığı	-4595
şi	-4596
▁38	-4597
▁Ale	-4598
inizi	-4599
ordin	-4600
▁toplu	-4601
▁düşünc	-4602
▁restor	-4603
▁ihtiyacı	-4604
▁araştırma	-4605
▁sayısının	-4606
▁bilirsiniz	-4607
▁1'	-4608
edik	-4609
▁Yer	-4610
▁kem	-4611
▁Fransız	-4612
▁götürüldü	-4613
▁Mosk	-4614
▁acil	-4615
▁adını	-4616
▁değin	-4617
▁duygu	-4618
▁cenaze	-4619
▁yerini	-4620
▁olacaktır	-4621
nam	-4622
▁İddi	-4623
▁Fırat	-4624
▁Binali	-4625
▁göçmen	-4626
▁Bahçeli	-4627
▁herkesin	-4628
▁Karadeniz	-4629
▁gönderildi	-4630
cra	-4631
yer	-4632
▁47	-4633
alle	-4634
▁Nus	-4635
▁Onun	-4636
▁onay	-4637
▁mekan	-4638
tiğimiz	-4639
▁ticari	-4640
▁Belediy	-4641
▁Moskova	-4642
▁plakalı	-4643
gre	-4644
▁ağrı	-4645
omotiv	-4646
▁Sabah	-4647
▁temas	-4648
▁haberi	-4649
▁kaleci	-4650
▁çocuğu	-4651
▁ayrıldı	-4652
▁suçundan	-4653
OK	-4654
dun	-4655
▁id	-4656
▁vir	-4657
▁arası	-4658
▁kişiye	-4659
▁başkenti	-4660
▁bilgisay	-4661
▁Komisyonu	-4662
▁gerçekten	-4663
▁oldukları	-4664
kiler	-4665
ulmaz	-4666
liğine	-4667
▁güneş	-4668
▁koruma	-4669
▁lerimiz	-4670
▁çocuğun	-4671
▁çalıştır	-4672
▁gerçekleşti	-4673
ura	-4674
usuf	-4675
▁Say	-4676
▁avan	-4677
▁hala	-4678
▁etkisi	-4679
▁ilçesi	-4680
▁Belçika	-4681
▁üyeleri	-4682
OL	-4683
▁6.	-4684
▁Pr	-4685
gesi	-4686
ücut	-4687
▁400	-4688
▁jan	-4689
▁Ünlü	-4690
▁inceleme	-4691
▁yaparken	-4692
isa	-4693
▁hızla	-4694
▁sahte	-4695
▁savcı	-4696
▁sürpr	-4697
▁organiz	-4698
MA	-4699
▁TSK	-4700
▁kritik	-4701
▁helikop	-4702
▁aldığını	-4703
▁Bursaspor	-4704
▁ihlal	-4705
▁Ramazan	-4706
ündeki	-4707
▁duyurdu	-4708
▁protest	-4709
▁süreçte	-4710
ag	-4711
▁yız	-4712
▁Artık	-4713
▁Vakfı	-4714
▁kalit	-4715
▁ihtiyac	-4716
▁Facebook	-4717
▁Vatandaş	-4718
▁üs	-4719
form	-4720
▁prim	-4721
▁Mardin	-4722
▁olmasını	-4723
▁örgütünün	-4724
▁Fetullahçı	-4725
kâ	-4726
latan	-4727
▁gözy	-4728
▁İpek	-4729
▁Salih	-4730
▁Yusuf	-4731
▁bedel	-4732
▁Dündar	-4733
▁yükseldi	-4734
▁39	-4735
lücü	-4736
▁anı	-4737
▁Şanlı	-4738
▁geçici	-4739
▁kamyon	-4740
▁avantaj	-4741
▁tahliye	-4742
▁beklenen	-4743
▁oyuncusu	-4744
▁enflasyon	-4745
▁Ür	-4746
▁Sel	-4747
▁lay	-4748
tacak	-4749
▁komş	-4750
▁görevi	-4751
mediğini	-4752
▁istediğini	-4753
▁uğ	-4754
▁pan	-4755
▁düşman	-4756
▁denetim	-4757
▁değerli	-4758
▁şirketi	-4759
▁Azerbaycan	-4760
kim	-4761
ıştı	-4762
▁Far	-4763
▁Pen	-4764
▁Takım	-4765
alandır	-4766
▁dönemi	-4767
▁Ticaret	-4768
▁paylaşım	-4769
▁çocuklar	-4770
▁istihbarat	-4771
şek	-4772
▁bıçak	-4773
▁Özgür	-4774
latform	-4775
▁arkadaşları	-4776
▁kaza	-4777
leyman	-4778
▁kanat	-4779
▁yönel	-4780
▁turizm	-4781
▁karakter	-4782
▁sağlayan	-4783
İH	-4784
▁48	-4785
▁Mic	-4786
▁aşk	-4787
muyor	-4788
ukarı	-4789
▁	-4790
a	-4791
e	-4792
i	-4793
n	-4794
r	-4795
l	-4796
ı	-4797
d	-4798
k	-4799
t	-4800
m	-4801
y	-4802
u	-4803
s	-4804
o	-4805
b	-4806
ü	-4807
ş	-4808
z	-4809
.	-4810
g	-4811
ğ	-4812
v	-4813
ç	-4814
h	-4815
c	-4816
,	-4817
p	-4818
ö	-4819
'	-4820
f	-4821
A	-4822
B	-4823
T	-4824
K	-4825
"	-4826
S	-4827
1	-4828
M	-4829
0	-4830
D	-4831
E	-4832
İ	-4833
2	-4834
H	-4835
G	-4836
Y	-4837
P	-4838
-	-4839
O	-4840
C	-4841
5	-4842
F	-4843
R	-4844
3	-4845
L	-4846
N	-4847
4	-4848
6	-4849
Ş	-4850
Ö	-4851
j	-4852
:	-4853
9	-4854
Ç	-4855
7	-4856
8	-4857
)	-4858
U	-4859
I	-4860
(	-4861
V	-4862
Ü	-4863
Z	-4864
?	-4865
!	-4866
;	-4867
J	-4868
â	-4869
w	-4870
x	-4871
­	-4872
W	-4873
/	-4874
`	-4875
Ğ	-4876
î	-4877
X	-4878
%	-4879
Q	-4880
&	-4881
q	-4882
+	-4883
*	-4884
û	-4885
◊	-4886
#	-4887
′	-4888
·	-4889
@	-4890
̈	-4891
•	-4892
$	-4893
Â	-4894
̇	-4895
=	-4896
_	-4897
é	-4898
̧	-4899
[	-4900
]	-4901
>	-4902
°	-4903
а	-4904
ˆ	-4905
ə	-4906
á	-4907
е	-4908
¦	-4909
ä	-4910
¥	-4911
ó	-4912
ñ	-4913
€	-4914
í	-4915
\	-4916
	-4917
¬	-4918
å	-4919
è	-4920
⁄	-4921
ê	-4922
■	-4923
×	-4924
¡	-4925
®	-4926
ï	-4927
ø	-4928
ú	-4929
ć	-4930
⭐	-4931
️	-4932
^	-4933
£	-4934
Ä	-4935
à	-4936
æ	-4937
о	-4938
●	-4939
🇷	-4940
🇹	-4941
	-4942
É	-4943
Î	-4944
ß	-4945
ã	-4946
ƒ	-4947
α	-4948
і	-4949
ا	-4950
د	-4951
س	-4952
ل	-4953
و	-4954
ي	-4955
‬	-4956
∂	-4957
☮	-4958
👍	-4959
~	-4960
	-4961
Å	-4962
Ñ	-4963
Ø	-4964
Û	-4965
ë	-4966
ù	-4967
ē	-4968
ł	-4969
̆	-4970
μ	-4971
Л	-4972
к	-4973
н	-4974
п	-4975
с	-4976
т	-4977
у	-4978
ة	-4979
ح	-4980
ر	-4981
غ	-4982
ق	-4983
م	-4984
ن	-4985
‫	-4986
›	-4987
🏆	-4988
🏻	-4989
👑	-4990
💋	-4991
💧	-4992
💰	-4993
😁	-4994
😊	-4995
🙏	-4996
