<unk>	0
<s>	0
</s>	0
ar	-0
an	-1
er	-2
in	-3
ın	-4
▁b	-5
de	-6
il	-7
▁k	-8
en	-9
al	-10
▁y	-11
da	-12
▁s	-13
ir	-14
▁g	-15
ak	-16
lar	-17
el	-18
ma	-19
et	-20
la	-21
▁o	-22
ek	-23
▁v	-24
iy	-25
▁t	-26
un	-27
▁i	-28
or	-29
▁d	-30
ler	-31
at	-32
ay	-33
es	-34
on	-35
dı	-36
▁h	-37
di	-38
▁B	-39
as	-40
ur	-41
▁A	-42
le	-43
▁ve	-44
aş	-45
li	-46
ün	-47
ıl	-48
▁de	-49
▁bir	-50
ür	-51
▁m	-52
im	-53
▁ç	-54
ık	-55
iz	-56
ul	-57
em	-58
▁T	-59
▁ol	-60
▁S	-61
▁K	-62
ap	-63
▁a	-64
ik	-65
ır	-66
st	-67
am	-68
ör	-69
ında	-70
ey	-71
▁M	-72
inde	-73
dan	-74
ış	-75
▁il	-76
iş	-77
▁da	-78
az	-79
▁ö	-80
▁p	-81
ını	-82
ab	-83
▁e	-84
ya	-85
ğı	-86
du	-87
ki	-88
▁D	-89
um	-90
ini	-91
ah	-92
▁al	-93
üz	-94
den	-95
▁G	-96
▁H	-97
ti	-98
▁ş	-99
▁yap	-100
ine	-101
tı	-102
▁ar	-103
it	-104
▁E	-105
ol	-106
ec	-107
▁1	-108
▁İ	-109
lı	-110
sı	-111
▁"	-112
esi	-113
▁f	-114
lan	-115
ok	-116
ım	-117
iye	-118
▁iç	-119
yor	-120
▁2	-121
ına	-122
is	-123
ları	-124
▁Y	-125
ük	-126
▁bu	-127
ağ	-128
▁n	-129
iyor	-130
ül	-131
uz	-132
leri	-133
ev	-134
inin	-135
iler	-136
ği	-137
▁gör	-138
uş	-139
cak	-140
af	-141
ut	-142
oğ	-143
▁baş	-144
▁kar	-145
alar	-146
ön	-147
▁P	-148
anı	-149
▁et	-150
ta	-151
▁C	-152
ez	-153
ürk	-154
▁F	-155
▁için	-156
▁son	-157
ların	-158
ız	-159
eler	-160
▁ile	-161
üm	-162
us	-163
▁gel	-164
dır	-165
▁oldu	-166
▁O	-167
▁ön	-168
te	-169
av	-170
eç	-171
ca	-172
uk	-173
▁ver	-174
▁kon	-175
▁r	-176
▁Türk	-177
lik	-178
▁an	-179
ad	-180
▁z	-181
ce	-182
▁ed	-183
üş	-184
ından	-185
len	-186
ması	-187
se	-188
▁aç	-189
dir	-190
yon	-191
▁ger	-192
uy	-193
▁c	-194
unu	-195
öy	-196
mak	-197
me	-198
ının	-199
▁ay	-200
öz	-201
..	-202
▁bul	-203
laş	-204
ra	-205
lu	-206
cı	-207
lay	-208
om	-209
▁yıl	-210
üy	-211
▁ma	-212
eş	-213
ildi	-214
op	-215
▁tar	-216
lık	-217
ib	-218
ip	-219
▁çık	-220
▁en	-221
▁yer	-222
ası	-223
▁kal	-224
▁R	-225
▁bel	-226
▁bil	-227
▁Türkiye	-228
▁olduğ	-229
▁değ	-230
man	-231
▁in	-232
▁20	-233
tir	-234
larak	-235
tan	-236
▁sür	-237
▁yaş	-238
nin	-239
▁3	-240
▁Ç	-241
▁iş	-242
ıyor	-243
▁Bu	-244
dığı	-245
▁gün	-246
▁geç	-247
▁Ş	-248
mas	-249
ken	-250
mek	-251
üt	-252
▁Ö	-253
▁(	-254
▁olarak	-255
▁yar	-256
öyle	-257
eh	-258
ade	-259
▁ist	-260
▁kad	-261
ıs	-262
▁or	-263
ro	-264
▁Baş	-265
ılan	-266
tır	-267
▁N	-268
ede	-269
iyle	-270
ecek	-271
▁çok	-272
ama	-273
▁ne	-274
eni	-275
eb	-276
alı	-277
ilm	-278
▁olan	-279
ada	-280
ha	-281
ili	-282
ğini	-283
iyet	-284
▁üz	-285
▁çal	-286
asında	-287
aya	-288
aber	-289
yla	-290
let	-291
▁An	-292
▁kay	-293
ist	-294
▁mil	-295
lü	-296
imiz	-297
ru	-298
ece	-299
▁kur	-300
inden	-301
▁bulun	-302
ih	-303
mış	-304
ed	-305
▁belir	-306
ilen	-307
cu	-308
▁ise	-309
▁üzer	-310
▁çalış	-311
▁karş	-312
▁var	-313
lama	-314
eye	-315
uşt	-316
▁dev	-317
▁açık	-318
▁daha	-319
unda	-320
arı	-321
aç	-322
▁yön	-323
▁kul	-324
ibi	-325
▁el	-326
▁ter	-327
▁-	-328
▁L	-329
▁sor	-330
ci	-331
▁ek	-332
▁oy	-333
si	-334
▁ken	-335
▁top	-336
▁V	-337
lerin	-338
larını	-339
ğını	-340
aman	-341
öl	-342
malar	-343
kan	-344
▁yak	-345
por	-346
▁gü	-347
eri	-348
nın	-349
▁4	-350
leş	-351
os	-352
▁yüz	-353
▁bin	-354
▁at	-355
▁Er	-356
▁düş	-357
▁dur	-358
▁kiş	-359
▁5	-360
ara	-361
üyük	-362
▁201	-363
ıldı	-364
ğr	-365
▁gö	-366
▁yan	-367
ep	-368
▁dön	-369
dür	-370
eli	-371
▁taraf	-372
erek	-373
00	-374
lem	-375
arak	-376
ilir	-377
▁kullan	-378
▁uy	-379
uç	-380
sa	-381
kanı	-382
unun	-383
lara	-384
ılı	-385
▁sonra	-386
▁her	-387
▁gir	-388
▁U	-389
diği	-390
oy	-391
▁kadar	-392
maya	-393
ark	-394
▁sağ	-395
ten	-396
▁sah	-397
▁gibi	-398
lerini	-399
miş	-400
ladı	-401
tığı	-402
▁gerek	-403
▁kap	-404
▁etti	-405
men	-406
met	-407
▁hal	-408
▁kat	-409
id	-410
▁tek	-411
▁ola	-412
▁tak	-413
dü	-414
oli	-415
▁söyle	-416
▁mü	-417
▁ül	-418
▁Al	-419
ayı	-420
▁hak	-421
▁Ar	-422
esinde	-423
▁ü	-424
▁ak	-425
san	-426
▁karşı	-427
▁dedi	-428
akan	-429
▁terör	-430
isi	-431
acak	-432
ran	-433
re	-434
▁yeni	-435
asyon	-436
aat	-437
▁böl	-438
may	-439
ter	-440
ımız	-441
▁Z	-442
...	-443
▁öz	-444
art	-445
dım	-446
una	-447
▁ilg	-448
▁büyük	-449
▁if	-450
çek	-451
▁ev	-452
ot	-453
ic	-454
ne	-455
▁göre	-456
kin	-457
▁ülk	-458
erk	-459
▁düz	-460
▁as	-461
etir	-462
if	-463
ğu	-464
▁ilk	-465
ye	-466
▁alın	-467
▁hay	-468
▁Ü	-469
deki	-470
ven	-471
hur	-472
▁getir	-473
▁dün	-474
tr	-475
ef	-476
etim	-477
ers	-478
stan	-479
▁olduğunu	-480
elik	-481
▁'	-482
▁ifade	-483
bul	-484
▁6	-485
▁olduğu	-486
umhur	-487
▁neden	-488
lığı	-489
▁ort	-490
▁pro	-491
üs	-492
▁ör	-493
▁doğ	-494
▁do	-495
▁Haber	-496
▁zaman	-497
▁on	-498
gi	-499
dik	-500
▁belirt	-501
larda	-502
▁yol	-503
▁alan	-504
▁Bir	-505
▁sal	-506
▁göz	-507
per	-508
▁tut	-509
▁yüzde	-510
larının	-511
oc	-512
alan	-513
lat	-514
▁sır	-515
çe	-516
azet	-517
cağı	-518
ac	-519
▁öğr	-520
iv	-521
▁maç	-522
üks	-523
iyi	-524
▁çek	-525
tar	-526
▁ama	-527
gu	-528
▁şek	-529
uh	-530
▁AB	-531
▁önem	-532
▁Cumhur	-533
uştur	-534
▁u	-535
▁değil	-536
▁devam	-537
▁has	-538
rup	-539
oğlu	-540
▁tarafından	-541
▁7	-542
tık	-543
der	-544
güt	-545
▁gerçek	-546
lam	-547
▁Öz	-548
▁ih	-549
iç	-550
ster	-551
tik	-552
▁arasında	-553
▁ot	-554
uyor	-555
iniz	-556
▁uz	-557
▁alt	-558
▁biz	-559
▁sev	-560
stanbul	-561
mesi	-562
ünü	-563
dından	-564
▁poli	-565
erb	-566
▁yaz	-567
cü	-568
bir	-569
▁yapılan	-570
dık	-571
enel	-572
eyi	-573
ındaki	-574
ans	-575
baş	-576
▁göster	-577
ley	-578
▁kendi	-579
doğ	-580
▁İstanbul	-581
daki	-582
tü	-583
arb	-584
▁diye	-585
lere	-586
▁Ay	-587
gün	-588
▁durum	-589
alık	-590
▁ardından	-591
▁iki	-592
dar	-593
mız	-594
▁milyon	-595
▁Ak	-596
ğer	-597
▁düzen	-598
▁Sur	-599
▁saat	-600
▁l	-601
▁kaz	-602
▁ad	-603
▁söz	-604
▁ilgili	-605
atı	-606
▁önce	-607
▁Av	-608
▁li	-609
▁saldır	-610
ünde	-611
na	-612
▁bek	-613
larına	-614
ub	-615
sız	-616
liği	-617
ob	-618
▁olma	-619
anın	-620
dığını	-621
lerinin	-622
▁I	-623
▁Mü	-624
▁insan	-625
▁eden	-626
han	-627
eleri	-628
▁sav	-629
▁bölg	-630
atır	-631
▁8	-632
▁har	-633
▁görev	-634
oz	-635
▁es	-636
▁örgüt	-637
▁bulundu	-638
▁öl	-639
ğü	-640
eti	-641
uştu	-642
edi	-643
usu	-644
esine	-645
▁bağ	-646
▁önemli	-647
atan	-648
▁özel	-649
▁Başkanı	-650
▁öğren	-651
ıp	-652
sun	-653
▁par	-654
▁yok	-655
▁gelen	-656
up	-657
▁güven	-658
ileri	-659
nı	-660
▁is	-661
ıla	-662
▁Kur	-663
nde	-664
▁karar	-665
▁ür	-666
üp	-667
▁hem	-668
▁10	-669
ram	-670
enin	-671
ET	-672
▁dönem	-673
▁yet	-674
▁oyun	-675
erkez	-676
bol	-677
ocuk	-678
▁Haberleri	-679
▁söyledi	-680
lerine	-681
▁J	-682
▁İn	-683
iyas	-684
▁haf	-685
▁san	-686
ank	-687
▁15	-688
ekt	-689
▁dest	-690
nun	-691
▁den	-692
▁19	-693
▁iz	-694
▁ABD	-695
▁İl	-696
leştir	-697
işim	-698
doğan	-699
dur	-700
iliyor	-701
▁değer	-702
▁ayr	-703
azı	-704
▁birlik	-705
raf	-706
".	-707
▁duy	-708
lerde	-709
aret	-710
▁içinde	-711
cel	-712
rak	-713
esini	-714
▁yüks	-715
▁iyi	-716
lendir	-717
ika	-718
ulu	-719
▁yaptığı	-720
▁fark	-721
▁say	-722
▁ben	-723
▁tarih	-724
siz	-725
▁kam	-726
perasyon	-727
▁hayat	-728
maz	-729
▁kor	-730
▁der	-731
▁tem	-732
▁dış	-733
▁bas	-734
▁ko	-735
det	-736
ısı	-737
tür	-738
larında	-739
▁ediyor	-740
▁olay	-741
▁geldi	-742
daş	-743
▁şeh	-744
ilecek	-745
▁ok	-746
iyat	-747
layan	-748
▁vur	-749
üyor	-750
ilerin	-751
▁Mah	-752
▁iliş	-753
▁yay	-754
▁az	-755
▁ede	-756
▁bak	-757
▁İs	-758
cade	-759
lerinde	-760
▁haber	-761
▁şekil	-762
▁Erdoğan	-763
ig	-764
▁kişi	-765
taş	-766
ddi	-767
eki	-768
▁zor	-769
▁görüş	-770
▁Kar	-771
▁edildi	-772
lah	-773
▁çıkar	-774
yı	-775
▁tes	-776
▁Gazet	-777
▁güç	-778
ka	-779
asar	-780
▁ada	-781
▁haz	-782
larla	-783
▁bulunan	-784
▁im	-785
eyen	-786
ılık	-787
▁kim	-788
▁ağ	-789
ali	-790
▁takım	-791
ETÖ	-792
▁ki	-793
esinin	-794
ile	-795
eme	-796
▁9	-797
▁aş	-798
▁konuş	-799
▁eş	-800
▁Rus	-801
ülen	-802
▁açıklama	-803
▁tüm	-804
▁üzerine	-805
iştir	-806
▁mes	-807
▁polis	-808
▁dik	-809
bet	-810
▁operasyon	-811
▁şey	-812
▁bilg	-813
▁sat	-814
▁Avrup	-815
▁lir	-816
azla	-817
▁çocuk	-818
▁taş	-819
ağı	-820
ket	-821
▁şekilde	-822
anan	-823
▁hav	-824
ğimiz	-825
masına	-826
masını	-827
uv	-828
▁birlikte	-829
meye	-830
▁cez	-831
onom	-832
▁kes	-833
utbol	-834
lardan	-835
▁kan	-836
▁hakk	-837
üne	-838
▁ser	-839
▁Suriye	-840
▁dav	-841
iğer	-842
▁Gün	-843
▁seç	-844
▁verdi	-845
▁Or	-846
▁fazla	-847
▁hazır	-848
▁Cumhurbaş	-849
ov	-850
▁Bel	-851
ektör	-852
ğit	-853
▁Avrupa	-854
▁üst	-855
▁Son	-856
▁gen	-857
▁vatan	-858
ilik	-859
▁Bakan	-860
sel	-861
▁Par	-862
▁git	-863
▁Yıl	-864
▁Müdür	-865
▁hiç	-866
▁em	-867
kat	-868
▁Genel	-869
▁geçir	-870
▁2016	-871
▁ulaş	-872
▁destek	-873
mir	-874
alat	-875
iyon	-876
▁olacak	-877
▁konuştu	-878
▁olmak	-879
▁yür	-880
▁Bur	-881
▁Dün	-882
istem	-883
▁FETÖ	-884
▁mücade	-885
bar	-886
▁yaptı	-887
▁önc	-888
▁Kon	-889
▁kaç	-890
olo	-891
▁Mil	-892
liğ	-893
▁ask	-894
▁tel	-895
▁Gazetesi	-896
▁tama	-897
▁aynı	-898
adece	-899
lanan	-900
▁yapıl	-901
▁ekip	-902
20	-903
▁sayı	-904
ıcı	-905
▁bır	-906
lenen	-907
ide	-908
yan	-909
ret	-910
ahçe	-911
usunda	-912
ilmesi	-913
▁art	-914
alt	-915
▁kö	-916
KK	-917
▁ark	-918
ağını	-919
ulan	-920
▁darb	-921
tal	-922
landı	-923
est	-924
indeki	-925
▁iddi	-926
▁suç	-927
osy	-928
luk	-929
▁İş	-930
▁sahip	-931
▁oyn	-932
▁saldırı	-933
▁ya	-934
▁kazan	-935
likle	-936
▁dikkat	-937
sam	-938
ğitim	-939
▁Em	-940
▁harek	-941
▁kab	-942
▁bugün	-943
yi	-944
▁bırak	-945
▁te	-946
mıştı	-947
lığ	-948
▁bur	-949
▁fa	-950
▁sık	-951
edef	-952
ilah	-953
▁Beş	-954
▁muh	-955
▁dak	-956
ımı	-957
▁En	-958
gan	-959
ilece	-960
kara	-961
▁gön	-962
aları	-963
▁11	-964
▁vatandaş	-965
▁veya	-966
nda	-967
▁konu	-968
▁nedeniyle	-969
AR	-970
hal	-971
kü	-972
▁yapan	-973
▁Fen	-974
oloj	-975
),	-976
▁ortaya	-977
olu	-978
lantı	-979
ize	-980
mi	-981
▁diğer	-982
▁sistem	-983
▁yakın	-984
▁üzere	-985
▁kıs	-986
▁kez	-987
▁PKK	-988
▁çıktı	-989
kil	-990
▁kr	-991
▁yardım	-992
acağı	-993
iyoruz	-994
▁Bak	-995
▁Tem	-996
mer	-997
iktaş	-998
▁uç	-999
maları	-1000
izi	-1001
▁açıkla	-1002
▁hedef	-1003
larımız	-1004
▁TL	-1005
▁şu	-1006
▁tekn	-1007
▁şir	-1008
▁Has	-1009
▁başladı	-1010
muz	-1011
meler	-1012
asıl	-1013
ınız	-1014
ütün	-1015
AN	-1016
▁gerçekleştir	-1017
▁üy	-1018
▁devlet	-1019
imi	-1020
manın	-1021
▁edilen	-1022
bilir	-1023
▁As	-1024
▁futbol	-1025
▁isim	-1026
▁merkez	-1027
▁yaklaş	-1028
▁Tr	-1029
erbahçe	-1030
▁geçen	-1031
▁Ankara	-1032
mayı	-1033
▁içer	-1034
▁yatır	-1035
ök	-1036
larından	-1037
gı	-1038
▁Beşiktaş	-1039
ing	-1040
ri	-1041
▁olur	-1042
▁kapsam	-1043
yar	-1044
üküm	-1045
▁yas	-1046
eğ	-1047
▁sadece	-1048
▁Söz	-1049
▁Spor	-1050
▁0	-1051
▁millet	-1052
▁yönelik	-1053
çı	-1054
asaray	-1055
▁bazı	-1056
alatasaray	-1057
▁er	-1058
▁Cumhurbaşkanı	-1059
ezon	-1060
lak	-1061
▁sı	-1062
▁doğru	-1063
▁pay	-1064
▁aldı	-1065
undan	-1066
▁kend	-1067
▁W	-1068
▁Biz	-1069
▁Ben	-1070
▁kaldır	-1071
▁Ancak	-1072
▁kadın	-1073
▁siyas	-1074
çi	-1075
▁tutuk	-1076
gil	-1077
▁hast	-1078
okt	-1079
▁Yar	-1080
lüğü	-1081
ayan	-1082
niyet	-1083
▁proj	-1084
oş	-1085
▁sonu	-1086
▁düşün	-1087
spor	-1088
lük	-1089
▁Fenerbahçe	-1090
▁tamam	-1091
urt	-1092
▁Rusya	-1093
▁Ün	-1094
▁araç	-1095
▁Başkan	-1096
▁Başb	-1097
▁üç	-1098
osyal	-1099
anlı	-1100
▁Hal	-1101
▁günü	-1102
ılması	-1103
ehir	-1104
kı	-1105
medi	-1106
▁Ek	-1107
▁Ter	-1108
▁sonr	-1109
▁tab	-1110
▁plan	-1111
▁gönder	-1112
gel	-1113
kem	-1114
-1	-1115
ana	-1116
▁hafta	-1117
▁boy	-1118
eden	-1119
▁Galatasaray	-1120
mem	-1121
▁bildir	-1122
▁gol	-1123
abilir	-1124
▁görün	-1125
nak	-1126
omb	-1127
masının	-1128
▁200	-1129
vet	-1130
lerden	-1131
dav	-1132
lerinden	-1133
▁12	-1134
adaş	-1135
▁Cumhuriyet	-1136
isinde	-1137
üb	-1138
▁ik	-1139
▁yerine	-1140
ünün	-1141
van	-1142
▁uygu	-1143
eci	-1144
▁iht	-1145
asına	-1146
▁girişim	-1147
ivers	-1148
▁üzerinde	-1149
ust	-1150
▁değerlendir	-1151
▁Dev	-1152
▁dolar	-1153
iyorum	-1154
▁bit	-1155
ER	-1156
iversit	-1157
ahat	-1158
▁uyg	-1159
▁güvenlik	-1160
▁silah	-1161
cek	-1162
muş	-1163
endi	-1164
▁terörist	-1165
▁düny	-1166
gram	-1167
okr	-1168
izmet	-1169
▁nasıl	-1170
▁tah	-1171
▁gid	-1172
lerle	-1173
▁mey	-1174
▁yılında	-1175
▁lira	-1176
▁hareket	-1177
▁diy	-1178
▁yönetim	-1179
▁şöyle	-1180
üph	-1181
▁Dem	-1182
▁ilç	-1183
▁milyar	-1184
▁hakkında	-1185
▁şirket	-1186
▁pat	-1187
▁sezon	-1188
▁Alman	-1189
pr	-1190
▁süre	-1191
▁kız	-1192
▁hat	-1193
▁gazet	-1194
ınır	-1195
trol	-1196
ilere	-1197
▁anlaş	-1198
▁Meh	-1199
▁kil	-1200
▁sen	-1201
▁kır	-1202
dana	-1203
▁yüksek	-1204
orm	-1205
▁tal	-1206
las	-1207
▁işlem	-1208
eceğ	-1209
ılacak	-1210
▁çev	-1211
▁yanı	-1212
HP	-1213
aştır	-1214
▁kurul	-1215
▁değiş	-1216
rar	-1217
malı	-1218
sini	-1219
▁mut	-1220
istan	-1221
▁konusunda	-1222
▁Temmuz	-1223
▁Şub	-1224
▁Ama	-1225
kinci	-1226
leme	-1227
unları	-1228
▁dünya	-1229
▁oyuncu	-1230
▁bile	-1231
isyon	-1232
lesi	-1233
mayan	-1234
▁mücadele	-1235
amp	-1236
▁Es	-1237
ge	-1238
▁ancak	-1239
▁biri	-1240
▁yatırım	-1241
▁farklı	-1242
üç	-1243
ebilir	-1244
▁tedav	-1245
ilmiş	-1246
laya	-1247
▁yayın	-1248
▁açıklamada	-1249
.00	-1250
eniz	-1251
▁kontrol	-1252
▁met	-1253
aliyet	-1254
▁yaşındaki	-1255
uma	-1256
▁hız	-1257
▁olması	-1258
▁paylaş	-1259
▁arkadaş	-1260
▁Kom	-1261
▁kabul	-1262
▁soruştur	-1263
azar	-1264
▁mah	-1265
▁Mehmet	-1266
aj	-1267
üldü	-1268
ısında	-1269
▁tan	-1270
efon	-1271
ledi	-1272
ıca	-1273
üzel	-1274
▁darbe	-1275
▁ey	-1276
ümüz	-1277
▁tur	-1278
▁yönet	-1279
▁Tek	-1280
altına	-1281
▁başkan	-1282
▁Beled	-1283
▁iti	-1284
▁sağlık	-1285
afa	-1286
▁14	-1287
▁ekonom	-1288
▁böyle	-1289
▁geliş	-1290
▁genel	-1291
▁hizmet	-1292
etin	-1293
▁Başbakan	-1294
tin	-1295
▁katıl	-1296
tiği	-1297
mekte	-1298
lum	-1299
▁başka	-1300
▁oluştur	-1301
▁eğitim	-1302
▁bölüm	-1303
lerimiz	-1304
lendi	-1305
mey	-1306
▁Mar	-1307
▁ağır	-1308
min	-1309
duğu	-1310
▁Pro	-1311
▁Büyük	-1312
▁şehit	-1313
fer	-1314
▁ilişkin	-1315
mez	-1316
▁San	-1317
suz	-1318
▁asker	-1319
mişti	-1320
ğunu	-1321
▁2015	-1322
ça	-1323
▁bütün	-1324
ver	-1325
▁hes	-1326
üsü	-1327
▁Ko	-1328
▁uzun	-1329
▁Mahal	-1330
▁eski	-1331
▁Ad	-1332
tu	-1333
▁bab	-1334
▁Bakanı	-1335
çok	-1336
▁film	-1337
oğun	-1338
▁mo	-1339
▁13	-1340
oğraf	-1341
▁sınır	-1342
▁şüph	-1343
▁At	-1344
▁El	-1345
▁mi	-1346
gin	-1347
şam	-1348
▁bomb	-1349
▁Devlet	-1350
▁teş	-1351
▁olduk	-1352
▁toplantı	-1353
alarında	-1354
▁kapsamında	-1355
▁telefon	-1356
0'	-1357
▁savaş	-1358
▁tür	-1359
imdi	-1360
▁ün	-1361
arası	-1362
▁teh	-1363
tiğini	-1364
201	-1365
▁18	-1366
▁ber	-1367
ırken	-1368
akat	-1369
▁hep	-1370
▁med	-1371
▁Parti	-1372
obil	-1373
▁rağ	-1374
▁Tur	-1375
esiyle	-1376
ğın	-1377
uyla	-1378
▁yağ	-1379
▁büy	-1380
▁çalışan	-1381
acı	-1382
can	-1383
dem	-1384
▁ülkeler	-1385
▁bulunduğu	-1386
▁yüksel	-1387
▁kaybet	-1388
▁rağmen	-1389
▁gözaltına	-1390
▁rak	-1391
ışma	-1392
▁belirten	-1393
din	-1394
▁dir	-1395
▁koy	-1396
ışı	-1397
ıt	-1398
▁yen	-1399
▁men	-1400
▁Kan	-1401
▁Doğ	-1402
lim	-1403
asını	-1404
▁etki	-1405
▁seb	-1406
▁çalışmalar	-1407
▁Dünya	-1408
tep	-1409
▁17	-1410
deş	-1411
cağını	-1412
net	-1413
vek	-1414
▁Ah	-1415
sine	-1416
▁su	-1417
▁çıkan	-1418
tak	-1419
vur	-1420
▁hastan	-1421
ala	-1422
▁sok	-1423
▁yaşa	-1424
▁alınan	-1425
▁kişinin	-1426
▁Top	-1427
▁16	-1428
▁sürdür	-1429
▁Müdürlüğü	-1430
▁ait	-1431
▁tesp	-1432
▁örgütü	-1433
üc	-1434
kes	-1435
▁çöz	-1436
▁ail	-1437
▁dakik	-1438
▁kararı	-1439
siniz	-1440
▁la	-1441
▁genç	-1442
kın	-1443
anız	-1444
▁orta	-1445
lo	-1446
ani	-1447
larıyla	-1448
aha	-1449
▁25	-1450
mı	-1451
▁fiyat	-1452
sal	-1453
sil	-1454
▁etk	-1455
▁ziy	-1456
▁İz	-1457
erj	-1458
▁karşılaş	-1459
▁hüküm	-1460
azi	-1461
▁AK	-1462
▁fin	-1463
▁mev	-1464
▁istedi	-1465
▁yaklaşık	-1466
umu	-1467
ünkü	-1468
yen	-1469
ült	-1470
▁başar	-1471
▁sun	-1472
sin	-1473
▁gelir	-1474
ekli	-1475
▁mı	-1476
▁çağ	-1477
▁sektör	-1478
▁Merkez	-1479
▁başlat	-1480
▁ettiği	-1481
dırım	-1482
fa	-1483
▁Hav	-1484
uslar	-1485
▁Kay	-1486
▁sonuç	-1487
▁oluş	-1488
▁mad	-1489
▁öldür	-1490
ayet	-1491
▁bar	-1492
▁anla	-1493
▁bağlı	-1494
umuz	-1495
dül	-1496
▁Terör	-1497
▁beklen	-1498
▁Mahallesi	-1499
▁Sav	-1500
▁sab	-1501
▁Ab	-1502
▁konusu	-1503
ince	-1504
▁Ali	-1505
▁anlat	-1506
ici	-1507
▁hiçbir	-1508
▁etmek	-1509
madı	-1510
▁yaşan	-1511
▁tep	-1512
▁aldığı	-1513
▁altında	-1514
▁Ser	-1515
cısı	-1516
leyen	-1517
▁yaralan	-1518
tay	-1519
▁başvur	-1520
esel	-1521
▁ceza	-1522
▁mem	-1523
▁tespit	-1524
alet	-1525
eği	-1526
▁kom	-1527
▁incel	-1528
▁30	-1529
ari	-1530
▁ikinci	-1531
ılığı	-1532
▁hava	-1533
▁pu	-1534
▁sosyal	-1535
▁yürüt	-1536
▁program	-1537
masında	-1538
▁am	-1539
▁geri	-1540
amaz	-1541
▁bunu	-1542
unuyor	-1543
▁Sözcü	-1544
▁ihtiy	-1545
▁Yıldırım	-1546
▁Zaman	-1547
▁On	-1548
uslararası	-1549
▁güzel	-1550
▁imz	-1551
ültür	-1552
▁yeniden	-1553
ıyoruz	-1554
▁Kurulu	-1555
▁yaşam	-1556
lıyor	-1557
ladığı	-1558
▁taşı	-1559
apor	-1560
▁alındı	-1561
▁Os	-1562
asının	-1563
umlu	-1564
abz	-1565
enk	-1566
▁Bakanlığı	-1567
rub	-1568
▁para	-1569
otoğraf	-1570
▁Hak	-1571
üf	-1572
▁ateş	-1573
▁beraber	-1574
▁Gü	-1575
▁av	-1576
unca	-1577
▁din	-1578
▁birçok	-1579
▁İngil	-1580
▁un	-1581
▁Her	-1582
arp	-1583
ch	-1584
▁Dav	-1585
▁grup	-1586
▁dem	-1587
ustafa	-1588
▁itibar	-1589
▁Bay	-1590
▁Bil	-1591
▁savun	-1592
ampiyon	-1593
▁Üniversit	-1594
▁tanı	-1595
▁bizim	-1596
abzon	-1597
▁Kal	-1598
ayas	-1599
makta	-1600
▁müz	-1601
▁öde	-1602
od	-1603
ullah	-1604
▁engel	-1605
▁üret	-1606
▁Dr	-1607
üçük	-1608
▁Bunun	-1609
▁otom	-1610
▁öğrenc	-1611
▁anlam	-1612
▁Mustafa	-1613
▁Özel	-1614
▁artık	-1615
ej	-1616
▁Yön	-1617
▁ele	-1618
uvvet	-1619
▁Fran	-1620
lin	-1621
aban	-1622
leriyle	-1623
▁söy	-1624
▁Yeni	-1625
▁kayde	-1626
▁kamu	-1627
▁yine	-1628
▁veren	-1629
elim	-1630
ğa	-1631
▁kayb	-1632
▁per	-1633
▁res	-1634
▁Emniyet	-1635
▁mak	-1636
▁ülke	-1637
▁kullandı	-1638
ocu	-1639
erken	-1640
.5	-1641
duk	-1642
rans	-1643
▁dile	-1644
Bu	-1645
▁okul	-1646
▁bor	-1647
▁Lig	-1648
▁geçti	-1649
▁tart	-1650
nün	-1651
▁toplam	-1652
ni	-1653
▁üzerinden	-1654
laştır	-1655
▁hale	-1656
tif	-1657
▁belirtildi	-1658
AŞ	-1659
▁soru	-1660
▁şekl	-1661
▁dönüş	-1662
talya	-1663
▁yoğun	-1664
▁kı	-1665
▁rahat	-1666
işleri	-1667
mıştır	-1668
▁his	-1669
▁tük	-1670
▁sonrası	-1671
esinden	-1672
dın	-1673
▁Ne	-1674
▁Trabzon	-1675
▁oran	-1676
▁vurgu	-1677
▁Ahmet	-1678
lüğ	-1679
▁kardeş	-1680
inci	-1681
▁artır	-1682
▁hey	-1683
▁Gen	-1684
▁meydana	-1685
▁dolay	-1686
tiv	-1687
▁ses	-1688
ünden	-1689
▁tam	-1690
▁CHP	-1691
▁satış	-1692
▁ziyaret	-1693
▁anda	-1694
▁sorun	-1695
▁fotoğraf	-1696
br	-1697
▁Uz	-1698
-0	-1699
▁100	-1700
anıyor	-1701
▁Demir	-1702
▁sey	-1703
eyaz	-1704
pan	-1705
gen	-1706
▁kav	-1707
▁kurum	-1708
▁kısa	-1709
▁Per	-1710
▁istem	-1711
tem	-1712
▁bun	-1713
▁mağ	-1714
▁kaynak	-1715
uldu	-1716
▁for	-1717
▁mer	-1718
▁götür	-1719
▁belirtti	-1720
▁Sü	-1721
elerin	-1722
▁adım	-1723
▁ortak	-1724
▁Hastan	-1725
▁adam	-1726
uro	-1727
▁Der	-1728
▁Poli	-1729
▁bunun	-1730
ecli	-1731
▁içerisinde	-1732
▁zar	-1733
▁gerçekleş	-1734
▁araştır	-1735
▁medya	-1736
▁Ön	-1737
▁Yap	-1738
aspor	-1739
▁faaliyet	-1740
▁burada	-1741
akır	-1742
ektr	-1743
▁Almanya	-1744
of	-1745
ağa	-1746
izin	-1747
▁Amer	-1748
▁yaşanan	-1749
AL	-1750
AK	-1751
▁bank	-1752
▁bilin	-1753
▁Tar	-1754
ğında	-1755
▁madde	-1756
▁verdiği	-1757
▁ul	-1758
▁akşam	-1759
▁çevr	-1760
▁seçim	-1761
▁can	-1762
madan	-1763
ıntı	-1764
▁belirterek	-1765
▁Diy	-1766
eceği	-1767
▁otur	-1768
▁nokt	-1769
▁sıra	-1770
▁Muh	-1771
aların	-1772
▁müda	-1773
▁Kas	-1774
▁kaydet	-1775
▁edecek	-1776
▁cev	-1777
mektedir	-1778
▁Hol	-1779
elere	-1780
▁yakalan	-1781
▁verildi	-1782
▁sırasında	-1783
▁mesaj	-1784
▁21	-1785
▁dah	-1786
▁Geç	-1787
▁ekipleri	-1788
▁kit	-1789
▁hatır	-1790
meyi	-1791
▁ilişk	-1792
▁teknik	-1793
uyu	-1794
▁gi	-1795
▁İlk	-1796
▁puan	-1797
▁dil	-1798
▁trans	-1799
ukuk	-1800
▁fır	-1801
AT	-1802
mada	-1803
ören	-1804
▁kol	-1805
▁hayatını	-1806
▁Ör	-1807
▁basın	-1808
ga	-1809
▁kalan	-1810
ğinde	-1811
▁düzenlenen	-1812
▁Sağ	-1813
▁Osman	-1814
landır	-1815
ılıyor	-1816
ort	-1817
▁Mart	-1818
▁boz	-1819
etr	-1820
şehir	-1821
▁gelecek	-1822
▁futbolcu	-1823
▁Şubat	-1824
ğine	-1825
▁bah	-1826
▁fir	-1827
abancı	-1828
ale	-1829
ıldığı	-1830
▁Az	-1831
mesini	-1832
okras	-1833
▁toplum	-1834
▁Deniz	-1835
▁uzak	-1836
ilerine	-1837
▁kent	-1838
▁sonucu	-1839
.,	-1840
İN	-1841
mızı	-1842
▁pr	-1843
siyon	-1844
▁Milli	-1845
eştir	-1846
▁oluyor	-1847
▁mu	-1848
uluk	-1849
▁Bar	-1850
sinin	-1851
▁Millet	-1852
▁eylem	-1853
yle	-1854
-2	-1855
mar	-1856
layacak	-1857
▁ayında	-1858
eral	-1859
▁man	-1860
lek	-1861
▁Üniversitesi	-1862
▁özellikle	-1863
alarda	-1864
üncü	-1865
ton	-1866
▁22	-1867
▁24	-1868
▁Ey	-1869
▁dönemde	-1870
▁Böl	-1871
▁takip	-1872
▁gerekiyor	-1873
▁dol	-1874
▁ürün	-1875
▁sevk	-1876
gın	-1877
▁Daha	-1878
▁olsun	-1879
▁herkes	-1880
2016	-1881
teki	-1882
▁giy	-1883
meden	-1884
▁Bank	-1885
▁yapılacak	-1886
ova	-1887
▁üretim	-1888
▁Ocak	-1889
▁İzmir	-1890
ii	-1891
▁Can	-1892
▁kapat	-1893
ivil	-1894
dak	-1895
▁inş	-1896
Türk	-1897
▁Sal	-1898
▁yaptık	-1899
▁sırada	-1900
▁yapıldı	-1901
sunuz	-1902
▁öğrenildi	-1903
sik	-1904
▁ce	-1905
▁sanat	-1906
su	-1907
▁çat	-1908
gür	-1909
ğim	-1910
▁üc	-1911
tığını	-1912
▁diyor	-1913
▁boş	-1914
müş	-1915
▁müdahal	-1916
ternet	-1917
▁yor	-1918
diler	-1919
▁Hay	-1920
tım	-1921
▁Kara	-1922
▁aktar	-1923
▁kaydetti	-1924
▁Gök	-1925
▁indir	-1926
ilerinin	-1927
ınca	-1928
▁yandan	-1929
EN	-1930
▁devr	-1931
sın	-1932
▁halk	-1933
▁duyur	-1934
▁olabilir	-1935
for	-1936
kün	-1937
iyesi	-1938
▁Kor	-1939
▁uygula	-1940
ıda	-1941
▁mal	-1942
▁benz	-1943
▁ihra	-1944
▁yurt	-1945
▁Li	-1946
▁yem	-1947
▁benim	-1948
▁spor	-1949
▁piyas	-1950
▁geliyor	-1951
İL	-1952
do	-1953
▁pazar	-1954
▁ara	-1955
▁ölüm	-1956
▁şeklinde	-1957
elen	-1958
▁gal	-1959
▁siyasi	-1960
▁Güven	-1961
erji	-1962
▁yıllık	-1963
lif	-1964
▁Olay	-1965
▁dair	-1966
▁Ev	-1967
▁Ayr	-1968
ünüyor	-1969
▁tat	-1970
▁bay	-1971
ser	-1972
▁rek	-1973
aba	-1974
▁aday	-1975
▁temsil	-1976
▁yapmak	-1977
▁Su	-1978
▁kas	-1979
sat	-1980
▁değişik	-1981
▁terc	-1982
▁çocu	-1983
▁yapıyor	-1984
▁altına	-1985
▁çalışma	-1986
▁otomobil	-1987
▁çarp	-1988
▁değiştir	-1989
eyin	-1990
taki	-1991
düğ	-1992
▁kesin	-1993
▁isteyen	-1994
▁cid	-1995
ğin	-1996
.'	-1997
▁Çünkü	-1998
▁Yardım	-1999
▁çif	-2000
▁günde	-2001
yız	-2002
▁han	-2003
eza	-2004
▁Tay	-2005
eg	-2006
miyor	-2007
▁bulunuyor	-2008
▁cin	-2009
▁diz	-2010
▁ederek	-2011
altı	-2012
unuz	-2013
▁lider	-2014
▁çiz	-2015
lamak	-2016
ayın	-2017
▁Do	-2018
şı	-2019
oloji	-2020
▁yana	-2021
▁Fet	-2022
▁başarı	-2023
alama	-2024
ılıç	-2025
▁Irak	-2026
▁ann	-2027
▁müm	-2028
▁yetkil	-2029
▁DE	-2030
isinin	-2031
▁uçak	-2032
▁sahibi	-2033
▁cen	-2034
▁arac	-2035
▁Dış	-2036
▁tekrar	-2037
▁sar	-2038
ört	-2039
▁50	-2040
▁dok	-2041
▁kir	-2042
nik	-2043
▁edil	-2044
dikleri	-2045
dıkları	-2046
ilerini	-2047
uzey	-2048
▁Kür	-2049
▁Br	-2050
▁23	-2051
izm	-2052
▁DA	-2053
düğü	-2054
erli	-2055
kır	-2056
▁gec	-2057
▁alıyor	-2058
▁Fat	-2059
▁mümkün	-2060
▁tercih	-2061
liyor	-2062
▁mens	-2063
erbest	-2064
ola	-2065
yip	-2066
▁bölgede	-2067
▁tartış	-2068
eşit	-2069
utan	-2070
▁Tak	-2071
▁tav	-2072
▁Ot	-2073
▁Kul	-2074
▁kork	-2075
eceğiz	-2076
▁gece	-2077
ent	-2078
▁Man	-2079
AB	-2080
▁iddia	-2081
▁şunları	-2082
▁önceki	-2083
jan	-2084
▁dakika	-2085
▁adet	-2086
▁artış	-2087
eceğini	-2088
aşa	-2089
ula	-2090
▁kolay	-2091
▁Bugün	-2092
diklerini	-2093
▁hap	-2094
▁dışında	-2095
▁Yılmaz	-2096
▁politik	-2097
▁dakikada	-2098
▁kaldı	-2099
og	-2100
alim	-2101
▁bilgi	-2102
▁edilm	-2103
▁Ayrıca	-2104
▁sit	-2105
ileceği	-2106
ump	-2107
redi	-2108
▁1.	-2109
▁Aralık	-2110
▁giriş	-2111
▁sivil	-2112
▁soruşturma	-2113
esin	-2114
▁Gül	-2115
▁seviy	-2116
lerce	-2117
dük	-2118
▁Mecli	-2119
▁rapor	-2120
▁zamanda	-2121
▁ris	-2122
▁mode	-2123
tim	-2124
▁Kad	-2125
YD	-2126
▁Allah	-2127
one	-2128
▁inan	-2129
▁kadro	-2130
▁küçük	-2131
▁elektr	-2132
izyon	-2133
▁muhal	-2134
▁transfer	-2135
abı	-2136
meyen	-2137
imizin	-2138
▁tepki	-2139
▁zarar	-2140
▁askeri	-2141
▁halinde	-2142
ileceğini	-2143
elerde	-2144
alım	-2145
acağız	-2146
▁talep	-2147
▁sayıda	-2148
30	-2149
▁Genç	-2150
mesine	-2151
arbakır	-2152
mat	-2153
▁koş	-2154
▁Har	-2155
▁Davut	-2156
▁Kılıç	-2157
▁it	-2158
▁sak	-2159
▁geliştir	-2160
▁net	-2161
▁organ	-2162
▁Ok	-2163
▁kuruluş	-2164
dam	-2165
▁Euro	-2166
vekili	-2167
dum	-2168
▁Dur	-2169
▁olmadığını	-2170
emal	-2171
isini	-2172
▁hemen	-2173
▁getirdi	-2174
etmen	-2175
▁Mahkem	-2176
▁Yönetim	-2177
çesi	-2178
▁İç	-2179
utlu	-2180
nek	-2181
▁Sel	-2182
▁başlayan	-2183
osu	-2184
▁açıl	-2185
▁gereken	-2186
▁İran	-2187
ami	-2188
▁Gazi	-2189
üst	-2190
▁şah	-2191
kenin	-2192
erson	-2193
▁ücret	-2194
▁internet	-2195
EŞ	-2196
manı	-2197
▁çağr	-2198
▁amacı	-2199
▁uygun	-2200
▁Trabzonspor	-2201
ğına	-2202
▁Ekonom	-2203
cılık	-2204
▁Diyarbakır	-2205
▁İşte	-2206
▁açıkladı	-2207
▁kalk	-2208
▁tehdi	-2209
▁birbir	-2210
▁tedavi	-2211
▁köy	-2212
▁yanında	-2213
ij	-2214
▁sayısı	-2215
▁yaşayan	-2216
▁tr	-2217
▁ettik	-2218
▁vardı	-2219
▁önünde	-2220
▁Ul	-2221
▁Kasım	-2222
ısından	-2223
",	-2224
hangi	-2225
▁eleştir	-2226
aten	-2227
ınav	-2228
aşı	-2229
lül	-2230
▁Bun	-2231
İD	-2232
rek	-2233
▁oğ	-2234
▁öne	-2235
▁gerektiğini	-2236
▁şid	-2237
adan	-2238
iyatı	-2239
▁taraftar	-2240
▁hesap	-2241
▁Davutoğlu	-2242
▁başına	-2243
maktadır	-2244
▁kah	-2245
isan	-2246
▁hen	-2247
▁yapı	-2248
▁ciddi	-2249
masıyla	-2250
▁eder	-2251
▁olab	-2252
▁durumda	-2253
▁itibaren	-2254
IN	-2255
arken	-2256
▁Ceza	-2257
▁Gülen	-2258
▁teklif	-2259
▁Aç	-2260
▁traf	-2261
▁boyunca	-2262
dim	-2263
▁Ül	-2264
adolu	-2265
ayasa	-2266
tur	-2267
▁sürec	-2268
▁izin	-2269
▁Af	-2270
FA	-2271
▁Mur	-2272
▁Çin	-2273
zı	-2274
▁Ber	-2275
▁dolayı	-2276
▁görüntü	-2277
▁sabah	-2278
▁hukuk	-2279
▁Haz	-2280
▁Sar	-2281
lamaya	-2282
▁adına	-2283
▁Şeh	-2284
▁olmaya	-2285
▁kayded	-2286
▁ifadelerini	-2287
cağız	-2288
▁şart	-2289
▁çeşit	-2290
▁olmayan	-2291
▁edece	-2292
elerinin	-2293
▁söyleyen	-2294
▁ayak	-2295
ildiği	-2296
▁iste	-2297
lediği	-2298
ısıyla	-2299
▁Val	-2300
▁Ligi	-2301
▁Hat	-2302
▁laz	-2303
▁ner	-2304
▁yük	-2305
▁erk	-2306
emiz	-2307
▁elde	-2308
▁serbest	-2309
ete	-2310
AS	-2311
▁adlı	-2312
OR	-2313
kaç	-2314
ğiniz	-2315
efer	-2316
▁mik	-2317
▁oyunc	-2318
▁Hastanesi	-2319
rubu	-2320
▁Anadolu	-2321
oh	-2322
ba	-2323
▁Kö	-2324
▁ora	-2325
▁adı	-2326
▁faiz	-2327
▁etkin	-2328
cat	-2329
▁Oy	-2330
ber	-2331
▁Bey	-2332
▁uluslararası	-2333
bay	-2334
▁28	-2335
▁Yun	-2336
▁başla	-2337
▁mas	-2338
DP	-2339
▁Çok	-2340
okrat	-2341
ısına	-2342
▁Süper	-2343
▁büyüm	-2344
▁başında	-2345
desi	-2346
sak	-2347
▁düştü	-2348
,5	-2349
lemek	-2350
ast	-2351
▁ayrı	-2352
▁Gör	-2353
▁cenaz	-2354
▁tasar	-2355
ecep	-2356
▁arasındaki	-2357
▁karış	-2358
ısını	-2359
▁yabancı	-2360
sta	-2361
▁Prof	-2362
▁2014	-2363
▁Antalya	-2364
taj	-2365
▁yat	-2366
▁eşi	-2367
▁Kaz	-2368
▁zorunda	-2369
▁düşünüyor	-2370
▁Eğitim	-2371
▁verilen	-2372
▁şark	-2373
▁Ağ	-2374
tere	-2375
▁bana	-2376
▁istiyor	-2377
dıklarını	-2378
▁mark	-2379
▁araya	-2380
▁çözüm	-2381
▁Koç	-2382
ılmış	-2383
▁Orta	-2384
▁Recep	-2385
asıyla	-2386
▁bize	-2387
SK	-2388
alara	-2389
▁şimdi	-2390
▁kurtar	-2391
▁sig	-2392
lilik	-2393
▁Sağlık	-2394
▁Tayyip	-2395
▁İst	-2396
▁şehir	-2397
mıyor	-2398
▁Müdürü	-2399
ahim	-2400
üman	-2401
isine	-2402
▁parç	-2403
▁ilet	-2404
▁geniş	-2405
▁görül	-2406
acağını	-2407
he	-2408
▁tic	-2409
▁ayrıca	-2410
▁herhangi	-2411
cil	-2412
Türkiye	-2413
▁belli	-2414
▁Yardımcısı	-2415
oktor	-2416
▁istih	-2417
abilecek	-2418
▁süreç	-2419
▁Kır	-2420
▁konuda	-2421
▁onun	-2422
▁pek	-2423
darma	-2424
▁Belediye	-2425
▁karşısında	-2426
▁dep	-2427
ilerek	-2428
liğini	-2429
▁ha	-2430
▁haft	-2431
meleri	-2432
▁yarat	-2433
▁sonunda	-2434
▁kötü	-2435
▁katıldı	-2436
▁Güvenlik	-2437
▁500	-2438
▁40	-2439
▁ünlü	-2440
▁güçlü	-2441
▁sin	-2442
▁saatlerinde	-2443
iğ	-2444
dek	-2445
diş	-2446
▁27	-2447
▁iler	-2448
▁ödül	-2449
iliği	-2450
▁tören	-2451
▁yıldı	-2452
▁tarihi	-2453
▁teslim	-2454
İR	-2455
▁kut	-2456
▁şik	-2457
▁mült	-2458
▁Mus	-2459
▁Örgüt	-2460
▁sokak	-2461
▁milli	-2462
▁hastalık	-2463
▁lazım	-2464
▁sağlan	-2465
▁Polis	-2466
▁parti	-2467
▁taleb	-2468
▁ülkenin	-2469
▁mez	-2470
▁Şen	-2471
▁dünyanın	-2472
ant	-2473
ere	-2474
lüyor	-2475
▁Dışişleri	-2476
▁avuk	-2477
▁temiz	-2478
ucu	-2479
▁Böyle	-2480
▁Alt	-2481
amaya	-2482
▁resmi	-2483
ısının	-2484
kur	-2485
▁Ol	-2486
▁May	-2487
▁cevap	-2488
har	-2489
▁199	-2490
diğini	-2491
▁Kemal	-2492
▁mahkem	-2493
▁şampiyon	-2494
▁alış	-2495
▁şiddet	-2496
▁nedenle	-2497
▁İslam	-2498
▁uygulan	-2499
▁erkek	-2500
▁Ma	-2501
▁düşür	-2502
▁hükümet	-2503
▁belg	-2504
▁sol	-2505
atürk	-2506
▁durumu	-2507
▁açıklamalar	-2508
▁yaralı	-2509
▁ilçesinde	-2510
cisi	-2511
eşil	-2512
▁poz	-2513
▁kayıt	-2514
▁alacak	-2515
IR	-2516
birliği	-2517
▁yılda	-2518
macı	-2519
▁dahil	-2520
tör	-2521
lında	-2522
▁bakan	-2523
▁yarış	-2524
menin	-2525
▁Sarı	-2526
liy	-2527
▁kurt	-2528
▁Murat	-2529
ilmek	-2530
▁Kap	-2531
sav	-2532
▁ileri	-2533
▁maçında	-2534
▁Bah	-2535
antep	-2536
▁ip	-2537
liye	-2538
▁ana	-2539
▁oyna	-2540
▁durdur	-2541
ebek	-2542
▁temel	-2543
▁sonrasında	-2544
▁taz	-2545
▁Yüks	-2546
▁yöntem	-2547
nden	-2548
meli	-2549
▁demokras	-2550
ŞİD	-2551
▁Birliği	-2552
üyle	-2553
▁Nisan	-2554
▁part	-2555
▁çift	-2556
ündeki	-2557
▁işaret	-2558
▁26	-2559
▁yapacak	-2560
uml	-2561
▁risk	-2562
▁Yak	-2563
▁rol	-2564
▁İki	-2565
▁tehdit	-2566
▁dışı	-2567
▁Şimdi	-2568
▁person	-2569
50	-2570
emi	-2571
▁duruş	-2572
EM	-2573
artesi	-2574
elerinde	-2575
gü	-2576
▁uğr	-2577
▁Sul	-2578
▁kaf	-2579
▁tehlik	-2580
▁HDP	-2581
▁öner	-2582
forman	-2583
▁galib	-2584
▁İngiltere	-2585
UR	-2586
▁Şah	-2587
▁maçı	-2588
▁yansı	-2589
mesinin	-2590
▁ettiğini	-2591
▁almak	-2592
▁Kam	-2593
▁Suriy	-2594
▁mesel	-2595
▁bilgiye	-2596
▁başarılı	-2597
imize	-2598
▁kans	-2599
▁Cumhurbaşkan	-2600
üğ	-2601
▁Bin	-2602
▁Zir	-2603
▁Trump	-2604
▁sözleş	-2605
ime	-2606
abet	-2607
▁göç	-2608
▁yılı	-2609
evizyon	-2610
▁kilo	-2611
▁amacıyla	-2612
keme	-2613
▁olm	-2614
▁giden	-2615
▁Sam	-2616
▁yanıt	-2617
▁Cad	-2618
▁ülkede	-2619
lış	-2620
ndan	-2621
ES	-2622
▁2.	-2623
▁arada	-2624
▁türlü	-2625
▁açı	-2626
amız	-2627
▁ham	-2628
▁siz	-2629
▁Aydın	-2630
▁tarihinde	-2631
eyle	-2632
▁onu	-2633
▁sınav	-2634
deniz	-2635
▁Atatürk	-2636
sanız	-2637
▁Fatih	-2638
▁getiren	-2639
▁bildirildi	-2640
▁Dir	-2641
▁gez	-2642
▁Kürt	-2643
▁kredi	-2644
▁Merkezi	-2645
▁yorum	-2646
▁iy	-2647
uvar	-2648
▁kart	-2649
sızlık	-2650
imizi	-2651
▁canlı	-2652
▁hızlı	-2653
▁yaptır	-2654
▁yık	-2655
ekk	-2656
▁Mayıs	-2657
▁düzey	-2658
▁katkı	-2659
dağ	-2660
▁29	-2661
▁ted	-2662
▁henüz	-2663
▁gazetec	-2664
fes	-2665
▁gitti	-2666
▁görüyor	-2667
çak	-2668
neği	-2669
etrol	-2670
▁IŞİD	-2671
▁model	-2672
▁ortam	-2673
▁özgür	-2674
▁İlçesi	-2675
▁DAEŞ	-2676
▁Mer	-2677
▁fay	-2678
▁list	-2679
▁PYD	-2680
▁gide	-2681
▁yemek	-2682
▁kişiler	-2683
EL	-2684
ve	-2685
▁giz	-2686
▁isimli	-2687
▁kültür	-2688
▁ihtiyaç	-2689
▁Gaziantep	-2690
▁açısından	-2691
pek	-2692
madığı	-2693
▁Fransa	-2694
▁kendisine	-2695
▁galibiyet	-2696
inç	-2697
▁sarı	-2698
layıcı	-2699
▁Müs	-2700
▁Sin	-2701
▁Sor	-2702
ayla	-2703
ormal	-2704
▁maçta	-2705
▁ediliyor	-2706
elerini	-2707
▁sistemi	-2708
▁performan	-2709
İT	-2710
▁ir	-2711
▁diyen	-2712
elerine	-2713
▁3.	-2714
iyah	-2715
tepe	-2716
umsuz	-2717
▁aylık	-2718
▁kilom	-2719
▁memur	-2720
▁Kuvvet	-2721
▁emniyet	-2722
▁ekonomik	-2723
5'	-2724
▁Jan	-2725
başı	-2726
▁çeken	-2727
layarak	-2728
▁anlattı	-2729
▁elektrik	-2730
▁rej	-2731
▁amaç	-2732
rik	-2733
üle	-2734
lığını	-2735
▁düşük	-2736
▁sebeb	-2737
▁yılın	-2738
to	-2739
▁Fed	-2740
▁kamer	-2741
med	-2742
▁Kup	-2743
EK	-2744
▁nok	-2745
▁Ham	-2746
ladık	-2747
liler	-2748
İY	-2749
evi	-2750
avuş	-2751
▁Cen	-2752
▁üyesi	-2753
daroğlu	-2754
lanıyor	-2755
▁Mahkemesi	-2756
▁atan	-2757
▁kulüb	-2758
▁Şu	-2759
▁vak	-2760
▁unut	-2761
▁doğal	-2762
▁Ekonomi	-2763
ydı	-2764
▁Sab	-2765
▁sığın	-2766
▁derece	-2767
AD	-2768
adem	-2769
▁azal	-2770
asyonu	-2771
çev	-2772
ıyla	-2773
▁İnsan	-2774
luğu	-2775
▁sıkıntı	-2776
gun	-2777
▁gören	-2778
▁sebep	-2779
lacak	-2780
doğu	-2781
▁Güney	-2782
▁siyaset	-2783
▁olmadığı	-2784
ena	-2785
▁Sok	-2786
▁giren	-2787
▁anlatan	-2788
▁çeşitli	-2789
usal	-2790
asından	-2791
alarının	-2792
▁imza	-2793
▁istik	-2794
.2016	-2795
▁önlem	-2796
▁St	-2797
▁ab	-2798
▁çer	-2799
▁sıcak	-2800
ücü	-2801
rail	-2802
miştir	-2803
▁fiyatı	-2804
▁veriyor	-2805
be	-2806
set	-2807
▁Ve	-2808
▁acı	-2809
▁civ	-2810
▁dört	-2811
▁diyerek	-2812
gaz	-2813
▁Futbol	-2814
▁konuşan	-2815
dal	-2816
▁nit	-2817
▁konut	-2818
▁görüşmeler	-2819
onu	-2820
▁kür	-2821
▁olsa	-2822
▁yerde	-2823
▁öğretmen	-2824
▁Ob	-2825
ağım	-2826
▁akıl	-2827
dip	-2828
▁Kim	-2829
yaspor	-2830
▁yıldır	-2831
▁Burada	-2832
▁öncesi	-2833
▁Osmanlı	-2834
▁bes	-2835
▁çerçev	-2836
▁söylüyor	-2837
▁Kılıçdaroğlu	-2838
İK	-2839
masından	-2840
▁biraz	-2841
▁uzman	-2842
▁Hava	-2843
▁Gel	-2844
▁ikti	-2845
▁gerekir	-2846
ağına	-2847
▁finans	-2848
▁otob	-2849
▁yani	-2850
▁gider	-2851
▁Çocuk	-2852
▁birkaç	-2853
sed	-2854
▁Ch	-2855
▁Açık	-2856
▁başta	-2857
▁hapis	-2858
▁Dak	-2859
▁mensup	-2860
▁şüphel	-2861
ıldığını	-2862
?"	-2863
LAR	-2864
fet	-2865
▁st	-2866
▁Meclis	-2867
gör	-2868
uar	-2869
▁Bas	-2870
▁olup	-2871
anak	-2872
▁tec	-2873
▁ekran	-2874
▁çekti	-2875
▁soruml	-2876
larca	-2877
▁yarın	-2878
▁aralarında	-2879
tıyor	-2880
▁beni	-2881
▁Başsav	-2882
eyn	-2883
▁num	-2884
▁enerji	-2885
▁sürekli	-2886
▁çalışıyor	-2887
▁Kız	-2888
▁Öte	-2889
lardır	-2890
▁Eylül	-2891
ndeki	-2892
sınız	-2893
▁kriz	-2894
▁buna	-2895
▁eğ	-2896
▁Bor	-2897
▁doğr	-2898
xx	-2899
ışık	-2900
raman	-2901
▁sene	-2902
▁önüne	-2903
alarını	-2904
iran	-2905
pany	-2906
nız	-2907
▁yal	-2908
▁Sosyal	-2909
▁üniversit	-2910
▁cih	-2911
▁Halep	-2912
▁İngiliz	-2913
▁yaşadığı	-2914
cut	-2915
şem	-2916
▁31	-2917
▁Ekim	-2918
▁arama	-2919
▁girdi	-2920
▁gösterdi	-2921
▁günlerde	-2922
▁tahmin	-2923
▁bekleniyor	-2924
▁Kat	-2925
▁ces	-2926
▁rakam	-2927
▁etkili	-2928
▁yarg	-2929
▁doktor	-2930
oca	-2931
udi	-2932
▁hayata	-2933
▁kuvvet	-2934
▁işlet	-2935
son	-2936
▁Hüs	-2937
▁dal	-2938
ümüzdeki	-2939
ST	-2940
▁yanlış	-2941
▁tutuklandı	-2942
▁Yaş	-2943
olojik	-2944
▁mahal	-2945
brahim	-2946
▁Yunan	-2947
▁Güncel	-2948
▁geçmiş	-2949
▁gerekli	-2950
▁değildir	-2951
vis	-2952
▁Tu	-2953
▁Yani	-2954
▁alanda	-2955
▁Araştır	-2956
ON	-2957
▁Bul	-2958
▁Çal	-2959
arında	-2960
mam	-2961
▁Bal	-2962
▁Van	-2963
▁görevli	-2964
andır	-2965
▁yazılı	-2966
AY	-2967
▁Fa	-2968
▁Sev	-2969
▁Tel	-2970
lüman	-2971
▁hangi	-2972
▁Amerika	-2973
bo	-2974
ğur	-2975
▁yarar	-2976
.1	-2977
AM	-2978
err	-2979
▁hakim	-2980
▁döneminde	-2981
▁dö	-2982
▁Sen	-2983
▁um	-2984
▁Yüksek	-2985
▁Bölg	-2986
▁bizi	-2987
▁uyar	-2988
mel	-2989
eyim	-2990
▁bomba	-2991
▁Hollan	-2992
▁dayan	-2993
▁tüket	-2994
▁Adana	-2995
▁sayesinde	-2996
ıma	-2997
▁Caddesi	-2998
▁yerinde	-2999
ku	-3000
geç	-3001
▁meş	-3002
▁ihracat	-3003
▁kitap	-3004
▁gerekç	-3005
meni	-3006
▁vaz	-3007
▁ilan	-3008
lenmesi	-3009
▁2017	-3010
▁sert	-3011
▁tedbir	-3012
abiliyor	-3013
▁Özellikle	-3014
ED	-3015
▁Tüm	-3016
ulması	-3017
▁nokta	-3018
▁vardır	-3019
▁karşılık	-3020
▁öyle	-3021
▁geçiş	-3022
▁davran	-3023
▁Fetullah	-3024
oda	-3025
▁Ken	-3026
▁Nur	-3027
▁haline	-3028
▁Göz	-3029
demir	-3030
▁Teknik	-3031
▁olumsuz	-3032
▁cep	-3033
▁müş	-3034
▁bildirdi	-3035
▁yardımcı	-3036
luğ	-3037
▁yönetic	-3038
lal	-3039
▁Tab	-3040
▁yere	-3041
▁Bizim	-3042
▁edilmesi	-3043
▁oluşan	-3044
ona	-3045
matik	-3046
▁Ömer	-3047
ayi	-3048
▁lig	-3049
▁Dakika	-3050
▁şüpheli	-3051
▁personel	-3052
▁Mes	-3053
▁str	-3054
▁incelem	-3055
atif	-3056
▁amel	-3057
▁itir	-3058
maması	-3059
▁esn	-3060
emin	-3061
▁DEAŞ	-3062
▁kendisini	-3063
▁beled	-3064
ümü	-3065
lanacak	-3066
▁söyley	-3067
▁hastalı	-3068
▁Han	-3069
▁sona	-3070
sen	-3071
cılı	-3072
▁yıldız	-3073
▁Eğer	-3074
▁buluş	-3075
▁Eş	-3076
duğunu	-3077
▁altın	-3078
fi	-3079
▁olmaz	-3080
▁hüc	-3081
▁bakım	-3082
ildiğini	-3083
▁tamamen	-3084
▁Kr	-3085
▁ıs	-3086
sinde	-3087
esindeki	-3088
▁yaşında	-3089
alarına	-3090
▁beri	-3091
▁günlük	-3092
▁etkisiz	-3093
▁İbrahim	-3094
▁demek	-3095
▁Amerik	-3096
▁Belediyesi	-3097
▁ders	-3098
ren	-3099
cılığı	-3100
anış	-3101
▁Kendi	-3102
ow	-3103
emey	-3104
erim	-3105
ğust	-3106
BM	-3107
alel	-3108
▁ruh	-3109
▁çab	-3110
irken	-3111
▁kalp	-3112
▁karak	-3113
Ben	-3114
▁Haberler	-3115
dası	-3116
▁Mal	-3117
▁def	-3118
▁etkil	-3119
▁kesim	-3120
▁kaydedildi	-3121
▁Güneş	-3122
▁Şehit	-3123
▁İsrail	-3124
▁(2	-3125
▁Kı	-3126
▁Uy	-3127
etik	-3128
▁baz	-3129
▁kuş	-3130
▁yav	-3131
▁kulüp	-3132
▁sonuc	-3133
▁süren	-3134
▁cezası	-3135
3'	-3136
za	-3137
ırı	-3138
sında	-3139
ğının	-3140
mayacak	-3141
▁plak	-3142
▁Grubu	-3143
ke	-3144
gar	-3145
sur	-3146
▁Bankası	-3147
▁Kültür	-3148
lamen	-3149
▁attı	-3150
ğan	-3151
▁mot	-3152
▁Aynı	-3153
▁kaybetti	-3154
ekkür	-3155
ektörü	-3156
▁Müslüman	-3157
▁yarı	-3158
▁final	-3159
▁zaten	-3160
lanması	-3161
▁bö	-3162
▁Çelik	-3163
ışmalar	-3164
uc	-3165
▁Buna	-3166
▁ediyorum	-3167
▁bede	-3168
▁yayım	-3169
dalı	-3170
▁zir	-3171
▁Obama	-3172
unma	-3173
▁Şampiyon	-3174
▁anne	-3175
▁merak	-3176
▁çocuğ	-3177
▁silahlı	-3178
apı	-3179
engin	-3180
lasyon	-3181
▁yolcu	-3182
▁babası	-3183
▁dağı	-3184
▁tesi	-3185
▁Kupası	-3186
abir	-3187
▁kıy	-3188
ğustos	-3189
▁Yapılan	-3190
▁kendini	-3191
türk	-3192
▁belirlendi	-3193
▁davet	-3194
▁Hüseyin	-3195
▁olduğuna	-3196
▁Boz	-3197
▁Gür	-3198
▁2015'	-3199
▁yapıla	-3200
air	-3201
▁ağr	-3202
▁beş	-3203
▁kapı	-3204
▁yargı	-3205
▁Derneği	-3206
▁televizyon	-3207
PG	-3208
wit	-3209
tiler	-3210
sizlik	-3211
▁Sokak	-3212
▁hesab	-3213
▁durumunda	-3214
▁dost	-3215
alimanı	-3216
▁dışarı	-3217
▁Aş	-3218
uzur	-3219
▁tali	-3220
ımızın	-3221
▁avukat	-3222
▁toprak	-3223
yum	-3224
▁çıkış	-3225
▁mar	-3226
▁yüzden	-3227
paşa	-3228
▁Geçen	-3229
▁Kadın	-3230
▁bağım	-3231
▁kullandığı	-3232
emez	-3233
▁Çağ	-3234
vekil	-3235
▁prot	-3236
▁MHP	-3237
▁,	-3238
oto	-3239
▁Batı	-3240
mail	-3241
espor	-3242
▁yaralandı	-3243
mut	-3244
tren	-3245
ınıf	-3246
▁zam	-3247
▁orada	-3248
▁bundan	-3249
▁oldukça	-3250
▁gösteren	-3251
ımızı	-3252
▁Yas	-3253
amak	-3254
etre	-3255
ılır	-3256
ıldız	-3257
▁Bunu	-3258
▁borç	-3259
▁dava	-3260
▁miktar	-3261
▁petrol	-3262
madığını	-3263
▁çalışmaları	-3264
▁aile	-3265
EFA	-3266
yalı	-3267
▁hik	-3268
atör	-3269
▁Bab	-3270
▁Büyükşehir	-3271
düğünü	-3272
▁dünyada	-3273
▁Hasan	-3274
İM	-3275
▁fik	-3276
ciler	-3277
▁Yor	-3278
▁idar	-3279
▁güncel	-3280
▁teşekkür	-3281
barat	-3282
▁edin	-3283
▁kims	-3284
lamada	-3285
▁fırsat	-3286
oğu	-3287
▁otel	-3288
▁mevcut	-3289
▁35	-3290
▁Şube	-3291
bur	-3292
süz	-3293
▁çey	-3294
▁Emre	-3295
▁geril	-3296
ker	-3297
▁Vak	-3298
lılık	-3299
▁normal	-3300
▁pozisyon	-3301
.0	-3302
▁Mad	-3303
▁gay	-3304
▁alarak	-3305
gr	-3306
▁enf	-3307
▁bitir	-3308
dat	-3309
ite	-3310
▁Mo	-3311
▁Hem	-3312
▁krit	-3313
▁du	-3314
▁of	-3315
▁sanık	-3316
ilmişti	-3317
▁gündem	-3318
▁j	-3319
▁Kurt	-3320
▁yalnız	-3321
▁Suriyeli	-3322
▁Albay	-3323
ebilecek	-3324
▁Komutan	-3325
▁başvuru	-3326
▁Jandarma	-3327
▁Başkanlığı	-3328
▁BM	-3329
▁hâ	-3330
▁edeb	-3331
eksiyon	-3332
▁hazırlık	-3333
▁Uluslararası	-3334
duğ	-3335
ham	-3336
▁Vol	-3337
▁örnek	-3338
An	-3339
▁UEFA	-3340
▁Mücade	-3341
▁Sultan	-3342
▁muhalif	-3343
▁değişiklik	-3344
ÜR	-3345
▁60	-3346
▁ona	-3347
▁başken	-3348
yo	-3349
siy	-3350
ınan	-3351
witter	-3352
▁derin	-3353
▁yapılması	-3354
▁öden	-3355
lığına	-3356
allah	-3357
▁hakem	-3358
▁oda	-3359
▁gündeme	-3360
▁In	-3361
▁Yan	-3362
▁mek	-3363
iyeti	-3364
eyazlı	-3365
▁olmadı	-3366
▁verilm	-3367
▁edildiği	-3368
▁girişimi	-3369
inc	-3370
kor	-3371
barı	-3372
▁ölç	-3373
panya	-3374
▁heyec	-3375
▁çıkıyor	-3376
▁Bursa	-3377
▁insanların	-3378
pp	-3379
uluyor	-3380
▁Çavuş	-3381
▁müdahale	-3382
▁teknoloj	-3383
▁trafik	-3384
his	-3385
imde	-3386
▁Sah	-3387
▁ekibi	-3388
▁Ağustos	-3389
▁yum	-3390
▁barış	-3391
▁mağdur	-3392
▁olumlu	-3393
▁vermek	-3394
PD	-3395
▁Re	-3396
ding	-3397
▁Sayın	-3398
▁müdür	-3399
▁yasak	-3400
▁Örgütü	-3401
▁şikayet	-3402
▁başkanlık	-3403
▁Fer	-3404
▁Hüküm	-3405
▁detay	-3406
▁hatta	-3407
res	-3408
inizi	-3409
▁deniz	-3410
▁ihtim	-3411
▁kuzey	-3412
elç	-3413
▁yerleş	-3414
▁insanlar	-3415
▁Milletvekili	-3416
▁po	-3417
▁İh	-3418
urken	-3419
▁forma	-3420
anet	-3421
onya	-3422
larım	-3423
car	-3424
yanın	-3425
▁nerede	-3426
▁işç	-3427
cılar	-3428
▁renk	-3429
▁cihaz	-3430
▁isten	-3431
▁yola	-3432
▁ilaç	-3433
mediği	-3434
▁mutlu	-3435
▁Samsun	-3436
liğe	-3437
ımıza	-3438
▁yürüy	-3439
bek	-3440
itir	-3441
iydi	-3442
lasman	-3443
çeli	-3444
âr	-3445
▁patlayıcı	-3446
ze	-3447
üstü	-3448
▁erken	-3449
▁namaz	-3450
▁sürede	-3451
▁geldiği	-3452
▁geçtiğimiz	-3453
▁Tan	-3454
▁diş	-3455
▁tip	-3456
▁ordu	-3457
aka	-3458
▁Oğ	-3459
ınar	-3460
▁sakat	-3461
▁müs	-3462
▁İnş	-3463
siyle	-3464
ğinin	-3465
▁ekib	-3466
go	-3467
▁defa	-3468
▁etmesi	-3469
Biz	-3470
gisi	-3471
lığa	-3472
▁Bağ	-3473
▁Tun	-3474
▁mutlak	-3475
▁Müz	-3476
▁pas	-3477
ğiz	-3478
blem	-3479
▁Mev	-3480
ırnak	-3481
mur	-3482
▁sefer	-3483
▁Ka	-3484
▁hain	-3485
▁Şahin	-3486
▁verecek	-3487
AH	-3488
ahmet	-3489
▁Hakan	-3490
▁içeri	-3491
▁metre	-3492
▁katılım	-3493
▁düzenlem	-3494
▁düzenlen	-3495
ücu	-3496
▁bölge	-3497
▁TV	-3498
▁Kulüb	-3499
büs	-3500
malıdır	-3501
▁İsmail	-3502
▁ediyoruz	-3503
▁tutuklan	-3504
▁getirildi	-3505
▁vurgulayan	-3506
ban	-3507
▁le	-3508
▁öğ	-3509
▁grub	-3510
▁Fakat	-3511
cüsü	-3512
▁peş	-3513
▁tas	-3514
▁şar	-3515
▁yapma	-3516
▁sürüyor	-3517
▁kanser	-3518
▁Anayasa	-3519
▁Abd	-3520
▁ilgi	-3521
▁kamp	-3522
▁sınıf	-3523
▁çevir	-3524
▁Kah	-3525
▁kaçır	-3526
▁rejim	-3527
▁yitir	-3528
▁yıllarda	-3529
▁kullanıcı	-3530
▁Ara	-3531
▁New	-3532
▁mis	-3533
▁Şir	-3534
etici	-3535
masın	-3536
▁maliyet	-3537
▁yaparak	-3538
larımızın	-3539
▁Mücadele	-3540
2'	-3541
BMM	-3542
ons	-3543
▁Haziran	-3544
ia	-3545
edeki	-3546
▁Doğan	-3547
▁ambul	-3548
▁kanal	-3549
▁hayal	-3550
▁müzik	-3551
nan	-3552
▁not	-3553
▁sahn	-3554
▁düşen	-3555
▁neler	-3556
kr	-3557
▁bey	-3558
▁biç	-3559
ulmuş	-3560
▁Bazı	-3561
▁anlay	-3562
▁aslında	-3563
▁Komisyon	-3564
-3	-3565
▁ert	-3566
▁kup	-3567
▁eser	-3568
▁düşüş	-3569
▁ettir	-3570
ilendir	-3571
▁istiyorum	-3572
▁kullanılan	-3573
slan	-3574
muştu	-3575
▁bilim	-3576
▁huzur	-3577
par	-3578
▁(1	-3579
▁olacağını	-3580
AP	-3581
ılım	-3582
▁endiş	-3583
▁Cumhuriyeti	-3584
zi	-3585
▁nak	-3586
▁varsa	-3587
atej	-3588
▁Cam	-3589
▁Peki	-3590
▁rakip	-3591
ilirken	-3592
liğinde	-3593
▁kişilik	-3594
▁kaybeden	-3595
▁ölü	-3596
▁yolu	-3597
▁eksik	-3598
▁karşıya	-3599
uncu	-3600
▁oranı	-3601
▁Yal	-3602
▁unsur	-3603
▁altını	-3604
▁taşıyan	-3605
▁Film	-3606
kurmay	-3607
▁kayıp	-3608
▁merkezi	-3609
ene	-3610
deri	-3611
▁birim	-3612
▁dünyaya	-3613
▁katılan	-3614
▁kırmızı	-3615
▁çıkacak	-3616
8'	-3617
rem	-3618
ult	-3619
çuk	-3620
▁Fır	-3621
▁don	-3622
lenme	-3623
▁Doğu	-3624
▁aşağı	-3625
▁içine	-3626
▁tatil	-3627
okratik	-3628
ekiz	-3629
▁güc	-3630
▁küresel	-3631
ğe	-3632
rüb	-3633
▁ayır	-3634
▁kişilerin	-3635
anam	-3636
▁300	-3637
▁Bat	-3638
▁ameliyat	-3639
abilirsiniz	-3640
▁36	-3641
utin	-3642
anlar	-3643
▁emek	-3644
▁yolc	-3645
▁Sanat	-3646
▁Bayram	-3647
▁Tıp	-3648
▁müh	-3649
▁dokun	-3650
▁halde	-3651
sına	-3652
▁alma	-3653
▁ulaştı	-3654
▁muhabir	-3655
▁problem	-3656
▁milletvekil	-3657
▁gaz	-3658
▁çap	-3659
▁Benim	-3660
ko	-3661
▁Twitter	-3662
ati	-3663
mit	-3664
seri	-3665
ilerden	-3666
▁etmeye	-3667
▁civarında	-3668
sas	-3669
▁cam	-3670
elerle	-3671
▁2016'	-3672
▁Altın	-3673
Bir	-3674
sim	-3675
ital	-3676
▁Cem	-3677
lardı	-3678
▁TBMM	-3679
▁çünkü	-3680
▁gelişmeler	-3681
mediğini	-3682
▁bağlantı	-3683
▁yapmaya	-3684
yım	-3685
▁İsv	-3686
▁yargılan	-3687
▁kilometre	-3688
▁Havalimanı	-3689
▁De	-3690
▁Gö	-3691
aket	-3692
▁pil	-3693
▁Üst	-3694
ıyorum	-3695
▁operasyonda	-3696
lamaz	-3697
▁depr	-3698
▁üçüncü	-3699
▁Genelkurmay	-3700
▁gerekçesiyle	-3701
mede	-3702
ester	-3703
▁Hakk	-3704
liğine	-3705
▁inşaat	-3706
iber	-3707
▁sem	-3708
ersin	-3709
▁proje	-3710
▁istiyoruz	-3711
▁yerleştir	-3712
lâ	-3713
tılı	-3714
estiv	-3715
▁Arab	-3716
▁Pazar	-3717
▁Gökhan	-3718
▁Fin	-3719
▁Kıs	-3720
lanma	-3721
iyatro	-3722
▁deplasman	-3723
▁Muham	-3724
▁alına	-3725
▁vuruş	-3726
▁lideri	-3727
▁yoktur	-3728
▁198	-3729
▁Yen	-3730
▁oğlu	-3731
▁Diğer	-3732
▁uyarı	-3733
▁şarkı	-3734
▁emekli	-3735
▁iktidar	-3736
▁dolarlık	-3737
▁yürütülen	-3738
▁Den	-3739
ersiz	-3740
ılmaz	-3741
▁yakalandı	-3742
,1	-3743
gül	-3744
ağının	-3745
▁vazgeç	-3746
▁hatırlat	-3747
onal	-3748
▁ade	-3749
▁turist	-3750
▁büt	-3751
ündem	-3752
▁Eski	-3753
▁Harek	-3754
▁hafif	-3755
▁kamuoy	-3756
ou	-3757
rim	-3758
▁soğ	-3759
▁Kuzey	-3760
▁öngör	-3761
general	-3762
▁başlan	-3763
hat	-3764
▁34	-3765
▁Ger	-3766
▁baskı	-3767
iyer	-3768
▁Taş	-3769
▁yıla	-3770
▁başkanı	-3771
▁sıralarında	-3772
▁90	-3773
▁Darb	-3774
▁görüldü	-3775
▁döv	-3776
▁soy	-3777
▁park	-3778
▁yavaş	-3779
▁Sadece	-3780
▁mutlaka	-3781
kiş	-3782
üler	-3783
▁Başak	-3784
▁oynan	-3785
▁satın	-3786
▁Kurumu	-3787
▁yapımı	-3788
▁Yunanistan	-3789
ikat	-3790
▁Arena	-3791
▁numar	-3792
▁sonuna	-3793
▁hastaneye	-3794
▁sığınmacı	-3795
osk	-3796
▁45	-3797
▁Öğr	-3798
▁otobüs	-3799
▁özellik	-3800
▁direktör	-3801
▁vatandaşlar	-3802
eker	-3803
laşma	-3804
dıktan	-3805
▁annesi	-3806
▁kaldırıldı	-3807
ond	-3808
akar	-3809
▁Yüz	-3810
▁alk	-3811
▁tuz	-3812
▁Vatan	-3813
mesiyle	-3814
meyecek	-3815
▁belirlen	-3816
ıf	-3817
▁sorgu	-3818
▁Car	-3819
▁Sür	-3820
▁dök	-3821
laması	-3822
▁ilişki	-3823
▁uygulama	-3824
▁çerçevesinde	-3825
▁iptal	-3826
▁nüf	-3827
▁Konya	-3828
LI	-3829
▁zengin	-3830
▁kampany	-3831
,2	-3832
LER	-3833
▁red	-3834
cilik	-3835
lığın	-3836
▁etme	-3837
▁açıldı	-3838
▁Yol	-3839
▁ref	-3840
▁topu	-3841
▁savunma	-3842
▁Sh	-3843
enek	-3844
▁pen	-3845
▁onların	-3846
lığının	-3847
▁ortadan	-3848
▁sonucunda	-3849
ansı	-3850
▁Hep	-3851
▁Proj	-3852
▁güçleri	-3853
▁yönünde	-3854
İZ	-3855
ubay	-3856
▁yapar	-3857
liyoruz	-3858
mesinde	-3859
▁32	-3860
▁asıl	-3861
elikle	-3862
▁mağlu	-3863
.00'	-3864
rika	-3865
▁şaş	-3866
▁şans	-3867
▁saygı	-3868
nu	-3869
say	-3870
vert	-3871
▁şif	-3872
usuna	-3873
,9	-3874
.4	-3875
1'	-3876
▁iP	-3877
sını	-3878
▁Cuma	-3879
▁kalit	-3880
▁kaydeden	-3881
▁sağlıklı	-3882
▁boğ	-3883
▁Kaya	-3884
▁kazandı	-3885
▁mahkeme	-3886
▁Kuvvetleri	-3887
▁gösteriyor	-3888
soy	-3889
mayın	-3890
▁köpr	-3891
▁yeri	-3892
▁vide	-3893
▁Volkan	-3894
▁İtalya	-3895
▁yaptığını	-3896
bi	-3897
▁YPG	-3898
▁izley	-3899
▁Holding	-3900
düm	-3901
ımda	-3902
▁antren	-3903
▁Araştırma	-3904
▁Operasyon	-3905
▁müt	-3906
▁saç	-3907
▁Şim	-3908
▁yazı	-3909
▁vergi	-3910
ılmasına	-3911
▁geldiğini	-3912
▁yaptıkları	-3913
cının	-3914
tern	-3915
▁AKP	-3916
▁Le	-3917
keti	-3918
▁malz	-3919
alandır	-3920
▁açılış	-3921
▁vade	-3922
▁alanı	-3923
▁seyir	-3924
▁muhalef	-3925
fı	-3926
yu	-3927
▁Kil	-3928
utanı	-3929
civert	-3930
▁2016,	-3931
larımızı	-3932
▁şeyi	-3933
▁Yeşil	-3934
▁hayvan	-3935
larındaki	-3936
rı	-3937
ây	-3938
▁dağ	-3939
▁oku	-3940
lanmış	-3941
▁ülkem	-3942
▁attığı	-3943
malarını	-3944
▁gar	-3945
iklet	-3946
isyen	-3947
▁aracı	-3948
▁buldu	-3949
▁derec	-3950
▁etmiş	-3951
▁benzer	-3952
▁ederken	-3953
▁istediği	-3954
▁başlayacak	-3955
▁önümüzdeki	-3956
▁İd	-3957
▁İyi	-3958
▁doğum	-3959
▁mültec	-3960
▁yönetimi	-3961
▁Sa	-3962
▁asla	-3963
▁bilgiler	-3964
iği	-3965
amadı	-3966
▁sorumlu	-3967
gal	-3968
vik	-3969
▁And	-3970
▁fil	-3971
▁Ağır	-3972
mızılı	-3973
esiz	-3974
oman	-3975
▁Çetin	-3976
▁evinde	-3977
▁bilinen	-3978
▁ambulans	-3979
abak	-3980
izik	-3981
▁bal	-3982
▁derb	-3983
▁Karşı	-3984
▁olmuş	-3985
▁sorunu	-3986
onik	-3987
▁Suudi	-3988
▁korun	-3989
landığı	-3990
▁takımın	-3991
▁Naz	-3992
▁diren	-3993
▁bat	-3994
▁altı	-3995
▁kısm	-3996
ülüyor	-3997
maların	-3998
▁olursa	-3999
▁süreci	-4000
▁edilecek	-4001
bu	-4002
yer	-4003
ülü	-4004
estor	-4005
▁Feder	-4006
▁bebek	-4007
▁ister	-4008
▁olduklarını	-4009
:00	-4010
▁Et	-4011
ğünü	-4012
▁sel	-4013
veriş	-4014
▁imkan	-4015
▁krizi	-4016
▁rekor	-4017
▁yağış	-4018
▁İkinci	-4019
▁bulutlu	-4020
▁demokrasi	-4021
mal	-4022
tarı	-4023
▁terk	-4024
▁memnun	-4025
▁Şırnak	-4026
▁alanında	-4027
amet	-4028
raki	-4029
aladı	-4030
▁Port	-4031
▁baba	-4032
▁mutl	-4033
▁bugüne	-4034
▁kaldığı	-4035
rag	-4036
yse	-4037
leniyor	-4038
▁genelinde	-4039
▁Üç	-4040
ekim	-4041
▁yaşandı	-4042
▁kendilerine	-4043
▁Jo	-4044
hone	-4045
▁Sta	-4046
▁Yet	-4047
▁yiy	-4048
emesi	-4049
▁alıp	-4050
tiğimiz	-4051
▁iletişim	-4052
▁rahatsız	-4053
▁ton	-4054
bette	-4055
manız	-4056
▁Uzun	-4057
▁imha	-4058
▁kara	-4059
▁yerli	-4060
▁Adalet	-4061
▁görülen	-4062
▁vurguladı	-4063
▁düşünüyorum	-4064
ina	-4065
▁koşul	-4066
mür	-4067
emen	-4068
illi	-4069
▁size	-4070
▁konum	-4071
▁şeyler	-4072
DA	-4073
DI	-4074
ira	-4075
rid	-4076
kiler	-4077
▁skor	-4078
▁yasa	-4079
acılık	-4080
▁gördü	-4081
▁açılan	-4082
▁bunlar	-4083
▁denildi	-4084
▁Güm	-4085
▁Mel	-4086
▁Bütün	-4087
▁ayrıl	-4088
▁tanım	-4089
▁cinsel	-4090
▁yeterli	-4091
▁harekete	-4092
.30	-4093
şık	-4094
▁kimse	-4095
▁kimlik	-4096
▁bölgesinde	-4097
▁Di	-4098
▁fak	-4099
▁Ordu	-4100
▁evde	-4101
tıkları	-4102
▁hisset	-4103
▁desteği	-4104
▁stratej	-4105
are	-4106
ele	-4107
zan	-4108
▁Mey	-4109
▁arz	-4110
▁Silah	-4111
▁taban	-4112
beyazlı	-4113
▁etkilen	-4114
▁Ro	-4115
indi	-4116
iyan	-4117
▁Arap	-4118
▁açtı	-4119
▁yazar	-4120
▁yerel	-4121
▁operasyonu	-4122
▁inşa	-4123
▁gizli	-4124
▁tazmin	-4125
▁biliyor	-4126
▁bunların	-4127
DE	-4128
▁Gir	-4129
▁Direktörü	-4130
▁açıklaması	-4131
▁70	-4132
▁nö	-4133
▁App	-4134
▁dolu	-4135
umartesi	-4136
kim	-4137
iyiz	-4138
▁gördük	-4139
▁Komutanlığı	-4140
HA	-4141
isay	-4142
▁olacağı	-4143
po	-4144
▁belki	-4145
▁yapmış	-4146
▁hakaret	-4147
▁binlerce	-4148
▁yaralanan	-4149
9'	-4150
▁%	-4151
▁Ver	-4152
▁alty	-4153
▁maaş	-4154
dikten	-4155
▁Sonra	-4156
▁kuruş	-4157
▁salon	-4158
▁yurtdı	-4159
▁Belediy	-4160
▁Böylece	-4161
▁ticaret	-4162
liğin	-4163
▁Kons	-4164
▁odak	-4165
▁çıkart	-4166
▁ortalama	-4167
▁arkasında	-4168
▁Mu	-4169
▁kaçak	-4170
▁siyah	-4171
▁liraya	-4172
▁sanatçı	-4173
▁bulunduğunu	-4174
kar	-4175
▁min	-4176
▁vit	-4177
▁tecrüb	-4178
▁anlamda	-4179
▁işbirliği	-4180
▁belirtilen	-4181
nam	-4182
▁Ha	-4183
▁ah	-4184
▁Nec	-4185
▁Belç	-4186
▁Karab	-4187
tığımız	-4188
▁80	-4189
▁bı	-4190
kale	-4191
▁Köpr	-4192
▁kapas	-4193
▁takımı	-4194
▁Hiç	-4195
▁Tic	-4196
▁işi	-4197
▁cami	-4198
▁vücu	-4199
▁endek	-4200
▁yapacağı	-4201
▁tık	-4202
usunu	-4203
▁Uzman	-4204
▁kazandır	-4205
▁toplantısında	-4206
▁KO	-4207
ever	-4208
emedi	-4209
▁Savunma	-4210
▁ifadesini	-4211
ash	-4212
kray	-4213
orta	-4214
neğin	-4215
▁Dolay	-4216
▁birinci	-4217
▁oynanan	-4218
▁seyahat	-4219
▁yaşamını	-4220
▁Ege	-4221
▁Çev	-4222
imizde	-4223
▁güney	-4224
▁istis	-4225
▁gidiyor	-4226
▁gem	-4227
▁Putin	-4228
ruk	-4229
leşme	-4230
muyor	-4231
▁Kart	-4232
▁sayf	-4233
▁önde	-4234
▁Sinan	-4235
▁evine	-4236
▁işada	-4237
▁çıkma	-4238
UN	-4239
▁Ef	-4240
▁rö	-4241
▁ayı	-4242
▁Arda	-4243
▁cezaev	-4244
▁doldur	-4245
▁kendisi	-4246
▁Arabistan	-4247
afer	-4248
▁Halk	-4249
▁aşırı	-4250
▁Yıldız	-4251
▁giderek	-4252
▁sonraki	-4253
UL	-4254
dun	-4255
▁gur	-4256
▁kop	-4257
▁Asya	-4258
▁dahi	-4259
▁Ödül	-4260
▁hakkı	-4261
7'	-4262
io	-4263
akanı	-4264
▁Dair	-4265
▁Musul	-4266
liğinin	-4267
▁büyüme	-4268
▁yenil	-4269
▁çağır	-4270
▁çıkardı	-4271
▁Un	-4272
▁alb	-4273
▁bür	-4274
▁düğ	-4275
▁Burs	-4276
▁Grup	-4277
▁sine	-4278
emeyen	-4279
▁Bunlar	-4280
▁Selçuk	-4281
lev	-4282
▁koru	-4283
▁Kulübü	-4284
▁Kayseri	-4285
▁değişim	-4286
▁Başakşehir	-4287
uluğ	-4288
▁Düz	-4289
▁eyalet	-4290
iya	-4291
rum	-4292
▁Erz	-4293
▁Yav	-4294
laşık	-4295
ulmaz	-4296
▁ismi	-4297
▁olun	-4298
elikop	-4299
ayıf	-4300
ezil	-4301
lili	-4302
▁keş	-4303
▁tesis	-4304
▁kurulan	-4305
▁haberine	-4306
▁eve	-4307
▁sap	-4308
▁süt	-4309
ıştır	-4310
ğinden	-4311
▁Paris	-4312
▁yalan	-4313
▁bölgeye	-4314
▁indirim	-4315
▁medyada	-4316
▁mülteci	-4317
▁süredir	-4318
PDY	-4319
FETÖ	-4320
▁mor	-4321
▁adli	-4322
▁Apple	-4323
ğanüstü	-4324
▁metrek	-4325
ebiliyor	-4326
lil	-4327
▁zirv	-4328
ürr	-4329
▁Tor	-4330
ülent	-4331
▁dolara	-4332
▁iPhone	-4333
▁alınması	-4334
▁edeceğiz	-4335
▁açıklandı	-4336
▁çatışmalar	-4337
▁tez	-4338
▁psik	-4339
undaki	-4340
▁konuk	-4341
▁servis	-4342
▁başlıyor	-4343
▁katıldığı	-4344
▁fon	-4345
▁Aziz	-4346
▁Toto	-4347
▁iade	-4348
▁onlar	-4349
▁sürücü	-4350
▁yapılıyor	-4351
▁Q	-4352
▁Orman	-4353
▁cumhur	-4354
▁bunları	-4355
▁Amerikan	-4356
▁İlçe	-4357
▁kapalı	-4358
▁kişiyi	-4359
▁sahada	-4360
▁sokağa	-4361
ink	-4362
▁Tah	-4363
▁dip	-4364
▁Küçük	-4365
▁yapım	-4366
▁düşünc	-4367
▁Albayrak	-4368
-4	-4369
idin	-4370
▁Tabii	-4371
▁sizin	-4372
▁yakal	-4373
▁bekliyor	-4374
▁çalıştır	-4375
▁öncesinde	-4376
▁Dolayısıyla	-4377
▁Jap	-4378
▁hır	-4379
▁istif	-4380
▁Mersin	-4381
▁takdir	-4382
,8	-4383
▁Se	-4384
▁Suç	-4385
▁cil	-4386
▁adeta	-4387
▁Bülent	-4388
▁dikkati	-4389
▁örgütün	-4390
AC	-4391
yıl	-4392
book	-4393
maat	-4394
urum	-4395
▁tüf	-4396
erbay	-4397
▁stan	-4398
▁test	-4399
amazan	-4400
▁inanıyor	-4401
alisyon	-4402
▁başlattı	-4403
▁devletin	-4404
tek	-4405
ihan	-4406
▁Madrid	-4407
larımıza	-4408
lerimizi	-4409
▁çatışma	-4410
▁hazırlanan	-4411
▁Bo	-4412
▁Sey	-4413
▁Turan	-4414
▁Ukray	-4415
▁Men	-4416
▁Kurul	-4417
▁bağlan	-4418
▁teşvik	-4419
▁olmasına	-4420
▁sağlamak	-4421
ağın	-4422
tisi	-4423
▁beğ	-4424
▁hac	-4425
▁kem	-4426
enler	-4427
lıkla	-4428
sının	-4429
ıyorlar	-4430
▁Birleş	-4431
▁Öztürk	-4432
6'	-4433
ag	-4434
▁kıl	-4435
tacak	-4436
▁inti	-4437
▁uçuş	-4438
ılarak	-4439
▁boyut	-4440
▁akıllı	-4441
▁halkın	-4442
▁ihtiyac	-4443
▁saldırıda	-4444
TI	-4445
eysel	-4446
cebook	-4447
▁ödeme	-4448
▁onları	-4449
EC	-4450
▁CE	-4451
abil	-4452
memiş	-4453
Gündem	-4454
▁itibarı	-4455
▁temsilc	-4456
▁Bek	-4457
latan	-4458
ilerle	-4459
▁üstün	-4460
▁noktada	-4461
elerinden	-4462
tıklarını	-4463
▁güçlendir	-4464
▁üzerindeki	-4465
elt	-4466
ubu	-4467
şembe	-4468
▁motor	-4469
▁istihdam	-4470
▁yapıldığı	-4471
OK	-4472
▁09	-4473
matı	-4474
▁Fak	-4475
ordin	-4476
▁kısı	-4477
▁tane	-4478
lemeye	-4479
izasyon	-4480
▁anayasa	-4481
▁karakter	-4482
teri	-4483
▁üye	-4484
▁Tekn	-4485
isayar	-4486
▁futbolc	-4487
,4	-4488
ss	-4489
iir	-4490
▁eg	-4491
imin	-4492
▁Res	-4493
▁Saldır	-4494
otiv	-4495
▁arka	-4496
▁duyg	-4497
▁Denizli	-4498
bin	-4499
isa	-4500
▁4.	-4501
▁ez	-4502
▁Herk	-4503
▁Takım	-4504
▁ayrıldı	-4505
ock	-4506
▁sız	-4507
▁Oğuz	-4508
▁Avust	-4509
▁ilişkiler	-4510
▁sayısının	-4511
▁İk	-4512
kaya	-4513
▁Tat	-4514
▁Yargı	-4515
lığında	-4516
▁Ortadoğu	-4517
İŞ	-4518
dev	-4519
▁2013	-4520
▁Akın	-4521
▁Uğur	-4522
▁yerini	-4523
▁Fransız	-4524
▁plakalı	-4525
şe	-4526
danı	-4527
▁Haf	-4528
ürken	-4529
▁dosy	-4530
▁temas	-4531
▁suçundan	-4532
ân	-4533
▁şub	-4534
oskova	-4535
▁Enerji	-4536
▁restor	-4537
azartesi	-4538
▁götürüldü	-4539
▁olacaktır	-4540
form	-4541
▁Maç	-4542
▁Çar	-4543
▁edip	-4544
▁mekan	-4545
▁toplu	-4546
elerden	-4547
▁kişiye	-4548
▁terörle	-4549
▁herkesin	-4550
▁kullanan	-4551
▁vatandaşların	-4552
cer	-4553
ong	-4554
usuf	-4555
▁Say	-4556
▁Siv	-4557
▁Onun	-4558
▁aray	-4559
▁deng	-4560
▁Karak	-4561
▁ihlal	-4562
▁Binali	-4563
▁kurulu	-4564
▁Abdullah	-4565
▁Başbakanı	-4566
OL	-4567
hi	-4568
▁197	-4569
▁Köy	-4570
itesi	-4571
▁kanı	-4572
▁prim	-4573
▁güneş	-4574
▁almaya	-4575
▁yaparken	-4576
örü	-4577
▁Go	-4578
umak	-4579
▁Boğ	-4580
▁ism	-4581
istik	-4582
▁acil	-4583
▁avan	-4584
▁İddi	-4585
▁anlaşma	-4586
▁yükseldi	-4587
▁gerçekten	-4588
▁çocukların	-4589
rin	-4590
şek	-4591
▁Am	-4592
▁şok	-4593
▁Fırat	-4594
▁hayır	-4595
▁etkisi	-4596
▁göçmen	-4597
▁çalışması	-4598
▁Başsavcılığı	-4599
ÜN	-4600
▁33	-4601
ücut	-4602
▁Siz	-4603
▁aşk	-4604
▁yeme	-4605
ğimizi	-4606
▁beyaz	-4607
▁ilçesi	-4608
▁kritik	-4609
▁Bahçeli	-4610
▁çocuklar	-4611
▁Karadeniz	-4612
▁insanları	-4613
AZ	-4614
köy	-4615
▁jan	-4616
ağında	-4617
▁bedel	-4618
▁sürpr	-4619
▁Belçika	-4620
▁helikop	-4621
▁içindeki	-4622
İH	-4623
▁onay	-4624
▁doğrult	-4625
▁güvenli	-4626
▁Komutanı	-4627
▁istihbarat	-4628
yak	-4629
▁(3	-4630
▁dar	-4631
▁işe	-4632
erbaycan	-4633
▁patlama	-4634
▁protest	-4635
▁olmasını	-4636
▁örgütünün	-4637
▁gözy	-4638
▁Sabah	-4639
▁balık	-4640
▁düşman	-4641
▁oynadığı	-4642
▁paylaşım	-4643
,3	-4644
▁serg	-4645
▁Tarih	-4646
▁adını	-4647
▁haberi	-4648
▁çalıştı	-4649
▁beklenen	-4650
.3	-4651
SY	-4652
-201	-4653
▁Nus	-4654
▁Pat	-4655
hisar	-4656
▁Artık	-4657
▁belediye	-4658
çu	-4659
hane	-4660
sinden	-4661
▁savcı	-4662
▁taşın	-4663
▁kamyon	-4664
▁ticari	-4665
▁Moskova	-4666
▁duyurdu	-4667
▁oldukları	-4668
▁"1	-4669
inen	-4670
ısır	-4671
faiye	-4672
▁kızı	-4673
leyman	-4674
▁Hayat	-4675
▁hızla	-4676
▁Dündar	-4677
▁çıktığı	-4678
▁Facebook	-4679
▁aldığını	-4680
▁ihtiyacı	-4681
▁Komisyonu	-4682
cra	-4683
▁TSK	-4684
▁komş	-4685
▁avantaj	-4686
▁enflasyon	-4687
▁id	-4688
lücü	-4689
▁vir	-4690
ijital	-4691
lamadı	-4692
▁azalt	-4693
latform	-4694
▁süreçte	-4695
▁sağlayan	-4696
▁alışveriş	-4697
▁teknoloji	-4698
ron	-4699
▁Far	-4700
müyor	-4701
▁Yusuf	-4702
▁maçın	-4703
▁denetim	-4704
▁Bursaspor	-4705
▁yatırımcı	-4706
ebilirsiniz	-4707
▁ac	-4708
lıklı	-4709
▁umut	-4710
▁Ünlü	-4711
▁Ramazan	-4712
▁müsabak	-4713
lab	-4714
▁ef	-4715
uman	-4716
▁beb	-4717
▁York	-4718
▁aykır	-4719
▁turizm	-4720
▁tutuklu	-4721
▁doğrudan	-4722
▁gerçekleşti	-4723
gre	-4724
▁hoc	-4725
ukarı	-4726
▁İpek	-4727
▁bıçak	-4728
▁kural	-4729
▁yasal	-4730
▁zanlı	-4731
▁görmek	-4732
▁değerli	-4733
▁sebebiyle	-4734
yal	-4735
▁hala	-4736
usunun	-4737
▁gecesi	-4738
▁Ticaret	-4739
▁kazanan	-4740
▁üyeleri	-4741
ılıp	-4742
▁hatt	-4743
▁duygu	-4744
▁Arslan	-4745
ilerinden	-4746
▁belirlenen	-4747
▁itibarıyla	-4748
,7	-4749
yken	-4750
ndaki	-4751
ındır	-4752
▁Vakfı	-4753
▁tüketim	-4754
▁başkenti	-4755
▁istediğini	-4756
▁3'	-4757
▁gr	-4758
dern	-4759
▁Lis	-4760
uluğu	-4761
▁uzat	-4762
▁dedim	-4763
▁zayıf	-4764
ecektir	-4765
▁Mardin	-4766
▁geçici	-4767
▁kadının	-4768
▁ülkemiz	-4769
▁yayınlanan	-4770
ho	-4771
▁Mic	-4772
mamız	-4773
▁Koca	-4774
▁medy	-4775
▁mevz	-4776
ayacak	-4777
▁akadem	-4778
▁heyecan	-4779
▁istikrar	-4780
fak	-4781
areti	-4782
▁Yine	-4783
alarla	-4784
▁fikir	-4785
▁kanat	-4786
▁konser	-4787
▁yüzünden	-4788
▁düzenlediği	-4789
her	-4790
kal	-4791
▁key	-4792
▁ağrı	-4793
▁vurg	-4794
▁heyet	-4795
▁Fetullahçı	-4796
▁Yer	-4797
üksel	-4798
▁tank	-4799
▁Salih	-4800
▁makam	-4801
▁Turizm	-4802
▁Şirket	-4803
▁edilmiş	-4804
▁öğrenci	-4805
▁oyuncusu	-4806
▁araştırma	-4807
▁itibariyle	-4808
IL	-4809
▁Fik	-4810
▁iyil	-4811
celona	-4812
▁sürdü	-4813
▁Şanlı	-4814
▁Afrika	-4815
▁cenaze	-4816
▁elinde	-4817
▁etkinlik	-4818
▁gönderildi	-4819
▁(4	-4820
▁pan	-4821
ekret	-4822
şamba	-4823
▁soğuk	-4824
▁bölümünde	-4825
▁getirilen	-4826
eğin	-4827
ünüz	-4828
▁kok	-4829
liyeye	-4830
▁döndü	-4831
▁mesaf	-4832
▁yanına	-4833
▁Ukrayna	-4834
▁şirketi	-4835
▁kahraman	-4836
▁programı	-4837
▁Açıklamada	-4838
60	-4839
ketbol	-4840
▁fizik	-4841
alardan	-4842
ürriyet	-4843
▁bölümü	-4844
▁meydan	-4845
▁çeyrek	-4846
▁Akdeniz	-4847
▁dönüşüm	-4848
▁geçirdi	-4849
▁liralık	-4850
▁İspanya	-4851
▁öldürüldü	-4852
ole	-4853
aray	-4854
▁Boy	-4855
▁topr	-4856
▁yetk	-4857
▁hasta	-4858
▁liradan	-4859
▁Süleyman	-4860
Al	-4861
ud	-4862
iden	-4863
▁hücr	-4864
▁sürüc	-4865
iyorlar	-4866
▁arttır	-4867
▁kaleci	-4868
▁verdiğini	-4869
rol	-4870
▁uğ	-4871
▁İm	-4872
▁pop	-4873
▁mekt	-4874
▁öldü	-4875
▁Burak	-4876
▁Özgür	-4877
▁hassas	-4878
▁iddianam	-4879
▁fab	-4880
▁Lond	-4881
▁nöbet	-4882
▁Konseyi	-4883
▁birinin	-4884
▁inceleme	-4885
▁milletin	-4886
▁tartışma	-4887
▁başlatılan	-4888
Sİ	-4889
▁AA	-4890
esil	-4891
amayan	-4892
kişehir	-4893
▁aracın	-4894
▁parlamen	-4895
ezi	-4896
ity	-4897
▁dönemi	-4898
IM	-4899
ATO	-4900
▁Pen	-4901
▁Soy	-4902
▁Var	-4903
▁içi	-4904
tanın	-4905
▁alır	-4906
▁İdar	-4907
memesi	-4908
▁Brezil	-4909
▁aralık	-4910
▁müşter	-4911
▁yasağı	-4912
▁anlamına	-4913
▁tazminat	-4914
▁Azerbaycan	-4915
▁performans	-4916
▁girişiminin	-4917
▁açıklamalarda	-4918
▁kanun	-4919
▁tabii	-4920
▁/	-4921
▁vitam	-4922
lerince	-4923
▁Fakült	-4924
▁Kartal	-4925
▁yangın	-4926
▁kullanım	-4927
▁yetiştir	-4928
▁İçişleri	-4929
▁Çavuşoğlu	-4930
isel	-4931
▁gül	-4932
▁Kilis	-4933
▁geride	-4934
ternatif	-4935
▁bilgileri	-4936
bal	-4937
ens	-4938
izre	-4939
▁Kaç	-4940
▁gönül	-4941
▁zorun	-4942
▁görevi	-4943
▁komisyon	-4944
▁Merk	-4945
▁eşit	-4946
▁gıda	-4947
▁işte	-4948
ington	-4949
▁Beyaz	-4950
▁video	-4951
▁vurdu	-4952
lıkları	-4953
▁olmalı	-4954
▁sahaya	-4955
▁bombalı	-4956
▁Vatandaş	-4957
▁dolandır	-4958
RT	-4959
işi	-4960
içek	-4961
▁Dön	-4962
errah	-4963
linton	-4964
▁şahıs	-4965
▁görevl	-4966
▁bağımsız	-4967
fone	-4968
▁anı	-4969
▁kış	-4970
▁alım	-4971
▁arab	-4972
▁Erdem	-4973
▁Hatta	-4974
▁diplo	-4975
▁ülkeye	-4976
▁sp	-4977
▁sizi	-4978
▁uğraş	-4979
▁ihtimal	-4980
▁geçirildi	-4981
ck	-4982
bat	-4983
layıp	-4984
▁Edin	-4985
▁paket	-4986
lardaki	-4987
▁doğrultusunda	-4988
lus	-4989
▁ap	-4990
▁Sem	-4991
▁hus	-4992
▁başı	-4993
▁sunu	-4994
amıyor	-4995
▁arası	-4996
▁pilot	-4997
▁onlara	-4998
▁çocuğu	-4999
▁aracılığı	-5000
▁sağlayacak	-5001
▁Şampiyonlar	-5002
▁trib	-5003
maktan	-5004
▁bağır	-5005
▁rahmet	-5006
uşturucu	-5007
▁cinayet	-5008
▁isimler	-5009
▁örgütüne	-5010
▁bilgisayar	-5011
▁Federasyonu	-5012
Dk	-5013
▁2'	-5014
ales	-5015
itan	-5016
ahtar	-5017
▁sakin	-5018
Dün	-5019
rab	-5020
sie	-5021
eira	-5022
ılma	-5023
▁almış	-5024
▁verir	-5025
▁Ür	-5026
atur	-5027
emek	-5028
gari	-5029
▁400	-5030
▁Alan	-5031
▁işin	-5032
▁Balık	-5033
▁etraf	-5034
▁farkı	-5035
▁makin	-5036
▁aykırı	-5037
▁görünt	-5038
▁insani	-5039
ılmasını	-5040
▁muhalefet	-5041
▁Po	-5042
urdu	-5043
ılab	-5044
▁hed	-5045
▁Park	-5046
▁Bilim	-5047
▁dilek	-5048
▁Şimşek	-5049
▁Clinton	-5050
▁talimat	-5051
elal	-5052
▁Mem	-5053
▁Karar	-5054
▁yazdı	-5055
▁ilginç	-5056
ladığını	-5057
▁karşısına	-5058
▁AL	-5059
mara	-5060
▁Otom	-5061
▁kaza	-5062
▁Metin	-5063
▁halkı	-5064
▁müzak	-5065
miyorum	-5066
▁mahall	-5067
▁intihar	-5068
▁kısmı	-5069
▁reklam	-5070
▁Terörle	-5071
▁Barcelona	-5072
fan	-5073
opa	-5074
▁Mor	-5075
▁teb	-5076
memiz	-5077
▁takv	-5078
larken	-5079
▁ihraç	-5080
▁Londra	-5081
▁memlek	-5082
▁Brüksel	-5083
▁Yaklaşık	-5084
▁oranında	-5085
▁37	-5086
▁Pr	-5087
▁Sır	-5088
ınıyor	-5089
▁bilen	-5090
▁mobil	-5091
▁sinir	-5092
odafone	-5093
▁Sistem	-5094
▁tahliye	-5095
eyh	-5096
uyoruz	-5097
▁Aslan	-5098
▁adres	-5099
▁bağış	-5100
▁eğlen	-5101
▁olayı	-5102
▁deneyim	-5103
▁mücadel	-5104
▁Büyükelç	-5105
▁verilecek	-5106
fik	-5107
reti	-5108
▁Gaz	-5109
▁2014'	-5110
▁enerj	-5111
▁gurur	-5112
▁temin	-5113
▁birisi	-5114
▁itiraz	-5115
▁yurtdış	-5116
▁Dünyanın	-5117
▁arkadaşı	-5118
▁tedavisi	-5119
▁hastanede	-5120
▁çalıştığı	-5121
sek	-5122
▁Cer	-5123
▁ins	-5124
▁NATO	-5125
▁şaşır	-5126
▁Partisi	-5127
▁Silahlı	-5128
eyt	-5129
çın	-5130
ukur	-5131
▁The	-5132
diniz	-5133
▁öğle	-5134
▁adamı	-5135
▁gözaltı	-5136
▁sürpriz	-5137
▁Portekiz	-5138
▁kendilerini	-5139
▁piş	-5140
▁ışık	-5141
▁Cizre	-5142
▁maden	-5143
▁Persie	-5144
▁satışa	-5145
▁çocukları	-5146
▁açıklamaya	-5147
▁dolayısıyla	-5148
▁yetkilileri	-5149
oya	-5150
▁xx	-5151
▁Üy	-5152
▁11'	-5153
▁Dil	-5154
▁ağı	-5155
▁Önc	-5156
▁Sivas	-5157
▁gelmiş	-5158
▁olanlar	-5159
▁Kahraman	-5160
▁Eskişehir	-5161
▁teröristlerin	-5162
EB	-5163
nci	-5164
▁Tam	-5165
▁uğra	-5166
▁işbir	-5167
leyecek	-5168
▁Ziraat	-5169
▁başladığı	-5170
▁bol	-5171
▁delil	-5172
▁veril	-5173
▁nedeni	-5174
▁düzenlendi	-5175
ert	-5176
alya	-5177
elime	-5178
▁esas	-5179
▁hasar	-5180
▁irade	-5181
▁oyunu	-5182
▁Çanak	-5183
▁Merkel	-5184
▁anayas	-5185
▁Mahkeme	-5186
ashington	-5187
▁helikopter	-5188
4'	-5189
▁41	-5190
ovic	-5191
▁ima	-5192
▁kendine	-5193
▁Şanlıur	-5194
▁alınarak	-5195
▁Fakültesi	-5196
▁38	-5197
▁İL	-5198
ayol	-5199
ezer	-5200
▁ide	-5201
lıklar	-5202
ulacak	-5203
▁yürüyüş	-5204
day	-5205
▁ku	-5206
▁Kol	-5207
yacak	-5208
eceğim	-5209
▁Yavuz	-5210
▁bilet	-5211
▁fakat	-5212
▁yeşil	-5213
▁yuvar	-5214
lendiği	-5215
▁mağlup	-5216
▁polise	-5217
lerimizin	-5218
▁paylaştı	-5219
▁Belediyespor	-5220
ire	-5221
iri	-5222
▁kalab	-5223
▁tutar	-5224
▁gitmek	-5225
▁yaygın	-5226
▁Hükümet	-5227
▁Vodafone	-5228
▁adliyeye	-5229
▁güncelleme	-5230
şi	-5231
gah	-5232
▁Ala	-5233
▁Sch	-5234
meyin	-5235
▁Esad	-5236
▁anal	-5237
alesef	-5238
▁bıraktı	-5239
kırmızılı	-5240
▁Ardından	-5241
▁bırakıldı	-5242
sem	-5243
üny	-5244
▁Tuğ	-5245
▁çar	-5246
makam	-5247
▁bozuk	-5248
▁dolaş	-5249
▁vücut	-5250
▁yönetmen	-5251
▁edildiğini	-5252
▁Joh	-5253
▁saha	-5254
▁çoğu	-5255
▁Sanayi	-5256
▁kardeşi	-5257
▁Geçtiğimiz	-5258
▁haftasında	-5259
▁vek	-5260
▁çök	-5261
▁harc	-5262
malara	-5263
ülmesi	-5264
▁suçla	-5265
amayacak	-5266
▁karşılı	-5267
▁neredeyse	-5268
▁Tol	-5269
▁ban	-5270
▁zih	-5271
eytin	-5272
▁Valisi	-5273
▁bölücü	-5274
▁meslek	-5275
▁Pereira	-5276
▁insanın	-5277
▁sürdürdü	-5278
,6	-5279
▁No	-5280
▁hoş	-5281
▁oto	-5282
▁Hollanda	-5283
▁antrenman	-5284
▁mücadelede	-5285
üye	-5286
▁La	-5287
▁Mak	-5288
▁Medi	-5289
▁açan	-5290
▁bask	-5291
lerken	-5292
▁yaşadı	-5293
▁üretic	-5294
lerindeki	-5295
▁davranış	-5296
25	-5297
lor	-5298
itap	-5299
▁150	-5300
▁Ban	-5301
▁Sig	-5302
▁Tal	-5303
▁mali	-5304
▁Orhan	-5305
▁arttı	-5306
▁yağmur	-5307
lacivert	-5308
▁devreye	-5309
▁saatleri	-5310
we	-5311
ord	-5312
nağı	-5313
jansı	-5314
▁Emek	-5315
▁elem	-5316
atırım	-5317
▁ikram	-5318
▁yetiş	-5319
▁yapması	-5320
▁kararını	-5321
▁Washington	-5322
▁hesabından	-5323
▁kullanarak	-5324
▁öğrenciler	-5325
fil	-5326
▁65	-5327
▁ta	-5328
▁sıf	-5329
cağına	-5330
▁halen	-5331
▁şeker	-5332
▁beklent	-5333
▁Müdürlüğ	-5334
▁fiyatları	-5335
▁olduğumuz	-5336
liyet	-5337
▁Feth	-5338
▁Kamu	-5339
▁Alınan	-5340
▁karşılan	-5341
▁Pak	-5342
▁slo	-5343
bakan	-5344
elerek	-5345
▁birik	-5346
▁deprem	-5347
▁sorunun	-5348
▁yakından	-5349
▁demokratik	-5350
ly	-5351
bey	-5352
▁dam	-5353
▁hikay	-5354
▁rakib	-5355
▁tanık	-5356
▁kurtul	-5357
▁polisi	-5358
alarından	-5359
▁Edinilen	-5360
▁alındığı	-5361
zet	-5362
▁Fu	-5363
▁OL	-5364
▁şut	-5365
memek	-5366
▁Mark	-5367
▁Turk	-5368
ulanan	-5369
▁Mısır	-5370
▁banka	-5371
▁demir	-5372
▁buraya	-5373
▁kaybed	-5374
▁Muhammed	-5375
▁Konyaspor	-5376
▁sözlerini	-5377
23	-5378
▁Çay	-5379
ohbet	-5380
▁Yurt	-5381
▁stat	-5382
lerdir	-5383
▁Berlin	-5384
▁olmadan	-5385
▁çocuğun	-5386
▁dönüştür	-5387
ai	-5388
ükle	-5389
▁Kav	-5390
▁Seç	-5391
▁Güzel	-5392
▁bazen	-5393
ilmesini	-5394
▁toprağa	-5395
▁Toplantı	-5396
▁gönderdi	-5397
▁protesto	-5398
▁yararlan	-5399
dil	-5400
kun	-5401
diye	-5402
isip	-5403
▁Aile	-5404
▁ayda	-5405
▁gücü	-5406
▁Şüph	-5407
▁aktif	-5408
▁nedir	-5409
▁sahte	-5410
▁profes	-5411
▁aktaran	-5412
▁cenazesi	-5413
▁kimsenin	-5414
▁işlemleri	-5415
▁oynanacak	-5416
▁Çanakkale	-5417
▁alternatif	-5418
▁milletvekili	-5419
yas	-5420
▁mus	-5421
▁saf	-5422
▁tac	-5423
ilist	-5424
çiler	-5425
aliman	-5426
▁filmi	-5427
▁tarım	-5428
HY	-5429
▁75	-5430
▁Med	-5431
gazin	-5432
▁rast	-5433
▁Çalış	-5434
▁desteğ	-5435
▁kadros	-5436
▁sergil	-5437
▁penaltı	-5438
▁ülkelerin	-5439
-5	-5440
ski	-5441
tüğü	-5442
▁Bür	-5443
▁kaybı	-5444
dığımız	-5445
▁teşkil	-5446
▁dikkate	-5447
▁ilgilen	-5448
▁imk	-5449
lenin	-5450
yonel	-5451
▁2012	-5452
▁Işık	-5453
▁form	-5454
▁kıya	-5455
▁okun	-5456
▁Onlar	-5457
▁danış	-5458
▁gerçe	-5459
▁kapan	-5460
▁memuru	-5461
▁ateşkes	-5462
▁açıklamasında	-5463
',	-5464
sk	-5465
!..	-5466
ger	-5467
ift	-5468
ner	-5469
▁TÜ	-5470
amış	-5471
ayıp	-5472
▁şof	-5473
▁işçi	-5474
▁Darbe	-5475
▁Stadı	-5476
▁Takımı	-5477
▁sayılı	-5478
▁aktardı	-5479
▁koalisyon	-5480
▁Gön	-5481
▁TIR	-5482
▁aldık	-5483
▁grubu	-5484
▁maruz	-5485
▁bayrak	-5486
▁diliyor	-5487
▁yükselt	-5488
qu	-5489
gay	-5490
ogle	-5491
▁Mas	-5492
eyecek	-5493
▁Barış	-5494
▁yeter	-5495
▁olayın	-5496
▁bekleyen	-5497
▁tamamlan	-5498
▁sözlerine	-5499
▁yönlendir	-5500
va	-5501
yiz	-5502
üde	-5503
edek	-5504
▁Kir	-5505
▁Yaz	-5506
▁sur	-5507
▁dalg	-5508
uyorum	-5509
ğından	-5510
abilmek	-5511
dukları	-5512
▁isabet	-5513
▁yıllar	-5514
malarına	-5515
▁biçimde	-5516
▁polisin	-5517
▁olduğunun	-5518
giz	-5519
▁44	-5520
▁So	-5521
celi	-5522
▁600	-5523
▁John	-5524
▁başk	-5525
▁maça	-5526
▁hepsi	-5527
▁stand	-5528
▁tanın	-5529
▁Şenol	-5530
▁Sekret	-5531
▁ortada	-5532
▁haftada	-5533
▁soruşturması	-5534
tuk	-5535
▁39	-5536
▁gram	-5537
▁Saray	-5538
▁bulan	-5539
ılırken	-5540
▁Bundan	-5541
▁hakları	-5542
▁olurken	-5543
▁parçası	-5544
▁olmayacak	-5545
TÜ	-5546
raz	-5547
ıza	-5548
▁47	-5549
▁bahç	-5550
▁eğer	-5551
▁frag	-5552
▁ilçe	-5553
▁sorg	-5554
ümüzde	-5555
▁gelin	-5556
▁Özbek	-5557
▁konuşma	-5558
▁Bunların	-5559
▁bölgedeki	-5560
▁teröristler	-5561
▁Hır	-5562
▁day	-5563
▁reh	-5564
▁tor	-5565
endis	-5566
odrum	-5567
▁albüm	-5568
▁yolda	-5569
▁sigort	-5570
▁kaynağı	-5571
▁çekiyor	-5572
▁alınacak	-5573
▁toplantısı	-5574
Dİ	-5575
co	-5576
imar	-5577
rağı	-5578
▁Bit	-5579
▁rad	-5580
eğini	-5581
▁Savaş	-5582
▁mevki	-5583
▁çekil	-5584
▁itiraf	-5585
▁kaybol	-5586
lerimize	-5587
▁Akhisar	-5588
▁görüşme	-5589
▁düzenledi	-5590
▁saldırısı	-5591
▁olağanüstü	-5592
TV	-5593
tuğ	-5594
▁Mac	-5595
▁Yayın	-5596
▁nefes	-5597
ilistin	-5598
▁cemaat	-5599
▁coğraf	-5600
▁koruma	-5601
▁gördüğü	-5602
▁merkezinde	-5603
▁sorumluluk	-5604
UM	-5605
com	-5606
▁Ast	-5607
okrasi	-5608
▁esnaf	-5609
▁çoğun	-5610
chester	-5611
▁Serdar	-5612
▁anlayış	-5613
10	-5614
GK	-5615
ard	-5616
şun	-5617
▁Sp	-5618
▁us	-5619
▁adayı	-5620
▁sermay	-5621
▁güçlerinin	-5622
▁af	-5623
afir	-5624
uyum	-5625
▁aşa	-5626
dıköy	-5627
sever	-5628
▁kurban	-5629
▁Gençler	-5630
▁Köprüsü	-5631
▁itfaiye	-5632
▁vermesi	-5633
▁yaşıyor	-5634
▁şirketin	-5635
▁tamamladı	-5636
▁aracılığıyla	-5637
▁organizasyon	-5638
teş	-5639
▁fatur	-5640
▁Google	-5641
İstanbul	-5642
▁belirtiliyor	-5643
IK	-5644
▁4.5	-5645
▁CEO	-5646
▁Ora	-5647
▁Yok	-5648
▁şef	-5649
subay	-5650
▁Hast	-5651
▁Onur	-5652
▁euro	-5653
▁Marmara	-5654
▁harekat	-5655
▁paralel	-5656
▁tasarım	-5657
▁deplasmanda	-5658
Bİ	-5659
▁uc	-5660
▁Rob	-5661
▁oğl	-5662
▁asist	-5663
▁aydın	-5664
▁gelip	-5665
▁hisse	-5666
▁ligde	-5667
▁bayram	-5668
▁oynayan	-5669
▁kentinde	-5670
▁sağlıyor	-5671
En	-5672
düz	-5673
gesi	-5674
limp	-5675
lüğe	-5676
▁Erk	-5677
▁Hukuk	-5678
▁besin	-5679
▁kalma	-5680
▁mecli	-5681
▁tanış	-5682
▁güvenliği	-5683
oyu	-5684
▁karan	-5685
▁mensubu	-5686
▁jandarma	-5687
▁Hollandalı	-5688
EY	-5689
ris	-5690
ydi	-5691
▁sta	-5692
rafik	-5693
▁2010	-5694
▁ihbar	-5695
larınız	-5696
▁etmişti	-5697
▁kariyer	-5698
▁konuyla	-5699
▁Cumartesi	-5700
▁sonuçları	-5701
tük	-5702
▁Dk	-5703
▁Gar	-5704
suzluk	-5705
▁Kanun	-5706
▁döviz	-5707
▁gidip	-5708
▁Sözcüsü	-5709
▁görülüyor	-5710
▁çıkarıldı	-5711
Ar	-5712
egor	-5713
icdan	-5714
▁büyü	-5715
▁nüfus	-5716
▁yerden	-5717
▁Türkmen	-5718
▁açıklan	-5719
▁doğalgaz	-5720
▁hastalığı	-5721
▁verilmesi	-5722
▁uygulaması	-5723
Bur	-5724
des	-5725
kel	-5726
▁Ri	-5727
anda	-5728
brıs	-5729
▁kahv	-5730
lenmiş	-5731
▁gidecek	-5732
▁kapasit	-5733
▁üretimi	-5734
▁olmuştur	-5735
:4	-5736
▁Ark	-5737
▁Kore	-5738
▁kafa	-5739
2016-0	-5740
opagan	-5741
▁maddi	-5742
▁sahne	-5743
▁teşeb	-5744
▁alması	-5745
▁dediği	-5746
asındaki	-5747
▁vererek	-5748
▁yükseliş	-5749
ano	-5750
▁MİT	-5751
▁Tim	-5752
▁senar	-5753
▁verim	-5754
▁yoktu	-5755
▁mesajı	-5756
▁talebi	-5757
▁Filistin	-5758
▁bilgilere	-5759
▁görüyoruz	-5760
gam	-5761
▁Te	-5762
▁Ann	-5763
▁Zor	-5764
▁hâlâ	-5765
eciler	-5766
▁topla	-5767
▁çağrı	-5768
▁içeren	-5769
▁İnşaat	-5770
ilmesine	-5771
▁Perşembe	-5772
▁cezalandır	-5773
▁kesinlikle	-5774
▁uzaklaştır	-5775
rük	-5776
zer	-5777
▁48	-5778
▁ye	-5779
▁kök	-5780
▁çay	-5781
steri	-5782
▁uğur	-5783
tansiy	-5784
▁boşan	-5785
▁ertel	-5786
▁yaşlı	-5787
▁Festiv	-5788
▁gereği	-5789
▁Yatırım	-5790
▁belediy	-5791
▁Örneğin	-5792
▁çıkması	-5793
▁anlatıyor	-5794
▁üniversite	-5795
lis	-5796
▁5'	-5797
▁Nev	-5798
▁buz	-5799
▁ölen	-5800
▁Yönet	-5801
▁beğen	-5802
▁Kaynak	-5803
▁sohbet	-5804
▁yukarı	-5805
▁dijital	-5806
▁başladık	-5807
oj	-5808
iğe	-5809
ünel	-5810
▁dizi	-5811
▁otop	-5812
ükleer	-5813
▁ailesi	-5814
▁hayatı	-5815
▁malzem	-5816
▁Meclisi	-5817
▁geleceğ	-5818
SO	-5819
cık	-5820
ÜRK	-5821
▁1'	-5822
▁Eki	-5823
▁Sat	-5824
Bahçe	-5825
▁Oysa	-5826
talyan	-5827
▁bilir	-5828
lediğini	-5829
▁gelmesi	-5830
▁Çarşamba	-5831
▁yapacağız	-5832
▁Rak	-5833
▁hük	-5834
▁kavg	-5835
▁birer	-5836
▁projesi	-5837
abileceği	-5838
▁Demirtaş	-5839
▁propagan	-5840
▁sürecinde	-5841
diy	-5842
emiş	-5843
▁lan	-5844
iyede	-5845
iyetini	-5846
▁adalet	-5847
▁geçerli	-5848
▁mahkemeye	-5849
▁uyuşturucu	-5850
▁ca	-5851
▁196	-5852
▁Tut	-5853
▁köş	-5854
▁Rapor	-5855
▁Selim	-5856
▁Ülkem	-5857
▁fabrik	-5858
▁Şanlıurfa	-5859
▁ettiklerini	-5860
-7	-5861
2.	-5862
uzu	-5863
▁46	-5864
▁AN	-5865
▁nef	-5866
▁şim	-5867
▁Kısa	-5868
▁Mete	-5869
başkan	-5870
▁Mesel	-5871
▁Şehir	-5872
abilece	-5873
▁Manisa	-5874
▁duruma	-5875
▁oturan	-5876
▁canlandır	-5877
Ak	-5878
adi	-5879
ruf	-5880
alanan	-5881
▁Zaten	-5882
▁şansı	-5883
▁sanayi	-5884
▁endeksi	-5885
▁yapıyoruz	-5886
-6	-5887
ıd	-5888
▁Ail	-5889
▁Din	-5890
▁THY	-5891
elendir	-5892
▁yenilen	-5893
▁bulundur	-5894
▁gerektiği	-5895
ese	-5896
gıç	-5897
tın	-5898
▁GÖ	-5899
▁1-0	-5900
▁Lev	-5901
▁Eren	-5902
▁kuru	-5903
▁Siyas	-5904
▁idari	-5905
▁kaçan	-5906
▁Çakır	-5907
▁sunuyor	-5908
▁kadınlar	-5909
▁sözleşme	-5910
▁yakınları	-5911
▁kadınların	-5912
ımın	-5913
▁1.5	-5914
▁şiş	-5915
▁2011	-5916
▁City	-5917
▁ödey	-5918
▁damar	-5919
▁kanıt	-5920
▁köprü	-5921
▁marka	-5922
▁yetki	-5923
▁Kıbrıs	-5924
▁verici	-5925
▁olmuştu	-5926
▁talimatı	-5927
▁Manchester	-5928
yüz	-5929
▁Ge	-5930
▁cüm	-5931
erber	-5932
makla	-5933
seniz	-5934
▁Günü	-5935
▁Okul	-5936
▁güne	-5937
▁Gümüş	-5938
▁tuttu	-5939
▁öğret	-5940
ılmıştı	-5941
▁Dursun	-5942
▁oluştu	-5943
▁Erzurum	-5944
▁korumak	-5945
talyaspor	-5946
▁hükümeti	-5947
▁43	-5948
adir	-5949
kesi	-5950
▁Gol	-5951
▁Mün	-5952
▁Tok	-5953
▁rok	-5954
ciğer	-5955
dılar	-5956
▁Adli	-5957
▁ihal	-5958
ulduğu	-5959
▁dağıt	-5960
▁ikili	-5961
▁yoksa	-5962
▁geldik	-5963
▁süresi	-5964
▁gelişim	-5965
▁kişisel	-5966
▁telefonu	-5967
illa	-5968
▁ten	-5969
▁şer	-5970
üzgar	-5971
▁kred	-5972
elikli	-5973
▁gerekti	-5974
▁Yargıtay	-5975
▁birbirine	-5976
▁düzenleme	-5977
âh	-5978
sey	-5979
▁55	-5980
stik	-5981
uyan	-5982
▁112	-5983
▁Dan	-5984
ildik	-5985
inize	-5986
medim	-5987
▁büny	-5988
▁mini	-5989
▁Ünal	-5990
▁Kerim	-5991
▁hissed	-5992
▁vermiş	-5993
▁evlilik	-5994
▁geçiren	-5995
▁İtalyan	-5996
Lİ	-5997
dy	-5998
▁fel	-5999
lerdi	-6000
▁payı	-6001
ımızda	-6002
▁duvar	-6003
▁tablo	-6004
▁yaşama	-6005
limpiyat	-6006
▁ekonomi	-6007
▁maddesi	-6008
▁potansiy	-6009
▁iddiasıyla	-6010
▁yaptığımız	-6011
YA	-6012
nes	-6013
▁Düş	-6014
▁Üyesi	-6015
▁gözlem	-6016
▁hayran	-6017
▁ülkeyi	-6018
▁Kadıköy	-6019
▁gelenek	-6020
▁İnşallah	-6021
▁gerçekleşen	-6022
▁performansı	-6023
FF	-6024
Baş	-6025
abi	-6026
▁5.	-6027
▁ob	-6028
▁Öl	-6029
land	-6030
▁Real	-6031
▁kaps	-6032
▁yedi	-6033
isiyle	-6034
▁Faruk	-6035
▁açığa	-6036
▁komşu	-6037
▁mağaz	-6038
▁açıdan	-6039
▁Aslında	-6040
landığını	-6041
▁Hürriyet	-6042
▁karıştır	-6043
▁ekiplerinin	-6044
avüz	-6045
▁250	-6046
▁gür	-6047
▁tır	-6048
aybin	-6049
teşem	-6050
▁Tarım	-6051
▁Terim	-6052
▁büyüy	-6053
▁işler	-6054
▁gittik	-6055
▁Meydanı	-6056
▁taraftan	-6057
▁önemlidir	-6058
HK	-6059
Spor	-6060
▁Mez	-6061
eliği	-6062
kınma	-6063
▁onur	-6064
▁sevg	-6065
ilerde	-6066
portaj	-6067
▁basit	-6068
▁korku	-6069
▁açtığı	-6070
▁sigorta	-6071
▁standart	-6072
▁sorularını	-6073
▁düzenlenecek	-6074
ahh	-6075
şet	-6076
▁ib	-6077
▁algı	-6078
elidir	-6079
▁beden	-6080
▁İsveç	-6081
▁Mahmut	-6082
▁geçiyor	-6083
▁kategor	-6084
▁yolunda	-6085
malarının	-6086
▁Soruştur	-6087
▁kilometr	-6088
▁sorunları	-6089
ick	-6090
ilip	-6091
leyi	-6092
enkul	-6093
meniz	-6094
▁Yaralı	-6095
▁reform	-6096
▁sözleri	-6097
▁ettikleri	-6098
▁şampiyonluk	-6099
İn	-6100
▁Mat	-6101
▁Mon	-6102
▁Boğaz	-6103
▁giyen	-6104
▁kavuş	-6105
abiliriz	-6106
▁devleti	-6107
▁Özdemir	-6108
▁gazeteci	-6109
▁başlatıldı	-6110
▁beraberlik	-6111
IZ	-6112
pol	-6113
▁artan	-6114
▁refer	-6115
osiklet	-6116
▁Elektr	-6117
▁Ermeni	-6118
▁sahası	-6119
emeyecek	-6120
▁elbette	-6121
▁getirmek	-6122
zat	-6123
öğr	-6124
▁53	-6125
omez	-6126
▁alg	-6127
ispor	-6128
▁Bana	-6129
▁tabi	-6130
▁tren	-6131
▁Hakim	-6132
▁sahib	-6133
▁göreve	-6134
▁sebebi	-6135
▁gelerek	-6136
▁tiyatro	-6137
▁olacağız	-6138
▁özelliği	-6139
Er	-6140
ore	-6141
işan	-6142
lılar	-6143
mesin	-6144
▁Burcu	-6145
▁Taraf	-6146
▁niyet	-6147
ansiyon	-6148
▁ekledi	-6149
▁yapılmış	-6150
uta	-6151
▁AR	-6152
araj	-6153
▁Tep	-6154
▁Salı	-6155
manlık	-6156
▁yarım	-6157
▁günden	-6158
▁biliyoruz	-6159
▁esnasında	-6160
ane	-6161
▁Aşk	-6162
▁kod	-6163
▁may	-6164
lerim	-6165
▁atış	-6166
▁mahk	-6167
▁Program	-6168
▁Nusaybin	-6169
▁edebilir	-6170
▁hatırlatan	-6171
▁yetkililer	-6172
▁Antalyaspor	-6173
iti	-6174
▁AY	-6175
tına	-6176
▁Cin	-6177
▁vef	-6178
▁Çek	-6179
▁Usta	-6180
▁kalın	-6181
laştırma	-6182
ülebilir	-6183
▁altyapı	-6184
UT	-6185
uku	-6186
Dünya	-6187
▁Vali	-6188
▁ağab	-6189
▁Organ	-6190
▁Topal	-6191
▁kilit	-6192
▁mezar	-6193
isinden	-6194
lerdeki	-6195
▁yüzyıl	-6196
▁özgürlük	-6197
▁operasyonlar	-6198
şen	-6199
bank	-6200
eşme	-6201
ited	-6202
iyim	-6203
▁120	-6204
▁emin	-6205
▁yang	-6206
alarak	-6207
muştur	-6208
▁fayda	-6209
imizden	-6210
▁misafir	-6211
▁başından	-6212
▁arkadaşları	-6213
onald	-6214
▁fayd	-6215
▁alkol	-6216
▁Kanunu	-6217
▁karşın	-6218
▁durumun	-6219
▁kıyafet	-6220
▁ulaştır	-6221
▁yerinden	-6222
▁bağlantılı	-6223
Dev	-6224
▁öt	-6225
arım	-6226
▁KAR	-6227
müştü	-6228
▁Umut	-6229
▁alak	-6230
▁ödem	-6231
leyici	-6232
▁Bölge	-6233
▁Kurum	-6234
▁sanay	-6235
lamanın	-6236
▁hedefi	-6237
▁dönemin	-6238
▁taşıyor	-6239
▁ifadeleri	-6240
▁görevlendir	-6241
bil	-6242
liş	-6243
üme	-6244
▁4'	-6245
▁2017'	-6246
▁Siyah	-6247
▁kartı	-6248
▁İsviç	-6249
▁Hizmet	-6250
▁ayakta	-6251
▁vicdan	-6252
▁çıkarak	-6253
▁gerektir	-6254
▁yerlerde	-6255
▁geçirdiği	-6256
abileceğini	-6257
sit	-6258
▁mük	-6259
▁anti	-6260
▁oyla	-6261
▁suik	-6262
▁Angel	-6263
▁tanıt	-6264
▁İstih	-6265
▁kamera	-6266
▁kurşun	-6267
▁zorluk	-6268
▁Magazin	-6269
▁avukatı	-6270
▁girecek	-6271
▁yılının	-6272
▁Demokrat	-6273
▁merkezli	-6274
sh	-6275
ste	-6276
rist	-6277
lamış	-6278
▁fuar	-6279
▁icra	-6280
▁metr	-6281
▁usul	-6282
▁Hakem	-6283
▁Sezon	-6284
▁netic	-6285
▁yüklü	-6286
▁davası	-6287
▁yağışı	-6288
▁Kurtulmuş	-6289
▁etkisiyle	-6290
▁ortasında	-6291
▁noktasında	-6292
▁toplantıda	-6293
99	-6294
vin	-6295
neij	-6296
▁Hil	-6297
▁Sil	-6298
▁Teş	-6299
medik	-6300
▁Evet	-6301
▁dini	-6302
liliği	-6303
▁Malat	-6304
▁işgal	-6305
▁yürür	-6306
leyerek	-6307
neijder	-6308
▁asgari	-6309
▁ulusal	-6310
▁buradan	-6311
▁gittiği	-6312
▁Parlamen	-6313
▁gazetesi	-6314
▁Pazartesi	-6315
▁temsilcisi	-6316
▁Art	-6317
▁tör	-6318
ayolu	-6319
▁Erol	-6320
▁Part	-6321
▁araz	-6322
▁cilt	-6323
▁tarz	-6324
▁Gomez	-6325
▁duyar	-6326
isiplin	-6327
▁birden	-6328
▁öğretim	-6329
▁yılından	-6330
▁sürdürüyor	-6331
▁bilgilendir	-6332
▁42	-6333
▁zan	-6334
ınızı	-6335
▁boyu	-6336
etiyle	-6337
▁koydu	-6338
▁yönel	-6339
mesinden	-6340
▁yoluyla	-6341
▁platform	-6342
▁getirdiği	-6343
▁oyuncular	-6344
▁yaşandığı	-6345
AĞ	-6346
▁51	-6347
▁AV	-6348
eder	-6349
▁kus	-6350
▁ağaç	-6351
▁şifr	-6352
▁tavır	-6353
▁şartı	-6354
▁Türkçe	-6355
▁gözyaş	-6356
▁kavram	-6357
▁kendim	-6358
▁süreli	-6359
▁Hakkari	-6360
▁Valiliği	-6361
▁yalnızca	-6362
▁Güneydoğu	-6363
▁Teknoloji	-6364
▁yaptıklarını	-6365
YOR	-6366
ras	-6367
▁Yah	-6368
liyesi	-6369
mekten	-6370
▁kaçın	-6371
▁istifa	-6372
▁girdiği	-6373
▁görevini	-6374
▁ücretsiz	-6375
▁çalışmalarını	-6376
DK	-6377
vi	-6378
▁54	-6379
▁Ya	-6380
▁tıp	-6381
▁Saat	-6382
▁sıkı	-6383
▁tutan	-6384
▁yaşat	-6385
▁sessiz	-6386
ıldığında	-6387
▁akademisyen	-6388
ww	-6389
▁X	-6390
str	-6391
elli	-6392
siye	-6393
üntü	-6394
▁ilav	-6395
istler	-6396
▁dönen	-6397
▁birini	-6398
▁finansal	-6399
▁yaklaşım	-6400
▁muhabirine	-6401
▁sektöründe	-6402
ırh	-6403
▁Uç	-6404
▁egz	-6405
çılık	-6406
▁roket	-6407
▁sigara	-6408
▁düzenli	-6409
▁sektörü	-6410
▁önceden	-6411
▁Amerikalı	-6412
▁Kasımpaşa	-6413
▁Osmanlıspor	-6414
▁yapıldığını	-6415
DU	-6416
▁mektup	-6417
▁sevgil	-6418
▁koordin	-6419
▁kullanıl	-6420
▁genellikle	-6421
MS	-6422
örd	-6423
ette	-6424
iyot	-6425
kent	-6426
okul	-6427
▁val	-6428
▁irti	-6429
▁kere	-6430
▁bakış	-6431
▁bitti	-6432
▁Öğren	-6433
acaktır	-6434
▁Gerçek	-6435
▁ifadesi	-6436
▁üstünde	-6437
▁Sneijder	-6438
AV	-6439
ota	-6440
▁AŞ	-6441
adır	-6442
izde	-6443
▁Kör	-6444
▁Çık	-6445
▁çoğ	-6446
▁lüks	-6447
▁Basın	-6448
▁Halil	-6449
▁gecik	-6450
▁tarif	-6451
▁tuzak	-6452
▁çıkıp	-6453
lanarak	-6454
▁vermeye	-6455
▁edilerek	-6456
▁birleştir	-6457
ığ	-6458
cay	-6459
vat	-6460
▁Yür	-6461
▁bon	-6462
mamış	-6463
▁ocak	-6464
▁şiir	-6465
▁beyin	-6466
▁dedik	-6467
▁işyer	-6468
▁mezun	-6469
başkanı	-6470
lilerin	-6471
▁gelişme	-6472
▁mahalle	-6473
▁militan	-6474
▁yönündeki	-6475
▁kendisinin	-6476
ikli	-6477
oper	-6478
▁dey	-6479
ablus	-6480
dığım	-6481
▁Kenan	-6482
▁Semih	-6483
▁gördüğ	-6484
▁modern	-6485
▁sağlam	-6486
▁düzeyde	-6487
▁yiyecek	-6488
▁havaliman	-6489
▁saldırgan	-6490
cin	-6491
göz	-6492
▁Don	-6493
▁Acil	-6494
▁uyku	-6495
▁efsan	-6496
▁halka	-6497
▁kalkış	-6498
▁sporcu	-6499
▁söylem	-6500
▁takıma	-6501
▁rekabet	-6502
▁sağanak	-6503
▁dikkatli	-6504
▁ülkeleri	-6505
▁hükümetin	-6506
):	-6507
adı	-6508
ibe	-6509
esir	-6510
▁Riz	-6511
▁Zeyn	-6512
lüğünü	-6513
ilmiştir	-6514
▁kurtarı	-6515
▁merkezine	-6516
,0	-6517
ıb	-6518
▁2-1	-6519
▁Ulu	-6520
▁mül	-6521
▁veda	-6522
▁Yasin	-6523
▁aşkın	-6524
▁beyan	-6525
▁ekmek	-6526
▁kısıt	-6527
▁yatak	-6528
ağından	-6529
▁Savaşı	-6530
▁Temsil	-6531
▁bedeli	-6532
▁faktör	-6533
▁izledi	-6534
rimenkul	-6535
▁görevlisi	-6536
▁öğrencisi	-6537
▁teröristin	-6538
dde	-6539
ice	-6540
▁Fi	-6541
adet	-6542
▁Pet	-6543
▁bina	-6544
▁sözü	-6545
ilenin	-6546
▁nesil	-6547
likleri	-6548
▁Yalçın	-6549
▁atılan	-6550
▁cerrah	-6551
▁değeri	-6552
▁dışına	-6553
▁işadam	-6554
▁yıldan	-6555
▁ekipler	-6556
▁sağlığı	-6557
▁sürülen	-6558
ladıkları	-6559
▁geleceği	-6560
▁istismar	-6561
▁röportaj	-6562
▁gösterdiği	-6563
!"	-6564
TC	-6565
İs	-6566
fen	-6567
rat	-6568
▁6.	-6569
idor	-6570
▁sim	-6571
adaki	-6572
▁evin	-6573
▁Nasıl	-6574
▁redde	-6575
▁ısrar	-6576
▁Herkes	-6577
▁olamaz	-6578
▁satışı	-6579
indistan	-6580
▁Tiyatro	-6581
▁eğitimi	-6582
:3	-6583
-16	-6584
sağ	-6585
▁81	-6586
satı	-6587
▁Ana	-6588
▁Kül	-6589
▁Pan	-6590
▁eşy	-6591
▁lez	-6592
▁Ateş	-6593
▁meşin	-6594
▁yönde	-6595
▁İşleri	-6596
▁Gençlik	-6597
▁tecavüz	-6598
▁Fethullah	-6599
▁Başbakanlık	-6600
▁gerçekleştirdi	-6601
ğrul	-6602
▁Adı	-6603
▁fer	-6604
▁pah	-6605
saydı	-6606
ukuki	-6607
▁Gıda	-6608
▁Önce	-6609
▁Öyle	-6610
▁Ulusal	-6611
eleriyle	-6612
▁benzeri	-6613
▁müzaker	-6614
▁görünüyor	-6615
▁Gençlerbirliği	-6616
▁Plan	-6617
▁aram	-6618
emiyor	-6619
▁Bakır	-6620
▁ettim	-6621
serispor	-6622
▁Anahtar	-6623
▁geçecek	-6624
▁seçenek	-6625
▁kaldırılması	-6626
OM	-6627
pat	-6628
Saray	-6629
kları	-6630
▁Jose	-6631
▁Kral	-6632
▁Caner	-6633
▁evlen	-6634
▁Bodrum	-6635
▁halkının	-6636
▁bekliyoruz	-6637
?.	-6638
-25	-6639
red	-6640
İYE	-6641
▁67	-6642
ekom	-6643
▁Cev	-6644
▁Mek	-6645
▁Esed	-6646
▁tipi	-6647
▁örgü	-6648
▁şehr	-6649
duğumuz	-6650
▁Kelime	-6651
▁üstüne	-6652
▁saldırıları	-6653
aca	-6654
çisi	-6655
▁Kaza	-6656
▁kemik	-6657
▁Cengiz	-6658
▁Finans	-6659
▁Rieker	-6660
▁sinema	-6661
▁gösteri	-6662
▁meselesi	-6663
▁toplumun	-6664
avi	-6665
ssü	-6666
burg	-6667
liam	-6668
▁Diz	-6669
▁Akar	-6670
▁Kork	-6671
▁aran	-6672
▁hiss	-6673
▁ikna	-6674
▁imam	-6675
▁omuz	-6676
▁İnan	-6677
▁Gönül	-6678
▁yapıp	-6679
▁insanı	-6680
▁olmayı	-6681
▁olayları	-6682
▁otomatik	-6683
▁tutuklama	-6684
▁inanıyorum	-6685
Rus	-6686
▁49	-6687
osya	-6688
alığı	-6689
azarı	-6690
luluk	-6691
▁Paşa	-6692
▁Sakar	-6693
▁kulak	-6694
▁Donald	-6695
▁ölçüde	-6696
▁Politik	-6697
▁Samsung	-6698
▁barikat	-6699
▁buluştu	-6700
▁görüştü	-6701
▁noktaya	-6702
▁Hindistan	-6703
▁tehlikeli	-6704
▁dokunulmaz	-6705
OS	-6706
UZ	-6707
Ter	-6708
ike	-6709
▁Of	-6710
erry	-6711
▁SAB	-6712
▁Tolga	-6713
▁aktör	-6714
▁alkış	-6715
▁harca	-6716
▁lisan	-6717
▁taşım	-6718
▁Günlük	-6719
▁gayret	-6720
▁geçtik	-6721
▁Japonya	-6722
:1	-6723
ht	-6724
tor	-6725
▁Ök	-6726
lant	-6727
İYOR	-6728
▁göğ	-6729
▁ves	-6730
▁anım	-6731
▁golü	-6732
▁santr	-6733
▁zorlu	-6734
malıyız	-6735
▁Avustur	-6736
▁Demirel	-6737
▁farkında	-6738
▁kapsamda	-6739
▁organize	-6740
▁ürünleri	-6741
▁Riekerink	-6742
▁profesyonel	-6743
▁mensuplarının	-6744
▁*	-6745
lüt	-6746
rah	-6747
▁fi	-6748
evre	-6749
onun	-6750
▁10'	-6751
▁Değ	-6752
ledik	-6753
▁Ozan	-6754
▁cuma	-6755
▁demiş	-6756
▁Fikret	-6757
▁Mesela	-6758
▁festiv	-6759
▁slogan	-6760
▁çıkmış	-6761
melerini	-6762
▁Suriyel	-6763
▁insanlara	-6764
▁tarihinin	-6765
▁yıllardır	-6766
▁motosiklet	-6767
ASI	-6768
ayiş	-6769
etle	-6770
▁Adv	-6771
▁göm	-6772
▁Avcı	-6773
▁aktiv	-6774
▁metro	-6775
▁olmas	-6776
▁uçağı	-6777
liğiyle	-6778
▁Hayvan	-6779
▁gidece	-6780
▁yansıt	-6781
alarıyla	-6782
▁artarak	-6783
▁ettiler	-6784
▁kişiden	-6785
▁Rizespor	-6786
▁yakalama	-6787
▁fotoğrafı	-6788
▁yayımlanan	-6789
▁karşılığında	-6790
▁AT	-6791
▁km	-6792
▁Ask	-6793
▁Koc	-6794
▁Nih	-6795
▁adr	-6796
onsor	-6797
▁2008	-6798
▁Anne	-6799
▁Emir	-6800
▁Hacı	-6801
▁kırık	-6802
öğretim	-6803
▁birleş	-6804
▁günler	-6805
ısındaki	-6806
▁olmaktan	-6807
▁toplanan	-6808
▁Birleşmiş	-6809
osun	-6810
▁mec	-6811
▁mür	-6812
eygam	-6813
ınıza	-6814
▁Sulh	-6815
▁Kanal	-6816
▁gergin	-6817
▁işlemi	-6818
▁alacağı	-6819
▁değildi	-6820
▁kulübün	-6821
▁zamanlı	-6822
▁İsviçre	-6823
▁beslenme	-6824
▁tasarruf	-6825
▁teşebbüs	-6826
▁geçirilen	-6827
▁zamanlarda	-6828
▁üyelerinin	-6829
IŞ	-6830
▁◊	-6831
ruz	-6832
ura	-6833
▁Fo	-6834
▁öf	-6835
afaz	-6836
cell	-6837
odol	-6838
olog	-6839
▁Dağ	-6840
▁TFF	-6841
▁nam	-6842
▁nez	-6843
▁ört	-6844
likte	-6845
ocaat	-6846
▁Emin	-6847
▁ağız	-6848
▁kimi	-6849
▁Erkek	-6850
▁sahil	-6851
▁Hiçbir	-6852
▁yarıda	-6853
▁zamanı	-6854
▁Başkanlık	-6855
▁stratejik	-6856
▁vatandaşı	-6857
▁çıktığını	-6858
▁kaybettiği	-6859
▁çalışıyoruz	-6860
.2	-6861
PS	-6862
ug	-6863
lok	-6864
▁Alp	-6865
▁Yağ	-6866
▁Ülk	-6867
layın	-6868
▁bütç	-6869
▁suyu	-6870
▁uzan	-6871
▁Yaşar	-6872
▁haklı	-6873
▁meşru	-6874
▁virüs	-6875
laşması	-6876
▁söylen	-6877
▁nükleer	-6878
▁yürüten	-6879
▁kuvvetli	-6880
▁Milletler	-6881
▁belirledi	-6882
▁sezonunda	-6883
▁uygulanan	-6884
▁futbolcular	-6885
lob	-6886
▁56	-6887
ende	-6888
▁Kuş	-6889
▁Met	-6890
▁lok	-6891
▁sil	-6892
kanın	-6893
▁iken	-6894
▁Ümit	-6895
tıktan	-6896
▁Abdül	-6897
▁Hamza	-6898
▁Soylu	-6899
▁çatış	-6900
▁Bozdağ	-6901
▁hediye	-6902
▁kalıcı	-6903
▁verdik	-6904
▁Bölgesi	-6905
▁Kocaeli	-6906
▁alırken	-6907
▁yapılab	-6908
▁çekerek	-6909
▁Bakanlar	-6910
▁savcılık	-6911
▁sonuçlar	-6912
▁bulunması	-6913
▁konuşmada	-6914
ry	-6915
LAN	-6916
ses	-6917
▁78	-6918
stit	-6919
▁Kaf	-6920
▁İST	-6921
ilmez	-6922
▁Zira	-6923
▁İliş	-6924
▁Belki	-6925
▁hikây	-6926
▁sıkış	-6927
▁vekil	-6928
▁verme	-6929
▁Ödülü	-6930
▁çeyre	-6931
▁buluşan	-6932
▁sağladı	-6933
▁maalesef	-6934
▁ülkemizin	-6935
OĞ	-6936
bah	-6937
int	-6938
içi	-6939
▁7'	-6940
▁mit	-6941
▁Amir	-6942
▁Sonuç	-6943
▁alana	-6944
▁ilave	-6945
▁olası	-6946
▁planı	-6947
▁ihanet	-6948
▁hizmeti	-6949
▁sürdüğü	-6950
▁ihtimali	-6951
▁telefonla	-6952
ell	-6953
idi	-6954
.000	-6955
▁Ner	-6956
▁yur	-6957
dınız	-6958
▁katk	-6959
▁Oscar	-6960
▁köpek	-6961
▁senin	-6962
▁vefat	-6963
ayacağı	-6964
▁başlar	-6965
▁muhtem	-6966
▁hastane	-6967
▁Advocaat	-6968
▁numaralı	-6969
▁Balıkesir	-6970
▁oyuncunun	-6971
▁toplumsal	-6972
▁İstihbarat	-6973
▁yönetiminin	-6974
Ek	-6975
vil	-6976
▁08	-6977
feri	-6978
ilim	-6979
usuz	-6980
▁Hey	-6981
▁kov	-6982
▁pla	-6983
▁tok	-6984
▁Yapı	-6985
▁niye	-6986
▁Odası	-6987
▁Yunus	-6988
▁sözde	-6989
▁hesabı	-6990
▁oranda	-6991
▁teröre	-6992
▁kalıyor	-6993
▁ortamda	-6994
▁tüketic	-6995
▁İdaresi	-6996
▁yerleşim	-6997
▁yükselen	-6998
▁girişimine	-6999
iha	-7000
kon	-7001
▁ka	-7002
ayım	-7003
dağı	-7004
▁Kent	-7005
▁sırt	-7006
ısınız	-7007
▁ayakk	-7008
▁çizen	-7009
▁düzelt	-7010
▁olayda	-7011
▁tanıtım	-7012
ilmesinin	-7013
▁sorunlar	-7014
▁diliyorum	-7015
▁ülkemizde	-7016
▁operasyonlarda	-7017
ned	-7018
line	-7019
▁Kış	-7020
▁ikin	-7021
▁skan	-7022
lamayı	-7023
lıktan	-7024
▁Danış	-7025
▁kaçtı	-7026
▁oyuna	-7027
▁İstik	-7028
▁derken	-7029
▁gündür	-7030
▁olunca	-7031
▁arasına	-7032
▁istendi	-7033
▁zorunlu	-7034
▁Brezilya	-7035
▁miktarda	-7036
lediklerini	-7037
ÜK	-7038
Sur	-7039
▁Be	-7040
▁Ki	-7041
▁re	-7042
vesi	-7043
çalı	-7044
▁Cenk	-7045
▁TÜRK	-7046
▁bölün	-7047
▁keyif	-7048
▁meyve	-7049
▁selam	-7050
▁Bayrak	-7051
▁akşamı	-7052
▁başrol	-7053
▁cesedi	-7054
▁hukuki	-7055
eygamber	-7056
▁Oğuzhan	-7057
▁değinen	-7058
▁popüler	-7059
▁yazılım	-7060
▁aldıkları	-7061
▁edeceğini	-7062
▁konularda	-7063
▁bakımından	-7064
şak	-7065
▁Dik	-7066
▁Güç	-7067
▁küf	-7068
▁küç	-7069
lemiş	-7070
▁Köyü	-7071
Devlet	-7072
▁hekim	-7073
▁katlı	-7074
▁köken	-7075
▁oldum	-7076
▁riski	-7077
▁Toplum	-7078
▁amaçlı	-7079
▁varlık	-7080
lığından	-7081
▁demişti	-7082
▁şiddetli	-7083
▁Sekreteri	-7084
▁çevresinde	-7085
ARA	-7086
ico	-7087
lov	-7088
▁85	-7089
▁Ac	-7090
anti	-7091
luğa	-7092
▁est	-7093
▁sam	-7094
uştuk	-7095
▁sist	-7096
▁zırh	-7097
iyordu	-7098
▁Gerek	-7099
▁işver	-7100
▁kalem	-7101
▁çekim	-7102
▁Birçok	-7103
▁heyeti	-7104
▁başardı	-7105
▁başkent	-7106
▁bölgesi	-7107
▁incelen	-7108
▁yıldızı	-7109
▁hazırlan	-7110
▁takdirde	-7111
▁sağlanması	-7112
▁başladığını	-7113
▁Gaziantepspor	-7114
BA	-7115
ata	-7116
iro	-7117
▁Co	-7118
▁Ec	-7119
tıcı	-7120
▁dua	-7121
▁sön	-7122
andev	-7123
▁Tesi	-7124
▁kalb	-7125
▁Alper	-7126
▁Görüş	-7127
▁Resmi	-7128
▁SABAH	-7129
▁resim	-7130
▁sıfır	-7131
lamayan	-7132
▁gördüm	-7133
▁Bayramı	-7134
▁ayrılan	-7135
▁sınırlı	-7136
▁görevden	-7137
▁ülkelerde	-7138
:0	-7139
sul	-7140
tah	-7141
ğla	-7142
omut	-7143
▁Aki	-7144
erler	-7145
çılar	-7146
▁Dağı	-7147
▁Kızı	-7148
▁bine	-7149
▁sana	-7150
▁çatı	-7151
▁alama	-7152
▁sürük	-7153
ılacağı	-7154
▁United	-7155
▁imkanı	-7156
▁adımlar	-7157
▁herkese	-7158
▁maçının	-7159
▁Çalışma	-7160
▁başbakan	-7161
▁sorusuna	-7162
▁saldırının	-7163
▁söyleyerek	-7164
▁Kayserispor	-7165
▁ekiplerince	-7166
amik	-7167
onomi	-7168
▁ayar	-7169
▁çaba	-7170
▁yedek	-7171
▁atıldı	-7172
▁kalmış	-7173
▁kırsal	-7174
▁yarısı	-7175
▁çarptı	-7176
▁Kalkanı	-7177
▁yetkili	-7178
▁Kaymakam	-7179
▁yüzlerce	-7180
▁tarihleri	-7181
TK	-7182
nü	-7183
▁07	-7184
▁Eb	-7185
▁Gal	-7186
▁fiş	-7187
▁çizg	-7188
▁üste	-7189
▁Bekir	-7190
▁Erkan	-7191
▁Orada	-7192
▁harit	-7193
▁Ajansı	-7194
▁Maliye	-7195
▁parayı	-7196
▁puanla	-7197
▁hakkını	-7198
▁noktası	-7199
▁olmaması	-7200
▁Basketbol	-7201
▁ailesinin	-7202
▁edilmiştir	-7203
▁tamamlandı	-7204
TE	-7205
bon	-7206
don	-7207
▁Cey	-7208
▁Lim	-7209
▁edi	-7210
gresi	-7211
▁alev	-7212
▁Çift	-7213
▁Hatay	-7214
▁Kızıl	-7215
▁tatlı	-7216
▁bahset	-7217
▁çıkarı	-7218
▁Şüphel	-7219
▁elinden	-7220
▁çağrısı	-7221
▁Turkcell	-7222
▁ailesine	-7223
▁istasyon	-7224
▁Avusturya	-7225
▁çıkarılan	-7226
▁sisteminin	-7227
▁yönetimindeki	-7228
.7	-7229
▁üm	-7230
▁Kab	-7231
▁sip	-7232
▁ışı	-7233
abını	-7234
tefik	-7235
▁Beni	-7236
▁Roma	-7237
▁Düzen	-7238
▁eşlik	-7239
▁tünel	-7240
▁vakit	-7241
isiklet	-7242
▁oradan	-7243
▁vizyon	-7244
▁Şubesi	-7245
▁alanına	-7246
▁buluştur	-7247
▁geriledi	-7248
▁kullanıyor	-7249
▁açıklamaları	-7250
GS	-7251
dün	-7252
gat	-7253
"...	-7254
brek	-7255
▁BİR	-7256
▁füz	-7257
▁batı	-7258
▁doğu	-7259
▁ucuz	-7260
abilen	-7261
▁düğün	-7262
▁mevzu	-7263
▁tutum	-7264
▁çevre	-7265
▁olayla	-7266
▁yarışma	-7267
▁katılımı	-7268
▁yaptırım	-7269
▁sistemine	-7270
▁söylediği	-7271
ebileceğini	-7272
▁mücadelesi	-7273
▁öğrencilerin	-7274
▁olabileceğini	-7275
90	-7276
opi	-7277
▁58	-7278
steş	-7279
ırsa	-7280
▁gök	-7281
▁por	-7282
▁ren	-7283
▁Şük	-7284
▁Yazı	-7285
▁komp	-7286
▁tepk	-7287
▁vize	-7288
tuğrul	-7289
▁hâkim	-7290
▁seven	-7291
▁Askeri	-7292
▁ulaşan	-7293
▁yağışlı	-7294
▁kaldığını	-7295
▁sahasında	-7296
▁işlemlerinin	-7297
ori	-7298
▁sef	-7299
lasik	-7300
lıkta	-7301
mamak	-7302
▁Asker	-7303
▁Bilgi	-7304
▁Bulut	-7305
▁aleyh	-7306
▁endişe	-7307
▁oynadı	-7308
▁Paralel	-7309
▁Sakarya	-7310
▁fazlası	-7311
▁sponsor	-7312
▁fragmanı	-7313
▁başarısız	-7314
▁cezaevine	-7315
▁elektronik	-7316
▁rahatsızlık	-7317
HAL	-7318
▁Is	-7319
▁Pa	-7320
▁Yü	-7321
▁Sol	-7322
▁dük	-7323
▁Kulüp	-7324
▁kavga	-7325
▁dernek	-7326
▁gözden	-7327
▁izleyic	-7328
▁kalmadı	-7329
▁katliam	-7330
duklarını	-7331
▁Festivali	-7332
▁kalabalık	-7333
▁saldırılar	-7334
▁saldırısında	-7335
ise	-7336
ysa	-7337
uydu	-7338
▁Hen	-7339
▁Rum	-7340
▁Ses	-7341
▁Vit	-7342
uyucu	-7343
▁ilde	-7344
▁muay	-7345
▁verg	-7346
eyerek	-7347
lılığı	-7348
▁Fatma	-7349
▁Piyas	-7350
▁birey	-7351
▁mühim	-7352
ahattin	-7353
cılığın	-7354
▁geriye	-7355
ılabilir	-7356
▁Cenevre	-7357
▁demektir	-7358
▁dönemine	-7359
▁insanlık	-7360
▁eşliğinde	-7361
▁getiriyor	-7362
▁kullanımı	-7363
▁saldırıyı	-7364
▁ifadesinde	-7365
Her	-7366
▁Gu	-7367
▁İr	-7368
▁Dol	-7369
▁Eli	-7370
▁For	-7371
▁kâr	-7372
▁köt	-7373
▁zinc	-7374
▁Cihan	-7375
▁yazık	-7376
sağlığı	-7377
▁sürece	-7378
▁Malatya	-7379
▁almıştı	-7380
▁birliği	-7381
▁komutan	-7382
▁Pakistan	-7383
▁mühendis	-7384
▁yaşanıyor	-7385
▁bölgelerde	-7386
▁kaldırılan	-7387
BB	-7388
öre	-7389
İLİ	-7390
ınç	-7391
unlar	-7392
▁Baba	-7393
▁KOBİ	-7394
▁aklı	-7395
▁İhra	-7396
▁şunu	-7397
▁ahlak	-7398
▁imkân	-7399
▁modeli	-7400
▁saniye	-7401
ulduğunu	-7402
▁bilgisi	-7403
▁bugünkü	-7404
▁böylece	-7405
▁gününde	-7406
▁inşallah	-7407
▁sorumlusu	-7408
▁tecrübeli	-7409
▁enfeksiyon	-7410
▁mücadeleyi	-7411
-8	-7412
▁x	-7413
▁Aky	-7414
▁Koz	-7415
▁sıv	-7416
aport	-7417
▁borc	-7418
▁hata	-7419
▁kayn	-7420
▁Ortak	-7421
▁Serkan	-7422
▁Zeynep	-7423
▁analiz	-7424
▁etmeyi	-7425
▁tribün	-7426
▁artışla	-7427
▁bayrağı	-7428
▁bölgenin	-7429
▁çalışmalarına	-7430
amam	-7431
dışı	-7432
iyade	-7433
▁Edir	-7434
▁bütçe	-7435
▁kanlı	-7436
▁Sarayı	-7437
▁konuyu	-7438
▁çektir	-7439
▁bölümde	-7440
▁görünüm	-7441
▁koridor	-7442
▁Otomobil	-7443
▁bireysel	-7444
▁istediklerini	-7445
:5	-7446
TL	-7447
jen	-7448
les	-7449
▁57	-7450
▁20'	-7451
▁evi	-7452
dikal	-7453
▁Flor	-7454
▁dörd	-7455
▁katı	-7456
▁şarj	-7457
ayarak	-7458
panyol	-7459
▁Roman	-7460
▁aşama	-7461
▁rezer	-7462
▁roman	-7463
▁şeyin	-7464
▁edilir	-7465
▁kanaat	-7466
▁karara	-7467
▁tavsiye	-7468
▁başsağlığı	-7469
▁psikolojik	-7470
▁şirketlerin	-7471
rü	-7472
ood	-7473
çay	-7474
▁66	-7475
umda	-7476
ünce	-7477
▁Ela	-7478
▁akl	-7479
▁Ayşe	-7480
▁Sınır	-7481
▁alıcı	-7482
▁zemin	-7483
▁Kardeş	-7484
▁açıkça	-7485
▁yolunu	-7486
▁örgüte	-7487
ılmıştır	-7488
▁geçerek	-7489
▁işadamı	-7490
▁şarkıcı	-7491
meyeceğiz	-7492
▁planlanan	-7493
▁geldiğinde	-7494
▁görüntüleri	-7495
▁hazırladığı	-7496
ezz	-7497
▁63	-7498
ACAK	-7499
emli	-7500
▁nik	-7501
▁Savcı	-7502
▁Tören	-7503
▁taciz	-7504
▁İşlet	-7505
aladığı	-7506
▁Oyuncu	-7507
▁bilinç	-7508
▁Arkadaş	-7509
▁kalacak	-7510
▁kararlı	-7511
▁olaylar	-7512
▁altındaki	-7513
▁ilişkileri	-7514
▁kullanıldı	-7515
).	-7516
DAN	-7517
bor	-7518
▁59	-7519
▁72	-7520
berg	-7521
▁Dar	-7522
▁Zey	-7523
▁ila	-7524
sleri	-7525
arlığı	-7526
▁Afgan	-7527
▁eline	-7528
▁mutab	-7529
▁sabır	-7530
▁tetik	-7531
▁zafer	-7532
▁Karaca	-7533
▁mevsim	-7534
▁Kırmızı	-7535
▁Parçalı	-7536
▁karşıtı	-7537
▁kurduğu	-7538
▁suikast	-7539
lendiğini	-7540
▁Cerablus	-7541
▁Orgeneral	-7542
▁başlangıç	-7543
▁kararının	-7544
▁yürüttüğü	-7545
▁örgütleri	-7546
▁yardımcısı	-7547
▁dakikalarda	-7548
▁taraftarlar	-7549
SA	-7550
iba	-7551
▁öy	-7552
esma	-7553
işli	-7554
çısı	-7555
ırım	-7556
▁2-0	-7557
▁Ale	-7558
▁Kes	-7559
▁Pas	-7560
lobal	-7561
▁2009	-7562
▁Alev	-7563
▁denk	-7564
ıntılı	-7565
▁Ağbal	-7566
▁kimin	-7567
▁sabit	-7568
▁bahsed	-7569
▁konfer	-7570
▁zeytin	-7571
▁çıkmak	-7572
▁alışkan	-7573
▁gelince	-7574
▁muhafaz	-7575
▁oynuyor	-7576
▁teklifi	-7577
▁kapsamlı	-7578
▁sitesinde	-7579
▁çalışmaya	-7580
?'	-7581
öyl	-7582
▁00	-7583
▁64	-7584
iğit	-7585
lılı	-7586
tein	-7587
İHAN	-7588
▁Sun	-7589
▁Çam	-7590
dunuz	-7591
▁2000	-7592
▁idam	-7593
▁Berat	-7594
▁Muhar	-7595
▁hendek	-7596
▁patlat	-7597
▁tüfeği	-7598
▁dediler	-7599
▁kimliği	-7600
▁ülkeden	-7601
▁adlandır	-7602
▁bölgesel	-7603
▁hayatına	-7604
▁mutluluk	-7605
▁yetersiz	-7606
▁edilmişti	-7607
▁sistemini	-7608
▁kolaylaştır	-7609
kol	-7610
tre	-7611
uel	-7612
eron	-7613
roid	-7614
▁Pek	-7615
▁Str	-7616
diven	-7617
▁kıyı	-7618
atistik	-7619
▁Lisesi	-7620
▁sitesi	-7621
▁vadeli	-7622
▁Telekom	-7623
▁araçlar	-7624
▁görünce	-7625
▁tarihli	-7626
▁çekilen	-7627
ılmasının	-7628
▁istikamet	-7629
▁uygulamalar	-7630
▁gazetecilerin	-7631
Ne	-7632
çü	-7633
▁Üs	-7634
▁çö	-7635
▁öv	-7636
▁Bro	-7637
.00-1	-7638
sızın	-7639
tılar	-7640
▁derg	-7641
ülecek	-7642
▁kelim	-7643
▁ismini	-7644
▁oyunun	-7645
▁yılına	-7646
▁yitirdi	-7647
▁festival	-7648
▁haberler	-7649
▁polisler	-7650
▁hakkındaki	-7651
▁gazetecilere	-7652
.8	-7653
Par	-7654
omp	-7655
dere	-7656
▁Fir	-7657
▁göl	-7658
▁güz	-7659
▁Quar	-7660
▁Başka	-7661
▁gidiş	-7662
▁Çiçek	-7663
▁doları	-7664
▁ederim	-7665
▁savaşı	-7666
▁kanseri	-7667
▁kararın	-7668
▁musunuz	-7669
▁yenilik	-7670
▁Ertuğrul	-7671
▁vurgulan	-7672
▁yürürlüğe	-7673
▁tutuklanan	-7674
▁Önümüzdeki	-7675
DHA	-7676
ebi	-7677
gur	-7678
ktan	-7679
▁Çor	-7680
▁Şam	-7681
halat	-7682
tadır	-7683
▁amac	-7684
▁erdi	-7685
▁oper	-7686
Ankara	-7687
▁burun	-7688
▁devir	-7689
▁firma	-7690
▁şikây	-7691
▁beslen	-7692
▁mahkum	-7693
▁reddet	-7694
▁kalması	-7695
▁sezonun	-7696
▁yılları	-7697
▁fiziksel	-7698
▁özgürlüğü	-7699
▁değişikliği	-7700
▁mücadelenin	-7701
LU	-7702
ben	-7703
mon	-7704
▁Na	-7705
tüel	-7706
ısal	-7707
▁şük	-7708
ruklu	-7709
▁depo	-7710
▁suçu	-7711
▁büyüt	-7712
▁Fernan	-7713
▁kayyum	-7714
▁piyasa	-7715
▁saatte	-7716
larınızı	-7717
▁Medipol	-7718
▁bazıları	-7719
▁başlıklı	-7720
▁cezasına	-7721
▁saldırıya	-7722
▁öncelikle	-7723
▁Portekizli	-7724
▁yayınlandı	-7725
▁şirketleri	-7726
▁seviyesinde	-7727
▁öğrencileri	-7728
OT	-7729
rom	-7730
zığ	-7731
▁76	-7732
▁İt	-7733
▁Min	-7734
▁TEM	-7735
▁Çat	-7736
immet	-7737
▁Bing	-7738
ılmaya	-7739
▁Tosun	-7740
▁ayına	-7741
▁cadde	-7742
▁devre	-7743
▁Bugüne	-7744
▁Uzmanı	-7745
▁hayati	-7746
▁lezzet	-7747
▁içinden	-7748
▁isimleri	-7749
▁alanlarda	-7750
▁aldıklarını	-7751
▁değerlendiren	-7752
TT	-7753
▁61	-7754
▁Da	-7755
▁Lu	-7756
ağıt	-7757
isar	-7758
ülük	-7759
▁800	-7760
▁Göç	-7761
▁Mut	-7762
▁Araç	-7763
▁kına	-7764
▁masa	-7765
▁uyum	-7766
▁alçak	-7767
eceğine	-7768
stagram	-7769
▁haksız	-7770
▁taşıma	-7771
▁binanın	-7772
▁fırsatı	-7773
▁Quaresma	-7774
▁gelişmiş	-7775
▁kontrolü	-7776
▁transferi	-7777
İş	-7778
dini	-7779
ulma	-7780
▁Dal	-7781
▁Dep	-7782
▁SGK	-7783
▁Zar	-7784
▁mir	-7785
estek	-7786
▁mesl	-7787
▁özen	-7788
▁Ergen	-7789
▁Kadir	-7790
▁Katar	-7791
▁Muğla	-7792
▁dosya	-7793
▁topar	-7794
▁Edirne	-7795
▁Gazete	-7796
▁görsel	-7797
ebiliriz	-7798
▁egzersiz	-7799
▁İstiklal	-7800
▁durumunun	-7801
▁hızlandır	-7802
▁sürecinin	-7803
▁askerlerin	-7804
▁olduğundan	-7805
▁getirilmesi	-7806
▁güvenliğini	-7807
▁olabileceği	-7808
▁çalıştığını	-7809
MA	-7810
tel	-7811
▁52	-7812
▁üs	-7813
▁Bos	-7814
▁Som	-7815
▁fen	-7816
▁güm	-7817
denin	-7818
emmel	-7819
▁Esen	-7820
▁utan	-7821
▁Biden	-7822
▁somut	-7823
lığıyla	-7824
▁erişim	-7825
▁forvet	-7826
▁parmak	-7827
▁rezerv	-7828
isindeki	-7829
▁Kızılay	-7830
▁gerekse	-7831
▁istenen	-7832
▁konuldu	-7833
▁uzaklaş	-7834
▁yazdığı	-7835
▁Astsubay	-7836
▁başlandı	-7837
▁diyorlar	-7838
▁ilçesine	-7839
▁müttefik	-7840
▁politika	-7841
▁yakalanan	-7842
▁belirtiyor	-7843
BC	-7844
-20	-7845
Sen	-7846
enn	-7847
nuv	-7848
▁68	-7849
▁fe	-7850
▁Mir	-7851
▁Rab	-7852
▁TRT	-7853
▁tey	-7854
pınar	-7855
▁Rize	-7856
▁yüzü	-7857
▁özür	-7858
lemesi	-7859
▁Kredi	-7860
▁duran	-7861
▁plana	-7862
▁şahit	-7863
ebilmek	-7864
▁Artvin	-7865
▁Efendi	-7866
▁artışı	-7867
▁baskın	-7868
▁bulmak	-7869
▁eşinin	-7870
▁harcam	-7871
▁Sistemi	-7872
▁ailenin	-7873
▁zamanla	-7874
▁Muhammet	-7875
▁kültürel	-7876
▁araçların	-7877
▁kullanmak	-7878
ladıklarını	-7879
▁alındığını	-7880
▁durumlarda	-7881
▁düşünüyoruz	-7882
ks	-7883
hiş	-7884
ürt	-7885
▁77	-7886
▁ır	-7887
▁Kut	-7888
▁Sak	-7889
▁leh	-7890
Rusya	-7891
▁Kamp	-7892
▁Oyun	-7893
▁blok	-7894
▁ceph	-7895
▁Neden	-7896
▁evden	-7897
▁görme	-7898
▁sevin	-7899
ilebilir	-7900
▁alınmış	-7901
▁bunlara	-7902
▁oluşuyor	-7903
▁tüketici	-7904
▁istemiyle	-7905
▁vuruşunda	-7906
▁karşılıklı	-7907
▁potansiyel	-7908
osa	-7909
▁Sez	-7910
▁Tuz	-7911
eride	-7912
▁Bize	-7913
▁denet	-7914
▁günün	-7915
▁kaydı	-7916
▁zehir	-7917
▁çadır	-7918
ediğini	-7919
lenecek	-7920
melerde	-7921
▁Levent	-7922
▁geçmek	-7923
▁Çaykur	-7924
▁ücreti	-7925
▁Yabancı	-7926
▁artıyor	-7927
▁azından	-7928
ebileceği	-7929
▁genişlet	-7930
▁muhteşem	-7931
▁çocuklara	-7932
▁Soruşturma	-7933
▁faaliyetleri	-7934
.6	-7935
var	-7936
▁TC	-7937
asız	-7938
▁koc	-7939
▁tit	-7940
▁çel	-7941
ümüze	-7942
▁amir	-7943
▁hoca	-7944
▁serv	-7945
▁Münih	-7946
▁kıyas	-7947
▁Öksüz	-7948
▁şebek	-7949
.2016-0	-7950
lamalar	-7951
▁Bölümü	-7952
▁Mevlüt	-7953
▁masaya	-7954
▁tanesi	-7955
lerinizi	-7956
▁Dairesi	-7957
▁belirli	-7958
▁değiliz	-7959
▁geçtiği	-7960
▁irtibat	-7961
▁sağlaya	-7962
▁ayakkabı	-7963
▁geçirmek	-7964
▁kampanya	-7965
▁kişilere	-7966
▁vitamini	-7967
▁İspanyol	-7968
▁önlemleri	-7969
▁verilerine	-7970
▁yapılandır	-7971
▁oluşturuyor	-7972
Hay	-7973
ody	-7974
▁FI	-7975
okol	-7976
rama	-7977
▁195	-7978
▁ayn	-7979
▁laf	-7980
▁sek	-7981
ikapı	-7982
▁hadi	-7983
▁uyan	-7984
▁Camii	-7985
▁Kerry	-7986
▁Konut	-7987
▁galip	-7988
▁okula	-7989
meliyiz	-7990
▁altyap	-7991
▁kurmak	-7992
▁ulaşım	-7993
▁buluyor	-7994
▁dağıtım	-7995
▁kesinti	-7996
▁yapmayı	-7997
▁yaşamak	-7998
▁piyasaya	-7999
▁ediyorlar	-8000
▁düzenleyen	-8001
▁milyonlarca	-8002
▁oluşturduğu	-8003
xy	-8004
İB	-8005
ABD	-8006
▁71	-8007
▁73	-8008
aydı	-8009
▁Pol	-8010
▁ısı	-8011
yasal	-8012
▁izni	-8013
▁manz	-8014
ediler	-8015
▁Başar	-8016
▁Sahil	-8017
▁Sınav	-8018
▁elini	-8019
▁geçer	-8020
▁ondan	-8021
▁bizzat	-8022
▁otomob	-8023
▁randev	-8024
▁engelli	-8025
▁hayatta	-8026
▁referan	-8027
▁uyruklu	-8028
▁kuruluşu	-8029
▁projenin	-8030
▁sahipliği	-8031
▁geleneksel	-8032
.)	-8033
ja	-8034
pt	-8035
ÜZ	-8036
-10	-8037
und	-8038
▁(5	-8039
ecer	-8040
▁Göl	-8041
▁Sim	-8042
diğim	-8043
madık	-8044
▁ayrım	-8045
▁kasab	-8046
▁dizisi	-8047
▁hamile	-8048
▁raporu	-8049
▁söndür	-8050
▁Tunceli	-8051
▁ayrıntı	-8052
▁savundu	-8053
▁Direktör	-8054
▁sektörün	-8055
▁vermişti	-8056
▁Büyükelçisi	-8057
▁gerçekleştiren	-8058
faz	-8059
▁AVM	-8060
▁dek	-8061
Bugün	-8062
▁hali	-8063
▁kump	-8064
▁Özer	-8065
▁Ercan	-8066
▁direk	-8067
▁taksi	-8068
▁Kapalı	-8069
▁Toplam	-8070
▁konuya	-8071
▁rakibi	-8072
▁Android	-8073
▁Projesi	-8074
▁Birleşik	-8075
▁araçları	-8076
▁giderken	-8077
▁yakaladı	-8078
▁ülkelere	-8079
▁Demokrasi	-8080
▁aylarında	-8081
▁babasının	-8082
▁dünyasının	-8083
▁sektörünün	-8084
▁uygulamaya	-8085
fez	-8086
ator	-8087
lası	-8088
ınma	-8089
▁BAŞ	-8090
▁Fil	-8091
▁coş	-8092
etler	-8093
terör	-8094
▁Gala	-8095
▁ince	-8096
▁müte	-8097
akende	-8098
▁dönük	-8099
▁lanet	-8100
▁yürek	-8101
▁yoluna	-8102
▁hizmete	-8103
▁bulunduğ	-8104
▁kilogram	-8105
▁Gözaltına	-8106
▁getirerek	-8107
▁olanların	-8108
▁olmasının	-8109
▁seviyesine	-8110
▁temsilcileri	-8111
▁gerekmektedir	-8112
vel	-8113
▁Me	-8114
▁Hik	-8115
▁Kob	-8116
▁Mit	-8117
▁2002	-8118
▁Adam	-8119
▁horm	-8120
amızda	-8121
▁Dolar	-8122
▁Tekin	-8123
▁Vakıf	-8124
▁ordus	-8125
▁yeten	-8126
cilerin	-8127
▁Kazada	-8128
▁Marmar	-8129
▁Müsteş	-8130
▁finale	-8131
▁tebrik	-8132
▁yazarı	-8133
ecilerin	-8134
▁artması	-8135
▁değilim	-8136
▁izleyen	-8137
▁öldürdü	-8138
▁Muharrem	-8139
▁sürdüren	-8140
▁araştırmalar	-8141
▁700	-8142
▁Coş	-8143
▁Del	-8144
▁lay	-8145
▁müj	-8146
cağım	-8147
imden	-8148
okulu	-8149
▁Avuk	-8150
▁Mert	-8151
▁veri	-8152
▁Adnan	-8153
▁diyal	-8154
▁golle	-8155
▁imamı	-8156
miyoruz	-8157
▁Akadem	-8158
▁araçla	-8159
▁bonser	-8160
▁rejimi	-8161
▁uzmanı	-8162
▁onlarca	-8163
▁sunulan	-8164
▁vermedi	-8165
▁soruları	-8166
▁neticesinde	-8167
▁yakınlarında	-8168
led	-8169
anıp	-8170
atay	-8171
ekon	-8172
▁Hız	-8173
▁Ker	-8174
▁satı	-8175
▁ufak	-8176
etleri	-8177
▁falan	-8178
▁intik	-8179
▁Özcan	-8180
▁şoför	-8181
çilerin	-8182
▁kazanç	-8183
▁renkli	-8184
▁zırhlı	-8185
▁duruyor	-8186
▁kapattı	-8187
▁takımda	-8188
▁haftanın	-8189
acaklarını	-8190
▁katılımcı	-8191
▁dönemlerde	-8192
▁gönderilen	-8193
EF	-8194
▁By	-8195
▁Sı	-8196
ABER	-8197
eyiz	-8198
imle	-8199
orit	-8200
▁1,5	-8201
▁Müş	-8202
▁vah	-8203
▁Star	-8204
▁emir	-8205
▁sesi	-8206
▁Kaçak	-8207
▁Muhal	-8208
▁ayağa	-8209
▁hattı	-8210
▁ithal	-8211
labilir	-8212
▁Elazığ	-8213
▁Petrol	-8214
▁basına	-8215
▁cevabı	-8216
▁miting	-8217
▁otomotiv	-8218
▁sistemin	-8219
▁tansiyon	-8220
▁emeklilik	-8221
▁vatandaşın	-8222
▁futbolcunun	-8223
▁Cumhuriyetçi	-8224
▁çalışmalarının	-8225
▁milletvekilleri	-8226
▁?	-8227
tip	-8228
unt	-8229
üyü	-8230
▁Ku	-8231
▁To	-8232
▁Adil	-8233
▁Turg	-8234
▁okur	-8235
▁sars	-8236
▁Çank	-8237
▁Görev	-8238
▁Hanım	-8239
▁bildi	-8240
▁sevgi	-8241
▁Asayiş	-8242
▁Bingöl	-8243
▁Doktor	-8244
▁tarihe	-8245
▁şahsın	-8246
▁edeceği	-8247
▁gerçeği	-8248
▁karayol	-8249
▁öldürül	-8250
▁duygusal	-8251
▁hareketi	-8252
▁yolculuk	-8253
▁finansman	-8254
▁haberleri	-8255
▁yanıtladı	-8256
▁şirketler	-8257
▁parlamento	-8258
asıt	-8259
jans	-8260
yaka	-8261
▁Gec	-8262
ladım	-8263
▁Hoca	-8264
▁üstü	-8265
alarca	-8266
▁Konuş	-8267
▁apart	-8268
▁gözet	-8269
▁yakıt	-8270
Ekonomi	-8271
▁ihbarı	-8272
▁kadını	-8273
▁lisans	-8274
▁kendimi	-8275
▁sermaye	-8276
▁şehidin	-8277
▁kararına	-8278
▁sürücüsü	-8279
▁Olimpiyat	-8280
▁Ulaştırma	-8281
▁yarısında	-8282
▁bilmiyorum	-8283
▁etmektedir	-8284
▁gönderdiği	-8285
▁karşılaşma	-8286
hu	-8287
atik	-8288
▁Saf	-8289
▁bet	-8290
irkin	-8291
ındık	-8292
▁İkti	-8293
▁Polat	-8294
▁ihmal	-8295
▁iktid	-8296
▁moral	-8297
▁oraya	-8298
ebilece	-8299
▁Avustr	-8300
▁Tarihi	-8301
▁kadına	-8302
▁tasarı	-8303
▁Harekat	-8304
▁Zirvesi	-8305
▁düşünce	-8306
▁sisteme	-8307
▁yetenek	-8308
▁İhracat	-8309
▁belirsiz	-8310
▁bilimsel	-8311
▁firmalar	-8312
▁sayısını	-8313
▁söylemek	-8314
▁dünyadaki	-8315
▁mensupları	-8316
▁görevlileri	-8317
21	-8318
Ay	-8319
▁69	-8320
▁VE	-8321
lıca	-8322
▁küt	-8323
lamay	-8324
▁Çocu	-8325
▁iyice	-8326
▁kenar	-8327
▁ligin	-8328
anların	-8329
▁Galaxy	-8330
▁Teşkil	-8331
▁arayan	-8332
▁gözler	-8333
▁sinyal	-8334
▁töreni	-8335
▁çarpış	-8336
▁Dünyada	-8337
▁partisi	-8338
tığımızda	-8339
▁Elektrik	-8340
▁açılması	-8341
▁başlamış	-8342
▁partinin	-8343
▁tarihine	-8344
▁çıkarmak	-8345
ilmektedir	-8346
▁edilirken	-8347
▁kendileri	-8348
▁saatlerde	-8349
▁sağladığı	-8350
▁ilgilendir	-8351
EV	-8352
önü	-8353
▁74	-8354
oter	-8355
▁1-1	-8356
▁2.5	-8357
▁50'	-8358
▁Net	-8359
▁İLG	-8360
▁evli	-8361
▁konv	-8362
▁lise	-8363
acağım	-8364
▁Güler	-8365
▁Tatlı	-8366
▁layık	-8367
▁Çevre	-8368
▁böbrek	-8369
▁maçını	-8370
▁nefret	-8371
▁gönüllü	-8372
▁herkesi	-8373
▁çapında	-8374
▁çekildi	-8375
▁metrekar	-8376
▁projeler	-8377
▁toplamda	-8378
▁şartları	-8379
▁ilerleyen	-8380
▁İngilizce	-8381
▁yıllarında	-8382
▁çalışırken	-8383
▁hazırlanıyor	-8384
▁79	-8385
▁TO	-8386
umun	-8387
▁İlç	-8388
dırdı	-8389
▁Alex	-8390
▁akın	-8391
▁eriş	-8392
Suriye	-8393
▁HABER	-8394
▁Sabri	-8395
▁tezah	-8396
▁anında	-8397
▁filmin	-8398
▁masraf	-8399
eceğimiz	-8400
▁altının	-8401
▁isterim	-8402
▁ithalat	-8403
▁kayıtlı	-8404
▁Üstelik	-8405
▁Taraftar	-8406
▁teşkilat	-8407
▁dışındaki	-8408
▁göstermek	-8409
▁katılacak	-8410
▁takımının	-8411
▁oyuncuları	-8412
Ön	-8413
ang	-8414
los	-8415
rov	-8416
unç	-8417
zda	-8418
▁83	-8419
asın	-8420
▁Kem	-8421
▁MİL	-8422
▁Nor	-8423
▁gıd	-8424
atörü	-8425
ayeti	-8426
tifak	-8427
▁bini	-8428
▁pank	-8429
▁Kamer	-8430
▁Tutuk	-8431
▁akrab	-8432
▁aydır	-8433
▁boyun	-8434
▁iftir	-8435
▁mesle	-8436
▁sanki	-8437
▁çukur	-8438
leriniz	-8439
▁Batman	-8440
▁tamamı	-8441
▁davanın	-8442
▁düştüğü	-8443
▁çıkarken	-8444
▁tarafında	-8445
▁ekiplerine	-8446
▁otomobilin	-8447
▁İŞ	-8448
....	-8449
▁Mot	-8450
▁karn	-8451
▁kaşı	-8452
▁seni	-8453
▁doğan	-8454
▁kaygı	-8455
▁olmay	-8456
mıyorum	-8457
▁Anayas	-8458
▁aksine	-8459
▁dayalı	-8460
▁eylemi	-8461
▁harika	-8462
▁müthiş	-8463
▁yaptım	-8464
▁olduğum	-8465
▁tezahür	-8466
ledikleri	-8467
▁büyüklüğ	-8468
▁mahkemece	-8469
▁bünyesinde	-8470
▁beraberinde	-8471
alp	-8472
cir	-8473
mıza	-8474
yurt	-8475
▁Jam	-8476
▁Ruh	-8477
▁aya	-8478
▁bot	-8479
▁lis	-8480
umuzu	-8481
▁Akıl	-8482
▁Pınar	-8483
▁aldım	-8484
▁anlar	-8485
▁bahar	-8486
▁bakın	-8487
lıyoruz	-8488
odolski	-8489
▁Gümrük	-8490
▁adıyla	-8491
▁atarak	-8492
▁hayırlı	-8493
▁çarptır	-8494
▁pasaport	-8495
▁seviyede	-8496
▁açıklayan	-8497
▁suretiyle	-8498
▁taraftarı	-8499
▁veriliyor	-8500
▁w	-8501
ors	-8502
Lock	-8503
yeni	-8504
▁Dok	-8505
▁zul	-8506
apoli	-8507
tedir	-8508
▁2007	-8509
▁Akif	-8510
▁doku	-8511
▁ilti	-8512
inizin	-8513
▁2013'	-8514
▁Messi	-8515
▁suçlu	-8516
▁yüküm	-8517
▁Enstit	-8518
▁Geçmiş	-8519
▁girmek	-8520
▁pahalı	-8521
▁sınırı	-8522
▁faydalı	-8523
▁olsaydı	-8524
▁sahneye	-8525
▁Bakırköy	-8526
▁kazanmak	-8527
▁İnternet	-8528
▁Yüksekova	-8529
▁geleceğini	-8530
▁verdikleri	-8531
▁açıklamasını	-8532
TA	-8533
mes	-8534
eydi	-8535
▁Ağr	-8536
▁War	-8537
ettin	-8538
▁Zeki	-8539
▁dans	-8540
▁moda	-8541
▁sanı	-8542
müştür	-8543
▁Hedef	-8544
▁Medya	-8545
▁hariç	-8546
▁inanç	-8547
▁İlhan	-8548
▁ağrısı	-8549
▁sözler	-8550
▁Diyanet	-8551
▁Hakları	-8552
▁denilen	-8553
▁iddiası	-8554
▁sürüldü	-8555
▁trafiğe	-8556
▁faydalan	-8557
▁ifadeler	-8558
▁maçlarda	-8559
▁veriyoruz	-8560
▁listesinde	-8561
▁hastalıkları	-8562
▁karşılaşmada	-8563
▁konuşmasında	-8564
▁değerlendirdi	-8565
Kar	-8566
ros	-8567
taç	-8568
▁EN	-8569
▁öp	-8570
mece	-8571
▁Duy	-8572
▁Onu	-8573
▁zem	-8574
dinde	-8575
larsa	-8576
▁müsa	-8577
abildi	-8578
▁Atlet	-8579
▁Engin	-8580
▁Satış	-8581
▁kusur	-8582
▁motiv	-8583
▁Destek	-8584
▁Müzesi	-8585
▁evinin	-8586
▁gücünü	-8587
▁berabere	-8588
▁olmaları	-8589
▁kararları	-8590
▁bankacılık	-8591
▁desteğiyle	-8592
▁açıklamıştı	-8593
▁oyuncuların	-8594
▁yakalanması	-8595
:30	-8596
tiy	-8597
▁se	-8598
elin	-8599
obot	-8600
▁hemş	-8601
▁mart	-8602
▁mide	-8603
▁Şeri	-8604
▁şeye	-8605
▁2015"	-8606
▁Celal	-8607
▁dönüm	-8608
▁hitap	-8609
▁ikisi	-8610
ecekler	-8611
ışıklık	-8612
▁dondur	-8613
▁kriter	-8614
▁maçına	-8615
▁sağlar	-8616
▁Bununla	-8617
▁Bölgede	-8618
▁detaylı	-8619
▁gelişen	-8620
▁oynamak	-8621
▁uyarısı	-8622
▁alanları	-8623
▁görüşmede	-8624
▁iddiaları	-8625
▁zamanında	-8626
Av	-8627
UK	-8628
asus	-8629
elle	-8630
lera	-8631
▁2,9	-8632
▁Def	-8633
▁zek	-8634
itler	-8635
▁OHAL	-8636
▁mezh	-8637
▁tahr	-8638
esince	-8639
jantin	-8640
ularak	-8641
▁kitab	-8642
▁çiçek	-8643
▁Meteor	-8644
▁grubun	-8645
▁mağlub	-8646
▁seyirc	-8647
abilmesi	-8648
▁olmasın	-8649
▁Bakanlık	-8650
▁Organize	-8651
▁Yönetimi	-8652
▁dördüncü	-8653
▁maliyeti	-8654
▁sürecini	-8655
▁çalışmak	-8656
▁anlaşıldı	-8657
▁karşılığı	-8658
▁korunması	-8659
▁yapabilir	-8660
▁kararlılık	-8661
▁söylüyorum	-8662
▁birbirinden	-8663
▁suçlarından	-8664
İS	-8665
▁&	-8666
yim	-8667
▁84	-8668
gazi	-8669
name	-8670
▁Doç	-8671
▁tad	-8672
▁toz	-8673
▁Esra	-8674
▁Uygu	-8675
▁bors	-8676
▁etap	-8677
masyon	-8678
▁Erdal	-8679
▁Macar	-8680
▁istek	-8681
▁liman	-8682
▁Çukur	-8683
tikleri	-8684
▁adamın	-8685
▁ekrana	-8686
▁filmde	-8687
▁ilgisi	-8688
▁lirayı	-8689
▁sayede	-8690
▁yorgun	-8691
▁çekmek	-8692
▁günleri	-8693
▁yapılır	-8694
▁yolları	-8695
▁çekiliş	-8696
▁Podolski	-8697
▁karanlık	-8698
▁kimyasal	-8699
▁yolculuğ	-8700
▁Peygamber	-8701
▁anlaşması	-8702
▁yapacağını	-8703
.9	-8704
pe	-8705
Öz	-8706
Fen	-8707
ica	-8708
oks	-8709
ünt	-8710
▁Th	-8711
üper	-8712
▁Küb	-8713
▁maz	-8714
▁suy	-8715
▁Sine	-8716
▁meyv	-8717
ıcılık	-8718
▁gözük	-8719
▁küfür	-8720
▁tutul	-8721
▁ödülü	-8722
lıların	-8723
melidir	-8724
parator	-8725
▁Kongre	-8726
▁gazete	-8727
▁doğumlu	-8728
▁düşüyor	-8729
▁terörün	-8730
▁Suçlarla	-8731
▁yuvarlak	-8732
▁anlaşmaya	-8733
▁istemiyor	-8734
▁kaynakları	-8735
▁gayrimenkul	-8736
▁cumhurbaşkan	-8737
24	-8738
ft	-8739
uza	-8740
veç	-8741
▁Ju	-8742
yolu	-8743
ülüğ	-8744
▁Nit	-8745
▁ani	-8746
▁kuz	-8747
▁kör	-8748
▁tüp	-8749
ucusu	-8750
▁Adem	-8751
▁menf	-8752
▁anket	-8753
▁etken	-8754
▁izlen	-8755
▁işten	-8756
uluğunu	-8757
▁davada	-8758
▁denize	-8759
▁tabanc	-8760
▁Birinci	-8761
▁mekaniz	-8762
▁santral	-8763
▁çektiği	-8764
▁İddiaya	-8765
▁işsizlik	-8766
▁kurtarma	-8767
▁Karşıyaka	-8768
▁Tesisleri	-8769
▁açıklanan	-8770
▁öldürülen	-8771
▁Tuğgeneral	-8772
▁uygulanacak	-8773
▁vatandaşları	-8774
▁şüphelilerin	-8775
▁06	-8776
itif	-8777
urta	-8778
▁194	-8779
▁Acı	-8780
▁Tük	-8781
▁YAP	-8782
▁Ziy	-8783
▁çet	-8784
ektaş	-8785
vanya	-8786
▁Başk	-8787
▁özgü	-8788
luğunu	-8789
▁Değer	-8790
▁borcu	-8791
▁görür	-8792
▁kısım	-8793
▁Özkan	-8794
▁Avukat	-8795
▁Silopi	-8796
▁Trafik	-8797
▁eleman	-8798
▁müdürü	-8799
▁ortağı	-8800
▁İLGİLİ	-8801
▁Muslera	-8802
▁askerin	-8803
▁siyasal	-8804
▁tehlike	-8805
larımızla	-8806
▁isimlerin	-8807
▁sorgulama	-8808
▁görüntüler	-8809
▁nitelendir	-8810
▁sitesinden	-8811
▁yardımıyla	-8812
▁vatandaşlara	-8813
Or	-8814
▁â	-8815
mos	-8816
ecik	-8817
ganı	-8818
▁Lok	-8819
▁deş	-8820
▁loj	-8821
▁çor	-8822
dında	-8823
▁indi	-8824
▁semt	-8825
▁çant	-8826
▁ömür	-8827
adikal	-8828
incisi	-8829
olitik	-8830
▁Fuarı	-8831
▁meden	-8832
▁muhat	-8833
▁saati	-8834
▁satır	-8835
▁Camisi	-8836
▁anlama	-8837
▁etmedi	-8838
▁Elbette	-8839
▁saatlik	-8840
▁Arjantin	-8841
▁barındır	-8842
▁Instagram	-8843
▁aşamasında	-8844
▁hatırlattı	-8845
▁konusundaki	-8846
▁muhaliflerin	-8847
POR	-8848
ack	-8849
amı	-8850
▁6'	-8851
▁Hu	-8852
▁Cün	-8853
▁Ola	-8854
▁Pal	-8855
▁kül	-8856
▁tap	-8857
dıran	-8858
landa	-8859
▁Dört	-8860
▁avro	-8861
▁Şark	-8862
alayan	-8863
ınızda	-8864
▁Nihat	-8865
▁nişan	-8866
▁sunan	-8867
▁yolun	-8868
▁yürüm	-8869
▁arayış	-8870
▁kentin	-8871
▁oynama	-8872
▁verdim	-8873
▁etmiyor	-8874
▁müşteri	-8875
▁sürecin	-8876
▁ürünler	-8877
▁İddianam	-8878
▁ettiğimiz	-8879
▁metrekare	-8880
▁sayısında	-8881
▁hassasiyet	-8882
▁şeklindeki	-8883
SG	-8884
wa	-8885
PKK	-8886
iki	-8887
▁ec	-8888
▁eh	-8889
-200	-8890
vili	-8891
▁Kiş	-8892
▁nas	-8893
▁yel	-8894
Terör	-8895
iğeri	-8896
▁Musa	-8897
▁kala	-8898
çileri	-8899
▁Ersoy	-8900
▁düzel	-8901
▁husus	-8902
▁ideal	-8903
▁masum	-8904
▁stres	-8905
▁bizden	-8906
▁koltuk	-8907
▁mecbur	-8908
▁soruya	-8909
▁Onların	-8910
▁Sabancı	-8911
▁Şehidin	-8912
▁Kalkınma	-8913
▁askerler	-8914
▁mutabakat	-8915
▁şüpheliler	-8916
ÜL	-8917
akk	-8918
hay	-8919
▁01	-8920
▁Bö	-8921
cusu	-8922
ifor	-8923
▁biy	-8924
Bizim	-8925
ezzin	-8926
▁alar	-8927
▁olas	-8928
aracak	-8929
ksiyon	-8930
▁Daire	-8931
▁bulaş	-8932
▁robot	-8933
▁subay	-8934
▁Kanada	-8935
▁aranan	-8936
▁ilçede	-8937
▁alakalı	-8938
▁değişti	-8939
▁karışık	-8940
▁kökenli	-8941
▁peşinde	-8942
▁tabanca	-8943
▁Avrupalı	-8944
▁bunlardan	-8945
▁güçlerine	-8946
▁verildiği	-8947
▁Temsilcisi	-8948
▁olabilecek	-8949
IA	-8950
Şu	-8951
sis	-8952
yat	-8953
▁Mc	-8954
▁Op	-8955
▁Üz	-8956
▁Ada	-8957
▁Kel	-8958
▁twe	-8959
luğun	-8960
yaman	-8961
▁Cans	-8962
▁Abdul	-8963
▁Mesut	-8964
▁Piyan	-8965
▁Yiğit	-8966
▁idman	-8967
▁kalec	-8968
▁kalır	-8969
▁kongr	-8970
▁sebze	-8971
▁sekiz	-8972
▁sordu	-8973
▁şehri	-8974
luğunda	-8975
▁beklet	-8976
▁Önceki	-8977
▁Koordin	-8978
▁Saldırı	-8979
▁ertelen	-8980
▁sözcüsü	-8981
▁Ekonomik	-8982
▁etkisini	-8983
▁protokol	-8984
▁basketbol	-8985
▁personeli	-8986
▁propaganda	-8987
▁programında	-8988
▁uygulamaları	-8989
ach	-8990
ern	-8991
▁eb	-8992
▁kâ	-8993
afak	-8994
yası	-8995
▁FIFA	-8996
▁Kars	-8997
▁etik	-8998
▁prov	-8999
▁sarf	-9000
▁2016"	-9001
▁Bulgar	-9002
▁birine	-9003
▁karbon	-9004
▁şehrin	-9005
lamaları	-9006
▁bakıyor	-9007
▁bekledi	-9008
▁olmuyor	-9009
▁yaşadık	-9010
▁çıkmaya	-9011
▁artırmak	-9012
▁dışarıda	-9013
▁yönetici	-9014
▁üretilen	-9015
▁cumartesi	-9016
▁bilinmeyen	-9017
▁göstererek	-9018
▁girişiminde	-9019
DV	-9020
LA	-9021
api	-9022
ost	-9023
▁2-	-9024
▁86	-9025
▁88	-9026
ezya	-9027
▁Eto	-9028
▁Win	-9029
▁ağz	-9030
▁kuy	-9031
aması	-9032
ılmak	-9033
▁Yolu	-9034
2.2016	-9035
Cumhur	-9036
üldüğü	-9037
▁David	-9038
▁belge	-9039
▁diyet	-9040
▁İdman	-9041
lenerek	-9042
▁Martin	-9043
▁kentte	-9044
▁nereye	-9045
▁taşıdı	-9046
▁bırakan	-9047
▁doların	-9048
▁giriyor	-9049
▁oğlunun	-9050
▁savunan	-9051
▁sürecek	-9052
▁Hastalık	-9053
▁Kadınlar	-9054
▁ilişkisi	-9055
▁kaliteli	-9056
▁yapmıştı	-9057
▁edilebilir	-9058
▁ülkelerine	-9059
▁Meteoroloji	-9060
▁hükümetinin	-9061
▁yönetiminde	-9062
▁Şampiyonası	-9063
EZ	-9064
sef	-9065
▁od	-9066
ivan	-9067
tion	-9068
▁191	-9069
▁Con	-9070
▁Tür	-9071
▁bez	-9072
halde	-9073
▁abon	-9074
▁Yanal	-9075
▁atlat	-9076
▁kızın	-9077
▁yaşta	-9078
▁zorla	-9079
▁Şener	-9080
emediği	-9081
▁Akıncı	-9082
▁Bağdat	-9083
▁Kurban	-9084
▁Ordusu	-9085
▁hırsız	-9086
▁Beyoğlu	-9087
▁nitelik	-9088
▁randevu	-9089
▁bakanlık	-9090
▁ekibinin	-9091
Fenerbahçe	-9092
▁oynayacağı	-9093
▁tarihinden	-9094
▁şüphelinin	-9095
▁bakıldığında	-9096
eck	-9097
kas	-9098
▁1-	-9099
gili	-9100
omuz	-9101
▁Lib	-9102
▁idi	-9103
▁Ağrı	-9104
cılığa	-9105
larımı	-9106
▁işsiz	-9107
▁kenti	-9108
▁oynat	-9109
▁tutun	-9110
diğimiz	-9111
▁kıymet	-9112
▁lehine	-9113
▁olanak	-9114
▁redded	-9115
▁yüzünü	-9116
▁Federal	-9117
▁diyorum	-9118
▁milyona	-9119
▁seçilen	-9120
▁Yenikapı	-9121
▁gelmişti	-9122
▁mükemmel	-9123
▁şartıyla	-9124
lacivertli	-9125
▁Avustralya	-9126
▁isteyenler	-9127
▁ihtiyacımız	-9128
▁fiyatlarının	-9129
eğe	-9130
Çok	-9131
▁Gr	-9132
▁Je	-9133
Yeni	-9134
isti	-9135
▁Seb	-9136
▁Vek	-9137
▁Efes	-9138
▁Otel	-9139
▁Rıza	-9140
▁ekim	-9141
▁Terzi	-9142
▁Zafer	-9143
▁isyan	-9144
▁işlev	-9145
▁kuşat	-9146
▁iyileş	-9147
▁kitabı	-9148
▁resmen	-9149
▁ülkesi	-9150
ileriyle	-9151
▁değişen	-9152
▁imzalan	-9153
▁çıkaran	-9154
▁bulunmak	-9155
▁edilemez	-9156
▁piyasada	-9157
▁zamanlar	-9158
▁bilgisini	-9159
▁etrafında	-9160
▁geçtiğini	-9161
▁gittiğini	-9162
▁projeleri	-9163
▁yolsuzluk	-9164
▁kullanılması	-9165
ife	-9166
▁Hz	-9167
ates	-9168
▁Keş	-9169
▁Wil	-9170
▁dür	-9171
▁gas	-9172
erbah	-9173
▁Para	-9174
▁merm	-9175
▁bitki	-9176
▁doğur	-9177
▁etmem	-9178
▁güzer	-9179
▁katil	-9180
erseniz	-9181
▁Cüneyt	-9182
▁işleri	-9183
▁kaşığı	-9184
ilerinde	-9185
▁Başkent	-9186
▁yöntemi	-9187
▁altından	-9188
▁kanattan	-9189
▁ağırlıklı	-9190
▁farklılık	-9191
▁çerçevede	-9192
▁iddianamede	-9193
▁bölgelerinde	-9194
▁vurgulayarak	-9195
ie	-9196
SYK	-9197
▁Baz	-9198
▁Cor	-9199
▁Gay	-9200
▁Mis	-9201
▁Şer	-9202
▁Cami	-9203
▁Fark	-9204
▁dele	-9205
▁eleb	-9206
▁faci	-9207
▁izle	-9208
▁turu	-9209
▁yara	-9210
▁becer	-9211
▁deney	-9212
▁varil	-9213
▁kanalı	-9214
▁teşhis	-9215
▁uyumlu	-9216
▁cesaret	-9217
▁savaşın	-9218
▁skandal	-9219
▁sokakta	-9220
▁uyandır	-9221
▁varlığı	-9222
▁bisiklet	-9223
▁hastanın	-9224
▁kullanma	-9225
▁törenine	-9226
▁çatışmada	-9227
▁olabiliyor	-9228
▁oluşturulan	-9229
▁örgütlerinin	-9230
AÇ	-9231
ESİ	-9232
Kur	-9233
Son	-9234
ebe	-9235
isk	-9236
kut	-9237
ilme	-9238
lağı	-9239
masız	-9240
▁Borsa	-9241
▁Kazan	-9242
▁Kitap	-9243
▁Yoksa	-9244
▁aradı	-9245
▁evlat	-9246
▁orman	-9247
▁perde	-9248
▁sipar	-9249
çekmece	-9250
▁klasik	-9251
▁tarafı	-9252
▁çirkin	-9253
▁büyüyen	-9254
▁dünyası	-9255
▁girmesi	-9256
▁millete	-9257
▁pozitif	-9258
▁ulaşmak	-9259
▁vitamin	-9260
▁şikâyet	-9261
▁Boğaziçi	-9262
▁Komitesi	-9263
▁cevabını	-9264
▁derecede	-9265
▁geçmişte	-9266
▁görevine	-9267
▁kaynaklı	-9268
▁uyarınca	-9269
▁paylaştığı	-9270
▁yöneticileri	-9271
▁yaşadıklarını	-9272
ÖR	-9273
▁TE	-9274
▁dü	-9275
esun	-9276
ifre	-9277
ladi	-9278
ulur	-9279
▁Lid	-9280
▁köp	-9281
▁ırk	-9282
CİHAN	-9283
deres	-9284
lının	-9285
▁Ebru	-9286
▁Uşak	-9287
▁gole	-9288
▁riba	-9289
▁ters	-9290
ecilik	-9291
imleri	-9292
ükspor	-9293
▁Mutlu	-9294
▁Tedav	-9295
▁mimar	-9296
▁seçen	-9297
▁vakıf	-9298
lamadan	-9299
▁Toprak	-9300
▁devred	-9301
▁geleni	-9302
▁ikamet	-9303
▁yapısı	-9304
▁yönelt	-9305
▁Karaman	-9306
▁geçmesi	-9307
▁girerek	-9308
▁muhtemel	-9309
▁temizlik	-9310
▁ziyareti	-9311
eceklerini	-9312
▁Enstitüsü	-9313
▁kesintisi	-9314
▁oluşturdu	-9315
▁töreninde	-9316
▁çıkardığı	-9317
▁Brezilyalı	-9318
▁yöneticisi	-9319
▁ilçesindeki	-9320
▁öğrencilere	-9321
▁çalışmaların	-9322
BI	-9323
NA	-9324
SM	-9325
usi	-9326
iver	-9327
▁Eur	-9328
▁Giz	-9329
▁Nil	-9330
▁Sün	-9331
▁Tes	-9332
▁Ton	-9333
▁elb	-9334
▁mon	-9335
▁ödü	-9336
eynir	-9337
▁kitl	-9338
▁İmam	-9339
▁Final	-9340
▁Harun	-9341
▁Kimse	-9342
▁Mimar	-9343
▁Nazlı	-9344
▁ayağı	-9345
▁tüfek	-9346
▁Coşkun	-9347
▁Yetkil	-9348
▁başlay	-9349
▁beklem	-9350
▁bekley	-9351
▁habere	-9352
▁kalmak	-9353
▁otopsi	-9354
▁çapraz	-9355
▁öldüğü	-9356
▁duyduğu	-9357
▁konulan	-9358
▁sunduğu	-9359
▁yapının	-9360
▁şeyleri	-9361
▁Adıyaman	-9362
▁Fenerbah	-9363
▁arayarak	-9364
▁ikramiye	-9365
▁kararlar	-9366
▁sergilen	-9367
▁dayanışma	-9368
▁iyileştir	-9369
▁yeterince	-9370
▁başlattığı	-9371
▁gösterilen	-9372
▁zorundayız	-9373
▁gazetesinin	-9374
▁kendisinden	-9375
rit	-9376
▁Du	-9377
▁He	-9378
▁MÜ	-9379
LARI	-9380
hats	-9381
ğimi	-9382
▁10.	-9383
▁15'	-9384
▁90'	-9385
▁Cez	-9386
▁Nij	-9387
▁Pap	-9388
▁Tec	-9389
▁ust	-9390
▁viz	-9391
▁Şem	-9392
▁Şii	-9393
cular	-9394
imark	-9395
ograf	-9396
çının	-9397
üneli	-9398
▁Aksu	-9399
▁Olur	-9400
▁Show	-9401
▁kale	-9402
▁topa	-9403
▁Ülke	-9404
umuzun	-9405
▁Bilal	-9406
▁Proje	-9407
▁okuma	-9408
▁siber	-9409
▁tabur	-9410
▁yönlü	-9411
▁çabuk	-9412
▁ürünü	-9413
larınca	-9414
▁Napoli	-9415
▁bağlam	-9416
▁meclis	-9417
▁oluşum	-9418
▁yetmez	-9419
▁çekici	-9420
▁gruplar	-9421
▁raporda	-9422
mayacağız	-9423
▁gündemde	-9424
▁haftalık	-9425
▁fonksiyon	-9426
▁konuşuyor	-9427
▁sınırları	-9428
▁talebinde	-9429
▁hizmetleri	-9430
▁işletmeler	-9431
▁koleksiyon	-9432
▁ilişkilerin	-9433
▁katılımıyla	-9434
▁milletimizin	-9435
+1	-9436
Beş	-9437
dao	-9438
▁3-	-9439
▁be	-9440
inal	-9441
üleb	-9442
▁70'	-9443
▁Nak	-9444
▁Tüf	-9445
▁ast	-9446
▁muk	-9447
tekin	-9448
unuzu	-9449
▁Adan	-9450
▁sıvı	-9451
▁uzay	-9452
▁2011'	-9453
▁Ayhan	-9454
▁Müzik	-9455
▁Okulu	-9456
▁Yerli	-9457
liyorum	-9458
ülasyon	-9459
▁Birlik	-9460
▁Hazine	-9461
▁Rüzgar	-9462
▁Taksim	-9463
▁Yorumu	-9464
▁Zeybek	-9465
▁beraat	-9466
▁gündüz	-9467
▁manevi	-9468
▁sindir	-9469
▁taksit	-9470
▁Cezaevi	-9471
▁dizinin	-9472
▁konular	-9473
▁zararlı	-9474
▁biliyorum	-9475
▁görüntülen	-9476
▁kaldırıldığı	-9477
sü	-9478
-15	-9479
Hal	-9480
sün	-9481
▁7.	-9482
oban	-9483
uluş	-9484
▁Ney	-9485
▁Rek	-9486
▁Tas	-9487
▁buy	-9488
▁zev	-9489
▁çıl	-9490
▁Üssü	-9491
üyoruz	-9492
▁Duruş	-9493
▁Vitor	-9494
▁baraj	-9495
▁yaşay	-9496
▁şidde	-9497
dığınız	-9498
▁emanet	-9499
▁ordusu	-9500
▁bebeğin	-9501
▁istedik	-9502
▁bankalar	-9503
▁seferber	-9504
▁verirken	-9505
▁biliniyor	-9506
▁bonservis	-9507
▁kuzeyinde	-9508
▁şikayetçi	-9509
39	-9510
CK	-9511
and	-9512
has	-9513
sar	-9514
▁62	-9515
İLER	-9516
▁Ric	-9517
▁kum	-9518
▁ikil	-9519
▁salı	-9520
▁cesed	-9521
▁ihrac	-9522
▁prens	-9523
▁yakış	-9524
▁Balkan	-9525
▁Bürosu	-9526
▁boşalt	-9527
▁kapatı	-9528
▁niteli	-9529
▁vadede	-9530
leştirme	-9531
▁Müezzin	-9532
▁arındır	-9533
▁başlaya	-9534
▁bulduğu	-9535
▁olmanın	-9536
ılacağını	-9537
▁Menderes	-9538
meyeceğini	-9539
▁olduğunda	-9540
▁seslendir	-9541
▁tedbirler	-9542
▁görüşmeleri	-9543
▁ifadelerine	-9544
▁saatlerinden	-9545
6)	-9546
DEN	-9547
MSF	-9548
▁sö	-9549
▁ÖN	-9550
tosu	-9551
▁Cav	-9552
▁doy	-9553
▁kli	-9554
Benim	-9555
▁Eyüp	-9556
▁Otob	-9557
▁kupa	-9558
lüğüne	-9559
▁Nijer	-9560
▁etmez	-9561
▁tabut	-9562
acağına	-9563
▁anlamı	-9564
▁havadan	-9565
▁hepimiz	-9566
▁içeride	-9567
▁disiplin	-9568
▁elindeki	-9569
▁oranının	-9570
▁vermeden	-9571
▁yoğunlaş	-9572
▁ülkedeki	-9573
▁inanılmaz	-9574
▁oluşturan	-9575
▁Selahattin	-9576
▁Televizyon	-9577
▁duyurusunda	-9578
▁emniyetteki	-9579
by	-9580
ws	-9581
İl	-9582
ess	-9583
▁br	-9584
▁Üm	-9585
.30'	-9586
avan	-9587
keli	-9588
▁30'	-9589
▁Küt	-9590
▁sus	-9591
▁van	-9592
siyet	-9593
▁Bara	-9594
▁Mavi	-9595
▁göze	-9596
▁kons	-9597
duktan	-9598
sinler	-9599
ıyordu	-9600
▁Cemal	-9601
▁Premi	-9602
▁Yarış	-9603
▁Turgut	-9604
▁girmiş	-9605
▁güçlük	-9606
▁taziye	-9607
▁düşünen	-9608
▁genelde	-9609
▁kısmını	-9610
▁Danimark	-9611
▁bilmiyor	-9612
▁kurumsal	-9613
▁aldığımız	-9614
▁kazandığı	-9615
▁havalandır	-9616
▁kampanyası	-9617
▁yapılacağı	-9618
▁uçaklarının	-9619
▁özellikleri	-9620
▁kullanıldığı	-9621
FAD	-9622
enç	-9623
hid	-9624
▁Ba	-9625
SİAD	-9626
ahan	-9627
ando	-9628
elçi	-9629
irse	-9630
lary	-9631
▁AYM	-9632
▁Toy	-9633
▁vel	-9634
abank	-9635
calan	-9636
imini	-9637
küdar	-9638
lanır	-9639
▁Ekip	-9640
▁İlet	-9641
iciler	-9642
▁17-25	-9643
▁Akşam	-9644
▁Emine	-9645
▁Gelen	-9646
▁Japon	-9647
▁verip	-9648
▁sezonu	-9649
▁terörü	-9650
▁turnuv	-9651
▁örneği	-9652
▁üreten	-9653
▁gözyaşı	-9654
▁halkına	-9655
▁yansıdı	-9656
▁Terörist	-9657
▁buradaki	-9658
▁bölgeler	-9659
▁etmiştir	-9660
▁mühimmat	-9661
▁başlaması	-9662
▁edecektir	-9663
▁yaşıyoruz	-9664
▁düşünmüyor	-9665
▁referandum	-9666
▁kuruluşları	-9667
▁çalışmalara	-9668
▁ülkelerinin	-9669
▁tutuklanarak	-9670
▁82	-9671
hael	-9672
sman	-9673
▁Air	-9674
▁Ode	-9675
▁Sow	-9676
▁gib	-9677
ektif	-9678
ümüzü	-9679
ğimde	-9680
▁Tart	-9681
▁asit	-9682
▁kade	-9683
imizle	-9684
likten	-9685
▁Sivil	-9686
▁Tugay	-9687
▁edici	-9688
▁eseri	-9689
▁infaz	-9690
▁parça	-9691
▁satan	-9692
▁ölümü	-9693
▁Körfez	-9694
▁Olayın	-9695
▁Sektör	-9696
▁Servis	-9697
▁binası	-9698
▁bizler	-9699
▁dilekç	-9700
▁direkt	-9701
▁zincir	-9702
▁aramada	-9703
▁ağırlık	-9704
▁bırakıp	-9705
▁estetik	-9706
▁hayatın	-9707
▁istedim	-9708
▁miktarı	-9709
▁sezonda	-9710
▁yerlere	-9711
▁adamları	-9712
▁açılacak	-9713
▁dolardan	-9714
▁etkileri	-9715
▁restoran	-9716
▁çıkmıştı	-9717
mayacağını	-9718
▁gördüğünü	-9719
▁ürünlerin	-9720
▁İşbirliği	-9721
▁diplomatik	-9722
▁yaralandığı	-9723
▁değerlendirme	-9724
Ge	-9725
bas	-9726
dön	-9727
gir	-9728
ima	-9729
koç	-9730
lit	-9731
off	-9732
▁8.	-9733
▁SU	-9734
▁Ur	-9735
emem	-9736
eter	-9737
iliş	-9738
▁yoğ	-9739
dilik	-9740
meyiz	-9741
▁2018	-9742
▁Gece	-9743
▁Lens	-9744
▁köyü	-9745
lıoğlu	-9746
▁Doğru	-9747
▁Torku	-9748
▁bordo	-9749
▁işini	-9750
▁iştah	-9751
▁mikro	-9752
▁müjde	-9753
▁vuran	-9754
▁vücud	-9755
▁şeref	-9756
▁ederiz	-9757
▁havaya	-9758
▁tahsil	-9759
laşmanın	-9760
▁Telefon	-9761
▁devlete	-9762
▁işveren	-9763
▁olmazsa	-9764
▁çalışanı	-9765
▁Bayraktar	-9766
▁arasından	-9767
▁kapatıldı	-9768
▁sorunların	-9769
▁sözleşmesi	-9770
▁yaşadıkları	-9771
▁gerçekleşecek	-9772
ANI	-9773
ARI	-9774
aco	-9775
▁Ed	-9776
▁fı	-9777
▁Bru	-9778
▁Rah	-9779
▁caz	-9780
▁ceb	-9781
▁kaş	-9782
ilyon	-9783
▁Azez	-9784
▁Bolu	-9785
▁Sili	-9786
▁Tepe	-9787
▁meme	-9788
▁vaat	-9789
1.2016	-9790
tırken	-9791
yıldız	-9792
▁Oktay	-9793
▁Yakın	-9794
▁koltuğ	-9795
▁onunla	-9796
▁yarattı	-9797
▁yardımı	-9798
▁Fotoğraf	-9799
▁etmesini	-9800
▁önündeki	-9801
▁haklarını	-9802
▁hastalığın	-9803
▁olmasından	-9804
▁destekleyen	-9805
▁yurtdışında	-9806
ÖK	-9807
LIK	-9808
YON	-9809
amo	-9810
del	-9811
fed	-9812
ino	-9813
▁8'	-9814
▁CN	-9815
▁ER	-9816
▁İÇ	-9817
atar	-9818
lısı	-9819
▁Hac	-9820
▁Kök	-9821
▁Müh	-9822
▁Rad	-9823
▁VAR	-9824
▁deh	-9825
▁set	-9826
▁umu	-9827
▁ÖSO	-9828
▁çığ	-9829
ebbet	-9830
salar	-9831
uldak	-9832
▁gözü	-9833
emizde	-9834
▁Halis	-9835
▁Moody	-9836
▁boğaz	-9837
▁değin	-9838
▁karma	-9839
▁kurtu	-9840
▁oynay	-9841
▁testi	-9842
acaklar	-9843
ğimizde	-9844
▁atıyor	-9845
▁diğeri	-9846
▁olmasa	-9847
▁uzantı	-9848
▁yenilg	-9849
▁Piyango	-9850
▁cerrahi	-9851
▁koyduğu	-9852
▁madalya	-9853
▁Atletico	-9854
▁güzellik	-9855
▁uzmanlar	-9856
▁uçakları	-9857
▁beklediği	-9858
▁konumunda	-9859
Galatasaray	-9860
▁Afganistan	-9861
▁avukatları	-9862
▁girişimini	-9863
▁söylemişti	-9864
▁Müezzinoğlu	-9865
▁gerektiğine	-9866
YK	-9867
tic	-9868
layı	-9869
mini	-9870
stil	-9871
▁Lüt	-9872
▁ihl	-9873
▁koz	-9874
cedes	-9875
▁Bilg	-9876
▁Geor	-9877
▁Psik	-9878
▁flaş	-9879
isiniz	-9880
▁Adası	-9881
▁Hemen	-9882
▁Vladi	-9883
▁Whats	-9884
▁budur	-9885
▁kurdu	-9886
▁menaj	-9887
▁taahh	-9888
▁çekin	-9889
▁üyeli	-9890
▁düzeni	-9891
▁gitmiş	-9892
▁gittim	-9893
▁kazada	-9894
▁yandaş	-9895
onguldak	-9896
▁Hillary	-9897
▁Nitekim	-9898
▁Serbest	-9899
▁ittifak	-9900
▁paranın	-9901
lamayacak	-9902
▁Kongresi	-9903
▁yaptılar	-9904
▁anlamında	-9905
▁ekonomisi	-9906
▁kadınlara	-9907
▁pazartesi	-9908
▁perakende	-9909
▁sonlandır	-9910
▁memnuniyet	-9911
▁Başkanvekili	-9912
PO	-9913
▁89	-9914
▁op	-9915
▁öm	-9916
amin	-9917
amuk	-9918
ders	-9919
▁2-3	-9920
▁Fab	-9921
▁Lav	-9922
▁Lin	-9923
▁tuv	-9924
Allah	-9925
esyon	-9926
▁2004	-9927
▁Stat	-9928
▁akış	-9929
▁otoy	-9930
▁Doğal	-9931
▁atmos	-9932
▁kucak	-9933
▁teker	-9934
▁yazan	-9935
▁Ülker	-9936
▁Birkaç	-9937
▁Konfer	-9938
▁almayı	-9939
▁içerik	-9940
▁kulübü	-9941
▁samimi	-9942
▁yüzüne	-9943
Beşiktaş	-9944
melerine	-9945
▁darbeci	-9946
▁deşifre	-9947
▁eğlence	-9948
▁katkıda	-9949
▁katkısı	-9950
▁verimli	-9951
▁şimdiye	-9952
▁konuştuk	-9953
▁grupların	-9954
▁kamuoyuna	-9955
▁oynayacak	-9956
▁ambulansla	-9957
▁hastaların	-9958
▁vurgulandı	-9959
▁baktığımızda	-9960
▁ekonomisinin	-9961
▁hatırlatarak	-9962
▁yayınlanacak	-9963
▁operasyonunda	-9964
4)	-9965
80	-9966
LE	-9967
au	-9968
olos	-9969
▁Cel	-9970
▁Diş	-9971
▁yuv	-9972
▁şov	-9973
madım	-9974
▁HSYK	-9975
▁Mali	-9976
▁atak	-9977
▁kazı	-9978
Aktüel	-9979
▁Mario	-9980
▁Trans	-9981
▁hücum	-9982
▁ihale	-9983
▁kahve	-9984
▁çizdi	-9985
▁önünü	-9986
▁manşet	-9987
▁Bunları	-9988
▁artacak	-9989
▁belgesi	-9990
▁dönüştü	-9991
▁mevzuat	-9992
▁ölümüne	-9993
▁memleket	-9994
▁İnsanlar	-9995
▁Fernandao	-9996
▁Teşkilatı	-9997
▁İlişkiler	-9998
▁bulunmuştu	-9999
▁yurtdışına	-10000
▁çağrısında	-10001
▁Hayvancılık	-10002
▁getirildiği	-10003
▁girişiminden	-10004
7)	-10005
ât	-10006
mda	-10007
▁9.	-10008
ardo	-10009
uyuz	-10010
▁130	-10011
▁Ağa	-10012
▁Bes	-10013
▁GÜN	-10014
▁Ort	-10015
inler	-10016
mızın	-10017
▁2006	-10018
▁Aslı	-10019
▁Avni	-10020
▁Hadi	-10021
▁Umar	-10022
▁cüml	-10023
▁okuy	-10024
▁tasf	-10025
▁usta	-10026
▁ümit	-10027
Kültür	-10028
lilere	-10029
▁Cenaz	-10030
▁Karay	-10031
▁derbi	-10032
▁göğüs	-10033
▁hapse	-10034
▁pişir	-10035
▁İsmet	-10036
▁Barack	-10037
▁Yüksel	-10038
▁benzin	-10039
▁ekibin	-10040
▁geliri	-10041
▁heykel	-10042
▁ihlali	-10043
▁oranla	-10044
▁Girişim	-10045
▁Sigorta	-10046
▁anımsat	-10047
▁kimseye	-10048
▁radikal	-10049
▁riskini	-10050
▁yakında	-10051
▁Platform	-10052
▁ameliyatı	-10053
▁defalarca	-10054
▁kararıyla	-10055
▁kurumları	-10056
▁seçimleri	-10057
▁direksiyon	-10058
▁tamamlayan	-10059
lacivertliler	-10060
11	-10061
PSS	-10062
nav	-10063
▁Ex	-10064
ECEK	-10065
aklı	-10066
kurt	-10067
sten	-10068
tina	-10069
▁Haş	-10070
▁KDV	-10071
▁Rio	-10072
▁Çol	-10073
▁çak	-10074
culuk	-10075
nikof	-10076
▁Alış	-10077
▁Kiev	-10078
▁dert	-10079
▁gemi	-10080
▁hükm	-10081
▁kira	-10082
▁ofis	-10083
▁Tasar	-10084
▁civar	-10085
▁hücre	-10086
▁istey	-10087
▁konul	-10088
▁okudu	-10089
▁radyo	-10090
▁Çınar	-10091
▁Önder	-10092
lıyorum	-10093
▁Eroğlu	-10094
▁Hırvat	-10095
▁Norveç	-10096
▁Salonu	-10097
▁Zengin	-10098
▁namazı	-10099
▁tescil	-10100
▁Çağlar	-10101
▁ayrılık	-10102
▁diyoruz	-10103
▁edenler	-10104
▁götürdü	-10105
▁iddialı	-10106
▁köyünde	-10107
▁olaydan	-10108
▁senaryo	-10109
▁çarpıcı	-10110
▁Odeabank	-10111
▁Vladimir	-10112
▁hattında	-10113
▁kahvaltı	-10114
▁sahasına	-10115
▁sürerken	-10116
▁İletişim	-10117
▁getirecek	-10118
▁memleketi	-10119
▁kadrosunda	-10120
▁ülkelerden	-10121
▁Bulgaristan	-10122
▁gelişmeleri	-10123
▁yapılabilir	-10124
▁yaşandığını	-10125
▁bölgesindeki	-10126
▁mensuplarına	-10127
2)	-10128
ÜŞ	-10129
lav	-10130
ânı	-10131
ırt	-10132
▁95	-10133
anta	-10134
iirt	-10135
▁3.5	-10136
▁Kos	-10137
▁VER	-10138
▁hip	-10139
▁tay	-10140
ation	-10141
maraş	-10142
ombar	-10143
▁West	-10144
▁arzu	-10145
▁başa	-10146
▁best	-10147
▁ente	-10148
▁morg	-10149
ümüzün	-10150
▁Arınç	-10151
▁Aykut	-10152
▁Hafta	-10153
▁Ligde	-10154
▁infil	-10155
▁sanal	-10156
▁sundu	-10157
▁süper	-10158
▁egemen	-10159
▁geçişi	-10160
▁mezhep	-10161
▁okuyan	-10162
▁ortamı	-10163
▁otorit	-10164
▁söyler	-10165
▁toplan	-10166
▁yaratı	-10167
▁Yaşanan	-10168
▁bombası	-10169
▁coğrafy	-10170
▁garanti	-10171
▁gençler	-10172
▁nöbetçi	-10173
▁sebeple	-10174
▁Üsküdar	-10175
▁gelebilir	-10176
▁öğrenilen	-10177
:2	-10178
ço	-10179
▁2,	-10180
▁Ir	-10181
ozan	-10182
▁Hul	-10183
▁evr	-10184
▁rüt	-10185
▁süs	-10186
▁çiğ	-10187
bahar	-10188
kusuz	-10189
takım	-10190
▁Tanı	-10191
▁uydu	-10192
iminde	-10193
▁James	-10194
▁Necip	-10195
▁aldır	-10196
▁arazi	-10197
▁karın	-10198
▁keşif	-10199
▁konak	-10200
▁uzlaş	-10201
▁yatan	-10202
▁çalın	-10203
▁İlker	-10204
uyorlar	-10205
▁Haydar	-10206
▁adliye	-10207
▁aradan	-10208
▁eğilim	-10209
▁gelmez	-10210
▁saptan	-10211
▁dünyayı	-10212
▁iddiaya	-10213
▁izlemek	-10214
▁müebbet	-10215
▁tanınan	-10216
▁taşımak	-10217
▁yumurta	-10218
▁Devletin	-10219
▁Mercedes	-10220
▁Savcılık	-10221
▁mesajlar	-10222
▁olduktan	-10223
▁sağlandı	-10224
▁tüketimi	-10225
▁aktarıldı	-10226
▁alınmıştı	-10227
▁olayların	-10228
▁sınırında	-10229
▁ailelerine	-10230
▁cumhuriyet	-10231
▁politikası	-10232
▁operasyonları	-10233
CE	-10234
-19	-10235
ALI	-10236
viv	-10237
▁Pi	-10238
▁je	-10239
ılış	-10240
▁350	-10241
▁Mid	-10242
▁mel	-10243
▁Çak	-10244
▁çür	-10245
metse	-10246
parta	-10247
▁Kans	-10248
▁Sonr	-10249
▁yürü	-10250
▁Üzer	-10251
▁Siirt	-10252
▁binin	-10253
▁dünkü	-10254
▁kutlu	-10255
▁nisan	-10256
▁telaf	-10257
▁yapın	-10258
▁Çocuğ	-10259
▁devrim	-10260
▁farkın	-10261
▁insana	-10262
▁kalkın	-10263
▁akciğer	-10264
▁forması	-10265
▁hastası	-10266
▁protein	-10267
▁Marmaris	-10268
▁belgesel	-10269
▁katılmak	-10270
▁önemlisi	-10271
▁Zonguldak	-10272
▁Kaçakçılık	-10273
▁bağlantısı	-10274
▁istiyorlar	-10275
▁tamamlanan	-10276
▁yapıyorlar	-10277
▁yargılanan	-10278
asa	-10279
gue	-10280
slu	-10281
ıbbi	-10282
▁Aks	-10283
▁BBC	-10284
▁Cep	-10285
▁Köş	-10286
izmin	-10287
leyip	-10288
▁Berk	-10289
▁Büro	-10290
▁Hani	-10291
▁bayr	-10292
▁muam	-10293
ebilen	-10294
ilmeli	-10295
▁Aksoy	-10296
▁Bahar	-10297
▁artar	-10298
▁babam	-10299
▁döner	-10300
▁etnik	-10301
▁hafız	-10302
▁yumuş	-10303
▁şubat	-10304
lamıştı	-10305
▁Bitlis	-10306
▁kongre	-10307
▁mesela	-10308
▁ortala	-10309
▁rüzgar	-10310
▁stoper	-10311
▁şeyden	-10312
▁Küresel	-10313
▁odasına	-10314
eceksiniz	-10315
▁Danıştay	-10316
▁Otomotiv	-10317
▁bölümünü	-10318
▁saldırdı	-10319
▁sıcaklık	-10320
▁uçağının	-10321
▁Ergenekon	-10322
▁Kaynaklar	-10323
▁evlerinde	-10324
▁noktasına	-10325
▁söylediler	-10326
▁Karabükspor	-10327
▁yakınlarına	-10328
▁müdahalelere	-10329
Tİ	-10330
th	-10331
Ül	-10332
DER	-10333
sus	-10334
alaş	-10335
anya	-10336
için	-10337
▁11.	-10338
▁Büt	-10339
▁Süt	-10340
▁eli	-10341
lülük	-10342
yakıt	-10343
▁Okan	-10344
▁aşan	-10345
cıları	-10346
ilmeye	-10347
inizde	-10348
lacağı	-10349
sınlar	-10350
▁Yüzde	-10351
▁alerj	-10352
▁golcü	-10353
▁panik	-10354
▁sergi	-10355
▁zihin	-10356
▁Çevik	-10357
2016-03	-10358
amadığı	-10359
leşmesi	-10360
▁Kandil	-10361
▁Meydan	-10362
▁atanan	-10363
▁ağabey	-10364
▁efsane	-10365
▁görmüş	-10366
▁keskin	-10367
▁dinamik	-10368
▁general	-10369
▁istemiş	-10370
▁korkunç	-10371
▁minibüs	-10372
▁oradaki	-10373
▁Uzmanlar	-10374
▁konuşmak	-10375
▁kısmının	-10376
▁seçilmiş	-10377
▁söyledim	-10378
▁tutuksuz	-10379
▁versiyon	-10380
▁zihniyet	-10381
▁Öğretmen	-10382
alarındaki	-10383
▁bölgesine	-10384
▁doğusunda	-10385
▁görüyorum	-10386
▁Ermenistan	-10387
▁inanıyoruz	-10388
▁ekiplerinden	-10389
▁değişiklikler	-10390
CI	-10391
Tr	-10392
UŞ	-10393
ÖZ	-10394
öv	-10395
INA	-10396
tam	-10397
www	-10398
Şeh	-10399
▁87	-10400
▁İN	-10401
▁Nas	-10402
▁Ren	-10403
▁obj	-10404
gören	-10405
▁akım	-10406
▁razı	-10407
▁Afyon	-10408
▁Altun	-10409
▁Kırım	-10410
▁bizde	-10411
▁rövan	-10412
▁Şişli	-10413
▁Boydak	-10414
▁Denizi	-10415
▁binden	-10416
▁havada	-10417
▁kaleme	-10418
▁mesele	-10419
▁sıraya	-10420
▁Giresun	-10421
▁Premier	-10422
▁bekleme	-10423
▁düşmesi	-10424
▁bozukluk	-10425
▁kişileri	-10426
▁kurucusu	-10427
▁merdiven	-10428
▁ülkemize	-10429
▁desteğini	-10430
▁seviyorum	-10431
▁sözleriyle	-10432
▁yanıtlayan	-10433
▁yatırımları	-10434
8)	-10435
BUL	-10436
ian	-10437
▁3,2	-10438
▁Geb	-10439
▁Sof	-10440
▁fet	-10441
▁kel	-10442
▁yeğ	-10443
▁öte	-10444
ersek	-10445
liydi	-10446
▁100'	-10447
▁Amed	-10448
▁Elif	-10449
▁akar	-10450
▁mülk	-10451
▁İcra	-10452
▁Kazak	-10453
▁Siliv	-10454
▁Tufan	-10455
▁daral	-10456
▁donan	-10457
▁kader	-10458
▁puanı	-10459
▁İhbar	-10460
▁Vekili	-10461
▁gemisi	-10462
▁kurucu	-10463
▁seyret	-10464
▁birinde	-10465
▁fırtına	-10466
▁seçildi	-10467
▁yenerek	-10468
▁arkasına	-10469
▁bölgeden	-10470
▁indirimi	-10471
▁önlemler	-10472
▁istemeyen	-10473
▁Öncelikle	-10474
▁Demokratik	-10475
▁polislerin	-10476
▁kararlaştır	-10477
▁kullanılıyor	-10478
▁metrekarelik	-10479
▁Kahramanmaraş	-10480
5)	-10481
ps	-10482
▁̈	-10483
ida	-10484
obi	-10485
raj	-10486
▁3,	-10487
▁Hâ	-10488
acık	-10489
imli	-10490
irli	-10491
otel	-10492
rini	-10493
özüm	-10494
▁3-1	-10495
▁Vur	-10496
▁sığ	-10497
▁zaf	-10498
lenir	-10499
vivor	-10500
▁Sosa	-10501
▁obez	-10502
maktır	-10503
▁Robin	-10504
▁Temel	-10505
▁bence	-10506
▁helal	-10507
▁maaşı	-10508
▁puana	-10509
▁önemi	-10510
▁Karlov	-10511
▁Yazıcı	-10512
▁geldim	-10513
▁isteği	-10514
▁maçtan	-10515
▁okulda	-10516
▁sağlay	-10517
▁seçimi	-10518
▁uçağın	-10519
▁yazısı	-10520
▁Michael	-10521
▁aylarda	-10522
▁eğitime	-10523
▁infilak	-10524
▁kadroya	-10525
▁kamuoyu	-10526
▁milleti	-10527
▁tespiti	-10528
▁önemine	-10529
▁Amirliği	-10530
▁anlayışı	-10531
▁destekli	-10532
▁konuları	-10533
▁operatör	-10534
▁sahipleri	-10535
▁engellemek	-10536
▁incelemede	-10537
▁yatırımlar	-10538
▁Parlamentosu	-10539
▁fotoğrafları	-10540
AF	-10541
deb	-10542
sch	-10543
drom	-10544
ırak	-10545
▁110	-10546
▁40'	-10547
▁Est	-10548
▁Gam	-10549
▁Rod	-10550
▁çöp	-10551
osyon	-10552
oyraz	-10553
▁2003	-10554
▁Konu	-10555
▁eğit	-10556
▁mutf	-10557
▁Çevr	-10558
▁özet	-10559
ımızla	-10560
▁Eylem	-10561
▁Sizin	-10562
▁inanc	-10563
▁kabil	-10564
▁üzünt	-10565
▁Konser	-10566
▁kimdir	-10567
▁konvoy	-10568
▁yollar	-10569
▁şoförü	-10570
▁Katılım	-10571
▁durumuna	-10572
▁hastalar	-10573
▁ihracatı	-10574
▁sakatlık	-10575
▁verdiler	-10576
▁yaşından	-10577
▁Mezarlığı	-10578
▁kadrosuna	-10579
▁yanındaki	-10580
▁yollarını	-10581
▁cezaevinde	-10582
▁edilmesini	-10583
▁karşılaştı	-10584
▁şirketlerinin	-10585
hak	-10586
tiş	-10587
batı	-10588
ihaz	-10589
▁Peş	-10590
▁far	-10591
ANBUL	-10592
aleti	-10593
düstr	-10594
incan	-10595
▁AFAD	-10596
▁Enes	-10597
▁auta	-10598
▁iniş	-10599
▁komb	-10600
▁kula	-10601
emeyiz	-10602
▁Andre	-10603
▁Bazen	-10604
▁Dilek	-10605
▁Hayır	-10606
▁bakar	-10607
▁biber	-10608
▁duyan	-10609
▁Burhan	-10610
▁Monaco	-10611
▁kazası	-10612
▁kenara	-10613
▁peynir	-10614
▁sorusu	-10615
▁tutmak	-10616
▁yerler	-10617
▁Öcalan	-10618
▁öldüren	-10619
▁Kurtuluş	-10620
▁başvurdu	-10621
▁işlemler	-10622
▁kapsayan	-10623
▁dediğimiz	-10624
▁değişiyor	-10625
▁hırsızlık	-10626
▁konferans	-10627
▁medeniyet	-10628
▁süresince	-10629
▁mağlubiyet	-10630
▁çalışanlar	-10631
▁çalışanları	-10632
▁koordinasyon	-10633
▁çatışmaların	-10634
▁dolandırıcılık	-10635
▁sürdürülebilir	-10636
40	-10637
9)	-10638
yl	-10639
ato	-10640
yol	-10641
▁Eg	-10642
▁Qu	-10643
ceği	-10644
dine	-10645
oluk	-10646
▁Bol	-10647
▁Fur	-10648
▁Soğ	-10649
▁Cast	-10650
▁Dinç	-10651
▁İdil	-10652
amanın	-10653
▁Erkin	-10654
▁Ersun	-10655
▁Kesin	-10656
▁Libya	-10657
▁ikiye	-10658
▁kayın	-10659
▁kağıt	-10660
▁koyan	-10661
▁litre	-10662
▁miras	-10663
▁Çolak	-10664
Paralel	-10665
▁ByLock	-10666
▁Normal	-10667
▁Tüneli	-10668
▁Zarrab	-10669
▁dükkan	-10670
▁pazarı	-10671
▁sertif	-10672
▁Angeles	-10673
▁bununla	-10674
▁satılan	-10675
▁silahla	-10676
▁önlemek	-10677
▁Programı	-10678
▁tedaviye	-10679
▁direktörü	-10680
▁diyebilir	-10681
▁talebiyle	-10682
▁Çetinkaya	-10683
▁Politikalar	-10684
▁istedikleri	-10685
▁olmayacağını	-10686
▁çalışıyorlar	-10687
▁çocuklarının	-10688
▁Eskişehirspor	-10689
use	-10690
çin	-10691
▁GB	-10692
▁Öğ	-10693
beti	-10694
egül	-10695
ehri	-10696
isca	-10697
yaya	-10698
yağı	-10699
ülya	-10700
ıklı	-10701
▁900	-10702
▁Ilı	-10703
▁Pla	-10704
▁yör	-10705
dalar	-10706
kadir	-10707
latma	-10708
umuza	-10709
▁Paul	-10710
▁Play	-10711
▁kurs	-10712
▁rütb	-10713
▁Özal	-10714
▁Sarık	-10715
▁Yemen	-10716
▁biten	-10717
▁bulgu	-10718
▁idrar	-10719
▁rehin	-10720
▁tweet	-10721
▁Profes	-10722
▁arıyor	-10723
▁benden	-10724
▁derhal	-10725
▁parası	-10726
▁zamana	-10727
▁çocuğa	-10728
▁Karabük	-10729
▁Konuyla	-10730
▁Türkler	-10731
▁adaylar	-10732
▁darbeye	-10733
▁sesleri	-10734
▁süreyle	-10735
▁trilyon	-10736
▁İktidar	-10737
▁erkekler	-10738
▁herhalde	-10739
▁mesajını	-10740
▁başarıyla	-10741
▁hedefleri	-10742
▁futbolcusu	-10743
▁hedefliyor	-10744
▁birbirlerine	-10745
▁geliştirilen	-10746
▁kilometrelik	-10747
▁teröristlere	-10748
Geç	-10749
ego	-10750
hil	-10751
şar	-10752
▁ED	-10753
amaş	-10754
fica	-10755
ranı	-10756
▁"15	-10757
▁Muş	-10758
▁Tev	-10759
▁fit	-10760
▁izn	-10761
▁vil	-10762
▁Fonu	-10763
▁Harp	-10764
▁Mült	-10765
▁muaf	-10766
▁norm	-10767
▁tavr	-10768
ülerek	-10769
▁Melek	-10770
▁Tuzla	-10771
▁acaba	-10772
▁araca	-10773
▁bozul	-10774
▁ispat	-10775
▁kurma	-10776
▁tarzı	-10777
▁Ümran	-10778
▁Mahall	-10779
▁Tüfenk	-10780
▁görmez	-10781
▁müraca	-10782
▁tavsiy	-10783
▁Yolları	-10784
▁anlamlı	-10785
▁gelmeye	-10786
▁gerekçe	-10787
▁görünen	-10788
▁malzeme	-10789
▁projede	-10790
öylelikle	-10791
▁alınıyor	-10792
▁parasını	-10793
▁toplandı	-10794
▁ulaştığı	-10795
▁şimdiden	-10796
▁alınırken	-10797
▁birimleri	-10798
▁karşımıza	-10799
▁kaynaklar	-10800
▁mesajları	-10801
▁otomobili	-10802
▁Toplantısı	-10803
▁toplantıya	-10804
▁istemiyorum	-10805
▁karşılaşmanın	-10806
PK	-10807
SU	-10808
▁`	-10809
▁Ce	-10810
▁ÖZ	-10811
iğin	-10812
varı	-10813
zacı	-10814
▁1.2	-10815
▁2,5	-10816
▁GEL	-10817
▁Gre	-10818
▁Hes	-10819
▁Nik	-10820
▁şan	-10821
osunu	-10822
▁adil	-10823
▁artı	-10824
▁faul	-10825
▁rolü	-10826
▁seri	-10827
luluğu	-10828
▁Altan	-10829
▁Bebek	-10830
▁Enver	-10831
▁Seçim	-10832
▁Tokat	-10833
▁ajans	-10834
▁gayet	-10835
▁günkü	-10836
▁kuran	-10837
▁milis	-10838
▁solun	-10839
▁uğrat	-10840
▁Asliye	-10841
▁Hikmet	-10842
▁Hulusi	-10843
▁ayının	-10844
▁bombar	-10845
▁sembol	-10846
▁sevinç	-10847
▁yoldan	-10848
▁alanlar	-10849
▁almadan	-10850
▁birlikt	-10851
▁görülür	-10852
▁konunun	-10853
▁menfaat	-10854
düklerini	-10855
▁paylaşan	-10856
▁şüphelen	-10857
▁bulunarak	-10858
▁bırakılan	-10859
▁dizisinde	-10860
▁eylemleri	-10861
▁gündemine	-10862
▁hepimizin	-10863
▁kaybetmiş	-10864
▁sunulacak	-10865
▁yapılarak	-10866
▁şartlarda	-10867
▁gazetesine	-10868
▁mücadeleye	-10869
▁olmadığına	-10870
▁yaşadığını	-10871
▁verildiğini	-10872
▁futbolcuların	-10873
La	-10874
göl	-10875
tap	-10876
uru	-10877
öly	-10878
esti	-10879
iste	-10880
işik	-10881
lulu	-10882
▁Ata	-10883
▁Bra	-10884
▁YIL	-10885
▁nes	-10886
▁Emen	-10887
▁Ende	-10888
▁imaj	-10889
▁prom	-10890
▁Elvan	-10891
▁Günde	-10892
▁Maçın	-10893
▁Parkı	-10894
▁girip	-10895
▁günah	-10896
▁macer	-10897
▁zirve	-10898
▁İşada	-10899
▁Emekli	-10900
▁Koruma	-10901
▁albümü	-10902
▁asıllı	-10903
▁cennet	-10904
▁girişi	-10905
▁tırman	-10906
▁zorlan	-10907
ebilmesi	-10908
üldüğünü	-10909
▁09.00-1	-10910
▁Cinayet	-10911
▁Devleti	-10912
▁Korkmaz	-10913
▁Silivri	-10914
▁TÜRKİYE	-10915
▁ayından	-10916
▁doktora	-10917
▁genetik	-10918
▁katında	-10919
▁kınıyor	-10920
▁otopark	-10921
▁Survivor	-10922
▁birtakım	-10923
▁büyükelç	-10924
▁danışman	-10925
▁filminde	-10926
▁sorgulan	-10927
▁toplayan	-10928
▁tezahürat	-10929
▁yarattığı	-10930
▁sıkıntılar	-10931
▁üstlendiği	-10932
▁fotoğrafını	-10933
▁planlanıyor	-10934
▁yapabilecek	-10935
▁soruşturmada	-10936
▁belirlenemeyen	-10937
▁operasyonların	-10938
miz	-10939
yoz	-10940
▁İf	-10941
wood	-10942
▁12.	-10943
▁3-4	-10944
▁BİN	-10945
▁Col	-10946
▁DEĞ	-10947
▁inç	-10948
▁jür	-10949
▁pak	-10950
▁eksi	-10951
▁kolu	-10952
▁Cadde	-10953
▁Doğuş	-10954
▁Metro	-10955
▁Ronal	-10956
▁Sanık	-10957
▁Tarık	-10958
▁deyip	-10959
▁elden	-10960
▁hayli	-10961
▁tıkan	-10962
liğimiz	-10963
malarda	-10964
▁Lavrov	-10965
▁yumurt	-10966
liğinden	-10967
▁Akdoğan	-10968
▁Sportif	-10969
▁aktivit	-10970
▁anlamak	-10971
▁etmeyen	-10972
▁kentsel	-10973
▁kuruldu	-10974
▁muhatap	-10975
▁sahadan	-10976
▁sipariş	-10977
▁taburcu	-10978
▁yerleri	-10979
▁öncülüğ	-10980
▁Hakemler	-10981
▁Zeybekci	-10982
▁eleştiri	-10983
▁sürecine	-10984
▁vereceği	-10985
▁verilmiş	-10986
▁Çocuklar	-10987
▁duruşmada	-10988
▁kurulacak	-10989
▁sakatlığı	-10990
▁sigortalı	-10991
▁tehlikeye	-10992
▁öncelikli	-10993
▁Yetkililer	-10994
▁göstergesi	-10995
▁sisteminde	-10996
▁talimatıyla	-10997
▁kaybettiğini	-10998
▁cumhurbaşkanı	-10999
12	-11000
As	-11001
MB	-11002
uğ	-11003
ÜY	-11004
HKP	-11005
IST	-11006
azz	-11007
▁Ez	-11008
▁İK	-11009
rand	-11010
rupa	-11011
usun	-11012
▁Los	-11013
▁Mağ	-11014
▁eti	-11015
▁fes	-11016
▁hek	-11017
▁ÖSY	-11018
▁şık	-11019
cunun	-11020
tınız	-11021
▁Atik	-11022
▁evet	-11023
▁Cemil	-11024
▁Hangi	-11025
▁Times	-11026
▁alımı	-11027
▁denen	-11028
▁kirli	-11029
▁nakli	-11030
▁vasıt	-11031
ovasyon	-11032
▁Ferhat	-11033
▁araçta	-11034
▁defned	-11035
▁global	-11036
▁kumpas	-11037
▁sabaha	-11038
▁seslen	-11039
▁yaşına	-11040
▁Bulvarı	-11041
▁Emenike	-11042
▁Savcısı	-11043
▁okullar	-11044
▁tanıyor	-11045
▁tarafta	-11046
▁Çankaya	-11047
lenmesine	-11048
▁atmosfer	-11049
▁detaylar	-11050
▁firmanın	-11051
▁güçlerin	-11052
▁konudaki	-11053
▁yaşamaya	-11054
▁Ödülleri	-11055
▁Sivasspor	-11056
▁duyduğunu	-11057
▁görüldüğü	-11058
▁kurtarmak	-11059
▁sokakları	-11060
▁uğurlandı	-11061
▁başkanları	-11062
▁firmaların	-11063
▁Operasyonda	-11064
▁saldırısına	-11065
▁tedavisinde	-11066
▁yapılmasını	-11067
▁İddianamede	-11068
▁propagandası	-11069
OB	-11070
#39	-11071
dut	-11072
nca	-11073
nel	-11074
#39;	-11075
adın	-11076
allı	-11077
amay	-11078
iyad	-11079
lini	-11080
türü	-11081
▁140	-11082
▁EUR	-11083
▁Sad	-11084
▁sök	-11085
▁Char	-11086
▁Küba	-11087
▁TMSF	-11088
▁deri	-11089
▁türü	-11090
likler	-11091
tikten	-11092
▁Etkin	-11093
▁ateşe	-11094
▁açmak	-11095
▁nikah	-11096
▁titiz	-11097
▁verin	-11098
çıların	-11099
ımızdan	-11100
▁Kaplan	-11101
▁Zeytin	-11102
▁ajansı	-11103
▁baştan	-11104
▁kayyım	-11105
▁oturum	-11106
▁sendik	-11107
▁çiftin	-11108
▁önlemi	-11109
▁aşamada	-11110
▁diyalog	-11111
▁giydiği	-11112
▁kullanı	-11113
▁seyirci	-11114
▁törenle	-11115
▁usulsüz	-11116
▁Ülkenin	-11117
▁Disiplin	-11118
▁Yönetmen	-11119
▁dışından	-11120
▁güzergah	-11121
▁hesabını	-11122
▁verileri	-11123
▁zamandır	-11124
▁şiddetle	-11125
▁düzeyinde	-11126
▁düştüğünü	-11127
▁sevgilisi	-11128
▁sırasıyla	-11129
laştırılmış	-11130
▁beklentisi	-11131
▁oluşturmak	-11132
▁projesinin	-11133
▁teknolojik	-11134
▁yönetimine	-11135
▁demokrasiye	-11136
▁çalışanların	-11137
1)	-11138
70	-11139
HR	-11140
dö	-11141
ji	-11142
OKİ	-11143
lib	-11144
oni	-11145
tüm	-11146
üzg	-11147
şaf	-11148
▁iv	-11149
kiye	-11150
riye	-11151
▁190	-11152
▁Por	-11153
▁Yat	-11154
abilm	-11155
imine	-11156
mekle	-11157
yurdu	-11158
▁Anal	-11159
▁Kalp	-11160
▁Veli	-11161
▁açar	-11162
▁devi	-11163
raktör	-11164
▁Ergin	-11165
▁Maden	-11166
▁Sanay	-11167
▁Sport	-11168
▁durak	-11169
▁evrak	-11170
▁girer	-11171
▁yendi	-11172
▁çözül	-11173
asusluk	-11174
▁Bostan	-11175
▁Tuncay	-11176
▁kaldık	-11177
▁keşfet	-11178
▁ruhsat	-11179
▁sözünü	-11180
▁Kontrol	-11181
▁anahtar	-11182
▁kalarak	-11183
▁katılma	-11184
▁sevilen	-11185
▁sorular	-11186
▁zirvede	-11187
▁Erzincan	-11188
▁Hakkında	-11189
▁aleyhine	-11190
▁bağırsak	-11191
▁evlerine	-11192
▁isterken	-11193
▁depresyon	-11194
▁gençlerin	-11195
▁haberlere	-11196
▁içerisine	-11197
▁okulların	-11198
▁programda	-11199
▁rejiminin	-11200
▁yaşanacak	-11201
▁arkasından	-11202
▁gazeteciler	-11203
▁piyasalarda	-11204
▁saldırıların	-11205
▁seçimlerinde	-11206
CÜ	-11207
ADI	-11208
cal	-11209
cın	-11210
kul	-11211
İNE	-11212
▁EX	-11213
▁Sk	-11214
▁Sn	-11215
▁ep	-11216
ecan	-11217
mann	-11218
veni	-11219
▁GÖR	-11220
▁Saç	-11221
▁mol	-11222
▁rot	-11223
eğine	-11224
eğmen	-11225
rasya	-11226
▁kesi	-11227
amızın	-11228
üsünün	-11229
▁2012'	-11230
▁Diego	-11231
▁Ekrem	-11232
▁Emrah	-11233
▁Gazze	-11234
▁Hazır	-11235
▁Hülya	-11236
▁Yücel	-11237
▁Yılın	-11238
▁atmak	-11239
▁hamil	-11240
▁hamle	-11241
▁labor	-11242
▁çizgi	-11243
▁üzeri	-11244
▁korkut	-11245
▁mutfak	-11246
▁provok	-11247
▁çıktık	-11248
▁şaşkın	-11249
▁Benfica	-11250
▁Partili	-11251
▁Valilik	-11252
▁bulunma	-11253
▁etkiley	-11254
▁kiralık	-11255
▁müsaade	-11256
▁sıradan	-11257
▁taahhüt	-11258
▁veriler	-11259
ılmasıyla	-11260
▁başarısı	-11261
▁beklenti	-11262
▁edebiyat	-11263
▁gelmiyor	-11264
▁kaymakam	-11265
▁numarası	-11266
▁perşembe	-11267
▁planları	-11268
▁takımına	-11269
▁ekonomiye	-11270
▁gerekirse	-11271
▁isteniyor	-11272
▁haklarında	-11273
▁isimlerden	-11274
▁maçlarında	-11275
▁programına	-11276
▁sağlanacak	-11277
▁şirketlere	-11278
▁Yapılanması	-11279
▁çıkarıldığı	-11280
▁Fenerbahçeli	-11281
▁kaldırılarak	-11282
▁karşılaşacak	-11283
▁kontrolünden	-11284
▁Başsavcılığın	-11285
▁kurtarılamadı	-11286
IP	-11287
fe	-11288
ATA	-11289
rey	-11290
vey	-11291
şiv	-11292
▁Sc	-11293
alam	-11294
azio	-11295
else	-11296
ment	-11297
üzün	-11298
▁Pil	-11299
▁Ref	-11300
▁izi	-11301
ganın	-11302
linin	-11303
üsünü	-11304
ıplak	-11305
▁2020	-11306
▁KPSS	-11307
▁Uslu	-11308
▁akla	-11309
▁ayın	-11310
▁gasp	-11311
▁inen	-11312
▁pomp	-11313
mışlar	-11314
▁Başta	-11315
▁Koray	-11316
▁Mobil	-11317
▁adımı	-11318
▁durdu	-11319
▁iflas	-11320
▁iklim	-11321
▁kütüp	-11322
▁çekir	-11323
▁Açılış	-11324
▁Cerrah	-11325
▁Toyota	-11326
▁atandı	-11327
▁açarak	-11328
▁etapta	-11329
▁gününe	-11330
▁Üçüncü	-11331
ayolları	-11332
mayacağı	-11333
▁bizimle	-11334
▁bulacak	-11335
▁işletme	-11336
▁pankart	-11337
▁Öğretim	-11338
▁ödülünü	-11339
▁müracaat	-11340
▁müzakere	-11341
▁Akademisi	-11342
▁Saldırıda	-11343
▁bırakarak	-11344
▁görüşmesi	-11345
▁kurulması	-11346
▁tepkisini	-11347
▁Haberleşme	-11348
▁dünyasında	-11349
▁yapılırken	-11350
▁Hastanesine	-11351
▁kaynaklanan	-11352
▁ülkelerinde	-11353
▁belirtilerek	-11354
▁kontrolündeki	-11355
EÇ	-11356
FDK	-11357
gâh	-11358
yem	-11359
Eğer	-11360
calı	-11361
isiz	-11362
sika	-11363
▁Hor	-11364
▁Sık	-11365
▁toh	-11366
lerse	-11367
melik	-11368
plant	-11369
▁Geri	-11370
▁Mars	-11371
▁darp	-11372
▁kedi	-11373
bistan	-11374
▁Biraz	-11375
▁Bordo	-11376
▁Hepsi	-11377
▁Numan	-11378
▁Olcay	-11379
▁araba	-11380
▁beton	-11381
▁damga	-11382
▁diler	-11383
▁kömür	-11384
▁oğlum	-11385
▁üzgün	-11386
dükleri	-11387
▁Ailesi	-11388
▁Akıllı	-11389
▁adrese	-11390
▁sandal	-11391
alardaki	-11392
silvanya	-11393
▁Görüntü	-11394
▁keyifli	-11395
▁laborat	-11396
▁markası	-11397
▁maçları	-11398
▁morguna	-11399
▁muayene	-11400
▁odaklan	-11401
▁ribaunt	-11402
▁takviye	-11403
▁tarihte	-11404
▁öğrenen	-11405
tiklerini	-11406
▁Tüfenkci	-11407
▁bırakmak	-11408
▁gösterir	-11409
▁kalkınma	-11410
▁kiralama	-11411
▁söylemiş	-11412
▁yapanlar	-11413
▁çoğunluk	-11414
▁İSTANBUL	-11415
▁Bunlardan	-11416
▁Danimarka	-11417
▁Yönetmeni	-11418
▁bulunacak	-11419
▁değerleri	-11420
▁göreceğiz	-11421
▁kapatılan	-11422
▁karşıladı	-11423
▁sigortası	-11424
▁yapıyorum	-11425
▁yayınladı	-11426
▁yetkilisi	-11427
▁çoğunluğu	-11428
▁Macaristan	-11429
▁anlaşmanın	-11430
▁başladılar	-11431
▁başlamıştı	-11432
▁edebilecek	-11433
▁kullanılab	-11434
▁mülteciler	-11435
▁Üniversite	-11436
▁bulunmadığı	-11437
▁uygulanması	-11438
▁mültecilerin	-11439
▁yapılacağını	-11440
▁bulunmaktadır	-11441
▁hazırlıklarını	-11442
fo	-11443
Yıl	-11444
mec	-11445
tıp	-11446
▁05	-11447
▁şö	-11448
ahit	-11449
arik	-11450
stra	-11451
▁Lüb	-11452
▁Mol	-11453
▁Wal	-11454
gatif	-11455
leşti	-11456
▁Bizi	-11457
▁Kaan	-11458
▁köşe	-11459
▁laik	-11460
▁tabl	-11461
▁İÇİN	-11462
usuyla	-11463
▁Bruma	-11464
▁Henüz	-11465
▁asans	-11466
▁bacak	-11467
▁bulur	-11468
▁dokuz	-11469
▁eklem	-11470
▁iştir	-11471
▁talih	-11472
▁çifti	-11473
▁açıyor	-11474
▁diledi	-11475
▁duyuru	-11476
▁gelmek	-11477
▁online	-11478
▁sırala	-11479
▁Avrasya	-11480
▁bakalım	-11481
▁diyabet	-11482
▁uzaktan	-11483
▁çağırdı	-11484
▁Geliştir	-11485
▁metrelik	-11486
▁seviyeye	-11487
▁belgeleri	-11488
▁detayları	-11489
▁yönetimin	-11490
▁Denizcilik	-11491
▁kapılarını	-11492
▁teröristlerce	-11493
faf	-11494
İST	-11495
▁Ra	-11496
arya	-11497
idim	-11498
▁Dam	-11499
▁Fev	-11500
▁kef	-11501
-2016	-11502
iddet	-11503
iyana	-11504
ğiyle	-11505
▁Bart	-11506
▁Dede	-11507
▁Karş	-11508
▁Uzay	-11509
▁Uçak	-11510
▁Vadi	-11511
rettin	-11512
▁Meral	-11513
▁Yarın	-11514
▁Yaşam	-11515
▁açığı	-11516
▁denem	-11517
▁işken	-11518
▁Şeker	-11519
▁Sancak	-11520
▁hormon	-11521
▁karşıt	-11522
▁korucu	-11523
▁santim	-11524
▁yıldön	-11525
▁üyelik	-11526
▁Polonya	-11527
▁ehliyet	-11528
▁ileride	-11529
▁tuvalet	-11530
▁yılbaşı	-11531
▁Çağatay	-11532
ederasyon	-11533
▁Adliyesi	-11534
▁Kısmetse	-11535
▁durumdan	-11536
▁ediyordu	-11537
▁karayolu	-11538
▁kurultay	-11539
▁maddeler	-11540
▁problemi	-11541
▁sonradan	-11542
▁söyledik	-11543
▁tarihten	-11544
▁taşıdığı	-11545
▁yurtdışı	-11546
▁şehrinde	-11547
▁davasında	-11548
▁ellerinde	-11549
▁yapmasını	-11550
▁galibiyeti	-11551
▁merkezleri	-11552
▁silahlarla	-11553
▁uyguladığı	-11554
▁Müdürlüğüne	-11555
▁hastanelere	-11556
▁karşılaştır	-11557
▁adlandırılan	-11558
▁kararlılıkla	-11559
▁kendilerinin	-11560
▁dokunulmazlık	-11561
▁94	-11562
▁AP	-11563
▁fu	-11564
▁hi	-11565
dını	-11566
iser	-11567
▁Tip	-11568
&#39;	-11569
alanı	-11570
İnsan	-11571
▁1000	-11572
▁2001	-11573
▁Arif	-11574
▁Bomb	-11575
▁EXPO	-11576
▁Nani	-11577
▁Unut	-11578
▁ekme	-11579
▁zevk	-11580
Avrupa	-11581
iyotik	-11582
▁Bosna	-11583
▁Günay	-11584
▁idare	-11585
altında	-11586
luğunun	-11587
▁Siyasi	-11588
▁amaçla	-11589
▁başını	-11590
▁içecek	-11591
▁tahsis	-11592
▁uğradı	-11593
▁aldılar	-11594
▁düşünür	-11595
▁firması	-11596
▁istemez	-11597
▁onlarla	-11598
▁takımla	-11599
▁aileleri	-11600
▁astsubay	-11601
▁görüştük	-11602
▁öldüğünü	-11603
beyazlılar	-11604
▁Platformu	-11605
▁deneyimli	-11606
▁planlıyor	-11607
▁savunuyor	-11608
▁çevredeki	-11609
▁eyaletinde	-11610
▁çeyreğinde	-11611
▁durdurulması	-11612
▁soruşturmanın	-11613
▁taraftarların	-11614
▁faaliyetlerini	-11615
App	-11616
aki	-11617
▁4,	-11618
▁9'	-11619
▁UN	-11620
izmi	-11621
olik	-11622
▁1-2	-11623
▁12'	-11624
▁750	-11625
▁CIA	-11626
bahçe	-11627
▁DHKP	-11628
▁Dost	-11629
▁Evde	-11630
▁Gezi	-11631
▁Rabb	-11632
▁ajan	-11633
▁koku	-11634
▁trav	-11635
▁üzül	-11636
arıyla	-11637
dirgin	-11638
eğinin	-11639
vekkil	-11640
▁Arsen	-11641
▁Kıdem	-11642
▁Lazio	-11643
▁evvel	-11644
▁kayak	-11645
▁panel	-11646
▁sakın	-11647
▁unvan	-11648
▁varan	-11649
▁şükür	-11650
▁imkânı	-11651
▁kaptan	-11652
▁kapıyı	-11653
▁muhtar	-11654
▁tutarı	-11655
▁Önemli	-11656
lantının	-11657
▁aracına	-11658
▁etmeyin	-11659
▁hepsini	-11660
▁oyuncak	-11661
▁törende	-11662
▁tepkiler	-11663
▁yatırımı	-11664
▁yıllarca	-11665
▁Büyükelçi	-11666
▁Külliyesi	-11667
▁dakikalık	-11668
▁eksikliği	-11669
▁elimizden	-11670
▁gelecekte	-11671
▁savcılığa	-11672
▁sağlığını	-11673
▁varlığını	-11674
▁Beşiktaşlı	-11675
▁Olağanüstü	-11676
▁açıklanacak	-11677
▁dakikasında	-11678
▁dolandırıcı	-11679
▁ilçelerinde	-11680
▁kullandıkları	-11681
▁Başsavcılığınca	-11682
ls	-11683
şa	-11684
.10	-11685
BİT	-11686
LİK	-11687
Tek	-11688
iyo	-11689
kay	-11690
▁03	-11691
▁sa	-11692
LERİ	-11693
üste	-11694
ışın	-11695
▁Boş	-11696
▁Fas	-11697
arlık	-11698
evler	-11699
tatör	-11700
▁2023	-11701
▁Haft	-11702
▁Ulus	-11703
▁gazı	-11704
▁haml	-11705
▁hayv	-11706
▁sayg	-11707
ilahlı	-11708
▁Aylin	-11709
▁Frank	-11710
▁Saman	-11711
▁Yazar	-11712
▁bileş	-11713
▁dönüp	-11714
▁kalbi	-11715
▁İhsan	-11716
▁burası	-11717
▁evlili	-11718
▁firari	-11719
▁gürült	-11720
▁himmet	-11721
▁kronik	-11722
▁otoyol	-11723
▁seçmen	-11724
▁tablet	-11725
▁uzanan	-11726
▁yoksul	-11727
▁üzüntü	-11728
▁Isparta	-11729
▁geçmeye	-11730
▁projeye	-11731
▁kardeşim	-11732
▁kurumlar	-11733
▁ortaklık	-11734
▁yayınlan	-11735
▁bulunuldu	-11736
▁dışarıdan	-11737
▁etkilenen	-11738
▁ifadesine	-11739
▁satılıyor	-11740
▁çalışacak	-11741
▁açıkladığı	-11742
▁değiştirdi	-11743
▁havalimanı	-11744
▁olumsuzluk	-11745
▁rahatlıkla	-11746
▁ihtiyaçları	-11747
▁isimlerinden	-11748
▁sığınmacıların	-11749
-9	-11750
ÖN	-11751
bür	-11752
ich	-11753
oft	-11754
enen	-11755
rarı	-11756
yeri	-11757
▁4,5	-11758
▁Hoc	-11759
▁Köl	-11760
▁ini	-11761
▁ney	-11762
ammer	-11763
döken	-11764
taraf	-11765
▁2005	-11766
▁Kırk	-11767
▁Nuri	-11768
▁atıp	-11769
▁dili	-11770
cilere	-11771
ihayet	-11772
▁Ahmed	-11773
▁atama	-11774
▁teyit	-11775
▁tıpkı	-11776
▁Ürdün	-11777
▁Bayern	-11778
▁Başvur	-11779
▁Yalova	-11780
▁döneme	-11781
▁hukuka	-11782
▁varmış	-11783
▁versin	-11784
▁çözümü	-11785
emiyorum	-11786
▁Kendisi	-11787
▁bırakın	-11788
▁felaket	-11789
▁gelmedi	-11790
▁otobüsü	-11791
▁oyundan	-11792
▁parçalı	-11793
▁topladı	-11794
iyorsunuz	-11795
▁Herkesin	-11796
▁büyümesi	-11797
▁ötesinde	-11798
▁Şehitler	-11799
▁askerleri	-11800
▁başvurusu	-11801
▁eleştiren	-11802
▁gerisinde	-11803
▁iddianame	-11804
▁ifadelere	-11805
▁okullarda	-11806
▁yuvarlağı	-11807
▁bağışıklık	-11808
▁olduğumuzu	-11809
▁personelin	-11810
▁şirketinin	-11811
▁bulundukları	-11812
▁görüşmelerin	-11813
▁içerisindeki	-11814
▁saldırısının	-11815
▁suçlamasıyla	-11816
▁tarihlerinde	-11817
▁kuruluşlarının	-11818
etk	-11819
oub	-11820
que	-11821
▁02	-11822
▁LG	-11823
▁dk	-11824
▁na	-11825
Aile	-11826
ataş	-11827
ight	-11828
ihai	-11829
ımla	-11830
▁14.	-11831
▁SON	-11832
▁SSK	-11833
▁Sef	-11834
▁YOK	-11835
▁aşı	-11836
▁sıç	-11837
doğdu	-11838
imler	-11839
▁Acar	-11840
▁Dani	-11841
▁Pren	-11842
▁Stan	-11843
▁Tabi	-11844
▁Töre	-11845
▁aziz	-11846
▁füze	-11847
▁sebz	-11848
iyeler	-11849
▁Fidan	-11850
▁Yemek	-11851
▁Yerel	-11852
▁Yeter	-11853
▁Zeker	-11854
▁daire	-11855
▁deleg	-11856
▁ilham	-11857
▁kabin	-11858
▁koruy	-11859
▁yüzey	-11860
▁ölçek	-11861
▁ötürü	-11862
▁İncir	-11863
klarını	-11864
ğinizde	-11865
▁Christ	-11866
▁Gündem	-11867
▁Marcel	-11868
▁Viyana	-11869
▁azaldı	-11870
▁basını	-11871
▁binada	-11872
▁garant	-11873
▁mesafe	-11874
▁olurdu	-11875
▁çıkışı	-11876
▁Polisin	-11877
▁Romanya	-11878
▁başaran	-11879
▁doğrusu	-11880
▁namlulu	-11881
▁Örgütün	-11882
amayacağı	-11883
▁alıyoruz	-11884
▁gelirken	-11885
▁sevindir	-11886
▁takımdan	-11887
▁yanıtını	-11888
▁günümüzde	-11889
▁heyecanlı	-11890
▁nitelikli	-11891
▁yakalamak	-11892
▁Aralarında	-11893
▁bulunmayan	-11894
▁edilmesine	-11895
▁gelişmekte	-11896
▁haftalarda	-11897
▁milletimiz	-11898
▁verdiğimiz	-11899
▁İdmanyurdu	-11900
▁çalışıyorum	-11901
▁fiyatlarında	-11902
▁verdiklerini	-11903
▁saldırılarının	-11904
ff	-11905
ld	-11906
so	-11907
yü	-11908
Kır	-11909
app	-11910
▁Ho	-11911
▁IM	-11912
nesi	-11913
ırda	-11914
▁20.	-11915
▁Bet	-11916
▁Ebu	-11917
▁Erc	-11918
▁Jon	-11919
▁KON	-11920
▁len	-11921
▁vas	-11922
BİTAK	-11923
amızı	-11924
linik	-11925
tiniz	-11926
▁Atal	-11927
▁DAİŞ	-11928
▁Serg	-11929
▁cari	-11930
▁kont	-11931
▁türk	-11932
ınacak	-11933
▁Kırık	-11934
▁geçip	-11935
▁katma	-11936
▁makul	-11937
▁minik	-11938
▁niçin	-11939
▁sunum	-11940
▁tümör	-11941
▁uydur	-11942
▁yerin	-11943
▁çifte	-11944
▁Şafak	-11945
▁Baykal	-11946
▁Kobani	-11947
▁iletti	-11948
▁kandır	-11949
▁maçlar	-11950
▁senary	-11951
▁tahliy	-11952
▁ziyade	-11953
amıyorum	-11954
▁aileler	-11955
▁bulunur	-11956
▁havanın	-11957
▁kızının	-11958
▁olmakla	-11959
▁tersine	-11960
▁uğrayan	-11961
▁vermeyi	-11962
▁haberini	-11963
▁iddialar	-11964
▁tedirgin	-11965
▁yasadışı	-11966
▁pazarında	-11967
▁kurtarıldı	-11968
▁söyleniyor	-11969
▁tartışmaya	-11970
▁hastalıklar	-11971
▁kapatılması	-11972
▁kontrolünde	-11973
▁gösterdiğini	-11974
▁incelemelerde	-11975
▁fiyatlarındaki	-11976
3)	-11977
SI	-11978
TO	-11979
Top	-11980
bel	-11981
dış	-11982
yık	-11983
▁Vi	-11984
▁bi	-11985
ansa	-11986
dows	-11987
eyla	-11988
tımı	-11989
urda	-11990
ümde	-11991
▁Nar	-11992
▁Ona	-11993
▁Yel	-11994
▁geb	-11995
▁kıt	-11996
▁neş	-11997
▁web	-11998
irdağ	-11999
leşen	-12000
şegül	-12001
▁Altı	-12002
▁Fuar	-12003
▁Yarı	-12004
▁dram	-12005
▁ikiz	-12006
▁ÖSYM	-12007
emizin	-12008
mazken	-12009
omotiv	-12010
▁Arnav	-12011
▁bulab	-12012
▁ceset	-12013
▁dersi	-12014
▁olama	-12015
▁olaya	-12016
▁piyan	-12017
▁Hırist	-12018
▁dürüst	-12019
▁imalat	-12020
▁skorla	-12021
▁Buradan	-12022
▁bazında	-12023
▁boşanma	-12024
▁dünyaca	-12025
▁kapanış	-12026
▁merakla	-12027
▁plastik	-12028
▁yöneten	-12029
lığındaki	-12030
▁adayları	-12031
▁askerlik	-12032
▁durumunu	-12033
▁kısmında	-12034
▁müzisyen	-12035
▁tamamını	-12036
▁öğrendim	-12037
▁alacağını	-12038
▁bölgelere	-12039
▁bıraktığı	-12040
▁girişinde	-12041
▁karaciğer	-12042
▁koşulları	-12043
▁yönettiği	-12044
▁mahkemenin	-12045
▁yolculuğuna	-12046
▁düzenlemeler	-12047
▁mücadelesinde	-12048
cia	-12049
naf	-12050
ney	-12051
İKA	-12052
▁"2	-12053
▁92	-12054
▁93	-12055
▁TR	-12056
baba	-12057
oley	-12058
tuğu	-12059
ınıp	-12060
▁(2)	-12061
▁1.3	-12062
▁YAR	-12063
▁ker	-12064
▁vat	-12065
▁öfk	-12066
arlar	-12067
reden	-12068
çelik	-12069
çilik	-12070
ırlar	-12071
▁Aday	-12072
▁Belg	-12073
▁İkin	-12074
alığın	-12075
▁Doğum	-12076
▁Zorlu	-12077
▁atmış	-12078
▁yağlı	-12079
cağının	-12080
▁Florya	-12081
▁Piyade	-12082
▁Veysel	-12083
▁bardak	-12084
▁bastır	-12085
▁boşluk	-12086
▁devral	-12087
▁dönmek	-12088
▁düzgün	-12089
▁kaptır	-12090
▁mahsur	-12091
▁manzar	-12092
▁rekoru	-12093
▁Raporda	-12094
▁dönüyor	-12095
▁finalde	-12096
▁fragman	-12097
▁intikam	-12098
▁kaçmaya	-12099
▁milyonu	-12100
▁nereden	-12101
▁nihayet	-12102
▁yürüyen	-12103
▁üyeliği	-12104
▁apartman	-12105
▁azalarak	-12106
▁bağlayan	-12107
▁kaldırdı	-12108
▁kapısını	-12109
▁koruyucu	-12110
▁metreküp	-12111
▁toplumda	-12112
▁ödemeler	-12113
▁Hakimliği	-12114
▁Kürtlerin	-12115
▁akaryakıt	-12116
▁meslektaş	-12117
▁Federasyon	-12118
▁işlemlerin	-12119
▁kadınlarda	-12120
▁İstatistik	-12121
▁araştırmaya	-12122
▁parlamenter	-12123
▁çocuklarını	-12124
▁başkanlığında	-12125
/1	-12126
El	-12127
fuk	-12128
öke	-12129
▁5,	-12130
▁AM	-12131
abey	-12132
atın	-12133
enko	-12134
tesi	-12135
▁BÜY	-12136
▁Fah	-12137
▁Hab	-12138
▁KAL	-12139
▁Ven	-12140
▁eme	-12141
▁raf	-12142
▁the	-12143
▁çik	-12144
osuna	-12145
venin	-12146
Çocuk	-12147
▁Ford	-12148
▁Köln	-12149
▁esir	-12150
▁kılı	-12151
▁pist	-12152
▁yağı	-12153
▁Şans	-12154
▁Bence	-12155
▁Braga	-12156
▁Rakka	-12157
▁aralı	-12158
▁dalga	-12159
▁duman	-12160
▁skoru	-12161
▁Şükrü	-12162
▁şüphe	-12163
biyotik	-12164
▁Atalay	-12165
▁Dinamo	-12166
▁Karada	-12167
▁Lübnan	-12168
▁Nerede	-12169
▁Uludağ	-12170
▁ağlara	-12171
▁civarı	-12172
▁golünü	-12173
▁kurumu	-12174
▁rövanş	-12175
▁seyred	-12176
▁soruyu	-12177
▁yemeği	-12178
▁özetle	-12179
▁şunlar	-12180
▁Meksika	-12181
▁Sorumlu	-12182
▁elebaşı	-12183
▁gençlik	-12184
▁haberde	-12185
▁haziran	-12186
▁kesildi	-12187
▁liranın	-12188
▁taşeron	-12189
▁trafiği	-12190
▁vergisi	-12191
▁şehirde	-12192
▁şirkete	-12193
▁diplomat	-12194
▁durdurul	-12195
▁olacaktı	-12196
▁paraları	-12197
▁duruşmaya	-12198
▁hedefimiz	-12199
▁kazanacak	-12200
▁kazanarak	-12201
▁kendinizi	-12202
▁kontrollü	-12203
▁olmalıdır	-12204
▁sokaklara	-12205
▁yargılama	-12206
▁yazısında	-12207
▁arkadaşlar	-12208
▁bahçesinde	-12209
▁başkanlığı	-12210
▁ekonominin	-12211
▁fazlasıyla	-12212
▁Pensilvanya	-12213
▁Sultanahmet	-12214
▁operasyonun	-12215
▁yaşadığımız	-12216
▁görüşmelerde	-12217
▁ilgilendiren	-12218
▁yetkililerin	-12219
▁kaynaklarından	-12220
OG	-12221
SB	-12222
SE	-12223
mo	-12224
ASA	-12225
Dem	-12226
nar	-12227
ube	-12228
çar	-12229
▁99	-12230
▁TK	-12231
▁Wi	-12232
adüf	-12233
heim	-12234
pool	-12235
Özel	-12236
▁Fre	-12237
▁NBA	-12238
▁Ros	-12239
▁lek	-12240
▁mim	-12241
▁niş	-12242
▁oyu	-12243
▁yıp	-12244
anızı	-12245
emizi	-12246
mazsa	-12247
▁Adri	-12248
▁Amel	-12249
▁Biri	-12250
▁EURO	-12251
▁Köse	-12252
▁Otoy	-12253
▁Sert	-12254
▁atık	-12255
▁pani	-12256
▁teşh	-12257
▁Ürün	-12258
üsünde	-12259
▁Kerem	-12260
▁Sünni	-12261
▁aldat	-12262
▁evren	-12263
▁gruba	-12264
▁havuz	-12265
▁nadir	-12266
▁çavuş	-12267
▁İnönü	-12268
cıların	-12269
▁George	-12270
▁Kullan	-12271
▁Mandır	-12272
▁Sevgil	-12273
▁anılan	-12274
▁kapısı	-12275
▁müziği	-12276
▁piyade	-12277
▁uçakla	-12278
▁üstlen	-12279
meyeceği	-12280
▁Ronaldo	-12281
▁duruşma	-12282
▁getirir	-12283
▁hatırla	-12284
▁karıştı	-12285
▁listede	-12286
▁organiz	-12287
▁vücudun	-12288
ilmelidir	-12289
▁alandaki	-12290
▁başlatan	-12291
▁başvuran	-12292
▁etmeleri	-12293
▁siyaseti	-12294
▁vermiyor	-12295
▁Adanaspor	-12296
▁Düzenleme	-12297
▁hayatında	-12298
▁kuralları	-12299
▁namazının	-12300
▁olduğunuz	-12301
▁siyasetin	-12302
▁tehlikesi	-12303
▁öğretmeni	-12304
▁İmparator	-12305
▁aramalarda	-12306
▁bankaların	-12307
▁gerektiren	-12308
▁ihtiyacını	-12309
▁kendisiyle	-12310
▁yapılanması	-12311
▁hedefliyoruz	-12312
▁tamamlanması	-12313
▁bulunmadığını	-12314
On	-12315
ÜM	-12316
INI	-12317
ava	-12318
sic	-12319
çık	-12320
ıya	-12321
▁Yo	-12322
▁iğ	-12323
▁Dic	-12324
▁Dub	-12325
▁FBI	-12326
▁Lir	-12327
▁Tez	-12328
▁amc	-12329
▁cüz	-12330
▁giş	-12331
▁lüt	-12332
▁Mich	-12333
▁burs	-12334
▁coşk	-12335
▁sokt	-12336
▁Şeyh	-12337
▁Motor	-12338
▁bahan	-12339
▁domat	-12340
▁eşini	-12341
▁fedak	-12342
▁okulu	-12343
▁taşıt	-12344
esterol	-12345
▁Birbir	-12346
▁Elitaş	-12347
▁Kastam	-12348
▁peşine	-12349
▁Ağaoğlu	-12350
▁Marcelo	-12351
▁Sağlığı	-12352
▁ağabeyi	-12353
▁bölgeyi	-12354
▁dostluk	-12355
▁işçinin	-12356
▁kapatan	-12357
▁kıyasla	-12358
▁oranını	-12359
▁sahnede	-12360
▁sanığın	-12361
▁tarihin	-12362
▁tutanak	-12363
larımızda	-12364
▁aldıktan	-12365
▁antrenör	-12366
▁geçerken	-12367
▁grupları	-12368
▁heyecanı	-12369
▁mutluyum	-12370
▁nezdinde	-12371
▁ülkemizi	-12372
▁arttığını	-12373
▁etkiliyor	-12374
▁güvenilir	-12375
▁olimpiyat	-12376
▁gösterildi	-12377
▁pozisyonda	-12378
▁sivillerin	-12379
▁tedavisinin	-12380
▁yapılmasına	-12381
▁belirlenmesi	-12382
▁ilişkilerini	-12383
▁kullanılacak	-12384
▁çalıştıklarını	-12385
2,	-12386
Siz	-12387
fie	-12388
gon	-12389
▁va	-12390
▁İZ	-12391
abor	-12392
inek	-12393
kili	-12394
oliz	-12395
tali	-12396
▁Gem	-12397
▁MEB	-12398
▁Nob	-12399
▁Reh	-12400
▁İsa	-12401
leyin	-12402
uters	-12403
üşvet	-12404
▁damg	-12405
devlet	-12406
▁Bütçe	-12407
▁Erken	-12408
▁Kalın	-12409
▁Sedat	-12410
▁Selin	-12411
▁Souza	-12412
▁Soğuk	-12413
▁Zanlı	-12414
▁hadis	-12415
▁kesti	-12416
▁olgun	-12417
▁tavuk	-12418
▁tıbbi	-12419
▁Başika	-12420
▁Hatice	-12421
▁Kapısı	-12422
▁Meryem	-12423
▁Milyon	-12424
▁Person	-12425
▁direnç	-12426
▁krizin	-12427
▁market	-12428
▁sınava	-12429
▁tarafa	-12430
▁şaşırt	-12431
amıyoruz	-12432
▁biridir	-12433
▁bizlere	-12434
▁futbolu	-12435
▁sevdiği	-12436
▁taraflı	-12437
▁tasfiye	-12438
▁yapalım	-12439
▁bilirkiş	-12440
▁birileri	-12441
▁ilerleme	-12442
▁oranları	-12443
▁sağlanan	-12444
▁Şirketin	-12445
▁bozukluğu	-12446
▁duyuyorum	-12447
▁paylaşımı	-12448
▁ülkesinin	-12449
▁formasıyla	-12450
▁öğrencinin	-12451
▁yakalanarak	-12452
▁çıkarılması	-12453
▁örgütlerine	-12454
▁değerlendirilen	-12455
kö	-12456
ph	-12457
uf	-12458
?..	-12459
DIR	-12460
ERİ	-12461
bab	-12462
lüm	-12463
İlk	-12464
şer	-12465
▁04	-12466
▁me	-12467
ANLI	-12468
ekin	-12469
uhuş	-12470
umuş	-12471
vent	-12472
▁16.	-12473
▁193	-12474
▁3-0	-12475
▁60'	-12476
▁80'	-12477
▁PTT	-12478
▁Tom	-12479
▁fav	-12480
▁faz	-12481
▁kep	-12482
▁kıv	-12483
▁siv	-12484
▁Çil	-12485
ansın	-12486
dyumu	-12487
dıkça	-12488
etice	-12489
grama	-12490
minal	-12491
önmez	-12492
▁Gökç	-12493
▁Gürc	-12494
▁aşkı	-12495
▁fail	-12496
▁hızı	-12497
▁ster	-12498
▁temp	-12499
Başkan	-12500
iyenin	-12501
luğuna	-12502
▁Emlak	-12503
▁Filmi	-12504
▁Yayla	-12505
▁gideb	-12506
▁kalıp	-12507
▁kutup	-12508
▁mevdu	-12509
▁takib	-12510
▁Çorum	-12511
▁Furkan	-12512
▁Poyraz	-12513
▁benzet	-12514
▁hakemi	-12515
▁iadesi	-12516
▁telsiz	-12517
▁yarışı	-12518
▁yılını	-12519
▁ödüyor	-12520
▁Arnavut	-12521
▁Ayşegül	-12522
▁Başkons	-12523
▁Hareket	-12524
▁Muhalif	-12525
▁Sürekli	-12526
▁Windows	-12527
▁Yeniden	-12528
▁koyuyor	-12529
▁kredisi	-12530
▁sendrom	-12531
▁vuruldu	-12532
▁çevirdi	-12533
▁öncelik	-12534
▁Şirketi	-12535
abilirler	-12536
▁aracının	-12537
▁dalgalan	-12538
▁sorusunu	-12539
▁yanından	-12540
▁yorumunu	-12541
▁öğrenmek	-12542
larımızdan	-12543
▁Kaymakamı	-12544
▁Koalisyon	-12545
▁Tiyatrosu	-12546
▁başarılar	-12547
▁etkileyen	-12548
▁sunuluyor	-12549
▁görevinden	-12550
▁görevliler	-12551
▁araştırmacı	-12552
▁yayınladığı	-12553
▁yaşındayken	-12554
▁gelişmelerin	-12555
▁ihtiyaçlarını	-12556
BP	-12557
edj	-12558
epe	-12559
ünc	-12560
▁Öy	-12561
dyum	-12562
dına	-12563
ford	-12564
izme	-12565
▁15.	-12566
▁180	-12567
▁360	-12568
▁BİL	-12569
▁Pay	-12570
▁içe	-12571
▁poş	-12572
▁ray	-12573
▁sul	-12574
▁üss	-12575
▁Şey	-12576
aslan	-12577
dıman	-12578
ezlek	-12579
ımdan	-12580
▁Asıl	-12581
▁Ders	-12582
▁TOKİ	-12583
▁Tunç	-12584
▁kral	-12585
▁sosy	-12586
▁taze	-12587
▁tutk	-12588
▁şeri	-12589
atıyla	-12590
edonya	-12591
lerimi	-12592
sından	-12593
▁Bölüm	-12594
▁Inter	-12595
▁Sergi	-12596
▁bahse	-12597
▁döktü	-12598
▁imzal	-12599
▁çözün	-12600
▁başlık	-12601
▁darbec	-12602
▁gelsin	-12603
▁ibadet	-12604
▁ibaret	-12605
▁kalkan	-12606
▁pencer	-12607
▁sesini	-12608
.12.2016	-12609
▁Aksaray	-12610
▁işareti	-12611
▁oldular	-12612
▁tutulan	-12613
▁yaratan	-12614
iliğinden	-12615
▁Mühendis	-12616
▁belirgin	-12617
▁bildiren	-12618
▁geleceğe	-12619
▁içerikli	-12620
▁partiler	-12621
▁sanıklar	-12622
▁takımını	-12623
▁yılların	-12624
▁Yaralılar	-12625
▁kadınları	-12626
▁promosyon	-12627
▁Sonrasında	-12628
▁ifadesinin	-12629
▁istatistik	-12630
▁kullanmaya	-12631
▁seviyesini	-12632
▁artırılması	-12633
▁ekonomisine	-12634
▁suçlamaları	-12635
▁büyüklüğünde	-12636
▁mücadelesini	-12637
▁ilişkilerinin	-12638
İP	-12639
PYD	-12640
▁6,	-12641
▁Hi	-12642
▁II	-12643
-100	-12644
acan	-12645
ason	-12646
iner	-12647
▁Fel	-12648
▁Kuv	-12649
▁Laz	-12650
▁YEN	-12651
▁ÇIK	-12652
ansta	-12653
mayız	-12654
▁Fuat	-12655
▁Naci	-12656
▁Shak	-12657
▁koca	-12658
mıştım	-12659
ınızın	-12660
▁Bizde	-12661
▁Holly	-12662
▁Konuk	-12663
▁Memur	-12664
▁kontr	-12665
▁metab	-12666
▁vakti	-12667
▁vesil	-12668
icileri	-12669
tılacak	-12670
▁Suçlar	-12671
▁fındık	-12672
▁kelime	-12673
▁konsan	-12674
▁kulübe	-12675
▁misyon	-12676
▁odaklı	-12677
▁parlak	-12678
▁sizden	-12679
▁tatili	-12680
▁yapıya	-12681
▁yüklen	-12682
▁İslami	-12683
lendirme	-12684
▁Arsenal	-12685
▁Muammer	-12686
▁TÜBİTAK	-12687
▁doküman	-12688
▁haftaya	-12689
▁kolayca	-12690
▁medyası	-12691
▁negatif	-12692
▁tehdidi	-12693
▁topluma	-12694
▁tutuyor	-12695
▁yaşamış	-12696
▁çevrede	-12697
▁Nurettin	-12698
▁Tekirdağ	-12699
▁adımları	-12700
▁görmüyor	-12701
▁sıkıştır	-12702
▁yaşlarda	-12703
▁çarpıştı	-12704
▁aşağıdaki	-12705
▁telefonda	-12706
▁Hıristiyan	-12707
▁Kazakistan	-12708
▁alanlarında	-12709
▁temsilciler	-12710
▁istikametine	-12711
-12	-12712
laz	-12713
mil	-12714
yap	-12715
üse	-12716
▁4-	-12717
▁96	-12718
▁BU	-12719
Darb	-12720
iyev	-12721
izon	-12722
masa	-12723
olar	-12724
▁3-2	-12725
▁Ces	-12726
▁Cil	-12727
▁Gez	-12728
▁Gro	-12729
▁Nes	-12730
▁Pot	-12731
▁Ste	-12732
▁Ted	-12733
▁sof	-12734
▁şak	-12735
cinin	-12736
ilmen	-12737
takal	-12738
uştum	-12739
ülmüş	-12740
▁PFDK	-12741
▁soya	-12742
alandı	-12743
ğinizi	-12744
▁Engel	-12745
▁Ergün	-12746
▁Vural	-12747
▁işine	-12748
▁kopar	-12749
▁yapay	-12750
▁Çoban	-12751
▁çaplı	-12752
▁ölüme	-12753
mayalım	-12754
▁Yalnız	-12755
▁basket	-12756
▁birinc	-12757
▁devret	-12758
▁döndür	-12759
▁rehber	-12760
▁savaşa	-12761
▁soygun	-12762
▁tarama	-12763
▁varken	-12764
▁çoktan	-12765
ayacağız	-12766
iverpool	-12767
▁asansör	-12768
▁deyince	-12769
▁etmeden	-12770
▁gelirse	-12771
▁gitmeye	-12772
▁indirdi	-12773
▁kadroda	-12774
▁kişiyle	-12775
▁kültürü	-12776
▁traktör	-12777
▁yenilgi	-12778
▁yetkisi	-12779
liğindeki	-12780
▁Uygulama	-12781
▁belirlem	-12782
▁hükümete	-12783
▁ilişkili	-12784
▁müdürlük	-12785
▁çeyrekte	-12786
▁Hamzaoğlu	-12787
▁faaliyeti	-12788
▁sanatçısı	-12789
▁kaydederek	-12790
▁kentindeki	-12791
▁motivasyon	-12792
▁sokaklarda	-12793
▁tarafların	-12794
▁yayımlandı	-12795
▁alındığında	-12796
▁belirtileri	-12797
▁konuşmasını	-12798
▁programları	-12799
▁teknolojisi	-12800
▁çalıştırıcı	-12801
▁Hastalıkları	-12802
▁Galatasaraylı	-12803
▁saldırılarını	-12804
!-	-12805
wn	-12806
yn	-12807
şu	-12808
-13	-12809
-14	-12810
.45	-12811
Gel	-12812
end	-12813
kaz	-12814
oza	-12815
ves	-12816
şey	-12817
▁91	-12818
ahya	-12819
aton	-12820
ekte	-12821
oksi	-12822
▁CNN	-12823
▁DNA	-12824
▁Dor	-12825
▁HAK	-12826
▁Hük	-12827
▁Ram	-12828
▁yah	-12829
▁Çel	-12830
▁Çiğ	-12831
▁Beck	-12832
▁Kuzu	-12833
▁Loto	-12834
▁Yüce	-12835
▁boya	-12836
▁göğs	-12837
▁sust	-12838
▁şair	-12839
eyting	-12840
▁Aboub	-12841
▁Tanrı	-12842
▁belde	-12843
▁fikri	-12844
▁köylü	-12845
▁silin	-12846
▁yanıl	-12847
▁Çinli	-12848
▁şekli	-12849
ational	-12850
ersiniz	-12851
lamıyor	-12852
oleybol	-12853
▁Ceylan	-12854
▁Farklı	-12855
▁Meslek	-12856
▁Vadisi	-12857
▁adının	-12858
▁almadı	-12859
▁edemez	-12860
▁ederse	-12861
▁güçler	-12862
▁kimler	-12863
▁otelde	-12864
▁salonu	-12865
▁yakala	-12866
▁yaşını	-12867
▁zararı	-12868
▁çıplak	-12869
elerdeki	-12870
▁Gelecek	-12871
▁bardağı	-12872
▁endüstr	-12873
▁girmeye	-12874
▁opsiyon	-12875
▁pasında	-12876
▁solunum	-12877
▁vizyona	-12878
▁çıkmadı	-12879
▁Abdülham	-12880
▁Maalesef	-12881
▁almıştır	-12882
▁ayrılmak	-12883
▁bedelini	-12884
▁coğrafya	-12885
▁kurtardı	-12886
▁muhafaza	-12887
▁sıklıkla	-12888
▁Çalışkan	-12889
▁şimdilik	-12890
▁Aboubakar	-12891
▁hareketli	-12892
▁hayatının	-12893
▁konuşulan	-12894
▁roketatar	-12895
▁sakinleri	-12896
▁satışları	-12897
▁vereceğiz	-12898
▁yasağının	-12899
▁Hizmetleri	-12900
▁sistemleri	-12901
▁tedbirleri	-12902
▁çocuklarda	-12903
▁hareketleri	-12904
▁hayatlarını	-12905
▁tartışmalar	-12906
At	-12907
İz	-12908
Mar	-12909
jaer	-12910
▁Alb	-12911
▁KAD	-12912
▁KAP	-12913
▁TAK	-12914
▁emr	-12915
▁kın	-12916
▁lak	-12917
▁muc	-12918
siyum	-12919
şener	-12920
▁Ataş	-12921
▁Bahç	-12922
▁Leon	-12923
▁List	-12924
▁Vide	-12925
▁kutu	-12926
▁mavi	-12927
▁teor	-12928
▁üssü	-12929
▁üçte	-12930
Burada	-12931
attepe	-12932
çıları	-12933
▁Divan	-12934
▁Dönüş	-12935
▁Esnaf	-12936
▁aydan	-12937
▁eylül	-12938
▁sağla	-12939
▁tenis	-12940
ladılar	-12941
tığınız	-12942
▁Batılı	-12943
▁Kosova	-12944
▁Yüzyıl	-12945
▁edelim	-12946
▁erecek	-12947
▁kötüye	-12948
▁kısmen	-12949
▁muayen	-12950
▁taktik	-12951
▁vermem	-12952
▁yumruk	-12953
anıyorum	-12954
▁Akşener	-12955
▁Yüzbaşı	-12956
▁bitirdi	-12957
▁içeriği	-12958
▁patladı	-12959
▁saatler	-12960
▁tedarik	-12961
▁toplumu	-12962
▁Buradaki	-12963
▁Zekeriya	-12964
▁durumlar	-12965
▁geçeceği	-12966
▁haberdar	-12967
▁medyanın	-12968
▁oturduğu	-12969
▁silahlar	-12970
▁yansıyan	-12971
▁ödeyecek	-12972
▁Kuvvetler	-12973
▁annesinin	-12974
▁gelmiştir	-12975
▁girdiğini	-12976
▁götürülen	-12977
▁hissettir	-12978
▁kendimizi	-12979
▁şampiyonu	-12980
▁alabilecek	-12981
▁bulunmuyor	-12982
▁göstermesi	-12983
▁olmaktadır	-12984
▁uyarısında	-12985
▁araştırmada	-12986
▁verilmesini	-12987
▁verilmiştir	-12988
▁arkadaşlarım	-12989
▁galibiyetini	-12990
▁çalışmalarda	-12991
▁Büyükelçiliği	-12992
▁Müslümanların	-12993
▁kategorisinde	-12994
▁uygulamasının	-12995
▁arkadaşlarının	-12996
PA	-12997
Gör	-12998
YPG	-12999
Yar	-13000
ier	-13001
ksi	-13002
üsk	-13003
İNİ	-13004
▁98	-13005
▁yü	-13006
Bank	-13007
ebir	-13008
edim	-13009
iban	-13010
tara	-13011
unlu	-13012
▁1.1	-13013
▁Cal	-13014
▁Dum	-13015
▁Rıd	-13016
▁Tav	-13017
▁mün	-13018
edjou	-13019
lesin	-13020
▁"201	-13021
▁aşık	-13022
▁yaşı	-13023
▁İnce	-13024
ahisar	-13025
osunun	-13026
▁Babam	-13027
▁Denet	-13028
▁Dicle	-13029
▁Endon	-13030
▁Lozan	-13031
▁Melih	-13032
▁Salon	-13033
▁elbis	-13034
▁eleme	-13035
▁gereğ	-13036
▁kasım	-13037
▁nakil	-13038
▁patla	-13039
▁tamir	-13040
▁Çeşme	-13041
▁İrfan	-13042
▁Atilla	-13043
▁Bizler	-13044
▁Bozkır	-13045
▁Rıdvan	-13046
▁Umarım	-13047
▁düşmüş	-13048
▁farkla	-13049
▁fiziki	-13050
▁numara	-13051
▁onarım	-13052
▁riskli	-13053
▁telafi	-13054
▁tesisi	-13055
▁vesile	-13056
▁yoksun	-13057
▁Nijerya	-13058
▁Sonuçta	-13059
▁açılışı	-13060
▁boyutlu	-13061
▁direniş	-13062
▁evinden	-13063
▁projeyi	-13064
▁Herhangi	-13065
▁Sekreter	-13066
▁bankanın	-13067
▁başlamak	-13068
▁fiyatlar	-13069
▁olanlara	-13070
▁sertifik	-13071
▁çalıştık	-13072
▁Lokomotiv	-13073
▁duyuruldu	-13074
▁eğlenceli	-13075
▁firmaları	-13076
▁hizmetler	-13077
▁liderleri	-13078
▁sıkıntılı	-13079
▁Operasyonu	-13080
▁bilgilerin	-13081
▁mağduriyet	-13082
▁Gazeteciler	-13083
▁Hırvatistan	-13084
▁kuzeyindeki	-13085
▁yöneticiler	-13086
▁öldürüldüğü	-13087
▁faaliyetlerine	-13088
▁(6	-13089
▁KK	-13090
▁Ov	-13091
▁Akk	-13092
▁TSİ	-13093
▁Tap	-13094
▁Yay	-13095
▁pir	-13096
ademi	-13097
dıyla	-13098
çavuş	-13099
üzgâr	-13100
ılımı	-13101
▁Kend	-13102
▁alet	-13103
▁dede	-13104
▁üçlü	-13105
hidrat	-13106
melere	-13107
üncüsü	-13108
▁2008'	-13109
▁Aşırı	-13110
▁Fener	-13111
▁Köprü	-13112
▁Topçu	-13113
▁Uysal	-13114
▁buçuk	-13115
▁fakir	-13116
▁karla	-13117
▁madal	-13118
▁müsab	-13119
▁refah	-13120
▁sömür	-13121
▁tabir	-13122
▁tavan	-13123
▁yaral	-13124
▁Özlem	-13125
▁önder	-13126
▁Alanya	-13127
▁Gökçek	-13128
▁Lirası	-13129
▁Micros	-13130
▁Sürücü	-13131
▁dinlen	-13132
▁esnada	-13133
▁gümrük	-13134
▁kutsal	-13135
▁planda	-13136
▁uyardı	-13137
▁vermez	-13138
▁Reuters	-13139
▁Sarıyer	-13140
▁görüleb	-13141
▁karakol	-13142
▁soruyor	-13143
▁soyunma	-13144
▁sığınak	-13145
▁tesadüf	-13146
▁şutunda	-13147
karahisar	-13148
▁Harekatı	-13149
▁Milliyet	-13150
▁Transfer	-13151
▁akademik	-13152
▁aranıyor	-13153
▁belgeler	-13154
▁bertaraf	-13155
▁krizinin	-13156
▁liderlik	-13157
▁odasında	-13158
▁oyunları	-13159
▁uzantısı	-13160
▁vermeyen	-13161
▁yaptığım	-13162
▁yollarla	-13163
▁Gürcistan	-13164
▁Mandıralı	-13165
▁kazanıyor	-13166
▁mücadelem	-13167
▁yakınında	-13168
▁önlenmesi	-13169
▁gözaltında	-13170
▁kaldırmaya	-13171
▁otomobilde	-13172
▁çalışmanın	-13173
▁muhabirinin	-13174
▁mültecilere	-13175
▁sonuçlarını	-13176
▁ziyaretinde	-13177
▁edeceklerini	-13178
3,	-13179
4,	-13180
RU	-13181
zu	-13182
▁.	-13183
The	-13184
düs	-13185
esk	-13186
sır	-13187
▁Ga	-13188
INDA	-13189
atlı	-13190
egen	-13191
▁160	-13192
▁Enf	-13193
▁Faz	-13194
▁Slo	-13195
▁Ten	-13196
▁nem	-13197
▁Şef	-13198
danın	-13199
elsea	-13200
▁Note	-13201
▁ardı	-13202
▁arta	-13203
▁atma	-13204
▁doğa	-13205
▁reel	-13206
▁şube	-13207
edecek	-13208
▁Kirby	-13209
▁Kjaer	-13210
▁Tatar	-13211
▁istiş	-13212
▁korum	-13213
▁metal	-13214
▁nihai	-13215
▁oturt	-13216
▁vahim	-13217
Trabzon	-13218
usundan	-13219
▁Angela	-13220
▁Kurmay	-13221
▁Modern	-13222
▁Sönmez	-13223
▁Tahran	-13224
▁Tecrüb	-13225
▁bebeği	-13226
▁bulama	-13227
▁kaleye	-13228
▁meşhur	-13229
▁silahı	-13230
▁sınavı	-13231
liğimizi	-13232
lılığını	-13233
▁artıran	-13234
▁benimle	-13235
▁düşünün	-13236
▁düşürdü	-13237
▁yayında	-13238
▁Oyunları	-13239
▁Sağlıklı	-13240
▁görüşmek	-13241
▁hepsinin	-13242
▁Liverpool	-13243
▁gelirleri	-13244
▁hesapları	-13245
▁ordusunun	-13246
▁polisleri	-13247
▁talepleri	-13248
▁unsurları	-13249
▁yönetecek	-13250
▁çıkabilir	-13251
▁üstünlüğü	-13252
▁bulunurken	-13253
▁geleceğine	-13254
▁kazandıran	-13255
▁muhalifler	-13256
▁müdahalesi	-13257
▁müsabakada	-13258
▁operasyona	-13259
▁partisinin	-13260
▁patlamanın	-13261
▁destekliyor	-13262
▁edilmesinin	-13263
▁Şüphelilerin	-13264
▁yatırımcıların	-13265
!!	-13266
CA	-13267
my	-13268
ADA	-13269
Gün	-13270
biz	-13271
ehr	-13272
eto	-13273
zen	-13274
İki	-13275
▁EL	-13276
Daha	-13277
ayıt	-13278
ukas	-13279
zade	-13280
üfer	-13281
▁Ece	-13282
▁Evi	-13283
▁Kit	-13284
▁Las	-13285
▁One	-13286
▁Ras	-13287
▁STK	-13288
Sayın	-13289
uardi	-13290
▁Kalk	-13291
▁Kims	-13292
▁cidd	-13293
▁omur	-13294
▁ılım	-13295
eğinde	-13296
▁Dayan	-13297
▁Taner	-13298
▁aynen	-13299
▁damat	-13300
▁doğdu	-13301
▁hacmi	-13302
▁kafil	-13303
▁köklü	-13304
▁mesai	-13305
▁peşin	-13306
▁saray	-13307
▁sigar	-13308
▁sürat	-13309
▁tabak	-13310
▁tabel	-13311
▁İşlem	-13312
Erdoğan	-13313
mıyoruz	-13314
▁Antren	-13315
▁Nevruz	-13316
▁Onları	-13317
▁Sinema	-13318
▁alınıp	-13319
▁devamı	-13320
▁fişeği	-13321
▁lastik	-13322
▁takibe	-13323
▁Değişik	-13324
▁Eskiden	-13325
▁Sanders	-13326
▁Siyaset	-13327
▁duyarlı	-13328
▁izlenen	-13329
▁koruyan	-13330
▁puanını	-13331
▁sevgili	-13332
▁sloganı	-13333
▁tekstil	-13334
▁yitiren	-13335
▁çıkarma	-13336
layacağız	-13337
▁alacağız	-13338
▁anlatmak	-13339
▁bakanlar	-13340
▁ikincisi	-13341
▁iktidara	-13342
▁kalitesi	-13343
▁tarafsız	-13344
▁ülkesine	-13345
▁Hollywood	-13346
▁Kendisine	-13347
▁Microsoft	-13348
▁basınında	-13349
▁duyuyoruz	-13350
▁etkinliği	-13351
▁formasını	-13352
▁sektörüne	-13353
▁tazminatı	-13354
▁duyurmuştu	-13355
▁gerçekleri	-13356
▁getirilmiş	-13357
▁kurumların	-13358
▁merkezinin	-13359
▁sanatçının	-13360
▁seçimlerde	-13361
▁Şehircilik	-13362
▁Vatandaşlar	-13363
▁sorumluluğu	-13364
▁şüphelilerden	-13365
7,	-13366
EH	-13367
YO	-13368
gn	-13369
-18	-13370
ELİ	-13371
gul	-13372
ung	-13373
.00"	-13374
azıt	-13375
buki	-13376
uhal	-13377
▁192	-13378
▁Ati	-13379
▁Lit	-13380
▁Süm	-13381
▁TEK	-13382
▁Taz	-13383
▁and	-13384
başka	-13385
betçi	-13386
dumuz	-13387
hamet	-13388
▁Aksi	-13389
▁Sami	-13390
▁boru	-13391
▁iman	-13392
▁İçer	-13393
▁2018'	-13394
▁Fevzi	-13395
▁Kamil	-13396
▁Toner	-13397
▁Yaman	-13398
▁atöly	-13399
▁havan	-13400
▁hissi	-13401
▁kıdem	-13402
▁çelik	-13403
▁önerg	-13404
2016-02	-13405
▁Yağmur	-13406
▁ertesi	-13407
▁hocası	-13408
▁sonsuz	-13409
▁tahvil	-13410
▁İşadam	-13411
▁şeffaf	-13412
ılmaması	-13413
▁bildiği	-13414
▁ilaçlar	-13415
▁misiniz	-13416
▁satıldı	-13417
amazsınız	-13418
ileceğine	-13419
ıyorsunuz	-13420
▁Bölgesel	-13421
▁başarıya	-13422
▁başladım	-13423
▁maçından	-13424
▁petrolün	-13425
▁sektörde	-13426
▁yaklaştı	-13427
▁yaratmak	-13428
▁açılışını	-13429
▁etmesinin	-13430
▁gidiyoruz	-13431
▁halindeki	-13432
▁kişilerde	-13433
▁sıkıntısı	-13434
▁takımında	-13435
▁Alanyaspor	-13436
▁gördüğümüz	-13437
▁kaçınılmaz	-13438
▁kesintisiz	-13439
▁partilerin	-13440
▁görüşlerini	-13441
▁öngörülüyor	-13442
▁görüntülendi	-13443
▁hedefleniyor	-13444
▁açıklamasının	-13445
▁yapabilirsiniz	-13446
▁ağırlaştırılmış	-13447
!.	-13448
5,	-13449
CO	-13450
SD	-13451
oç	-13452
.09	-13453
eld	-13454
lon	-13455
▁Bi	-13456
▁vb	-13457
▁vs	-13458
iyel	-13459
▁Fox	-13460
▁Pop	-13461
▁rüy	-13462
▁yut	-13463
beyli	-13464
dinli	-13465
duğum	-13466
uluğa	-13467
▁Zika	-13468
▁korn	-13469
▁oğul	-13470
▁seyr	-13471
▁solu	-13472
▁Fikri	-13473
▁Konak	-13474
▁Nobel	-13475
▁iltih	-13476
▁kırdı	-13477
▁mayıs	-13478
▁Çağla	-13479
▁çeliş	-13480
▁İncel	-13481
▁Şerif	-13482
▁Bandır	-13483
▁Kanser	-13484
▁Sendik	-13485
▁ekstra	-13486
▁mezunu	-13487
▁olağan	-13488
▁oluruz	-13489
▁sizler	-13490
▁yoğurt	-13491
▁Chedjou	-13492
▁Mahalle	-13493
▁artırdı	-13494
▁darbeyi	-13495
▁dönmesi	-13496
▁düşerek	-13497
▁golüyle	-13498
▁gözleri	-13499
▁izliyor	-13500
▁işletim	-13501
▁kararla	-13502
▁kavgaya	-13503
▁kimseyi	-13504
▁casusluk	-13505
▁değerini	-13506
▁değişimi	-13507
▁diktatör	-13508
▁edeceğim	-13509
▁gereğini	-13510
▁kurtuldu	-13511
▁olanları	-13512
▁seviyesi	-13513
▁söylenen	-13514
▁verilere	-13515
lerimizden	-13516
▁Müsteşarı	-13517
▁anlamıyla	-13518
▁eleştirdi	-13519
▁finalinde	-13520
▁kardeşler	-13521
▁kardeşlik	-13522
▁kenarında	-13523
▁kesimleri	-13524
▁konuşması	-13525
▁çocuğunun	-13526
amayacağını	-13527
▁Bankacılık	-13528
▁Konferansı	-13529
▁sistemiyle	-13530
▁yükümlülük	-13531
▁duygularını	-13532
▁engellemeye	-13533
▁getirdiğini	-13534
▁rezervasyon	-13535
▁kaynaklardan	-13536
▁taraftarları	-13537
▁toplantısına	-13538
▁arkadaşlarına	-13539
▁soruşturmasında	-13540
Az	-13541
DR	-13542
Ev	-13543
Ğİ	-13544
-30	-13545
San	-13546
Tar	-13547
ado	-13548
koz	-13549
ncı	-13550
nur	-13551
uşu	-13552
xxx	-13553
▁Mi	-13554
▁ST	-13555
KARA	-13556
ayız	-13557
ehan	-13558
enni	-13559
ling	-13560
▁16'	-13561
▁25'	-13562
▁Cap	-13563
▁Git	-13564
▁KUR	-13565
▁Koş	-13566
▁cir	-13567
▁cis	-13568
▁iOS	-13569
▁ons	-13570
▁rit	-13571
▁rız	-13572
Büyük	-13573
▁1999	-13574
▁fren	-13575
▁grip	-13576
▁koya	-13577
▁play	-13578
▁püsk	-13579
▁Ekici	-13580
▁Ersan	-13581
▁Filip	-13582
▁Söyle	-13583
▁Willi	-13584
▁eklen	-13585
▁nakit	-13586
▁oynar	-13587
▁parma	-13588
▁yiyen	-13589
▁Çözüm	-13590
▁İdlib	-13591
▁Akyazı	-13592
▁Guardi	-13593
▁Kolomb	-13594
▁Yukarı	-13595
▁fatura	-13596
▁izleme	-13597
▁konulu	-13598
▁mantık	-13599
▁mensub	-13600
▁sonuca	-13601
▁törene	-13602
▁yarıya	-13603
lemeleri	-13604
▁mineral	-13605
▁müteahh	-13606
▁uzaklık	-13607
▁şehidim	-13608
lerimizle	-13609
malısınız	-13610
▁Ameliyat	-13611
▁Geçmişte	-13612
▁Hollande	-13613
▁beklemek	-13614
▁darbenin	-13615
▁etmesine	-13616
▁filminin	-13617
▁filmleri	-13618
▁harekatı	-13619
▁kalmıştı	-13620
▁komutanı	-13621
▁konusunu	-13622
▁objektif	-13623
▁rakibini	-13624
▁sahiptir	-13625
▁talebini	-13626
▁yapmadan	-13627
▁yetişkin	-13628
▁yoğunluk	-13629
▁Kastamonu	-13630
▁Makedonya	-13631
▁alanların	-13632
▁buluşacak	-13633
▁edileceği	-13634
▁gelmesini	-13635
▁görmezden	-13636
▁taşıyacak	-13637
▁yapılmadı	-13638
▁Ülkemizde	-13639
emeyeceğini	-13640
▁kamuoyunda	-13641
▁yerlerinde	-13642
▁Çocukların	-13643
lamayacağını	-13644
▁Müslümanlar	-13645
▁arkadaşımız	-13646
▁istediğimiz	-13647
▁karşılığını	-13648
▁laboratuvar	-13649
▁açıklamasına	-13650
▁beklentileri	-13651
▁geliştirilmesi	-13652
▁kullanıldığını	-13653
▁değerlendirmede	-13654
GE	-13655
▁•	-13656
KCK	-13657
het	-13658
ily	-13659
ope	-13660
âri	-13661
▁Nö	-13662
▁Pe	-13663
▁Ph	-13664
▁Sy	-13665
▁Ta	-13666
IYOR	-13667
igür	-13668
lana	-13669
ordu	-13670
üven	-13671
üğün	-13672
ırız	-13673
ışlı	-13674
▁13.	-13675
▁Fey	-13676
▁Lat	-13677
▁Nef	-13678
▁Zam	-13679
▁İHA	-13680
endim	-13681
tığım	-13682
undak	-13683
çarşı	-13684
▁Dick	-13685
▁Hele	-13686
▁Koza	-13687
▁Yaşa	-13688
▁arsa	-13689
▁asır	-13690
▁atar	-13691
▁harf	-13692
▁kayg	-13693
▁reng	-13694
▁İşin	-13695
aletin	-13696
hanesi	-13697
iyette	-13698
unuzun	-13699
öylesi	-13700
şafaka	-13701
▁Kutlu	-13702
▁Melis	-13703
▁Ondan	-13704
▁Pamuk	-13705
▁Riyad	-13706
▁güreş	-13707
▁nasip	-13708
▁sayın	-13709
▁yolla	-13710
▁çekiş	-13711
olojisi	-13712
▁Burası	-13713
▁Mevcut	-13714
▁Robert	-13715
▁balkon	-13716
▁cezayı	-13717
▁hayali	-13718
▁kesint	-13719
▁yanıtı	-13720
▁şanslı	-13721
cılığını	-13722
▁Binbaşı	-13723
▁Bozkurt	-13724
▁Göztepe	-13725
▁Kanarya	-13726
▁Otoyolu	-13727
▁Törende	-13728
▁araçtan	-13729
▁duyulan	-13730
▁götürül	-13731
▁kapandı	-13732
▁yararlı	-13733
▁ödemesi	-13734
▁öğleden	-13735
▁İtfaiye	-13736
▁şartlar	-13737
▁Hükümeti	-13738
▁WhatsApp	-13739
▁dediğini	-13740
▁eserleri	-13741
▁etkiledi	-13742
▁fileleri	-13743
▁muhabiri	-13744
▁oluyoruz	-13745
▁sistemde	-13746
▁ödenecek	-13747
▁Emeklilik	-13748
▁ailelerin	-13749
▁binasında	-13750
▁gerginlik	-13751
▁incelendi	-13752
▁katılıyor	-13753
▁kaybettik	-13754
▁kişilerle	-13755
▁maddeleri	-13756
▁süresinin	-13757
▁tamamının	-13758
▁Toplantıda	-13759
▁alışkanlık	-13760
▁açıklamayı	-13761
▁devletinin	-13762
▁gözyaşları	-13763
▁incelemeye	-13764
▁kaydedilen	-13765
▁sayfasında	-13766
▁sürdürülen	-13767
▁İnsanların	-13768
▁Fethullahçı	-13769
▁Suriyeliler	-13770
▁aralıklarla	-13771
▁arkasındaki	-13772
▁bombardıman	-13773
▁desteklemek	-13774
▁istemiyoruz	-13775
▁konuşuluyor	-13776
▁saldırısını	-13777
▁uygulamanın	-13778
▁yapabiliyor	-13779
▁belirleyecek	-13780
▁hastalıkların	-13781
▁takımlarından	-13782
▁arkadaşlarımız	-13783
▁görevlilerinin	-13784
▁kullanıcıların	-13785
8,	-13786
Gİ	-13787
dor	-13788
gov	-13789
hem	-13790
ita	-13791
iva	-13792
mik	-13793
sım	-13794
▁Dİ	-13795
▁di	-13796
ague	-13797
visi	-13798
▁Kum	-13799
▁Nov	-13800
▁TER	-13801
▁bam	-13802
▁rev	-13803
▁uyu	-13804
Ancak	-13805
Zaman	-13806
iliğe	-13807
▁Jack	-13808
▁Luis	-13809
▁Noel	-13810
▁koşu	-13811
▁tatb	-13812
ceğini	-13813
distan	-13814
dükten	-13815
eğiyle	-13816
kender	-13817
ılmalı	-13818
▁Demek	-13819
▁Filiz	-13820
▁Keşke	-13821
▁Senin	-13822
▁Super	-13823
▁Yoğun	-13824
▁antik	-13825
▁derdi	-13826
▁domuz	-13827
▁fuhuş	-13828
▁hanım	-13829
▁işley	-13830
▁limit	-13831
▁sever	-13832
▁taviz	-13833
▁trafi	-13834
▁yaşar	-13835
▁çamaş	-13836
▁İzzet	-13837
▁Daniel	-13838
▁MİLYON	-13839
▁Otobüs	-13840
▁amiral	-13841
▁anlata	-13842
▁askıya	-13843
▁endeks	-13844
▁felsef	-13845
▁fırlat	-13846
▁harcan	-13847
▁iftira	-13848
▁kalktı	-13849
▁katına	-13850
▁servet	-13851
▁yakını	-13852
üşşafaka	-13853
▁Karabağ	-13854
▁Sevgili	-13855
▁beşinci	-13856
▁etkiler	-13857
▁etmekte	-13858
▁gitmesi	-13859
▁hazırız	-13860
▁patates	-13861
▁taşındı	-13862
ildiğinde	-13863
▁Stadyumu	-13864
▁ailesini	-13865
▁bulunmuş	-13866
▁dışarıya	-13867
▁emniyete	-13868
▁lojistik	-13869
▁makinesi	-13870
▁ormanlık	-13871
▁oynamaya	-13872
▁ulaşıldı	-13873
▁yapısını	-13874
▁üstünlük	-13875
▁şehirler	-13876
▁yürütüyor	-13877
▁başlayarak	-13878
▁federasyon	-13879
▁kapasitesi	-13880
▁kolesterol	-13881
▁planladığı	-13882
▁programını	-13883
▁belirsizlik	-13884
▁değiştirmek	-13885
▁gerekiyordu	-13886
▁seviyesinin	-13887
▁şekillendir	-13888
▁çatışmalarda	-13889
//	-13890
3.	-13891
6,	-13892
DO	-13893
US	-13894
edd	-13895
top	-13896
▁7,	-13897
▁Il	-13898
ILDI	-13899
büsü	-13900
hard	-13901
kten	-13902
oord	-13903
uklu	-13904
ymış	-13905
▁19.	-13906
▁Buz	-13907
▁CEZ	-13908
▁Fit	-13909
▁Raf	-13910
▁Wor	-13911
▁YGS	-13912
▁had	-13913
▁inc	-13914
▁pik	-13915
▁Özk	-13916
amıza	-13917
danış	-13918
dişah	-13919
olata	-13920
seydi	-13921
▁Faiz	-13922
▁KKTC	-13923
▁Tali	-13924
▁Tank	-13925
▁boyn	-13926
▁port	-13927
▁sürü	-13928
onomik	-13929
osunda	-13930
▁2010'	-13931
▁Akdağ	-13932
▁Alevi	-13933
▁Durum	-13934
▁Erhan	-13935
▁Güçlü	-13936
▁Ofisi	-13937
▁Planı	-13938
▁Tahir	-13939
▁cümle	-13940
▁dökül	-13941
▁kapak	-13942
▁kilis	-13943
▁konse	-13944
mabahçe	-13945
▁Kafkas	-13946
▁defter	-13947
▁güldür	-13948
▁kalite	-13949
▁kalori	-13950
▁konfor	-13951
▁okumak	-13952
▁oturdu	-13953
▁yapama	-13954
▁Çakmak	-13955
▁üyeler	-13956
lacağını	-13957
▁Aydoğan	-13958
▁Dijital	-13959
▁Kürtler	-13960
▁anlaştı	-13961
▁basında	-13962
▁hukukun	-13963
▁prensip	-13964
▁salonda	-13965
▁sunacak	-13966
▁varılan	-13967
▁yapmadı	-13968
▁yazıyor	-13969
▁çıkınca	-13970
▁şansını	-13971
▁şiddete	-13972
▁Festival	-13973
▁Finansal	-13974
▁Kulüpler	-13975
▁aralıklı	-13976
▁bunlarla	-13977
▁cezasını	-13978
▁etmekten	-13979
▁iktidarı	-13980
▁işlediği	-13981
▁kavuştur	-13982
▁korumaya	-13983
▁kutluyor	-13984
▁maddenin	-13985
▁parçalan	-13986
▁takımlar	-13987
▁tarihini	-13988
▁ticareti	-13989
▁üstlendi	-13990
▁Şemdinli	-13991
▁Endonezya	-13992
▁Günümüzde	-13993
▁başvuruda	-13994
▁kaldırmak	-13995
▁kararında	-13996
▁listesine	-13997
▁yetenekli	-13998
▁alındıktan	-13999
▁geliştirme	-14000
▁olmayacağı	-14001
▁yaşananlar	-14002
▁araçlarının	-14003
▁edileceğini	-14004
▁askerlerinin	-14005
▁edilmektedir	-14006
▁güvenliğinin	-14007
▁istiyorsanız	-14008
▁çevresindeki	-14009
▁şampiyonluğu	-14010
▁ambulanslarla	-14011
5"	-14012
▁@	-14013
Bil	-14014
EDİ	-14015
LEN	-14016
ate	-14017
eng	-14018
rık	-14019
▁97	-14020
▁Gi	-14021
apur	-14022
caya	-14023
otik	-14024
vanç	-14025
çası	-14026
şağı	-14027
▁Dah	-14028
▁Eve	-14029
▁dib	-14030
▁reç	-14031
emize	-14032
icisi	-14033
osman	-14034
uvarı	-14035
▁Amas	-14036
▁Ayak	-14037
▁Doug	-14038
▁Kahv	-14039
▁atıf	-14040
▁felç	-14041
▁kast	-14042
▁kime	-14043
▁rady	-14044
fettiş	-14045
lamalı	-14046
lileri	-14047
▁Halit	-14048
▁Haluk	-14049
▁Köşkü	-14050
▁Leyla	-14051
▁denli	-14052
▁düşer	-14053
▁garip	-14054
▁koyun	-14055
▁sürüş	-14056
▁yılki	-14057
▁Bilgin	-14058
▁Tasarı	-14059
▁Teröre	-14060
▁aileye	-14061
▁bildik	-14062
▁cezalı	-14063
▁dengel	-14064
▁duruşu	-14065
▁edince	-14066
▁hedefe	-14067
▁jandar	-14068
▁kaldım	-14069
▁pişman	-14070
▁sınıfı	-14071
▁temmuz	-14072
▁virüsü	-14073
▁ödemek	-14074
alarımız	-14075
ulanıyor	-14076
▁Dergisi	-14077
▁Ekipler	-14078
▁Hakkâri	-14079
▁fabrika	-14080
▁görmesi	-14081
▁ilerley	-14082
▁reyting	-14083
▁öldürme	-14084
▁öngören	-14085
▁azaltmak	-14086
▁devrildi	-14087
▁dönemini	-14088
▁hürriyet	-14089
▁reddetti	-14090
▁sonuçlan	-14091
▁sözlerle	-14092
▁sınırına	-14093
▁Ümraniye	-14094
▁çalıştım	-14095
▁Anlaşması	-14096
▁Havacılık	-14097
▁ateşkesin	-14098
▁bölümünün	-14099
▁dünyasına	-14100
▁hastalığa	-14101
▁sürdüğünü	-14102
▁öngörülen	-14103
▁kalitesini	-14104
▁röportajda	-14105
▁üretiminde	-14106
▁Kapalıçarşı	-14107
▁galibiyetle	-14108
▁Bahçelievler	-14109
▁karşılaşmayı	-14110
▁politikaları	-14111
▁yetkililerinin	-14112
▁faaliyetlerinin	-14113
Es	-14114
GB	-14115
SV	-14116
AYI	-14117
ETİ	-14118
Kay	-14119
Kim	-14120
kam	-14121
uck	-14122
ure	-14123
uri	-14124
▁2"	-14125
▁AÇ	-14126
▁BO	-14127
▁Eh	-14128
efet	-14129
uble	-14130
uhaf	-14131
zani	-14132
ülem	-14133
▁4-5	-14134
▁450	-14135
▁5-6	-14136
▁Ceb	-14137
▁Hiz	-14138
▁Zel	-14139
▁miz	-14140
▁sis	-14141
ampar	-14142
cımız	-14143
etkik	-14144
ğunda	-14145
▁Niye	-14146
▁Ziya	-14147
▁boşa	-14148
▁feda	-14149
▁içme	-14150
▁kurb	-14151
▁uçur	-14152
▁Fiyat	-14153
▁Gelin	-14154
▁Gelir	-14155
▁Josef	-14156
▁Nehri	-14157
▁Olmaz	-14158
▁anıms	-14159
▁açlık	-14160
▁etsin	-14161
▁kelep	-14162
▁kente	-14163
▁mermi	-14164
▁milit	-14165
▁otele	-14166
▁soktu	-14167
▁taziy	-14168
duğunuz	-14169
lüğünün	-14170
▁Cemaat	-14171
▁Linnes	-14172
▁Olayla	-14173
▁Yahudi	-14174
▁düşünü	-14175
▁fezlek	-14176
▁muamel	-14177
▁otelin	-14178
▁paketi	-14179
eyenoord	-14180
▁Haberde	-14181
▁Kıdemli	-14182
▁William	-14183
▁dinleme	-14184
▁etmenin	-14185
▁haliyle	-14186
▁karışan	-14187
▁kaybına	-14188
▁periyot	-14189
▁uzlaşma	-14190
▁önemini	-14191
▁üretici	-14192
▁Şüpheli	-14193
ilmesiyle	-14194
melisiniz	-14195
▁Altıntaş	-14196
▁Personel	-14197
▁gereksiz	-14198
▁imkansız	-14199
▁medyadan	-14200
▁oyuncuyu	-14201
▁yorumlar	-14202
▁yöntemle	-14203
▁çocukluk	-14204
▁İncirlik	-14205
▁Denetleme	-14206
▁Hükümetin	-14207
▁adayların	-14208
▁geçtikten	-14209
▁iktidarın	-14210
▁işçilerin	-14211
▁kurtulmak	-14212
▁malzemesi	-14213
▁oyunculuk	-14214
▁sularında	-14215
▁unutulmaz	-14216
▁yatırımla	-14217
▁çıkaracak	-14218
▁ülkesinde	-14219
▁birlikleri	-14220
▁görüşmenin	-14221
▁gündeminde	-14222
▁kontrolünü	-14223
▁doktorların	-14224
▁niteliğinde	-14225
▁yaşananları	-14226
▁rahatsızlığı	-14227
▁Afyonkarahisar	-14228
://	-14229
DDK	-14230
TAL	-14231
biç	-14232
yaj	-14233
üya	-14234
▁PR	-14235
▁TT	-14236
▁yı	-14237
alın	-14238
aseb	-14239
kapı	-14240
lisi	-14241
over	-14242
▁3,5	-14243
▁PAR	-14244
▁YAŞ	-14245
▁gev	-14246
▁log	-14247
▁ret	-14248
▁çır	-14249
-2015	-14250
Artık	-14251
arbay	-14252
eddüt	-14253
limiz	-14254
çinin	-14255
▁Barb	-14256
▁Donk	-14257
▁Sema	-14258
▁aştı	-14259
▁bron	-14260
▁Ölüm	-14261
▁öğün	-14262
iyatif	-14263
manızı	-14264
mavili	-14265
tirken	-14266
▁Alpar	-14267
▁Bakın	-14268
▁Balta	-14269
▁Düzce	-14270
▁Evren	-14271
▁Franc	-14272
▁Hakkı	-14273
▁Hamil	-14274
▁Hotel	-14275
▁Nusra	-14276
▁bilek	-14277
▁biçim	-14278
▁dostu	-14279
▁emlak	-14280
▁eşine	-14281
▁keyfi	-14282
▁makal	-14283
▁sunul	-14284
▁vahşi	-14285
▁Asgari	-14286
▁Beykoz	-14287
▁Gökçen	-14288
▁Görmez	-14289
▁Güngör	-14290
▁Gürsel	-14291
▁Iraklı	-14292
▁Limanı	-14293
▁Turgay	-14294
▁bindir	-14295
▁cansız	-14296
▁dizide	-14297
▁fırtın	-14298
▁girdik	-14299
▁işyeri	-14300
▁kuyruk	-14301
▁notunu	-14302
▁oyunda	-14303
▁tahrip	-14304
▁çözmek	-14305
▁ılımlı	-14306
opolitik	-14307
▁Barzani	-14308
▁Talisca	-14309
▁baskısı	-14310
▁işçiler	-14311
▁korkusu	-14312
▁kurumun	-14313
▁olamadı	-14314
▁sorulan	-14315
▁teminat	-14316
lerimizde	-14317
▁Başarılı	-14318
▁Tüketici	-14319
▁alamayan	-14320
▁almasını	-14321
▁aramızda	-14322
▁babasını	-14323
▁durdurdu	-14324
▁iyileşme	-14325
▁tasarımı	-14326
▁yapmamız	-14327
▁Çağlayan	-14328
▁Sokakları	-14329
▁Türklerin	-14330
▁Yarışması	-14331
▁anlatmaya	-14332
▁dizisinin	-14333
▁katılması	-14334
▁mevkiinde	-14335
▁oluşturul	-14336
▁patlamada	-14337
▁Böylelikle	-14338
▁Halisdemir	-14339
▁Parlamento	-14340
▁haberleşme	-14341
▁kalmayacak	-14342
▁kişilerden	-14343
▁sorumluluğ	-14344
▁Öğrenciler	-14345
▁Darüşşafaka	-14346
▁geçirilmesi	-14347
▁sahiplerine	-14348
▁deplasmanında	-14349
▁beklediklerini	-14350
▁vatandaşlarının	-14351
DÜ	-14352
mp	-14353
ny	-14354
BAK	-14355
MAN	-14356
rio	-14357
ğıt	-14358
▁AF	-14359
SGEB	-14360
akâr	-14361
avir	-14362
cini	-14363
iter	-14364
ülin	-14365
▁(19	-14366
▁116	-14367
▁2-2	-14368
▁Ayv	-14369
▁Cim	-14370
▁Feh	-14371
▁IMF	-14372
▁Jet	-14373
▁Luc	-14374
▁Num	-14375
▁SÖZ	-14376
eveyn	-14377
luluğ	-14378
tiğim	-14379
▁Eser	-14380
▁Papa	-14381
▁açıp	-14382
▁müst	-14383
▁oksi	-14384
▁uyuş	-14385
▁zarf	-14386
▁Huzur	-14387
▁Kazım	-14388
▁Ligin	-14389
▁evini	-14390
▁faizi	-14391
▁gözle	-14392
▁iskel	-14393
▁kitle	-14394
▁lazer	-14395
▁limon	-14396
▁primi	-14397
▁tayin	-14398
▁taşıy	-14399
▁yavru	-14400
▁yurti	-14401
▁yıkım	-14402
ilediği	-14403
muyorum	-14404
ılmadan	-14405
ışmanın	-14406
▁KOSGEB	-14407
▁Onlara	-14408
▁Sigort	-14409
▁Somali	-14410
▁alanın	-14411
▁atmaya	-14412
▁açacak	-14413
▁bakmak	-14414
▁halini	-14415
▁kalkıp	-14416
▁lütfen	-14417
▁saygın	-14418
▁serisi	-14419
▁tatmin	-14420
▁çıkmaz	-14421
ebilirim	-14422
▁Başvuru	-14423
▁Kocaman	-14424
▁Nilüfer	-14425
▁Ziyaret	-14426
▁donanım	-14427
▁hastaya	-14428
▁implant	-14429
▁kolları	-14430
▁koyarak	-14431
▁mısınız	-14432
▁vesayet	-14433
▁zanlısı	-14434
▁örneğin	-14435
▁ücretin	-14436
ilecektir	-14437
▁bombanın	-14438
▁hikayesi	-14439
▁taraflar	-14440
▁İkincisi	-14441
▁Cerattepe	-14442
▁Yüksekdağ	-14443
▁borçlanma	-14444
▁diliyoruz	-14445
▁düşünerek	-14446
▁gerçeklik	-14447
▁haksızlık	-14448
▁mesajında	-14449
▁projesini	-14450
▁söylerken	-14451
▁verilmedi	-14452
▁yapmaktan	-14453
▁yollardan	-14454
▁Ülkemizin	-14455
▁üyelerine	-14456
▁alınmıştır	-14457
▁müşteriler	-14458
▁nedenlerle	-14459
▁projelerin	-14460
▁tabancayla	-14461
▁eleştiriler	-14462
▁ürünlerinin	-14463
▁hastalığının	-14464
▁kurumlarının	-14465
▁merkezindeki	-14466
▁edebilirsiniz	-14467
▁operasyonlara	-14468
▁performansıyla	-14469
▁vatandaşlarına	-14470
▁taraftarlarının	-14471
'-	-14472
15	-14473
YS	-14474
:45	-14475
SAN	-14476
TSK	-14477
cük	-14478
âtı	-14479
▁1,	-14480
▁Ni	-14481
▁Um	-14482
Evet	-14483
asal	-14484
ener	-14485
imet	-14486
kodu	-14487
meme	-14488
tanı	-14489
üydü	-14490
ğday	-14491
▁18.	-14492
▁Big	-14493
▁Kaş	-14494
▁Wat	-14495
▁haş	-14496
▁hid	-14497
▁ine	-14498
▁sir	-14499
▁tev	-14500
ozgat	-14501
yüzde	-14502
Ülkem	-14503
İzmir	-14504
▁Gölü	-14505
▁Mist	-14506
▁Soru	-14507
▁emri	-14508
▁izah	-14509
▁keyf	-14510
▁müze	-14511
▁ruhu	-14512
▁sade	-14513
▁traj	-14514
endisi	-14515
iliğin	-14516
iğinin	-14517
mişler	-14518
▁09.00	-14519
▁Anlaş	-14520
▁Diyet	-14521
▁Geliş	-14522
▁Gizem	-14523
▁annem	-14524
▁arşiv	-14525
▁kırıl	-14526
▁sözlü	-14527
▁çekip	-14528
▁önlen	-14529
dilerde	-14530
▁Peşmer	-14531
▁arayıp	-14532
▁azaltı	-14533
▁gününü	-14534
▁hükmet	-14535
▁katled	-14536
▁kiloda	-14537
▁uğruna	-14538
▁İranlı	-14539
ilemeyen	-14540
layacağı	-14541
▁Chelsea	-14542
▁Dünyaya	-14543
▁Yasemin	-14544
▁aşağıya	-14545
▁bırakma	-14546
▁eskiden	-14547
▁formayı	-14548
▁kazanım	-14549
▁mevduat	-14550
▁olmamız	-14551
▁sportif	-14552
▁stadyum	-14553
▁tuttuğu	-14554
▁yanlısı	-14555
▁yıllara	-14556
malarında	-14557
▁atılacak	-14558
▁aydınlat	-14559
▁açılıyor	-14560
▁başlayıp	-14561
▁enerjisi	-14562
▁erteleme	-14563
▁imzaladı	-14564
▁işlerini	-14565
▁kaçarken	-14566
▁referans	-14567
▁seyreden	-14568
▁yapmıyor	-14569
▁yıldızlı	-14570
elerindeki	-14571
▁adımların	-14572
▁arkadaşım	-14573
▁artırıyor	-14574
▁bırakmadı	-14575
▁ekranlara	-14576
▁fazlasını	-14577
▁gazetenin	-14578
▁gerekçesi	-14579
▁gürültülü	-14580
▁polislere	-14581
▁yayımladı	-14582
▁başlamadan	-14583
▁mevkisinde	-14584
▁bilgilerini	-14585
▁bölgesinden	-14586
▁danışmanlık	-14587
▁demokrasinin	-14588
▁ekranlarında	-14589
▁gözyaşlarına	-14590
▁yaralanmıştı	-14591
▁olabilirsiniz	-14592
▁değerlendirmek	-14593
no	-14594
▁$	-14595
-17	-14596
PDK	-14597
Yap	-14598
hen	-14599
laç	-14600
oma	-14601
tum	-14602
urk	-14603
▁(7	-14604
iğde	-14605
maye	-14606
mith	-14607
ışla	-14608
▁18'	-14609
▁Büy	-14610
▁Com	-14611
▁Gur	-14612
▁KAY	-14613
▁Kub	-14614
▁Nüf	-14615
▁Rej	-14616
▁YÖK	-14617
▁eur	-14618
▁Çif	-14619
▁çeş	-14620
dalık	-14621
diyok	-14622
engen	-14623
temiz	-14624
tıkça	-14625
▁Vücu	-14626
▁Yedi	-14627
▁bran	-14628
▁gönl	-14629
▁kaos	-14630
▁sütü	-14631
▁Özlü	-14632
▁öncü	-14633
alılar	-14634
alıyor	-14635
anyahu	-14636
▁2007'	-14637
▁Canlı	-14638
▁Hatır	-14639
▁Yakup	-14640
▁anlık	-14641
▁buyur	-14642
▁bürün	-14643
▁ergen	-14644
▁geçim	-14645
▁görüp	-14646
▁gümüş	-14647
▁kuyum	-14648
▁kuşak	-14649
▁tüken	-14650
▁yaktı	-14651
▁üzücü	-14652
▁İfade	-14653
amparça	-14654
▁Arapça	-14655
▁Buraya	-14656
▁Cansel	-14657
▁Kıvanç	-14658
▁Sezgin	-14659
▁adında	-14660
▁azalma	-14661
▁gencin	-14662
▁kasten	-14663
▁mağaza	-14664
▁tırnak	-14665
▁çılgın	-14666
eceğiniz	-14667
ilmeleri	-14668
operatif	-14669
▁atarken	-14670
▁açılmış	-14671
▁barınma	-14672
▁bitecek	-14673
▁diyecek	-14674
▁düşürül	-14675
▁entegre	-14676
▁hakkına	-14677
▁harcama	-14678
▁ileriye	-14679
▁kavuştu	-14680
▁konumda	-14681
▁kutladı	-14682
▁normale	-14683
▁sağlama	-14684
▁sunuldu	-14685
▁önünden	-14686
emediğini	-14687
lamayarak	-14688
▁Derdiyok	-14689
▁binasına	-14690
▁dedikodu	-14691
▁değerler	-14692
▁edinilen	-14693
▁getirdik	-14694
▁girerken	-14695
▁gruplara	-14696
▁güçlükle	-14697
▁sayısına	-14698
▁öncesine	-14699
▁birbirini	-14700
▁değerinde	-14701
▁durdurmak	-14702
▁faaliyete	-14703
▁fiyatının	-14704
▁geçiriyor	-14705
▁gözüküyor	-14706
▁imzalanan	-14707
▁kanalında	-14708
▁kapsamına	-14709
▁karakteri	-14710
▁parçaları	-14711
▁sahibinin	-14712
▁takımları	-14713
▁çıkmasını	-14714
▁alanındaki	-14715
▁göstermeye	-14716
▁sözleşmeli	-14717
▁tamamladık	-14718
▁vereceğini	-14719
abileceğiniz	-14720
▁görüşmelere	-14721
▁çalışacağız	-14722
▁karbonhidrat	-14723
▁karşısındaki	-14724
▁kesimlerinde	-14725
▁saldırılarda	-14726
▁uygulamasına	-14727
▁oluşturulması	-14728
lî	-14729
İF	-14730
ıh	-14731
.08	-14732
LAM	-14733
ahi	-14734
aza	-14735
mun	-14736
▁cm	-14737
arda	-14738
egal	-14739
ibar	-14740
leks	-14741
olis	-14742
oğul	-14743
ston	-14744
uhan	-14745
▁115	-14746
▁13'	-14747
▁Bre	-14748
▁DHA	-14749
▁Ele	-14750
▁GEÇ	-14751
▁Jor	-14752
▁Rey	-14753
▁Vir	-14754
▁aks	-14755
▁fık	-14756
▁göv	-14757
▁ked	-14758
▁yığ	-14759
▁ömr	-14760
münde	-14761
olsun	-14762
zaman	-14763
Şehit	-14764
▁Kole	-14765
▁Rena	-14766
▁Yang	-14767
▁içki	-14768
▁işit	-14769
▁notu	-14770
▁stil	-14771
abilme	-14772
alamak	-14773
elerce	-14774
emedik	-14775
lemeyi	-14776
ventus	-14777
çılığı	-14778
▁Atiba	-14779
▁Banka	-14780
▁Gebze	-14781
▁Hızlı	-14782
▁Kayıt	-14783
▁atışı	-14784
▁barın	-14785
▁eczan	-14786
▁esrar	-14787
▁etmey	-14788
▁komut	-14789
▁maksa	-14790
▁radar	-14791
▁Şarkı	-14792
ültekin	-14793
▁Filmin	-14794
▁Pendik	-14795
▁Ulusoy	-14796
▁Yozgat	-14797
▁doğrul	-14798
▁duydum	-14799
▁minnet	-14800
▁nöbeti	-14801
▁rüşvet	-14802
▁yapıcı	-14803
▁Üretim	-14804
▁çarpan	-14805
▁çözüme	-14806
▁ödenen	-14807
.01.2016	-14808
ılanıyor	-14809
▁Fethiye	-14810
▁arkadan	-14811
▁başlığı	-14812
▁borcunu	-14813
▁durması	-14814
▁filmler	-14815
▁listesi	-14816
▁merkeze	-14817
▁sevinci	-14818
▁sürerek	-14819
▁ulaşmış	-14820
▁verilir	-14821
▁çalışır	-14822
▁Kardemir	-14823
▁bakımdan	-14824
▁düşündüm	-14825
▁düşündüğ	-14826
▁gelişimi	-14827
▁havaalan	-14828
▁hedefler	-14829
▁onlardan	-14830
▁yarısını	-14831
▁yüzyılda	-14832
▁çarşamba	-14833
▁Alparslan	-14834
▁Tecrübeli	-14835
▁doktorlar	-14836
▁eğitimini	-14837
▁gereğince	-14838
▁geçmesine	-14839
▁inceleyen	-14840
▁paylaşmak	-14841
▁raporunda	-14842
▁siyasetçi	-14843
▁vurularak	-14844
▁yerlerine	-14845
▁Arjantinli	-14846
▁alınmasını	-14847
▁buluşturdu	-14848
▁kullanması	-14849
▁muhtemelen	-14850
▁üstesinden	-14851
▁konularında	-14852
▁saldırılara	-14853
▁sınırlarını	-14854
▁toplantının	-14855
▁temizlenmesi	-14856
▁seviyelerinde	-14857
▁yerleştirilen	-14858
▁arkadaşlarıyla	-14859
sp	-14860
-11	-14861
ETT	-14862
ayn	-14863
dis	-14864
nce	-14865
sor	-14866
til	-14867
Genç	-14868
adok	-14869
gücü	-14870
▁17.	-14871
▁21.	-14872
▁Bla	-14873
▁Fig	-14874
▁Maz	-14875
▁Not	-14876
▁Zen	-14877
▁fed	-14878
▁hev	-14879
▁jet	-14880
▁kin	-14881
▁çil	-14882
Vatan	-14883
emeye	-14884
inson	-14885
negöl	-14886
▁Edeb	-14887
▁GATA	-14888
▁Hami	-14889
▁Size	-14890
▁elen	-14891
▁jüri	-14892
▁obüs	-14893
▁plaj	-14894
▁stok	-14895
▁suya	-14896
▁İçin	-14897
cileri	-14898
▁Bağım	-14899
▁Erbil	-14900
▁Kudüs	-14901
▁Pilot	-14902
▁Sevgi	-14903
▁dille	-14904
▁figür	-14905
▁ismin	-14906
▁mıdır	-14907
▁olanı	-14908
▁tavrı	-14909
▁tohum	-14910
▁Ünsal	-14911
▁özgün	-14912
▁Şükür	-14913
▁Devrim	-14914
▁Polisi	-14915
[...]
