<unk>	0
<s>	0
</s>	0
.	-3.22224
,	-3.44507
'	-3.75344
▁ve	-4.42299
▁bir	-4.72112
n	-4.93039
a	-5.09115
"	-5.1938
e	-5.24516
▁"	-5.26334
da	-5.2693
k	-5.30189
i	-5.33693
▁	-5.37561
de	-5.37665
nin	-5.39109
▁de	-5.51207
▁bu	-5.52605
ın	-5.53237
in	-5.54146
lar	-5.54181
m	-5.55663
▁da	-5.56812
ler	-5.57111
nın	-5.57899
▁için	-5.6639
▁ile	-5.70189
ı	-5.76938
ya	-5.78137
na	-5.8544
ye	-5.85686
li	-5.90487
ları	-5.90976
r	-5.92441
leri	-5.92683
la	-5.99816
:	-6.00244
ne	-6.01229
-	-6.06973
t	-6.0903
le	-6.09602
s	-6.12242
▁Türkiye	-6.13413
si	-6.15609
z	-6.16239
den	-6.17503
dan	-6.18385
lı	-6.19196
▁Bu	-6.19437
▁olarak	-6.25151
▁(	-6.2726
l	-6.2824
ni	-6.29042
▁çok	-6.31559
u	-6.31764
te	-6.35035
▁olan	-6.36247
ta	-6.40211
nda	-6.42591
an	-6.42959
▁ise	-6.4331
)	-6.43836
ki	-6.4384
▁en	-6.47501
▁daha	-6.47934
▁-	-6.51525
lerin	-6.53625
p	-6.5455
nde	-6.55307
ların	-6.55515
nı	-6.59074
y	-6.60861
sı	-6.6217
un	-6.62606
ma	-6.63428
di	-6.68894
▁sonra	-6.70236
lik	-6.70982
▁kadar	-6.71241
▁gibi	-6.71835
?	-6.73065
▁bin	-6.7417
yi	-6.75297
▁var	-6.76628
▁A	-6.77592
yı	-6.78762
en	-6.79047
▁yer	-6.83834
▁göre	-6.84329
yla	-6.87891
▁1	-6.8895
S	-6.88976
▁3	-6.89553
▁olduğu	-6.9039
▁dedi	-6.91453
▁olduğunu	-6.91603
lık	-6.91846
▁ilk	-6.93535
...	-6.93555
lere	-6.93666
▁2	-6.94229
lara	-6.94381
▁büyük	-6.95163
▁yeni	-6.99268
▁S	-6.99379
me	-6.99759
K	-7.00552
▁ne	-7.00877
larını	-7.009
ü	-7.01576
▁yüzde	-7.02926
▁yıl	-7.0297
▁O	-7.03009
yle	-7.03251
nun	-7.03832
▁son	-7.06069
▁her	-7.06332
lerini	-7.07055
▁oldu	-7.07929
▁o	-7.08271
▁etti	-7.08366
tan	-7.09086
A	-7.09349
▁devam	-7.09423
▁'	-7.09695
er	-7.09875
▁tarafından	-7.10355
▁karşı	-7.10895
▁diye	-7.11466
▁iki	-7.13267
d	-7.17198
ş	-7.17931
o	-7.1814
dı	-7.18222
▁İstanbul	-7.18666
▁Türk	-7.19043
;	-7.20367
▁yapılan	-7.20667
!	-7.20788
▁ardından	-7.20945
▁4	-7.21494
▁ilgili	-7.22102
sa	-7.22106
ti	-7.22233
▁önce	-7.22321
ca	-7.22638
daki	-7.23269
▁milyon	-7.24732
T	-7.25587
dır	-7.25887
▁gün	-7.26339
dir	-7.26975
▁5	-7.2704
▁Başkanı	-7.2723
ç	-7.27322
▁eden	-7.27334
▁arasında	-7.27462
M	-7.278
▁ya	-7.28461
▁değil	-7.28939
ar	-7.30075
h	-7.30353
ra	-7.30561
f	-7.30943
▁terör	-7.32507
▁iyi	-7.32668
re	-7.33102
▁söyledi	-7.33483
▁gelen	-7.33783
▁önemli	-7.34178
▁zaman	-7.3432
▁E	-7.34697
▁K	-7.34722
deki	-7.34839
larının	-7.35007
lu	-7.35162
▁10	-7.358
ini	-7.36114
ri	-7.36461
▁Haberleri	-7.36476
▁alan	-7.3729
ten	-7.37738
▁ABD	-7.39069
se	-7.40634
al	-7.42648
larda	-7.42906
▁B	-7.43579
▁Bir	-7.43592
▁ki	-7.4361
▁ifade	-7.43619
▁kişi	-7.43814
du	-7.44163
ün	-7.44853
tı	-7.44866
ır	-7.45144
B	-7.45371
D	-7.45373
▁T	-7.45731
lerinin	-7.45806
▁yaptığı	-7.45853
mak	-7.45907
ci	-7.46976
▁15	-7.47289
ndan	-7.47321
g	-7.47775
nden	-7.48021
lerde	-7.48466
im	-7.48614
larına	-7.49222
▁ama	-7.50441
lerine	-7.50465
▁Erdoğan	-7.5067
▁C	-7.50918
▁iş	-7.51164
▁G	-7.51698
▁19	-7.52259
▁içinde	-7.52442
▁6	-7.5273
▁bulunan	-7.53619
ce	-7.53819
cı	-7.53898
miz	-7.54077
▁birlikte	-7.56028
E	-7.56289
el	-7.56378
▁tüm	-7.56632
▁üzerine	-7.56719
G	-7.57058
▁F	-7.57546
acak	-7.57793
▁Avrupa	-7.58169
at	-7.58631
▁şekilde	-7.58912
ecek	-7.59079
▁fazla	-7.5943
mız	-7.59441
▁Suriye	-7.59509
O	-7.59786
▁konuştu	-7.60153
il	-7.60209
um	-7.60434
İ	-7.6089
▁yok	-7.60968
ir	-7.6209
ine	-7.62174
P	-7.62739
v	-7.63489
arak	-7.63502
▁hem	-7.64014
mış	-7.64299
C	-7.64743
su	-7.64992
ması	-7.65173
ur	-7.65456
▁verdi	-7.65673
▁saat	-7.66098
▁polis	-7.66132
▁karar	-7.66284
▁kendi	-7.66495
▁7	-7.66914
ını	-7.67096
▁geldi	-7.67218
▁an	-7.67234
▁FETÖ	-7.6729
lan	-7.67684
▁M	-7.67712
▁mi	-7.67915
▁aynı	-7.67972
ğı	-7.68291
▁Gazetesi	-7.6861
sini	-7.69396
­	-7.70942
larında	-7.71389
▁şey	-7.71672
▁yaptı	-7.7184
larla	-7.71867
▁ay	-7.72219
uz	-7.72705
man	-7.72919
sını	-7.74256
ka	-7.74334
mi	-7.74914
▁Cumhurbaşkanı	-7.75247
miş	-7.75804
▁hafta	-7.75932
▁diğer	-7.76044
lü	-7.7633
▁D	-7.7643
b	-7.76914
▁az	-7.77715
bi	-7.78509
▁aldı	-7.78654
lerle	-7.78728
▁olmak	-7.7883
▁olacak	-7.78977
▁nedeniyle	-7.79027
▁8	-7.79065
▁yapan	-7.79253
▁el	-7.79413
▁günü	-7.79621
▁tek	-7.79628
▁şu	-7.79666
▁üzere	-7.79812
▁ortaya	-7.8012
sine	-7.80773
inde	-7.81124
▁yol	-7.81389
▁PKK	-7.81478
▁kez	-7.81481
▁sahip	-7.81933
▁Genel	-7.82687
oğlu	-7.83093
▁çıktı	-7.8315
▁İ	-7.83257
▁edildi	-7.83793
lerden	-7.8395
lama	-7.84117
▁2016	-7.84118
▁darbe	-7.84384
▁H	-7.84422
▁TL	-7.84575
ıyor	-7.84714
".	-7.84979
ba	-7.85564
▁bile	-7.85891
▁P	-7.85929
▁Ankara	-7.86265
▁edilen	-7.86468
▁hava	-7.86965
▁para	-7.87393
▁20	-7.87436
▁geçen	-7.87441
▁Fenerbahçe	-7.8762
▁destek	-7.87713
▁veya	-7.88039
lardan	-7.88067
mek	-7.88624
▁Beşiktaş	-7.88855
▁özel	-7.89192
▁sadece	-7.89404
▁ediyor	-7.89698
tır	-7.89777
ken	-7.90083
▁yönelik	-7.9013
▁süre	-7.90867
Y	-7.914
▁Son	-7.91425
▁Ak	-7.91464
▁bulundu	-7.91901
▁Ancak	-7.91961
ak	-7.92612
00	-7.93214
▁Rusya	-7.93261
▁doğru	-7.93587
▁biri	-7.9393
▁Spor	-7.94186
/	-7.94243
),	-7.94498
ran	-7.9454
liği	-7.94827
▁bazı	-7.94877
▁ev	-7.95207
▁başladı	-7.9549
▁9	-7.95517
lığı	-7.95531
▁Galatasaray	-7.95903
▁Y	-7.95911
▁olması	-7.95982
dığı	-7.96359
lerinde	-7.96455
ına	-7.96931
H	-7.97221
tir	-7.97391
▁üzerinde	-7.97758
▁Ama	-7.97819
▁başka	-7.97873
luk	-7.97929
▁yerine	-7.97987
▁yılında	-7.97993
▁Me	-7.98107
sel	-7.98301
▁ülke	-7.98518
çi	-7.98764
R	-7.988
▁göz	-7.98884
mesi	-7.98898
▁güvenlik	-7.99057
▁bugün	-7.99513
▁milyar	-7.99814
▁su	-8.00094
▁Dünya	-8.00149
▁nasıl	-8.00173
▁hakkında	-8.00368
▁açık	-8.00467
ay	-8.00553
▁dikkat	-8.00827
▁yakın	-8.00882
ım	-8.00928
▁şöyle	-8.00974
▁mücadele	-8.01054
nün	-8.01148
▁11	-8.01523
F	-8.02181
sına	-8.02231
siz	-8.0252
▁görev	-8.03
▁12	-8.0367
▁yüksek	-8.03956
sız	-8.04562
erek	-8.04581
▁neden	-8.05408
▁lira	-8.05651
▁takım	-8.0595
lerinden	-8.06005
▁Temmuz	-8.06089
▁dolar	-8.06416
nu	-8.06437
▁konusunda	-8.06626
▁biz	-8.06678
▁söz	-8.06772
▁kararı	-8.07078
▁farklı	-8.07244
▁iddia	-8.0739
▁sıra	-8.07409
▁Ç	-8.07482
za	-8.07784
larından	-8.07884
sinde	-8.08089
va	-8.08137
▁ancak	-8.0815
ip	-8.08291
▁yapı	-8.08633
ha	-8.08833
▁haber	-8.08883
▁Müdürlüğü	-8.08975
▁açıklamada	-8.09264
I	-8.09266
sinin	-8.09305
be	-8.09468
▁at	-8.09471
▁dün	-8.09608
5	-8.0962
▁Biz	-8.09635
▁yaşındaki	-8.09723
▁kabul	-8.1002
iyor	-8.1053
▁Mehmet	-8.10547
on	-8.11699
▁sağ	-8.12028
len	-8.12041
yu	-8.13649
c	-8.13685
▁bulunduğu	-8.13851
U	-8.13878
▁eski	-8.14089
▁Bakanı	-8.14241
▁konu	-8.14374
ül	-8.14391
▁ilişkin	-8.14605
▁olay	-8.15231
ö	-8.15285
▁al	-8.15285
▁kapsamında	-8.15303
▁dile	-8.15678
▁ettiği	-8.15785
▁böyle	-8.16184
▁Ne	-8.16671
zi	-8.16719
▁kadın	-8.16965
sında	-8.16969
▁geri	-8.1755
▁konusu	-8.17678
▁mı	-8.17692
▁çalışma	-8.17768
▁Devlet	-8.1847
▁U	-8.18561
sin	-8.19101
▁örgütü	-8.1919
▁iç	-8.19978
yan	-8.20017
▁Bakanlığı	-8.20311
▁Ka	-8.20337
▁üç	-8.20347
maya	-8.20513
▁çalışan	-8.21157
▁14	-8.21291
1	-8.21334
▁uzun	-8.2148
▁kar	-8.21854
▁şehit	-8.21883
▁rağmen	-8.22024
inin	-8.22062
▁gözaltına	-8.22095
ıp	-8.22225
ro	-8.22227
ik	-8.22343
▁belirten	-8.22353
▁insan	-8.22358
▁meydan	-8.22622
it	-8.2276
▁ceza	-8.22819
▁bütün	-8.2282
ği	-8.23172
▁çıkan	-8.23199
▁Se	-8.23347
ul	-8.23557
çı	-8.23651
▁etme	-8.23831
▁alınan	-8.23909
▁Ben	-8.24047
w	-8.24077
diği	-8.24154
ndeki	-8.24165
▁ikinci	-8.24269
▁Al	-8.24276
lo	-8.24315
▁Kurulu	-8.24618
iz	-8.24636
▁Kara	-8.24639
▁De	-8.25109
▁devlet	-8.2518
▁kişinin	-8.25324
▁ait	-8.25328
ladı	-8.25348
▁altında	-8.25578
▁ara	-8.25708
et	-8.26075
▁genç	-8.26128
▁tespit	-8.2618
or	-8.26214
niz	-8.26251
▁Mahallesi	-8.26754
▁bağlı	-8.26927
vi	-8.27187
▁Parti	-8.2719
▁Yeni	-8.27536
▁30	-8.27605
▁yaklaşık	-8.27866
ktan	-8.28168
▁sezon	-8.28279
▁dünya	-8.28653
▁13	-8.28854
hi	-8.29161
▁zor	-8.29256
▁etmek	-8.29323
3	-8.29342
▁baş	-8.29519
▁Başbakan	-8.29802
▁üst	-8.29889
▁olur	-8.30025
▁En	-8.30365
is	-8.30782
▁ele	-8.31028
▁gol	-8.31036
▁oyuncu	-8.31297
▁hazır	-8.31422
▁Ali	-8.3178
nız	-8.3201
▁silah	-8.32112
▁hiçbir	-8.32287
▁maç	-8.3246
▁18	-8.32484
▁Er	-8.32556
▁Her	-8.32665
▁Zaman	-8.32906
dur	-8.3297
▁eğitim	-8.33181
▁hiç	-8.33234
▁ayrı	-8.33452
▁Ha	-8.33998
ge	-8.34014
▁Ma	-8.3406
▁sosyal	-8.34159
▁çocuk	-8.34372
▁Sözcü	-8.34586
▁Sa	-8.34684
▁soruşturma	-8.34685
▁bunu	-8.34858
ke	-8.35046
▁aldığı	-8.35087
▁Yıldırım	-8.35161
tik	-8.35197
larıyla	-8.35243
▁kullandı	-8.35257
cu	-8.3539
▁imza	-8.35502
rken	-8.35809
▁alındı	-8.35859
N	-8.35872
▁toplam	-8.3601
▁verdiği	-8.3615
▁Öz	-8.36225
▁hedef	-8.36283
▁yeniden	-8.36446
▁Dr	-8.36464
muş	-8.36512
▁16	-8.36616
▁gece	-8.36754
▁top	-8.36842
▁hareket	-8.3704
▁mu	-8.37329
▁yanı	-8.37506
▁Ay	-8.37514
▁birçok	-8.37814
▁17	-8.38182
▁yine	-8.38215
Ü	-8.38256
▁suç	-8.38328
▁Cumhuriyet	-8.38467
▁yatırım	-8.38484
han	-8.38687
▁kısa	-8.38715
▁ç	-8.38792
sının	-8.38846
Bu	-8.38872
leme	-8.38909
▁bizim	-8.39169
ğ	-8.3947
ol	-8.39481
▁Mustafa	-8.395
Ş	-8.39683
st	-8.39876
▁içerisinde	-8.39942
▁durum	-8.40249
sun	-8.40353
▁artık	-8.4046
4	-8.40661
▁bomba	-8.40703
ga	-8.40706
▁sağlık	-8.40787
▁gelir	-8.40801
▁Bunun	-8.41232
▁İl	-8.41266
▁AB	-8.41276
▁hale	-8.4159
ının	-8.41591
▁belirtti	-8.41658
▁veren	-8.41747
▁Emniyet	-8.41772
▁Re	-8.41776
ür	-8.42168
▁ben	-8.42171
▁yardım	-8.4233
▁El	-8.42479
▁sonrası	-8.42773
▁olma	-8.42797
▁aile	-8.42901
▁savaş	-8.42968
`	-8.42989
▁hizmet	-8.4348
▁basın	-8.43482
dü	-8.43534
▁tedavi	-8.43717
▁belirtildi	-8.43727
▁Bo	-8.4388
ndaki	-8.43967
▁p	-8.44054
us	-8.44127
▁anda	-8.44188
▁üzerinden	-8.44455
▁tam	-8.44464
▁dava	-8.44626
▁güzel	-8.44797
dığını	-8.44913
▁sonucu	-8.45051
fa	-8.45068
▁dakika	-8.45192
▁h	-8.45243
▁saldırı	-8.45294
▁Ahmet	-8.45659
▁bilgi	-8.45714
kları	-8.45864
▁kız	-8.46268
▁hayatını	-8.46305
▁çıkar	-8.46381
▁Lig	-8.46386
kan	-8.46566
▁CHP	-8.4669
Ç	-8.46837
Ö	-8.46851
▁ekipleri	-8.46923
diğini	-8.46976
2	-8.47117
▁ayında	-8.4719
▁25	-8.47212
▁kaldı	-8.47289
mişti	-8.47314
▁kontrol	-8.47525
sal	-8.47526
▁Ve	-8.47792
▁ağır	-8.48026
▁Ya	-8.48214
▁kat	-8.48457
30	-8.48474
mıştı	-8.48689
leriyle	-8.48727
es	-8.48852
ek	-8.48922
▁yayın	-8.48981
▁puan	-8.4902
▁Di	-8.49049
▁açıklama	-8.49161
▁sahibi	-8.49306
▁e	-8.49337
▁burada	-8.49498
ze	-8.49651
tu	-8.49967
▁Almanya	-8.4997
▁parti	-8.50102
▁yaşanan	-8.50555
ça	-8.5062
▁Ta	-8.50807
▁eşi	-8.50837
▁operasyon	-8.50894
▁N	-8.51078
▁tarihi	-8.51246
ko	-8.516
▁belirterek	-8.51682
▁bunun	-8.51849
▁özellikle	-8.51902
7	-8.51902
▁Ş	-8.51936
ydi	-8.52009
▁Milli	-8.5207
▁şeklinde	-8.52137
▁geç	-8.52188
lanan	-8.52271
nce	-8.52337
▁yana	-8.52408
kten	-8.52574
çe	-8.52578
▁dönemde	-8.52868
▁a	-8.52886
abilir	-8.52987
▁sırasında	-8.53005
to	-8.53112
▁Üniversitesi	-8.53393
▁satış	-8.53434
▁kalan	-8.53459
L	-8.5346
▁soru	-8.53583
landı	-8.53822
▁teknik	-8.53921
ey	-8.53959
▁f	-8.54009
▁Mart	-8.54041
unu	-8.54049
▁Ra	-8.54298
▁sık	-8.54332
ve	-8.54733
j	-8.54836
▁askeri	-8.54862
▁100	-8.5487
▁düzenlenen	-8.55157
▁Daha	-8.55618
as	-8.55769
▁orta	-8.55895
▁Şubat	-8.56052
▁s	-8.56289
▁gelecek	-8.56367
▁La	-8.56605
▁kaydetti	-8.56609
▁ön	-8.56691
▁eş	-8.56835
▁etki	-8.57011
▁oluyor	-8.57489
▁i	-8.57565
lanma	-8.57597
▁sırada	-8.57717
▁tepki	-8.57742
V	-8.57796
▁50	-8.5791
▁Ö	-8.58447
▁proje	-8.58503
▁bölge	-8.58549
▁2015	-8.58553
▁sevk	-8.58576
ış	-8.58597
▁yoğun	-8.58725
ter	-8.58732
iş	-8.5874
▁siyasi	-8.58951
▁Can	-8.58988
▁ortak	-8.59548
8	-8.5971
▁yapma	-8.59712
yor	-8.59875
▁gerekiyor	-8.60095
▁geliyor	-8.60119
▁olsun	-8.6012
▁sa	-8.60225
▁AK	-8.60334
▁yapılacak	-8.60404
▁genel	-8.6051
▁Ocak	-8.60571
▁İzmir	-8.60571
▁derece	-8.60694
ren	-8.60716
â	-8.61017
ev	-8.61022
▁oyun	-8.6105
sın	-8.61127
▁ek	-8.61161
▁sayı	-8.61194
▁gerek	-8.61223
6	-8.61349
▁öğrenildi	-8.614
▁te	-8.61497
do	-8.61526
AN	-8.61611
▁gündem	-8.61787
▁önünde	-8.61875
▁araç	-8.61907
▁ateş	-8.62174
▁yan	-8.62747
▁gerçek	-8.62986
▁21	-8.63164
▁edecek	-8.6317
▁kazan	-8.63175
teki	-8.63177
ber	-8.63373
layan	-8.63574
luğu	-8.6361
▁yandan	-8.63659
▁yanında	-8.63828
▁Terör	-8.63855
▁Olay	-8.63886
lendi	-8.64333
▁medya	-8.64414
▁benim	-8.64415
▁olabilir	-8.64805
▁ka	-8.64904
▁Başkan	-8.65027
ru	-8.65041
▁dışında	-8.65204
▁şimdi	-8.6525
▁Gül	-8.65304
▁k	-8.65368
▁Be	-8.65437
▁yıllık	-8.65449
▁alma	-8.65473
▁asker	-8.65486
met	-8.65589
▁22	-8.65591
▁An	-8.65891
▁engel	-8.65961
▁istedi	-8.65981
▁yapmak	-8.66269
▁alıyor	-8.66315
▁ta	-8.6634
▁İlk	-8.66429
▁altına	-8.66948
lük	-8.66982
▁ak	-8.67301
▁Çünkü	-8.67336
▁I	-8.67441
▁halinde	-8.67543
▁Te	-8.67675
▁24	-8.67782
▁bulunuyor	-8.67813
▁sayısı	-8.67844
▁akşam	-8.68081
▁ederek	-8.68133
iyle	-8.68221
▁otomobil	-8.68447
▁geçti	-8.6846
▁mü	-8.68563
▁kan	-8.68581
ız	-8.68588
muz	-8.68719
dik	-8.68741
▁tekrar	-8.68911
▁örgüt	-8.68976
▁Irak	-8.69085
▁ciddi	-8.69149
laş	-8.69202
▁tanı	-8.69362
▁sene	-8.69396
ılan	-8.69652
▁Hastanesi	-8.6977
▁dönem	-8.69792
ık	-8.69829
▁ziyaret	-8.6992
▁ma	-8.69958
▁Na	-8.70054
▁öne	-8.70165
▁adam	-8.70277
▁Haber	-8.70285
▁il	-8.70291
tü	-8.70301
no	-8.70473
▁Polis	-8.70517
lenen	-8.7072
mizi	-8.70736
spor	-8.70849
▁adet	-8.70864
fi	-8.70891
san	-8.70989
▁takip	-8.7101
▁yapıyor	-8.71055
▁önceki	-8.71558
▁mümkün	-8.71563
▁tercih	-8.71645
▁durumda	-8.71777
▁grup	-8.72073
x	-8.72075
▁anne	-8.72079
siniz	-8.72145
▁R	-8.72231
▁dakikada	-8.72238
▁Ba	-8.72339
▁getirdi	-8.725
ör	-8.7253
▁ekibi	-8.72546
▁ödeme	-8.72546
▁şunları	-8.72596
▁Mi	-8.72649
meye	-8.72873
▁kötü	-8.72875
▁sivil	-8.72875
▁izin	-8.7299
▁Euro	-8.73041
os	-8.73071
▁sabah	-8.73128
▁gitti	-8.73205
kı	-8.73267
▁Bugün	-8.73293
▁bağ	-8.73348
▁terörist	-8.73349
▁Yılmaz	-8.73461
▁Ayrıca	-8.73538
▁aç	-8.73701
▁kamu	-8.73716
▁Rus	-8.73756
▁me	-8.73764
▁adım	-8.74136
▁olmadığını	-8.74227
▁Aralık	-8.74262
ydı	-8.74402
▁kredi	-8.74456
▁Ko	-8.74522
der	-8.7459
▁sayıda	-8.74618
▁gereken	-8.74684
▁zamanda	-8.74768
sü	-8.74925
▁Allah	-8.74933
▁küçük	-8.75214
can	-8.7527
▁zarar	-8.75347
▁arama	-8.75742
▁enerji	-8.75892
▁gerektiğini	-8.75904
▁talep	-8.75977
suz	-8.76019
▁telefon	-8.76198
men	-8.7635
▁sistemi	-8.76438
▁yaş	-8.76548
▁araya	-8.76709
▁faiz	-8.76846
▁verildi	-8.76883
eceği	-8.76918
▁vardı	-8.77111
▁et	-8.77321
ünü	-8.77478
gi	-8.7774
▁ana	-8.77808
iye	-8.77841
AR	-8.77962
▁hemen	-8.78137
▁İşte	-8.78182
▁başlayan	-8.78338
ıldı	-8.78385
▁Ev	-8.78395
▁İran	-8.78572
go	-8.78606
▁uygulama	-8.78607
▁durumu	-8.78773
▁uygun	-8.79002
ch	-8.79022
▁23	-8.79054
▁inceleme	-8.7913
▁şüpheli	-8.79303
▁Trabzonspor	-8.79392
▁Ekonomi	-8.79527
▁Diyarbakır	-8.79632
▁hep	-8.7975
inden	-8.79839
▁dolayı	-8.79875
fe	-8.79938
▁edilmesi	-8.79942
min	-8.80021
▁elde	-8.80082
imiz	-8.80117
lat	-8.80148
▁yaşayan	-8.80173
lay	-8.80296
▁serbest	-8.80327
▁pazar	-8.80551
ret	-8.80603
▁diyor	-8.80621
▁ifadelerini	-8.80644
▁madde	-8.80663
9	-8.80769
▁başında	-8.80811
▁açıkladı	-8.80926
▁transfer	-8.8128
▁saatlerinde	-8.81288
▁Ligi	-8.81419
▁İş	-8.81625
▁sarı	-8.81744
▁u	-8.81847
▁Davutoğlu	-8.81853
İN	-8.81853
▁değer	-8.81862
▁başına	-8.81889
▁c	-8.82019
sıyla	-8.82028
▁itibaren	-8.82328
▁Gülen	-8.8235
▁kaç	-8.82351
acağı	-8.82356
▁Çin	-8.82408
▁Ni	-8.8262
▁boyunca	-8.82689
▁sistem	-8.82752
▁İki	-8.82847
▁40	-8.83197
▁ses	-8.83239
klarını	-8.83401
▁yazı	-8.83626
nca	-8.83742
▁güçlü	-8.83762
▁fark	-8.8382
▁tartışma	-8.83892
▁olmayan	-8.84039
▁tarihinde	-8.84045
▁0	-8.84484
▁adına	-8.84494
▁bak	-8.84575
siyle	-8.8482
▁söyleyen	-8.84888
▁karşısında	-8.8495
▁başarı	-8.84951
▁Belediye	-8.85037
▁güven	-8.85054
bo	-8.85182
▁oy	-8.85398
rak	-8.8556
▁yargı	-8.85561
▁güç	-8.85581
▁kalma	-8.85616
▁Anadolu	-8.85717
▁yılı	-8.85792
ck	-8.86111
▁Şimdi	-8.86133
▁konuda	-8.86145
▁adlı	-8.86188
▁faaliyet	-8.86275
▁ayı	-8.86307
▁okul	-8.86525
▁Ke	-8.86606
▁yönetim	-8.86644
▁Ar	-8.867
ver	-8.86753
▁fiyatı	-8.86783
▁internet	-8.86881
▁müdahale	-8.86927
▁isteyen	-8.86984
▁olmadığı	-8.87035
▁uluslararası	-8.8723
▁yabancı	-8.8723
▁görüş	-8.87267
▁anlattı	-8.87276
let	-8.87366
▁resmi	-8.87421
ilen	-8.87565
▁hasta	-8.87569
▁Antalya	-8.87614
▁Süper	-8.87615
▁can	-8.8763
▁Çok	-8.87803
▁yerinde	-8.87904
son	-8.87915
▁maçında	-8.87979
▁verme	-8.88054
▁ayrıca	-8.88216
▁kap	-8.88224
▁ileri	-8.88227
▁yüz	-8.8829
▁Z	-8.88465
▁teslim	-8.88476
▁çıkma	-8.88503
▁Da	-8.88513
▁sınır	-8.88739
ic	-8.88874
▁yaz	-8.88932
▁arasındaki	-8.89012
▁tür	-8.89036
▁milli	-8.89064
▁işaret	-8.89155
miyor	-8.89213
▁çekti	-8.89261
▁Müdürü	-8.89273
mı	-8.89329
lanması	-8.89396
▁yapıldı	-8.89431
maz	-8.89452
taki	-8.89483
▁Bakan	-8.89576
▁belli	-8.89589
▁Eğitim	-8.89738
▁verilen	-8.89768
Türkiye	-8.89777
▁bit	-8.89835
mızı	-8.90003
▁bana	-8.90019
▁ba	-8.90074
▁futbolcu	-8.90121
▁işlem	-8.90132
▁Sarı	-8.90191
▁Recep	-8.90228
una	-8.90243
▁artır	-8.90255
ist	-8.9026
lerimiz	-8.90325
▁Koç	-8.90345
Z	-8.90416
ğını	-8.90481
▁teknoloji	-8.9052
▁Tayyip	-8.9072
▁Sağlık	-8.90754
rı	-8.90808
▁J	-8.90818
▁baba	-8.90837
acağız	-8.90905
▁şehir	-8.9102
kleri	-8.91021
▁sonunda	-8.9104
▁fi	-8.91045
▁yılın	-8.91103
ing	-8.91107
▁Demir	-8.91151
▁araştırma	-8.91256
şe	-8.91324
▁Deniz	-8.91327
iyet	-8.91339
▁mahkeme	-8.9137
ad	-8.91416
▁herhangi	-8.91424
larımız	-8.91452
cü	-8.9155
▁L	-8.91559
▁bize	-8.91574
▁Yardımcısı	-8.91632
ah	-8.917
▁ünlü	-8.91812
▁Mahkemesi	-8.91845
▁kim	-8.9189
▁ilgi	-8.92031
▁kolay	-8.92146
▁çevre	-8.92181
▁ilçe	-8.92268
▁söyle	-8.92353
▁plan	-8.92383
▁konuşma	-8.92398
▁Baş	-8.92408
▁banka	-8.92423
▁Mo	-8.92534
ıyla	-8.92559
▁sonu	-8.92574
imi	-8.92601
mez	-8.9266
▁maçta	-8.929
▁beraber	-8.92968
▁temel	-8.93108
▁Güvenlik	-8.93158
▁pek	-8.93258
▁kullan	-8.93288
sunuz	-8.93465
▁alın	-8.93469
▁onun	-8.93477
ğu	-8.935
▁bölgede	-8.93914
▁yağ	-8.9414
▁do	-8.94142
▁Birliği	-8.94156
▁Si	-8.94165
▁lazım	-8.94235
▁yap	-8.94378
üm	-8.9438
▁düzen	-8.94405
▁Prof	-8.9445
▁Merkezi	-8.94474
▁500	-8.94495
▁adı	-8.94505
▁acı	-8.94561
asyon	-8.94565
▁önem	-8.94589
up	-8.94608
▁belir	-8.94728
▁Dışişleri	-8.94953
▁Kemal	-8.94958
▁nedenle	-8.95074
leyen	-8.95077
▁yasa	-8.9518
▁etmesi	-8.95253
▁maçı	-8.95266
▁işçi	-8.95308
▁spor	-8.95315
▁yüksel	-8.95319
abilecek	-8.95363
▁arada	-8.95381
0	-8.95393
▁Yönetim	-8.955
▁dahil	-8.95525
▁dünyanın	-8.95701
▁attı	-8.95726
▁dışı	-8.958
▁çalış	-8.95812
▁Ro	-8.95872
▁ülkenin	-8.9595
▁cevap	-8.95987
em	-8.96048
▁gösteri	-8.96142
▁toplum	-8.96345
▁forma	-8.96354
▁giy	-8.96398
▁yara	-8.96439
▁ettiğini	-8.96623
▁anlaşma	-8.96637
ımız	-8.9666
▁girdi	-8.96674
▁ko	-8.96884
▁hukuk	-8.96976
▁Şu	-8.96991
▁olsa	-8.96993
▁Hava	-8.97054
▁Su	-8.97091
▁28	-8.97256
dim	-8.97347
▁Kar	-8.97411
▁b	-8.97562
▁çık	-8.97768
▁getir	-8.97851
▁Ceza	-8.97868
uyor	-8.98
▁Fa	-8.98022
▁Mü	-8.9808
ılması	-8.98089
▁Murat	-8.98101
tığı	-8.98135
50	-8.98276
▁alacak	-8.98352
▁seçim	-8.98457
▁katkı	-8.98484
▁eylem	-8.98638
he	-8.9866
▁yapılması	-8.98663
▁film	-8.98757
▁üyesi	-8.98804
▁Le	-8.98814
▁Do	-8.98883
▁almak	-8.98935
▁Alman	-8.98945
▁savunma	-8.99047
ilmesi	-8.99069
▁demokrasi	-8.99072
▁görme	-8.99104
inci	-8.99121
▁öğretmen	-8.99164
▁başvuru	-8.99254
▁hak	-8.99266
▁Nisan	-8.99285
▁canlı	-8.99302
▁Burada	-8.99314
bu	-8.99325
am	-8.99358
▁yaşa	-8.99379
▁din	-8.99415
▁ha	-8.99448
▁tehdit	-8.99588
▁çek	-8.99746
▁yaşadığı	-8.99835
▁yılda	-8.99835
▁sonrasında	-8.99858
▁girişimi	-8.99998
ledi	-9.00174
▁gerçekleştir	-9.00248
▁İngiltere	-9.00254
▁oranı	-9.00274
▁İlçesi	-9.00322
az	-9.00342
▁kaza	-9.00465
▁yapacak	-9.00466
▁HDP	-9.007
▁çeşitli	-9.00719
▁Fatih	-9.00781
ER	-9.01001
▁düzenleme	-9.0103
▁istiyor	-9.01169
▁sol	-9.01182
▁Trump	-9.01218
▁başarılı	-9.0124
▁onu	-9.01269
ebilir	-9.0138
▁katıldı	-9.01413
ırken	-9.01462
▁in	-9.01468
▁İslam	-9.01491
▁bilgiye	-9.01498
▁başta	-9.01556
▁şirket	-9.01571
▁Pa	-9.01687
▁amacıyla	-9.01714
ası	-9.01777
▁sonuç	-9.01786
▁ekonomi	-9.01803
▁fotoğraf	-9.01943
▁kilo	-9.02015
▁giden	-9.02025
kar	-9.02044
▁ince	-9.0218
▁türlü	-9.02217
AK	-9.02307
ut	-9.02426
▁Merkez	-9.02616
▁Özel	-9.02676
▁Kürt	-9.02798
▁hesap	-9.02814
▁bildirildi	-9.02849
▁Atatürk	-9.0288
lak	-9.0297
▁nokta	-9.03054
▁getiren	-9.03105
▁dair	-9.03221
▁babası	-9.03401
▁Mayıs	-9.03435
▁göster	-9.03615
▁ulaştı	-9.03729
▁sak	-9.03756
▁hızlı	-9.03761
bir	-9.03772
▁zorunda	-9.03784
mize	-9.03886
▁V	-9.03888
▁Suriyeli	-9.03966
▁dur	-9.03982
▁27	-9.04043
tur	-9.04123
▁aday	-9.04201
▁kafa	-9.04254
pe	-9.04335
id	-9.04377
▁toplantı	-9.04425
▁henüz	-9.04448
▁isim	-9.04463
▁giriş	-9.04474
▁yemek	-9.04524
▁kazandı	-9.04699
▁şiddet	-9.04743
▁kaybetti	-9.04762
▁IŞİD	-9.04809
▁DAEŞ	-9.04902
ük	-9.04938
▁öncesi	-9.04964
▁veriyor	-9.04981
▁görüşme	-9.05063
▁re	-9.05085
▁PYD	-9.05182
taş	-9.05389
▁yarın	-9.05463
▁Fransa	-9.05472
▁açısından	-9.05483
lıyor	-9.05589
▁isimli	-9.05638
▁iz	-9.05678
▁krizi	-9.05698
▁artış	-9.05767
yet	-9.05874
▁kendisine	-9.05908
▁aralarında	-9.05955
▁iste	-9.05975
▁atan	-9.06005
sanız	-9.06075
▁kur	-9.06132
▁gösterdi	-9.06139
▁süreci	-9.06159
▁tak	-9.0616
▁metre	-9.06161
▁çeken	-9.06167
▁ekran	-9.06238
▁ediliyor	-9.06302
ağa	-9.06321
▁Aydın	-9.06379
ici	-9.06396
▁kaldır	-9.06412
▁net	-9.06424
pa	-9.06451
▁öğren	-9.06452
▁hangi	-9.06458
▁cezası	-9.0648
per	-9.06503
mıştır	-9.06503
▁hapis	-9.06511
▁gerekli	-9.06664
acağını	-9.06676
▁bina	-9.06714
▁güçleri	-9.06768
▁W	-9.06775
▁kızı	-9.06814
▁Büyük	-9.06915
▁hastane	-9.06958
▁elektrik	-9.06969
▁tutuklandı	-9.07
▁aylık	-9.07029
▁yolcu	-9.07106
▁arkadaşı	-9.07162
▁ekonomik	-9.07174
▁kilometre	-9.07202
▁düşük	-9.07325
▁yönünde	-9.07406
▁kal	-9.07425
▁çalışmalar	-9.07435
▁veri	-9.0752
▁vergi	-9.07556
▁di	-9.07613
ildi	-9.07696
▁Meclis	-9.07715
▁kara	-9.07741
▁kart	-9.07857
▁tahmin	-9.07902
▁Fi	-9.07948
leşme	-9.0806
▁sorun	-9.08148
▁hakem	-9.08168
▁Ca	-9.08198
kü	-9.08207
yiz	-9.08303
van	-9.0839
yen	-9.08401
▁geldiği	-9.08439
▁Öte	-9.08474
▁futbol	-9.0849
▁Ge	-9.08496
yız	-9.0864
▁yıldır	-9.08689
nci	-9.08706
▁döneminde	-9.0876
ab	-9.08794
▁çift	-9.08828
mu	-9.08884
▁Gün	-9.08894
▁sebep	-9.08962
▁Kasım	-9.09085
Ha	-9.091
▁kapı	-9.09296
▁giren	-9.09296
▁değiştir	-9.09358
hane	-9.09557
▁anlatan	-9.09593
▁öyle	-9.09598
▁Kur	-9.09622
po	-9.0969
▁yarı	-9.09824
▁ilçesinde	-9.09959
▁yurt	-9.09981
▁üye	-9.10088
▁değerlendirme	-9.10122
▁26	-9.10129
rek	-9.10138
▁dört	-9.10273
▁dış	-9.10281
mektedir	-9.1029
lenmesi	-9.10331
▁yaralı	-9.10333
▁sev	-9.10336
EN	-9.10348
▁diyerek	-9.10363
▁hayat	-9.10378
▁sürekli	-9.10398
lığını	-9.10427
dık	-9.10464
▁aracı	-9.1052
▁va	-9.10527
▁konuşan	-9.10541
▁kimse	-9.10857
▁ke	-9.10868
sta	-9.10893
▁orada	-9.1092
tar	-9.11012
▁yardımcı	-9.11195
▁istediği	-9.11269
co	-9.11415
▁günlerde	-9.11531
unda	-9.11678
▁Kılıçdaroğlu	-9.11724
lığa	-9.11752
ıcı	-9.11839
▁büyüme	-9.11849
20	-9.11886
klerini	-9.11938
▁inan	-9.12104
▁Caddesi	-9.12207
▁kadro	-9.12236
▁karşılaşma	-9.1248
▁Li	-9.12524
▁konut	-9.12528
mıyor	-9.1255
mer	-9.12583
▁birkaç	-9.12594
▁çalışmaları	-9.12637
▁Bunlar	-9.12697
mizde	-9.12703
▁Batı	-9.12737
▁çözüm	-9.1279
▁Başkanlığı	-9.12836
lim	-9.12853
▁desteği	-9.1286
▁Ü	-9.12871
mızın	-9.12905
▁diyen	-9.13048
▁biraz	-9.13073
sinden	-9.13074
▁uzak	-9.13107
▁yazılı	-9.13129
▁olup	-9.13209
▁Co	-9.13212
▁altın	-9.13242
masını	-9.13276
ku	-9.13336
▁oğlu	-9.13389
▁geniş	-9.13416
▁emekli	-9.13474
duğu	-9.13641
▁tamam	-9.13676
▁Doğu	-9.13785
▁Eylül	-9.13815
▁Der	-9.13853
▁alanda	-9.13916
yim	-9.13947
▁He	-9.1402
bil	-9.14026
▁yani	-9.141
▁anlat	-9.14152
▁beni	-9.14163
▁anayasa	-9.14193
nü	-9.14208
▁yanlış	-9.14314
▁yerde	-9.14322
ok	-9.1437
▁Ga	-9.14382
▁önüne	-9.14449
▁merkez	-9.14535
▁as	-9.14539
▁etkili	-9.14677
üyor	-9.14767
▁ilan	-9.14796
▁Sosyal	-9.14814
▁üniversite	-9.14814
▁sergi	-9.14857
▁Halep	-9.14941
▁Ekim	-9.14993
▁bizi	-9.14998
▁ol	-9.15114
▁ücret	-9.15201
▁dünyada	-9.15213
▁bekleniyor	-9.15325
▁Amerika	-9.15333
▁bildirdi	-9.1537
ll	-9.15383
?"	-9.15489
sak	-9.15504
▁doktor	-9.1557
▁final	-9.15575
▁Adana	-9.15685
▁Anayasa	-9.15737
▁çalışıyor	-9.15774
lenme	-9.15792
▁düştü	-9.15953
▁sıkıntı	-9.15972
▁29	-9.16024
▁dizi	-9.16044
masına	-9.16138
▁deniz	-9.16191
▁yük	-9.16231
▁parça	-9.16233
▁Van	-9.16306
▁Güncel	-9.16332
▁ölüm	-9.16338
▁hayata	-9.16344
▁bas	-9.16358
▁vatandaşlar	-9.16409
▁başkan	-9.16424
▁otobüs	-9.1646
▁merkezi	-9.16539
▁kol	-9.16573
malı	-9.16665
▁ter	-9.16687
▁yönetimi	-9.16689
ımı	-9.16726
▁Yani	-9.16871
▁değildir	-9.16875
şi	-9.16881
▁gören	-9.16916
▁Belediyesi	-9.16983
▁na	-9.17004
▁rahat	-9.17059
▁Araştırma	-9.171
▁masa	-9.17252
miştir	-9.17393
▁Ol	-9.17425
▁Özellikle	-9.17455
▁işbirliği	-9.17486
▁Örgütü	-9.17532
▁Dakika	-9.17744
madı	-9.17797
▁saha	-9.18036
▁ge	-9.18089
sınız	-9.18106
▁sayesinde	-9.18133
▁bunlar	-9.18205
DA	-9.18213
▁yarat	-9.18232
müş	-9.18264
▁program	-9.18311
▁insanlar	-9.18321
▁Kal	-9.18332
▁kullandığı	-9.18378
▁uçak	-9.18607
▁Bar	-9.18658
▁hakkı	-9.18699
mayı	-9.18748
▁kitap	-9.18785
▁buna	-9.18801
tin	-9.18846
▁sert	-9.18963
▁Bankası	-9.19014
▁bırak	-9.19034
▁üretim	-9.19143
▁Grubu	-9.19177
maktadır	-9.19204
▁kır	-9.19416
UR	-9.19461
▁yorum	-9.19576
▁Teknik	-9.19703
▁haline	-9.19765
▁gider	-9.19785
unun	-9.19971
eceğini	-9.20005
▁patlama	-9.20011
▁yaşında	-9.20049
dikleri	-9.20096
▁yaşam	-9.20196
▁normal	-9.20232
▁San	-9.20239
▁Bizim	-9.20254
gen	-9.20277
şa	-9.20344
tti	-9.20383
▁Ömer	-9.20385
▁pa	-9.20418
▁oluşan	-9.20498
▁To	-9.2051
▁rapor	-9.20528
▁vardır	-9.20561
▁emniyet	-9.20594
▁yolu	-9.20694
▁kendisini	-9.20791
▁Bil	-9.2083
▁ülkede	-9.20873
▁programı	-9.20902
▁millet	-9.20948
▁takımın	-9.20965
▁DEAŞ	-9.21166
▁sektör	-9.2122
▁kaydedildi	-9.21233
▁iktidar	-9.21297
▁As	-9.21298
▁tarih	-9.21391
▁lider	-9.21391
▁belediye	-9.21431
▁edildiği	-9.2148
▁kişiler	-9.21488
yo	-9.21522
▁hakim	-9.21524
▁ona	-9.21527
▁arkadaşları	-9.21622
▁teklif	-9.21749
▁oda	-9.21762
▁Bey	-9.21783
▁buldu	-9.21802
▁derin	-9.21901
▁Eğer	-9.21907
▁er	-9.21914
▁Derneği	-9.22104
▁ölü	-9.22164
ucu	-9.22216
▁davet	-9.22254
▁hükümet	-9.22262
▁ar	-9.22294
▁marka	-9.22316
landığı	-9.22335
şan	-9.22352
▁se	-9.22378
▁be	-9.22427
▁taraf	-9.22487
▁sahne	-9.22494
if	-9.22498
dar	-9.2256
▁yapılma	-9.22563
▁beri	-9.22594
▁baskı	-9.22622
▁büyü	-9.22686
▁hayatı	-9.22703
esi	-9.22707
▁kurtul	-9.22713
tal	-9.22746
▁Haberler	-9.22748
▁tamamen	-9.2277
▁60	-9.2279
▁duy	-9.22804
▁kendini	-9.22837
▁İbrahim	-9.22918
yım	-9.22924
▁kent	-9.22963
eri	-9.23063
▁gerçekleştiril	-9.23095
ed	-9.23109
▁günlük	-9.2318
▁operasyonu	-9.23211
▁ismi	-9.23264
▁annesi	-9.23283
▁etkisiz	-9.23295
▁mutlu	-9.23648
▁saygı	-9.23745
▁ilişki	-9.23801
aj	-9.23821
▁Po	-9.23858
▁öğrenci	-9.23887
▁herkes	-9.23974
ton	-9.24053
▁hata	-9.24171
▁kalp	-9.242
yacak	-9.24201
▁Güneş	-9.24435
lanıyor	-9.24459
▁İsrail	-9.24466
▁kulüp	-9.24565
▁Kaya	-9.24633
▁Şehit	-9.24646
aş	-9.24685
▁Futbol	-9.2471
▁edin	-9.2475
▁etmeye	-9.24868
▁barış	-9.24939
eli	-9.24978
▁başkanı	-9.24992
▁mal	-9.25
▁risk	-9.25093
▁siz	-9.25185
▁arka	-9.25229
sen	-9.25298
▁alınması	-9.25353
▁z	-9.25385
▁yaralandı	-9.2542
▁Kültür	-9.25489
▁kes	-9.25541
▁mahalle	-9.25562
▁Aynı	-9.25609
ğe	-9.25634
▁yere	-9.25717
liğin	-9.25884
▁edil	-9.25914
▁zaten	-9.26101
tr	-9.2614
▁Çelik	-9.26242
▁durumunda	-9.26266
tif	-9.26338
▁eder	-9.26341
▁süren	-9.26375
▁kalk	-9.26393
▁belirlendi	-9.26474
▁yapımı	-9.26542
▁ediyorum	-9.26583
▁anlamı	-9.2661
▁Obama	-9.26663
▁edilme	-9.26665
▁90	-9.26667
dür	-9.26675
mıza	-9.26974
▁sona	-9.27002
dım	-9.27099
▁merak	-9.27113
▁bölüm	-9.2712
▁Kupası	-9.2713
▁mülteci	-9.272
▁siyaset	-9.2721
▁takımı	-9.27221
▁sanat	-9.27222
▁Pe	-9.27227
▁So	-9.27243
▁No	-9.27399
▁kira	-9.27616
▁kay	-9.27644
▁Hüseyin	-9.27657
▁silahlı	-9.27667
abiliyor	-9.27711
▁otel	-9.27787
▁işlemleri	-9.27799
▁Hasan	-9.27902
▁patlayıcı	-9.27943
medi	-9.27986
▁ekip	-9.28004
▁gir	-9.28048
▁çalıştı	-9.28233
ından	-9.28274
▁televizyon	-9.28374
▁sanatçı	-9.28402
lanmış	-9.2846
liğini	-9.28479
▁Sokak	-9.28519
üş	-9.28543
▁Tüm	-9.287
▁Kendi	-9.28799
▁yıldız	-9.28801
ince	-9.28848
▁görüntü	-9.28859
gu	-9.28933
IN	-9.28965
▁Söz	-9.28982
▁Orta	-9.29038
▁sınav	-9.29041
ET	-9.29145
rma	-9.29261
▁Geçen	-9.29281
aç	-9.29283
▁Vi	-9.29359
▁MHP	-9.29531
▁petrol	-9.29531
▁öz	-9.29611
▁açtı	-9.29654
▁Bursa	-9.29733
▁haberi	-9.29792
▁defa	-9.29793
ladığı	-9.29794
▁Şube	-9.29798
▁kurum	-9.29822
▁rol	-9.29867
▁ders	-9.29957
▁Bay	-9.30061
yum	-9.30106
▁gösteren	-9.30112
▁Jandarma	-9.30114
▁gerekir	-9.30138
▁oldukça	-9.30161
tiği	-9.30242
DE	-9.30263
▁asıl	-9.30555
▁altını	-9.30573
▁savcı	-9.3058
▁lideri	-9.30604
▁geçir	-9.30753
av	-9.30793
▁gel	-9.30834
▁Bunu	-9.30866
▁tur	-9.30916
▁35	-9.30942
uş	-9.30988
▁teröristler	-9.3103
▁2014	-9.31044
▁çıkıyor	-9.31049
▁erkek	-9.31103
▁Ara	-9.31122
▁halk	-9.3124
▁gitme	-9.31287
İL	-9.31291
▁Büyükşehir	-9.31299
▁olduğuna	-9.31314
layarak	-9.31373
▁hal	-9.31441
ket	-9.31445
▁piyasa	-9.31446
▁mevcut	-9.31588
▁Emre	-9.3159
cılar	-9.31601
▁Siz	-9.31621
tma	-9.31853
▁teşekkür	-9.31885
▁liste	-9.31904
▁31	-9.32057
▁düşen	-9.32134
▁koy	-9.32279
▁yangın	-9.3234
ınca	-9.32448
▁tut	-9.32451
▁Buna	-9.32527
▁Ye	-9.32536
▁olumsuz	-9.32622
▁hain	-9.32709
▁insanların	-9.32743
▁Gür	-9.32788
▁bundan	-9.32799
▁Ja	-9.32854
▁alarak	-9.32941
▁ortada	-9.32988
▁fiyat	-9.32992
▁2015'	-9.33026
▁sözleşme	-9.3305
▁dolu	-9.33075
▁bekle	-9.33305
▁vur	-9.33472
▁bakan	-9.33484
▁ödül	-9.3354
liğe	-9.33629
▁ağ	-9.33658
▁Nur	-9.33661
15	-9.33694
▁ortalama	-9.33712
▁Uluslararas	-9.3372
▁kurulu	-9.33731
düğü	-9.33766
lt	-9.33801
▁onlar	-9.33865
▁Genç	-9.3387
uk	-9.33871
▁Altın	-9.33877
▁galibiyet	-9.33888
▁örnek	-9.33992
▁Peki	-9.34009
üz	-9.34019
mda	-9.34027
▁açıklaması	-9.34332
laşma	-9.34334
fer	-9.34368
▁Mücadele	-9.3445
▁UEFA	-9.3445
▁BM	-9.3451
▁İnsan	-9.34591
▁t	-9.34648
▁diş	-9.34718
ov	-9.34834
▁gücü	-9.34843
AL	-9.34882
▁sefer	-9.34901
▁Bak	-9.34902
▁Sur	-9.34902
alım	-9.34915
▁yakalandı	-9.34916
▁seç	-9.34951
▁birinci	-9.35122
başı	-9.35246
▁içeri	-9.3527
▁Şa	-9.35411
ebilecek	-9.35442
▁aktar	-9.35494
▁san	-9.35511
▁yat	-9.3554
ho	-9.35579
▁politika	-9.35609
▁üyeleri	-9.35615
▁söylüyor	-9.35628
▁Ağustos	-9.3568
▁olumlu	-9.3568
▁hatta	-9.35681
MA	-9.35718
▁Lo	-9.35728
▁gazete	-9.35798
▁Milletvekili	-9.35834
▁topu	-9.36056
▁vatandaş	-9.36115
▁Kurumu	-9.36136
▁şarkı	-9.36139
ğa	-9.36148
lığın	-9.36151
▁trafik	-9.363
▁vermek	-9.36307
sh	-9.36307
▁Gaziantep	-9.36315
▁üçüncü	-9.36323
▁Kim	-9.3642
▁düşünce	-9.36489
▁Kuvvetleri	-9.36592
▁yüzden	-9.36623
▁Sayın	-9.36627
▁varsa	-9.36879
▁fırsat	-9.36897
▁gönder	-9.36899
▁başkanlık	-9.36915
▁bil	-9.36976
gan	-9.37119
60	-9.37223
▁köy	-9.37304
▁model	-9.3735
mizin	-9.37552
▁kaynak	-9.37612
10	-9.37664
▁kü	-9.37688
▁işi	-9.37751
kaya	-9.3781
▁karşıya	-9.37857
▁kırmızı	-9.37857
▁aşağı	-9.37869
ağ	-9.37945
19	-9.37979
▁hayvan	-9.38027
▁servis	-9.3803
▁kas	-9.38067
leşti	-9.38094
▁tören	-9.38097
▁korku	-9.38163
▁finans	-9.38273
▁yasak	-9.38304
▁Havalimanı	-9.38344
AT	-9.38477
köy	-9.38554
Ben	-9.38641
40	-9.38711
▁geçmiş	-9.38763
▁sürede	-9.38927
▁Ho	-9.3895
▁geçtiğimiz	-9.39012
▁erken	-9.39092
▁konuş	-9.391
nızı	-9.39124
▁otur	-9.39169
▁yıllarda	-9.39213
amadı	-9.39223
▁oluş	-9.39286
▁bulun	-9.39343
▁dil	-9.39382
hat	-9.39414
▁İç	-9.39435
▁döndü	-9.39598
▁bakım	-9.39611
YA	-9.39655
▁hisse	-9.39672
▁civarında	-9.39755
▁gidiyor	-9.39785
▁Pazar	-9.39796
▁der	-9.39816
▁talebi	-9.39869
▁gelme	-9.3992
tör	-9.39972
▁geçiş	-9.40014
▁Tek	-9.40097
▁70	-9.40121
▁alanı	-9.40243
▁saldırısı	-9.40254
▁Şahin	-9.40271
▁ş	-9.4028
▁Cumhuriyeti	-9.40294
meyen	-9.4035
▁2.	-9.40525
▁İsmail	-9.40593
▁yola	-9.40628
25	-9.40656
▁koru	-9.40678
▁Hakan	-9.40722
▁verecek	-9.40779
▁200	-9.408
▁kamera	-9.40818
bey	-9.4097
▁Ala	-9.40982
-2	-9.41037
ot	-9.41039
▁çocuğu	-9.41093
▁Böyle	-9.41095
mo	-9.41133
▁attığı	-9.41166
sından	-9.41267
▁2013	-9.4127
▁ediyoruz	-9.41291
meyecek	-9.41303
▁TV	-9.41311
▁kayıt	-9.41311
DI	-9.41319
▁Doğan	-9.41322
▁Fakat	-9.41419
▁çağrı	-9.41527
▁yazdı	-9.41545
LE	-9.41557
▁iptal	-9.41582
▁koruma	-9.4162
▁oyunu	-9.4163
▁sorunu	-9.41662
▁evinde	-9.41675
▁olursa	-9.41704
▁sürüyor	-9.41704
▁doğu	-9.41715
▁olacağını	-9.41763
▁hoca	-9.41765
▁gelişmeler	-9.41768
▁po	-9.41822
▁üretimi	-9.41848
▁Onlar	-9.41897
ste	-9.4192
▁kanser	-9.42013
evi	-9.42113
▁numara	-9.42214
▁boş	-9.42276
▁arkasında	-9.42361
▁Va	-9.42384
▁Haziran	-9.42397
dum	-9.42423
▁halkın	-9.42464
▁New	-9.42496
▁yaparak	-9.42503
▁art	-9.42516
▁kriz	-9.42583
▁İkinci	-9.42584
▁Bazı	-9.4273
▁getirildi	-9.4276
▁taşın	-9.42793
▁taşı	-9.42886
▁müzik	-9.42896
amaz	-9.42954
lüğü	-9.43009
▁vatan	-9.4303
▁kuru	-9.43056
▁aslında	-9.43061
ılmış	-9.43124
op	-9.43147
▁Jo	-9.43149
mızda	-9.4328
zer	-9.4328
▁İngiliz	-9.4334
▁vurgulaya	-9.4338
▁düşüş	-9.43402
▁algı	-9.4343
▁kale	-9.43433
▁ister	-9.43434
▁kullanma	-9.43472
▁Taş	-9.43486
res	-9.43553
▁Kulübü	-9.43561
▁ihtiyaç	-9.43573
▁olacağı	-9.43575
LAR	-9.43624
▁istiyorum	-9.43642
▁olmaz	-9.43648
▁Ser	-9.43652
▁şeyi	-9.43723
▁kullanılan	-9.43728
▁Za	-9.43811
gül	-9.43935
▁em	-9.43958
▁İlçe	-9.43989
▁endişe	-9.44065
▁firma	-9.44144
▁alanında	-9.4415
ban	-9.44288
daş	-9.44312
ES	-9.44321
▁v	-9.44351
▁so	-9.44372
tim	-9.44411
▁dayan	-9.44412
▁götür	-9.44469
▁kanun	-9.44488
ral	-9.4454
▁çocuklar	-9.44558
▁kaybı	-9.44583
12	-9.44601
▁beş	-9.44624
▁kaybeden	-9.44645
rin	-9.44656
▁Film	-9.44757
▁3.	-9.44781
▁çal	-9.44862
zar	-9.44951
ova	-9.4496
▁har	-9.44992
▁halde	-9.45014
izm	-9.45072
▁Komutanlığı	-9.45079
tepe	-9.45089
▁taşıyan	-9.45108
▁mesaj	-9.4512
▁Tan	-9.45189
▁sen	-9.45281
▁yeri	-9.45282
▁kayıp	-9.45296
▁Dün	-9.45314
▁cenaze	-9.4545
▁vurgu	-9.45489
▁kişilik	-9.45494
▁seviye	-9.45513
▁katılan	-9.45594
▁Halk	-9.4563
▁gizli	-9.45653
▁genelinde	-9.45658
▁Ata	-9.4567
▁şeyler	-9.4576
▁küresel	-9.45761
▁görevli	-9.45895
▁yaptıkları	-9.45919
Ya	-9.45972
▁çıkış	-9.46041
▁sanayi	-9.46163
▁denge	-9.46291
-20	-9.46342
yse	-9.4635
▁düzey	-9.46365
▁dünyaya	-9.46419
rdı	-9.46445
iyoruz	-9.46455
▁Eski	-9.46639
▁çalışması	-9.46705
▁gazeteci	-9.46719
▁aracın	-9.46775
▁Tıp	-9.46824
▁çıkacak	-9.46862
▁Bölge	-9.46879
▁çocukların	-9.46893
▁Ek	-9.46978
▁Güney	-9.47
▁kişilerin	-9.47044
▁Ri	-9.47071
▁hepsi	-9.47095
▁inşa	-9.47101
▁sürücü	-9.47114
▁isimler	-9.47119
▁Diğer	-9.4714
▁gıda	-9.47142
▁gördü	-9.47176
ğini	-9.47292
▁Twitter	-9.47313
▁asla	-9.47318
▁başı	-9.47323
TI	-9.47399
▁kaleci	-9.47422
▁45	-9.47476
leniyor	-9.47592
▁Benim	-9.47624
▁Ülke	-9.47702
sek	-9.47702
ji	-9.47733
Bir	-9.47781
▁yapmaya	-9.47832
▁Genelkurmay	-9.47836
▁TBMM	-9.47836
▁İyi	-9.47869
▁av	-9.47923
madan	-9.47925
▁çünkü	-9.4801
▁operasyonda	-9.48069
yü	-9.48221
liyor	-9.48303
▁alt	-9.48307
İZ	-9.48319
▁rakam	-9.48339
▁bölgesinde	-9.48366
ürü	-9.48446
▁günde	-9.4845
▁Du	-9.48483
▁yeterli	-9.48493
▁zengin	-9.48537
▁içi	-9.48639
▁Cuma	-9.48717
▁çıkardı	-9.48724
ciler	-9.48763
▁tatil	-9.48774
▁Kuzey	-9.48889
▁gerekçesiyle	-9.48899
İM	-9.48899
▁kupa	-9.48899
▁geleceği	-9.49232
▁yasağı	-9.49237
▁gelmesi	-9.49299
▁bilgileri	-9.49307
▁istiyoruz	-9.49319
▁ton	-9.49328
gü	-9.49355
ih	-9.49402
▁Gökhan	-9.49441
leştirme	-9.49457
til	-9.49592
▁hayal	-9.49625
▁kardeşi	-9.49648
Ba	-9.49721
▁dönemi	-9.49748
▁başlattı	-9.49767
▁kullanıl	-9.49775
▁uygulaması	-9.49787
yecek	-9.49868
▁öde	-9.49912
ünün	-9.49942
▁şart	-9.49997
▁yürütülen	-9.5
▁yoktur	-9.50007
Gündem	-9.50021
î	-9.50024
▁Osmanlı	-9.50055
▁neler	-9.50099
▁Şen	-9.50158
diklerini	-9.50207
▁80	-9.50231
▁Osman	-9.50235
▁300	-9.50255
cılık	-9.50329
▁sıralarında	-9.50333
▁gösteriyor	-9.50335
▁izle	-9.50357
▁Ege	-9.50368
▁dolarlık	-9.50377
▁kon	-9.50382
▁Arena	-9.505
▁turist	-9.50522
▁Hi	-9.50589
▁taş	-9.50653
▁Sultan	-9.50669
▁hafif	-9.5067
LER	-9.50674
▁projesi	-9.50742
▁çatışma	-9.50759
AY	-9.50782
▁ada	-9.50837
▁vatandaşların	-9.50895
▁altı	-9.509
bı	-9.50907
▁Mu	-9.50924
▁Sen	-9.50935
▁Yapılan	-9.50938
likle	-9.50943
▁çerçevesinde	-9.51038
meyi	-9.5117
▁yaşama	-9.51189
mar	-9.5121
▁karşılık	-9.51234
▁Hükümet	-9.5125
▁temiz	-9.51327
▁topla	-9.51384
▁Konya	-9.51388
▁yavaş	-9.51392
▁anı	-9.51509
▁çocuğun	-9.51561
▁Yunanistan	-9.51575
▁Sadece	-9.5162
▁mutlaka	-9.5165
Dİ	-9.51722
par	-9.51747
▁önümüzde	-9.51758
ıyoruz	-9.5177
▁satın	-9.51917
▁Bel	-9.51917
▁üret	-9.52016
▁Darbe	-9.5203
▁kıl	-9.52039
ss	-9.52134
▁bölümü	-9.52217
mayan	-9.52222
▁park	-9.52248
ON	-9.52283
lardı	-9.52287
ED	-9.5231
▁borç	-9.52339
▁hastaneye	-9.52387
▁doğum	-9.52468
pi	-9.52504
▁aş	-9.52554
▁Aile	-9.52718
▁kaldırıldı	-9.52732
▁sorumlu	-9.52732
▁kendisi	-9.52776
▁turizm	-9.53045
▁gez	-9.53052
▁bel	-9.53101
▁devletin	-9.53174
▁Kadın	-9.53234
▁ayak	-9.53292
raf	-9.53356
▁mesajı	-9.53397
▁kuş	-9.53434
İR	-9.53525
▁Sonra	-9.53544
▁geldiğini	-9.53545
▁yıla	-9.53634
▁verilmesi	-9.53674
▁geliştir	-9.53694
J	-9.53866
▁katılma	-9.53883
▁temas	-9.539
▁önde	-9.53915
▁çocukları	-9.53958
tık	-9.54005
▁gelişme	-9.54039
▁man	-9.54048
▁ameliyat	-9.54061
müz	-9.5413
▁dev	-9.54192
▁şirketi	-9.54193
ley	-9.54201
▁olmaya	-9.54206
▁sonucunda	-9.54245
leş	-9.54258
▁İtalya	-9.54282
mesini	-9.5432
▁ihtiyacı	-9.54412
kal	-9.54413
▁telefonu	-9.54419
gar	-9.54453
diğimiz	-9.54633
▁fa	-9.5467
ılacak	-9.54705
lek	-9.54873
▁Ki	-9.54884
▁ifadesini	-9.54906
lamak	-9.54908
üncü	-9.54908
▁direktör	-9.54908
▁Tur	-9.54937
▁kısmı	-9.55018
▁duygu	-9.55027
oğu	-9.55146
▁tedavisi	-9.55152
▁onların	-9.55186
var	-9.55257
▁kavga	-9.55276
▁kaydeden	-9.55307
EL	-9.5539
▁gerektiği	-9.5546
▁prim	-9.55485
▁eve	-9.55492
▁Anne	-9.55556
▁kaldığı	-9.55598
▁köprü	-9.55684
mayın	-9.557
▁yanıt	-9.55706
▁gözü	-9.55734
▁Volkan	-9.55832
▁Holding	-9.55833
▁Adalet	-9.55842
▁Hem	-9.55979
▁yapar	-9.55981
▁süreç	-9.55987
▁sağlıklı	-9.55994
▁video	-9.56023
▁etkisi	-9.5606
ıldığı	-9.56067
▁YPG	-9.56106
▁Suudi	-9.56212
▁çoğu	-9.56226
▁mo	-9.56333
▁medyada	-9.56366
vet	-9.56385
fet	-9.5643
▁imha	-9.56594
EK	-9.5663
▁kura	-9.56648
▁dönüş	-9.56673
Biz	-9.56707
▁çöz	-9.56742
▁Müslüman	-9.5676
▁isteme	-9.56783
▁Yeşil	-9.56784
▁benzer	-9.56841
▁sürü	-9.56883
▁yaka	-9.56896
▁güvenliği	-9.56898
▁AKP	-9.56913
▁şikayet	-9.5694
▁bekliyor	-9.56945
▁katıldığı	-9.56948
th	-9.56967
▁Ber	-9.56974
▁ürün	-9.56983
▁çıktığı	-9.56996
▁olduklarını	-9.57128
▁vurguladı	-9.57164
▁bırakma	-9.57236
▁görevi	-9.57279
▁açıldı	-9.57326
layacak	-9.57348
▁muhalefet	-9.57358
▁Ter	-9.57435
▁saç	-9.57447
▁doğal	-9.57481
bar	-9.57578
▁kadınlar	-9.5765
▁kardeş	-9.57684
▁bek	-9.57753
ans	-9.57791
▁tutuklu	-9.57816
▁Çocuk	-9.5792
▁yapacağı	-9.57961
▁başlayacak	-9.57966
▁ederken	-9.57989
dıkları	-9.58008
▁heyecan	-9.58019
▁Bal	-9.58042
▁yönet	-9.58043
▁terk	-9.58087
▁Savunma	-9.58129
▁bilinen	-9.58131
▁boz	-9.58134
▁saldırıları	-9.58146
om	-9.582
▁gereği	-9.58325
▁Kan	-9.58346
▁mağdur	-9.58361
▁Yıl	-9.5845
AŞ	-9.58491
▁çıkart	-9.58516
▁geçirdi	-9.5854
▁Ağır	-9.58553
altı	-9.58596
▁adamı	-9.58806
▁öncesinde	-9.58837
▁tahliye	-9.58907
▁farkı	-9.58938
▁denildi	-9.58942
▁personel	-9.58944
eceğiz	-9.58957
▁Mahkeme	-9.59037
14	-9.59044
▁olmuş	-9.59105
LA	-9.59117
▁yaşadı	-9.59202
45	-9.59234
▁At	-9.59246
▁işletme	-9.59256
dıklarını	-9.59282
▁bulunduğunu	-9.59335
▁düşman	-9.59356
syon	-9.59448
▁Yüksek	-9.59479
nizi	-9.59532
▁yaralanan	-9.59532
▁sahada	-9.59569
▁bebek	-9.59698
hal	-9.5973
▁kimlik	-9.59734
▁kapat	-9.59748
▁yalan	-9.59885
▁rakibi	-9.59887
dağ	-9.59907
▁Uzun	-9.59941
İK	-9.59967
▁dosya	-9.6001
▁bulutlu	-9.60084
▁Şirket	-9.60084
▁Başsavcılığı	-9.60117
yon	-9.60154
▁Şırnak	-9.60282
yıp	-9.60287
öl	-9.60295
▁öneri	-9.6033
▁çaba	-9.60348
liler	-9.60351
▁yazar	-9.60393
nd	-9.60437
PDY	-9.60482
▁2016'	-9.60564
▁evde	-9.60599
▁düş	-9.60607
▁sonuçları	-9.60613
▁ihracat	-9.60635
▁toplantısında	-9.60675
▁yerli	-9.60729
gel	-9.60801
tım	-9.60874
▁yapıldığı	-9.60891
▁yetkilileri	-9.60955
ME	-9.60998
lılar	-9.61002
▁iletişim	-9.61077
▁hakaret	-9.61077
▁çıkması	-9.61097
▁alıp	-9.61195
▁edilecek	-9.61252
▁kendilerine	-9.6127
▁istikrar	-9.61276
▁görülen	-9.61293
▁düşünüyorum	-9.61309
▁demek	-9.61404
▁bitir	-9.61408
▁kesin	-9.61493
üs	-9.61592
▁ser	-9.61667
▁aşırı	-9.61689
lanacak	-9.61719
▁onay	-9.6179
▁skor	-9.61888
▁toprak	-9.61931
▁açılan	-9.6196
▁2017	-9.61967
bet	-9.61986
▁ilçesi	-9.61998
elim	-9.62066
▁cinsel	-9.62095
▁Bütün	-9.62146
▁noktada	-9.62151
▁fiyatları	-9.62215
▁Mar	-9.62237
▁Direktörü	-9.62251
▁kesil	-9.62253
▁Gök	-9.62267
▁tutul	-9.62317
▁sıkı	-9.62359
▁yaşamını	-9.62378
▁size	-9.62459
▁toplantısı	-9.6247
▁Yıldız	-9.62482
▁bilgiler	-9.62558
▁zirve	-9.62644
▁dikkati	-9.62671
▁cinayet	-9.62685
rim	-9.628
▁cami	-9.62887
▁Enerji	-9.62887
▁gelin	-9.62944
▁binlerce	-9.62997
▁Bi	-9.6303
W	-9.63039
▁Arap	-9.63092
▁Başbakanı	-9.63147
▁bugüne	-9.63163
▁bıraktı	-9.63171
▁girişim	-9.63244
mesine	-9.633
tür	-9.63308
sizlik	-9.6334
af	-9.63362
ril	-9.63405
▁dönemin	-9.63447
duğunu	-9.63454
▁istihdam	-9.63498
tay	-9.63516
▁biliyor	-9.63545
▁yapmış	-9.63559
▁anlamda	-9.63632
▁öden	-9.63637
▁pozisyon	-9.63659
paşa	-9.63724
▁32	-9.63786
▁etmiş	-9.63836
oz	-9.63866
▁yerel	-9.63892
▁harekete	-9.63937
▁kuruş	-9.63957
▁olun	-9.64098
▁siyah	-9.64113
gün	-9.64115
ker	-9.64116
▁Komisyonu	-9.64171
▁Asya	-9.64193
lenmiş	-9.64204
▁uzman	-9.6426
▁vurdu	-9.64272
▁milletin	-9.64276
▁kullanıcı	-9.64279
▁taşıma	-9.64286
▁belki	-9.64294
▁bunların	-9.64307
▁tazminat	-9.64319
▁tamamı	-9.64327
▁Kayseri	-9.64344
malıdır	-9.64354
▁%	-9.64386
▁Böylece	-9.64387
▁pi	-9.64431
▁gecesi	-9.64456
▁Baba	-9.6447
seniz	-9.64477
▁şampiyon	-9.64477
▁cep	-9.64519
▁acil	-9.64539
▁tüket	-9.64559
net	-9.64576
▁istediğini	-9.64628
▁amacı	-9.64691
▁ga	-9.64721
▁hedefi	-9.64791
▁dua	-9.64801
▁olmadı	-9.64865
▁belirtilen	-9.64939
▁Ku	-9.65096
▁sağlığı	-9.65124
▁dön	-9.65227
▁örgütün	-9.65284
▁gözaltı	-9.65303
▁Konu	-9.65311
▁yapması	-9.65322
▁Arabistan	-9.65354
laması	-9.65398
abileceği	-9.65503
AB	-9.65576
▁oynadığı	-9.65643
▁sinema	-9.65731
ılıyor	-9.65789
▁ez	-9.65805
▁meslek	-9.65989
▁Sinan	-9.65997
▁yöntem	-9.66002
▁tane	-9.66049
▁seyahat	-9.6619
▁zanlı	-9.66192
▁göçmen	-9.66214
▁maddesi	-9.6624
▁liraya	-9.66266
▁oynanan	-9.6627
▁Bağ	-9.66366
▁İn	-9.6639
▁yaşandı	-9.66488
▁değişiklik	-9.66511
▁on	-9.66519
▁oldukları	-9.66537
baş	-9.66557
▁Putin	-9.66611
▁Sanayi	-9.66615
▁grubu	-9.66692
▁dahi	-9.66697
▁vermesi	-9.66712
▁mensupları	-9.66729
▁İs	-9.66788
▁Pi	-9.66824
▁yaptığını	-9.66885
▁temsil	-9.66935
▁Turan	-9.67039
riz	-9.67074
bay	-9.67078
▁sahası	-9.6708
▁gazetesi	-9.67096
▁saldırıda	-9.67098
▁adını	-9.67121
▁sınıf	-9.6724
▁Sabah	-9.6726
▁giderek	-9.67286
▁açıklandı	-9.67319
▁gerçekleştirile	-9.67366
▁uyarı	-9.67383
▁Arda	-9.67395
irken	-9.67402
▁oyuncusu	-9.67407
▁Belçika	-9.67457
▁Aziz	-9.6748
▁uygula	-9.67488
▁girme	-9.67616
▁evine	-9.67639
▁süreçte	-9.67679
▁Musul	-9.67679
şık	-9.67713
EM	-9.67732
ham	-9.67735
▁Naz	-9.67736
lerimizi	-9.67755
▁bilme	-9.67834
▁sanık	-9.67887
▁anlaşıl	-9.67909
▁Orman	-9.67934
lendiği	-9.67999
ard	-9.68093
▁filmi	-9.68096
▁Selçuk	-9.68097
▁Grup	-9.68097
tra	-9.68185
▁tehlike	-9.6819
▁doldur	-9.68257
▁Başakşehir	-9.68311
▁başlat	-9.68324
tor	-9.68328
meli	-9.68432
▁güncelleme	-9.68537
▁yerini	-9.6865
▁umut	-9.6875
▁d	-9.68757
▁kurul	-9.68772
▁ilaç	-9.68801
▁değişim	-9.68803
▁Ham	-9.68843
▁oluştur	-9.68849
▁olmasını	-9.68869
▁Beyaz	-9.68876
▁adli	-9.68884
▁çiz	-9.68885
FETÖ	-9.68931
Cumhurbaşkanlığı	-9.68956
▁Paris	-9.68977
▁kurulan	-9.68997
▁kuruluşları	-9.69021
türk	-9.69066
▁sıcak	-9.69096
abilirsiniz	-9.69103
▁istihbarat	-9.69172
▁sonraki	-9.6918
nize	-9.69184
Ge	-9.69197
▁alması	-9.69204
▁ağrı	-9.69236
▁Apple	-9.69389
▁kahraman	-9.69389
▁şeker	-9.69389
▁alındığı	-9.6949
ğin	-9.69526
▁yararlan	-9.69529
rıl	-9.69544
▁bölümünde	-9.69573
gı	-9.69581
▁haberine	-9.69584
▁süredir	-9.69591
▁faaliyetleri	-9.69621
▁hala	-9.69697
▁34	-9.69702
▁gö	-9.69721
▁fayda	-9.6973
sti	-9.69769
▁iPhone	-9.69823
▁karıştı	-9.69867
▁dediği	-9.69883
▁Sanat	-9.69906
▁duruşma	-9.69922
SA	-9.6995
▁edeceğiz	-9.69987
▁kampanya	-9.70008
▁boyu	-9.70026
▁bölgeye	-9.70035
▁kapalı	-9.70066
UN	-9.70069
hir	-9.70207
▁dik	-9.70259
▁insanları	-9.70294
▁almaya	-9.70295
▁2012	-9.70308
▁Toto	-9.70321
▁yapılıyor	-9.70335
▁bunları	-9.7035
AM	-9.70431
▁Trabzon	-9.70461
düğünü	-9.70463
▁olmalı	-9.70494
▁kişiyi	-9.70547
▁site	-9.70559
▁anlama	-9.70595
▁katılım	-9.70597
▁sayılı	-9.7066
▁planı	-9.7068
▁milletvekili	-9.70697
▁sokağa	-9.70707
▁Car	-9.70769
▁toplu	-9.70836
yken	-9.70848
▁Albayrak	-9.70924
▁2011	-9.70953
ilmiş	-9.71034
▁gördük	-9.71035
lendirme	-9.71071
▁Dolayısıyla	-9.71137
▁hakları	-9.71165
▁tamamladı	-9.71203
kat	-9.71212
▁Tabii	-9.71284
▁kullanan	-9.71288
▁ambulans	-9.71335
▁sahte	-9.71358
▁başlıyor	-9.71386
▁Mersin	-9.71387
sat	-9.71486
▁aşk	-9.71547
▁Amerikan	-9.71576
▁Bülent	-9.71579
acaktır	-9.71591
▁Sev	-9.71611
▁tutuk	-9.71621
▁uçuş	-9.71663
▁rejimi	-9.71665
▁duyurdu	-9.71667
landığını	-9.7168
▁beyaz	-9.71692
70	-9.7171
duk	-9.7177
▁sağlamak	-9.71772
▁devre	-9.71791
▁tablo	-9.71801
▁performans	-9.71815
▁paylaştı	-9.71884
▁hız	-9.71898
▁Har	-9.71917
▁halkı	-9.71918
▁Es	-9.71952
▁huzur	-9.71984
▁konser	-9.72031
hu	-9.72048
▁indirim	-9.72085
▁yarış	-9.7212
▁Madrid	-9.72246
▁aklı	-9.72302
lardır	-9.72308
▁hazırlanan	-9.72328
▁özelliği	-9.72339
▁gördüğü	-9.72369
▁dolara	-9.72375
▁sizin	-9.72395
▁ülkeler	-9.72412
▁indir	-9.72454
▁Ukrayna	-9.72469
▁davran	-9.72573
▁belge	-9.72615
▁say	-9.72634
▁cenazesi	-9.72653
▁teşvik	-9.72693
▁içine	-9.72722
▁kültür	-9.72855
şehir	-9.72906
▁Öztürk	-9.72941
mik	-9.72967
▁Zi	-9.72972
▁gittiği	-9.72986
▁değerlendiril	-9.73014
▁Bilgi	-9.73117
▁yen	-9.73132
maması	-9.73155
ff	-9.73157
▁atma	-9.73199
▁dışarı	-9.73207
▁ailesi	-9.7321
mekte	-9.73221
▁bilim	-9.73293
▁adeta	-9.73293
▁göç	-9.7331
▁uç	-9.73342
▁akıllı	-9.73353
▁Afrika	-9.73367
▁Vali	-9.73374
▁paylaş	-9.73404
▁onları	-9.7341
▁ayrıldı	-9.73448
▁yakınları	-9.73463
▁sebebi	-9.73502
▁girdiği	-9.73535
▁imkan	-9.73573
▁sokak	-9.73575
▁Komutanı	-9.73593
▁Ortadoğu	-9.73593
▁istifa	-9.73605
▁lig	-9.73625
▁payı	-9.73627
lerce	-9.73666
▁sal	-9.73729
▁bildir	-9.7382
▁tanım	-9.73831
▁üzerindeki	-9.73883
yoruz	-9.73939
yat	-9.73974
▁Eş	-9.73985
yarak	-9.73989
amıyor	-9.73997
▁ihale	-9.74046
▁motor	-9.74054
▁Göz	-9.74054
▁araba	-9.74076
▁hızla	-9.74093
▁karış	-9.74209
leyici	-9.74221
▁merkezinde	-9.74252
amayan	-9.74281
▁getirme	-9.74344
▁konuk	-9.74371
▁renk	-9.74374
▁esas	-9.74416
▁kesim	-9.74437
▁Denizli	-9.74443
▁dost	-9.74451
▁birisi	-9.74452
▁alınma	-9.74511
▁beklenen	-9.74543
▁olmasına	-9.74574
▁olayı	-9.74638
▁öğle	-9.7473
▁üretici	-9.74745
▁şirketin	-9.74787
bilir	-9.74802
▁raporu	-9.74904
▁tüketici	-9.74972
▁başkenti	-9.75024
iliyor	-9.75034
▁hali	-9.75042
▁yükseldi	-9.75105
▁götürüldü	-9.75197
▁Et	-9.75202
▁hesabı	-9.75281
▁kendilerini	-9.75314
▁açı	-9.75337
larımızı	-9.75354
nızda	-9.75361
▁sorgu	-9.75384
▁Vakfı	-9.75417
▁Binal	-9.75435
▁şans	-9.75449
cilik	-9.75451
▁test	-9.75467
yar	-9.75508
▁ülkelerin	-9.75513
▁Kö	-9.75528
▁golü	-9.75585
▁kamp	-9.7564
▁meyve	-9.75648
▁organ	-9.75659
▁yedi	-9.75703
ven	-9.75717
masının	-9.75729
▁Kır	-9.75764
▁değeri	-9.75784
▁ku	-9.75844
▁plakalı	-9.75879
▁Fransız	-9.75879
▁Uğur	-9.75879
▁soruşturması	-9.75892
öz	-9.76016
▁başladığı	-9.76039
har	-9.76051
▁çalıştığı	-9.76116
▁tık	-9.76127
▁suçundan	-9.76152
kur	-9.76158
▁kazanan	-9.76201
▁bar	-9.76237
▁Takımı	-9.76305
dro	-9.76358
uncu	-9.7637
▁sevgi	-9.76436
▁yönetmen	-9.76466
▁işin	-9.76484
▁ticari	-9.76575
▁deprem	-9.76575
▁edip	-9.76576
▁şok	-9.76594
▁olacaktır	-9.76627
▁kaybettiği	-9.76627
IR	-9.76748
▁düzenlediği	-9.76749
▁Man	-9.76756
▁değerlendir	-9.76765
▁Abdullah	-9.7681
▁ticaret	-9.76816
▁ekonomisi	-9.76843
▁sayısının	-9.76939
▁Federasyonu	-9.76961
▁not	-9.76973
▁kaynağı	-9.77044
▁Gö	-9.7705
▁mali	-9.77068
▁yaparken	-9.77089
▁sat	-9.77106
▁dönüşüm	-9.77108
▁alacağı	-9.77126
▁sürdü	-9.77198
▁Or	-9.77237
▁Mer	-9.7724
süz	-9.77265
11	-9.77273
▁intihar	-9.77276
iniz	-9.7734
▁güneş	-9.77368
▁herkesin	-9.77381
▁inşaat	-9.77414
▁yönetici	-9.77457
▁gerçekten	-9.77481
▁Fırat	-9.77511
▁gemi	-9.77527
TA	-9.7754
▁namazı	-9.77573
TÜ	-9.77631
▁getiril	-9.77712
▁bilgisayar	-9.77746
▁kritik	-9.77746
▁Karadeniz	-9.77746
▁Herkes	-9.77821
▁tasarım	-9.77878
▁Ze	-9.77901
▁koydu	-9.77953
▁çarptı	-9.77974
▁sürpriz	-9.77981
▁atıl	-9.77985
▁kanal	-9.78
▁görüyor	-9.78015
çu	-9.78028
lediği	-9.78057
▁rakip	-9.7806
▁problem	-9.78124
▁öldü	-9.7818
▁helikopter	-9.78218
▁buluştu	-9.7822
▁Turizm	-9.78228
▁bedeli	-9.78281
▁yürü	-9.78325
▁Onun	-9.78327
▁Kay	-9.78337
▁önlem	-9.7846
▁Cem	-9.78466
siyon	-9.78513
▁maçın	-9.78658
▁protesto	-9.78692
▁Ünlü	-9.78693
▁nedeni	-9.78706
▁örgütünün	-9.78712
▁kentinde	-9.78777
kol	-9.78832
mde	-9.7884
▁hastalığı	-9.78875
▁Moskova	-9.7893
▁itiraz	-9.7893
▁makam	-9.78936
▁bağış	-9.78983
▁aşama	-9.79047
▁yaptık	-9.79047
▁bütçe	-9.79087
▁olayın	-9.7909
18	-9.79113
▁sayfa	-9.79126
▁şansı	-9.79135
▁terörle	-9.79173
▁müşteri	-9.79191
▁geçirildi	-9.79193
▁diren	-9.79202
▁Artık	-9.79282
▁oynama	-9.79292
▁yarışma	-9.79396
▁milletvekilleri	-9.79408
▁Facebook	-9.79408
▁alışveriş	-9.79408
Lİ	-9.79446
▁verdiğini	-9.79458
tt	-9.79547
▁edeme	-9.79552
▁adres	-9.79556
▁ikili	-9.79556
▁kişiye	-9.79559
▁etkinlik	-9.79656
▁Dündar	-9.79664
leyecek	-9.79674
RA	-9.79706
▁hasar	-9.79706
▁paylaşım	-9.79724
ger	-9.79735
larımızın	-9.79747
▁Gör	-9.79782
ama	-9.79802
▁performansı	-9.79874
▁Ticaret	-9.79889
▁avantaj	-9.79889
▁enflasyon	-9.79889
▁komşu	-9.79889
▁Ramazan	-9.79889
▁York	-9.7989
eş	-9.79924
▁TSK	-9.79982
oloji	-9.80003
▁ihtimali	-9.80004
▁eksik	-9.80013
▁Azerbaycan	-9.80161
so	-9.80168
istan	-9.80214
▁sağlayan	-9.80225
▁tabi	-9.80249
▁Yusuf	-9.80371
▁denetim	-9.80376
▁Mardin	-9.80381
▁Salih	-9.80383
▁Bursaspor	-9.80399
▁değerli	-9.80408
▁süresi	-9.80416
▁suyu	-9.80447
▁görmek	-9.80453
▁saldırılar	-9.80463
▁kamuoyu	-9.8057
▁sürdürdü	-9.80599
▁Konseyi	-9.80613
▁kullanımı	-9.80638
▁36	-9.80649
ebiliyor	-9.80658
▁Koca	-9.80684
▁Maç	-9.8073
▁memuru	-9.80796
▁gösterdiği	-9.80851
▁aykırı	-9.80856
▁İpek	-9.80857
▁hattı	-9.80889
▁kuvvet	-9.80898
▁avukat	-9.80925
▁oku	-9.80988
▁içindeki	-9.8103
ilecek	-9.81056
▁Açık	-9.81115
kırmızılı	-9.81143
▁sebebiyle	-9.81197
▁gerçekleşti	-9.81321
muştu	-9.81499
▁Var	-9.81586
▁Arslan	-9.81588
▁itibarıyla	-9.81595
▁sap	-9.8164
▁arası	-9.8166
▁eleştir	-9.81681
▁belirlenen	-9.81713
▁zayıf	-9.81833
▁geçici	-9.81876
▁gerekçe	-9.81888
▁görün	-9.81996
▁jandarma	-9.82078
▁gönderdi	-9.82127
▁2010	-9.82138
▁yayınlanan	-9.82154
▁kaçak	-9.82184
▁doğrudan	-9.82235
▁işler	-9.8227
▁işe	-9.82281
▁açma	-9.82294
▁Hu	-9.82332
▁yeme	-9.82358
▁ihlal	-9.82384
▁operasyonlar	-9.82513
▁mesele	-9.82541
▁fikir	-9.82574
▁hastalık	-9.8258
▁heyeti	-9.82611
▁yüzünden	-9.82629
▁Yine	-9.82658
fo	-9.82762
İT	-9.82794
▁euro	-9.8282
▁Fer	-9.82822
▁dağ	-9.82824
▁git	-9.82827
▁Fetullahçı	-9.82843
▁Kaza	-9.82852
▁Sar	-9.82872
▁beslenme	-9.82882
▁gü	-9.82927
▁modeli	-9.82967
80	-9.83005
▁Dur	-9.83009
▁edilmiş	-9.83035
▁Açıklamada	-9.83068
▁itibariyle	-9.83077
▁taraftar	-9.8308
▁yerleşti	-9.8318
▁etkin	-9.8319
▁gönderildi	-9.83265
13	-9.8329
▁Ana	-9.83291
▁tank	-9.83306
lamaya	-9.83342
▁kimliği	-9.83342
▁yaklaş	-9.8336
meden	-9.83373
▁getirilen	-9.83468
▁Adli	-9.8356
▁mensubu	-9.83565
tro	-9.83573
▁düşün	-9.83621
▁The	-9.83624
▁kapan	-9.83646
▁daire	-9.83673
▁yapılmış	-9.83681
▁arazi	-9.83718
▁görüşmeler	-9.83732
▁delil	-9.8374
melidir	-9.83755
▁gaz	-9.83762
▁müsabaka	-9.83771
▁mesafe	-9.83815
▁çeyrek	-9.83815
lerimizin	-9.83819
▁aşı	-9.83902
▁uyan	-9.83912
rilme	-9.83959
▁elinde	-9.83999
▁KA	-9.84035
▁yetkililer	-9.84048
▁Han	-9.84054
▁Akdeniz	-9.84067
▁tutma	-9.84092
▁hastanede	-9.84116
▁İspanya	-9.84122
▁soğuk	-9.84137
▁görüşü	-9.84157
▁kadının	-9.84164
▁hazırlık	-9.84164
ron	-9.84177
lerdir	-9.84206
▁tedbir	-9.84219
üne	-9.84227
▁tesis	-9.84235
▁adayı	-9.84264
ğü	-9.84279
▁maaş	-9.84284
▁Süleyman	-9.84317
▁kurtar	-9.84323
▁dokun	-9.84335
▁Gel	-9.84344
▁uyu	-9.84365
▁sür	-9.84378
▁güvenli	-9.84424
▁söylen	-9.84471
▁açtığı	-9.84529
▁liralık	-9.84663
Tİ	-9.84705
▁işlemi	-9.84716
▁Özgür	-9.84822
▁çizgi	-9.84842
▁kurban	-9.84849
▁Sey	-9.84855
AZ	-9.84893
yorum	-9.84911
din	-9.84916
▁sok	-9.84933
▁görülme	-9.84953
▁düzenlendi	-9.84953
▁sürdür	-9.85023
▁bal	-9.85026
▁ilişkileri	-9.85028
▁arttı	-9.85108
▁getirdiği	-9.85109
layıp	-9.85141
▁başlatılan	-9.85169
▁açıklamalarda	-9.85182
▁bilet	-9.85261
▁yanına	-9.85267
▁Operasyon	-9.85272
▁uğraş	-9.85323
▁Yapı	-9.85345
▁Burak	-9.85402
imizin	-9.85444
▁malzeme	-9.85452
▁Hatta	-9.85453
▁batı	-9.85496
▁sor	-9.85575
▁liradan	-9.85582
▁antrenman	-9.85583
▁fabrika	-9.85583
▁bağlantı	-9.85623
▁Erdem	-9.85739
laştı	-9.85758
▁pilot	-9.85844
▁polisi	-9.85855
▁Barcelona	-9.8587
▁Küçük	-9.85888
▁oranında	-9.85902
▁süt	-9.85908
▁hatırla	-9.85912
rik	-9.85933
2016	-9.86037
▁köşe	-9.86094
▁İçişleri	-9.86094
▁gösteril	-9.86119
▁Tam	-9.8614
muyor	-9.86164
örü	-9.86194
▁hükümeti	-9.8622
▁bırakıldı	-9.86234
▁yalnız	-9.86278
▁AA	-9.86316
▁aralık	-9.86359
▁tabii	-9.86367
yorsunuz	-9.86372
▁Kartal	-9.86375
▁Çavuşoğlu	-9.86376
▁yetiştir	-9.86427
▁ila	-9.86449
▁Gi	-9.86496
▁bombalı	-9.86548
▁bulunma	-9.8655
▁Kilis	-9.86613
▁Bilim	-9.86614
▁Takım	-9.8668
▁yakalama	-9.86731
▁girişiminin	-9.86743
demir	-9.86791
▁vermeye	-9.86793
Kİ	-9.86844
▁komisyon	-9.86865
▁aldığını	-9.86912
▁Kore	-9.86942
▁depo	-9.86948
abilmek	-9.86956
▁kaldırılması	-9.87131
leşmiş	-9.8716
▁devleti	-9.87186
▁geride	-9.87197
iyeti	-9.872
▁bölgesi	-9.87335
▁işte	-9.87345
▁Çetin	-9.87375
▁görüştü	-9.87382
▁cesedi	-9.87383
▁Kul	-9.87468
mediği	-9.87558
▁vereceği	-9.87566
▁durumun	-9.87584
▁amaç	-9.87601
▁alır	-9.87633
makta	-9.87637
▁kalın	-9.87657
ecektir	-9.87696
▁saatleri	-9.87698
ıyorum	-9.87728
▁sahaya	-9.87749
▁Üst	-9.87759
lanarak	-9.87759
▁katıl	-9.87759
▁g	-9.87788
▁gitmek	-9.87813
▁sizi	-9.87834
▁ettik	-9.87887
▁Töre	-9.87908
▁nerede	-9.87997
rat	-9.88027
▁davranış	-9.88044
▁yıllar	-9.88109
-1	-9.88159
▁doğrultusunda	-9.88164
▁kök	-9.8817
▁Şampiyonlar	-9.88173
leyerek	-9.88176
▁akıl	-9.88194
▁çatışmalar	-9.88198
▁eşit	-9.88203
▁yansıt	-9.88217
▁aktardı	-9.88244
▁rejim	-9.88325
17	-9.88328
▁Partisi	-9.88358
▁ö	-9.88419
▁zemin	-9.88428
eçtiğimiz	-9.88447
▁sağlayacak	-9.88468
▁yüzü	-9.88485
▁eleştiri	-9.88546
▁ayağı	-9.88574
▁almış	-9.88615
▁Samsun	-9.88632
▁Fakültesi	-9.88688
▁rahmet	-9.88689
▁tarım	-9.88697
▁saniye	-9.88719
▁noktası	-9.88741
▁görüldü	-9.88765
▁Metin	-9.88777
ğunu	-9.88935
vo	-9.88948
▁tribün	-9.88951
▁arttır	-9.89023
▁gerçekleş	-9.89078
ildiği	-9.89085
▁düzenledi	-9.89118
▁Tu	-9.89118
▁üste	-9.89149
maları	-9.89167
▁itfaiye	-9.89215
▁bozul	-9.89245
▁insanın	-9.89332
▁33	-9.89333
▁kaybed	-9.89367
▁oynadı	-9.89431
▁/	-9.89507
▁ülkeye	-9.89532
iç	-9.89553
mon	-9.89593
▁onlara	-9.89634
▁birlik	-9.89704
▁sağlama	-9.89737
▁düşür	-9.89742
▁Clinton	-9.89745
▁Londra	-9.89745
▁Şimşek	-9.89745
▁Cizre	-9.89745
▁Teknoloji	-9.89745
▁Marmara	-9.89746
▁reklam	-9.89746
▁mobil	-9.8976
▁ürünleri	-9.89797
▁değiş	-9.89809
▁rekor	-9.89899
▁Per	-9.89937
je	-9.89945
ja	-9.89959
▁kul	-9.89972
▁öte	-9.89991
▁Yaklaşı	-9.90011
▁vize	-9.90012
▁ilginç	-9.90012
▁ateşkes	-9.90022
▁yaşıyor	-9.90023
ry	-9.90038
▁oyuncular	-9.90083
▁bi	-9.90107
her	-9.90158
▁binası	-9.90171
▁müzakere	-9.90278
▁yeşil	-9.90278
▁dedim	-9.90284
ydu	-9.90318
▁çekiyor	-9.90432
▁öldür	-9.90458
▁Top	-9.90494
▁karşısına	-9.90543
▁gurur	-9.90545
▁ligde	-9.90547
▁adalet	-9.90587
▁yayıl	-9.90617
abileceğini	-9.90664
Ne	-9.90745
▁rahatsız	-9.90756
▁örgütüne	-9.90766
▁okuma	-9.90766
▁kıs	-9.90776
▁men	-9.90784
▁ihraç	-9.90813
▁Brüksel	-9.90813
▁Ön	-9.90853
▁sınırı	-9.90874
▁etmeyi	-9.90892
▁artması	-9.90978
▁yetki	-9.91028
▁tarafı	-9.91044
▁sözlerini	-9.91045
▁şüphe	-9.91059
▁Yurt	-9.91085
▁Park	-9.91114
▁sinir	-9.91118
liğine	-9.9113
▁birimleri	-9.91191
▁çay	-9.91201
▁fon	-9.91272
LI	-9.9129
▁parçası	-9.91305
▁Terörle	-9.91305
▁Şi	-9.91307
▁verilecek	-9.9137
▁yolda	-9.91392
▁mezun	-9.91408
emez	-9.91438
▁Aslan	-9.91454
▁uçağı	-9.91456
▁sığınmacı	-9.91485
▁peş	-9.91503
▁Roma	-9.91549
▁söylediği	-9.91567
▁sorunları	-9.91576
▁NATO	-9.91622
▁hediye	-9.91622
▁fuar	-9.91622
▁kurma	-9.91629
cik	-9.91694
art	-9.91736
▁insani	-9.91747
▁ayrılma	-9.91772
▁doku	-9.91831
▁teröristlerin	-9.91886
▁okun	-9.91891
▁uyku	-9.91894
▁araçlar	-9.919
▁zorunlu	-9.91905
▁meselesi	-9.91928
▁Silahlı	-9.91962
madığını	-9.9202
▁dolaş	-9.92151
▁şifre	-9.92165
▁am	-9.92227
AP	-9.92297
kça	-9.92341
mayacak	-9.92386
▁duvar	-9.92437
▁Persie	-9.92438
▁idare	-9.92439
▁ışık	-9.92449
▁dolayısıyla	-9.92481
▁çevir	-9.92514
▁ortamı	-9.92556
ysa	-9.92584
▁grubun	-9.92605
▁Gu	-9.92634
▁Üç	-9.92659
▁gelmiş	-9.92662
▁tavsiye	-9.9271
dığımız	-9.9272
▁olanlar	-9.92722
▁pas	-9.92747
▁es	-9.92763
OR	-9.92764
▁salon	-9.92778
▁75	-9.9278
▁bol	-9.92796
▁futbolcular	-9.92803
▁altyapı	-9.92921
▁gerçekleştirdi	-9.92962
lerdeki	-9.92973
▁kitabı	-9.92984
▁lise	-9.93002
▁Ziraat	-9.9302
▁endeksi	-9.9306
▁taraftarı	-9.93079
▁hücre	-9.93122
▁açıklamaya	-9.9313
▁kalması	-9.93166
▁150	-9.93171
▁400	-9.93181
▁kuruluşu	-9.93202
meyeceği	-9.93259
▁maden	-9.93354
▁Sel	-9.93418
▁birinin	-9.93454
beyazlı	-9.9349
▁65	-9.93525
▁Merkel	-9.93535
▁Saldırı	-9.93535
lardaki	-9.93551
▁Aşk	-9.93564
okul	-9.93576
▁davası	-9.93612
KA	-9.93637
ÜR	-9.93713
rul	-9.93727
▁Şanlıurfa	-9.93811
▁verir	-9.93832
▁nefes	-9.93875
▁Hal	-9.93879
▁birliği	-9.93913
▁alınarak	-9.93942
▁açıklamasında	-9.93951
▁örgütleri	-9.93971
▁Ci	-9.94022
▁edeceği	-9.94031
▁istismar	-9.94088
▁sigara	-9.94088
▁yürüyüş	-9.94088
▁satışı	-9.94117
▁haftasında	-9.94215
Dk	-9.9422
▁geçirdiği	-9.94232
▁mücadelede	-9.94272
▁bilen	-9.94307
▁ordusu	-9.94345
▁mağlu	-9.94365
▁Vodafone	-9.94365
▁Yavuz	-9.94365
▁Stadı	-9.94368
23	-9.94371
▁fakat	-9.94375
▁kanalı	-9.9438
▁Günü	-9.94384
▁edildiğini	-9.94385
cak	-9.94389
▁Yarı	-9.94405
▁Belediyespor	-9.94415
▁bekleme	-9.94576
▁Çalışma	-9.94644
▁vuruş	-9.94647
▁pe	-9.94647
▁Esad	-9.94664
▁sürecinde	-9.94681
▁yaklaşım	-9.94741
▁eğitimi	-9.94767
mıyorum	-9.94804
madığı	-9.94849
▁yağışı	-9.94876
ow	-9.94878
▁Ardından	-9.94923
▁bölücü	-9.94927
▁neredeyse	-9.94932
▁seyirci	-9.94982
▁hat	-9.95038
▁kulübün	-9.95039
▁teklifi	-9.95107
▁Ti	-9.95124
▁Barış	-9.95139
▁yasal	-9.95146
▁gül	-9.95151
OL	-9.95154
▁Fetullah	-9.95176
▁açan	-9.95185
com	-9.95203
▁Millet	-9.95247
mur	-9.95264
ort	-9.95501
24	-9.95504
▁taraftarlar	-9.95543
▁farkında	-9.95609
▁Yaş	-9.95645
▁ayda	-9.95698
TE	-9.95729
▁polisin	-9.95744
▁saldırgan	-9.95777
sunu	-9.95796
▁görevlileri	-9.95798
05	-9.95867
▁dalga	-9.95896
▁satıl	-9.95922
▁görevlisi	-9.95993
▁2014'	-9.9601
▁Pereira	-9.96048
▁cemaat	-9.96048
▁ifadeleri	-9.96071
▁Hollanda	-9.96116
▁kalbi	-9.96165
▁kurtarma	-9.96218
▁kendine	-9.96267
ARA	-9.96286
▁Valisi	-9.96319
▁kalem	-9.96473
▁temsilcileri	-9.96484
▁esnaf	-9.96617
▁temsilcisi	-9.96645
▁Alına	-9.96727
▁duyuru	-9.96756
▁yağmur	-9.96915
▁Orhan	-9.96933
▁kanıt	-9.9695
▁yolunda	-9.96974
ışı	-9.97008
▁değişikliği	-9.97067
▁yaşlı	-9.97125
▁Washington	-9.97186
▁Muhammed	-9.97187
▁kahve	-9.97187
▁Bin	-9.97215
▁hesabından	-9.97262
▁devreye	-9.9727
▁yarısı	-9.97309
TV	-9.97323
▁kullanarak	-9.97329
▁AL	-9.97351
▁yatır	-9.97351
bü	-9.97378
▁eser	-9.97409
▁hepimiz	-9.97412
▁etmişti	-9.97473
▁Güzel	-9.97473
▁Berlin	-9.97481
▁döviz	-9.97491
▁Yüz	-9.97532
lığına	-9.97592
▁şartları	-9.97594
▁çevresinde	-9.97658
▁kararını	-9.97743
▁hayran	-9.97761
▁adımlar	-9.97781
lenecek	-9.97792
▁birbiri	-9.97805
bek	-9.97929
▁zam	-9.97934
▁Edinile	-9.9805
▁dinle	-9.98085
▁paket	-9.98092
▁demokratik	-9.98101
▁sporcu	-9.98117
▁eyalet	-9.98149
Türk	-9.98158
▁ülkelerde	-9.98166
umuz	-9.98207
▁geçerli	-9.98209
▁geçme	-9.98259
▁dönme	-9.983
▁geldik	-9.98322
▁slogan	-9.98337
▁Türkmen	-9.98349
▁alış	-9.98398
▁Beş	-9.9843
lmaz	-9.98476
▁Af	-9.98603
çü	-9.98613
▁şirketlerin	-9.98617
▁düşünme	-9.98625
▁Mısır	-9.98627
▁Çanakkale	-9.98627
▁buraya	-9.98645
▁Konyaspor	-9.98654
▁Mal	-9.98662
lerindeki	-9.98705
▁evi	-9.98766
▁izleme	-9.98829
▁kış	-9.9886
▁Valiliği	-9.9887
▁sözleri	-9.98884
▁Yer	-9.98889
▁Kılıç	-9.98918
▁penaltı	-9.98918
▁gram	-9.98946
▁kaçır	-9.98986
▁Kanunu	-9.9903
▁sunul	-9.99187
▁demir	-9.99188
▁toprağa	-9.9921
▁Önce	-9.99267
▁yükseliş	-9.99271
▁bazen	-9.99299
▁sorunlar	-9.99304
nıza	-9.99324
ram	-9.99377
▁asist	-9.99387
▁sonuçlar	-9.9944
▁ruh	-9.99464
kçe	-9.99481
luğa	-9.99501
▁alternatif	-9.99502
▁bayrağı	-9.99502
▁oynanacak	-9.99537
▁aktif	-9.99539
▁yakından	-9.99574
▁üzeri	-9.99618
Dünya	-9.99634
yolu	-9.99636
▁polise	-9.99641
▁dönüştür	-9.99678
▁meş	-9.99691
▁düşünül	-9.99706
▁insanı	-9.99747
▁sohbet	-9.99795
▁isabet	-9.99795
▁Manisa	-9.99797
▁2008	-9.99851
▁olmadan	-9.99914
▁şirketler	-9.99916
▁niyet	-9.99965
▁saf	-10.0003
▁aşkın	-10.0004
▁husus	-10.0009
▁rast	-10.0009
▁bo	-10.001
▁Yayın	-10.0011
▁arkadaş	-10.0015
▁adliye	-10.0016
▁Mor	-10.0019
bank	-10.0022
Bahçe	-10.0022
▁Bahçeli	-10.0023
nizde	-10.0025
!..	-10.0026
▁cihaz	-10.0028
larındaki	-10.0028
▁deplasmanda	-10.0032
imizi	-10.0033
▁kartı	-10.0034
lamış	-10.0035
▁kop	-10.004
▁tabanca	-10.0044
▁ülkeleri	-10.0049
▁Tü	-10.005
▁mekan	-10.0051
90	-10.0052
▁suçlama	-10.0053
▁Kanun	-10.0055
▁sigorta	-10.0057
▁Ordu	-10.0061
▁Hasta	-10.0062
▁kimsenin	-10.0063
▁öğrenciler	-10.0065
▁beraberlik	-10.0067
▁Yap	-10.0067
▁Hukuk	-10.0068
▁olağanüstü	-10.0068
▁kaydı	-10.0068
▁Işık	-10.007
▁başardı	-10.0075
▁nedir	-10.0093
▁kuruluş	-10.0098
▁koalisyon	-10.0098
▁rekabet	-10.0098
▁1-0	-10.0098
▁deneyim	-10.01
21	-10.01
▁Az	-10.01
mb	-10.0114
▁Proje	-10.0116
▁Hali	-10.0116
▁kurdu	-10.0118
▁bayrak	-10.0127
▁maruz	-10.0128
▁halen	-10.0129
sızlık	-10.0133
▁TIR	-10.0135
for	-10.0136
ınız	-10.0137
▁bağımsız	-10.0139
TO	-10.0148
▁kına	-10.0151
▁Bayram	-10.0159
▁bekleyen	-10.0162
▁geçiyor	-10.0171
▁Meclisi	-10.0175
▁verici	-10.018
ımızı	-10.018
▁kararlı	-10.0188
▁derbi	-10.0189
▁biçimde	-10.0197
▁sektörü	-10.0212
gun	-10.0214
amayacak	-10.0214
şar	-10.0216
▁uyuşturucu	-10.0217
▁doğalgaz	-10.0217
▁John	-10.0217
▁Serdar	-10.0219
pan	-10.022
▁Şenol	-10.0221
▁tanık	-10.0222
▁sözlerine	-10.0223
16	-10.0227
dy	-10.023
▁yatırımcı	-10.0232
▁eğer	-10.0234
▁karşılaş	-10.0235
▁bey	-10.0236
▁Saray	-10.0245
▁hizmeti	-10.0245
▁başlatıldı	-10.0246
▁aldık	-10.0246
▁görüntüleri	-10.0248
▁Köprüsü	-10.0248
ou	-10.0249
▁Özbek	-10.025
▁hükümetin	-10.0251
▁vazgeç	-10.0258
▁yönde	-10.026
-3	-10.0267
▁olurken	-10.0269
▁ulaşım	-10.0278
▁olmayı	-10.0282
▁haberler	-10.0283
mayacağı	-10.0289
▁ifadesi	-10.029
▁kutla	-10.0307
▁itiraf	-10.0308
▁Sal	-10.031
▁sözü	-10.0311
mal	-10.0317
▁unsur	-10.032
▁bölgedeki	-10.0323
▁Pro	-10.0334
▁sağladı	-10.0336
▁Akhisar	-10.034
▁haftada	-10.0341
▁şekil	-10.0345
yüz	-10.0347
▁Bunların	-10.0351
ac	-10.0354
▁bulunması	-10.0354
▁Gece	-10.0357
▁Kısa	-10.0369
▁yön	-10.0371
▁talimat	-10.0371
02	-10.0373
▁Türkçe	-10.0373
▁sorumluluk	-10.0375
LAN	-10.038
▁yaşanma	-10.0385
▁Güven	-10.0387
kon	-10.0389
▁kıyafet	-10.0399
▁olmayacak	-10.0401
▁yöneticileri	-10.0402
▁600	-10.0403
▁olaylar	-10.0406
99	-10.0406
▁izni	-10.0407
▁çekil	-10.0416
▁damar	-10.0417
▁Kon	-10.0422
▁sermaye	-10.043
▁alınacak	-10.0439
▁kıyı	-10.0443
İstanbul	-10.0446
▁avukatı	-10.0447
▁Dev	-10.045
▁it	-10.0453
▁bayram	-10.0461
▁aracılığıyla	-10.0461
▁oturan	-10.0462
ub	-10.0463
▁birbirleri	-10.0464
▁oran	-10.0464
▁Kız	-10.0467
▁beyan	-10.0467
▁kazı	-10.0471
▁üstünde	-10.0472
▁pay	-10.0472
▁Oyun	-10.0474
▁tuttu	-10.0476
yerek	-10.0489
▁kontrolünde	-10.049
▁Google	-10.0492
▁belirtiliyor	-10.0492
▁fatura	-10.0492
▁tipi	-10.0493
ser	-10.0494
▁Sp	-10.0506
▁içer	-10.0508
▁gösterme	-10.0508
▁düşünüyor	-10.0515
ücü	-10.0518
ong	-10.0521
▁CEO	-10.0523
▁seyre	-10.0524
▁4.5	-10.0527
▁maça	-10.0531
▁paralel	-10.0532
▁Bundan	-10.0532
▁Lu	-10.054
▁Onur	-10.0544
▁Çek	-10.0546
▁duyul	-10.0549
▁Çevre	-10.0554
▁seri	-10.0561
▁gelip	-10.0561
▁nüfus	-10.0562
▁Hayat	-10.0569
▁güçlerinin	-10.0574
▁kimi	-10.0574
▁bulan	-10.0577
▁oynayan	-10.0582
▁yoktu	-10.0583
▁ölümü	-10.0584
▁başlama	-10.0584
▁meclis	-10.0585
▁Cumartesi	-10.0585
▁Uzman	-10.0591
▁buluş	-10.0596
ASI	-10.0597
▁yarar	-10.0602
▁hatır	-10.0604
cık	-10.0604
▁havalimanı	-10.0616
▁artışı	-10.0619
ster	-10.0623
zan	-10.0626
▁olmuştu	-10.0626
▁Oysa	-10.0627
▁Hollandalı	-10.064
▁eti	-10.0641
nuz	-10.0647
▁Eren	-10.0647
luyor	-10.0647
▁Av	-10.0648
rit	-10.065
▁özellikleri	-10.065
▁tarihleri	-10.0657
▁Sağ	-10.0667
▁gidip	-10.0679
▁görülüyor	-10.0679
▁55	-10.0681
▁Mark	-10.0683
▁memur	-10.0686
▁Kamu	-10.0687
▁Sözcüsü	-10.0688
emedi	-10.0697
▁dini	-10.0698
▁DE	-10.07
▁geçmesi	-10.0703
▁çağır	-10.0708
▁Yatırım	-10.071
▁gidecek	-10.071
▁maddi	-10.071
▁böl	-10.0715
▁işgal	-10.0716
▁kuzey	-10.0726
cılığı	-10.074
▁kongre	-10.0742
▁doğa	-10.0744
▁ettiklerini	-10.0744
▁Tar	-10.0751
▁zorla	-10.0757
layın	-10.0757
▁Orada	-10.0767
▁ilişkiler	-10.0768
▁açılış	-10.0769
▁olmuştur	-10.0771
▁Perşembe	-10.0774
▁hamile	-10.0775
▁vererek	-10.0777
▁ölen	-10.0779
▁girmesi	-10.0792
ettin	-10.0793
▁kaçan	-10.08
rme	-10.0809
▁ölçü	-10.081
▁MİT	-10.0812
▁görüyoruz	-10.0812
▁çekme	-10.0816
▁bulma	-10.082
▁Kat	-10.0821
▁uyar	-10.0825
▁Erzurum	-10.0838
▁dijital	-10.0838
▁hâlâ	-10.0838
▁yukarı	-10.0838
▁Örneğin	-10.0838
▁İnşaat	-10.0838
▁kesinlikle	-10.0839
▁miktarı	-10.084
▁sağlıyor	-10.0842
NE	-10.0843
▁ettikleri	-10.0848
▁içeren	-10.085
▁kariyeri	-10.085
93	-10.086
▁alım	-10.0861
▁xx	-10.0867
▁Çarşamba	-10.087
▁vicdan	-10.087
▁noktasında	-10.0873
▁varlığı	-10.0874
▁Öyle	-10.0878
▁tutar	-10.088
▁güçlendir	-10.0886
▁bildiri	-10.0886
▁ülkeyi	-10.0889
▁Kurul	-10.0893
▁fotoğrafı	-10.0896
▁vali	-10.0898
▁örneği	-10.0902
▁kadınların	-10.0904
▁sektöründe	-10.091
▁ortasında	-10.0917
▁olayları	-10.0917
35	-10.092
▁Savaş	-10.0921
▁Muha	-10.0921
▁oluştu	-10.0925
▁Tolga	-10.0934
▁tutuklama	-10.0935
▁tartış	-10.0936
▁kelime	-10.0936
▁koşul	-10.0938
▁çağrısı	-10.0939
▁isten	-10.0939
AH	-10.0939
▁bilgilere	-10.094
▁sorularını	-10.0946
▁mah	-10.0954
▁toplumun	-10.0958
▁Banka	-10.0961
▁Selim	-10.0966
▁gayret	-10.0966
▁konuşul	-10.0967
▁kurşun	-10.0967
ktedir	-10.098
03	-10.0984
ent	-10.0986
▁250	-10.0987
ıyordu	-10.099
▁yerlerde	-10.0991
bul	-10.0995
▁yüzyıl	-10.1001
▁Demirtaş	-10.1003
▁yapacağız	-10.1006
▁Gazete	-10.101
▁Meydanı	-10.1012
▁açıklamaları	-10.1012
▁kaybetme	-10.1012
▁zorlu	-10.1013
▁Kor	-10.1013
ebileceği	-10.1014
▁Avcı	-10.1026
▁yiy	-10.1034
▁Ver	-10.1038
larken	-10.1041
▁Abd	-10.1043
▁Kap	-10.1061
▁Okul	-10.1062
▁hekim	-10.1064
▁Ünal	-10.1065
▁görüntüler	-10.1072
▁kanseri	-10.1077
▁halka	-10.1088
▁ilgilen	-10.1089
▁olmaması	-10.1091
ris	-10.1092
▁Şehir	-10.11
▁açılışı	-10.1102
NA	-10.1106
▁Tarım	-10.1106
br	-10.1108
▁sezonun	-10.1114
▁Kent	-10.1117
▁kere	-10.1118
▁düzenli	-10.1121
▁geçiren	-10.1122
▁hamle	-10.1122
26	-10.1123
▁mahkemeye	-10.1126
ktadır	-10.113
▁bakış	-10.114
▁sağlanması	-10.1141
▁Zaten	-10.1143
▁iade	-10.1145
▁ordu	-10.1149
▁durma	-10.115
▁yapıyoruz	-10.1155
▁mücadelesi	-10.1158
▁şirketleri	-10.1159
▁açılması	-10.1159
▁gözlem	-10.1162
▁THY	-10.1163
tion	-10.1168
▁anlatıyor	-10.1172
▁düşündü	-10.1181
▁Karar	-10.1183
▁söyleme	-10.1192
▁is	-10.1192
▁çıkarma	-10.1194
▁evin	-10.1196
▁Çakır	-10.1196
▁idari	-10.1196
▁sunuyor	-10.1199
22	-10.12
▁Usta	-10.1204
laştırma	-10.1204
▁başlar	-10.1205
▁Basın	-10.1207
▁Kol	-10.1211
▁yaşandığı	-10.1212
▁ekledi	-10.1213
▁kod	-10.1216
▁öğrencisi	-10.1217
▁yakaladı	-10.122
▁dağıt	-10.1222
▁heyet	-10.1224
▁taksi	-10.1225
▁Kıbrıs	-10.1229
▁Manchester	-10.1229
▁tiyatro	-10.1229
▁City	-10.1229
▁Yargıtay	-10.123
▁Kerim	-10.1232
▁Para	-10.1233
▁Dk	-10.1233
▁şiş	-10.1236
▁diz	-10.1236
▁tip	-10.1237
▁çıkarıldı	-10.1238
abilmesi	-10.1242
▁sitesi	-10.1251
rd	-10.1251
lıkla	-10.1252
96	-10.126
▁misafir	-10.1263
▁Gümüş	-10.1263
▁taciz	-10.1263
▁reform	-10.1263
▁Dursun	-10.1266
▁eğ	-10.1272
▁37	-10.1275
▁koca	-10.1284
CE	-10.1287
ıldığını	-10.129
▁turu	-10.1292
▁engelli	-10.1294
28	-10.1297
▁canlandır	-10.1299
▁memnun	-10.1303
AV	-10.1309
▁1.5	-10.131
▁Hoca	-10.1312
▁yaptığımız	-10.1319
▁yarım	-10.1329
▁icra	-10.133
▁usta	-10.1334
▁belirlen	-10.1336
sam	-10.1337
▁gönderil	-10.1342
▁kişisel	-10.1347
▁hızı	-10.135
▁çıkarıl	-10.1353
▁38	-10.1356
dri	-10.1356
▁birbirine	-10.1358
▁yoksa	-10.136
▁Hafta	-10.1363
▁Real	-10.1365
▁muhalif	-10.1366
▁In	-10.1366
▁ilişkilerin	-10.1368
▁evlilik	-10.1377
▁dizisi	-10.1378
▁gerçekleşen	-10.1379
▁Çocuklar	-10.1382
▁kitle	-10.1384
▁ham	-10.1388
stik	-10.1389
▁yapısı	-10.1393
▁düzenlenecek	-10.1398
▁Oyuncu	-10.14
we	-10.14
▁ekipler	-10.1402
▁basit	-10.1405
▁İm	-10.1408
▁Kurt	-10.1414
göz	-10.1414
▁iddiasıyla	-10.1418
▁anlaşması	-10.1421
bur	-10.1422
▁saldır	-10.1423
▁özgürlüğü	-10.1423
▁değine	-10.1426
▁İnan	-10.1427
lerimize	-10.1429
▁sesi	-10.1431
▁İnşallah	-10.1431
▁Kadıköy	-10.1431
▁zafer	-10.1431
▁Üyesi	-10.1431
▁standart	-10.1431
▁Mahmut	-10.1431
▁öldürme	-10.1435
▁kork	-10.144
▁Aslında	-10.1441
▁araçların	-10.1442
▁duruma	-10.1445
▁vermiş	-10.1446
▁yitir	-10.1451
▁Bana	-10.1456
▁sorgulama	-10.1457
▁yerden	-10.1458
▁uğra	-10.146
▁Hürriyet	-10.1465
▁mağaza	-10.1465
▁yıkıl	-10.1466
▁almıştı	-10.1466
▁açığa	-10.1466
▁Faruk	-10.1466
▁imkanı	-10.1468
▁görevini	-10.1469
▁kutu	-10.147
▁ayakta	-10.1474
uç	-10.1479
95	-10.1482
▁taşıyor	-10.1482
▁takıl	-10.1484
▁olası	-10.1485
imize	-10.149
▁kamyon	-10.1494
▁açıdan	-10.1497
▁düğün	-10.1499
En	-10.1501
▁112	-10.1503
▁sektörün	-10.1504
▁Gol	-10.1506
▁Terim	-10.1512
▁güne	-10.1516
▁yetkili	-10.1517
▁bahçe	-10.1521
▁irade	-10.1521
iyorum	-10.1521
lerdi	-10.1524
▁riski	-10.1526
▁cümle	-10.1533
▁kavuş	-10.1536
▁kaçtı	-10.1538
GE	-10.1541
▁ihbar	-10.1551
larımıza	-10.1552
▁gönderme	-10.1552
▁taraftan	-10.1557
▁başlaması	-10.1564
▁şube	-10.1566
▁İsveç	-10.1568
Spor	-10.1571
▁partisi	-10.1572
▁42	-10.1575
▁İtalyan	-10.1577
▁onur	-10.1578
memesi	-10.1579
▁korumak	-10.1582
▁projeleri	-10.1584
▁bakma	-10.1585
▁Kendisi	-10.1586
▁Suçlar	-10.1592
▁beyin	-10.1595
▁ülkesi	-10.1596
▁Bab	-10.16
ıyorlar	-10.1601
▁Soruşturma	-10.1602
▁roman	-10.1602
▁Burcu	-10.1602
▁şampiyonluk	-10.1608
▁sordu	-10.161
▁sahil	-10.1611
▁yüklü	-10.1615
▁getirmek	-10.1616
▁önemlidir	-10.1617
▁değiştirme	-10.1618
▁getirilmesi	-10.1619
▁kor	-10.162
ebileceğini	-10.1623
▁emin	-10.1623
▁giz	-10.1629
▁Tor	-10.1632
▁ziyareti	-10.1633
▁elbette	-10.1637
▁Hami	-10.1637
▁izleyici	-10.1639
▁Özdemir	-10.164
▁giyen	-10.164
▁karakter	-10.1642
DHA	-10.1643
▁Ru	-10.1649
▁savun	-10.1663
ovic	-10.1668
burg	-10.167
▁mühendis	-10.1671
▁restoran	-10.1671
▁hac	-10.168
▁geçirme	-10.1698
ılır	-10.17
▁sessiz	-10.1701
▁esnasında	-10.1706
▁ihanet	-10.1707
yacağını	-10.1709
▁alkol	-10.1712
▁tutan	-10.1712
▁gelerek	-10.1714
don	-10.1716
▁bitti	-10.1718
▁Gra	-10.1718
▁Bas	-10.1722
04	-10.1722
▁artan	-10.1728
▁Ağ	-10.1733
gin	-10.1733
▁ekiplerinin	-10.1734
▁gerçeği	-10.1741
ilirken	-10.1743
▁ihracatı	-10.1744
▁kullanıyor	-10.1746
ang	-10.1753
▁olacağız	-10.1754
önü	-10.1757
▁hüküm	-10.1771
▁makine	-10.1773
▁Hay	-10.1778
yeceğiz	-10.1779
▁tanıtım	-10.178
▁belirledi	-10.1782
▁2009	-10.1783
▁öğrencilerin	-10.1786
▁toplantıda	-10.1786
▁tır	-10.1788
▁müze	-10.1792
tuğ	-10.1793
▁görünüm	-10.1795
▁biliyoruz	-10.1799
▁açıklamalar	-10.1811
▁Magazin	-10.1812
▁Nusaybin	-10.1812
ümüz	-10.1812
▁Harekat	-10.1812
▁karayolu	-10.1813
▁vatandaşlarımız	-10.1817
▁yaptıklarını	-10.1817
▁Antalyaspor	-10.1818
miyorum	-10.1822
▁hatırlatan	-10.1823
▁ülkemizde	-10.1824
▁askerler	-10.1826
▁suçu	-10.1826
▁çekim	-10.1827
▁ortam	-10.1834
▁KO	-10.1837
▁edebilir	-10.1838
▁kaynakları	-10.1841
▁tüfeği	-10.1847
▁işadamı	-10.1847
▁eğlence	-10.1849
▁Umut	-10.1849
▁geliştirme	-10.1861
▁Savaşı	-10.1861
▁mezar	-10.1872
▁yıldızı	-10.1878
▁töreni	-10.1879
▁Yalçın	-10.1882
▁vatandaşı	-10.1883
▁kilit	-10.1883
▁özgürlük	-10.1884
▁temin	-10.1885
88	-10.1887
▁uyum	-10.1888
▁Salı	-10.189
▁ıs	-10.189
▁Topal	-10.1891
▁erkekler	-10.1892
▁tuz	-10.1893
▁ısı	-10.1897
▁bedel	-10.1897
▁miktar	-10.1907
▁Hat	-10.1907
▁girecek	-10.1914
▁İz	-10.1916
▁parlamento	-10.1918
▁garanti	-10.1918
▁yaşat	-10.1923
▁kampanyası	-10.1923
▁hoş	-10.1924
▁Eşi	-10.1924
▁görü	-10.1924
bal	-10.1925
▁bölgelerde	-10.1932
▁yaşı	-10.194
▁istemiyor	-10.1941
▁tamamlandı	-10.1944
▁kenar	-10.1946
▁balık	-10.1959
bak	-10.1966
▁has	-10.1974
▁120	-10.1974
▁demişti	-10.1977
▁AR	-10.1981
▁bağlantılı	-10.1982
89	-10.1986
abilen	-10.1989
▁Kasımpaşa	-10.1991
▁beklediği	-10.1994
sey	-10.1995
ırsa	-10.1995
75	-10.2005
▁haksız	-10.2006
▁Çağ	-10.2008
bat	-10.2008
▁getiriyor	-10.2009
▁Kanal	-10.2019
▁kontrolü	-10.202
▁Hizmet	-10.2025
▁İsviçre	-10.2025
▁Hakkari	-10.2025
▁nitelik	-10.2025
▁Siyah	-10.2026
▁tel	-10.2028
▁politikası	-10.2029
▁seviyesinde	-10.203
▁fragmanı	-10.203
▁uyarısı	-10.203
▁sürücüsü	-10.2034
▁dönen	-10.2045
▁39	-10.2052
29	-10.2055
▁48	-10.2056
▁Demokrat	-10.2059
▁sebze	-10.2062
▁suikast	-10.2062
▁çıkarak	-10.2063
▁katı	-10.2076
▁kapattı	-10.2078
▁öğrencileri	-10.2082
severler	-10.2083
▁41	-10.2083
▁askerlerin	-10.2087
▁ofis	-10.2088
▁kullanım	-10.2089
▁Kral	-10.2089
▁Ülkemiz	-10.2091
▁yöntemi	-10.2092
92	-10.2093
▁borcu	-10.2094
▁Kurtulmuş	-10.2098
▁asgari	-10.2098
▁Paşa	-10.2101
▁karşılaştı	-10.2101
▁işlet	-10.2103
▁kalıyor	-10.2106
▁44	-10.2107
▁izledi	-10.2108
▁patla	-10.2109
sever	-10.2111
IM	-10.2114
lanmıştı	-10.212
EV	-10.2121
▁benzeri	-10.2122
▁etkisiyle	-10.2123
▁merkezli	-10.2132
▁coğrafya	-10.2134
▁yetenek	-10.2134
▁Pazartesi	-10.2134
▁günümüz	-10.2134
▁cilt	-10.2134
▁ulusal	-10.2136
▁46	-10.2137
▁vücudun	-10.2138
UL	-10.2139
▁mülteciler	-10.2142
▁koyma	-10.2154
▁dök	-10.2156
▁yarışı	-10.2157
▁Evet	-10.2158
▁cam	-10.2161
▁atama	-10.2167
EY	-10.217
▁Güneydoğu	-10.2171
▁Malatya	-10.2171
▁ısrar	-10.2171
▁Emekli	-10.2171
▁ayrıntı	-10.2171
▁Gomez	-10.2172
▁sürdürüyor	-10.2172
▁isteği	-10.2173
inizi	-10.2174
▁Fo	-10.2176
▁Gazi	-10.218
luğunu	-10.218
▁tehlikeli	-10.2182
▁isimlerin	-10.2182
▁yapıldığını	-10.2183
▁gelişi	-10.2183
▁Erol	-10.2186
▁ücreti	-10.2195
şim	-10.2198
▁tutarı	-10.2204
▁yumurta	-10.2207
▁tavır	-10.2207
▁cephe	-10.221
▁kurduğu	-10.221
asyonu	-10.2213
▁öğretim	-10.2219
▁beklenti	-10.222
▁göreve	-10.2223
▁yazılım	-10.2224
▁odaklan	-10.2225
▁maliyeti	-10.2225
▁gar	-10.2227
▁amaçlı	-10.2228
▁bırakıl	-10.223
▁başından	-10.2231
▁yoluyla	-10.2237
▁eylemi	-10.2237
lanır	-10.2239
▁çalışmalarını	-10.2243
▁Semih	-10.2244
▁bilgisi	-10.2244
▁ağaç	-10.2246
▁yakış	-10.2247
▁elini	-10.2248
▁koş	-10.2248
▁Gökçe	-10.2249
▁yalnızca	-10.2254
▁transferi	-10.2256
▁girişiminde	-10.2271
▁bahse	-10.2272
ebilirsiniz	-10.2275
▁kapasite	-10.2281
▁başbakan	-10.2281
▁kılı	-10.2281
▁işyeri	-10.2282
▁taban	-10.2282
▁kaygı	-10.2283
▁Acil	-10.2283
▁çektiği	-10.2286
▁ücretsiz	-10.2291
98	-10.2291
▁olayda	-10.2294
landırma	-10.2297
ft	-10.2301
▁Go	-10.2307
emeyen	-10.2316
▁ikramiye	-10.2318
▁analiz	-10.2319
▁sorunun	-10.232
▁araçları	-10.2329
▁günden	-10.2336
yol	-10.2338
▁soruları	-10.2341
▁kaçma	-10.2345
▁Sü	-10.235
▁düzeyde	-10.2351
▁salonu	-10.2356
▁Saat	-10.2356
▁orman	-10.2358
▁ilave	-10.2358
07	-10.236
▁önlemleri	-10.236
▁akın	-10.2361
▁aydın	-10.2363
▁43	-10.2363
▁muhabirine	-10.2376
▁kulübü	-10.2377
▁X	-10.2389
▁vermişti	-10.2389
▁senaryo	-10.2392
▁Kelime	-10.2393
lanırken	-10.2393
▁cuma	-10.2395
▁Osmanlıspor	-10.2396
▁genellikle	-10.2397
▁47	-10.24
▁nesil	-10.2402
soy	-10.2407
larınızı	-10.2411
ğına	-10.2415
▁iddiası	-10.2419
▁erdi	-10.2421
layıcı	-10.2427
▁hakkını	-10.2429
▁mektup	-10.243
▁lüks	-10.2432
▁Ateş	-10.2432
▁buluyor	-10.2434
▁Amerikalı	-10.2437
▁seçme	-10.2439
▁of	-10.244
▁53	-10.2445
▁vekil	-10.2447
mü	-10.2447
▁2017'	-10.2456
▁başarısız	-10.2458
▁gücünü	-10.2461
hra	-10.2462
▁İşleri	-10.2462
osu	-10.2463
larca	-10.2466
▁Sneijder	-10.2468
▁bildiği	-10.2468
▁İst	-10.2471
▁kadrosu	-10.2472
▁Başka	-10.2474
▁ilerleme	-10.2474
kâr	-10.2474
mediğini	-10.2475
▁Gerçek	-10.2476
pol	-10.248
▁yolunu	-10.2482
▁koyu	-10.2483
▁ayar	-10.2485
▁baz	-10.2488
▁başla	-10.2494
▁kesintisi	-10.2496
▁bıçak	-10.2502
▁mevsim	-10.2505
▁taziye	-10.2505
▁tarif	-10.2506
▁Ada	-10.2509
▁tuzak	-10.251
▁yazdığı	-10.2513
▁edilerek	-10.2514
▁çıkıp	-10.2515
▁ekmek	-10.2516
▁Halil	-10.2522
▁gözet	-10.2524
▁konular	-10.2538
▁konularda	-10.254
▁şiir	-10.2543
▁duyduğu	-10.2545
▁buradan	-10.2546
▁modern	-10.2546
▁uydu	-10.2548
▁basını	-10.255
▁unut	-10.2555
▁sezonunda	-10.2557
▁vefat	-10.2558
▁ocak	-10.256
▁hedefleri	-10.2564
▁ilgisi	-10.2565
▁Men	-10.2571
▁yakalan	-10.2573
▁atış	-10.2573
▁öldürdü	-10.2576
▁öldürüldü	-10.2576
▁Karşı	-10.2578
▁Bölgesi	-10.258
▁seçenek	-10.2581
▁Uç	-10.2582
▁Kenan	-10.2583
▁Gıda	-10.2584
▁forması	-10.2588
▁oluşturduğu	-10.2588
▁stat	-10.2596
▁organizasyon	-10.26
ly	-10.2602
▁Boz	-10.2603
▁geçecek	-10.2612
▁sınırları	-10.2614
▁Şah	-10.2616
▁efsane	-10.2619
▁sağanak	-10.2619
▁haklı	-10.2625
▁bulduğu	-10.264
▁arzu	-10.2646
▁rolü	-10.2652
▁belirsiz	-10.2656
▁Anahtar	-10.2658
▁AŞ	-10.2664
▁ürünler	-10.2665
▁2007	-10.2666
▁Maliye	-10.2667
▁sağlam	-10.2669
▁tanesi	-10.2669
▁gruplar	-10.2674
▁zamanı	-10.2676
BA	-10.2686
▁verimli	-10.2697
▁Karaca	-10.27
saydı	-10.2707
▁tecrübe	-10.2707
▁deneme	-10.2708
hit	-10.2713
▁Yasin	-10.2714
▁yatak	-10.2714
▁sahipliği	-10.2717
▁unsurları	-10.2719
dil	-10.272
▁dikkatli	-10.2726
▁röportaj	-10.2735
▁direkt	-10.2735
lâ	-10.2739
▁sürülen	-10.2741
▁2-1	-10.2743
▁merkezine	-10.275
▁Savcı	-10.2754
▁uçağın	-10.2759
leşmesi	-10.2767
▁bitki	-10.2768
▁Gençlerbirliği	-10.2773
▁Nasıl	-10.2775
▁atılan	-10.2777
▁Demokrasi	-10.2784
87	-10.2785
94	-10.2788
▁hareketi	-10.2788
▁çarpı	-10.28
-16	-10.28
▁tüketimi	-10.2803
▁teröristin	-10.2805
▁konuldu	-10.2809
▁tecavüz	-10.2812
▁Bodrum	-10.2812
▁yenilgi	-10.2812
▁nişan	-10.2813
▁isimleri	-10.2829
▁Sch	-10.283
▁bağır	-10.283
▁Jose	-10.2832
▁önceden	-10.2834
DEN	-10.2835
▁Gençlik	-10.2844
▁ip	-10.2845
Saray	-10.2845
▁İdaresi	-10.2847
▁olabileceği	-10.285
▁Başbakanlık	-10.2851
▁barikat	-10.2851
▁görünüyor	-10.2853
▁Ulusal	-10.2853
him	-10.2855
▁dışına	-10.2858
DAN	-10.286
Sen	-10.2872
mut	-10.2874
▁odasın	-10.2877
▁sevdiği	-10.2886
▁projeler	-10.2888
▁yıka	-10.2889
▁kapsamda	-10.2891
▁kendisinin	-10.2894
pınar	-10.2896
▁Akar	-10.2902
▁olamaz	-10.2906
▁patlat	-10.2906
land	-10.2911
▁kalitesi	-10.2912
▁dışarıda	-10.2919
+	-10.2919
▁Çavuş	-10.2926
▁gününde	-10.2927
bel	-10.2929
▁yürüttüğü	-10.293
▁2-0	-10.293
▁tünel	-10.293
▁ikna	-10.2932
▁Esed	-10.2932
▁kemik	-10.2934
▁Mil	-10.2938
▁bekliyoruz	-10.294
▁Yasa	-10.2941
▁kuzeyinde	-10.2951
▁52	-10.2951
▁geliş	-10.2953
▁kaynaklar	-10.2953
gil	-10.2955
▁soy	-10.2956
▁sana	-10.2956
▁strateji	-10.296
▁şaşır	-10.296
▁ilişkisi	-10.2965
▁zamanlarda	-10.2967
▁savaşı	-10.2967
▁tasarruf	-10.297
▁Gönül	-10.297
▁çanta	-10.297
▁Finans	-10.297
bah	-10.2977
▁Caner	-10.2977
hur	-10.2981
ttığı	-10.2987
bra	-10.2995
▁Plan	-10.3001
▁2002	-10.3002
▁çıkmış	-10.3008
▁yılından	-10.3008
▁Ajansı	-10.3009
▁Cengiz	-10.3009
▁yerleşim	-10.3009
▁alkış	-10.3009
▁Mas	-10.301
▁sürdürül	-10.301
▁Kocaeli	-10.3011
▁personeli	-10.3012
▁sağladığı	-10.3019
▁Ozan	-10.3023
▁edeceğini	-10.3027
▁akşamı	-10.303
▁TE	-10.3034
▁üstüne	-10.3035
▁Müdür	-10.3036
▁Bakanlar	-10.3036
▁Yol	-10.304
ğünü	-10.3041
▁Akın	-10.3042
▁gelmişti	-10.3049
▁otomatik	-10.3049
▁organize	-10.3049
▁oynuyor	-10.305
▁inanıyorum	-10.3051
▁meşru	-10.3052
▁Geç	-10.3062
▁yaygın	-10.3068
▁yakınlarında	-10.3072
▁tasarla	-10.3073
kul	-10.3077
abildiği	-10.3077
▁benze	-10.3078
▁yarıda	-10.3079
▁telefonla	-10.3082
▁karakteri	-10.3083
▁oyuncuları	-10.3084
▁anlayışı	-10.3088
▁Donald	-10.3089
▁Hindistan	-10.3089
▁profesyonel	-10.3089
▁teşhis	-10.3089
▁yarısında	-10.3092
▁ölçüde	-10.3092
▁Köyü	-10.3094
▁Tepe	-10.3096
▁Samsung	-10.3098
▁kulak	-10.31
▁düzeni	-10.3101
▁Kızıl	-10.3103
lenerek	-10.3105
▁halkının	-10.3106
▁Kimse	-10.3106
▁devri	-10.3111
▁Birinci	-10.3112
▁omuz	-10.3119
▁sürdüğü	-10.3119
▁ortamda	-10.3119
▁kum	-10.3126
▁kurumların	-10.3127
▁kalıcı	-10.3133
▁aktör	-10.3134
▁Günlük	-10.3135
▁beraberinde	-10.3144
acağım	-10.3144
ilerek	-10.3146
▁Kale	-10.3146
▁finansman	-10.3148
▁Japonya	-10.3148
▁Demirel	-10.3151
▁Dizi	-10.3151
▁Kav	-10.3153
▁Cumhuriyetçi	-10.3153
▁arz	-10.3165
▁Riekerink	-10.317
▁gözyaşları	-10.317
▁vermedi	-10.3173
▁Ayşe	-10.3179
▁Hacı	-10.318
▁ulaşma	-10.3185
▁takıma	-10.319
▁yapıp	-10.319
▁karşılığında	-10.3193
▁Ödülü	-10.3197
▁noktaya	-10.32
lerinizi	-10.3202
▁seçil	-10.3205
▁Bayramı	-10.3209
▁festival	-10.321
▁motosiklet	-10.321
▁Fikret	-10.321
▁Mesela	-10.321
▁tatlı	-10.3211
▁aradı	-10.3212
▁Hastane	-10.3213
▁kurumları	-10.3213
▁Odası	-10.3216
▁yazısı	-10.3217
▁harcama	-10.3221
▁*	-10.3228
▁ağız	-10.3236
97	-10.3238
▁yıllardır	-10.3238
▁hayır	-10.3243
▁mensuplarının	-10.3246
öğretim	-10.3246
▁destekleme	-10.3247
▁şahıs	-10.325
▁Emin	-10.3251
▁bünyesinde	-10.3251
▁gideceği	-10.3251
▁Rizespor	-10.3252
▁kullanıldığı	-10.3252
▁don	-10.3253
▁ili	-10.3255
▁değildi	-10.3256
▁Milletler	-10.3256
▁dili	-10.3257
▁verdikleri	-10.3258
▁yayımlanan	-10.3259
▁çatı	-10.3261
▁yetiş	-10.3262
ullah	-10.3265
▁artarak	-10.3265
▁ertele	-10.3271
▁sözleşmesi	-10.3274
▁aldıkları	-10.3283
ılarak	-10.3284
olojik	-10.3286
&	-10.3287
▁atlat	-10.3288
▁Yunan	-10.3292
▁Sakarya	-10.3292
▁tren	-10.3293
▁eylemleri	-10.3295
▁güney	-10.3298
▁korunması	-10.3299
oto	-10.3306
▁toplanan	-10.3306
▁konuşmada	-10.331
▁72	-10.3312
▁Kaç	-10.3314
▁açıkça	-10.3315
.000	-10.3316
ben	-10.3318
▁ürünlerin	-10.3323
nizin	-10.3325
▁oto	-10.3332
▁Avusturya	-10.3333
▁irtibat	-10.3333
▁Pakistan	-10.3333
▁üzüntü	-10.3333
▁Sulh	-10.3333
▁Borsa	-10.3333
▁yaptırım	-10.3333
▁niye	-10.3334
▁seven	-10.3335
▁selam	-10.3336
▁sitesinde	-10.3338
▁etmiyor	-10.3341
▁85	-10.3343
▁Yaşar	-10.3345
▁geçirilen	-10.3346
▁Dağı	-10.3349
▁yürüten	-10.3353
biliriz	-10.3354
▁kolu	-10.3357
▁müdür	-10.3362
▁bakıyor	-10.3366
▁saldırısında	-10.3366
▁geriledi	-10.3368
yalım	-10.3369
▁baskın	-10.3369
▁Sivas	-10.3372
▁sakat	-10.3373
▁nükleer	-10.3374
▁TFF	-10.3374
▁mermi	-10.3374
▁Erkek	-10.3374
▁◊	-10.3374
▁çete	-10.3375
▁Sahil	-10.3375
▁Zira	-10.338
▁sunma	-10.3383
dere	-10.3386
▁Hiçbir	-10.3386
▁Başkanlık	-10.3387
▁çalışıyoruz	-10.3391
irse	-10.3394
▁çizen	-10.3395
sunun	-10.3397
iyordu	-10.3401
▁idam	-10.3404
▁oluşturul	-10.3412
▁vitamini	-10.3415
▁uygulanan	-10.3416
▁olmaktan	-10.3417
▁dilekçe	-10.3419
▁kuvvetli	-10.342
▁Kuvvet	-10.342
▁köyü	-10.3422
▁stratejik	-10.3426
84	-10.3426
▁girişimci	-10.3429
▁sahasında	-10.3429
▁Toplantı	-10.343
▁şarkıcı	-10.3437
▁güvenliğini	-10.344
▁ödülü	-10.3444
▁We	-10.3446
▁MA	-10.3448
▁filmin	-10.3448
▁okudu	-10.3454
▁öfke	-10.3456
▁Ümit	-10.3457
▁Yunus	-10.3457
▁Hak	-10.3457
▁Bozdağ	-10.3457
▁Bank	-10.3458
▁bağımlı	-10.3458
▁Alp	-10.3459
▁uyma	-10.346
▁duyma	-10.346
▁Soylu	-10.3461
▁çekerek	-10.3469
▁alırken	-10.3474
▁Wi	-10.3474
▁kentin	-10.3476
▁Kadınlar	-10.3477
▁üyelerinin	-10.3479
▁Birlik	-10.3481
▁iken	-10.3482
▁Tarihi	-10.3483
▁yemeği	-10.3483
▁itibar	-10.3484
baba	-10.3484
▁Sistemi	-10.3486
▁insanlara	-10.3488
▁savcılık	-10.3488
▁Hü	-10.3491
▁sürece	-10.3492
▁Yönetmen	-10.3498
▁maalesef	-10.3498
▁Resmi	-10.3498
▁resim	-10.3499
▁2018	-10.3505
▁şüpheliler	-10.3507
▁miktarda	-10.3507
▁ülkemizin	-10.3508
che	-10.351
▁yapmayı	-10.3511
▁olunca	-10.3513
▁başvur	-10.3514
▁Askeri	-10.3516
nüz	-10.3518
▁buluşan	-10.3519
▁boyun	-10.3519
▁km	-10.3529
▁kalmadı	-10.3531
▁vücut	-10.3533
▁geçtiği	-10.3533
▁Belki	-10.3536
▁öğrenme	-10.3537
▁hâkim	-10.354
▁İstihbarat	-10.354
▁kriter	-10.354
▁utan	-10.3541
▁operasyonlarda	-10.3542
▁Tra	-10.3543
▁Sonuç	-10.3545
▁oranda	-10.3551
▁beğen	-10.3555
▁Şubesi	-10.3559
IZ	-10.3562
▁Toplum	-10.3564
▁yıldan	-10.3565
▁kesimleri	-10.3566
▁Gar	-10.3575
▁sorumlusu	-10.3575
▁isti	-10.3576
▁Advocaat	-10.3582
▁Balıkesir	-10.3582
▁Oscar	-10.3582
▁köpek	-10.3582
▁muhtemel	-10.3582
▁lisans	-10.3582
▁fikri	-10.3583
▁sığın	-10.3583
leşen	-10.3586
▁çalıştır	-10.3587
▁Dağ	-10.3588
▁toplumsal	-10.3591
DU	-10.3591
▁pazarı	-10.3592
▁Hiç	-10.3596
▁peşinde	-10.3599
▁çıktığını	-10.3602
▁öngör	-10.3612
▁çalın	-10.3614
▁aktara	-10.362
▁ürünü	-10.3621
▁Eskişehir	-10.3624
▁forvet	-10.3624
▁cadde	-10.3624
▁Has	-10.3626
▁yükselen	-10.3629
▁şekli	-10.3632
▁milleti	-10.3632
▁Festivali	-10.3635
▁bazıları	-10.3637
▁kişiden	-10.3638
▁bulmak	-10.3639
▁haberleri	-10.3643
▁katılımcı	-10.3648
▁oynan	-10.3648
▁For	-10.3648
TL	-10.3649
▁kullanılması	-10.365
▁oyuncunun	-10.3651
47	-10.3655
▁isteyenler	-10.3655
▁Kahraman	-10.3667
▁Otomobil	-10.3667
ladıkları	-10.3667
▁danışma	-10.3667
▁stres	-10.3667
▁katliam	-10.3667
▁diliyorum	-10.3668
▁olabileceğini	-10.3672
meliyiz	-10.3672
▁Göç	-10.3672
▁ruhu	-10.3673
▁fırsatı	-10.3674
▁çiftçi	-10.368
▁set	-10.3683
▁51	-10.3686
▁burun	-10.3687
▁Brezilya	-10.3689
▁Din	-10.3692
▁görüşmeleri	-10.3693
▁türü	-10.3694
▁Sekreteri	-10.3696
▁hastalığın	-10.3697
ÜN	-10.3697
▁harekat	-10.3698
▁zamanlı	-10.3704
abil	-10.3704
31	-10.3705
▁düşmesi	-10.3707
UM	-10.3708
▁ayakkabı	-10.3709
▁popüler	-10.3709
▁başrol	-10.3711
▁etmedi	-10.3722
İST	-10.3722
▁81	-10.3724
kov	-10.3725
De	-10.3727
▁ismini	-10.3729
▁bölümde	-10.373
▁gündür	-10.3731
dipol	-10.3732
▁girişimine	-10.3736
Her	-10.3739
İYE	-10.3747
▁yönetiminin	-10.3748
Devlet	-10.3749
▁madalya	-10.3752
▁skandal	-10.3752
▁ulaşan	-10.3752
▁keyif	-10.3752
▁Organiz	-10.3752
▁Cenk	-10.3753
▁Oğuzhan	-10.3754
▁bakımından	-10.3755
▁düşme	-10.3755
▁Kış	-10.3756
▁ağzı	-10.3759
▁imam	-10.3761
▁yolculuğu	-10.3762
▁iddianame	-10.3766
▁Beni	-10.3769
▁yönetme	-10.3776
▁Öl	-10.3779
▁ilde	-10.3781
▁arasına	-10.3788
▁sıfır	-10.3795
▁anlatma	-10.3799
ras	-10.3799
▁laf	-10.3801
▁avukatları	-10.3803
▁seçimleri	-10.381
▁grupların	-10.3811
▁kalmış	-10.3813
▁Kırmızı	-10.3813
top	-10.3818
▁Özer	-10.3822
▁talimatı	-10.3823
▁albüm	-10.3824
amam	-10.3824
ddin	-10.3826
▁Tak	-10.3827
▁ağrısı	-10.3831
▁işveren	-10.3838
▁yüzlerce	-10.3841
▁alev	-10.3841
▁tepe	-10.3841
▁Birçok	-10.3841
lendiğini	-10.3842
▁Gaziantepspor	-10.3842
▁hazırladığı	-10.3843
▁gezi	-10.3849
▁sevin	-10.3853
▁şiddetli	-10.3855
▁uygulamaları	-10.3861
▁katlı	-10.3865
▁ettim	-10.3865
▁yardımcısı	-10.3865
▁milletimiz	-10.3866
27	-10.3869
▁OL	-10.387
ceği	-10.3871
▁oranları	-10.3875
▁yatırımları	-10.3878
▁SABAH	-10.3881
▁hücum	-10.3881
▁lezzet	-10.3881
▁sinyal	-10.3881
▁takdirde	-10.3882
ildiğini	-10.3883
▁senin	-10.3884
▁liderliği	-10.3888
▁olduğumuz	-10.3891
▁Ulu	-10.3894
▁Alper	-10.3901
▁oyuncuların	-10.3902
▁Dış	-10.3903
İŞ	-10.3906
▁Gerek	-10.3906
▁hukuki	-10.3906
▁Üniversite	-10.3907
▁başvurusu	-10.391
şik	-10.3911
▁başladığını	-10.3911
▁yazarı	-10.3914
mamış	-10.3914
NI	-10.3918
▁ayrılan	-10.3919
▁Sigorta	-10.3925
▁United	-10.3925
▁Kalkanı	-10.3925
▁söyleyerek	-10.3926
▁hizmetleri	-10.3928
▁şef	-10.3928
▁Kayserispor	-10.3928
▁eleman	-10.3929
▁Yan	-10.3934
▁siyasetçi	-10.3935
▁yürütül	-10.3937
▁ekiplerince	-10.3939
▁kullanmak	-10.394
▁puanla	-10.3942
▁sorusuna	-10.3944
uh	-10.3946
09	-10.3955
amadığı	-10.3957
▁dünyası	-10.3959
▁şer	-10.3959
▁sınırlı	-10.3961
▁cevabı	-10.3968
▁Basketbol	-10.3968
▁Kaymakam	-10.3968
▁yedek	-10.3968
üstü	-10.3969
▁kültürü	-10.3971
▁Kes	-10.3971
of	-10.3972
▁okur	-10.3972
▁unutma	-10.3977
▁gördüm	-10.3977
▁54	-10.3979
▁gelince	-10.3983
▁dağıtım	-10.3985
▁j	-10.3988
▁döner	-10.3993
▁Sak	-10.3995
ladığını	-10.4004
▁alanlarda	-10.4006
▁döv	-10.4009
▁egzersiz	-10.4012
▁Turkcell	-10.4012
▁Bekir	-10.4013
▁belirtiyor	-10.4013
▁kirli	-10.4017
▁par	-10.4018
▁derken	-10.4018
▁Hatay	-10.4022
▁üz	-10.4024
▁sözde	-10.4029
▁hassasiyet	-10.4029
layacağı	-10.4029
▁Erkan	-10.403
▁kalacak	-10.4031
▁hayatta	-10.4039
▁şehri	-10.4045
▁konuşmasında	-10.4046
▁edilmiştir	-10.4046
▁şahs	-10.4049
ston	-10.405
▁saatte	-10.4051
▁tez	-10.4055
û	-10.4056
▁doları	-10.4059
▁Fatma	-10.4061
▁kasaba	-10.4062
▁yapmıştı	-10.4068
tiğini	-10.4073
▁kapısı	-10.4073
▁geldiğinde	-10.4075
yordu	-10.4076
▁yönetimindeki	-10.408
▁Otel	-10.408
▁beklentileri	-10.4082
▁oyuna	-10.4085
▁ligin	-10.4086
▁çıkarılan	-10.4089
▁ifadesinde	-10.409
▁suçlu	-10.4092
▁herkese	-10.4094
▁kentte	-10.4097
▁atıldı	-10.4098
▁vizyon	-10.41
▁vakit	-10.4101
▁oynayacağı	-10.4101
rah	-10.4102
lenir	-10.4104
▁çıkmak	-10.4114
▁girer	-10.4117
▁insanlık	-10.4119
▁şunu	-10.4121
▁tartışıl	-10.4125
▁ailesinin	-10.4128
▁gönderdiği	-10.4129
▁Tuğ	-10.4132
▁hastalar	-10.4136
▁Mak	-10.4136
▁ailesine	-10.4136
▁tok	-10.4141
▁çap	-10.4143
▁hastalıklar	-10.4144
▁uçakları	-10.4144
▁kulübe	-10.4145
▁ucuz	-10.4146
▁oluşturdu	-10.4147
65	-10.4148
▁etkinliği	-10.4149
▁tamamlanması	-10.4151
▁yakalanması	-10.4152
▁to	-10.4152
▁07	-10.4152
▁olsaydı	-10.4153
▁Bakanlık	-10.4154
meyin	-10.4156
▁parayı	-10.4156
▁maaşı	-10.4157
▁bugünkü	-10.4158
▁BİR	-10.4159
▁kaldığını	-10.4162
▁Sarayı	-10.4164
▁kaldırıl	-10.4168
▁anlam	-10.4169
▁koşulları	-10.4172
▁Lisesi	-10.4181
▁üyeliği	-10.4181
▁abi	-10.4182
55	-10.4187
▁müziği	-10.419
▁borsa	-10.419
▁Bulut	-10.4191
▁damga	-10.4191
▁düzel	-10.4192
▁dönüm	-10.4198
▁saldırının	-10.4199
▁alıcı	-10.4201
▁ho	-10.4201
▁elinden	-10.4207
▁maçının	-10.4208
▁yağışlı	-10.4208
▁değerleri	-10.4218
▁dinleme	-10.4219
▁Sun	-10.4221
▁durdur	-10.4221
▁tecrübeli	-10.4221
▁elektronik	-10.4234
▁sponsor	-10.4234
▁akraba	-10.4234
▁cezaevine	-10.4234
▁dernek	-10.4235
nuzu	-10.4242
▁trafiği	-10.4243
org	-10.4244
▁kâr	-10.4244
▁kalır	-10.4245
▁olayla	-10.4248
▁albümü	-10.4249
▁savundu	-10.4253
▁rahatsızlık	-10.4255
▁Paralel	-10.4261
muştur	-10.4262
▁alanına	-10.4262
▁Asker	-10.4276
▁Ju	-10.4277
▁Cenevre	-10.4279
▁kalabalık	-10.4279
▁Ger	-10.4279
▁Kulüp	-10.4279
▁eşliğinde	-10.428
▁Kredi	-10.428
▁SA	-10.428
▁tanıma	-10.4281
▁müdürü	-10.4286
▁duruşu	-10.4288
▁Bah	-10.4291
▁yayınlandı	-10.4293
▁sokakları	-10.4293
▁öncelikle	-10.4296
arım	-10.4296
cısı	-10.4299
▁Oto	-10.43
İB	-10.43
▁sistemine	-10.4303
▁ihtimal	-10.4303
▁kanatta	-10.4307
▁düştüğü	-10.4308
▁Örgüt	-10.4308
▁takdir	-10.4309
▁kapatma	-10.4309
▁Geri	-10.4311
▁yurtdışında	-10.4318
▁otomobilin	-10.4318
▁üzül	-10.432
▁fileler	-10.4321
▁Ses	-10.4323
▁gidil	-10.4325
▁samimi	-10.4325
▁Piyasa	-10.433
▁demektir	-10.4333
▁kırıl	-10.4336
ros	-10.4337
▁ulaştığı	-10.4337
▁istediklerini	-10.4342
▁şahsın	-10.4342
▁maliyet	-10.4343
▁hastaların	-10.4345
▁Bölümü	-10.4345
lacivertli	-10.4348
01	-10.4349
abiliriz	-10.4356
▁metrekare	-10.4358
▁belirleme	-10.4364
▁altındaki	-10.4365
▁yaşta	-10.4366
▁oradan	-10.4369
▁cumhurbaşkanı	-10.437
▁füze	-10.437
▁zincir	-10.437
▁yaşanıyor	-10.4372
sınlar	-10.4372
▁uzay	-10.4373
▁kayyum	-10.4373
▁tarzı	-10.4374
▁Vatandaş	-10.4378
▁ölme	-10.4387
▁artışla	-10.4392
▁kaldırılan	-10.4394
▁çıkışı	-10.4397
▁vatandaşları	-10.4399
▁Çam	-10.44
▁uzmanı	-10.4401
laşması	-10.4405
▁saldırıyı	-10.4408
▁çalışmaya	-10.4409
▁değişme	-10.4409
▁sisteminin	-10.441
▁Çal	-10.4411
▁araştır	-10.4411
▁istendi	-10.4412
▁KOBİ	-10.4416
▁inşallah	-10.4416
▁enfeksiyon	-10.4416
efendi	-10.4416
diğinde	-10.4417
▁İnce	-10.4417
▁ahlak	-10.442
Yeni	-10.4422
▁Hep	-10.4422
▁parmak	-10.4424
▁başkanlığı	-10.4431
▁tarihte	-10.4432
▁çök	-10.4435
▁adamları	-10.4436
▁kurulması	-10.4436
▁kav	-10.4438
▁paylaşıl	-10.4439
▁görüşmelerin	-10.4446
▁İnsanlar	-10.445
▁ters	-10.445
▁78	-10.4453
▁imamı	-10.4455
▁Düz	-10.4457
▁başlandı	-10.4459
▁fırtına	-10.4462
▁Zeynep	-10.4462
bb	-10.4466
▁Serkan	-10.4468
▁böylece	-10.4469
▁hastalıkları	-10.4488
▁vaka	-10.4489
▁başkent	-10.4497
▁üstü	-10.4498
▁özen	-10.45
▁sistemini	-10.4504
racak	-10.4504
▁bireysel	-10.4508
▁kusur	-10.4508
▁Edirne	-10.4508
▁Gözaltın	-10.4508
Terör	-10.4509
▁bankalar	-10.4511
▁ihbarı	-10.453
▁Dava	-10.4531
▁dakikalarda	-10.4534
dışı	-10.4534
▁konuyu	-10.4537
▁Ah	-10.4542
▁iletti	-10.4545
▁diyorlar	-10.4546
▁kapatıl	-10.4548
▁mücadeleyi	-10.4551
▁başsağlığı	-10.4554
▁muayene	-10.4554
▁psikolojik	-10.4554
▁şarj	-10.4554
▁kanaat	-10.4554
ble	-10.4556
▁açığı	-10.4556
▁bakın	-10.4557
▁planlanan	-10.4563
şer	-10.4568
▁süreli	-10.4573
34	-10.4573
▁bulunmadığı	-10.4574
fik	-10.4574
▁Tanı	-10.4576
▁Şam	-10.4582
▁sorumluluğu	-10.4584
▁anti	-10.4584
▁Soru	-10.4584
▁Şii	-10.459
leyip	-10.4592
▁sır	-10.4593
▁Kongre	-10.4597
▁karşılığı	-10.4599
▁Tel	-10.46
▁dayanışma	-10.4601
▁Sınır	-10.4602
▁kesti	-10.4603
▁Kardeş	-10.4603
▁geriye	-10.4604
▁kuralları	-10.4611
▁kanlı	-10.4612
▁eseri	-10.4613
▁Cihan	-10.4615
▁geçerek	-10.4625
lüğünü	-10.4628
▁yazık	-10.463
▁ardı	-10.4632
▁Fed	-10.4632
▁galibiyeti	-10.4633
val	-10.4639
▁gazetecilerin	-10.4642
46	-10.4643
▁çalışmalarına	-10.4644
▁Orgeneral	-10.4647
▁disiplin	-10.4647
▁abone	-10.4647
▁bilinç	-10.4647
ACAK	-10.4649
▁Sh	-10.4649
▁Kişi	-10.4651
▁operasyonların	-10.4654
suzluk	-10.4662
▁Berat	-10.4665
▁49	-10.4665
▁kafe	-10.4666
▁geliri	-10.4671
ebilmek	-10.4673
seydi	-10.4677
▁67	-10.4679
▁sorunların	-10.468
▁öğret	-10.4682
▁fotoğrafları	-10.4685
▁Star	-10.4685
▁Cerablus	-10.4694
▁Parçalı	-10.4694
▁başlangıç	-10.4694
▁hendek	-10.4694
▁sabır	-10.4694
▁harika	-10.4694
▁Andre	-10.4695
Ankara	-10.4696
▁boy	-10.4697
▁çekiliş	-10.4697
▁kazanma	-10.4698
▁Rize	-10.4699
▁x	-10.4701
▁şehrin	-10.4702
terör	-10.4707
▁Portekizli	-10.4715
LERİ	-10.4716
▁oylama	-10.4716
mıyoruz	-10.4729
▁Dolar	-10.4729
▁kurmak	-10.473
▁kutlama	-10.4731
▁işleme	-10.4738
kuyu	-10.4738
▁Mert	-10.4739
▁firması	-10.474
▁form	-10.4741
▁kapsamlı	-10.4741
▁muhafaza	-10.4741
▁mahkum	-10.4741
▁sabit	-10.4741
▁yürürlüğ	-10.4742
▁Ağbal	-10.4742
▁karanlık	-10.4742
▁moral	-10.4745
▁katil	-10.4745
▁Cezaevi	-10.4746
▁konuşuyor	-10.4747
▁avro	-10.4749
▁vatandaşın	-10.4749
▁sakatlık	-10.4755
▁şut	-10.4755
▁Mah	-10.4756
▁kendimi	-10.4757
▁bölgenin	-10.4761
▁durdurma	-10.4766
▁karşıtı	-10.477
▁eline	-10.4771
▁geçiril	-10.4771
▁etrafında	-10.4774
▁durumlarda	-10.4778
▁bakanlık	-10.4778
▁edilmişti	-10.4784
▁kazandığı	-10.4784
▁bölümünü	-10.4786
▁kurumlar	-10.4788
q	-10.4788
CİHAN	-10.4789
▁konferans	-10.4789
▁vadeli	-10.4789
▁Cami	-10.479
▁kenti	-10.479
Suriye	-10.4791
▁canı	-10.4791
▁dökül	-10.4793
▁yazma	-10.4794
▁duruyor	-10.4796
▁subay	-10.4799
▁mutluluk	-10.4801
▁Pat	-10.4801
▁görünce	-10.4802
▁kimin	-10.4802
▁denk	-10.4811
▁bölgesel	-10.4812
▁Bölgede	-10.4824
▁yetersiz	-10.4829
▁takviye	-10.4836
▁verilerin	-10.4837
▁anlayış	-10.4838
Ekonomi	-10.4838
▁kolaylaştır	-10.484
▁Kandil	-10.4842
▁Dairesi	-10.4842
▁kalkınma	-10.4845
▁Zey	-10.485
36	-10.4851
miyoruz	-10.4852
▁cihazlar	-10.4853
▁getirildiği	-10.4856
▁çalışıl	-10.4858
▁çekilen	-10.4859
▁açıklamasını	-10.486
▁hesapları	-10.4863
▁çekildi	-10.4871
▁evli	-10.4871
MAN	-10.4874
▁Par	-10.4876
▁2000	-10.488
▁görsel	-10.4884
▁alınmış	-10.4885
▁ışığı	-10.4885
▁yürüt	-10.4887
▁indi	-10.4889
▁miting	-10.4889
▁geçmek	-10.4889
▁belirli	-10.4896
od	-10.4903
▁uzat	-10.4906
▁değerlendiren	-10.4907
▁hayatına	-10.4908
▁kala	-10.4911
▁yapabilir	-10.4919
▁edilir	-10.492
▁örgüte	-10.4922
▁Çık	-10.4924
▁kapasitesi	-10.4932
▁Astsubay	-10.4932
▁Ertuğrul	-10.4932
▁Çiçek	-10.4932
▁Efendi	-10.4932
▁gidiş	-10.4932
▁Önümüzdeki	-10.4932
▁Medya	-10.4933
▁Servis	-10.4933
▁tarihli	-10.4934
▁çapında	-10.4936
▁tanıştı	-10.4936
▁tutuklanan	-10.4937
▁girişi	-10.4939
▁musunuz	-10.4944
▁değişti	-10.4949
UZ	-10.4951
▁özgür	-10.4952
▁ederim	-10.4952
▁geçirmek	-10.4952
▁gazetecilere	-10.4955
▁sınavı	-10.4955
▁56	-10.4956
LARI	-10.496
▁kesinti	-10.4963
lıyız	-10.4963
▁beğeni	-10.4965
▁memnuniyet	-10.4971
▁bulunmak	-10.4972
▁taşıdığı	-10.4975
▁listesinde	-10.4975
gh	-10.4976
▁güncel	-10.4979
▁komutan	-10.498
▁şikâyet	-10.4981
▁Muğla	-10.4981
▁tavrı	-10.4981
▁lanet	-10.4981
▁oluşturuyor	-10.4984
▁fiziksel	-10.4984
▁olayların	-10.4985
▁Albay	-10.4985
geç	-10.4988
▁Güler	-10.4989
76	-10.4996
▁Mat	-10.4996
▁taraftarların	-10.4997
▁çözümü	-10.4999
▁istenen	-10.5
log	-10.5001
▁devir	-10.5002
▁yitirdi	-10.5004
▁sığınmacılar	-10.5005
▁Hepsi	-10.5012
▁derdi	-10.5012
▁Adil	-10.5018
▁Çay	-10.5018
▁emri	-10.5019
▁moda	-10.5019
▁trafiğ	-10.5019
▁gelişmiş	-10.5023
İYOR	-10.5023
▁Uzmanı	-10.5024
▁bahar	-10.5026
▁üs	-10.5027
▁Quaresma	-10.5029
▁ihmal	-10.5029
red	-10.503
▁Esen	-10.5031
▁boğul	-10.5031
▁değişiklikler	-10.5031
▁Tim	-10.5038
▁hakkındaki	-10.5041
▁Dal	-10.5042
▁tedbirler	-10.5047
▁başlıklı	-10.5047
▁koyduğu	-10.505
85	-10.5052
▁giriyor	-10.5057
▁serisi	-10.5062
DER	-10.5063
▁aldıklarını	-10.5065
▁sokakta	-10.5073
▁ekim	-10.5077
▁pasaport	-10.5078
▁yürek	-10.5078
çavuş	-10.5078
▁seçimi	-10.5079
▁yapılır	-10.508
▁hissetti	-10.508
▁vuruşunda	-10.508
terapi	-10.5081
▁Sol	-10.5085
▁Tosun	-10.5087
▁kısmını	-10.5087
▁öngörül	-10.5089
▁bilmiyor	-10.5101
▁Katar	-10.5106
▁Hakları	-10.5106
▁Süre	-10.5111
▁Yolu	-10.5111
▁geçmişte	-10.5122
▁minibüs	-10.5127
▁İşletme	-10.5127
▁alçak	-10.5128
▁VE	-10.513
▁gönüllü	-10.5134
▁gerçekleştiren	-10.5135
▁memleketi	-10.5137
▁değerlendirdi	-10.5144
▁yönü	-10.5145
▁yakalanan	-10.5152
▁Araç	-10.5157
▁durdu	-10.5157
▁TEM	-10.5159
▁uygulanması	-10.5161
▁yeti	-10.5164
▁çevril	-10.5176
▁İstiklal	-10.5176
▁Yabancı	-10.5176
▁SGK	-10.5176
▁nakli	-10.5177
▁cezasına	-10.5187
▁hayati	-10.5194
▁hane	-10.5194
▁Rapor	-10.5195
▁kedi	-10.5197
▁görüşmesi	-10.5197
▁Adam	-10.5198
▁cerrahi	-10.5203
▁Görev	-10.5209
▁geçer	-10.5209
İş	-10.521
▁yatırımcılar	-10.5213
▁yaralandığı	-10.5215
▁alındığını	-10.5219
▁GÖ	-10.5219
▁Camii	-10.5221
▁müttefik	-10.5226
▁kilogram	-10.5226
▁Levent	-10.5226
▁blok	-10.5226
▁yurd	-10.5226
▁somut	-10.5227
Rusya	-10.523
▁karşılıklı	-10.5233
▁bölgelerinde	-10.5234
▁Kızılay	-10.5236
▁Büyükelçisi	-10.5237
▁yaşadıkları	-10.5237
▁Müslümanlar	-10.5242
▁Kadir	-10.5244
▁duran	-10.5249
▁dönemlerde	-10.5259
▁durumunun	-10.5261
▁63	-10.5264
Dön	-10.5264
▁gerekse	-10.5268
mayacağız	-10.527
▁saldırıya	-10.5273
▁Oğuz	-10.5273
▁DO	-10.5275
▁yağış	-10.5275
′	-10.5276
▁Elektrik	-10.5276
▁Artvin	-10.5276
▁Boğaz	-10.5276
▁Muhammet	-10.5276
▁şahit	-10.5276
▁nefret	-10.5276
▁TRT	-10.5276
▁santral	-10.5276
▁Biden	-10.5279
▁götürdü	-10.5279
▁liman	-10.5279
▁muhabiri	-10.528
▁kasa	-10.5281
▁düşünüyoruz	-10.5283
▁erişim	-10.5285
diğiniz	-10.5287
▁kültürel	-10.5287
▁içme	-10.5289
▁aylarında	-10.529
▁oynat	-10.529
▁kararının	-10.5293
▁oturum	-10.5293
▁kullanılma	-10.5293
lemiş	-10.5293
▁çalışanların	-10.5293
▁Projesi	-10.5295
▁amaçla	-10.5296
▁verileri	-10.5296
▁binanın	-10.5299
▁özür	-10.5306
▁ilçesine	-10.5309
MI	-10.531
▁ülkeden	-10.5312
▁firmalar	-10.5317
▁namaz	-10.532
▁adayları	-10.5322
▁kalite	-10.5322
▁istemiyle	-10.5326
▁başlattığı	-10.5326
▁yöntemler	-10.5329
▁oluşuyor	-10.533
▁üssü	-10.533
▁göstermek	-10.5331
▁Dar	-10.5334
▁alımı	-10.5339
▁sunduğu	-10.5342
▁darbeci	-10.5347
▁ziyaretçi	-10.5348
▁inancı	-10.5349
06	-10.535
▁800	-10.5351
▁olmaları	-10.5353
▁Mac	-10.5354
▁devrim	-10.5354
▁yaklaştı	-10.5355
▁bebeğin	-10.5364
▁tekne	-10.5368
▁Yazı	-10.5369
▁alınmıştı	-10.5375
▁dördüncü	-10.5376
▁şehidin	-10.5376
▁zehir	-10.5376
▁muhteşem	-10.5376
▁çadır	-10.5376
▁yakıt	-10.5376
▁psiko	-10.5377
X	-10.538
ting	-10.5381
▁Kazada	-10.5386
▁genişlet	-10.5387
▁azından	-10.5392
▁emir	-10.5392
▁adresi	-10.5395
▁savaşın	-10.5396
▁bez	-10.5399
▁faydalan	-10.54
▁olduğundan	-10.5405
▁tarafında	-10.5405
▁artıyor	-10.5414
kor	-10.5423
Q	-10.5426
▁Mevlüt	-10.5426
▁İspanyol	-10.5426
▁geleneksel	-10.5426
▁Öksüz	-10.5426
▁Münih	-10.5426
▁sunucu	-10.5426
▁idman	-10.5426
▁Kanada	-10.5429
▁Zafer	-10.5429
▁elimizde	-10.5432
▁düzenleyen	-10.5432
▁militan	-10.5433
▁söylemek	-10.5434
▁okulların	-10.5434
▁milyonlarca	-10.5437
▁sundu	-10.5439
▁sürecinin	-10.5439
▁İngilizce	-10.5443
▁amir	-10.5447
▁planları	-10.5448
▁Toplam	-10.5449
▁sınırında	-10.5451
▁imkân	-10.5452
▁hareketli	-10.5457
▁miras	-10.5458
▁fiyatlarında	-10.5459
▁00	-10.5468
▁yılına	-10.5472
▁baktığı	-10.5473
▁66	-10.5477
▁mevzi	-10.5477
▁mutabakat	-10.5477
▁uyruklu	-10.5477
▁Tunceli	-10.5477
▁Kerry	-10.5477
▁galip	-10.5477
▁bizzat	-10.5477
▁koltuğu	-10.5477
▁cezaevinde	-10.5477
jen	-10.5479
▁çoğunluğu	-10.548
▁Birleşi	-10.5481
▁hızlandır	-10.5484
▁hazırlanıyor	-10.5487
tetik	-10.5487
▁isyan	-10.5488
▁Final	-10.5492
▁hikaye	-10.5494
▁değiliz	-10.5496
▁Konut	-10.5496
ABD	-10.5497
▁eserleri	-10.55
▁vesile	-10.55
44	-10.5502
▁eleştiriler	-10.5519
▁çiftin	-10.552
▁yüzünü	-10.5522
▁şebeke	-10.5528
▁sembol	-10.5528
▁Sınav	-10.5529
▁mikro	-10.553
▁değerlendirmesi	-10.5533
▁öp	-10.5533
yeceğini	-10.5536
▁Hanım	-10.5541
▁kıyasla	-10.5543
▁içeriği	-10.5549
▁Rum	-10.555
▁sil	-10.5552
▁onlarca	-10.5554
stro	-10.5557
CI	-10.5559
▁plana	-10.556
▁durdurul	-10.556
▁1.2	-10.5567
▁ajan	-10.5572
▁Kas	-10.5573
▁gazi	-10.5578
▁Neden	-10.5579
▁bunlara	-10.5579
▁toprakları	-10.5579
▁söndür	-10.5579
▁randevu	-10.5579
▁İnternet	-10.5579
▁Doğru	-10.5579
▁piyasaya	-10.558
▁Düşü	-10.5581
bor	-10.5586
▁gelişimi	-10.5589
Bugün	-10.5592
▁Ercan	-10.5595
▁Köse	-10.5596
bilme	-10.5598
▁söylemişti	-10.5604
ruk	-10.5607
▁yapılanması	-10.5608
▁dünyasında	-10.5609
▁doğan	-10.5612
▁camia	-10.5616
32	-10.5617
▁verilmiş	-10.5618
loji	-10.562
▁geçişi	-10.5624
▁şoförü	-10.5627
▁Android	-10.5631
▁referandum	-10.5631
▁Mutlu	-10.5631
▁azaltma	-10.5631
▁AVM	-10.5631
▁Celal	-10.5631
▁kumpas	-10.5632
▁sanıklar	-10.5638
38	-10.5643
▁çıkarmak	-10.5644
▁belgesi	-10.5646
▁giderken	-10.5648
▁sektörünün	-10.5649
▁eşinin	-10.5652
▁çocuklara	-10.5654
▁anlaştı	-10.5657
▁ailenin	-10.5657
▁sürdüren	-10.5658
▁girmek	-10.5658
▁detaylar	-10.567
▁Kazan	-10.5672
▁Yo	-10.5679
▁Çift	-10.568
▁aktivite	-10.5683
▁Adnan	-10.5683
▁Petrol	-10.5684
▁mevzuat	-10.5685
▁dönük	-10.5686
▁neticesinde	-10.5686
▁golle	-10.5688
▁üretme	-10.5689
lamıştı	-10.5689
▁Sevgili	-10.569
▁gerekmektedir	-10.5691
▁terörün	-10.5694
▁seviyesine	-10.5695
▁renkli	-10.5695
▁getirerek	-10.5698
▁arttığı	-10.5699
▁dünyasının	-10.57
▁önünü	-10.5701
▁doğumlu	-10.5701
▁dışındaki	-10.5702
▁etkileri	-10.5704
▁59	-10.571
41	-10.571
08	-10.5711
▁Zirvesi	-10.5718
▁yıllarında	-10.5722
▁çalıştığını	-10.5723
▁düşürme	-10.5723
▁yaşamı	-10.5726
▁Yaz	-10.5728
ESİ	-10.5732
▁araçta	-10.5734
▁fizik	-10.5734
▁Müsteşar	-10.5735
▁hormon	-10.5735
▁Muharrem	-10.5735
▁Telekom	-10.5735
▁Vakıf	-10.5735
▁mühimmat	-10.5735
▁tebrik	-10.5735
▁radyo	-10.5735
▁bağlantısı	-10.5737
▁Yerli	-10.5739
▁semt	-10.5739
▁kullanıldı	-10.5739
▁boşanma	-10.5743
▁izleyen	-10.5745
▁ajansı	-10.5745
61	-10.5748
abildi	-10.575
▁tutun	-10.5754
Kur	-10.5756
▁ellerinde	-10.576
49	-10.576
bahar	-10.5761
▁sakinleri	-10.5762
▁Kurum	-10.5766
▁Zor	-10.5768
▁saatlerde	-10.5768
▁uygulamaya	-10.5777
▁üretil	-10.5778
▁karşılaşmada	-10.5779
▁ondan	-10.578
▁ağabeyi	-10.5781
▁kıy	-10.5783
lıyoruz	-10.5785
·	-10.5787
▁bonservis	-10.5787
▁tehdidi	-10.5787
▁Avukat	-10.5787
▁manzara	-10.5787
▁müjde	-10.5787
lacağı	-10.579
▁yeter	-10.5791
▁çekici	-10.5793
▁araçla	-10.5798
▁evden	-10.5798
▁oluşturma	-10.5802
▁Özcan	-10.5802
▁maçlarda	-10.5805
▁alama	-10.5809
▁projenin	-10.5811
▁işlemler	-10.5814
▁sunulan	-10.5816
▁yönetiminde	-10.5822
▁yoluna	-10.5822
▁teşebbüs	-10.5823
▁babasının	-10.5824
▁sayısında	-10.5832
▁Şeh	-10.5834
▁testi	-10.5838
▁işadamları	-10.584
▁zırhlı	-10.584
▁ufak	-10.584
▁Tugay	-10.584
▁Karşılaşma	-10.5844
▁Direktör	-10.5847
▁araştırmalar	-10.5857
▁kişilere	-10.5858
▁gönderilen	-10.5863
▁okula	-10.5865
▁Tekin	-10.5866
▁ortağı	-10.5866
▁kardeşleri	-10.5869
▁falan	-10.5877
▁aşamasında	-10.5878
▁görür	-10.5885
▁kazanç	-10.5886
▁ah	-10.5886
▁geleceğini	-10.5886
▁ülkelere	-10.5888
▁değilim	-10.5888
▁uğur	-10.5891
▁dans	-10.5892
▁Elazığ	-10.5893
▁otomotiv	-10.5893
▁litre	-10.5893
▁Sabri	-10.5893
▁tansiyon	-10.5893
▁Taraftar	-10.5893
▁akışı	-10.5897
▁yardımı	-10.5898
▁duygusal	-10.5899
▁sarf	-10.59
-19	-10.59
▁üstün	-10.5901
▁medyası	-10.5901
▁biten	-10.591
▁nöbet	-10.5912
▁Okulu	-10.5912
▁tas	-10.5915
lacivertliler	-10.5918
▁yanıtladı	-10.592
▁eriş	-10.5923
ümü	-10.5923
▁başlamıştı	-10.5927
▁Saf	-10.5931
▁İŞ	-10.5931
▁cild	-10.5933
Şu	-10.5934
▁korun	-10.5938
▁gönül	-10.5938
▁futbolcunun	-10.5941
▁Bit	-10.5943
▁Asayiş	-10.5946
▁Bingöl	-10.5946
▁Olimpiyat	-10.5946
▁Doktor	-10.5946
▁roket	-10.5946
▁emanet	-10.5946
▁Ermeni	-10.5946
▁otorite	-10.5946
▁verildiği	-10.595
kara	-10.5954
▁finale	-10.5955
▁kül	-10.5958
▁hatırlattı	-10.5959
▁emeklilik	-10.5959
▁yolculuk	-10.5962
▁kaba	-10.5966
▁konuya	-10.5976
▁belgeler	-10.5977
▁boya	-10.598
▁58	-10.5981
▁Doğa	-10.5982
ografi	-10.5984
▁merkezleri	-10.5986
▁İste	-10.5994
▁57	-10.5997
▁uzmanlar	-10.5999
▁Sorumlu	-10.5999
▁pahalı	-10.5999
▁bulgu	-10.6
▁Anlaşma	-10.6001
▁kazası	-10.6002
▁Ulaştırma	-10.6004
▁paylaştığı	-10.6004
▁bilmiyorum	-10.6006
▁olmasa	-10.6007
▁benzin	-10.6009
▁yakalay	-10.601
▁etmektedir	-10.6011
▁hacmi	-10.6018
başka	-10.6018
▁gemisi	-10.6018
▁kazanmak	-10.6019
▁sıcaklık	-10.6025
sch	-10.6027
▁çıkardığı	-10.6027
▁içeride	-10.6028
▁Vatan	-10.603
▁katkısı	-10.6031
▁konumunda	-10.6033
beyazlılar	-10.6038
▁çıkmıştı	-10.604
▁Başsavcı	-10.604
▁vermeyi	-10.6041
▁başvurdu	-10.6043
▁başlığı	-10.6046
▁sıcaklığı	-10.6047
▁Daire	-10.6047
Baş	-10.605
▁700	-10.605
▁tarz	-10.605
▁özetle	-10.6052
▁Avustralya	-10.6053
▁Tesisleri	-10.6053
▁böbrek	-10.6053
▁Hareket	-10.6053
▁oraya	-10.6054
▁anında	-10.6056
▁şampiyonluğu	-10.6056
bol	-10.6058
▁mart	-10.6058
▁Polat	-10.6059
▁Evli	-10.6061
▁bilimsel	-10.6061
48	-10.6063
meyeceğini	-10.6064
▁koşu	-10.607
malıyız	-10.6076
▁Fuarı	-10.6087
▁Yönetimi	-10.6091
42	-10.6092
▁Galaxy	-10.6107
▁Turgut	-10.6107
▁kökenli	-10.6107
▁otopsi	-10.6107
▁Tasarı	-10.6108
▁Pınar	-10.6108
▁komp	-10.6108
▁Emir	-10.6111
▁metro	-10.6111
▁sayısını	-10.6112
▁seviyede	-10.6113
▁edilirken	-10.6114
▁buluşma	-10.6114
ph	-10.6116
▁gr	-10.6121
▁golcü	-10.6121
▁oynaya	-10.613
▁etkisini	-10.6131
▁ameliyatı	-10.6131
▁gördüğünü	-10.6133
▁üstünlüğü	-10.614
▁1,5	-10.6141
▁ağlar	-10.6146
off	-10.6149
▁tarihe	-10.6158
▁Müzesi	-10.6162
▁layık	-10.6162
▁ilerleyen	-10.6162
▁Tatlı	-10.6162
▁Uz	-10.6162
▁Yakın	-10.6166
▁çalışırken	-10.6168
▁kayded	-10.6169
▁2006	-10.6172
▁kanat	-10.6172
▁bot	-10.6175
▁harekatı	-10.6176
▁Kamer	-10.6176
▁dergisi	-10.618
▁anket	-10.6182
▁belgeleri	-10.6185
▁ideal	-10.6189
▁değişik	-10.619
▁başarısı	-10.6197
mavili	-10.6197
▁Zeki	-10.62
▁artırma	-10.6201
▁temsilci	-10.6206
▁Musa	-10.6214
▁cesaret	-10.6216
▁masraf	-10.6216
▁HABER	-10.6216
▁Destek	-10.6216
▁Üstelik	-10.6216
▁Batman	-10.6216
▁Alex	-10.6216
▁çekin	-10.6231
▁katılacak	-10.6233
▁girmiş	-10.6233
82	-10.6237
▁başlamış	-10.6238
▁mesajlar	-10.6238
▁isterim	-10.6238
▁başkanları	-10.6239
▁Pek	-10.6244
▁62	-10.6245
▁76	-10.6248
▁iyice	-10.6252
▁çalışmalarının	-10.6255
▁Kut	-10.626
▁çözme	-10.6262
▁1-1	-10.6263
▁kategori	-10.6264
▁siyasetin	-10.6265
37	-10.6267
ılırken	-10.6271
▁heykel	-10.6271
▁iftira	-10.6271
▁Görüşme	-10.6271
▁görmüş	-10.6271
▁çukur	-10.6271
▁herkesi	-10.6272
▁maçını	-10.6272
▁adliyey	-10.6277
▁bahane	-10.6277
▁İmam	-10.6278
yıldız	-10.6281
▁satma	-10.6283
▁bozma	-10.6284
▁kayıtlı	-10.6285
▁2.5	-10.6293
▁boşa	-10.6295
▁filmde	-10.6295
▁programında	-10.63
▁zamanında	-10.63
▁çıkarken	-10.6305
▁fiyatlar	-10.631
▁görüldüğü	-10.6313
▁katma	-10.6314
gerçekleştirdiği	-10.6321
LIK	-10.6321
▁platform	-10.6325
▁Körfez	-10.6326
▁müthiş	-10.6326
ÜL	-10.6327
▁masum	-10.6327
TÜRK	-10.6328
▁Yüksekova	-10.6329
▁atıyor	-10.633
▁açıklamıştı	-10.633
▁sanki	-10.6331
▁çekmek	-10.6331
▁Tut	-10.6332
▁Sto	-10.6336
▁şikayetçi	-10.6336
▁dayalı	-10.6337
▁hattında	-10.6337
▁tarihine	-10.6337
▁Patlama	-10.6337
+1	-10.6342
▁82	-10.6347
▁görüşmede	-10.635
▁Esra	-10.635
▁mimar	-10.6351
▁aksine	-10.6356
▁mahkemece	-10.6357
amayacağı	-10.6359
▁detayları	-10.6361
▁besin	-10.6362
▁sisteme	-10.6366
birinden	-10.6366
▁gide	-10.6371
▁muhalifler	-10.6371
▁seviyesini	-10.6372
▁sıkıntılar	-10.6373
▁çıkmaya	-10.6374
▁Gümrük	-10.6382
▁gayrimenkul	-10.6382
▁suretiyle	-10.6382
▁sıvı	-10.6382
▁taşıdı	-10.6382
▁Messi	-10.6383
▁Seçim	-10.6383
▁uygulanacak	-10.6383
▁sizler	-10.6385
▁indirimi	-10.6386
▁veriliyor	-10.6388
▁başlık	-10.6388
▁Pri	-10.6389
▁görülebil	-10.6389
abilme	-10.639
▁Onu	-10.6394
▁boyutu	-10.6394
▁2003	-10.6397
▁aydır	-10.6402
umuzu	-10.6402
▁Tarih	-10.6404
▁açıklayan	-10.6407
▁düşünen	-10.6407
▁hayırlı	-10.641
▁sevgilisi	-10.6412
▁yöne	-10.6417
▁kadını	-10.6417
▁adaylar	-10.6425
▁futbolun	-10.6426
▁çıkacağı	-10.6435
▁seni	-10.6435
lanmıştır	-10.6437
▁Bakırköy	-10.6438
▁hafıza	-10.6438
▁Peygamber	-10.6438
▁yorgun	-10.6438
▁Diyanet	-10.6438
▁biliniyor	-10.6439
▁adıyla	-10.644
▁hayali	-10.6442
▁okullar	-10.6442
▁atarak	-10.6443
▁sürüldü	-10.6443
▁Pas	-10.645
▁kaptan	-10.645
YE	-10.645
▁sevgili	-10.6451
▁Akif	-10.6455
▁bulunmuştu	-10.6455
▁eleme	-10.6456
▁durdurulması	-10.6456
▁duyur	-10.6463
▁mes	-10.6464
ilir	-10.6464
▁katında	-10.6466
▁pil	-10.6467
▁anlaş	-10.6475
▁piyasada	-10.6478
▁birlikleri	-10.6478
▁takımının	-10.6478
▁güzellik	-10.6479
▁nüfusun	-10.648
▁saldırdı	-10.6487
▁faydalı	-10.6491
▁Satış	-10.6494
▁Hedef	-10.6495
▁hariç	-10.6496
▁denilen	-10.6497
▁oğlunu	-10.6498
▁başlatıl	-10.6498
leyeceği	-10.6499
▁muhaliflerin	-10.65
▁Çayk	-10.6506
▁köyünde	-10.6506
▁pozisyonu	-10.6506
▁tehlikesi	-10.6508
▁sürecek	-10.6509
▁ettiğimiz	-10.6512
▁İlhan	-10.6516
▁bilir	-10.6516
gal	-10.6516
▁gitmiş	-10.6519
kent	-10.652
▁veriyoruz	-10.6521
▁gerilim	-10.6521
▁ekiplerine	-10.6522
▁kaldırıldığı	-10.6523
▁inanç	-10.6525
▁yapama	-10.6527
lenebilir	-10.6527
▁ağırlık	-10.6527
▁61	-10.6537
▁virüs	-10.6538
▁meme	-10.654
▁Hakim	-10.6543
▁kavuştu	-10.6547
▁tutum	-10.6547
▁Karşıyaka	-10.655
▁detaylı	-10.6551
▁Başkent	-10.6552
▁bankacılık	-10.6555
▁Engin	-10.6555
▁hapse	-10.6556
▁sahneye	-10.6557
▁mülk	-10.656
▁derbisi	-10.6563
▁yargılama	-10.6565
▁etken	-10.6577
▁79	-10.6579
▁Akıncı	-10.6584
▁işsizlik	-10.6585
▁örtü	-10.6585
▁hırsız	-10.6592
▁desteğiyle	-10.6592
▁Arka	-10.6595
2015	-10.6597
▁konumu	-10.6599
▁propagandası	-10.6603
▁hitap	-10.6607
▁protokol	-10.6607
▁Kalkınma	-10.6607
▁sekiz	-10.6608
▁perde	-10.6609
▁Ağrı	-10.661
▁yönelt	-10.661
▁gelişen	-10.6623
▁sürecini	-10.6624
▁edileceği	-10.6628
▁cezalandırılma	-10.6646
▁yüzey	-10.6649
▁iyileşme	-10.6652
▁azaldı	-10.6654
▁liderleri	-10.6655
▁ihtiyacımız	-10.6658
▁Podolski	-10.6664
▁çiçek	-10.6664
▁OHAL	-10.6664
▁mağlubiyet	-10.6664
▁kimyasal	-10.6664
▁eğilim	-10.6664
▁konvoy	-10.6665
que	-10.6665
▁duyarlı	-10.6665
▁şüphesi	-10.6667
▁beklentisi	-10.6669
▁sunan	-10.6671
▁kör	-10.6672
▁Filistin	-10.6672
▁2004	-10.6679
▁Sezon	-10.6679
▁söylüyorum	-10.6684
▁arıyor	-10.6687
-10	-10.6694
▁Camisi	-10.6695
▁suçlarından	-10.6696
▁evlerinde	-10.6699
▁kavram	-10.6699
leştirilmesi	-10.6705
▁öldüğü	-10.6706
▁özgü	-10.6709
▁yetme	-10.6713
▁firmaların	-10.6716
▁Değer	-10.6718
▁Cha	-10.672
▁Komitesi	-10.6722
▁basketbol	-10.6722
▁cumartesi	-10.6722
▁Erdal	-10.6723
▁sayede	-10.6724
▁kampı	-10.6725
▁eksikliği	-10.6731
▁idi	-10.6735
▁Kars	-10.6737
▁Bürosu	-10.6739
▁Bolu	-10.674
▁kral	-10.6744
▁hücreleri	-10.6751
ÜZ	-10.6757
▁Doç	-10.6759
Siz	-10.676
▁dilim	-10.6765
▁73	-10.6767
lanıp	-10.6778
▁apartman	-10.678
▁küfür	-10.678
▁İLGİL	-10.678
▁İddiay	-10.678
▁gözyaşı	-10.678
▁09.00	-10.678
amayacağını	-10.678
▁mekanizma	-10.678
▁ideoloji	-10.6781
▁sözcüsü	-10.6781
▁evinin	-10.6781
▁Köy	-10.6782
▁akım	-10.6782
▁manevi	-10.6782
▁düşüyor	-10.6783
▁toz	-10.6783
▁sıkıştı	-10.6783
▁öldürülen	-10.6788
▁hissi	-10.6788
▁ağı	-10.6788
▁darbeciler	-10.6797
▁yansıdı	-10.6797
▁yuvarlak	-10.6798
▁varil	-10.68
▁beden	-10.6801
▁markası	-10.6805
üştü	-10.6809
▁açıklanan	-10.6809
Bizim	-10.681
▁bıraktığı	-10.6814
▁eksi	-10.6822
▁akademisyen	-10.6826
▁kesme	-10.683
▁EN	-10.6834
▁Meteoroloji	-10.6838
▁Silopi	-10.6838
▁Tuğgeneral	-10.6838
▁tüp	-10.6838
▁cihazı	-10.6839
▁hikâye	-10.6845
43	-10.6846
▁Adem	-10.6847
▁bebeği	-10.6851
▁geçeceği	-10.6855
▁anlaşmaya	-10.6858
▁şüphelilerin	-10.6861
▁Diş	-10.6861
68	-10.6862
▁uygulanma	-10.6864
▁savunan	-10.6865
şah	-10.6869
▁söyler	-10.6875
▁koku	-10.6876
▁lirayı	-10.688
▁ölç	-10.6887
▁beslen	-10.6893
▁09	-10.6894
▁dükkan	-10.6896
▁siyasal	-10.6896
▁robot	-10.6896
▁nitelendir	-10.6896
▁Muslera	-10.6897
▁Rıza	-10.6897
▁Trafik	-10.6897
▁getirecek	-10.6898
▁bilgisini	-10.6901
66	-10.6901
▁paylaşma	-10.6903
▁YAP	-10.6904
▁kısım	-10.6904
▁karşılama	-10.6912
▁gittiğini	-10.6914
allah	-10.6915
LU	-10.6915
▁Özkan	-10.6919
▁Temsilcisi	-10.6919
▁yardımıyla	-10.692
▁AY	-10.6922
▁artırmak	-10.6929
59	-10.6935
▁yaralılar	-10.6936
▁anlaşıldı	-10.6938
▁sattı	-10.6941
▁oynar	-10.6944
▁uzan	-10.6944
▁arkadaşlarımız	-10.6947
▁Sinema	-10.6948
▁Arjantin	-10.6955
▁Instagram	-10.6955
▁Elbette	-10.6955
▁ömür	-10.6955
▁barındır	-10.6955
▁Mir	-10.6957
▁duyduk	-10.696
▁Bahçe	-10.6963
▁maçına	-10.6965
▁kabin	-10.6966
▁büyümesi	-10.6972
▁sakatlığı	-10.6973
▁çizdi	-10.6977
▁Ordusu	-10.6986
dor	-10.6987
▁Önceki	-10.6988
▁Ortak	-10.6994
▁69	-10.6994
▁rakipleri	-10.6995
▁yarattığı	-10.6999
▁kadrosunda	-10.6999
▁satır	-10.7002
ilebilir	-10.7004
kuş	-10.7008
▁06	-10.7011
▁gelmeye	-10.7011
▁sitesinden	-10.7014
▁İddianame	-10.7014
▁İlişkiler	-10.7014
▁Dört	-10.7014
▁yapılacağı	-10.7015
▁uzaklaştı	-10.7016
▁beste	-10.7018
83	-10.7018
▁vuruldu	-10.7019
▁Nihat	-10.702
▁Mimar	-10.7022
xx	-10.7022
mazsa	-10.7028
▁yöneticisi	-10.7028
ARI	-10.7028
PKK	-10.7028
▁filmleri	-10.703
▁hassas	-10.705
▁ağırlığı	-10.7056
lıyorum	-10.7056
ılıp	-10.7061
▁memleket	-10.7062
▁kalkış	-10.7065
▁Enstitüsü	-10.7074
▁Sabancı	-10.7074
▁Şehidin	-10.7074
▁gecikme	-10.7074
▁manşet	-10.7074
▁koltuk	-10.7074
▁rengi	-10.7074
▁olmuyor	-10.7076
▁Yarışma	-10.7077
▁Ersoy	-10.7078
lendirdi	-10.7081
▁alet	-10.7082
▁öncü	-10.7086
▁okulun	-10.7098
▁töreninde	-10.711
▁Say	-10.7114
▁gazeteciler	-10.7115
▁ihlali	-10.7119
ksızın	-10.7123
▁bildiril	-10.7124
▁Vatandaşlar	-10.7125
▁dostu	-10.7128
▁Yara	-10.7133
▁alakalı	-10.7134
▁market	-10.7134
SPOR	-10.7134
▁Şampiyonası	-10.7135
▁yaşamak	-10.7136
▁yazan	-10.7136
▁aranan	-10.7138
▁Kurban	-10.7138
54	-10.7139
▁karışık	-10.7139
▁olabilecek	-10.714
▁vadede	-10.7141
▁görevlendiril	-10.7142
Fenerbahçe	-10.7148
▁Özal	-10.7151
şir	-10.7155
▁işten	-10.7161
▁kanama	-10.7162
▁yılbaşı	-10.7169
▁alarm	-10.7176
▁Wil	-10.7179
▁almayı	-10.7181
▁tatili	-10.7181
▁önlemler	-10.7186
▁Eto	-10.7187
▁paylaşımı	-10.7188
▁kurs	-10.7193
57	-10.7193
▁sigortası	-10.7194
▁Uygulama	-10.7194
▁Yiğit	-10.7194
▁tweet	-10.7194
▁çöp	-10.7194
▁David	-10.7194
▁Mesut	-10.7194
▁cevabını	-10.7195
▁haklarını	-10.7196
▁Vergi	-10.7198
▁Hayatı	-10.7198
▁karakol	-10.7199
▁ulaşama	-10.72
doğan	-10.72
▁ilaçlar	-10.72
▁&	-10.7201
üğü	-10.7214
▁83	-10.7219
▁riskini	-10.7221
▁Mc	-10.7223
▁oturma	-10.7223
▁Onların	-10.7224
▁zorluklar	-10.7225
71	-10.7227
▁geçtiğini	-10.7234
ight	-10.7251
▁64	-10.7254
▁FIFA	-10.7255
▁bilinmeyen	-10.7256
Federal	-10.7257
▁teknolojisi	-10.7258
▁bakar	-10.7265
▁uyumlu	-10.7266
kapı	-10.7267
▁göstererek	-10.7271
▁üretilen	-10.7273
▁bulunul	-10.7277
▁01	-10.7285
▁ulaşmak	-10.7286
▁yürütme	-10.7288
▁kaliteli	-10.7288
▁tadı	-10.729
▁çıkaran	-10.729
▁tasarı	-10.7302
▁güçlerine	-10.7302
▁seyir	-10.7303
▁planlıyor	-10.7308
▁edilebilir	-10.7308
▁Kuş	-10.7312
79	-10.7314
▁Yargı	-10.7315
▁tüfek	-10.7316
▁Chris	-10.7316
▁bakıldığında	-10.7316
▁Üssü	-10.7316
▁şifa	-10.7316
▁Hazine	-10.7316
▁nereye	-10.7316
▁görmedi	-10.7317
▁programları	-10.7319
▁Kaynak	-10.7326
▁planlama	-10.7329
▁bitirdi	-10.7332
▁Beyoğlu	-10.7334
▁hissetme	-10.7336
▁bireyler	-10.7337
▁seçilen	-10.734
▁Mavi	-10.7344
▁77	-10.7345
IYOR	-10.7345
form	-10.7346
▁arsa	-10.7351
▁71	-10.7366
▁Hakem	-10.7367
▁eri	-10.7375
▁düşündüğü	-10.7375
▁protein	-10.7377
▁Bağdat	-10.7377
▁oynamak	-10.7377
▁Yenikapı	-10.7379
▁çerçevede	-10.7382
▁Yanal	-10.7387
▁dönüşü	-10.7388
▁istasyonu	-10.7388
▁virüsü	-10.739
▁Programı	-10.739
▁Cemal	-10.7395
▁bırakan	-10.7395
▁Büyükelçi	-10.7399
▁08	-10.7403
▁mesajları	-10.7403
▁değişen	-10.7403
▁Şener	-10.7406
SI	-10.7409
▁seçilmiş	-10.741
Benim	-10.7415
▁eyaletinde	-10.7417
▁iddianamede	-10.7428
▁lehine	-10.7439
▁mükemmel	-10.7439
▁keyfi	-10.7439
▁infaz	-10.7439
▁iklim	-10.7439
▁görülür	-10.744
▁abla	-10.7441
▁kıymet	-10.7441
▁usul	-10.7444
▁tesisi	-10.7445
▁Efes	-10.7446
▁müdahalesi	-10.7447
▁işlev	-10.7448
-15	-10.745
▁civarı	-10.745
▁şartıyla	-10.7453
▁işini	-10.7453
▁Bahar	-10.7454
fes	-10.7459
▁hap	-10.7464
Çok	-10.7466
▁diyorum	-10.7479
▁redded	-10.7489
▁koştu	-10.7493
86	-10.7494
▁temizlik	-10.7494
▁talebinde	-10.7495
▁arkadaşlar	-10.7496
▁yapacağını	-10.75
▁Sad	-10.75
▁ikamet	-10.7501
▁kaşığı	-10.7501
▁resmen	-10.7501
ktüel	-10.7502
▁edilemez	-10.7503
▁unutul	-10.7505
▁yolsuzluk	-10.7506
▁numarası	-10.7507
▁cebi	-10.7508
▁yetkisi	-10.7509
▁yaşadıklarını	-10.7519
▁Yağ	-10.7521
▁Yok	-10.7521
▁hükümetinin	-10.7523
▁Cor	-10.7527
müyor	-10.7531
▁Yıllar	-10.7534
▁Şüpheliler	-10.7535
▁dönüştü	-10.7537
liğimiz	-10.7542
▁yetkililerin	-10.7542
▁hazırladı	-10.7547
▁ülkelerine	-10.7551
▁Tiyatro	-10.7555
▁kapatıldı	-10.7559
▁Cüneyt	-10.7563
▁gürültü	-10.7563
▁kahvaltı	-10.7563
▁Yüksel	-10.7563
▁unvan	-10.7564
▁tedbirleri	-10.7564
▁ruhsat	-10.7565
▁68	-10.7566
▁belirtileri	-10.7568
▁dram	-10.757
▁vurgulayarak	-10.7572
▁gök	-10.7574
77	-10.7585
▁birikim	-10.7586
▁anlatıl	-10.7586
▁ağırlıklı	-10.7586
▁problemi	-10.7588
▁fiyatlarının	-10.7589
ELİ	-10.7596
▁çeşit	-10.7599
53	-10.76
▁bulur	-10.7601
▁Büro	-10.7608
▁baktı	-10.7611
▁operatör	-10.7626
▁bisiklet	-10.7626
▁edebiyat	-10.7626
▁tezahürat	-10.7626
▁İşbirliği	-10.7626
▁Boğaziçi	-10.7626
▁facia	-10.7627
▁tamamlama	-10.7627
▁post	-10.7628
▁havuz	-10.763
▁Arı	-10.7631
▁olabiliyor	-10.7632
▁Hamza	-10.7632
▁büyüyen	-10.7633
▁Metro	-10.7635
▁yapmadı	-10.7636
▁belgesel	-10.7638
▁politikaları	-10.7639
▁Duman	-10.7644
▁iniş	-10.7645
▁sırt	-10.7648
▁çatışmada	-10.765
▁pop	-10.7651
▁oluşturulan	-10.7651
▁ihtiyaçları	-10.7654
▁başkanlığında	-10.7656
▁ülkelerinde	-10.7674
şit	-10.7674
▁yiyecek	-10.768
▁çıkarılması	-10.7687
▁Teşkilatı	-10.7689
▁felaket	-10.7689
▁klasik	-10.7689
▁pozitif	-10.7689
▁çirkin	-10.7689
▁Kitap	-10.7689
▁Müzik	-10.769
▁Uzmanlar	-10.769
▁uzlaşma	-10.7691
▁uzaklıkta	-10.7692
▁sınıfı	-10.7693
▁törenine	-10.7694
▁uyarınca	-10.7696
▁Yoksa	-10.7697
muzun	-10.7705
▁gaye	-10.7706
▁topladı	-10.7706
▁BAŞ	-10.7708
▁Sistem	-10.7708
▁yakınında	-10.771
Son	-10.7711
▁savunması	-10.7713
▁Aksu	-10.7715
▁evliliği	-10.7719
▁farklılık	-10.7719
▁toplandı	-10.7721
▁20.00	-10.7722
▁Is	-10.7724
▁tarama	-10.7725
▁duruş	-10.7728
▁95	-10.7728
▁taksit	-10.7731
▁kaynaklı	-10.7736
▁personelin	-10.7737
▁kardeşlerimiz	-10.7748
▁gazı	-10.7749
▁kablo	-10.7753
▁vakıf	-10.7753
▁çapraz	-10.7753
▁Ebru	-10.7753
▁büyükelçi	-10.7753
▁Uşak	-10.7753
▁Salonu	-10.7753
▁takvim	-10.7754
▁hazırlığı	-10.7756
▁Toprak	-10.7757
▁yapımcı	-10.7759
▁Sergi	-10.776
▁Geliş	-10.7761
▁girerek	-10.7771
▁çabaları	-10.7773
▁kayıtları	-10.7776
▁örgütlerinin	-10.7779
▁potansiyeli	-10.7782
▁azalma	-10.7784
▁Brezilyalı	-10.7784
▁kardeşim	-10.7788
▁kiralama	-10.7789
▁kaybetmesi	-10.7792
▁sisteminde	-10.7794
▁sergiledi	-10.7804
berg	-10.7804
▁Karaman	-10.781
▁86	-10.7813
▁tutku	-10.7814
▁Fethullah	-10.7814
▁Adıyaman	-10.7817
▁Coşkun	-10.7817
▁sipariş	-10.7817
▁Rüzgar	-10.7817
▁anahtar	-10.7817
▁stoper	-10.7817
▁Sektör	-10.7817
▁Tedavi	-10.7817
▁siber	-10.7818
63	-10.7819
▁yayımladı	-10.782
▁işsiz	-10.782
▁konulan	-10.7821
▁Şampiyon	-10.7822
▁zorundayız	-10.7824
▁seferber	-10.7825
▁yönlü	-10.7826
▁bilgilendirme	-10.7826
▁Özge	-10.7829
▁tıp	-10.7832
▁seslendi	-10.7833
▁korucu	-10.7834
▁Sayı	-10.7835
▁boğaz	-10.7836
▁arayarak	-10.7836
▁Olur	-10.7842
▁ilçesindeki	-10.785
▁Portekiz	-10.7854
▁görevine	-10.7854
▁iadesi	-10.7854
▁güvence	-10.7855
▁temizleme	-10.7856
▁Suç	-10.7857
▁Harun	-10.7858
▁elindeki	-10.7861
▁kendisinden	-10.7864
▁gösterilen	-10.7873
▁kaçırma	-10.7875
▁organları	-10.7879
▁tescil	-10.7882
▁çabuk	-10.7882
▁fonksiyon	-10.7882
▁tahsil	-10.7882
▁alerji	-10.7882
▁Napoli	-10.7882
▁Taksim	-10.7882
▁mesleği	-10.7882
▁Show	-10.7882
▁koleksiyon	-10.7883
▁Yetkililer	-10.7883
▁duman	-10.7883
▁görecek	-10.7885
▁katılımıyla	-10.7886
▁Piya	-10.7887
▁hissediyor	-10.7888
39	-10.7891
▁büyüdü	-10.7892
▁besinler	-10.7895
▁West	-10.7897
▁konuşması	-10.7897
▁Yaralılar	-10.7902
▁istedikleri	-10.7905
▁Bilal	-10.7912
▁öğrencilere	-10.7915
▁oluşturan	-10.7937
▁yürüme	-10.7943
▁milletimizin	-10.7945
▁Yorumu	-10.7947
▁cumhuriyet	-10.7947
▁beraat	-10.7947
▁Meslek	-10.7947
▁elbise	-10.7947
▁gündüz	-10.7947
▁Mahalle	-10.7947
▁piyasalarda	-10.7948
▁aldığımız	-10.7949
▁Akşam	-10.795
▁çığ	-10.7951
▁çağırdı	-10.7952
▁Kongresi	-10.7952
▁Yeter	-10.7956
▁kapsamı	-10.7956
▁beklet	-10.7958
▁süs	-10.7963
▁panel	-10.7963
▁biliyorum	-10.7965
▁bilinme	-10.7965
▁Yardım	-10.7966
▁gazetesinin	-10.7968
▁yarattı	-10.7969
▁Ayhan	-10.7973
▁operasyonunda	-10.7974
▁aktarıldı	-10.7997
▁korunma	-10.7998
▁sırtı	-10.801
ment	-10.801
▁seçildi	-10.8011
▁Afganistan	-10.8012
▁peynir	-10.8012
▁Berk	-10.8014
▁Vitor	-10.8015
▁baraj	-10.8015
▁yaralanma	-10.8017
▁çak	-10.8019
▁ayağ	-10.802
▁kademe	-10.8022
▁gerçekleşecek	-10.8023
▁karşıladı	-10.8023
▁Alevi	-10.8023
ood	-10.8024
▁olmazsa	-10.8025
▁asit	-10.8031
▁2005	-10.8033
▁sars	-10.8034
▁verirken	-10.8035
▁zararlı	-10.804
▁düşer	-10.8047
asıl	-10.805
▁futbolcuların	-10.8054
▁sorusu	-10.8057
▁kuvvetleri	-10.8058
▁dergi	-10.8063
xxx	-10.8075
@	-10.8078
▁dokunulmazlık	-10.8078
▁17-25	-10.8078
▁Cinayet	-10.8078
▁general	-10.8078
▁Menderes	-10.8078
▁maske	-10.8078
▁edici	-10.8078
▁vakti	-10.8079
▁büyüklüğünde	-10.808
▁Saha	-10.8085
▁Balkan	-10.8086
▁rota	-10.8086
▁yuva	-10.8094
▁Duru	-10.81
72	-10.8105
▁İşçi	-10.8105
▁kurumun	-10.8106
▁Şüpheli	-10.8108
▁kalkışma	-10.8108
▁kaldırdı	-10.8118
▁üreten	-10.812
▁evlenme	-10.8126
▁uzaklaş	-10.8128
▁bankaların	-10.813
▁tüketim	-10.8137
▁Selahattin	-10.8144
▁Televizyon	-10.8144
▁rüzgar	-10.8144
▁inanılmaz	-10.8144
▁Eyüp	-10.8144
▁duyurusunda	-10.8144
▁Duruşma	-10.8144
▁pazartesi	-10.8145
▁fena	-10.8148
▁eşyaları	-10.815
▁elebaşı	-10.8155
laştırdı	-10.8158
▁yaktı	-10.817
▁(20	-10.8171
port	-10.8176
▁Japon	-10.818
▁Mars	-10.8183
▁kapatılması	-10.8198
▁sorma	-10.82
▁hastası	-10.8202
▁Amirliği	-10.8211
▁göğüs	-10.8211
RU	-10.8211
▁Sivil	-10.8211
▁sürme	-10.8211
▁ciro	-10.8212
▁Far	-10.8213
ERİ	-10.8213
▁düşmüş	-10.8218
74	-10.822
▁kurumsal	-10.822
▁duyan	-10.8225
▁2001	-10.8227
▁Aslı	-10.8231
▁hikayesi	-10.8256
▁cins	-10.8256
▁yığ	-10.8258
▁çıkarıldığı	-10.8265
▁Kupa	-10.8266
▁Köprü	-10.8276
▁coşku	-10.8278
▁Danimarka	-10.8278
▁koordinasyon	-10.8278
▁turnuva	-10.8278
▁cennet	-10.8278
▁hükme	-10.8278
▁düşünmüyor	-10.8278
▁giydiği	-10.8279
▁tutuklanarak	-10.8279
▁Soy	-10.828
▁mesai	-10.828
▁Üçüncü	-10.828
▁ulaşmış	-10.828
▁Teröristler	-10.828
▁yaptırdı	-10.8281
▁nöbetçi	-10.8282
▁vuran	-10.8282
▁tutuklanması	-10.8283
▁ambulansla	-10.8285
▁AYM	-10.8286
▁vermeden	-10.8291
▁olmayacağı	-10.8292
▁pist	-10.8295
▁yaşıyoruz	-10.8296
▁kullanıcıların	-10.8299
IST	-10.8303
▁uçaklarının	-10.8305
▁sorgusu	-10.8307
▁Mus	-10.8307
67	-10.8308
▁edecektir	-10.831
▁yendi	-10.832
▁ihtiyacını	-10.8324
rack	-10.8325
▁kova	-10.8326
bilirsiniz	-10.8332
▁Emine	-10.8336
▁ülkedeki	-10.8337
▁militanları	-10.8337
▁Bra	-10.8339
▁paketi	-10.834
▁vitamin	-10.8345
▁idrar	-10.8345
▁pişman	-10.8345
▁Otobüs	-10.8345
▁kalori	-10.8346
▁büro	-10.8346
▁iştah	-10.8346
▁estetik	-10.8346
ECEK	-10.8347
▁Giriş	-10.8348
▁diplomatik	-10.835
▁açılacak	-10.8351
▁okuyan	-10.8355
▁bırakıp	-10.836
▁etmiştir	-10.836
▁anlamında	-10.8363
▁sigortalı	-10.837
Rİ	-10.8375
▁rekoru	-10.8377
▁Sow	-10.8381
▁Adası	-10.8382
▁gitmesi	-10.8387
▁çevredeki	-10.839
ümüzü	-10.839
▁Koza	-10.8396
▁vurgulandı	-10.8397
▁eklem	-10.8399
▁Kaynaklar	-10.8402
▁istikamet	-10.8408
▁Mur	-10.8413
▁Bayraktar	-10.8413
▁Telefon	-10.8413
▁bordo	-10.8413
▁Şarkı	-10.8413
▁şeref	-10.8414
▁kayboldu	-10.8414
▁Lens	-10.8415
▁simge	-10.8416
LİK	-10.8416
▁dağıtıl	-10.8416
▁beraberliği	-10.8423
▁2023	-10.8423
▁gelebilir	-10.8423
▁olgu	-10.8425
▁huzuru	-10.8425
▁ederiz	-10.8426
▁evre	-10.8435
▁hesabını	-10.8436
▁74	-10.8438
▁futbolcusu	-10.8441
58	-10.8443
▁oranla	-10.8458
73	-10.8458
▁düzeyinde	-10.846
leneceği	-10.8461
▁dönmesi	-10.847
▁Ailesi	-10.8474
▁satan	-10.8475
▁düşürül	-10.8476
▁Fotoğraf	-10.8482
▁deşifre	-10.8482
▁İktidar	-10.8482
▁Şeker	-10.8482
▁Oktay	-10.8482
▁Tüneli	-10.8482
▁Azez	-10.8482
▁Üzeri	-10.8483
▁delege	-10.8483
▁şahıslar	-10.8484
▁bıçakla	-10.8488
▁Parlamentosu	-10.849
▁Stat	-10.849
▁Mobil	-10.8492
▁seçimlerinde	-10.8503
▁emek	-10.8503
Allah	-10.8505
Galatasaray	-10.8505
▁destekleyen	-10.8507
▁vaat	-10.8512
▁ulaşması	-10.8514
▁yansıma	-10.8514
▁sorusunu	-10.8517
▁işlediği	-10.8517
▁Program	-10.8536
▁modelleri	-10.8539
▁geçmeye	-10.8544
▁gerçekleştiği	-10.8545
▁ticareti	-10.8548
▁Atletico	-10.8551
▁Başkanvekili	-10.8551
▁Müezzinoğlu	-10.8551
▁ittifak	-10.8551
▁merdiven	-10.8551
▁perakende	-10.8551
▁Moody	-10.8551
▁Piyango	-10.8551
▁Siyaset	-10.8551
▁pankart	-10.8551
▁ÖSO	-10.8551
▁önerge	-10.8551
▁patron	-10.8551
lısınız	-10.8551
▁Konuşma	-10.8553
leyin	-10.8553
▁kaste	-10.8557
▁ediyordu	-10.8557
▁hanım	-10.856
▁VAR	-10.8561
eğmen	-10.8564
▁filminde	-10.8569
▁Kum	-10.8575
52	-10.8576
Arkadaş	-10.8582
64	-10.8587
▁hav	-10.8591
▁Rio	-10.8599
▁olmasından	-10.8601
▁ger	-10.8604
▁göstermesi	-10.8614
▁çat	-10.8614
▁netice	-10.8616
▁yaptırma	-10.8617
▁direktörü	-10.8618
▁uğradı	-10.8618
▁Hillary	-10.862
▁Serbest	-10.862
▁Öğretmen	-10.862
▁menajer	-10.862
▁Nitekim	-10.862
▁süper	-10.862
▁ümit	-10.862
81	-10.8621
▁soygun	-10.8623
▁Adliyesi	-10.8623
▁doğusunda	-10.8623
▁Politikalar	-10.8624
▁oluşması	-10.8624
▁İçeri	-10.8626
▁aşan	-10.8626
▁sağlayacağı	-10.8629
▁flaş	-10.8637
▁kesimi	-10.864
Beşiktaş	-10.8644
TAN	-10.8645
▁deney	-10.8647
takım	-10.865
▁çalışacak	-10.8652
mezse	-10.8663
▁Hemen	-10.8672
▁Hadi	-10.868
▁Erzincan	-10.869
▁astsubay	-10.869
▁atmosfer	-10.869
▁Mezarlığı	-10.869
▁rüya	-10.869
▁hatırlatarak	-10.869
▁Birkaç	-10.869
▁Mario	-10.8691
▁oynayacak	-10.8691
▁baktığımızda	-10.8691
▁kucak	-10.8692
ebilmesi	-10.8695
▁şehrinde	-10.8696
▁sunum	-10.8697
▁yayınlanacak	-10.8698
▁kırsal	-10.8698
▁şov	-10.8698
69	-10.8699
▁değiştirdi	-10.8701
▁önlenmesi	-10.8702
▁şartı	-10.8705
▁ortaklık	-10.8708
▁yapabileceği	-10.8708
▁taze	-10.871
▁belirlenmesi	-10.8714
▁2-3	-10.8714
▁kısmında	-10.8729
▁nöbeti	-10.8731
56	-10.8733
▁gidebil	-10.874
▁dizisinde	-10.8743
▁pazarında	-10.8744
▁ölümüne	-10.8751
▁çağrısında	-10.8752
▁müşterileri	-10.8754
▁otoyol	-10.8755
Aile	-10.876
▁Fernandao	-10.8761
▁HSYK	-10.8761
▁Konferans	-10.8761
▁Polonya	-10.8761
▁şaşkın	-10.8761
▁takibi	-10.8761
▁Koruma	-10.8761
▁Hayvancılık	-10.8761
▁açar	-10.8762
▁yüzüne	-10.8762
▁kuruldu	-10.8762
▁aldat	-10.8763
▁feda	-10.8765
▁oluşturmak	-10.8766
▁kamuoyuna	-10.8776
▁Sami	-10.8778
▁varlıkları	-10.8785
Kültür	-10.8786
▁sürdürme	-10.8786
▁yurtdışına	-10.8786
▁koyan	-10.8787
▁vatandaşımız	-10.8791
▁Hakimliği	-10.8795
▁Ülker	-10.8798
▁güneyinde	-10.8804
▁verilere	-10.8806
cc	-10.8807
▁mavi	-10.881
▁fotoğrafını	-10.8817
▁dolandırıcı	-10.8821
▁vücudu	-10.8824
lanacağı	-10.8828
▁hayatında	-10.8828
▁350	-10.883
▁Bulgaristan	-10.8832
▁Cenaze	-10.8832
▁radikal	-10.8832
▁tasfiye	-10.8832
▁direksiyon	-10.8832
▁zihin	-10.8832
▁umudu	-10.8832
▁tempo	-10.8832
▁Rektör	-10.8832
▁silin	-10.8832
▁Çınar	-10.8832
▁nisan	-10.8833
▁defalarca	-10.8834
▁bölgesindeki	-10.8834
▁Altun	-10.8835
▁pişir	-10.8836
▁Hangi	-10.8837
▁boru	-10.8837
▁İsmet	-10.8838
▁devredil	-10.8838
▁yaşandığını	-10.8839
▁GÜN	-10.8841
▁tamamlayan	-10.8842
▁Sert	-10.8845
▁zirvesi	-10.8846
▁kurucusu	-10.8849
▁ödenmesi	-10.8853
▁Bre	-10.8854
▁çarpıcı	-10.8854
▁Cemil	-10.8855
▁oluşumu	-10.8855
▁tesisleri	-10.886
▁evlendi	-10.886
▁Korku	-10.8861
▁Sha	-10.8862
acağımız	-10.8863
▁Yaşam	-10.8866
▁imkânı	-10.8866
▁çevirdi	-10.8867
▁olamadı	-10.8871
▁Avni	-10.8876
▁vazgeçme	-10.8879
▁Gazeteci	-10.8881
▁üstlendiği	-10.8881
▁rakamlar	-10.89
▁kurucu	-10.8902
▁Lütf	-10.8903
▁Norveç	-10.8903
▁Odeabank	-10.8903
▁Vladimir	-10.8903
▁İletişim	-10.8903
▁Zengin	-10.8903
▁İhbar	-10.8903
▁Dönem	-10.8903
▁KDV	-10.8903
▁ispat	-10.8903
▁girişinde	-10.8904
▁yapılabilir	-10.8904
▁ömrü	-10.8904
▁Haydar	-10.8906
▁şoför	-10.8908
▁Önder	-10.8908
▁havalandır	-10.8908
▁balıkçı	-10.8909
▁sözünü	-10.891
▁Kiev	-10.891
▁kısıt	-10.892
çok	-10.8926
▁adında	-10.8926
▁Çağlar	-10.8928
▁iradesi	-10.8929
özü	-10.8932
▁potansiyel	-10.8943
▁diyoruz	-10.8946
bileceği	-10.8948
▁sürerken	-10.8948
▁Eroğlu	-10.8956
▁inşaatı	-10.8957
▁gelmedi	-10.8964
▁Filistinli	-10.8965
▁Temel	-10.897
▁şartlarda	-10.8971
▁artırılması	-10.8971
▁sanal	-10.8974
▁akciğer	-10.8975
▁egemen	-10.8975
▁infilak	-10.8975
▁mezhep	-10.8975
▁müebbet	-10.8975
▁Üsküdar	-10.8975
▁seçeneği	-10.8975
▁akademi	-10.8975
▁anımsata	-10.8975
▁Yaşanan	-10.8975
▁Aykut	-10.8975
▁Arınç	-10.8975
▁stadı	-10.8975
▁yavru	-10.8976
▁zevk	-10.8976
▁rehin	-10.8977
▁eğit	-10.8977
▁bütünlüğü	-10.8978
▁kalktı	-10.8978
▁tanınan	-10.8978
▁duyduğunu	-10.898
▁açıyor	-10.8981
▁saray	-10.8982
▁Nerede	-10.8982
▁öğrenilen	-10.8984
▁şubat	-10.8984
▁hatırlatıl	-10.8988
▁Gezi	-10.8988
▁erteleme	-10.8989
▁yargılanan	-10.899
▁Balık	-10.9001
▁dert	-10.9016
▁ederse	-10.9016
▁Fonu	-10.903
▁diploma	-10.9034
hisar	-10.9045
▁hazırlıkları	-10.9045
▁Danıştay	-10.9047
▁Marmaris	-10.9047
▁Mercedes	-10.9047
▁ceset	-10.9047
▁rütbe	-10.9047
▁keşif	-10.9047
▁razı	-10.9047
▁James	-10.9048
▁Necip	-10.9048
▁Bitlis	-10.9048
▁çiğ	-10.9048
▁Yangın	-10.9048
▁sök	-10.9048
▁Yaralı	-10.9051
▁biber	-10.9053
▁şunlar	-10.9054
olog	-10.9059
▁sendika	-10.9062
▁Savcılık	-10.9067
▁Savcısı	-10.9069
▁bulunacak	-10.9103
▁kontrolünü	-10.9104
▁VER	-10.9104
landırılması	-10.9104
▁Kıy	-10.911
▁haklarında	-10.9112
▁soğu	-10.9113
▁ailelerine	-10.9114
▁izlediği	-10.9116
▁düşünür	-10.9119
▁Kaçakçılık	-10.912
▁Zonguldak	-10.912
Çatışma	-10.912
▁Siirt	-10.9121
▁medeniyet	-10.9121
▁panik	-10.9121
▁Tabi	-10.9122
▁Rabb	-10.9125
▁bozukluğu	-10.9129
▁tamamlanan	-10.9132
▁İlker	-10.9136
▁izliyor	-10.9141
▁Yazar	-10.9141
ğerlendirmesinde	-10.9143
▁uzatma	-10.9157
eğer	-10.916
▁engellemek	-10.917
▁oturdu	-10.9171
▁yönlendir	-10.9175
▁War	-10.9177
▁konulu	-10.918
▁hukukun	-10.9191
▁başını	-10.9194
▁Ergenekon	-10.9194
▁Küresel	-10.9194
▁Otomotiv	-10.9194
▁Premier	-10.9194
▁yeteneği	-10.9194
▁tahsis	-10.9194
▁BBC	-10.9194
▁helal	-10.9194
▁Küba	-10.9194
▁mesela	-10.9194
▁etnik	-10.9195
▁bölünme	-10.9195
▁Karabükspor	-10.9195
▁Aksoy	-10.9201
KCK	-10.9206
▁Hakemler	-10.921
▁hedefimiz	-10.921
▁Yazıcı	-10.9211
▁sevinci	-10.9212
▁ödülünü	-10.9214
▁ayırdı	-10.9215
▁çekilme	-10.9241
lüğe	-10.9244
▁Öncelikle	-10.9247
▁doğdu	-10.9248
▁Hakkında	-10.9255
▁Görüntü	-10.9268
▁gölge	-10.9268
▁arayışı	-10.9268
▁dinamik	-10.9268
▁Ermenistan	-10.9268
▁iflas	-10.9268
▁Çevik	-10.9268
▁Şişli	-10.9268
▁korkunç	-10.9268
▁Karlov	-10.9268
▁Vekili	-10.9269
▁şaka	-10.9269
▁zihniyet	-10.9269
▁keskin	-10.927
▁bahsediyor	-10.9271
▁müdahalelere	-10.9272
▁inanıyoruz	-10.9272
▁salgı	-10.9274
78	-10.9274
▁memurları	-10.9275
▁gelmez	-10.9279
▁Kırım	-10.9279
oyun	-10.9284
▁görüyorum	-10.9285
▁kenarında	-10.9295
▁tenis	-10.93
▁görüntüsü	-10.93
▁açılma	-10.9303
▁öldüren	-10.931
▁artar	-10.9315
▁kapılarını	-10.9319
▁Muş	-10.9322
▁destekliyor	-10.9327
▁Ebu	-10.933
▁aut	-10.9341
▁Boydak	-10.9343
▁pencere	-10.9343
▁rövanş	-10.9343
▁muhtar	-10.9343
▁yumuşa	-10.9343
▁Giresun	-10.9343
▁İcra	-10.9343
▁Tufan	-10.9343
▁Qu	-10.9343
▁sığ	-10.9344
▁faktör	-10.9346
▁Eylem	-10.9348
▁seviyorum	-10.9349
▁yanıtlayan	-10.935
▁Abdul	-10.935
▁oturduğu	-10.935
▁makinesi	-10.9351
▁maçlarında	-10.9351
Yıl	-10.9351
▁çözülme	-10.9352
▁Gazeteciler	-10.9356
▁indirdi	-10.9359
▁ekiplerinden	-10.9359
▁kaş	-10.9361
▁ayırma	-10.9364
▁ulaşıla	-10.9365
▁korkusu	-10.9366
▁almadı	-10.9368
▁Vo	-10.9369
şam	-10.9369
▁Paul	-10.9374
▁Aracı	-10.9375
▁düşürdü	-10.9376
▁tedavisinde	-10.9399
▁ithalat	-10.9401
▁sözleriyle	-10.9403
▁değişiyor	-10.9404
oid	-10.9416
▁Başta	-10.9416
▁parasını	-10.9416
▁artacak	-10.9417
▁Kahramanmaraş	-10.9418
▁Silivri	-10.9418
▁öykü	-10.9418
▁diyabet	-10.9418
▁Gazze	-10.9418
▁Amed	-10.9419
▁koyuyor	-10.942
▁Demokratik	-10.9424
▁beklendiği	-10.9424
▁kurultay	-10.9425
▁hedefliyor	-10.9426
▁yenerek	-10.9429
▁istemeyen	-10.9429
▁Elif	-10.9432
▁Operasyonu	-10.9435
▁arkasına	-10.9436
▁metrekarelik	-10.9438
▁110	-10.9439
ahmet	-10.944
▁aramızda	-10.944
▁bahçesinde	-10.9445
▁davasında	-10.9452
ALI	-10.9464
▁Toplantısı	-10.9466
▁borçlanma	-10.9478
▁Yolları	-10.9489
▁denen	-10.9491
▁Michael	-10.9494
▁Nijerya	-10.9494
▁antrenör	-10.9494
▁harekât	-10.9494
▁Monaco	-10.9494
▁Libya	-10.9494
▁Robin	-10.9494
▁Düzenleme	-10.9496
▁tarafta	-10.9496
leştirdi	-10.9498
▁korner	-10.9499
▁propaganda	-10.9499
▁uzatıl	-10.9502
▁milis	-10.9504
▁3-1	-10.9506
▁görmesi	-10.951
▁atandı	-10.9514
▁Dilek	-10.9517
▁önemine	-10.9532
▁görünen	-10.9532
▁Sosa	-10.9535
62	-10.9539
▁Meydan	-10.954
▁olmayacağını	-10.954
▁kurtardı	-10.9544
▁Harp	-10.9547
▁paylaşan	-10.9549
▁atışı	-10.9551
▁yayınladı	-10.9556
▁önlemek	-10.9558
▁şehitlerimiz	-10.9558
▁öldürüldüğü	-10.9561
▁Bütçe	-10.957
▁hürriyet	-10.957
▁Katılım	-10.957
▁tuvalet	-10.957
▁firari	-10.957
▁hadise	-10.957
▁Sünni	-10.9571
▁bence	-10.9573
▁formül	-10.9581
▁kanadı	-10.9581
▁Tab	-10.9584
▁pasta	-10.9594
▁geçirilmesi	-10.9595
▁okullarda	-10.9597
▁çabası	-10.9599
▁hükmü	-10.9601
▁düz	-10.9603
▁konuşmasını	-10.9608
▁kazanması	-10.9608
▁götürme	-10.9609
▁atılması	-10.9615
▁Hayır	-10.9618
▁notu	-10.9621
▁kimdir	-10.9626
▁gergin	-10.9626
▁reddetti	-10.9631
▁kırdı	-10.9633
▁uzaklaştırıl	-10.964
▁başlayacağı	-10.9642
▁AFAD	-10.9647
▁Kurtuluş	-10.9647
▁başlangıcı	-10.9647
▁ibadet	-10.9647
▁kapsayan	-10.9647
▁Öcalan	-10.9647
▁Normal	-10.9647
▁küçül	-10.9647
▁bakteri	-10.9647
▁Bazen	-10.9647
▁Burhan	-10.9648
▁sürdürülebilir	-10.9649
▁Ürün	-10.9651
▁bandı	-10.9651
▁Yolcu	-10.9651
▁Erkin	-10.9653
▁vermiyor	-10.9653
▁süresince	-10.9653
▁uğrat	-10.9655
▁kurtarıl	-10.9656
▁Sanatçı	-10.9657
▁dolandırıcılık	-10.9661
▁1990	-10.9661
▁kullanılıyor	-10.9664
▁hırsızlık	-10.9669
▁Tork	-10.9674
▁kasım	-10.9678
Paralel	-10.9679
yurt	-10.968
▁Enes	-10.9681
▁malzemeleri	-10.9687
▁Yapılanması	-10.9688
▁çekilmesi	-10.9694
▁kullandıkları	-10.9695
▁Ödülleri	-10.9695
▁adil	-10.971
▁günah	-10.9711
▁etkileme	-10.9715
▁Hav	-10.9716
▁Angeles	-10.9724
▁Meksika	-10.9724
▁Zarrab	-10.9724
▁ehliyet	-10.9724
▁yüreği	-10.9724
▁Çolak	-10.9724
▁sertifika	-10.9724
▁kağıt	-10.9724
▁Çeşme	-10.9725
▁kilise	-10.9725
▁kombi	-10.9725
▁Çetinkaya	-10.9727
▁Eskişehirspor	-10.9727
▁rahatsızlığı	-10.9728
▁devral	-10.9729
▁kurgu	-10.9731
▁Yemen	-10.9733
▁İdil	-10.9733
laştırılması	-10.9736
▁ByLock	-10.9742
▁güldü	-10.9742
▁Dinç	-10.9745
▁Akademi	-10.9745
▁getirir	-10.9745
▁hastalıkların	-10.9753
▁boyutlar	-10.9754
▁Ersun	-10.9758
▁tuttuğu	-10.9762
▁Kapı	-10.9764
▁yetkilisi	-10.9768
▁talebiyle	-10.9768
▁heyecanı	-10.9769
▁satılan	-10.9774
▁vereme	-10.9779
▁yapay	-10.9782
▁açıkladığı	-10.9783
▁sütü	-10.9787
▁uyardı	-10.979
▁bozuk	-10.9797
eksiyon	-10.9799
▁Karabük	-10.9801
▁zeytin	-10.9802
▁Açılış	-10.9802
▁Bulvarı	-10.9802
▁döşe	-10.9802
▁trilyon	-10.9802
▁çocuğa	-10.9802
▁TÜRKİYE	-10.9803
▁dehşet	-10.9803
▁taşeron	-10.9803
▁herhalde	-10.9803
▁yaşanacak	-10.9805
▁gerisinde	-10.9806
▁derhal	-10.9806
▁kamerası	-10.9807
▁bulamadı	-10.9813
▁Arif	-10.9814
▁Gir	-10.9816
▁1999	-10.9816
▁geliştirilen	-10.9817
▁faul	-10.9817
▁açılmış	-10.9817
▁bakanlığı	-10.9819
▁Melek	-10.982
▁burs	-10.9822
▁gelişmesi	-10.9823
▁uyguladığı	-10.9825
▁kopar	-10.9832
▁dosyası	-10.9833
▁sağlandı	-10.9833
▁verildiğini	-10.9834
Ülke	-10.9836
▁karşılaşacak	-10.9839
▁kalmıştı	-10.9851
▁istasyon	-10.9867
▁bulunuldu	-10.9869
▁Toplu	-10.9874
▁müracaat	-10.9881
▁Danışma	-10.9881
▁Toyota	-10.9881
▁alışkanlık	-10.9881
▁acaba	-10.9881
▁Lise	-10.9882
▁Robert	-10.9882
▁Kamp	-10.9883
▁ocağı	-10.9883
▁öncelikli	-10.9884
▁Ekipler	-10.9884
▁Süt	-10.9889
▁planlanıyor	-10.9889
▁tutuyor	-10.9889
▁alınırken	-10.9891
▁sağlanacak	-10.9894
▁istemiyorum	-10.9895
▁isteniyor	-10.9897
▁aştı	-10.9906
▁Düzen	-10.991
▁göstergesi	-10.9913
hangi	-10.9913
▁ötesinde	-10.9915
▁düştüğünü	-10.9916
▁anlamlı	-10.9917
Burada	-10.9923
▁yayımlan	-10.9923
▁bacak	-10.9927
▁yönettiği	-10.9927
▁geliştirilmesi	-10.9928
▁getirilmiş	-10.9928
▁karşımıza	-10.9929
▁günkü	-10.9931
▁Akademisi	-10.994
▁kırıklığı	-10.9955
▁ithal	-10.9956
▁faktörler	-10.9957
▁Platformu	-10.9961
▁menfaat	-10.9961
▁Yahudi	-10.9961
▁bombardıman	-10.9961
▁diyalog	-10.9961
▁müsaade	-10.9961
▁rehber	-10.9961
▁Hulusi	-10.9961
▁imalat	-10.9961
▁Hikmet	-10.9961
▁yıkım	-10.9961
▁Tokat	-10.9964
▁yapılarak	-10.9964
▁Bebek	-10.9966
▁versin	-10.9966
▁ısınma	-10.9971
▁sevinç	-10.9973
▁Asliy	-10.9974
▁ÖZ	-10.9976
▁Enver	-10.9982
▁sayfasında	-10.9983
▁Yüce	-10.9983
▁bulunarak	-10.9984
▁sunulacak	-10.9998
▁Yardımcı	-11.0001
▁baskısı	-11.0004
▁bırakılan	-11.0007
▁yöneten	-11.0019
▁Tür	-11.0023
▁ört	-11.0023
▁mağduriyet	-11.0025
▁kaybetmiş	-11.0027
▁Isparta	-11.0041
▁Survivor	-11.0041
▁mektubu	-11.0041
▁muamele	-11.0041
▁taburcu	-11.0041
AĞI	-11.0041
▁Korkmaz	-11.0041
▁genetik	-11.0041
▁otopark	-11.0041
▁macera	-11.0041
▁hayli	-11.0041
▁Söyle	-11.0041
▁belirlenemeyen	-11.0041
▁Bosna	-11.0042
▁takibe	-11.0042
▁kıta	-11.0042
▁edebilme	-11.0042
▁durağı	-11.0043
▁Silah	-11.0045
▁yapabilecek	-11.005
▁kamyonet	-11.0052
▁Papa	-11.0054
▁Elvan	-11.0056
▁girip	-11.0058
▁teminat	-11.006
▁teşebbüsü	-11.0066
▁alınıyor	-11.0071
▁yeterin	-11.0072
▁yarışması	-11.0073
▁toplayan	-11.0079
▁ilçelerinde	-11.0085
posta	-11.0096
▁Naci	-11.0097
▁tanıdığı	-11.0103
▁verilir	-11.0105
▁kaos	-11.012
▁Disiplin	-11.0121
▁Zeybekci	-11.0121
▁mecbur	-11.0121
▁muhatap	-11.0121
▁nikah	-11.0121
▁Lavrov	-11.0121
▁jüri	-11.0121
▁Hazır	-11.0121
▁3-4	-11.0122
▁Fener	-11.0123
▁deneyimi	-11.0124
▁far	-11.0126
▁Tarık	-11.0126
▁Akdoğan	-11.0126
▁deyip	-11.0126
▁kayyım	-11.0127
▁çeyreğinde	-11.0134
▁taht	-11.0134
▁Sanık	-11.0136
▁Sportif	-11.0142
▁talimatıyla	-11.0145
▁2,5	-11.0145
amazsınız	-11.0149
▁duygusu	-11.0149
▁tanıtıl	-11.0157
Avrupa	-11.0157
▁çalışmalarımız	-11.0158
▁komutanı	-11.016
▁Doğuş	-11.017
▁BİN	-11.0174
▁inç	-11.018
▁yurtdışı	-11.0187
▁yoğunluğu	-11.0192
▁tepkisini	-11.0198
▁kurulacak	-11.0201
▁Akıllı	-11.0203
▁Tüketici	-11.0203
▁defnedil	-11.0203
▁endüstri	-11.0203
▁global	-11.0203
▁güzergah	-11.0203
▁mutfağı	-11.0203
▁Emenike	-11.0203
▁Müftü	-11.0203
▁koruyucu	-11.0203
▁Çankaya	-11.0203
▁Kontrol	-11.0203
▁hemşire	-11.0203
▁arıza	-11.0203
▁öğrenen	-11.0203
▁(2)	-11.0203
▁Konser	-11.0204
▁Ferhat	-11.0205
▁onarım	-11.0205
▁uğurlandı	-11.0206
▁Sivasspor	-11.0206
▁Times	-11.0206
▁kapısını	-11.0207
▁yapılacağını	-11.0207
▁Motor	-11.0208
▁beton	-11.0209
▁kurtarılamadı	-11.0209
▁direniş	-11.021
▁tüketme	-11.0212
▁3.5	-11.0215
▁sokul	-11.0223
▁belirtme	-11.0234
▁uzmanları	-11.0253
▁internette	-11.0257
▁soruyor	-11.0264
LÜ	-11.0264
▁biyo	-11.0266
▁koridoru	-11.0268
▁gömül	-11.0269
▁gösterge	-11.0269
▁hikâyesi	-11.0274
▁gelmiyor	-11.0278
&#39;	-11.0285
▁TMSF	-11.0285
▁karaciğer	-11.0285
▁bürokrat	-11.0285
▁titiz	-11.0285
▁3-0	-11.0285
▁Siyasi	-11.0285
▁usulsüz	-11.0285
▁Bomba	-11.0285
▁Hayvan	-11.0287
▁Zanlı	-11.0287
▁yürütüyor	-11.0287
lenirken	-11.0292
▁diyecek	-11.0294
▁Kaplan	-11.0298
▁katılması	-11.0305
▁sırasıyla	-11.0312
▁bütçesi	-11.0313
Bunlar	-11.0315
▁şarkısı	-11.0327
▁10.00	-11.0336
▁Zorlu	-11.0337
▁kısıtlama	-11.0348
▁harcamaları	-11.0349
▁rezerv	-11.0359
▁aleyh	-11.0363
▁depresyon	-11.0367
▁etapta	-11.0367
▁perşembe	-11.0367
▁Tuncay	-11.0367
▁Diego	-11.0367
▁bağırsak	-11.037
▁Kanser	-11.037
▁aleyhine	-11.0372
▁Ergin	-11.0374
▁sevilen	-11.0377
▁yorumu	-11.0378
▁politik	-11.038
▁vücutta	-11.0381
▁burası	-11.0384
▁içerisine	-11.0389
▁seviyelerinde	-11.0392
▁Büyükelçiliği	-11.0402
▁evrak	-11.0403
▁isterken	-11.0403
▁durak	-11.0403
▁kalarak	-11.0405
▁durdurdu	-11.0413
▁tasarısı	-11.0423
▁Yücel	-11.0427
▁Külliyesi	-11.0427
▁getireceği	-11.0445
▁Mühendis	-11.045
▁Macaristan	-11.045
▁kaymakam	-11.045
▁mutfak	-11.045
▁taahhüt	-11.045
▁Benfica	-11.0451
▁temenni	-11.0451
▁Emrah	-11.0451
▁telafi	-11.0451
▁Şerif	-11.0451
▁Ekrem	-11.0451
▁Hülya	-11.0451
▁çarpıştı	-11.0451
▁defter	-11.0452
▁makul	-11.0456
▁Inter	-11.0456
▁Uzay	-11.0457
▁telefonunu	-11.0459
▁kaldırılarak	-11.0463
▁Uçak	-11.0464
▁yırt	-11.0473
▁öldüğünü	-11.0477
ILDI	-11.0478
▁azalması	-11.0482
▁gerekirse	-11.049
▁hazırlıklarını	-11.0491
▁kararlılıkla	-11.0494
▁biçimi	-11.0501
▁merkezlerinde	-11.0502
hor	-11.0509
▁deplasman	-11.0523
▁teşkil	-11.0528
▁Tartışma	-11.0535
▁kütüphane	-11.0535
▁Güngör	-11.0535
▁KPSS	-11.0535
▁Öğretim	-11.0535
▁belirtilerek	-11.0535
▁pompa	-11.0535
▁atölye	-11.0535
▁kabiliyet	-11.0535
▁nezdinde	-11.0535
▁Bordo	-11.0535
▁gasp	-11.0535
▁Uslu	-11.0535
▁Öğrenciler	-11.0535
▁zeka	-11.0538
▁yapılırken	-11.0543
▁Koray	-11.0544
▁öldürül	-11.0544
▁kaynaklanan	-11.0545
Kara	-11.0547
▁kırık	-11.0554
▁2020	-11.0561
▁döktü	-11.0562
▁bırakarak	-11.0566
Eğer	-11.0574
▁ihtiyaçlarını	-11.0575
▁organizasyonu	-11.0577
▁tutumu	-11.0577
▁teşkilatı	-11.0579
▁sim	-11.0579
▁mücadelesinde	-11.0582
▁açarak	-11.0587
▁oluşturulması	-11.0587
▁unuttu	-11.0589
▁yaşlarda	-11.0597
▁villa	-11.0609
▁kalacağı	-11.0611
▁bulacak	-11.0612
▁Tüfenkci	-11.0619
▁kömür	-11.0619
▁morguna	-11.0619
▁müzisyen	-11.0619
▁ribaunt	-11.0619
▁İSTANBUL	-11.0619
▁edebilecek	-11.0619
▁göreceğiz	-11.0619
▁Olcay	-11.0619
▁çoğunluk	-11.0619
▁Numan	-11.0619
▁üzgün	-11.0621
▁sızdı	-11.0623
▁bulunmaktadır	-11.0626
▁darp	-11.0629
▁trend	-11.0636
▁piyasaları	-11.0638
▁etkilenen	-11.0639
▁başvuran	-11.0653
▁kapatılan	-11.0656
İnsan	-11.0659
▁Aralarında	-11.0667
▁harita	-11.0668
▁Biraz	-11.0671
▁dakikasında	-11.0679
▁yediği	-11.0702
▁uğradığı	-11.0704
▁Avrasya	-11.0705
▁Kısmets	-11.0705
▁ırkçı	-11.0705
▁İÇİN	-11.0705
▁asansör	-11.0705
▁Kıdem	-11.0705
▁tohum	-11.0705
▁Bruma	-11.0705
▁online	-11.0705
▁ulaşıldı	-11.0706
▁laik	-11.0707
▁Henüz	-11.0707
▁ödeyecek	-11.0709
▁Denizcilik	-11.071
▁namlul	-11.071
▁bakalım	-11.0713
▁giderilmesi	-11.0713
▁askı	-11.0717
▁Futbolcu	-11.072
▁gerçekleşmesi	-11.0721
▁Divan	-11.0723
ığın	-11.0739
▁edilebil	-11.0741
▁Sağlığı	-11.0741
▁eleştiren	-11.0744
Şehit	-11.0745
▁bedeni	-11.0746
▁kapanış	-11.0747
▁kazanacak	-11.0761
▁gerileme	-11.0761
▁kurtarıldı	-11.0762
▁çeyreğ	-11.0778
▁olduğumuzu	-11.0784
▁Alış	-11.0787
▁EXPO	-11.0791
▁Lübnan	-11.0791
▁motivasyon	-11.0791
▁sıfat	-11.0791
▁Çağatay	-11.0791
▁işkence	-11.0791
▁ağacı	-11.0792
▁adlandırılan	-11.0792
İAD	-11.0792
▁ettirme	-11.0793
▁yoksul	-11.0793
▁Acar	-11.0793
▁cari	-11.0793
▁geçiriyor	-11.0793
▁tarafların	-11.0798
▁diplomat	-11.0801
▁hissedil	-11.0801
▁Firma	-11.0806
▁tavan	-11.081
▁bulunur	-11.0813
▁Hakkı	-11.0815
▁sözcü	-11.0819
ılabilir	-11.0821
▁Meral	-11.0825
▁stand	-11.0828
▁görüştüğü	-11.0829
▁Dost	-11.0832
▁defans	-11.0839
▁çatısı	-11.0852
▁halkımız	-11.0862
▁3,2	-11.0878
▁Yönetici	-11.0878
▁Lazio	-11.0878
▁tüken	-11.0878
▁başaran	-11.0878
▁savunuyor	-11.0883
▁dönüyor	-11.0883
▁harcan	-11.0886
▁indirme	-11.0887
▁Aylin	-11.089
▁Ahmed	-11.0892
▁gerginlik	-11.0902
▁esir	-11.0904
▁Fuar	-11.0911
mayacaktır	-11.0917
▁sonlandır	-11.0936
▁endeks	-11.0942
▁yazıyor	-11.0944
▁karşılaştığı	-11.0946
▁bırakılması	-11.0952
▁dolandır	-11.0953
▁1.1	-11.0955
▁gelişmekte	-11.0959
▁Oğlu	-11.0964
▁DHKP	-11.0966
▁yıldönümü	-11.0966
▁Olağanüstü	-11.0966
▁şükür	-11.0966
▁patates	-11.0966
▁Önemli	-11.0966
▁Yalova	-11.0966
▁gezegen	-11.0966
▁CIA	-11.0966
▁evvel	-11.0966
▁tarla	-11.0967
▁tıpkı	-11.0968
▁savcılığa	-11.0972
▁Başsavcılığınca	-11.0973
▁oyuncak	-11.0974
▁jet	-11.0975
▁sunacak	-11.0977
▁the	-11.0978
▁açıklanacak	-11.0981
▁gelsin	-11.0984
▁altyapısı	-11.0986
▁boynu	-11.099
▁ithalatı	-11.0994
▁kayak	-11.0994
aydın	-11.0998
▁seçimlerde	-11.0999
▁niteliğinde	-11.1002
Beyaz	-11.1008
▁yıllarca	-11.1013
▁olasılığı	-11.1015
▁golünü	-11.1022
▁Komisyon	-11.1029
▁Dinam	-11.1032
▁Çocuğun	-11.1038
▁Che	-11.1041
▁alamadı	-11.105
▁kronik	-11.1054
▁profil	-11.1054
▁bağışıklık	-11.1054
▁fırlat	-11.1054
▁himmet	-11.1054
▁Çorum	-11.1054
▁İhsan	-11.1054
▁dönüp	-11.1054
▁tablet	-11.1054
▁öncülüğünde	-11.1054
▁Kobani	-11.1054
▁limit	-11.1054
▁çalıştırıcı	-11.1057
▁rahatlıkla	-11.1057
▁balkon	-11.1057
▁yuvarlağı	-11.1057
▁Yemek	-11.1063
▁Radyo	-11.1066
▁ülkesinde	-11.1068
▁akademisyenler	-11.1073
▁kavramı	-11.1077
▁emniyette	-11.1078
▁uzanan	-11.1079
▁deplasmanında	-11.1086
▁değerinde	-11.109
amayınca	-11.1109
▁Şans	-11.1112
▁satılıyor	-11.1115
▁istemediği	-11.1137
▁Ürdün	-11.1143
▁haziran	-11.1143
▁George	-11.1143
▁arındırıl	-11.1143
▁Şeyh	-11.1144
▁Bayern	-11.1144
▁Viyana	-11.1144
▁Romanya	-11.1144
▁sanığın	-11.1145
lanacağını	-11.1146
▁kuşatma	-11.1146
▁suçlamasıyla	-11.1148
▁planladığı	-11.115
▁borcunu	-11.1154
▁Memur	-11.1155
▁rakamları	-11.1158
▁bulunmayan	-11.1159
▁1980	-11.1163
▁tabutu	-11.1167
▁kendinizi	-11.1168
▁maliyetleri	-11.1172
▁desteklediği	-11.1179
▁haritası	-11.1183
▁yaşını	-11.1187
▁mont	-11.1189
▁ayrılması	-11.1192
▁sağlayabil	-11.1202
▁inme	-11.1202
▁4,5	-11.1203
▁kaçırıl	-11.1212
▁Kapısı	-11.1221
▁tedirgin	-11.1233
▁İdmanyurdu	-11.1233
▁ötürü	-11.1234
▁Çalışan	-11.1234
▁kürsü	-11.1234
▁Duygu	-11.1234
▁Kraliçe	-11.1234
▁YOK	-11.1234
▁istisna	-11.1234
▁SSK	-11.1234
▁önerisi	-11.1236
▁Braga	-11.1237
▁Prens	-11.1237
▁Sokağ	-11.1239
▁ilham	-11.1241
▁uğrayan	-11.1242
▁uçakta	-11.1249
▁verileceği	-11.1249
▁Yerel	-11.1251
▁ürettiği	-11.1252
▁yanıtını	-11.1257
▁sonuçlandı	-11.1263
▁kameraları	-11.1284
▁niteliği	-11.1287
▁YIL	-11.1303
▁haberleşme	-11.1304
▁Savcılığı	-11.132
▁akaryakıt	-11.1324
▁doküman	-11.1324
▁intikam	-11.1324
▁periyod	-11.1324
▁Şükrü	-11.1324
▁Sürücü	-11.1324
▁ziyade	-11.1324
▁DAİŞ	-11.1324
▁EURO	-11.1324
▁niçin	-11.1324
▁Şafak	-11.1324
▁dürüst	-11.1325
▁web	-11.1325
▁Geçmişte	-11.1325
▁yasadışı	-11.1327
▁minik	-11.1329
▁Baykal	-11.1329
▁19.00	-11.133
▁hatları	-11.1337
▁Çoğu	-11.1341
▁düşünün	-11.1351
▁fren	-11.1361
▁tersine	-11.1364
▁geçip	-11.1366
Başkan	-11.1375
▁eğlen	-11.1381
▁boşalt	-11.1394
▁Topu	-11.14
▁Hıristiyan	-11.1416
▁Pensilvanya	-11.1416
▁keşfed	-11.1416
▁laboratuvar	-11.1416
▁ÖSYM	-11.1416
▁Fevzi	-11.1416
▁dayanıklı	-11.1416
▁plastik	-11.1416
▁bardağı	-11.1416
▁Sahne	-11.1417
▁düzgün	-11.1417
▁platformu	-11.1418
▁nihayet	-11.1418
▁Değiş	-11.1419
▁sokaklarda	-11.142
▁çocuklarımız	-11.1421
▁ertesi	-11.1422
▁Öğrenci	-11.1424
▁öğrendim	-11.1427
▁yapmıyor	-11.1428
▁kategorisinde	-11.1429
▁müsabakasında	-11.1433
▁muhabir	-11.1449
ülmüştü	-11.1455
Cumhurbaşkanı	-11.1463
▁yaygınlaş	-11.1466
İlk	-11.1469
lendirilmesi	-11.147
▁bağımsızlığı	-11.1473
▁Görgü	-11.149
▁Hepimiz	-11.1496
bildiği	-11.1503
▁söyleniyor	-11.1504
▁İstatistik	-11.1509
▁Florya	-11.1509
▁parlamenter	-11.1509
▁stadyum	-11.1509
▁İmparator	-11.1509
▁metreküp	-11.1509
▁kafile	-11.1509
▁mahsur	-11.1509
▁Veysel	-11.1509
▁azalarak	-11.1509
▁Farklı	-11.1509
▁zanned	-11.1509
▁Rakka	-11.1509
▁nakil	-11.151
▁bardak	-11.1511
▁öngörüyor	-11.1512
▁yürüyen	-11.1514
▁Çiftçi	-11.1515
▁yönlendirme	-11.1516
▁Melih	-11.1516
▁çalıştıklarını	-11.152
▁ihracatçı	-11.1522
leşiyor	-11.1522
▁Melis	-11.1524
▁Fiyat	-11.1524
▁görünme	-11.1527
▁kararname	-11.1529
▁bağlayan	-11.1529
▁boşluk	-11.153
2016-03-1	-11.1537
▁etrafı	-11.1538
▁araştırıl	-11.1541
▁donat	-11.1549
Çocuk	-11.1557
▁Babası	-11.1558
▁yiyecekler	-11.1596
▁tutulması	-11.16
▁düşürülmesi	-11.1601
▁sandalye	-11.1602
▁çikolata	-11.1602
▁travma	-11.1602
▁yeğeni	-11.1602
▁Kosova	-11.1602
▁ilgilendiren	-11.1602
▁Cemaat	-11.1602
▁Kerem	-11.1603
▁Köln	-11.1603
▁Sultanahmet	-11.1603
▁Çiğ	-11.1604
▁Uludağ	-11.1604
▁Sevgi	-11.1604
▁Tunç	-11.1605
▁mayıs	-11.1607
▁açıldığı	-11.1607
▁temizlenmesi	-11.1608
▁verilmedi	-11.1609
▁Atalay	-11.1611
▁seviyor	-11.1619
leştiği	-11.1619
▁Ford	-11.162
▁Tatar	-11.1621
▁yapabilme	-11.1626
▁tayin	-11.1628
▁güçlendirme	-11.1631
▁yayımlandı	-11.1634
▁kaynaklarından	-11.164
▁öğün	-11.1643
▁Asıl	-11.1651
▁vurma	-11.1656
▁yaralanmıştı	-11.1696
▁sıçra	-11.1697
▁çoğal	-11.1697
▁Ronaldo	-11.1697
▁obezite	-11.1697
▁tahvil	-11.1697
▁gruba	-11.1697
▁gerektiren	-11.1697
▁göğsü	-11.1697
▁solunum	-11.1697
▁makale	-11.1697
▁Sürekli	-11.1697
▁Kapalı	-11.1697
▁gidin	-11.1697
▁seyri	-11.1697
▁piyade	-11.1697
▁rica	-11.1698
▁İnönü	-11.1698
▁gördüğümüz	-11.17
▁leke	-11.1701
▁NBA	-11.1702
▁hedefliyoruz	-11.1702
▁Adanaspor	-11.1709
▁yayınladığı	-11.1709
INDA	-11.1719
▁kaçtığı	-11.1719
▁istiyordu	-11.1739
devlet	-11.1746
▁yorumunu	-11.1755
▁çalma	-11.1757
▁bittiği	-11.1758
▁atık	-11.1761
▁ettirdi	-11.1766
▁öldürülmesi	-11.1784
▁yitirdiği	-11.1786
▁bulması	-11.179
▁Kastamonu	-11.1792
▁Zekeriya	-11.1792
▁köpeği	-11.1792
▁olimpiyat	-11.1792
▁tıbbi	-11.1792
▁çılgın	-11.1792
▁Başvuru	-11.1792
▁domates	-11.1792
▁Çoban	-11.1792
▁Marcelo	-11.1792
▁tedarik	-11.1792
▁FBI	-11.1792
▁Ağaoğlu	-11.1792
▁donanım	-11.1792
▁gişe	-11.1792
▁Elitaş	-11.1792
▁Souza	-11.1792
▁Eyalet	-11.1792
▁Lirası	-11.1792
▁Kuzu	-11.1794
▁güvenilir	-11.1794
▁paniğ	-11.1797
▁mutluyum	-11.1798
▁geçerken	-11.1799
▁Tiyatrosu	-11.1804
▁1.3	-11.1805
▁tutanak	-11.1805
▁yaratıcı	-11.1806
▁dostluk	-11.1806
▁döndüğü	-11.1822
▁Devrim	-11.1827
Bank	-11.1831
▁soktu	-11.1834
▁Boru	-11.1845
2016-03-	-11.1858
▁durması	-11.1867
▁açısı	-11.1883
▁Transfer	-11.1888
▁bilirkişi	-11.1888
▁İtfaiye	-11.1888
▁duyuyorum	-11.1888
▁tavuk	-11.1888
▁Hatice	-11.1888
▁MEB	-11.1888
▁Somali	-11.1888
▁Başika	-11.1888
▁Fikri	-11.1888
▁Hastalıkları	-11.1888
▁Soğuk	-11.1889
▁tekstil	-11.1889
▁Meryem	-11.1889
▁Milyon	-11.189
▁Sedat	-11.189
▁etkiliyor	-11.1892
▁yetişkin	-11.1893
▁Liste	-11.1895
▁yapalım	-11.1896
▁yakalanarak	-11.1902
▁Sonrasında	-11.1903
▁yargılanması	-11.1906
▁kaydedile	-11.1919
▁yenilme	-11.1927
Franc	-11.193
▁kalkması	-11.193
▁sandık	-11.1933
Bursa	-11.194
▁camiası	-11.1959
▁katılıyor	-11.1964
▁mevki	-11.197
▁çerçeve	-11.1972
▁Raporu	-11.1973
▁ayrıldığı	-11.1975
▁Arnavut	-11.1985
▁Koalisyon	-11.1985
▁Poyraz	-11.1985
▁Windows	-11.1985
▁mevduat	-11.1985
▁Muhtar	-11.1985
▁ibaret	-11.1985
▁yumruk	-11.1985
▁Furkan	-11.1985
▁Kahve	-11.1985
▁PTT	-11.1985
▁Emlak	-11.1985
▁Esnaf	-11.1985
▁ödüyor	-11.1985
▁Ayşegül	-11.1987
▁Ofisi	-11.1987
▁sunuluyor	-11.1989
▁yaşındayken	-11.199
▁telsiz	-11.1995
▁Super	-11.1996
▁etkileyen	-11.2003
▁Beck	-11.2003
▁kalıp	-11.2008
▁uçu	-11.2013
öğ	-11.2017
▁verebilir	-11.2022
ydınlatma	-11.2038
▁gireceği	-11.2039
▁bacağı	-11.2039
▁harcadı	-11.2061
▁Aksaray	-11.2083
▁favori	-11.2083
▁geleceğe	-11.2083
▁istatistik	-11.2083
▁promosyon	-11.2083
▁Ameliyat	-11.2083
▁Arsenal	-11.2083
▁Kazakistan	-11.2083
▁eylül	-11.2083
▁TOKİ	-11.2083
▁fındık	-11.2083
▁ünite	-11.2083
▁konsol	-11.2084
▁ekmeği	-11.2084
▁teori	-11.2085
▁belirgin	-11.2087
▁sırrı	-11.2092
İSİ	-11.2093
▁Kutlu	-11.2095
graf	-11.2097
▁düzeltme	-11.2104
▁taktik	-11.2104
▁kaçınma	-11.2112
▁Zirve	-11.2116
▁Ruh	-11.2118
▁bilgilendir	-11.2133
PYD	-11.2136
▁teşkilat	-11.2138
▁Sezonu	-11.2158
▁Milletimiz	-11.216
▁kullanılacak	-11.2165
-100	-11.2165
▁başvurma	-11.2169
▁notunu	-11.2172
▁Muammer	-11.2182
▁Tekirdağ	-11.2182
▁TÜBİTAK	-11.2182
▁görmüyor	-11.2182
▁düğme	-11.2182
▁Personel	-11.2182
▁kutsal	-11.2182
▁negatif	-11.2182
▁çorba	-11.2182
▁Havaalanı	-11.2182
▁mineral	-11.2182
▁ÇIK	-11.2182
▁havaalanı	-11.2182
▁soyunma	-11.2182
▁Fuat	-11.2182
▁Kararname	-11.2182
▁odaklı	-11.2183
▁deyince	-11.2183
▁fakir	-11.2183
▁Nurettin	-11.2185
▁parlak	-11.2185
▁Fethullahçı	-11.2186
▁Fahr	-11.2188
▁Arkadaşları	-11.2189
▁istikametine	-11.219
▁beşinci	-11.219
▁yenilikler	-11.2192
▁çevirme	-11.2204
▁tarafsız	-11.2217
emeyiz	-11.2245
▁sıklıkla	-11.2245
▁okuduğu	-11.2252
▁burnu	-11.2271
▁ulus	-11.2279
▁Başkonsolos	-11.2282
▁Aşırı	-11.2282
▁PFDK	-11.2282
▁traktör	-11.2282
▁Vural	-11.2282
▁espri	-11.2282
▁gribi	-11.2282
▁refah	-11.2282
▁Yalnız	-11.2282
▁zeytinyağı	-11.2282
▁Vadisi	-11.2282
▁Yüzyıl	-11.2283
▁emeği	-11.2284
▁duyuruldu	-11.2284
▁vahim	-11.2285
▁Durumu	-11.2286
▁kaydederek	-11.2288
▁Hamzaoğlu	-11.2288
▁bilinci	-11.229
▁kırsalında	-11.2291
▁gönlü	-11.2292
▁Ergün	-11.2294
▁Peter	-11.2296
▁yoğunlaştı	-11.2311
landırıcı	-11.2325
▁stil	-11.2325
Darbe	-11.2337
▁İşlem	-11.2339
▁gönderilmesi	-11.2353
▁Aboubakar	-11.2383
▁Maalesef	-11.2383
▁gümrük	-11.2383
▁implant	-11.2383
▁Çalışkan	-11.2383
▁yöre	-11.2383
▁çıplak	-11.2383
▁CNN	-11.2383
▁fişeği	-11.2383
▁roketatar	-11.2383
▁Ceylan	-11.2383
▁opsiyon	-11.2383
▁iğne	-11.2383
▁torba	-11.2383
▁poşet	-11.2383
▁şair	-11.2384
▁vesayet	-11.2385
▁toprağı	-11.2385
▁uzunluğunda	-11.2385
amayız	-11.2387
▁Yaptığı	-11.2387
▁mevkisinde	-11.2389
▁DNA	-11.2397
▁sorununu	-11.2398
▁batısında	-11.2399
▁Loto	-11.2399
▁Gelecek	-11.2403
▁müdürlüğü	-11.2409
▁içecekler	-11.2417
pazar	-11.2451
▁bilmediği	-11.2465
▁Büyü	-11.2468
▁yaşanır	-11.2473
•	-11.2485
▁Akşener	-11.2485
TCMB	-11.2485
▁götürülen	-11.2485
▁uzantısı	-11.2485
▁çarpma	-11.2485
▁övgü	-11.2485
▁yansıyan	-11.2485
▁edelim	-11.2485
▁yüce	-11.2485
▁Dicle	-11.2485
▁tebliğ	-11.2486
▁Video	-11.2486
▁tapu	-11.2487
▁Alanya	-11.2487
▁kulağı	-11.2488
▁Gelir	-11.2488
▁Kamil	-11.2488
▁Yüzbaşı	-11.2488
▁bulunmuyor	-11.2489
▁kısmen	-11.2491
▁verilmiştir	-11.2492
▁duyurmuştu	-11.2495
▁katılacağı	-11.2498
▁sustu	-11.2499
▁olmaktadır	-11.2501
▁kaybetmişti	-11.2502
▁Konak	-11.2503
▁bayıl	-11.2529
▁Selam	-11.2531
▁ödediği	-11.2537
▁komuta	-11.2539
YPG	-11.2542
Daha	-11.2545
▁kırılma	-11.2585
▁İhracat	-11.2587
▁Endonezya	-11.2588
▁Gürcistan	-11.2588
▁Lokomotiv	-11.2588
▁Rıdvan	-11.2588
▁bürokrasi	-11.2588
▁İrfan	-11.2588
▁terminal	-11.2588
▁Umarım	-11.2588
▁boyutlu	-11.2588
▁Çözüm	-11.2588
▁Bozkır	-11.2588
▁Necati	-11.2588
▁Atilla	-11.2588
▁Hırvatistan	-11.2588
▁Daniel	-11.2588
▁radar	-11.2589
Diriliş	-11.2589
▁Sarıyer	-11.2589
▁Ölüm	-11.2589
▁esnada	-11.2589
yiğit	-11.2589
▁şutunda	-11.2591
▁Lozan	-11.2592
▁dershane	-11.2596
▁Taraf	-11.2601
çeşme	-11.2603
abilmektedir	-11.2653
▁Ödül	-11.266
▁satıyor	-11.2675
▁boğa	-11.2684
▁kazandırdı	-11.2684
$	-11.2692
▁Mandıralı	-11.2692
▁Reuters	-11.2692
▁bertaraf	-11.2692
▁sömür	-11.2692
▁tesadüf	-11.2692
▁kıdem	-11.2692
▁ekstra	-11.2692
▁Uysal	-11.2692
▁niha	-11.2692
▁TSİ	-11.2693
▁Sorgu	-11.2694
▁ivme	-11.2694
▁buçuk	-11.2694
▁ilerliyor	-11.2694
▁Özlem	-11.2694
▁Topçu	-11.2695
▁aranıyor	-11.2701
▁Modern	-11.2703
▁sığınak	-11.2703
▁uygulanabil	-11.2704
▁reddedil	-11.2712
▁Ceb	-11.2713
▁izah	-11.2716
▁zammı	-11.2716
▁özgürlüğünü	-11.272
▁bırakıyor	-11.2721
▁Kurmay	-11.2721
Geçmiş	-11.2729
▁çöktü	-11.2755
▁yürüdü	-11.2783
leştiren	-11.2791
▁Sönmez	-11.2798
▁fakülte	-11.2798
▁Güçlü	-11.2798
▁Kirby	-11.2798
▁Liverpool	-11.2798
▁Kjaer	-11.2798
▁Tahran	-11.2798
gâh	-11.2798
▁lobi	-11.2798
▁erkeğ	-11.2798
▁meşhur	-11.2799
▁adlandır	-11.2799
▁bulunurken	-11.2802
▁basket	-11.2805
▁rezervasyon	-11.2808
▁kurulduğu	-11.2811
▁kapağı	-11.2811
▁koridor	-11.2819
▁belirlediği	-11.282
▁Şef	-11.2824
▁Sekreter	-11.283
▁yut	-11.2836
*	-11.2858
Erdoğan	-11.2858
Sayın	-11.2859
Kendi	-11.286
uhteşem	-11.2904
▁Stadyumu	-11.2904
▁Hollywood	-11.2904
▁Microsoft	-11.2904
▁Nevruz	-11.2904
▁diktatör	-11.2904
▁istişare	-11.2904
▁referans	-11.2904
▁restorasyon	-11.2904
▁duyuyoruz	-11.2904
▁Sanders	-11.2904
▁mekân	-11.2904
▁hakikat	-11.2904
▁tabela	-11.2904
▁lastik	-11.2904
▁STK	-11.2904
▁YENİ	-11.2906
▁nakit	-11.2906
▁Göztepe	-11.2908
▁aynen	-11.2913
▁damat	-11.2919
▁barınma	-11.292
▁kokusu	-11.2929
▁sürüklen	-11.2941
Şimdi	-11.2966
▁başarama	-11.2967
▁Fox	-11.2973
▁federasyon	-11.3012
▁reyting	-11.3012
▁kaçınılmaz	-11.3012
▁vazife	-11.3012
▁şeffaf	-11.3012
▁öğrendik	-11.3012
▁Şiddet	-11.3012
▁mucize	-11.3012
▁Hazret	-11.3012
▁Günümüzde	-11.3012
▁Yağmur	-11.3012
▁İhracatçılar	-11.3013
▁Otoyolu	-11.3013
▁ağırlaştırılmış	-11.3013
▁Toner	-11.3013
▁Alanyaspor	-11.3013
▁sorulması	-11.3014
▁çelik	-11.3014
▁öngörülüyor	-11.3014
▁Nobel	-11.3014
▁çene	-11.3017
▁belirleyecek	-11.3017
▁yapabilirsiniz	-11.3021
▁devrildi	-11.3035
▁dinlenme	-11.3058
▁mensup	-11.3073
▁karısı	-11.3073
▁tanıyor	-11.3082
▁sürdürdüğü	-11.3089
▁Parlamento	-11.3108
▁bulmuş	-11.311
ılacağını	-11.3119
▁yükümlü	-11.3119
▁Chedjou	-11.312
▁casusluk	-11.312
▁Bandırma	-11.312
▁Yukarı	-11.312
▁sterlin	-11.312
▁Kanarya	-11.312
▁gayri	-11.3121
▁bozuklukları	-11.3121
▁yazışma	-11.3121
▁derneği	-11.3121
▁Bankacılık	-11.3123
▁Burası	-11.3127
▁olumsuzluklar	-11.3128
▁Ekici	-11.3129
▁Luis	-11.313
eğen	-11.3135
▁nitele	-11.3146
▁sürdüğünü	-11.3158
▁mutluluğu	-11.3158
▁dalgalanma	-11.3181
Büyük	-11.3184
Zaman	-11.3185
LARIN	-11.3211
▁dokusu	-11.3225
▁Fırtına	-11.323
▁Hollande	-11.323
▁Kütahya	-11.323
▁Makedonya	-11.323
▁objektif	-11.323
▁profesör	-11.323
▁İdlib	-11.323
▁Akyazı	-11.323
▁Keşke	-11.323
▁iOS	-11.323
▁tatmin	-11.323
▁versiyonu	-11.323
▁güreş	-11.323
▁Medica	-11.323
▁Kamuoyu	-11.3231
▁fırın	-11.3233
▁yemin	-11.3233
▁Binbaşı	-11.3234
▁mantık	-11.3235
▁grip	-11.3237
▁taşıyacak	-11.3237
▁çıkınca	-11.324
▁mevkiinde	-11.3241
▁geleneği	-11.3252
▁sağlandığı	-11.3259
Böyle	-11.3296
▁grev	-11.3301
4-5	-11.3312
▁vermediği	-11.3318
▁Bozkurt	-11.3341
▁Cerrahi	-11.3341
▁Mevcut	-11.3341
▁WhatsApp	-11.3341
▁felsefe	-11.3341
▁okuyucu	-11.3341
▁Pamuk	-11.3341
▁taviz	-11.3341
▁Riyad	-11.3341
▁iskele	-11.3341
▁nasip	-11.3342
▁salata	-11.3343
▁edebileceği	-11.3345
▁konuşuluyor	-11.3346
▁satıcı	-11.335
▁buyur	-11.3351
▁yapabiliyor	-11.3353
▁hissettiği	-11.3353
▁hırs	-11.3372
▁önerdi	-11.3398
Ancak	-11.3409
▁Ümraniye	-11.3423
▁krem	-11.3445
▁seks	-11.3451
▁izlenme	-11.3452
▁koordine	-11.3454
Â	-11.3454
▁periyot	-11.3454
▁MİLYON	-11.3454
▁fuhuş	-11.3454
▁kolesterol	-11.3454
▁lojistik	-11.3454
▁lokanta	-11.3454
▁merhamet	-11.3454
▁çamaşır	-11.3454
▁ılımlı	-11.3454
▁Ziyaret	-11.3454
▁metrobüs	-11.3454
▁Karabağ	-11.3454
▁alakası	-11.3454
▁Nusra	-11.3454
▁ölmüş	-11.3454
▁Nehri	-11.3454
▁Yoğun	-11.3454
▁bürün	-11.3454
▁sorduğu	-11.3454
▁Filiz	-11.3454
▁Limanı	-11.3455
▁İzzet	-11.3456
▁kucağ	-11.3456
▁konfor	-11.3457
▁buluşturdu	-11.3457
▁üstünlük	-11.3457
▁Simon	-11.346
▁İdare	-11.3466
▁uygulandığı	-11.347
▁alınacağı	-11.3514
▁Dijital	-11.3567
▁Fabrika	-11.3567
▁KKTC	-11.3567
▁Kafkas	-11.3567
▁Köşkü	-11.3567
▁konsept	-11.3567
▁protez	-11.3567
▁püskür	-11.3567
▁çarşı	-11.3567
▁Şemdinli	-11.3567
▁Hakkâri	-11.3567
▁kutluyor	-11.3567
▁kuyruk	-11.3567
▁vahşi	-11.3567
▁Kapalıçarşı	-11.3567
▁imajı	-11.3567
▁Çakmak	-11.3567
▁konaklama	-11.3567
▁YGS	-11.3567
▁iştirak	-11.3567
▁5-6	-11.3567
▁limon	-11.3568
▁parmağı	-11.3568
▁prensip	-11.357
▁aralığında	-11.357
▁Aydoğan	-11.3572
▁dönmüş	-11.358
▁ağabey	-11.3581
▁yönlendiril	-11.361
▁ertelendi	-11.3626
▁çektirdi	-11.3656
ULU	-11.3678
▁dokunulmazlığı	-11.3682
▁Denetleme	-11.3682
▁Deprem	-11.3682
▁Tecrübel	-11.3682
▁vazgeçilmez	-11.3682
▁İncirlik	-11.3682
▁Bahçelievler	-11.3682
▁Dergisi	-11.3682
▁felç	-11.3682
▁temmuz	-11.3682
▁atıf	-11.3683
▁lazer	-11.3683
▁merci	-11.3683
▁abart	-11.3684
▁Saygı	-11.3685
▁Jean	-11.3686
▁Çağlayan	-11.3688
▁cinsiyet	-11.3694
▁evlatları	-11.3695
▁güçlükle	-11.3715
▁koruyor	-11.3719
▁geliştiril	-11.3725
▁gireme	-11.373
▁söylemleri	-11.3738
▁gönderildiği	-11.3739
▁kazandırıl	-11.3747
▁paylaşıyor	-11.3772
▁duruşması	-11.3778
▁geçilme	-11.3786
▁yükseldiği	-11.3788
▁doldu	-11.3791
▁Afyonkarahisar	-11.3798
▁Cerattepe	-11.3798
▁fezleke	-11.3798
̇	-11.3798
▁Gebze	-11.3798
▁Linnes	-11.3798
▁selfie	-11.3798
▁William	-11.3798
▁Yasemin	-11.3798
▁sofra	-11.3798
▁Barzani	-11.3799
▁torunu	-11.3799
▁unutulmaz	-11.3801
▁Aliyev	-11.3802
▁fiili	-11.3802
▁Donk	-11.3803
▁atıldığı	-11.3819
▁18.00	-11.3865
▁Temsilci	-11.387
Artık	-11.387
Politika	-11.391
▁Başarılı	-11.3916
▁Darüşşafaka	-11.3916
▁Harekât	-11.3916
▁Talisca	-11.3916
▁santimetre	-11.3916
▁tahrip	-11.3916
▁Halisdemir	-11.3916
▁olağan	-11.3916
▁partner	-11.3916
▁fırça	-11.3916
▁Turgay	-11.3916
▁Beykoz	-11.3916
▁Gizem	-11.3916
▁statüsü	-11.3916
▁danışmanlık	-11.3916
▁dolgu	-11.3916
://	-11.3916
▁Hotel	-11.3916
▁İfade	-11.3916
▁esrar	-11.3917
▁16.00	-11.3919
▁beklediklerini	-11.3921
▁düzeltil	-11.3927
TSK	-11.402
▁sempati	-11.4035
▁Chelsea	-11.4035
▁Kolombiya	-11.4035
▁Koordinasyon	-11.4035
▁kelepçe	-11.4035
▁lütfen	-11.4035
▁çarşamba	-11.4035
▁Muhalefet	-11.4035
▁Nilüfer	-11.4035
▁inovasyon	-11.4035
▁General	-11.4035
▁IMF	-11.4035
▁Huzur	-11.4035
▁Kazım	-11.4035
▁Yurdu	-11.4035
▁yurtiçi	-11.4036
▁Yüksekdağ	-11.4039
▁benziyor	-11.4041
biliyoruz	-11.4054
leyebilirsiniz	-11.4061
▁besley	-11.4076
lendiriyor	-11.4082
▁Petr	-11.4083
İzmir	-11.411
▁Peşmerge	-11.4156
▁karbonhidrat	-11.4156
▁uğruna	-11.4156
▁İşadamları	-11.4156
▁talihsiz	-11.4156
▁çarpan	-11.4156
▁0-0	-11.4156
▁arşiv	-11.4156
▁dedikodu	-11.4156
▁Hızlı	-11.4156
soykırım	-11.4156
▁ceviz	-11.4156
entegre	-11.4156
▁azalış	-11.4156
▁kaçarken	-11.4156
▁İzlanda	-11.4156
▁plaj	-11.4156
▁obüs	-11.4156
▁yanlısı	-11.4156
▁Green	-11.4156
▁üzücü	-11.4157
▁yükümlülükler	-11.4157
▁tekniği	-11.4161
Kiralık	-11.4162
Çocuğu	-11.4178
ükmünde	-11.4229
Eski	-11.4233
Kadın	-11.4234
#	-11.4278
▁müfettiş	-11.4278
▁müteahhit	-11.4278
▁Derdiyok	-11.4278
▁Kıvanç	-11.4278
▁Vücud	-11.4278
▁kuyumcu	-11.4278
▁rüşvet	-11.4278
▁tatbikat	-11.4278
BDDK	-11.4278
▁Sezgin	-11.4278
▁YÖK	-11.4278
▁gözüküyor	-11.4278
▁hakimiyetini	-11.4278
▁Michel	-11.4278
▁Yakup	-11.4278
▁yorul	-11.4278
▁Marşı	-11.4278
▁işyerleri	-11.4279
▁toparlanma	-11.4279
▁Madde	-11.4279
▁stok	-11.4279
▁logo	-11.428
▁Uyku	-11.428
▁tırnak	-11.428
▁Maltepe	-11.4281
▁Buraya	-11.4281
▁Maria	-11.4299
▁döneceği	-11.4305
leştirilmiş	-11.434
▁sayılma	-11.4351
▁yakma	-11.4395
▁Yetki	-11.4399
.01.2016	-11.4401
▁Analistler	-11.4401
▁Yozgat	-11.4401
▁eczane	-11.4401
▁kuzeydoğu	-11.4401
▁mazlum	-11.4401
▁vurularak	-11.4401
▁kalsiyum	-11.4401
▁tetkik	-11.4401
▁yerleştirilen	-11.4401
▁Üretim	-11.4401
▁Pilot	-11.4401
▁alışkanlığı	-11.4401
▁gövde	-11.4401
▁Rahmi	-11.4401
▁Pendik	-11.4401
▁Alparslan	-11.4401
▁minnet	-11.4401
▁Atiba	-11.4401
▁Kayıt	-11.4402
▁Ulusoy	-11.4402
lerarası	-11.4404
▁Cep	-11.4407
▁okuyor	-11.442
▁doğduğu	-11.4435
▁Bölüm	-11.4469
▁kariyer	-11.4476
▁sızma	-11.4499
▁boşandı	-11.4504
rtesi	-11.4514
▁ikram	-11.4524
▁Feyenoord	-11.4526
▁Mistura	-11.4526
▁Netanyahu	-11.4526
▁Nüfus	-11.4526
▁hesaba	-11.4526
▁oksijen	-11.4526
▁Şükür	-11.4526
orgeneral	-11.4526
▁Komando	-11.4526
▁Numara	-11.4526
▁Kudüs	-11.4526
▁intikal	-11.4526
▁GATA	-11.4526
▁Ünsal	-11.4526
▁Gültekin	-11.4526
▁TOP	-11.4526
▁kalabalığ	-11.4527
▁esnek	-11.4527
▁soğan	-11.4527
▁OLDU	-11.4527
▁figür	-11.4528
▁Düğün	-11.4528
▁Tipi	-11.4532
▁uzlaş	-11.4542
▁Marc	-11.458
Kırmızı	-11.4607
▁Çağrı	-11.4625
▁yaşanmış	-11.4634
▁Gayrimenkul	-11.4653
▁Kürdistan	-11.4653
▁mükellef	-11.4653
▁stüdyo	-11.4653
▁tereddüt	-11.4653
▁Büyükçekmece	-11.4653
▁Dolmabahçe	-11.4653
▁dağılımı	-11.4653
▁muhtaç	-11.4653
▁tahrik	-11.4653
▁Komşu	-11.4653
▁söyleyeyim	-11.4653
▁tütün	-11.4653
▁Ağabey	-11.4653
▁SUV	-11.4653
▁İzmit	-11.4653
▁rektör	-11.4653
▁Niğde	-11.4653
▁Akçay	-11.4653
▁kontrat	-11.4653
▁dudak	-11.4653
▁acımasız	-11.4653
▁talip	-11.4654
▁meslektaşları	-11.4654
▁Castro	-11.4656
▁ayırt	-11.466
▁Hekim	-11.4661
▁konulması	-11.4663
▁etmeyeceği	-11.4692
▁değişikliğ	-11.471
CHP	-11.4735
▁dolma	-11.4739
▁çıkartıla	-11.4777
▁Eczacı	-11.4781
▁rüzgâr	-11.4781
▁Kavşağı	-11.4781
▁Nevşehir	-11.4781
▁bambaşka	-11.4781
▁Yanlış	-11.4781
▁oğulları	-11.4781
▁temyiz	-11.4781
▁İBB	-11.4781
▁hazine	-11.4781
▁takipçisi	-11.4781
▁Yakası	-11.4783
▁Cadde	-11.4786
▁kuzu	-11.4789
▁reddet	-11.4807
Trabzonspor	-11.4865
Hayır	-11.4865
▁demokrat	-11.4908
▁Strateji	-11.4911
=	-11.4911
▁maksadıyla	-11.4911
▁materyal	-11.4911
▁provokasyon	-11.4911
▁sendromu	-11.4911
▁Çukurca	-11.4911
▁İskender	-11.4911
▁cesur	-11.4911
▁gevşe	-11.4911
▁işgücü	-11.4911
▁meşgul	-11.4911
▁Boyko	-11.4911
▁bahsettiği	-11.4911
▁kaçakçılığı	-11.4911
▁Center	-11.4911
▁heves	-11.4911
2016-2017	-11.4911
▁yönelme	-11.4911
▁belirtmişti	-11.4911
▁Keskin	-11.4912
▁Tunus	-11.4912
▁özgüven	-11.4913
▁özeti	-11.4913
▁tanınma	-11.4937
▁yöneldi	-11.4946
▁arandığı	-11.4977
▁bilanço	-11.5042
▁Üretici	-11.5042
▁Enflasyon	-11.5042
▁Kırklareli	-11.5042
▁zulüm	-11.5042
▁İnegöl	-11.5042
▁Şeref	-11.5042
▁Smith	-11.5042
▁dâhil	-11.5042
▁karmaşık	-11.5042
▁sanırım	-11.5042
2016-02-1	-11.5042
▁afiş	-11.5043
▁karargah	-11.5043
▁müdürlükleri	-11.5043
▁Hint	-11.5069
▁kaybola	-11.507
▁cezalandırıl	-11.5094
Sinema	-11.5132
▁Festival	-11.5141
▁vilayet	-11.5176
▁Özyakup	-11.5176
▁Cevdet	-11.5176
▁Kuşadası	-11.5176
▁Schengen	-11.5176
▁federal	-11.5176
▁çarparak	-11.5176
▁şehre	-11.5176
▁mağara	-11.5176
▁Senegal	-11.5176
▁mülakat	-11.5176
▁Dikkat	-11.5176
▁yetmezliği	-11.5176
▁rutin	-11.5176
▁mahrum	-11.5176
▁kundak	-11.5176
▁seyrediyor	-11.5177
▁patent	-11.5177
▁Vedat	-11.5178
▁biçim	-11.5184
▁prens	-11.5184
▁tüy	-11.5204
Bütün	-11.5265
silahlı	-11.5265
▁üniforma	-11.5311
.09.2016	-11.5311
▁World	-11.5311
▁Çarşı	-11.5311
▁çağdaş	-11.5311
▁çekirdek	-11.5311
▁Global	-11.5311
▁kaybederken	-11.5311
▁Kampanya	-11.5311
▁çekerken	-11.5311
▁acele	-11.5311
▁Ruhani	-11.5311
▁Unutma	-11.5314
▁sağlanabil	-11.5344
ulurken	-11.5345
▁boşaltıl	-11.5366
▁tabut	-11.5414
▁zihni	-11.5445
_	-11.5448
▁Edebiyat	-11.5448
▁metabolizma	-11.5448
OĞLU	-11.5448
▁Mülteciler	-11.5448
▁Talimatı	-11.5448
▁Tümgeneral	-11.5448
▁vaziyette	-11.5448
▁İrlanda	-11.5448
▁Halbuki	-11.5448
▁lojman	-11.5448
▁Sergey	-11.5448
▁İdris	-11.5448
▁sarsıntı	-11.5448
▁buğday	-11.5448
▁göbeği	-11.5448
▁HTC	-11.5448
▁başlıca	-11.5448
▁İLK	-11.5448
▁SMS	-11.5448
▁Rejim	-11.5448
▁Plus	-11.5448
▁sarılarak	-11.5449
▁ayrılarak	-11.545
▁Senato	-11.545
▁mutsuz	-11.5453
▁harcay	-11.5456
▁köylüler	-11.5459
▁çağrıldı	-11.5484
arslan	-11.5489
▁ayrılmış	-11.5516
▁yenildi	-11.5534
▁ANKARA	-11.5587
▁Dayanışma	-11.5587
▁Etkinlik	-11.5587
▁Juventus	-11.5587
▁Kırıkkale	-11.5587
▁Renault	-11.5587
▁jeopoliti	-11.5587
▁kontenjan	-11.5587
▁mahkûm	-11.5587
▁segment	-11.5587
▁Cameron	-11.5587
▁Malezya	-11.5587
▁müvekkili	-11.5587
▁sesleniyorum	-11.5587
kurtarılamayarak	-11.5587
▁Geliştirme	-11.5587
▁Ufuk	-11.5587
▁hoşgörü	-11.5587
▁Hidayet	-11.5587
▁LYS	-11.5587
▁bağlamda	-11.5587
▁belirtirken	-11.5587
▁konuşurken	-11.5587
▁Garanti	-11.5587
▁bilinmiyor	-11.5587
▁Sigara	-11.5587
▁Dubai	-11.5587
▁ÇOK	-11.5587
▁Fındık	-11.5587
▁08.00	-11.5587
▁cunta	-11.5587
▁Bırak	-11.5587
▁Esenyurt	-11.5587
▁banyo	-11.5588
▁sicil	-11.5591
▁bant	-11.5594
▁Karayel	-11.5594
▁anons	-11.5595
▁edinile	-11.5596
▁Efka	-11.56
▁sıva	-11.5602
▁artırıl	-11.5625
▁aşamasın	-11.5631
%	-11.5682
İslam	-11.5682
▁Adriano	-11.5727
▁Ambulans	-11.5727
▁DEĞİL	-11.5727
▁Elektronik	-11.5727
▁Küçükçekmece	-11.5727
▁antibiyotik	-11.5727
▁husumet	-11.5727
▁manipül	-11.5727
▁yepyeni	-11.5727
▁çember	-11.5727
▁Neymar	-11.5728
▁pratik	-11.5728
▁Aşağı	-11.5728
▁20:00	-11.5728
▁dizayn	-11.5728
▁Sabih	-11.5732
▁takipçileri	-11.5739
▁Palm	-11.576
hayır	-11.5826
YORUZ	-11.5833
▁dolayl	-11.5868
▁Kapadokya	-11.587
▁Thomas	-11.587
▁makyaj	-11.587
▁Florida	-11.587
▁Sırbistan	-11.587
▁Wesley	-11.587
▁ambargo	-11.587
▁ağustos	-11.587
Çeşitli	-11.587
▁Balyoz	-11.587
▁başlayınca	-11.587
▁seminer	-11.587
▁GYO	-11.587
▁fişek	-11.587
▁Sıcak	-11.5871
▁Gösteri	-11.5871
▁KHK	-11.5871
▁zaaf	-11.5871
▁ulaşacak	-11.5871
▁İhale	-11.5871
▁Jones	-11.5871
▁şeridi	-11.5871
▁Albüm	-11.5871
▁görülecek	-11.5872
▁üzerlerin	-11.5873
▁yaşayacağı	-11.5877
▁saptandı	-11.5878
▁geçirilmiş	-11.5884
▁namus	-11.5894
▁başarmış	-11.5901
▁mutlak	-11.5953
▁çalıştırıl	-11.5962
ilindiği	-11.6011
Lacivertli	-11.6015
é	-11.6015
▁BÜYÜK	-11.6015
▁Ereğli	-11.6015
▁Kerkük	-11.6015
▁Kuveyt	-11.6015
▁Mevlana	-11.6015
▁Müşavir	-11.6015
▁Müşteri	-11.6015
▁Sancaktepe	-11.6015
▁Vietnam	-11.6015
▁liberal	-11.6015
▁tuhaf	-11.6015
▁Saldırgan	-11.6015
▁bağlamında	-11.6015
▁bodrum	-11.6015
▁doğrultuda	-11.6015
▁müddet	-11.6015
▁Tutuklu	-11.6015
[	-11.8868
]	-11.9264
>	-12.1027
°	-12.1777
а	-12.231
ˆ	-12.4439
ə	-12.5141
á	-12.5512
е	-12.7148
ä	-12.9105
¦	-12.9105
¥	-13.0874
ó	-13.154
€	-13.3024
í	-13.4766
\	-13.5766
	-13.5766
¬	-13.6877
å	-13.6877
⁄	-13.6877
è	-13.6877
ê	-13.9556
■	-13.9556
×	-14.1222
ø	-14.5722
¡	-14.5723
®	-14.5723
ï	-14.5723
⭐	-14.5723
️	-14.5723
ú	-14.5723
à	-14.9056
^	-14.9056
Ä	-14.9056
●	-14.9056
£	-14.9056
о	-14.9056
◊	-15.4011
ا	-15.4055
د	-15.4055
س	-15.4055
ل	-15.4056
و	-15.4056
ي	-15.4056
É	-15.4056
ƒ	-15.4056
	-15.4056
Î	-15.4056
ß	-15.4056
ã	-15.4056
і	-15.4056
‬	-15.4056
∂	-15.4056
☮	-15.4056
👍	-15.4056
α	-16.4047
🇹	-16.4048
🇷	-16.4049
æ	-16.405
ć	-16.4051
ñ	-16.4052
̧	-16.4053
̈	-16.4054
Ğ	-16.4055
ة	-16.4055
ح	-16.4055
ر	-16.4055
ق	-16.4055
ن	-16.4055
Ñ	-16.4056
Л	-16.4056
п	-16.4056
ë	-16.4056
ē	-16.4056
~	-16.4056
	-16.4056
Å	-16.4056
Û	-16.4056
ù	-16.4056
ł	-16.4056
μ	-16.4056
к	-16.4056
с	-16.4056
т	-16.4056
у	-16.4056
غ	-16.4056
م	-16.4056
‫	-16.4056
›	-16.4056
🏆	-16.4056
🏻	-16.4056
👑	-16.4056
💋	-16.4056
💧	-16.4056
💰	-16.4056
😁	-16.4056
😊	-16.4056
🙏	-16.4056
Ø	-16.4056
(	-16.4056
н	-16.4056
