[UNK]	0
[CLS]	1
[SEP]	2
[PAD]	3
[MASK]	4
!	5
"	6
#	7
$	8
%	9
&	10
'	11
(	12
)	13
*	14
+	15
,	16
-	17
.	18
/	19
0	20
1	21
2	22
3	23
4	24
5	25
6	26
7	27
8	28
9	29
:	30
;	31
=	32
>	33
?	34
@	35
[	36
\	37
]	38
^	39
_	40
`	41
a	42
b	43
c	44
d	45
e	46
f	47
g	48
h	49
i	50
j	51
k	52
l	53
m	54
n	55
o	56
p	57
q	58
r	59
s	60
t	61
u	62
v	63
w	64
x	65
y	66
z	67
~	68
	69
	70
	71
	72
¡	73
£	74
¥	75
¦	76
¬	77
­	78
®	79
°	80
·	81
×	82
ß	83
à	84
á	85
â	86
ã	87
ä	88
å	89
æ	90
ç	91
è	92
é	93
ê	94
ë	95
í	96
î	97
ï	98
ñ	99
ó	100
ö	101
ø	102
ù	103
ú	104
û	105
ü	106
ć	107
ē	108
ğ	109
ı	110
ł	111
ş	112
ƒ	113
ə	114
ˆ	115
̆	116
̇	117
̈	118
̧	119
α	120
μ	121
а	122
е	123
к	124
л	125
н	126
о	127
п	128
с	129
т	130
у	131
і	132
ا	133
ة	134
ح	135
د	136
ر	137
س	138
غ	139
ق	140
ل	141
م	142
ن	143
و	144
ي	145
‎	146
‏	147
•	148
‫	149
‬	150
′	151
›	152
⁄	153
€	154
∂	155
■	156
◊	157
●	158
☮	159
⭐	160
️	161
�	162
🇷	163
🇹	164
🏆	165
🏻	166
👍	167
👑	168
💋	169
💧	170
💰	171
😁	172
😊	173
🙏	174
##i	175
##a	176
##r	177
##y	178
##ı	179
##p	180
##c	181
##h	182
##u	183
##s	184
##t	185
##n	186
##o	187
##̇	188
##ç	189
##ü	190
##l	191
##e	192
##b	193
##d	194
##â	195
##ş	196
##v	197
##g	198
##9	199
##8	200
##ğ	201
##z	202
##x	203
##m	204
##f	205
##ö	206
##w	207
##k	208
##6	209
##5	210
##3	211
##j	212
##2	213
##0	214
##7	215
##4	216
##1	217
##q	218
##.	219
##é	220
##í	221
##û	222
##'	223
##ó	224
##å	225
##î	226
##"	227
##á	228
##ä	229
##а	230
##-	231
##)	232
##و	233
##غ	234
##ل	235
##è	236
##ˆ	237
##,	238
##е	239
##ã	240
##ə	241
##ł	242
##:	243
##п	244
##с	245
##о	246
##%	247
##?	248
##ē	249
##+	250
##ú	251
##/	252
##!	253
##د	254
##س	255
##ي	256
##ة	257
##′	258
##*	259
##ن	260
##к	261
##у	262
##т	263
##>	264
##і	265
##🏻	266
##ø	267
##ß	268
##ح	269
##ر	270
##م	271
##ar	272
##er	273
##an	274
##en	275
##in	276
##ir	277
##ak	278
##le	279
lar	280
##il	281
ler	282
##ın	283
de	284
an	285
in	286
nd	287
ya	288
##la	289
##ek	290
##or	291
##al	292
da	293
ar	294
ve	295
##el	296
##ma	297
ol	298
##et	299
ma	300
bu	301
bir	302
##di	303
ın	304
al	305
ka	306
li	307
##ık	308
##de	309
##da	310
##un	311
en	312
##aş	313
##ıl	314
##ya	315
##dı	316
##st	317
##yor	318
di	319
il	320
##iz	321
er	322
##on	323
##ğı	324
et	325
##ur	326
##ki	327
ne	328
##ür	329
##ır	330
##si	331
gö	332
##ün	333
##sı	334
##at	335
##me	336
##ış	337
##ği	338
si	339
ay	340
##li	341
nı	342
##ti	343
un	344
i̇	345
te	346
me	347
ye	348
yap	349
iç	350
##iş	351
ed	352
on	353
na	354
leri	355
nin	356
##lar	357
##am	358
baş	359
nda	360
ni	361
##ığı	362
sı	363
ir	364
ab	365
ha	366
##ta	367
sa	368
##du	369
##ce	370
nın	371
ak	372
la	373
ta	374
at	375
##ra	376
ac	377
##im	378
için	379
##ka	380
kar	381
im	382
##eri	383
##re	384
le	385
##ok	386
tür	387
##ye	388
nde	389
ama	390
##ul	391
##um	392
ları	393
or	394
ile	395
##ke	396
##tı	397
ist	398
lik	399
ün	400
ra	401
##ol	402
##yle	403
gel	404
##ım	405
##üz	406
ul	407
oldu	408
##uş	409
##em	410
##sa	411
ver	412
ek	413
##ız	414
den	415
ara	416
##se	417
ur	418
##ara	419
##ük	420
##te	421
aç	422
mü	423
ev	424
ko	425
re	426
iş	427
du	428
dı	429
se	430
iyor	431
##ik	432
sin	433
##it	434
##ha	435
##ön	436
ba	437
lı	438
ıl	439
##şı	440
az	441
do	442
bul	443
##ut	444
çık	445
ması	446
el	447
iz	448
##uk	449
ti	450
dan	451
ge	452
sö	453
ec	454
türki	455
sın	456
to	457
ki	458
##ör	459
ndan	460
lan	461
##lı	462
su	463
aş	464
yıl	465
ter	466
uz	467
##endi	468
üz	469
lık	470
olduğ	471
acak	472
##ler	473
kal	474
##lu	475
##üş	476
##cı	477
##dan	478
tı	479
ön	480
bü	481
em	482
##bi	483
son	484
yer	485
kad	486
##aki	487
ik	488
ger	489
çok	490
bel	491
gi	492
yan	493
şe	494
##ca	495
iy	496
etti	497
ül	498
larak	499
bak	500
##gi	501
##üm	502
öz	503
mil	504
as	505
edil	506
gü	507
um	508
##den	509
am	510
gün	511
ecek	512
##az	513
yen	514
bil	515
ri	516
bulun	517
çal	518
##ro	519
kur	520
es	521
olan	522
daha	523
bö	524
##cu	525
##dü	526
ele	527
ıyor	528
geç	529
onra	530
ey	531
##yon	532
mak	533
kon	534
var	535
tan	536
ır	537
dur	538
av	539
##lan	540
mu	541
dığı	542
diği	543
kay	544
ise	545
top	546
ah	547
gör	548
karşı	549
çalış	550
uy	551
##çe	552
yar	553
değ	554
##ci	555
tır	556
unu	557
ine	558
##cak	559
bin	560
ce	561
mi	562
yapıl	563
yön	564
po	565
##por	566
##ağı	567
ım	568
##ru	569
##ları	570
göre	571
büy	572
##bil	573
dün	574
gen	575
bo	576
##ge	577
ağ	578
yaş	579
yeni	580
belir	581
##yo	582
##be	583
açık	584
ke	585
##fa	586
##us	587
yüz	588
başka	589
laş	590
##işi	591
nden	592
liği	593
terör	594
##za	595
mesi	596
ği	597
ür	598
yi	599
tir	600
yla	601
##ba	602
yak	603
##kı	604
ad	605
inin	606
ör	607
kişi	608
acağı	609
ece	610
##va	611
fa	612
##ken	613
##ste	614
tar	615
oy	616
yle	617
mış	618
her	619
büyük	620
##aman	621
##man	622
##lay	623
oğ	624
##ül	625
kendi	626
tara	627
düş	628
taraf	629
mek	630
şu	631
abil	632
lu	633
ülke	634
böl	635
be	636
konu	637
##let	638
pro	639
dır	640
kadar	641
mal	642
başla	643
##uz	644
gibi	645
dev	646
sun	647
##era	648
zaman	649
##oğ	650
üzeri	651
sor	652
dön	653
arası	654
##sta	655
##üt	656
yı	657
lığı	658
dedi	659
miş	660
biz	661
türk	662
söyle	663
##is	664
##yat	665
ında	666
anla	667
art	668
##na	669
##bul	670
arak	671
eceği	672
doğ	673
yol	674
##san	675
par	676
sür	677
ından	678
##gil	679
açıkl	680
söz	681
miz	682
tığı	683
##pa	684
spor	685
gerek	686
dir	687
ardı	688
erek	689
ot	690
alın	691
iste	692
eki	693
taş	694
onuş	695
syon	696
man	697
##ih	698
dünya	699
sal	700
##lis	701
eş	702
ının	703
inde	704
ğı	705
şeh	706
larda	707
sağ	708
yor	709
ok	710
nun	711
düz	712
alan	713
may	714
##eki	715
hak	716
tur	717
##lık	718
ih	719
##ne	720
ük	721
tak	722
ci	723
karar	724
get	725
mah	726
##hu	727
kları	728
ifa	729
##ekil	730
getir	731
ilk	732
kö	733
eme	734
ifade	735
olay	736
ların	737
özel	738
aber	739
cum	740
ban	741
ini	742
neden	743
##ali	744
##met	745
ap	746
ını	747
tu	748
ğın	749
mız	750
ben	751
dar	752
uyor	753
os	754
##leş	755
ayr	756
id	757
##ile	758
##ah	759
it	760
yüzde	761
lü	762
lendi	763
ril	764
örg	765
maç	766
tut	767
yönet	768
mo	769
ço	770
kat	771
değil	772
i̇st	773
##mak	774
eç	775
yun	776
cumhu	777
dış	778
fet	779
iki	780
##iy	781
örgüt	782
ten	783
kap	784
bölge	785
öl	786
##ven	787
men	788
##ere	789
diye	790
sev	791
##tü	792
devam	793
eden	794
ağı	795
len	796
kt	797
ndaki	798
##ren	799
##cü	800
güven	801
siz	802
deki	803
hasta	804
st	805
ip	806
##ğü	807
oğlu	808
ada	809
anbul	810
ren	811
bun	812
abd	813
ken	814
nt	815
kı	816
is	817
##mek	818
##leri	819
önce	820
ebil	821
altı	822
polis	823
durum	824
genel	825
##iler	826
yaşa	827
gaz	828
bek	829
op	830
##laş	831
ilgil	832
##iye	833
imi	834
##ğer	835
düzen	836
ulla	837
üre	838
nl	839
##zı	840
çe	841
milyo	842
rı	843
imiz	844
lara	845
ullan	846
insan	847
nem	848
saat	849
##bir	850
iyi	851
vur	852
adı	853
üç	854
duğ	855
hem	856
lerde	857
etme	858
tek	859
ayı	860
gir	861
iyet	862
evlet	863
mar	864
nemli	865
can	866
ancak	867
yok	868
iya	869
kr	870
olma	871
kim	872
mey	873
sında	874
maya	875
göste	876
ana	877
##kan	878
ut	879
saldı	880
ro	881
anı	882
bilgi	883
daki	884
mer	885
bakan	886
aldı	887
##ran	888
unda	889
ceza	890
ala	891
haf	892
eli	893
lerin	894
##ini	895
tem	896
rdi	897
rd	898
##ira	899
değer	900
uriye	901
##gu	902
gerç	903
##ip	904
yet	905
##lü	906
takım	907
gid	908
şey	909
##cuk	910
kleri	911
##mi	912
10	913
ğını	914
##ılar	915
çocuk	916
edi	917
içind	918
tüm	919
sine	920
öğ	921
##ve	922
üst	923
##ber	924
dem	925
duy	926
##tu	927
ku	928
met	929
han	930
ımız	931
çıkar	932
nlığı	933
iyle	934
##ji	935
ran	936
rus	937
rme	938
gelen	939
tarih	940
ekleş	941
mı	942
orta	943
sır	944
cı	945
nce	946
haz	947
kadın	948
##yla	949
##ey	950
landı	951
baka	952
i̇s	953
tü	954
lo	955
##dir	956
##gı	957
iliş	958
i̇l	959
isi	960
ca	961
dönem	962
fi	963
##nı	964
ale	965
rb	966
sinde	967
ede	968
sah	969
ort	970
luk	971
üks	972
esi	973
##miş	974
ça	975
vru	976
ıp	977
zor	978
##ılı	979
hava	980
##i̇	981
haber	982
rbaş	983
##cad	984
una	985
parti	986
ilişk	987
ru	988
kara	989
rdoğ	990
muh	991
##lem	992
ına	993
sonu	994
san	995
opera	996
şekil	997
##ine	998
sıra	999
rbaşk	1000
lüğü	1001
kaz	1002
ade	1003
oto	1004
##atan	1005
sil	1006
ıldı	1007
rül	1008
kan	1009
uş	1010
net	1011
uyg	1012
likte	1013
sel	1014
leş	1015
nün	1016
istem	1017
kayb	1018
ch	1019
##arı	1020
res	1021
##eş	1022
15	1023
ral	1024
sini	1025
bah	1026
vrupa	1027
fetö	1028
hayat	1029
##gün	1030
üyor	1031
sağla	1032
har	1033
lere	1034
uç	1035
bugün	1036
bağ	1037
hafta	1038
erke	1039
ici	1040
##dür	1041
dü	1042
azla	1043
ız	1044
kır	1045
kam	1046
kü	1047
ünde	1048
yaz	1049
isti	1050
lira	1051
ekon	1052
malar	1053
##ri	1054
kazan	1055
soru	1056
yanı	1057
biri	1058
he	1059
us	1060
##yet	1061
vatan	1062
niz	1063
beş	1064
##dia	1065
hakkı	1066
yuncu	1067
sav	1068
##ker	1069
arı	1070
görev	1071
git	1072
ndeki	1073
lama	1074
##ğiş	1075
iriş	1076
geldi	1077
##cel	1078
topla	1079
yakın	1080
daş	1081
ali	1082
geliş	1083
dolar	1084
bas	1085
katıl	1086
rah	1087
likle	1088
ekono	1089
kes	1090
diy	1091
rta	1092
müdür	1093
doğru	1094
eh	1095
nk	1096
ulaş	1097
##ay	1098
verdi	1099
böyle	1100
merke	1101
değiş	1102
##he	1103
##çi	1104
fen	1105
##ret	1106
süre	1107
çi	1108
say	1109
para	1110
mücad	1111
madı	1112
ark	1113
aynı	1114
yaşı	1115
bahçe	1116
zal	1117
##je	1118
sara	1119
nız	1120
kor	1121
sü	1122
sinin	1123
gazet	1124
zi	1125
##ına	1126
adece	1127
aile	1128
ekip	1129
olmak	1130
hazır	1131
af	1132
per	1133
deniz	1134
##kü	1135
saray	1136
anlat	1137
mez	1138
##rol	1139
##rı	1140
til	1141
asker	1142
##rada	1143
anan	1144
etk	1145
lay	1146
iler	1147
kaç	1148
mut	1149
darbe	1150
nü	1151
##dde	1152
nma	1153
iddia	1154
so	1155
sahip	1156
nkara	1157
eski	1158
pk	1159
riyet	1160
bır	1161
##uştu	1162
bırak	1163
iye	1164
sız	1165
##ram	1166
unlar	1167
##kat	1168
harek	1169
edef	1170
üksek	1171
i̇n	1172
genç	1173
kayd	1174
yay	1175
inden	1176
##mam	1177
##zi	1178
pkk	1179
üret	1180
ikkat	1181
veya	1182
düşü	1183
diğer	1184
fener	1185
şir	1186
yür	1187
##ot	1188
gül	1189
tl	1190
suç	1191
ış	1192
çıktı	1193
##üp	1194
sunda	1195
tiği	1196
rtaya	1197
üm	1198
ladı	1199
yapan	1200
raf	1201
enler	1202
tıl	1203
##ete	1204
inan	1205
üzere	1206
azete	1207
ans	1208
görüş	1209
aşkan	1210
##yas	1211
yöne	1212
arka	1213
kez	1214
pi	1215
mahke	1216
hat	1217
deste	1218
larla	1219
şim	1220
bunun	1221
##atış	1222
fil	1223
üs	1224
şehit	1225
kurul	1226
yapı	1227
ayın	1228
bekle	1229
kapsa	1230
öğren	1231
beşik	1232
##inc	1233
mel	1234
gram	1235
oyna	1236
##tar	1237
şar	1238
nu	1239
der	1240
yu	1241
sına	1242
maz	1243
üni	1244
istan	1245
gol	1246
##00	1247
tele	1248
şehir	1249
alata	1250
üye	1251
andı	1252
lanan	1253
aha	1254
rusya	1255
uygul	1256
sık	1257
bazı	1258
tep	1259
şi	1260
lig	1261
şirke	1262
ata	1263
isim	1264
sen	1265
çı	1266
bunu	1267
amada	1268
ndı	1269
ilçe	1270
ayrı	1271
mille	1272
eği	1273
lerle	1274
araç	1275
##şa	1276
sorun	1277
lt	1278
şek	1279
##lik	1280
geçen	1281
mayı	1282
##tün	1283
ns	1284
etki	1285
##zon	1286
tiril	1287
mes	1288
luğ	1289
içeri	1290
fiyat	1291
açıl	1292
nıl	1293
zaltı	1294
nas	1295
tah	1296
taşı	1297
rak	1298
i̇ş	1299
banka	1300
sürdü	1301
paz	1302
seç	1303
##yal	1304
tamam	1305
ulus	1306
proje	1307
demir	1308
milli	1309
rek	1310
gru	1311
osyal	1312
günü	1313
tam	1314
rü	1315
onun	1316
kul	1317
ağlık	1318
ser	1319
liler	1320
kız	1321
tör	1322
bizim	1323
bile	1324
onlar	1325
pazar	1326
şö	1327
rt	1328
ihti	1329
adam	1330
arklı	1331
miyor	1332
leme	1333
silah	1334
ng	1335
olo	1336
ağır	1337
if	1338
ğim	1339
tanı	1340
oruş	1341
ic	1342
##üs	1343
taki	1344
turma	1345
##mış	1346
##lah	1347
hi	1348
##niy	1349
##dav	1350
##nde	1351
gönde	1352
rsi	1353
hali	1354
##bo	1355
uv	1356
yayın	1357
emniy	1358
##lam	1359
nasıl	1360
ünive	1361
milya	1362
rsite	1363
müş	1364
hal	1365
iti	1366
erken	1367
bildi	1368
plan	1369
izmet	1370
hale	1371
öldü	1372
şöyle	1373
ep	1374
fe	1375
##muz	1376
tırma	1377
ıra	1378
urada	1379
şimdi	1380
güç	1381
rab	1382
kli	1383
dik	1384
sezon	1385
eçti	1386
alt	1387
ntrol	1388
anlaş	1389
maçı	1390
geçir	1391
mik	1392
yaral	1393
arkad	1394
nok	1395
emmuz	1396
ğren	1397
his	1398
ing	1399
ğini	1400
üc	1401
##mba	1402
ıyla	1403
oyun	1404
göz	1405
##nik	1406
acı	1407
ıcı	1408
##ında	1409
işlem	1410
ık	1411
üp	1412
eğit	1413
laşık	1414
nokta	1415
ildi	1416
ğrenc	1417
metre	1418
va	1419
ze	1420
sını	1421
ehmet	1422
##bu	1423
yasa	1424
aki	1425
mcı	1426
kil	1427
tedav	1428
edya	1429
aba	1430
rdü	1431
öde	1432
yük	1433
lenen	1434
duğu	1435
kabul	1436
##alı	1437
tutuk	1438
lanma	1439
nel	1440
aşa	1441
cu	1442
##gan	1443
##su	1444
kent	1445
##der	1446
lma	1447
siniz	1448
##ga	1449
şah	1450
geri	1451
##bol	1452
unun	1453
medi	1454
eled	1455
sonuc	1456
ilgi	1457
##yi	1458
luştu	1459
uğ	1460
gu	1461
##ça	1462
düşün	1463
yardı	1464
lük	1465
doğu	1466
bomba	1467
oloji	1468
tti	1469
ntı	1470
gece	1471
ğimiz	1472
bölüm	1473
mında	1474
eng	1475
ite	1476
ardım	1477
tale	1478
bütün	1479
itiba	1480
okul	1481
ekt	1482
za	1483
film	1484
uzun	1485
dava	1486
çö	1487
şüp	1488
şüphe	1489
mıyor	1490
telef	1491
yağ	1492
oran	1493
##şe	1494
aka	1495
ğin	1496
ant	1497
sınır	1498
etkil	1499
##dır	1500
içbir	1501
köy	1502
has	1503
din	1504
far	1505
yo	1506
ayısı	1507
ırken	1508
om	1509
orm	1510
sının	1511
ait	1512
önün	1513
bay	1514
erkes	1515
eri	1516
for	1517
öne	1518
##ğın	1519
rağ	1520
12	1521
##tür	1522
dile	1523
yakal	1524
mahal	1525
kol	1526
ez	1527
##üme	1528
fut	1529
kurum	1530
lcu	1531
pu	1532
rağme	1533
meye	1534
koy	1535
futbo	1536
aya	1537
güz	1538
etmek	1539
kilo	1540
rma	1541
##çok	1542
ikinc	1543
ika	1544
yat	1545
kika	1546
çıkan	1547
hiç	1548
##pit	1549
yetki	1550
vurgu	1551
20	1552
ste	1553
şam	1554
##mı	1555
olayı	1556
ündem	1557
olur	1558
11	1559
bekl	1560
irçok	1561
##ulu	1562
amay	1563
anda	1564
min	1565
kaldı	1566
espit	1567
kür	1568
ıs	1569
kra	1570
ner	1571
tekn	1572
dil	1573
ob	1574
çöz	1575
ndi	1576
tırım	1577
ekim	1578
lesi	1579
pek	1580
laşma	1581
##rans	1582
yö	1583
rün	1584
##cek	1585
dav	1586
savaş	1587
amadı	1588
anlam	1589
bağlı	1590
ize	1591
bera	1592
onu	1593
elim	1594
mev	1595
mod	1596
##deş	1597
ardeş	1598
veren	1599
toplu	1600
sarı	1601
tane	1602
ğü	1603
sürec	1604
rım	1605
sonuç	1606
oca	1607
atan	1608
fir	1609
satış	1610
kayna	1611
vekil	1612
urulu	1613
ari	1614
lider	1615
oluş	1616
kıs	1617
akat	1618
uk	1619
muş	1620
bi	1621
güzel	1622
ihtiy	1623
izin	1624
incel	1625
##zo	1626
ati	1627
##fi	1628
ahi	1629
elir	1630
yıldı	1631
kamu	1632
leşme	1633
puan	1634
##are	1635
dırıl	1636
kem	1637
atl	1638
atıl	1639
utbol	1640
lat	1641
ilen	1642
tra	1643
##aka	1644
avcı	1645
sözcü	1646
fer	1647
nc	1648
##sun	1649
engel	1650
yenid	1651
i̇ngil	1652
imza	1653
##ını	1654
mizin	1655
teki	1656
mem	1657
kaza	1658
yoğ	1659
ateş	1660
##ylem	1661
dr	1662
mobil	1663
ira	1664
tık	1665
ziy	1666
çev	1667
ullah	1668
viz	1669
zar	1670
mad	1671
ayrıl	1672
kten	1673
musta	1674
ton	1675
i̇z	1676
ziyar	1677
şa	1678
yükse	1679
ciler	1680
attı	1681
meler	1682
alanı	1683
lman	1684
gar	1685
şekli	1686
tedir	1687
aylaş	1688
berab	1689
ünü	1690
yine	1691
madan	1692
grup	1693
yacak	1694
krar	1695
hep	1696
eşi	1697
mart	1698
##unm	1699
piyon	1700
önem	1701
##ımı	1702
malı	1703
nması	1704
vali	1705
##ter	1706
üçler	1707
rabzo	1708
aday	1709
##şam	1710
çağ	1711
erkez	1712
yürü	1713
oku	1714
van	1715
amaz	1716
##yaz	1717
artık	1718
nayas	1719
rol	1720
gitti	1721
ydi	1722
ırası	1723
##urt	1724
rece	1725
görü	1726
meyda	1727
öğret	1728
rne	1729
##sk	1730
bur	1731
seçim	1732
rci	1733
sürü	1734
ıldız	1735
eğ	1736
est	1737
fot	1738
ince	1739
chp	1740
ydı	1741
ölüm	1742
diyor	1743
gelir	1744
rken	1745
ürün	1746
erç	1747
yani	1748
ıllar	1749
dere	1750
##vil	1751
iniz	1752
ürü	1753
kısa	1754
ksi	1755
undan	1756
##ekl	1757
kre	1758
ameri	1759
cam	1760
lıyor	1761
rüntü	1762
pa	1763
avunm	1764
ağa	1765
ahmet	1766
dönüş	1767
yurt	1768
olu	1769
cil	1770
ledi	1771
##saj	1772
adım	1773
rmek	1774
otur	1775
nme	1776
uzak	1777
üne	1778
##len	1779
artır	1780
atı	1781
lmany	1782
tük	1783
cü	1784
yazı	1785
tildi	1786
nen	1787
rdiği	1788
fotoğ	1789
mıştı	1790
30	1791
mağ	1792
ahibi	1793
lek	1794
çar	1795
25	1796
azı	1797
iyasi	1798
oru	1799
##bat	1800
##do	1801
elek	1802
tepki	1803
elirl	1804
sok	1805
iyasa	1806
ers	1807
nacak	1808
ültür	1809
ışı	1810
kası	1811
tr	1812
bey	1813
14	1814
tal	1815
faal	1816
yargı	1817
eclis	1818
istey	1819
end	1820
##cuğ	1821
basın	1822
adet	1823
liğ	1824
knik	1825
akşam	1826
##ni	1827
tin	1828
lantı	1829
terek	1830
osman	1831
nak	1832
ılma	1833
çevre	1834
mur	1835
açı	1836
tt	1837
mama	1838
nne	1839
ndığı	1840
bina	1841
çün	1842
ıntı	1843
eti	1844
tartı	1845
niyor	1846
hız	1847
elin	1848
##vet	1849
uldu	1850
ilet	1851
up	1852
tay	1853
ona	1854
müda	1855
kriz	1856
demo	1857
ralık	1858
rman	1859
##mir	1860
boz	1861
bit	1862
co	1863
##fer	1864
##üb	1865
##van	1866
saba	1867
ses	1868
ktan	1869
kin	1870
olsun	1871
ener	1872
kalan	1873
mesaj	1874
ncesi	1875
eğer	1876
bet	1877
trans	1878
kav	1879
yürüt	1880
illet	1881
kapat	1882
ektör	1883
let	1884
dah	1885
üncel	1886
şubat	1887
uvvet	1888
eylem	1889
ayınd	1890
dak	1891
tüket	1892
mas	1893
zan	1894
i̇zmir	1895
çek	1896
poli	1897
boy	1898
13	1899
bancı	1900
i̇lk	1901
koru	1902
alk	1903
tas	1904
küç	1905
sebe	1906
öyle	1907
müdah	1908
liye	1909
erçek	1910
rim	1911
and	1912
sanat	1913
yum	1914
lıklı	1915
go	1916
##gür	1917
nceki	1918
aktar	1919
izle	1920
krasi	1921
lil	1922
rdı	1923
cid	1924
indir	1925
dim	1926
baba	1927
ia	1928
yorum	1929
ntal	1930
ınca	1931
rev	1932
artış	1933
bar	1934
layan	1935
ğa	1936
apı	1937
oda	1938
ani	1939
##ft	1940
ortak	1941
şart	1942
erv	1943
manı	1944
yü	1945
sevk	1946
alb	1947
yanda	1948
nüm	1949
tif	1950
amacı	1951
tab	1952
yaşam	1953
bağla	1954
yoğun	1955
pay	1956
rneği	1957
kın	1958
ırs	1959
iv	1960
büyü	1961
takip	1962
rüldü	1963
ret	1964
yana	1965
dağ	1966
çin	1967
one	1968
jo	1969
##muş	1970
anne	1971
sayı	1972
ıllık	1973
riyor	1974
ocak	1975
rüş	1976
mayan	1977
nış	1978
umuz	1979
aracı	1980
ntaly	1981
şma	1982
derec	1983
mlu	1984
arış	1985
##uro	1986
sırad	1987
inşa	1988
16	1989
kapa	1990
mis	1991
işe	1992
sunuz	1993
ktör	1994
18	1995
##lim	1996
erk	1997
huk	1998
##dın	1999
şan	2000
ilim	2001
zarar	2002
araş	2003
ralar	2004
##ınd	2005
jan	2006
teşe	2007
yız	2008
gök	2009
ğım	2010
##so	2011
alış	2012
siyas	2013
hukuk	2014
ücret	2015
lenme	2016
dür	2017
euro	2018
allah	2019
hük	2020
yiz	2021
ıf	2022
rbe	2023
rildi	2024
rka	2025
ib	2026
çünkü	2027
ita	2028
##lat	2029
organ	2030
irak	2031
mızı	2032
kamp	2033
itesi	2034
ğımız	2035
ide	2036
çocuğ	2037
rılar	2038
eb	2039
no	2040
rul	2041
etmiş	2042
tadır	2043
çift	2044
oranı	2045
suz	2046
##ku	2047
uza	2048
rdu	2049
aşlar	2050
kış	2051
##ğa	2052
rbest	2053
lılar	2054
çarp	2055
##lo	2056
yolcu	2057
nesi	2058
urt	2059
çıkla	2060
yarat	2061
17	2062
kale	2063
bat	2064
fat	2065
klar	2066
tik	2067
##yan	2068
ntısı	2069
yarış	2070
önünd	2071
yüzü	2072
iyesi	2073
planl	2074
erleş	2075
gördü	2076
madde	2077
kadro	2078
ert	2079
ere	2080
sıyla	2081
forma	2082
ılmaz	2083
ciddi	2084
lte	2085
lerce	2086
ök	2087
sek	2088
irken	2089
emey	2090
kle	2091
gazi	2092
uçak	2093
rn	2094
##rü	2095
bilin	2096
vuru	2097
rıl	2098
nları	2099
irbir	2100
emi	2101
temel	2102
mcısı	2103
ent	2104
ks	2105
tören	2106
elekt	2107
esa	2108
arama	2109
koç	2110
##han	2111
sivil	2112
beni	2113
##sız	2114
tasar	2115
kötü	2116
yrı	2117
müm	2118
mümkü	2119
dizi	2120
rcih	2121
inter	2122
dakik	2123
benim	2124
ga	2125
buluş	2126
hüküm	2127
yrıca	2128
24	2129
ğlu	2130
tes	2131
üper	2132
kılı	2133
götü	2134
nspor	2135
kolay	2136
uğra	2137
çiz	2138
elçi	2139
sabah	2140
sene	2141
i̇ran	2142
tepe	2143
alı	2144
tor	2145
hesa	2146
fes	2147
##car	2148
vuk	2149
ley	2150
vardı	2151
kredi	2152
polit	2153
küçük	2154
ena	2155
şı	2156
bursa	2157
ef	2158
yal	2159
rik	2160
##aze	2161
ong	2162
od	2163
vi	2164
üneş	2165
model	2166
i̇şte	2167
ilme	2168
rapor	2169
risk	2170
enerj	2171
rüşme	2172
enaze	2173
gramı	2174
başı	2175
muta	2176
tırıl	2177
alet	2178
belge	2179
yatır	2180
arım	2181
eder	2182
talep	2183
firma	2184
sk	2185
kimse	2186
davut	2187
kılıç	2188
ayıda	2189
bakır	2190
vukat	2191
anal	2192
faiz	2193
diyar	2194
ela	2195
ham	2196
olsa	2197
##rac	2198
üncü	2199
yım	2200
çatış	2201
arken	2202
kalk	2203
sp	2204
tım	2205
ang	2206
anat	2207
erli	2208
hemen	2209
i̇ki	2210
kasım	2211
inans	2212
silci	2213
şen	2214
abi	2215
azi	2216
eyaz	2217
soy	2218
ediye	2219
mensu	2220
asi	2221
üy	2222
uygun	2223
iyat	2224
hiss	2225
gülen	2226
mutlu	2227
evi	2228
parça	2229
ttığı	2230
aması	2231
elde	2232
lteci	2233
##dar	2234
sak	2235
aşına	2236
nıyor	2237
laz	2238
şidde	2239
ayet	2240
ayır	2241
tav	2242
mizi	2243
aklar	2244
rum	2245
katkı	2246
dep	2247
100	2248
konud	2249
hesap	2250
meden	2251
geçi	2252
50	2253
of	2254
##eli	2255
eleş	2256
hangi	2257
ov	2258
raki	2259
teri	2260
umlu	2261
güçlü	2262
eçmiş	2263
kart	2264
urum	2265
çekil	2266
##fe	2267
durdu	2268
iha	2269
yeter	2270
eks	2271
dö	2272
darma	2273
kaya	2274
atta	2275
yunca	2276
duyur	2277
klif	2278
anık	2279
misyo	2280
##şit	2281
laşım	2282
mişti	2283
anado	2284
üküme	2285
ina	2286
hd	2287
alım	2288
dık	2289
evler	2290
eslim	2291
görme	2292
nisan	2293
inti	2294
umu	2295
adına	2296
rat	2297
zat	2298
##sim	2299
yıp	2300
eyen	2301
izler	2302
çeşit	2303
anayi	2304
trafi	2305
air	2306
ünün	2307
ekibi	2308
ödeme	2309
ligi	2310
##tim	2311
dım	2312
dol	2313
eyin	2314
ho	2315
girdi	2316
slan	2317
adlı	2318
yılda	2319
onund	2320
revli	2321
pe	2322
vo	2323
yarak	2324
marka	2325
temiz	2326
##dül	2327
ahçe	2328
anser	2329
fin	2330
ayy	2331
##ıt	2332
irek	2333
etkin	2334
gula	2335
ticar	2336
tos	2337
resmi	2338
etin	2339
tma	2340
anlar	2341
ödül	2342
aray	2343
ervis	2344
lam	2345
güne	2346
bize	2347
bana	2348
ayrıc	2349
alp	2350
sınız	2351
ard	2352
sig	2353
işler	2354
i̇slam	2355
muştu	2356
##fo	2357
uzman	2358
nül	2359
ğitim	2360
19	2361
angi	2362
vet	2363
atma	2364
recep	2365
ayyip	2366
fark	2367
21	2368
aralı	2369
oğu	2370
hen	2371
atil	2372
belli	2373
çözüm	2374
seri	2375
##yd	2376
##bı	2377
enz	2378
pat	2379
asıl	2380
çak	2381
abası	2382
##vi	2383
tob	2384
mızın	2385
endi	2386
oyn	2387
22	2388
azal	2389
izi	2390
kesin	2391
nti	2392
anl	2393
ımlar	2394
kül	2395
##lük	2396
steği	2397
tere	2398
inci	2399
ars	2400
ünlü	2401
kuru	2402
tirdi	2403
halkı	2404
nlık	2405
geniş	2406
sl	2407
mam	2408
emekl	2409
kça	2410
arılı	2411
rnek	2412
alon	2413
##izm	2414
istih	2415
ktor	2416
şarkı	2417
açısı	2418
ttı	2419
irleş	2420
irlik	2421
araya	2422
##tep	2423
pan	2424
##dit	2425
yanıt	2426
süreç	2427
arşı	2428
ünlük	2429
uzu	2430
kemal	2431
aat	2432
düzey	2433
iğer	2434
ail	2435
gal	2436
ij	2437
anma	2438
hane	2439
erkek	2440
anya	2441
las	2442
aşı	2443
lin	2444
##ck	2445
işçi	2446
aşarı	2447
avali	2448
elik	2449
sokak	2450
okun	2451
pyd	2452
urizm	2453
uzey	2454
kurt	2455
dışiş	2456
önemi	2457
hdp	2458
##tö	2459
eler	2460
final	2461
muz	2462
lazım	2463
müz	2464
kürt	2465
ürücü	2466
pol	2467
mp	2468
##ze	2469
kana	2470
rmak	2471
##kaç	2472
ediği	2473
rülen	2474
taleb	2475
dahil	2476
raş	2477
göç	2478
sol	2479
hli	2480
ceva	2481
eşil	2482
tv	2483
esabı	2484
cevap	2485
anak	2486
irkaç	2487
çab	2488
i̇nsan	2489
oş	2490
aret	2491
ulüp	2492
üsl	2493
lçe	2494
işi	2495
murat	2496
hlike	2497
are	2498
ald	2499
çekti	2500
nur	2501
anun	2502
lığın	2503
rısı	2504
rem	2505
şik	2506
alman	2507
irinc	2508
üksel	2509
nmış	2510
tel	2511
ilan	2512
lığa	2513
adan	2514
ntem	2515
almak	2516
abet	2517
canlı	2518
ileri	2519
ayvan	2520
kayıt	2521
hatır	2522
ihrac	2523
fatih	2524
eceğ	2525
ormal	2526
i̇b	2527
hdit	2528
ons	2529
yansı	2530
yse	2531
tobüs	2532
##ump	2533
gali	2534
ire	2535
nç	2536
uar	2537
ord	2538
aşadı	2539
name	2540
trump	2541
uyla	2542
aj	2543
rk	2544
taj	2545
lın	2546
rge	2547
konya	2548
bizi	2549
gücü	2550
itir	2551
##i̇d	2552
galib	2553
ınız	2554
başta	2555
sektö	2556
adana	2557
çoğ	2558
ayram	2559
dalet	2560
ker	2561
epsi	2562
farkı	2563
ie	2564
siyle	2565
aydın	2566
ami	2567
eyl	2568
ransa	2569
yna	2570
aklı	2571
rac	2572
oz	2573
ilo	2574
ders	2575
şube	2576
ortam	2577
perso	2578
tılım	2579
duruş	2580
üyüme	2581
antep	2582
nik	2583
ref	2584
28	2585
##jim	2586
rahat	2587
imizi	2588
ışık	2589
yılın	2590
krat	2591
sığın	2592
işi̇d	2593
vaz	2594
abı	2595
ern	2596
slınd	2597
vü	2598
edera	2599
mali	2600
sahne	2601
ğinde	2602
eye	2603
daeş	2604
neral	2605
mit	2606
avaş	2607
rmans	2608
alle	2609
akın	2610
amera	2611
ıcak	2612
arın	2613
arada	2614
öte	2615
siyon	2616
tidar	2617
sert	2618
ırsat	2619
evin	2620
lçesi	2621
işle	2622
isiml	2623
çağrı	2624
karış	2625
baskı	2626
alık	2627
ras	2628
işare	2629
apis	2630
sınav	2631
det	2632
dair	2633
türlü	2634
sam	2635
kafa	2636
dk	2637
log	2638
mayıs	2639
özgür	2640
mizde	2641
cadde	2642
korku	2643
ray	2644
red	2645
anlış	2646
yık	2647
etrol	2648
amaç	2649
hay	2650
urken	2651
aland	2652
ismi	2653
boş	2654
prof	2655
cuma	2656
nlar	2657
loji	2658
üyesi	2659
not	2660
ulut	2661
amel	2662
anlı	2663
henüz	2664
rç	2665
gören	2666
vergi	2667
sorgu	2668
uşu	2669
lç	2670
ğün	2671
yemek	2672
efa	2673
liste	2674
ğında	2675
kupa	2676
ltan	2677
tip	2678
enzer	2679
40	2680
##var	2681
rahim	2682
cen	2683
nan	2684
nümüz	2685
ilis	2686
nnesi	2687
eg	2688
seviy	2689
memur	2690
##ylü	2691
yarın	2692
maçta	2693
perfo	2694
konul	2695
ekran	2696
kısmı	2697
akika	2698
rkası	2699
ldu	2700
kop	2701
güney	2702
fay	2703
dör	2704
ebe	2705
aylık	2706
##mat	2707
emedi	2708
dört	2709
lal	2710
##suz	2711
iyah	2712
tüğü	2713
unut	2714
talya	2715
ete	2716
diş	2717
urtar	2718
recek	2719
kira	2720
sanız	2721
aran	2722
buna	2723
liş	2724
doğal	2725
emez	2726
öre	2727
bakım	2728
amb	2729
ağlan	2730
ment	2731
şans	2732
nar	2733
olmuş	2734
hakem	2735
düşük	2736
vücu	2737
avuş	2738
alif	2739
tahmi	2740
çoğu	2741
tat	2742
ruh	2743
kulüb	2744
vizyo	2745
ıda	2746
i̇d	2747
syonu	2748
işbir	2749
duygu	2750
sur	2751
rdüğü	2752
23	2753
nlem	2754
savcı	2755
hızlı	2756
denil	2757
izm	2758
rda	2759
500	2760
halep	2761
sebep	2762
aire	2763
asyon	2764
poz	2765
otel	2766
kri	2767
boyu	2768
dam	2769
giren	2770
yunan	2771
ilerl	2772
rejim	2773
eyet	2774
##vu	2775
evir	2776
konut	2777
fayda	2778
ğu	2779
rail	2780
itap	2781
27	2782
yazdı	2783
mikta	2784
zer	2785
hakim	2786
defa	2787
yerde	2788
bayra	2789
dum	2790
ney	2791
oyu	2792
ölü	2793
çer	2794
tec	2795
ayıcı	2796
rin	2797
erg	2798
ayal	2799
başar	2800
uyu	2801
şk	2802
por	2803
çıkış	2804
tirme	2805
kla	2806
orada	2807
gider	2808
rakam	2809
nışma	2810
biraz	2811
emo	2812
ayata	2813
adi	2814
ucu	2815
öp	2816
erekl	2817
civar	2818
ımızı	2819
udi	2820
izl	2821
söylü	2822
eydan	2823
ahat	2824
kesim	2825
vak	2826
meli	2827
meyi	2828
ain	2829
ces	2830
num	2831
paş	2832
başvu	2833
cami	2834
eylül	2835
ağrı	2836
olup	2837
geçiş	2838
şman	2839
fik	2840
nünde	2841
angın	2842
pera	2843
yarar	2844
letme	2845
kuş	2846
sefer	2847
umsuz	2848
dışı	2849
üş	2850
resel	2851
ram	2852
iklik	2853
tuğ	2854
ideo	2855
hüs	2856
sey	2857
amm	2858
önüne	2859
ii	2860
tri	2861
eçen	2862
üslüm	2863
azılı	2864
dire	2865
cel	2866
rid	2867
usul	2868
asa	2869
hu	2870
şağı	2871
ğe	2872
inem	2873
macı	2874
içe	2875
geril	2876
görül	2877
ağım	2878
kıy	2879
paşa	2880
ılan	2881
mamız	2882
meş	2883
ollan	2884
imize	2885
hazi	2886
abaka	2887
erak	2888
amen	2889
inç	2890
yenil	2891
düştü	2892
taşıy	2893
gil	2894
pla	2895
cut	2896
##dem	2897
gın	2898
ig	2899
limat	2900
abri	2901
cılar	2902
irk	2903
müs	2904
ımı	2905
elind	2906
vesi	2907
##men	2908
isyon	2909
cıl	2910
ayak	2911
rede	2912
rubu	2913
ag	2914
irli	2915
yolu	2916
manın	2917
ihaz	2918
lkan	2919
savun	2920
evre	2921
elen	2922
neler	2923
akar	2924
rez	2925
saye	2926
ünler	2927
avet	2928
rgan	2929
yabil	2930
iriz	2931
arbe	2932
ldi	2933
enim	2934
avu	2935
elki	2936
eser	2937
pp	2938
eknik	2939
dbir	2940
rar	2941
zik	2942
abah	2943
bm	2944
dağı	2945
istik	2946
ven	2947
kere	2948
yere	2949
olmay	2950
liğe	2951
şık	2952
üt	2953
riz	2954
##çı	2955
diyen	2956
ğünü	2957
mre	2958
ynı	2959
alde	2960
ordu	2961
ünkü	2962
lans	2963
bank	2964
ngin	2965
anlay	2966
çerçe	2967
raba	2968
26	2969
kalma	2970
aygı	2971
gez	2972
29	2973
cak	2974
syond	2975
ümüz	2976
sh	2977
sti	2978
anet	2979
verme	2980
uşlar	2981
hata	2982
atsız	2983
eyn	2984
batı	2985
edel	2986
pları	2987
lmaz	2988
demek	2989
evine	2990
oğan	2991
cılık	2992
algı	2993
arca	2994
etkis	2995
ıllı	2996
beri	2997
imk	2998
asla	2999
yazar	3000
##dy	3001
asan	3002
ğum	3003
atik	3004
erim	3005
nit	3006
wa	3007
ğus	3008
vit	3009
üren	3010
içi	3011
bara	3012
kadem	3013
br	3014
##bar	3015
etçi	3016
zorla	3017
apımı	3018
zı	3019
anım	3020
üzü	3021
tıp	3022
mızda	3023
alel	3024
akan	3025
okak	3026
ysa	3027
tim	3028
zman	3029
içer	3030
osya	3031
raman	3032
radan	3033
bes	3034
yon	3035
##os	3036
enge	3037
eter	3038
üney	3039
zaten	3040
işim	3041
ow	3042
dayan	3043
kâ	3044
anti	3045
mun	3046
old	3047
ane	3048
madd	3049
dal	3050
mir	3051
zya	3052
mada	3053
eran	3054
alis	3055
amu	3056
pas	3057
ktörü	3058
ıt	3059
era	3060
oruma	3061
ortal	3062
nsel	3063
eyec	3064
enek	3065
altın	3066
rad	3067
ekme	3068
ime	3069
mamış	3070
35	3071
ükl	3072
çesi	3073
alma	3074
atış	3075
ms	3076
yp	3077
kom	3078
yapma	3079
nca	3080
raya	3081
nö	3082
ört	3083
blo	3084
sik	3085
uru	3086
duk	3087
ağlar	3088
nal	3089
ayn	3090
eci	3091
unuz	3092
th	3093
esle	3094
vic	3095
enar	3096
mbu	3097
oh	3098
zay	3099
halk	3100
ast	3101
tla	3102
unul	3103
rer	3104
tesi	3105
tb	3106
nes	3107
rap	3108
uyarı	3109
izli	3110
kit	3111
##tır	3112
enc	3113
açtı	3114
ksiyo	3115
tçe	3116
buldu	3117
##tal	3118
erte	3119
yin	3120
birim	3121
adığı	3122
lme	3123
aşama	3124
atla	3125
ülen	3126
diler	3127
iraz	3128
iver	3129
abir	3130
uyar	3131
##şi	3132
alka	3133
onya	3134
ahs	3135
derin	3136
nuz	3137
olun	3138
enme	3139
uvar	3140
dılar	3141
inay	3142
aris	3143
ayrak	3144
ezi	3145
rıcı	3146
sta	3147
asar	3148
suna	3149
kinci	3150
rerek	3151
rhan	3152
kıl	3153
ücad	3154
sad	3155
biti	3156
kiz	3157
ork	3158
renk	3159
oynan	3160
.,	3161
ble	3162
nşa	3163
indi	3164
nizi	3165
bozu	3166
tro	3167
##li̇	3168
mayın	3169
31	3170
ayan	3171
ngö	3172
yeme	3173
aşır	3174
esn	3175
itti	3176
sat	3177
aldır	3178
masa	3179
kah	3180
nite	3181
aksi	3182
ulan	3183
klan	3184
rıda	3185
tiren	3186
zir	3187
i̇sm	3188
arar	3189
ğiş	3190
eçil	3191
şif	3192
kler	3193
mize	3194
ğişik	3195
ksik	3196
iğ	3197
tiv	3198
kum	3199
ınar	3200
edin	3201
ebek	3202
yg	3203
mi̇	3204
dinle	3205
##mm	3206
atın	3207
ağan	3208
rte	3209
raç	3210
ursa	3211
eğe	3212
kuz	3213
ısı	3214
aket	3215
inc	3216
test	3217
park	3218
üyle	3219
ğur	3220
eride	3221
onse	3222
nay	3223
ron	3224
riler	3225
ilçes	3226
erel	3227
eve	3228
esti	3229
iyer	3230
süred	3231
ypg	3232
uc	3233
zam	3234
ikr	3235
soka	3236
inanı	3237
dolu	3238
akır	3239
i̇lçe	3240
llah	3241
irse	3242
ulüb	3243
yim	3244
arma	3245
ilm	3246
ergil	3247
ımıza	3248
mutl	3249
şeker	3250
özler	3251
ahil	3252
fon	3253
nat	3254
uns	3255
lanı	3256
ltın	3257
neye	3258
stekl	3259
liğin	3260
nil	3261
qu	3262
ası	3263
kte	3264
patla	3265
ncü	3266
lis	3267
nabil	3268
çey	3269
layın	3270
kus	3271
xx	3272
meme	3273
iptal	3274
nmesi	3275
atar	3276
nf	3277
zem	3278
receğ	3279
veri	3280
ütün	3281
##lak	3282
dası	3283
lıdır	3284
grub	3285
aşlat	3286
yazıl	3287
uran	3288
lıkla	3289
devre	3290
eji	3291
ımcı	3292
tbmm	3293
fla	3294
kızı	3295
arek	3296
yed	3297
üze	3298
lem	3299
usu	3300
sna	3301
çuk	3302
klı	3303
##id	3304
enen	3305
erbi	3306
bal	3307
kurma	3308
rö	3309
aynak	3310
lardı	3311
gitme	3312
tılan	3313
cilik	3314
ıları	3315
nır	3316
taz	3317
enk	3318
ster	3319
60	3320
je	3321
nam	3322
mda	3323
ub	3324
makta	3325
roje	3326
onser	3327
rın	3328
sunu	3329
##ch	3330
ırt	3331
akala	3332
atif	3333
aa	3334
akış	3335
reye	3336
gili	3337
kut	3338
ins	3339
onuna	3340
aze	3341
rit	3342
şeyi	3343
ndiği	3344
alkın	3345
lası	3346
htar	3347
emen	3348
fır	3349
palı	3350
cem	3351
ilah	3352
prü	3353
teş	3354
parla	3355
ücre	3356
ğiniz	3357
gere	3358
zlem	3359
ekle	3360
eller	3361
eo	3362
ff	3363
şo	3364
upa	3365
mh	3366
vaş	3367
fı	3368
ldü	3369
val	3370
necek	3371
üstü	3372
ksel	3373
apa	3374
ila	3375
lok	3376
zg	3377
med	3378
yıla	3379
gin	3380
zun	3381
ende	3382
sas	3383
rmiş	3384
şıyor	3385
lak	3386
##mo	3387
urumu	3388
ja	3389
ind	3390
eker	3391
bölü	3392
este	3393
rir	3394
diğim	3395
şul	3396
aşk	3397
mekan	3398
fak	3399
tli	3400
imli	3401
lmadı	3402
nla	3403
stan	3404
nlü	3405
rıy	3406
ore	3407
etro	3408
lev	3409
evgi	3410
narak	3411
ğle	3412
unca	3413
yerek	3414
ğaz	3415
akin	3416
obil	3417
nüf	3418
45	3419
alya	3420
ayıl	3421
evind	3422
rebil	3423
dırdı	3424
mina	3425
cep	3426
ğınız	3427
nter	3428
200	3429
ırlat	3430
bb	3431
dip	3432
iza	3433
ortad	3434
rp	3435
amet	3436
çalı	3437
ekten	3438
arla	3439
günde	3440
tiri	3441
nerji	3442
arab	3443
işti	3444
bol	3445
inal	3446
lisi	3447
new	3448
i̇ç	3449
imha	3450
ünden	3451
koş	3452
cev	3453
ace	3454
tırdı	3455
arz	3456
imler	3457
ters	3458
larca	3459
erd	3460
ahte	3461
ulübü	3462
ızla	3463
şkil	3464
önde	3465
irliğ	3466
üçük	3467
lgi	3468
sma	3469
ğır	3470
dey	3471
muha	3472
lilik	3473
irket	3474
nlu	3475
ılar	3476
çıkl	3477
önle	3478
ikle	3479
urd	3480
geçer	3481
iller	3482
mbe	3483
kas	3484
kare	3485
inen	3486
alga	3487
giz	3488
şır	3489
aske	3490
adli	3491
mıza	3492
zılı	3493
argı	3494
liyor	3495
azır	3496
ruk	3497
rip	3498
ihbar	3499
sya	3500
tlı	3501
ond	3502
eşin	3503
eşit	3504
urlar	3505
lamak	3506
başb	3507
katı	3508
arm	3509
akka	3510
masın	3511
i̇yi	3512
rüyor	3513
evde	3514
zafer	3515
asit	3516
ry	3517
arp	3518
pdy	3519
orun	3520
leyen	3521
öprü	3522
gay	3523
io	3524
##bi̇	3525
ağla	3526
iyeti	3527
rtık	3528
rtesi	3529
lise	3530
site	3531
lad	3532
ızıl	3533
gun	3534
deta	3535
kab	3536
ild	3537
##oku	3538
uklu	3539
ens	3540
rif	3541
nitel	3542
rgi	3543
ank	3544
arik	3545
olda	3546
ınma	3547
orsa	3548
tren	3549
rse	3550
tarıl	3551
ersin	3552
ves	3553
dül	3554
ese	3555
beyaz	3556
cüs	3557
ekil	3558
yici	3559
cüsü	3560
key	3561
ova	3562
tilen	3563
##ster	3564
ayda	3565
mec	3566
rag	3567
niyet	3568
lım	3569
rcu	3570
ua	3571
anmış	3572
avaşı	3573
sem	3574
saya	3575
ate	3576
rup	3577
eda	3578
##ari	3579
fai	3580
##raf	3581
irad	3582
ltu	3583
öster	3584
ista	3585
kova	3586
iph	3587
meyve	3588
kırı	3589
sebeb	3590
fikir	3591
hü	3592
avan	3593
ano	3594
aza	3595
oya	3596
erse	3597
ayat	3598
iği	3599
32	3600
dun	3601
nci	3602
##po	3603
netim	3604
zalt	3605
uh	3606
lidir	3607
abii	3608
##tur	3609
inli	3610
umhu	3611
dahi	3612
yapar	3613
oşa	3614
def	3615
lom	3616
icar	3617
300	3618
##lâ	3619
faz	3620
ıma	3621
unc	3622
ekr	3623
##oke	3624
emiyo	3625
nlara	3626
yara	3627
ili	3628
vad	3629
36	3630
zet	3631
katl	3632
msil	3633
##ğün	3634
maka	3635
34	3636
og	3637
çu	3638
oli	3639
aylar	3640
lent	3641
##si̇	3642
atır	3643
aspor	3644
niş	3645
yas	3646
uştur	3647
tmak	3648
unlu	3649
steri	3650
sayıl	3651
mr	3652
nama	3653
tre	3654
arş	3655
racın	3656
örevi	3657
cek	3658
arih	3659
ora	3660
rika	3661
ağd	3662
dönü	3663
doğan	3664
tme	3665
aral	3666
esto	3667
kp	3668
##ic	3669
rası	3670
işte	3671
tand	3672
ıb	3673
şv	3674
bün	3675
imam	3676
nına	3677
araf	3678
ansı	3679
aten	3680
vize	3681
ck	3682
açlar	3683
renm	3684
kıya	3685
rıyor	3686
meyen	3687
üstün	3688
davra	3689
rduğ	3690
enin	3691
urg	3692
adını	3693
oo	3694
the	3695
nımı	3696
yesi	3697
frans	3698
tad	3699
rmesi	3700
kırmı	3701
vir	3702
panya	3703
nmiş	3704
klam	3705
ırıl	3706
topra	3707
mini	3708
##ff	3709
li̇	3710
amam	3711
bebe	3712
ft	3713
undu	3714
line	3715
ngel	3716
tadı	3717
ddia	3718
ksa	3719
nüz	3720
aşlı	3721
zu	3722
rmeye	3723
venli	3724
deme	3725
anta	3726
si̇	3727
tura	3728
nluğ	3729
him	3730
anu	3731
nızı	3732
kalı	3733
iyo	3734
form	3735
esele	3736
mde	3737
irer	3738
ori	3739
racak	3740
edefi	3741
tuğu	3742
dalı	3743
ılın	3744
eleri	3745
che	3746
rtal	3747
inizi	3748
ou	3749
inali	3750
sim	3751
alen	3752
eyi	3753
ett	3754
lac	3755
afe	3756
izley	3757
nv	3758
ılır	3759
mekte	3760
isy	3761
ulduğ	3762
nilen	3763
aden	3764
heli	3765
veda	3766
nede	3767
gerçe	3768
kenti	3769
ica	3770
rici	3771
prot	3772
ice	3773
zin	3774
arkı	3775
asal	3776
ulu	3777
büs	3778
ea	3779
duğum	3780
dinl	3781
laka	3782
rj	3783
ence	3784
uluş	3785
mekt	3786
ıkış	3787
çözü	3788
ydın	3789
daya	3790
erlik	3791
ekir	3792
70	3793
rur	3794
zen	3795
ızı	3796
maaş	3797
enet	3798
reği	3799
ikli	3800
uyan	3801
kült	3802
zgür	3803
endis	3804
bi̇	3805
isa	3806
karı	3807
tanım	3808
tun	3809
deri	3810
pü	3811
tılar	3812
erler	3813
uro	3814
maçın	3815
canl	3816
aga	3817
mara	3818
amp	3819
uyum	3820
rıyla	3821
33	3822
iri	3823
sus	3824
dığım	3825
90	3826
lc	3827
emb	3828
antr	3829
öyley	3830
bis	3831
diz	3832
mutan	3833
lları	3834
tbol	3835
urk	3836
andal	3837
elene	3838
amile	3839
ihan	3840
tıldı	3841
mhp	3842
ısa	3843
hir	3844
yata	3845
ilya	3846
riyle	3847
tank	3848
tarz	3849
mb	3850
ıç	3851
şkan	3852
risi	3853
rom	3854
rdığı	3855
tuz	3856
ücu	3857
i̇t	3858
beli	3859
rmay	3860
urun	3861
lup	3862
uku	3863
eza	3864
şeri	3865
##iğ	3866
di̇	3867
siye	3868
misi	3869
apısı	3870
rz	3871
zleri	3872
çat	3873
ente	3874
elesi	3875
düze	3876
fed	3877
ty	3878
kçı	3879
rg	3880
ud	3881
ug	3882
çiş	3883
arsa	3884
ayb	3885
akımı	3886
avran	3887
kimi	3888
erdi	3889
ettik	3890
rtada	3891
lum	3892
ene	3893
ister	3894
tern	3895
liliğ	3896
80	3897
doku	3898
ill	3899
ti̇	3900
üzel	3901
nst	3902
ıy	3903
eriş	3904
akıl	3905
sizi	3906
sani	3907
mezun	3908
onum	3909
işin	3910
ebebi	3911
gan	3912
ncel	3913
yad	3914
avi	3915
imde	3916
ahar	3917
ales	3918
ngı	3919
elli	3920
aşar	3921
ahve	3922
uğu	3923
nato	3924
azırl	3925
ekin	3926
amış	3927
ören	3928
afta	3929
hp	3930
mse	3931
ink	3932
rand	3933
anca	3934
etiş	3935
anç	3936
örü	3937
dırma	3938
uşa	3939
ıza	3940
all	3941
ğla	3942
şun	3943
benz	3944
ilmiş	3945
utlu	3946
rmaya	3947
hisse	3948
ai	3949
tılı	3950
nder	3951
ved	3952
olar	3953
kadı	3954
utu	3955
liz	3956
erat	3957
etmey	3958
ukuk	3959
ima	3960
oma	3961
âlâ	3962
öv	3963
allar	3964
sub	3965
fre	3966
ikaye	3967
şof	3968
elam	3969
rada	3970
üny	3971
arttı	3972
alat	3973
oynay	3974
75	3975
izde	3976
doğa	3977
kel	3978
kme	3979
we	3980
ava	3981
uçlar	3982
üsü	3983
lus	3984
##ciz	3985
idare	3986
gor	3987
rama	3988
alır	3989
nluk	3990
ht	3991
##sy	3992
aye	3993
uncu	3994
kork	3995
üphe	3996
nım	3997
oğraf	3998
ly	3999
ero	4000
ağış	4001
anıt	4002
arıda	4003
yoğu	4004
çeki	4005
seyi	4006
lekt	4007
rmen	4008
üf	4009
rib	4010
varl	4011
oyunu	4012
müh	4013
iyan	4014
ördü	4015
ian	4016
ift	4017
dini	4018
kun	4019
rlar	4020
ştır	4021
ürek	4022
ehir	4023
klık	4024
urta	4025
apta	4026
rolü	4027
zih	4028
epe	4029
lınan	4030
65	4031
hâ	4032
ps	4033
phe	4034
bab	4035
manda	4036
urucu	4037
ydu	4038
aman	4039
ırk	4040
meni	4041
rülme	4042
kçe	4043
ilin	4044
hn	4045
ayar	4046
ceo	4047
duyu	4048
lga	4049
şük	4050
yip	4051
tün	4052
çıl	4053
mat	4054
sana	4055
neli	4056
rel	4057
real	4058
##mu	4059
kont	4060
seb	4061
üldü	4062
nus	4063
şer	4064
##go	4065
ino	4066
imin	4067
eşme	4068
ızlar	4069
akim	4070
rız	4071
çın	4072
##det	4073
emek	4074
ynadı	4075
sc	4076
ışla	4077
rc	4078
rf	4079
iko	4080
ırsa	4081
kemi	4082
ipl	4083
grubu	4084
netic	4085
rafı	4086
thy	4087
usta	4088
çiler	4089
irişi	4090
kuv	4091
nb	4092
uf	4093
aydı	4094
imkan	4095
eçme	4096
netl	4097
çatı	4098
##ss	4099
##dk	4100
aru	4101
evlen	4102
sergi	4103
inir	4104
esir	4105
ırlar	4106
maruz	4107
müzi	4108
luş	4109
##oz	4110
götür	4111
abu	4112
izden	4113
kele	4114
vas	4115
lit	4116
atlar	4117
sed	4118
rosu	4119
nso	4120
tlama	4121
neme	4122
nis	4123
evl	4124
akem	4125
ket	4126
lur	4127
ski	4128
au	4129
pt	4130
ancı	4131
izyon	4132
devr	4133
turdu	4134
latan	4135
yecek	4136
taba	4137
beya	4138
edek	4139
akta	4140
uma	4141
özü	4142
don	4143
lerdi	4144
arıl	4145
cer	4146
kov	4147
gec	4148
ilt	4149
raz	4150
emiş	4151
itle	4152
erisi	4153
##gk	4154
emeye	4155
ege	4156
tına	4157
##ina	4158
ahv	4159
laştı	4160
oks	4161
yoktu	4162
adamı	4163
nmak	4164
ilke	4165
ulmuş	4166
utl	4167
sıkı	4168
ikas	4169
ber	4170
ındı	4171
tema	4172
ato	4173
ural	4174
üzen	4175
nşaat	4176
luşu	4177
rba	4178
zden	4179
anış	4180
azar	4181
amle	4182
lh	4183
vcı	4184
ığa	4185
##kin	4186
ergi	4187
keş	4188
rıs	4189
apor	4190
anıl	4191
layla	4192
karak	4193
resi	4194
baz	4195
rdo	4196
ion	4197
mon	4198
ygı	4199
irim	4200
orgu	4201
eklen	4202
arayı	4203
400	4204
dli	4205
ğun	4206
mac	4207
aldık	4208
des	4209
rey	4210
mim	4211
üler	4212
ndu	4213
akam	4214
ci̇	4215
adem	4216
rük	4217
##to	4218
lim	4219
tiya	4220
str	4221
sanı	4222
laf	4223
ruyor	4224
rının	4225
süt	4226
eçim	4227
kapı	4228
tül	4229
urgu	4230
üküm	4231
aplar	4232
spo	4233
port	4234
nir	4235
yeri	4236
emin	4237
rafik	4238
tler	4239
şak	4240
eyim	4241
kend	4242
150	4243
düğün	4244
ümle	4245
rakt	4246
ıdan	4247
şıl	4248
arlı	4249
niye	4250
ğının	4251
icra	4252
ezon	4253
rke	4254
üb	4255
ütü	4256
akal	4257
lab	4258
idari	4259
stik	4260
arf	4261
ilit	4262
kons	4263
arıs	4264
yn	4265
yebil	4266
urs	4267
osu	4268
##lum	4269
miye	4270
rahi	4271
misa	4272
ğıt	4273
mpiy	4274
37	4275
öylem	4276
##af	4277
38	4278
ayım	4279
esin	4280
ırdı	4281
add	4282
tres	4283
llar	4284
irve	4285
ki̇	4286
yoruz	4287
adır	4288
itika	4289
km	4290
rtı	4291
##pe	4292
şiir	4293
sakla	4294
roke	4295
tein	4296
kuy	4297
lamış	4298
çılar	4299
##hi	4300
ınan	4301
bine	4302
otom	4303
erab	4304
600	4305
ola	4306
dis	4307
lemek	4308
api	4309
kanlı	4310
ğret	4311
kaf	4312
iade	4313
42	4314
tiler	4315
vah	4316
yma	4317
bett	4318
orman	4319
ri̇	4320
ağlam	4321
kaçı	4322
arika	4323
vat	4324
alla	4325
aliye	4326
liman	4327
ni̇	4328
ilesi	4329
luyor	4330
alil	4331
nadı	4332
orum	4333
asın	4334
yönel	4335
rafi	4336
nakl	4337
sker	4338
akp	4339
emle	4340
mekli	4341
suçl	4342
neği	4343
tiyor	4344
stih	4345
dy	4346
zel	4347
hala	4348
ave	4349
kula	4350
kley	4351
rla	4352
tuk	4353
şleri	4354
imse	4355
boyun	4356
41	4357
55	4358
zli	4359
##ki̇	4360
irini	4361
tama	4362
eğil	4363
rkek	4364
ekled	4365
i̇k	4366
arac	4367
ida	4368
sne	4369
tıyor	4370
önü	4371
apl	4372
zgü	4373
asta	4374
eke	4375
şları	4376
emih	4377
nucu	4378
rarak	4379
##rul	4380
isler	4381
lüks	4382
dalar	4383
48	4384
zır	4385
üd	4386
emem	4387
rkad	4388
mler	4389
rtış	4390
44	4391
irti	4392
yıcı	4393
nüyor	4394
39	4395
lla	4396
tff	4397
hızl	4398
tw	4399
anki	4400
inler	4401
eni	4402
tabi	4403
ekçe	4404
ıfır	4405
nta	4406
yh	4407
öb	4408
arc	4409
teh	4410
akım	4411
ürme	4412
beden	4413
rs	4414
rlü	4415
uva	4416
şok	4417
ilik	4418
irdi	4419
idir	4420
cağı	4421
ilde	4422
lah	4423
tazi	4424
rabil	4425
turu	4426
zesi	4427
mm	4428
ost	4429
##od	4430
onla	4431
ulma	4432
uri	4433
ikra	4434
mand	4435
temin	4436
dri	4437
zm	4438
erde	4439
ermi	4440
ned	4441
akkı	4442
kenan	4443
250	4444
46	4445
nfe	4446
slar	4447
çü	4448
atçı	4449
bı	4450
enf	4451
olduk	4452
oğal	4453
utan	4454
eliş	4455
dha	4456
ntü	4457
arl	4458
onuç	4459
arita	4460
lb	4461
yın	4462
izni	4463
ağın	4464
kulak	4465
47	4466
slı	4467
şere	4468
ded	4469
rist	4470
ağız	4471
girme	4472
yları	4473
ştı	4474
sab	4475
eriyo	4476
şeref	4477
hav	4478
tap	4479
taciz	4480
şeb	4481
uydu	4482
rülü	4483
hey	4484
iber	4485
tle	4486
şiş	4487
lez	4488
eksi	4489
çakla	4490
meşin	4491
53	4492
und	4493
gesi	4494
112	4495
skeri	4496
zak	4497
erine	4498
gelme	4499
yaşan	4500
oplum	4501
leti	4502
43	4503
set	4504
##no	4505
ımda	4506
arısı	4507
ıklı	4508
omut	4509
mün	4510
ğrul	4511
##ms	4512
yalı	4513
ikna	4514
asına	4515
reti	4516
by	4517
neri	4518
tte	4519
vin	4520
vri	4521
akti	4522
iman	4523
kod	4524
rduğu	4525
akma	4526
esmi	4527
jd	4528
mor	4529
##rak	4530
aks	4531
amsu	4532
elem	4533
lp	4534
ula	4535
şkı	4536
vel	4537
lib	4538
nize	4539
afi	4540
kâr	4541
nlaş	4542
pra	4543
aları	4544
kafe	4545
aşlay	4546
timiz	4547
kleme	4548
lişki	4549
keşf	4550
##tir	4551
abit	4552
elal	4553
sla	4554
amim	4555
kına	4556
nm	4557
ary	4558
eral	4559
orc	4560
tom	4561
ırak	4562
lari	4563
erm	4564
esl	4565
ırlı	4566
rüz	4567
etli	4568
dua	4569
tisi	4570
örgü	4571
kuvv	4572
ky	4573
ette	4574
##ti̇	4575
redi	4576
alana	4577
ağıt	4578
çay	4579
mimar	4580
edav	4581
ier	4582
türü	4583
mür	4584
syo	4585
yel	4586
lattı	4587
sar	4588
ndil	4589
etik	4590
120	4591
zara	4592
inme	4593
kaş	4594
atlı	4595
şef	4596
kule	4597
arzu	4598
kala	4599
##mes	4600
urma	4601
rucu	4602
suçu	4603
entin	4604
kusu	4605
gizl	4606
ibe	4607
ts	4608
usa	4609
aram	4610
alo	4611
tez	4612
aca	4613
orcu	4614
krem	4615
cell	4616
72	4617
ansız	4618
ilir	4619
erha	4620
reme	4621
küçü	4622
rtu	4623
ınır	4624
land	4625
adl	4626
adir	4627
utuk	4628
vakit	4629
lmesi	4630
52	4631
oç	4632
sul	4633
zey	4634
şlı	4635
kobi̇	4636
ris	4637
eşim	4638
apar	4639
osun	4640
our	4641
zeri	4642
ayk	4643
ell	4644
lıkta	4645
oğru	4646
tığım	4647
esis	4648
küf	4649
sko	4650
ares	4651
ebi	4652
fo	4653
lyon	4654
rm	4655
zon	4656
arda	4657
lif	4658
eren	4659
imar	4660
öndü	4661
81	4662
ğdu	4663
tey	4664
akla	4665
dird	4666
uştu	4667
psi	4668
tta	4669
rese	4670
rusu	4671
çağr	4672
rna	4673
inat	4674
aça	4675
idam	4676
lezze	4677
mine	4678
tsk	4679
vuş	4680
öm	4681
dele	4682
int	4683
arre	4684
emir	4685
##land	4686
kçi	4687
##las	4688
erce	4689
ted	4690
onut	4691
sap	4692
günün	4693
esine	4694
uçla	4695
tüne	4696
fit	4697
sit	4698
sesi	4699
izlen	4700
aps	4701
biy	4702
hb	4703
sgk	4704
##hal	4705
arke	4706
illi	4707
açma	4708
tit	4709
vaka	4710
##es	4711
mavil	4712
##tik	4713
esini	4714
ıyı	4715
85	4716
vek	4717
işlet	4718
esli	4719
jet	4720
ıta	4721
azlı	4722
dirne	4723
ipa	4724
run	4725
eviye	4726
reh	4727
yolla	4728
oplam	4729
leşti	4730
ümü	4731
cular	4732
ğunu	4733
rlüğ	4734
gı	4735
ksu	4736
yalar	4737
rav	4738
üçlü	4739
mi̇t	4740
mlı	4741
rga	4742
sün	4743
ildir	4744
kültü	4745
hlı	4746
iden	4747
nş	4748
ocuğ	4749
viye	4750
yk	4751
öy	4752
ille	4753
edd	4754
isyan	4755
mezar	4756
56	4757
idi	4758
rüt	4759
##âh	4760
azan	4761
lüyor	4762
my	4763
rya	4764
ıd	4765
##ad	4766
##alan	4767
ayd	4768
orlu	4769
oruy	4770
ınızı	4771
astro	4772
keti	4773
lg	4774
abır	4775
ktar	4776
ei	4777
ikal	4778
ked	4779
pany	4780
51	4781
mden	4782
rsan	4783
##ver	4784
tira	4785
sto	4786
##i̇k	4787
ölümü	4788
irekt	4789
ruz	4790
##as	4791
aym	4792
ılmış	4793
ülme	4794
amak	4795
apo	4796
iyas	4797
ncı	4798
arbo	4799
ınav	4800
riş	4801
tlar	4802
hap	4803
kulu	4804
trt	4805
tehdi	4806
kka	4807
ngi	4808
erji	4809
les	4810
ygul	4811
ci̇han	4812
54	4813
ao	4814
fan	4815
lüm	4816
vu	4817
vil	4818
vde	4819
olcu	4820
etle	4821
saf	4822
emel	4823
ohal	4824
anel	4825
leh	4826
ahm	4827
kaça	4828
iyes	4829
arihi	4830
vı	4831
##iro	4832
akv	4833
evli	4834
özg	4835
elef	4836
ism	4837
ilal	4838
bür	4839
ej	4840
hrac	4841
kd	4842
kk	4843
yl	4844
##hk	4845
anik	4846
day	4847
aro	4848
lazı	4849
atm	4850
işini	4851
##oğlu	4852
roğlu	4853
ndır	4854
neg	4855
nav	4856
niha	4857
şahit	4858
rumu	4859
eu	4860
tc	4861
urdu	4862
elini	4863
pler	4864
arta	4865
ayla	4866
nut	4867
##ko	4868
avm	4869
fiil	4870
mikro	4871
lon	4872
ota	4873
##lal	4874
ikti	4875
##mi̇	4876
derdi	4877
öso	4878
lany	4879
idman	4880
brik	4881
şükür	4882
49	4883
tımı	4884
##fak	4885
ets	4886
lex	4887
rılan	4888
i̇sta	4889
acar	4890
akvim	4891
gat	4892
rür	4893
udu	4894
##di̇	4895
arrem	4896
lya	4897
nere	4898
adil	4899
eşe	4900
rob	4901
üşü	4902
kro	4903
nek	4904
rkan	4905
sra	4906
ollar	4907
aller	4908
lıc	4909
ülü	4910
ızlık	4911
58	4912
siy	4913
ont	4914
özcü	4915
eyir	4916
kup	4917
##i̇n	4918
yasal	4919
kb	4920
rku	4921
üh	4922
arlık	4923
sis	4924
başa	4925
evik	4926
asp	4927
öd	4928
şçi	4929
erin	4930
aylı	4931
evet	4932
mid	4933
otomo	4934
seni	4935
çısı	4936
törü	4937
ilgis	4938
antı	4939
err	4940
ımla	4941
ekib	4942
irde	4943
akk	4944
elge	4945
rens	4946
rend	4947
rans	4948
çevr	4949
biyet	4950
78	4951
enmiş	4952
atılı	4953
menin	4954
rtak	4955
dili	4956
pası	4957
munda	4958
zirve	4959
özgü	4960
67	4961
ew	4962
rmış	4963
sler	4964
yy	4965
zla	4966
zlen	4967
##xy	4968
taç	4969
acmi	4970
emri	4971
eyler	4972
rilme	4973
luğu	4974
nakli	4975
rinde	4976
pir	4977
##̇li̇	4978
anını	4979
arlar	4980
aksim	4981
evd	4982
kole	4983
ahr	4984
eçe	4985
şke	4986
inik	4987
mus	4988
##zah	4989
kran	4990
tıkla	4991
unduğ	4992
59	4993
alay	4994
nıt	4995
eleme	4996
layı	4997
rtlar	4998
kısm	4999
69	5000
anınd	5001
enni	5002
erzi	5003
saç	5004
iydi	5005
alaxy	5006
ifi	5007
masum	5008
arşıy	5009
66	5010
63	5011
omba	5012
ph	5013
yr	5014
züm	5015
ğrı	5016
şin	5017
amer	5018
ideal	5019
tatü	5020
çlar	5021
unma	5022
tezah	5023
iteli	5024
andır	5025
62	5026
çıka	5027
eyr	5028
hur	5029
##aj	5030
arını	5031
vey	5032
ormon	5033
##co	5034
eyhan	5035
utla	5036
loj	5037
andaş	5038
eynir	5039
bru	5040
car	5041
iral	5042
üzey	5043
özüm	5044
ariç	5045
erede	5046
82	5047
hiz	5048
nler	5049
nmek	5050
obi	5051
rv	5052
alta	5053
emal	5054
pozi	5055
ayıp	5056
nümü	5057
rulan	5058
68	5059
mdan	5060
müsa	5061
işkin	5062
lüğ	5063
nmadı	5064
800	5065
çeri	5066
litik	5067
endir	5068
nedi	5069
meb	5070
imle	5071
ültü	5072
amlar	5073
essi	5074
üket	5075
ivil	5076
ubu	5077
yağı	5078
leri̇	5079
ilem	5080
rota	5081
üml	5082
lgi̇li̇	5083
twe	5084
ura	5085
desi	5086
teb	5087
orku	5088
ısın	5089
latma	5090
örev	5091
aiz	5092
ema	5093
fran	5094
hz	5095
i̇r	5096
imal	5097
aziz	5098
fidan	5099
adesi	5100
uçu	5101
engin	5102
eka	5103
ığın	5104
##vo	5105
olmu	5106
naz	5107
bi̇r	5108
gb	5109
küm	5110
şaka	5111
##rar	5112
iyeli	5113
ahı	5114
mesin	5115
nılan	5116
rumlu	5117
çel	5118
öç	5119
##rat	5120
dek	5121
anır	5122
ayna	5123
sası	5124
akalı	5125
tomo	5126
emil	5127
eyt	5128
kşam	5129
pre	5130
ndü	5131
bula	5132
atör	5133
ult	5134
açın	5135
kip	5136
aşım	5137
fifa	5138
64	5139
nte	5140
rgu	5141
imini	5142
imine	5143
tıb	5144
askı	5145
manşe	5146
cas	5147
edeb	5148
nanı	5149
tweet	5150
57	5151
79	5152
700	5153
dük	5154
ss	5155
arun	5156
yem	5157
irt	5158
pist	5159
ario	5160
çekm	5161
ğumuz	5162
hit	5163
ksız	5164
zek	5165
list	5166
mizle	5167
aw	5168
plak	5169
yd	5170
zü	5171
elle	5172
ırala	5173
uzakl	5174
ıfat	5175
ibare	5176
asım	5177
tok	5178
ue	5179
zlar	5180
##net	5181
buz	5182
avuk	5183
ımın	5184
oprak	5185
ifl	5186
kemer	5187
şov	5188
ığ	5189
yede	5190
levi	5191
amil	5192
eslen	5193
güze	5194
çüncü	5195
oşu	5196
lişi	5197
vakti	5198
edavi	5199
fter	5200
uları	5201
nasi	5202
işl	5203
iklim	5204
ess	5205
dura	5206
akip	5207
nmey	5208
jose	5209
61	5210
71	5211
dro	5212
ome	5213
andan	5214
ekl	5215
uruş	5216
ısını	5217
xpo	5218
ıya	5219
şbir	5220
##ed	5221
##şet	5222
imge	5223
ope	5224
adise	5225
hsy	5226
deh	5227
erc	5228
erya	5229
güc	5230
los	5231
dikt	5232
nelin	5233
hsyk	5234
gra	5235
klü	5236
ln	5237
iniş	5238
##dim	5239
hats	5240
bra	5241
pil	5242
divan	5243
erh	5244
ayi	5245
taah	5246
kii	5247
umar	5248
ric	5249
part	5250
otoğ	5251
köp	5252
ehl	5253
rimi	5254
83	5255
siyo	5256
keşi	5257
takı	5258
nmaya	5259
xxx	5260
urmay	5261
eğiş	5262
idan	5263
tms	5264
##lığı	5265
dic	5266
irme	5267
many	5268
edeni	5269
##i̇ş	5270
ziya	5271
ırakı	5272
flaş	5273
lış	5274
oka	5275
tfa	5276
anar	5277
arşi	5278
akdir	5279
eklem	5280
kos	5281
aşla	5282
ırp	5283
ciro	5284
fiy	5285
hol	5286
tev	5287
ünni	5288
üzde	5289
ıştır	5290
vor	5291
##vir	5292
lih	5293
atür	5294
oğa	5295
kdv	5296
keşif	5297
hmet	5298
jür	5299
wi	5300
şta	5301
att	5302
ktaş	5303
kıv	5304
jüri	5305
calan	5306
yapım	5307
##gi̇	5308
idrar	5309
isk	5310
ısm	5311
ai̇	5312
ibi	5313
lki	5314
çen	5315
yası	5316
menf	5317
ardak	5318
röva	5319
73	5320
ller	5321
lav	5322
ecekt	5323
ürk	5324
yi̇	5325
itme	5326
merdi	5327
vni	5328
veli	5329
aci	5330
duat	5331
türki̇	5332
eyre	5333
dırım	5334
opu	5335
rüya	5336
cn	5337
hbar	5338
rını	5339
infi	5340
uld	5341
baha	5342
aşan	5343
adde	5344
sten	5345
iev	5346
ldüğü	5347
tmsf	5348
sları	5349
zis	5350
ğüs	5351
şü	5352
##ub	5353
##zet	5354
##mb	5355
arg	5356
eton	5357
meh	5358
mega	5359
aşta	5360
iyel	5361
amir	5362
fade	5363
rünü	5364
tıbbi	5365
76	5366
hel	5367
mle	5368
rland	5369
ğmen	5370
##tah	5371
emur	5372
menaj	5373
yete	5374
ranla	5375
ehri	5376
omu	5377
rdım	5378
ladık	5379
ekili	5380
lüt	5381
rlığı	5382
şın	5383
oni	5384
ekli	5385
müf	5386
şii	5387
detti	5388
88	5389
84	5390
fu	5391
kta	5392
lımı	5393
pç	5394
vk	5395
üme	5396
arat	5397
kaba	5398
nadir	5399
taze	5400
ılı	5401
azın	5402
cia	5403
benze	5404
uça	5405
ozu	5406
james	5407
cra	5408
ddet	5409
fel	5410
ple	5411
tmiş	5412
iner	5413
reç	5414
else	5415
danı	5416
aşam	5417
ahram	5418
gene	5419
ylem	5420
aflar	5421
zo	5422
##ân	5423
arlan	5424
olf	5425
eni̇	5426
yev	5427
aşıl	5428
ırım	5429
bini	5430
dirim	5431
katla	5432
helal	5433
ışın	5434
dikka	5435
satı	5436
şerif	5437
77	5438
hti	5439
ldı	5440
uta	5441
del	5442
diyo	5443
nday	5444
irlen	5445
hael	5446
ors	5447
emd	5448
üll	5449
ahim	5450
ği̇	5451
yakı	5452
oyd	5453
ışlar	5454
estek	5455
ruldu	5456
hapse	5457
rsun	5458
aban	5459
ahri	5460
fad	5461
bez	5462
ölge	5463
sosa	5464
iflas	5465
plant	5466
tıka	5467
ekley	5468
74	5469
lun	5470
rvi	5471
##ho	5472
alim	5473
sığ	5474
##tes	5475
azıl	5476
kisi	5477
gazze	5478
şeyh	5479
andık	5480
bbc	5481
kpss	5482
kck	5483
üman	5484
etler	5485
nika	5486
kef	5487
oplu	5488
lması	5489
lata	5490
ibya	5491
hta	5492
nara	5493
çağı	5494
şt	5495
inek	5496
ilg	5497
raca	5498
toz	5499
landa	5500
ıtla	5501
86	5502
mpa	5503
ryan	5504
tlu	5505
unv	5506
nist	5507
irb	5508
mül	5509
kura	5510
eylan	5511
herh	5512
rücü	5513
paul	5514
350	5515
89	5516
ote	5517
sıl	5518
uka	5519
zde	5520
yada	5521
erçe	5522
eyni	5523
avr	5524
ider	5525
yaşay	5526
zab	5527
areti	5528
acağ	5529
apsam	5530
rehin	5531
nse	5532
teli	5533
tkin	5534
zdi	5535
çan	5536
üğün	5537
erb	5538
işk	5539
amca	5540
manya	5541
okrat	5542
metal	5543
hid	5544
ilmes	5545
ee	5546
ls	5547
rsa	5548
ösy	5549
enüz	5550
raga	5551
mill	5552
fas	5553
şika	5554
tmaya	5555
zisy	5556
hil	5557
rti	5558
rca	5559
##ly	5560
i̇ha	5561
ass	5562
riy	5563
varı	5564
muaf	5565
kök	5566
tüke	5567
şair	5568
dehşe	5569
lda	5570
tali	5571
##har	5572
##mür	5573
evda	5574
kola	5575
üzi	5576
ülk	5577
biliy	5578
ithal	5579
nmay	5580
ıştı	5581
ansu	5582
şafak	5583
imes	5584
anın	5585
inlik	5586
ayli	5587
arıy	5588
dilek	5589
hoş	5590
lumu	5591
imaj	5592
jen	5593
sy	5594
zını	5595
ğine	5596
mates	5597
i̇le	5598
makul	5599
arko	5600
omo	5601
dında	5602
pri	5603
üdür	5604
kabi	5605
aklan	5606
dene	5607
tarak	5608
rdik	5609
rank	5610
ruma	5611
web	5612
nli	5613
bağı	5614
ems	5615
besi	5616
kömür	5617
nto	5618
omis	5619
tikl	5620
nikah	5621
tk	5622
yda	5623
##wo	5624
rio	5625
ağınd	5626
örler	5627
oğum	5628
münde	5629
lâ	5630
rık	5631
tmek	5632
##her	5633
##ing	5634
lerek	5635
irma	5636
aklık	5637
ekler	5638
evk	5639
amlı	5640
cısı	5641
tüp	5642
esim	5643
kanı	5644
130	5645
95	5646
92	5647
ase	5648
fr	5649
ld	5650
uan	5651
zge	5652
ötü	5653
anc	5654
inle	5655
yaya	5656
kaan	5657
lanla	5658
emli	5659
uyur	5660
##yoz	5661
iddet	5662
ipo	5663
dikil	5664
ramı	5665
titiz	5666
afa	5667
eyle	5668
kiler	5669
lli	5670
ust	5671
ötür	5672
şler	5673
##th	5674
iştir	5675
aştı	5676
adık	5677
eştir	5678
şare	5679
ike	5680
pf	5681
zmi	5682
ıca	5683
lip	5684
nez	5685
sade	5686
atö	5687
urkan	5688
reel	5689
lıç	5690
toki̇	5691
aşık	5692
aşını	5693
ırın	5694
tarla	5695
eçi	5696
rasy	5697
eat	5698
ui	5699
vg	5700
ücü	5701
deş	5702
##ami	5703
irs	5704
karm	5705
evr	5706
elfi	5707
iyar	5708
asını	5709
oğun	5710
iper	5711
rdek	5712
rneğ	5713
dürü	5714
pes	5715
ex	5716
fbi	5717
ny	5718
ole	5719
rde	5720
yil	5721
şut	5722
enj	5723
amat	5724
eviz	5725
elç	5726
toh	5727
ahme	5728
faul	5729
cisi	5730
luğun	5731
zade	5732
ensil	5733
şükrü	5734
ynen	5735
ötürü	5736
87	5737
hsan	5738
tini	5739
ylü	5740
ilyon	5741
erik	5742
reğ	5743
term	5744
ahlak	5745
pers	5746
uğr	5747
ezer	5748
mpar	5749
ebu	5750
pet	5751
ıdır	5752
daim	5753
kabu	5754
enil	5755
i̇y	5756
ekte	5757
yanlı	5758
adyo	5759
madık	5760
plaj	5761
rsin	5762
lulu	5763
zlu	5764
alit	5765
teah	5766
azm	5767
şeff	5768
riye	5769
kısı	5770
atip	5771
limit	5772
ştığı	5773
ösym	5774
91	5775
cm	5776
dhk	5777
mc	5778
mum	5779
##up	5780
##mü	5781
dai̇ş	5782
artı	5783
azım	5784
emt	5785
ahne	5786
tarı	5787
apan	5788
stat	5789
rant	5790
meliy	5791
tamir	5792
leks	5793
rayı	5794
que	5795
ravma	5796
dhkp	5797
bam	5798
caz	5799
rmuş	5800
çim	5801
##og	5802
argo	5803
yapa	5804
abak	5805
lecek	5806
evzi	5807
ırrı	5808
ahir	5809
ceği	5810
yetin	5811
ezen	5812
pfdk	5813
mlak	5814
##gâ	5815
ande	5816
istiy	5817
sefe	5818
tih	5819
önder	5820
ahla	5821
ows	5822
teyit	5823
holl	5824
dına	5825
tın	5826
tet	5827
ğlı	5828
##lit	5829
ürd	5830
nnes	5831
elfie	5832
aid	5833
eba	5834
zle	5835
şlem	5836
##ban	5837
##del	5838
ann	5839
aksa	5840
ull	5841
eva	5842
sef	5843
yerin	5844
diri	5845
row	5846
tüi̇k	5847
lmas	5848
elirt	5849
edat	5850
750	5851
dın	5852
kst	5853
kşe	5854
rle	5855
vs	5856
zim	5857
olla	5858
dia	5859
etini	5860
amad	5861
orl	5862
uygu	5863
pool	5864
metin	5865
tübi̇	5866
ezle	5867
nakil	5868
nihay	5869
efer	5870
kû	5871
oc	5872
vis	5873
zil	5874
zlık	5875
##wa	5876
arç	5877
enid	5878
sım	5879
##ceğ	5880
izem	5881
kis	5882
yıs	5883
öldür	5884
ston	5885
minin	5886
tayin	5887
rati	5888
vahşi	5889
bare	5890
dını	5891
lk	5892
vut	5893
##şat	5894
##mer	5895
sip	5896
orma	5897
ilek	5898
jean	5899
yeler	5900
900	5901
ebir	5902
file	5903
mz	5904
opa	5905
rlu	5906
sr	5907
##sb	5908
anka	5909
enci	5910
mese	5911
türül	5912
eyla	5913
aff	5914
ansel	5915
kledi	5916
fakir	5917
ptt	5918
reyt	5919
ylül	5920
eon	5921
lçi	5922
pis	5923
sn	5924
ğd	5925
##tc	5926
##üf	5927
##les	5928
ndo	5929
tezi	5930
nında	5931
izah	5932
tiğ	5933
ıran	5934
fav	5935
rilen	5936
ranın	5937
hed	5938
şavir	5939
iva	5940
pal	5941
tleri	5942
deb	5943
ony	5944
reak	5945
ılım	5946
elg	5947
üzün	5948
asınd	5949
mekân	5950
beck	5951
metni	5952
icro	5953
110	5954
leke	5955
nceli	5956
kstil	5957
bd	5958
gre	5959
pın	5960
ğüt	5961
ily	5962
erit	5963
iran	5964
irmi	5965
işa	5966
dos	5967
önüş	5968
ikte	5969
bilme	5970
##geb	5971
osgeb	5972
stk	5973
edik	5974
tilla	5975
kerem	5976
jack	5977
atent	5978
şerid	5979
reler	5980
dedil	5981
imanı	5982
##wood	5983
kir	5984
lde	5985
lul	5986
nleri	5987
uya	5988
ube	5989
zım	5990
##hre	5991
demet	5992
lite	5993
iliz	5994
elere	5995
ahran	5996
cup	5997
rett	5998
ajı	5999
i̇çi̇n	6000
elis	6001
ywood	6002
##ks	6003
alar	6004
enn	6005
nef	6006
laik	6007
aciz	6008
imdi	6009
oro	6010
koza	6011
elt	6012
görm	6013
ağlı	6014
elih	6015
çinde	6016
iğne	6017
ood	6018
rkeo	6019
cnn	6020
ear	6021
ios	6022
kok	6023
kını	6024
vli	6025
işme	6026
boub	6027
ğına	6028
tüd	6029
alib	6030
hall	6031
##yif	6032
yök	6033
tavrı	6034
cc	6035
fyo	6036
tsi̇	6037
şoku	6038
anlık	6039
ulunm	6040
poşet	6041
keyif	6042
mant	6043
aptır	6044
usun	6045
vade	6046
uard	6047
bi̇n	6048
tuna	6049
dicle	6050
dd	6051
pr	6052
vr	6053
vb	6054
##uke	6055
##bet	6056
##şi̇	6057
##qu	6058
org	6059
rica	6060
muciz	6061
isl	6062
küs	6063
küme	6064
kili	6065
ayatı	6066
jou	6067
ygs	6068
tcmb	6069
zeka	6070
luluk	6071
tüdyo	6072
rut	6073
tiş	6074
şti	6075
##val	6076
ankı	6077
ilmi	6078
tef	6079
ake	6080
tabir	6081
racı	6082
reis	6083
ella	6084
ith	6085
metl	6086
sami	6087
360	6088
rfan	6089
rkes	6090
kktc	6091
ax	6092
yt	6093
zdan	6094
üel	6095
üdü	6096
ğan	6097
ıtı	6098
dick	6099
eron	6100
ono	6101
lant	6102
ettiğ	6103
##bai	6104
nunun	6105
andığ	6106
140	6107
müzde	6108
nasip	6109
elsea	6110
aksad	6111
94	6112
biye	6113
ct	6114
kik	6115
##gs	6116
##ley	6117
arin	6118
alm	6119
orno	6120
lanın	6121
ktır	6122
diko	6123
gözle	6124
vala	6125
nakit	6126
ivme	6127
esap	6128
ring	6129
aide	6130
nihai	6131
cza	6132
kç	6133
mın	6134
rları	6135
vren	6136
zme	6137
##ag	6138
##zan	6139
ekta	6140
evam	6141
refa	6142
amur	6143
nton	6144
##i̇m	6145
ızlı	6146
icil	6147
odel	6148
i̇bb	6149
faka	6150
gam	6151
keli	6152
ütah	6153
ıv	6154
şaş	6155
buki	6156
siya	6157
abbi	6158
tac	6159
imf	6160
imya	6161
dana	6162
iyen	6163
ülte	6164
eyk	6165
muka	6166
apri	6167
rent	6168
ıkma	6169
lini	6170
zy	6171
ğımı	6172
##gh	6173
anyo	6174
##maş	6175
alkı	6176
eta	6177
i̇h	6178
lale	6179
imp	6180
ampa	6181
durma	6182
tart	6183
merha	6184
savu	6185
omik	6186
latıl	6187
erson	6188
retim	6189
inov	6190
refah	6191
cuk	6192
lmuş	6193
mmuz	6194
yva	6195
arri	6196
alyoz	6197
eniz	6198
enter	6199
akı	6200
lef	6201
lemi	6202
gisi	6203
asyo	6204
beyli	6205
gov	6206
tatmi	6207
olisi	6208
donk	6209
gata	6210
),	6211
lge	6212
mli	6213
##mar	6214
deli	6215
olü	6216
aluk	6217
alina	6218
ensu	6219
yapi	6220
niy	6221
atler	6222
ileti	6223
üzer	6224
umlar	6225
vard	6226
luis	6227
ayıt	6228
hang	6229
resm	6230
çöp	6231
anto	6232
lazer	6233
taviz	6234
tatbi	6235
rarlı	6236
şerit	6237
limon	6238
99	6239
96	6240
93	6241
kg	6242
zler	6243
zzet	6244
enera	6245
neyi	6246
gele	6247
terli	6248
özle	6249
yoru	6250
itt	6251
edi̇	6252
ralı	6253
piya	6254
tina	6255
zani	6256
fiş	6257
gr	6258
gs	6259
ien	6260
igi	6261
lleri	6262
ncu	6263
s7	6264
zul	6265
inf	6266
mede	6267
reen	6268
reas	6269
eldi	6270
tis	6271
öner	6272
rij	6273
##düs	6274
maks	6275
arter	6276
##nes	6277
mot	6278
talar	6279
eykoz	6280
khk	6281
lm	6282
ular	6283
ğlık	6284
##by	6285
##sti	6286
ilüf	6287
naat	6288
başk	6289
tica	6290
gey	6291
tiro	6292
arici	6293
şap	6294
uplar	6295
sayıs	6296
şandı	6297
fesh	6298
ti̇m	6299
arşiv	6300
gah	6301
lti	6302
nık	6303
slim	6304
zl	6305
zdı	6306
##per	6307
anam	6308
edir	6309
abr	6310
urb	6311
terl	6312
emlak	6313
beğ	6314
stro	6315
kudüs	6316
180	6317
eyeno	6318
rarla	6319
98	6320
cti	6321
dok	6322
rki	6323
sd	6324
uda	6325
üfe	6326
##̇l	6327
mai	6328
##daş	6329
illa	6330
##ure	6331
lap	6332
tiba	6333
kesi	6334
mana	6335
tti̇	6336
erid	6337
obüs	6338
foto	6339
etici	6340
urdur	6341
ngell	6342
pı	6343
uli	6344
##ec	6345
##ble	6346
##gen	6347
yeceğ	6348
akt	6349
tası	6350
eld	6351
terc	6352
sonel	6353
umara	6354
kucak	6355
lov	6356
düğ	6357
ğinin	6358
arif	6359
ias	6360
lduk	6361
klama	6362
ldi̇	6363
undak	6364
rmal	6365
ejim	6366
irler	6367
ulun	6368
kiye	6369
tıra	6370
ipler	6371
ros	6372
sos	6373
hami	6374
mith	6375
rone	6376
zgat	6377
zmit	6378
dl	6379
fık	6380
mına	6381
##ig	6382
##ez	6383
alığı	6384
lima	6385
enta	6386
diki	6387
erme	6388
etir	6389
ayış	6390
abla	6391
hac	6392
orlar	6393
emiz	6394
üleri	6395
geçme	6396
luka	6397
vaat	6398
ttiği	6399
akale	6400
bist	6401
entus	6402
kerle	6403
logo	6404
ni̇n	6405
ai̇h	6406
ılıç	6407
bddk	6408
bri	6409
cik	6410
gul	6411
oun	6412
sb	6413
sms	6414
tö	6415
vv	6416
yek	6417
##om	6418
arkan	6419
oll	6420
etim	6421
irin	6422
ekç	6423
tic	6424
eyda	6425
ahmi	6426
adın	6427
şehre	6428
ciha	6429
idro	6430
ital	6431
roup	6432
kulis	6433
afer	6434
akib	6435
endim	6436
wes	6437
fox	6438
yrıl	6439
htiy	6440
rutin	6441
agi	6442
hr	6443
şle	6444
##tv	6445
had	6446
ekar	6447
ikram	6448
amdi	6449
rida	6450
ırb	6451
iss	6452
figür	6453
##i̇r	6454
şifa	6455
rtük	6456
epdk	6457
160	6458
hesab	6459
hop	6460
450	6461
lys	6462
kûm	6463
db	6464
dna	6465
klik	6466
lsa	6467
pen	6468
tçı	6469
ys	6470
enje	6471
naaş	6472
##ras	6473
ask	6474
aset	6475
utt	6476
alab	6477
zaf	6478
htc	6479
ensup	6480
kma	6481
lgı	6482
ssk	6483
tmen	6484
şit	6485
deler	6486
##all	6487
mag	6488
eniş	6489
erci	6490
abul	6491
imti	6492
elan	6493
gi̇	6494
##vad	6495
ranc	6496
ışma	6497
güçle	6498
aki̇	6499
minde	6500
efe	6501
igen	6502
arlığ	6503
rüzgâ	6504
irsin	6505
lle	6506
ntep	6507
oj	6508
##if	6509
##pur	6510
mater	6511
atmak	6512
ünnet	6513
evdet	6514
elo	6515
eymar	6516
tanın	6517
ereke	6518
stal	6519
stler	6520
##heim	6521
dildi	6522
bari	6523
fitne	6524
talip	6525
enjan	6526
97	6527
iel	6528
nn	6529
spa	6530
ygu	6531
##sü	6532
any	6533
aldi	6534
nasa	6535
lacak	6536
atem	6537
led	6538
eko	6539
dubai	6540
azim	6541
ült	6542
cele	6543
liga	6544
iğe	6545
ygun	6546
##âhil	6547
ae	6548
dâhil	6549
mza	6550
ous	6551
anj	6552
inare	6553
arb	6554
buca	6555
engi	6556
erini	6557
niden	6558
ılmak	6559
amit	6560
tant	6561
ırf	6562
pop	6563
itler	6564
stek	6565
onunu	6566
zaaf	6567
ısına	6568
masal	6569
joe	6570
nom	6571
vedat	6572
zihi	6573
gıla	6574
erçev	6575
cül	6576
hip	6577
ive	6578
ju	6579
ğme	6580
şoke	6581
##̇n	6582
##âr	6583
ervan	6584
emti	6585
maky	6586
tırm	6587
diren	6588
eşya	6589
olayl	6590
##i̇s	6591
nizam	6592
filan	6593
##şap	6594
üyük	6595
tobb	6596
defne	6597
ekrar	6598
zihni	6599
şapka	6600
gara	6601
ldan	6602
nj	6603
piz	6604
indar	6605
arman	6606
bira	6607
kast	6608
akdim	6609
leag	6610
##ses	6611
tij	6612
amd	6613
rmey	6614
vası	6615
şahsi	6616
aria	6617
erkük	6618
mpi	6619
mi̇z	6620
fıs	6621
irdik	6622
ction	6623
fd	6624
faş	6625
kti	6626
kör	6627
lsun	6628
nland	6629
üte	6630
ğra	6631
ante	6632
##ği̇	6633
i̇sa	6634
abl	6635
lec	6636
evşe	6637
işki	6638
ecza	6639
ines	6640
moda	6641
kans	6642
uşma	6643
ertan	6644
viet	6645
mund	6646
aprio	6647
ai̇hm	6648
cın	6649
lö	6650
nor	6651
pl	6652
zheim	6653
ilmen	6654
ayf	6655
onak	6656
başlı	6657
tasa	6658
ulü	6659
eket	6660
terfi	6661
uzl	6662
ams	6663
eyd	6664
abili	6665
merve	6666
loto	6667
rması	6668
ervi	6669
nomi	6670
tipi	6671
etesi	6672
munu	6673
ntern	6674
ömür	6675
itham	6676
dbp	6677
cd	6678
cun	6679
dman	6680
yir	6681
anli	6682
anken	6683
yaban	6684
enç	6685
enat	6686
neşe	6687
taf	6688
eyit	6689
mann	6690
eşar	6691
üçü	6692
rook	6693
rock	6694
fi̇	6695
hele	6696
şire	6697
ico	6698
kreş	6699
ibar	6700
spd	6701
ebev	6702
ammül	6703
kıldı	6704
cret	6705
nz	6706
sman	6707
yut	6708
öste	6709
##nel	6710
nab	6711
tasi	6712
şefi	6713
ash	6714
yorsa	6715
stün	6716
tüsi̇	6717
tinde	6718
damla	6719
ulama	6720
lgesi	6721
cin	6722
lse	6723
palan	6724
yde	6725
zira	6726
ğdır	6727
##ps	6728
##sh	6729
arlo	6730
maf	6731
sia	6732
teog	6733
irke	6734
akya	6735
atu	6736
leb	6737
aşma	6738
avra	6739
ahra	6740
##ves	6741
şike	6742
rakya	6743
arsus	6744
yonun	6745
übre	6746
hizb	6747
ds	6748
kl	6749
kün	6750
lv	6751
mk	6752
zma	6753
üven	6754
şti̇	6755
##ia	6756
##bül	6757
olks	6758
alin	6759
etr	6760
nını	6761
acet	6762
emik	6763
ırd	6764
ırmı	6765
mizah	6766
item	6767
eçiş	6768
üreş	6769
roth	6770
ıldır	6771
epey	6772
orunu	6773
zihin	6774
ntaj	6775
eklif	6776
ame	6777
aali	6778
bt	6779
feri	6780
yni	6781
şün	6782
yam	6783
daşı	6784
lie	6785
mei	6786
abar	6787
aklit	6788
imum	6789
ekşi	6790
tion	6791
lanet	6792
kalar	6793
otu	6794
salar	6795
ükle	6796
ayıs	6797
üstri	6798
ranı	6799
kanın	6800
aliç	6801
ifle	6802
firar	6803
hamid	6804
peder	6805
asay	6806
insül	6807
rgü	6808
ayesi	6809
oul	6810
peş	6811
rlık	6812
uba	6813
wil	6814
##ud	6815
kati	6816
##ğit	6817
onda	6818
nim	6819
lebi	6820
likl	6821
reb	6822
eczan	6823
kia	6824
kaps	6825
alama	6826
zalim	6827
derl	6828
rtan	6829
vapur	6830
dink	6831
traj	6832
pala	6833
ofya	6834
wagen	6835
eras	6836
matem	6837
vahşe	6838
titr	6839
dayı	6840
fıkra	6841
pizza	6842
mafya	6843
bla	6844
lke	6845
nlı	6846
pli	6847
ylı	6848
zmi̇	6849
##ner	6850
##one	6851
iray	6852
atle	6853
rast	6854
urat	6855
evh	6856
üzd	6857
ahit	6858
ahşap	6859
ceh	6860
ürül	6861
düşer	6862
apt	6863
apma	6864
meno	6865
rıca	6866
afiş	6867
ıkar	6868
zedel	6869
125	6870
sted	6871
ivi	6872
nesco	6873
ronz	6874
sterd	6875
şeria	6876
ğunda	6877
impar	6878
lukas	6879
fl	6880
ior	6881
kşi	6882
üle	6883
şla	6884
enü	6885
i̇m	6886
onet	6887
karg	6888
eyp	6889
eşik	6890
ideri	6891
kumaş	6892
ehm	6893
eği̇l	6894
nsu	6895
retme	6896
170	6897
nikâh	6898
rasyo	6899
adis	6900
ramva	6901
cakl	6902
loke	6903
ti̇ka	6904
entag	6905
cis	6906
kımı	6907
stü	6908
tki̇	6909
vleri	6910
zah	6911
şlar	6912
##pi	6913
##ire	6914
anus	6915
ndi̇	6916
damı	6917
ardan	6918
erör	6919
sıt	6920
lag	6921
acim	6922
müsi̇	6923
yerle	6924
amız	6925
mekke	6926
turd	6927
marj	6928
olmam	6929
rmedi	6930
sow	6931
hib	6932
epet	6933
akik	6934
ites	6935
quot	6936
anoz	6937
ezonu	6938
aksat	6939
urad	6940
telif	6941
emsal	6942
cazip	6943
dge	6944
fal	6945
hı	6946
hl	6947
iat	6948
jere	6949
ping	6950
tul	6951
üda	6952
ıka	6953
şli	6954
##ris	6955
dest	6956
enzi	6957
lack	6958
##oko	6959
suat	6960
emzi	6961
güve	6962
örüş	6963
faa	6964
stina	6965
reng	6966
sayan	6967
afp	6968
nsar	6969
ödem	6970
retle	6971
annes	6972
opec	6973
3d	6974
cla	6975
cdu	6976
esaj	6977
hor	6978
ix	6979
nbul	6980
rmu	6981
tus	6982
##âl	6983
dale	6984
arina	6985
onel	6986
abın	6987
atv	6988
acın	6989
resan	6990
gea	6991
aşdi	6992
okyo	6993
elit	6994
metr	6995
low	6996
ehli	6997
eriç	6998
big	6999
ofaş	7000
igren	7001
li̇k	7002
ki̇şi̇	7003
##que	7004
lotof	7005
aaliy	7006
cs	7007
furt	7008
iami	7009
lken	7010
nlat	7011
pul	7012
##fik	7013
enya	7014
nimet	7015
tala	7016
görün	7017
örme	7018
köle	7019
apsi	7020
mola	7021
isle	7022
ehdi	7023
afın	7024
zarf	7025
hamit	7026
asim	7027
üşük	7028
ahsin	7029
##li̇k	7030
ilav	7031
addes	7032
ferib	7033
aur	7034
omet	7035
smi	7036
arles	7037
buhar	7038
##des	7039
erman	7040
iro	7041
lebil	7042
ekno	7043
izlik	7044
suv	7045
asl	7046
ria	7047
pota	7048
ükü	7049
alep	7050
rud	7051
lter	7052
##nie	7053
arsel	7054
lina	7055
resep	7056
evap	7057
fera	7058
ium	7059
nba	7060
reli	7061
sm	7062
wor	7063
yc	7064
##vik	7065
oly	7066
mati	7067
buse	7068
bucak	7069
ays	7070
taar	7071
acılı	7072
ulz	7073
reg	7074
sedi	7075
adar	7076
ülkem	7077
artma	7078
itnel	7079
lenf	7080
reni	7081
ish	7082
ross	7083
fiat	7084
müşt	7085
hassa	7086
dilme	7087
rkas	7088
linin	7089
amid	7090
lduğ	7091
rtes	7092
ılara	7093
agaj	7094
inop	7095
lesin	7096
etiri	7097
zmi̇r	7098
hgs	7099
lir	7100
lut	7101
rsu	7102
ssa	7103
ötv	7104
şmak	7105
##pat	7106
##ep	7107
dez	7108
yala	7109
aluke	7110
imur	7111
orya	7112
ikby	7113
gide	7114
asarı	7115
ahall	7116
yaka	7117
manlı	7118
lobi	7119
ress	7120
çiğ	7121
şağ	7122
eşid	7123
şısı	7124
hou	7125
veto	7126
lass	7127
mhk	7128
psg	7129
myk	7130
adila	7131
luna	7132
riyel	7133
lâm	7134
rown	7135
zafiy	7136
ometr	7137
aö	7138
fta	7139
gür	7140
lmiş	7141
mli̇	7142
tha	7143
vler	7144
üya	7145
##ai	7146
lerl	7147
arça	7148
##dik	7149
niyle	7150
atr	7151
evher	7152
rex	7153
ülüş	7154
miy	7155
laşa	7156
yiğit	7157
adro	7158
lens	7159
ehra	7160
talan	7161
##nia	7162
ütle	7163
enko	7164
atırl	7165
nımız	7166
risti	7167
ourin	7168
teyze	7169
ndıra	7170
lexis	7171
şinin	7172
exus	7173
kmek	7174
rre	7175
sir	7176
sse	7177
war	7178
çile	7179
ğız	7180
##yk	7181
##ole	7182
##ğin	7183
##ja	7184
ndr	7185
hai	7186
akses	7187
urn	7188
elma	7189
ech	7190
sudan	7191
eydi	7192
cisim	7193
nlen	7194
mert	7195
kub	7196
usk	7197
eher	7198
ango	7199
etind	7200
ritm	7201
iola	7202
li̇r	7203
inko	7204
şunla	7205
frei	7206
psv	7207
dikiş	7208
gh	7209
iam	7210
pma	7211
sf	7212
sleri	7213
zmet	7214
şi̇	7215
##io	7216
##uf	7217
mala	7218
illo	7219
nıtı	7220
teç	7221
##olo	7222
kota	7223
lıp	7224
kader	7225
iynet	7226
eyza	7227
ırı	7228
muaz	7229
bom	7230
inip	7231
renci	7232
ispat	7233
rdon	7234
rang	7235
##i̇t	7236
alife	7237
vaa	7238
trab	7239
traf	7240
link	7241
linde	7242
arlos	7243
con	7244
egan	7245
gsy	7246
zk	7247
##pil	7248
##ana	7249
arba	7250
arni	7251
eryat	7252
mele	7253
ileme	7254
ekos	7255
dola	7256
eman	7257
yanus	7258
okt	7259
road	7260
##gua	7261
##i̇h	7262
ansür	7263
şöhre	7264
ick	7265
vasi	7266
valid	7267
maske	7268
gas	7269
hamb	7270
ped	7271
reddi	7272
jest	7273
nci̇	7274
ldığı	7275
(!	7276
bh	7277
gri	7278
hlak	7279
ji	7280
md	7281
nsız	7282
pik	7283
zyon	7284
##cc	7285
##20	7286
diğin	7287
nevi	7288
sid	7289
aylan	7290
onca	7291
nazi	7292
iren	7293
ims	7294
larım	7295
ünya	7296
toch	7297
emre	7298
ikos	7299
örün	7300
apte	7301
idar	7302
nemi	7303
cıb	7304
rume	7305
afı	7306
yout	7307
stedi	7308
estel	7309
atıf	7310
azibe	7311
ihay	7312
bmgk	7313
anes	7314
ouch	7315
rladı	7316
gamze	7317
tusk	7318
(!)	7319
hri	7320
iga	7321
kvad	7322
lel	7323
rdan	7324
rden	7325
tck	7326
zs	7327
öylü	7328
ığı	7329
##hur	7330
yama	7331
arem	7332
enli	7333
eri̇	7334
etih	7335
nafak	7336
karan	7337
geld	7338
rep	7339
elver	7340
aşka	7341
emper	7342
ikt	7343
makro	7344
##zai	7345
ado	7346
ader	7347
lub	7348
yordu	7349
iddi	7350
itha	7351
ipras	7352
102	7353
lukla	7354
sila	7355
dilen	7356
zanne	7357
reviz	7358
240	7359
voley	7360
aldun	7361
rince	7362
eyner	7363
mecra	7364
ğlama	7365
ipad	7366
mehme	7367
vaadi	7368
agi̇	7369
eut	7370
fında	7371
hme	7372
ldür	7373
muk	7374
nr	7375
oot	7376
pd	7377
sli	7378
tuş	7379
çil	7380
##op	7381
debil	7382
##dad	7383
atkı	7384
evfik	7385
rei	7386
bulm	7387
izim	7388
asy	7389
ahis	7390
merhu	7391
rdi̇	7392
kuaf	7393
hazal	7394
aleb	7395
kanç	7396
şimin	7397
ezan	7398
ikay	7399
remit	7400
gana	7401
keler	7402
lyar	7403
650	7404
mony	7405
uskon	7406
esta	7407
fyon	7408
gss	7409
iba	7410
msuz	7411
tf	7412
tran	7413
vi̇	7414
ylan	7415
üve	7416
##kur	7417
erfo	7418
neb	7419
i̇do	7420
medy	7421
abe	7422
ack	7423
imit	7424
amas	7425
ılda	7426
ellen	7427
aşim	7428
ride	7429
ırlık	7430
ürt	7431
ürih	7432
ihir	7433
uth	7434
edim	7435
soba	7436
hals	7437
omb	7438
tekno	7439
bid	7440
tone	7441
etic	7442
135	7443
abia	7444
ilano	7445
zami	7446
veri̇	7447
nişan	7448
rzu	7449
esinl	7450
550	7451
runo	7452
kbal	7453
zekâ	7454
efi	7455
llen	7456
nsan	7457
pus	7458
sül	7459
ylık	7460
âli	7461
şini	7462
ştu	7463
##rs	7464
yaza	7465
arnes	7466
oları	7467
meç	7468
abur	7469
istle	7470
geler	7471
koli	7472
ülbül	7473
amba	7474
##azi	7475
eyf	7476
eyiz	7477
avis	7478
mani	7479
osb	7480
rog	7481
zap	7482
ouse	7483
di̇sk	7484
enfur	7485
lunu	7486
zulmü	7487
cat	7488
hür	7489
ial	7490
tış	7491
vira	7492
zeki	7493
âh	7494
##̇h	7495
dat	7496
arara	7497
ardo	7498
olsu	7499
libi	7500
enlik	7501
##onk	7502
akir	7503
azarı	7504
tiyo	7505
toka	7506
lanıl	7507
emr	7508
esk	7509
eyse	7510
adel	7511
##gili	7512
mole	7513
bunda	7514
issan	7515
ishal	7516
loka	7517
rabb	7518
##yid	7519
115	7520
rduk	7521
ksin	7522
i̇ki̇	7523
üşme	7524
timi	7525
fonu	7526
kabus	7527
lakap	7528
iana	7529
amanı	7530
lavye	7531
i̇yi̇	7532
evhid	7533
4k	7534
dre	7535
lün	7536
lgili	7537
pc	7538
sri	7539
tç	7540
vra	7541
vlen	7542
çük	7543
##ph	7544
##ent	7545
inel	7546
dai	7547
alnı	7548
liki	7549
didim	7550
didik	7551
nev	7552
lasti	7553
evat	7554
kot	7555
doh	7556
izyo	7557
umhur	7558
##vay	7559
otaş	7560
stem	7561
israf	7562
rub	7563
mazer	7564
ifşa	7565
üccar	7566
atit	7567
enaj	7568
own	7569
lokal	7570
uhal	7571
çent	7572
frin	7573
emtia	7574
cska	7575
zkere	7576
bor	7577
blu	7578
dt	7579
hlas	7580
klem	7581
ll	7582
ool	7583
pya	7584
slam	7585
ubat	7586
von	7587
ıla	7588
ıkan	7589
##can	7590
##of	7591
##ğiz	7592
##mal	7593
##jk	7594
enti	7595
teve	7596
akli	7597
imen	7598
leve	7599
ilec	7600
rew	7601
sedan	7602
azi̇	7603
ecd	7604
önl	7605
aht	7606
eşvik	7607
maymu	7608
marş	7609
meti	7610
beşi̇	7611
ingle	7612
üpe	7613
##gas	7614
zikre	7615
mhrs	7616
akina	7617
ouble	7618
mbal	7619
berle	7620
zırh	7621
njonk	7622
egane	7623
likid	7624
duş	7625
rler	7626
tg	7627
uo	7628
yra	7629
şte	7630
##yl	7631
##ob	7632
##ov	7633
##şan	7634
incar	7635
mast	7636
masaj	7637
bura	7638
liv	7639
die	7640
neğ	7641
nic	7642
irol	7643
##ces	7644
taya	7645
amamı	7646
rej	7647
izd	7648
ecb	7649
lanl	7650
asak	7651
umru	7652
eylik	7653
bot	7654
üreç	7655
uto	7656
utb	7657
103	7658
##i̇b	7659
nsari	7660
nılma	7661
ıraç	7662
ıktı	7663
kred	7664
hamil	7665
üştü	7666
hua	7667
valiz	7668
nüfuz	7669
treet	7670
fitil	7671
frik	7672
ercih	7673
urnal	7674
cim	7675
fc	7676
fle	7677
lmak	7678
oji	7679
tları	7680
##son	7681
andi	7682
dab	7683
kabir	7684
lipo	7685
eth	7686
teye	7687
akto	7688
atb	7689
veril	7690
selam	7691
ılık	7692
toma	7693
tolik	7694
asma	7695
aslak	7696
eys	7697
mud	7698
ndent	7699
yakl	7700
örd	7701
##vas	7702
dirme	7703
eşt	7704
üreci	7705
mark	7706
anıy	7707
tüfe	7708
ruç	7709
küb	7710
afran	7711
epil	7712
acıy	7713
ıkın	7714
114	7715
kemot	7716
koçya	7717
gala	7718
kılıf	7719
üşra	7720
erap	7721
inson	7722
şakir	7723
eytan	7724
idans	7725
tevaz	7726
fasul	7727
norm	7728
ayfun	7729
aik	7730
g20	7731
jim	7732
lyo	7733
ocu	7734
rfa	7735
rnia	7736
tki	7737
zd	7738
zıt	7739
##ela	7740
##dye	7741
anımı	7742
ardar	7743
birli	7744
etül	7745
##lig	7746
yele	7747
nad	7748
hab	7749
ach	7750
arah	7751
araj	7752
urel	7753
aşımı	7754
##cas	7755
umd	7756
amk	7757
amsi	7758
##ros	7759
eyh	7760
luces	7761
oth	7762
inic	7763
apne	7764
idon	7765
ipül	7766
isca	7767
çed	7768
rot	7769
104	7770
i̇lgi̇	7771
ruy	7772
i̇şkur	7773
vago	7774
ezil	7775
şad	7776
kinli	7777
şanti	7778
190	7779
ling	7780
incan	7781
330	7782
sapla	7783
nasib	7784
nezar	7785
gsm	7786
meier	7787
aöf	7788
euts	7789
viraj	7790
huaw	7791
gn	7792
ml	7793
mw	7794
nna	7795
pin	7796
pta	7797
pleri	7798
yb	7799
ydan	7800
ân	7801
çam	7802
çta	7803
çik	7804
ıh	7805
şara	7806
##uc	7807
arfi	7808
olm	7809
maha	7810
liyat	7811
ilci	7812
meg	7813
edbir	7814
ndaj	7815
sıy	7816
laj	7817
atak	7818
##okal	7819
amac	7820
iles	7821
reşat	7822
##itu	7823
aşl	7824
emsa	7825
ikmal	7826
asum	7827
umun	7828
riğ	7829
eyy	7830
ürre	7831
addi	7832
cial	7833
apsa	7834
stra	7835
kıt	7836
utma	7837
roda	7838
rose	7839
fidye	7840
küp	7841
ünika	7842
şid	7843
116	7844
ukla	7845
ürüy	7846
odtü	7847
ordro	7848
tate	7849
tlas	7850
##si̇n	7851
zuela	7852
rson	7853
şefk	7854
850	7855
ahmin	7856
lng	7857
cnr	7858
ineko	7859
mkyk	7860
btk	7861
bs	7862
blig	7863
cg	7864
cah	7865
dp	7866
dw	7867
dj	7868
dra	7869
gm	7870
ius	7871
out	7872
tru	7873
ıkı	7874
şal	7875
##ap	7876
##ct	7877
##ins	7878
dede	7879
ndir	7880
arraf	7881
didem	7882
erz	7883
ernie	7884
erazi	7885
etra	7886
nail	7887
iret	7888
abip	7889
habe	7890
arap	7891
açka	7892
reha	7893
sez	7894
elva	7895
izan	7896
gio	7897
amla	7898
rig	7899
eyzi	7900
fast	7901
dediğ	7902
apla	7903
idd	7904
leni	7905
rıc	7906
ortum	7907
usla	7908
alid	7909
alifo	7910
rtun	7911
klim	7912
drar	7913
220	7914
270	7915
owa	7916
rhang	7917
iliği	7918
arco	7919
olfsb	7920
nezak	7921
cehen	7922
rexit	7923
gsyh	7924
vasip	7925
cha	7926
dız	7927
ilay	7928
igu	7929
kım	7930
mgk	7931
nle	7932
nsa	7933
nlam	7934
peri	7935
vokal	7936
şme	7937
##ûn	7938
##ane	7939
dei̇k	7940
yati	7941
aren	7942
arli	7943
vez	7944
enva	7945
errak	7946
unk	7947
i̇li̇	7948
sava	7949
tava	7950
oroz	7951
geli̇	7952
ulti	7953
koz	7954
els	7955
iyon	7956
öze	7957
##ci̇	7958
geni	7959
ürl	7960
ürdü	7961
mayd	7962
##nez	7963
feth	7964
eli̇	7965
##i̇l	7966
rugua	7967
155	7968
arıt	7969
ümer	7970
rakı	7971
ifat	7972
şahsı	7973
guez	7974
zama	7975
rağb	7976
dild	7977
atio	7978
tesla	7979
niko	7980
elenk	7981
ütl	7982
levha	7983
azab	7984
ezai	7985
arfüm	7986
oussa	7987
kubbe	7988
bg	7989
bk	7990
balı	7991
cit	7992
fs	7993
hina	7994
iet	7995
lta	7996
lly	7997
poke	7998
rra	7999
vam	8000
vip	8001
##ise	8002
##pt	8003
##any	8004
ardi	8005
oler	8006
kadim	8007
diya	8008
etva	8009
aylo	8010
mest	8011
edri	8012
irya	8013
hama	8014
akil	8015
laca	8016
atun	8017
rai	8018
eken	8019
açi	8020
açta	8021
bach	8022
doye	8023
elâ	8024
gede	8025
sue	8026
önt	8027
amda	8028
rian	8029
tanap	8030
ahşi	8031
ahec	8032
mic	8033
##eraf	8034
eşir	8035
itel	8036
lüp	8037
iple	8038
kenya	8039
oper	8040
metle	8041
edes	8042
usse	8043
mezh	8044
ümün	8045
iftar	8046
üpür	8047
zaval	8048
rımı	8049
endil	8050
rner	8051
linke	8052
##cks	8053
mpany	8054
280	8055
ridge	8056
bmw	8057
eynin	8058
mirza	8059
icab	8060
imay	8061
dona	8062
müna	8063
rtivo	8064
yildi	8065
nefis	8066
zulme	8067
rkiye	8068
pıh	8069
aki̇ka	8070
kübra	8071
cca	8072
cus	8073
hla	8074
jak	8075
jon	8076
loğ	8077
pm	8078
rli̇	8079
xp	8080
ym	8081
ylo	8082
ğil	8083
ırada	8084
##ie	8085
anına	8086
insa	8087
##ora	8088
ariz	8089
alak	8090
eril	8091
erun	8092
erem	8093
aybe	8094
uni	8095
yapti	8096
iril	8097
atra	8098
doz	8099
ello	8100
aşba	8101
eyran	8102
avşan	8103
aham	8104
ağına	8105
ağını	8106
keb	8107
##bap	8108
bed	8109
ihya	8110
apur	8111
seve	8112
isse	8113
ranan	8114
ahad	8115
reko	8116
rüs	8117
kli̇	8118
farz	8119
eze	8120
113	8121
ferdi	8122
eğri	8123
301	8124
zerre	8125
üşen	8126
üşün	8127
kted	8128
ilas	8129
zgâh	8130
keyf	8131
ersey	8132
zenle	8133
runda	8134
hiza	8135
üğünü	8136
mukav	8137
faşi	8138
meçhu	8139
dabık	8140
jer	8141
ocuk	8142
psa	8143
pit	8144
plum	8145
rini	8146
sare	8147
tya	8148
trol	8149
wen	8150
##ri̇	8151
##bus	8152
alf	8153
ense	8154
abat	8155
orla	8156
oros	8157
dena	8158
kobe	8159
reed	8160
tanda	8161
pody	8162
ürat	8163
##bay	8164
luet	8165
bele	8166
okta	8167
##hua	8168
i̇sti̇	8169
eliha	8170
alez	8171
resul	8172
usb	8173
kora	8174
raft	8175
eğim	8176
rton	8177
icik	8178
ezo	8179
amayı	8180
uphi	8181
182	8182
mpole	8183
agnez	8184
them	8185
ffet	8186
loko	8187
eşitl	8188
ouis	8189
i̇to	8190
aidi	8191
ions	8192
ennif	8193
i̇yar	8194
ceği̇	8195
lmalı	8196
ael	8197
bın	8198
fb	8199
gem	8200
gdan	8201
myan	8202
rr	8203
tlan	8204
tsız	8205
uha	8206
ymes	8207
çler	8208
çlan	8209
şeraf	8210
##gar	8211
##fü	8212
anaş	8213
arh	8214
arbi	8215
lid	8216
dig	8217
dimi	8218
ilki	8219
ilva	8220
erle	8221
etve	8222
unar	8223
onna	8224
nağ	8225
sıca	8226
irl	8227
hası	8228
aksı	8229
akut	8230
labil	8231
ilel	8232
üntü	8233
raha	8234
rafa	8235
bac	8236
söyl	8237
tock	8238
landi	8239
riay	8240
eyyid	8241
durm	8242
ahya	8243
mite	8244
lucas	8245
şehi̇r	8246
ükmü	8247
apım	8248
rome	8249
ediy	8250
metan	8251
cağiz	8252
##şaf	8253
oyunc	8254
zag	8255
tıkl	8256
rmann	8257
misal	8258
gap	8259
rass	8260
nano	8261
suri̇	8262
rami	8263
iğre	8264
jes	8265
bolc	8266
##bi̇s	8267
ovac	8268
ogher	8269
mbel	8270
rgun	8271
weet	8272
ulaf	8273
ebay	8274
sdg	8275
houhe	8276
aidiy	8277
06	8278
a2	8279
bjk	8280
cal	8281
eur	8282
lgo	8283
mme	8284
rşi	8285
ssi	8286
tn	8287
way	8288
zları	8289
##ac	8290
##âne	8291
##gir	8292
anlan	8293
##ore	8294
arşaf	8295
olvo	8296
liya	8297
erhan	8298
naf	8299
ird	8300
sale	8301
akki	8302
akos	8303
lee	8304
aras	8305
rea	8306
ılığı	8307
azhar	8308
aşi	8309
ikon	8310
bilg	8311
avva	8312
ahip	8313
bomb	8314
adin	8315
bedaş	8316
malul	8317
eki̇	8318
eşer	8319
nunda	8320
eçer	8321
kıp	8322
105	8323
cad	8324
otob	8325
derle	8326
icat	8327
epki	8328
ezik	8329
cola	8330
revi	8331
nane	8332
qua	8333
vesel	8334
lakab	8335
avai	8336
ketin	8337
ındığ	8338
errin	8339
idane	8340
ukas	8341
ustin	8342
yten	8343
klin	8344
leler	8345
01	8346
fem	8347
lür	8348
lmu	8349
mca	8350
tm	8351
usi	8352
ute	8353
uge	8354
vran	8355
wal	8356
xim	8357
yün	8358
zc	8359
zarı	8360
ğlan	8361
ğuz	8362
##ron	8363
##çay	8364
##bs	8365
##ant	8366
aron	8367
olle	8368
oldo	8369
max	8370
alik	8371
lix	8372
life	8373
erba	8374
erpil	8375
onde	8376
lağ	8377
amaya	8378
bale	8379
back	8380
azil	8381
izbo	8382
önüm	8383
##bic	8384
eyan	8385
ırmak	8386
mih	8387
luy	8388
luç	8389
mans	8390
ihal	8391
iter	8392
kapi	8393
ipim	8394
iyazi	8395
107	8396
rubi	8397
usya	8398
verdi̇	8399
afha	8400
hatt	8401
üslü	8402
mazot	8403
taht	8404
i̇şe	8405
klişe	8406
vaha	8407
vaaz	8408
128	8409
nakdi	8410
ibra	8411
now	8412
erton	8413
şenko	8414
ovp	8415
rina	8416
260	8417
owl	8418
lmeye	8419
oray	8420
li̇ra	8421
ramaz	8422
matb	8423
more	8424
ydin	8425
ği̇ti̇	8426
arçın	8427
llega	8428
anju	8429
ferah	8430
gasus	8431
rşiv	8432
3g	8433
5g	8434
6s	8435
aari	8436
bl	8437
dc	8438
tüt	8439
uaz	8440
##uh	8441
##xi	8442
angu	8443
ani̇	8444
antim	8445
insk	8446
damat	8447
ilve	8448
erj	8449
erna	8450
sisi	8451
ayg	8452
nado	8453
ning	8454
sala	8455
akçay	8456
tada	8457
imda	8458
imül	8459
orre	8460
rade	8461
açin	8462
seba	8463
aştır	8464
üzit	8465
rix	8466
ırlan	8467
ağli	8468
ürşat	8469
ntin	8470
utnik	8471
yetle	8472
101	8473
afari	8474
perd	8475
tilki	8476
çığ	8477
antos	8478
tıkır	8479
nmeye	8480
andar	8481
165	8482
nos	8483
ksp	8484
vida	8485
pato	8486
230	8487
320	8488
zenf	8489
şkani	8490
di̇n	8491
mond	8492
lahom	8493
lpg	8494
ryant	8495
hipo	8496
insaf	8497
09	8498
boko	8499
col	8500
celi	8501
dh	8502
dor	8503
jüp	8504
lyoz	8505
mg	8506
mları	8507
uer	8508
ûre	8509
ğsü	8510
##pp	8511
##hut	8512
##ou	8513
##ola	8514
##iny	8515
als	8516
ali̇	8517
ilb	8518
etre	8519
ettah	8520
göl	8521
unde	8522
i̇ya	8523
nac	8524
last	8525
##rao	8526
##rag	8527
acer	8528
isten	8529
radı	8530
rady	8531
ulya	8532
##itz	8533
elbet	8534
ecik	8535
lanse	8536
aşer	8537
terya	8538
iks	8539
ikro	8540
riyo	8541
ried	8542
eyik	8543
pos	8544
##bao	8545
idyat	8546
idrak	8547
mozai	8548
renc	8549
tekli	8550
alad	8551
106	8552
hans	8553
hew	8554
çıvan	8555
i̇şi	8556
ngaj	8557
iflis	8558
ezar	8559
mino	8560
şacak	8561
eğini	8562
arışı	8563
185	8564
ibet	8565
arebe	8566
rino	8567
poro	8568
iii	8569
medet	8570
jac	8571
inkâr	8572
ördüğ	8573
ahver	8574
ercan	8575
ebap	8576
dınla	8577
tefan	8578
mukab	8579
eyyar	8580
cahit	8581
arlie	8582
aarif	8583
eiro	8584
fly	8585
gt	8586
hum	8587
ibol	8588
kw	8589
mran	8590
nya	8591
nlay	8592
ox	8593
sle	8594
sca	8595
slo	8596
uil	8597
wik	8598
zur	8599
âl	8600
üçe	8601
ıc	8602
##hir	8603
##hiş	8604
##fan	8605
##wi	8606
ancar	8607
arris	8608
ari̇h	8609
aliz	8610
eriz	8611
ermiş	8612
nedar	8613
i̇f	8614
i̇tü	8615
atvan	8616
imb	8617
iley	8618
rema	8619
reya	8620
emer	8621
emsi	8622
yera	8623
ikk	8624
yanın	8625
şev	8626
vari	8627
tani	8628
sorul	8629
paro	8630
parl	8631
apec	8632
mobe	8633
eçi̇	8634
stle	8635
renle	8636
ntv	8637
elike	8638
yeti	8639
heves	8640
ehi	8641
ışan	8642
ümb	8643
ümen	8644
üminy	8645
pide	8646
rtod	8647
onuc	8648
tras	8649
145	8650
zana	8651
oval	8652
lamba	8653
215	8654
210	8655
225	8656
ieb	8657
hugo	8658
lmedi	8659
365	8660
entez	8661
ti̇b	8662
ti̇k	8663
inkar	8664
urica	8665
otaj	8666
ydg	8667
ai̇le	8668
megav	8669
##hou	8670
hila	8671
rtis	8672
uang	8673
ipote	8674
ilyar	8675
rookl	8676
ixon	8677
piker	8678
pdrag	8679
bkm	8680
öntem	8681
rubio	8682
b1	8683
g5	8684
gyo	8685
gna	8686
gâh	8687
hile	8688
hsb	8689
lmam	8690
mul	8691
oen	8692
pur	8693
rh	8694
rok	8695
rön	8696
sha	8697
syan	8698
yri	8699
zb	8700
zda	8701
çla	8702
##ux	8703
##şin	8704
##şır	8705
##vat	8706
arr	8707
arol	8708
arip	8709
ınc	8710
kabe	8711
live	8712
liter	8713
ilbao	8714
ersi̇n	8715
ettür	8716
ung	8717
nid	8718
iron	8719
able	8720
laat	8721
lahan	8722
imm	8723
lej	8724
istri	8725
urna	8726
evcu	8727
elda	8728
terem	8729
##bih	8730
ikmen	8731
öza	8732
asvir	8733
rivay	8734
esur	8735
eyne	8736
eyid	8737
ırç	8738
miyo	8739
tird	8740
bev	8741
##ney	8742
app	8743
lüğün	8744
opra	8745
neml	8746
iyale	8747
roin	8748
alaz	8749
kupo	8750
orth	8751
nko	8752
afet	8753
mezra	8754
tili	8755
nüs	8756
sof	8757
eski̇	8758
güçl	8759
ormo	8760
önes	8761
ezire	8762
111	8763
rımız	8764
zary	8765
ledik	8766
136	8767
şanz	8768
175	8769
241	8770
serie	8771
slüm	8772
ego	8773
klas	8774
290	8775
shi	8776
arpuz	8777
dunf	8778
tmesi	8779
weuke	8780
tkil	8781
work	8782
tockh	8783
hsbc	8784
oense	8785
aun	8786
age	8787
csu	8788
eir	8789
fos	8790
hro	8791
jel	8792
jun	8793
klo	8794
mira	8795
nâ	8796
nsı	8797
nör	8798
rch	8799
saka	8800
smer	8801
tine	8802
ual	8803
vw	8804
vol	8805
vay	8806
wo	8807
zi̇	8808
zhou	8809
öh	8810
üma	8811
şmiş	8812
##pro	8813
##het	8814
##hat	8815
##nat	8816
##dd	8817
##vd	8818
##ger	8819
##gge	8820
##we	8821
##ino	8822
##ila	8823
anga	8824
inar	8825
arhan	8826
olak	8827
etd	8828
neşet	8829
##sih	8830
teven	8831
abya	8832
akdi	8833
##umb	8834
##sab	8835
sina	8836
eldi̇	8837
ecde	8838
tof	8839
terd	8840
tıs	8841
eml	8842
amos	8843
elep	8844
kona	8845
ırla	8846
ırma	8847
keder	8848
üral	8849
ürlü	8850
sald	8851
ayri	8852
rili	8853
ips	8854
ipuc	8855
adab	8856
kenne	8857
kıta	8858
opel	8859
eliğ	8860
elipe	8861
cac	8862
ruj	8863
ruise	8864
152	8865
zid	8866
ümr	8867
rafo	8868
ayınl	8869
rtiz	8870
halin	8871
vadi	8872
yoz	8873
yoga	8874
117	8875
eğin	8876
lamb	8877
zıp	8878
ezid	8879
iğin	8880
jason	8881
kabül	8882
edaş	8883
hpv	8884
şükre	8885
ömer	8886
ekai	8887
ntezi	8888
orsch	8889
kokt	8890
i̇hra	8891
oung	8892
juan	8893
oulma	8894
rreal	8895
etraj	8896
gdano	8897
..	8898
4a	8899
aği	8900
aim	8901
cini	8902
dul	8903
gon	8904
hö	8905
hçe	8906
hus	8907
küt	8908
nka	8909
rlik	8910
slen	8911
sch	8912
ubil	8913
win	8914
ylar	8915
çlü	8916
üca	8917
üşe	8918
şat	8919
##ale	8920
##ev	8921
##ors	8922
arren	8923
arına	8924
bud	8925
alg	8926
kase	8927
kamaş	8928
kadaş	8929
eno	8930
eram	8931
sist	8932
ayip	8933
unvan	8934
yey	8935
irne	8936
vere	8937
rest	8938
elvi	8939
izer	8940
tiy	8941
aşv	8942
aşit	8943
yang	8944
asri	8945
umus	8946
yarb	8947
cez	8948
posa	8949
ağri	8950
fahiş	8951
okr	8952
nuna	8953
takil	8954
apşır	8955
teni	8956
mens	8957
sevi	8958
lene	8959
ipi	8960
ipek	8961
çehre	8962
mare	8963
iyatı	8964
merun	8965
loo	8966
fidel	8967
silya	8968
sell	8969
heim	8970
atas	8971
çıt	8972
rtti	8973
feder	8974
fesih	8975
miks	8976
kilid	8977
ğind	8978
uklar	8979
latt	8980
gart	8981
burj	8982
erso	8983
149	8984
tten	8985
cidd	8986
187	8987
184	8988
ibret	8989
ebru	8990
nohut	8991
şıma	8992
efik	8993
hdr	8994
peare	8995
lash	8996
lassa	8997
remen	8998
ies	8999
ieg	9000
ebep	9001
eynır	9002
tbf	9003
naylo	9004
qual	9005
aas	9006
rsey	9007
semer	9008
icas	9009
püf	9010
gani	9011
ki̇m	9012
rlama	9013
elly	9014
gbt	9015
htapo	9016
olek	9017
agic	9018
aev	9019
fdt	9020
antez	9021
nsanı	9022
blue	9023
azi̇a	9024
unkt	9025
ği̇ti̇m	9026
07	9027
cir	9028
eal	9029
fur	9030
fro	9031
ftar	9032
fşin	9033
gˆ	9034
kş	9035
kya	9036
rlı	9037
rçe	9038
spit	9039
tkı	9040
yke	9041
zleş	9042
ğar	9043
##cal	9044
##ubi	9045
##bal	9046
##ât	9047
anmak	9048
anpo	9049
ndis	9050
##maz	9051
olt	9052
mamı	9053
albay	9054
erum	9055
erdan	9056
eten	9057
unt	9058
onat	9059
naim	9060
nica	9061
irpo	9062
hae	9063
lao	9064
acik	9065
koda	9066
reat	9067
repo	9068
##ito	9069
lıkl	9070
kalbe	9071
giye	9072
assa	9073
avc	9074
avuz	9075
ahn	9076
laşı	9077
ürm	9078
bedi	9079
artu	9080
şehi̇t	9081
fethi	9082
cans	9083
alas	9084
lot	9085
cafe	9086
fiba	9087
ınai	9088
kand	9089
heck	9090
ehdit	9091
ulaşa	9092
arkot	9093
afiz	9094
afra	9095
sody	9096
pivo	9097
üsran	9098
rekke	9099
bilek	9100
şahsa	9101
farc	9102
ayac	9103
steo	9104
fire	9105
iraç	9106
rnea	9107
142	9108
cover	9109
138	9110
joa	9111
188	9112
leyna	9113
abib	9114
üyü	9115
ofis	9116
mito	9117
egüm	9118
şoka	9119
367	9120
orais	9121
hire	9122
övbe	9123
kontr	9124
şeren	9125
nbc	9126
ours	9127
teyen	9128
ahriş	9129
i̇rke	9130
zof	9131
911	9132
ıvıl	9133
ived	9134
eyhun	9135
peria	9136
mestr	9137
micro	9138
rritu	9139
scape	9140
rönt	9141
ücade	9142
dıl	9143
ean	9144
fri	9145
kh	9146
kber	9147
mya	9148
nke	9149
pure	9150
rış	9151
rizm	9152
çları	9153
çip	9154
ıvad	9155
şor	9156
##bro	9157
dej	9158
deği̇	9159
aniz	9160
anno	9161
inn	9162
insta	9163
dala	9164
arim	9165
olk	9166
bub	9167
alli	9168
lia	9169
liy	9170
lide	9171
like	9172
dime	9173
ils	9174
irfan	9175
##dus	9176
akrao	9177
lava	9178
acca	9179
lede	9180
leceğ	9181
orak	9182
iled	9183
raul	9184
rauf	9185
vers	9186
işik	9187
elil	9188
elta	9189
izip	9190
##lus	9191
rien	9192
rivan	9193
eset	9194
eygir	9195
ırka	9196
ineğ	9197
örül	9198
fair	9199
luiz	9200
soro	9201
arto	9202
turk	9203
menşe	9204
star	9205
ntar	9206
108	9207
öğre	9208
kubic	9209
cıv	9210
i̇lle	9211
##i̇p	9212
seli	9213
158	9214
heba	9215
rten	9216
hift	9217
129	9218
ezber	9219
aric	9220
141	9221
com	9222
132	9223
rbes	9224
klara	9225
via	9226
spk	9227
endi̇	9228
küloz	9229
nlari	9230
hud	9231
ütfü	9232
bessü	9233
kâbus	9234
thors	9235
ohio	9236
encil	9237
flash	9238
mdat	9239
rpg	9240
##lâk	9241
each	9242
zence	9243
ıçra	9244
ğladı	9245
hâl	9246
psm	9247
auck	9248
desin	9249
reyf	9250
kyk	9251
##ti̇b	9252
ierre	9253
720	9254
gates	9255
nazik	9256
edikl	9257
arino	9258
i̇hh	9259
nomik	9260
eröri̇	9261
agi̇t	9262
ooth	9263
rtune	9264
ais	9265
aolo	9266
eer	9267
hin	9268
hi̇	9269
jam	9270
mol	9271
mri	9272
np	9273
nli̇k	9274
piş	9275
pch	9276
üj	9277
şür	9278
##ua	9279
##âd	9280
##zen	9281
##jet	9282
anos	9283
yatı	9284
dax	9285
argi	9286
olum	9287
alti	9288
limak	9289
enit	9290
enant	9291
ilmek	9292
side	9293
siste	9294
aydi	9295
ayra	9296
unami	9297
edge	9298
onne	9299
nice	9300
niver	9301
haç	9302
sama	9303
laven	9304
ullar	9305
ulva	9306
##uşi	9307
arabe	9308
ursi	9309
evle	9310
sean	9311
çıkı	9312
ülil	9313
güt	9314
umre	9315
bilen	9316
kono	9317
muva	9318
ahor	9319
ahır	9320
ahmak	9321
ahpe	9322
##gev	9323
araka	9324
iniğ	9325
idal	9326
moh	9327
kto	9328
ktri	9329
ktris	9330
ipod	9331
role	9332
rosb	9333
alaga	9334
şeyma	9335
edia	9336
metod	9337
i̇sra	9338
caiz	9339
süs	9340
afd	9341
iyech	9342
i̇ndi̇	9343
nasuh	9344
rtt	9345
rtla	9346
ify	9347
ifler	9348
hiv	9349
high	9350
abad	9351
126	9352
118	9353
davi	9354
atika	9355
traji	9356
163	9357
erkür	9358
176	9359
erten	9360
vuko	9361
hamd	9362
angal	9363
raton	9364
arson	9365
pollo	9366
rkun	9367
rason	9368
ambur	9369
adik	9370
ainz	9371
üşte	9372
yong	9373
uruy	9374
tbb	9375
##li̇s	9376
evecc	9377
tazy	9378
##lâl	9379
340	9380
iang	9381
şerb	9382
keşan	9383
vahit	9384
kafes	9385
adire	9386
820	9387
nlere	9388
awk	9389
yds	9390
ears	9391
ferag	9392
atrik	9393
rres	9394
ghz	9395
umruğ	9396
zdf	9397
ânâ	9398
lajen	9399
nüsha	9400
eirel	9401
fosil	9402
ümrüt	9403
rtizo	9404
kütük	9405
haepe	9406
pchat	9407
nicef	9408
muvaf	9409
bn	9410
bük	9411
btö	9412
cr	9413
cl	9414
cv	9415
dine	9416
eil	9417
fok	9418
lüz	9419
lmi	9420
mman	9421
nsi	9422
oi	9423
oah	9424
ptal	9425
wan	9426
xf	9427
zra	9428
zaz	9429
zne	9430
znik	9431
çb	9432
şb	9433
şem	9434
##sv	9435
##nin	9436
##bü	9437
##bb	9438
##gut	9439
##fir	9440
##wn	9441
##ani	9442
##ake	9443
init	9444
##eks	9445
##orn	9446
arki	9447
arut	9448
arga	9449
##ell	9450
olmen	9451
alara	9452
enel	9453
ersa	9454
##lia	9455
unes	9456
i̇p	9457
edret	9458
nadi	9459
naif	9460
irte	9461
abile	9462
akul	9463
lase	9464
laus	9465
atü	9466
orse	9467
likon	9468
arad	9469
urbo	9470
redit	9471
reog	9472
azir	9473
eck	9474
lanc	9475
aşin	9476
üzza	9477
üzgâ	9478
bül	9479
emet	9480
##gie	9481
##azz	9482
esil	9483
esmer	9484
esgut	9485
eyfi	9486
makt	9487
varis	9488
avza	9489
mile	9490
bosi	9491
otte	9492
eki̇n	9493
ture	9494
ihsan	9495
itra	9496
keni	9497
isnat	9498
girit	9499
rod	9500
esi̇	9501
kanla	9502
netm	9503
156	9504
hez	9505
diyan	9506
rafta	9507
ansen	9508
123	9509
121	9510
ezz	9511
rmato	9512
205	9513
i̇zle	9514
paca	9515
eling	9516
zanı	9517
137	9518
entil	9519
hoven	9520
tması	9521
199	9522
214	9523
aatle	9524
irec	9525
amble	9526
pper	9527
bmd	9528
venüs	9529
gezer	9530
aston	9531
flaj	9532
ubl	9533
sco	9534
strük	9535
470	9536
folik	9537
arref	9538
rund	9539
yyubi	9540
mukay	9541
arrie	9542
yekün	9543
etruk	9544
rli̇ği̇	9545
psala	9546
ugeot	9547
elaş	9548
emat	9549
eid	9550
giler	9551
gps	9552
kek	9553
lçok	9554
mok	9555
mba	9556
mniy	9557
oa	9558
omi	9559
pel	9560
pi̇	9561
tüz	9562
yus	9563
yfer	9564
şiz	9565
##raş	9566
##ğu	9567
##fen	9568
##ök	9569
##art	9570
deal	9571
ndık	9572
mayo	9573
bire	9574
enri	9575
erah	9576
eriy	9577
##ont	9578
neu	9579
neş	9580
unn	9581
i̇si̇	9582
teme	9583
mef	9584
abc	9585
atur	9586
##kap	9587
ledo	9588
orn	9589
orsu	9590
##emo	9591
ekti	9592
deni	9593
arade	9594
urr	9595
eviy	9596
##had	9597
bast	9598
azdı	9599
izy	9600
ecai	9601
ülf	9602
asv	9603
amal	9604
amsun	9605
avut	9606
ahl	9607
ahal	9608
ahur	9609
pole	9610
keç	9611
ürgev	9612
lula	9613
eşale	9614
ükhet	9615
feto	9616
ölük	9617
isin	9618
elic	9619
rdiç	9620
109	9621
ediz	9622
hard	9623
hes	9624
çika	9625
tila	9626
şekl	9627
icho	9628
hia	9629
higan	9630
ezker	9631
ezzet	9632
ikah	9633
119	9634
zarif	9635
trik	9636
143	9637
kavak	9638
lett	9639
131	9640
rkada	9641
nodar	9642
urtul	9643
elaf	9644
elale	9645
195	9646
elikg	9647
ajla	9648
kerim	9649
meşal	9650
rtej	9651
cemi	9652
bbp	9653
rgia	9654
anks	9655
ftse	9656
hiro	9657
udret	9658
vasat	9659
macun	9660
370	9661
425	9662
420	9663
i̇ksv	9664
yht	9665
bylo	9666
zeri̇	9667
560	9668
tiraj	9669
ngi̇n	9670
awai	9671
essen	9672
yi̇n	9673
hell	9674
ienal	9675
ount	9676
dsö	9677
üdah	9678
pedro	9679
nics	9680
tnt	9681
ibolu	9682
ırçın	9683
tofaş	9684
şort	9685
lavab	9686
05	9687
?)	9688
aul	9689
agan	9690
bp	9691
bik	9692
cılı	9693
dm	9694
dda	9695
dvd	9696
een	9697
eit	9698
ebat	9699
fın	9700
gdo	9701
het	9702
iu	9703
kşa	9704
lfa	9705
mt	9706
mtv	9707
nlik	9708
nmo	9709
pso	9710
tp	9711
tlay	9712
u2	9713
ufo	9714
vik	9715
wü	9716
çleri	9717
ülit	9718
şlet	9719
##ibe	9720
##nak	9721
##ju	9722
##10	9723
deva	9724
anit	9725
ange	9726
das	9727
arner	9728
bule	9729
ınla	9730
alip	9731
kac	9732
kaman	9733
limi	9734
enus	9735
##aşi	9736
diva	9737
##iza	9738
erbe	9739
edere	9740
onte	9741
onus	9742
nisa	9743
nipro	9744
akne	9745
aktır	9746
atum	9747
atlay	9748
ndex	9749
oron	9750
orpo	9751
ulvi	9752
eval	9753
evki	9754
rec	9755
reda	9756
tima	9757
bütö	9758
emn	9759
emm	9760
ikta	9761
şeyle	9762
##cap	9763
ülfi	9764
amı	9765
eyya	9766
eyon	9767
aval	9768
ahlâk	9769
adaki	9770
örek	9771
örük	9772
##nad	9773
otti	9774
onuşm	9775
manu	9776
eşek	9777
takl	9778
cien	9779
kıble	9780
isal	9781
opla	9782
elisa	9783
metot	9784
sıral	9785
tüber	9786
edebi	9787
alime	9788
pider	9789
yuan	9790
ltra	9791
i̇şle	9792
eçti̇	9793
lmay	9794
zaim	9795
122	9796
burn	9797
buruk	9798
endin	9799
168	9800
ebron	9801
178	9802
erec	9803
245	9804
laska	9805
centa	9806
275	9807
adio	9808
ramp	9809
261	9810
timur	9811
işimi	9812
316	9813
310	9814
qui	9815
yedek	9816
jess	9817
lake	9818
makas	9819
tmeye	9820
zind	9821
umach	9822
nduğu	9823
llard	9824
390	9825
onuçl	9826
aksam	9827
teyak	9828
aklav	9829
lümü	9830
ewis	9831
pila	9832
htiya	9833
cmk	9834
kisve	9835
ivaç	9836
enny	9837
impik	9838
ulian	9839
iasse	9840
yekûn	9841
gi̇bi̇	9842
aybed	9843
orrea	9844
dhmi̇	9845
iegel	9846
şizof	9847
asvip	9848
03	9849
aos	9850
bc	9851
baki	9852
clas	9853
dter	9854
ddi̇	9855
eul	9856
eis	9857
elat	9858
fk	9859
kiş	9860
kvar	9861
llo	9862
och	9863
pey	9864
sum	9865
tzo	9866
ux	9867
ude	9868
use	9869
wiz	9870
yot	9871
ysk	9872
zın	9873
âlen	9874
üv	9875
ğri	9876
şure	9877
##dz	9878
lark	9879
ansi	9880
yaba	9881
veşat	9882
vegas	9883
oluk	9884
ınam	9885
alke	9886
kain	9887
enna	9888
ayse	9889
yeğ	9890
nap	9891
akte	9892
akpo	9893
ladi	9894
taa	9895
ats	9896
leg	9897
##yev	9898
orpil	9899
üngür	9900
rain	9901
rasa	9902
rabi	9903
raig	9904
evri	9905
evad	9906
rego	9907
ecdad	9908
lana	9909
emile	9910
iksi	9911
ikol	9912
ikane	9913
gida	9914
asm	9915
esp	9916
eley	9917
eles	9918
ahin	9919
keh	9920
adra	9921
turbo	9922
adah	9923
renin	9924
isak	9925
isil	9926
gazoz	9927
ürec	9928
uts	9929
rop	9930
şeyd	9931
i̇so	9932
i̇ski̇	9933
cade	9934
kang	9935
cher	9936
153	9937
157	9938
154	9939
kamil	9940
rahmi	9941
aflet	9942
perv	9943
soçi	9944
pig	9945
üsun	9946
lemey	9947
müşah	9948
erif	9949
127	9950
miny	9951
latif	9952
şaibe	9953
lekse	9954
tepki̇	9955
oday	9956
164	9957
181	9958
177	9959
246	9960
tesin	9961
sky	9962
rumen	9963
rata	9964
pati	9965
223	9966
lind	9967
rinin	9968
fiks	9969
thle	9970
aster	9971
ness	9972
mi̇r	9973
ubli	9974
aiti	9975
kafil	9976
ni̇z	9977
410	9978
ntast	9979
cağız	9980
530	9981
ulaşı	9982
ravel	9983
620	9984
i̇ri̇ş	9985
ssen	9986
erhum	9987
holo	9988
yi̇z	9989
kefen	9990
afad	9991
enjam	9992
nefs	9993
aktul	9994
yekun	9995
ayfur	9996
uoan	9997
atbik	9998
sezar	9999
vezir	10000
pıhtı	10001
ccabi	10002
ceği̇z	10003
nafil	10004
ani̇sa	10005
b12	10006
wood	10007
?),	10008
ddi̇a	10009
04	10010
4g	10011
aer	10012
cok	10013
cci	10014
ein	10015
eet	10016
fiz	10017
fuk	10018
jazz	10019
klu	10020
mv	10021
mdi	10022
oe	10023
rş	10024
rtik	10025
sdü	10026
sbih	10027
td	10028
tyle	10029
voke	10030
wit	10031
yran	10032
ymen	10033
zz	10034
çle	10035
ılaş	10036
##ib	10037
##rin	10038
##rik	10039
##nek	10040
##ni̇	10041
##çka	10042
##şo	10043
##mil	10044
##fel	10045
##öh	10046
##öm	10047
##jko	10048
anora	10049
inüs	10050
arden	10051
arran	10052
ari̇	10053
busi	10054
alki	10055
alyan	10056
kava	10057
ilbe	10058
erp	10059
ermek	10060
eray	10061
nefer	10062
sion	10063
ayin	10064
ayva	10065
i̇çi	10066
meha	10067
nick	10068
irle	10069
sao	10070
atri	10071
karo	10072
##red	10073
lega	10074
ory	10075
##kem	10076
isto	10077
ünk	10078
ravi	10079
ulm	10080
##hag	10081
##haz	10082
dolay	10083
ellem	10084
eljko	10085
izami	10086
izole	10087
iznin	10088
lani	10089
teraz	10090
terzi	10091
emph	10092
ülru	10093
assi	10094
umma	10095
rial	10096
elec	10097
avil	10098
avun	10099
uyl	10100
yari	10101
ürsab	10102
tari	10103
bein	10104
beek	10105
paral	10106
ihr	10107
ciat	10108
aptı	10109
idde	10110
tent	10111
ipe	10112
keneş	10113
bekli	10114
mari	10115
kron	10116
hafız	10117
cadı	10118
ruses	10119
netme	10120
159	10121
151	10122
usko	10123
kesk	10124
kort	10125
ümbül	10126
çıtır	10127
eği̇	10128
ltınd	10129
halt	10130
üpraş	10131
akis	10132
abas	10133
uğla	10134
akas	10135
atih	10136
ahid	10137
şafa	10138
leksa	10139
256	10140
eleko	10141
148	10142
146	10143
144	10144
ılmay	10145
cope	10146
134	10147
183	10148
iban	10149
nod	10150
rulma	10151
off	10152
over	10153
pep	10154
pegi	10155
pedo	10156
vosti	10157
resmi̇	10158
ardy	10159
196	10160
212	10161
mper	10162
rasın	10163
egbi̇s	10164
ebei	10165
arant	10166
duman	10167
udio	10168
elena	10169
sti̇h	10170
owie	10171
roner	10172
uciz	10173
ucat	10174
quad	10175
flas	10176
röt	10177
mhz	10178
stane	10179
##ffu	10180
si̇t	10181
ettir	10182
eag	10183
eaua	10184
di̇r	10185
di̇ti̇b	10186
uddus	10187
vata	10188
430	10189
mora	10190
şefik	10191
tsyd	10192
rmik	10193
ravat	10194
780	10195
690	10196
eyrut	10197
uedes	10198
okado	10199
lüton	10200
ldırı	10201
hidro	10202
enns	10203
enner	10204
pron	10205
ivibu	10206
i̇lgi̇ç	10207
arenk	10208
pıht	10209
digma	10210
ibraz	10211
multi	10212
cirit	10213
awaii	10214
tzob	10215
aal	10216
eip	10217
egas	10218
fsun	10219
gd	10220
g3	10221
hram	10222
ibu	10223
jp	10224
joko	10225
lor	10226
lır	10227
lves	10228
mke	10229
mci	10230
oste	10231
osta	10232
qa	10233
ska	10234
tli̇	10235
ure	10236
ybet	10237
zka	10238
zli̇k	10239
üke	10240
ğir	10241
şka	10242
şina	10243
##pü	10244
##ug	10245
##tan	10246
##ço	10247
##çya	10248
##gg	10249
##zi̇	10250
##fu	10251
##ert	10252
dela	10253
anna	10254
inil	10255
arit	10256
bucks	10257
kade	10258
enver	10259
enhag	10260
##sto	10261
ilti	10262
ildan	10263
##izz	10264
erot	10265
eti̇n	10266
i̇v	10267
nini	10268
niyaz	10269
irr	10270
iris	10271
irnak	10272
hasan	10273
sack	10274
laad	10275
laffu	10276
tag	10277
atki	10278
atti	10279
atsa	10280
amala	10281
ilece	10282
ünt	10283
ekâ	10284
ekke	10285
urya	10286
urme	10287
evro	10288
koca	10289
reşit	10290
rehi	10291
reag	10292
bası	10293
dow	10294
eliz	10295
ges	10296
kibi	10297
sude	10298
emra	10299
iyye	10300
ülin	10301
asil	10302
umm	10303
yenle	10304
##cus	10305
tanl	10306
avel	10307
bos	10308
keme	10309
ürüt	10310
ürcan	10311
luci	10312
deve	10313
otal	10314
ekik	10315
eşhir	10316
ihi	10317
ihni	10318
cip	10319
geti̇	10320
##ali̇	10321
osd	10322
lüy	10323
moga	10324
katal	10325
ipp	10326
iskem	10327
iyadü	10328
rou	10329
alac	10330
kuma	10331
metne	10332
##i̇z	10333
ruc	10334
kane	10335
ralan	10336
düğü	10337
basel	10338
arkti	10339
afir	10340
##küs	10341
ics	10342
ical	10343
noks	10344
zede	10345
gua	10346
zası	10347
arie	10348
arife	10349
##zoz	10350
147	10351
139	10352
133	10353
josh	10354
nov	10355
kayap	10356
228	10357
nti̇	10358
mamul	10359
dky	10360
redd	10361
237	10362
poroz	10363
igel	10364
ago	10365
265	10366
olds	10367
ront	10368
urant	10369
jeep	10370
jav	10371
jale	10372
si̇n	10373
oupe	10374
ampi̇	10375
di̇bs	10376
free	10377
mührü	10378
657	10379
monti	10380
reyn	10381
ynana	10382
380	10383
ekes	10384
440	10385
ntag	10386
drive	10387
lessa	10388
tcdd	10389
asper	10390
yyü	10391
i̇rve	10392
tıbbı	10393
eeh	10394
eath	10395
yilda	10396
enjit	10397
ctor	10398
ıvır	10399
lapto	10400
penn	10401
anliu	10402
nabız	10403
palaz	10404
hıs	10405
auric	10406
worth	10407
eyfet	10408
livya	10409
çikla	10410
ıhhat	10411
igue	10412
atrah	10413
auna	10414
fury	10415
neuve	10416
u21	10417
beinn	10418
eipz	10419
ostes	10420
beki	10421
cb	10422
ccar	10423
dâ	10424
ddi	10425
ega	10426
fx	10427
gp	10428
gg	10429
haman	10430
hine	10431
hi̇s	10432
hone	10433
iot	10434
jik	10435
lf	10436
m2	10437
mera	10438
nük	10439
nyas	10440
oumb	10441
pere	10442
rli	10443
s6	10444
sira	10445
tsa	10446
who	10447
ysun	10448
âlim	10449
ûlü	10450
ğüş	10451
##ry	10452
##rd	10453
##pan	10454
##hh	10455
##çi̇	10456
##ei	10457
##dra	10458
##âb	10459
##gm	10460
##jo	10461
##ans	10462
deo	10463
anye	10464
anem	10465
inî	10466
inta	10467
inis	10468
inni	10469
vejet	10470
alü	10471
lige	10472
lisan	10473
ender	10474
enos	10475
ersi	10476
erre	10477
aydu	10478
i̇a	10479
i̇vas	10480
meone	10481
yes	10482
once	10483
onga	10484
leriy	10485
irza	10486
irvan	10487
irpi	10488
abor	10489
akro	10490
ater	10491
imiş	10492
leo	10493
##ulo	10494
ünle	10495
ekol	10496
deni̇	10497
araz	10498
urhal	10499
açl	10500
ree	10501
revan	10502
izme	10503
sup	10504
ikor	10505
asus	10506
umbai	10507
ambi	10508
yenik	10509
bila	10510
bilir	10511
elet	10512
eyyaz	10513
eyyan	10514
varo	10515
avı	10516
ahre	10517
poaş	10518
boçya	10519
adren	10520
adri	10521
örne	10522
oyrat	10523
oğrul	10524
dıra	10525
ardır	10526
ekiç	10527
eşk	10528
turn	10529
civ	10530
bant	10531
apse	10532
aptal	10533
osh	10534
eçir	10535
fetih	10536
rene	10537
isküs	10538
imid	10539
üreşi	10540
meyh	10541
utsi	10542
demba	10543
çad	10544
##i̇v	10545
rülm	10546
bahir	10547
ızda	10548
küvi	10549
head	10550
alibi	10551
süha	10552
i̇nce	10553
ışa	10554
ümk	10555
pix	10556
nuh	10557
şima	10558
etkim	10559
rekt	10560
rtpo	10561
icr	10562
vaj	10563
vaiz	10564
gue	10565
zav	10566
ezban	10567
steme	10568
kürük	10569
##sko	10570
tükür	10571
tto	10572
ttir	10573
##vand	10574
poli̇	10575
riman	10576
erver	10577
joy	10578
161	10579
189	10580
feshi	10581
efo	10582
efor	10583
rumi	10584
inas	10585
192	10586
216	10587
elerd	10588
ernan	10589
404	10590
egm	10591
eger	10592
dişu	10593
örem	10594
ütler	10595
rizi	10596
299	10597
355	10598
kahya	10599
veric	10600
namlu	10601
medya	10602
arper	10603
345	10604
orad	10605
ikola	10606
lahat	10607
tson	10608
520	10609
ravo	10610
urafe	10611
640	10612
fua	10613
delhi	10614
kefil	10615
860	10616
ösys	10617
950	10618
ennis	10619
elodi	10620
nzer	10621
aşmay	10622
i̇mur	10623
mukoz	10624
reib	10625
erlec	10626
ilveg	10627
zurna	10628
ümbür	10629
aşvur	10630
assac	10631
cıvıl	10632
evkif	10633
eği̇şi̇	10634
şafağ	10635
ccart	10636
(%	10637
aq	10638
aus	10639
aip	10640
cım	10641
clal	10642
czan	10643
eitu	10644
flar	10645
fıt	10646
jem	10647
jile	10648
jay	10649
küz	10650
mö	10651
plik	10652
rhe	10653
suk	10654
shua	10655
tmm	10656
uu	10657
uin	10658
uis	10659
vâ	10660
wd	10661
xt	10662
yder	10663
üla	10664
##pl	10665
##ny	10666
##ef	10667
##ds	10668
##şer	10669
##gal	10670
##xe	10671
##fet	10672
##jan	10673
##lek	10674
deep	10675
arine	10676
##mad	10677
maj	10678
buda	10679
alji	10680
enki	10681
enden	10682
did	10683
dion	10684
diken	10685
erf	10686
erkan	10687
##uri	10688
ayman	10689
ungan	10690
mesa	10691
nida	10692
sıad	10693
irce	10694
aktı	10695
tabil	10696
tape	10697
##ray	10698
act	10699
karde	10700
immer	10701
oral	10702
##kez	10703
evah	10704
resa	10705
reva	10706
sea	10707
sep	10708
##iko	10709
sinan	10710
badi	10711
doka	10712
elak	10713
elka	10714
elsan	10715
eltik	10716
tog	10717
kide	10718
kita	10719
yans	10720
asyan	10721
umb	10722
amy	10723
eyze	10724
makbu	10725
avdar	10726
ahta	10727
ahsun	10728
inez	10729
ımını	10730
##rus	10731
boj	10732
ürç	10733
ürnek	10734
adaka	10735
meka	10736
miza	10737
diril	10738
taşi	10739
eşter	10740
şehve	10741
sağlı	10742
mahmu	10743
apılı	10744
tug	10745
ito	10746
itsa	10747
mos	10748
moza	10749
öld	10750
ntina	10751
islam	10752
anas	10753
roy	10754
rozet	10755
hand	10756
ranz	10757
tüyo	10758
lobe	10759
esih	10760
parti̇	10761
nüne	10762
uçka	10763
düs	10764
rtain	10765
arkli	10766
zia	10767
rafat	10768
pikap	10769
nugge	10770
nsül	10771
raket	10772
i̇şbi̇	10773
ife	10774
hion	10775
hise	10776
inger	10777
124	10778
rmad	10779
zart	10780
ydi̇	10781
ting	10782
ttk	10783
leton	10784
gog	10785
nou	10786
novo	10787
171	10788
faty	10789
eres	10790
rnet	10791
elab	10792
spih	10793
spho	10794
erli̇	10795
ardal	10796
194	10797
tv8	10798
rkot	10799
iec	10800
285	10801
238	10802
274	10803
adife	10804
igo	10805
astan	10806
i̇çi̇	10807
armon	10808
anko	10809
328	10810
325	10811
322	10812
ogs	10813
ogo	10814
##si̇m	10815
nişas	10816
arşov	10817
icap	10818
i̇tti̇	10819
di̇le	10820
arsav	10821
hts	10822
rciş	10823
lity	10824
mimik	10825
kafam	10826
dyp	10827
480	10828
enix	10829
tabip	10830
rlüğü	10831
mmün	10832
vinde	10833
lpha	10834
##ti̇n	10835
food	10836
##di̇n	10837
ühtü	10838
i̇rli̇	10839
ntes	10840
ssd	10841
ssel	10842
fels	10843
eatt	10844
i̇yare	10845
lkp	10846
motto	10847
sbit	10848
akyaj	10849
üleç	10850
luten	10851
lokaj	10852
erzak	10853
rehav	10854
hamad	10855
elâm	10856
human	10857
ari̇hi̇	10858
şevk	10859
immün	10860
şato	10861
kyay	10862
irpod	10863
olklo	10864
irror	10865
ircea	10866
",	10867
(*	10868
08	10869
02	10870
aü	10871
bone	10872
cot	10873
ddk	10874
eus	10875
fra	10876
gli	10877
hc	10878
hot	10879
hrar	10880
icad	10881
kvand	10882
lmış	10883
lland	10884
lles	10885
mâ	10886
mbar	10887
nli̇	10888
nno	10889
oba	10890
ocar	10891
obi̇	10892
pv	10893
pha	10894
ulay	10895
wu	10896
zini	10897
üje	10898
ıvay	10899
##sel	10900
##eg	10901
##şiş	10902
##far	10903
##aro	10904
##iri	10905
dex	10906
anni	10907
inp	10908
inos	10909
##orf	10910
aruk	10911
arnı	10912
alâ	10913
allo	10914
lio	10915
lian	10916
eny	10917
engi̇	10918
encap	10919
dist	10920
erl	10921
erder	10922
##sis	10923
ayit	10924
unter	10925
i̇lah	10926
i̇ft	10927
teci	10928
teini	10929
tesk	10930
eddi	10931
nah	10932
irik	10933
irdel	10934
abba	10935
hail	10936
hamam	10937
ath	10938
acir	10939
acbo	10940
kard	10941
less	10942
orel	10943
orne	10944
ünger	10945
raw	10946
rasan	10947
razi	10948
ulum	10949
ulke	10950
urch	10951
müy	10952
evî	10953
işot	10954
sele	10955
bala	10956
doçka	10957
izne	10958
izola	10959
tibar	10960
kiya	10961
termo	10962
üzn	10963
üzar	10964
##bie	10965
gib	10966
iylan	10967
asya	10968
güder	10969
ump	10970
amg	10971
ries	10972
riez	10973
esb	10974
eyz	10975
kone	10976
ırat	10977
ahih	10978
ahi̇p	10979
ahşer	10980
uyt	10981
##çev	10982
yard	10983
inec	10984
ağşiş	10985
kede	10986
ürüm	10987
arton	10988
##nas	10989
taşe	10990
iham	10991
ihlâl	10992
idye	10993
moz	10994
bekli̇	10995
utul	10996
utbo	10997
alais	10998
loud	10999
fibro	11000
edev	11001
selim	11002
uçl	11003
heva	11004
usz	11005
pisa	11006
pico	11007
ltin	11008
rtur	11009
feda	11010
akit	11011
çöl	11012
omv	11013
ezin	11014
208	11015
202	11016
minik	11017
arite	11018
i̇zme	11019
vana	11020
ürüç	11021
pac	11022
257	11023
cout	11024
tass	11025
gos	11026
anife	11027
ervin	11028
169	11029
ides	11030
ebel	11031
vie	11032
visa	11033
hammo	11034
rate	11035
hope	11036
ardon	11037
229	11038
222	11039
tajy	11040
ynaya	11041
287	11042
rint	11043
tric	11044
ign	11045
ütük	11046
295	11047
yps	11048
asti	11049
317	11050
314	11051
quare	11052
lisin	11053
##chi	11054
455	11055
izade	11056
fazil	11057
olig	11058
kpe	11059
eas	11060
siyej	11061
ıyır	11062
gang	11063
övür	11064
şerh	11065
vaskü	11066
rbaa	11067
376	11068
381	11069
417	11070
##ki̇b	11071
460	11072
534	11073
velh	11074
slav	11075
ourne	11076
four	11077
titü	11078
540	11079
lonso	11080
##mi̇ş	11081
ewart	11082
pirz	11083
zümre	11084
pisti	11085
argar	11086
zom	11087
kefir	11088
zabıt	11089
yili	11090
queen	11091
sefal	11092
prp	11093
pris	11094
ornog	11095
tökez	11096
hopf	11097
pena	11098
elano	11099
zirai	11100
üyap	11101
eyzaj	11102
ootb	11103
rogba	11104
tgb	11105
dieb	11106
pink	11107
ıhhi	11108
iguel	11109
nleme	11110
eli̇r	11111
walt	11112
cezb	11113
zaza	11114
ublin	11115
tüze	11116
divaç	11117
timac	11118
emnu	11119
mvp	11120
peres	11121
ümkün	11122
uinne	11123
ülale	11124
mmüno	11125
(*)	11126
aut	11127
b2	11128
bram	11129
cy	11130
cor	11131
cre	11132
cul	11133
cüm	11134
dg	11135
dzi	11136
dsi̇	11137
eek	11138
egi	11139
ei̇	11140
fp	11141
f1	11142
fira	11143
ffe	11144
gy	11145
got	11146
hk	11147
hun	11148
hon	11149
haşi	11150
jr	11151
jah	11152
kc	11153
mha	11154
mren	11155
mân	11156
nh	11157
oil	11158
osi	11159
pür	11160
pmi	11161
rına	11162
rında	11163
rque	11164
sv	11165
sığı	11166
she	11167
tâ	11168
tse	11169
toke	11170
tno	11171
u1	11172
uca	11173
uck	11174
uall	11175
uwe	11176
vci	11177
vlak	11178
wat	11179
xc	11180
yeli	11181
znad	11182
çt	11183
çet	11184
ñá	11185
öş	11186
##ix	11187
##ao	11188
##pal	11189
##ue	11190
##̇m	11191
##eu	11192
##gos	11193
##mur	11194
##ər	11195
##ero	11196
demi	11197
yaver	11198
dada	11199
arey	11200
arras	11201
vebal	11202
##mai	11203
mab	11204
budo	11205
buck	11206
lies	11207
enne	11208
endo	11209
enhua	11210
disi	11211
ilber	11212
erra	11213
ermes	11214
erwo	11215
ervas	11216
##ons	11217
neh	11218
##ate	11219
sie	11220
sium	11221
unhar	11222
i̇yat	11223
i̇ğer	11224
i̇zi	11225
naç	11226
naya	11227
nami	11228
nion	11229
nike	11230
nifak	11231
irem	11232
sai	11233
sac	11234
saul	11235
saha	11236
aksan	11237
akri	11238
lala	11239
lavan	11240
atya	11241
attal	11242
acit	11243
imt	11244
imo	11245
leck	11246
##oker	11247
orf	11248
orde	11249
orna	11250
##kee	11251
üng	11252
raj	11253
raso	11254
##olu	11255
##old	11256
ekâr	11257
urent	11258
urray	11259
evaz	11260
evmi	11261
##its	11262
bae	11263
bad	11264
azari	11265
ecli̇s	11266
aşın	11267
aşra	11268
tero	11269
teran	11270
emma	11271
emot	11272
emlik	11273
emare	11274
##aki̇	11275
ikler	11276
ikâne	11277
ason	11278
aski	11279
amhi	11280
esar	11281
elev	11282
ırıt	11283
ahan	11284
mist	11285
kefe	11286
tire	11287
adal	11288
fax	11289
luen	11290
devi	11291
artal	11292
tuta	11293
ids	11294
itz	11295
itil	11296
itte	11297
##erez	11298
reno	11299
renzo	11300
opher	11301
roz	11302
alah	11303
methi	11304
rano	11305
tüler	11306
loz	11307
caa	11308
caği	11309
aley	11310
alef	11311
bahar	11312
kamal	11313
nkar	11314
süer	11315
ziğ	11316
zika	11317
i̇ni̇	11318
nuka	11319
rakla	11320
rter	11321
ıras	11322
altal	11323
vale	11324
ttik	11325
zad	11326
antel	11327
omar	11328
omon	11329
erie	11330
209	11331
206	11332
201	11333
şamı	11334
ocae	11335
keman	11336
ncil	11337
i̇zi̇n	11338
garet	11339
eğet	11340
255	11341
252	11342
nakış	11343
ttb	11344
ttila	11345
upla	11346
dimit	11347
162	11348
167	11349
erkin	11350
jane	11351
nog	11352
174	11353
rnold	11354
ental	11355
entem	11356
gaç	11357
gaf	11358
tory	11359
ongul	11360
spar	11361
volat	11362
lami	11363
##foz	11364
198	11365
193	11366
191	11367
219	11368
217	11369
henko	11370
patı	11371
##via	11372
226	11373
külf	11374
laser	11375
lasme	11376
mpi̇	11377
iedad	11378
283	11379
hayme	11380
nana	11381
egzoz	11382
235	11383
272	11384
vakur	11385
vakfa	11386
hub	11387
hugh	11388
ppk	11389
292	11390
bruk	11391
aneo	11392
358	11393
mi̇k	11394
lokum	11395
ioli	11396
##bi̇r	11397
rses	11398
ilia	11399
tadt	11400
si̇ste	11401
bi̇z	11402
ampul	11403
339	11404
di̇re	11405
fred	11406
reldz	11407
ergis	11408
ström	11409
rked	11410
375	11411
ri̇ze	11412
i̇kkat	11413
535	11414
432	11415
zone	11416
sity	11417
eib	11418
aymun	11419
euer	11420
caret	11421
nasih	11422
615	11423
ırpal	11424
wig	11425
ştık	11426
uant	11427
exas	11428
jeans	11429
ccol	11430
usunu	11431
axim	11432
askül	11433
gi̇b	11434
aki̇p	11435
nnis	11436
nlığ	11437
coni	11438
tçi̇	11439
burad	11440
usiki	11441
...	11442
ki̇mse	11443
emato	11444
pi̇ya	11445
ublic	11446
alüa	11447
zombi	11448
ei̇aş	11449
a4	11450
bş	11451
cp	11452
cta	11453
dn	11454
dz	11455
eya	11456
ebo	11457
fg	11458
fca	11459
hlat	11460
icak	11461
ibir	11462
ivan	11463
ilat	11464
jda	11465
kv	11466
lyan	11467
nha	11468
nsta	11469
nmi	11470
nni	11471
nolo	11472
ode	11473
ogan	11474
oco	11475
pam	11476
pren	11477
rdem	11478
s8	11479
ssan	11480
swa	11481
tmo	11482
ume	11483
uti	11484
uft	11485
xi	11486
xe	11487
yâ	11488
yuk	11489
yuz	11490
ydk	11491
yfel	11492
zli̇	11493
âle	11494
çini	11495
çerez	11496
üğ	11497
ğlığı	11498
##ab	11499
##rum	11500
##uv	11501
##nb	11502
##üe	11503
##xa	11504
##mc	11505
##fra	11506
##war	11507
##îm	11508
larke	11509
anz	11510
ance	11511
anyon	11512
ando	11513
anşet	11514
arya	11515
arti	11516
ardi̇n	11517
ariri	11518
veci	11519
olde	11520
oli̇s	11521
alca	11522
alni	11523
##das	11524
##dat	11525
##dam	11526
enga	11527
dibi	11528
eris	11529
erdo	11530
erly	11531
eto	11532
etine	11533
ayer	11534
i̇li	11535
edmur	11536
onc	11537
onin	11538
irar	11539
iruz	11540
iros	11541
abes	11542
haw	11543
haus	11544
hawa	11545
saz	11546
sain	11547
akü	11548
lace	11549
laed	11550
lahaz	11551
##kas	11552
lep	11553
lebet	11554
orb	11555
ileğ	11556
##key	11557
likoz	11558
ulf	11559
##sad	11560
verbo	11561
ekli̇	11562
ekvat	11563
##sey	11564
urne	11565
urri	11566
evşet	11567
kovan	11568
ream	11569
resti	11570
baum	11571
baao	11572
azoz	11573
azino	11574
tie	11575
ecur	11576
kali	11577
kalfa	11578
tıf	11579
önc	11580
emim	11581
iklo	11582
ülük	11583
ülüs	11584
asb	11585
rick	11586
eyş	11587
makal	11588
avaz	11589
avşat	11590
ahu	11591
aher	11592
yare	11593
poulo	11594
kevi	11595
malik	11596
artus	11597
pari	11598
mane	11599
alans	11600
iht	11601
takb	11602
apid	11603
ity	11604
lend	11605
ippe	11606
adapt	11607
iskan	11608
bekin	11609
kram	11610
kims	11611
roka	11612
alaç	11613
rdin	11614
meta	11615
metaf	11616
lopp	11617
i̇lli̇	11618
sahi	11619
rugge	11620
icile	11621
##rie	11622
##rif	11623
ush	11624
ehpa	11625
afor	11626
ilerd	11627
tiğim	11628
ümrü	11629
rafl	11630
raff	11631
yugos	11632
ataç	11633
senta	11634
eğimi	11635
törpü	11636
ngo	11637
ngwa	11638
icy	11639
alto	11640
ttip	11641
ezra	11642
pudra	11643
ikame	11644
yatın	11645
207	11646
minu	11647
ndia	11648
bide	11649
atim	11650
ahic	11651
i̇zli̇	11652
ünüy	11653
burç	11654
306	11655
lekel	11656
trüf	11657
tino	11658
onaj	11659
andy	11660
andv	11661
ivok	11662
jant	11663
ebbi̇s	11664
entur	11665
gaye	11666
244	11667
sakl	11668
terih	11669
213	11670
slak	11671
müza	11672
ires	11673
ilos	11674
reff	11675
288	11676
282	11677
vazo	11678
egâne	11679
egemo	11680
232	11681
adim	11682
ridye	11683
agel	11684
agon	11685
sti̇	11686
eziğ	11687
ronş	11688
uble	11689
jaco	11690
erdin	11691
azap	11692
dunp	11693
uhari	11694
ogba	11695
viral	11696
ırıld	11697
li̇ma	11698
zinda	11699
east	11700
335	11701
dizer	11702
udor	11703
ugs	11704
lumia	11705
illy	11706
weat	11707
üfle	11708
şerhi	11709
inova	11710
rcan	11711
ski̇	11712
ki̇ra	11713
idama	11714
442	11715
two	11716
ntage	11717
münf	11718
münha	11719
rmont	11720
resea	11721
titre	11722
ravm	11723
ident	11724
580	11725
errer	11726
695	11727
668	11728
uras	11729
ssm	11730
essül	11731
omez	11732
acio	11733
onia	11734
felci	11735
eni̇z	11736
eni̇m	11737
usto	11738
nezir	11739
ality	11740
##qui	11741
tacir	11742
yvah	11743
lgele	11744
dikim	11745
ktiv	11746
fi̇k	11747
aptör	11748
şlari	11749
regl	11750
aöl	11751
pikal	11752
aşimi	11753
sülük	11754
tgc	11755
outin	11756
nsas	11757
peri̇	11758
tavaf	11759
ultig	11760
iety	11761
xplo	11762
jesus	11763
uilla	11764
i̇fm	11765
ironi	11766
afize	11767
oraks	11768
altif	11769
lüzum	11770
nadid	11771
ezzül	11772
ektiğ	11773
ülfür	11774
ddafi	11775
elato	11776
useum	11777
gdp	11778
ibuti	11779
rough	11780
pixel	11781
enkit	11782
ifest	11783
evazu	11784
caada	11785
bşb	11786
-)	11787
4b	11788
4x	11789
5se	11790
bbie	11791
c4	11792
care	11793
core	11794
eaş	11795
eyat	11796
eft	11797
fko	11798
gl	11799
hoke	11800
iem	11801
kna	11802
ltı	11803
lül	11804
llâ	11805
mf	11806
mti	11807
mlar	11808
nol	11809
ncek	11810
nyan	11811
nzai	11812
ouz	11813
oje	11814
ock	11815
s3	11816
suşi	11817
tdk	11818
tpe	11819
uen	11820
vc	11821
vd	11822
ww	11823
wul	11824
wins	11825
ynes	11826
zh	11827
zâ	11828
zrü	11829
ât	11830
çme	11831
üli	11832
ştü	11833
şot	11834
##ral	11835
##cr	11836
##hem	11837
##hşa	11838
##uo	11839
##sen	11840
##tr	11841
##ni̇k	11842
##bli	11843
##vin	11844
##vaz	11845
##fre	11846
##way	11847
##ûl	11848
anaz	11849
inna	11850
inzo	11851
nderi	11852
aril	11853
arro	11854
arza	11855
ols	11856
olly	11857
mao	11858
alju	11859
kagi̇	11860
ennet	11861
dit	11862
erda	11863
erti	11864
erve	11865
erze	11866
erzan	11867
erlus	11868
##ond	11869
etil	11870
eti̇	11871
nej	11872
nehre	11873
nepal	11874
ayya	11875
i̇g	11876
i̇ma	11877
i̇ga	11878
i̇i̇t	11879
teyid	11880
meşe	11881
edeki	11882
onk	11883
onic	11884
nia	11885
nig	11886
##tap	11887
akre	11888
lasi	11889
atin	11890
atsı	11891
##res	11892
leas	11893
raun	11894
eksan	11895
ekber	11896
urp	11897
urul	11898
koh	11899
koğ	11900
reig	11901
iyort	11902
bafra	11903
lıs	11904
azer	11905
azam	11906
azgal	11907
bulak	11908
elya	11909
sula	11910
tığ	11911
##bile	11912
bell	11913
şelal	11914
özer	11915
mily	11916
asko	11917
ummer	11918
amul	11919
essa	11920
elevi	11921
eyer	11922
ırr	11923
kayı	11924
mib	11925
poy	11926
poor	11927
bob	11928
bola	11929
##ges	11930
ağzı	11931
kep	11932
adr	11933
adred	11934
fahre	11935
pare	11936
##eki̇	11937
ükû	11938
cips	11939
mahru	11940
emed	11941
aplan	11942
moşe	11943
mobb	11944
sevi̇	11945
stre	11946
stere	11947
ipik	11948
adaş	11949
rena	11950
kıla	11951
ops	11952
nlış	11953
marul	11954
utka	11955
utxa	11956
roch	11957
meruo	11958
elix	11959
temur	11960
mıy	11961
love	11962
lozet	11963
i̇lâl	11964
fi̇l	11965
orto	11966
##i̇ka	11967
usc	11968
uss	11969
lamay	11970
afya	11971
afsa	11972
afram	11973
soda	11974
i̇ni	11975
i̇ngi̇	11976
ümbet	11977
derek	11978
şiar	11979
ltun	11980
lton	11981
rücu	11982
iftah	11983
ich	11984
icri	11985
halle	11986
diku	11987
ücra	11988
ildiğ	11989
guy	11990
guen	11991
guta	11992
##şev	11993
omc	11994
erib	11995
ezci	11996
dilma	11997
bia	11998
bixi	11999
ferru	12000
i̇zi̇	12001
şaf	12002
rolün	12003
309	12004
305	12005
254	12006
endal	12007
upse	12008
coin	12009
166	12010
ebdo	12011
urtdi	12012
bate	12013
sekt	12014
248	12015
fesat	12016
efle	12017
odor	12018
spir	12019
rump	12020
depp	12021
zatın	12022
airo	12023
197	12024
227	12025
arsak	12026
ajo	12027
samın	12028
rçun	12029
vergi̇	12030
236	12031
234	12032
279	12033
271	12034
kladı	12035
vakf	12036
ramil	12037
trist	12038
plas	12039
rgani	12040
elkit	12041
ppi	12042
269	12043
kâti	12044
ıtl	12045
351	12046
lmed	12047
ivers	12048
313	12049
rono	12050
ucci	12051
quel	12052
quito	12053
news	12054
aceze	12055
raghi	12056
ates	12057
326	12058
327	12059
342	12060
oliti	12061
treep	12062
ateni	12063
si̇z	12064
oria	12065
eyiğ	12066
336	12067
337	12068
ugat	12069
scb	12070
luşan	12071
keşir	12072
keşfi	12073
kmel	12074
ri̇m	12075
##ki̇n	12076
idame	12077
tehli̇	12078
osti̇m	12079
474	12080
aktif	12081
ermik	12082
oure	12083
lifke	12084
tcg	12085
490	12086
krom	12087
midye	12088
672	12089
599	12090
hizli	12091
680	12092
i̇rdi̇	12093
awks	12094
buzz	12095
ricam	12096
830	12097
fuhşa	12098
bezel	12099
htag	12100
hilas	12101
ldorf	12102
uido	12103
iyarb	12104
ext	12105
quest	12106
tının	12107
##litz	12108
yton	12109
apric	12110
i̇hti̇	12111
geyik	12112
uliet	12113
aktan	12114
ounc	12115
hopk	12116
gi̇de	12117
just	12118
mi̇zi̇	12119
plika	12120
ülek	12121
i̇mc	12122
ixos	12123
meleğ	12124
eri̇ne	12125
çili	12126
reiv	12127
moled	12128
##phy	12129
owns	12130
dtk	12131
jimna	12132
mwc	12133
ürrem	12134
alfet	12135
ssio	12136
vahap	12137
oxx	12138
rham	12139
budak	12140
npd	12141
mokra	12142
i̇ri̇şi̇	12143
kadeh	12144
(%)	12145
fıtra	12146
tmmob	12147
arnıç	12148
mânâ	12149
llâhu	12150
2g	12151
aar	12152
ağit	12153
bran	12154
df	12155
gâ	12156
gut	12157
güm	12158
gus	12159
hır	12160
hvan	12161
hmad	12162
isı	12163
ibil	12164
igua	12165
jin	12166
jaze	12167
jorn	12168
kak	12169
kha	12170
mkan	12171
mber	12172
mfi	12173
nra	12174
oal	12175
ozi	12176
ourt	12177
qnb	12178
rw	12179
rine	12180
rmo	12181
rli̇k	12182
sraf	12183
tj	12184
tso	12185
ugün	12186
ukee	12187
vine	12188
wel	12189
ware	12190
xl	12191
yz	12192
yler	12193
zber	12194
übile	12195
ğlar	12196
şiler	12197
şi̇m	12198
##ıh	12199
##noz	12200
##eb	12201
##bin	12202
##zlo	12203
##mg	12204
##min	12205
##öl	12206
##jar	12207
dei	12208
ndül	12209
yab	12210
dap	12211
dave	12212
armo	12213
arcus	12214
veh	12215
vegan	12216
olc	12217
maar	12218
bus	12219
alyo	12220
kadi	12221
kalem	12222
lier	12223
enay	12224
enâb	12225
##aşe	12226
didi	12227
diana	12228
ilâ	12229
illü	12230
ilwa	12231
ilfen	12232
erri	12233
ersi̇	12234
neid	12235
##sik	12236
##mei	12237
aygi	12238
i̇ne	12239
i̇ah	12240
edter	12241
onf	12242
nahi	12243
nio	12244
niğ	12245
niyo	12246
irat	12247
irhem	12248
abra	12249
sabı	12250
immü	12251
orj	12252
orst	12253
üner	12254
ünel	12255
vert	12256
ekk	12257
ekya	12258
ekfir	12259
ekfen	12260
ekni̇k	12261
##seb	12262
uriz	12263
urci	12264
açtan	12265
evval	12266
kosa	12267
dubro	12268
elf	12269
elvik	12270
elcan	12271
izar	12272
tot	12273
tov	12274
önte	12275
emini	12276
emine	12277
emi̇r	12278
##bib	12279
şebap	12280
ülfü	12281
özde	12282
özbo	12283
asra	12284
aslan	12285
assu	12286
ascal	12287
güv	12288
umbul	12289
umbus	12290
amül	12291
amber	12292
riya	12293
riot	12294
##roe	12295
kuran	12296
esli̇	12297
elez	12298
eynes	12299
maktu	12300
avyo	12301
avök	12302
muma	12303
kayn	12304
ahbap	12305
yarı	12306
ceğiz	12307
pot	12308
boye	12309
body	12310
kebap	12311
ürsel	12312
yiver	12313
##bas	12314
##bab	12315
adze	12316
adolu	12317
fai̇z	12318
oğl	12319
düşm	12320
best	12321
artup	12322
mizan	12323
ots	12324
oktu	12325
mayal	12326
tures	12327
inike	12328
itre	12329
itro	12330
mous	12331
eçi̇m	12332
ikim	12333
ipli	12334
ipno	12335
ipnoz	12336
adad	12337
isyo	12338
çebi	12339
rıt	12340
iyaz	12341
anap	12342
uter	12343
alam	12344
meto	12345
ranj	12346
cıpa	12347
tüy	12348
loe	12349
cast	12350
esibe	12351
rui	12352
uşla	12353
ralli	12354
hela	12355
usaş	12356
ehc	12357
ehşet	12358
kore	12359
soga	12360
ışm	12361
arkaj	12362
yuka	12363
atad	12364
i̇şi̇	12365
kulum	12366
rts	12367
rto	12368
hier	12369
eps	12370
ingh	12371
vaad	12372
kila	12373
aşaya	12374
şahik	12375
engo	12376
itec	12377
antal	12378
omur	12379
ezeri	12380
203	12381
204	12382
steğ	12383
kürek	12384
bio	12385
i̇ze	12386
estro	12387
308	12388
ersen	12389
ersem	12390
talu	12391
cole	12392
revir	12393
payi	12394
rets	12395
anned	12396
186	12397
şanv	12398
ibal	12399
ibre	12400
ebrd	12401
nola	12402
nost	12403
173	12404
rns	12405
emiç	12406
ento	12407
gage	12408
gaip	12409
249	12410
efs	12411
odri	12412
odrum	12413
angoz	12414
inav	12415
how	12416
ardd	12417
pana	12418
uzuv	12419
lasg	12420
lasya	12421
uart	12422
lınma	12423
289	12424
286	12425
noton	12426
405	12427
egen	12428
egat	12429
öreğ	12430
ambar	12431
mento	12432
tech	12433
ergus	12434
ramiz	12435
ammer	12436
meşre	12437
igros	12438
müsv	12439
aggi	12440
agros	12441
268	12442
294	12443
291	12444
was	12445
wada	12446
yonu	12447
kâbe	12448
anez	12449
msb	12450
thal	12451
astel	12452
astır	12453
stafa	12454
ursas	12455
ques	12456
quig	12457
ubitz	12458
jamai	12459
alyaç	12460
cevaz	12461
uad	12462
uhran	12463
349	12464
347	12465
341	12466
urgul	12467
li̇g	12468
li̇st	12469
ftan	12470
si̇v	12471
ampir	12472
lcd	12473
di̇k	12474
di̇li̇	12475
aybet	12476
ançer	12477
ianna	12478
nbin	12479
umala	12480
atoş	12481
stron	12482
385	12483
ki̇lo	12484
444	12485
399	12486
463	12487
slara	12488
lborn	12489
479	12490
leziz	12491
431	12492
mürs	12493
sulak	12494
aykur	12495
lifli	12496
ömel	12497
azanf	12498
eig	12499
eiva	12500
517	12501
511	12502
erji̇	12503
493	12504
gatti	12505
676	12506
675	12507
674	12508
ewan	12509
ahrir	12510
rvp	12511
i̇rle	12512
eytüş	12513
570	12514
610	12515
710	12516
çenko	12517
lavya	12518
yi̇m	12519
760	12520
842	12521
felce	12522
777	12523
740	12524
nsea	12525
rsay	12526
925	12527
ikea	12528
nezih	12529
uigi	12530
870	12531
azmin	12532
bamb	12533
ennon	12534
eart	12535
ctp	12536
almum	12537
grizz	12538
ulia	12539
ai̇hs	12540
ounge	12541
cdon	12542
ashf	12543
cino	12544
horn	12545
house	12546
cons	12547
jons	12548
jesse	12549
nowb	12550
imdat	12551
kwh	12552
öhret	12553
jambo	12554
pişen	12555
bnp	12556
oita	12557
ornoz	12558
eens	12559
iuli	12560
adraj	12561
ddie	12562
nüks	12563
uisb	12564
erfin	12565
engi̇n	12566
üznü	12567
pamin	12568
yukar	12569
4x4	12570
fkoşa	12571
esli̇m	12572
quigl	12573
$'	12574
**	12575
.:	12576
a9	12577
aji	12578
aot	12579
bda	12580
bip	12581
cur	12582
cli	12583
clar	12584
cken	12585
culu	12586
dgar	12587
eâ	12588
fâ	12589
ful	12590
fps	12591
gne	12592
hlal	12593
hşap	12594
igür	12595
jk	12596
jami	12597
jöh	12598
kkat	12599
lca	12600
lba	12601
lşev	12602
naka	12603
nroe	12604
oet	12605
odo	12606
ouro	12607
ohan	12608
omat	12609
pak	12610
puro	12611
pöh	12612
rha	12613
s2	12614
tol	12615
ttar	12616
ulis	12617
ules	12618
vot	12619
vşa	12620
vnik	12621
wti	12622
wic	12623
wrin	12624
xa	12625
xel	12626
yur	12627
yli	12628
yye	12629
yne	12630
yini	12631
yku	12632
zzi	12633
zlik	12634
öi̇v	12635
ümam	12636
ğca	12637
ğne	12638
ğraf	12639
ıdı	12640
##ide	12641
##aa	12642
##rt	12643
##rma	12644
##ula	12645
##tk	12646
##ow	12647
##âf	12648
##gır	12649
##zur	12650
##mon	12651
##öre	12652
##wig	12653
##eng	12654
##lez	12655
deşa	12656
decek	12657
anke	12658
iny	12659
indan	12660
inder	12661
info	12662
arj	12663
arel	12664
arure	12665
arsi̇m	12666
olka	12667
olker	12668
mael	12669
buen	12670
aler	12671
alsi	12672
aldo	12673
kai	12674
kaos	12675
kawa	12676
lic	12677
##und	12678
didas	12679
ilma	12680
illik	12681
ilmaz	12682
ersta	12683
erter	12684
ermen	12685
etis	12686
etni	12687
##ura	12688
##tic	12689
uny	12690
unan	12691
unni	12692
teba	12693
meali	12694
meşa	12695
yeşi̇	12696
eddül	12697
onyas	12698
nale	12699
nicks	12700
iroz	12701
abus	12702
abbar	12703
akd	12704
akm	12705
akva	12706
akbul	12707
akub	12708
lair	12709
lade	12710
tai	12711
acc	12712
acan	12713
acra	12714
imren	12715
leon	12716
türb	12717
##yes	12718
orit	12719
orch	12720
istül	12721
liko	12722
rasi	12723
race	12724
ulumb	12725
verg	12726
denk	12727
urf	12728
urak	12729
urphy	12730
açay	12731
müd	12732
evi̇	12733
reet	12734
işani	12735
azda	12736
##uth	12737
elp	12738
elb	12739
elk	12740
elbo	12741
izzet	12742
izof	12743
eco	12744
town	12745
kiy	12746
kisa	12747
kibir	12748
lane	12749
aşha	12750
teril	12751
üzne	12752
iken	12753
gis	12754
yant	12755
üllük	12756
asat	12757
asdik	12758
umpur	12759
amma	12760
##azza	12761
mig	12762
migo	12763
polat	12764
gens	12765
ağlay	12766
##bed	12767
ürans	12768
##bad	12769
adak	12770
addar	12771
örf	12772
fao	12773
herme	12774
lug	12775
bego	12776
artro	12777
##pad	12778
eşiz	12779
eşrif	12780
takt	12781
idra	12782
itol	12783
itina	12784
lüf	12785
modi	12786
yunu	12787
mend	12788
lenko	12789
iso	12790
ison	12791
opet	12792
cano	12793
kimya	12794
anay	12795
uture	12796
room	12797
alal	12798
elif	12799
tümsi̇	12800
kud	12801
kubar	12802
metam	12803
rane	12804
loc	12805
rug	12806
rucks	12807
kanat	12808
resen	12809
ızd	12810
ızın	12811
heid	12812
usül	12813
raham	12814
arkık	12815
perf	12816
layi	12817
som	12818
ışır	12819
ansk	12820
ansum	12821
ligo	12822
nasil	12823
şöval	12824
rtır	12825
rttı	12826
rteks	12827
icot	12828
hick	12829
hieu	12830
hali̇	12831
halel	12832
eppe	12833
feed	12834
rabbi	12835
dikl	12836
ıkla	12837
vaf	12838
zed	12839
uğa	12840
zavi	12841
akao	12842
dino	12843
ezit	12844
ezih	12845
ezot	12846
puti̇n	12847
ayati	12848
ikail	12849
andaj	12850
mind	12851
ming	12852
dilan	12853
firet	12854
first	12855
ukuşi	12856
biki	12857
atis	12858
ati̇	12859
ati̇h	12860
ferre	12861
şama	12862
krea	12863
kreut	12864
pais	12865
302	12866
259	12867
253	12868
251	12869
trük	12870
tri̇b	12871
talo	12872
##nif	12873
cop	12874
masm	12875
çeke	12876
gomes	12877
iapo	12878
şması	12879
ibm	12880
ibor	12881
ibri	12882
172	12883
gayet	12884
243	12885
247	12886
torun	12887
eff	12888
elas	12889
elaar	12890
angır	12891
asis	12892
rumme	12893
505	12894
ovit	12895
hos	12896
peç	12897
pear	12898
pedi	12899
sign	12900
218	12901
221	12902
uzuli	12903
liny	12904
pold	12905
mpt	12906
ysee	12907
rkın	12908
rges	12909
keram	12910
ynay	12911
rasse	12912
406	12913
401	12914
egel	12915
ambs	12916
damon	12917
273	12918
tecil	12919
vakum	12920
rampo	12921
plaz	12922
cılız	12923
agop	12924
şıke	12925
ütur	12926
263	12927
264	12928
298	12929
293	12930
shop	12931
wad	12932
owr	12933
kâbu	12934
anesi	12935
359	12936
msf	12937
ther	12938
astre	12939
ezib	12940
stas	12941
troy	12942
318	12943
315	12944
311	12945
ısım	12946
ucur	12947
ikrit	12948
quar	12949
enks	12950
604	12951
jeb	12952
ubur	12953
aaa	12954
insle	12955
ilad	12956
arput	12957
rago	12958
uala	12959
323	12960
321	12961
ilika	12962
346	12963
çup	12964
trey	12965
tree	12966
li̇der	12967
fton	12968
ouise	12969
eady	12970
zenci	12971
agas	12972
ampos	12973
333	12974
332	12975
334	12976
331	12977
dizm	12978
mbro	12979
di̇si̇	12980
rgo	12981
rghe	12982
udwig	12983
kunet	12984
inoa	12985
nbur	12986
aud	12987
aux	12988
keşfe	12989
378	12990
384	12991
ki̇li̇	12992
##hie	12993
akpm	12994
415	12995
487	12996
395	12997
391	12998
rsen	12999
uvage	13000
lahit	13001
468	13002
465	13003
475	13004
436	13005
mork	13006
morti	13007
aksir	13008
ulaç	13009
ulad	13010
kyrie	13011
527	13012
oçka	13013
vekâl	13014
568	13015
idier	13016
eigh	13017
eixe	13018
512	13019
fani	13020
495	13021
ews	13022
660	13023
625	13024
veyş	13025
825	13026
rving	13027
çelya	13028
aws	13029
718	13030
eryad	13031
xxxx	13032
733	13033
730	13034
lavaş	13035
yi̇ne	13036
lütuf	13037
lütfu	13038
880	13039
zadeh	13040
876	13041
quez	13042
ebael	13043
kûn	13044
oodle	13045
abri̇	13046
fıkıh	13047
ielb	13048
plzen	13049
ulübe	13050
fi̇na	13051
fi̇rma	13052
evhit	13053
horne	13054
warze	13055
kubuz	13056
conn	13057
imsal	13058
abeu	13059
ackl	13060
zaptı	13061
nevv	13062
stemi	13063
bluz	13064
tkis	13065
çikma	13066
dwide	13067
kozmo	13068
ccain	13069
ymk	13070
eremc	13071
unior	13072
nafık	13073
eki̇r	13074
usis	13075
uazz	13076
uerr	13077
i̇yad	13078
ıcır	13079
alize	13080
ümbüş	13081
öhmet	13082
frod	13083
hi̇ç	13084
fokur	13085
aulle	13086
eith	13087
hett	13088
psos	13089
eyyam	13090
ropik	13091
4gb	13092
si̇nan	13093
tsas	13094
i̇ade	13095
aipei	13096
obi̇l	13097
phael	13098
dzic	13099
ekli̇f	13100
eyşel	13101
ayyam	13102
reign	13103
elyaf	13104
ajoy	13105
tovle	13106
ehcir	13107
eâlâ	13108
jamie	13109
nakav	13110
wrink	13111
00	13112
alaş	13113
bali	13114
bbo	13115
blak	13116
cle	13117
cih	13118
cbs	13119
dali	13120
dgs	13121
eam	13122
eim	13123
eha	13124
fsta	13125
fis	13126
fren	13127
gro	13128
gni	13129
hç	13130
hdi	13131
hki̇b	13132
iere	13133
igan	13134
iazza	13135
jö	13136
jör	13137
ji̇	13138
klay	13139
kaka	13140
koke	13141
kvat	13142
lsi	13143
lber	13144
mık	13145
mük	13146
mbil	13147
mni	13148
mbih	13149
m10	13150
nge	13151
nza	13152
npa	13153
oor	13154
oel	13155
oum	13156
oi̇b	13157
oçev	13158
pıl	13159
poko	13160
q7	13161
rst	13162
ruş	13163
rfoz	13164
sque	13165
tum	13166
tter	13167
uate	13168
v3	13169
v1	13170
vara	13171
vcu	13172
vi̇n	13173
ws	13174
yör	13175
yaki	13176
ymak	13177
yâd	13178
zv	13179
zuk	13180
zgi	13181
zile	13182
zni	13183
zhan	13184
zze	13185
çti	13186
çtı	13187
öw	13188
öve	13189
öab	13190
şg	13191
şi̇d	13192
şki̇	13193
##rer	13194
##rit	13195
##pus	13196
##pi̇	13197
##use	13198
##sc	13199
##oo	13200
##oe	13201
##ome	13202
##üla	13203
##ema	13204
##şâ	13205
##şen	13206
##vs	13207
##gin	13208
##zle	13209
##myk	13210
##wan	13211
##jde	13212
##jam	13213
##jja	13214
##ary	13215
##ano	13216
##ako	13217
deke	13218
angı	13219
anku	13220
anze	13221
indy	13222
inval	13223
yaç	13224
yav	13225
yabi	13226
##oro	13227
dac	13228
daq	13229
damir	13230
arn	13231
arot	13232
armen	13233
aros	13234
olmes	13235
##ett	13236
mav	13237
##dio	13238
alfa	13239
aliy	13240
lidi	13241
lion	13242
lisa	13243
enka	13244
enyi	13245
ennes	13246
dio	13247
div	13248
ilyo	13249
erü	13250
erran	13251
eri̇m	13252
etter	13253
neo	13254
negie	13255
undy	13256
unzur	13257
uneng	13258
i̇ta	13259
i̇ka	13260
i̇çe	13261
i̇na	13262
i̇fe	13263
teva	13264
tevan	13265
mear	13266
mela	13267
yedi̇	13268
edu	13269
eds	13270
edye	13271
onn	13272
onos	13273
onnie	13274
ndaç	13275
irc	13276
irda	13277
hah	13278
saw	13279
saad	13280
##duk	13281
aker	13282
akho	13283
akire	13284
akou	13285
labi	13286
lafa	13287
taca	13288
aton	13289
atını	13290
##rap	13291
acos	13292
imer	13293
imnas	13294
lea	13295
leyev	13296
orç	13297
orti	13298
raci	13299
rack	13300
rauke	13301
vera	13302
verho	13303
ekod	13304
ekti̇	13305
##ted	13306
açar	13307
müjde	13308
evi̇r	13309
rele	13310
reus	13311
reyd	13312
reşo	13313
duâ	13314
sein	13315
baya	13316
azne	13317
elps	13318
söy	13319
ecz	13320
kidaş	13321
aşli	13322
aşti	13323
aşlan	13324
aşmet	13325
aşema	13326
uzer	13327
üzce	13328
emp	13329
emc	13330
##bid	13331
ikin	13332
ikir	13333
ikari	13334
gif	13335
ülüm	13336
özya	13337
assan	13338
asnif	13339
güero	13340
umbar	13341
amut	13342
rich	13343
river	13344
kurdu	13345
eyve	13346
eyder	13347
makü	13348
tanc	13349
avre	13350
muas	13351
musik	13352
toph	13353
ahşa	13354
##cip	13355
tırı	13356
cebir	13357
mix	13358
pola	13359
popo	13360
boat	13361
##fai	13362
ürma	13363
adb	13364
adur	13365
ining	13366
heron	13367
lux	13368
luf	13369
luver	13370
##uzi	13371
sorum	13372
arth	13373
mang	13374
eşi̇	13375
ükum	13376
ükûn	13377
cipi	13378
emea	13379
abere	13380
api̇s	13381
tual	13382
tudio	13383
darip	13384
ayrat	13385
itta	13386
mouth	13387
i̇stem	13388
menfi	13389
stur	13390
ipüla	13391
kene	13392
kenin	13393
ntum	13394
gaza	13395
opm	13396
ürem	13397
vurdu	13398
tekke	13399
gire	13400
roj	13401
roma	13402
ropo	13403
##tuf	13404
range	13405
ranüs	13406
rush	13407
hazro	13408
tüv	13409
lose	13410
aleh	13411
zorba	13412
ruf	13413
rudi	13414
rust	13415
ruce	13416
ruis	13417
sant	13418
uşan	13419
kütah	13420
heo	13421
hece	13422
heus	13423
ehil	13424
ehdi̇	13425
süley	13426
zide	13427
zijja	13428
afil	13429
affe	13430
sour	13431
pijam	13432
üsn	13433
üspan	13434
şarkü	13435
deril	13436
yuvar	13437
mazur	13438
##şad	13439
mesul	13440
i̇şçi̇	13441
rekon	13442
ngs	13443
ngal	13444
ifir	13445
ican	13446
taki̇	13447
hibe	13448
epp	13449
eptün	13450
epub	13451
alter	13452
zeval	13453
antan	13454
antum	13455
you	13456
yos	13457
omle	13458
ompe	13459
eridy	13460
ezb	13461
ezze	13462
şamp	13463
küre	13464
kürüm	13465
ısra	13466
ariya	13467
ariah	13468
##fia	13469
drake	13470
i̇zi̇m	13471
şav	13472
vali̇	13473
paok	13474
palas	13475
soko	13476
trat	13477
talog	13478
tayt	13479
kavim	13480
iaaf	13481
albur	13482
şaner	13483
eby	13484
ebû	13485
ebra	13486
erev	13487
ksen	13488
koçan	13489
gade	13490
odd	13491
vier	13492
viya	13493
skon	13494
tavla	13495
rummo	13496
508	13497
umlup	13498
ekser	13499
hoca	13500
vole	13501
slın	13502
nçert	13503
ordsa	13504
iew	13505
eylak	13506
hayk	13507
egz	13508
egon	13509
239	13510
231	13511
276	13512
ramir	13513
ramal	13514
plast	13515
igaro	13516
agn	13517
agner	13518
aggie	13519
bmmyk	13520
keres	13521
266	13522
cakla	13523
eynd	13524
zıv	13525
kâse	13526
kâmil	13527
356	13528
357	13529
ypj	13530
nöbe	13531
thk	13532
tham	13533
kizi	13534
kland	13535
mi̇n	13536
roni	13537
uch	13538
zamb	13539
fonla	13540
fırat	13541
eola	13542
ffp	13543
jada	13544
levne	13545
bbb	13546
lgi̇	13547
smai̇l	13548
riple	13549
ondra	13550
gung	13551
riff	13552
ekill	13553
uadi	13554
anofi	13555
uncan	13556
364	13557
##si̇z	13558
orabı	13559
kpmg	13560
ftwar	13561
ea7	13562
705	13563
isale	13564
ampi	13565
hirt	13566
i̇tme	13567
di̇ye	13568
808	13569
imaş	13570
eroz	13571
iant	13572
ianni	13573
652	13574
konto	13575
şerri	13576
inois	13577
rcik	13578
nemes	13579
cern	13580
bery	13581
berra	13582
ione	13583
ynat	13584
373	13585
372	13586
389	13587
kafat	13588
428	13589
427	13590
413	13591
412	13592
tamah	13593
445	13594
396	13595
enium	13596
rshe	13597
uvala	13598
473	13599
434	13600
setya	13601
tisit	13602
kype	13603
edavi̇	13604
zaraf	13605
fomc	13606
813	13607
810	13608
titan	13609
563	13610
510	13611
514	13612
stop	13613
543	13614
544	13615
aou	13616
negg	13617
nutu	13618
##di̇m	13619
585	13620
erris	13621
678	13622
596	13623
699	13624
667	13625
630	13626
pho	13627
621	13628
821	13629
urabi	13630
nazır	13631
emila	13632
649	13633
647	13634
awhi	13635
ayiç	13636
833	13637
tevbe	13638
887	13639
zoe	13640
770	13641
749	13642
htagi	13643
assat	13644
nliği	13645
923	13646
920	13647
ustik	13648
lips	13649
eate	13650
uidi	13651
petro	13652
910	13653
ceğim	13654
üella	13655
948	13656
almö	13657
i̇ht	13658
934	13659
lleri̇	13660
hrw	13661
gi̇di̇	13662
körük	13663
löw	13664
ayfu	13665
katie	13666
blast	13667
lkemi	13668
evhen	13669
tki̇m	13670
falz	13671
auren	13672
gürer	13673
siri	13674
gsyi̇h	13675
pedüz	13676
imitr	13677
ombal	13678
iallo	13679
tgrt	13680
tkisi	13681
rotm	13682
chai	13683
eli̇k	13684
fsir	13685
ietro	13686
dorff	13687
jung	13688
winf	13689
clk	13690
elaşa	13691
neşir	13692
dmc	13693
einz	13694
hi̇sse	13695
iotr	13696
rliği	13697
errem	13698
xtra	13699
lianz	13700
rawf	13701
egia	13702
öşem	13703
akrib	13704
ornav	13705
spark	13706
nejad	13707
tjy	13708
sogai	13709
si̇vi̇l	13710
votka	13711
wicz	13712
yeşi̇l	13713
vafti	13714
öabt	13715
i̇feb	13716
ehdi̇t	13717
epubl	13718
2b	13719
5s	13720
a1	13721
bro	13722
bva	13723
cco	13724
cing	13725
cora	13726
daka	13727
eun	13728
eira	13729
eber	13730
ebol	13731
fda	13732
fış	13733
gk	13734
glo	13735
gtc	13736
gles	13737
gdaş	13738
gner	13739
hy	13740
hara	13741
hik	13742
hne	13743
hira	13744
hkü	13745
iq	13746
iol	13747
iera	13748
isan	13749
jare	13750
jup	13751
joker	13752
kn	13753
kine	13754
kti̇	13755
lî	13756
llan	13757
lder	13758
mbi	13759
non	13760
ncak	13761
nje	13762
nmi̇	13763
odu	13764
oza	13765
oven	13766
oft	13767
oti̇	13768
omes	13769
oire	13770
pti	13771
play	13772
plat	13773
pli̇	13774
q5	13775
rüm	13776
rri	13777
rni	13778
rqu	13779
sg	13780
sme	13781
sso	13782
tsi	13783
tka	13784
than	13785
tgs	13786
ugan	13787
vp	13788
vm	13789
viş	13790
vre	13791
vli̇	13792
wak	13793
wri	13794
witz	13795
xy	13796
zum	13797
zpt	13798
zât	13799
zito	13800
ztk	13801
ález	13802
çk	13803
çur	13804
în	13805
ög	13806
ödü	13807
ûl	13808
üde	13809
ğdir	13810
ğfar	13811
ıvar	13812
şû	13813
şet	13814
şya	13815
##abo	13816
##rel	13817
##yn	13818
##pc	13819
##cd	13820
##cha	13821
##cos	13822
##hâ	13823
##hon	13824
##ham	13825
##uç	13826
##sm	13827
##tp	13828
##ts	13829
##tör	13830
##çü	13831
##üc	13832
##dot	13833
##âre	13834
##vak	13835
##vis	13836
##ml	13837
##jen	13838
##ang	13839
anis	13840
anzi	13841
inet	13842
inka	13843
infe	13844
into	13845
ndaş	13846
yaw	13847
yacı	13848
yaço	13849
dafi	13850
ariş	13851
arge	13852
arpa	13853
arne	13854
arali	13855
arze	13856
vecd	13857
##elo	13858
oln	13859
olün	13860
olik	13861
olyo	13862
olsan	13863
map	13864
main	13865
mail	13866
maste	13867
mabet	13868
mabed	13869
buk	13870
aly	13871
alha	13872
alpa	13873
alvo	13874
alât	13875
alço	13876
kama	13877
kasa	13878
kais	13879
kafi	13880
liak	13881
lime	13882
lita	13883
##deo	13884
##dah	13885
diet	13886
diaz	13887
diza	13888
diker	13889
ilf	13890
ilvi	13891
ilüe	13892
erer	13893
erma	13894
erih	13895
eröre	13896
##ong	13897
etret	13898
etaf	13899
nex	13900
##mey	13901
ayt	13902
ayis	13903
ayali̇	13904
unge	13905
unyan	13906
i̇c	13907
i̇yor	13908
i̇ra	13909
i̇ste	13910
i̇let	13911
team	13912
teca	13913
tegu	13914
yeva	13915
nayi	13916
niki	13917
nium	13918
irm	13919
ablo	13920
absü	13921
hadi	13922
haseb	13923
##dul	13924
akara	13925
akül	13926
akay	13927
law	13928
lady	13929
lavo	13930
laire	13931
laug	13932
tain	13933
tage	13934
tagir	13935
atp	13936
atka	13937
atus	13938
atso	13939
aczi	13940
kari	13941
imri	13942
imms	13943
lela	13944
orda	13945
orra	13946
orary	13947
orbid	13948
ünen	13949
ünal	13950
rayo	13951
raad	13952
ultur	13953
ulpe	13954
eksa	13955
ekdot	13956
uri̇	13957
açti	13958
evdi	13959
evdan	13960
koü	13961
reft	13962
reid	13963
reud	13964
dut	13965
see	13966
azz	13967
azit	13968
azi̇r	13969
dost	13970
doza	13971
ely	13972
eline	13973
elfo	13974
elli̇	13975
izmir	13976
time	13977
tiana	13978
toy	13979
toza	13980
kie	13981
aşil	13982
aşid	13983
terci	13984
kalp	13985
önme	13986
büle	13987
bütör	13988
emy	13989
emto	13990
kadir	13991
ikri	13992
ikbal	13993
germe	13994
gia	13995
gian	13996
şezlo	13997
ülkü	13998
askan	13999
uman	14000
amon	14001
amik	14002
amdan	14003
amis	14004
ambo	14005
amfi	14006
ampo	14007
günd	14008
yene	14009
rion	14010
rium	14011
rigo	14012
rifai	14013
esen	14014
eleb	14015
eleğ	14016
eyman	14017
eyfe	14018
eyval	14019
eyzen	14020
kond	14021
ırm	14022
avir	14023
mudi	14024
muad	14025
ahse	14026
ahva	14027
ahşe	14028
ahi̇l	14029
ahmaz	14030
##cid	14031
boabo	14032
##bey	14033
kei̇	14034
kesi̇	14035
kevs	14036
ürri̇	14037
adsı	14038
adret	14039
faso	14040
luz	14041
ludo	14042
bej	14043
arty	14044
otre	14045
manke	14046
sali	14047
salt	14048
turp	14049
ihin	14050
ihrap	14051
ükun	14052
cio	14053
apfre	14054
tuga	14055
darb	14056
oskan	14057
its	14058
itf	14059
mob	14060
mota	14061
eçki	14062
ikis	14063
mene	14064
lenin	14065
ktr	14066
ktir	14067
sty	14068
stil	14069
çep	14070
rıh	14071
ayıc	14072
yoko	14073
meyil	14074
roo	14075
romo	14076
eli̇h	14077
tems	14078
##ved	14079
meth	14080
rani	14081
rana	14082
loom	14083
cala	14084
casa	14085
cape	14086
ıpır	14087
zoru	14088
rugan	14089
sils	14090
kani	14091
kant	14092
chel	14093
resh	14094
resk	14095
usd	14096
usler	14097
uslem	14098
afsan	14099
pert	14100
sola	14101
sosy	14102
i̇ng	14103
şirk	14104
rafe	14105
pia	14106
hatip	14107
şarp	14108
şark	14109
şarki	14110
nuc	14111
şia	14112
şide	14113
atay	14114
nasır	14115
pazub	14116
rtet	14117
rtro	14118
nga	14119
ngan	14120
nglo	14121
ngola	14122
ifoz	14123
ichal	14124
icks	14125
itik	14126
ingo	14127
ıkra	14128
abau	14129
cub	14130
lmat	14131
lmaya	14132
gues	14133
ektr	14134
zala	14135
zadi	14136
davao	14137
orano	14138
fart	14139
oms	14140
ombi	14141
ariyo	14142
nct	14143
ncan	14144
i̇zre	14145
ksi̇	14146
paü	14147
paj	14148
pale	14149
pasaj	14150
paper	14151
cila	14152
ünefe	14153
258	14154
erser	14155
nakaş	14156
cox	14157
co2	14158
kaval	14159
letin	14160
letim	14161
andt	14162
andjo	14163
iago	14164
iaom	14165
aniti	14166
reti̇	14167
çiner	14168
joan	14169
miske	14170
ibro	14171
iblo	14172
ebb	14173
179	14174
ertal	14175
erei̇	14176
ökhan	14177
seka	14178
gab	14179
games	14180
şıh	14181
vid	14182
vice	14183
hams	14184
hamar	14185
hamma	14186
spot	14187
tavo	14188
rumuz	14189
ofo	14190
##fed	14191
peda	14192
vos	14193
vets	14194
vetl	14195
vetle	14196
henk	14197
enzil	14198
patik	14199
224	14200
ntial	14201
panik	14202
aşıy	14203
linki	14204
müze	14205
polyo	14206
gali̇	14207
uardo	14208
ajina	14209
rkam	14210
403	14211
cena	14212
pozi̇	14213
ergiz	14214
adisi	14215
vakko	14216
ramit	14217
trio	14218
trig	14219
celli	14220
igne	14221
agü	14222
ager	14223
agem	14224
agos	14225
agraf	14226
bmc	14227
vene	14228
vend	14229
gezen	14230
nitz	14231
nitka	14232
mirro	14233
354	14234
msg	14235
ype	14236
nalan	14237
ohem	14238
stab	14239
staz	14240
319	14241
312	14242
testi̇	14243
nayir	14244
evez	14245
ucun	14246
quent	14247
eji̇m	14248
erbi̇	14249
601	14250
ubp	14251
ritre	14252
teşek	14253
zgâ	14254
lakin	14255
faks	14256
nlama	14257
stant	14258
454	14259
bby	14260
armar	14261
ioc	14262
rgile	14263
ekild	14264
361	14265
344	14266
ogm	14267
tream	14268
li̇n	14269
li̇gi̇	14270
iyom	14271
orie	14272
ouv	14273
ough	14274
eav	14275
eaut	14276
703	14277
bi̇p	14278
bi̇st	14279
bi̇na	14280
908	14281
rgat	14282
ugh	14283
753	14284
751	14285
avas	14286
lusso	14287
659	14288
matra	14289
ufka	14290
augh	14291
dont	14292
donti	14293
arıld	14294
azarl	14295
keşiş	14296
ioni	14297
ğuna	14298
dessa	14299
şakır	14300
386	14301
383	14302
387	14303
ki̇li̇s	14304
disp	14305
426	14306
424	14307
vahiy	14308
ri̇a	14309
ri̇s	14310
ri̇n	14311
ni̇hat	14312
419	14313
418	14314
414	14315
411	14316
482	14317
393	14318
392	14319
enia	14320
tabiî	14321
urio	14322
466	14323
462	14324
471	14325
536	14326
435	14327
433	14328
lpan	14329
erald	14330
iero	14331
ierra	14332
mürit	14333
erhad	14334
528	14335
526	14336
524	14337
risal	14338
ouri	14339
ellf	14340
814	14341
851	14342
ravda	14343
ykb	14344
öyl	14345
566	14346
ruzo	14347
tehdi̇	14348
tcl	14349
499	14350
496	14351
gate	14352
586	14353
587	14354
ührer	14355
akkar	14356
673	14357
671	14358
pirit	14359
ahrik	14360
593	14361
592	14362
666	14363
638	14364
633	14365
hizla	14366
rvel	14367
688	14368
685	14369
683	14370
682	14371
mebus	14372
urah	14373
ekas	14374
nazar	14375
645	14376
572	14377
799	14378
awal	14379
ığlı	14380
dehb	14381
ırpan	14382
ürkök	14383
argon	14384
768	14385
774	14386
893	14387
890	14388
rsaje	14389
asser	14390
emsil	14391
ldin	14392
irsat	14393
912	14394
ebad	14395
kûme	14396
src	14397
palin	14398
bdp	14399
ccal	14400
##qua	14401
axxi	14402
onomi	14403
941	14404
i̇hd	14405
i̇hlal	14406
993	14407
ltipl	14408
980	14409
aktum	14410
brie	14411
yekde	14412
erci̇h	14413
elane	14414
gi̇re	14415
gi̇ri̇	14416
975	14417
970	14418
971	14419
fdp	14420
nore	14421
fi̇ya	14422
dsg	14423
btso	14424
ould	14425
eşikt	14426
örüşm	14427
ayser	14428
şi̇ö	14429
mdr	14430
vi̇c	14431
vi̇deo	14432
ackle	14433
âhî	14434
entit	14435
botaş	14436
cimri	14437
ânî	14438
true	14439
i̇li̇m	14440
eli̇şi̇	14441
fsm	14442
ltay	14443
edric	14444
jake	14445
kli̇k	14446
pitb	14447
3gb	14448
blizz	14449
di̇nle	14450
colm	14451
i̇yase	14452
ualla	14453
çipi	14454
ilsen	14455
hink	14456
crr	14457
oach	14458
ountr	14459
psoe	14460
ansip	14461
ropbo	14462
eeth	14463
fukar	14464
tdv	14465
witt	14466
ekâlâ	14467
dâhi	14468
egale	14469
ggy	14470
cımbı	14471
rhei	14472
enyuk	14473
abbah	14474
fedai	14475
dgok	14476
ucky	14477
çetin	14478
namib	14479
dns	14480
eyami	14481
lyang	14482
utier	14483
glc	14484
nyana	14485
fi̇lm	14486
khail	14487
urcic	14488
wasp	14489
effüs	14490
jöle	14491
mıkna	14492
v12	14493
i̇kad	14494
irdab	14495
ülümü	14496
juppe	14497
platz	14498
vpn	14499
tegui	14500
dozaj	14501
"-	14502
2k	14503
a3	14504
adü	14505
asaj	14506
auro	14507
aes	14508
aaşi	14509
bv	14510
b6	14511
bim	14512
bros	14513
bond	14514
cz	14515
ciz	14516
cür	14517
cız	14518
cto	14519
cly	14520
cdad	14521
ckey	14522
dci	14523
eiz	14524
eem	14525
epa	14526
eed	14527
fm	14528
fö	14529
fya	14530
für	14531
fol	14532
ftal	14533
gtü	14534
gno	14535
hrao	14536
hgm	14537
hiko	14538
iar	14539
iur	14540
ige	14541
ilam	14542
iaşe	14543
jl	14544
jar	14545
jat	14546
jlar	14547
jön	14548
jub	14549
juke	14550
kru	14551
klat	14552
kja	14553
klâl	14554
lr	14555
lé	14556
lley	14557
lci̇	14558
ljan	14559
lər	14560
m1	14561
mra	14562
msa	14563
mâl	14564
nzo	14565
nfi	14566
nvi	14567
oer	14568
odi	14569
oti	14570
oyo	14571
oid	14572
odes	14573
ozai	14574
ofia	14575
pw	14576
pte	14577
plu	14578
pran	14579
piro	14580
plit	14581
qai	14582
rmi̇	14583
rwi	14584
rwe	14585
sut	14586
tpa	14587
tını	14588
tyd	14589
tmi̇	14590
uj	14591
uet	14592
uay	14593
uos	14594
ulitz	14595
vür	14596
vız	14597
vaki	14598
vto	14599
wta	14600
wi̇	14601
xo	14602
x3	14603
xal	14604
yman	14605
zö	14606
âb	14607
âm	14608
âlet	14609
âfir	14610
çi̇	14611
çeli	14612
ölaş	14613
ülah	14614
üvar	14615
ıa	14616
şil	14617
şfik	14618
##iu	14619
##iw	14620
##yük	14621
##par	14622
##cet	14623
##cke	14624
##hn	14625
##hm	14626
##hen	14627
##ute	14628
##sl	14629
##tun	14630
##nim	14631
##̇t	14632
##bl	14633
##bur	14634
##dal	14635
##vel	14636
##gb	14637
##mp	14638
##fs	14639
##wk	14640
##kt	14641
##kir	14642
##kam	14643
##îr	14644
##îs	14645
##îf	14646
##eno	14647
lardi	14648
aner	14649
anci	14650
inya	14651
inhan	14652
inja	14653
inhua	14654
incap	14655
yag	14656
##lav	14657
##lag	14658
##eka	14659
##eke	14660
daen	14661
daum	14662
dami	14663
dawn	14664
armi	14665
arzi	14666
armı	14667
aryan	14668
arley	14669
ardes	14670
vela	14671
veciz	14672
olb	14673
olca	14674
olpa	14675
olkan	14676
olid	14677
olby	14678
made	14679
mavi	14680
bure	14681
ındır	14682
alda	14683
albe	14684
almi	14685
alçi	14686
alze	14687
alvin	14688
kaim	14689
kate	14690
kaes	14691
liu	14692
enâ	14693
enol	14694
endan	14695
eni̇n	14696
dian	14697
dize	14698
diver	14699
ilip	14700
illen	14701
##ize	14702
erkat	14703
erfi	14704
eros	14705
erpe	14706
eri̇n	14707
etem	14708
ayl	14709
ayir	14710
ayma	14711
unya	14712
unik	14713
unna	14714
i̇yo	14715
i̇mer	14716
tei	14717
meyle	14718
meos	14719
mexi	14720
mecid	14721
##işe	14722
edy	14723
edc	14724
nile	14725
irway	14726
abb	14727
abız	14728
abut	14729
abso	14730
saac	14731
##dua	14732
aktir	14733
akula	14734
lain	14735
laid	14736
laac	14737
atel	14738
atiz	14739
atch	14740
ating	14741
acker	14742
acze	14743
acto	14744
karbo	14745
imla	14746
imon	14747
imble	14748
imeks	14749
##eri̇	14750
leus	14751
lego	14752
leia	14753
##oks	14754
orje	14755
oritz	14756
iston	14757
rave	14758
ravan	14759
rayan	14760
uls	14761
ulta	14762
ulse	14763
ullen	14764
ekor	14765
ekel	14766
ekvan	14767
arala	14768
ursan	14769
uric	14770
urros	14771
urora	14772
urqua	14773
##tec	14774
açılı	14775
evrat	14776
kost	14777
rein	14778
rees	14779
duct	14780
baç	14781
azy	14782
azdi	14783
azali	14784
azot	14785
doc	14786
dock	14787
ellal	14788
tig	14789
tod	14790
total	14791
kid	14792
kile	14793
kifa	14794
##örü	14795
uzzle	14796
üzhet	14797
tıpa	14798
önük	14799
emar	14800
emit	14801
ikar	14802
iktar	14803
ikdad	14804
beli̇	14805
giac	14806
mila	14807
aso	14808
asul	14809
asha	14810
aschi	14811
umra	14812
umral	14813
amc	14814
amra	14815
amuk	14816
amco	14817
rita	14818
esh	14819
esma	14820
esna	14821
esob	14822
bög	14823
eleg	14824
eymen	14825
eyti̇n	14826
ırra	14827
ırbo	14828
avli	14829
avara	14830
avru	14831
topa	14832
ahro	14833
ahlan	14834
ahi̇	14835
ahni	14836
ahoz	14837
ahkam	14838
uyr	14839
inev	14840
mip	14841
mice	14842
poo	14843
pour	14844
polet	14845
pocal	14846
##ruz	14847
yaşi	14848
##bes	14849
ürşad	14850
##bah	14851
yakla	14852
adyat	14853
adji	14854
aduro	14855
here	14856
lube	14857
luig	14858
bean	14859
bede	14860
beiro	14861
biza	14862
pari̇s	14863
dirma	14864
otth	14865
oko	14866
turka	14867
ükmo	14868
takoz	14869
abert	14870
##alia	14871
oss	14872
idol	14873
idney	14874
lüle	14875
moti	14876
mobi̇	14877
moto	14878
mouse	14879
eçi̇ş	14880
eçmi̇ş	14881
ölg	14882
lena	14883
stor	14884
ipt	14885
ipal	14886
ipte	14887
rengâ	14888
ntur	14889
isen	14890
opal	14891
opuz	14892
üreşe	14893
nlp	14894
çeper	14895
hemşi	14896
teka	14897
teke	14898
utfa	14899
rov	14900
rost	14901
rosa	14902
rozen	14903
eli̇n	14904
temle	14905
temi̇	14906
rdx	14907
##gue	14908
##ipo	14909
hange	14910
hanto	14911
cısu	14912
i̇sg	14913
tüs	14914
lou	14915
lood	14916
i̇ldi̇	14917
isis	14918
caus	14919
fig	14920
aled	14921
aleta	14922
zorb	14923
sans	14924
uşak	14925
hart	14926
iciv	14927
heen	14928
heep	14929
usel	14930
usat	14931
alia	14932
aliki	14933
nkron	14934
feno	14935
kors	14936
zie	14937
afla	14938
afat	14939
after	14940
sot	14941
i̇nci̇	14942
ışar	14943
ümme	14944
anson	14945
pier	14946
melan	14947
şarb	14948
nud	14949
mess	14950
raka	14951
nger	14952
ngol	14953
ifc	14954
iffet	14955
müşte	14956
epla	14957
fest	14958
felek	14959
ıray	14960
ırap	14961
altuş	14962
ıklar	14963
vada	14964
akih	14965
akiba	14966
engen	14967
anter	14968
ding	14969
omen	14970
bayır	14971
ezbah	14972
pua	14973
publi	14974
dila	14975
oban	14976
obre	14977
akati	14978
ukra	14979
bias	14980
atibi	14981
ahide	14982
trav	14983
i̇zban	14984
şadi	14985
hepi̇	14986
vane	14987
roll	14988
rci̇	14989
eğeri̇	14990
esti̇	14991
esti̇v	14992
pap	14993
304	14994
ersus	14995
trin	14996
traş	14997
talim	14998
nakde	14999
tton	15000
tayi̇	15001
rmand	15002
come	15003
cock	15004
couv	15005
letle	15006
maski̇	15007
zane	15008
andor	15009
goda	15010
gota	15011
baru	15012
ania	15013
ervic	15014
kınla	15015
ivar	15016
ivek	15017
ivri	15018
onez	15019
##soy	15020
ıfzı	15021
erest	15022
erece	15023
emic	15024
ents	15025
gac	15026
gav	15027
gael	15028
tespi̇	15029
enap	15030
şıp	15031
efil	15032
eflü	15033
ongo	15034
span	15035
abibe	15036
azic	15037
asic	15038
rumbo	15039
506	15040
503	15041
507	15042
raki̇	15043
inago	15044
hov	15045
hole	15046
pele	15047
peed	15048
pect	15049
peac	15050
ayyum	15051
lampe	15052
alph	15053
211	15054
enze	15055
külli̇	15056
tereo	15057
ijon	15058
aşıya	15059
reman	15060
teler	15061
i̇bn	15062
kerre	15063
iege	15064
nikel	15065
284	15066
281	15067
mitt	15068
408	15069
cent	15070
nank	15071
narşi	15072
rind	15073
rink	15074
vakte	15075
ainan	15076
üşm	15077
ramak	15078
huy	15079
playo	15080
abrio	15081
irkül	15082
agat	15083
agno	15084
aglia	15085
ppola	15086
ütt	15087
riza	15088
rizo	15089
262	15090
267	15091
297	15092
shor	15093
wasa	15094
tıpış	15095
dalak	15096
mire	15097
msp	15098
msc	15099
ypse	15100
nötr	15101
oham	15102
ohum	15103
astet	15104
astia	15105
tros	15106
i̇smob	15107
kumru	15108
ısıy	15109
ronko	15110
ikrar	15111
lish	15112
lison	15113
xxon	15114
flav	15115
areke	15116
balta	15117
röv	15118
röve	15119
rötar	15120
röder	15121
röly	15122
rögar	15123
tazi̇	15124
jelat	15125
kuts	15126
azeh	15127
azele	15128
gina	15129
nlati	15130
bolt	15131
bolhi	15132
rukto	15133
iov	15134
iobe	15135
ladyo	15136
kabûl	15137
ensüs	15138
ragun	15139
azac	15140
329	15141
324	15142
348	15143
343	15144
ogd	15145
treç	15146
oof	15147
oody	15148
li̇ği̇	15149
ftg	15150
zulal	15151
si̇li̇	15152
iyog	15153
ouba	15154
etty	15155
icaz	15156
ead	15157
704	15158
zenza	15159
i̇tam	15160
di̇ş	15161
806	15162
807	15163
801	15164
ti̇f	15165
ti̇sk	15166
imala	15167
758	15168
weig	15169
weiw	15170
erod	15171
iani	15172
iano	15173
iane	15174
kuna	15175
658	15176
655	15177
ps4	15178
keleb	15179
auç	15180
audi	15181
pts	15182
ergi̇	15183
rdoch	15184
mont	15185
ci̇ro	15186
übut	15187
übvan	15188
ynük	15189
374	15190
ki̇t	15191
kmal	15192
##hia	15193
429	15194
422	15195
421	15196
ri̇sk	15197
şleri̇	15198
416	15199
555	15200
486	15201
llaj	15202
mmar	15203
uriç	15204
538	15205
byl	15206
mort	15207
moro	15208
ulav	15209
tsb	15210
tezat	15211
726	15212
725	15213
525	15214
523	15215
küfr	15216
küfl	15217
zona	15218
psis	15219
emiro	15220
856	15221
853	15222
runos	15223
yky	15224
569	15225
567	15226
lesb	15227
549	15228
545	15229
541	15230
ville	15231
ahmur	15232
kdp	15233
498	15234
589	15235
584	15236
aspir	15237
ransf	15238
785	15239
yyy	15240
piri	15241
şkes	15242
muska	15243
590	15244
597	15245
594	15246
693	15247
697	15248
623	15249
hurg	15250
i̇rçok	15251
ultz	15252
571	15253
790	15254
ssin	15255
zekat	15256
zekâl	15257
iflc	15258
618	15259
611	15260
brah	15261
koslo	15262
atürk	15263
wick	15264
atty	15265
ai̇t	15266
ai̇m	15267
megaf	15268
764	15269
mlek	15270
881	15271
844	15272
fuel	15273
fuch	15274
746	15275
741	15276
862	15277
896	15278
lât	15279
958	15280
friz	15281
ldl	15282
uanf	15283
yila	15284
879	15285
mumya	15286
ebas	15287
annon	15288
ulluk	15289
rowd	15290
affet	15291
palt	15292
palo	15293
kirt	15294
teffe	15295
odeli̇	15296
gamid	15297
ıvaz	15298
999	15299
968	15300
zluk	15301
983	15302
lapta	15303
pıyor	15304
ulius	15305
tırap	15306
lukac	15307
yson	15308
magg	15309
aki̇t	15310
aki̇f	15311
976	15312
judo	15313
fıski	15314
ktive	15315
anliy	15316
tafat	15317
nziza	15318
ashih	15319
mkek	15320
lief	15321
meida	15322
iore	15323
i̇mha	15324
class	15325
auru	15326
smv	15327
smdk	15328
regon	15329
ishv	15330
sirg	15331
elmas	15332
nrw	15333
vi̇p	15334
eyfus	15335
cati	15336
emrut	15337
borne	15338
dtp	15339
llc	15340
amsik	15341
mls	15342
mwen	15343
pind	15344
ürree	15345
chaer	15346
nlamı	15347
ultip	15348
jako	15349
ssig	15350
walk	15351
iksir	15352
rhun	15353
yrian	15354
ungal	15355
immon	15356
nâm	15357
höyük	15358
budva	15359
cezir	15360
nicaj	15361
liao	15362
ilsal	15363
bükü	15364
fokus	15365
wans	15366
neşre	15367
i̇si̇m	15368
tpf	15369
eyyaf	15370
asmus	15371
espih	15372
assio	15373
ummit	15374
lucia	15375
varoş	15376
didin	15377
umbur	15378
glio	15379
pvc	15380
f16	15381
ffed	15382
jaho	15383
u19	15384
naçiz	15385
cağim	15386
ri̇zes	15387
sti̇fa	15388
weats	15389
ouzal	15390
i̇gara	15391
eigne	15392
fâti	15393
mükâf	15394
rsten	15395
divri	15396
eczup	15397
egzot	15398
aouil	15399
oduli	15400
wrig	15401
şûra	15402
ilvio	15403
çepni	15404
pwc	15405
rwich	15406
xalta	15407
üvari	15408
damia	15409
kifay	15410
!!	15411
(?	15412
4c	15413
?"	15414
a8	15415
a5	15416
aek	15417
aine	15418
a10	15419
bâ	15420
bf	15421
bta	15422
bre	15423
cki	15424
cır	15425
cce	15426
cgi	15427
cro	15428
cne	15429
clem	15430
dji	15431
dli̇	15432
eü	15433
e3	15434
eq	15435
eum	15436
elay	15437
fh	15438
fn	15439
fj	15440
faki	15441
gc	15442
gv	15443
gz	15444
gw	15445
g7	15446
gur	15447
gmb	15448
gnia	15449
glitz	15450
hs	15451
hra	15452
heri	15453
hbo	15454
hsk	15455
hlo	15456
hgh	15457
jü	15458
jir	15459
jsc	15460
kne	15461
ktü	15462
klâ	15463
kdaş	15464
lsan	15465
ldo	15466
lmi̇	15467
lmer	15468
lsi̇n	15469
mî	15470
mma	15471
mta	15472
mci̇	15473
naki	15474
nbe	15475
nbir	15476
nzi	15477
nze	15478
ois	15479
ozo	15480
osab	15481
pb	15482
pg	15483
p1	15484
plar	15485
pah	15486
plo	15487
plus	15488
pake	15489
pons	15490
poker	15491
ré	15492
rä	15493
rce	15494
rro	15495
rmi	15496
rnik	15497
rdeş	15498
rze	15499
rsuz	15500
rlak	15501
roko	15502
sci	15503
sken	15504
shan	15505
sari	15506
tdi	15507
tlet	15508
uw	15509
uam	15510
uum	15511
uci	15512
ubir	15513
uder	15514
uga	15515
udit	15516
uid	15517
ui̇ka	15518
vina	15519
vâd	15520
wc	15521
wer	15522
wet	15523
won	15524
xv	15525
xper	15526
yki	15527
ysan	15528
ymi	15529
ymir	15530
yvan	15531
yto	15532
yrus	15533
yvaz	15534
zol	15535
zsa	15536
zci	15537
zzo	15538
zvir	15539
zher	15540
âs	15541
âni	15542
ânet	15543
çem	15544
öker	15545
ût	15546
üit	15547
üğü	15548
üvet	15549
ğer	15550
şaz	15551
şken	15552
şlik	15553
şmi̇	15554
şrik	15555
şeki̇	15556
əb	15557
##yâ	15558
##py	15559
##cim	15560
##che	15561
##hin	15562
##his	15563
##uki	15564
##sg	15565
##sz	15566
##tb	15567
##ten	15568
##ton	15569
##tra	15570
##nh	15571
##nos	15572
##çu	15573
##eo	15574
##bek	15575
##db	15576
##df	15577
##âm	15578
##viz	15579
##vna	15580
##vi̇	15581
##gd	15582
##gle	15583
##gat	15584
##gem	15585
##ğe	15586
##ğf	15587
##ğen	15588
##zer	15589
##zir	15590
##zip	15591
##mük	15592
##faş	15593
##qi	15594
##îh	15595
##în	15596
##еr	15597
##and	15598
##leb	15599
##ilo	15600
lers	15601
dean	15602
desta	15603
anil	15604
anor	15605
anlis	15606
inur	15607
insi	15608
inim	15609
inte	15610
inge	15611
inne	15612
inney	15613
insey	15614
inute	15615
yale	15616
yatik	15617
##alg	15618
dad	15619
dati̇	15620
arx	15621
arra	15622
aruz	15623
ardın	15624
argas	15625
arney	15626
arrus	15627
arted	15628
veba	15629
olst	15630
olga	15631
olari	15632
olyes	15633
mack	15634
maid	15635
matuf	15636
but	15637
bug	15638
ınç	15639
alul	15640
alden	15641
alva	15642
alken	15643
alkan	15644
alfe	15645
ali̇m	15646
ali̇s	15647
kalay	15648
kami	15649
kaid	15650
lida	15651
liva	15652
lift	15653
lick	15654
lique	15655
##unk	15656
enon	15657
ensi	15658
entar	15659
enmon	15660
dide	15661
diga	15662
divi	15663
digâ	15664
dikey	15665
ilvan	15666
ilhan	15667
ilux	15668
ery	15669
erw	15670
erne	15671
erret	15672
ercek	15673
errac	15674
ermo	15675
erpi	15676
erîm	15677
##onn	15678
etç	15679
etta	15680
ettü	15681
nean	15682
nest	15683
##sit	15684
sian	15685
ayo	15686
ayden	15687
aybat	15688
aytan	15689
##lio	15690
unh	15691
unm	15692
unir	15693
unga	15694
unoz	15695
i̇ü	15696
i̇ber	15697
i̇der	15698
i̇os	15699
i̇ti̇	15700
tea	15701
teu	15702
texe	15703
mea	15704
yedam	15705
içn	15706
onan	15707
onha	15708
onve	15709
only	15710
onent	15711
nai	15712
nadan	15713
başi	15714
başke	15715
nip	15716
nix	15717
niq	15718
nihal	15719
nico	15720
nivo	15721
sıcak	15722
abin	15723
abre	15724
abera	15725
hape	15726
##tay	15727
sag	15728
lai	15729
laç	15730
laden	15731
lalet	15732
tawa	15733
atir	15734
atkap	15735
acu	15736
acat	15737
acri	15738
karat	15739
imsa	15740
imyo	15741
leil	15742
leis	15743
leğen	15744
orp	15745
orq	15746
orin	15747
orul	15748
orba	15749
orve	15750
ordo	15751
orni	15752
orris	15753
istil	15754
ünce	15755
rax	15756
raik	15757
raif	15758
ulak	15759
ulli	15760
ulka	15761
ulha	15762
vero	15763
verd	15764
ekan	15765
eksi̇	15766
ekzip	15767
uret	15768
urur	15769
urmak	15770
urtu	15771
urcos	15772
evs	15773
even	15774
evaş	15775
evci	15776
kote	15777
komi̇	15778
rean	15779
rela	15780
reem	15781
reve	15782
redde	15783
reits	15784
işel	15785
işne	15786
dujar	15787
duvak	15788
sec	15789
sela	15790
sedar	15791
sind	15792
##hai	15793
##hah	15794
##haj	15795
bai	15796
bact	15797
lıy	15798
azo	15799
azzi	15800
azbat	15801
azze	15802
dov	15803
dome	15804
dobe	15805
elm	15806
elon	15807
elme	15808
eldo	15809
tika	15810
tiva	15811
gemei	15812
ecret	15813
ecdes	15814
kist	15815
kibin	15816
lang	15817
sui	15818
aşuki	15819
terk	15820
teror	15821
teron	15822
terra	15823
uzen	15824
uzne	15825
kalb	15826
kali̇	15827
kalbi̇	15828
emte	15829
emsi̇	15830
emi̇h	15831
empan	15832
emzir	15833
sone	15834
ikür	15835
ikni	15836
##caz	15837
iyak	15838
etti̇	15839
özen	15840
özür	15841
özbe	15842
asfi	15843
assim	15844
aspo	15845
asco	15846
ums	15847
umber	15848
amira	15849
amçı	15850
amsey	15851
yenko	15852
riç	15853
rier	15854
rius	15855
riva	15856
rift	15857
riso	15858
rivna	15859
kuro	15860
kuram	15861
esch	15862
elega	15863
eyli	15864
ırvan	15865
avla	15866
aviz	15867
avul	15868
avci	15869
avus	15870
avga	15871
avid	15872
muğ	15873
muj	15874
mudo	15875
ahda	15876
ahi̇m	15877
inea	15878
cema	15879
ceves	15880
miya	15881
miyal	15882
miğf	15883
##rud	15884
bop	15885
boue	15886
##ged	15887
kebir	15888
##fac	15889
##zab	15890
ürse	15891
ürsü	15892
ady	15893
örç	15894
örk	15895
örfe	15896
örmük	15897
ecegi	15898
tarin	15899
tarip	15900
oydu	15901
hert	15902
heryl	15903
oğdu	15904
mekru	15905
lud	15906
luke	15907
beyi	15908
becc	15909
artan	15910
arten	15911
artre	15912
artum	15913
parle	15914
parel	15915
otta	15916
alına	15917
eki̇l	15918
manc	15919
manş	15920
manw	15921
mank	15922
eşfet	15923
okel	15924
okma	15925
üktü	15926
ükâr	15927
cide	15928
cipe	15929
cicim	15930
ifay	15931
banez	15932
apat	15933
aput	15934
tuber	15935
ido	15936
idb	15937
idda	15938
modu	15939
movi	15940
i̇stan	15941
eçmi̇	15942
kapu	15943
menna	15944
stm	15945
stır	15946
ipg	15947
ipak	15948
iped	15949
ntot	15950
ntana	15951
ntane	15952
ismo	15953
imic	15954
çeleb	15955
saatl	15956
üçle	15957
meyv	15958
anad	15959
anag	15960
roi	15961
roa	15962
roş	15963
mery	15964
alaya	15965
hafsa	15966
elia	15967
rdone	15968
şeyhi	15969
kuaz	15970
hant	15971
i̇smi̇	15972
lop	15973
loş	15974
lois	15975
loic	15976
loop	15977
i̇lde	15978
i̇lge	15979
i̇lome	15980
i̇lgem	15981
cap	15982
cağ	15983
caf	15984
cavir	15985
caviz	15986
fide	15987
fiya	15988
fides	15989
alea	15990
alev	15991
lukoz	15992
çap	15993
##i̇a	15994
##i̇f	15995
##i̇mi̇	15996
unas	15997
ruka	15998
karav	15999
sane	16000
adele	16001
selvi	16002
chi	16003
hare	16004
kamb	16005
yazi	16006
##ria	16007
heat	16008
heit	16009
heed	16010
usque	16011
usins	16012
alig	16013
alide	16014
diyak	16015
ehre	16016
ehven	16017
##hes	16018
arkus	16019
zaldi	16020
korn	16021
kori̇	16022
süper	16023
afiy	16024
affi	16025
afdk	16026
mezot	16027
sop	16028
soul	16029
somo	16030
souri	16031
i̇nt	16032
ümüş	16033
tılma	16034
ansko	16035
piu	16036
pita	16037
piyo	16038
melya	16039
meli̇	16040
nup	16041
yuh	16042
şiği	16043
şive	16044
atag	16045
çıpa	16046
ltd	16047
nsur	16048
rake	16049
rakow	16050
i̇şlem	16051
i̇şare	16052
i̇şsi̇	16053
ulusl	16054
reka	16055
reks	16056
rekl	16057
tami	16058
kull	16059
rtok	16060
iflah	16061
iffel	16062
icek	16063
icve	16064
hic	16065
hio	16066
hima	16067
hicaz	16068
epik	16069
ingne	16070
vail	16071
vacip	16072
zec	16073
zeh	16074
killi	16075
##sud	16076
şahin	16077
engâ	16078
ekto	16079
yoo	16080
omü	16081
koll	16082
ezi̇	16083
yatt	16084
yatö	16085
stey	16086
mins	16087
minü	16088
krad	16089
arib	16090
arius	16091
biber	16092
atlon	16093
latz	16094
laton	16095
irac	16096
iraj	16097
iraud	16098
vizit	16099
zark	16100
şaa	16101
şasi	16102
şafi	16103
şaver	16104
rcia	16105
eğret	16106
krep	16107
pau	16108
pax	16109
past	16110
pasa	16111
303	16112
307	16113
trö	16114
tron	16115
tris	16116
tröm	16117
taly	16118
ttalg	16119
kina	16120
mash	16121
masak	16122
masol	16123
zano	16124
alko	16125
rimm	16126
gobi	16127
gody	16128
iab	16129
iada	16130
bars	16131
barut	16132
anic	16133
ervaz	16134
tifl	16135
retta	16136
retro	16137
jani	16138
rkaç	16139
rkasi	16140
eben	16141
ebum	16142
ebbib	16143
noid	16144
rulo	16145
ereb	16146
entb	16147
enten	16148
entor	16149
gaal	16150
242	16151
alığ	16152
tore	16153
torba	16154
efes	16155
riko	16156
odot	16157
viti	16158
vibe	16159
vigo	16160
elain	16161
hamm	16162
hami̇	16163
spb	16164
abita	16165
asip	16166
eldeğ	16167
tavr	16168
ruman	16169
rumda	16170
502	16171
501	16172
inad	16173
inaj	16174
hdl	16175
hoo	16176
pean	16177
peak	16178
angi̇	16179
arsen	16180
mamog	16181
mpla	16182
rmako	16183
remo	16184
iref	16185
ords	16186
ajda	16187
rgei	16188
ozmo	16189
vazel	16190
ernel	16191
samet	16192
lçi̇	16193
407	16194
egd	16195
kopo	16196
ebeb	16197
dişi̇	16198
narin	16199
278	16200
277	16201
zero	16202
zeren	16203
rins	16204
şkar	16205
emos	16206
vakar	16207
vakfe	16208
melia	16209
üşma	16210
üşüş	16211
asabi	16212
huc	16213
meşh	16214
meşk	16215
igh	16216
igon	16217
igur	16218
igmat	16219
iglia	16220
agun	16221
aghi	16222
agnes	16223
akaro	16224
zikir	16225
stis	16226
brel	16227
timus	16228
etero	16229
kâm	16230
kâfi	16231
aned	16232
erane	16233
amui	16234
radd	16235
352	16236
nötra	16237
uruc	16238
oho	16239
zayi	16240
astil	16241
tbt	16242
rapo	16243
encan	16244
erted	16245
aksi̇m	16246
iğde	16247
iğren	16248
tivit	16249
kumr	16250
mi̇b	16251
mi̇ze	16252
eveze	16253
ucm	16254
ucca	16255
armaş	16256
natür	16257
quin	16258
quat	16259
quie	16260
quila	16261
zemb	16262
verif	16263
balar	16264
balak	16265
röla	16266
sterc	16267
608	16268
605	16269
607	16270
ubbet	16271
ubbli	16272
fırka	16273
cemal	16274
meds	16275
jai	16276
jade	16277
levye	16278
459	16279
457	16280
bbs	16281
izaç	16282
i̇çbi̇r	16283
arms	16284
arpaz	16285
iom	16286
ious	16287
iodo	16288
kaban	16289
kabız	16290
dülü	16291
mecal	16292
mecit	16293
uhde	16294
oglu	16295
trem	16296
arşın	16297
orah	16298
##ico	16299
ıbık	16300
ıbıl	16301
ateng	16302
li̇s	16303
li̇man	16304
lines	16305
zuki	16306
cheid	16307
oubi	16308
afes	16309
afez	16310
arkıt	16311
eafer	16312
708	16313
707	16314
701	16315
bi̇m	16316
amper	16317
338	16318
907	16319
lcon	16320
urkc	16321
romb	16322
ezae	16323
di̇ha	16324
çati	16325
tyen	16326
tylus	16327
udd	16328
udley	16329
erdi̇	16330
805	16331
illbo	16332
ti̇ra	16333
erato	16334
752	16335
757	16336
html	16337
ayev	16338
eroy	16339
üfl	16340
ianc	16341
654	16342
hâşâ	16343
pseki	16344
şerme	16345
şerîf	16346
rıza	16347
sche	16348
rcs	16349
auf	16350
ause	16351
pto	16352
ahval	16353
berk	16354
rbay	16355
mono	16356
ci̇l	16357
ci̇na	16358
strit	16359
eming	16360
şakar	16361
übüş	16362
ynt	16363
377	16364
371	16365
388	16366
382	16367
ki̇k	16368
ki̇tap	16369
kml	16370
##hib	16371
vahyi	16372
ri̇z	16373
vato	16374
ni̇k	16375
554	16376
##ki̇m	16377
i̇kv	16378
idad	16379
488	16380
483	16381
484	16382
481	16383
449	16384
448	16385
447	16386
441	16387
397	16388
ntazi	16389
rsf	16390
ostel	16391
461	16392
bıhal	16393
478	16394
438	16395
morn	16396
morg	16397
slaut	16398
723	16399
727	16400
oura	16401
ourer	16402
küfre	16403
zonk	16404
teyp	16405
ttas	16406
hbv	16407
illie	16408
runch	16409
runas	16410
raviy	16411
ykk	16412
öyk	16413
516	16414
happy	16415
542	16416
ejan	16417
kdtp	16418
ylon	16419
ylvia	16420
eup	16421
tcsg	16422
##mi̇b	16423
kroos	16424
583	16425
581	16426
aspb	16427
midt	16428
781	16429
670	16430
pire	16431
698	16432
665	16433
632	16434
828	16435
687	16436
emaz	16437
ığını	16438
644	16439
576	16440
574	16441
795	16442
ssari	16443
zekal	16444
ydd	16445
buzul	16446
613	16447
614	16448
716	16449
715	16450
712	16451
erhun	16452
835	16453
837	16454
okay	16455
okas	16456
teviy	16457
iskân	16458
ai̇bü	16459
ai̇zi̇	16460
738	16461
735	16462
aciv	16463
769	16464
765	16465
763	16466
767	16467
helo	16468
helm	16469
lüten	16470
886	16471
885	16472
882	16473
846	16474
843	16475
847	16476
fue	16477
felc	16478
zoom	16479
778	16480
776	16481
ği̇n	16482
bezm	16483
742	16484
747	16485
861	16486
mpact	16487
892	16488
lson	16489
assb	16490
assen	16491
ldat	16492
jena	16493
prio	16494
lâf	16495
957	16496
954	16497
929	16498
lds	16499
ancy	16500
anct	16501
ipop	16502
uston	16503
ustka	16504
iyarü	16505
elçi̇	16506
872	16507
916	16508
915	16509
cm3	16510
mumi	16511
teti̇k	16512
evaba	16513
rowe	16514
ocha	16515
viski	16516
sner	16517
palu	16518
ğütül	16519
ennan	16520
eard	16521
koko	16522
prin	16523
pri̇m	16524
945	16525
942	16526
940	16527
tacız	16528
arrio	16529
akıb	16530
996	16531
966	16532
962	16533
932	16534
kgb	16535
kgm	16536
grini	16537
gsaş	16538
beğe	16539
989	16540
tti̇m	16541
tti̇k	16542
ulig	16543
etird	16544
töre	16545
yeka	16546
hrek	16547
hopp	16548
llek	16549
eloma	16550
aea	16551
arbor	16552
jumei	16553
löf	16554
lök	16555
rooks	16556
etris	16557
aali̇	16558
tki̇s	16559
erörü	16560
tulin	16561
horb	16562
ycro	16563
lduğu	16564
luton	16565
lobic	16566
wart	16567
ghor	16568
şi̇dde	16569
nci̇k	16570
bhhm	16571
rdi̇k	16572
üveç	16573
rogra	16574
zapt	16575
cate	16576
emrin	16577
pcm	16578
fleet	16579
othy	16580
ruyne	16581
gnar	16582
gnum	16583
ybs	16584
ybri	16585
küpü	16586
dwt	16587
djo	16588
outh	16589
izano	16590
pmf	16591
eremo	16592
jero	16593
tyam	16594
leeve	16595
eki̇m	16596
tmz	16597
nowbo	16598
bld	16599
uerta	16600
i̇yasi̇	16601
imbru	16602
uangd	16603
roker	16604
rokol	16605
shah	16606
lejyo	16607
volta	16608
zi̇ka	16609
öhnh	16610
ipset	16611
hush	16612
enoa	16613
üyüye	16614
üyüdü	16615
eand	16616
frig	16617
frika	16618
khi̇s	16619
innaz	16620
aison	16621
üjgan	16622
dines	16623
nside	16624
oike	16625
xfam	16626
ersac	16627
ersah	16628
i̇pek	16629
ülfat	16630
erbes	16631
eyond	16632
quick	16633
fkb	16634
uxur	16635
utsch	16636
zzat	16637
erpiş	16638
atriğ	16639
rötuş	16640
ibui	16641
ekâre	16642
egapi	16643
gpu	16644
tsai	16645
rhein	16646
uudi̇	16647
revaç	16648
seau	16649
pvv	16650
enyüc	16651
i̇ftçi̇	16652
view	16653
ignon	16654
firav	16655
hkpc	16656
water	16657
watch	16658
errah	16659
imoza	16660
üngör	16661
ctav	16662
kvit	16663
anzum	16664
vecih	16665
iruze	16666
sti̇k	16667
mfö	16668
zâde	16669
lasio	16670
biala	16671
mfib	16672
didiş	16673
nioc	16674
assuo	16675
ajime	16676
oethe	16677
buena	16678
migre	16679
begov	16680
ati̇p	16681
hosn	16682
gnies	16683
npay	16684
yörük	16685
agnus	16686
eiras	16687
glob	16688
ugans	16689
dizay	16690
ülküf	16691
i̇ngöl	16692
ouvre	16693
ri̇ski̇	16694
plug	16695
tpao	16696
uetta	16697
ulsar	16698
(?)	16699
nbean	16700
ubira	16701
udith	16702
uidet	16703
ymien	16704
şazim	16705
əbər	16706
innea	16707
erpiç	16708
onhap	16709
ikniğ	16710
örfez	16711
//	16712
2a	16713
3x	16714
7s	16715
8x	16716
ayor	16717
adia	16718
ağiş	16719
ayas	16720
ames	16721
aure	16722
aako	16723
bj	16724
bde	16725
bon	16726
blan	16727
blis	16728
bti̇	16729
cx	16730
cj	16731
cda	16732
ctı	16733
clay	16734
ceki	16735
chu	16736
cira	16737
ccad	16738
cder	16739
cbü	16740
dû	16741
dlı	16742
dren	16743
dzon	16744
e5	16745
eah	16746
eine	16747
ei̇b	16748
eiko	16749
fsi	16750
fim	16751
fte	16752
foku	16753
frak	16754
fsb	16755
gf	16756
g4	16757
gle	16758
glu	16759
gran	16760
gret	16761
gbar	16762
gmi̇	16763
ggie	16764
hv	16765
hek	16766
haş	16767
hya	16768
huz	16769
hiy	16770
hini	16771
hing	16772
hi̇m	16773
hlâk	16774
hsen	16775
iir	16776
iul	16777
ibo	16778
imat	16779
ique	16780
i10	16781
jc	16782
jf	16783
jw	16784
j7	16785
jcak	16786
joke	16787
jure	16788
jcr	16789
jeka	16790
k9	16791
ké	16792
klet	16793
kini	16794
kyan	16795
kmen	16796
kgk	16797
kvir	16798
lj	16799
lden	16800
llık	16801
lmek	16802
lnı	16803
lri	16804
lno	16805
lti̇	16806
lâh	16807
mn	16808
m4	16809
mû	16810
mla	16811
meri	16812
mne	16813
mbo	16814
mdar	16815
mmo	16816
molo	16817
mâne	16818
mni̇	16819
maki̇	16820
nye	16821
nuş	16822
nüt	16823
ngil	16824
ngu	16825
nji	16826
nheim	16827
nves	16828
nnie	16829
nons	16830
naki̇	16831
oin	16832
ook	16833
oyle	16834
odan	16835
oman	16836
ogu	16837
okaç	16838
oxy	16839
ofac	16840
p9	16841
px	16842
pj	16843
pon	16844
pır	16845
put	16846
pcak	16847
pül	16848
piy	16849
psi̇	16850
pdk	16851
phie	16852
pipo	16853
phia	16854
qi	16855
rye	16856
ryle	16857
rlan	16858
rişi	16859
rera	16860
rgil	16861
rvet	16862
rbic	16863
sw	16864
s1	16865
sda	16866
sven	16867
sere	16868
skü	16869
szo	16870
siro	16871
sire	16872
svd	16873
tz	16874
t3	16875
t2	16876
tye	16877
tkan	16878
tmb	16879
tmer	16880
tpp	16881
tmi̇ş	16882
uki	16883
uce	16884
uden	16885
ulet	16886
uber	16887
ufi	16888
udy	16889
uing	16890
ui̇b	16891
vn	16892
v6	16893
vle	16894
vya	16895
vme	16896
vuz	16897
vini	16898
vâr	16899
veki̇	16900
wy	16901
wh	16902
wt	16903
wis	16904
wley	16905
xor	16906
yç	16907
yf	16908
yw	16909
yken	16910
ylik	16911
yga	16912
ybi̇	16913
zw	16914
zık	16915
zül	16916
zere	16917
zrak	16918
zdi̇	16919
zfaş	16920
âbı	16921
âişe	16922
çv	16923
çir	16924
çbir	16925
çhis	16926
çgd	16927
öst	16928
öme	16929
ökü	16930
öfer	16931
ögg	16932
ûfe	16933
üce	16934
üsta	16935
über	16936
ülal	16937
ğr	16938
ğna	16939
ğdam	16940
şâ	16941
şur	16942
şay	16943
şli̇	16944
şi̇n	16945
şsi̇z	16946
##ii	16947
##ich	16948
##yar	16949
##ıa	16950
##ıs	16951
##pr	16952
##pu	16953
##pq	16954
##pri̇	16955
##hr	16956
##hü	16957
##hha	16958
##hus	16959
##nc	16960
##nî	16961
##oi	16962
##oc	16963
##çen	16964
##çak	16965
##çuk	16966
##üv	16967
##lö	16968
##eh	16969
##ess	16970
##bak	16971
##bun	16972
##buz	16973
##âk	16974
##şir	16975
##şek	16976
##şal	16977
##vc	16978
##vî	16979
##gü	16980
##gv	16981
##zu	16982
##mor	16983
##ffe	16984
##ös	16985
##wb	16986
##kb	16987
##jb	16988
##ûb	16989
##îl	16990
lare	16991
larva	16992
dea	16993
deg	16994
deir	16995
deye	16996
demi̇	16997
anon	16998
ansa	16999
andir	17000
anje	17001
anvas	17002
inh	17003
inva	17004
inone	17005
ndt	17006
ndel	17007
ndi̇r	17008
yah	17009
yabat	17010
yavu	17011
##ori	17012
damet	17013
dawk	17014
arme	17015
arok	17016
arus	17017
arva	17018
ararı	17019
arker	17020
arcel	17021
arrat	17022
vego	17023
vehh	17024
vetic	17025
##mah	17026
##mas	17027
olv	17028
olon	17029
olus	17030
olman	17031
olçak	17032
mata	17033
mago	17034
buta	17035
buch	17036
ıng	17037
alst	17038
alok	17039
alsa	17040
alte	17041
allet	17042
alve	17043
aldir	17044
allen	17045
almo	17046
ali̇h	17047
alore	17048
alâd	17049
kaa	17050
kao	17051
kasi	17052
kaine	17053
kaju	17054
liç	17055
lica	17056
liyo	17057
liza	17058
lista	17059
lipit	17060
lido	17061
liani	17062
##ıka	17063
##def	17064
##day	17065
##une	17066
enza	17067
engil	17068
enlem	17069
enker	17070
ensi̇	17071
enno	17072
enue	17073
##str	17074
##stv	17075
dise	17076
dimiş	17077
divar	17078
dito	17079
diane	17080
illar	17081
ilne	17082
ilbo	17083
ilver	17084
erta	17085
erdu	17086
erok	17087
erden	17088
erven	17089
eroke	17090
erhi	17091
erhal	17092
etn	17093
etö	17094
etar	17095
etaş	17096
etzi	17097
etüs	17098
etvar	17099
etod	17100
etrak	17101
##kic	17102
neci	17103
##sif	17104
göp	17105
##ato	17106
simo	17107
sito	17108
ayen	17109
aydan	17110
ayül	17111
ayber	17112
aytar	17113
ayfi	17114
aydo	17115
ayid	17116
aysad	17117
nıy	17118
##tig	17119
unke	17120
unza	17121
unker	17122
unic	17123
unto	17124
i̇e	17125
i̇la	17126
i̇me	17127
i̇se	17128
i̇ker	17129
i̇mm	17130
i̇po	17131
i̇i̇r	17132
i̇pt	17133
teo	17134
teak	17135
teze	17136
tego	17137
tead	17138
tegen	17139
teig	17140
tegv	17141
meal	17142
year	17143
yeon	17144
edb	17145
edar	17146
eddy	17147
edbi̇r	17148
onor	17149
oniz	17150
onme	17151
onit	17152
onis	17153
oney	17154
onner	17155
nade	17156
naum	17157
nais	17158
lerim	17159
başir	17160
başsa	17161
ndaz	17162
nique	17163
nides	17164
sıhha	17165
iric	17166
abel	17167
abli	17168
aberi	17169
abdul	17170
hage	17171
have	17172
hack	17173
saj	17174
saga	17175
sawa	17176
akr	17177
akh	17178
akot	17179
akom	17180
akuzi	17181
akbuz	17182
lada	17183
tağ	17184
tave	17185
tai̇k	17186
atal	17187
atman	17188
atmi	17189
atsu	17190
atrak	17191
accı	17192
acro	17193
acid	17194
acic	17195
achar	17196
acana	17197
kars	17198
imil	17199
imek	17200
imila	17201
imuç	17202
imdb	17203
imşir	17204
lei	17205
lear	17206
leix	17207
türet	17208
orat	17209
oram	17210
orik	17211
orus	17212
orod	17213
orçka	17214
üna	17215
ündü	17216
ündo	17217
rau	17218
rae	17219
rame	17220
radu	17221
rage	17222
raed	17223
rasi̇m	17224
gelo	17225
ulo	17226
ulle	17227
ulbib	17228
very	17229
verde	17230
verly	17231
ekg	17232
ekat	17233
ekse	17234
ekret	17235
ekmil	17236
arafi	17237
##tev	17238
müp	17239
müder	17240
müeb	17241
mütev	17242
evdia	17243
evdua	17244
koma	17245
koka	17246
koyo	17247
reek	17248
reik	17249
reut	17250
reyon	17251
resta	17252
refi	17253
read	17254
reev	17255
işek	17256
işit	17257
duke	17258
bau	17259
bago	17260
azik	17261
azgır	17262
doç	17263
dog	17264
dox	17265
dom	17266
dovan	17267
doth	17268
elti	17269
elha	17270
elbi	17271
elman	17272
elve	17273
ellâ	17274
elod	17275
elko	17276
elmer	17277
elux	17278
izz	17279
iznim	17280
tile	17281
tick	17282
tihaj	17283
dani	17284
dane	17285
dank	17286
geb	17287
ecr	17288
ecen	17289
ecal	17290
ecda	17291
ecaz	17292
eccü	17293
ecri	17294
ecker	17295
tow	17296
toki	17297
toman	17298
toms	17299
tojb	17300
kifoz	17301
lano	17302
suu	17303
sual	17304
susan	17305
sudz	17306
aşis	17307
aşvu	17308
tert	17309
terme	17310
uzla	17311
uzul	17312
uzvu	17313
üzgar	17314
önel	17315
önül	17316
emok	17317
emba	17318
emdir	17319
emret	17320
emkir	17321
##bis	17322
kadin	17323
ikil	17324
ikeri	17325
ikmi	17326
giu	17327
gion	17328
gios	17329
şear	17330
şeşen	17331
iyolo	17332
ülbi	17333
özlü	17334
asu	17335
asol	17336
asman	17337
asmı	17338
aski̇	17339
umh	17340
umur	17341
umke	17342
umbo	17343
umbas	17344
amf	17345
amiy	17346
amso	17347
amâre	17348
##aza	17349
riti	17350
rike	17351
riyal	17352
riad	17353
rias	17354
rient	17355
kurg	17356
esare	17357
eyg	17358
eym	17359
eyye	17360
eyri	17361
eyşa	17362
eymin	17363
makus	17364
kony	17365
varez	17366
tanf	17367
ırh	17368
ırık	17369
ırız	17370
avlu	17371
avmi	17372
avi̇	17373
avlo	17374
topu	17375
ahtı	17376
ahiy	17377
ahare	17378
tırla	17379
bind	17380
ced	17381
ceg	17382
cef	17383
midi	17384
misk	17385
pow	17386
poyd	17387
ımbı	17388
##ruf	17389
gent	17390
ağr	17391
ağci	17392
kebab	17393
##fas	17394
ği̇li̇	17395
ürz	17396
ürti	17397
ürük	17398
ürdan	17399
ürsoy	17400
ürich	17401
ürpri̇	17402
tirya	17403
adzi	17404
addy	17405
örpü	17406
örtec	17407
faik	17408
tarh	17409
oyl	17410
oğul	17411
oğuk	17412
meki	17413
luan	17414
luck	17415
lues	17416
ülked	17417
bela	17418
bese	17419
beis	17420
devs	17421
soruş	17422
parc	17423
paran	17424
otro	17425
manen	17426
manes	17427
eşan	17428
eşti	17429
eşmir	17430
eşrik	17431
şehi̇	17432
okb	17433
okan	17434
oksa	17435
mayne	17436
hake	17437
ihp	17438
ihs	17439
ükse	17440
üklü	17441
cias	17442
##hub	17443
##hud	17444
ilkel	17445
köz	17446
iniy	17447
aph	17448
apır	17449
apti	17450
apro	17451
apell	17452
appad	17453
tula	17454
tui̇k	17455
bent	17456
osder	17457
ayri̇	17458
idmar	17459
idges	17460
itb	17461
itan	17462
itus	17463
maça	17464
mour	17465
çomü	17466
katz	17467
ikiş	17468
ikita	17469
##iyan	17470
ölçü	17471
mena	17472
menem	17473
ktilo	17474
stel	17475
stvan	17476
stud	17477
ipar	17478
ipaş	17479
ipri	17480
ippo	17481
iplag	17482
bunt	17483
ntpq	17484
ntıka	17485
isot	17486
önces	17487
opro	17488
opçu	17489
üres	17490
çesko	17491
girt	17492
iyaza	17493
krim	17494
meyan	17495
utun	17496
utlet	17497
utpe	17498
rous	17499
roze	17500
round	17501
mers	17502
elio	17503
temür	17504
rdal	17505
rdur	17506
edit	17507
üstür	17508
dembi	17509
kuo	17510
metro	17511
hana	17512
hank	17513
ranje	17514
i̇sv	17515
tüki̇	17516
loi	17517
loy	17518
loki	17519
logi	17520
i̇lot	17521
i̇lop	17522
cai	17523
fida	17524
fite	17525
fife	17526
aleo	17527
alek	17528
esit	17529
esid	17530
çaba	17531
ruiz	17532
ınay	17533
selj	17534
chem	17535
resso	17536
hari	17537
uçlu	17538
ızv	17539
kamül	17540
heh	17541
heel	17542
hema	17543
heon	17544
heik	17545
uson	17546
usch	17547
ushi	17548
usco	17549
usgs	17550
beşer	17551
beşir	17552
alic	17553
basil	17554
rahle	17555
diyye	17556
rtaç	17557
ehni	17558
ehov	17559
eheb	17560
nkâr	17561
##hev	17562
fenni	17563
çiki	17564
çita	17565
arkın	17566
arket	17567
zalti	17568
zieg	17569
ailes	17570
aft	17571
afar	17572
afur	17573
afik	17574
afyo	17575
layt	17576
sota	17577
sofa	17578
soiu	17579
eski̇n	17580
i̇nan	17581
i̇nşa	17582
i̇nder	17583
üreti	17584
tlt	17585
ümül	17586
rafen	17587
rafon	17588
tıls	17589
anso	17590
ansın	17591
pick	17592
hati	17593
hate	17594
üsni	17595
üssen	17596
melun	17597
meliz	17598
nue	17599
nusa	17600
nubul	17601
derat	17602
yub	17603
gold	17604
ahaf	17605
atau	17606
sent	17607
seniy	17608
çıb	17609
eği̇li̇	17610
##şav	17611
ltras	17612
nasc	17613
tahin	17614
tahdi	17615
i̇şler	17616
paza	17617
rekk	17618
rüf	17619
rtl	17620
rtson	17621
ngou	17622
ngry	17623
ifs	17624
ifer	17625
ifen	17626
ifrat	17627
icut	17628
icba	17629
hiel	17630
hians	17631
hief	17632
halif	17633
uver	17634
uvve	17635
itima	17636
eptu	17637
eptun	17638
ırab	17639
altuk	17640
ingen	17641
acıs	17642
vage	17643
##sup	17644
şahi̇n	17645
uğrul	17646
guvan	17647
guemo	17648
enger	17649
engal	17650
zac	17651
zada	17652
zava	17653
akado	17654
antö	17655
dind	17656
fari	17657
yoba	17658
yodo	17659
omer	17660
omte	17661
erida	17662
erita	17663
fort	17664
ezmi	17665
ezos	17666
ezhad	17667
pub	17668
puf	17669
ayaz	17670
güzar	17671
rmael	17672
minah	17673
ners	17674
dilb	17675
obb	17676
oble	17677
firk	17678
akata	17679
ukde	17680
ukri	17681
biç	17682
bike	17683
ahib	17684
kemâl	17685
lati	17686
trap	17687
trawb	17688
fero	17689
ncent	17690
vizör	17691
i̇zt	17692
i̇zde	17693
şaar	17694
şada	17695
şahad	17696
şasis	17697
eşiğ	17698
burun	17699
eğle	17700
estra	17701
erçin	17702
paç	17703
pad	17704
paw	17705
page	17706
pasta	17707
pader	17708
pack	17709
atıy	17710
tri̇	17711
nakıt	17712
ttan	17713
ttre	17714
ttore	17715
etibe	17716
upp	17717
upuz	17718
upont	17719
rmanc	17720
cos	17721
coo	17722
code	17723
coti	17724
masya	17725
masör	17726
çekme	17727
alkti	17728
tasha	17729
gop	17730
iag	17731
reta	17732
erko	17733
erkân	17734
ibur	17735
iblis	17736
itac	17737
notu	17738
urto	17739
fata	17740
tikle	17741
ertz	17742
kles	17743
rnaka	17744
emite	17745
entro	17746
gaib	17747
vukuf	17748
şıv	17749
efel	17750
efiz	17751
efsun	17752
ongre	17753
ody	17754
odg	17755
viv	17756
vien	17757
vita	17758
vika	17759
vivo	17760
hamle	17761
spi	17762
spe	17763
spm	17764
spen	17765
spat	17766
spina	17767
tımar	17768
şener	17769
asibe	17770
asi̇n	17771
rumçi	17772
504	17773
hdg	17774
ratt	17775
ratot	17776
airc	17777
airn	17778
hod	17779
host	17780
hoot	17781
pea	17782
peur	17783
voda	17784
voje	17785
voles	17786
finkt	17787
lamin	17788
##vie	17789
ntiis	17790
slr	17791
slc	17792
ailb	17793
anmay	17794
lins	17795
##ckn	17796
müzi̇k	17797
oşk	17798
area	17799
areh	17800
arez	17801
aldw	17802
remi	17803
remio	17804
remix	17805
tels	17806
ilani	17807
onsul	17808
ajor	17809
ajim	17810
ajira	17811
rksh	17812
iea	17813
ievo	17814
raco	17815
niks	17816
ernat	17817
mity	17818
rash	17819
raser	17820
lçat	17821
cenk	17822
nnesi̇	17823
egs	17824
egor	17825
kopos	17826
nari	17827
nario	17828
233	17829
ergar	17830
adic	17831
asab	17832
iger	17833
igob	17834
igres	17835
aget	17836
agda	17837
agus	17838
ldim	17839
elki̇	17840
ppp	17841
venc	17842
veng	17843
üts	17844
cakti	17845
shp	17846
shya	17847
sti̇n	17848
wac	17849
vito	17850
briz	17851
bronn	17852
akani	17853
timül	17854
yona	17855
owe	17856
owar	17857
owney	17858
mirn	17859
amud	17860
passo	17861
353	17862
almay	17863
msen	17864
msal	17865
msiz	17866
ypk	17867
yper	17868
kombi̇	17869
ncas	17870
asto	17871
ying	17872
lmey	17873
lmes	17874
lmez	17875
alkap	17876
stala	17877
kizir	17878
saten	17879
kahi	17880
kahra	17881
kahve	17882
incik	17883
rona	17884
evec	17885
ucka	17886
uccet	17887
zamet	17888
quinc	17889
quia	17890
nfl	17891
areka	17892
çukur	17893
stero	17894
ubra	17895
ubman	17896
ubble	17897
aag	17898
ritn	17899
ritüe	17900
ement	17901
şova	17902
ging	17903
jas	17904
javo	17905
orex	17906
evgi̇	17907
456	17908
453	17909
452	17910
bbsk	17911
dipo	17912
i̇çre	17913
i̇çi̇ş	17914
erdun	17915
gize	17916
ensen	17917
rifle	17918
rupi	17919
iphol	17920
anoid	17921
uhur	17922
defil	17923
369	17924
366	17925
363	17926
362	17927
ogh	17928
trese	17929
oraç	17930
oraz	17931
cky	17932
ooo	17933
oole	17934
oogle	17935
virus	17936
minic	17937
##ffy	17938
li̇de	17939
li̇sa	17940
li̇ni̇	17941
unduz	17942
zuh	17943
zubin	17944
zuelo	17945
antaa	17946
si̇go	17947
si̇par	17948
orio	17949
oup	17950
ouan	17951
oufa	17952
oubet	17953
afev	17954
afele	17955
icao	17956
icabi	17957
zina	17958
zinh	17959
zing	17960
uluğ	17961
bi̇ne	17962
902	17963
904	17964
dizg	17965
hiret	17966
romx	17967
romso	17968
romwi	17969
di̇zi̇	17970
rgon	17971
rgos	17972
809	17973
ti̇p	17974
ti̇c	17975
ti̇n	17976
ti̇v	17977
gant	17978
allon	17979
utub	17980
erata	17981
759	17982
755	17983
week	17984
gora	17985
gore	17986
üfus	17987
iyano	17988
iyanü	17989
ianne	17990
653	17991
651	17992
şükri	17993
mato	17994
matbu	17995
relik	17996
şero	17997
uffi	17998
abuta	17999
lito	18000
nispi	18001
aust	18002
koval	18003
egean	18004
resid	18005
ci̇k	18006
übyan	18007
übhan	18008
übrel	18009
übhâ	18010
ync	18011
ki̇ta	18012
disc	18013
kafan	18014
vahy	18015
vahh	18016
ri̇so	18017
ri̇mi̇	18018
vatoz	18019
556	18020
aplin	18021
ekeç	18022
zırva	18023
446	18024
443	18025
ntas	18026
tehir	18027
rslan	18028
rsini	18029
mmare	18030
urier	18031
zmin	18032
469	18033
464	18034
477	18035
risto	18036
havle	18037
437	18038
##nog	18039
müni̇h	18040
aktiğ	18041
morf	18042
aksem	18043
lpd	18044
lper	18045
velv	18046
ermuk	18047
kym	18048
##ti̇k	18049
ierl	18050
müra	18051
ibele	18052
tsh	18053
tezim	18054
522	18055
ellon	18056
skop	18057
tskb	18058
ömle	18059
apsül	18060
hbt	18061
859	18062
858	18063
852	18064
vekkü	18065
runn	18066
runei	18067
ümüla	18068
ravih	18069
565	18070
564	18071
561	18072
idibe	18073
eia	18074
513	18075
stov	18076
hapi̇	18077
kulub	18078
ngie	18079
akvi̇	18080
ejon	18081
kdz	18082
atmer	18083
navlu	18084
euve	18085
tcc	18086
aylaz	18087
##kov	18088
long	18089
494	18090
lexi	18091
gath	18092
kros	18093
ontr	18094
kupk	18095
kbb	18096
ühre	18097
ering	18098
akkâr	18099
787	18100
784	18101
677	18102
piral	18103
pired	18104
595	18105
694	18106
635	18107
637	18108
628	18109
624	18110
eyron	18111
824	18112
689	18113
681	18114
emah	18115
frang	18116
i̇ri̇s	18117
nazi̇	18118
öçmen	18119
646	18120
641	18121
ntex	18122
casus	18123
575	18124
792	18125
sser	18126
awran	18127
uev	18128
uest	18129
uever	18130
essür	18131
619	18132
617	18133
graaf	18134
pilo	18135
832	18136
831	18137
vora	18138
wijk	18139
ai̇b	18140
lkien	18141
737	18142
ürkal	18143
şüh	18144
helâl	18145
848	18146
845	18147
ılıf	18148
zop	18149
yevî	18150
775	18151
771	18152
rsuns	18153
fadel	18154
864	18155
ukale	18156
ukala	18157
ukave	18158
zabun	18159
zabit	18160
eee	18161
eele	18162
lska	18163
rtist	18164
assil	18165
assam	18166
talia	18167
i̇lek	18168
prika	18169
prise	18170
ntom	18171
lâl	18172
951	18173
928	18174
924	18175
frhad	18176
ldt	18177
uanvi	18178
eylek	18179
lipid	18180
eaton	18181
evri̇	18182
elçuk	18183
878	18184
875	18185
877	18186
918	18187
mcam	18188
evab	18189
rows	18190
rowt	18191
diaq	18192
kûre	18193
ocal	18194
ocon	18195
lkar	18196
lkol	18197
tiğin	18198
kiri	18199
kirk	18200
nleri̇	18201
cuper	18202
ennu	18203
nefro	18204
eltan	18205
eltek	18206
earne	18207
tefek	18208
axa	18209
ytk	18210
üello	18211
cts	18212
gamb	18213
mukad	18214
zyk	18215
ampao	18216
niyye	18217
995	18218
991	18219
965	18220
960	18221
961	18222
gsma	18223
ieny	18224
ieng	18225
rijin	18226
naate	18227
987	18228
ctiv	18229
sdf	18230
ulio	18231
ulie	18232
fıkh	18233
dikic	18234
sbs	18235
hadra	18236
penbe	18237
yshev	18238
elani	18239
gi̇s	18240
gi̇t	18241
aki̇bi̇	18242
lleg	18243
iell	18244
nnan	18245
mzale	18246
anjur	18247
njen	18248
löckn	18249
cds	18250
nzile	18251
tasia	18252
ashid	18253
dsp	18254
etrek	18255
rothy	18256
oulo	18257
peşi	18258
ubai̇	18259
zmi̇t	18260
aptık	18261
apmay	18262
üleb	18263
i̇mkb	18264
tki̇li̇	18265
falka	18266
puls	18267
pulos	18268
smg	18269
smim	18270
worl	18271
luto	18272
gürs	18273
güre	18274
şi̇ka	18275
şi̇ke	18276
cont	18277
conti	18278
gsyi̇	18279
melez	18280
icky	18281
pedri	18282
igaw	18283
rdane	18284
adou	18285
eutz	18286
pdf	18287
pdere	18288
eyfi̇	18289
tışı	18290
born	18291
blus	18292
lls	18293
llon	18294
llut	18295
nadol	18296
gsmh	18297
gnat	18298
umuni	18299
eyyit	18300
cahn	18301
iusz	18302
outu	18303
truct	18304
iguan	18305
fsv	18306
fsru	18307
ietz	18308
mics	18309
loğa	18310
kli̇ği̇	18311
arhus	18312
arhiy	18313
zagah	18314
tnit	18315
aşidi	18316
eki̇p	18317
ukasz	18318
ugeux	18319
arona	18320
lifec	18321
lağve	18322
aygun	18323
di̇ni̇	18324
monds	18325
mgc	18326
lasto	18327
nyada	18328
i̇fla	18329
ehiv	18330
gnac	18331
rhon	18332
shafe	18333
ırçır	18334
appy	18335
shima	18336
ümrük	18337
şata	18338
budur	18339
ki̇mli̇	18340
ki̇mdi̇	18341
ealth	18342
üyüke	18343
üyüğü	18344
myam	18345
ilsil	18346
hudg	18347
eert	18348
hinca	18349
hi̇ka	18350
jams	18351
pişer	18352
argis	18353
ahıra	18354
bnd	18355
cry	18356
cvit	18357
ublö	18358
unny	18359
mefhu	18360
bikde	18361
ddaa	18362
hetti	18363
mts	18364
redat	18365
bcg	18366
yoto	18367
ladis	18368
taala	18369
rataç	18370
fizer	18371
oebb	18372
g36	18373
lüyü	18374
ippon	18375
dâir	18376
nükle	18377
innig	18378
erref	18379
i̇aü	18380
eşkar	18381
eçird	18382
pixar	18383
vaizi	18384
tmmt	18385
vâde	18386
wdr	18387
roys	18388
sselk	18389
hoto	18390
nli̇ği̇	18391
dexo	18392
üznün	18393
eyzb	18394
easer	18395
corp	18396
hung	18397
kcen	18398
kcna	18399
osit	18400
osiç	18401
svt	18402
tâbi	18403
u17	18404
üngü	18405
luenz	18406
cpu	18407
eyah	18408
nnio	18409
nnika	18410
xima	18411
hawk	18412
eftun	18413
uente	18414
wwf	18415
üliti	18416
ülite	18417
kepir	18418
ussol	18419
dfat	18420
xlv	18421
deiv	18422
assup	18423
riott	18424
tolga	18425
xavi	18426
ylie	18427
arjah	18428
tebaa	18429
akdil	18430
nzave	18431
varad	18432
zzed	18433
akery	18434
llana	18435
ozaik	18436
oti̇v	18437
ption	18438
pli̇n	18439
vişne	18440
kasap	18441
i̇cra	18442
irmiz	18443
elyut	18444
luzel	18445
nucci	18446
eavor	18447
aesar	18448
cızır	18449
eizu	18450
folk	18451
kjav	18452
armıh	18453
azyik	18454
uyrun	18455
ıfzıs	18456
eüaş	18457
herie	18458
nziva	18459
rrow	18460
ugabe	18461
erwal	18462
ulkaz	18463
evcih	18464
engâv	18465
hoopi	18466
blish	18467
ctıo	18468
clays	18469
cekic	18470
ciraj	18471
g4s	18472
gmi̇s	18473
hi̇mme	18474
jfk	18475
lnoki	18476
mânev	18477
pcake	18478
udenh	18479
vleti	18480
vâris	18481
ybi̇n	18482
arvaj	18483
erduş	18484
etzig	18485
aydos	18486
i̇i̇rt	18487
i̇ptaş	18488
eccüd	18489
adzic	18490
tüki̇d	18491
i̇lopi̇	18492
ngoua	18493
!"	18494
.)	18495
1t	18496
2d	18497
2x	18498
3a	18499
5b	18500
6c	18501
a7	18502
aen	18503
aet	18504
aaş	18505
adu	18506
aje	18507
ai̇d	18508
bya	18509
bka	18510
bha	18511
bpa	18512
barı	18513
bres	18514
boks	18515
c1	18516
cé	18517
cık	18518
csi	18519
cka	18520
cüz	18521
cte	18522
ccu	18523
cuz	18524
cbir	18525
cine	18526
cker	18527
cını	18528
cfo	18529
cch	18530
calia	18531
dst	18532
dara	18533
dvan	18534
ddy	18535
dvis	18536
eel	18537
euk	18538
elah	18539
eekl	18540
eos	18541
ees	18542
eque	18543
equi	18544
fy	18545
fv	18546
füz	18547
flan	18548
fey	18549
fine	18550
fgan	18551
ffi	18552
flo	18553
fod	18554
frat	18555
fjet	18556
gla	18557
giş	18558
gim	18559
gka	18560
ggi	18561
gso	18562
glas	18563
gher	18564
gnel	18565
glia	18566
gzoz	18567
gfar	18568
gstv	18569
hm	18570
hû	18571
hre	18572
hi̇b	18573
hzab	18574
iı	18575
iak	18576
ieri	18577
igil	18578
i20	18579
iazz	18580
jb	18581
jum	18582
jit	18583
jül	18584
jip	18585
jia	18586
joro	18587
jyn	18588
kx	18589
kj	18590
kık	18591
kva	18592
kker	18593
kdar	18594
koku	18595
ktik	18596
lğ	18597
lа	18598
lra	18599
lka	18600
lol	18601
lbe	18602
lali	18603
llü	18604
lvi	18605
lvad	18606
lli̇k	18607
lşo	18608
lvia	18609
lki̇n	18610
lyes	18611
m9	18612
mx	18613
mа	18614
mce	18615
mendi	18616
mro	18617
myo	18618
mbul	18619
msan	18620
mmi	18621
nfo	18622
nster	18623
nmu	18624
nqu	18625
nqui	18626
nway	18627
oan	18628
oder	18629
olat	18630
oos	18631
oas	18632
oed	18633
oec	18634
p8	18635
pz	18636
pda	18637
pok	18638
pci	18639
ppor	18640
pfa	18641
puz	18642
pyal	18643
püs	18644
plâ	18645
paki̇	18646
pond	18647
pune	18648
q2	18649
rl	18650
r8	18651
rx	18652
ró	18653
ror	18654
rste	18655
rgı	18656
rker	18657
rinc	18658
rdav	18659
rlük	18660
rki̇	18661
rti̇	18662
rly	18663
rti̇b	18664
rki̇n	18665
s9	18666
s4	18667
sq	18668
sde	18669
ske	18670
scu	18671
skat	18672
sdk	18673
smi̇	18674
sgs	18675
smar	18676
svik	18677
sja	18678
swan	18679
t4	18680
ttü	18681
tzi	18682
tyal	18683
tgo	18684
ule	18685
uat	18686
uye	18687
ubi	18688
uus	18689
uah	18690
ugu	18691
uine	18692
udia	18693
uhan	18694
ubi̇	18695
uwa	18696
uci̇	18697
uemo	18698
vh	18699
vl	18700
vun	18701
vka	18702
vih	18703
vtb	18704
wn	18705
w1	18706
wol	18707
were	18708
wine	18709
wbo	18710
wid	18711
wall	18712
wpp	18713
xu	18714
yte	18715
yit	18716
yden	18717
ytü	18718
ybir	18719
ylen	18720
yhan	18721
yss	18722
ymür	18723
ynez	18724
zî	18725
ziz	18726
zür	18727
zna	18728
zhu	18729
zip	18730
zyd	18731
zmo	18732
zko	18733
zwa	18734
zeraf	18735
âti	18736
âce	18737
âlik	18738
âki̇m	18739
äpo	18740
æter	18741
çuş	18742
çkan	18743
çi̇n	18744
çks	18745
çsm	18746
îr	18747
ös	18748
öf	18749
öle	18750
öke	18751
öi̇b	18752
ölek	18753
üi	18754
üe	18755
üra	18756
ülay	18757
ülis	18758
ütür	18759
üdül	18760
üver	18761
üiza	18762
übad	18763
ütuf	18764
üruf	18765
ğli	18766
ğbi	18767
ğzi	18768
ğlum	18769
ğyar	18770
ıı	18771
ıst	18772
ıver	18773
şba	18774
şmi	18775
şşe	18776
şi̇k	18777
şazi	18778
şura	18779
аr	18780
##av	18781
##ame	18782
##rc	18783
##rn	18784
##yü	18785
##yb	18786
##ıg	18787
##cük	18788
##cik	18789
##cit	18790
##hv	18791
##uka	18792
##tt	18793
##tro	18794
##ns	18795
##ova	18796
##üğ	18797
##lr	18798
##lon	18799
##luk	18800
##br	18801
##dc	18802
##düz	18803
##ây	18804
##âle	18805
##âde	18806
##âli	18807
##şu	18808
##şun	18809
##şör	18810
##şah	18811
##vi̇k	18812
##gr	18813
##gf	18814
##gma	18815
##gul	18816
##gaz	18817
##ğğ	18818
##zın	18819
##zat	18820
##zme	18821
##zul	18822
##mus	18823
##mâl	18824
##ffi	18825
##öf	18826
##win	18827
##ín	18828
##ûk	18829
##arn	18830
##ene	18831
larko	18832
##ili	18833
lero	18834
deü	18835
deon	18836
desa	18837
deha	18838
debir	18839
delik	18840
deck	18841
anin	18842
anse	18843
anuk	18844
anül	18845
anri	18846
anbur	18847
inv	18848
inm	18849
inda	18850
inon	18851
inam	18852
inum	18853
inse	18854
inus	18855
incek	18856
indo	18857
inpo	18858
infak	18859
intes	18860
innie	18861
inhib	18862
ndp	18863
nds	18864
ndar	18865
ndal	18866
ndon	18867
ndam	18868
ndne	18869
yaa	18870
yaar	18871
yaği	18872
yali	18873
yayla	18874
##ord	18875
dadi	18876
dasi	18877
daban	18878
dash	18879
daffy	18880
arle	18881
arır	18882
arız	18883
arcı	18884
arci	18885
arna	18886
arşam	18887
arbar	18888
arhar	18889
arnie	18890
arxi	18891
arito	18892
veen	18893
vede	18894
vearn	18895
##may	18896
olut	18897
olgu	18898
ollo	18899
olfe	18900
olver	18901
##eta	18902
maş	18903
maî	18904
maal	18905
maci	18906
mai̇s	18907
masko	18908
mages	18909
bui	18910
bubi	18911
buga	18912
buhur	18913
bupro	18914
birin	18915
##dii	18916
ıngır	18917
alu	18918
alj	18919
alir	18920
alur	18921
alut	18922
albi	18923
allan	18924
alci	18925
alsan	18926
alüs	18927
albo	18928
aluro	18929
alco	18930
alçev	18931
alçuk	18932
kair	18933
kada	18934
kata	18935
kaik	18936
kacar	18937
kabı	18938
kaale	18939
lij	18940
lien	18941
liot	18942
limuz	18943
lize	18944
lich	18945
##dee	18946
##ung	18947
enda	18948
enük	18949
enik	18950
eni̇ş	18951
enom	18952
enob	18953
enbic	18954
##sti̇	18955
dij	18956
diek	18957
dige	18958
dibe	18959
diven	18960
disk	18961
diso	18962
dimes	18963
dith	18964
dijk	18965
ilh	18966
ilye	18967
ilge	18968
ilter	18969
ilid	18970
erar	18971
erft	18972
erley	18973
erud	18974
erşen	18975
etje	18976
etsi̇	18977
etho	18978
etbal	18979
##kim	18980
nec	18981
near	18982
nei̇	18983
neff	18984
nesto	18985
nefas	18986
##att	18987
##mec	18988
##ğid	18989
sic	18990
sio	18991
sile	18992
siti	18993
sise	18994
ayek	18995
ayiz	18996
ayon	18997
ayta	18998
ayik	18999
aylak	19000
ayic	19001
ayto	19002
aynes	19003
aybay	19004
aymaz	19005
aytap	19006
ayzın	19007
##lip	19008
##lid	19009
unak	19010
unce	19011
unis	19012
undo	19013
unnet	19014
i̇va	19015
i̇mek	19016
i̇ri	19017
i̇bo	19018
i̇fo	19019
i̇raf	19020
i̇ver	19021
i̇maş	19022
i̇ti̇b	19023
tear	19024
mein	19025
mesan	19026
media	19027
yevi	19028
yesi̇	19029
yevo	19030
yapmi	19031
içra	19032
eddar	19033
edze	19034
eddah	19035
onv	19036
onal	19037
onti	19038
ondu	19039
onzi	19040
onfe	19041
onmu	19042
onoz	19043
onver	19044
onnel	19045
onnek	19046
onmin	19047
onham	19048
naj	19049
nace	19050
naile	19051
naud	19052
napp	19053
naame	19054
nino	19055
##ams	19056
##amo	19057
niç	19058
nie	19059
nita	19060
niyal	19061
niper	19062
nieks	19063
irş	19064
iram	19065
iryat	19066
iryan	19067
irch	19068
irley	19069
irrus	19070
irsad	19071
abs	19072
abo	19073
abî	19074
abal	19075
abse	19076
ablan	19077
abis	19078
abih	19079
abzı	19080
abay	19081
abed	19082
abi̇t	19083
abolu	19084
haq	19085
hain	19086
haun	19087
hasi	19088
haim	19089
habi	19090
haid	19091
haux	19092
haert	19093
##tav	19094
sau	19095
sada	19096
salet	19097
sazi	19098
akl	19099
akur	19100
akçe	19101
akah	19102
akılı	19103
akça	19104
aklat	19105
akşi	19106
akoz	19107
akes	19108
akhar	19109
aksud	19110
laya	19111
lapa	19112
lagh	19113
laou	19114
lavia	19115
tair	19116
tail	19117
tast	19118
taci	19119
tapa	19120
tai̇	19121
tack	19122
tapo	19123
taff	19124
taif	19125
atk	19126
ataş	19127
atam	19128
atol	19129
atara	19130
atbu	19131
atvi	19132
atros	19133
atino	19134
atnos	19135
acz	19136
acık	19137
acda	19138
acun	19139
acon	19140
acha	19141
aclan	19142
acken	19143
acis	19144
achu	19145
achi	19146
acho	19147
acron	19148
acred	19149
acfar	19150
aclav	19151
karot	19152
imc	19153
imir	19154
imel	19155
imuk	19156
imna	19157
imber	19158
imos	19159
imyev	19160
##rey	19161
##rep	19162
lean	19163
leit	19164
lege	19165
levu	19166
leez	19167
leep	19168
türi	19169
türo	19170
amaş	19171
orka	19172
orte	19173
orden	19174
orza	19175
orri	19176
orker	19177
orvet	19178
orhan	19179
orfo	19180
oric	19181
orpe	19182
ornel	19183
orner	19184
orell	19185
orhon	19186
oreno	19187
istit	19188
istör	19189
istot	19190
likol	19191
ündar	19192
ünûn	19193
üntay	19194
raa	19195
raq	19196
raet	19197
raon	19198
raus	19199
raje	19200
rasim	19201
raid	19202
rasi̇	19203
rains	19204
rawi	19205
rajet	19206
geli	19207
ulk	19208
ulsa	19209
ullu	19210
ullo	19211
ulch	19212
ullit	19213
ulgen	19214
ulvî	19215
##sao	19216
verda	19217
vermi̇	19218
ekm	19219
ekiz	19220
ekne	19221
ekmek	19222
ekker	19223
ekûn	19224
dense	19225
arag	19226
araca	19227
url	19228
urw	19229
urj	19230
uren	19231
urla	19232
urda	19233
urki	19234
urse	19235
urca	19236
urba	19237
uris	19238
urji	19239
urga	19240
ursk	19241
urco	19242
urban	19243
urfan	19244
urney	19245
müc	19246
müca	19247
evo	19248
evan	19249
evel	19250
evha	19251
evdi̇	19252
evgen	19253
evvel	19254
evçen	19255
koc	19256
kog	19257
koşa	19258
koubi	19259
reo	19260
reuz	19261
rebu	19262
reşi̇	19263
reez	19264
işam	19265
işrin	19266
dus	19267
dugin	19268
duffi	19269
seo	19270
sex	19271
seda	19272
seden	19273
seven	19274
sezi	19275
sebat	19276
sehir	19277
sing	19278
bama	19279
baden	19280
basan	19281
baid	19282
azv	19283
azel	19284
azri	19285
azga	19286
azzo	19287
azov	19288
[...]
