<unk>	0
<s>	0
</s>	0
.	-3.33802
n	-3.81091
'	-4.08679
▁,	-4.17888
,	-4.19814
▁ve	-4.47418
▁	-4.64261
a	-4.6432
▁bir	-4.74467
e	-4.75599
k	-4.7968
▁"	-4.86752
i	-5.09752
▁'	-5.12538
da	-5.27122
nin	-5.30929
▁de	-5.37613
▁da	-5.4047
de	-5.41065
▁bu	-5.53618
nın	-5.5628
m	-5.57992
ın	-5.5864
ya	-5.60617
in	-5.67769
ı	-5.68111
▁için	-5.6867
ye	-5.7016
na	-5.73831
▁ile	-5.74912
lar	-5.81412
li	-5.87505
ler	-5.88434
ki	-5.89102
t	-5.89257
la	-5.9019
lı	-5.90726
r	-5.91634
ne	-5.91778
"	-5.92927
si	-5.98038
p	-6.02003
le	-6.0242
▁.	-6.04001
▁n	-6.0494
▁-	-6.09749
leri	-6.10433
ları	-6.13168
l	-6.13936
▁Türkiye	-6.16389
▁Bu	-6.17527
u	-6.20683
s	-6.22175
z	-6.24877
dan	-6.26688
den	-6.28659
nı	-6.2994
▁olarak	-6.30064
▁çok	-6.36016
te	-6.38477
▁(	-6.3859
ni	-6.38646
▁olan	-6.42675
ta	-6.43287
sı	-6.44811
▁en	-6.47152
:	-6.47466
▁ise	-6.47883
yle	-6.49133
yla	-6.51953
nda	-6.52181
▁daha	-6.52598
-	-6.54072
nde	-6.55914
▁ne	-6.56936
ma	-6.66833
lık	-6.67393
lik	-6.68486
▁A	-6.68727
▁ki	-6.68864
▁sonra	-6.70291
yı	-6.70504
)	-6.70905
un	-6.71559
ü	-6.76103
▁kadar	-6.76166
yi	-6.76348
▁gibi	-6.76804
▁K	-6.7793
er	-6.78228
▁bin	-6.78247
▁lar	-6.79392
ce	-6.81441
ca	-6.83056
▁var	-6.83182
▁o	-6.84836
▁göre	-6.85436
▁yer	-6.86178
▁olduğu	-6.86928
y	-6.87245
▁kişi	-6.88385
▁ya	-6.90531
▁yıl	-6.90721
en	-6.91869
me	-6.92469
di	-6.93655
▁S	-6.9428
▁her	-6.95548
▁dedi	-6.95637
▁olduğunu	-6.9627
▁3	-6.96894
▁ilk	-6.98974
ş	-6.99722
▁büyük	-7.01305
▁oldu	-7.02218
▁yeni	-7.02315
lerin	-7.02492
▁önce	-7.0329
▁2	-7.04446
▁ler	-7.05189
▁yüzde	-7.06122
?	-7.07311
f	-7.07319
nun	-7.07546
▁T	-7.08267
▁O	-7.08677
▁son	-7.09212
o	-7.10725
▁karşı	-7.10992
▁tarafında	-7.12256
▁diye	-7.12691
an	-7.1347
▁arasında	-7.14163
▁1	-7.14246
▁devam	-7.14271
ların	-7.1498
▁:	-7.15132
▁etti	-7.15284
▁iki	-7.17271
▁İstanbul	-7.20891
▁m	-7.21057
▁Türk	-7.22327
tı	-7.22918
sa	-7.23089
▁F	-7.24005
▁k	-7.24734
miz	-7.25175
ti	-7.25856
▁ardından	-7.25938
▁milyon	-7.25953
▁4	-7.26829
▁ilgili	-7.2696
▁yapılan	-7.27196
▁B	-7.27397
▁5	-7.28241
el	-7.28948
▁10	-7.30016
▁eden	-7.3014
▁terör	-7.30738
K	-7.30816
▁Bir	-7.31627
ğı	-7.31796
▁Başkanı	-7.31857
ri	-7.32074
▁iyi	-7.32144
▁...	-7.32146
rak	-7.32979
▁zaman	-7.33048
▁İ	-7.334
▁ları	-7.33473
dı	-7.33551
▁gün	-7.33823
▁değil	-7.34007
ç	-7.3463
al	-7.3546
lu	-7.36483
▁C	-7.37008
g	-7.37185
ra	-7.37252
▁söyledi	-7.37857
mız	-7.38851
▁önemli	-7.38868
h	-7.38985
▁gelen	-7.40694
▁leri	-7.41021
▁a	-7.41083
larını	-7.41363
▁Haberleri	-7.41425
▁ABD	-7.42287
▁D	-7.42834
▁iş	-7.4396
▁üzerinde	-7.44044
▁15	-7.44134
▁yaptığı	-7.44276
ndan	-7.44575
▁E	-7.45327
d	-7.45866
S	-7.46954
cı	-7.47637
▁6	-7.47748
▁e	-7.48176
▁ama	-7.48593
tan	-7.49305
re	-7.49454
v	-7.49922
ği	-7.50049
▁içinde	-7.5062
at	-7.5083
▁Ç	-7.51282
▁M	-7.51838
lerini	-7.52117
▁mi	-7.52256
▁Erdoğan	-7.5425
A	-7.54294
▁alan	-7.5446
lere	-7.55207
cak	-7.56226
ci	-7.56291
yor	-7.56497
▁G	-7.56937
daki	-7.57443
lara	-7.58127
▁bulunan	-7.58545
su	-7.59099
▁;	-7.59373
▁ifade	-7.60115
▁birlikte	-7.60835
▁Avrupa	-7.61263
▁sa	-7.61531
b	-7.61709
▁üzerine	-7.61715
deki	-7.62107
▁i	-7.62151
lama	-7.62222
▁geldi	-7.62311
▁Suriye	-7.6263
▁H	-7.62751
▁tüm	-7.63808
▁şekilde	-7.63868
▁fazla	-7.64015
se	-7.64597
um	-7.64871
▁konuştu	-7.65134
▁ülke	-7.65346
▁yok	-7.65462
lü	-7.65876
▁na	-7.66006
▁P	-7.66206
▁hem	-7.6737
ini	-7.67513
▁dünya	-7.68087
▁ay	-7.68097
uz	-7.68277
▁verdi	-7.68884
lığı	-7.69721
▁FETÖ	-7.69855
du	-7.70209
T	-7.70746
▁7	-7.71125
▁polis	-7.72122
▁tek	-7.72701
▁aynı	-7.72831
▁saat	-7.73088
1	-7.73143
▁2016	-7.73349
ten	-7.73442
▁Gazetesi	-7.73602
rken	-7.74691
▁kendi	-7.75074
cek	-7.75236
▁biz	-7.75426
larda	-7.75463
▁lerin	-7.75913
mış	-7.75988
im	-7.7602
nden	-7.76101
ır	-7.762
▁dolar	-7.76205
▁yaptı	-7.76338
▁8	-7.76506
D	-7.76733
ir	-7.76962
▁Cumhurbaşkanı	-7.76972
ması	-7.77666
▁süre	-7.77879
▁nedeni	-7.78104
ar	-7.7811
B	-7.78176
▁aldı	-7.78558
▁!	-7.78722
▁bugün	-7.79947
▁olmak	-7.8051
ün	-7.80705
▁diğer	-7.80915
▁hafta	-7.80982
▁Sa	-7.81209
▁dir	-7.8147
▁larını	-7.81501
sel	-7.81627
O	-7.82242
▁şey	-7.82277
▁olması	-7.82319
dir	-7.82429
▁yaşında	-7.82545
▁şu	-7.82617
lerde	-7.82641
ine	-7.82762
▁günü	-7.82858
▁an	-7.82877
▁20	-7.83344
rek	-7.83485
ur	-7.8358
▁olacak	-7.83598
▁para	-7.8389
▁doğru	-7.83961
▁ların	-7.84059
▁yapan	-7.84079
▁PKK	-7.84218
▁edildi	-7.84241
sını	-7.84336
▁)	-7.84598
▁üzere	-7.84804
▁kez	-7.86234
▁Genel	-7.86485
▁hava	-7.86613
0	-7.86668
▁karar	-7.86768
5	-7.87064
▁ni	-7.87111
7	-7.8731
▁Y	-7.87582
▁la	-7.87596
▁TL	-7.87769
▁çıktı	-7.87887
▁bile	-7.88109
▁darbe	-7.88196
▁Ankara	-7.8839
▁9	-7.88847
liği	-7.89094
▁ta	-7.89265
▁lira	-7.89296
dır	-7.89523
▁Fenerbahçe	-7.89561
▁edilen	-7.8957
▁Beşiktaş	-7.90026
▁mı	-7.90415
bi	-7.90465
▁biri	-7.90564
larında	-7.90589
ba	-7.90886
▁lerini	-7.90964
▁z	-7.91086
▁le	-7.91264
▁geçen	-7.92272
mi	-7.92717
▁özel	-7.9337
▁yılında	-7.93644
▁veya	-7.9387
▁12	-7.94256
M	-7.94275
­	-7.94374
lan	-7.94595
▁destek	-7.94982
▁yönelik	-7.95115
▁el	-7.95225
▁yol	-7.95322
▁Son	-7.95407
▁az	-7.95563
▁Rusya	-7.96309
▁görev	-7.96621
▁nin	-7.96647
▁Ancak	-7.96674
il	-7.96915
▁Galatasaray	-7.96949
▁bulundu	-7.97261
▁Spor	-7.97278
▁hakkında	-7.97326
sini	-7.98371
miş	-7.99052
▁sahip	-7.99438
inde	-7.9967
▁su	-7.99757
▁r	-7.99985
▁başladı	-8.00186
▁ediyor	-8.00237
nün	-8.00465
İ	-8.0062
▁neden	-8.00636
luk	-8.01134
siz	-8.01209
▁mücadele	-8.01225
▁bazı	-8.01304
▁başka	-8.01546
▁Ak	-8.01681
▁11	-8.01942
E	-8.02207
▁yerine	-8.02698
▁19	-8.02741
8	-8.0295
▁nı	-8.02971
▁bilgi	-8.03234
▁kararı	-8.03502
▁güvenlik	-8.03568
P	-8.03607
▁me	-8.03724
▁silah	-8.03754
▁Dünya	-8.03777
G	-8.03847
▁Ama	-8.04401
▁nasıl	-8.04489
▁milyar	-8.04647
▁farklı	-8.05517
▁şöyle	-8.05684
▁açık	-8.05871
▁te	-8.05886
▁sade	-8.05902
▁yle	-8.05941
▁yla	-8.06029
▁?	-8.06155
be	-8.06476
▁dikkat	-8.06588
▁Ay	-8.06835
▁p	-8.06837
çi	-8.07358
▁insan	-8.07517
cağı	-8.07556
3	-8.07642
▁Ha	-8.08003
▁yüksek	-8.08326
▁baş	-8.08412
▁söz	-8.0909
▁ekipleri	-8.09147
sına	-8.09605
2	-8.10028
rası	-8.1005
▁Temmuz	-8.10533
bilir	-8.1066
▁konusunda	-8.10781
ik	-8.10861
▁böyle	-8.11081
6	-8.11107
▁ye	-8.11243
▁dır	-8.11542
▁geri	-8.11624
ran	-8.12
dığı	-8.12051
üz	-8.12148
▁ortay	-8.12168
▁s	-8.12313
▁yakın	-8.12361
▁sıra	-8.12767
nu	-8.12894
4	-8.13092
▁nın	-8.13155
▁örgütü	-8.13194
▁Biz	-8.13398
man	-8.13422
▁Mehmet	-8.13784
▁li	-8.13863
▁Müdürlüğü	-8.13871
▁Me	-8.14035
▁açıklamada	-8.14244
▁kabul	-8.14395
▁lere	-8.14711
▁konu	-8.14718
▁miz	-8.1527
ay	-8.15469
j	-8.15647
lerle	-8.1663
▁dün	-8.16786
sinde	-8.16817
▁ettiği	-8.17045
mesi	-8.17165
ancak	-8.17365
çı	-8.17418
sız	-8.1751
C	-8.17699
▁eski	-8.17808
▁I	-8.17892
larla	-8.18139
kları	-8.18243
▁N	-8.1837
▁lara	-8.18537
▁altında	-8.18767
▁Bakanı	-8.18891
▁bulunduğu	-8.19109
▁yapı	-8.19244
▁18	-8.19512
ceği	-8.19529
▁ilişkin	-8.1958
▁başarı	-8.19714
sine	-8.19724
et	-8.20039
▁14	-8.20048
▁kapsamında	-8.2021
mak	-8.20895
▁30	-8.20991
▁dile	-8.21305
diği	-8.21509
ro	-8.2156
▁U	-8.21662
00	-8.21924
▁ma	-8.22073
▁Devlet	-8.22075
▁oğlu	-8.22083
▁uzun	-8.22258
▁haber	-8.22293
ıyor	-8.22548
▁13	-8.22633
▁16	-8.22829
▁yanı	-8.23003
Y	-8.23067
!	-8.23076
▁Ne	-8.2332
▁iç	-8.23556
▁Sözcü	-8.23611
▁kar	-8.23754
▁bölge	-8.24057
▁yaklaşı	-8.2408
▁Z	-8.24356
tır	-8.24362
▁kadın	-8.24651
▁üç	-8.24754
▁Bakanlığı	-8.24781
▁ceza	-8.25115
ö	-8.25321
▁belirte	-8.25458
yu	-8.25657
▁si	-8.25737
çok	-8.26082
sında	-8.26122
▁orta	-8.26147
▁takım	-8.26612
▁ev	-8.26837
▁rağmen	-8.26967
9	-8.27038
▁çalışma	-8.27055
▁şehit	-8.27064
▁hareket	-8.27371
▁meydan	-8.27415
hi	-8.27883
▁hale	-8.28043
▁ikinci	-8.28093
▁h	-8.28119
▁çıkan	-8.28122
▁saldırı	-8.28144
▁alınan	-8.28353
▁Ma	-8.28726
▁konusu	-8.28768
▁V	-8.29149
▁Kurulu	-8.29491
▁bütün	-8.2958
▁ait	-8.29901
▁devlet	-8.29971
▁Kara	-8.30017
▁di	-8.30039
▁olay	-8.30468
▁Yeni	-8.30489
▁aldığı	-8.30631
▁Ben	-8.30718
▁oyuncu	-8.31126
▁tespit	-8.31172
▁bağlı	-8.31296
▁gözaltın	-8.31471
▁Parti	-8.31639
▁Mahallesi	-8.31736
▁durum	-8.31755
lerinde	-8.32425
▁17	-8.33482
c	-8.33584
▁göz	-8.33778
▁sağ	-8.33951
▁açıklama	-8.34494
▁ara	-8.34709
▁zor	-8.3475
▁Başbakan	-8.34874
▁R	-8.35199
▁Ali	-8.35308
▁gol	-8.35327
nce	-8.35456
sal	-8.35595
▁Zaman	-8.3567
ğını	-8.35824
▁maç	-8.36162
zi	-8.36369
unu	-8.36737
▁hiçbir	-8.36821
va	-8.36854
▁iddia	-8.36868
R	-8.36884
▁Ö	-8.37057
▁ben	-8.37097
▁25	-8.37129
▁ele	-8.37256
▁sosyal	-8.37417
ken	-8.37443
on	-8.37547
cü	-8.37567
▁hiç	-8.37687
▁De	-8.37727
lo	-8.37834
▁burada	-8.37895
▁olma	-8.37915
▁bunu	-8.3796
▁etmek	-8.38158
ında	-8.38221
▁ekonomi	-8.38668
▁toplam	-8.3884
/	-8.38969
is	-8.38987
▁siz	-8.39334
▁kullandı	-8.39552
▁Öz	-8.39564
▁eğitim	-8.39718
▁alındı	-8.39752
ktan	-8.39754
▁Yıldırım	-8.39758
larına	-8.40062
▁soruşturma	-8.40073
▁Di	-8.40238
▁Her	-8.40284
tir	-8.40441
▁Se	-8.40558
▁hayat	-8.40676
▁Terör	-8.40691
▁yeniden	-8.40764
st	-8.40802
▁mu	-8.40854
▁eşi	-8.40961
U	-8.40979
▁üst	-8.41155
▁etme	-8.41384
it	-8.41466
▁verdiği	-8.41477
es	-8.41628
▁Dr	-8.417
▁Cumhuriyet	-8.41831
▁gece	-8.41841
▁olur	-8.41983
▁AB	-8.42244
▁Ya	-8.42249
▁yine	-8.42527
▁in	-8.42785
▁sezon	-8.42786
▁dakika	-8.42853
I	-8.42858
▁Mustafa	-8.42908
▁Ahme	-8.43236
▁bizim	-8.43405
ey	-8.43476
▁Başkan	-8.43617
▁den	-8.43733
as	-8.43913
▁kısa	-8.44084
▁tır	-8.44161
▁isim	-8.44192
▁50	-8.44538
▁Er	-8.44568
▁artık	-8.44693
▁içerisinde	-8.45041
▁Al	-8.45086
▁itibar	-8.45121
▁adet	-8.45156
▁El	-8.45171
▁sağlık	-8.45193
▁çocuk	-8.45212
▁Emniyet	-8.45502
▁En	-8.45609
▁tarihi	-8.45694
▁veren	-8.46027
▁anda	-8.46094
▁Bunun	-8.46399
ım	-8.46434
▁kaldı	-8.46453
us	-8.46468
▁ağır	-8.46599
▁genel	-8.46852
▁belirtti	-8.4687
H	-8.47255
▁kat	-8.47475
mek	-8.4751
ah	-8.4764
▁lerden	-8.47767
▁sonrası	-8.47996
▁savaş	-8.4854
▁belirtildi	-8.48719
nca	-8.48757
▁yardım	-8.4887
ru	-8.48952
▁tam	-8.48974
".	-8.49
▁güzel	-8.49073
iyle	-8.49174
▁hayatını	-8.49295
▁lı	-8.49349
Ş	-8.49359
▁eş	-8.49415
▁basın	-8.4954
;	-8.49628
▁top	-8.4964
▁mız	-8.49676
▁do	-8.49943
▁CHP	-8.49989
▁sonucu	-8.50025
▁tedavi	-8.50034
▁ayrı	-8.50129
▁yayın	-8.50367
▁larda	-8.50371
acak	-8.5078
▁Ta	-8.50851
▁suç	-8.5105
▁Lig	-8.5105
▁ayında	-8.51129
ul	-8.51452
tik	-8.51552
▁İl	-8.51727
▁Almanya	-8.52776
▁Milli	-8.52793
▁Büyük	-8.52918
ha	-8.52987
▁kontrol	-8.53195
▁100	-8.53447
▁imza	-8.53638
oğlu	-8.53761
▁sahibi	-8.54102
▁Ve	-8.54274
▁yana	-8.5428
▁sistemi	-8.54956
▁çalışan	-8.55102
iz	-8.55143
▁24	-8.55255
▁yaşanan	-8.55352
▁bomba	-8.55463
▁askeri	-8.555
Bu	-8.55904
▁aile	-8.56029
▁22	-8.56086
▁dışında	-8.56131
▁İlk	-8.56221
▁düzenlene	-8.56294
or	-8.56375
▁özellikle	-8.56468
▁şeklinde	-8.56593
▁21	-8.56613
▁dolayı	-8.56674
▁belirterek	-8.56729
▁du	-8.56733
▁dönemde	-8.56739
▁hedef	-8.56814
niz	-8.56853
▁mahkeme	-8.56874
ğini	-8.56902
▁yoğun	-8.57056
iyet	-8.57148
▁Na	-8.5778
▁bunun	-8.57847
▁ön	-8.57883
▁kız	-8.57891
▁sırasında	-8.57923
▁genç	-8.58129
▁teknik	-8.58228
tu	-8.58262
▁Üniversitesi	-8.58409
cu	-8.58414
han	-8.58431
iyor	-8.58509
▁il	-8.58699
▁kalan	-8.5889
▁hazır	-8.59002
sü	-8.59037
▁tanı	-8.59277
▁durumu	-8.59297
vi	-8.59305
w	-8.59342
▁Daha	-8.59381
klarını	-8.59541
▁tepki	-8.59595
▁AK	-8.59632
ladı	-8.5989
kan	-8.59985
▁sırada	-8.5999
lendi	-8.60413
▁Bo	-8.60419
▁kan	-8.60464
▁Şubat	-8.60557
ünkü	-8.60664
▁sayı	-8.60815
▁La	-8.61028
▁larında	-8.6103
▁tir	-8.61038
▁oluyor	-8.6108
▁sık	-8.61171
F	-8.61218
am	-8.61238
â	-8.61609
ko	-8.61638
▁Gül	-8.61698
▁terörist	-8.61887
▁siyasi	-8.62114
▁niz	-8.6223
▁dava	-8.62499
▁sayısı	-8.62577
▁gerçek	-8.62579
ve	-8.62671
▁başında	-8.62677
▁ter	-8.62833
▁larına	-8.62851
ğu	-8.6294
▁Can	-8.63099
▁kaydetti	-8.63229
▁onlar	-8.63281
luğu	-8.63325
▁proje	-8.63338
landı	-8.6344
▁İzmir	-8.63479
diğini	-8.63656
ol	-8.63751
▁amacı	-8.63764
▁geliyor	-8.63811
▁operasyon	-8.63902
▁sevk	-8.64026
▁edecek	-8.64138
▁olsun	-8.64157
▁ortak	-8.64492
▁gerekiyor	-8.64755
▁Ocak	-8.65132
▁Mi	-8.65163
▁yapılacak	-8.65255
▁nda	-8.65313
ğa	-8.65338
▁gerek	-8.65492
rma	-8.65527
▁se	-8.65638
▁çıkar	-8.65802
▁hizmet	-8.6589
...	-8.65929
ch	-8.6607
▁Olay	-8.66126
▁sı	-8.66162
▁Ra	-8.66192
▁ateş	-8.66198
▁öğrenildi	-8.66349
▁istedi	-8.66382
ber	-8.66455
to	-8.66491
▁ndan	-8.66708
▁yanında	-8.66728
L	-8.66843
▁örgüt	-8.67422
leme	-8.67653
▁40	-8.67688
ga	-8.67722
▁lerinde	-8.6796
▁önünde	-8.67982
▁olabilir	-8.68441
ilen	-8.68453
▁ko	-8.68575
▁at	-8.68615
▁oyun	-8.68653
▁yandan	-8.68711
suz	-8.68722
▁izin	-8.68732
▁verile	-8.68846
▁L	-8.68877
▁başlaya	-8.68971
▁ek	-8.69001
▁yi	-8.69207
▁ederek	-8.69257
▁2015	-8.69284
▁yolu	-8.6942
▁şimdi	-8.6948
▁0	-8.69543
▁Ba	-8.69652
ür	-8.69701
▁23	-8.69727
ünü	-8.70053
▁nden	-8.70078
▁boyun	-8.70146
lma	-8.70231
▁Re	-8.70342
dü	-8.70393
▁Mart	-8.70495
arak	-8.70729
▁Irak	-8.70738
lük	-8.70971
▁yazı	-8.71001
nız	-8.71144
▁gelecek	-8.71184
▁Amerika	-8.71199
▁geçti	-8.71509
▁altına	-8.71529
▁b	-8.71668
▁puan	-8.71875
ge	-8.71884
▁..	-8.72004
▁tamam	-8.72118
▁alma	-8.72218
▁medya	-8.72317
▁Polis	-8.7249
lanan	-8.7264
tma	-8.72694
▁alıyor	-8.72851
▁Haber	-8.72959
▁sene	-8.72965
▁akşam	-8.73017
▁dan	-8.73032
▁halinde	-8.73053
▁bulunuyor	-8.73072
▁tekrar	-8.73587
▁ciddi	-8.73664
▁bölgede	-8.7383
▁otomobil	-8.74259
▁ka	-8.74269
kten	-8.74379
az	-8.74407
▁Allah	-8.74439
▁yı	-8.74494
▁durumda	-8.7458
▁dakikada	-8.7459
▁Hastanesi	-8.74623
▁/	-8.74781
▁anne	-8.74841
▁ödeme	-8.74877
▁getirdi	-8.74898
ren	-8.7531
▁dışı	-8.75436
▁Be	-8.75557
do	-8.75894
▁kötü	-8.75993
▁W	-8.7603
▁öne	-8.7603
▁yatırım	-8.76053
▁yan	-8.76106
ecek	-8.7613
▁mümkün	-8.7623
▁spor	-8.76289
▁ilgi	-8.76519
▁tercih	-8.76555
▁Rus	-8.76613
▁Euro	-8.76637
asyon	-8.76748
▁tür	-8.76794
▁Bugün	-8.76804
▁bilir	-8.76835
sıyla	-8.76855
fa	-8.76948
▁Ayrıca	-8.76972
ör	-8.77349
▁gelir	-8.77405
▁araya	-8.77462
şi	-8.77507
▁benim	-8.77518
▁ekibi	-8.77538
▁mü	-8.77684
▁kamu	-8.77786
▁sabah	-8.77793
▁yapmak	-8.7781
▁Yılmaz	-8.77872
▁toplum	-8.77896
▁et	-8.77898
▁takip	-8.77921
▁edilmesi	-8.78004
▁parti	-8.78064
▁verildi	-8.78124
▁küçük	-8.78141
▁ana	-8.78191
▁olmadığını	-8.78199
▁kredi	-8.78281
ğ	-8.78309
▁Su	-8.7832
▁güçleri	-8.7834
▁satış	-8.78371
▁Aralık	-8.78374
▁yapma	-8.78443
▁zamanda	-8.78575
fi	-8.78703
▁derece	-8.78727
▁İran	-8.78744
▁hukuk	-8.78843
▁28	-8.78884
▁iz	-8.78917
▁ziyaret	-8.78917
▁dönem	-8.78962
▁sarı	-8.79064
▁ayı	-8.79083
V	-8.79127
▁sayıda	-8.79186
▁araç	-8.79205
▁nız	-8.79223
▁güçlü	-8.7926
▁al	-8.79279
os	-8.79381
▁gereken	-8.79435
▁can	-8.79486
▁vardı	-8.7961
ic	-8.79676
▁enerji	-8.79868
ed	-8.7992
▁gerektiğini	-8.80023
dığını	-8.80213
▁yüz	-8.8025
▁Trabzonspor	-8.80318
▁kimse	-8.80334
ter	-8.80341
▁t	-8.80372
▁girişimi	-8.80565
lması	-8.80763
▁ı	-8.80903
▁kaza	-8.80938
▁yapıyor	-8.8098
▁çalışmaları	-8.81057
▁mizi	-8.81124
▁faiz	-8.8116
▁soru	-8.81261
▁futbolcu	-8.81263
▁elde	-8.81287
▁uz	-8.81568
▁Ekonomi	-8.81625
▁Da	-8.8165
sinin	-8.81669
▁Ş	-8.81852
▁Diyarbakır	-8.81996
▁İşte	-8.82006
ça	-8.82096
▁hemen	-8.82451
▁mızı	-8.82544
AN	-8.82593
▁etki	-8.82808
▁`	-8.82998
▁adı	-8.83057
▁yorum	-8.83111
Ü	-8.83123
▁uygun	-8.83469
▁yön	-8.83471
▁maçı	-8.83509
ül	-8.83515
▁ifadelerini	-8.8363
▁diyor	-8.83882
▁f	-8.83923
▁gösteri	-8.83969
▁saha	-8.84193
▁saatlerinde	-8.84318
ıl	-8.84322
▁Ligi	-8.84356
▁tarih	-8.84509
hangi	-8.84511
▁serbest	-8.8461
▁şiddet	-8.84699
şunları	-8.8495
▁nokta	-8.84975
▁başına	-8.85096
kça	-8.85225
ndeki	-8.85233
▁Çin	-8.8525
muz	-8.85265
▁yaşayan	-8.85312
kü	-8.85355
▁gitti	-8.85383
▁anlaşma	-8.85641
liyor	-8.85674
mıyor	-8.85723
▁Gülen	-8.85738
layan	-8.85744
▁adam	-8.85796
▁Davutoğlu	-8.86034
▁açıkladı	-8.86273
▁Te	-8.86311
mızı	-8.86509
▁va	-8.86553
▁İki	-8.86637
▁u	-8.86834
ış	-8.86901
lıyor	-8.87131
▁arama	-8.87278
lim	-8.87296
▁tarihinde	-8.87297
▁sivil	-8.87303
▁şüpheli	-8.87526
▁Anadolu	-8.87841
▁yerinde	-8.88016
▁yasa	-8.8809
▁transfer	-8.88293
lanma	-8.883
N	-8.88397
çe	-8.8849
Ö	-8.88535
▁Şimdi	-8.88538
▁konuda	-8.88562
▁adına	-8.88569
▁yılın	-8.88611
muş	-8.88674
▁asker	-8.88742
▁ha	-8.88825
ık	-8.88891
▁Belediye	-8.89011
▁attı	-8.89028
▁uygulama	-8.89063
▁yaş	-8.89097
▁olmayan	-8.89172
▁yılda	-8.89179
▁kadro	-8.8921
tü	-8.89388
▁yılı	-8.89558
▁27	-8.8962
▁pazar	-8.89746
▁g	-8.89794
▁Deniz	-8.89955
▁resmi	-8.90055
▁fiyatı	-8.90122
▁karşısında	-8.90267
▁söyleyen	-8.90279
▁ileri	-8.90287
▁Antalya	-8.90324
rı	-8.9046
▁yapıldı	-8.90466
kleri	-8.90525
▁500	-8.90557
▁adlı	-8.90618
▁uluslara	-8.9062
▁herkes	-8.9062
▁edildiği	-8.90647
▁yabancı	-8.90802
▁Süper	-8.90803
▁cezası	-8.90858
▁),	-8.91083
▁anlattı	-8.91095
▁dı	-8.91263
▁kullanıla	-8.91316
teki	-8.91446
klerini	-8.91481
▁maçında	-8.9149
▁sistem	-8.91565
▁bunlar	-8.91613
▁acı	-8.9166
▁Eğitim	-8.91746
şehir	-8.91909
▁Do	-8.9192
go	-8.92002
▁Kar	-8.92031
miyor	-8.92043
▁orada	-8.92056
▁bana	-8.92302
▁Çok	-8.92303
▁Koç	-8.92355
dur	-8.92485
▁teslim	-8.92508
▁olmadığı	-8.92532
▁merkez	-8.92545
▁çekti	-8.92611
▁Pa	-8.92657
▁milli	-8.92805
▁Sarı	-8.92824
▁d	-8.92918
▁müdahale	-8.92945
▁Bil	-8.93037
▁ayrıca	-8.93056
▁fark	-8.93262
▁kolay	-8.93333
▁Tayyi	-8.93382
▁konuşa	-8.9341
ip	-8.93415
▁ücret	-8.93421
▁Sağlık	-8.93504
▁26	-8.93572
▁Rece	-8.9361
▁internet	-8.93753
▁Güvenli	-8.93759
▁Müdürü	-8.93882
▁işaret	-8.94049
▁re	-8.94173
▁belli	-8.94213
▁Bakan	-8.94298
▁İş	-8.94372
▁kalma	-8.94496
nü	-8.94498
▁fi	-8.94561
▁çıkma	-8.94591
▁zarar	-8.94703
maz	-8.94835
▁isteyen	-8.94867
▁yara	-8.94902
▁onun	-8.9499
▁Demir	-8.95051
▁maçta	-8.95072
▁29	-8.95099
▁hep	-8.95111
▁sonunda	-8.95114
cağız	-8.9513
▁arada	-8.95213
▁ettiğini	-8.95291
Z	-8.95329
▁teknoloji	-8.95352
▁taşı	-8.95404
▁kas	-8.9541
▁er	-8.9548
▁merkezi	-8.95994
▁Ni	-8.96002
▁ünlü	-8.96209
▁konuşma	-8.96302
▁yönetim	-8.96407
▁Ar	-8.96507
▁Yardımcısı	-8.96525
▁pek	-8.96576
▁Mahkemesi	-8.96613
▁insanlar	-8.96676
iş	-8.96964
▁temel	-8.97013
AR	-8.97074
▁kızı	-8.97181
sun	-8.97246
lanması	-8.97322
▁yerde	-8.97376
▁kim	-8.97496
▁ülkede	-8.97537
bo	-8.97569
▁Ro	-8.97595
▁ak	-8.98026
▁tartışma	-8.98033
▁Hava	-8.98088
▁Le	-8.98182
▁desteği	-8.9821
▁ilçesinde	-8.98279
▁girdi	-8.98297
▁beraber	-8.98328
▁Merkezi	-8.98403
▁Kemal	-8.98412
▁Şu	-8.98509
▁Dışişleri	-8.98822
▁Ü	-8.98836
▁biliyor	-8.98889
▁Birliği	-8.98919
▁piyasa	-8.98941
▁lazım	-8.99124
▁final	-8.99163
▁nde	-8.99211
▁yağ	-8.99311
Ç	-8.99329
meyen	-8.99441
▁onu	-8.99468
dece	-8.99496
▁dur	-8.99516
▁baskı	-8.99571
▁nedenle	-8.99634
▁alacak	-8.99695
lenen	-8.9983
▁dahil	-8.99846
x	-8.99855
▁Yönetim	-8.99948
▁demokrasi	-9.0015
▁HDP	-9.00357
▁telefon	-9.00502
▁geçtiği	-9.00563
▁cevap	-9.00668
▁Murat	-9.00679
▁sev	-9.00699
▁üyeleri	-9.00755
rt	-9.00951
id	-9.01039
▁olsa	-9.01063
▁larımız	-9.01153
▁Ceza	-9.01179
▁almak	-9.01273
▁grup	-9.01526
▁canlı	-9.01742
▁sak	-9.01835
▁Orta	-9.01835
▁Burada	-9.01854
▁talep	-9.01927
▁Fatih	-9.0213
ck	-9.02305
▁etmeye	-9.02365
co	-9.02389
▁alanı	-9.02389
▁azal	-9.02422
▁açı	-9.0252
▁Alman	-9.02777
▁Mo	-9.02848
▁İngiltere	-9.02975
▁İslam	-9.03006
▁ulaştı	-9.03024
▁tur	-9.03059
▁araştırma	-9.03067
mıştı	-9.0316
▁Trump	-9.03187
▁Nisan	-9.03199
▁kendisini	-9.03214
▁yaşadığı	-9.03264
▁üyesi	-9.03308
▁babası	-9.03372
▁savunma	-9.03381
▁sol	-9.03394
▁tehdit	-9.034
lenme	-9.03516
▁Atatürk	-9.03616
▁plan	-9.03747
ğe	-9.03753
▁kilo	-9.03758
▁sonrasında	-9.04074
▁forma	-9.04126
▁ydi	-9.04142
▁başta	-9.04197
▁kapı	-9.04199
▁başvuru	-9.04264
▁katkı	-9.04363
▁gündem	-9.04443
▁yapacak	-9.04485
▁ti	-9.04552
▁PYD	-9.04579
ret	-9.04695
▁kara	-9.0491
ad	-9.04919
ız	-9.04937
▁Aydın	-9.05017
erek	-9.0512
▁faaliyet	-9.05161
▁İlçesi	-9.05246
▁ediliyor	-9.05344
▁katıldı	-9.05372
▁Suriyeli	-9.05535
▁çeşitli	-9.05603
▁adım	-9.057
▁geç	-9.05941
▁sahne	-9.05992
▁IŞİD	-9.0621
▁Merkez	-9.0622
▁güç	-9.06271
▁deniz	-9.06448
▁DAEŞ	-9.06539
▁talebi	-9.06539
▁yaşam	-9.0668
▁Mü	-9.06697
▁Özel	-9.06702
▁kendisi	-9.06777
▁krizi	-9.06805
▁giden	-9.06963
▁verme	-9.0699
▁etmesi	-9.07004
tar	-9.07078
▁türlü	-9.07155
▁Prof	-9.07169
▁bildirildi	-9.07202
gi	-9.07246
▁önem	-9.07249
ğü	-9.07257
▁metre	-9.07313
▁veriyor	-9.07418
min	-9.07466
▁hen	-9.07489
▁hak	-9.07537
ğünü	-9.07538
▁sınır	-9.07643
mez	-9.07728
▁hasta	-9.07842
▁Mayıs	-9.07868
▁dair	-9.08001
▁Fransa	-9.08228
▁siyaset	-9.08298
▁veri	-9.0836
▁60	-9.08401
▁getiren	-9.08458
▁hızlı	-9.08481
▁kazandı	-9.08524
▁yargı	-9.08537
▁Ko	-9.0854
uk	-9.08555
▁açısında	-9.08683
▁ci	-9.08692
inci	-9.08696
▁zorunda	-9.08764
▁baba	-9.08895
▁yemek	-9.09184
▁oluşa	-9.09242
▁gösterdi	-9.09311
ist	-9.09339
ev	-9.09361
▁oy	-9.09572
),	-9.09669
▁kaybetti	-9.09683
he	-9.09699
▁onları	-9.09741
▁öncesi	-9.09789
mizi	-9.09848
▁ydı	-9.09857
▁engel	-9.09901
▁işlem	-9.10041
▁etkili	-9.10057
şa	-9.10139
▁inceleme	-9.10282
landığı	-9.10286
▁düştü	-9.10419
▁aralarında	-9.1043
▁elektrik	-9.10578
▁yurt	-9.10581
ze	-9.10658
gu	-9.10722
▁okul	-9.10741
▁yarın	-9.10744
▁çalışmalar	-9.10885
▁ş	-9.10906
▁sonu	-9.10911
▁Baş	-9.10961
▁net	-9.11046
▁çeken	-9.11048
▁tutuklandı	-9.11129
▁ata	-9.11166
▁din	-9.11287
▁değer	-9.11325
▁yönünde	-9.11471
▁banka	-9.11475
▁ses	-9.11548
▁gerekli	-9.11593
▁atan	-9.11693
▁Sayı	-9.11828
▁düşük	-9.1184
▁Ara	-9.11925
met	-9.11994
tör	-9.12022
▁Öte	-9.12035
▁hangi	-9.12055
▁toplantı	-9.12071
▁kilometre	-9.12077
▁aylık	-9.12162
▁döneminde	-9.12204
▁Kasım	-9.12428
▁bunları	-9.12549
▁giriş	-9.12572
▁tı	-9.12755
▁yönetimi	-9.12772
▁değerlendirme	-9.12867
▁sebebi	-9.12894
▁tahmin	-9.12894
▁yıldır	-9.12895
ıp	-9.12929
▁Meclis	-9.12938
ing	-9.13053
▁yolcu	-9.13199
rem	-9.13217
▁öyle	-9.13466
▁alanda	-9.13582
▁Kur	-9.13697
▁sebep	-9.13718
▁dört	-9.13836
▁Kal	-9.13854
yoruz	-9.13897
lmesi	-9.1397
ceğini	-9.14135
▁çalıştı	-9.14215
kar	-9.14294
▁sürekli	-9.14443
mı	-9.14447
▁hesap	-9.14606
▁Batı	-9.14673
▁önün	-9.14748
▁dış	-9.14771
▁geldiği	-9.1482
▁ten	-9.1493
▁yere	-9.15068
▁anlatan	-9.15155
▁giren	-9.15166
▁seçim	-9.15185
▁diyerek	-9.15212
▁çek	-9.15339
▁Kılıçdaroğlu	-9.15385
▁Sosyal	-9.15385
▁ölüm	-9.15425
▁güven	-9.15569
▁günlerde	-9.1558
▁um	-9.15611
▁edin	-9.15798
▁yardımcı	-9.15832
▁defa	-9.15839
bu	-9.1585
▁büyüme	-9.15956
▁Doğu	-9.16041
▁Halep	-9.16111
▁ba	-9.16115
▁31	-9.1617
▁hastane	-9.16197
▁artış	-9.164
▁ulaşa	-9.16475
▁konut	-9.16603
▁yazılı	-9.16627
▁l	-9.16703
▁ken	-9.168
▁kurum	-9.16909
▁yaşa	-9.16945
▁istediği	-9.17138
▁35	-9.17145
▁çı	-9.1715
▁Caddesi	-9.17156
▁Eylül	-9.17203
▁Anayasa	-9.17205
▁olup	-9.17208
▁anı	-9.17293
po	-9.17316
▁Adana	-9.1736
▁J	-9.17386
▁etkisi	-9.17454
▁emekli	-9.17618
▁Başkanlığı	-9.17624
▁anayasa	-9.17823
▁kapa	-9.17846
▁yani	-9.17906
▁bildirdi	-9.17944
▁biraz	-9.17949
laşı	-9.17952
▁Ekim	-9.1799
spor	-9.17995
▁kişiler	-9.18052
▁geniş	-9.18172
▁Van	-9.18186
▁İngiliz	-9.18187
▁beni	-9.18196
▁çözüm	-9.18422
yorum	-9.18435
▁dünyada	-9.1844
▁yapılması	-9.18453
▁görüle	-9.18677
▁köy	-9.18715
akat	-9.18717
▁kura	-9.18728
▁Ga	-9.1877
▁Yani	-9.18837
mayan	-9.1889
▁yarı	-9.18935
van	-9.19014
▁As	-9.19059
▁gerçekleştirile	-9.19104
Lİ	-9.19187
yon	-9.19346
tr	-9.1944
▁birkaç	-9.19532
▁üniversite	-9.19555
▁kır	-9.19635
▁Bunlar	-9.19659
mişti	-9.19681
▁rahat	-9.19968
▁teröristler	-9.19971
▁aracı	-9.19973
▁bizi	-9.19997
▁aça	-9.20046
▁ilan	-9.20135
▁45	-9.20205
ll	-9.20277
▁Fetullah	-9.20309
▁bekleniyor	-9.20315
▁Genç	-9.20332
▁1.	-9.20344
▁yaz	-9.20345
▁yük	-9.2035
▁Si	-9.2036
▁devre	-9.20455
▁çocuklar	-9.2061
▁altın	-9.20613
▁görüşme	-9.20731
▁vatandaşlar	-9.20776
bilecek	-9.20876
lım	-9.20967
▁lik	-9.21005
▁ç	-9.21034
▁dizi	-9.21045
▁Araştırma	-9.21069
▁Tüm	-9.21157
▁Güncel	-9.21197
▁takımı	-9.21271
ER	-9.21388
▁Belediyesi	-9.21468
aş	-9.21532
▁Özellikle	-9.21542
▁Örgütü	-9.21571
▁ca	-9.21668
▁değildir	-9.21673
▁ilçe	-9.21694
▁elinde	-9.21706
▁yanlış	-9.21803
▁ona	-9.2185
▁Der	-9.21919
▁Bizim	-9.22025
▁kaç	-9.22044
▁şirket	-9.22111
▁Tekni	-9.2216
▁başkan	-9.22208
▁Fi	-9.22249
▁kullandığı	-9.22252
▁hapis	-9.22341
▁sert	-9.22367
▁Nur	-9.22394
▁oyna	-9.22465
▁Dakika	-9.22478
▁kent	-9.22589
ladığı	-9.2261
▁işbirliği	-9.22618
▁70	-9.22673
▁ortada	-9.2273
▁yaralı	-9.22775
▁y	-9.22783
▁yaşama	-9.2282
▁lık	-9.22828
▁So	-9.23011
▁Ömer	-9.23011
▁sayesinde	-9.23125
▁patlama	-9.23158
▁Ca	-9.23192
▁annesi	-9.23218
▁sorun	-9.2323
▁başkanı	-9.23301
▁İsrail	-9.23385
▁kafa	-9.23572
▁Kürt	-9.23596
▁Grubu	-9.23645
▁operasyonu	-9.23712
▁şehir	-9.23713
▁DEAŞ	-9.23776
▁Bankası	-9.23818
▁buna	-9.23906
▁normal	-9.24037
▁öğretmen	-9.24122
▁çift	-9.24214
▁fa	-9.2429
EN	-9.2431
likle	-9.24348
▁sız	-9.24588
▁günde	-9.2462
▁eder	-9.24645
▁olmaz	-9.24657
▁karşılık	-9.24722
▁Futbol	-9.24807
▁edilme	-9.24964
ver	-9.25081
▁öz	-9.25097
▁Bar	-9.25244
▁üye	-9.25353
▁derin	-9.25372
▁vardır	-9.25409
▁bina	-9.25416
▁kayıt	-9.2554
▁2.	-9.25574
▁uzak	-9.25601
▁belediye	-9.25755
▁işi	-9.25813
▁hakim	-9.25818
▁alın	-9.25882
der	-9.25913
▁bekle	-9.25942
▁bilgiler	-9.25999
▁kaydedildi	-9.26021
▁Güneş	-9.26023
▁çi	-9.26024
▁Ev	-9.26038
▁millet	-9.26161
▁Vali	-9.26223
▁ölü	-9.26341
▁görme	-9.26346
▁takımın	-9.26525
▁Şa	-9.26545
lanmış	-9.26564
▁cins	-9.26604
▁fe	-9.26636
▁davet	-9.26651
▁belirlendi	-9.26754
▁futbol	-9.26932
son	-9.26944
▁İbrahim	-9.26961
▁Derneği	-9.26961
▁hakkı	-9.26989
▁günlük	-9.27212
▁beri	-9.27386
▁oranı	-9.27407
▁90	-9.27476
▁saygı	-9.27502
▁Haberler	-9.27502
▁belir	-9.27504
▁Li	-9.27584
▁etkisiz	-9.27631
▁Obama	-9.27638
▁kalp	-9.2771
▁yapıldığı	-9.27733
▁Ek	-9.27762
▁Kaya	-9.27798
▁hükümet	-9.28032
▁marka	-9.2808
▁altını	-9.28163
▁hata	-9.28188
madı	-9.28385
▁ailesi	-9.28475
▁arka	-9.28493
▁ediyorum	-9.28496
▁düzenleme	-9.28781
▁Kültür	-9.289
▁Eş	-9.28902
▁üretim	-9.28906
▁ekran	-9.28958
▁buldu	-9.29038
▁kendini	-9.29098
▁madde	-9.29176
▁kamera	-9.29252
▁sektör	-9.29359
▁çevre	-9.29441
▁görün	-9.29456
▁Bü	-9.29482
▁gider	-9.29482
▁yaralandı	-9.29506
▁Bey	-9.29579
▁mutlu	-9.29633
▁vergi	-9.29639
▁geçi	-9.29648
▁durumunda	-9.29687
▁emniyet	-9.29752
▁dik	-9.29757
▁To	-9.2991
▁asıl	-9.29929
▁ismi	-9.29983
ov	-9.30107
▁Hüseyin	-9.30112
▁3.	-9.30172
sunuz	-9.30174
▁Hasan	-9.30186
maktadır	-9.30195
▁der	-9.30221
▁risk	-9.30233
▁haberi	-9.30482
▁zaten	-9.30533
▁Söz	-9.30543
▁diyen	-9.30605
general	-9.30672
▁mahalle	-9.30769
▁Po	-9.30771
▁2014	-9.30808
▁Çelik	-9.30817
▁Bursa	-9.30891
▁bölgesinde	-9.31011
▁arta	-9.31034
▁uçak	-9.31207
▁duyu	-9.31271
▁masa	-9.31336
▁No	-9.31339
▁sanat	-9.3136
sın	-9.31377
▁teklif	-9.31494
lenmesi	-9.3157
▁yapımı	-9.31572
dik	-9.31598
▁hakem	-9.31653
▁MHP	-9.31655
▁Sokak	-9.31655
▁otel	-9.31797
▁ton	-9.31824
▁düzen	-9.31876
▁merak	-9.31903
▁uyarı	-9.31974
▁Geç	-9.31977
ütün	-9.31981
▁Gün	-9.31989
▁Ber	-9.32018
▁film	-9.32082
▁Kupası	-9.32115
▁açtı	-9.32135
▁Siz	-9.32183
▁kart	-9.32357
▁lideri	-9.32369
▁şeyi	-9.32391
ceğiz	-9.32517
▁patlayıcı	-9.32651
▁sonuç	-9.32756
▁Ala	-9.32783
▁süreci	-9.32827
▁sin	-9.33046
▁sanatçı	-9.33107
lanıyor	-9.33112
▁işçi	-9.33207
▁80	-9.33223
▁Bunu	-9.33279
▁gerekir	-9.33402
▁çalışıyor	-9.3343
san	-9.33456
▁Geçen	-9.33484
yü	-9.33501
▁Jandarma	-9.33653
iye	-9.33738
▁evin	-9.33768
▁söyle	-9.3379
▁ilçesi	-9.33809
▁gerekçesi	-9.33861
Türkiye	-9.34006
▁bölüm	-9.34024
▁fotoğraf	-9.34028
▁Bel	-9.3404
▁mal	-9.34045
▁ekip	-9.34079
▁petrol	-9.34087
▁başı	-9.34191
laşma	-9.34343
▁çıkıyor	-9.34377
▁evde	-9.34379
▁ça	-9.34389
▁2015'	-9.34554
▁Emre	-9.34556
▁halin	-9.34627
▁arkadaşı	-9.34634
▁Kendi	-9.34809
▁yıldız	-9.34849
▁cami	-9.349
▁ce	-9.34917
▁Hem	-9.34921
▁olumsuz	-9.34954
ağı	-9.34959
▁öğrenci	-9.34965
▁Co	-9.35022
▁yakalandı	-9.35131
▁rol	-9.35197
▁Hollanda	-9.35252
▁arttı	-9.35259
▁çocukları	-9.35285
▁Or	-9.35383
▁alarak	-9.35435
▁gösteren	-9.35472
▁Şube	-9.35483
▁taş	-9.35503
▁sun	-9.35703
▁kurulu	-9.35734
▁sona	-9.35804
▁programı	-9.35808
▁Peki	-9.35916
▁as	-9.35928
▁yetkilileri	-9.36127
▁Uluslara	-9.36135
▁mevcut	-9.36147
▁bit	-9.363
▁eylem	-9.36342
leyen	-9.36374
kte	-9.365
▁Ülke	-9.36588
▁hain	-9.36625
▁kol	-9.36661
▁boş	-9.36751
▁erken	-9.36791
▁Bay	-9.36811
fer	-9.36817
▁teşekkür	-9.36877
▁çatışma	-9.36899
▁hal	-9.37019
▁sınav	-9.37049
▁lider	-9.37075
▁düşen	-9.37095
▁aday	-9.37114
▁bağlantı	-9.37136
▁yangın	-9.37177
▁Gür	-9.37188
▁istiyor	-9.37203
tal	-9.37275
▁UEFA	-9.37325
▁yalnız	-9.37325
▁görüş	-9.37398
ez	-9.37414
▁topu	-9.3747
▁diş	-9.37495
▁BM	-9.37496
siniz	-9.37537
▁halk	-9.37589
lığa	-9.37634
▁attığı	-9.37711
▁yet	-9.37741
▁Gaziantep	-9.37764
▁sürdü	-9.38036
▁örnek	-9.38076
▁bağ	-9.38171
▁içi	-9.38229
▁gören	-9.3828
▁doktor	-9.3836
▁insanların	-9.38369
▁program	-9.38385
▁kal	-9.38433
▁belirlene	-9.38446
▁döne	-9.38524
▁Mücadele	-9.38529
leniyor	-9.38542
eri	-9.38546
▁sözleşme	-9.38554
▁bilim	-9.3857
▁yor	-9.38745
▁sürü	-9.38785
ES	-9.38874
▁arası	-9.38887
▁birinci	-9.38932
▁ödül	-9.38948
▁oyunu	-9.39102
▁gücü	-9.39148
▁süren	-9.39264
▁Ağustos	-9.39289
▁Sur	-9.39461
▁yapmaya	-9.39488
▁dolu	-9.39538
▁TV	-9.39565
mektedir	-9.39631
▁Kuvvetleri	-9.39697
▁savcı	-9.39721
▁olumlu	-9.39747
DI	-9.39828
▁geçmiş	-9.39832
▁kırmızı	-9.39832
▁sıkıntı	-9.3995
▁yıllarda	-9.39951
▁kuru	-9.40099
▁korku	-9.40226
br	-9.4027
▁plaka	-9.40338
▁erkek	-9.40355
▁karşılaşma	-9.404
▁kap	-9.40402
▁har	-9.40402
▁sergi	-9.40459
î	-9.40517
▁trafik	-9.40517
▁halkı	-9.40517
LE	-9.40535
▁yapılma	-9.40557
▁gazetesi	-9.40615
▁söylüyor	-9.40622
▁vermek	-9.40648
▁üçüncü	-9.40692
▁Milletvekili	-9.40738
▁sağlaya	-9.4075
▁sın	-9.40761
▁Kurumu	-9.40808
▁üretimi	-9.4083
▁ediyoruz	-9.40862
ledi	-9.40869
▁tan	-9.40875
▁döndü	-9.40925
▁200	-9.41115
▁Du	-9.41155
▁cı	-9.41247
▁Sonra	-9.41385
▁kültür	-9.41422
▁renk	-9.41423
▁evinde	-9.41448
▁Tur	-9.41498
▁nizi	-9.41532
UR	-9.41702
▁koruma	-9.41729
▁finans	-9.41858
▁bak	-9.41953
▁kaydede	-9.41979
▁sefer	-9.41984
▁Havalimanı	-9.42073
▁servis	-9.42389
nci	-9.42391
▁Pazar	-9.42398
▁Osman	-9.4243
▁baz	-9.42488
▁Hakan	-9.42499
▁Jo	-9.42663
sh	-9.42767
liğe	-9.42858
▁halkın	-9.4292
▁İnsan	-9.42926
▁açıklaması	-9.43033
▁galibiyet	-9.43035
▁sürede	-9.4308
▁yeri	-9.43179
ok	-9.43196
▁alınması	-9.43244
▁Böyle	-9.43317
yecek	-9.43347
ğunu	-9.43373
tif	-9.43406
▁doğu	-9.43411
▁karşıya	-9.43421
▁gazete	-9.43518
▁Ye	-9.43529
şan	-9.43654
▁Cumhuriyeti	-9.43663
müş	-9.4369
▁fırsat	-9.43742
▁varsa	-9.43866
▁lu	-9.43885
ürü	-9.43934
▁İsmail	-9.43973
▁Vi	-9.44099
abı	-9.44143
▁kur	-9.44176
▁ilişki	-9.44184
▁kaynak	-9.44258
▁Şahin	-9.44285
▁Dur	-9.44291
▁Doğan	-9.4443
▁mutlak	-9.44454
▁çağrı	-9.44471
▁civarında	-9.44502
üstü	-9.44539
▁yüksel	-9.44544
▁im	-9.44644
▁Ata	-9.44731
▁gidiyor	-9.44776
▁Başsavcılığı	-9.4479
sunda	-9.44812
▁New	-9.44839
▁Halk	-9.44914
▁parça	-9.44988
▁oda	-9.45063
▁olursa	-9.45088
▁Mu	-9.4509
▁verecek	-9.45108
▁Av	-9.45146
▁kitap	-9.45173
▁yıllar	-9.45186
evi	-9.45282
▁Kaza	-9.45286
▁Zira	-9.45425
ova	-9.45427
▁yasak	-9.45434
▁açıklamalar	-9.4544
▁getirildi	-9.45449
▁beş	-9.45479
▁bilme	-9.45611
▁mülteci	-9.45613
ici	-9.45616
▁ri	-9.45687
▁Haziran	-9.45748
▁İkinci	-9.45765
▁Bazı	-9.45912
▁sorunu	-9.45963
aj	-9.45984
▁barış	-9.46032
▁asla	-9.46119
▁bakım	-9.46157
leşme	-9.46175
▁vurgulaya	-9.46211
İN	-9.46274
▁sen	-9.4634
▁34	-9.46376
▁ince	-9.46392
▁alanında	-9.46409
▁iptal	-9.4641
AT	-9.46502
hatta	-9.4651
▁hali	-9.46516
▁görevi	-9.46529
▁Taş	-9.4653
▁yürütüle	-9.46565
▁tören	-9.46618
▁olacağını	-9.46625
MA	-9.46668
▁yaka	-9.46714
▁Eğ	-9.4673
ut	-9.46768
▁bel	-9.46801
AK	-9.46803
AL	-9.4687
▁Kan	-9.46875
LA	-9.46897
ılmış	-9.4711
▁Tabi	-9.47175
▁çalışması	-9.47183
▁örgütün	-9.47203
▁yaparak	-9.47247
▁müzik	-9.47249
▁arkasında	-9.47265
▁sürüyor	-9.47278
▁av	-9.47284
▁32	-9.47377
.30	-9.47422
▁gözü	-9.47458
▁yap	-9.4747
▁olacağı	-9.47475
▁lerimiz	-9.47543
▁Ja	-9.47561
▁İlçe	-9.47566
▁Je	-9.47613
▁geçiş	-9.47662
▁kanun	-9.47682
▁aslında	-9.4772
ji	-9.47794
gan	-9.47869
DE	-9.4792
▁Şen	-9.47969
ydi	-9.47994
▁Kulübü	-9.48052
▁endişe	-9.48053
▁300	-9.48179
▁2013	-9.48219
▁küresel	-9.48241
▁bırakma	-9.4825
▁düşüş	-9.48274
▁adamı	-9.48307
▁kadınlar	-9.48363
▁kayıp	-9.48395
▁başkanlı	-9.48409
▁huzur	-9.48554
▁numara	-9.48572
▁Diğer	-9.48574
▁açıla	-9.48595
▁istiyorum	-9.48612
▁çıkardı	-9.48715
▁gizli	-9.48721
▁Sen	-9.48727
ET	-9.48901
İL	-9.48916
▁neler	-9.48978
▁alt	-9.49035
bir	-9.49155
hane	-9.49175
DA	-9.49226
▁vatandaş	-9.49229
▁park	-9.49241
▁halde	-9.49254
▁sözleri	-9.4932
▁birbirin	-9.49321
▁öldü	-9.49422
▁gördü	-9.49425
▁kaybeden	-9.4946
▁şeyler	-9.49515
▁so	-9.49568
▁San	-9.49585
▁Eski	-9.49633
▁kanser	-9.49658
▁isimler	-9.49702
▁bırak	-9.49702
▁yaptıkları	-9.49749
▁Onlar	-9.49754
▁fiyat	-9.49774
▁ağ	-9.49776
▁Bak	-9.49836
▁bilecek	-9.49896
▁Komutanlığı	-9.49901
▁kaybı	-9.49997
▁ü	-9.5008
▁taşıyan	-9.50085
th	-9.50099
▁gelme	-9.50119
ON	-9.50137
let	-9.50145
▁Osmanlı	-9.50185
şma	-9.50228
▁Twitter	-9.50241
▁Güney	-9.50269
▁kulüp	-9.50291
▁sanayi	-9.50342
▁TBMM	-9.50411
▁çıkacak	-9.50412
▁genelinde	-9.5054
▁Genelkurmay	-9.50582
▁altı	-9.50638
lenmiş	-9.50684
▁Bölge	-9.5073
▁işlemleri	-9.50797
▁getirile	-9.50825
▁İyi	-9.50858
▁yazdı	-9.50881
Ben	-9.50901
▁büyü	-9.50945
▁Darbe	-9.51043
▁katılan	-9.51081
▁politika	-9.51081
▁Kuzey	-9.51096
▁Gökhan	-9.51112
▁önde	-9.51126
▁cenaze	-9.51137
▁denge	-9.51348
▁taraf	-9.51381
sta	-9.5146
▁ihtiyaç	-9.51504
medi	-9.51512
▁kardeşi	-9.51575
▁kullanma	-9.5164
▁operasyonda	-9.51663
▁vatandaşların	-9.51669
▁ölçü	-9.51697
▁kendisin	-9.51715
▁Cuma	-9.51791
▁çocuğu	-9.51794
▁aracın	-9.51812
▁katılma	-9.51864
▁Ege	-9.51921
▁inşa	-9.51937
▁sürücü	-9.51954
▁Ri	-9.5196
▁kaleci	-9.52021
▁düzey	-9.52063
if	-9.52082
taş	-9.52086
▁çıkış	-9.52099
▁oku	-9.5211
▁bilen	-9.52144
▁Benim	-9.52182
İM	-9.52203
▁kriz	-9.52237
▁devletin	-9.52286
▁çünkü	-9.52331
rme	-9.52348
▁ülkeler	-9.52367
▁gazeteci	-9.52443
▁yeterli	-9.52479
▁Sultan	-9.52828
▁kişilerin	-9.52905
▁Yunanistan	-9.53004
▁televizyon	-9.53061
▁zengin	-9.53177
res	-9.53218
▁gözaltı	-9.53231
▁ar	-9.53307
▁olmaya	-9.5332
tur	-9.53372
▁Konya	-9.53426
oto	-9.53488
▁man	-9.53535
yo	-9.53662
▁ülkelerin	-9.53683
▁gelişme	-9.53702
▁san	-9.53704
▁YPG	-9.53705
▁kupa	-9.53707
▁nızı	-9.53953
▁yasağı	-9.54074
▁Tan	-9.54111
▁Yar	-9.54138
▁­	-9.54162
▁es	-9.54192
▁istiyoruz	-9.54294
▁rapor	-9.54339
▁başlattı	-9.5434
▁farkı	-9.54443
▁Tek	-9.54479
▁kon	-9.54542
▁Anne	-9.54702
▁ifadesini	-9.54705
Gündem	-9.5474
▁Arena	-9.5478
▁yoktur	-9.54791
▁çoğu	-9.548
▁geçire	-9.54817
▁model	-9.54863
▁şirketi	-9.54868
▁temiz	-9.54935
▁hafif	-9.54946
▁geleceği	-9.54957
▁arkadaşları	-9.54961
▁kala	-9.54972
ot	-9.54998
▁koru	-9.55018
▁Şehit	-9.55095
▁sıralarında	-9.55099
dikleri	-9.55146
ğer	-9.55242
▁tutu	-9.5527
▁yavaş	-9.55303
▁ders	-9.55412
▁öğren	-9.55526
▁medyada	-9.55546
▁Aile	-9.55636
▁yönetici	-9.55669
▁gösteriyor	-9.55704
ho	-9.5588
▁uç	-9.55884
▁doğum	-9.5589
▁vermeye	-9.55964
▁Dün	-9.55987
▁etmiş	-9.56018
▁gitme	-9.56023
▁çerçevesinde	-9.56027
▁geldiğini	-9.5605
▁telefonu	-9.5615
▁satın	-9.56153
▁İtalya	-9.56165
▁Adalet	-9.56203
▁hayal	-9.56276
▁borç	-9.56322
▁duygu	-9.56335
İR	-9.56337
▁önümüzde	-9.56383
▁geçirdi	-9.56396
▁dönemi	-9.5643
▁fayda	-9.56449
▁turist	-9.56531
▁köprü	-9.56564
▁Ol	-9.56608
▁Yapılan	-9.56662
▁ö	-9.56662
▁duruşma	-9.56706
▁Suudi	-9.56746
yip	-9.5676
▁Gö	-9.56792
▁tatil	-9.56803
▁kaldırıldı	-9.56825
▁Kadın	-9.56832
▁tedavisi	-9.56847
YA	-9.56877
▁hız	-9.56885
▁vurdu	-9.56929
▁bölümü	-9.57192
▁eve	-9.57374
▁çe	-9.57477
beyazlı	-9.57684
İZ	-9.57709
▁v	-9.57717
acağı	-9.57727
▁dil	-9.57758
▁Lo	-9.57885
▁Kim	-9.57927
▁gaz	-9.58005
▁iddiası	-9.58124
▁c	-9.58286
▁ortalama	-9.58387
▁bilin	-9.58441
▁eğ	-9.5862
▁ada	-9.58736
▁Volkan	-9.58764
oloji	-9.58823
▁sorumlu	-9.58841
▁almaya	-9.58873
▁işte	-9.5891
▁İç	-9.5892
▁yaşadı	-9.59036
▁mış	-9.5904
▁sonucunda	-9.59052
▁hedefi	-9.59122
ron	-9.59156
▁iktidar	-9.59162
▁sahada	-9.59205
▁yüzden	-9.59217
lendiği	-9.5933
▁aşı	-9.59384
düğü	-9.59421
▁otobüs	-9.59447
▁bilgileri	-9.5949
▁prim	-9.59515
▁Altın	-9.59553
▁Es	-9.5956
▁görüntü	-9.5957
op	-9.59592
pol	-9.59594
taki	-9.59608
▁edilecek	-9.59695
▁muhalefet	-9.59695
▁Yeşil	-9.59696
▁ettikleri	-9.5973
▁ederken	-9.59732
▁lerde	-9.59764
▁AKP	-9.59785
▁maçın	-9.59855
▁Yüksek	-9.59869
▁Başbakanı	-9.59949
dık	-9.60032
ılan	-9.60055
▁Savunma	-9.6007
▁oran	-9.60071
▁kavga	-9.60075
▁ra	-9.60098
ydı	-9.60116
▁2017	-9.60267
▁Önce	-9.60317
çu	-9.60324
▁sağlıklı	-9.60369
▁dev	-9.60391
▁Şampiyon	-9.60459
▁görevli	-9.6048
▁katıldığı	-9.60577
▁yapar	-9.6059
tme	-9.60703
▁siniz	-9.60719
▁36	-9.60804
oz	-9.60822
▁Holding	-9.60824
▁video	-9.60825
▁tesis	-9.60851
ucu	-9.60859
▁direktör	-9.60906
▁biçim	-9.61014
▁75	-9.61017
▁imha	-9.61039
▁firma	-9.61059
▁öncesinde	-9.61098
şı	-9.61115
▁kaldığı	-9.61136
▁benzer	-9.61215
▁oynana	-9.61227
▁tutuklu	-9.61253
▁açıldı	-9.61265
▁örgütleri	-9.61298
▁yüzü	-9.61319
▁fiyatları	-9.61359
▁süreç	-9.61412
▁düşman	-9.61425
üzü	-9.6146
▁doğal	-9.6153
▁olmuş	-9.61565
▁sunuz	-9.6158
▁yakınları	-9.61592
▁olmadı	-9.61593
▁kurula	-9.61611
▁adliye	-9.61696
gül	-9.61698
▁olduklarını	-9.61699
▁şikayet	-9.61743
▁Mahkeme	-9.61757
▁mesaj	-9.61836
▁Kor	-9.61896
▁bekliyor	-9.6194
▁Ho	-9.61981
▁gerektiği	-9.61997
▁Yapı	-9.62094
▁ihtiyacı	-9.62106
▁belirtile	-9.62117
▁Çocuk	-9.62183
▁Ağır	-9.62185
▁Car	-9.62202
▁ilaç	-9.62242
▁aşağı	-9.62308
▁temas	-9.62328
▁mağdur	-9.6233
▁sürdürdü	-9.62382
▁aşırı	-9.62558
▁yapacağı	-9.62568
▁kimlik	-9.62637
▁dikkati	-9.62661
▁personel	-9.62663
▁vurguladı	-9.62673
▁Bal	-9.62689
▁gereği	-9.6274
▁yerli	-9.62768
▁çocukların	-9.62802
▁Tıp	-9.62803
▁mensupları	-9.62813
▁yalan	-9.62822
dar	-9.62917
leşti	-9.62989
▁sınız	-9.63085
▁başlayacak	-9.6309
▁ameliyat	-9.63117
▁evi	-9.63134
▁Wi	-9.6319
▁bulunduğunu	-9.63212
▁vurgu	-9.63272
▁2016'	-9.63343
▁çıktığı	-9.63347
▁rakam	-9.63421
▁dönemin	-9.63469
▁inan	-9.63523
▁Uzun	-9.63564
▁%	-9.63587
▁He	-9.63654
▁(2	-9.63688
▁denildi	-9.63691
▁tahliye	-9.63704
od	-9.63815
▁kardeş	-9.63865
▁Yıldız	-9.63899
▁Şırnak	-9.63899
▁bebek	-9.63899
lüğü	-9.63927
▁kesin	-9.63978
▁hızla	-9.64016
▁yıla	-9.64077
▁alıp	-9.64129
mon	-9.64188
▁maddesi	-9.64235
▁noktada	-9.64246
liğinde	-9.64278
▁getirme	-9.64308
▁ister	-9.64331
▁insanları	-9.64507
▁yaralanan	-9.64518
▁sıkı	-9.64568
ıcı	-9.64628
▁alması	-9.647
▁bölü	-9.64719
▁kurumları	-9.64742
lay	-9.64756
▁kira	-9.64773
▁açma	-9.6481
▁herkesi	-9.64872
▁bulutlu	-9.64879
▁hakaret	-9.64879
▁oynaya	-9.64883
▁olmasını	-9.64884
20	-9.64901
▁Arap	-9.64905
▁toplantısı	-9.64954
▁miktar	-9.64974
▁istediğini	-9.64994
▁güvenliği	-9.65008
▁Enerji	-9.65076
▁strateji	-9.65076
▁iletişim	-9.65076
▁ga	-9.65104
▁toplantısında	-9.65191
▁dosya	-9.65253
▁yaşamını	-9.65355
▁Kayseri	-9.65461
PDY	-9.65473
▁demek	-9.65476
▁adını	-9.65484
kal	-9.65528
▁vermesi	-9.65578
bileceği	-9.65747
▁Arda	-9.6576
▁sokağ	-9.65797
▁hükümeti	-9.65849
rse	-9.65857
▁Musul	-9.65876
▁biline	-9.65896
▁olun	-9.65904
Dİ	-9.65907
▁dönüş	-9.66052
ildi	-9.66061
▁nüfus	-9.66068
▁saldırısı	-9.66108
üncü	-9.66193
▁gelin	-9.66207
30	-9.66243
syon	-9.66245
▁Gök	-9.66289
▁düşünüyorum	-9.663
▁gönderildi	-9.66489
▁yerini	-9.66525
▁binler	-9.66536
par	-9.66602
▁hazırlana	-9.66606
▁öneri	-9.66639
▁33	-9.66739
▁öğrenciler	-9.66804
▁aşama	-9.66823
▁siyah	-9.66875
▁gecesi	-9.66886
▁skor	-9.66887
▁giye	-9.66957
üs	-9.66985
▁Böylece	-9.6701
▁bıraktı	-9.67034
▁uçağı	-9.67074
▁Direktörü	-9.67114
▁ez	-9.67184
▁Asya	-9.67277
Biz	-9.67298
▁hoca	-9.67347
müz	-9.6748
▁Sinan	-9.67495
▁bi	-9.67552
▁Yer	-9.676
▁Konu	-9.6764
▁istihdam	-9.67676
▁Putin	-9.67676
▁yazar	-9.67833
▁acil	-9.67889
▁dediği	-9.67926
▁getiri	-9.67945
▁şart	-9.67997
▁yaşandı	-9.68002
▁bildiri	-9.68018
AM	-9.68034
▁ifadeleri	-9.68093
▁hayvan	-9.68192
▁Kat	-9.6821
ans	-9.68213
▁anlamda	-9.68223
lent	-9.68231
▁milletin	-9.68272
▁Arabistan	-9.68286
▁uyum	-9.68359
▁uygulaması	-9.68363
▁Ze	-9.68414
▁taşıma	-9.68539
▁saç	-9.68548
▁saldırıda	-9.6861
▁belki	-9.68632
▁larımızı	-9.68643
▁üstün	-9.68648
▁Sanayi	-9.687
ından	-9.68717
başı	-9.68772
▁heyecan	-9.68799
▁Komisyonu	-9.68824
▁Kay	-9.68853
▁cep	-9.68865
▁Aziz	-9.68935
▁kuruş	-9.68937
▁alınma	-9.69
▁bakan	-9.69044
bilirsiniz	-9.69107
▁gidere	-9.69126
zar	-9.69217
▁kale	-9.69293
▁tecrübe	-9.69311
▁yapmış	-9.69331
▁anlamı	-9.69353
▁koya	-9.69452
▁göçmen	-9.69528
▁filmi	-9.69576
▁anlama	-9.69594
▁kendilerin	-9.6968
▁lerimizi	-9.69718
▁Sabah	-9.6974
▁mak	-9.69871
▁beyaz	-9.69913
`	-9.70014
▁sonuçları	-9.70136
▁meslek	-9.70138
▁gerçekleşti	-9.70138
▁tutma	-9.70163
▁yaptığını	-9.70225
mar	-9.70236
▁be	-9.7028
▁3'	-9.70455
▁65	-9.70459
▁onay	-9.70468
▁Apple	-9.70554
mer	-9.70676
▁gelmesi	-9.70685
▁Turan	-9.70693
▁oyuncusu	-9.70785
yim	-9.70841
▁kısmı	-9.70912
▁konuş	-9.70937
▁zanlı	-9.70974
ham	-9.70976
▁sinema	-9.71003
▁sizin	-9.71046
▁Ham	-9.71125
▁Başakşehir	-9.71182
▁seyahat	-9.71182
▁oldukları	-9.71254
▁Belçika	-9.71392
▁Mersin	-9.71392
▁Paris	-9.7141
▁Orman	-9.7145
▁Ser	-9.71489
▁pozisyon	-9.71518
▁liraya	-9.71566
▁Trabzon	-9.71592
▁dahi	-9.71595
▁Selçuk	-9.71602
▁kahraman	-9.71602
▁Grup	-9.71603
kaya	-9.71621
▁oynadığı	-9.71641
ban	-9.7165
▁itibarı	-9.71682
▁bek	-9.7173
▁Top	-9.71758
▁süreçte	-9.71817
▁isteme	-9.71839
▁temsil	-9.71842
▁Cumhurbaşkan	-9.71875
▁sürdüre	-9.71901
ld	-9.71906
▁adli	-9.71908
▁aklı	-9.71923
▁edeceğiz	-9.72177
▁değişiklik	-9.72198
▁uzman	-9.72235
▁iPhone	-9.72237
yum	-9.72244
▁şarkı	-9.72257
▁Beyaz	-9.72267
▁suçun	-9.72369
▁sınıf	-9.72384
▁ihracat	-9.7254
▁sahası	-9.72681
▁sayısını	-9.72694
▁dua	-9.72756
▁gelişmeler	-9.72819
▁Dolayısıyla	-9.72875
▁şeker	-9.72875
▁hala	-9.7293
acağını	-9.72945
▁açıklandı	-9.72954
▁verilme	-9.73017
▁sayılı	-9.73024
▁olayı	-9.73078
▁bo	-9.73079
TI	-9.73112
▁istihbarat	-9.73117
▁sıcak	-9.73128
▁bölümünde	-9.73301
▁sahte	-9.73304
▁hepsi	-9.73316
▁umut	-9.73326
layarak	-9.73329
duğu	-9.73351
▁yanıt	-9.73351
lacak	-9.7337
ize	-9.73371
▁gerçekleştirdi	-9.73447
▁tane	-9.73524
▁güncelleme	-9.73526
ket	-9.7353
dim	-9.73541
▁payı	-9.73569
▁bulunma	-9.73589
▁pat	-9.73594
▁raporu	-9.73634
▁kullanıcı	-9.73692
▁anlaşıl	-9.73742
▁art	-9.73789
▁Sanat	-9.73823
▁alındığı	-9.73843
tra	-9.73858
▁tehlike	-9.73895
▁Ortadoğu	-9.73948
▁geçirildi	-9.73962
▁sal	-9.7401
▁toprak	-9.74069
▁Ukrayna	-9.74164
ımı	-9.74174
▁çaba	-9.74284
▁hakları	-9.74313
▁Pi	-9.74333
▁yu	-9.74345
▁görüşü	-9.74436
▁mah	-9.74455
▁sağlamak	-9.74493
▁Har	-9.74549
▁edip	-9.746
▁duyurdu	-9.74608
IN	-9.74654
ton	-9.74673
▁özelliği	-9.74707
▁işin	-9.74827
▁akıllı	-9.74831
▁kapalı	-9.74858
▁projesi	-9.74979
▁bal	-9.74994
▁doğrultu	-9.75033
mo	-9.75097
▁tü	-9.75106
▁başlıyor	-9.75127
▁Müslüman	-9.7515
▁deplasman	-9.75158
▁şansı	-9.75191
▁ürün	-9.75286
▁yapılıyor	-9.75318
▁milletvekili	-9.75319
▁Takımı	-9.75387
▁Ku	-9.75482
▁Hayat	-9.75524
▁lığı	-9.75539
▁merkezinde	-9.7561
▁Madrid	-9.75689
▁uçuş	-9.75697
▁tamamladı	-9.7571
for	-9.75839
▁Albayrak	-9.75939
▁yüzünde	-9.76083
▁vatan	-9.76097
▁LAR	-9.7614
▁toplu	-9.76144
Bir	-9.7616
▁algı	-9.76279
▁Ana	-9.7629
▁cenazesi	-9.76297
▁Ter	-9.76348
▁Afrika	-9.7635
▁kararını	-9.76387
▁performansı	-9.76402
▁Mar	-9.76467
uş	-9.76494
EK	-9.76614
▁paylaştı	-9.76618
leyici	-9.76629
▁kampanya	-9.76654
var	-9.76721
▁Denizli	-9.76795
▁tablo	-9.76795
up	-9.76812
▁liği	-9.76844
▁Mil	-9.76896
▁Bilgi	-9.76909
▁Kır	-9.76923
dağ	-9.7698
▁birisi	-9.77007
▁Komutanı	-9.77015
ettin	-9.77047
▁kendilerini	-9.7716
▁göç	-9.77195
▁müşteri	-9.7729
▁2'	-9.77408
▁2012	-9.77479
▁girdiği	-9.77497
EL	-9.77591
▁Artı	-9.77597
▁lardı	-9.77608
▁tanım	-9.77623
bey	-9.77629
▁polisi	-9.77637
▁teşvik	-9.77685
▁2011	-9.77685
▁motor	-9.77692
▁örgütünü	-9.77697
▁Herkes	-9.77911
▁Öztürk	-9.77926
▁ayrıldı	-9.7793
▁kullanan	-9.77932
▁golü	-9.77995
▁kesi	-9.78003
▁gerçekte	-9.78005
▁soruşturması	-9.78005
▁gerçekleştire	-9.78014
mıza	-9.78032
▁55	-9.78104
▁şirketin	-9.78121
▁istifa	-9.78142
▁yükseldi	-9.78167
gen	-9.78253
tiğimiz	-9.78265
15	-9.78294
▁Uğur	-9.78359
▁Abdullah	-9.7836
LI	-9.78499
▁yiz	-9.78544
▁ihale	-9.78585
▁esas	-9.78881
▁kü	-9.78887
bar	-9.78914
▁sanık	-9.78917
▁tarafı	-9.78948
fet	-9.78985
▁araba	-9.78986
▁öde	-9.79033
▁Azerbaycan	-9.79037
▁intihar	-9.79037
▁Film	-9.79046
▁ettik	-9.79106
ester	-9.79153
▁kentinde	-9.79189
▁kay	-9.79326
▁başkenti	-9.79342
▁işlemi	-9.79447
ry	-9.7946
▁grubu	-9.79492
▁öğle	-9.79493
▁şok	-9.79511
▁beklenen	-9.79545
▁kullan	-9.79616
▁Binal	-9.79629
▁haberin	-9.79687
▁mez	-9.79783
▁modeli	-9.79793
▁sunu	-9.79794
▁görüyor	-9.79882
▁indirim	-9.79905
▁lig	-9.79932
tepe	-9.79969
▁un	-9.8001
uyor	-9.80063
▁mesajı	-9.80077
▁edilmiş	-9.80085
▁bileceği	-9.80116
▁yolda	-9.80142
▁meyve	-9.80179
▁götürüldü	-9.80187
▁kapsam	-9.80193
▁Fransız	-9.802
▁topla	-9.8021
fo	-9.80267
▁Sev	-9.80298
▁mali	-9.80299
▁çağrısı	-9.8032
▁Vakfı	-9.80409
▁dili	-9.80432
▁seviye	-9.8046
▁38	-9.80506
▁Var	-9.80515
▁kaynakları	-9.80515
▁Cem	-9.80556
▁37	-9.80564
▁olacaktır	-9.80603
▁test	-9.80609
▁sorgu	-9.8061
▁ticar	-9.80628
▁Fırat	-9.8064
▁Karadeniz	-9.8064
▁konser	-9.80641
▁deprem	-9.80642
▁koydu	-9.80677
▁Açık	-9.80707
▁gıda	-9.80728
▁don	-9.80733
▁suyu	-9.80838
▁sevgi	-9.80844
▁Moskova	-9.8087
▁Salih	-9.80875
▁dönüşüm	-9.80877
▁Turizm	-9.80879
▁çıkması	-9.8093
TA	-9.80938
▁MA	-9.80989
▁hisse	-9.81012
▁bilirsiniz	-9.81046
gar	-9.81049
▁Demokrat	-9.81102
▁sınırı	-9.81144
▁faaliyetleri	-9.81162
eh	-9.81177
▁operasyonlar	-9.81212
▁eli	-9.81226
▁gittiği	-9.81226
▁Federasyonu	-9.81334
▁bilgisayar	-9.81334
ırken	-9.81371
▁Koca	-9.81404
▁başladığı	-9.81554
▁başlatıla	-9.81566
▁bırakıldı	-9.81568
▁güneş	-9.81595
▁maz	-9.81599
▁kamp	-9.8161
▁Gi	-9.81643
▁verdiğini	-9.81682
▁buluştu	-9.8169
▁not	-9.81698
SA	-9.81764
▁olanlar	-9.81778
▁DE	-9.81784
▁kaynağı	-9.81802
▁kaçı	-9.81813
▁Medi	-9.81855
▁konuk	-9.81884
▁düzenlediği	-9.81935
▁değiştir	-9.81971
▁Şi	-9.82028
▁Ünlü	-9.82036
▁yaparken	-9.82064
▁adayı	-9.82124
▁içeri	-9.82183
▁birliği	-9.82189
▁uyu	-9.82197
▁dura	-9.82251
▁sürpriz	-9.82267
kritik	-9.8229
▁kullanımı	-9.82344
layıp	-9.82453
bet	-9.82459
▁aktara	-9.82462
▁kuş	-9.82477
▁Mardin	-9.82505
▁Bursaspor	-9.82519
▁tasarım	-9.82575
▁çarptı	-9.82598
▁TSK	-9.82668
▁çalıştığı	-9.82675
▁yaşandığı	-9.82698
▁sayfa	-9.8271
▁Ramazan	-9.82737
▁helikopter	-9.82737
▁gönderdi	-9.82784
▁gemi	-9.82802
▁ihtimali	-9.82847
▁eleştiri	-9.82889
▁kul	-9.82926
▁gördüğü	-9.82955
▁olağan	-9.82973
▁Ticaret	-9.82973
▁protesto	-9.82973
cılık	-9.82991
ılması	-9.82996
vo	-9.82997
UN	-9.83042
hat	-9.83062
▁KA	-9.83103
kırmızılı	-9.83106
lendirme	-9.83163
▁olayın	-9.83179
▁Facebook	-9.8321
▁yarar	-9.83214
▁makam	-9.83246
tür	-9.83269
▁Onun	-9.83284
▁(3	-9.83433
▁heyeti	-9.83549
▁görüşmeler	-9.8358
▁tu	-9.83607
OS	-9.83628
▁hastalığı	-9.83637
▁Yusuf	-9.83684
▁itiraz	-9.83684
▁İpek	-9.83684
▁Dündar	-9.83695
▁kuruluşları	-9.83698
▁güvenli	-9.83707
bay	-9.8372
▁hasar	-9.83726
▁verilmesi	-9.83779
▁turizm	-9.83781
▁düzenlendi	-9.83809
▁Et	-9.83822
▁yız	-9.83842
▁tarafta	-9.83912
▁avantaj	-9.83922
▁yarışma	-9.83925
leşmiş	-9.83935
▁geçici	-9.84028
▁yapması	-9.84035
▁sat	-9.84038
▁milletvekilleri	-9.84068
▁komşu	-9.84161
köy	-9.84168
▁kaçak	-9.84176
▁etkinlik	-9.84179
▁şehri	-9.84185
▁etmeyi	-9.84188
▁hazırlık	-9.8432
▁kazanan	-9.84344
▁39	-9.84377
▁oyuncular	-9.84402
▁denetim	-9.84402
▁ikili	-9.84403
▁alışveriş	-9.84408
▁İs	-9.84491
▁mo	-9.84518
▁takı	-9.84579
▁performans	-9.84583
▁kaybettiği	-9.84606
▁katı	-9.84627
▁York	-9.84642
▁AL	-9.84681
▁47	-9.84693
▁bağış	-9.84699
▁eksik	-9.84745
▁memuru	-9.84766
▁sitesinde	-9.848
▁dışarı	-9.84873
▁Özgür	-9.8488
▁yetkililer	-9.84898
J	-9.84898
ow	-9.84899
çişleri	-9.84911
▁değerli	-9.84985
izm	-9.85023
sanız	-9.8505
▁aldığını	-9.85118
▁tabi	-9.85119
▁devleti	-9.85248
▁şampiyon	-9.85307
▁Baba	-9.85307
▁hat	-9.85357
▁aykırı	-9.85363
▁batı	-9.85415
ss	-9.85456
▁Adli	-9.85518
▁görmek	-9.85548
sever	-9.85595
▁zayıf	-9.85605
▁Konseyi	-9.85605
▁yayınlana	-9.85623
▁400	-9.85626
▁yedi	-9.85694
▁ülkeleri	-9.8571
▁satışı	-9.85738
▁48	-9.85798
▁saatleri	-9.85837
▁beslenme	-9.85864
▁hastanede	-9.8588
▁üste	-9.86026
▁jandarma	-9.86091
▁ticaret	-9.86117
IR	-9.86122
▁inşaat	-9.86129
▁sorunları	-9.86173
▁izle	-9.86252
▁işler	-9.86294
▁karış	-9.86297
▁hesabında	-9.8636
landırma	-9.86373
▁çocuğun	-9.86389
▁ülkelerde	-9.86415
▁yarış	-9.86441
▁Man	-9.86467
▁unu	-9.86486
nızı	-9.86498
▁dönü	-9.8657
▁Küçük	-9.86579
▁Arslan	-9.8658
▁Muh	-9.86595
▁anlamın	-9.86716
▁araçlar	-9.86808
▁Akdeniz	-9.86825
▁fikir	-9.86827
▁fizik	-9.86832
▁hayatı	-9.86835
▁giri	-9.86853
▁paylaşım	-9.86875
▁kimliği	-9.86984
▁46	-9.86985
▁atma	-9.87004
▁Em	-9.87023
▁Açıklamada	-9.8707
▁euro	-9.87071
▁aktardı	-9.87104
▁tutuk	-9.87113
▁personeli	-9.87161
▁İspanya	-9.87166
▁Bilim	-9.87193
imizin	-9.87312
▁Süleyman	-9.87316
hir	-9.87399
▁Hal	-9.87446
▁bütçe	-9.87452
▁At	-9.87462
▁tık	-9.87484
paşa	-9.87597
▁ayak	-9.87648
▁alır	-9.87684
▁dar	-9.87744
▁Barcelona	-9.87811
sınız	-9.87817
▁yönetiminde	-9.87818
▁Bağ	-9.87821
▁mesele	-9.87839
▁arazi	-9.87926
▁eğitimi	-9.87983
▁bilet	-9.88028
layacak	-9.88047
▁çeyrek	-9.88059
▁Kartal	-9.88083
▁hattı	-9.881
▁gazeteciler	-9.88139
▁açtığı	-9.88221
▁taraftarı	-9.88244
▁mensubu	-9.88308
▁yeşil	-9.8831
▁Hatta	-9.88311
▁saldırılar	-9.88369
▁Bin	-9.88416
▁The	-9.885
▁müsabaka	-9.88531
▁çarpı	-9.88557
▁kurma	-9.88582
▁yapılmış	-9.88614
▁belge	-9.8865
▁demir	-9.88698
▁bombalı	-9.8875
▁görevlileri	-9.88762
▁kaya	-9.88774
▁Burak	-9.88793
▁Teknoloji	-9.88807
▁kurban	-9.88825
▁daire	-9.88884
▁buray	-9.88933
ydu	-9.88998
ıt	-9.89025
▁Yaklaşı	-9.89058
▁Kilis	-9.89059
▁dök	-9.8907
anak	-9.89088
▁ihlal	-9.89089
▁soğuk	-9.89092
▁hükümetin	-9.89145
▁yardımı	-9.89155
▁bitti	-9.893
▁pilot	-9.89314
▁AA	-9.89332
▁getirdiği	-9.89334
▁okuma	-9.89367
▁Gel	-9.89414
▁oranında	-9.89425
▁sizi	-9.89436
▁ila	-9.89459
▁şans	-9.895
▁Brezilya	-9.89561
▁fabrika	-9.89561
▁çizgi	-9.89561
cilik	-9.89565
▁kadının	-9.89567
▁yoruz	-9.89582
▁sağlığı	-9.89584
▁ayağı	-9.89609
▁binası	-9.89611
▁bölgesi	-9.89763
▁görüştü	-9.89808
▁Mari	-9.8981
▁köşe	-9.89813
▁kalması	-9.89815
▁kök	-9.89836
▁uğraş	-9.89844
▁etmişti	-9.8991
▁uygulana	-9.89937
▁tabii	-9.89951
▁görüldü	-9.89986
▁haberler	-9.90003
uncu	-9.90053
so	-9.90065
▁Roma	-9.90069
▁Kul	-9.90109
▁almış	-9.90149
▁Göz	-9.90162
▁Yıl	-9.90164
▁aralık	-9.90168
▁kor	-9.90186
▁kaldırı	-9.90197
▁şartları	-9.90315
▁antrenman	-9.9032
▁akıl	-9.90344
▁çıkarma	-9.90479
▁Cizre	-9.90575
âlâ	-9.90586
▁açıklamaları	-9.90602
▁teklifi	-9.90613
▁rakibi	-9.90615
▁Erdem	-9.90641
▁yakalama	-9.90659
▁oynama	-9.90685
▁kaldırıla	-9.90714
▁adres	-9.9073
▁Hükümet	-9.90744
AP	-9.90783
▁liradan	-9.90808
▁Yurt	-9.90833
▁bakma	-9.90835
▁Kısa	-9.90836
▁2010	-9.90854
▁işletme	-9.90855
▁planı	-9.90859
▁alım	-9.90863
▁kullana	-9.90876
▁geride	-9.90936
▁yeme	-9.90991
▁düşüne	-9.91053
▁yaptık	-9.91055
luyor	-9.91063
uru	-9.91103
▁Metin	-9.91105
▁çalışmalarını	-9.91199
▁düşünme	-9.91259
▁gö	-9.91335
▁komisyon	-9.91342
▁kaldırılması	-9.91374
▁ligde	-9.91477
▁Samsun	-9.91537
▁görüntüleri	-9.91562
▁rejimi	-9.91587
▁Brüksel	-9.91599
▁Çavuşoğlu	-9.91612
▁eşit	-9.91646
liğini	-9.91652
▁vereceği	-9.91658
W	-9.91667
▁birini	-9.9169
▁tank	-9.91724
tor	-9.91831
▁gitmek	-9.91852
▁Londra	-9.91857
mayacak	-9.92058
▁Kore	-9.92065
lanmıştı	-9.92071
▁yaşıyor	-9.92072
▁durdu	-9.92082
▁Çetin	-9.92111
▁mobil	-9.92116
▁ateşkes	-9.92118
▁tarım	-9.92121
▁bekleme	-9.92128
▁ayda	-9.92173
▁Bunları	-9.92189
▁Per	-9.92216
▁çıkara	-9.92241
▁dönme	-9.9227
▁hastalık	-9.92296
▁oluştura	-9.9236
▁futbolcular	-9.92361
▁Clinton	-9.92374
▁cesedi	-9.92375
▁Partisi	-9.92419
▁başlık	-9.92422
▁kayd	-9.92423
▁artması	-9.92434
▁insanı	-9.92445
▁Ant	-9.92489
▁sözlerini	-9.92626
▁davranış	-9.92634
▁Marmara	-9.92635
▁aracılığı	-9.92729
dy	-9.9278
ard	-9.92785
▁NATO	-9.92895
▁rahmet	-9.92895
fakat	-9.92957
▁Az	-9.92987
▁zamanı	-9.93006
▁düşünce	-9.93114
▁olaylar	-9.93115
▁zemin	-9.93158
▁kılı	-9.93165
▁saniye	-9.9318
▁Edin	-9.93185
▁kalem	-9.93197
▁çekiyor	-9.93222
▁Gu	-9.93235
▁noktası	-9.93242
lığını	-9.93286
▁196	-9.93357
▁fon	-9.93358
▁ist	-9.93389
▁tribün	-9.93417
▁vize	-9.93437
esef	-9.93445
▁boyu	-9.93505
▁dağıt	-9.93516
▁Takım	-9.93517
▁süt	-9.93525
▁sağlayacak	-9.93532
▁sana	-9.93569
▁150	-9.93621
▁Fakültesi	-9.9368
▁şirketler	-9.93681
▁çay	-9.93691
▁adalet	-9.93705
▁alacağı	-9.93717
▁Aşk	-9.93719
rah	-9.93721
▁daki	-9.93748
▁Af	-9.93822
▁düzenledi	-9.93839
▁nerede	-9.93888
▁izleye	-9.93922
▁itfaiye	-9.93943
▁ortamı	-9.93979
şem	-9.94024
hal	-9.94044
▁talimatı	-9.94048
▁depo	-9.94073
▁ayrıla	-9.94116
▁hatırla	-9.94122
▁bıraka	-9.94151
Kİ	-9.94167
▁5'	-9.94178
▁Kon	-9.94179
▁insanın	-9.94197
▁Merkel	-9.94207
▁Saldırı	-9.94207
▁parçası	-9.94219
▁kuruluşu	-9.94279
FETÖ	-9.94312
▁atıla	-9.94317
▁dini	-9.94396
▁gel	-9.94418
▁reklam	-9.94472
▁kurtarma	-9.94472
▁dedim	-9.94479
▁rekor	-9.94515
▁birimleri	-9.94565
▁Millet	-9.94566
▁uğr	-9.94615
▁izleme	-9.94631
▁davası	-9.94645
▁bol	-9.94655
▁miş	-9.94658
▁44	-9.94699
▁Çalışma	-9.94736
▁Şimşek	-9.94737
▁zorunlu	-9.94737
▁oynadı	-9.94846
istan	-9.94871
▁kuvvet	-9.949
▁Sel	-9.94932
sen	-9.94983
▁edeceği	-9.94987
▁malzeme	-9.94998
▁uyku	-9.95005
▁ilginç	-9.95007
▁bahs	-9.95037
▁Silahlı	-9.95107
▁anlatı	-9.95175
▁hizmeti	-9.95178
▁mücadelede	-9.95196
▁boyut	-9.95285
▁Esad	-9.95288
▁verir	-9.95323
▁Aslan	-9.95356
▁muz	-9.95384
▁kesim	-9.95417
▁DA	-9.95428
▁rakip	-9.9543
▁Hu	-9.95463
▁kartı	-9.95502
▁meselesi	-9.9551
▁gurur	-9.95537
▁ışık	-9.95549
▁men	-9.95559
▁kanalı	-9.9562
▁şifre	-9.95644
▁sinir	-9.95646
▁rahatsız	-9.95695
▁tedbir	-9.9577
▁4'	-9.95795
▁ihraç	-9.95805
▁cemaat	-9.95805
▁avukat	-9.95822
▁işleri	-9.95948
▁gerçekleşe	-9.9603
50	-9.96039
ub	-9.96058
▁Vodafone	-9.96074
▁biliyoruz	-9.96198
▁girişimini	-9.96242
▁Tuğ	-9.96254
▁pas	-9.96268
▁kış	-9.9632
▁temsilcileri	-9.9633
▁Portekiz	-9.96343
▁hediye	-9.96343
▁Yavuz	-9.96343
▁fuar	-9.96344
▁Ardında	-9.96349
▁ürünleri	-9.96407
▁is	-9.96412
OR	-9.96445
▁Emin	-9.96554
and	-9.96558
▁artışı	-9.96561
▁LER	-9.96565
ilmesi	-9.96566
▁yakında	-9.96618
▁Mal	-9.96656
▁lise	-9.9672
▁amaç	-9.96758
▁verilecek	-9.96771
ley	-9.96773
▁bar	-9.96831
▁geçirdiği	-9.96899
▁alınarak	-9.96919
▁mıyor	-9.96947
▁Büyükelçi	-9.97053
▁durma	-9.97084
▁endeksi	-9.97132
▁demokratik	-9.97164
▁Barış	-9.97187
▁maden	-9.9725
▁ku	-9.97276
▁idare	-9.97379
▁başlatıldı	-9.97429
▁Persie	-9.97431
▁gelmiş	-9.97436
▁yolunda	-9.97449
▁duvar	-9.97454
İT	-9.97537
▁birlik	-9.97585
▁açıklamasında	-9.9764
▁tavsiye	-9.97702
▁sigara	-9.97702
NA	-9.97754
▁belirledi	-9.97759
▁43	-9.97834
Ge	-9.97853
▁geçme	-9.97858
▁bil	-9.97902
▁kitabı	-9.97977
▁girme	-9.97996
▁sağlama	-9.98016
▁gide	-9.98068
▁doku	-9.98079
▁süresi	-9.98089
▁bulun	-9.98097
▁yayıl	-9.98143
▁Üç	-9.98165
▁haftasında	-9.98201
▁Beş	-9.98211
▁yöneticileri	-9.98239
▁nefes	-9.98253
▁yasal	-9.98294
LU	-9.98297
▁Gör	-9.98307
▁yağışı	-9.98308
▁sürecinde	-9.98342
süz	-9.98353
▁Mor	-9.98368
▁görevlisi	-9.98449
▁ayrılma	-9.98504
▁Stadı	-9.98528
▁aktif	-9.98549
▁seyirci	-9.98577
seniz	-9.98603
▁Washington	-9.98802
▁istismar	-9.98802
▁yürüyüş	-9.98802
AB	-9.98859
▁seri	-9.98877
▁Günü	-9.98946
▁ifadesi	-9.98959
▁taraftarları	-9.98962
▁eri	-9.98989
▁değerlendire	-9.99012
▁bildiği	-9.99016
▁çekme	-9.99019
▁mağlu	-9.99079
▁ilişkileri	-9.99083
leştirme	-9.9919
▁gösterme	-9.99338
▁Hukuk	-9.99357
▁kahve	-9.99357
▁Manisa	-9.99359
▁gram	-9.99375
▁Belediyespor	-9.99388
▁tuta	-9.99403
▁mezun	-9.99406
▁polisin	-9.99467
▁Alına	-9.99484
▁söylediği	-9.99528
▁Çanakkale	-9.99636
▁iddiaları	-9.99673
▁vuruş	-9.99711
ami	-9.99724
▁TIR	-9.99732
rat	-9.99763
▁Tam	-9.99769
▁rejim	-9.99787
İK	-9.9981
▁yetki	-9.99828
▁dalga	-9.99854
▁Muhammed	-9.99915
▁saldırgan	-9.99915
▁zam	-9.99954
▁tepe	-9.99975
▁hesabı	-10
▁alış	-10.0001
com	-10.0009
▁istikrar	-10.0013
▁duru	-10.0015
meyeceği	-10.0016
▁2014'	-10.002
vet	-10.0023
▁farkında	-10.0024
▁olayları	-10.0029
▁buluşa	-10.0029
▁sorunlar	-10.0034
▁sağladı	-10.0045
▁Mısır	-10.0048
▁Pereira	-10.0048
▁Konyaspor	-10.0049
▁Tü	-10.0052
▁değişikliği	-10.0055
yarak	-10.0056
▁kalbi	-10.0057
har	-10.007
▁kaçma	-10.0071
▁yerlerde	-10.0072
▁aldıkları	-10.0075
▁altyapı	-10.008
▁cinayet	-10.0081
▁temsilcisi	-10.0085
▁belirti	-10.0087
rd	-10.0088
Dk	-10.0093
ttin	-10.0095
▁zorlu	-10.0096
▁sözü	-10.0102
▁Güzel	-10.0104
▁metrekare	-10.0104
▁polisler	-10.0106
▁Berlin	-10.0106
▁tutuklana	-10.0106
▁2008	-10.011
gün	-10.0125
▁yaşlı	-10.0133
▁yağmur	-10.0134
▁kulübün	-10.0136
▁Pro	-10.0136
▁Hasta	-10.014
▁ambulans	-10.0141
▁ham	-10.0151
▁gerçekleştiril	-10.0155
▁öte	-10.0157
AZ	-10.0158
▁döviz	-10.0161
▁olduğumuz	-10.0166
▁kıs	-10.017
▁düşü	-10.0172
ciler	-10.0176
▁41	-10.0178
▁Hali	-10.0192
etti	-10.0194
▁dağ	-10.0195
▁bayrak	-10.0195
▁Türkmen	-10.0196
▁meş	-10.0198
▁kanıt	-10.0199
▁Çocuklar	-10.0199
▁Meclisi	-10.0207
▁Kanunu	-10.021
▁devr	-10.0216
altı	-10.0221
▁600	-10.0221
▁öldürdü	-10.0224
▁kullanarak	-10.0228
▁çıkarıla	-10.0236
▁tazminat	-10.0241
▁eğer	-10.0246
▁Yayın	-10.0249
▁üzeri	-10.0249
▁değiştirme	-10.025
▁Ordu	-10.0251
▁tamamı	-10.0262
▁geçerli	-10.0263
▁eyalet	-10.027
▁aldık	-10.0274
▁kıyı	-10.0276
▁saldırıları	-10.0276
▁saf	-10.0278
lediği	-10.0286
Tİ	-10.0289
zo	-10.0296
▁çevresinde	-10.0298
▁slogan	-10.0304
▁Işık	-10.0304
▁ser	-10.0306
▁sporcu	-10.0311
▁bulma	-10.0311
▁Gece	-10.0314
▁geçiyor	-10.0315
▁Bahçeli	-10.0319
▁yönetmen	-10.0324
▁koyma	-10.033
▁değeri	-10.0331
+	-10.0332
ÜR	-10.0336
▁Proje	-10.0336
▁Kılıç	-10.0362
▁alternatif	-10.0362
▁penaltı	-10.0362
▁etkin	-10.037
▁Kanun	-10.0371
▁Valiliği	-10.0377
▁olmalı	-10.0381
▁geçmesi	-10.0384
▁haftada	-10.0387
▁Kol	-10.0388
▁koşu	-10.039
▁sohbet	-10.0391
▁7'	-10.0391
▁1-0	-10.0391
▁hedefleri	-10.0395
▁Ön	-10.0396
?"	-10.0401
▁kaydı	-10.0406
▁kalın	-10.0409
▁Saray	-10.0409
▁isabet	-10.042
▁toprağa	-10.042
▁yükseliş	-10.0423
▁kazı	-10.0429
▁git	-10.0429
▁asist	-10.0435
▁mekan	-10.0437
ilmiş	-10.044
▁nöbet	-10.0441
▁bağımsız	-10.0442
▁bayrağı	-10.045
▁husus	-10.045
▁John	-10.045
neredeyse	-10.0452
▁söyleme	-10.0456
▁oynanacak	-10.0458
▁kontrolünde	-10.046
▁yaşadıkları	-10.0463
▁başlama	-10.0466
▁çatışmalar	-10.0469
▁Mark	-10.0471
yse	-10.0471
▁sektörü	-10.0474
▁Serdar	-10.048
▁başardı	-10.0481
▁ili	-10.0482
▁42	-10.0482
▁Fer	-10.0489
▁yöntem	-10.0491
▁zirve	-10.0505
▁koalisyon	-10.0508
▁uyuşturucu	-10.0508
▁kurtarı	-10.0509
▁Akhisar	-10.0509
▁ağırlık	-10.0512
▁tabanca	-10.0513
▁hastalıkları	-10.0516
dür	-10.0518
▁mezar	-10.052
yolu	-10.0521
gin	-10.0522
▁yakalana	-10.0522
▁tüketici	-10.0523
▁girmesi	-10.0529
lamıştı	-10.0529
▁mizde	-10.0531
▁başlar	-10.0535
▁it	-10.0535
▁rekabet	-10.0538
ünde	-10.0541
▁gire	-10.0552
▁kendileri	-10.0555
▁nedir	-10.0557
▁aş	-10.0558
▁sonuçlar	-10.0559
▁sigorta	-10.056
▁ziyareti	-10.0566
▁Yatırım	-10.0567
▁yaklaşım	-10.0568
▁beraberlik	-10.0568
▁Tut	-10.0572
▁bulunması	-10.0574
▁53	-10.0578
▁SA	-10.0581
▁almıştı	-10.0584
▁Kap	-10.0584
▁Gen	-10.059
▁olabileceği	-10.0594
▁bileceğini	-10.0597
▁ge	-10.0603
net	-10.0604
▁madd	-10.0606
▁Oyun	-10.0607
▁kaldırma	-10.061
▁besle	-10.0615
▁avukatı	-10.0618
▁kaybed	-10.0619
▁toplana	-10.0627
▁olmayı	-10.0628
▁doğa	-10.0629
▁maruz	-10.063
▁yürü	-10.063
▁alınacak	-10.0631
▁sınırları	-10.0634
▁hatır	-10.0641
▁hücre	-10.0644
▁Kamu	-10.0657
▁kurdu	-10.0658
▁paralel	-10.0658
▁bekleyen	-10.0659
▁değerlendirmesi	-10.0665
▁olmayacak	-10.0666
EM	-10.0667
▁otur	-10.0669
▁verici	-10.0672
▁turu	-10.0673
▁Onur	-10.0673
▁damar	-10.0674
▁Şanlıurfa	-10.0678
▁Türkçe	-10.0682
▁günler	-10.0691
▁içere	-10.0705
▁paket	-10.0705
▁geçirile	-10.0706
▁sistemini	-10.071
▁yatırımları	-10.0712
▁doğalgaz	-10.0716
▁Çevre	-10.0716
▁Özbek	-10.0717
▁fotoğrafı	-10.0721
▁MİT	-10.0723
▁olurken	-10.0729
türk	-10.0735
eysel	-10.0736
▁şirketlerin	-10.0737
▁itiraf	-10.0747
▁bayram	-10.0747
▁yaşı	-10.0747
▁Köprüsü	-10.0747
▁4.5	-10.0749
▁tuttu	-10.0757
▁Kız	-10.0764
▁aktar	-10.0764
▁gü	-10.0766
▁geçirme	-10.0766
▁aşkın	-10.0769
▁gül	-10.0773
▁1'	-10.0794
▁düzenleye	-10.0798
▁hane	-10.08
▁Erzurum	-10.0807
▁Örneğin	-10.0807
▁sermaye	-10.0807
cik	-10.0812
▁sorumluluk	-10.0813
▁Orhan	-10.0817
▁üstünde	-10.0817
ger	-10.082
▁artıra	-10.0828
▁düş	-10.0829
▁11'	-10.083
nşallah	-10.0832
▁kazana	-10.0837
▁Google	-10.0837
▁sını	-10.0842
▁şartı	-10.0845
▁kimi	-10.0849
▁49	-10.085
bank	-10.0853
▁şekil	-10.0854
▁sü	-10.0857
▁gelişi	-10.0857
▁Eren	-10.0861
yım	-10.0862
▁açılışı	-10.0863
▁bahçe	-10.0865
şen	-10.0867
▁oyuncuları	-10.0876
▁mıza	-10.0876
▁suna	-10.0879
▁deneyim	-10.088
▁koyu	-10.0885
▁tipi	-10.0886
▁250	-10.0893
▁anlam	-10.0893
▁kıyafet	-10.0899
▁meclis	-10.0899
▁CEO	-10.0899
▁derbi	-10.0902
laştı	-10.0903
▁izni	-10.0906
▁olmuştu	-10.0906
▁oturan	-10.0909
▁Sır	-10.091
▁kanseri	-10.0912
▁Yaş	-10.0917
▁düşünüyor	-10.092
rit	-10.092
bat	-10.0924
▁beyan	-10.0925
▁istemi	-10.0927
▁Lu	-10.0927
▁Cumartesi	-10.0929
▁bozu	-10.0929
▁Oysa	-10.0929
▁!..	-10.0934
▁ağrı	-10.0935
▁hızı	-10.0941
▁ilişkiler	-10.0943
▁Sey	-10.0943
▁Orada	-10.0945
öz	-10.095
▁kuzey	-10.0953
▁ulaşım	-10.0954
Bahçe	-10.0957
demir	-10.0959
▁yönde	-10.096
▁fatura	-10.096
▁bulan	-10.0961
▁Manch	-10.0962
▁tarihleri	-10.0963
şar	-10.0965
▁Kent	-10.0966
▁katılım	-10.0973
▁Alp	-10.0976
▁törenin	-10.0979
▁alanları	-10.0989
▁belirtiliyor	-10.0992
▁getir	-10.0996
▁olayda	-10.1001
▁istedikleri	-10.1006
tıcı	-10.1008
▁canı	-10.1016
▁Uzman	-10.1016
▁sektöründe	-10.1018
▁suçu	-10.102
▁TE	-10.102
▁Güven	-10.1022
▁tip	-10.1024
▁Ver	-10.1042
▁yaşanma	-10.1045
▁gösterdiği	-10.1049
▁aşk	-10.1052
▁müze	-10.1053
▁Çarşamba	-10.1053
▁vicdan	-10.1053
▁görülüyor	-10.1053
▁gelip	-10.1055
▁Oyuncu	-10.1055
▁hay	-10.1062
▁ihracatı	-10.1067
▁çıkarıldı	-10.107
▁Hoca	-10.1071
▁sorularını	-10.1077
▁olmaması	-10.1078
▁bedeli	-10.1079
▁yoktu	-10.108
▁düşündü	-10.1084
▁havalimanı	-10.1084
▁Şehir	-10.1084
şim	-10.109
▁gezi	-10.1094
▁sığınmacı	-10.1095
▁özellikleri	-10.1101
diğimiz	-10.1103
▁Go	-10.1103
kçe	-10.1104
▁Tolga	-10.1115
▁işgal	-10.1122
▁gönderme	-10.1125
▁gördük	-10.1129
▁ol	-10.1134
▁Savaş	-10.1141
▁Perşembe	-10.1147
▁toplumun	-10.1147
▁ölen	-10.1149
mediği	-10.1152
▁engelleme	-10.1153
▁görüyoruz	-10.1154
▁vura	-10.1158
▁sağlıyor	-10.1158
▁değerleri	-10.1164
NE	-10.1167
▁bağı	-10.1171
biliyor	-10.1174
▁dijital	-10.1178
▁gidip	-10.1178
▁İnşaat	-10.1178
▁gruplar	-10.1179
▁psikoloji	-10.1181
▁gidecek	-10.1183
▁has	-10.1184
▁kariyeri	-10.1184
▁Para	-10.1192
▁pro	-10.1195
▁ülkeyi	-10.12
▁kaçan	-10.1203
▁eylemi	-10.1204
▁isimlerin	-10.1207
▁yukarı	-10.121
▁örneği	-10.121
▁Kale	-10.121
▁öldürme	-10.1212
▁Tarım	-10.1212
▁yıldızı	-10.1217
▁Avcı	-10.1221
▁medi	-10.1225
▁üstü	-10.1227
▁56	-10.123
▁düzenli	-10.1232
▁noktasında	-10.1234
▁olmuştur	-10.1238
▁kongre	-10.1241
▁hamile	-10.1242
YE	-10.1242
▁gönderile	-10.1244
▁duyma	-10.1244
▁yım	-10.1252
▁taksi	-10.1259
▁Fran	-10.1262
▁lü	-10.1263
lenir	-10.1264
▁Sar	-10.1265
▁partisi	-10.1265
▁Öyle	-10.1267
▁dık	-10.1271
▁kelime	-10.1273
▁değişim	-10.1274
▁erkekler	-10.1275
▁vererek	-10.1275
▁yim	-10.1279
▁kararları	-10.128
▁soruları	-10.1284
▁kadınların	-10.1288
▁zorla	-10.1288
▁girişim	-10.129
▁talimat	-10.1292
ulh	-10.1298
baş	-10.13
▁Gazete	-10.1301
yiz	-10.1301
▁Kıbrıs	-10.1305
▁ruh	-10.1307
▁YA	-10.1309
bü	-10.1311
▁yaşaya	-10.1314
▁bildi	-10.1321
▁ine	-10.1326
▁Kadıköy	-10.1337
▁tartışı	-10.1337
▁geliştirme	-10.1338
▁ülkemizi	-10.1338
▁vali	-10.1341
▁yüksele	-10.1342
▁tutuklama	-10.1343
leşik	-10.1348
▁59	-10.1349
▁engelli	-10.1352
▁ortasında	-10.1353
▁ordu	-10.1354
▁vücudun	-10.1355
▁emin	-10.1361
▁liste	-10.1362
▁idar	-10.1363
▁adımlar	-10.1365
▁Şirket	-10.1367
▁eylemleri	-10.1368
▁hekim	-10.1369
▁Niha	-10.138
▁Selim	-10.1383
▁detay	-10.1384
▁anlaşması	-10.139
▁sitesi	-10.1392
▁vi	-10.14
bilmek	-10.1401
▁taraftarlar	-10.1404
▁karıştı	-10.1405
▁bakış	-10.1405
▁xx	-10.1406
▁78	-10.1406
▁müt	-10.1407
▁Karar	-10.1408
▁imkanı	-10.141
▁görüntüler	-10.1419
▁Bab	-10.1421
▁İnan	-10.1423
▁ması	-10.1424
▁yakaladı	-10.1426
ovic	-10.143
▁kesinlik	-10.1432
▁şaşır	-10.1433
▁Yargıtay	-10.1433
▁Hafta	-10.1433
▁Basın	-10.1436
▁Demirtaş	-10.1436
CE	-10.144
▁müz	-10.1441
tim	-10.1444
▁yarım	-10.1447
çü	-10.1447
▁halka	-10.1452
▁kalka	-10.1458
▁üretici	-10.1459
▁pazarı	-10.146
▁açılması	-10.1465
▁yapacağız	-10.1465
▁İddia	-10.1466
▁gayret	-10.1466
▁Gümüş	-10.1466
▁54	-10.1467
▁kurşun	-10.1468
▁Tar	-10.147
▁haberleri	-10.1472
▁kere	-10.1472
ayet	-10.1473
▁şüpheliler	-10.1474
▁seyr	-10.1475
ksiyon	-10.1477
▁1.5	-10.1478
▁ip	-10.1479
▁tanık	-10.148
▁4-	-10.1483
▁görevini	-10.1486
▁şirketleri	-10.1489
▁Meydanı	-10.1496
▁aç	-10.1496
▁tiyatro	-10.1498
▁öğrencisi	-10.1503
▁2009	-10.1503
▁anlatıyor	-10.1506
▁kod	-10.1516
▁yürüte	-10.1522
▁sö	-10.1522
▁Real	-10.1526
malıdır	-10.1527
▁Hami	-10.153
▁komuta	-10.153
▁Okul	-10.153
▁Kerim	-10.1531
▁Ünal	-10.1533
Dünya	-10.1533
▁Usta	-10.1536
▁bas	-10.154
▁malı	-10.1547
▁85	-10.1551
▁dizisi	-10.1551
▁sanız	-10.1553
kut	-10.1554
▁bulunu	-10.1559
▁öğrencileri	-10.1564
▁töreni	-10.1566
▁Dursun	-10.1566
▁basit	-10.1566
▁anlatma	-10.1569
▁Şeno	-10.157
▁Zat	-10.157
▁koca	-10.1578
▁memur	-10.1582
▁Kad	-10.1586
▁Hürriyet	-10.1596
▁THY	-10.1596
▁Çakır	-10.1596
▁reform	-10.1596
▁City	-10.1596
muyor	-10.1597
▁ürete	-10.1597
▁icra	-10.1598
▁Gar	-10.1599
rılması	-10.1602
▁kişisel	-10.1605
▁dığı	-10.1607
▁ekledi	-10.1617
▁gözlem	-10.1621
▁112	-10.1627
▁İsveç	-10.1629
▁usta	-10.1633
▁Sü	-10.1636
▁grubun	-10.1636
▁teröristleri	-10.1637
▁sağlanması	-10.1637
▁haksız	-10.1638
▁çekile	-10.1639
▁sokaklar	-10.1645
▁ücreti	-10.1645
▁yayımlana	-10.1649
▁rast	-10.1649
▁görülme	-10.165
▁başlaması	-10.1652
▁yapıyoruz	-10.1655
▁hamle	-10.1659
▁Soruşturma	-10.1662
▁Suçlar	-10.1664
▁Mahmut	-10.1668
ano	-10.1669
-3	-10.1681
▁üreti	-10.1684
▁meme	-10.1688
▁AN	-10.169
lardır	-10.1698
▁yönetme	-10.1698
▁şiş	-10.1701
▁evlilik	-10.1705
▁site	-10.1708
▁kalıyor	-10.1712
▁isten	-10.1714
lmış	-10.1719
▁gelenek	-10.1723
▁iade	-10.1725
▁Dış	-10.1725
ong	-10.1726
▁ekonomisi	-10.1728
▁taciz	-10.1729
▁kitle	-10.173
▁yüzyıl	-10.1731
▁66	-10.174
▁ölümü	-10.174
▁Maç	-10.1743
▁vermiş	-10.1746
▁hizmetleri	-10.1754
▁olası	-10.1754
▁yöntemi	-10.1754
ang	-10.1761
▁misafir	-10.1762
▁balık	-10.1765
▁kullanıyor	-10.1768
▁diz	-10.1773
▁vuru	-10.1779
laştırma	-10.1784
▁yarışı	-10.1791
▁transferi	-10.1797
▁Umut	-10.1797
▁hatırlata	-10.1801
▁beden	-10.1808
▁eser	-10.1809
▁sek	-10.1815
▁ayakta	-10.1817
▁yoksa	-10.1821
▁önlemleri	-10.1821
▁bay	-10.1824
▁memnun	-10.1827
▁zafer	-10.1829
▁ağaç	-10.1829
▁roman	-10.1829
▁biliriz	-10.1838
▁HA	-10.1839
▁çifti	-10.1844
▁Kes	-10.1848
▁beyin	-10.1849
▁düzeni	-10.185
▁organiz	-10.1851
▁maçını	-10.1861
▁standart	-10.1862
▁kaçtı	-10.1867
▁sordu	-10.187
▁sorgulama	-10.1871
▁bey	-10.1876
▁organ	-10.188
TV	-10.188
▁X	-10.1883
▁taşıyor	-10.1883
▁hac	-10.1884
▁landı	-10.1884
▁yken	-10.1888
▁forması	-10.1888
▁Bana	-10.189
▁pay	-10.1891
▁girişiminde	-10.1893
▁hayatın	-10.1895
▁Terim	-10.1904
▁sessiz	-10.1906
▁günleri	-10.191
▁ekipler	-10.191
▁öğrencilerin	-10.1919
dışı	-10.192
▁düzenlenecek	-10.192
▁kamyon	-10.1925
▁kararlı	-10.1926
▁mağaza	-10.193
▁Üyesi	-10.193
▁namazı	-10.1931
▁değine	-10.1934
▁sürecini	-10.1945
▁seçimleri	-10.1947
▁tamamlandı	-10.1948
▁elini	-10.1955
dım	-10.196
▁Gol	-10.1962
▁Hizmet	-10.1964
▁cümle	-10.1964
▁seçme	-10.1964
AH	-10.1965
▁futbolu	-10.1967
▁toplantıda	-10.1967
▁hakkını	-10.1975
▁bilmek	-10.1983
▁hareketi	-10.1988
▁72	-10.1989
▁adamları	-10.1995
▁Burcu	-10.1999
▁yapılacağı	-10.2
▁amaçlı	-10.2
▁Antalyaspor	-10.2002
▁cek	-10.2005
▁özgürlüğü	-10.2005
▁enflasyon	-10.2013
▁çekim	-10.2014
▁sezonun	-10.2016
▁52	-10.2021
▁dayana	-10.2022
▁riski	-10.2029
▁x	-10.2032
▁Nusaybin	-10.2032
▁mühendis	-10.2032
▁restoran	-10.2032
▁Siyah	-10.2033
LAN	-10.2034
▁sür	-10.2037
▁vatandaşlarımız	-10.2037
▁şampiyonluk	-10.2037
▁açılış	-10.2038
▁adayları	-10.2039
▁Fo	-10.2044
▁politikası	-10.2045
▁yüklü	-10.2045
▁lanma	-10.2047
▁uçakları	-10.2052
▁sağlam	-10.2054
TÜ	-10.2056
▁Bas	-10.2057
▁Sağ	-10.2065
▁dışarıda	-10.2068
▁özgürlük	-10.2068
▁Tor	-10.2069
▁sahil	-10.2069
▁ısı	-10.2069
İH	-10.2071
land	-10.2071
▁aydın	-10.2072
▁İtalyan	-10.2074
▁getirmek	-10.2079
▁çağı	-10.2082
▁katılımı	-10.2083
▁kampanyası	-10.2088
▁akın	-10.2092
▁Kab	-10.2098
▁elbette	-10.2101
▁ihanet	-10.2102
▁alkol	-10.2102
▁Kasımpaşa	-10.2103
▁onur	-10.2107
▁Savaşı	-10.2108
▁hoş	-10.211
▁ülkemiz	-10.2125
▁getirilmesi	-10.2125
▁uygulamaları	-10.2129
▁bitme	-10.2131
▁kapattı	-10.2136
DHA	-10.2136
▁izleyici	-10.2138
▁dür	-10.2138
▁Özdemir	-10.2138
▁51	-10.2141
▁karakter	-10.2149
▁açığ	-10.2154
▁sonun	-10.2155
▁Çek	-10.2155
▁120	-10.2155
▁korumak	-10.2157
burg	-10.2161
▁Kanal	-10.2165
▁görünüm	-10.2171
45	-10.2175
▁cu	-10.2176
▁vatandaşı	-10.218
▁savaşı	-10.2182
▁yaptıklarını	-10.2185
▁paylaşa	-10.2185
▁askerler	-10.2189
rarak	-10.2191
▁karşılığı	-10.2191
▁sürdüğü	-10.2196
▁eti	-10.2196
▁yene	-10.2197
▁şube	-10.2205
▁esnasında	-10.2205
▁Harekat	-10.2206
▁Magazin	-10.2206
▁Gomez	-10.2207
▁seçi	-10.2208
▁gelerek	-10.221
▁olacağız	-10.2211
▁unsurları	-10.2217
▁bakıyor	-10.2218
org	-10.2228
▁gerekçe	-10.2232
▁kanal	-10.2236
▁yolunu	-10.2238
▁bölgelerde	-10.224
▁danışman	-10.224
▁çalışanların	-10.2244
▁salonu	-10.2246
▁ihbar	-10.2266
▁mıştı	-10.2268
▁Hakkari	-10.2276
▁izledi	-10.2276
▁Emekli	-10.2276
▁tanıtım	-10.2276
▁dönüştü	-10.2278
▁konularda	-10.2278
▁öğrene	-10.2282
▁aradı	-10.2284
▁heyet	-10.2296
diklerini	-10.2303
▁erdi	-10.2305
▁bazıları	-10.2305
▁muhalif	-10.2309
▁işadamı	-10.2311
▁karayolu	-10.2312
▁kilit	-10.2314
▁sesi	-10.2314
▁69	-10.2316
mir	-10.2321
▁Topal	-10.2322
▁İz	-10.233
▁gerçeği	-10.2331
▁getiriyor	-10.2339
▁tüfeği	-10.2346
▁Yalçın	-10.2346
▁garanti	-10.2346
▁eğlence	-10.2346
▁Pazartesi	-10.2346
▁içer	-10.2348
▁dost	-10.2348
▁temin	-10.2349
▁parlamento	-10.235
▁girecek	-10.2351
▁kurucu	-10.2352
▁beklediği	-10.2353
▁Gazi	-10.2355
▁Kurt	-10.2362
▁yatırımcı	-10.2363
lanırken	-10.2365
▁gününde	-10.2371
▁58	-10.2373
▁Kadınlar	-10.2376
▁AŞ	-10.2381
▁ulusal	-10.2384
▁tehlikeli	-10.2392
▁çözü	-10.24
▁yarısı	-10.2412
▁67	-10.2416
▁önemlidir	-10.2416
▁muhte	-10.2417
▁Güneydoğu	-10.2417
▁edilerek	-10.2417
▁yumurta	-10.2417
▁Acil	-10.2418
▁yakınlarında	-10.2424
▁dinle	-10.2424
▁maliyeti	-10.2425
▁kurduğu	-10.2426
TE	-10.2428
▁sunuyor	-10.2431
▁odasın	-10.2432
▁Evet	-10.2432
▁ilgisi	-10.2434
▁hesapları	-10.2435
▁of	-10.2437
▁grupların	-10.244
▁demişti	-10.2444
▁İşleri	-10.2444
▁benzeri	-10.2444
▁hüküm	-10.2447
▁suikast	-10.2453
▁sürücüsü	-10.246
▁2007	-10.2462
▁kenar	-10.2472
▁öğrenme	-10.2473
▁kaynaklar	-10.2479
▁Kral	-10.2479
fil	-10.2479
▁çök	-10.2482
▁tutar	-10.2482
▁öldürüldü	-10.2486
▁verildiği	-10.2488
▁İsviçre	-10.2489
▁Malatya	-10.2489
▁Semih	-10.2489
▁yetenek	-10.2489
▁modern	-10.2489
jen	-10.249
▁AT	-10.249
▁asgar	-10.2491
▁artı	-10.2497
▁Dk	-10.2501
▁ülkemizde	-10.2503
▁Başka	-10.2508
▁kamuoyu	-10.2517
▁verilerin	-10.2517
▁sebze	-10.2526
▁isteği	-10.2526
▁yolları	-10.2529
▁Paşa	-10.2529
▁kaybetme	-10.2531
▁ofis	-10.2531
▁istemiyor	-10.2533
SI	-10.2534
▁karşılaştı	-10.2535
▁başara	-10.2538
▁fragmanı	-10.2539
▁öğretim	-10.254
▁ız	-10.254
lanarak	-10.2541
▁Salı	-10.2543
▁günümüz	-10.2545
▁durumunu	-10.2545
▁başarısız	-10.2547
▁şehirler	-10.255
▁nere	-10.2554
GE	-10.2558
▁Kurtulmuş	-10.2561
▁anlar	-10.2562
▁Osmanlıspor	-10.2563
▁stat	-10.2564
▁gücünü	-10.2566
lanır	-10.2566
▁coğrafya	-10.2568
ft	-10.2569
▁Ağ	-10.2569
▁mini	-10.2571
▁araçları	-10.2584
▁olmayacağı	-10.2596
▁geliri	-10.2598
▁ettiler	-10.26
▁etkileye	-10.2603
▁belirsiz	-10.2606
▁Erol	-10.2608
▁cam	-10.2614
▁kurul	-10.2614
25	-10.2615
zat	-10.2615
▁seviyesinde	-10.262
▁irade	-10.2627
▁kulübü	-10.2629
▁Sneijder	-10.2633
▁cilt	-10.2634
▁işyeri	-10.2634
▁kâr	-10.2635
▁cephe	-10.2635
▁Gökçe	-10.2637
▁rolü	-10.2639
mur	-10.2639
▁çıkarak	-10.2646
▁yıkıl	-10.2646
kul	-10.2647
▁bıçak	-10.2648
▁*	-10.2656
▁ifadeler	-10.2657
▁81	-10.2665
▁başbakan	-10.267
▁sürdürüyor	-10.267
▁ısrar	-10.267
▁görüşmeleri	-10.267
▁kesimleri	-10.267
▁ayrıntı	-10.2671
ME	-10.2671
▁borcu	-10.2673
▁hastaney	-10.2673
▁tutan	-10.2675
▁lüks	-10.2676
▁orman	-10.2678
▁ekmek	-10.2681
▁Gerçek	-10.2684
▁cuma	-10.2684
▁arkadaş	-10.2687
▁gençler	-10.2694
▁yüzler	-10.2697
▁tavır	-10.2706
▁Saat	-10.271
▁tutarı	-10.2712
▁Cihan	-10.2716
▁düzeyde	-10.2718
▁&	-10.2719
▁Amerikalı	-10.2726
▁yarata	-10.2727
▁yazılım	-10.2731
▁problem	-10.2733
▁askerlerin	-10.2738
▁Gençlerbirliği	-10.2743
▁kaygı	-10.2743
▁Gıda	-10.2746
▁bilmesi	-10.2747
▁Yin	-10.2747
▁oluşturduğu	-10.2756
▁bilgisi	-10.2758
▁araçların	-10.276
▁Boz	-10.2762
▁kullanılma	-10.2766
▁Kelime	-10.278
▁Karşı	-10.2782
▁ilave	-10.2783
▁Esed	-10.2783
▁uyarısı	-10.2783
▁kaşı	-10.2785
▁sezonunda	-10.2786
▁vermişti	-10.2791
▁nesil	-10.2791
▁oluştu	-10.2801
ort	-10.2801
▁olmakta	-10.2803
▁etmiyor	-10.2804
▁anlayışı	-10.2805
▁Maliye	-10.2808
▁fotoğrafları	-10.2808
▁Yol	-10.2809
▁sel	-10.281
▁delil	-10.281
▁Ef	-10.281
▁sürüle	-10.2812
▁çalışıl	-10.2814
EV	-10.2815
▁senaryo	-10.2817
▁ikramiye	-10.2817
▁analiz	-10.2818
▁2002	-10.2824
▁yazdığı	-10.2828
▁Demokrasi	-10.2833
▁kontrolü	-10.2842
▁ilişkisi	-10.2846
▁Kav	-10.2848
▁göndere	-10.285
▁Fethullah	-10.2854
▁Kenan	-10.2855
▁Bayram	-10.2857
▁kum	-10.2858
▁geçecek	-10.2859
▁kolu	-10.2862
▁Halil	-10.2867
▁ordusu	-10.2867
▁Kas	-10.287
▁haklı	-10.2873
▁isimleri	-10.2875
▁indi	-10.2875
▁yakış	-10.2881
▁atama	-10.2881
▁koruya	-10.2883
▁İN	-10.2885
▁kesintisi	-10.2886
yken	-10.2887
▁etmedi	-10.2888
▁kullanıldığı	-10.2892
▁2-1	-10.2892
▁Nasıl	-10.2892
▁Operasyon	-10.2893
▁dığını	-10.2895
▁tanesi	-10.2896
▁Yasin	-10.2896
▁düğün	-10.2901
▁Sİ	-10.2902
▁uygula	-10.2902
▁sorunun	-10.2906
▁Q	-10.2915
▁sektörün	-10.2923
▁2017'	-10.2927
▁mektup	-10.2929
▁mevsim	-10.2929
ayrimenkul	-10.2929
▁taziye	-10.2929
▁Finans	-10.293
ly	-10.293
▁anlata	-10.293
▁tarif	-10.293
▁Karaca	-10.2934
▁sağlana	-10.2935
layıcı	-10.2936
▁Kimse	-10.2939
muştu	-10.2941
▁ho	-10.2946
▁Ru	-10.295
▁Birinci	-10.2952
▁buluyor	-10.2953
▁kullanım	-10.2961
ud	-10.2961
▁varlığı	-10.2964
tuğ	-10.2964
▁ayar	-10.2966
▁savuna	-10.2967
▁Toplum	-10.2967
▁ilerleme	-10.2968
▁Savcı	-10.2969
▁ürünler	-10.2979
▁Sch	-10.298
▁tüketimi	-10.2987
vat	-10.2988
▁Bölgesi	-10.2988
▁sini	-10.2992
▁direkt	-10.2996
▁çıkıp	-10.3004
▁2-0	-10.3005
▁tuzak	-10.3006
▁Yasa	-10.3009
▁vekil	-10.3012
▁avukatları	-10.3013
▁yurtdışı	-10.3013
aruk	-10.302
▁madı	-10.3021
▁takımda	-10.3022
▁Kaç	-10.3026
▁ortam	-10.3028
▁Bank	-10.3029
▁ocak	-10.3029
▁güney	-10.303
▁vefat	-10.3031
▁isteyenler	-10.3032
lenecek	-10.3035
▁mesafe	-10.3035
▁doları	-10.304
▁Gönül	-10.3042
▁şiir	-10.3043
▁unutma	-10.3048
▁kapatma	-10.305
▁arzu	-10.3051
▁kese	-10.3052
▁yatak	-10.3055
leyerek	-10.3059
▁sevdiği	-10.3059
▁koşulları	-10.3069
▁güvenliğini	-10.3069
▁duyduğu	-10.3071
▁deneme	-10.3074
▁efsane	-10.308
Donald	-10.3081
RE	-10.3088
▁edeceğini	-10.3094
▁Şah	-10.3096
▁projeleri	-10.3096
▁düştüğü	-10.3097
▁kutu	-10.3098
leşmesi	-10.3103
▁gelmişti	-10.3105
▁hastalar	-10.3115
▁Bodrum	-10.3119
▁kapasite	-10.3126
▁Has	-10.3138
İS	-10.3141
▁yazma	-10.3143
▁Kızıl	-10.3148
▁ettim	-10.315
ster	-10.3153
▁beklentileri	-10.3153
▁yetkili	-10.3154
▁dikkatli	-10.3155
▁Anahtar	-10.3157
▁röportaj	-10.3157
▁tecavüz	-10.3157
▁verimli	-10.3157
▁tasarla	-10.3158
Ulusal	-10.3158
▁kazanma	-10.316
▁mücadelesi	-10.316
▁takımları	-10.3162
▁giyi	-10.3164
▁çektiği	-10.3166
▁Gala	-10.3169
▁projeler	-10.3179
▁Tarihi	-10.319
▁nıza	-10.319
▁79	-10.3192
▁bitki	-10.3193
ris	-10.3203
▁kulak	-10.3204
▁bedel	-10.3206
▁vermedi	-10.3207
▁operasyonların	-10.3207
▁ürünü	-10.3208
▁bankalar	-10.3213
▁yarısında	-10.3214
Ne	-10.3218
▁telefonla	-10.3223
▁oyuncuların	-10.3227
▁değişe	-10.3232
▁Kurul	-10.3232
▁Sivas	-10.3233
▁barikat	-10.3234
▁Temsilci	-10.3234
▁yenilgi	-10.3234
▁atıldı	-10.3235
▁aktör	-10.3238
▁düşünül	-10.3241
▁yordu	-10.3247
▁çalı	-10.3253
▁duyuru	-10.3255
▁ber	-10.3256
▁çıkmış	-10.3258
▁vazgeç	-10.3258
▁Ümi	-10.326
▁sağladığı	-10.3262
▁ıs	-10.3271
▁Cengiz	-10.3273
▁kemik	-10.3273
▁olamaz	-10.3273
▁TA	-10.3274
▁meşru	-10.3276
▁yarıda	-10.3276
▁yaygın	-10.3276
▁büyüye	-10.328
▁İdaresi	-10.3282
▁Hacı	-10.3286
▁Akar	-10.3287
▁hissetti	-10.3289
▁maçları	-10.3291
▁etkileri	-10.33
▁atıyor	-10.3302
▁hastaneler	-10.3302
▁Plan	-10.3303
▁tahri	-10.3312
▁Mesela	-10.3312
▁Kocaeli	-10.3312
▁Ozan	-10.3312
▁Üste	-10.3313
▁tünel	-10.3315
▁Mas	-10.3315
ılacak	-10.3321
▁Park	-10.3323
▁Resm	-10.3324
▁Başbakanlık	-10.3327
▁fırsatı	-10.3329
▁yacak	-10.3329
▁Ayşe	-10.3331
▁organizasyon	-10.3338
▁Caner	-10.3338
▁taraftar	-10.3341
▁Bayramı	-10.3348
▁ihti	-10.3351
▁atış	-10.3351
▁görünüyor	-10.3351
▁tasarruf	-10.3351
▁çanta	-10.3352
▁sinde	-10.3357
▁okuya	-10.3368
▁hayır	-10.3368
ulmuş	-10.3371
▁cağı	-10.3377
▁sahipleri	-10.3378
▁bağlam	-10.338
▁Gra	-10.3383
▁çalışı	-10.3385
▁planları	-10.3385
▁Çavuş	-10.3388
▁Otomobil	-10.339
▁Pakistan	-10.339
▁Kayserispor	-10.3392
pınar	-10.3395
▁çatı	-10.3396
▁uydu	-10.3399
▁selam	-10.34
▁kırıl	-10.3405
▁set	-10.3405
▁Köyü	-10.3405
▁zamanlarda	-10.3406
▁çıkartı	-10.3408
▁yetişti	-10.3418
▁Gerek	-10.3418
▁ysa	-10.3422
▁muş	-10.3426
RI	-10.3426
▁Akın	-10.3428
▁Yunan	-10.3429
▁2018	-10.3429
▁Tepe	-10.343
▁sözleşmesi	-10.3433
▁Askeri	-10.3435
▁kültürü	-10.3436
▁Dağı	-10.3437
▁kuzeyinde	-10.3438
▁bekliyoruz	-10.3439
▁hastalıklar	-10.344
racak	-10.3441
▁türü	-10.3442
▁sora	-10.3446
▁saatte	-10.3447
▁Japonya	-10.3452
▁karakteri	-10.3453
▁puanı	-10.3456
▁Bakanlar	-10.3459
▁ulaşı	-10.3464
▁Hastane	-10.3468
▁ortamda	-10.3471
▁76	-10.3471
▁ini	-10.3471
▁oto	-10.3473
▁alanlarda	-10.3474
▁akşamı	-10.3477
▁omuz	-10.3478
▁kapsamda	-10.3478
▁ters	-10.3481
▁otobüsü	-10.3482
▁hastaların	-10.3487
▁paylaş	-10.3488
▁ağız	-10.349
,4	-10.3494
▁tamamlaya	-10.3502
▁Yüz	-10.3505
▁köyü	-10.3506
▁Ajansı	-10.3508
▁Avusturya	-10.3508
▁Hindistan	-10.3508
▁yerleşim	-10.3508
▁alkış	-10.3508
▁Yunus	-10.3509
▁oynuyor	-10.3509
▁profesyonel	-10.351
sayiş	-10.3511
▁odak	-10.3512
▁lim	-10.3516
▁Samsung	-10.3518
▁ismini	-10.3523
▁06	-10.3524
▁Cumhuriyetçi	-10.353
▁Erkek	-10.3531
▁Toplantı	-10.3532
▁57	-10.3539
▁yıka	-10.3542
▁maaşı	-10.3545
▁Riekerink	-10.3548
▁otomatik	-10.3548
▁inanıyorum	-10.3548
▁Sakarya	-10.3548
▁götürdü	-10.3548
▁konuldu	-10.3549
▁yürüttüğü	-10.3549
▁Eskişehir	-10.355
Fikret	-10.3552
▁alırken	-10.3555
▁ilde	-10.3557
▁Yaşar	-10.3557
▁dim	-10.3562
▁Hak	-10.3563
▁güveni	-10.3564
▁Dizi	-10.3566
▁konuşmada	-10.3566
▁yılları	-10.3574
▁kısmını	-10.3584
▁yapısı	-10.3586
▁yuvarla	-10.3588
▁Hiç	-10.3588
▁Balıkesir	-10.3588
▁teşhis	-10.3588
▁kesti	-10.3589
▁tatlı	-10.3589
▁Boy	-10.3592
miştir	-10.3592
▁oranları	-10.3598
▁okudu	-10.3599
▁sözler	-10.3601
▁idam	-10.3603
▁finansman	-10.3604
▁gösterile	-10.3608
▁beraberinde	-10.3617
▁açıklaya	-10.3617
▁Müdür	-10.3618
▁arz	-10.3626
▁oturu	-10.3627
▁yapılanması	-10.3628
▁Kahraman	-10.3628
▁Oscar	-10.3628
▁festival	-10.3628
▁Rizespor	-10.3629
▁değerlendirdi	-10.3629
▁yazarı	-10.3634
▁sözlerin	-10.3634
ttiği	-10.3637
▁Ger	-10.3641
▁girişimci	-10.3648
▁Ödülü	-10.3648
▁Demirel	-10.3657
▁saldırısında	-10.3661
▁bakımında	-10.3668
▁çete	-10.3668
▁motosiklet	-10.3669
▁korunması	-10.3669
▁Petro	-10.3669
▁Sahil	-10.3671
▁Kırmızı	-10.3671
▁abi	-10.3675
▁düz	-10.3682
▁sahipliği	-10.3684
▁BİR	-10.3684
▁68	-10.3687
▁destekleme	-10.3692
▁ödülü	-10.3693
▁değildi	-10.3693
Her	-10.3694
▁ilerleye	-10.3694
▁maaş	-10.3702
▁Sistemi	-10.3703
▁bölümde	-10.3705
▁madığı	-10.3706
▁çekildi	-10.3709
▁düşmesi	-10.3709
▁yaptırım	-10.371
▁Odası	-10.3711
▁görü	-10.3716
▁gündemin	-10.3719
▁yaratma	-10.3721
▁geriledi	-10.3725
gil	-10.3727
▁benze	-10.3729
▁vitamini	-10.373
▁açıkça	-10.373
▁77	-10.3731
▁yürüye	-10.3746
▁bünyesinde	-10.375
▁Sonuç	-10.375
▁Birlik	-10.375
nükle	-10.3753
▁kullanılması	-10.3756
▁sahasında	-10.3756
▁yapıp	-10.3764
▁burun	-10.3764
▁haps	-10.3765
▁yapmayı	-10.3771
▁kalmadı	-10.3778
▁tren	-10.378
▁olayların	-10.3784
▁tok	-10.379
▁irtibat	-10.3791
▁öfke	-10.3791
▁üzüntü	-10.3791
◊	-10.3791
▁Borsa	-10.3791
▁ağzı	-10.3793
▁şüphe	-10.3797
▁Üniversite	-10.38
▁suçların	-10.3801
▁seçimi	-10.3811
▁çıktığını	-10.3813
▁deri	-10.3814
▁Günlü	-10.3817
IM	-10.3818
▁sürecin	-10.382
UZ	-10.3822
▁operasyonlarda	-10.3825
▁seçile	-10.3827
▁TFF	-10.3832
▁bankacılı	-10.3833
▁Oğuzhan	-10.3833
▁Milletler	-10.3834
▁kuvvetli	-10.3834
KA	-10.3834
▁şarkıcı	-10.3842
▁okulların	-10.3854
▁bakın	-10.386
▁Şubesi	-10.3862
stihbarat	-10.3867
▁galibiyeti	-10.3869
▁kıl	-10.387
▁Evi	-10.3871
▁Advocaat	-10.3873
▁çizen	-10.3873
▁mermi	-10.3873
▁Sha	-10.3875
▁Gaziantepspor	-10.3876
▁dilekçe	-10.3877
▁iken	-10.3877
70	-10.3881
▁Kış	-10.3885
▁çalışıyoruz	-10.3887
▁değişme	-10.3888
▁milleti	-10.389
val	-10.3898
▁miyor	-10.3898
▁Oto	-10.3901
Saray	-10.3901
▁KAR	-10.3912
▁köpek	-10.3914
▁başvura	-10.3914
▁bağımlı	-10.3914
▁Bozdağ	-10.3915
▁kentte	-10.3916
▁Cenk	-10.3916
▁lisans	-10.3923
▁kına	-10.3926
abil	-10.3929
▁bölgeler	-10.3934
▁düşme	-10.3939
▁Sür	-10.3939
Türk	-10.3943
▁ulaşma	-10.395
▁ertele	-10.3955
▁hâkim	-10.3956
▁muhtemel	-10.3956
▁fikri	-10.3956
▁ayır	-10.3958
▁Soylu	-10.3959
▁çekerek	-10.396
yol	-10.3961
▁gündür	-10.3965
▁hazırlıkları	-10.3971
▁şunu	-10.3973
▁yardımcısı	-10.3974
▁açıklamasını	-10.3974
▁ağrısı	-10.3978
▁olunca	-10.3978
▁Nec	-10.3984
öğretim	-10.3985
▁Aslın	-10.3989
▁savcılık	-10.3995
▁Yönetmen	-10.3997
▁savundu	-10.3997
▁katliam	-10.3997
▁cadde	-10.3997
▁stres	-10.3998
▁resim	-10.3998
▁yaşta	-10.3998
▁Ulu	-10.3999
▁Festivali	-10.4005
▁yapmıştı	-10.4007
▁verdikleri	-10.4009
▁maya	-10.4014
▁08	-10.4016
▁ailelerin	-10.4017
▁Kendisi	-10.4017
▁toprakları	-10.4019
▁maal	-10.402
▁tamamlana	-10.4024
▁edilmiştir	-10.4026
▁değiştire	-10.4036
▁sıfır	-10.4039
▁kriter	-10.4039
▁Kulüp	-10.4039
▁üretme	-10.4039
▁gelişe	-10.4039
▁yemeği	-10.404
.000	-10.4043
▁niye	-10.4044
▁katılımcı	-10.4047
gerçekleştirdiği	-10.4047
▁çiftçi	-10.4049
▁söyleye	-10.405
▁Kuvvet	-10.4053
▁görüşmelerin	-10.4053
▁Dolar	-10.4054
▁Ah	-10.4055
▁muhabirin	-10.4056
▁bahar	-10.4063
▁başlandı	-10.4063
▁kalır	-10.4068
▁suçlu	-10.4069
▁bastı	-10.4073
▁Dağ	-10.4073
▁gideceği	-10.4074
▁sokak	-10.4075
▁göstere	-10.4076
▁bulmak	-10.4078
▁yollar	-10.4078
▁boy	-10.4079
▁ayakkabı	-10.4081
▁forvet	-10.4081
▁götüre	-10.4081
Spor	-10.4082
▁diliyorum	-10.4083
DEN	-10.4084
▁artırma	-10.4088
▁Hiçbir	-10.4096
▁Alper	-10.4099
▁tim	-10.4117
▁For	-10.4118
▁Sigorta	-10.4123
▁Hatay	-10.4124
▁Kişi	-10.4124
▁hastalığın	-10.4125
▁başrol	-10.4125
▁popüler	-10.4127
▁Paralel	-10.4127
▁kurumlar	-10.4131
▁liderleri	-10.4135
gh	-10.4146
▁milletimiz	-10.415
▁gözler	-10.4151
ikna	-10.4151
gal	-10.4153
▁tarihte	-10.4159
▁senin	-10.4162
▁peşin	-10.4165
▁skandal	-10.4166
▁Kredi	-10.4166
▁kirli	-10.4169
▁şekli	-10.4175
▁sorumlusu	-10.4177
▁değiş	-10.4178
▁laf	-10.418
▁dinleme	-10.4182
hur	-10.4183
▁kalacak	-10.4187
▁leşme	-10.4188
▁Sekreteri	-10.419
▁muhabiri	-10.4191
▁gözyaşları	-10.4198
IZ	-10.4201
▁Dev	-10.4204
▁tanıma	-10.4204
▁madalya	-10.4208
▁zırh	-10.4208
▁Sınır	-10.4209
▁Örgüt	-10.4211
▁Kardeş	-10.4212
▁elektroni	-10.4213
▁Özer	-10.4214
▁ilişkilerin	-10.4216
▁dünyasını	-10.4219
▁Otel	-10.4219
▁kalmış	-10.4221
▁çalışa	-10.4221
▁gönderi	-10.4223
CA	-10.4224
▁Soru	-10.4224
▁gör	-10.4224
▁değişti	-10.423
▁otomobilin	-10.423
▁trafiği	-10.4233
▁firmalar	-10.4237
▁başladığını	-10.4238
▁yargılanma	-10.4241
▁içme	-10.4242
Basketbol	-10.4251
▁Turkcell	-10.4251
▁Organiz	-10.4251
▁88	-10.4255
▁durdurma	-10.4256
▁63	-10.4263
▁Erkan	-10.4265
▁eserleri	-10.4266
▁Önümüzde	-10.4267
▁saldırıların	-10.4267
▁yönetiminin	-10.4269
▁ağı	-10.427
▁hazırladığı	-10.4272
▁istendi	-10.4274
▁utan	-10.4277
▁beklenti	-10.4286
▁edilir	-10.4287
▁ellerinde	-10.4287
▁çıkmak	-10.4291
▁vücut	-10.4294
▁Cenevre	-10.4294
▁SABAH	-10.4294
▁hücum	-10.4294
▁iddianame	-10.4295
▁eseri	-10.4295
▁mülteciler	-10.4297
▁fiyatlarında	-10.4299
▁içerik	-10.43
▁kaldığını	-10.43
▁Hep	-10.43
▁dım	-10.4306
▁siyasetçi	-10.4306
▁hayatta	-10.4307
▁kanatta	-10.4309
▁konuşmasında	-10.4309
▁yaralılar	-10.4315
▁beğeni	-10.4318
▁peşinde	-10.4319
▁Tim	-10.432
▁müdür	-10.432
▁liderliği	-10.4323
▁olmasa	-10.4324
▁Asker	-10.4331
▁sınavı	-10.4334
▁eleman	-10.4334
▁redd	-10.4336
▁KOBİ	-10.4337
▁Kaymakam	-10.4337
▁vizyon	-10.4337
▁işveren	-10.4337
▁Bekir	-10.4338
▁kapısı	-10.4339
▁?"	-10.434
▁alev	-10.4341
▁yedek	-10.4341
▁puanla	-10.4344
▁albümü	-10.4351
▁filmin	-10.4352
▁yürek	-10.4355
▁müdürü	-10.4355
▁şahs	-10.4359
▁dönüm	-10.436
▁baka	-10.4361
▁Bakanlık	-10.4362
▁Bölgede	-10.4362
▁Mak	-10.4366
10	-10.4368
▁şahıs	-10.4371
▁ağlar	-10.4371
▁gözleri	-10.4377
▁başvurusu	-10.4377
▁listesi	-10.438
▁United	-10.438
▁lezzet	-10.438
▁takdirde	-10.438
▁filmleri	-10.4381
▁kapatıla	-10.4384
▁Geri	-10.4386
▁kentin	-10.4387
▁çıkışı	-10.4388
-4	-10.439
▁sinyal	-10.4394
▁dağıtım	-10.4394
▁Ses	-10.4398
▁sınırlı	-10.44
▁araçta	-10.4405
▁vatandaşları	-10.4407
▁girişi	-10.4409
▁oluşturdu	-10.4409
▁anti	-10.441
▁Şam	-10.4411
▁cezaevin	-10.4413
▁hita	-10.4413
▁bulunmadığı	-10.4418
lacivertli	-10.442
▁gönderdiği	-10.4421
▁uzmanı	-10.4422
▁Kalkanı	-10.4424
bur	-10.4424
▁bozma	-10.4425
▁parmak	-10.4426
▁söyleyerek	-10.4428
▁Piyasa	-10.4429
▁BA	-10.4429
▁gelişti	-10.443
▁ligin	-10.443
▁Üst	-10.4431
▁Federa	-10.4434
▁çalışmaya	-10.4438
▁cumhurbaşkanı	-10.4443
▁geldiğinde	-10.4443
▁sorusuna	-10.4446
▁muzu	-10.4447
▁gelince	-10.4448
▁Yo	-10.4452
▁ifadesinde	-10.4453
alıcı	-10.4455
▁imam	-10.4458
▁yerleşti	-10.4461
▁to	-10.4463
▁üretile	-10.4465
▁oluşturula	-10.4468
▁Ateş	-10.4469
▁gördüm	-10.4477
▁ihbarı	-10.4479
▁kullanmak	-10.4482
▁harcama	-10.4482
▁Ad	-10.4484
▁gelmeye	-10.4491
▁eleştiriler	-10.4492
▁Beni	-10.45
▁uy	-10.4507
madığı	-10.4509
▁egzersiz	-10.4511
▁borsa	-10.4511
▁tüketil	-10.4511
▁Medya	-10.4512
▁ucuz	-10.4512
▁Fatma	-10.4512
▁hassasiyet	-10.4513
▁ahlak	-10.4516
▁sokakları	-10.4516
▁Yazı	-10.4517
UM	-10.4522
▁üyeliği	-10.4522
▁sunula	-10.4525
▁harekat	-10.4526
▁bilinç	-10.4526
▁ödeye	-10.4529
▁diyorlar	-10.4529
▁Mert	-10.4533
▁konuları	-10.4534
▁esnaf	-10.4542
▁Sarayı	-10.4546
▁cevabı	-10.4548
▁EN	-10.4548
▁yapabilir	-10.4555
▁laşma	-10.4555
▁kasaba	-10.4556
▁vakit	-10.4556
▁Bulut	-10.4557
▁düşürme	-10.4558
▁2000	-10.4559
▁duruyor	-10.4562
▁Serka	-10.4564
▁sorunların	-10.4569
▁tarzı	-10.4572
▁Adam	-10.4576
▁niyet	-10.4585
▁çap	-10.4585
▁kutlama	-10.4588
▁yurtdışında	-10.4592
lâ	-10.4597
▁km	-10.46
û	-10.46
▁şarj	-10.46
▁olsaydı	-10.4603
▁sorular	-10.461
▁kurulması	-10.461
▁kazandığı	-10.4612
▁firması	-10.4614
▁bizler	-10.4615
▁adresi	-10.4617
▁alıcı	-10.4618
üzgün	-10.4623
▁sürece	-10.4628
▁duruşu	-10.4629
▁görüşmesi	-10.463
▁albüm	-10.463
▁Lisesi	-10.4643
▁akraba	-10.4644
▁kalabalık	-10.4644
▁kulübe	-10.4644
▁müziği	-10.4645
▁zincir	-10.4645
▁sorumluluğu	-10.4649
▁tamamlanması	-10.4652
▁64	-10.4652
▁oluşturma	-10.4655
▁yakalanması	-10.4658
▁yararlana	-10.4658
▁imamı	-10.4664
▁ardı	-10.4667
▁etkinliği	-10.4669
▁yayınlandı	-10.4671
▁fileler	-10.4673
▁ME	-10.4679
▁kaybetmiş	-10.4689
▁Edirne	-10.4689
▁takdir	-10.4689
▁damga	-10.469
▁karanlık	-10.469
▁dernek	-10.4691
▁800	-10.4696
▁Şii	-10.4701
▁Şey	-10.4702
▁Dava	-10.4703
▁evre	-10.4707
▁Tel	-10.4708
▁Hen	-10.4711
▁işleme	-10.4712
▁yağışlı	-10.4713
▁gele	-10.4714
▁gözet	-10.4714
▁01	-10.4715
hiş	-10.4717
▁öncelikle	-10.472
▁edilmişti	-10.4721
▁sanıklar	-10.4724
▁Sal	-10.4726
▁yse	-10.4728
▁talepleri	-10.4731
▁Zeynep	-10.4734
▁sponsor	-10.4734
▁Cerablus	-10.4734
▁Gözaltın	-10.4734
▁oylama	-10.4738
▁gözde	-10.4752
▁rahatsızlık	-10.4756
▁Far	-10.4758
▁62	-10.4759
▁İste	-10.4762
▁aks	-10.4767
▁olayla	-10.4769
▁iktidarı	-10.4772
▁sır	-10.4773
▁sektörünü	-10.4775
sko	-10.4778
▁başvurdu	-10.4779
▁Efendi	-10.4779
▁Bölümü	-10.4779
▁istek	-10.4787
▁basa	-10.4792
▁uzay	-10.4793
▁hayran	-10.4793
Sİ	-10.4794
▁anlaya	-10.4797
▁rakipleri	-10.4797
göz	-10.4798
▁lendir	-10.4801
▁Acı	-10.4802
▁evlerin	-10.481
▁gen	-10.4812
ddin	-10.4812
▁doğan	-10.4815
▁getire	-10.4816
▁merkezleri	-10.4818
▁Rum	-10.4818
▁müsa	-10.482
▁leştiri	-10.4821
▁destekleye	-10.4822
▁gidil	-10.4824
▁uyar	-10.4824
▁Parçal	-10.4825
▁kayyum	-10.4825
▁demektir	-10.4829
▁sına	-10.483
▁belirleme	-10.4831
▁sevin	-10.4832
▁Uz	-10.4836
▁artışla	-10.4837
▁götürü	-10.4839
▁piş	-10.4841
DU	-10.4847
ston	-10.485
▁derken	-10.4857
▁taraflar	-10.4859
▁ediyorlar	-10.4863
▁fırtına	-10.4869
▁konferans	-10.4869
▁füze	-10.4869
▁yaşanıyor	-10.487
▁kusur	-10.487
▁esteti	-10.487
▁öldüğü	-10.487
lmaz	-10.487
▁olmaları	-10.4872
▁Fed	-10.4875
▁inşallah	-10.4878
▁ölme	-10.4881
soy	-10.4887
▁oynayacağı	-10.4888
▁Adil	-10.4888
▁yapama	-10.4889
▁bölümünü	-10.489
▁beğen	-10.489
▁karşılığın	-10.489
▁miktarı	-10.4893
▁şahsın	-10.4894
▁diplomat	-10.4901
iyo	-10.491
▁kalkı	-10.491
sağlığı	-10.4911
▁vaka	-10.4914
▁edebilir	-10.4915
▁enfeksiyon	-10.4915
▁muayene	-10.4915
efendi	-10.4915
▁girmiş	-10.4916
eskin	-10.4916
▁çözümü	-10.4919
▁Rize	-10.4923
▁02	-10.4934
▁sakin	-10.4935
▁Hepsi	-10.4937
▁belgeleri	-10.4939
▁süreli	-10.494
▁devrim	-10.4942
▁Cha	-10.4959
mayacağını	-10.4963
▁Kongre	-10.4963
▁kafe	-10.4965
▁95	-10.4967
nuzu	-10.4979
▁Berat	-10.4983
gel	-10.4985
▁başkanları	-10.4988
▁SI	-10.4992
▁kapasitesi	-10.4998
▁Andre	-10.5007
hra	-10.5008
▁saldırdı	-10.5008
▁oray	-10.5011
▁kuralları	-10.5012
▁ulaştığı	-10.5012
▁gizle	-10.5013
▁belirtiyor	-10.5015
▁TEM	-10.5016
▁gelişmeleri	-10.5016
▁salon	-10.5017
▁sağlar	-10.5018
▁ederim	-10.5023
▁çıkmaya	-10.5023
▁satışları	-10.5027
▁Görev	-10.5043
▁durumlarda	-10.5048
▁Sol	-10.505
▁Star	-10.505
q	-10.5053
▁önleme	-10.5053
▁sabit	-10.5053
▁lıyız	-10.5053
▁dayanışma	-10.5054
▁kanaat	-10.5054
▁gönüllü	-10.5058
▁Cami	-10.5059
▁avro	-10.5061
▁güçlendi	-10.5063
▁moral	-10.5063
▁namaz	-10.5064
▁mensuplarını	-10.5066
▁odaklan	-10.5071
BA	-10.5073
▁barın	-10.5075
▁konular	-10.5077
▁alınmıştı	-10.508
▁isti	-10.5093
▁bilmiyor	-10.5098
▁73	-10.5099
▁Artvin	-10.51
▁Düşü	-10.51
▁Ertuğrul	-10.51
▁çözme	-10.51
▁harika	-10.51
▁kurtula	-10.51
▁ktadır	-10.51
▁Tören	-10.51
▁disiplin	-10.5101
▁hendek	-10.5102
▁etrafında	-10.5103
▁Kandil	-10.5103
▁geçerek	-10.5106
▁üs	-10.5107
▁içeride	-10.5107
▁subay	-10.511
DAN	-10.5116
lduğunu	-10.5119
▁özgür	-10.5119
▁05	-10.5124
▁tetik	-10.5124
▁yaklaştı	-10.5125
▁Araç	-10.5126
▁istene	-10.5127
▁bulunmak	-10.5128
▁başkent	-10.5131
▁ışığı	-10.5132
▁belirli	-10.5134
▁memleketi	-10.5135
kâr	-10.5136
▁geçmişte	-10.5138
▁güçlerini	-10.5138
▁alınmış	-10.5138
▁ani	-10.514
▁sokakta	-10.5145
▁Yabancı	-10.5146
▁başlangıç	-10.5146
▁sabır	-10.5147
▁mahkum	-10.5147
▁abone	-10.5147
▁programları	-10.515
okulu	-10.5151
▁kenti	-10.5153
▁paylaşma	-10.5165
▁serisi	-10.5166
▁ım	-10.5175
▁Toplam	-10.5175
▁üzül	-10.5176
▁ah	-10.5176
▁şut	-10.5182
▁karşısın	-10.5184
ble	-10.5185
▁Yolu	-10.5185
▁Onları	-10.5187
▁katil	-10.5188
▁getirildiği	-10.5189
▁koyduğu	-10.5189
▁özen	-10.5191
▁yetersiz	-10.5193
▁kurtulma	-10.5194
▁VE	-10.5195
▁çekiliş	-10.5195
▁Çayk	-10.5195
▁SE	-10.5197
▁konuşuyor	-10.5197
▁oluşum	-10.5209
▁1,5	-10.5213
ÜN	-10.5213
▁leştirme	-10.5214
▁ihtimal	-10.5219
off	-10.522
▁karşılama	-10.5221
▁bakanlık	-10.5225
▁bölgelerinde	-10.5227
▁atarak	-10.5231
▁öngör	-10.5235
▁önemin	-10.5236
▁Ağbal	-10.5241
▁yürürlüğ	-10.5241
▁Telekom	-10.5241
▁satma	-10.5242
▁yitirdi	-10.5242
ros	-10.5244
▁evli	-10.5244
▁Cezaevi	-10.5244
kuyu	-10.5245
▁musunuz	-10.5248
▁Dar	-10.525
▁Muhar	-10.5251
▁vatandaşın	-10.5252
▁sakatlık	-10.5252
▁mutluluk	-10.5252
▁kalkınma	-10.5253
▁ailesini	-10.5254
▁cihazı	-10.5254
▁vadel	-10.5255
ino	-10.5262
▁işlemlerini	-10.5262
▁geçirmek	-10.5263
▁Dairesi	-10.5263
▁Aslı	-10.5266
▁çalışanı	-10.5266
▁kapata	-10.5267
▁sınırında	-10.527
▁mar	-10.5277
▁kurmak	-10.528
▁ilçede	-10.5283
▁form	-10.5287
▁takviye	-10.5288
▁Çiçek	-10.5288
CİHAN	-10.5288
▁İstikl	-10.5288
▁kimin	-10.5289
▁Bit	-10.5295
TT	-10.5297
▁Hakları	-10.5307
▁geçmek	-10.5312
▁geçişi	-10.5317
▁yazık	-10.5319
▁mayacak	-10.5327
▁değişiklikler	-10.5328
▁ekim	-10.5332
▁konula	-10.5333
▁güncel	-10.5334
▁Muğla	-10.5336
▁TRT	-10.5336
▁İşletme	-10.5336
▁dünyasında	-10.5336
▁kesme	-10.5337
▁çıkacağı	-10.5339
▁yeteri	-10.5339
▁geçiri	-10.5341
▁miting	-10.5341
▁700	-10.5343
▁Katar	-10.5347
▁katma	-10.5355
▁evlerinde	-10.5358
▁liman	-10.536
▁lıyor	-10.5372
▁bulduğu	-10.5376
stsubay	-10.5376
▁alımı	-10.5378
▁opera	-10.5383
▁gidiş	-10.5383
▁ihmal	-10.5383
▁Servis	-10.5384
▁uyan	-10.5385
▁Şirketi	-10.5387
▁politikaları	-10.5388
▁görsel	-10.5388
▁taşıdığı	-10.5389
▁başlata	-10.5391
▁emir	-10.5393
▁şunlar	-10.5394
▁derdi	-10.5396
▁uygulanması	-10.54
▁çalışanlar	-10.5401
▁dakikalar	-10.5416
▁dü	-10.5418
▁Esen	-10.5428
▁Albay	-10.5429
▁giriyor	-10.543
▁gelişmiş	-10.5432
▁memnuniyet	-10.5434
▁kedi	-10.5435
▁çapında	-10.5435
▁siyas	-10.5437
▁195	-10.5437
▁sine	-10.5442
▁lanet	-10.5442
▁cerrahi	-10.5453
▁kesinti	-10.5457
kaç	-10.5457
İB	-10.5464
gazi	-10.5464
▁listesinde	-10.5465
▁boğul	-10.5465
landırdı	-10.5465
▁Güler	-10.5465
mut	-10.5473
İYOR	-10.5476
▁şikâyet	-10.548
▁pasaport	-10.548
▁oluşturuyor	-10.548
▁tavrı	-10.548
▁nefret	-10.548
▁alçak	-10.5482
▁Uzmanı	-10.5484
▁Kadir	-10.5488
▁moda	-10.5489
lendirdi	-10.5493
▁Kızılay	-10.5494
▁Vatandaş	-10.5495
▁açıklana	-10.5496
▁sayısında	-10.5497
▁hücreleri	-10.55
▁bebeğin	-10.5501
▁basını	-10.5515
▁medyası	-10.5518
▁bez	-10.5519
▁89	-10.5522
▁müttefik	-10.5528
▁Quaresma	-10.5528
▁Doktor	-10.5528
▁SGK	-10.5528
▁zehir	-10.5528
▁ameliyatı	-10.5529
▁Biden	-10.5532
▁Tosun	-10.5533
▁AR	-10.5537
▁yıllarında	-10.5545
▁somu	-10.5547
▁alındığını	-10.555
▁devir	-10.5552
▁dönemlerde	-10.5553
▁83	-10.5559
▁oturma	-10.556
▁yaralandığı	-10.5561
▁yanıtı	-10.5563
▁ürünlerin	-10.5568
▁seni	-10.5569
▁yapılır	-10.5576
▁İnternet	-10.5577
▁Elazığ	-10.5577
çavuş	-10.5577
▁vuruşunda	-10.5577
▁blok	-10.5578
▁tanıştı	-10.5578
▁Anlaşma	-10.5578
▁karşılaşmada	-10.5579
Devlet	-10.558
▁terörün	-10.5582
lemiş	-10.5582
▁Mesu	-10.559
▁yatırımlar	-10.559
▁artıyor	-10.559
lenerek	-10.5592
▁Sevgili	-10.5593
▁başkanlığı	-10.5593
▁Kurum	-10.5604
▁hepimiz	-10.5612
eşke	-10.5612
▁tuz	-10.5615
▁okullar	-10.5619
▁Res	-10.5622
▁Boğaz	-10.5624
▁Levent	-10.5626
▁edileceği	-10.5626
▁minibüs	-10.5626
▁Sınav	-10.5626
▁mikro	-10.5627
▁Kanada	-10.5628
Sen	-10.5628
▁Kom	-10.5628
▁birlikleri	-10.563
▁özür	-10.5633
▁çizdi	-10.5634
▁Oku	-10.5651
▁savaşın	-10.5654
▁tedbirleri	-10.5655
US	-10.5663
▁Projesi	-10.567
▁buluşma	-10.5673
▁Yönetimi	-10.5674
▁Kazada	-10.5674
▁pil	-10.5674
uyruklu	-10.5675
▁Elektrik	-10.5675
▁Muhammet	-10.5675
▁Mutlu	-10.5676
▁Zafer	-10.5676
▁Vatan	-10.5676
▁yüzünü	-10.5681
▁Pri	-10.5689
▁sattı	-10.5691
ildiği	-10.5694
ağdaş	-10.5696
▁Hız	-10.5699
▁söylemek	-10.5699
▁Neden	-10.5703
▁kül	-10.5703
sch	-10.5721
▁Mac	-10.5724
▁İspanyol	-10.5725
Android	-10.5725
▁kilogram	-10.5725
▁Mevlü	-10.5725
▁Ermeni	-10.5725
▁idman	-10.5725
▁Par	-10.5726
▁erişim	-10.5726
▁Hedef	-10.5726
▁belgesi	-10.5727
▁üssü	-10.5728
▁Camii	-10.5728
▁gazetecileri	-10.5731
▁Evli	-10.5731
▁topladı	-10.5737
▁göstermek	-10.5737
12	-10.5741
▁işsizli	-10.5741
▁ettiğimiz	-10.5742
▁Konut	-10.5744
▁elleri	-10.5751
▁ülkelerinde	-10.5754
▁geçer	-10.5758
▁arı	-10.5765
▁maçlarda	-10.5767
▁gar	-10.5769
▁açığı	-10.577
▁ajan	-10.5772
▁Çift	-10.5772
▁Oğuz	-10.5773
▁şahit	-10.5775
′	-10.5775
▁Doğru	-10.5775
▁Münih	-10.5775
▁santral	-10.5775
▁kumpas	-10.5775
▁Adnan	-10.5776
▁Hanım	-10.5776
terapi	-10.5777
▁verilmiş	-10.5778
▁satıla	-10.5778
▁Numa	-10.5779
▁71	-10.578
▁cihaz	-10.5782
▁liğin	-10.5783
▁girmek	-10.5785
▁Final	-10.5789
▁inancı	-10.5789
▁Doğa	-10.5793
▁boşa	-10.5793
▁öp	-10.5794
▁ziyaretçi	-10.5794
▁Rapor	-10.5795
▁evler	-10.58
▁lardır	-10.5803
▁okur	-10.5805
▁kayıtları	-10.5807
ting	-10.5816
▁74	-10.5818
İST	-10.5821
▁Zor	-10.5822
▁Avukat	-10.5825
▁Tunceli	-10.5825
▁dördüncü	-10.5825
▁çoğunluğu	-10.5825
▁çalıştığını	-10.5826
▁Dön	-10.5827
▁Abdul	-10.5827
▁seviyesin	-10.5828
▁etmesini	-10.5828
▁oluşuyor	-10.5829
▁aileleri	-10.5831
▁şoförü	-10.5832
▁emri	-10.5834
▁isyan	-10.5836
▁nakli	-10.5839
▁çalın	-10.5846
▁saatlerde	-10.5848
bilen	-10.5848
ph	-10.5851
▁araştırmalar	-10.5855
▁yakıt	-10.5857
▁kaba	-10.5861
▁etkisini	-10.5862
▁indiri	-10.5864
▁duyurul	-10.5869
▁yılını	-10.5871
▁hayali	-10.5874
▁keşf	-10.5875
▁AVM	-10.5875
▁Kerry	-10.5875
▁Öksüz	-10.5875
▁otorite	-10.5875
▁elimizde	-10.5876
▁sunucu	-10.5882
▁devri	-10.5888
▁çadır	-10.5889
▁maddeleri	-10.589
▁maliyet	-10.5892
▁82	-10.5893
▁olduğundan	-10.5893
▁başlattığı	-10.5896
▁sunduğu	-10.5899
▁eleme	-10.5904
▁işlemler	-10.5908
▁muhalifler	-10.592
▁kadını	-10.592
▁sundu	-10.5921
▁ayağ	-10.5921
▁edilirken	-10.5931
▁düşünüyoruz	-10.5933
▁oturum	-10.5934
vekili	-10.5948
▁cağını	-10.5956
▁testi	-10.5957
▁hareketli	-10.5958
▁AY	-10.5959
▁kullanıldı	-10.5976
▁aktivite	-10.5976
▁randevu	-10.5976
▁şebeke	-10.5976
▁şehidin	-10.5976
▁mevzi	-10.5976
▁Köse	-10.5976
▁galip	-10.5976
▁mutabakat	-10.5978
▁Ercan	-10.5978
▁değiliz	-10.5981
▁hazırlanıyor	-10.5983
▁sorma	-10.5987
▁!"	-10.5999
▁Yerli	-10.6001
▁evini	-10.6003
▁vesile	-10.6005
▁indirimi	-10.6009
▁golle	-10.601
▁Bah	-10.6014
▁çekin	-10.6018
▁Çağ	-10.6019
▁müzakere	-10.6023
▁mühimmat	-10.6027
▁Çocuğu	-10.6027
▁kıyasla	-10.6027
▁Celal	-10.6027
▁Seçim	-10.6028
▁Taraftar	-10.6028
▁katkısı	-10.603
▁oranını	-10.6034
▁Pek	-10.6034
▁etmektedir	-10.6036
▁öldüre	-10.604
▁gelişimi	-10.6046
▁pozisyonu	-10.6048
▁yağış	-10.6048
▁trafiğ	-10.6049
▁alamaya	-10.605
▁Okulu	-10.6056
▁çıkarmak	-10.606
▁ağabeyi	-10.6061
▁gençleri	-10.6071
▁gönül	-10.6074
▁sistemleri	-10.6074
▁içeriği	-10.6078
▁Görüşme	-10.6079
▁litre	-10.6079
▁Sorumlu	-10.6079
▁Hil	-10.608
▁Kut	-10.6082
şer	-10.6087
▁ajansı	-10.6091
▁lerdir	-10.6097
▁denile	-10.6099
▁sıkıntılar	-10.6099
▁örtü	-10.61
mavili	-10.6103
▁şüphesi	-10.6106
seydi	-10.6113
▁araştır	-10.6119
▁büyüdü	-10.6123
▁hiss	-10.6124
▁firmaların	-10.6128
▁müdahalesi	-10.6129
▁geleceğini	-10.6129
▁referandum	-10.613
▁müjde	-10.613
▁yorlar	-10.6136
▁Yakın	-10.6139
▁bağlantısı	-10.6144
▁çabaları	-10.6146
▁taşıdı	-10.6146
▁verileri	-10.6146
▁giderken	-10.6147
▁sizler	-10.6152
▁darbeciler	-10.6152
▁çıkardığı	-10.6152
▁seviyede	-10.6173
▁gemisi	-10.6175
▁uyma	-10.6182
▁belgeler	-10.6182
▁Körfez	-10.6182
▁Olimpiyat	-10.6182
▁Müsteşar	-10.6182
▁kaldıra	-10.6182
▁kazanç	-10.6183
▁kendimi	-10.6183
▁mevzuat	-10.6185
▁yürüme	-10.6185
▁gerekmektedir	-10.6188
▁getirerek	-10.6188
▁aşamasında	-10.6189
▁geçeceği	-10.619
▁2006	-10.6192
▁Zirvesi	-10.6196
▁amaçla	-10.6199
▁kuvvetleri	-10.6199
▁Hükümeti	-10.6199
▁doğumlu	-10.62
▁gr	-10.6201
▁filmde	-10.6202
▁Emir	-10.6204
▁İnsanlar	-10.6204
▁çare	-10.6204
▁Akıl	-10.6205
▁askerleri	-10.6206
▁mesajları	-10.621
▁yapılabil	-10.6217
▁görmedi	-10.6218
▁katında	-10.6223
▁Abd	-10.6224
▁önlem	-10.6228
▁hükm	-10.6228
▁öğrenile	-10.6232
▁Fuarı	-10.6232
▁61	-10.6233
▁Avustralya	-10.6234
▁tehdidi	-10.6234
▁hormon	-10.6234
▁tebrik	-10.6234
▁Sabri	-10.6234
▁Kamer	-10.6234
▁Karşılaşma	-10.6235
▁boşanma	-10.6236
▁Özcan	-10.6236
▁İmam	-10.6237
▁çekici	-10.6238
▁sığ	-10.6239
▁başlığı	-10.6239
▁semt	-10.6241
▁imkân	-10.6244
▁yapmadı	-10.6245
▁başlamıştı	-10.6252
▁2.5	-10.6254
▁Hati	-10.6256
▁konumunda	-10.6257
▁Zeki	-10.6258
ess	-10.6258
▁Pat	-10.6259
▁göm	-10.6259
▁ödene	-10.6261
xy	-10.6261
▁harekatı	-10.6269
▁yargılana	-10.6273
▁muhafaza	-10.6276
▁Banka	-10.6277
▁radyo	-10.6281
·	-10.6286
▁Bingöl	-10.6286
▁bonservis	-10.6286
▁işadamları	-10.6286
▁Tasarı	-10.6286
▁Hareket	-10.6286
▁manzara	-10.6286
▁Şehitler	-10.6286
▁ufak	-10.6286
▁1-1	-10.6287
▁organları	-10.6288
▁üstünlüğü	-10.629
olo	-10.6291
▁Patlama	-10.6291
▁babasını	-10.6292
▁Belge	-10.6293
▁cezaevinde	-10.6303
▁falan	-10.6303
▁ortağı	-10.6304
▁hikaye	-10.631
▁imkan	-10.6326
▁araçla	-10.6328
▁kör	-10.6337
▁uğur	-10.6337
▁toplaya	-10.6338
▁planlan	-10.6338
▁vermeyi	-10.6338
▁İLGİ	-10.6339
▁Tugay	-10.6339
▁kapatıldı	-10.6339
▁Pınar	-10.6339
▁Batman	-10.6339
▁tansiyon	-10.634
▁2,9	-10.634
▁akışı	-10.6341
▁sureti	-10.6341
▁görmüş	-10.6341
▁emeklilik	-10.6342
▁Ulaştırma	-10.6343
▁Tekin	-10.6345
▁hattında	-10.6347
▁modelleri	-10.6348
▁2003	-10.635
▁artırdı	-10.6352
LIK	-10.6355
▁diploma	-10.6356
▁ölümün	-10.6356
▁anlayış	-10.6357
▁değilim	-10.6359
▁çıkmıştı	-10.6359
▁kaldırdı	-10.6361
▁gördüğünü	-10.6362
▁tedbirler	-10.6367
▁oğlunu	-10.6368
▁Onu	-10.6369
wi	-10.637
▁Köy	-10.6373
▁Direktör	-10.638
▁yakı	-10.6382
▁biten	-10.6383
tomotiv	-10.6383
▁tıp	-10.6386
▁Yağ	-10.6387
▁sakinleri	-10.6387
▁hatırlattı	-10.6392
▁kapsaya	-10.6392
▁çöze	-10.6392
▁Polat	-10.6392
▁bilmiyorum	-10.6397
▁kaçırma	-10.6398
▁Yıllar	-10.6398
port	-10.6401
▁kardeşleri	-10.6404
▁çocuğunu	-10.6404
▁dergisi	-10.6406
▁lerdi	-10.6406
▁karşılaşması	-10.6407
▁mesajlar	-10.6409
▁Esra	-10.641
▁Arka	-10.6419
ülmüş	-10.642
▁uyandı	-10.6425
ılıp	-10.6431
▁gitmiş	-10.6435
▁önünü	-10.644
▁görüşmede	-10.6441
▁sıcaklığı	-10.6442
▁84	-10.6444
▁Gümrük	-10.6445
▁Turgut	-10.6445
▁çukur	-10.6445
▁roket	-10.6445
▁emanet	-10.6445
▁bulgu	-10.6446
▁86	-10.6446
▁yanıtladı	-10.645
▁Hakim	-10.6454
leştirilmesi	-10.6458
▁yolculuk	-10.646
▁Jose	-10.6466
▁pası	-10.6468
▁Yaz	-10.6468
▁haklarını	-10.6469
▁oyunları	-10.6476
lendirilmesi	-10.6477
▁kalite	-10.6478
▁geliştirdi	-10.648
▁sıcaklık	-10.6481
▁arttığı	-10.6487
▁tehlikesi	-10.6495
▁mart	-10.6496
40	-10.6498
▁böbrek	-10.6499
▁iftira	-10.6499
▁çiçek	-10.6499
▁metro	-10.6499
▁sarf	-10.6499
▁bitirdi	-10.65
▁Yenikapı	-10.65
▁Yüksekova	-10.6501
▁benzin	-10.6505
▁düşürdü	-10.6505
▁genişlet	-10.6507
bor	-10.6507
▁programında	-10.6507
▁2004	-10.6509
▁hacmi	-10.651
▁pahalı	-10.651
▁lığın	-10.6512
▁Müslümanlar	-10.6513
▁çaldı	-10.6514
▁arıyor	-10.6518
▁okulda	-10.652
▁Musa	-10.6525
burcu	-10.6527
▁Daire	-10.6527
inizi	-10.6535
▁adımı	-10.6538
▁düzenlemeler	-10.654
▁yönü	-10.6544
▁tadı	-10.6544
▁kazanmak	-10.6547
▁mevki	-10.6549
▁paylaştığı	-10.6552
▁Peygamber	-10.6552
▁Tesisleri	-10.6552
▁OHAL	-10.6552
▁Sto	-10.6553
▁Bölü	-10.6553
Elbette	-10.6553
▁müzakereler	-10.6557
▁görüşe	-10.6557
▁seçildi	-10.6557
▁nızda	-10.6559
▁Tarih	-10.656
▁par	-10.6561
▁Mah	-10.657
▁gözyaş	-10.6573
▁anlaştı	-10.6573
▁bot	-10.6585
▁dönüşü	-10.659
▁etmekte	-10.6595
▁sözcü	-10.6598
▁Destek	-10.6606
▁Diyanet	-10.6606
▁kökenli	-10.6606
▁otopsi	-10.6607
▁Satış	-10.6607
▁masum	-10.6607
▁Messi	-10.6607
▁tabut	-10.6607
▁Tatlı	-10.6608
▁isteye	-10.6612
▁gerçekleştirme	-10.6614
▁yendi	-10.6615
▁derbisi	-10.6617
▁anket	-10.6618
▁piyasada	-10.662
▁yakalaya	-10.6621
▁boza	-10.6622
▁kazası	-10.6629
▁tatili	-10.6647
▁ruhu	-10.6657
▁HABER	-10.6661
▁masraf	-10.6661
▁seçti	-10.6661
ullah	-10.6662
▁ideal	-10.6662
▁Düzen	-10.6662
▁layık	-10.6663
▁düşürü	-10.6663
▁çalışırken	-10.6666
▁davada	-10.6669
▁fiyatlar	-10.667
▁sevgilisi	-10.6672
▁Hel	-10.6673
ülüyor	-10.6673
▁büyümesi	-10.6677
▁kutla	-10.6681
▁şampiyonluğu	-10.6681
▁kendiniz	-10.6682
▁biliyorum	-10.6687
▁hareketleri	-10.6689
▁değerlendirile	-10.6689
▁akım	-10.6691
▁teknolojisi	-10.6697
▁problemi	-10.6697
▁hayırlı	-10.6699
▁başlamış	-10.6703
▁bankaların	-10.6703
▁Müzesi	-10.6704
▁sanki	-10.6705
▁dostu	-10.6705
bah	-10.6707
▁Başsavcı	-10.6711
▁Sinema	-10.6713
▁Trafik	-10.6715
▁cesaret	-10.6715
▁Karşıyaka	-10.6715
▁Başarı	-10.6716
LER	-10.6718
▁bahane	-10.6719
▁söylemişti	-10.6719
▁özetle	-10.672
▁patlat	-10.6721
▁katılacak	-10.6724
▁leme	-10.6726
▁azaltma	-10.6727
▁buluş	-10.6728
▁isterim	-10.6728
▁sürme	-10.6736
▁ER	-10.6737
▁değişik	-10.6738
▁arsa	-10.6741
▁Filistin	-10.6742
▁elim	-10.6743
▁eleştire	-10.6744
▁Nazi	-10.675
▁gittiğini	-10.6754
▁atmış	-10.6761
▁köyünde	-10.6762
▁1.2	-10.6764
alkınma	-10.6764
▁teşebbüs	-10.6765
▁Bakırköy	-10.677
▁heykel	-10.677
▁Yargı	-10.677
▁perde	-10.6771
▁Ağrı	-10.6773
▁yürütme	-10.6774
▁Adı	-10.6774
▁geze	-10.6776
▁Değer	-10.6778
▁getirecek	-10.6779
▁kategori	-10.6779
▁neticesi	-10.6781
▁darbeci	-10.6785
▁çekmek	-10.6786
▁beklentisi	-10.6786
▁çıkarken	-10.6789
▁aksine	-10.6791
▁Martin	-10.6792
▁sürecek	-10.6792
▁mimar	-10.6798
-10	-10.6804
▁kanat	-10.6804
▁yazısı	-10.6804
▁yayınladı	-10.6805
▁gönder	-10.6807
▁kaptan	-10.6807
▁işini	-10.6814
▁detayları	-10.6818
▁kampı	-10.6824
▁Podolski	-10.6826
▁durdurulması	-10.6826
▁hafıza	-10.6826
▁yönetil	-10.6827
▁anlaşıldı	-10.683
▁unsur	-10.6831
▁kesile	-10.6833
▁şikayetçi	-10.6835
▁Akif	-10.6839
▁güzellik	-10.684
▁mızda	-10.6842
▁halkını	-10.6842
▁mülk	-10.6843
▁ür	-10.6844
ation	-10.6847
▁adaylar	-10.6847
▁öldürüle	-10.6852
▁yargılama	-10.6852
avid	-10.6857
▁kaldırıldığı	-10.6859
▁iletti	-10.6862
▁sürdürme	-10.6863
▁idi	-10.6865
▁Lima	-10.6876
▁Bolu	-10.6877
▁kavuştu	-10.6881
▁Çukur	-10.6881
▁kimyasal	-10.6881
▁sıvı	-10.6881
▁Erdal	-10.6882
▁çevirdi	-10.6883
▁Uyg	-10.6885
▁Engin	-10.6886
▁biliniyor	-10.6887
▁veriliyor	-10.6889
▁Akıncı	-10.6889
▁uygulanacak	-10.6893
▁inanç	-10.6899
▁boya	-10.6899
▁yatırımı	-10.6901
▁Sezon	-10.6901
▁uygulamalar	-10.6903
▁telefonları	-10.6905
▁virüs	-10.6906
▁görür	-10.6913
▁bilgisini	-10.6917
▁tarz	-10.6918
▁eksi	-10.6919
urtuluş	-10.6921
▁Doç	-10.6925
▁Kars	-10.6935
▁yorgun	-10.6937
ografi	-10.6938
▁Atleti	-10.6939
▁sürüldü	-10.694
▁sığına	-10.694
▁09	-10.6941
lacivertliler	-10.6942
▁kral	-10.6944
▁sekiz	-10.6944
▁propagandası	-10.6951
▁İlhan	-10.6954
▁sezonu	-10.6962
▁ağırlığı	-10.6965
▁faydalı	-10.6965
▁veriyoruz	-10.6966
▁gerilim	-10.6966
▁artırmak	-10.6975
▁hırsız	-10.6981
▁markası	-10.6984
▁Çay	-10.6986
ıpkı	-10.6993
▁platform	-10.6993
▁edilebilir	-10.6993
▁Başkent	-10.6993
▁hariç	-10.6993
▁seçilmiş	-10.6994
▁sevgili	-10.6996
▁çağırdı	-10.6997
▁akademisyen	-10.7
▁tüp	-10.7001
▁riskini	-10.7011
▁yuva	-10.7027
str	-10.7027
▁Bahçe	-10.7028
amp	-10.7031
▁kolaylaştır	-10.7034
▁soy	-10.7037
▁militan	-10.7043
▁çekil	-10.7046
▁Ey	-10.7047
▁Hakem	-10.7048
▁Şehidi	-10.705
▁market	-10.705
▁manevi	-10.7053
▁muhalifleri	-10.7059
▁yetkisi	-10.706
▁etken	-10.7067
Ekonomi	-10.7068
▁takipçi	-10.7072
▁adında	-10.7087
▁mizle	-10.7089
▁99	-10.7093
▁yöntemler	-10.7094
▁ilişkilerini	-10.7094
▁ihtiyaçları	-10.7096
▁paylaşımı	-10.7099
▁küfür	-10.7106
▁protokol	-10.7106
▁ömür	-10.7106
▁20.00	-10.7115
▁özgü	-10.7119
▁seviyesini	-10.7125
▁uzakta	-10.7126
▁öğretmeni	-10.7127
▁eksikliği	-10.7127
melidir	-10.7129
▁Kurba	-10.7135
anılan	-10.7135
▁Camisi	-10.7138
▁toz	-10.7139
▁oluşu	-10.714
▁dum	-10.7147
▁birbirlerin	-10.7158
▁Del	-10.7159
bileceğini	-10.7163
▁Silopi	-10.7164
▁Meteoroloji	-10.7164
▁cumartesi	-10.7164
▁mağlubiyet	-10.7164
▁ihtiyacımız	-10.7164
▁eğilim	-10.7164
▁konvoy	-10.7164
▁Rıza	-10.7164
▁Selaha	-10.7164
▁Abdül	-10.7165
▁Diş	-10.7172
RU	-10.7173
▁korunma	-10.7174
▁bakıl	-10.7178
▁söylüyorum	-10.7182
▁gazı	-10.7183
▁alet	-10.7183
▁kararlılık	-10.7186
▁kendimiz	-10.7195
▁yerlerinde	-10.7196
▁tamamını	-10.7198
▁anladı	-10.7201
▁takımını	-10.7203
▁detaylar	-10.7204
▁sayıla	-10.7209
latma	-10.7211
▁ihlali	-10.7214
▁hazırladı	-10.7218
▁Komitesi	-10.7221
▁Arjantin	-10.7221
▁basketbol	-10.7221
▁ideoloji	-10.7221
▁çarpa	-10.7221
▁Muslera	-10.7221
▁Vergi	-10.7223
▁etap	-10.7224
▁Yaka	-10.7225
▁kadrosunda	-10.7226
▁Bürosu	-10.7226
▁LARI	-10.7227
▁yum	-10.7227
▁Kuş	-10.7244
▁Göç	-10.7255
berg	-10.7256
▁baktı	-10.7258
▁iyileşme	-10.7266
▁gündemde	-10.7267
▁post	-10.727
▁gelirleri	-10.7271
▁maması	-10.7277
▁apartman	-10.7279
▁Sektör	-10.7279
▁Töre	-10.7279
▁mekanizma	-10.7279
▁Yarışma	-10.728
▁İŞ	-10.7282
▁tesisi	-10.7284
▁futbolcuların	-10.7287
▁sisteminde	-10.7289
▁Adem	-10.7289
▁yansıdı	-10.729
▁duyarlı	-10.7296
▁Özkan	-10.7299
-16	-10.7299
çelik	-10.7301
▁besin	-10.7304
▁Sad	-10.7314
▁gök	-10.7314
▁oluşturul	-10.7316
▁hepsini	-10.7319
▁alamadı	-10.732
▁sakat	-10.7321
▁Oka	-10.7322
▁sergiledi	-10.733
MAN	-10.733
▁numarası	-10.733
▁hassas	-10.7335
▁götürme	-10.7337
▁Dört	-10.7337
▁yurdu	-10.7337
▁rengi	-10.7338
que	-10.7338
▁cezalandırılma	-10.7339
▁göster	-10.7344
▁savunması	-10.7348
▁meyecek	-10.7349
EY	-10.7351
▁Programı	-10.7352
▁iddialar	-10.7353
▁sigortası	-10.7355
▁planlıyor	-10.7356
▁suçlama	-10.736
▁bulunmuştu	-10.7366
▁ını	-10.7367
▁virüsü	-10.7369
▁sesleri	-10.738
▁öldürü	-10.7384
▁Ur	-10.7389
▁Tiyatro	-10.739
▁atılması	-10.7391
▁Kaf	-10.7394
▁alarm	-10.7395
▁Uygulama	-10.7395
▁robot	-10.7395
▁Chris	-10.7396
▁Kitap	-10.7396
▁dükkan	-10.7396
▁beste	-10.7396
▁koltuk	-10.7396
▁kısım	-10.74
▁baktığımız	-10.7402
▁Mimar	-10.7402
▁Beyoğlu	-10.7404
▁düşüyor	-10.7406
▁boğaz	-10.7408
▁kullanıcıların	-10.7408
▁sakatlığı	-10.7414
▁vücud	-10.7421
Bugün	-10.7422
▁Yoks	-10.7423
▁okulu	-10.7424
▁Eto	-10.7425
▁bıraktığı	-10.743
▁konumu	-10.7431
▁toplandı	-10.7433
▁uzmanlar	-10.7434
▁derecede	-10.7434
▁maddeler	-10.744
▁besinler	-10.744
sco	-10.7444
▁golcü	-10.7448
▁arkadaşlarımız	-10.745
▁kanama	-10.7451
▁alakalı	-10.7454
▁edilemez	-10.7454
▁Sabancı	-10.7454
▁gecikme	-10.7454
▁Cüney	-10.7454
▁karbon	-10.7455
▁resme	-10.7455
▁Instagram	-10.7455
▁kabin	-10.7461
▁yarattığı	-10.7461
▁indirdi	-10.7464
meyiz	-10.7473
▁söyler	-10.7488
▁planlama	-10.7489
▁yolculuğun	-10.75
▁kaybetmesi	-10.7503
LAR	-10.7507
▁olgu	-10.7507
▁Hamza	-10.7512
▁Yiğit	-10.7513
▁mükemmel	-10.7513
▁manşet	-10.7513
▁çöp	-10.7514
▁istasyonu	-10.7514
▁Metro	-10.7514
Boğaziçi	-10.7516
▁BAŞ	-10.7516
▁Ersoy	-10.7516
▁karışık	-10.7518
▁militanları	-10.7521
▁kurs	-10.7524
▁Ordusu	-10.7524
▁aranan	-10.7524
▁Bahar	-10.7524
▁satır	-10.7528
▁YAP	-10.7528
▁görüldüğü	-10.7532
▁faaliyetlerini	-10.7535
▁Mavi	-10.7536
▁etmez	-10.7536
X	-10.7537
▁hikâye	-10.7543
▁Yok	-10.7543
▁2015"	-10.7545
▁böl	-10.7547
▁kesimi	-10.7548
▁Arı	-10.7549
▁etkilene	-10.7549
CI	-10.7549
▁baktığı	-10.7563
▁gitmesi	-10.7563
▁Kaynak	-10.7566
tom	-10.7566
▁Filmi	-10.7572
▁Enstitüsü	-10.7573
▁FIFA	-10.7573
▁tweet	-10.7573
▁Napoli	-10.7573
▁Meslek	-10.7573
▁Müzik	-10.7573
▁olmuyor	-10.7574
▁olabilecek	-10.7574
TL	-10.7576
▁şeyleri	-10.7582
▁cevabını	-10.7583
-5	-10.7585
▁işleti	-10.7587
FA	-10.7588
▁2005	-10.7588
▁17-2	-10.7588
▁Cemal	-10.759
ÜL	-10.759
▁seçe	-10.7591
eyhan	-10.7593
laştığı	-10.7594
▁Özge	-10.7594
▁İlişkiler	-10.7599
tah	-10.7602
▁almadı	-10.7602
▁kardeşim	-10.7603
▁almayı	-10.7607
▁başkanlığında	-10.7608
▁Mc	-10.7611
▁sırtı	-10.7621
▁kamuoyun	-10.7624
▁dans	-10.7624
▁tamamlama	-10.7624
▁Özal	-10.7626
▁vatanı	-10.7627
▁sınıfı	-10.7627
▁tutum	-10.7627
▁şifa	-10.7633
▁Şampiyonası	-10.7633
ment	-10.7634
▁düşündüğü	-10.7635
▁görülür	-10.7636
▁vadede	-10.7636
▁güçler	-10.7638
Ebru	-10.7641
orku	-10.7648
▁saldırılarını	-10.7658
İstanbul	-10.7659
▁bebeği	-10.7667
▁potansiyeli	-10.7669
▁karşıladı	-10.7669
cc	-10.767
▁bildiğini	-10.7673
xx	-10.7678
▁doldu	-10.768
üresel	-10.7686
▁yollarını	-10.7692
▁Akşam	-10.7693
▁Hazine	-10.7693
▁protein	-10.7694
SPOR	-10.7694
▁ruhsat	-10.7694
▁nitelendir	-10.7695
▁ticareti	-10.7697
▁Şüpheliler	-10.7697
▁etmiştir	-10.7706
▁kesildi	-10.7707
▁Rahm	-10.7708
▁Cor	-10.771
▁03	-10.7718
▁İst	-10.7722
▁zararı	-10.7723
▁kaliteli	-10.7725
▁bozulma	-10.7734
▁söylemi	-10.7736
cüsü	-10.7737
▁yazan	-10.7743
▁seyir	-10.7743
▁makine	-10.7744
lastik	-10.7744
başka	-10.7744
▁geçmeye	-10.7747
▁Yüksel	-10.7754
▁tüfek	-10.7754
▁yolsuzluk	-10.7754
▁Saha	-10.7755
▁dram	-10.7756
▁grupta	-10.7759
▁göstererek	-10.7761
▁cildi	-10.7762
▁kuruluş	-10.7762
▁Siyas	-10.7764
▁döner	-10.7767
▁torun	-10.7767
▁kazada	-10.7777
▁bırakıla	-10.778
▁BU	-10.7784
▁Şener	-10.7796
▁gaye	-10.7801
▁Bayer	-10.7802
▁değiştirdi	-10.781
▁ulaşmak	-10.7813
▁Telefon	-10.7815
▁bakıldığında	-10.7815
▁Üssü	-10.7815
▁koştu	-10.7815
▁aktarıldı	-10.7815
▁vurma	-10.7816
▁bozdu	-10.7816
▁karakol	-10.7816
▁Yanal	-10.7817
▁iddianamede	-10.7817
▁hesabını	-10.7818
▁Efes	-10.7819
▁çabu	-10.782
▁usul	-10.7821
▁eyaletinde	-10.7827
▁savcılığ	-10.7828
▁soruya	-10.783
▁nizde	-10.7835
ight	-10.7836
▁Okta	-10.7837
▁çerçevede	-10.7843
▁katıla	-10.7849
▁oyu	-10.7854
▁liğini	-10.7855
▁önlemler	-10.7856
▁hizmetler	-10.786
▁diyorum	-10.7861
▁varil	-10.7862
▁adımları	-10.7869
▁tutula	-10.787
▁Hani	-10.7872
▁etraf	-10.7872
▁yapacağını	-10.7872
▁gürültü	-10.7876
▁Rüzgar	-10.7876
▁kıymet	-10.7876
▁felaket	-10.7876
▁Tedavi	-10.7876
▁lehine	-10.7876
▁Bağdat	-10.7876
▁düzelt	-10.7889
▁Lider	-10.789
▁ihtiyacını	-10.7893
▁2001	-10.7894
hor	-10.7897
▁temsilci	-10.7912
▁vuruldu	-10.7913
EDİ	-10.7916
▁laştırı	-10.7917
▁kardeşlerimiz	-10.7917
▁aleyhin	-10.792
▁temizlik	-10.792
▁saydı	-10.7923
▁partiler	-10.7929
▁Yaralılar	-10.793
▁sında	-10.793
▁gönderilme	-10.7931
▁kahvaltı	-10.7938
▁Olağan	-10.7938
▁Taksim	-10.7938
▁keyfi	-10.7938
▁Uşak	-10.7938
▁gündüz	-10.7938
▁sıkıştı	-10.7938
▁iklim	-10.7939
▁bulur	-10.794
▁havuz	-10.7942
▁hissi	-10.7944
▁Yeter	-10.7945
▁gitmeye	-10.7945
▁işlev	-10.7946
▁tarama	-10.7946
▁Alevi	-10.7947
▁Ziy	-10.795
▁ediyordu	-10.7951
▁duman	-10.7951
▁şahıslar	-10.7951
▁evliliği	-10.7953
▁Toprak	-10.7957
▁paketi	-10.7961
▁Tanı	-10.7964
▁bireyler	-10.797
▁hastası	-10.7971
▁hazırlığı	-10.7979
▁parçaları	-10.7979
▁Vatandaşlar	-10.7981
▁oynamak	-10.7983
▁kavram	-10.7992
dor	-10.7994
▁Mem	-10.7997
▁dokunulmazlık	-10.8
▁ikamet	-10.8
▁pozitif	-10.8
▁klasik	-10.8
▁fonksiyon	-10.8001
▁şer	-10.8004
▁Siyaset	-10.8004
▁uzlaşma	-10.8007
istik	-10.8007
▁bilgilendirme	-10.8008
▁ederiz	-10.801
▁uzaklaştı	-10.8011
▁West	-10.8013
▁memleket	-10.8016
▁aştı	-10.8016
▁iadesi	-10.8019
▁İşçi	-10.8021
▁başını	-10.8021
▁bombası	-10.8029
▁Karaman	-10.8039
ska	-10.804
▁civarı	-10.8044
▁saldırısını	-10.8045
▁öncü	-10.8046
▁edebi	-10.8052
▁şehrinde	-10.8053
▁raporda	-10.8054
▁oluşturmak	-10.8056
▁boyutu	-10.8059
şbirliği	-10.806
▁Vakıf	-10.8062
▁cumhuriyet	-10.8062
▁çirkin	-10.8062
▁beceri	-10.8062
▁koltuğun	-10.8062
▁bisiklet	-10.8063
▁suçlaması	-10.8063
▁evlat	-10.8063
▁olabiliyor	-10.8065
▁Büro	-10.807
▁küçü	-10.807
▁asit	-10.8075
▁yakınında	-10.8077
▁kiralama	-10.8079
▁tasarı	-10.808
▁birimi	-10.8086
dö	-10.8086
▁kalkışma	-10.8088
▁vurgulayarak	-10.809
▁çıkarıldığı	-10.8091
▁kazanmış	-10.8094
▁çıkarılması	-10.8096
▁çeşit	-10.8097
▁87	-10.8098
baba	-10.8098
▁Aksu	-10.8101
▁cihazlar	-10.8105
▁alabilir	-10.8105
▁kalitesi	-10.8106
bahar	-10.8107
▁okulun	-10.8109
Benim	-10.811
▁kalkış	-10.811
▁tezahürat	-10.8125
▁Sivil	-10.8125
▁süper	-10.8125
▁infaz	-10.8125
▁facia	-10.8126
▁kurtardı	-10.8126
▁edebiyat	-10.8128
▁kablo	-10.8129
▁değişimi	-10.8131
▁Mahalle	-10.8133
▁cebi	-10.8134
▁Sistem	-10.8134
memesi	-10.8135
▁belgesel	-10.8137
▁hayatımız	-10.8138
▁Duman	-10.8141
▁miras	-10.8146
▁kova	-10.8148
▁projelerin	-10.8154
▁taban	-10.816
▁piyasalarda	-10.816
▁Harun	-10.8164
▁Bilal	-10.8169
▁istikametin	-10.817
▁zirvesi	-10.8173
▁ger	-10.8174
MI	-10.8177
▁babam	-10.8178
▁yayım	-10.8178
▁denetle	-10.8182
stro	-10.8184
▁pan	-10.8186
▁Köprü	-10.8187
▁Afganistan	-10.8189
▁Coşkun	-10.8189
▁Teşkilatı	-10.8189
▁Şeker	-10.8189
▁Otobüs	-10.8189
▁tahsil	-10.8189
▁büyükelçi	-10.8189
▁kalktı	-10.8189
▁tutku	-10.8189
▁yapımcı	-10.8189
▁uzaklıkta	-10.8189
▁Üçüncü	-10.819
▁Mobil	-10.8191
▁Şüpheli	-10.8192
▁Sergi	-10.8193
▁şef	-10.8194
▁filminde	-10.8195
▁Balkan	-10.8195
▁operasyonunda	-10.8198
▁iniş	-10.8202
▁arkadaşlar	-10.8203
▁Olur	-10.8204
▁Salonu	-10.8212
▁Japon	-10.8215
▁heyecanı	-10.822
▁taksit	-10.8223
▁edic	-10.8227
▁girer	-10.8241
DER	-10.8246
▁sipariş	-10.8252
▁vakıf	-10.8252
▁anahtar	-10.8252
▁takvim	-10.8252
▁çapraz	-10.8252
▁Üzeri	-10.8252
▁Ex	-10.8254
▁bağlaya	-10.8255
▁barındır	-10.8259
▁temizleme	-10.8259
▁atmak	-10.826
▁yapılmasını	-10.8261
▁girerek	-10.8262
▁Piya	-10.8264
▁iradesi	-10.8265
YP	-10.827
▁Kürtleri	-10.8277
▁edemedi	-10.828
▁yılbaşı	-10.8284
▁dersi	-10.8287
▁hikayesi	-10.8288
▁kitapları	-10.829
Çok	-10.8291
▁duyurusun	-10.83
▁söylene	-10.8302
▁zararlı	-10.8303
▁unutulma	-10.8304
▁Kupa	-10.8306
ayvancılık	-10.8309
▁seçimlerinde	-10.831
▁arayarak	-10.831
▁eylemler	-10.8313
▁işçiler	-10.8314
▁samimi	-10.8315
YOR	-10.8316
▁Televizyon	-10.8316
▁stoper	-10.8316
▁Adıyaman	-10.8316
▁Show	-10.8316
▁alerji	-10.8316
▁zorundayız	-10.8317
▁Premi	-10.8317
inanılmaz	-10.8317
▁sanığı	-10.8317
▁Yetkililer	-10.8317
▁Stat	-10.8317
▁Gezi	-10.8317
▁satıldı	-10.8317
▁Teröristler	-10.8318
▁baraj	-10.8319
▁Koza	-10.832
▁AYM	-10.8321
▁getirilmiş	-10.8321
▁korucu	-10.8325
▁Uzmanlar	-10.8327
▁olabileceğin	-10.833
▁kayb	-10.8333
▁edecektir	-10.8337
▁koku	-10.8343
▁koşa	-10.8343
▁Ayhan	-10.8347
▁Mars	-10.8358
Şu	-10.8358
▁düşer	-10.8361
▁değerler	-10.8362
▁Ailesi	-10.8362
▁duyguları	-10.8364
▁netice	-10.837
▁yarattı	-10.8374
▁çocuklarını	-10.8374
LİK	-10.8376
▁güvence	-10.8376
▁Yardım	-10.8377
▁Kongresi	-10.8378
▁rakamları	-10.8378
▁we	-10.8379
▁fiyatlarını	-10.838
▁peynir	-10.8381
▁koleksiyon	-10.8381
▁tescil	-10.8381
▁mesleği	-10.8381
▁elbise	-10.8381
▁bitirme	-10.8382
▁biber	-10.8387
▁gerçekleşecek	-10.8392
▁Suç	-10.8395
▁saray	-10.8396
▁2-3	-10.8398
▁çeyreğin	-10.8411
pazartesi	-10.8412
▁ışı	-10.8412
xxx	-10.8414
yıldız	-10.8415
▁bildire	-10.8425
▁350	-10.8425
▁Kimi	-10.8431
▁çığ	-10.8433
▁yaptırma	-10.8443
▁bakanlar	-10.8445
olog	-10.8445
▁Erzincan	-10.8446
▁Yorumu	-10.8446
▁Menderes	-10.8446
▁Öğretmen	-10.8446
▁tüketme	-10.8446
▁beraat	-10.8446
arslan	-10.8447
▁Vitor	-10.8448
▁kademe	-10.8448
▁inşaatı	-10.8459
▁dağıl	-10.846
▁panel	-10.8463
▁pist	-10.8468
▁vazgeçme	-10.847
▁dönmesi	-10.8476
▁ötesin	-10.8478
▁işlediği	-10.848
▁yaptırdı	-10.8483
▁emniyette	-10.8484
▁Kıv	-10.8493
▁evlendi	-10.8496
▁aşan	-10.8498
▁dıkları	-10.8501
▁uğradı	-10.8504
▁milletimizi	-10.8508
▁Angel	-10.851
▁Fotoğraf	-10.8511
▁Duruşma	-10.8511
▁istiyorlar	-10.8511
▁ÖSO	-10.8511
▁Cinayet	-10.8511
▁Azez	-10.8514
▁İçeri	-10.8515
▁beraberliği	-10.8517
▁olanak	-10.8518
▁iştah	-10.8519
▁Şer	-10.8521
▁kaybol	-10.8521
▁kurumsal	-10.8524
▁göstermesi	-10.8526
▁projesini	-10.8527
▁duruş	-10.8527
rıldığı	-10.8529
▁ulaşması	-10.853
▁eklem	-10.853
▁gelmedi	-10.8537
▁şarkıları	-10.8537
▁kısmında	-10.854
▁verirken	-10.8543
▁rakamlar	-10.8545
▁soku	-10.8555
▁giydiği	-10.8559
▁yiyecek	-10.8563
▁Gazeteci	-10.8563
▁aşkı	-10.8566
▁seslendi	-10.8568
▁hepimizi	-10.8569
▁geliştirile	-10.8576
▁Danimarka	-10.8577
▁rüzgar	-10.8577
@	-10.8577
▁kapatılması	-10.8577
▁maske	-10.8577
▁Yaşanan	-10.8577
▁Eyüp	-10.8577
▁memurları	-10.8578
▁vakti	-10.8578
▁uğraya	-10.8579
▁fırl	-10.858
▁aff	-10.858
▁yaktı	-10.858
▁yaralanma	-10.8584
▁dostları	-10.8586
▁Mus	-10.8586
▁rota	-10.8588
▁birbirleri	-10.8592
▁Temel	-10.8593
▁giydi	-10.8595
▁ettire	-10.8597
▁İS	-10.8602
▁evlenme	-10.8604
▁Tem	-10.8607
Yeni	-10.8617
▁130	-10.8618
▁emek	-10.8621
IYOR	-10.8623
▁süs	-10.8626
▁yatırımcılar	-10.8628
▁96	-10.8636
▁sorusunu	-10.8637
adil	-10.8639
▁Bayraktar	-10.8643
▁Moody	-10.8643
▁Serbest	-10.8643
▁göğüs	-10.8643
▁KDV	-10.8643
▁uzantı	-10.8643
▁Şarkı	-10.8643
▁önerge	-10.8643
▁gereks	-10.8644
▁kurtara	-10.8645
▁tedir	-10.8646
▁Lens	-10.8646
▁Giriş	-10.8647
▁koordinasyon	-10.8648
▁Kum	-10.8648
▁hakemi	-10.8651
▁duyan	-10.8652
▁okullarda	-10.8655
▁konuşmasını	-10.8669
▁04	-10.8669
▁2,5	-10.8673
▁ciro	-10.8677
▁belirtileri	-10.8677
▁eşyaları	-10.8679
Terör	-10.8681
▁görmesi	-10.8694
terör	-10.8694
▁ayakları	-10.8696
▁şüphelileri	-10.8703
▁çevreleri	-10.8707
▁Cenaze	-10.871
▁İktidar	-10.871
▁coşku	-10.871
▁idrar	-10.871
▁Amirliği	-10.871
▁cennet	-10.871
▁şeref	-10.871
amiral	-10.8711
▁yapabileceği	-10.8712
▁Konuşma	-10.8713
▁İsmet	-10.8713
▁düşmüş	-10.8714
mayınca	-10.8717
▁elebaşı	-10.8718
laştırılmış	-10.8723
▁büyüklüğünde	-10.8725
▁istikrarı	-10.8725
▁VAR	-10.8727
▁zorluklar	-10.8742
▁pazarında	-10.8742
▁Sow	-10.8747
malıyız	-10.8747
▁direktörü	-10.8751
▁Mete	-10.8755
▁olabil	-10.8757
▁dergi	-10.8766
▁sorgusu	-10.8769
▁cihazları	-10.877
▁Yaşam	-10.8773
▁Üsküdar	-10.8777
▁düşünmüyor	-10.8777
▁turnuva	-10.8777
▁kalori	-10.8777
▁büro	-10.8777
▁mesai	-10.8778
▁ulaşmış	-10.8779
▁pişman	-10.8782
▁Adası	-10.8783
▁çalışacak	-10.8786
▁hanım	-10.8788
▁ederse	-10.879
▁seçenek	-10.8791
▁yaşıyoruz	-10.8792
▁sığınmacılar	-10.8792
▁Cemil	-10.8794
▁namazını	-10.8799
▁çevredeki	-10.8801
İKA	-10.8804
▁fotoğrafını	-10.8804
▁vergisi	-10.8806
Rusya	-10.8817
▁Korku	-10.8828
▁Nite	-10.8829
rack	-10.883
Bizim	-10.8832
Politika	-10.8839
▁sigortalı	-10.8839
▁mavi	-10.8843
▁Yılı	-10.8844
▁Görüntü	-10.8845
▁perakende	-10.8845
▁2023	-10.8845
▁Tüneli	-10.8845
▁malzemeleri	-10.8846
▁Gençli	-10.8847
▁şehitlerimiz	-10.8847
▁internette	-10.8848
▁bırakıp	-10.8849
▁yandaş	-10.8849
Hillary	-10.8849
▁geneti	-10.8849
▁GÜN	-10.8853
▁Kaynaklar	-10.8853
▁Seze	-10.8854
▁genci	-10.8855
▁sorusu	-10.8856
▁açıyor	-10.886
▁siteleri	-10.886
▁atışı	-10.886
▁edilmeye	-10.8867
▁açılacak	-10.8871
▁girişimleri	-10.8872
▁taze	-10.8872
▁oluşması	-10.8878
▁194	-10.8879
▁rıla	-10.8883
▁Hayır	-10.8884
▁vaat	-10.8887
▁satan	-10.8893
▁yayımladı	-10.8896
▁oyunda	-10.8898
▁rekoru	-10.8902
DÜ	-10.891
▁TÜRKİYE	-10.8913
▁radikal	-10.8913
▁Fernandao	-10.8913
▁bordo	-10.8913
▁flaş	-10.8913
▁uzatma	-10.8914
▁raf	-10.8914
▁indirme	-10.8916
▁uygulanma	-10.892
▁hayatında	-10.8923
IST	-10.8924
▁karşılaya	-10.8929
▁Evde	-10.8931
▁düzeyinde	-10.8931
▁Tom	-10.8933
▁göstermiş	-10.8933
▁girişinde	-10.8935
▁Maçı	-10.8935
▁Parlamentosu	-10.8935
▁düşüre	-10.8938
▁sırt	-10.894
▁olamadı	-10.8948
▁girmeye	-10.8949
şifre	-10.8954
▁Operasyonu	-10.8954
▁gıdalar	-10.8956
▁kişilerde	-10.8958
lenebilir	-10.8961
▁soka	-10.8962
▁Güç	-10.8965
▁cinayeti	-10.8967
▁imkânı	-10.8968
▁hav	-10.8971
▁binada	-10.8971
▁haklarında	-10.8972
IP	-10.8975
▁Polonya	-10.8981
▁ittifak	-10.8981
▁merdiven	-10.8981
▁İletişim	-10.8981
▁1999	-10.8981
▁Zengin	-10.8981
▁Şükr	-10.8981
▁delege	-10.8982
▁şov	-10.8987
▁boru	-10.8989
▁Yazar	-10.8995
▁dizisinde	-10.8997
▁yansıma	-10.8998
Aktüe	-10.9005
▁vitamin	-10.9015
▁nisan	-10.9016
▁gebe	-10.9017
▁Piyang	-10.902
trik	-10.9021
▁Hadi	-10.9021
▁erteleme	-10.9021
▁söylemler	-10.9022
anırım	-10.9025
▁severler	-10.9029
▁GB	-10.9029
▁vatandaşımız	-10.903
▁İnce	-10.9032
▁uzmanları	-10.9037
▁dolandırıcı	-10.9037
▁filmler	-10.9043
▁konulu	-10.9043
▁kontrolünü	-10.9047
▁Müezzinoğlu	-10.905
▁pankart	-10.905
▁ümit	-10.905
▁Micha	-10.9051
▁Çınar	-10.9051
▁rüya	-10.9051
▁yansıya	-10.9051
ğmen	-10.9051
▁imkanları	-10.9053
▁hissediyor	-10.9053
▁hissetme	-10.9053
▁konuşula	-10.9053
▁vurgulandı	-10.9053
▁doğusunda	-10.9054
▁Rio	-10.9056
▁izlene	-10.9058
▁uzana	-10.9061
▁sözünü	-10.9065
▁oranla	-10.9068
▁110	-10.9075
▁3,2	-10.9079
▁tüketim	-10.9082
▁Başta	-10.9086
▁Filistinli	-10.9086
▁ambulansla	-10.9091
▁futbolcusu	-10.9092
▁kapılarını	-10.9095
▁ilçelerin	-10.9095
▁tutuklanması	-10.9105
▁maçlarında	-10.9106
▁ortaklık	-10.9108
▁TC	-10.911
▁gelecekte	-10.9112
▁Ergenekon	-10.9119
▁atmosfer	-10.9119
▁Haydar	-10.912
▁menajer	-10.912
▁Rektör	-10.912
ladimir	-10.912
▁Koruma	-10.912
▁Hangi	-10.912
▁soygun	-10.9121
▁Adliyesi	-10.9122
▁belirlenmesi	-10.9124
RO	-10.9125
▁umudu	-10.9126
▁astsubay	-10.913
▁kazanması	-10.913
▁alanlarında	-10.9133
ERİ	-10.9133
▁kucak	-10.9133
▁karşımız	-10.9142
▁varlığını	-10.9145
▁kuruldu	-10.9151
▁VER	-10.916
▁kolları	-10.9161
▁Silah	-10.9162
kurt	-10.9172
▁Ülker	-10.9175
▁Balık	-10.9178
üştü	-10.9178
▁Jame	-10.918
▁Mur	-10.9189
▁Mezarlığı	-10.9189
▁Bulgaristan	-10.9189
▁egemen	-10.9189
▁davranma	-10.9189
▁yavru	-10.919
▁tempo	-10.919
▁Yangın	-10.919
▁Alex	-10.919
▁Amed	-10.919
▁Rabb	-10.919
▁çıkın	-10.9192
▁Dönem	-10.9193
omando	-10.9195
▁çiğ	-10.9198
▁önlenmesi	-10.9199
▁LERİ	-10.92
▁faktörler	-10.9202
▁kırsal	-10.9203
▁hatırlatarak	-10.9204
▁yayınlanacak	-10.9205
▁ödenmesi	-10.9205
▁hukukun	-10.9206
▁Soy	-10.9208
▁oynayacak	-10.9209
▁koşullar	-10.9217
▁değerlendiril	-10.9222
▁artacak	-10.9223
▁nitelikl	-10.9227
▁çalıştıkları	-10.9235
▁çekilme	-10.9238
▁kalesin	-10.924
▁kartları	-10.9241
▁mültecileri	-10.9243
▁çağırı	-10.9251
▁uygulaya	-10.9256
▁ekranlar	-10.9257
▁Danıştay	-10.926
▁HSYK	-10.926
▁Konferans	-10.926
▁Lütf	-10.926
▁Norveç	-10.926
▁şaşkın	-10.926
▁Zonguldak	-10.926
▁Giresun	-10.926
▁zihin	-10.926
▁direksiyon	-10.926
▁takibi	-10.926
▁götürüle	-10.9261
▁Karabükspor	-10.9261
▁sembol	-10.9262
▁Necip	-10.9262
▁Altun	-10.9263
▁Önder	-10.9263
▁bitire	-10.9264
▁Hakimliği	-10.9265
▁gelişmesi	-10.9265
▁Politikalar	-10.9266
▁doldura	-10.9268
▁konuşması	-10.9268
▁üstlendiği	-10.9269
▁otoyol	-10.927
▁Otomotiv	-10.9271
▁ayrılık	-10.9273
▁silin	-10.9274
▁güneyinde	-10.9275
▁şartlarda	-10.9276
▁mayacağı	-10.9276
Cİ	-10.9281
▁çevire	-10.9281
▁makinesi	-10.9283
▁Eroğlu	-10.9283
▁bulunuldu	-10.9285
▁Aracı	-10.9296
▁izlediği	-10.9296
▁tanıdığı	-10.9301
▁bıçakla	-10.9303
▁Hayvan	-10.9303
▁Öncelikl	-10.9307
▁gösterildi	-10.9312
Siz	-10.9326
▁Mercedes	-10.9331
▁Marmaris	-10.9331
▁akademi	-10.9331
▁müebbet	-10.9331
▁tasfiye	-10.9331
▁mezhep	-10.9331
▁Normal	-10.9331
▁Küba	-10.9331
▁Arınç	-10.9331
▁Sünni	-10.9332
▁Kırım	-10.9338
▁3.5	-10.9338
▁Eylem	-10.9339
▁sütü	-10.9341
▁arkasın	-10.9349
▁Savcısı	-10.9365
▁Sert	-10.9366
▁değerini	-10.937
▁Çağlar	-10.9371
▁çala	-10.9378
&	-10.9378
▁kırdı	-10.9379
▁harcamaları	-10.938
▁Program	-10.9383
▁diyoruz	-10.9384
▁oturdu	-10.9384
▁anlat	-10.939
▁92	-10.9401
▁Odeabank	-10.9402
▁akciğer	-10.9402
▁İhbar	-10.9402
▁rütbe	-10.9402
▁medeniyet	-10.9402
▁helal	-10.9402
▁ömrü	-10.9402
▁Kiev	-10.9403
ECEK	-10.9403
▁mesela	-10.9403
▁sendika	-10.9403
▁zevk	-10.9405
▁Yolcu	-10.9406
▁artırılması	-10.9407
▁gelebilir	-10.9407
▁bulunacak	-10.9407
▁yapılabilir	-10.9408
▁balıkçı	-10.9408
▁şubat	-10.9412
▁Yüzde	-10.9412
▁tazminatı	-10.9416
▁taşındı	-10.9418
▁hedefimiz	-10.9418
▁duyduğunu	-10.942
▁partilerin	-10.9421
▁Hakkında	-10.9421
▁nöbeti	-10.9422
▁zirvede	-10.9427
dge	-10.9437
▁Gazeteciler	-10.9441
▁rdı	-10.9442
▁seferleri	-10.9451
▁uyardı	-10.9458
laşmış	-10.9458
▁kısıt	-10.947
▁soğu	-10.9472
▁Kahramanmaraş	-10.9474
▁infilak	-10.9474
▁keşif	-10.9474
▁Monaco	-10.9474
▁Karlov	-10.9474
▁Ermenistan	-10.9474
▁diyabet	-10.9474
▁ispat	-10.9474
▁Siirt	-10.9474
▁razı	-10.9475
▁seçeneği	-10.9475
▁rehin	-10.9476
▁Fonu	-10.9483
▁Yaralı	-10.9485
▁tedavisinde	-10.9492
▁parasını	-10.9492
▁sokma	-10.9492
▁şarkısı	-10.9492
▁varlıkları	-10.9496
▁Savcılık	-10.9499
▁sürerken	-10.9503
▁oturduğu	-10.9505
▁notu	-10.9505
▁politik	-10.9507
▁öğr	-10.9509
aziz	-10.9509
▁Ebu	-10.951
▁engelleye	-10.9518
▁işçileri	-10.9519
▁düşüncesi	-10.9527
▁poli	-10.953
▁doğdu	-10.9534
▁Muş	-10.9534
▁inanma	-10.9536
▁Sami	-10.9539
▁görmeye	-10.9542
▁Fas	-10.9546
▁MİLY	-10.9547
▁gölge	-10.9547
▁Bütçe	-10.9547
▁Gazze	-10.9547
▁Bitlis	-10.9547
▁ceset	-10.9547
▁Şişli	-10.9547
▁acaba	-10.9547
▁3-1	-10.9547
▁Bomba	-10.9547
▁Robin	-10.9547
▁Eskişehirspor	-10.9548
▁komutanı	-10.9549
▁Melek	-10.955
▁panik	-10.9551
▁düşünür	-10.9554
▁kaptı	-10.9556
▁gelmez	-10.9557
▁mesafede	-10.9561
▁gerçekleştiği	-10.9564
▁inç	-10.957
▁Sim	-10.9572
▁çalma	-10.9578
▁leşe	-10.958
▁davasında	-10.9581
▁incelemeler	-10.9588
▁War	-10.9593
▁Akademi	-10.9594
doğan	-10.9602
▁Kaçakçılık	-10.962
▁Kısmet	-10.962
▁Silivri	-10.962
▁Çatışma	-10.962
▁bozukluğu	-10.962
▁BBC	-10.962
▁İcra	-10.962
▁iflas	-10.962
▁şaka	-10.962
▁Çevik	-10.962
▁Hor	-10.962
▁Ürün	-10.9622
▁yöntemleri	-10.9623
▁durdurdu	-10.9623
ling	-10.9626
▁Sanatçı	-10.9629
▁Yazıcı	-10.963
▁atıp	-10.9632
▁Kapı	-10.9642
▁potansiyel	-10.9649
▁izliyor	-10.965
▁çabası	-10.9651
▁hatları	-10.9651
▁bölünme	-10.9661
▁parla	-10.9664
▁bakar	-10.9666
▁ödülünü	-10.9667
▁vurula	-10.967
▁geliştire	-10.9671
jan	-10.9671
yakıt	-10.9673
▁sağlayacağı	-10.9675
▁şoför	-10.9683
▁akar	-10.9689
korkunç	-10.969
▁ettirme	-10.9692
▁korkusu	-10.9693
▁Toyota	-10.9693
▁anımsata	-10.9693
▁muhtar	-10.9693
▁tahsis	-10.9693
▁Libya	-10.9693
▁yeteneği	-10.9693
▁önlemi	-10.9693
▁Boydak	-10.9694
▁zihniyet	-10.9694
▁kurultay	-10.9695
▁Aksoy	-10.9699
KCK	-10.9699
▁peş	-10.9704
▁Harp	-10.9706
▁çekilmesi	-10.9708
▁sevinci	-10.971
▁görüyorum	-10.9711
▁merkezlerinde	-10.9712
rahim	-10.9714
Vekili	-10.9714
▁ByLock	-10.9723
▁bütçesi	-10.9727
▁kazanır	-10.9727
▁ettirdi	-10.9731
▁duygusu	-10.9732
▁beklendiği	-10.9735
▁kulüpleri	-10.9746
▁ekonomisini	-10.9747
▁baskısı	-10.975
▁seviyeler	-10.9755
statistik	-10.9766
▁Tufan	-10.9767
▁Zarrab	-10.9767
▁pencere	-10.9767
▁arayışı	-10.9767
▁inanıyoruz	-10.9767
▁dinamik	-10.9767
▁kağıt	-10.9767
▁00:	-10.977
▁vermiyor	-10.977
▁Günümüz	-10.977
▁kurgu	-10.9772
▁etsin	-10.9773
▁kenarında	-10.9776
▁dolandırıcılık	-10.9781
▁aut	-10.9783
▁mesajını	-10.9786
▁görüntüsü	-10.9787
▁lığını	-10.9788
hab	-10.9788
▁Dilek	-10.9791
▁ağrıları	-10.9795
▁zann	-10.9796
▁Paul	-10.9796
YI	-10.9798
▁atandı	-10.9798
▁Yolları	-10.9811
▁140	-10.9811
▁görevinde	-10.9812
▁deneyimi	-10.9812
▁tırman	-10.9814
rıp	-10.9817
▁Operasyonda	-10.9819
▁Yüce	-10.9821
▁gördüğüm	-10.9827
▁salonda	-10.9832
▁yanıtlaya	-10.9837
▁kayboldu	-10.9837
▁aldat	-10.9839
▁kazandıra	-10.984
www	-10.9842
▁Meksika	-10.9842
▁Nijerya	-10.9842
▁Tüketici	-10.9842
▁antrenör	-10.9842
▁hürriyet	-10.9842
▁rövanş	-10.9842
▁öykü	-10.9842
▁Katılım	-10.9842
▁TÜRK	-10.9842
▁Öcalan	-10.9842
▁Hazır	-10.9842
empati	-10.9842
▁kuşku	-10.9843
▁Tunca	-10.9843
▁10.00	-10.9843
▁kınıyor	-10.9844
▁gerektire	-10.9844
▁değişiyor	-10.9845
▁Meydan	-10.9846
▁Motor	-10.9846
▁seviyorum	-10.9847
▁dosyası	-10.9851
▁hedefliyor	-10.9853
▁şık	-10.9857
▁Toplantısı	-10.9872
▁yapmakta	-10.9878
▁kapısını	-10.9883
▁sergileye	-10.9885
▁Arkadaş	-10.9889
▁getireceği	-10.9891
▁190	-10.9892
▁pasta	-10.9895
▁stadı	-10.9896
▁Sık	-10.9901
▁mayın	-10.991
▁sivilleri	-10.9911
▁bulamadı	-10.9911
▁Karabük	-10.9916
▁yarışması	-10.9917
▁trilyon	-10.9917
▁Açılış	-10.9917
▁Yahudi	-10.9917
▁kullanılıyor	-10.9917
▁1990	-10.9917
▁ibadet	-10.9917
▁2016-03-1	-10.9917
▁Çeşme	-10.9917
▁Bebek	-10.9917
▁Burhan	-10.9918
▁geçirilmesi	-10.9919
▁reddetti	-10.9919
▁istemeyen	-10.992
▁sürdürülebilir	-10.992
▁Hakemler	-10.9921
▁aramızda	-10.9922
▁milis	-10.9922
▁gördükleri	-10.9922
▁900	-10.9923
▁teşebbüsü	-10.9924
▁kalmıştı	-10.9924
▁bahçesinde	-10.9924
▁doktoru	-10.9926
▁açılmış	-10.9927
▁arkadaşlarım	-10.9928
▁Elif	-10.9928
▁Tamam	-10.9929
▁bağlana	-10.9932
▁alınıyor	-10.9933
▁kasım	-10.9935
▁Baze	-10.9942
▁kendisinde	-10.9942
▁yapay	-10.995
▁Enes	-10.995
▁Sosa	-10.9961
▁uçakta	-10.9972
▁çevresi	-10.9973
▁beyni	-10.9974
▁olurdu	-10.9977
▁gergin	-10.998
▁açılma	-10.9987
▁çalışmalarımız	-10.9991
▁Survivor	-10.9993
▁harekât	-10.9993
▁tuvalet	-10.9993
▁herhalde	-10.9993
▁İdil	-10.9994
▁Ekipler	-10.9994
▁Yemen	-10.9994
▁bandı	-10.9995
▁amca	-10.9996
allah	-10.9998
▁korner	-10.9998
▁fotoğraflar	-10.9999
▁Arif	-11
▁hırsızlık	-11.001
▁bakanlığı	-11.001
▁Öğrenci	-11.0016
▁Hayr	-11.0017
▁borçlanma	-11.0019
▁Bankalar	-11.0021
▁ulaşıla	-11.0022
▁GEL	-11.0024
▁uyguladığı	-11.0027
▁biliyordu	-11.0028
▁çocuğ	-11.003
▁deliller	-11.0034
▁listede	-11.0035
▁Cam	-11.004
müyor	-11.0042
▁gerisinde	-11.0045
▁lıdır	-11.0046
▁sonuçlarını	-11.0054
▁Los	-11.0056
▁Parkı	-11.0059
tezi	-11.0061
▁bilgilerini	-11.0066
▁zeytin	-11.0069
▁ehliyet	-11.0069
▁hadise	-11.0069
▁morgun	-11.007
▁olabilme	-11.007
▁Kanser	-11.007
▁yetkilisi	-11.0074
▁formül	-11.0075
▁güçlendirme	-11.0075
▁Peş	-11.0076
▁gezdi	-11.0077
▁günah	-11.0079
▁rahatsızlığı	-11.008
▁Süt	-11.008
▁kalacağı	-11.0082
meliyiz	-11.0082
▁Ödülleri	-11.0086
▁katılması	-11.0086
▁tenis	-11.009
▁yoğunluğu	-11.0091
▁Dost	-11.0092
▁Yapılanması	-11.0092
gerçekleştirildi	-11.0093
▁Ayak	-11.0094
▁yapmasını	-11.0096
▁firari	-11.01
▁problemleri	-11.0115
▁09.00-1	-11.012
▁Yah	-11.0126
2016	-11.0127
Kültür	-11.0128
▁Ersu	-11.014
▁atıldığı	-11.0144
▁kaynaklana	-11.0145
▁başlangıcı	-11.0146
▁dehşet	-11.0146
▁tartıştı	-11.0146
▁başvurma	-11.0146
▁AFAD	-11.0146
▁taşeron	-11.0146
▁bakteri	-11.0146
▁Devrim	-11.0146
▁Robert	-11.0147
▁Uçak	-11.0147
▁kav	-11.0148
▁Dinç	-11.0149
▁kırıklığı	-11.015
▁Tarık	-11.015
Hulusi	-11.0151
▁Papa	-11.0153
▁süresince	-11.0153
▁mağduriyet	-11.0154
▁öngörüle	-11.0154
▁Futbolcu	-11.0157
▁Erkin	-11.0158
▁kamerası	-11.0162
▁Kamp	-11.0162
▁yatırıl	-11.0165
derhal	-11.0171
▁kimdir	-11.0179
▁ayırma	-11.018
▁kullandıkları	-11.0184
▁Lise	-11.0184
▁oluştuğu	-11.0191
▁hayatım	-11.0192
▁Madd	-11.0195
▁turizmi	-11.0196
▁niyeti	-11.0202
abildi	-11.0203
▁Tab	-11.0203
▁propaganda	-11.0204
▁Aday	-11.0206
▁çözülme	-11.0213
▁Yardımcı	-11.0214
▁programını	-11.0218
▁sertifika	-11.0224
▁yüreği	-11.0224
▁İSTANBUL	-11.0224
▁Çolak	-11.0224
▁Danışma	-11.0224
▁döşe	-11.0224
▁giyme	-11.0224
▁imalat	-11.0224
▁kurtuldu	-11.0224
▁1-2	-11.0224
▁Söyle	-11.0224
▁Çetinkaya	-11.0225
▁Angeles	-11.0226
▁Gir	-11.0227
▁açıkladığı	-11.0228
▁karşılaşacak	-11.0229
▁Uzay	-11.0229
▁koridoru	-11.0229
▁liyiz	-11.0232
▁Gelin	-11.0234
▁kavramı	-11.0235
▁seyrede	-11.0236
▁seviyelerinde	-11.0239
▁faul	-11.0242
▁Babası	-11.0244
enko	-11.0247
▁barışı	-11.0248
▁etmediği	-11.0248
▁BİN	-11.0257
▁koyuyor	-11.0259
▁azalması	-11.0259
kadir	-11.0259
▁bacak	-11.0281
▁kaçırıl	-11.0283
▁kafasın	-11.0284
Ankara	-11.0285
▁hayranları	-11.0287
▁üreticileri	-11.0293
▁98	-11.0299
▁Bulvarı	-11.0302
▁Isparta	-11.0302
▁Macaristan	-11.0302
▁diyalog	-11.0302
▁menfaat	-11.0302
▁Hikmet	-11.0302
▁Hülya	-11.0302
▁edebilecek	-11.0302
▁ağacı	-11.0302
▁Tokat	-11.0302
▁vücutta	-11.0302
▁yaşanacak	-11.0302
▁versin	-11.0303
▁Fener	-11.0304
▁kıta	-11.0305
▁alınırken	-11.0305
▁isteniyor	-11.0306
▁değerlendirilme	-11.031
▁laik	-11.031
▁Sportif	-11.0319
▁uğradığı	-11.0319
▁Yarım	-11.0319
▁kaos	-11.0321
▁lans	-11.0322
▁kaçırdı	-11.0323
▁oluşma	-11.0329
▁Akademisi	-11.0329
▁bitiri	-11.0332
▁maaşları	-11.0344
▁enflasyonu	-11.0346
▁maliyetleri	-11.0347
▁öncelikl	-11.0348
▁edebilme	-11.0349
▁Öğreti	-11.0359
▁Hakkı	-11.0361
▁uçağını	-11.0367
▁alınmasını	-11.0368
lendirile	-11.0368
▁sapta	-11.0371
BM	-11.0375
▁mektubu	-11.038
▁müracaat	-11.038
▁alışkanlık	-11.038
▁rehber	-11.038
▁glob	-11.038
▁yönettiği	-11.038
▁3-0	-11.0381
▁Altan	-11.0381
▁Bosna	-11.0381
▁çevirme	-11.0382
▁kilise	-11.0382
▁kayyım	-11.0382
▁Sivasspor	-11.0383
▁değerinde	-11.0383
▁koymuş	-11.0384
▁kurtarıldı	-11.0384
▁öldürüldüğü	-11.0385
▁sayfasında	-11.039
▁yıkım	-11.039
▁planlanıyor	-11.0391
▁sağlanacak	-11.0392
▁ülkesinde	-11.0393
▁istemiyorum	-11.0394
▁Enver	-11.0394
▁atılma	-11.0395
▁poz	-11.0397
▁göstergesi	-11.0405
▁esnafı	-11.0406
▁kanalları	-11.0407
▁layın	-11.041
▁geçiriyor	-11.041
▁suçlamaları	-11.041
▁seçimlerde	-11.0411
posta	-11.0412
itme	-11.0414
▁düşünceleri	-11.0422
▁yaşlarda	-11.0423
▁dokunma	-11.0425
▁ithalat	-11.0431
▁imzaladı	-11.0432
▁Naci	-11.0441
▁94	-11.0442
▁Doğuş	-11.0445
takım	-11.0446
ürekli	-11.0452
▁ithal	-11.0454
▁burs	-11.0458
isiplin	-11.0458
▁Kontrol	-11.046
▁Platformu	-11.046
▁bombardıman	-11.046
▁güzergah	-11.046
▁bahsediyor	-11.046
▁Olcay	-11.046
▁yöneten	-11.046
▁yapılarak	-11.0461
▁geliştirilmesi	-11.0462
▁4,5	-11.0462
▁dönüştürü	-11.0463
▁Times	-11.0464
▁bulunarak	-11.0465
▁incelemesi	-11.047
▁sevinç	-11.0471
▁sunulacak	-11.0471
▁ısınma	-11.0473
▁Sanık	-11.0474
▁makul	-11.0477
▁sağlandı	-11.0477
▁tutumu	-11.0482
EF	-11.0482
▁organizasyonu	-11.049
▁uzatı	-11.049
▁kavu	-11.049
▁gülü	-11.0492
▁seviyor	-11.0497
▁hikâyesi	-11.0501
▁tümör	-11.0507
▁inceleye	-11.0509
▁televizyonu	-11.0513
▁destekliyor	-11.0525
▁ettiril	-11.0531
▁çağ	-11.0532
▁işletmeler	-11.0532
▁TMSF	-11.054
perşembe	-11.054
▁KPSS	-11.054
▁Lavrov	-11.054
▁Müftü	-11.054
▁bürokrat	-11.054
▁kabiliyet	-11.054
▁koruyucu	-11.054
▁mecbur	-11.054
▁muamele	-11.054
▁muhatap	-11.054
▁İddianamede	-11.054
▁otopark	-11.054
▁Benfica	-11.054
▁Korkmaz	-11.054
▁yapabilecek	-11.054
▁İşadam	-11.054
▁takibe	-11.054
▁arıza	-11.054
▁nikah	-11.054
▁usulsüz	-11.054
▁yararlanma	-11.0541
▁Şerif	-11.0541
▁salgı	-11.0541
▁Ferhat	-11.0541
▁macera	-11.0545
▁kopar	-11.0547
▁yapmıyor	-11.0547
▁kamyonet	-11.0552
▁Elvan	-11.0554
▁teminat	-11.0569
▁tasarısı	-11.0572
▁durağı	-11.0575
▁Zorlu	-11.0576
▁metin	-11.0578
▁sesini	-11.0579
by	-11.058
rilirken	-11.0592
▁kiralık	-11.0593
▁tuttuğu	-11.0593
▁edemeye	-11.0599
▁belirleye	-11.0605
▁leştire	-11.0605
▁altyapısı	-11.061
▁bedelini	-11.0611
Aile	-11.0612
▁uçaklarını	-11.0617
▁edili	-11.062
▁Emenike	-11.062
▁Zeybekci	-11.062
▁bağırsak	-11.062
▁jüri	-11.062
▁Col	-11.062
▁Çankaya	-11.062
▁hemşire	-11.062
▁yumuşa	-11.062
▁direniş	-11.0621
▁unvanı	-11.0621
▁Konser	-11.0621
▁Inter	-11.0621
▁beton	-11.0623
▁Akdoğan	-11.0624
▁hatırlatıl	-11.0629
▁Kaplan	-11.0631
▁Müslümanları	-11.0636
▁evlerini	-11.0636
▁bilinme	-11.0638
▁gösterilme	-11.0644
▁kurulacak	-11.0651
▁planını	-11.0663
▁atması	-11.0668
▁örgütlerini	-11.067
▁yapısını	-11.0673
▁dokuz	-11.0678
▁mücadelesinde	-11.0678
▁telefonunu	-11.068
▁kür	-11.0688
rfan	-11.0693
▁Mühendis	-11.0702
▁endüstri	-11.0702
▁karaciğer	-11.0702
▁kaymakam	-11.0702
▁mutfağı	-11.0702
▁zeka	-11.0702
▁jet	-11.0702
▁onarım	-11.0703
▁ortalaması	-11.0703
▁Öneml	-11.0703
▁kanadı	-11.0703
▁kapandı	-11.0703
▁uğurlandı	-11.0704
▁gelmiyor	-11.0706
▁Geliş	-11.0709
▁biliyorsunuz	-11.0709
▁benimse	-11.0711
▁yaşını	-11.0711
▁2020	-11.0719
▁09:	-11.0724
▁insanlığ	-11.0743
▁büyüklüğü	-11.0746
▁buralar	-11.0748
▁tabanı	-11.0749
▁açarak	-11.075
▁Ciha	-11.0751
arif	-11.0756
▁yollarda	-11.0757
▁gösterge	-11.076
▁etkileme	-11.0761
▁önerisi	-11.0772
▁karşılaşa	-11.0781
hisar	-11.0782
▁ırkçı	-11.0784
▁kurtarılamadı	-11.0784
üfettiş	-11.0784
▁Bruma	-11.0784
▁titiz	-11.0784
▁yürütüyor	-11.0784
▁bağışıklı	-11.0785
▁defter	-11.0785
▁(2)	-11.079
▁kısıtlama	-11.079
▁Ergin	-11.079
▁kırık	-11.0793
▁Aylin	-11.0798
▁kazanacak	-11.0799
▁She	-11.0799
online	-11.0799
▁sıkıntısı	-11.0809
▁keyifli	-11.0811
▁gelmesini	-11.0811
▁gösterdiğini	-11.0812
▁ayrılması	-11.0817
▁konusunu	-11.0821
▁kuruluşlar	-11.0821
▁ithalatı	-11.0822
▁unsurlar	-11.0832
▁teşkilatı	-11.0835
▁ihtiyaçlarını	-11.0852
Yİ	-11.0856
▁binaların	-11.086
▁hocası	-11.086
▁Anl	-11.0862
▁rezerv	-11.0865
▁depresyon	-11.0866
▁mutfak	-11.0866
▁grafi	-11.0866
▁telafi	-11.0866
▁Diego	-11.0866
▁çoğunluk	-11.0867
▁Farklı	-11.0867
▁yoksul	-11.0867
▁eleştirdi	-11.0867
▁unuttu	-11.0867
▁19.00	-11.0868
rasya	-11.0872
▁Çalışan	-11.0873
▁oluşturulması	-11.0873
▁Kaan	-11.0874
▁isterken	-11.0877
▁Külliyesi	-11.0881
▁mücadelesini	-11.0882
▁adlandırıla	-11.0885
badem	-11.0889
▁Yücel	-11.089
▁başlayacağı	-11.0902
▁alacağını	-11.0906
▁gelirse	-11.0916
▁tutuyor	-11.0925
▁müşterilerin	-11.093
▁artırıl	-11.0933
▁mor	-11.0946
▁Ruh	-11.0948
▁&#39;	-11.095
▁Tartışma	-11.095
▁atölye	-11.095
▁taahhüt	-11.095
▁himmet	-11.095
▁temenni	-11.095
▁çarpıştı	-11.095
▁Bordo	-11.095
▁villa	-11.095
▁askı	-11.0951
▁döktü	-11.0954
▁çeviri	-11.0957
▁Firma	-11.0967
▁sunuldu	-11.0973
▁gerekirse	-11.0978
▁Komisyon	-11.0981
▁Büyükelçiliği	-11.0981
▁tanıtıl	-11.0982
eşek	-11.0982
▁esir	-11.0987
▁istemediği	-11.0998
▁alıyoruz	-11.1
▁verilmesini	-11.1002
▁yazısında	-11.1002
▁trend	-11.1004
▁metni	-11.1009
ammer	-11.1011
urmay	-11.1014
▁teşkil	-11.1028
▁kütüphane	-11.1034
▁nezdinde	-11.1034
▁patates	-11.1034
▁Kıdem	-11.1034
▁Uslu	-11.1034
▁gasp	-11.1034
▁Çoğu	-11.1034
▁soyu	-11.1036
▁Prens	-11.1037
▁yapılırken	-11.1038
▁dokunu	-11.104
IL	-11.1042
▁belirtilerek	-11.1052
▁Divan	-11.1052
▁evladı	-11.1066
▁Günay	-11.107
▁karıştırı	-11.1071
▁tavan	-11.1072
▁hib	-11.1084
▁kısme	-11.1118
▁EXPO	-11.1118
▁Tüfenkci	-11.1118
▁asansör	-11.1118
▁müzisyen	-11.1118
▁pompa	-11.1118
▁ribaunt	-11.1118
▁tohum	-11.1118
▁şükür	-11.1118
▁Lazio	-11.1118
▁Meral	-11.1119
ötürü	-11.112
▁yetiştirme	-11.1121
▁giderilmesi	-11.1121
▁ülkesini	-11.1125
▁Yemek	-11.1132
izon	-11.1142
▁camiası	-11.1145
▁Alış	-11.1145
▁1.3	-11.1156
▁Dinam	-11.1158
▁kandır	-11.1172
▁keyif	-11.1176
akit	-11.1177
▁Öğrenciler	-11.1178
▁lok	-11.118
▁göreceğiz	-11.1182
▁yapıyorum	-11.1186
▁faktör	-11.1189
▁ilaçları	-11.1189
▁borcunu	-11.1197
▁Lübnan	-11.1204
▁Çağatay	-11.1204
▁İÇİN	-11.1204
▁Pensilvanya	-11.1204
▁kömür	-11.1204
▁İhsan	-11.1204
▁1980	-11.1204
▁yaklaşa	-11.1204
▁Braga	-11.1204
▁Yalova	-11.1204
▁işkence	-11.1204
▁CIA	-11.1204
▁evvel	-11.1204
▁hayvanları	-11.1204
▁Thom	-11.1204
▁Viyana	-11.1205
▁yapabilme	-11.1205
▁kapanış	-11.1205
▁etiket	-11.1206
▁Acar	-11.1206
▁Geliştir	-11.1207
▁bakalım	-11.1207
▁Fuar	-11.1208
▁nakl	-11.1209
▁ulaşıldı	-11.121
▁Fiyat	-11.1216
▁ödeyecek	-11.1216
▁görüşlerin	-11.1229
▁öğrenim	-11.123
▁terörizm	-11.1232
urkan	-11.1237
▁açlık	-11.1245
▁açacak	-11.1248
▁niteliğinde	-11.125
▁gerileme	-11.1254
▁cari	-11.1254
▁harita	-11.1255
▁Memur	-11.1259
▁Milletimiz	-11.126
ACAK	-11.1269
▁içerisin	-11.1285
▁sürdürüle	-11.1287
▁yerleştirile	-11.129
▁DHKP	-11.129
▁Duygu	-11.129
▁kronik	-11.129
▁Çorum	-11.129
▁çatısı	-11.1291
▁motivasyon	-11.1291
▁sevile	-11.1293
▁yönlendirme	-11.1295
▁tüken	-11.13
▁aşağıda	-11.1312
▁olasılığı	-11.1313
▁simge	-11.1351
▁durdura	-11.1352
▁tartışması	-11.1355
▁Buray	-11.1358
▁rakibini	-11.1363
▁bırakılması	-11.1365
▁algısı	-11.1366
▁golünü	-11.1367
▁parlament	-11.1367
Paralel	-11.1369
▁Muhalif	-11.1377
▁Transfer	-11.1377
▁Yönetici	-11.1377
▁savunuyor	-11.1377
▁Ürdün	-11.1377
▁intikam	-11.1377
▁Sürücü	-11.1377
▁öncülüğünde	-11.1377
▁2019	-11.1377
▁tablet	-11.1377
▁SSK	-11.1377
▁Umarı	-11.1378
▁18.00	-11.1379
▁tarla	-11.1381
ABD	-11.1383
▁geçirmiş	-11.1383
▁planladığı	-11.1388
▁isterse	-11.1388
▁gerginlik	-11.1392
▁the	-11.1399
▁bırakıyor	-11.14
▁yiyecekler	-11.1406
▁defans	-11.1406
▁360	-11.1407
▁kılma	-11.1409
▁Arkadaşları	-11.141
▁gerçekleşmesi	-11.1412
▁haritası	-11.1413
▁müdahaleler	-11.1417
bilmektedir	-11.1429
▁kullanması	-11.1431
▁kavuşa	-11.1432
▁durması	-11.1436
▁Hepimiz	-11.144
▁Sevgi	-11.1441
▁seçenekleri	-11.1447
▁hazırlama	-11.1455
kapı	-11.1455
▁DAİŞ	-11.1465
▁George	-11.1465
▁Yaptığı	-11.1465
▁yıldönümü	-11.1465
▁haziran	-11.1465
ndows	-11.1465
▁dürüst	-11.1465
▁Kobani	-11.1465
▁Geçmişte	-11.1465
▁Soğuk	-11.1465
▁ilgilendire	-11.1465
▁sorununu	-11.1465
▁Başika	-11.1465
▁kuşatma	-11.1466
▁profil	-11.1466
▁gezegen	-11.1467
▁gelsin	-11.1467
▁harcan	-11.1467
▁Melih	-11.1468
▁Romanya	-11.1468
▁laştıra	-11.1472
▁tutulması	-11.1472
▁makineleri	-11.1473
▁açıklanacak	-11.1475
▁haberleşme	-11.1479
▁gerçekleşme	-11.1481
▁bağımsızlığı	-11.1487
▁Nerede	-11.1489
▁boynu	-11.1489
▁sunacak	-11.1496
▁LG	-11.1504
▁durduğu	-11.1509
▁ayırdı	-11.1516
▁dönüyor	-11.1528
▁karşılaştığı	-11.1537
▁Şans	-11.154
LÜ	-11.1542
lısınız	-11.1548
▁Ameliyat	-11.1553
▁Güngör	-11.1553
▁çalıştırıcı	-11.1553
▁arındırıl	-11.1553
▁platformu	-11.1553
▁satılıyor	-11.1553
▁Rakka	-11.1553
▁YOK	-11.1553
▁Şafak	-11.1553
▁bulunmaktadır	-11.1556
▁Aşır	-11.1556
▁Bankacılı	-11.1566
▁Kapısı	-11.1573
▁YIL	-11.1575
▁Hastalıklar	-11.1584
▁düğünü	-11.1585
▁deplasmanında	-11.1591
▁Radyo	-11.1596
▁sığınmacıları	-11.1596
▁sahiplerini	-11.161
▁Sezonu	-11.1612
▁basınında	-11.1624
TAR	-11.1628
▁İhracat	-11.1642
elsefe	-11.1643
▁Fevzi	-11.1643
▁Kraliçe	-11.1643
▁istisna	-11.1643
▁Cemaat	-11.1643
▁Kerem	-11.1643
▁Sahne	-11.1643
▁Ülkemizde	-11.1644
▁servet	-11.1644
▁balkon	-11.1645
▁Çamlı	-11.1645
▁Çiğ	-11.1646
▁Baykal	-11.1647
▁Çiftçi	-11.1648
▁endeks	-11.1651
▁jeo	-11.1655
▁Ford	-11.1656
▁sonuçlandı	-11.1657
ansiyon	-11.1661
▁yayımlandı	-11.1662
▁nişan	-11.1664
▁fren	-11.1666
▁desteklediği	-11.1671
▁istiyordu	-11.1671
▁açıklanması	-11.1673
▁çıkmasını	-11.1679
▁aramalarda	-11.1687
▁inceledi	-11.1705
▁açıldığı	-11.1707
▁bütünlüğü	-11.1715
▁Topu	-11.1722
▁hisseleri	-11.1723
▁sağlığını	-11.1727
▁Asıl	-11.1731
▁yitirdiği	-11.1731
▁laboratuvar	-11.1733
▁ÖSYM	-11.1733
▁çikolata	-11.1733
▁İdmanyurdu	-11.1733
▁EURO	-11.1733
▁İmparator	-11.1733
mlulu	-11.1733
▁edelim	-11.1733
▁tedirgin	-11.1733
▁Uludağ	-11.1734
▁kürsü	-11.1735
▁ertesi	-11.1737
▁katılıyor	-11.1741
▁Sokağ	-11.1742
▁Savcılığı	-11.1744
TAŞ	-11.1745
▁kalitesini	-11.1749
▁gelirken	-11.176
▁satıyor	-11.1762
▁çalışıyorum	-11.1766
▁ürettiği	-11.1769
▁patladı	-11.1778
rüt	-11.1786
▁plasti	-11.1794
▁periyod	-11.1824
▁Florya	-11.1824
▁Hıristiyan	-11.1824
▁Koalisyon	-11.1824
▁Köln	-11.1824
▁doküman	-11.1824
▁ziyade	-11.1824
▁piyan	-11.1824
▁söyleniyor	-11.1824
▁Fuat	-11.1824
▁Kuzu	-11.1824
TÜİK	-11.1825
▁mayıs	-11.1826
▁ölçek	-11.1826
▁sevenleri	-11.1827
▁Kürd	-11.1827
▁bağladı	-11.183
▁Melis	-11.1832
▁dostluk	-11.1832
▁Ülkemizi	-11.1836
▁tarafsız	-11.1839
▁inandığı	-11.1839
▁boşluk	-11.1847
▁kamuoyunu	-11.1857
ümüzü	-11.186
▁Atil	-11.1864
▁arkadaşımız	-11.1867
▁aşma	-11.1867
▁şüphelen	-11.1879
had	-11.1891
▁kutladı	-11.1893
▁kategorisin	-11.1901
▁akademisyenler	-11.1905
Suriye	-11.1912
▁Başvuru	-11.1915
▁Sultanahmet	-11.1915
▁dayanıklı	-11.1915
▁İnönü	-11.1915
▁nihayet	-11.1915
▁bardağı	-11.1915
▁çalışmış	-11.1916
▁3-2	-11.1916
▁yarısını	-11.1916
▁öğrendim	-11.1919
▁nakil	-11.1919
lmeye	-11.1922
▁müsabakasında	-11.1925
▁İHA	-11.1926
umuzu	-11.1938
▁gireceği	-11.1939
leştiği	-11.1939
ILDI	-11.194
▁Nob	-11.1943
▁çıkarıyor	-11.1956
▁tutuldu	-11.1957
▁azaltıl	-11.1958
▁öğün	-11.1959
▁görünme	-11.196
▁atacağı	-11.1962
▁Raporu	-11.1971
▁takma	-11.1972
▁geleceğ	-11.1974
▁burnu	-11.1993
▁ilha	-11.1995
▁uygulamasını	-11.2004
▁Kastamonu	-11.2008
▁Meryem	-11.2008
▁Poyraz	-11.2008
▁Ronaldo	-11.2008
▁Tekirdağ	-11.2008
▁Zekeriya	-11.2008
▁sandalye	-11.2008
▁tahvil	-11.2008
▁çılgın	-11.2008
▁Şiddet	-11.2008
▁travma	-11.2008
▁metreküp	-11.2008
▁Yalnız	-11.2008
▁kafile	-11.2008
▁edemez	-11.2008
▁tükete	-11.2008
▁Esnaf	-11.2008
▁görmüyor	-11.2008
▁stadyum	-11.2008
▁miktarını	-11.2009
▁düşürülmesi	-11.201
▁Atalay	-11.2012
▁yaratıcı	-11.2012
▁NBA	-11.2014
▁sandık	-11.2015
▁Adanaspor	-11.2016
▁Veysel	-11.2016
▁ambulanslar	-11.2018
▁atılmış	-11.2019
▁ihracatçı	-11.202
▁kararname	-11.2022
▁Görgü	-11.2024
▁İnsanları	-11.2025
▁Tatar	-11.2028
▁Serge	-11.2041
▁açmış	-11.2052
▁niteliği	-11.2054
▁yıpr	-11.2065
▁Yaku	-11.207
▁soyunm	-11.2079
▁İşlem	-11.2082
▁boğa	-11.209
▁muhabir	-11.2101
▁Arnavut	-11.2101
▁Kosova	-11.2101
▁tavuk	-11.2101
▁FBI	-11.2101
▁kombin	-11.2101
▁mineral	-11.2101
▁yeğeni	-11.2101
▁Ölüm	-11.2102
▁Souza	-11.2102
▁Eyalet	-11.2102
▁Super	-11.2102
▁Tunç	-11.2102
▁Liste	-11.2102
piyade	-11.2104
▁okuduğu	-11.2105
▁temizlenmesi	-11.2106
▁Karakol	-11.2108
▁faydalana	-11.2114
▁olmalıdır	-11.2115
▁mutluluğu	-11.2117
▁tutuklanma	-11.2131
▁dayandı	-11.2137
▁tayin	-11.2141
▁atık	-11.2143
▁katılacağı	-11.2161
INI	-11.2162
▁grub	-11.2164
▁araçlarını	-11.2169
▁Kutlu	-11.2173
▁yakalanma	-11.2181
▁duyar	-11.2183
▁ulus	-11.2187
Beyaz	-11.2195
OĞU	-11.2196
▁obezite	-11.2196
▁Marcelo	-11.2196
▁TÜBİTAK	-11.2196
▁göğsü	-11.2196
▁1996	-11.2196
▁eylül	-11.2196
▁Kazakistan	-11.2196
▁tıbbi	-11.2196
▁Çoban	-11.2196
▁tedarik	-11.2196
▁yansıtma	-11.2196
şafak	-11.2196
▁solunum	-11.2196
▁gidin	-11.2196
▁güvenilir	-11.2196
▁çıkabilir	-11.2196
▁Peter	-11.2196
▁zarf	-11.2196
▁Emlak	-11.2197
▁Kapalı	-11.2197
▁vesayet	-11.2197
▁makale	-11.2197
▁öldürülmesi	-11.2197
▁müdürlüğü	-11.2198
▁lanacak	-11.2198
▁mutluyum	-11.22
▁Muhtar	-11.2201
▁ödenecek	-11.2204
▁MEB	-11.2205
▁yürüdü	-11.2211
▁leke	-11.2217
▁hedeflerini	-11.2226
▁süresini	-11.2229
▁dinledi	-11.2237
▁bacağı	-11.2239
Fikri	-11.2249
▁Kendisini	-11.225
ötü	-11.226
evcut	-11.2283
▁köpeği	-11.2291
▁olimpiyat	-11.2291
▁İtfaiye	-11.2291
▁domates	-11.2291
▁yetişkin	-11.2291
▁Kahve	-11.2291
▁Ağaoğlu	-11.2291
▁Lozan	-11.2291
▁gişe	-11.2291
▁soktu	-11.2291
▁Elitaş	-11.2291
▁torba	-11.2291
▁donanım	-11.2291
▁direnç	-11.2291
▁Somali	-11.2291
▁taktik	-11.2291
▁Glob	-11.2292
▁fakir	-11.2292
▁Ayşegül	-11.2293
▁ünite	-11.2293
▁ekmeği	-11.2293
▁paniğ	-11.2296
▁geçerken	-11.2296
▁Tiyatrosu	-11.2299
▁alınacağı	-11.2301
▁basıl	-11.2302
▁Beck	-11.2306
▁kalkması	-11.2309
▁tutanak	-11.2309
▁arttırma	-11.2311
▁DNA	-11.2312
▁Lirası	-11.2313
▁kırılma	-11.2316
▁yatırımcıları	-11.2333
▁kaçtığı	-11.2335
ercan	-11.2339
▁Ayrı	-11.2339
akış	-11.2341
▁arkadaşlarını	-11.2352
▁istemedi	-11.236
▁Zirve	-11.2362
▁bilmediği	-11.2364
ANI	-11.2374
▁Taraf	-11.2386
▁ödediği	-11.2387
▁Lokomoti	-11.2387
▁Çözüm	-11.2387
AĞI	-11.2387
▁Personel	-11.2387
▁1997	-11.2387
▁fındık	-11.2387
▁yitiren	-11.2387
▁tekstil	-11.2387
▁yapalım	-11.2387
▁kutsal	-11.2387
▁Ceylan	-11.2387
▁Modern	-11.2387
ortakal	-11.2387
▁Sarıyer	-11.2388
▁16.00	-11.2389
Burada	-11.239
▁kulağı	-11.2391
▁yaralanmıştı	-11.2392
▁duyuyorum	-11.2394
▁kalıp	-11.2395
▁edebileceği	-11.2396
▁harcadı	-11.2398
▁Selam	-11.2402
▁erecek	-11.2403
▁eleştirme	-11.2409
▁Olmaz	-11.2413
▁katled	-11.2436
▁kıldı	-11.2453
▁verebilir	-11.2454
Sedat	-11.2456
▁bekledikleri	-11.2466
▁hazırlaya	-11.2477
▁Aksaray	-11.2484
▁Reuters	-11.2484
▁mevduat	-11.2484
▁TOKİ	-11.2484
▁Havaalanı	-11.2484
▁yumruk	-11.2484
▁ibaret	-11.2484
▁telsiz	-11.2484
▁Video	-11.2484
▁ödüyor	-11.2485
▁Ofisi	-11.2485
▁şair	-11.2485
▁gezme	-11.2485
▁teori	-11.2486
▁sunuluyor	-11.2486
▁Gelecek	-11.249
▁hedefliyoruz	-11.249
▁fesh	-11.2492
▁duydukları	-11.2495
▁gösterecek	-11.2497
▁paylaşıyor	-11.2497
▁çizil	-11.2501
▁ılım	-11.2506
▁Play	-11.2508
▁sağlandığı	-11.2517
▁görüştüğü	-11.2526
▁çerçeve	-11.2534
▁bulunama	-11.2544
▁araştırıl	-11.2546
▁uzaklaştırıl	-11.2561
▁düzeltme	-11.2562
▁indire	-11.2571
▁yaygınlaş	-11.2574
▁notunu	-11.2579
▁Oğlu	-11.2579
casusluk	-11.2582
▁Gürcistan	-11.2582
▁favori	-11.2582
▁promosyon	-11.2582
▁çıplak	-11.2582
▁Arsenal	-11.2582
▁diktatör	-11.2582
▁traktör	-11.2582
▁çorba	-11.2582
▁1998	-11.2582
▁negatif	-11.2582
▁birbirimiz	-11.2583
▁ilerledi	-11.2584
▁sırrı	-11.2586
▁Alanya	-11.2589
▁müste	-11.2589
▁beşinci	-11.2589
▁Güçlü	-11.2606
▁atılacak	-11.2606
▁uğrama	-11.2612
▁kaçınma	-11.2626
▁geliştiril	-11.2628
▁korka	-11.2666
oleybol	-11.2681
▁BÜYÜ	-11.2681
▁bürokrasi	-11.2681
▁düğme	-11.2681
▁konsantr	-11.2681
▁zeytinyağı	-11.2681
▁gribi	-11.2681
▁espri	-11.2681
▁Kararname	-11.2681
▁Yüzyıl	-11.2681
▁iğne	-11.2681
▁vahim	-11.2681
▁deyince	-11.2682
▁Çalışkan	-11.2683
▁Faiz	-11.2684
▁ayrıldığı	-11.2686
▁batısında	-11.2692
▁sonuçlana	-11.2697
▁3,5	-11.2698
▁kınadı	-11.2699
▁stil	-11.2703
▁İçinde	-11.2707
▁yaratıl	-11.272
▁Devre	-11.2723
▁Post	-11.2738
▁geçildi	-11.2739
NIN	-11.2767
▁alınama	-11.2771
▁yıkı	-11.2776
▁adaylığı	-11.2777
▁ARA	-11.2781
▁Aboubakar	-11.2781
▁Başkonsolos	-11.2781
▁PFDK	-11.2781
▁implant	-11.2781
▁övgü	-11.2781
▁CNN	-11.2781
▁Vadisi	-11.2781
▁refah	-11.2781
▁Vural	-11.2781
▁Yoğun	-11.2781
▁yöre	-11.2781
▁Abdülhami	-11.2781
▁yüce	-11.2782
▁Kamil	-11.2782
▁Gemi	-11.2783
▁emeği	-11.2784
▁Değiş	-11.2784
▁yırtı	-11.2785
▁dershane	-11.2786
PKK	-11.2787
▁başlatma	-11.2787
▁kırsalında	-11.2787
▁gönlü	-11.2789
▁ekstr	-11.2791
▁yaşamış	-11.2798
▁Gelir	-11.2802
övme	-11.2807
▁Ödül	-11.281
▁Müze	-11.2824
▁yazıldı	-11.2831
▁imzalana	-11.2833
▁kokusu	-11.2846
▁ekleye	-11.2848
▁yorumun	-11.2869
▁Hırvatistan	-11.2882
▁fişeği	-11.2882
▁opsiyon	-11.2882
▁poşet	-11.2882
▁gümrük	-11.2882
▁yönetecek	-11.2882
▁roketatar	-11.2882
▁kıdem	-11.2882
▁uzunluğunda	-11.2882
armaşık	-11.2882
▁Dicle	-11.2883
▁yaklaşma	-11.2883
▁toprağı	-11.2884
▁Sibe	-11.2884
▁edebilirsiniz	-11.2884
▁Göztepe	-11.2884
▁biyo	-11.2886
▁mevkisinde	-11.2888
▁Ergün	-11.289
▁yiyen	-11.2893
▁grubunu	-11.2897
▁Loto	-11.2902
▁yenme	-11.2912
merg	-11.2916
▁dokusu	-11.2919
▁döndüğü	-11.2919
▁teşkilat	-11.2928
olsun	-11.2932
▁ölç	-11.2932
▁psiko	-11.2941
▁getirilme	-11.2947
▁özgürlüğünü	-11.2965
▁yenilikler	-11.2973
▁Akşener	-11.2984
▁Endonezya	-11.2984
▁terminal	-11.2984
▁Bozkır	-11.2984
TCMB	-11.2984
▁alabilecek	-11.2985
▁paylaşıldı	-11.2985
▁Necati	-11.2985
▁tebliğ	-11.2985
▁bulunmuyor	-11.2986
▁Özlem	-11.2986
▁öngörüyor	-11.2986
▁tapu	-11.2988
▁Şef	-11.299
▁Jack	-11.2992
▁yükseltme	-11.2993
▁Konak	-11.2995
▁hükmün	-11.2996
INDA	-11.3009
▁tüketiciler	-11.3034
▁rahatlat	-11.3038
▁bulunmuş	-11.3042
▁kurulduğu	-11.3042
▁ürünlerini	-11.3044
EME	-11.3052
▁çevi	-11.3063
▁kalkma	-11.3073
▁Cerattepe	-11.3087
▁Liverpool	-11.3087
▁Tecrübe	-11.3087
▁Yukarı	-11.3087
▁lojisti	-11.3087
▁restorasyon	-11.3087
▁tesadüf	-11.3087
Diriliş	-11.3087
▁1995	-11.3087
▁şutunda	-11.3088
▁Daniel	-11.3088
▁kazanıyor	-11.3088
▁Alanyaspor	-11.3088
▁Topçu	-11.3091
slam	-11.3095
▁radar	-11.3095
▁alabilme	-11.3096
▁yahu	-11.3097
taraf	-11.3098
▁Ceb	-11.3101
yiğit	-11.3101
▁damat	-11.3108
▁konumda	-11.3109
▁çatışmaları	-11.311
5-6	-11.3114
▁Parlamento	-11.3157
▁vermede	-11.3162
$	-11.3192
▁Bandırma	-11.3192
▁Chedjou	-11.3192
▁Fırtına	-11.3192
▁Kamuoyu	-11.3192
▁Kirby	-11.3192
▁Mandıralı	-11.3192
▁kaçınılmaz	-11.3192
▁1993	-11.3192
▁gayri	-11.3192
▁Uysal	-11.3192
▁Hazret	-11.3192
▁hakikat	-11.3192
▁mekân	-11.3192
▁havaalanı	-11.3192
▁Tahran	-11.3192
▁oğulları	-11.3192
▁korkma	-11.3192
▁ivme	-11.3193
▁aranıyor	-11.3193
▁kavuşma	-11.3193
▁basket	-11.3194
▁ilerliyor	-11.3194
▁Hamzaoğlu	-11.3195
▁geçirilmiş	-11.3195
▁Ensar	-11.3198
▁Asgar	-11.3198
▁alınıp	-11.3201
▁zammı	-11.3201
▁Evren	-11.3208
▁unutul	-11.3217
▁09.00	-11.3227
▁kazandırdı	-11.324
▁yürüttü	-11.3294
▁Hollywood	-11.3297
▁Kjaer	-11.3297
▁Makedonya	-11.3297
▁Microsoft	-11.3297
▁Nevruz	-11.3297
▁Sönmez	-11.3297
▁edilmektedir	-11.3297
▁fakülte	-11.3297
▁fuhuş	-11.3297
▁şeffaf	-11.3297
▁Akyazı	-11.3297
▁Kafkas	-11.3297
▁Sanders	-11.3297
▁Ziyaret	-11.3297
▁STK	-11.3297
▁lobi	-11.3298
▁rezervasyon	-11.3299
▁Fox	-11.3301
▁sustu	-11.3305
▁görüntülendi	-11.3307
▁bulunurken	-11.3311
▁play	-11.3315
▁Ersan	-11.3315
▁çöktü	-11.3317
▁gelebilece	-11.3318
uyurmuştu	-11.3322
▁Sekreter	-11.3342
▁Peli	-11.3349
NİN	-11.3356
▁ordusunu	-11.3357
▁bulmuş	-11.3372
▁üstlene	-11.3373
▁meşhu	-11.3402
▁vazife	-11.3403
▁ablası	-11.3403
▁referans	-11.3403
▁reyting	-11.3403
▁yoğurt	-11.3403
▁İdlib	-11.3403
▁istişare	-11.3403
▁artırıyor	-11.3403
▁püskü	-11.3403
▁YENİ	-11.3403
▁tabela	-11.3403
▁Zika	-11.3404
▁İhracatçılar	-11.3404
▁yapabilirsiniz	-11.3405
▁verilmiştir	-11.3408
▁duyuyoruz	-11.3411
▁Binbaş	-11.3414
▁incelenme	-11.3426
▁karısı	-11.3445
▁bayıl	-11.3459
komik	-11.3461
▁üretti	-11.3468
▁yükseltti	-11.3469
▁İdare	-11.3487
▁Kütahya	-11.3511
▁Stadyumu	-11.3511
▁söndürü	-11.3511
▁Dijital	-11.3511
▁Fabrika	-11.3511
▁KKTC	-11.3511
▁profesör	-11.3511
▁mucize	-11.3511
▁General	-11.3511
▁YGS	-11.3511
▁maksadı	-11.3511
▁Otoyolu	-11.3512
▁14.00	-11.3513
▁Toner	-11.3514
▁Reza	-11.3515
▁sıralamasın	-11.3516
▁imkansız	-11.3517
▁belirleyecek	-11.3517
▁Ekici	-11.3518
▁Luis	-11.352
▁engellenmesi	-11.352
▁Üstün	-11.3524
▁uygulandığı	-11.3525
▁sorulması	-11.3529
▁bekletil	-11.3535
▁sonlandır	-11.3551
▁rejimini	-11.3566
▁çekilmiş	-11.3574
▁sorduğu	-11.3595
▁devrildi	-11.3614
▁vermediği	-11.3616
▁yükümlü	-11.3618
rüşvet	-11.3619
▁Chelsea	-11.3619
▁Hollande	-11.3619
▁WhatsApp	-11.3619
▁bozuklukları	-11.3619
▁objektif	-11.3619
▁okuyucu	-11.3619
▁Darüş	-11.3619
▁Kanarya	-11.362
▁sterlin	-11.362
▁güreş	-11.362
▁Riyad	-11.362
▁şükr	-11.362
▁ayrımcılı	-11.3622
▁doldurma	-11.3623
▁merci	-11.3625
▁takıldı	-11.3628
▁bildirme	-11.3638
İlk	-11.3638
▁dinlenme	-11.3643
LACAK	-11.3649
▁bildikleri	-11.3656
MET	-11.3659
oğuş	-11.3678
▁önerdi	-11.3686
▁paylaşıla	-11.3687
▁Bekle	-11.3705
▁geleneği	-11.3727
▁Afyonkarahisar	-11.3729
▁Muhalefet	-11.3729
▁kolesterol	-11.3729
▁merhamet	-11.3729
▁ölmüş	-11.3729
▁sindirim	-11.3729
▁iskele	-11.3729
▁Ağabey	-11.3729
▁Deprem	-11.3729
▁Pamuk	-11.3729
▁0-0	-11.3729
▁temmuz	-11.3729
▁tatmin	-11.3729
▁taşıyacak	-11.373
▁iştirak	-11.373
▁mantık	-11.373
▁Huzur	-11.373
▁fırın	-11.373
▁PARA	-11.3731
▁17.00	-11.3731
▁grip	-11.3733
▁yankı	-11.3734
▁hapishane	-11.3736
▁nişancı	-11.3736
▁YAŞ	-11.3737
▁kazanım	-11.3737
▁çıkartıldı	-11.3738
▁dalgalanma	-11.3755
▁masası	-11.3759
▁arkadaşını	-11.3759
▁istikamet	-11.3762
enetleme	-11.3778
▁emr	-11.3786
▁hırs	-11.3814
▁Salon	-11.3814
▁aktarıla	-11.3817
▁hazırlanmış	-11.3822
▁koridor	-11.3833
▁grev	-11.3833
▁Şemdinli	-11.384
▁Kapalıçarşı	-11.384
▁Nöbet	-11.384
▁alakası	-11.384
▁Karabağ	-11.384
▁Saygı	-11.384
▁konuşuluyor	-11.384
▁Çakmak	-11.384
▁Şehri	-11.384
▁çarşı	-11.384
▁yapabiliyor	-11.384
▁taviz	-11.3841
▁direnci	-11.3841
▁Filiz	-11.3841
▁Bozkurt	-11.3841
▁lazer	-11.3841
▁anlaşa	-11.3842
▁hakimiyetin	-11.3842
▁birikimi	-11.3842
▁değiştirilmesi	-11.3843
▁salata	-11.3844
▁Nük	-11.3844
▁yansıta	-11.3844
▁düşecek	-11.3846
▁Düğün	-11.385
▁ruhunu	-11.3851
▁Hayal	-11.3853
▁anlatıldı	-11.3859
▁protez	-11.3868
Sayı	-11.3888
▁izlenme	-11.3913
▁Yapa	-11.3933
Â	-11.3953
▁konaklama	-11.3953
▁koordine	-11.3953
▁periyot	-11.3953
▁vahşi	-11.3953
▁Üretim	-11.3953
▁çamaşır	-11.3953
▁Yanlış	-11.3953
▁lokanta	-11.3953
▁metrobüs	-11.3953
▁selfie	-11.3953
▁Nehri	-11.3953
▁öngörülüyor	-11.3953
▁Çağlayan	-11.3956
▁90+	-11.3956
▁istiyorsanız	-11.3957
▁konfor	-11.3957
▁Gebze	-11.3957
▁Simon	-11.3964
▁bitecek	-11.3964
▁İzzet	-11.3965
▁Ümraniye	-11.3979
▁anıldı	-11.3992
▁çektirdi	-11.4001
▁Denizci	-11.4003
▁ertelendi	-11.4044
▁ART	-11.4049
lütfen	-11.4066
▁Dolmabahçe	-11.4066
▁Enflasyon	-11.4066
▁Köşkü	-11.4066
▁dönmüş	-11.4066
▁konsept	-11.4066
▁İncirlik	-11.4066
▁Yasemin	-11.4066
▁Hakkâri	-11.4066
▁sıfatı	-11.4066
▁imajı	-11.4066
▁kutluyor	-11.4066
▁felç	-11.4067
▁aralığında	-11.4067
▁ceviz	-11.4067
▁Hotel	-11.4067
▁İfade	-11.4067
▁parmağı	-11.4067
▁prensip	-11.4068
▁kopya	-11.4068
▁güldür	-11.4069
▁fiili	-11.4069
▁Kayıt	-11.407
▁garip	-11.407
▁Çağrı	-11.407
▁Aydoğan	-11.4071
▁diliyoruz	-11.4072
▁ergen	-11.4075
▁kaynaklandığı	-11.4077
▁Burun	-11.4082
Şehit	-11.4085
▁ağabey	-11.4105
TSİ	-11.4128
▁verileceği	-11.413
▁yükseldiği	-11.4134
rofesyonel	-11.4178
▁planlaya	-11.418
▁kuyruk	-11.4181
▁Barzani	-11.4181
▁Harekât	-11.4181
▁Talisca	-11.4181
▁William	-11.4181
▁Zeytin	-11.4181
▁dokunulmazlığı	-11.4181
▁dövü	-11.4181
▁vazgeçilmez	-11.4181
▁Bahçelievler	-11.4181
▁Dikkat	-11.4181
▁Vücud	-11.4181
▁1994	-11.4181
▁Linnes	-11.4181
▁Dergisi	-11.4181
▁başlayın	-11.4182
▁reddedil	-11.4182
▁Kemer	-11.4182
▁okunması	-11.4182
▁dökülme	-11.4182
▁yerleştirildi	-11.4182
▁atıf	-11.4182
▁sofra	-11.4183
▁yetişe	-11.4183
▁Aliyev	-11.4183
▁dönüştürme	-11.4185
▁Altıntaş	-11.4186
▁gittikleri	-11.4186
Bunlar	-11.422
leştirilmiş	-11.4252
̇	-11.4298
▁Halisdemir	-11.4298
▁Kolombiya	-11.4298
▁Uyku	-11.4298
▁fezleke	-11.4298
▁fırça	-11.4298
▁inovasyon	-11.4298
▁Kudüs	-11.4298
▁Michel	-11.4298
▁saldıran	-11.4298
▁Kazım	-11.4298
▁emlak	-11.4298
▁Beykoz	-11.4298
▁Gizem	-11.4298
▁tıklayın	-11.4298
▁2-2	-11.4298
▁gümüş	-11.4301
▁Görmez	-11.4303
atağında	-11.4333
▁yenilme	-11.4333
ağmur	-11.4357
▁çeyreğ	-11.436
etmiyorum	-11.4363
▁ödenme	-11.4369
▁Sağlığ	-11.4376
▁federasyon	-11.44
çarşamba	-11.4415
▁ANKARA	-11.4415
▁muafiyet	-11.4415
▁santimetre	-11.4415
▁talihsiz	-11.4415
▁şehidimiz	-11.4415
▁partner	-11.4415
▁Pendik	-11.4415
▁GEÇ	-11.4415
▁Pilot	-11.4415
▁IMF	-11.4415
▁Yurdu	-11.4415
://	-11.4415
▁öğreti	-11.4415
▁üzücü	-11.4415
▁statüsü	-11.4415
▁esrar	-11.4417
liberal	-11.4419
▁canlandırdı	-11.4419
▁kalmayacak	-11.4419
politik	-11.4438
▁taktı	-11.444
▁kurtulu	-11.4451
uvaz	-11.449
rilecek	-11.4509
oordinasyon	-11.4526
#	-11.4534
▁kelepçe	-11.4534
▁Üretici	-11.4534
▁arşiv	-11.4534
▁buluşturdu	-11.4534
▁dedikodu	-11.4534
▁benziyor	-11.4534
▁TOP	-11.4534
▁Komşu	-11.4535
▁Green	-11.4535
▁sarsıl	-11.4535
▁Tipi	-11.4536
▁söylenti	-11.4536
Balyoz	-11.4536
▁Maltepe	-11.4537
▁Yüksekdağ	-11.4538
▁olumsuzluklar	-11.4539
ÇOK	-11.4548
▁aleyh	-11.457
▁ağladı	-11.4597
▁yakma	-11.4601
▁tuzağ	-11.4616
▁sıkışa	-11.4621
ompo	-11.4634
▁tepkisin	-11.4643
▁Hükm	-11.4655
▁OLDU	-11.4655
▁başörtü	-11.4655
▁tatbikat	-11.4655
▁Yozgat	-11.4655
▁İzmit	-11.4655
entegre	-11.4655
▁mazlum	-11.4655
▁İBB	-11.4655
▁İzlanda	-11.4655
▁plaj	-11.4655
▁kaçarken	-11.4655
▁obüs	-11.4655
▁Panama	-11.4655
▁arayıp	-11.4656
Kiralık	-11.4656
▁yükümlülükler	-11.4656
▁şehr	-11.4661
▁tekniği	-11.467
▁kuşak	-11.4673
▁verilir	-11.4693
▁Merv	-11.4699
hazırd	-11.4769
▁plak	-11.4771
üzenleme	-11.4772
▁demokrat	-11.4773
▁Netanyahu	-11.4777
BDDK	-11.4777
▁Derdiyok	-11.4777
▁Elektroni	-11.4777
▁Feyenoord	-11.4777
▁Nüfus	-11.4777
▁Strateji	-11.4777
▁World	-11.4777
▁hidro	-11.4777
▁kuyumcu	-11.4777
▁müteahhit	-11.4777
▁federal	-11.4777
▁gözüküyor	-11.4777
▁Sezgin	-11.4777
▁SUV	-11.4777
▁alışkanlığı	-11.4777
▁YÖK	-11.4777
▁dolgu	-11.4777
▁Niğde	-11.4777
▁gövde	-11.4777
▁(19	-11.4777
▁Erbil	-11.4777
▁logo	-11.4777
▁Atiba	-11.4777
▁toparlanma	-11.4777
▁yenildi	-11.4778
▁taşınması	-11.4778
▁soğan	-11.4778
▁Castro	-11.4779
▁talip	-11.478
▁bilsin	-11.478
▁İnceleme	-11.478
▁stok	-11.478
▁çalışacağız	-11.4781
▁Marşı	-11.4781
▁şerit	-11.4782
-200	-11.4782
▁varıla	-11.4795
Artı	-11.4807
▁buyur	-11.4807
Ancak	-11.4811
▁tırnak	-11.4812
▁kuruluşlarını	-11.4831
▁hesab	-11.4842
▁paha	-11.4874
▁Gündoğ	-11.4879
▁bilmiş	-11.4886
▁boşandı	-11.4895
ooperatif	-11.49
▁Analistler	-11.49
▁Kırklareli	-11.49
▁eczane	-11.49
▁İskender	-11.49
▁Şükür	-11.49
▁kalsiyum	-11.49
▁Nevşehir	-11.49
▁1992	-11.49
▁duydum	-11.49
▁2016-0	-11.49
▁Şeref	-11.49
▁Yetki	-11.49
▁tetkik	-11.49
▁Ulusoy	-11.4901
▁Değişikli	-11.4901
▁savrul	-11.4902
▁hastalığ	-11.4927
ştay	-11.4946
ÜZE	-11.4961
leştirmiş	-11.4975
▁ikram	-11.5024
▁çoğal	-11.5025
EPDK	-11.5025
▁Koordinatör	-11.5025
▁Mistura	-11.5025
▁Müşteri	-11.5025
▁Schengen	-11.5025
▁Terzioğlu	-11.5025
▁Uyuşturucu	-11.5025
▁atlattı	-11.5025
▁edilebilecek	-11.5025
▁oksijen	-11.5025
▁İnegöl	-11.5025
▁intikal	-11.5025
▁acımasız	-11.5025
▁meslektaşları	-11.5025
▁işyerleri	-11.5026
▁çıkarttı	-11.5026
▁Ruhani	-11.5026
▁Tunus	-11.5026
▁Ünsal	-11.5026
▁evlene	-11.5026
▁figür	-11.5027
▁esnek	-11.5027
▁Fizik	-11.5028
▁Hekim	-11.503
▁abart	-11.503
▁artırır	-11.5035
▁kuzu	-11.5039
▁kurulmuş	-11.504
▁reddede	-11.5041
Daha	-11.5058
▁mensup	-11.5064
▁biliş	-11.5068
▁sunmay	-11.5071
▁Cadde	-11.5075
▁öğrendiği	-11.5082
▁özlem	-11.5093
▁İlişki	-11.5097
▁yaşanmış	-11.5099
alaşniko	-11.5115
FED	-11.5142
▁Büyükçekmece	-11.5152
▁Leonard	-11.5152
▁Renault	-11.5152
▁muhtaç	-11.5152
▁provokasyon	-11.5152
▁mükellef	-11.5152
▁stüdyo	-11.5152
▁tereddüt	-11.5152
▁1991	-11.5152
▁Bağcılar	-11.5152
▁davrandı	-11.5152
▁kontrat	-11.5152
▁yurtiçi	-11.5152
▁Akçay	-11.5152
▁rektör	-11.5152
▁dağılımı	-11.5153
▁acele	-11.5154
▁sopa	-11.5154
▁söyleyeyim	-11.5154
AVA	-11.5166
▁doğduğu	-11.5174
Allah	-11.5184
Fenerbahçe	-11.5184
▁cumhurbaşkan	-11.5225
▁bozuldu	-11.5256
▁adlandır	-11.5259
▁sığınma	-11.5275
▁Kavşağı	-11.528
▁Ambulans	-11.528
▁rüzgâr	-11.528
▁düşünülüyor	-11.528
▁temyiz	-11.528
▁Zanlılar	-11.528
▁Fındık	-11.528
▁cesur	-11.528
1.2016	-11.528
▁08.00	-11.528
▁planladıkları	-11.5281
▁LERİN	-11.5284
▁Hint	-11.5285
▁bant	-11.5288
▁hedefledikleri	-11.5288
▁yönelme	-11.5293
▁sapı	-11.5306
▁yuvarlağ	-11.5345
▁Festival	-11.5387
2016-2017	-11.541
=	-11.541
▁erkeği	-11.541
▁görülmektedir	-11.541
▁sendromu	-11.541
▁kaçakçılığı	-11.541
▁materyal	-11.541
▁meşgul	-11.541
▁Smith	-11.541
▁mağara	-11.541
▁Kampanya	-11.541
▁Center	-11.541
▁Hesap	-11.541
▁karargah	-11.541
▁heves	-11.541
▁Cevde	-11.541
▁çıkabilece	-11.541
▁Gizli	-11.541
▁saldırma	-11.5411
▁özeti	-11.5412
▁keçi	-11.5412
▁Atina	-11.5416
▁İdri	-11.5417
▁yöneldi	-11.5429
▁landırıl	-11.5434
▁tanınma	-11.5434
arsak	-11.5466
▁stad	-11.5479
▁arandığı	-11.5502
▁şampiyonluğ	-11.5503
silahl	-11.5517
▁Bırak	-11.553
▁popül	-11.553
▁üniforma	-11.5541
▁Edebiyat	-11.5541
▁gevşe	-11.5541
▁segment	-11.5541
▁zulüm	-11.5541
▁bilanço	-11.5541
▁giysi	-11.5541
▁kuzeydoğu	-11.5541
▁Çarşı	-11.5541
▁LYS	-11.5541
▁Sigara	-11.5542
▁mutsuz	-11.5542
▁müdürlükleri	-11.5542
▁Dubai	-11.5542
▁rutin	-11.5542
▁afiş	-11.5542
▁Hersek	-11.5542
▁dolaşa	-11.5543
▁Bayrampaşa	-11.5543
▁doldurdu	-11.5545
▁Yener	-11.5545
▁hissedil	-11.5545
▁atlata	-11.5547
▁Kriz	-11.5549
ebze	-11.5558
▁uçağ	-11.5581
▁bütünlüğünü	-11.5585
▁okundu	-11.5591
▁daralma	-11.5634
▁değişikliğ	-11.5641
oğul	-11.5645
▁kariyer	-11.5651
▁yolculuğ	-11.5658
▁şirketlerini	-11.5664
▁Çalış	-11.5674
▁Kırıkkale	-11.5675
▁hoşgörü	-11.5675
EĞİL	-11.5675
▁Juventus	-11.5675
▁Kuşadası	-11.5675
▁buğday	-11.5675
▁değerlendiriyor	-11.5675
▁dâhil	-11.5675
▁Çeşit	-11.5675
▁Özyakup	-11.5675
▁vilayet	-11.5675
▁Engelli	-11.5675
▁Sancaktepe	-11.5675
▁bariyer	-11.5675
▁Ufuk	-11.5675
▁mülakat	-11.5675
▁Kariyeri	-11.5675
▁Senegal	-11.5675
▁Öğle	-11.5675
▁mahrum	-11.5675
▁kullanılır	-11.5675
▁Rejim	-11.5675
▁Senato	-11.5675
▁alamıyor	-11.5675
▁kundak	-11.5675
▁Plus	-11.5676
▁kemer	-11.5676
▁Aleks	-11.5676
▁patent	-11.5677
▁istatistikler	-11.5678
Oğlum	-11.5679
▁düzelme	-11.5679
▁prens	-11.5689
▁bırakılma	-11.5698
▁önleye	-11.5727
TSK	-11.5767
▁İhti	-11.5774
KUL	-11.5788
TOBB	-11.581
▁Esenyurt	-11.581
▁Etkinlik	-11.581
▁Sırbistan	-11.581
▁seyrediyor	-11.581
▁Malezya	-11.581
▁İrlanda	-11.581
▁Albüm	-11.581
▁HTC	-11.581
▁davrana	-11.581
▁20:00	-11.581
▁Tanıtım	-11.581
▁kaybederken	-11.581
▁Aşağı	-11.581
▁SMS	-11.581
▁çekerken	-11.581
▁Göçmen	-11.5811
▁verebilece	-11.5811
▁uzaklaştırdı	-11.5812
▁Dernek	-11.5817
▁Grand	-11.5858
formasyon	-11.5865
gerçekleştirecek	-11.5909
Serhat	-11.5926
ekrar	-11.5939
lendirilmiş	-11.5945
▁zihni	-11.5946
ayanışma	-11.5946
_	-11.5947
▁Kerkük	-11.5947
▁sarsıntı	-11.5947
▁2016-01-2	-11.5947
▁Mülteciler	-11.5947
▁TERÖR	-11.5947
▁ağustos	-11.5947
▁http	-11.5947
▁lojman	-11.5947
▁mahkûm	-11.5947
▁metabolizma	-11.5947
▁milliyetçi	-11.5947
▁vaziyette	-11.5947
▁Talimatı	-11.5947
▁Cameron	-11.5947
▁vasıtası	-11.5947
▁Garanti	-11.5947
▁banyo	-11.5947
▁takdim	-11.5947
▁durduruldu	-11.5947
2015-2016	-11.5947
▁Sermaye	-11.5947
▁özgüven	-11.5947
▁Silva	-11.5949
▁Amasya	-11.5949
▁lanıp	-11.5951
▁çizme	-11.5952
▁konuşuldu	-11.5954
▁Ulaş	-11.5977
▁Model	-11.5978
▁yönetmenliğin	-11.5978
▁0,2	-11.5982
Büyük	-11.599
Josef	-11.6075
▁Küçükçekmece	-11.6086
▁Saldırgan	-11.6086
▁SÖZCÜ	-11.6086
▁işgücü	-11.6086
▁kontenjan	-11.6086
▁Mevlana	-11.6086
▁sesleniyorum	-11.6086
▁Neymar	-11.6086
▁belirtilirken	-11.6086
▁konuşurken	-11.6086
▁2016-02-1	-11.6086
▁yansıtıl	-11.6086
▁şefkat	-11.6086
▁istemişti	-11.6086
▁bahsettiği	-11.6086
▁İhale	-11.6086
▁Sıcak	-11.6088
▁Olcan	-11.6088
▁küçült	-11.6088
▁Karayel	-11.6088
▁oluşturur	-11.6089
▁Sabih	-11.6089
▁anons	-11.6092
▁patlatıl	-11.61
▁Şeb	-11.6107
▁stand	-11.6119
oksit	-11.613
atılırken	-11.616
▁çalıştırıl	-11.6193
▁Adriano	-11.6227
lzheimer	-11.6227
▁Ereğli	-11.6227
▁Kapadokya	-11.6227
▁Kuveyt	-11.6227
▁Vietnam	-11.6227
▁antibiyotik	-11.6227
▁husumet	-11.6227
▁manipül	-11.6227
▁artırımı	-11.6227
▁fişek	-11.6227
▁rızası	-11.6227
▁GYO	-11.6227
▁pratik	-11.6227
▁çember	-11.6227
▁Tosic	-11.6227
▁Girişimci	-11.6227
▁atılıyor	-11.6227
▁KHK	-11.6227
kokteyl	-11.6227
▁tanıttı	-11.6227
▁edemiyor	-11.6227
▁şike	-11.6227
▁Gedik	-11.6227
▁dizayn	-11.6228
▁aydınlatma	-11.6228
▁haberimizde	-11.6228
▁0,0	-11.6228
▁Benzer	-11.6229
▁mevkidaş	-11.6229
lojik	-11.6233
▁yürütülme	-11.6234
▁sürdürülme	-11.6235
▁çağrıldı	-11.6239
▁olamayacağı	-11.6257
▁çakı	-11.6266
▁yazışmalar	-11.6281
▁kullanır	-11.6306
▁Külliye	-11.6344
▁Bağımsız	-11.637
▁Florida	-11.637
▁Tribün	-11.637
▁ambargo	-11.637
▁kripto	-11.637
▁çevrildi	-11.637
▁Sınıf	-11.637
▁tuhaf	-11.637
▁sağduyu	-11.637
▁seminer	-11.637
▁1988	-11.637
▁makyaj	-11.637
▁Daily	-11.637
▁zaaf	-11.637
▁yaratıyor	-11.637
▁analist	-11.637
▁şeridi	-11.637
▁Saraç	-11.637
▁köle	-11.637
▁boşaltıl	-11.637
▁namus	-11.637
▁Jones	-11.637
▁unutmayın	-11.6371
▁Babacan	-11.6371
ükümdar	-11.6372
▁yerleşe	-11.6374
▁Sinir	-11.6374
▁süratl	-11.6378
▁başarmış	-11.6379
▁adları	-11.6385
▁Fazl	-11.6424
▁Milletvekil	-11.6453
organik	-11.6477
landırılma	-11.6489
Lacivertli	-11.6514
▁Bostancı	-11.6514
▁Dortmund	-11.6514
▁Psikoloji	-11.6514
▁Yüreği	-11.6514
▁bodrum	-11.6514
▁elektriğ	-11.6514
▁müddet	-11.6514
▁padişah	-11.6514
▁Ücret	-11.6514
é	-11.6514
▁Müşavir	-11.6514
▁RTÜK	-11.6514
▁TEOG	-11.6514
▁çelişki	-11.6514
▁Çeyrek	-11.6514
▁branş	-11.6515
▁Kaide	-11.6515
*	-11.6866
Q	-11.7176
[	-11.9367
]	-11.9763
%	-12.143
>	-12.1526
°	-12.2276
а	-12.2809
ˆ	-12.4938
ə	-12.564
á	-12.6011
е	-12.7647
¦	-12.9604
ä	-12.9604
¥	-13.1373
ó	-13.2039
ñ	-13.3523
í	-13.5265
	-13.6265
\	-13.6265
¬	-13.7376
å	-13.7376
è	-13.7376
⁄	-13.7376
ê	-14.0055
■	-14.0055
×	-14.1722
ø	-14.6222
¡	-14.6222
®	-14.6222
ï	-14.6222
ú	-14.6222
ć	-14.6222
⭐	-14.6222
️	-14.6222
^	-14.9555
£	-14.9555
Ä	-14.9555
à	-14.9555
о	-14.9555
●	-14.9555
☮	-15.4555
	-15.4555
ß	-15.4555
ã	-15.4555
ƒ	-15.4555
і	-15.4555
ا	-15.4555
د	-15.4555
س	-15.4555
‬	-15.4555
∂	-15.4555
👍	-15.4555
Î	-15.4555
É	-15.4555
ل	-15.4555
و	-15.4555
ي	-15.4555
α	-16.4547
🇹	-16.4548
🇷	-16.4549
æ	-16.455
€	-16.4551
̧	-16.4552
•	-16.4553
̈	-16.4554
ر	-16.4555
Ğ	-16.4555
Å	-16.4555
ë	-16.4555
̆	-16.4555
~	-16.4555
	-16.4555
Ñ	-16.4555
Û	-16.4555
ē	-16.4555
ł	-16.4555
μ	-16.4555
Л	-16.4555
к	-16.4555
п	-16.4555
с	-16.4555
т	-16.4555
у	-16.4555
ة	-16.4555
ح	-16.4555
ق	-16.4555
م	-16.4555
ن	-16.4555
‫	-16.4555
›	-16.4555
🏆	-16.4555
🏻	-16.4555
👑	-16.4555
💋	-16.4555
💰	-16.4555
😁	-16.4555
😊	-16.4555
🙏	-16.4555
Ø	-16.4555
ù	-16.4555
💧	-16.4555
н	-16.4555
(	-16.4556
غ	-16.4556
