{
  "version": "1.0",
  "truncation": null,
  "padding": null,
  "added_tokens": [
    {
      "id": 0,
      "content": "[UNK]",
      "single_word": false,
      "lstrip": false,
      "rstrip": false,
      "normalized": false,
      "special": true
    },
    {
      "id": 1,
      "content": "[CLS]",
      "single_word": false,
      "lstrip": false,
      "rstrip": false,
      "normalized": false,
      "special": true
    },
    {
      "id": 2,
      "content": "[SEP]",
      "single_word": false,
      "lstrip": false,
      "rstrip": false,
      "normalized": false,
      "special": true
    },
    {
      "id": 3,
      "content": "[PAD]",
      "single_word": false,
      "lstrip": false,
      "rstrip": false,
      "normalized": false,
      "special": true
    },
    {
      "id": 4,
      "content": "[MASK]",
      "single_word": false,
      "lstrip": false,
      "rstrip": false,
      "normalized": false,
      "special": true
    }
  ],
  "normalizer": {
    "type": "Sequence",
    "normalizers": [
      {
        "type": "NFKC"
      },
      {
        "type": "Lowercase"
      }
    ]
  },
  "pre_tokenizer": {
    "type": "Whitespace"
  },
  "post_processor": null,
  "decoder": {
    "type": "WordPiece",
    "prefix": "##",
    "cleanup": true
  },
  "model": {
    "type": "WordPiece",
    "unk_token": "[UNK]",
    "continuing_subword_prefix": "##",
    "max_input_chars_per_word": 100,
    "vocab": {
      "[UNK]": 0,
      "[CLS]": 1,
      "[SEP]": 2,
      "[PAD]": 3,
      "[MASK]": 4,
      "!": 5,
      "\"": 6,
      "#": 7,
      "$": 8,
      "%": 9,
      "&": 10,
      "'": 11,
      "(": 12,
      ")": 13,
      "*": 14,
      "+": 15,
      ",": 16,
      "-": 17,
      ".": 18,
      "/": 19,
      "0": 20,
      "1": 21,
      "2": 22,
      "3": 23,
      "4": 24,
      "5": 25,
      "6": 26,
      "7": 27,
      "8": 28,
      "9": 29,
      ":": 30,
      ";": 31,
      "=": 32,
      ">": 33,
      "?": 34,
      "@": 35,
      "[": 36,
      "\\": 37,
      "]": 38,
      "^": 39,
      "_": 40,
      "`": 41,
      "a": 42,
      "b": 43,
      "c": 44,
      "d": 45,
      "e": 46,
      "f": 47,
      "g": 48,
      "h": 49,
      "i": 50,
      "j": 51,
      "k": 52,
      "l": 53,
      "m": 54,
      "n": 55,
      "o": 56,
      "p": 57,
      "q": 58,
      "r": 59,
      "s": 60,
      "t": 61,
      "u": 62,
      "v": 63,
      "w": 64,
      "x": 65,
      "y": 66,
      "z": 67,
      "~": 68,
      "": 69,
      "": 70,
      "": 71,
      "": 72,
      "¡": 73,
      "£": 74,
      "¥": 75,
      "¦": 76,
      "¬": 77,
      "­": 78,
      "®": 79,
      "°": 80,
      "·": 81,
      "×": 82,
      "ß": 83,
      "à": 84,
      "á": 85,
      "â": 86,
      "ã": 87,
      "ä": 88,
      "å": 89,
      "æ": 90,
      "ç": 91,
      "è": 92,
      "é": 93,
      "ê": 94,
      "ë": 95,
      "í": 96,
      "î": 97,
      "ï": 98,
      "ñ": 99,
      "ó": 100,
      "ö": 101,
      "ø": 102,
      "ù": 103,
      "ú": 104,
      "û": 105,
      "ü": 106,
      "ć": 107,
      "ē": 108,
      "ğ": 109,
      "ı": 110,
      "ł": 111,
      "ş": 112,
      "ƒ": 113,
      "ə": 114,
      "ˆ": 115,
      "̆": 116,
      "̇": 117,
      "̈": 118,
      "̧": 119,
      "α": 120,
      "μ": 121,
      "а": 122,
      "е": 123,
      "к": 124,
      "л": 125,
      "н": 126,
      "о": 127,
      "п": 128,
      "с": 129,
      "т": 130,
      "у": 131,
      "і": 132,
      "ا": 133,
      "ة": 134,
      "ح": 135,
      "د": 136,
      "ر": 137,
      "س": 138,
      "غ": 139,
      "ق": 140,
      "ل": 141,
      "م": 142,
      "ن": 143,
      "و": 144,
      "ي": 145,
      "‎": 146,
      "‏": 147,
      "•": 148,
      "‫": 149,
      "‬": 150,
      "′": 151,
      "›": 152,
      "⁄": 153,
      "€": 154,
      "∂": 155,
      "■": 156,
      "◊": 157,
      "●": 158,
      "☮": 159,
      "⭐": 160,
      "️": 161,
      "�": 162,
      "🇷": 163,
      "🇹": 164,
      "🏆": 165,
      "🏻": 166,
      "👍": 167,
      "👑": 168,
      "💋": 169,
      "💧": 170,
      "💰": 171,
      "😁": 172,
      "😊": 173,
      "🙏": 174,
      "##i": 175,
      "##s": 176,
      "##c": 177,
      "##r": 178,
      "##f": 179,
      "##e": 180,
      "##7": 181,
      "##5": 182,
      "##m": 183,
      "##u": 184,
      "##d": 185,
      "##t": 186,
      "##o": 187,
      "##g": 188,
      "##a": 189,
      "##n": 190,
      "##̇": 191,
      "##z": 192,
      "##k": 193,
      "##l": 194,
      "##b": 195,
      "##ğ": 196,
      "##ü": 197,
      "##ı": 198,
      "##h": 199,
      "##x": 200,
      "##9": 201,
      "##v": 202,
      "##ç": 203,
      "##1": 204,
      "##2": 205,
      "##y": 206,
      "##w": 207,
      "##ş": 208,
      "##6": 209,
      "##8": 210,
      "##ö": 211,
      "##p": 212,
      "##3": 213,
      "##û": 214,
      "##0": 215,
      "##â": 216,
      "##é": 217,
      "##j": 218,
      "##4": 219,
      "##î": 220,
      "##а": 221,
      "##q": 222,
      "##е": 223,
      "##о": 224,
      "##*": 225,
      "##ó": 226,
      "##+": 227,
      "##і": 228,
      "##è": 229,
      "##?": 230,
      "##)": 231,
      "##,": 232,
      "##ˆ": 233,
      "##.": 234,
      "##å": 235,
      "##'": 236,
      "##د": 237,
      "##س": 238,
      "##ي": 239,
      "##ة": 240,
      "##🏻": 241,
      "##ú": 242,
      "##í": 243,
      "##ə": 244,
      "##\"": 245,
      "##!": 246,
      "##ä": 247,
      "##-": 248,
      "##%": 249,
      "##ã": 250,
      "##/": 251,
      "##ł": 252,
      "##ē": 253,
      "##:": 254,
      "##к": 255,
      "##у": 256,
      "##т": 257,
      "##>": 258,
      "##ß": 259,
      "##á": 260,
      "##′": 261,
      "##و": 262,
      "##غ": 263,
      "##ل": 264,
      "##ن": 265,
      "##п": 266,
      "##с": 267,
      "##ø": 268,
      "##ح": 269,
      "##ر": 270,
      "##م": 271,
      "##ar": 272,
      "##er": 273,
      "##an": 274,
      "##en": 275,
      "##in": 276,
      "##ir": 277,
      "##ak": 278,
      "##le": 279,
      "lar": 280,
      "##il": 281,
      "ler": 282,
      "##ın": 283,
      "de": 284,
      "an": 285,
      "in": 286,
      "nd": 287,
      "ya": 288,
      "##la": 289,
      "##ek": 290,
      "##or": 291,
      "##al": 292,
      "da": 293,
      "ar": 294,
      "ve": 295,
      "##el": 296,
      "##ma": 297,
      "ol": 298,
      "##et": 299,
      "ma": 300,
      "bu": 301,
      "bir": 302,
      "##di": 303,
      "ın": 304,
      "al": 305,
      "ka": 306,
      "li": 307,
      "##ık": 308,
      "##de": 309,
      "##da": 310,
      "##un": 311,
      "en": 312,
      "##aş": 313,
      "##ıl": 314,
      "##ya": 315,
      "##dı": 316,
      "##st": 317,
      "##yor": 318,
      "di": 319,
      "il": 320,
      "##iz": 321,
      "er": 322,
      "##on": 323,
      "##ğı": 324,
      "et": 325,
      "##ur": 326,
      "##ki": 327,
      "ne": 328,
      "##ür": 329,
      "##ır": 330,
      "##si": 331,
      "gö": 332,
      "##ün": 333,
      "##sı": 334,
      "##at": 335,
      "##me": 336,
      "##ış": 337,
      "##ği": 338,
      "si": 339,
      "ay": 340,
      "##li": 341,
      "nı": 342,
      "##ti": 343,
      "un": 344,
      "i̇": 345,
      "te": 346,
      "me": 347,
      "ye": 348,
      "yap": 349,
      "iç": 350,
      "##iş": 351,
      "ed": 352,
      "on": 353,
      "na": 354,
      "leri": 355,
      "nin": 356,
      "##lar": 357,
      "##am": 358,
      "baş": 359,
      "nda": 360,
      "ni": 361,
      "##ığı": 362,
      "sı": 363,
      "ir": 364,
      "ab": 365,
      "ha": 366,
      "##ta": 367,
      "sa": 368,
      "##du": 369,
      "##ce": 370,
      "nın": 371,
      "ak": 372,
      "la": 373,
      "ta": 374,
      "at": 375,
      "##ra": 376,
      "ac": 377,
      "##im": 378,
      "için": 379,
      "##ka": 380,
      "kar": 381,
      "im": 382,
      "##eri": 383,
      "##re": 384,
      "le": 385,
      "##ok": 386,
      "tür": 387,
      "##ye": 388,
      "nde": 389,
      "ama": 390,
      "##ul": 391,
      "##um": 392,
      "ları": 393,
      "or": 394,
      "ile": 395,
      "##ke": 396,
      "##tı": 397,
      "ist": 398,
      "lik": 399,
      "ün": 400,
      "ra": 401,
      "##ol": 402,
      "##yle": 403,
      "gel": 404,
      "##ım": 405,
      "##üz": 406,
      "ul": 407,
      "oldu": 408,
      "##uş": 409,
      "##em": 410,
      "##sa": 411,
      "ver": 412,
      "ek": 413,
      "##ız": 414,
      "den": 415,
      "ara": 416,
      "##se": 417,
      "ur": 418,
      "##ara": 419,
      "##ük": 420,
      "##te": 421,
      "aç": 422,
      "mü": 423,
      "ev": 424,
      "ko": 425,
      "re": 426,
      "iş": 427,
      "du": 428,
      "dı": 429,
      "se": 430,
      "iyor": 431,
      "##ik": 432,
      "sin": 433,
      "##it": 434,
      "##ha": 435,
      "##ön": 436,
      "ba": 437,
      "lı": 438,
      "ıl": 439,
      "##şı": 440,
      "az": 441,
      "do": 442,
      "bul": 443,
      "##ut": 444,
      "çık": 445,
      "ması": 446,
      "el": 447,
      "iz": 448,
      "##uk": 449,
      "ti": 450,
      "dan": 451,
      "ge": 452,
      "sö": 453,
      "ec": 454,
      "türki": 455,
      "sın": 456,
      "to": 457,
      "ki": 458,
      "##ör": 459,
      "ndan": 460,
      "lan": 461,
      "##lı": 462,
      "su": 463,
      "aş": 464,
      "yıl": 465,
      "ter": 466,
      "uz": 467,
      "##endi": 468,
      "üz": 469,
      "lık": 470,
      "olduğ": 471,
      "acak": 472,
      "##ler": 473,
      "kal": 474,
      "##lu": 475,
      "##üş": 476,
      "##cı": 477,
      "##dan": 478,
      "tı": 479,
      "ön": 480,
      "bü": 481,
      "em": 482,
      "##bi": 483,
      "son": 484,
      "yer": 485,
      "kad": 486,
      "##aki": 487,
      "ik": 488,
      "ger": 489,
      "çok": 490,
      "bel": 491,
      "gi": 492,
      "yan": 493,
      "şe": 494,
      "##ca": 495,
      "iy": 496,
      "etti": 497,
      "ül": 498,
      "larak": 499,
      "bak": 500,
      "##gi": 501,
      "##üm": 502,
      "öz": 503,
      "mil": 504,
      "as": 505,
      "edil": 506,
      "gü": 507,
      "um": 508,
      "##den": 509,
      "am": 510,
      "gün": 511,
      "ecek": 512,
      "##az": 513,
      "yen": 514,
      "bil": 515,
      "ri": 516,
      "bulun": 517,
      "çal": 518,
      "##ro": 519,
      "kur": 520,
      "es": 521,
      "olan": 522,
      "daha": 523,
      "bö": 524,
      "##cu": 525,
      "##dü": 526,
      "ele": 527,
      "ıyor": 528,
      "geç": 529,
      "onra": 530,
      "ey": 531,
      "##yon": 532,
      "mak": 533,
      "kon": 534,
      "var": 535,
      "tan": 536,
      "ır": 537,
      "dur": 538,
      "av": 539,
      "##lan": 540,
      "mu": 541,
      "dığı": 542,
      "diği": 543,
      "kay": 544,
      "ise": 545,
      "top": 546,
      "ah": 547,
      "gör": 548,
      "karşı": 549,
      "çalış": 550,
      "uy": 551,
      "##çe": 552,
      "yar": 553,
      "değ": 554,
      "##ci": 555,
      "tır": 556,
      "unu": 557,
      "ine": 558,
      "##cak": 559,
      "bin": 560,
      "ce": 561,
      "mi": 562,
      "yapıl": 563,
      "yön": 564,
      "po": 565,
      "##por": 566,
      "##ağı": 567,
      "ım": 568,
      "##ru": 569,
      "##ları": 570,
      "göre": 571,
      "büy": 572,
      "##bil": 573,
      "dün": 574,
      "gen": 575,
      "bo": 576,
      "##ge": 577,
      "ağ": 578,
      "yaş": 579,
      "yeni": 580,
      "belir": 581,
      "##yo": 582,
      "##be": 583,
      "açık": 584,
      "ke": 585,
      "##fa": 586,
      "##us": 587,
      "yüz": 588,
      "başka": 589,
      "laş": 590,
      "##işi": 591,
      "nden": 592,
      "liği": 593,
      "terör": 594,
      "##za": 595,
      "mesi": 596,
      "ği": 597,
      "ür": 598,
      "yi": 599,
      "tir": 600,
      "yla": 601,
      "##ba": 602,
      "yak": 603,
      "##kı": 604,
      "ad": 605,
      "inin": 606,
      "ör": 607,
      "kişi": 608,
      "acağı": 609,
      "ece": 610,
      "##va": 611,
      "fa": 612,
      "##ken": 613,
      "##ste": 614,
      "tar": 615,
      "oy": 616,
      "yle": 617,
      "mış": 618,
      "her": 619,
      "büyük": 620,
      "##aman": 621,
      "##man": 622,
      "##lay": 623,
      "oğ": 624,
      "##ül": 625,
      "kendi": 626,
      "tara": 627,
      "düş": 628,
      "taraf": 629,
      "mek": 630,
      "şu": 631,
      "abil": 632,
      "lu": 633,
      "ülke": 634,
      "böl": 635,
      "be": 636,
      "konu": 637,
      "##let": 638,
      "pro": 639,
      "dır": 640,
      "kadar": 641,
      "mal": 642,
      "başla": 643,
      "##uz": 644,
      "gibi": 645,
      "dev": 646,
      "sun": 647,
      "##era": 648,
      "zaman": 649,
      "##oğ": 650,
      "üzeri": 651,
      "sor": 652,
      "dön": 653,
      "arası": 654,
      "##sta": 655,
      "##üt": 656,
      "yı": 657,
      "lığı": 658,
      "dedi": 659,
      "miş": 660,
      "biz": 661,
      "türk": 662,
      "söyle": 663,
      "##is": 664,
      "##yat": 665,
      "ında": 666,
      "anla": 667,
      "art": 668,
      "##na": 669,
      "##bul": 670,
      "arak": 671,
      "eceği": 672,
      "doğ": 673,
      "yol": 674,
      "##san": 675,
      "par": 676,
      "sür": 677,
      "ından": 678,
      "##gil": 679,
      "açıkl": 680,
      "söz": 681,
      "miz": 682,
      "tığı": 683,
      "##pa": 684,
      "spor": 685,
      "gerek": 686,
      "dir": 687,
      "ardı": 688,
      "erek": 689,
      "ot": 690,
      "alın": 691,
      "iste": 692,
      "eki": 693,
      "taş": 694,
      "onuş": 695,
      "syon": 696,
      "man": 697,
      "##ih": 698,
      "dünya": 699,
      "sal": 700,
      "##lis": 701,
      "eş": 702,
      "ının": 703,
      "inde": 704,
      "ğı": 705,
      "şeh": 706,
      "larda": 707,
      "sağ": 708,
      "yor": 709,
      "ok": 710,
      "nun": 711,
      "düz": 712,
      "alan": 713,
      "may": 714,
      "##eki": 715,
      "hak": 716,
      "tur": 717,
      "##lık": 718,
      "ih": 719,
      "##ne": 720,
      "ük": 721,
      "tak": 722,
      "ci": 723,
      "karar": 724,
      "get": 725,
      "mah": 726,
      "##hu": 727,
      "kları": 728,
      "ifa": 729,
      "##ekil": 730,
      "getir": 731,
      "ilk": 732,
      "kö": 733,
      "eme": 734,
      "ifade": 735,
      "olay": 736,
      "ların": 737,
      "özel": 738,
      "aber": 739,
      "cum": 740,
      "ban": 741,
      "ini": 742,
      "neden": 743,
      "##ali": 744,
      "##met": 745,
      "ap": 746,
      "ını": 747,
      "tu": 748,
      "ğın": 749,
      "mız": 750,
      "ben": 751,
      "dar": 752,
      "uyor": 753,
      "os": 754,
      "##leş": 755,
      "ayr": 756,
      "id": 757,
      "##ile": 758,
      "##ah": 759,
      "it": 760,
      "yüzde": 761,
      "lü": 762,
      "lendi": 763,
      "ril": 764,
      "örg": 765,
      "maç": 766,
      "tut": 767,
      "yönet": 768,
      "mo": 769,
      "ço": 770,
      "kat": 771,
      "değil": 772,
      "i̇st": 773,
      "##mak": 774,
      "eç": 775,
      "yun": 776,
      "cumhu": 777,
      "dış": 778,
      "fet": 779,
      "iki": 780,
      "##iy": 781,
      "örgüt": 782,
      "ten": 783,
      "kap": 784,
      "bölge": 785,
      "öl": 786,
      "##ven": 787,
      "men": 788,
      "##ere": 789,
      "diye": 790,
      "sev": 791,
      "##tü": 792,
      "devam": 793,
      "eden": 794,
      "ağı": 795,
      "len": 796,
      "kt": 797,
      "ndaki": 798,
      "##ren": 799,
      "##cü": 800,
      "güven": 801,
      "siz": 802,
      "deki": 803,
      "hasta": 804,
      "st": 805,
      "ip": 806,
      "##ğü": 807,
      "oğlu": 808,
      "ada": 809,
      "anbul": 810,
      "ren": 811,
      "bun": 812,
      "abd": 813,
      "ken": 814,
      "nt": 815,
      "kı": 816,
      "is": 817,
      "##mek": 818,
      "##leri": 819,
      "önce": 820,
      "ebil": 821,
      "altı": 822,
      "polis": 823,
      "durum": 824,
      "genel": 825,
      "##iler": 826,
      "yaşa": 827,
      "gaz": 828,
      "bek": 829,
      "op": 830,
      "##laş": 831,
      "ilgil": 832,
      "##iye": 833,
      "imi": 834,
      "##ğer": 835,
      "düzen": 836,
      "ulla": 837,
      "üre": 838,
      "nl": 839,
      "##zı": 840,
      "çe": 841,
      "milyo": 842,
      "rı": 843,
      "imiz": 844,
      "lara": 845,
      "ullan": 846,
      "insan": 847,
      "nem": 848,
      "saat": 849,
      "##bir": 850,
      "iyi": 851,
      "vur": 852,
      "adı": 853,
      "üç": 854,
      "duğ": 855,
      "hem": 856,
      "lerde": 857,
      "etme": 858,
      "tek": 859,
      "ayı": 860,
      "gir": 861,
      "iyet": 862,
      "evlet": 863,
      "mar": 864,
      "nemli": 865,
      "can": 866,
      "ancak": 867,
      "yok": 868,
      "iya": 869,
      "kr": 870,
      "olma": 871,
      "kim": 872,
      "mey": 873,
      "sında": 874,
      "maya": 875,
      "göste": 876,
      "ana": 877,
      "##kan": 878,
      "ut": 879,
      "saldı": 880,
      "ro": 881,
      "anı": 882,
      "bilgi": 883,
      "daki": 884,
      "mer": 885,
      "bakan": 886,
      "aldı": 887,
      "##ran": 888,
      "unda": 889,
      "ceza": 890,
      "ala": 891,
      "haf": 892,
      "eli": 893,
      "lerin": 894,
      "##ini": 895,
      "tem": 896,
      "rdi": 897,
      "rd": 898,
      "##ira": 899,
      "değer": 900,
      "uriye": 901,
      "##gu": 902,
      "gerç": 903,
      "##ip": 904,
      "yet": 905,
      "##lü": 906,
      "takım": 907,
      "gid": 908,
      "şey": 909,
      "##cuk": 910,
      "kleri": 911,
      "##mi": 912,
      "10": 913,
      "ğını": 914,
      "##ılar": 915,
      "çocuk": 916,
      "edi": 917,
      "içind": 918,
      "tüm": 919,
      "sine": 920,
      "öğ": 921,
      "##ve": 922,
      "üst": 923,
      "##ber": 924,
      "dem": 925,
      "duy": 926,
      "##tu": 927,
      "ku": 928,
      "met": 929,
      "han": 930,
      "ımız": 931,
      "çıkar": 932,
      "nlığı": 933,
      "iyle": 934,
      "##ji": 935,
      "ran": 936,
      "rus": 937,
      "rme": 938,
      "gelen": 939,
      "tarih": 940,
      "ekleş": 941,
      "mı": 942,
      "orta": 943,
      "sır": 944,
      "cı": 945,
      "nce": 946,
      "haz": 947,
      "kadın": 948,
      "##yla": 949,
      "##ey": 950,
      "landı": 951,
      "baka": 952,
      "i̇s": 953,
      "tü": 954,
      "lo": 955,
      "##dir": 956,
      "##gı": 957,
      "iliş": 958,
      "i̇l": 959,
      "isi": 960,
      "ca": 961,
      "dönem": 962,
      "fi": 963,
      "##nı": 964,
      "ale": 965,
      "rb": 966,
      "sinde": 967,
      "ede": 968,
      "sah": 969,
      "ort": 970,
      "luk": 971,
      "üks": 972,
      "esi": 973,
      "##miş": 974,
      "ça": 975,
      "vru": 976,
      "ıp": 977,
      "zor": 978,
      "##ılı": 979,
      "hava": 980,
      "##i̇": 981,
      "haber": 982,
      "rbaş": 983,
      "##cad": 984,
      "una": 985,
      "parti": 986,
      "ilişk": 987,
      "ru": 988,
      "kara": 989,
      "rdoğ": 990,
      "muh": 991,
      "##lem": 992,
      "ına": 993,
      "sonu": 994,
      "san": 995,
      "opera": 996,
      "şekil": 997,
      "##ine": 998,
      "sıra": 999,
      "rbaşk": 1000,
      "lüğü": 1001,
      "kaz": 1002,
      "ade": 1003,
      "oto": 1004,
      "##atan": 1005,
      "sil": 1006,
      "ıldı": 1007,
      "rül": 1008,
      "kan": 1009,
      "uş": 1010,
      "net": 1011,
      "uyg": 1012,
      "likte": 1013,
      "sel": 1014,
      "leş": 1015,
      "nün": 1016,
      "istem": 1017,
      "kayb": 1018,
      "ch": 1019,
      "##arı": 1020,
      "res": 1021,
      "##eş": 1022,
      "15": 1023,
      "ral": 1024,
      "sini": 1025,
      "bah": 1026,
      "vrupa": 1027,
      "fetö": 1028,
      "hayat": 1029,
      "##gün": 1030,
      "üyor": 1031,
      "sağla": 1032,
      "har": 1033,
      "lere": 1034,
      "uç": 1035,
      "bugün": 1036,
      "bağ": 1037,
      "hafta": 1038,
      "erke": 1039,
      "ici": 1040,
      "##dür": 1041,
      "dü": 1042,
      "azla": 1043,
      "ız": 1044,
      "kır": 1045,
      "kam": 1046,
      "kü": 1047,
      "ünde": 1048,
      "yaz": 1049,
      "isti": 1050,
      "lira": 1051,
      "ekon": 1052,
      "malar": 1053,
      "##ri": 1054,
      "kazan": 1055,
      "soru": 1056,
      "yanı": 1057,
      "biri": 1058,
      "he": 1059,
      "us": 1060,
      "##yet": 1061,
      "vatan": 1062,
      "niz": 1063,
      "beş": 1064,
      "##dia": 1065,
      "hakkı": 1066,
      "yuncu": 1067,
      "sav": 1068,
      "##ker": 1069,
      "arı": 1070,
      "görev": 1071,
      "git": 1072,
      "ndeki": 1073,
      "lama": 1074,
      "##ğiş": 1075,
      "iriş": 1076,
      "geldi": 1077,
      "##cel": 1078,
      "topla": 1079,
      "yakın": 1080,
      "daş": 1081,
      "ali": 1082,
      "geliş": 1083,
      "dolar": 1084,
      "bas": 1085,
      "katıl": 1086,
      "rah": 1087,
      "likle": 1088,
      "ekono": 1089,
      "kes": 1090,
      "diy": 1091,
      "rta": 1092,
      "müdür": 1093,
      "doğru": 1094,
      "eh": 1095,
      "nk": 1096,
      "ulaş": 1097,
      "##ay": 1098,
      "verdi": 1099,
      "böyle": 1100,
      "merke": 1101,
      "değiş": 1102,
      "##he": 1103,
      "##çi": 1104,
      "fen": 1105,
      "##ret": 1106,
      "süre": 1107,
      "çi": 1108,
      "say": 1109,
      "para": 1110,
      "mücad": 1111,
      "madı": 1112,
      "ark": 1113,
      "aynı": 1114,
      "yaşı": 1115,
      "bahçe": 1116,
      "zal": 1117,
      "##je": 1118,
      "sara": 1119,
      "nız": 1120,
      "kor": 1121,
      "sü": 1122,
      "sinin": 1123,
      "gazet": 1124,
      "zi": 1125,
      "##ına": 1126,
      "adece": 1127,
      "aile": 1128,
      "ekip": 1129,
      "olmak": 1130,
      "hazır": 1131,
      "af": 1132,
      "per": 1133,
      "deniz": 1134,
      "##kü": 1135,
      "saray": 1136,
      "anlat": 1137,
      "mez": 1138,
      "##rol": 1139,
      "##rı": 1140,
      "til": 1141,
      "asker": 1142,
      "##rada": 1143,
      "anan": 1144,
      "etk": 1145,
      "lay": 1146,
      "iler": 1147,
      "kaç": 1148,
      "mut": 1149,
      "darbe": 1150,
      "nü": 1151,
      "##dde": 1152,
      "nma": 1153,
      "iddia": 1154,
      "so": 1155,
      "sahip": 1156,
      "nkara": 1157,
      "eski": 1158,
      "pk": 1159,
      "riyet": 1160,
      "bır": 1161,
      "##uştu": 1162,
      "bırak": 1163,
      "iye": 1164,
      "sız": 1165,
      "##ram": 1166,
      "unlar": 1167,
      "##kat": 1168,
      "harek": 1169,
      "edef": 1170,
      "üksek": 1171,
      "i̇n": 1172,
      "genç": 1173,
      "kayd": 1174,
      "yay": 1175,
      "inden": 1176,
      "##mam": 1177,
      "##zi": 1178,
      "pkk": 1179,
      "üret": 1180,
      "ikkat": 1181,
      "veya": 1182,
      "düşü": 1183,
      "diğer": 1184,
      "fener": 1185,
      "şir": 1186,
      "yür": 1187,
      "##ot": 1188,
      "gül": 1189,
      "tl": 1190,
      "suç": 1191,
      "ış": 1192,
      "çıktı": 1193,
      "##üp": 1194,
      "sunda": 1195,
      "tiği": 1196,
      "rtaya": 1197,
      "üm": 1198,
      "ladı": 1199,
      "yapan": 1200,
      "raf": 1201,
      "enler": 1202,
      "tıl": 1203,
      "##ete": 1204,
      "inan": 1205,
      "üzere": 1206,
      "azete": 1207,
      "ans": 1208,
      "görüş": 1209,
      "aşkan": 1210,
      "##yas": 1211,
      "yöne": 1212,
      "arka": 1213,
      "kez": 1214,
      "pi": 1215,
      "mahke": 1216,
      "hat": 1217,
      "deste": 1218,
      "larla": 1219,
      "şim": 1220,
      "bunun": 1221,
      "##atış": 1222,
      "fil": 1223,
      "üs": 1224,
      "şehit": 1225,
      "kurul": 1226,
      "yapı": 1227,
      "ayın": 1228,
      "bekle": 1229,
      "kapsa": 1230,
      "öğren": 1231,
      "beşik": 1232,
      "##inc": 1233,
      "mel": 1234,
      "gram": 1235,
      "oyna": 1236,
      "##tar": 1237,
      "şar": 1238,
      "nu": 1239,
      "der": 1240,
      "yu": 1241,
      "sına": 1242,
      "maz": 1243,
      "üni": 1244,
      "istan": 1245,
      "gol": 1246,
      "##00": 1247,
      "tele": 1248,
      "şehir": 1249,
      "alata": 1250,
      "üye": 1251,
      "andı": 1252,
      "lanan": 1253,
      "aha": 1254,
      "rusya": 1255,
      "uygul": 1256,
      "sık": 1257,
      "bazı": 1258,
      "tep": 1259,
      "şi": 1260,
      "lig": 1261,
      "şirke": 1262,
      "ata": 1263,
      "isim": 1264,
      "sen": 1265,
      "çı": 1266,
      "bunu": 1267,
      "amada": 1268,
      "ndı": 1269,
      "ilçe": 1270,
      "ayrı": 1271,
      "mille": 1272,
      "eği": 1273,
      "lerle": 1274,
      "araç": 1275,
      "##şa": 1276,
      "sorun": 1277,
      "lt": 1278,
      "şek": 1279,
      "##lik": 1280,
      "geçen": 1281,
      "mayı": 1282,
      "##tün": 1283,
      "ns": 1284,
      "etki": 1285,
      "##zon": 1286,
      "tiril": 1287,
      "mes": 1288,
      "luğ": 1289,
      "içeri": 1290,
      "fiyat": 1291,
      "açıl": 1292,
      "nıl": 1293,
      "zaltı": 1294,
      "nas": 1295,
      "tah": 1296,
      "taşı": 1297,
      "rak": 1298,
      "i̇ş": 1299,
      "banka": 1300,
      "sürdü": 1301,
      "paz": 1302,
      "seç": 1303,
      "##yal": 1304,
      "tamam": 1305,
      "ulus": 1306,
      "proje": 1307,
      "demir": 1308,
      "milli": 1309,
      "rek": 1310,
      "gru": 1311,
      "osyal": 1312,
      "günü": 1313,
      "tam": 1314,
      "rü": 1315,
      "onun": 1316,
      "kul": 1317,
      "ağlık": 1318,
      "ser": 1319,
      "liler": 1320,
      "kız": 1321,
      "tör": 1322,
      "bizim": 1323,
      "bile": 1324,
      "onlar": 1325,
      "pazar": 1326,
      "şö": 1327,
      "rt": 1328,
      "ihti": 1329,
      "adam": 1330,
      "arklı": 1331,
      "miyor": 1332,
      "leme": 1333,
      "silah": 1334,
      "ng": 1335,
      "olo": 1336,
      "ağır": 1337,
      "if": 1338,
      "ğim": 1339,
      "tanı": 1340,
      "oruş": 1341,
      "ic": 1342,
      "##üs": 1343,
      "taki": 1344,
      "turma": 1345,
      "##mış": 1346,
      "##lah": 1347,
      "hi": 1348,
      "##niy": 1349,
      "##dav": 1350,
      "##nde": 1351,
      "gönde": 1352,
      "rsi": 1353,
      "hali": 1354,
      "##bo": 1355,
      "uv": 1356,
      "yayın": 1357,
      "emniy": 1358,
      "##lam": 1359,
      "nasıl": 1360,
      "ünive": 1361,
      "milya": 1362,
      "rsite": 1363,
      "müş": 1364,
      "hal": 1365,
      "iti": 1366,
      "erken": 1367,
      "bildi": 1368,
      "plan": 1369,
      "izmet": 1370,
      "hale": 1371,
      "öldü": 1372,
      "şöyle": 1373,
      "ep": 1374,
      "fe": 1375,
      "##muz": 1376,
      "tırma": 1377,
      "ıra": 1378,
      "urada": 1379,
      "şimdi": 1380,
      "güç": 1381,
      "rab": 1382,
      "kli": 1383,
      "dik": 1384,
      "sezon": 1385,
      "eçti": 1386,
      "alt": 1387,
      "ntrol": 1388,
      "anlaş": 1389,
      "maçı": 1390,
      "geçir": 1391,
      "mik": 1392,
      "yaral": 1393,
      "arkad": 1394,
      "nok": 1395,
      "emmuz": 1396,
      "ğren": 1397,
      "his": 1398,
      "ing": 1399,
      "ğini": 1400,
      "üc": 1401,
      "##mba": 1402,
      "ıyla": 1403,
      "oyun": 1404,
      "göz": 1405,
      "##nik": 1406,
      "acı": 1407,
      "ıcı": 1408,
      "##ında": 1409,
      "işlem": 1410,
      "ık": 1411,
      "üp": 1412,
      "eğit": 1413,
      "laşık": 1414,
      "nokta": 1415,
      "ildi": 1416,
      "ğrenc": 1417,
      "metre": 1418,
      "va": 1419,
      "ze": 1420,
      "sını": 1421,
      "ehmet": 1422,
      "##bu": 1423,
      "yasa": 1424,
      "aki": 1425,
      "mcı": 1426,
      "kil": 1427,
      "tedav": 1428,
      "edya": 1429,
      "aba": 1430,
      "rdü": 1431,
      "öde": 1432,
      "yük": 1433,
      "lenen": 1434,
      "duğu": 1435,
      "kabul": 1436,
      "##alı": 1437,
      "tutuk": 1438,
      "lanma": 1439,
      "nel": 1440,
      "aşa": 1441,
      "cu": 1442,
      "##gan": 1443,
      "##su": 1444,
      "kent": 1445,
      "##der": 1446,
      "lma": 1447,
      "siniz": 1448,
      "##ga": 1449,
      "şah": 1450,
      "geri": 1451,
      "##bol": 1452,
      "unun": 1453,
      "medi": 1454,
      "eled": 1455,
      "sonuc": 1456,
      "ilgi": 1457,
      "##yi": 1458,
      "luştu": 1459,
      "uğ": 1460,
      "gu": 1461,
      "##ça": 1462,
      "düşün": 1463,
      "yardı": 1464,
      "lük": 1465,
      "doğu": 1466,
      "bomba": 1467,
      "oloji": 1468,
      "tti": 1469,
      "ntı": 1470,
      "gece": 1471,
      "ğimiz": 1472,
      "bölüm": 1473,
      "mında": 1474,
      "eng": 1475,
      "ite": 1476,
      "ardım": 1477,
      "tale": 1478,
      "bütün": 1479,
      "itiba": 1480,
      "okul": 1481,
      "ekt": 1482,
      "za": 1483,
      "film": 1484,
      "uzun": 1485,
      "dava": 1486,
      "çö": 1487,
      "şüp": 1488,
      "şüphe": 1489,
      "mıyor": 1490,
      "telef": 1491,
      "yağ": 1492,
      "oran": 1493,
      "##şe": 1494,
      "aka": 1495,
      "ğin": 1496,
      "ant": 1497,
      "sınır": 1498,
      "etkil": 1499,
      "##dır": 1500,
      "içbir": 1501,
      "köy": 1502,
      "has": 1503,
      "din": 1504,
      "far": 1505,
      "yo": 1506,
      "ayısı": 1507,
      "ırken": 1508,
      "om": 1509,
      "orm": 1510,
      "sının": 1511,
      "ait": 1512,
      "önün": 1513,
      "bay": 1514,
      "erkes": 1515,
      "eri": 1516,
      "for": 1517,
      "öne": 1518,
      "##ğın": 1519,
      "rağ": 1520,
      "12": 1521,
      "##tür": 1522,
      "dile": 1523,
      "yakal": 1524,
      "mahal": 1525,
      "kol": 1526,
      "ez": 1527,
      "##üme": 1528,
      "fut": 1529,
      "kurum": 1530,
      "lcu": 1531,
      "pu": 1532,
      "rağme": 1533,
      "meye": 1534,
      "koy": 1535,
      "futbo": 1536,
      "aya": 1537,
      "güz": 1538,
      "etmek": 1539,
      "kilo": 1540,
      "rma": 1541,
      "##çok": 1542,
      "ikinc": 1543,
      "ika": 1544,
      "yat": 1545,
      "kika": 1546,
      "çıkan": 1547,
      "hiç": 1548,
      "##pit": 1549,
      "yetki": 1550,
      "vurgu": 1551,
      "20": 1552,
      "ste": 1553,
      "şam": 1554,
      "##mı": 1555,
      "olayı": 1556,
      "ündem": 1557,
      "olur": 1558,
      "11": 1559,
      "bekl": 1560,
      "irçok": 1561,
      "##ulu": 1562,
      "amay": 1563,
      "anda": 1564,
      "min": 1565,
      "kaldı": 1566,
      "espit": 1567,
      "kür": 1568,
      "ıs": 1569,
      "kra": 1570,
      "ner": 1571,
      "tekn": 1572,
      "dil": 1573,
      "ob": 1574,
      "çöz": 1575,
      "ndi": 1576,
      "tırım": 1577,
      "ekim": 1578,
      "lesi": 1579,
      "pek": 1580,
      "laşma": 1581,
      "##rans": 1582,
      "yö": 1583,
      "rün": 1584,
      "##cek": 1585,
      "dav": 1586,
      "savaş": 1587,
      "amadı": 1588,
      "anlam": 1589,
      "bağlı": 1590,
      "ize": 1591,
      "bera": 1592,
      "onu": 1593,
      "elim": 1594,
      "mev": 1595,
      "mod": 1596,
      "##deş": 1597,
      "ardeş": 1598,
      "veren": 1599,
      "toplu": 1600,
      "sarı": 1601,
      "tane": 1602,
      "ğü": 1603,
      "sürec": 1604,
      "rım": 1605,
      "sonuç": 1606,
      "oca": 1607,
      "atan": 1608,
      "fir": 1609,
      "satış": 1610,
      "kayna": 1611,
      "vekil": 1612,
      "urulu": 1613,
      "ari": 1614,
      "lider": 1615,
      "oluş": 1616,
      "kıs": 1617,
      "akat": 1618,
      "uk": 1619,
      "muş": 1620,
      "bi": 1621,
      "güzel": 1622,
      "ihtiy": 1623,
      "izin": 1624,
      "incel": 1625,
      "##zo": 1626,
      "ati": 1627,
      "##fi": 1628,
      "ahi": 1629,
      "elir": 1630,
      "yıldı": 1631,
      "kamu": 1632,
      "leşme": 1633,
      "puan": 1634,
      "##are": 1635,
      "dırıl": 1636,
      "kem": 1637,
      "atl": 1638,
      "atıl": 1639,
      "utbol": 1640,
      "lat": 1641,
      "ilen": 1642,
      "tra": 1643,
      "##aka": 1644,
      "avcı": 1645,
      "sözcü": 1646,
      "fer": 1647,
      "nc": 1648,
      "##sun": 1649,
      "engel": 1650,
      "yenid": 1651,
      "i̇ngil": 1652,
      "imza": 1653,
      "##ını": 1654,
      "mizin": 1655,
      "teki": 1656,
      "mem": 1657,
      "kaza": 1658,
      "yoğ": 1659,
      "ateş": 1660,
      "##ylem": 1661,
      "dr": 1662,
      "mobil": 1663,
      "ira": 1664,
      "tık": 1665,
      "ziy": 1666,
      "çev": 1667,
      "ullah": 1668,
      "viz": 1669,
      "zar": 1670,
      "mad": 1671,
      "ayrıl": 1672,
      "kten": 1673,
      "musta": 1674,
      "ton": 1675,
      "i̇z": 1676,
      "ziyar": 1677,
      "şa": 1678,
      "yükse": 1679,
      "ciler": 1680,
      "attı": 1681,
      "meler": 1682,
      "alanı": 1683,
      "lman": 1684,
      "gar": 1685,
      "şekli": 1686,
      "tedir": 1687,
      "aylaş": 1688,
      "berab": 1689,
      "ünü": 1690,
      "yine": 1691,
      "madan": 1692,
      "grup": 1693,
      "yacak": 1694,
      "krar": 1695,
      "hep": 1696,
      "eşi": 1697,
      "mart": 1698,
      "##unm": 1699,
      "piyon": 1700,
      "önem": 1701,
      "##ımı": 1702,
      "malı": 1703,
      "nması": 1704,
      "vali": 1705,
      "##ter": 1706,
      "üçler": 1707,
      "rabzo": 1708,
      "aday": 1709,
      "##şam": 1710,
      "çağ": 1711,
      "erkez": 1712,
      "yürü": 1713,
      "oku": 1714,
      "van": 1715,
      "amaz": 1716,
      "##yaz": 1717,
      "artık": 1718,
      "nayas": 1719,
      "rol": 1720,
      "gitti": 1721,
      "ydi": 1722,
      "ırası": 1723,
      "##urt": 1724,
      "rece": 1725,
      "görü": 1726,
      "meyda": 1727,
      "öğret": 1728,
      "rne": 1729,
      "##sk": 1730,
      "bur": 1731,
      "seçim": 1732,
      "rci": 1733,
      "sürü": 1734,
      "ıldız": 1735,
      "eğ": 1736,
      "est": 1737,
      "fot": 1738,
      "ince": 1739,
      "chp": 1740,
      "ydı": 1741,
      "ölüm": 1742,
      "diyor": 1743,
      "gelir": 1744,
      "rken": 1745,
      "ürün": 1746,
      "erç": 1747,
      "yani": 1748,
      "ıllar": 1749,
      "dere": 1750,
      "##vil": 1751,
      "iniz": 1752,
      "ürü": 1753,
      "kısa": 1754,
      "ksi": 1755,
      "undan": 1756,
      "##ekl": 1757,
      "kre": 1758,
      "ameri": 1759,
      "cam": 1760,
      "lıyor": 1761,
      "rüntü": 1762,
      "pa": 1763,
      "avunm": 1764,
      "ağa": 1765,
      "ahmet": 1766,
      "dönüş": 1767,
      "yurt": 1768,
      "olu": 1769,
      "cil": 1770,
      "ledi": 1771,
      "##saj": 1772,
      "adım": 1773,
      "rmek": 1774,
      "otur": 1775,
      "nme": 1776,
      "uzak": 1777,
      "üne": 1778,
      "##len": 1779,
      "artır": 1780,
      "atı": 1781,
      "lmany": 1782,
      "tük": 1783,
      "cü": 1784,
      "yazı": 1785,
      "tildi": 1786,
      "nen": 1787,
      "rdiği": 1788,
      "fotoğ": 1789,
      "mıştı": 1790,
      "30": 1791,
      "mağ": 1792,
      "ahibi": 1793,
      "lek": 1794,
      "çar": 1795,
      "25": 1796,
      "azı": 1797,
      "iyasi": 1798,
      "oru": 1799,
      "##bat": 1800,
      "##do": 1801,
      "elek": 1802,
      "tepki": 1803,
      "elirl": 1804,
      "sok": 1805,
      "iyasa": 1806,
      "ers": 1807,
      "nacak": 1808,
      "ültür": 1809,
      "ışı": 1810,
      "kası": 1811,
      "tr": 1812,
      "bey": 1813,
      "14": 1814,
      "tal": 1815,
      "faal": 1816,
      "yargı": 1817,
      "eclis": 1818,
      "istey": 1819,
      "end": 1820,
      "##cuğ": 1821,
      "basın": 1822,
      "adet": 1823,
      "liğ": 1824,
      "knik": 1825,
      "akşam": 1826,
      "##ni": 1827,
      "tin": 1828,
      "lantı": 1829,
      "terek": 1830,
      "osman": 1831,
      "nak": 1832,
      "ılma": 1833,
      "çevre": 1834,
      "mur": 1835,
      "açı": 1836,
      "tt": 1837,
      "mama": 1838,
      "nne": 1839,
      "ndığı": 1840,
      "bina": 1841,
      "çün": 1842,
      "ıntı": 1843,
      "eti": 1844,
      "tartı": 1845,
      "niyor": 1846,
      "hız": 1847,
      "elin": 1848,
      "##vet": 1849,
      "uldu": 1850,
      "ilet": 1851,
      "up": 1852,
      "tay": 1853,
      "ona": 1854,
      "müda": 1855,
      "kriz": 1856,
      "demo": 1857,
      "ralık": 1858,
      "rman": 1859,
      "##mir": 1860,
      "boz": 1861,
      "bit": 1862,
      "co": 1863,
      "##fer": 1864,
      "##üb": 1865,
      "##van": 1866,
      "saba": 1867,
      "ses": 1868,
      "ktan": 1869,
      "kin": 1870,
      "olsun": 1871,
      "ener": 1872,
      "kalan": 1873,
      "mesaj": 1874,
      "ncesi": 1875,
      "eğer": 1876,
      "bet": 1877,
      "trans": 1878,
      "kav": 1879,
      "yürüt": 1880,
      "illet": 1881,
      "kapat": 1882,
      "ektör": 1883,
      "let": 1884,
      "dah": 1885,
      "üncel": 1886,
      "şubat": 1887,
      "uvvet": 1888,
      "eylem": 1889,
      "ayınd": 1890,
      "dak": 1891,
      "tüket": 1892,
      "mas": 1893,
      "zan": 1894,
      "i̇zmir": 1895,
      "çek": 1896,
      "poli": 1897,
      "boy": 1898,
      "13": 1899,
      "bancı": 1900,
      "i̇lk": 1901,
      "koru": 1902,
      "alk": 1903,
      "tas": 1904,
      "küç": 1905,
      "sebe": 1906,
      "öyle": 1907,
      "müdah": 1908,
      "liye": 1909,
      "erçek": 1910,
      "rim": 1911,
      "and": 1912,
      "sanat": 1913,
      "yum": 1914,
      "lıklı": 1915,
      "go": 1916,
      "##gür": 1917,
      "nceki": 1918,
      "aktar": 1919,
      "izle": 1920,
      "krasi": 1921,
      "lil": 1922,
      "rdı": 1923,
      "cid": 1924,
      "indir": 1925,
      "dim": 1926,
      "baba": 1927,
      "ia": 1928,
      "yorum": 1929,
      "ntal": 1930,
      "ınca": 1931,
      "rev": 1932,
      "artış": 1933,
      "bar": 1934,
      "layan": 1935,
      "ğa": 1936,
      "apı": 1937,
      "oda": 1938,
      "ani": 1939,
      "##ft": 1940,
      "ortak": 1941,
      "şart": 1942,
      "erv": 1943,
      "manı": 1944,
      "yü": 1945,
      "sevk": 1946,
      "alb": 1947,
      "yanda": 1948,
      "nüm": 1949,
      "tif": 1950,
      "amacı": 1951,
      "tab": 1952,
      "yaşam": 1953,
      "bağla": 1954,
      "yoğun": 1955,
      "pay": 1956,
      "rneği": 1957,
      "kın": 1958,
      "ırs": 1959,
      "iv": 1960,
      "büyü": 1961,
      "takip": 1962,
      "rüldü": 1963,
      "ret": 1964,
      "yana": 1965,
      "dağ": 1966,
      "çin": 1967,
      "one": 1968,
      "jo": 1969,
      "##muş": 1970,
      "anne": 1971,
      "sayı": 1972,
      "ıllık": 1973,
      "riyor": 1974,
      "ocak": 1975,
      "rüş": 1976,
      "mayan": 1977,
      "nış": 1978,
      "umuz": 1979,
      "aracı": 1980,
      "ntaly": 1981,
      "şma": 1982,
      "derec": 1983,
      "mlu": 1984,
      "arış": 1985,
      "##uro": 1986,
      "sırad": 1987,
      "inşa": 1988,
      "16": 1989,
      "kapa": 1990,
      "mis": 1991,
      "işe": 1992,
      "sunuz": 1993,
      "ktör": 1994,
      "18": 1995,
      "##lim": 1996,
      "erk": 1997,
      "huk": 1998,
      "##dın": 1999,
      "şan": 2000,
      "ilim": 2001,
      "zarar": 2002,
      "araş": 2003,
      "ralar": 2004,
      "##ınd": 2005,
      "jan": 2006,
      "teşe": 2007,
      "yız": 2008,
      "gök": 2009,
      "ğım": 2010,
      "##so": 2011,
      "alış": 2012,
      "siyas": 2013,
      "hukuk": 2014,
      "ücret": 2015,
      "lenme": 2016,
      "dür": 2017,
      "euro": 2018,
      "allah": 2019,
      "hük": 2020,
      "yiz": 2021,
      "ıf": 2022,
      "rbe": 2023,
      "rildi": 2024,
      "rka": 2025,
      "ib": 2026,
      "çünkü": 2027,
      "ita": 2028,
      "##lat": 2029,
      "organ": 2030,
      "irak": 2031,
      "mızı": 2032,
      "kamp": 2033,
      "itesi": 2034,
      "ğımız": 2035,
      "ide": 2036,
      "çocuğ": 2037,
      "rılar": 2038,
      "eb": 2039,
      "no": 2040,
      "rul": 2041,
      "etmiş": 2042,
      "tadır": 2043,
      "çift": 2044,
      "oranı": 2045,
      "suz": 2046,
      "##ku": 2047,
      "uza": 2048,
      "rdu": 2049,
      "aşlar": 2050,
      "kış": 2051,
      "##ğa": 2052,
      "rbest": 2053,
      "lılar": 2054,
      "çarp": 2055,
      "##lo": 2056,
      "yolcu": 2057,
      "nesi": 2058,
      "urt": 2059,
      "çıkla": 2060,
      "yarat": 2061,
      "17": 2062,
      "kale": 2063,
      "bat": 2064,
      "fat": 2065,
      "klar": 2066,
      "tik": 2067,
      "##yan": 2068,
      "ntısı": 2069,
      "yarış": 2070,
      "önünd": 2071,
      "yüzü": 2072,
      "iyesi": 2073,
      "planl": 2074,
      "erleş": 2075,
      "gördü": 2076,
      "madde": 2077,
      "kadro": 2078,
      "ere": 2079,
      "ert": 2080,
      "sıyla": 2081,
      "forma": 2082,
      "ılmaz": 2083,
      "ciddi": 2084,
      "lte": 2085,
      "lerce": 2086,
      "ök": 2087,
      "sek": 2088,
      "irken": 2089,
      "emey": 2090,
      "kle": 2091,
      "gazi": 2092,
      "uçak": 2093,
      "rn": 2094,
      "##rü": 2095,
      "bilin": 2096,
      "vuru": 2097,
      "rıl": 2098,
      "nları": 2099,
      "irbir": 2100,
      "emi": 2101,
      "temel": 2102,
      "mcısı": 2103,
      "ent": 2104,
      "ks": 2105,
      "tören": 2106,
      "elekt": 2107,
      "esa": 2108,
      "arama": 2109,
      "koç": 2110,
      "##han": 2111,
      "sivil": 2112,
      "beni": 2113,
      "##sız": 2114,
      "tasar": 2115,
      "kötü": 2116,
      "yrı": 2117,
      "müm": 2118,
      "mümkü": 2119,
      "dizi": 2120,
      "rcih": 2121,
      "inter": 2122,
      "dakik": 2123,
      "benim": 2124,
      "ga": 2125,
      "buluş": 2126,
      "hüküm": 2127,
      "yrıca": 2128,
      "24": 2129,
      "ğlu": 2130,
      "tes": 2131,
      "üper": 2132,
      "kılı": 2133,
      "götü": 2134,
      "nspor": 2135,
      "kolay": 2136,
      "uğra": 2137,
      "çiz": 2138,
      "elçi": 2139,
      "sabah": 2140,
      "sene": 2141,
      "i̇ran": 2142,
      "tepe": 2143,
      "alı": 2144,
      "tor": 2145,
      "hesa": 2146,
      "fes": 2147,
      "##car": 2148,
      "vuk": 2149,
      "ley": 2150,
      "vardı": 2151,
      "kredi": 2152,
      "polit": 2153,
      "küçük": 2154,
      "ena": 2155,
      "şı": 2156,
      "bursa": 2157,
      "ef": 2158,
      "yal": 2159,
      "rik": 2160,
      "##aze": 2161,
      "ong": 2162,
      "od": 2163,
      "vi": 2164,
      "üneş": 2165,
      "model": 2166,
      "i̇şte": 2167,
      "ilme": 2168,
      "rapor": 2169,
      "risk": 2170,
      "enerj": 2171,
      "rüşme": 2172,
      "enaze": 2173,
      "gramı": 2174,
      "başı": 2175,
      "muta": 2176,
      "tırıl": 2177,
      "alet": 2178,
      "belge": 2179,
      "yatır": 2180,
      "arım": 2181,
      "eder": 2182,
      "talep": 2183,
      "firma": 2184,
      "sk": 2185,
      "kimse": 2186,
      "davut": 2187,
      "kılıç": 2188,
      "ayıda": 2189,
      "bakır": 2190,
      "vukat": 2191,
      "anal": 2192,
      "faiz": 2193,
      "diyar": 2194,
      "ela": 2195,
      "ham": 2196,
      "olsa": 2197,
      "##rac": 2198,
      "üncü": 2199,
      "yım": 2200,
      "çatış": 2201,
      "arken": 2202,
      "kalk": 2203,
      "sp": 2204,
      "tım": 2205,
      "ang": 2206,
      "anat": 2207,
      "erli": 2208,
      "hemen": 2209,
      "i̇ki": 2210,
      "kasım": 2211,
      "inans": 2212,
      "silci": 2213,
      "şen": 2214,
      "abi": 2215,
      "azi": 2216,
      "eyaz": 2217,
      "soy": 2218,
      "ediye": 2219,
      "mensu": 2220,
      "asi": 2221,
      "üy": 2222,
      "uygun": 2223,
      "iyat": 2224,
      "hiss": 2225,
      "gülen": 2226,
      "mutlu": 2227,
      "evi": 2228,
      "parça": 2229,
      "ttığı": 2230,
      "aması": 2231,
      "elde": 2232,
      "lteci": 2233,
      "##dar": 2234,
      "sak": 2235,
      "aşına": 2236,
      "nıyor": 2237,
      "laz": 2238,
      "şidde": 2239,
      "ayet": 2240,
      "ayır": 2241,
      "tav": 2242,
      "mizi": 2243,
      "aklar": 2244,
      "rum": 2245,
      "katkı": 2246,
      "dep": 2247,
      "100": 2248,
      "konud": 2249,
      "hesap": 2250,
      "meden": 2251,
      "geçi": 2252,
      "50": 2253,
      "of": 2254,
      "##eli": 2255,
      "eleş": 2256,
      "hangi": 2257,
      "ov": 2258,
      "raki": 2259,
      "teri": 2260,
      "umlu": 2261,
      "güçlü": 2262,
      "eçmiş": 2263,
      "kart": 2264,
      "urum": 2265,
      "çekil": 2266,
      "##fe": 2267,
      "durdu": 2268,
      "iha": 2269,
      "yeter": 2270,
      "eks": 2271,
      "dö": 2272,
      "darma": 2273,
      "kaya": 2274,
      "atta": 2275,
      "yunca": 2276,
      "duyur": 2277,
      "klif": 2278,
      "anık": 2279,
      "misyo": 2280,
      "##şit": 2281,
      "laşım": 2282,
      "mişti": 2283,
      "anado": 2284,
      "üküme": 2285,
      "ina": 2286,
      "hd": 2287,
      "alım": 2288,
      "dık": 2289,
      "evler": 2290,
      "eslim": 2291,
      "görme": 2292,
      "nisan": 2293,
      "inti": 2294,
      "umu": 2295,
      "adına": 2296,
      "rat": 2297,
      "zat": 2298,
      "##sim": 2299,
      "yıp": 2300,
      "eyen": 2301,
      "izler": 2302,
      "çeşit": 2303,
      "anayi": 2304,
      "trafi": 2305,
      "air": 2306,
      "ünün": 2307,
      "ekibi": 2308,
      "ödeme": 2309,
      "ligi": 2310,
      "##tim": 2311,
      "dım": 2312,
      "dol": 2313,
      "eyin": 2314,
      "ho": 2315,
      "girdi": 2316,
      "slan": 2317,
      "adlı": 2318,
      "yılda": 2319,
      "onund": 2320,
      "revli": 2321,
      "pe": 2322,
      "vo": 2323,
      "yarak": 2324,
      "marka": 2325,
      "temiz": 2326,
      "##dül": 2327,
      "ahçe": 2328,
      "anser": 2329,
      "fin": 2330,
      "ayy": 2331,
      "##ıt": 2332,
      "irek": 2333,
      "etkin": 2334,
      "gula": 2335,
      "ticar": 2336,
      "tos": 2337,
      "resmi": 2338,
      "etin": 2339,
      "tma": 2340,
      "anlar": 2341,
      "ödül": 2342,
      "aray": 2343,
      "ervis": 2344,
      "lam": 2345,
      "güne": 2346,
      "bize": 2347,
      "bana": 2348,
      "ayrıc": 2349,
      "alp": 2350,
      "sınız": 2351,
      "ard": 2352,
      "sig": 2353,
      "işler": 2354,
      "i̇slam": 2355,
      "muştu": 2356,
      "##fo": 2357,
      "uzman": 2358,
      "nül": 2359,
      "ğitim": 2360,
      "19": 2361,
      "angi": 2362,
      "vet": 2363,
      "atma": 2364,
      "recep": 2365,
      "ayyip": 2366,
      "fark": 2367,
      "21": 2368,
      "aralı": 2369,
      "oğu": 2370,
      "hen": 2371,
      "atil": 2372,
      "belli": 2373,
      "çözüm": 2374,
      "seri": 2375,
      "##bı": 2376,
      "##yd": 2377,
      "enz": 2378,
      "pat": 2379,
      "asıl": 2380,
      "çak": 2381,
      "abası": 2382,
      "##vi": 2383,
      "tob": 2384,
      "mızın": 2385,
      "endi": 2386,
      "oyn": 2387,
      "22": 2388,
      "azal": 2389,
      "izi": 2390,
      "kesin": 2391,
      "nti": 2392,
      "anl": 2393,
      "ımlar": 2394,
      "kül": 2395,
      "##lük": 2396,
      "steği": 2397,
      "tere": 2398,
      "inci": 2399,
      "ars": 2400,
      "ünlü": 2401,
      "kuru": 2402,
      "tirdi": 2403,
      "halkı": 2404,
      "nlık": 2405,
      "geniş": 2406,
      "sl": 2407,
      "mam": 2408,
      "emekl": 2409,
      "kça": 2410,
      "arılı": 2411,
      "rnek": 2412,
      "alon": 2413,
      "##izm": 2414,
      "istih": 2415,
      "ktor": 2416,
      "şarkı": 2417,
      "açısı": 2418,
      "ttı": 2419,
      "irleş": 2420,
      "irlik": 2421,
      "araya": 2422,
      "##tep": 2423,
      "pan": 2424,
      "##dit": 2425,
      "yanıt": 2426,
      "süreç": 2427,
      "arşı": 2428,
      "ünlük": 2429,
      "uzu": 2430,
      "kemal": 2431,
      "aat": 2432,
      "düzey": 2433,
      "iğer": 2434,
      "ail": 2435,
      "gal": 2436,
      "ij": 2437,
      "anma": 2438,
      "hane": 2439,
      "erkek": 2440,
      "anya": 2441,
      "las": 2442,
      "aşı": 2443,
      "lin": 2444,
      "##ck": 2445,
      "işçi": 2446,
      "aşarı": 2447,
      "avali": 2448,
      "elik": 2449,
      "sokak": 2450,
      "okun": 2451,
      "pyd": 2452,
      "urizm": 2453,
      "uzey": 2454,
      "kurt": 2455,
      "dışiş": 2456,
      "önemi": 2457,
      "hdp": 2458,
      "##tö": 2459,
      "eler": 2460,
      "final": 2461,
      "muz": 2462,
      "lazım": 2463,
      "müz": 2464,
      "kürt": 2465,
      "ürücü": 2466,
      "pol": 2467,
      "mp": 2468,
      "##ze": 2469,
      "kana": 2470,
      "rmak": 2471,
      "##kaç": 2472,
      "ediği": 2473,
      "rülen": 2474,
      "taleb": 2475,
      "dahil": 2476,
      "raş": 2477,
      "göç": 2478,
      "sol": 2479,
      "hli": 2480,
      "ceva": 2481,
      "eşil": 2482,
      "tv": 2483,
      "esabı": 2484,
      "cevap": 2485,
      "anak": 2486,
      "irkaç": 2487,
      "çab": 2488,
      "i̇nsan": 2489,
      "oş": 2490,
      "aret": 2491,
      "ulüp": 2492,
      "üsl": 2493,
      "lçe": 2494,
      "işi": 2495,
      "murat": 2496,
      "hlike": 2497,
      "are": 2498,
      "ald": 2499,
      "çekti": 2500,
      "nur": 2501,
      "anun": 2502,
      "lığın": 2503,
      "rısı": 2504,
      "rem": 2505,
      "şik": 2506,
      "alman": 2507,
      "irinc": 2508,
      "üksel": 2509,
      "nmış": 2510,
      "tel": 2511,
      "ilan": 2512,
      "lığa": 2513,
      "adan": 2514,
      "ntem": 2515,
      "almak": 2516,
      "abet": 2517,
      "canlı": 2518,
      "ileri": 2519,
      "ayvan": 2520,
      "kayıt": 2521,
      "hatır": 2522,
      "ihrac": 2523,
      "fatih": 2524,
      "eceğ": 2525,
      "ormal": 2526,
      "i̇b": 2527,
      "hdit": 2528,
      "ons": 2529,
      "yansı": 2530,
      "yse": 2531,
      "tobüs": 2532,
      "##ump": 2533,
      "gali": 2534,
      "ire": 2535,
      "nç": 2536,
      "uar": 2537,
      "ord": 2538,
      "aşadı": 2539,
      "name": 2540,
      "trump": 2541,
      "uyla": 2542,
      "aj": 2543,
      "rk": 2544,
      "taj": 2545,
      "lın": 2546,
      "rge": 2547,
      "konya": 2548,
      "bizi": 2549,
      "gücü": 2550,
      "itir": 2551,
      "##i̇d": 2552,
      "galib": 2553,
      "ınız": 2554,
      "başta": 2555,
      "sektö": 2556,
      "adana": 2557,
      "çoğ": 2558,
      "ayram": 2559,
      "dalet": 2560,
      "ker": 2561,
      "epsi": 2562,
      "farkı": 2563,
      "ie": 2564,
      "siyle": 2565,
      "aydın": 2566,
      "ami": 2567,
      "eyl": 2568,
      "ransa": 2569,
      "yna": 2570,
      "aklı": 2571,
      "rac": 2572,
      "oz": 2573,
      "ilo": 2574,
      "ders": 2575,
      "şube": 2576,
      "ortam": 2577,
      "perso": 2578,
      "tılım": 2579,
      "duruş": 2580,
      "üyüme": 2581,
      "antep": 2582,
      "nik": 2583,
      "ref": 2584,
      "28": 2585,
      "##jim": 2586,
      "rahat": 2587,
      "imizi": 2588,
      "ışık": 2589,
      "yılın": 2590,
      "krat": 2591,
      "sığın": 2592,
      "işi̇d": 2593,
      "vaz": 2594,
      "abı": 2595,
      "ern": 2596,
      "slınd": 2597,
      "vü": 2598,
      "edera": 2599,
      "mali": 2600,
      "sahne": 2601,
      "ğinde": 2602,
      "eye": 2603,
      "daeş": 2604,
      "neral": 2605,
      "mit": 2606,
      "avaş": 2607,
      "rmans": 2608,
      "alle": 2609,
      "akın": 2610,
      "amera": 2611,
      "ıcak": 2612,
      "arın": 2613,
      "arada": 2614,
      "öte": 2615,
      "siyon": 2616,
      "tidar": 2617,
      "sert": 2618,
      "ırsat": 2619,
      "evin": 2620,
      "lçesi": 2621,
      "işle": 2622,
      "isiml": 2623,
      "çağrı": 2624,
      "karış": 2625,
      "baskı": 2626,
      "alık": 2627,
      "ras": 2628,
      "işare": 2629,
      "apis": 2630,
      "sınav": 2631,
      "det": 2632,
      "dair": 2633,
      "türlü": 2634,
      "sam": 2635,
      "kafa": 2636,
      "dk": 2637,
      "log": 2638,
      "mayıs": 2639,
      "özgür": 2640,
      "mizde": 2641,
      "cadde": 2642,
      "korku": 2643,
      "ray": 2644,
      "red": 2645,
      "anlış": 2646,
      "yık": 2647,
      "etrol": 2648,
      "amaç": 2649,
      "hay": 2650,
      "urken": 2651,
      "aland": 2652,
      "ismi": 2653,
      "boş": 2654,
      "prof": 2655,
      "cuma": 2656,
      "nlar": 2657,
      "loji": 2658,
      "üyesi": 2659,
      "not": 2660,
      "ulut": 2661,
      "amel": 2662,
      "anlı": 2663,
      "henüz": 2664,
      "rç": 2665,
      "gören": 2666,
      "vergi": 2667,
      "sorgu": 2668,
      "uşu": 2669,
      "lç": 2670,
      "ğün": 2671,
      "yemek": 2672,
      "efa": 2673,
      "liste": 2674,
      "ğında": 2675,
      "kupa": 2676,
      "ltan": 2677,
      "tip": 2678,
      "enzer": 2679,
      "40": 2680,
      "##var": 2681,
      "rahim": 2682,
      "cen": 2683,
      "nan": 2684,
      "nümüz": 2685,
      "ilis": 2686,
      "nnesi": 2687,
      "eg": 2688,
      "seviy": 2689,
      "memur": 2690,
      "##ylü": 2691,
      "yarın": 2692,
      "maçta": 2693,
      "perfo": 2694,
      "konul": 2695,
      "ekran": 2696,
      "kısmı": 2697,
      "akika": 2698,
      "rkası": 2699,
      "ldu": 2700,
      "kop": 2701,
      "güney": 2702,
      "fay": 2703,
      "dör": 2704,
      "ebe": 2705,
      "aylık": 2706,
      "##mat": 2707,
      "emedi": 2708,
      "dört": 2709,
      "lal": 2710,
      "##suz": 2711,
      "iyah": 2712,
      "tüğü": 2713,
      "unut": 2714,
      "talya": 2715,
      "ete": 2716,
      "diş": 2717,
      "urtar": 2718,
      "recek": 2719,
      "kira": 2720,
      "sanız": 2721,
      "aran": 2722,
      "buna": 2723,
      "liş": 2724,
      "doğal": 2725,
      "emez": 2726,
      "öre": 2727,
      "bakım": 2728,
      "amb": 2729,
      "ağlan": 2730,
      "ment": 2731,
      "şans": 2732,
      "nar": 2733,
      "olmuş": 2734,
      "hakem": 2735,
      "düşük": 2736,
      "vücu": 2737,
      "avuş": 2738,
      "alif": 2739,
      "tahmi": 2740,
      "çoğu": 2741,
      "tat": 2742,
      "ruh": 2743,
      "kulüb": 2744,
      "vizyo": 2745,
      "ıda": 2746,
      "i̇d": 2747,
      "syonu": 2748,
      "işbir": 2749,
      "duygu": 2750,
      "sur": 2751,
      "rdüğü": 2752,
      "23": 2753,
      "nlem": 2754,
      "savcı": 2755,
      "hızlı": 2756,
      "denil": 2757,
      "izm": 2758,
      "rda": 2759,
      "500": 2760,
      "halep": 2761,
      "sebep": 2762,
      "aire": 2763,
      "asyon": 2764,
      "poz": 2765,
      "otel": 2766,
      "kri": 2767,
      "boyu": 2768,
      "dam": 2769,
      "giren": 2770,
      "yunan": 2771,
      "ilerl": 2772,
      "rejim": 2773,
      "eyet": 2774,
      "##vu": 2775,
      "evir": 2776,
      "konut": 2777,
      "fayda": 2778,
      "ğu": 2779,
      "rail": 2780,
      "itap": 2781,
      "27": 2782,
      "yazdı": 2783,
      "mikta": 2784,
      "zer": 2785,
      "hakim": 2786,
      "defa": 2787,
      "yerde": 2788,
      "bayra": 2789,
      "dum": 2790,
      "ney": 2791,
      "oyu": 2792,
      "ölü": 2793,
      "çer": 2794,
      "tec": 2795,
      "ayıcı": 2796,
      "rin": 2797,
      "erg": 2798,
      "ayal": 2799,
      "başar": 2800,
      "uyu": 2801,
      "şk": 2802,
      "por": 2803,
      "çıkış": 2804,
      "tirme": 2805,
      "kla": 2806,
      "orada": 2807,
      "gider": 2808,
      "rakam": 2809,
      "nışma": 2810,
      "biraz": 2811,
      "emo": 2812,
      "ayata": 2813,
      "adi": 2814,
      "ucu": 2815,
      "öp": 2816,
      "erekl": 2817,
      "civar": 2818,
      "ımızı": 2819,
      "udi": 2820,
      "izl": 2821,
      "söylü": 2822,
      "eydan": 2823,
      "ahat": 2824,
      "kesim": 2825,
      "vak": 2826,
      "meli": 2827,
      "meyi": 2828,
      "ain": 2829,
      "ces": 2830,
      "num": 2831,
      "paş": 2832,
      "başvu": 2833,
      "cami": 2834,
      "eylül": 2835,
      "ağrı": 2836,
      "olup": 2837,
      "geçiş": 2838,
      "şman": 2839,
      "fik": 2840,
      "nünde": 2841,
      "angın": 2842,
      "pera": 2843,
      "yarar": 2844,
      "letme": 2845,
      "kuş": 2846,
      "sefer": 2847,
      "umsuz": 2848,
      "dışı": 2849,
      "üş": 2850,
      "resel": 2851,
      "ram": 2852,
      "iklik": 2853,
      "tuğ": 2854,
      "ideo": 2855,
      "hüs": 2856,
      "sey": 2857,
      "amm": 2858,
      "önüne": 2859,
      "ii": 2860,
      "tri": 2861,
      "eçen": 2862,
      "üslüm": 2863,
      "azılı": 2864,
      "dire": 2865,
      "cel": 2866,
      "rid": 2867,
      "usul": 2868,
      "asa": 2869,
      "hu": 2870,
      "şağı": 2871,
      "ğe": 2872,
      "inem": 2873,
      "macı": 2874,
      "içe": 2875,
      "geril": 2876,
      "görül": 2877,
      "ağım": 2878,
      "kıy": 2879,
      "paşa": 2880,
      "ılan": 2881,
      "mamız": 2882,
      "meş": 2883,
      "ollan": 2884,
      "imize": 2885,
      "hazi": 2886,
      "abaka": 2887,
      "erak": 2888,
      "amen": 2889,
      "inç": 2890,
      "yenil": 2891,
      "düştü": 2892,
      "taşıy": 2893,
      "gil": 2894,
      "pla": 2895,
      "cut": 2896,
      "##dem": 2897,
      "gın": 2898,
      "ig": 2899,
      "limat": 2900,
      "abri": 2901,
      "cılar": 2902,
      "irk": 2903,
      "müs": 2904,
      "ımı": 2905,
      "elind": 2906,
      "vesi": 2907,
      "##men": 2908,
      "isyon": 2909,
      "cıl": 2910,
      "ayak": 2911,
      "rede": 2912,
      "rubu": 2913,
      "ag": 2914,
      "irli": 2915,
      "yolu": 2916,
      "manın": 2917,
      "ihaz": 2918,
      "lkan": 2919,
      "savun": 2920,
      "evre": 2921,
      "elen": 2922,
      "neler": 2923,
      "akar": 2924,
      "rez": 2925,
      "saye": 2926,
      "ünler": 2927,
      "avet": 2928,
      "rgan": 2929,
      "yabil": 2930,
      "iriz": 2931,
      "arbe": 2932,
      "ldi": 2933,
      "enim": 2934,
      "avu": 2935,
      "elki": 2936,
      "eser": 2937,
      "pp": 2938,
      "eknik": 2939,
      "dbir": 2940,
      "rar": 2941,
      "zik": 2942,
      "abah": 2943,
      "bm": 2944,
      "dağı": 2945,
      "istik": 2946,
      "ven": 2947,
      "kere": 2948,
      "yere": 2949,
      "olmay": 2950,
      "liğe": 2951,
      "şık": 2952,
      "üt": 2953,
      "riz": 2954,
      "##çı": 2955,
      "diyen": 2956,
      "ğünü": 2957,
      "mre": 2958,
      "ynı": 2959,
      "alde": 2960,
      "ordu": 2961,
      "ünkü": 2962,
      "lans": 2963,
      "bank": 2964,
      "ngin": 2965,
      "anlay": 2966,
      "çerçe": 2967,
      "raba": 2968,
      "26": 2969,
      "kalma": 2970,
      "aygı": 2971,
      "gez": 2972,
      "29": 2973,
      "cak": 2974,
      "syond": 2975,
      "ümüz": 2976,
      "sh": 2977,
      "sti": 2978,
      "anet": 2979,
      "verme": 2980,
      "uşlar": 2981,
      "hata": 2982,
      "atsız": 2983,
      "eyn": 2984,
      "batı": 2985,
      "edel": 2986,
      "pları": 2987,
      "lmaz": 2988,
      "demek": 2989,
      "evine": 2990,
      "oğan": 2991,
      "cılık": 2992,
      "algı": 2993,
      "arca": 2994,
      "etkis": 2995,
      "ıllı": 2996,
      "beri": 2997,
      "imk": 2998,
      "asla": 2999,
      "yazar": 3000,
      "##dy": 3001,
      "asan": 3002,
      "ğum": 3003,
      "atik": 3004,
      "erim": 3005,
      "nit": 3006,
      "wa": 3007,
      "ğus": 3008,
      "vit": 3009,
      "üren": 3010,
      "içi": 3011,
      "bara": 3012,
      "kadem": 3013,
      "br": 3014,
      "##bar": 3015,
      "etçi": 3016,
      "zorla": 3017,
      "apımı": 3018,
      "zı": 3019,
      "anım": 3020,
      "üzü": 3021,
      "tıp": 3022,
      "mızda": 3023,
      "alel": 3024,
      "akan": 3025,
      "okak": 3026,
      "ysa": 3027,
      "tim": 3028,
      "zman": 3029,
      "içer": 3030,
      "osya": 3031,
      "raman": 3032,
      "radan": 3033,
      "bes": 3034,
      "yon": 3035,
      "##os": 3036,
      "enge": 3037,
      "eter": 3038,
      "üney": 3039,
      "zaten": 3040,
      "işim": 3041,
      "ow": 3042,
      "dayan": 3043,
      "kâ": 3044,
      "anti": 3045,
      "mun": 3046,
      "old": 3047,
      "ane": 3048,
      "madd": 3049,
      "dal": 3050,
      "mir": 3051,
      "zya": 3052,
      "mada": 3053,
      "eran": 3054,
      "alis": 3055,
      "amu": 3056,
      "pas": 3057,
      "ktörü": 3058,
      "ıt": 3059,
      "era": 3060,
      "oruma": 3061,
      "ortal": 3062,
      "nsel": 3063,
      "eyec": 3064,
      "enek": 3065,
      "altın": 3066,
      "rad": 3067,
      "ekme": 3068,
      "ime": 3069,
      "mamış": 3070,
      "35": 3071,
      "ükl": 3072,
      "çesi": 3073,
      "alma": 3074,
      "atış": 3075,
      "ms": 3076,
      "yp": 3077,
      "kom": 3078,
      "yapma": 3079,
      "nca": 3080,
      "raya": 3081,
      "nö": 3082,
      "ört": 3083,
      "blo": 3084,
      "sik": 3085,
      "uru": 3086,
      "duk": 3087,
      "ağlar": 3088,
      "nal": 3089,
      "ayn": 3090,
      "eci": 3091,
      "unuz": 3092,
      "th": 3093,
      "esle": 3094,
      "vic": 3095,
      "enar": 3096,
      "mbu": 3097,
      "oh": 3098,
      "zay": 3099,
      "halk": 3100,
      "ast": 3101,
      "tla": 3102,
      "unul": 3103,
      "rer": 3104,
      "tesi": 3105,
      "tb": 3106,
      "nes": 3107,
      "rap": 3108,
      "uyarı": 3109,
      "izli": 3110,
      "kit": 3111,
      "##tır": 3112,
      "enc": 3113,
      "açtı": 3114,
      "ksiyo": 3115,
      "tçe": 3116,
      "buldu": 3117,
      "##tal": 3118,
      "erte": 3119,
      "yin": 3120,
      "birim": 3121,
      "adığı": 3122,
      "lme": 3123,
      "aşama": 3124,
      "atla": 3125,
      "ülen": 3126,
      "diler": 3127,
      "iraz": 3128,
      "iver": 3129,
      "abir": 3130,
      "uyar": 3131,
      "##şi": 3132,
      "alka": 3133,
      "onya": 3134,
      "ahs": 3135,
      "derin": 3136,
      "nuz": 3137,
      "olun": 3138,
      "enme": 3139,
      "uvar": 3140,
      "dılar": 3141,
      "inay": 3142,
      "aris": 3143,
      "ayrak": 3144,
      "ezi": 3145,
      "rıcı": 3146,
      "sta": 3147,
      "asar": 3148,
      "suna": 3149,
      "kinci": 3150,
      "rerek": 3151,
      "rhan": 3152,
      "kıl": 3153,
      "ücad": 3154,
      "sad": 3155,
      "biti": 3156,
      "kiz": 3157,
      "ork": 3158,
      "renk": 3159,
      "oynan": 3160,
      ".,": 3161,
      "ble": 3162,
      "nşa": 3163,
      "indi": 3164,
      "nizi": 3165,
      "bozu": 3166,
      "tro": 3167,
      "##li̇": 3168,
      "mayın": 3169,
      "31": 3170,
      "ayan": 3171,
      "ngö": 3172,
      "yeme": 3173,
      "aşır": 3174,
      "esn": 3175,
      "itti": 3176,
      "sat": 3177,
      "aldır": 3178,
      "masa": 3179,
      "kah": 3180,
      "nite": 3181,
      "aksi": 3182,
      "ulan": 3183,
      "klan": 3184,
      "rıda": 3185,
      "tiren": 3186,
      "zir": 3187,
      "i̇sm": 3188,
      "arar": 3189,
      "ğiş": 3190,
      "eçil": 3191,
      "şif": 3192,
      "kler": 3193,
      "mize": 3194,
      "ğişik": 3195,
      "ksik": 3196,
      "iğ": 3197,
      "tiv": 3198,
      "kum": 3199,
      "ınar": 3200,
      "edin": 3201,
      "ebek": 3202,
      "yg": 3203,
      "mi̇": 3204,
      "dinle": 3205,
      "##mm": 3206,
      "atın": 3207,
      "ağan": 3208,
      "rte": 3209,
      "raç": 3210,
      "ursa": 3211,
      "eğe": 3212,
      "kuz": 3213,
      "ısı": 3214,
      "aket": 3215,
      "inc": 3216,
      "test": 3217,
      "park": 3218,
      "üyle": 3219,
      "ğur": 3220,
      "eride": 3221,
      "onse": 3222,
      "nay": 3223,
      "ron": 3224,
      "riler": 3225,
      "ilçes": 3226,
      "erel": 3227,
      "eve": 3228,
      "esti": 3229,
      "iyer": 3230,
      "süred": 3231,
      "ypg": 3232,
      "uc": 3233,
      "zam": 3234,
      "ikr": 3235,
      "soka": 3236,
      "inanı": 3237,
      "dolu": 3238,
      "akır": 3239,
      "i̇lçe": 3240,
      "llah": 3241,
      "irse": 3242,
      "ulüb": 3243,
      "yim": 3244,
      "arma": 3245,
      "ilm": 3246,
      "ergil": 3247,
      "ımıza": 3248,
      "mutl": 3249,
      "şeker": 3250,
      "özler": 3251,
      "ahil": 3252,
      "fon": 3253,
      "nat": 3254,
      "uns": 3255,
      "lanı": 3256,
      "ltın": 3257,
      "neye": 3258,
      "stekl": 3259,
      "liğin": 3260,
      "nil": 3261,
      "qu": 3262,
      "ası": 3263,
      "kte": 3264,
      "patla": 3265,
      "ncü": 3266,
      "lis": 3267,
      "nabil": 3268,
      "çey": 3269,
      "layın": 3270,
      "kus": 3271,
      "xx": 3272,
      "meme": 3273,
      "iptal": 3274,
      "nmesi": 3275,
      "atar": 3276,
      "nf": 3277,
      "zem": 3278,
      "receğ": 3279,
      "veri": 3280,
      "ütün": 3281,
      "##lak": 3282,
      "dası": 3283,
      "lıdır": 3284,
      "grub": 3285,
      "aşlat": 3286,
      "yazıl": 3287,
      "uran": 3288,
      "lıkla": 3289,
      "devre": 3290,
      "eji": 3291,
      "ımcı": 3292,
      "tbmm": 3293,
      "fla": 3294,
      "kızı": 3295,
      "arek": 3296,
      "yed": 3297,
      "üze": 3298,
      "lem": 3299,
      "usu": 3300,
      "sna": 3301,
      "çuk": 3302,
      "klı": 3303,
      "##id": 3304,
      "enen": 3305,
      "erbi": 3306,
      "bal": 3307,
      "kurma": 3308,
      "rö": 3309,
      "aynak": 3310,
      "lardı": 3311,
      "gitme": 3312,
      "tılan": 3313,
      "cilik": 3314,
      "ıları": 3315,
      "nır": 3316,
      "taz": 3317,
      "enk": 3318,
      "ster": 3319,
      "60": 3320,
      "je": 3321,
      "nam": 3322,
      "mda": 3323,
      "ub": 3324,
      "makta": 3325,
      "roje": 3326,
      "onser": 3327,
      "rın": 3328,
      "sunu": 3329,
      "##ch": 3330,
      "ırt": 3331,
      "akala": 3332,
      "atif": 3333,
      "aa": 3334,
      "akış": 3335,
      "reye": 3336,
      "gili": 3337,
      "kut": 3338,
      "ins": 3339,
      "onuna": 3340,
      "aze": 3341,
      "rit": 3342,
      "şeyi": 3343,
      "ndiği": 3344,
      "alkın": 3345,
      "lası": 3346,
      "htar": 3347,
      "emen": 3348,
      "fır": 3349,
      "palı": 3350,
      "cem": 3351,
      "ilah": 3352,
      "prü": 3353,
      "teş": 3354,
      "parla": 3355,
      "ücre": 3356,
      "ğiniz": 3357,
      "gere": 3358,
      "zlem": 3359,
      "ekle": 3360,
      "eller": 3361,
      "eo": 3362,
      "ff": 3363,
      "şo": 3364,
      "upa": 3365,
      "mh": 3366,
      "vaş": 3367,
      "fı": 3368,
      "ldü": 3369,
      "val": 3370,
      "necek": 3371,
      "üstü": 3372,
      "ksel": 3373,
      "apa": 3374,
      "ila": 3375,
      "lok": 3376,
      "zg": 3377,
      "med": 3378,
      "yıla": 3379,
      "gin": 3380,
      "zun": 3381,
      "ende": 3382,
      "sas": 3383,
      "rmiş": 3384,
      "şıyor": 3385,
      "lak": 3386,
      "##mo": 3387,
      "urumu": 3388,
      "ja": 3389,
      "ind": 3390,
      "eker": 3391,
      "bölü": 3392,
      "este": 3393,
      "rir": 3394,
      "diğim": 3395,
      "şul": 3396,
      "aşk": 3397,
      "mekan": 3398,
      "fak": 3399,
      "tli": 3400,
      "imli": 3401,
      "lmadı": 3402,
      "nla": 3403,
      "stan": 3404,
      "nlü": 3405,
      "rıy": 3406,
      "ore": 3407,
      "etro": 3408,
      "lev": 3409,
      "evgi": 3410,
      "narak": 3411,
      "ğle": 3412,
      "unca": 3413,
      "yerek": 3414,
      "ğaz": 3415,
      "akin": 3416,
      "obil": 3417,
      "nüf": 3418,
      "45": 3419,
      "alya": 3420,
      "ayıl": 3421,
      "evind": 3422,
      "rebil": 3423,
      "dırdı": 3424,
      "mina": 3425,
      "cep": 3426,
      "ğınız": 3427,
      "nter": 3428,
      "200": 3429,
      "ırlat": 3430,
      "bb": 3431,
      "dip": 3432,
      "iza": 3433,
      "ortad": 3434,
      "rp": 3435,
      "amet": 3436,
      "çalı": 3437,
      "ekten": 3438,
      "arla": 3439,
      "günde": 3440,
      "tiri": 3441,
      "nerji": 3442,
      "arab": 3443,
      "işti": 3444,
      "bol": 3445,
      "inal": 3446,
      "lisi": 3447,
      "new": 3448,
      "i̇ç": 3449,
      "imha": 3450,
      "ünden": 3451,
      "koş": 3452,
      "cev": 3453,
      "ace": 3454,
      "tırdı": 3455,
      "arz": 3456,
      "imler": 3457,
      "ters": 3458,
      "larca": 3459,
      "erd": 3460,
      "ahte": 3461,
      "ulübü": 3462,
      "ızla": 3463,
      "şkil": 3464,
      "önde": 3465,
      "irliğ": 3466,
      "üçük": 3467,
      "lgi": 3468,
      "sma": 3469,
      "ğır": 3470,
      "dey": 3471,
      "muha": 3472,
      "lilik": 3473,
      "irket": 3474,
      "nlu": 3475,
      "ılar": 3476,
      "çıkl": 3477,
      "önle": 3478,
      "ikle": 3479,
      "urd": 3480,
      "geçer": 3481,
      "iller": 3482,
      "mbe": 3483,
      "kas": 3484,
      "kare": 3485,
      "inen": 3486,
      "alga": 3487,
      "giz": 3488,
      "şır": 3489,
      "aske": 3490,
      "adli": 3491,
      "mıza": 3492,
      "zılı": 3493,
      "argı": 3494,
      "liyor": 3495,
      "azır": 3496,
      "ruk": 3497,
      "rip": 3498,
      "ihbar": 3499,
      "sya": 3500,
      "tlı": 3501,
      "ond": 3502,
      "eşin": 3503,
      "eşit": 3504,
      "urlar": 3505,
      "lamak": 3506,
      "başb": 3507,
      "katı": 3508,
      "arm": 3509,
      "akka": 3510,
      "masın": 3511,
      "i̇yi": 3512,
      "rüyor": 3513,
      "evde": 3514,
      "zafer": 3515,
      "asit": 3516,
      "ry": 3517,
      "arp": 3518,
      "pdy": 3519,
      "orun": 3520,
      "leyen": 3521,
      "öprü": 3522,
      "gay": 3523,
      "io": 3524,
      "##bi̇": 3525,
      "ağla": 3526,
      "iyeti": 3527,
      "rtık": 3528,
      "rtesi": 3529,
      "lise": 3530,
      "site": 3531,
      "lad": 3532,
      "ızıl": 3533,
      "gun": 3534,
      "deta": 3535,
      "kab": 3536,
      "ild": 3537,
      "##oku": 3538,
      "uklu": 3539,
      "ens": 3540,
      "rif": 3541,
      "nitel": 3542,
      "rgi": 3543,
      "ank": 3544,
      "arik": 3545,
      "olda": 3546,
      "ınma": 3547,
      "orsa": 3548,
      "tren": 3549,
      "rse": 3550,
      "tarıl": 3551,
      "ersin": 3552,
      "ves": 3553,
      "dül": 3554,
      "ese": 3555,
      "beyaz": 3556,
      "cüs": 3557,
      "ekil": 3558,
      "yici": 3559,
      "cüsü": 3560,
      "key": 3561,
      "ova": 3562,
      "tilen": 3563,
      "##ster": 3564,
      "ayda": 3565,
      "mec": 3566,
      "rag": 3567,
      "niyet": 3568,
      "lım": 3569,
      "rcu": 3570,
      "ua": 3571,
      "anmış": 3572,
      "avaşı": 3573,
      "sem": 3574,
      "saya": 3575,
      "ate": 3576,
      "rup": 3577,
      "eda": 3578,
      "##ari": 3579,
      "fai": 3580,
      "##raf": 3581,
      "irad": 3582,
      "ltu": 3583,
      "öster": 3584,
      "ista": 3585,
      "kova": 3586,
      "iph": 3587,
      "meyve": 3588,
      "kırı": 3589,
      "sebeb": 3590,
      "fikir": 3591,
      "hü": 3592,
      "avan": 3593,
      "ano": 3594,
      "aza": 3595,
      "oya": 3596,
      "erse": 3597,
      "ayat": 3598,
      "iği": 3599,
      "32": 3600,
      "dun": 3601,
      "nci": 3602,
      "##po": 3603,
      "netim": 3604,
      "zalt": 3605,
      "uh": 3606,
      "lidir": 3607,
      "abii": 3608,
      "##tur": 3609,
      "inli": 3610,
      "umhu": 3611,
      "dahi": 3612,
      "yapar": 3613,
      "oşa": 3614,
      "def": 3615,
      "lom": 3616,
      "icar": 3617,
      "300": 3618,
      "##lâ": 3619,
      "faz": 3620,
      "ıma": 3621,
      "unc": 3622,
      "ekr": 3623,
      "##oke": 3624,
      "emiyo": 3625,
      "nlara": 3626,
      "yara": 3627,
      "ili": 3628,
      "vad": 3629,
      "36": 3630,
      "zet": 3631,
      "katl": 3632,
      "msil": 3633,
      "##ğün": 3634,
      "maka": 3635,
      "34": 3636,
      "og": 3637,
      "çu": 3638,
      "oli": 3639,
      "aylar": 3640,
      "lent": 3641,
      "##si̇": 3642,
      "atır": 3643,
      "aspor": 3644,
      "niş": 3645,
      "yas": 3646,
      "uştur": 3647,
      "tmak": 3648,
      "unlu": 3649,
      "steri": 3650,
      "sayıl": 3651,
      "mr": 3652,
      "nama": 3653,
      "tre": 3654,
      "arş": 3655,
      "racın": 3656,
      "örevi": 3657,
      "cek": 3658,
      "arih": 3659,
      "ora": 3660,
      "rika": 3661,
      "ağd": 3662,
      "dönü": 3663,
      "doğan": 3664,
      "tme": 3665,
      "aral": 3666,
      "esto": 3667,
      "kp": 3668,
      "##ic": 3669,
      "rası": 3670,
      "işte": 3671,
      "tand": 3672,
      "ıb": 3673,
      "şv": 3674,
      "bün": 3675,
      "imam": 3676,
      "nına": 3677,
      "araf": 3678,
      "ansı": 3679,
      "aten": 3680,
      "vize": 3681,
      "ck": 3682,
      "açlar": 3683,
      "renm": 3684,
      "kıya": 3685,
      "rıyor": 3686,
      "meyen": 3687,
      "üstün": 3688,
      "davra": 3689,
      "rduğ": 3690,
      "enin": 3691,
      "urg": 3692,
      "adını": 3693,
      "oo": 3694,
      "the": 3695,
      "nımı": 3696,
      "yesi": 3697,
      "frans": 3698,
      "tad": 3699,
      "rmesi": 3700,
      "kırmı": 3701,
      "vir": 3702,
      "panya": 3703,
      "nmiş": 3704,
      "klam": 3705,
      "ırıl": 3706,
      "topra": 3707,
      "mini": 3708,
      "##ff": 3709,
      "li̇": 3710,
      "amam": 3711,
      "bebe": 3712,
      "ft": 3713,
      "undu": 3714,
      "line": 3715,
      "ngel": 3716,
      "tadı": 3717,
      "ddia": 3718,
      "ksa": 3719,
      "nüz": 3720,
      "aşlı": 3721,
      "zu": 3722,
      "rmeye": 3723,
      "venli": 3724,
      "deme": 3725,
      "anta": 3726,
      "si̇": 3727,
      "tura": 3728,
      "nluğ": 3729,
      "him": 3730,
      "anu": 3731,
      "nızı": 3732,
      "kalı": 3733,
      "iyo": 3734,
      "form": 3735,
      "esele": 3736,
      "mde": 3737,
      "irer": 3738,
      "ori": 3739,
      "racak": 3740,
      "edefi": 3741,
      "tuğu": 3742,
      "dalı": 3743,
      "ılın": 3744,
      "eleri": 3745,
      "che": 3746,
      "rtal": 3747,
      "inizi": 3748,
      "ou": 3749,
      "inali": 3750,
      "sim": 3751,
      "alen": 3752,
      "eyi": 3753,
      "ett": 3754,
      "lac": 3755,
      "afe": 3756,
      "izley": 3757,
      "nv": 3758,
      "ılır": 3759,
      "mekte": 3760,
      "isy": 3761,
      "ulduğ": 3762,
      "nilen": 3763,
      "aden": 3764,
      "heli": 3765,
      "veda": 3766,
      "nede": 3767,
      "gerçe": 3768,
      "kenti": 3769,
      "ica": 3770,
      "rici": 3771,
      "prot": 3772,
      "ice": 3773,
      "zin": 3774,
      "arkı": 3775,
      "asal": 3776,
      "ulu": 3777,
      "büs": 3778,
      "ea": 3779,
      "duğum": 3780,
      "dinl": 3781,
      "laka": 3782,
      "rj": 3783,
      "ence": 3784,
      "uluş": 3785,
      "mekt": 3786,
      "ıkış": 3787,
      "çözü": 3788,
      "ydın": 3789,
      "daya": 3790,
      "erlik": 3791,
      "ekir": 3792,
      "70": 3793,
      "rur": 3794,
      "zen": 3795,
      "ızı": 3796,
      "maaş": 3797,
      "enet": 3798,
      "reği": 3799,
      "ikli": 3800,
      "uyan": 3801,
      "kült": 3802,
      "zgür": 3803,
      "endis": 3804,
      "bi̇": 3805,
      "isa": 3806,
      "karı": 3807,
      "tanım": 3808,
      "tun": 3809,
      "deri": 3810,
      "pü": 3811,
      "tılar": 3812,
      "erler": 3813,
      "uro": 3814,
      "maçın": 3815,
      "canl": 3816,
      "aga": 3817,
      "mara": 3818,
      "amp": 3819,
      "uyum": 3820,
      "rıyla": 3821,
      "33": 3822,
      "iri": 3823,
      "sus": 3824,
      "dığım": 3825,
      "90": 3826,
      "lc": 3827,
      "emb": 3828,
      "antr": 3829,
      "öyley": 3830,
      "bis": 3831,
      "diz": 3832,
      "mutan": 3833,
      "lları": 3834,
      "tbol": 3835,
      "urk": 3836,
      "andal": 3837,
      "elene": 3838,
      "amile": 3839,
      "ihan": 3840,
      "tıldı": 3841,
      "mhp": 3842,
      "ısa": 3843,
      "hir": 3844,
      "yata": 3845,
      "ilya": 3846,
      "riyle": 3847,
      "tank": 3848,
      "tarz": 3849,
      "mb": 3850,
      "ıç": 3851,
      "şkan": 3852,
      "risi": 3853,
      "rom": 3854,
      "rdığı": 3855,
      "tuz": 3856,
      "ücu": 3857,
      "i̇t": 3858,
      "beli": 3859,
      "rmay": 3860,
      "urun": 3861,
      "lup": 3862,
      "uku": 3863,
      "eza": 3864,
      "şeri": 3865,
      "##iğ": 3866,
      "di̇": 3867,
      "siye": 3868,
      "misi": 3869,
      "apısı": 3870,
      "rz": 3871,
      "zleri": 3872,
      "çat": 3873,
      "ente": 3874,
      "elesi": 3875,
      "düze": 3876,
      "fed": 3877,
      "ty": 3878,
      "kçı": 3879,
      "rg": 3880,
      "ud": 3881,
      "ug": 3882,
      "çiş": 3883,
      "arsa": 3884,
      "ayb": 3885,
      "akımı": 3886,
      "avran": 3887,
      "kimi": 3888,
      "erdi": 3889,
      "ettik": 3890,
      "rtada": 3891,
      "lum": 3892,
      "ene": 3893,
      "ister": 3894,
      "tern": 3895,
      "liliğ": 3896,
      "80": 3897,
      "doku": 3898,
      "ill": 3899,
      "ti̇": 3900,
      "üzel": 3901,
      "nst": 3902,
      "ıy": 3903,
      "eriş": 3904,
      "akıl": 3905,
      "sizi": 3906,
      "sani": 3907,
      "mezun": 3908,
      "onum": 3909,
      "işin": 3910,
      "ebebi": 3911,
      "gan": 3912,
      "ncel": 3913,
      "yad": 3914,
      "avi": 3915,
      "imde": 3916,
      "ahar": 3917,
      "ales": 3918,
      "ngı": 3919,
      "elli": 3920,
      "aşar": 3921,
      "ahve": 3922,
      "uğu": 3923,
      "nato": 3924,
      "azırl": 3925,
      "ekin": 3926,
      "amış": 3927,
      "ören": 3928,
      "afta": 3929,
      "hp": 3930,
      "mse": 3931,
      "ink": 3932,
      "rand": 3933,
      "anca": 3934,
      "etiş": 3935,
      "anç": 3936,
      "örü": 3937,
      "dırma": 3938,
      "uşa": 3939,
      "ıza": 3940,
      "all": 3941,
      "ğla": 3942,
      "şun": 3943,
      "benz": 3944,
      "ilmiş": 3945,
      "utlu": 3946,
      "rmaya": 3947,
      "hisse": 3948,
      "ai": 3949,
      "tılı": 3950,
      "nder": 3951,
      "ved": 3952,
      "olar": 3953,
      "kadı": 3954,
      "utu": 3955,
      "liz": 3956,
      "erat": 3957,
      "etmey": 3958,
      "ukuk": 3959,
      "ima": 3960,
      "oma": 3961,
      "âlâ": 3962,
      "öv": 3963,
      "allar": 3964,
      "sub": 3965,
      "fre": 3966,
      "ikaye": 3967,
      "şof": 3968,
      "elam": 3969,
      "rada": 3970,
      "üny": 3971,
      "arttı": 3972,
      "alat": 3973,
      "oynay": 3974,
      "75": 3975,
      "izde": 3976,
      "doğa": 3977,
      "kel": 3978,
      "kme": 3979,
      "we": 3980,
      "ava": 3981,
      "uçlar": 3982,
      "üsü": 3983,
      "lus": 3984,
      "##ciz": 3985,
      "idare": 3986,
      "gor": 3987,
      "rama": 3988,
      "alır": 3989,
      "nluk": 3990,
      "ht": 3991,
      "##sy": 3992,
      "aye": 3993,
      "uncu": 3994,
      "kork": 3995,
      "üphe": 3996,
      "nım": 3997,
      "oğraf": 3998,
      "ly": 3999,
      "ero": 4000,
      "ağış": 4001,
      "anıt": 4002,
      "arıda": 4003,
      "yoğu": 4004,
      "çeki": 4005,
      "seyi": 4006,
      "lekt": 4007,
      "rmen": 4008,
      "üf": 4009,
      "rib": 4010,
      "varl": 4011,
      "oyunu": 4012,
      "müh": 4013,
      "iyan": 4014,
      "ördü": 4015,
      "ian": 4016,
      "ift": 4017,
      "dini": 4018,
      "kun": 4019,
      "rlar": 4020,
      "ştır": 4021,
      "ürek": 4022,
      "ehir": 4023,
      "klık": 4024,
      "urta": 4025,
      "apta": 4026,
      "rolü": 4027,
      "zih": 4028,
      "epe": 4029,
      "lınan": 4030,
      "65": 4031,
      "hâ": 4032,
      "ps": 4033,
      "phe": 4034,
      "bab": 4035,
      "manda": 4036,
      "urucu": 4037,
      "ydu": 4038,
      "aman": 4039,
      "ırk": 4040,
      "meni": 4041,
      "rülme": 4042,
      "kçe": 4043,
      "ilin": 4044,
      "hn": 4045,
      "ayar": 4046,
      "ceo": 4047,
      "duyu": 4048,
      "lga": 4049,
      "şük": 4050,
      "yip": 4051,
      "tün": 4052,
      "çıl": 4053,
      "mat": 4054,
      "sana": 4055,
      "neli": 4056,
      "rel": 4057,
      "real": 4058,
      "##mu": 4059,
      "kont": 4060,
      "seb": 4061,
      "üldü": 4062,
      "nus": 4063,
      "şer": 4064,
      "##go": 4065,
      "ino": 4066,
      "imin": 4067,
      "eşme": 4068,
      "ızlar": 4069,
      "akim": 4070,
      "rız": 4071,
      "çın": 4072,
      "##det": 4073,
      "emek": 4074,
      "ynadı": 4075,
      "sc": 4076,
      "ışla": 4077,
      "rc": 4078,
      "rf": 4079,
      "iko": 4080,
      "ırsa": 4081,
      "kemi": 4082,
      "ipl": 4083,
      "grubu": 4084,
      "netic": 4085,
      "rafı": 4086,
      "thy": 4087,
      "usta": 4088,
      "çiler": 4089,
      "irişi": 4090,
      "kuv": 4091,
      "nb": 4092,
      "uf": 4093,
      "aydı": 4094,
      "imkan": 4095,
      "eçme": 4096,
      "netl": 4097,
      "çatı": 4098,
      "##ss": 4099,
      "##dk": 4100,
      "aru": 4101,
      "evlen": 4102,
      "sergi": 4103,
      "inir": 4104,
      "esir": 4105,
      "ırlar": 4106,
      "maruz": 4107,
      "müzi": 4108,
      "luş": 4109,
      "##oz": 4110,
      "götür": 4111,
      "abu": 4112,
      "izden": 4113,
      "kele": 4114,
      "vas": 4115,
      "lit": 4116,
      "atlar": 4117,
      "sed": 4118,
      "rosu": 4119,
      "nso": 4120,
      "tlama": 4121,
      "neme": 4122,
      "nis": 4123,
      "evl": 4124,
      "akem": 4125,
      "ket": 4126,
      "lur": 4127,
      "ski": 4128,
      "au": 4129,
      "pt": 4130,
      "ancı": 4131,
      "izyon": 4132,
      "devr": 4133,
      "turdu": 4134,
      "latan": 4135,
      "yecek": 4136,
      "taba": 4137,
      "beya": 4138,
      "edek": 4139,
      "akta": 4140,
      "uma": 4141,
      "özü": 4142,
      "don": 4143,
      "lerdi": 4144,
      "arıl": 4145,
      "cer": 4146,
      "kov": 4147,
      "gec": 4148,
      "ilt": 4149,
      "raz": 4150,
      "emiş": 4151,
      "itle": 4152,
      "erisi": 4153,
      "##gk": 4154,
      "emeye": 4155,
      "ege": 4156,
      "tına": 4157,
      "##ina": 4158,
      "ahv": 4159,
      "laştı": 4160,
      "oks": 4161,
      "yoktu": 4162,
      "adamı": 4163,
      "nmak": 4164,
      "ilke": 4165,
      "ulmuş": 4166,
      "utl": 4167,
      "sıkı": 4168,
      "ikas": 4169,
      "ber": 4170,
      "ındı": 4171,
      "tema": 4172,
      "ato": 4173,
      "ural": 4174,
      "üzen": 4175,
      "nşaat": 4176,
      "luşu": 4177,
      "rba": 4178,
      "zden": 4179,
      "anış": 4180,
      "azar": 4181,
      "amle": 4182,
      "lh": 4183,
      "vcı": 4184,
      "ığa": 4185,
      "##kin": 4186,
      "ergi": 4187,
      "keş": 4188,
      "rıs": 4189,
      "apor": 4190,
      "anıl": 4191,
      "layla": 4192,
      "karak": 4193,
      "resi": 4194,
      "baz": 4195,
      "rdo": 4196,
      "ion": 4197,
      "mon": 4198,
      "ygı": 4199,
      "irim": 4200,
      "orgu": 4201,
      "eklen": 4202,
      "arayı": 4203,
      "400": 4204,
      "dli": 4205,
      "ğun": 4206,
      "mac": 4207,
      "aldık": 4208,
      "des": 4209,
      "rey": 4210,
      "mim": 4211,
      "üler": 4212,
      "ndu": 4213,
      "akam": 4214,
      "ci̇": 4215,
      "adem": 4216,
      "rük": 4217,
      "##to": 4218,
      "lim": 4219,
      "tiya": 4220,
      "str": 4221,
      "sanı": 4222,
      "laf": 4223,
      "ruyor": 4224,
      "rının": 4225,
      "süt": 4226,
      "eçim": 4227,
      "kapı": 4228,
      "tül": 4229,
      "urgu": 4230,
      "üküm": 4231,
      "aplar": 4232,
      "spo": 4233,
      "port": 4234,
      "nir": 4235,
      "yeri": 4236,
      "emin": 4237,
      "rafik": 4238,
      "tler": 4239,
      "şak": 4240,
      "eyim": 4241,
      "kend": 4242,
      "150": 4243,
      "düğün": 4244,
      "ümle": 4245,
      "rakt": 4246,
      "ıdan": 4247,
      "şıl": 4248,
      "arlı": 4249,
      "niye": 4250,
      "ğının": 4251,
      "icra": 4252,
      "ezon": 4253,
      "rke": 4254,
      "üb": 4255,
      "ütü": 4256,
      "akal": 4257,
      "lab": 4258,
      "idari": 4259,
      "stik": 4260,
      "arf": 4261,
      "ilit": 4262,
      "kons": 4263,
      "arıs": 4264,
      "yn": 4265,
      "yebil": 4266,
      "urs": 4267,
      "osu": 4268,
      "##lum": 4269,
      "miye": 4270,
      "rahi": 4271,
      "misa": 4272,
      "ğıt": 4273,
      "mpiy": 4274,
      "37": 4275,
      "öylem": 4276,
      "##af": 4277,
      "38": 4278,
      "ayım": 4279,
      "esin": 4280,
      "ırdı": 4281,
      "add": 4282,
      "tres": 4283,
      "llar": 4284,
      "irve": 4285,
      "ki̇": 4286,
      "yoruz": 4287,
      "adır": 4288,
      "itika": 4289,
      "km": 4290,
      "rtı": 4291,
      "##pe": 4292,
      "şiir": 4293,
      "sakla": 4294,
      "roke": 4295,
      "tein": 4296,
      "kuy": 4297,
      "lamış": 4298,
      "çılar": 4299,
      "##hi": 4300,
      "ınan": 4301,
      "bine": 4302,
      "otom": 4303,
      "erab": 4304,
      "600": 4305,
      "ola": 4306,
      "dis": 4307,
      "lemek": 4308,
      "api": 4309,
      "kanlı": 4310,
      "ğret": 4311,
      "kaf": 4312,
      "iade": 4313,
      "42": 4314,
      "tiler": 4315,
      "vah": 4316,
      "yma": 4317,
      "bett": 4318,
      "orman": 4319,
      "ri̇": 4320,
      "ağlam": 4321,
      "kaçı": 4322,
      "arika": 4323,
      "vat": 4324,
      "alla": 4325,
      "aliye": 4326,
      "liman": 4327,
      "ni̇": 4328,
      "ilesi": 4329,
      "luyor": 4330,
      "alil": 4331,
      "nadı": 4332,
      "orum": 4333,
      "asın": 4334,
      "yönel": 4335,
      "rafi": 4336,
      "nakl": 4337,
      "sker": 4338,
      "akp": 4339,
      "emle": 4340,
      "mekli": 4341,
      "suçl": 4342,
      "neği": 4343,
      "tiyor": 4344,
      "stih": 4345,
      "dy": 4346,
      "zel": 4347,
      "hala": 4348,
      "ave": 4349,
      "kula": 4350,
      "kley": 4351,
      "rla": 4352,
      "tuk": 4353,
      "şleri": 4354,
      "imse": 4355,
      "boyun": 4356,
      "41": 4357,
      "55": 4358,
      "zli": 4359,
      "##ki̇": 4360,
      "irini": 4361,
      "tama": 4362,
      "eğil": 4363,
      "rkek": 4364,
      "ekled": 4365,
      "i̇k": 4366,
      "arac": 4367,
      "ida": 4368,
      "sne": 4369,
      "tıyor": 4370,
      "önü": 4371,
      "apl": 4372,
      "zgü": 4373,
      "asta": 4374,
      "eke": 4375,
      "şları": 4376,
      "emih": 4377,
      "nucu": 4378,
      "rarak": 4379,
      "##rul": 4380,
      "isler": 4381,
      "lüks": 4382,
      "dalar": 4383,
      "48": 4384,
      "zır": 4385,
      "üd": 4386,
      "emem": 4387,
      "rkad": 4388,
      "mler": 4389,
      "rtış": 4390,
      "44": 4391,
      "irti": 4392,
      "yıcı": 4393,
      "nüyor": 4394,
      "39": 4395,
      "lla": 4396,
      "tff": 4397,
      "hızl": 4398,
      "tw": 4399,
      "anki": 4400,
      "inler": 4401,
      "eni": 4402,
      "tabi": 4403,
      "ekçe": 4404,
      "ıfır": 4405,
      "nta": 4406,
      "yh": 4407,
      "öb": 4408,
      "arc": 4409,
      "teh": 4410,
      "akım": 4411,
      "ürme": 4412,
      "beden": 4413,
      "rs": 4414,
      "rlü": 4415,
      "uva": 4416,
      "şok": 4417,
      "ilik": 4418,
      "irdi": 4419,
      "idir": 4420,
      "cağı": 4421,
      "ilde": 4422,
      "lah": 4423,
      "tazi": 4424,
      "rabil": 4425,
      "turu": 4426,
      "zesi": 4427,
      "mm": 4428,
      "ost": 4429,
      "##od": 4430,
      "onla": 4431,
      "ulma": 4432,
      "uri": 4433,
      "ikra": 4434,
      "mand": 4435,
      "temin": 4436,
      "dri": 4437,
      "zm": 4438,
      "erde": 4439,
      "ermi": 4440,
      "ned": 4441,
      "akkı": 4442,
      "kenan": 4443,
      "250": 4444,
      "46": 4445,
      "nfe": 4446,
      "slar": 4447,
      "çü": 4448,
      "atçı": 4449,
      "bı": 4450,
      "enf": 4451,
      "olduk": 4452,
      "oğal": 4453,
      "utan": 4454,
      "eliş": 4455,
      "dha": 4456,
      "ntü": 4457,
      "arl": 4458,
      "onuç": 4459,
      "arita": 4460,
      "lb": 4461,
      "yın": 4462,
      "izni": 4463,
      "ağın": 4464,
      "kulak": 4465,
      "47": 4466,
      "slı": 4467,
      "şere": 4468,
      "ded": 4469,
      "rist": 4470,
      "ağız": 4471,
      "girme": 4472,
      "yları": 4473,
      "ştı": 4474,
      "sab": 4475,
      "eriyo": 4476,
      "şeref": 4477,
      "hav": 4478,
      "tap": 4479,
      "taciz": 4480,
      "şeb": 4481,
      "uydu": 4482,
      "rülü": 4483,
      "hey": 4484,
      "iber": 4485,
      "tle": 4486,
      "şiş": 4487,
      "lez": 4488,
      "eksi": 4489,
      "çakla": 4490,
      "meşin": 4491,
      "53": 4492,
      "und": 4493,
      "gesi": 4494,
      "112": 4495,
      "skeri": 4496,
      "zak": 4497,
      "erine": 4498,
      "gelme": 4499,
      "yaşan": 4500,
      "oplum": 4501,
      "leti": 4502,
      "43": 4503,
      "set": 4504,
      "##no": 4505,
      "ımda": 4506,
      "arısı": 4507,
      "ıklı": 4508,
      "omut": 4509,
      "mün": 4510,
      "ğrul": 4511,
      "##ms": 4512,
      "yalı": 4513,
      "ikna": 4514,
      "asına": 4515,
      "reti": 4516,
      "by": 4517,
      "neri": 4518,
      "tte": 4519,
      "vin": 4520,
      "vri": 4521,
      "akti": 4522,
      "iman": 4523,
      "kod": 4524,
      "rduğu": 4525,
      "akma": 4526,
      "esmi": 4527,
      "jd": 4528,
      "mor": 4529,
      "##rak": 4530,
      "aks": 4531,
      "amsu": 4532,
      "elem": 4533,
      "lp": 4534,
      "ula": 4535,
      "şkı": 4536,
      "vel": 4537,
      "lib": 4538,
      "nize": 4539,
      "afi": 4540,
      "kâr": 4541,
      "nlaş": 4542,
      "pra": 4543,
      "aları": 4544,
      "kafe": 4545,
      "aşlay": 4546,
      "timiz": 4547,
      "kleme": 4548,
      "lişki": 4549,
      "keşf": 4550,
      "##tir": 4551,
      "abit": 4552,
      "elal": 4553,
      "sla": 4554,
      "amim": 4555,
      "kına": 4556,
      "nm": 4557,
      "ary": 4558,
      "eral": 4559,
      "orc": 4560,
      "tom": 4561,
      "ırak": 4562,
      "lari": 4563,
      "erm": 4564,
      "esl": 4565,
      "ırlı": 4566,
      "rüz": 4567,
      "etli": 4568,
      "dua": 4569,
      "tisi": 4570,
      "örgü": 4571,
      "kuvv": 4572,
      "ky": 4573,
      "ette": 4574,
      "##ti̇": 4575,
      "redi": 4576,
      "alana": 4577,
      "ağıt": 4578,
      "çay": 4579,
      "mimar": 4580,
      "edav": 4581,
      "ier": 4582,
      "türü": 4583,
      "mür": 4584,
      "syo": 4585,
      "yel": 4586,
      "lattı": 4587,
      "sar": 4588,
      "ndil": 4589,
      "etik": 4590,
      "120": 4591,
      "zara": 4592,
      "inme": 4593,
      "kaş": 4594,
      "atlı": 4595,
      "şef": 4596,
      "kule": 4597,
      "arzu": 4598,
      "kala": 4599,
      "##mes": 4600,
      "urma": 4601,
      "rucu": 4602,
      "suçu": 4603,
      "entin": 4604,
      "kusu": 4605,
      "gizl": 4606,
      "ibe": 4607,
      "ts": 4608,
      "usa": 4609,
      "aram": 4610,
      "alo": 4611,
      "tez": 4612,
      "aca": 4613,
      "orcu": 4614,
      "krem": 4615,
      "cell": 4616,
      "72": 4617,
      "ansız": 4618,
      "ilir": 4619,
      "erha": 4620,
      "reme": 4621,
      "küçü": 4622,
      "rtu": 4623,
      "ınır": 4624,
      "land": 4625,
      "adl": 4626,
      "adir": 4627,
      "utuk": 4628,
      "vakit": 4629,
      "lmesi": 4630,
      "52": 4631,
      "oç": 4632,
      "sul": 4633,
      "zey": 4634,
      "şlı": 4635,
      "kobi̇": 4636,
      "ris": 4637,
      "eşim": 4638,
      "apar": 4639,
      "osun": 4640,
      "our": 4641,
      "zeri": 4642,
      "ayk": 4643,
      "ell": 4644,
      "lıkta": 4645,
      "oğru": 4646,
      "tığım": 4647,
      "esis": 4648,
      "küf": 4649,
      "sko": 4650,
      "ares": 4651,
      "ebi": 4652,
      "fo": 4653,
      "lyon": 4654,
      "rm": 4655,
      "zon": 4656,
      "arda": 4657,
      "lif": 4658,
      "eren": 4659,
      "imar": 4660,
      "öndü": 4661,
      "81": 4662,
      "ğdu": 4663,
      "tey": 4664,
      "akla": 4665,
      "dird": 4666,
      "uştu": 4667,
      "psi": 4668,
      "tta": 4669,
      "rese": 4670,
      "rusu": 4671,
      "çağr": 4672,
      "rna": 4673,
      "inat": 4674,
      "aça": 4675,
      "idam": 4676,
      "lezze": 4677,
      "mine": 4678,
      "tsk": 4679,
      "vuş": 4680,
      "öm": 4681,
      "dele": 4682,
      "int": 4683,
      "arre": 4684,
      "emir": 4685,
      "##land": 4686,
      "kçi": 4687,
      "##las": 4688,
      "erce": 4689,
      "ted": 4690,
      "onut": 4691,
      "sap": 4692,
      "günün": 4693,
      "esine": 4694,
      "uçla": 4695,
      "tüne": 4696,
      "fit": 4697,
      "sit": 4698,
      "sesi": 4699,
      "izlen": 4700,
      "aps": 4701,
      "biy": 4702,
      "hb": 4703,
      "sgk": 4704,
      "##hal": 4705,
      "arke": 4706,
      "illi": 4707,
      "açma": 4708,
      "tit": 4709,
      "vaka": 4710,
      "##es": 4711,
      "mavil": 4712,
      "##tik": 4713,
      "esini": 4714,
      "ıyı": 4715,
      "85": 4716,
      "vek": 4717,
      "işlet": 4718,
      "esli": 4719,
      "jet": 4720,
      "ıta": 4721,
      "azlı": 4722,
      "dirne": 4723,
      "ipa": 4724,
      "run": 4725,
      "eviye": 4726,
      "reh": 4727,
      "yolla": 4728,
      "oplam": 4729,
      "leşti": 4730,
      "ümü": 4731,
      "cular": 4732,
      "ğunu": 4733,
      "rlüğ": 4734,
      "gı": 4735,
      "ksu": 4736,
      "yalar": 4737,
      "rav": 4738,
      "üçlü": 4739,
      "mi̇t": 4740,
      "mlı": 4741,
      "rga": 4742,
      "sün": 4743,
      "ildir": 4744,
      "kültü": 4745,
      "hlı": 4746,
      "iden": 4747,
      "nş": 4748,
      "ocuğ": 4749,
      "viye": 4750,
      "yk": 4751,
      "öy": 4752,
      "ille": 4753,
      "edd": 4754,
      "isyan": 4755,
      "mezar": 4756,
      "56": 4757,
      "idi": 4758,
      "rüt": 4759,
      "##âh": 4760,
      "azan": 4761,
      "lüyor": 4762,
      "my": 4763,
      "rya": 4764,
      "ıd": 4765,
      "##ad": 4766,
      "##alan": 4767,
      "ayd": 4768,
      "orlu": 4769,
      "oruy": 4770,
      "ınızı": 4771,
      "astro": 4772,
      "keti": 4773,
      "lg": 4774,
      "abır": 4775,
      "ktar": 4776,
      "ei": 4777,
      "ikal": 4778,
      "ked": 4779,
      "pany": 4780,
      "51": 4781,
      "mden": 4782,
      "rsan": 4783,
      "##ver": 4784,
      "tira": 4785,
      "sto": 4786,
      "##i̇k": 4787,
      "ölümü": 4788,
      "irekt": 4789,
      "ruz": 4790,
      "##as": 4791,
      "aym": 4792,
      "ılmış": 4793,
      "ülme": 4794,
      "amak": 4795,
      "apo": 4796,
      "iyas": 4797,
      "ncı": 4798,
      "arbo": 4799,
      "ınav": 4800,
      "riş": 4801,
      "tlar": 4802,
      "hap": 4803,
      "kulu": 4804,
      "trt": 4805,
      "tehdi": 4806,
      "kka": 4807,
      "ngi": 4808,
      "erji": 4809,
      "les": 4810,
      "ygul": 4811,
      "ci̇han": 4812,
      "54": 4813,
      "ao": 4814,
      "fan": 4815,
      "lüm": 4816,
      "vu": 4817,
      "vil": 4818,
      "vde": 4819,
      "olcu": 4820,
      "etle": 4821,
      "saf": 4822,
      "emel": 4823,
      "ohal": 4824,
      "anel": 4825,
      "leh": 4826,
      "ahm": 4827,
      "kaça": 4828,
      "iyes": 4829,
      "arihi": 4830,
      "vı": 4831,
      "##iro": 4832,
      "akv": 4833,
      "evli": 4834,
      "özg": 4835,
      "elef": 4836,
      "ism": 4837,
      "ilal": 4838,
      "bür": 4839,
      "ej": 4840,
      "hrac": 4841,
      "kd": 4842,
      "kk": 4843,
      "yl": 4844,
      "##hk": 4845,
      "anik": 4846,
      "day": 4847,
      "aro": 4848,
      "lazı": 4849,
      "atm": 4850,
      "işini": 4851,
      "##oğlu": 4852,
      "roğlu": 4853,
      "ndır": 4854,
      "neg": 4855,
      "nav": 4856,
      "niha": 4857,
      "şahit": 4858,
      "rumu": 4859,
      "eu": 4860,
      "tc": 4861,
      "urdu": 4862,
      "elini": 4863,
      "pler": 4864,
      "arta": 4865,
      "ayla": 4866,
      "nut": 4867,
      "##ko": 4868,
      "avm": 4869,
      "fiil": 4870,
      "mikro": 4871,
      "lon": 4872,
      "ota": 4873,
      "##lal": 4874,
      "ikti": 4875,
      "##mi̇": 4876,
      "derdi": 4877,
      "öso": 4878,
      "lany": 4879,
      "idman": 4880,
      "brik": 4881,
      "şükür": 4882,
      "49": 4883,
      "tımı": 4884,
      "##fak": 4885,
      "ets": 4886,
      "lex": 4887,
      "rılan": 4888,
      "i̇sta": 4889,
      "acar": 4890,
      "akvim": 4891,
      "gat": 4892,
      "rür": 4893,
      "udu": 4894,
      "##di̇": 4895,
      "arrem": 4896,
      "lya": 4897,
      "nere": 4898,
      "adil": 4899,
      "eşe": 4900,
      "rob": 4901,
      "üşü": 4902,
      "kro": 4903,
      "nek": 4904,
      "rkan": 4905,
      "sra": 4906,
      "ollar": 4907,
      "aller": 4908,
      "lıc": 4909,
      "ülü": 4910,
      "ızlık": 4911,
      "58": 4912,
      "siy": 4913,
      "ont": 4914,
      "özcü": 4915,
      "eyir": 4916,
      "kup": 4917,
      "##i̇n": 4918,
      "yasal": 4919,
      "kb": 4920,
      "rku": 4921,
      "üh": 4922,
      "arlık": 4923,
      "sis": 4924,
      "başa": 4925,
      "evik": 4926,
      "asp": 4927,
      "öd": 4928,
      "şçi": 4929,
      "erin": 4930,
      "aylı": 4931,
      "evet": 4932,
      "mid": 4933,
      "otomo": 4934,
      "seni": 4935,
      "çısı": 4936,
      "törü": 4937,
      "ilgis": 4938,
      "antı": 4939,
      "err": 4940,
      "ımla": 4941,
      "ekib": 4942,
      "irde": 4943,
      "akk": 4944,
      "elge": 4945,
      "rens": 4946,
      "rend": 4947,
      "rans": 4948,
      "çevr": 4949,
      "biyet": 4950,
      "78": 4951,
      "enmiş": 4952,
      "atılı": 4953,
      "menin": 4954,
      "rtak": 4955,
      "dili": 4956,
      "pası": 4957,
      "munda": 4958,
      "zirve": 4959,
      "özgü": 4960,
      "67": 4961,
      "ew": 4962,
      "rmış": 4963,
      "sler": 4964,
      "yy": 4965,
      "zla": 4966,
      "zlen": 4967,
      "##xy": 4968,
      "taç": 4969,
      "acmi": 4970,
      "emri": 4971,
      "eyler": 4972,
      "rilme": 4973,
      "luğu": 4974,
      "nakli": 4975,
      "rinde": 4976,
      "pir": 4977,
      "##̇li̇": 4978,
      "anını": 4979,
      "arlar": 4980,
      "aksim": 4981,
      "evd": 4982,
      "kole": 4983,
      "ahr": 4984,
      "eçe": 4985,
      "şke": 4986,
      "inik": 4987,
      "mus": 4988,
      "##zah": 4989,
      "kran": 4990,
      "tıkla": 4991,
      "unduğ": 4992,
      "59": 4993,
      "alay": 4994,
      "nıt": 4995,
      "eleme": 4996,
      "layı": 4997,
      "rtlar": 4998,
      "kısm": 4999,
      "69": 5000,
      "anınd": 5001,
      "enni": 5002,
      "erzi": 5003,
      "saç": 5004,
      "iydi": 5005,
      "alaxy": 5006,
      "ifi": 5007,
      "masum": 5008,
      "arşıy": 5009,
      "66": 5010,
      "63": 5011,
      "omba": 5012,
      "ph": 5013,
      "yr": 5014,
      "züm": 5015,
      "ğrı": 5016,
      "şin": 5017,
      "amer": 5018,
      "ideal": 5019,
      "tatü": 5020,
      "çlar": 5021,
      "unma": 5022,
      "tezah": 5023,
      "iteli": 5024,
      "andır": 5025,
      "62": 5026,
      "çıka": 5027,
      "eyr": 5028,
      "hur": 5029,
      "##aj": 5030,
      "arını": 5031,
      "vey": 5032,
      "ormon": 5033,
      "##co": 5034,
      "eyhan": 5035,
      "utla": 5036,
      "loj": 5037,
      "andaş": 5038,
      "eynir": 5039,
      "bru": 5040,
      "car": 5041,
      "iral": 5042,
      "üzey": 5043,
      "özüm": 5044,
      "ariç": 5045,
      "erede": 5046,
      "82": 5047,
      "hiz": 5048,
      "nler": 5049,
      "nmek": 5050,
      "obi": 5051,
      "rv": 5052,
      "alta": 5053,
      "emal": 5054,
      "pozi": 5055,
      "ayıp": 5056,
      "nümü": 5057,
      "rulan": 5058,
      "68": 5059,
      "mdan": 5060,
      "müsa": 5061,
      "işkin": 5062,
      "lüğ": 5063,
      "nmadı": 5064,
      "800": 5065,
      "çeri": 5066,
      "litik": 5067,
      "endir": 5068,
      "nedi": 5069,
      "meb": 5070,
      "imle": 5071,
      "ültü": 5072,
      "amlar": 5073,
      "essi": 5074,
      "üket": 5075,
      "ivil": 5076,
      "ubu": 5077,
      "yağı": 5078,
      "leri̇": 5079,
      "ilem": 5080,
      "rota": 5081,
      "üml": 5082,
      "lgi̇li̇": 5083,
      "twe": 5084,
      "ura": 5085,
      "desi": 5086,
      "teb": 5087,
      "orku": 5088,
      "ısın": 5089,
      "latma": 5090,
      "örev": 5091,
      "aiz": 5092,
      "ema": 5093,
      "fran": 5094,
      "hz": 5095,
      "i̇r": 5096,
      "imal": 5097,
      "aziz": 5098,
      "fidan": 5099,
      "adesi": 5100,
      "uçu": 5101,
      "engin": 5102,
      "eka": 5103,
      "ığın": 5104,
      "##vo": 5105,
      "olmu": 5106,
      "naz": 5107,
      "bi̇r": 5108,
      "gb": 5109,
      "küm": 5110,
      "şaka": 5111,
      "##rar": 5112,
      "iyeli": 5113,
      "ahı": 5114,
      "mesin": 5115,
      "nılan": 5116,
      "rumlu": 5117,
      "çel": 5118,
      "öç": 5119,
      "##rat": 5120,
      "dek": 5121,
      "anır": 5122,
      "ayna": 5123,
      "sası": 5124,
      "akalı": 5125,
      "tomo": 5126,
      "emil": 5127,
      "eyt": 5128,
      "kşam": 5129,
      "pre": 5130,
      "ndü": 5131,
      "bula": 5132,
      "atör": 5133,
      "ult": 5134,
      "açın": 5135,
      "kip": 5136,
      "aşım": 5137,
      "fifa": 5138,
      "64": 5139,
      "nte": 5140,
      "rgu": 5141,
      "imini": 5142,
      "imine": 5143,
      "tıb": 5144,
      "askı": 5145,
      "manşe": 5146,
      "cas": 5147,
      "edeb": 5148,
      "nanı": 5149,
      "tweet": 5150,
      "57": 5151,
      "79": 5152,
      "700": 5153,
      "dük": 5154,
      "ss": 5155,
      "arun": 5156,
      "yem": 5157,
      "irt": 5158,
      "pist": 5159,
      "ario": 5160,
      "çekm": 5161,
      "ğumuz": 5162,
      "hit": 5163,
      "ksız": 5164,
      "zek": 5165,
      "list": 5166,
      "mizle": 5167,
      "aw": 5168,
      "plak": 5169,
      "yd": 5170,
      "zü": 5171,
      "elle": 5172,
      "ırala": 5173,
      "uzakl": 5174,
      "ıfat": 5175,
      "ibare": 5176,
      "asım": 5177,
      "tok": 5178,
      "ue": 5179,
      "zlar": 5180,
      "##net": 5181,
      "buz": 5182,
      "avuk": 5183,
      "ımın": 5184,
      "oprak": 5185,
      "ifl": 5186,
      "kemer": 5187,
      "şov": 5188,
      "ığ": 5189,
      "yede": 5190,
      "levi": 5191,
      "amil": 5192,
      "eslen": 5193,
      "güze": 5194,
      "çüncü": 5195,
      "oşu": 5196,
      "lişi": 5197,
      "vakti": 5198,
      "edavi": 5199,
      "fter": 5200,
      "uları": 5201,
      "nasi": 5202,
      "işl": 5203,
      "iklim": 5204,
      "ess": 5205,
      "dura": 5206,
      "akip": 5207,
      "nmey": 5208,
      "jose": 5209,
      "61": 5210,
      "71": 5211,
      "dro": 5212,
      "ome": 5213,
      "andan": 5214,
      "ekl": 5215,
      "uruş": 5216,
      "ısını": 5217,
      "xpo": 5218,
      "ıya": 5219,
      "şbir": 5220,
      "##ed": 5221,
      "##şet": 5222,
      "imge": 5223,
      "ope": 5224,
      "adise": 5225,
      "hsy": 5226,
      "deh": 5227,
      "erc": 5228,
      "erya": 5229,
      "güc": 5230,
      "los": 5231,
      "dikt": 5232,
      "nelin": 5233,
      "hsyk": 5234,
      "gra": 5235,
      "klü": 5236,
      "ln": 5237,
      "iniş": 5238,
      "##dim": 5239,
      "hats": 5240,
      "bra": 5241,
      "pil": 5242,
      "divan": 5243,
      "erh": 5244,
      "ayi": 5245,
      "taah": 5246,
      "kii": 5247,
      "umar": 5248,
      "ric": 5249,
      "part": 5250,
      "otoğ": 5251,
      "köp": 5252,
      "ehl": 5253,
      "rimi": 5254,
      "83": 5255,
      "siyo": 5256,
      "keşi": 5257,
      "takı": 5258,
      "nmaya": 5259,
      "xxx": 5260,
      "urmay": 5261,
      "eğiş": 5262,
      "idan": 5263,
      "tms": 5264,
      "##lığı": 5265,
      "dic": 5266,
      "irme": 5267,
      "many": 5268,
      "edeni": 5269,
      "##i̇ş": 5270,
      "ziya": 5271,
      "ırakı": 5272,
      "flaş": 5273,
      "lış": 5274,
      "oka": 5275,
      "tfa": 5276,
      "anar": 5277,
      "arşi": 5278,
      "akdir": 5279,
      "eklem": 5280,
      "kos": 5281,
      "aşla": 5282,
      "ırp": 5283,
      "ciro": 5284,
      "fiy": 5285,
      "hol": 5286,
      "tev": 5287,
      "ünni": 5288,
      "üzde": 5289,
      "ıştır": 5290,
      "vor": 5291,
      "##vir": 5292,
      "lih": 5293,
      "atür": 5294,
      "oğa": 5295,
      "kdv": 5296,
      "keşif": 5297,
      "hmet": 5298,
      "jür": 5299,
      "wi": 5300,
      "şta": 5301,
      "att": 5302,
      "ktaş": 5303,
      "kıv": 5304,
      "jüri": 5305,
      "calan": 5306,
      "yapım": 5307,
      "##gi̇": 5308,
      "idrar": 5309,
      "isk": 5310,
      "ısm": 5311,
      "ai̇": 5312,
      "ibi": 5313,
      "lki": 5314,
      "çen": 5315,
      "yası": 5316,
      "menf": 5317,
      "ardak": 5318,
      "röva": 5319,
      "73": 5320,
      "ller": 5321,
      "lav": 5322,
      "ecekt": 5323,
      "ürk": 5324,
      "yi̇": 5325,
      "itme": 5326,
      "merdi": 5327,
      "vni": 5328,
      "veli": 5329,
      "aci": 5330,
      "duat": 5331,
      "türki̇": 5332,
      "eyre": 5333,
      "dırım": 5334,
      "opu": 5335,
      "rüya": 5336,
      "cn": 5337,
      "hbar": 5338,
      "rını": 5339,
      "infi": 5340,
      "uld": 5341,
      "baha": 5342,
      "aşan": 5343,
      "adde": 5344,
      "sten": 5345,
      "iev": 5346,
      "ldüğü": 5347,
      "tmsf": 5348,
      "sları": 5349,
      "zis": 5350,
      "ğüs": 5351,
      "şü": 5352,
      "##mb": 5353,
      "##ub": 5354,
      "##zet": 5355,
      "arg": 5356,
      "eton": 5357,
      "meh": 5358,
      "mega": 5359,
      "aşta": 5360,
      "iyel": 5361,
      "amir": 5362,
      "fade": 5363,
      "rünü": 5364,
      "tıbbi": 5365,
      "76": 5366,
      "hel": 5367,
      "mle": 5368,
      "rland": 5369,
      "ğmen": 5370,
      "##tah": 5371,
      "emur": 5372,
      "menaj": 5373,
      "yete": 5374,
      "ranla": 5375,
      "ehri": 5376,
      "omu": 5377,
      "rdım": 5378,
      "ladık": 5379,
      "ekili": 5380,
      "lüt": 5381,
      "rlığı": 5382,
      "şın": 5383,
      "oni": 5384,
      "ekli": 5385,
      "müf": 5386,
      "şii": 5387,
      "detti": 5388,
      "88": 5389,
      "84": 5390,
      "fu": 5391,
      "kta": 5392,
      "lımı": 5393,
      "pç": 5394,
      "vk": 5395,
      "üme": 5396,
      "arat": 5397,
      "kaba": 5398,
      "nadir": 5399,
      "taze": 5400,
      "ılı": 5401,
      "azın": 5402,
      "cia": 5403,
      "benze": 5404,
      "uça": 5405,
      "ozu": 5406,
      "james": 5407,
      "cra": 5408,
      "ddet": 5409,
      "fel": 5410,
      "ple": 5411,
      "tmiş": 5412,
      "iner": 5413,
      "reç": 5414,
      "else": 5415,
      "danı": 5416,
      "aşam": 5417,
      "ahram": 5418,
      "gene": 5419,
      "ylem": 5420,
      "aflar": 5421,
      "zo": 5422,
      "##ân": 5423,
      "arlan": 5424,
      "olf": 5425,
      "eni̇": 5426,
      "yev": 5427,
      "aşıl": 5428,
      "ırım": 5429,
      "bini": 5430,
      "dirim": 5431,
      "katla": 5432,
      "helal": 5433,
      "ışın": 5434,
      "dikka": 5435,
      "satı": 5436,
      "şerif": 5437,
      "77": 5438,
      "hti": 5439,
      "ldı": 5440,
      "uta": 5441,
      "del": 5442,
      "diyo": 5443,
      "nday": 5444,
      "irlen": 5445,
      "hael": 5446,
      "ors": 5447,
      "emd": 5448,
      "üll": 5449,
      "ahim": 5450,
      "ği̇": 5451,
      "yakı": 5452,
      "oyd": 5453,
      "ışlar": 5454,
      "estek": 5455,
      "ruldu": 5456,
      "hapse": 5457,
      "rsun": 5458,
      "aban": 5459,
      "ahri": 5460,
      "fad": 5461,
      "bez": 5462,
      "ölge": 5463,
      "sosa": 5464,
      "iflas": 5465,
      "plant": 5466,
      "tıka": 5467,
      "ekley": 5468,
      "74": 5469,
      "lun": 5470,
      "rvi": 5471,
      "##ho": 5472,
      "alim": 5473,
      "sığ": 5474,
      "##tes": 5475,
      "azıl": 5476,
      "kisi": 5477,
      "gazze": 5478,
      "şeyh": 5479,
      "andık": 5480,
      "bbc": 5481,
      "kpss": 5482,
      "kck": 5483,
      "üman": 5484,
      "etler": 5485,
      "nika": 5486,
      "kef": 5487,
      "oplu": 5488,
      "lması": 5489,
      "lata": 5490,
      "ibya": 5491,
      "hta": 5492,
      "nara": 5493,
      "çağı": 5494,
      "şt": 5495,
      "inek": 5496,
      "ilg": 5497,
      "raca": 5498,
      "toz": 5499,
      "landa": 5500,
      "ıtla": 5501,
      "86": 5502,
      "mpa": 5503,
      "ryan": 5504,
      "tlu": 5505,
      "unv": 5506,
      "nist": 5507,
      "irb": 5508,
      "mül": 5509,
      "kura": 5510,
      "eylan": 5511,
      "herh": 5512,
      "rücü": 5513,
      "paul": 5514,
      "350": 5515,
      "89": 5516,
      "ote": 5517,
      "sıl": 5518,
      "uka": 5519,
      "zde": 5520,
      "yada": 5521,
      "erçe": 5522,
      "eyni": 5523,
      "avr": 5524,
      "ider": 5525,
      "yaşay": 5526,
      "zab": 5527,
      "areti": 5528,
      "acağ": 5529,
      "apsam": 5530,
      "rehin": 5531,
      "nse": 5532,
      "teli": 5533,
      "tkin": 5534,
      "zdi": 5535,
      "çan": 5536,
      "üğün": 5537,
      "erb": 5538,
      "işk": 5539,
      "amca": 5540,
      "manya": 5541,
      "okrat": 5542,
      "metal": 5543,
      "hid": 5544,
      "ilmes": 5545,
      "ee": 5546,
      "ls": 5547,
      "rsa": 5548,
      "ösy": 5549,
      "enüz": 5550,
      "raga": 5551,
      "mill": 5552,
      "fas": 5553,
      "şika": 5554,
      "tmaya": 5555,
      "zisy": 5556,
      "hil": 5557,
      "rti": 5558,
      "rca": 5559,
      "##ly": 5560,
      "i̇ha": 5561,
      "ass": 5562,
      "riy": 5563,
      "varı": 5564,
      "muaf": 5565,
      "kök": 5566,
      "tüke": 5567,
      "şair": 5568,
      "dehşe": 5569,
      "lda": 5570,
      "tali": 5571,
      "##mür": 5572,
      "##har": 5573,
      "evda": 5574,
      "kola": 5575,
      "üzi": 5576,
      "ülk": 5577,
      "biliy": 5578,
      "ithal": 5579,
      "nmay": 5580,
      "ıştı": 5581,
      "ansu": 5582,
      "şafak": 5583,
      "imes": 5584,
      "anın": 5585,
      "inlik": 5586,
      "ayli": 5587,
      "arıy": 5588,
      "dilek": 5589,
      "hoş": 5590,
      "lumu": 5591,
      "imaj": 5592,
      "jen": 5593,
      "sy": 5594,
      "zını": 5595,
      "ğine": 5596,
      "mates": 5597,
      "i̇le": 5598,
      "makul": 5599,
      "arko": 5600,
      "omo": 5601,
      "dında": 5602,
      "pri": 5603,
      "üdür": 5604,
      "kabi": 5605,
      "aklan": 5606,
      "dene": 5607,
      "tarak": 5608,
      "rdik": 5609,
      "rank": 5610,
      "ruma": 5611,
      "web": 5612,
      "nli": 5613,
      "bağı": 5614,
      "ems": 5615,
      "besi": 5616,
      "kömür": 5617,
      "nto": 5618,
      "omis": 5619,
      "tikl": 5620,
      "nikah": 5621,
      "tk": 5622,
      "yda": 5623,
      "##wo": 5624,
      "rio": 5625,
      "ağınd": 5626,
      "örler": 5627,
      "oğum": 5628,
      "münde": 5629,
      "lâ": 5630,
      "rık": 5631,
      "tmek": 5632,
      "##her": 5633,
      "##ing": 5634,
      "lerek": 5635,
      "irma": 5636,
      "aklık": 5637,
      "ekler": 5638,
      "evk": 5639,
      "amlı": 5640,
      "cısı": 5641,
      "tüp": 5642,
      "esim": 5643,
      "kanı": 5644,
      "130": 5645,
      "95": 5646,
      "92": 5647,
      "ase": 5648,
      "fr": 5649,
      "ld": 5650,
      "uan": 5651,
      "zge": 5652,
      "ötü": 5653,
      "anc": 5654,
      "inle": 5655,
      "yaya": 5656,
      "kaan": 5657,
      "lanla": 5658,
      "emli": 5659,
      "uyur": 5660,
      "##yoz": 5661,
      "iddet": 5662,
      "ipo": 5663,
      "dikil": 5664,
      "ramı": 5665,
      "titiz": 5666,
      "afa": 5667,
      "eyle": 5668,
      "kiler": 5669,
      "lli": 5670,
      "ust": 5671,
      "ötür": 5672,
      "şler": 5673,
      "##th": 5674,
      "iştir": 5675,
      "aştı": 5676,
      "adık": 5677,
      "eştir": 5678,
      "şare": 5679,
      "ike": 5680,
      "pf": 5681,
      "zmi": 5682,
      "ıca": 5683,
      "lip": 5684,
      "nez": 5685,
      "sade": 5686,
      "atö": 5687,
      "urkan": 5688,
      "reel": 5689,
      "lıç": 5690,
      "toki̇": 5691,
      "aşık": 5692,
      "aşını": 5693,
      "ırın": 5694,
      "tarla": 5695,
      "eçi": 5696,
      "rasy": 5697,
      "eat": 5698,
      "ui": 5699,
      "vg": 5700,
      "ücü": 5701,
      "deş": 5702,
      "##ami": 5703,
      "irs": 5704,
      "karm": 5705,
      "evr": 5706,
      "elfi": 5707,
      "iyar": 5708,
      "asını": 5709,
      "oğun": 5710,
      "iper": 5711,
      "rdek": 5712,
      "rneğ": 5713,
      "dürü": 5714,
      "pes": 5715,
      "ex": 5716,
      "fbi": 5717,
      "ny": 5718,
      "ole": 5719,
      "rde": 5720,
      "yil": 5721,
      "şut": 5722,
      "enj": 5723,
      "amat": 5724,
      "eviz": 5725,
      "elç": 5726,
      "toh": 5727,
      "ahme": 5728,
      "faul": 5729,
      "cisi": 5730,
      "luğun": 5731,
      "zade": 5732,
      "ensil": 5733,
      "şükrü": 5734,
      "ynen": 5735,
      "ötürü": 5736,
      "87": 5737,
      "hsan": 5738,
      "tini": 5739,
      "ylü": 5740,
      "ilyon": 5741,
      "erik": 5742,
      "reğ": 5743,
      "term": 5744,
      "ahlak": 5745,
      "pers": 5746,
      "uğr": 5747,
      "ezer": 5748,
      "mpar": 5749,
      "ebu": 5750,
      "pet": 5751,
      "ıdır": 5752,
      "daim": 5753,
      "kabu": 5754,
      "enil": 5755,
      "i̇y": 5756,
      "ekte": 5757,
      "yanlı": 5758,
      "adyo": 5759,
      "madık": 5760,
      "plaj": 5761,
      "rsin": 5762,
      "lulu": 5763,
      "zlu": 5764,
      "alit": 5765,
      "teah": 5766,
      "azm": 5767,
      "şeff": 5768,
      "riye": 5769,
      "kısı": 5770,
      "atip": 5771,
      "limit": 5772,
      "ştığı": 5773,
      "ösym": 5774,
      "91": 5775,
      "cm": 5776,
      "dhk": 5777,
      "mc": 5778,
      "mum": 5779,
      "##mü": 5780,
      "##up": 5781,
      "dai̇ş": 5782,
      "artı": 5783,
      "azım": 5784,
      "emt": 5785,
      "ahne": 5786,
      "tarı": 5787,
      "apan": 5788,
      "stat": 5789,
      "rant": 5790,
      "meliy": 5791,
      "tamir": 5792,
      "leks": 5793,
      "rayı": 5794,
      "que": 5795,
      "ravma": 5796,
      "dhkp": 5797,
      "bam": 5798,
      "caz": 5799,
      "rmuş": 5800,
      "çim": 5801,
      "##og": 5802,
      "argo": 5803,
      "yapa": 5804,
      "abak": 5805,
      "lecek": 5806,
      "evzi": 5807,
      "ırrı": 5808,
      "ahir": 5809,
      "ceği": 5810,
      "yetin": 5811,
      "ezen": 5812,
      "pfdk": 5813,
      "mlak": 5814,
      "##gâ": 5815,
      "ande": 5816,
      "istiy": 5817,
      "sefe": 5818,
      "tih": 5819,
      "önder": 5820,
      "ahla": 5821,
      "ows": 5822,
      "teyit": 5823,
      "holl": 5824,
      "dına": 5825,
      "tın": 5826,
      "tet": 5827,
      "ğlı": 5828,
      "##lit": 5829,
      "ürd": 5830,
      "nnes": 5831,
      "elfie": 5832,
      "aid": 5833,
      "eba": 5834,
      "zle": 5835,
      "şlem": 5836,
      "##del": 5837,
      "##ban": 5838,
      "ann": 5839,
      "aksa": 5840,
      "ull": 5841,
      "eva": 5842,
      "sef": 5843,
      "yerin": 5844,
      "diri": 5845,
      "row": 5846,
      "tüi̇k": 5847,
      "lmas": 5848,
      "elirt": 5849,
      "edat": 5850,
      "750": 5851,
      "dın": 5852,
      "kst": 5853,
      "kşe": 5854,
      "rle": 5855,
      "vs": 5856,
      "zim": 5857,
      "olla": 5858,
      "dia": 5859,
      "etini": 5860,
      "amad": 5861,
      "orl": 5862,
      "uygu": 5863,
      "pool": 5864,
      "metin": 5865,
      "tübi̇": 5866,
      "ezle": 5867,
      "nakil": 5868,
      "nihay": 5869,
      "efer": 5870,
      "kû": 5871,
      "oc": 5872,
      "vis": 5873,
      "zil": 5874,
      "zlık": 5875,
      "##wa": 5876,
      "arç": 5877,
      "enid": 5878,
      "sım": 5879,
      "##ceğ": 5880,
      "izem": 5881,
      "kis": 5882,
      "yıs": 5883,
      "öldür": 5884,
      "ston": 5885,
      "minin": 5886,
      "tayin": 5887,
      "rati": 5888,
      "vahşi": 5889,
      "bare": 5890,
      "dını": 5891,
      "lk": 5892,
      "vut": 5893,
      "##mer": 5894,
      "##şat": 5895,
      "sip": 5896,
      "orma": 5897,
      "ilek": 5898,
      "jean": 5899,
      "yeler": 5900,
      "900": 5901,
      "ebir": 5902,
      "file": 5903,
      "mz": 5904,
      "opa": 5905,
      "rlu": 5906,
      "sr": 5907,
      "##sb": 5908,
      "anka": 5909,
      "enci": 5910,
      "mese": 5911,
      "türül": 5912,
      "eyla": 5913,
      "aff": 5914,
      "ansel": 5915,
      "kledi": 5916,
      "fakir": 5917,
      "ptt": 5918,
      "reyt": 5919,
      "ylül": 5920,
      "eon": 5921,
      "lçi": 5922,
      "pis": 5923,
      "sn": 5924,
      "ğd": 5925,
      "##tc": 5926,
      "##üf": 5927,
      "##les": 5928,
      "ndo": 5929,
      "tezi": 5930,
      "nında": 5931,
      "izah": 5932,
      "tiğ": 5933,
      "ıran": 5934,
      "fav": 5935,
      "rilen": 5936,
      "ranın": 5937,
      "hed": 5938,
      "şavir": 5939,
      "iva": 5940,
      "pal": 5941,
      "tleri": 5942,
      "deb": 5943,
      "ony": 5944,
      "reak": 5945,
      "ılım": 5946,
      "elg": 5947,
      "üzün": 5948,
      "asınd": 5949,
      "mekân": 5950,
      "beck": 5951,
      "metni": 5952,
      "icro": 5953,
      "110": 5954,
      "leke": 5955,
      "nceli": 5956,
      "kstil": 5957,
      "bd": 5958,
      "gre": 5959,
      "pın": 5960,
      "ğüt": 5961,
      "ily": 5962,
      "erit": 5963,
      "iran": 5964,
      "irmi": 5965,
      "işa": 5966,
      "dos": 5967,
      "önüş": 5968,
      "ikte": 5969,
      "bilme": 5970,
      "##geb": 5971,
      "osgeb": 5972,
      "stk": 5973,
      "edik": 5974,
      "tilla": 5975,
      "kerem": 5976,
      "jack": 5977,
      "atent": 5978,
      "şerid": 5979,
      "reler": 5980,
      "dedil": 5981,
      "imanı": 5982,
      "##wood": 5983,
      "kir": 5984,
      "lde": 5985,
      "lul": 5986,
      "nleri": 5987,
      "uya": 5988,
      "ube": 5989,
      "zım": 5990,
      "##hre": 5991,
      "demet": 5992,
      "lite": 5993,
      "iliz": 5994,
      "elere": 5995,
      "ahran": 5996,
      "cup": 5997,
      "rett": 5998,
      "ajı": 5999,
      "i̇çi̇n": 6000,
      "elis": 6001,
      "ywood": 6002,
      "##ks": 6003,
      "alar": 6004,
      "enn": 6005,
      "nef": 6006,
      "laik": 6007,
      "aciz": 6008,
      "imdi": 6009,
      "oro": 6010,
      "koza": 6011,
      "elt": 6012,
      "görm": 6013,
      "ağlı": 6014,
      "elih": 6015,
      "çinde": 6016,
      "iğne": 6017,
      "ood": 6018,
      "rkeo": 6019,
      "cnn": 6020,
      "ear": 6021,
      "ios": 6022,
      "kok": 6023,
      "kını": 6024,
      "vli": 6025,
      "işme": 6026,
      "boub": 6027,
      "ğına": 6028,
      "tüd": 6029,
      "alib": 6030,
      "hall": 6031,
      "##yif": 6032,
      "yök": 6033,
      "tavrı": 6034,
      "cc": 6035,
      "fyo": 6036,
      "tsi̇": 6037,
      "şoku": 6038,
      "anlık": 6039,
      "ulunm": 6040,
      "poşet": 6041,
      "keyif": 6042,
      "mant": 6043,
      "aptır": 6044,
      "usun": 6045,
      "vade": 6046,
      "uard": 6047,
      "bi̇n": 6048,
      "tuna": 6049,
      "dicle": 6050,
      "dd": 6051,
      "pr": 6052,
      "vr": 6053,
      "vb": 6054,
      "##uke": 6055,
      "##bet": 6056,
      "##şi̇": 6057,
      "##qu": 6058,
      "org": 6059,
      "rica": 6060,
      "muciz": 6061,
      "isl": 6062,
      "küs": 6063,
      "küme": 6064,
      "kili": 6065,
      "ayatı": 6066,
      "jou": 6067,
      "ygs": 6068,
      "tcmb": 6069,
      "zeka": 6070,
      "luluk": 6071,
      "tüdyo": 6072,
      "rut": 6073,
      "tiş": 6074,
      "şti": 6075,
      "##val": 6076,
      "ankı": 6077,
      "ilmi": 6078,
      "tef": 6079,
      "ake": 6080,
      "tabir": 6081,
      "racı": 6082,
      "reis": 6083,
      "ella": 6084,
      "ith": 6085,
      "metl": 6086,
      "sami": 6087,
      "360": 6088,
      "rfan": 6089,
      "rkes": 6090,
      "kktc": 6091,
      "ax": 6092,
      "yt": 6093,
      "zdan": 6094,
      "üel": 6095,
      "üdü": 6096,
      "ğan": 6097,
      "ıtı": 6098,
      "dick": 6099,
      "eron": 6100,
      "ono": 6101,
      "lant": 6102,
      "ettiğ": 6103,
      "##bai": 6104,
      "nunun": 6105,
      "andığ": 6106,
      "140": 6107,
      "müzde": 6108,
      "nasip": 6109,
      "elsea": 6110,
      "aksad": 6111,
      "94": 6112,
      "biye": 6113,
      "ct": 6114,
      "kik": 6115,
      "##gs": 6116,
      "##ley": 6117,
      "arin": 6118,
      "alm": 6119,
      "orno": 6120,
      "lanın": 6121,
      "ktır": 6122,
      "diko": 6123,
      "gözle": 6124,
      "vala": 6125,
      "nakit": 6126,
      "ivme": 6127,
      "esap": 6128,
      "ring": 6129,
      "aide": 6130,
      "nihai": 6131,
      "cza": 6132,
      "kç": 6133,
      "mın": 6134,
      "rları": 6135,
      "vren": 6136,
      "zme": 6137,
      "##ag": 6138,
      "##zan": 6139,
      "ekta": 6140,
      "evam": 6141,
      "refa": 6142,
      "amur": 6143,
      "nton": 6144,
      "##i̇m": 6145,
      "ızlı": 6146,
      "icil": 6147,
      "odel": 6148,
      "i̇bb": 6149,
      "faka": 6150,
      "gam": 6151,
      "keli": 6152,
      "ütah": 6153,
      "ıv": 6154,
      "şaş": 6155,
      "buki": 6156,
      "siya": 6157,
      "abbi": 6158,
      "tac": 6159,
      "imf": 6160,
      "imya": 6161,
      "dana": 6162,
      "iyen": 6163,
      "ülte": 6164,
      "eyk": 6165,
      "muka": 6166,
      "apri": 6167,
      "rent": 6168,
      "ıkma": 6169,
      "lini": 6170,
      "zy": 6171,
      "ğımı": 6172,
      "##gh": 6173,
      "anyo": 6174,
      "##maş": 6175,
      "alkı": 6176,
      "eta": 6177,
      "i̇h": 6178,
      "lale": 6179,
      "imp": 6180,
      "ampa": 6181,
      "durma": 6182,
      "tart": 6183,
      "merha": 6184,
      "savu": 6185,
      "omik": 6186,
      "latıl": 6187,
      "erson": 6188,
      "retim": 6189,
      "inov": 6190,
      "refah": 6191,
      "cuk": 6192,
      "lmuş": 6193,
      "mmuz": 6194,
      "yva": 6195,
      "arri": 6196,
      "alyoz": 6197,
      "eniz": 6198,
      "enter": 6199,
      "akı": 6200,
      "lef": 6201,
      "lemi": 6202,
      "gisi": 6203,
      "asyo": 6204,
      "beyli": 6205,
      "gov": 6206,
      "tatmi": 6207,
      "olisi": 6208,
      "donk": 6209,
      "gata": 6210,
      "),": 6211,
      "lge": 6212,
      "mli": 6213,
      "##mar": 6214,
      "deli": 6215,
      "olü": 6216,
      "aluk": 6217,
      "alina": 6218,
      "ensu": 6219,
      "yapi": 6220,
      "niy": 6221,
      "atler": 6222,
      "ileti": 6223,
      "üzer": 6224,
      "umlar": 6225,
      "vard": 6226,
      "luis": 6227,
      "ayıt": 6228,
      "hang": 6229,
      "resm": 6230,
      "çöp": 6231,
      "anto": 6232,
      "lazer": 6233,
      "taviz": 6234,
      "tatbi": 6235,
      "rarlı": 6236,
      "şerit": 6237,
      "limon": 6238,
      "99": 6239,
      "96": 6240,
      "93": 6241,
      "kg": 6242,
      "zler": 6243,
      "zzet": 6244,
      "enera": 6245,
      "neyi": 6246,
      "gele": 6247,
      "terli": 6248,
      "özle": 6249,
      "yoru": 6250,
      "itt": 6251,
      "edi̇": 6252,
      "ralı": 6253,
      "piya": 6254,
      "tina": 6255,
      "zani": 6256,
      "fiş": 6257,
      "gs": 6258,
      "gr": 6259,
      "ien": 6260,
      "igi": 6261,
      "lleri": 6262,
      "ncu": 6263,
      "s7": 6264,
      "zul": 6265,
      "inf": 6266,
      "mede": 6267,
      "reen": 6268,
      "reas": 6269,
      "eldi": 6270,
      "tis": 6271,
      "öner": 6272,
      "rij": 6273,
      "##düs": 6274,
      "maks": 6275,
      "arter": 6276,
      "##nes": 6277,
      "mot": 6278,
      "talar": 6279,
      "eykoz": 6280,
      "khk": 6281,
      "lm": 6282,
      "ular": 6283,
      "ğlık": 6284,
      "##by": 6285,
      "##sti": 6286,
      "ilüf": 6287,
      "naat": 6288,
      "başk": 6289,
      "tica": 6290,
      "gey": 6291,
      "tiro": 6292,
      "arici": 6293,
      "şap": 6294,
      "uplar": 6295,
      "sayıs": 6296,
      "şandı": 6297,
      "fesh": 6298,
      "ti̇m": 6299,
      "arşiv": 6300,
      "gah": 6301,
      "lti": 6302,
      "nık": 6303,
      "slim": 6304,
      "zl": 6305,
      "zdı": 6306,
      "##per": 6307,
      "anam": 6308,
      "edir": 6309,
      "abr": 6310,
      "urb": 6311,
      "terl": 6312,
      "emlak": 6313,
      "beğ": 6314,
      "stro": 6315,
      "kudüs": 6316,
      "180": 6317,
      "eyeno": 6318,
      "rarla": 6319,
      "98": 6320,
      "cti": 6321,
      "dok": 6322,
      "rki": 6323,
      "sd": 6324,
      "uda": 6325,
      "üfe": 6326,
      "##̇l": 6327,
      "mai": 6328,
      "##daş": 6329,
      "illa": 6330,
      "##ure": 6331,
      "lap": 6332,
      "tiba": 6333,
      "kesi": 6334,
      "mana": 6335,
      "tti̇": 6336,
      "erid": 6337,
      "obüs": 6338,
      "foto": 6339,
      "etici": 6340,
      "urdur": 6341,
      "ngell": 6342,
      "pı": 6343,
      "uli": 6344,
      "##ec": 6345,
      "##gen": 6346,
      "##ble": 6347,
      "yeceğ": 6348,
      "akt": 6349,
      "tası": 6350,
      "eld": 6351,
      "terc": 6352,
      "sonel": 6353,
      "umara": 6354,
      "kucak": 6355,
      "lov": 6356,
      "düğ": 6357,
      "ğinin": 6358,
      "arif": 6359,
      "ias": 6360,
      "lduk": 6361,
      "klama": 6362,
      "ldi̇": 6363,
      "undak": 6364,
      "rmal": 6365,
      "ejim": 6366,
      "irler": 6367,
      "ulun": 6368,
      "kiye": 6369,
      "tıra": 6370,
      "ipler": 6371,
      "ros": 6372,
      "sos": 6373,
      "hami": 6374,
      "mith": 6375,
      "rone": 6376,
      "zgat": 6377,
      "zmit": 6378,
      "dl": 6379,
      "fık": 6380,
      "mına": 6381,
      "##ig": 6382,
      "##ez": 6383,
      "alığı": 6384,
      "lima": 6385,
      "enta": 6386,
      "diki": 6387,
      "erme": 6388,
      "etir": 6389,
      "ayış": 6390,
      "abla": 6391,
      "hac": 6392,
      "orlar": 6393,
      "emiz": 6394,
      "üleri": 6395,
      "geçme": 6396,
      "luka": 6397,
      "vaat": 6398,
      "ttiği": 6399,
      "akale": 6400,
      "bist": 6401,
      "entus": 6402,
      "kerle": 6403,
      "logo": 6404,
      "ni̇n": 6405,
      "ai̇h": 6406,
      "ılıç": 6407,
      "bddk": 6408,
      "bri": 6409,
      "cik": 6410,
      "gul": 6411,
      "oun": 6412,
      "sb": 6413,
      "sms": 6414,
      "tö": 6415,
      "vv": 6416,
      "yek": 6417,
      "##om": 6418,
      "arkan": 6419,
      "oll": 6420,
      "etim": 6421,
      "irin": 6422,
      "ekç": 6423,
      "tic": 6424,
      "eyda": 6425,
      "ahmi": 6426,
      "adın": 6427,
      "şehre": 6428,
      "ciha": 6429,
      "idro": 6430,
      "ital": 6431,
      "roup": 6432,
      "kulis": 6433,
      "afer": 6434,
      "akib": 6435,
      "endim": 6436,
      "wes": 6437,
      "fox": 6438,
      "yrıl": 6439,
      "htiy": 6440,
      "rutin": 6441,
      "agi": 6442,
      "hr": 6443,
      "şle": 6444,
      "##tv": 6445,
      "had": 6446,
      "ekar": 6447,
      "ikram": 6448,
      "amdi": 6449,
      "rida": 6450,
      "ırb": 6451,
      "iss": 6452,
      "figür": 6453,
      "##i̇r": 6454,
      "şifa": 6455,
      "rtük": 6456,
      "epdk": 6457,
      "160": 6458,
      "hesab": 6459,
      "hop": 6460,
      "450": 6461,
      "lys": 6462,
      "kûm": 6463,
      "db": 6464,
      "dna": 6465,
      "klik": 6466,
      "lsa": 6467,
      "pen": 6468,
      "tçı": 6469,
      "ys": 6470,
      "enje": 6471,
      "naaş": 6472,
      "##ras": 6473,
      "ask": 6474,
      "aset": 6475,
      "utt": 6476,
      "alab": 6477,
      "zaf": 6478,
      "htc": 6479,
      "ensup": 6480,
      "kma": 6481,
      "lgı": 6482,
      "ssk": 6483,
      "tmen": 6484,
      "şit": 6485,
      "deler": 6486,
      "##all": 6487,
      "mag": 6488,
      "eniş": 6489,
      "erci": 6490,
      "abul": 6491,
      "imti": 6492,
      "elan": 6493,
      "gi̇": 6494,
      "##vad": 6495,
      "ranc": 6496,
      "ışma": 6497,
      "güçle": 6498,
      "aki̇": 6499,
      "minde": 6500,
      "efe": 6501,
      "igen": 6502,
      "arlığ": 6503,
      "rüzgâ": 6504,
      "irsin": 6505,
      "lle": 6506,
      "ntep": 6507,
      "oj": 6508,
      "##if": 6509,
      "##pur": 6510,
      "mater": 6511,
      "atmak": 6512,
      "ünnet": 6513,
      "evdet": 6514,
      "elo": 6515,
      "eymar": 6516,
      "tanın": 6517,
      "ereke": 6518,
      "stal": 6519,
      "stler": 6520,
      "##heim": 6521,
      "dildi": 6522,
      "bari": 6523,
      "fitne": 6524,
      "talip": 6525,
      "enjan": 6526,
      "97": 6527,
      "iel": 6528,
      "nn": 6529,
      "spa": 6530,
      "ygu": 6531,
      "##sü": 6532,
      "any": 6533,
      "aldi": 6534,
      "nasa": 6535,
      "lacak": 6536,
      "atem": 6537,
      "led": 6538,
      "eko": 6539,
      "dubai": 6540,
      "azim": 6541,
      "ült": 6542,
      "cele": 6543,
      "liga": 6544,
      "iğe": 6545,
      "ygun": 6546,
      "##âhil": 6547,
      "ae": 6548,
      "dâhil": 6549,
      "mza": 6550,
      "ous": 6551,
      "anj": 6552,
      "inare": 6553,
      "arb": 6554,
      "buca": 6555,
      "engi": 6556,
      "erini": 6557,
      "niden": 6558,
      "ılmak": 6559,
      "amit": 6560,
      "tant": 6561,
      "ırf": 6562,
      "pop": 6563,
      "itler": 6564,
      "stek": 6565,
      "onunu": 6566,
      "zaaf": 6567,
      "ısına": 6568,
      "masal": 6569,
      "joe": 6570,
      "nom": 6571,
      "vedat": 6572,
      "zihi": 6573,
      "gıla": 6574,
      "erçev": 6575,
      "cül": 6576,
      "hip": 6577,
      "ive": 6578,
      "ju": 6579,
      "ğme": 6580,
      "şoke": 6581,
      "##̇n": 6582,
      "##âr": 6583,
      "ervan": 6584,
      "emti": 6585,
      "maky": 6586,
      "tırm": 6587,
      "diren": 6588,
      "eşya": 6589,
      "olayl": 6590,
      "##i̇s": 6591,
      "nizam": 6592,
      "filan": 6593,
      "##şap": 6594,
      "üyük": 6595,
      "tobb": 6596,
      "defne": 6597,
      "ekrar": 6598,
      "zihni": 6599,
      "şapka": 6600,
      "gara": 6601,
      "ldan": 6602,
      "nj": 6603,
      "piz": 6604,
      "indar": 6605,
      "arman": 6606,
      "bira": 6607,
      "kast": 6608,
      "akdim": 6609,
      "leag": 6610,
      "##ses": 6611,
      "tij": 6612,
      "amd": 6613,
      "rmey": 6614,
      "vası": 6615,
      "şahsi": 6616,
      "aria": 6617,
      "erkük": 6618,
      "mpi": 6619,
      "mi̇z": 6620,
      "fıs": 6621,
      "irdik": 6622,
      "ction": 6623,
      "fd": 6624,
      "faş": 6625,
      "kti": 6626,
      "kör": 6627,
      "lsun": 6628,
      "nland": 6629,
      "üte": 6630,
      "ğra": 6631,
      "ante": 6632,
      "##ği̇": 6633,
      "i̇sa": 6634,
      "abl": 6635,
      "lec": 6636,
      "evşe": 6637,
      "işki": 6638,
      "ecza": 6639,
      "ines": 6640,
      "moda": 6641,
      "kans": 6642,
      "uşma": 6643,
      "ertan": 6644,
      "viet": 6645,
      "mund": 6646,
      "aprio": 6647,
      "ai̇hm": 6648,
      "cın": 6649,
      "lö": 6650,
      "nor": 6651,
      "pl": 6652,
      "zheim": 6653,
      "ilmen": 6654,
      "ayf": 6655,
      "onak": 6656,
      "başlı": 6657,
      "tasa": 6658,
      "ulü": 6659,
      "eket": 6660,
      "terfi": 6661,
      "uzl": 6662,
      "ams": 6663,
      "eyd": 6664,
      "abili": 6665,
      "merve": 6666,
      "loto": 6667,
      "rması": 6668,
      "ervi": 6669,
      "nomi": 6670,
      "tipi": 6671,
      "etesi": 6672,
      "munu": 6673,
      "ntern": 6674,
      "ömür": 6675,
      "itham": 6676,
      "dbp": 6677,
      "cd": 6678,
      "cun": 6679,
      "dman": 6680,
      "yir": 6681,
      "anli": 6682,
      "anken": 6683,
      "yaban": 6684,
      "enç": 6685,
      "enat": 6686,
      "neşe": 6687,
      "taf": 6688,
      "eyit": 6689,
      "mann": 6690,
      "eşar": 6691,
      "üçü": 6692,
      "rook": 6693,
      "rock": 6694,
      "fi̇": 6695,
      "hele": 6696,
      "şire": 6697,
      "ico": 6698,
      "kreş": 6699,
      "ibar": 6700,
      "spd": 6701,
      "ebev": 6702,
      "ammül": 6703,
      "kıldı": 6704,
      "cret": 6705,
      "nz": 6706,
      "sman": 6707,
      "yut": 6708,
      "öste": 6709,
      "##nel": 6710,
      "nab": 6711,
      "tasi": 6712,
      "şefi": 6713,
      "ash": 6714,
      "yorsa": 6715,
      "stün": 6716,
      "tüsi̇": 6717,
      "tinde": 6718,
      "damla": 6719,
      "ulama": 6720,
      "lgesi": 6721,
      "cin": 6722,
      "lse": 6723,
      "palan": 6724,
      "yde": 6725,
      "zira": 6726,
      "ğdır": 6727,
      "##sh": 6728,
      "##ps": 6729,
      "arlo": 6730,
      "maf": 6731,
      "sia": 6732,
      "teog": 6733,
      "irke": 6734,
      "akya": 6735,
      "atu": 6736,
      "leb": 6737,
      "aşma": 6738,
      "avra": 6739,
      "ahra": 6740,
      "##ves": 6741,
      "şike": 6742,
      "rakya": 6743,
      "arsus": 6744,
      "yonun": 6745,
      "übre": 6746,
      "hizb": 6747,
      "ds": 6748,
      "kl": 6749,
      "kün": 6750,
      "lv": 6751,
      "mk": 6752,
      "zma": 6753,
      "üven": 6754,
      "şti̇": 6755,
      "##ia": 6756,
      "##bül": 6757,
      "olks": 6758,
      "alin": 6759,
      "etr": 6760,
      "nını": 6761,
      "acet": 6762,
      "emik": 6763,
      "ırd": 6764,
      "ırmı": 6765,
      "mizah": 6766,
      "item": 6767,
      "eçiş": 6768,
      "üreş": 6769,
      "roth": 6770,
      "ıldır": 6771,
      "epey": 6772,
      "orunu": 6773,
      "zihin": 6774,
      "ntaj": 6775,
      "eklif": 6776,
      "ame": 6777,
      "aali": 6778,
      "bt": 6779,
      "feri": 6780,
      "yni": 6781,
      "şün": 6782,
      "yam": 6783,
      "daşı": 6784,
      "lie": 6785,
      "mei": 6786,
      "abar": 6787,
      "aklit": 6788,
      "imum": 6789,
      "ekşi": 6790,
      "tion": 6791,
      "lanet": 6792,
      "kalar": 6793,
      "otu": 6794,
      "salar": 6795,
      "ükle": 6796,
      "ayıs": 6797,
      "üstri": 6798,
      "ranı": 6799,
      "kanın": 6800,
      "aliç": 6801,
      "ifle": 6802,
      "firar": 6803,
      "hamid": 6804,
      "peder": 6805,
      "asay": 6806,
      "insül": 6807,
      "rgü": 6808,
      "ayesi": 6809,
      "oul": 6810,
      "peş": 6811,
      "rlık": 6812,
      "uba": 6813,
      "wil": 6814,
      "##ud": 6815,
      "kati": 6816,
      "##ğit": 6817,
      "onda": 6818,
      "nim": 6819,
      "lebi": 6820,
      "likl": 6821,
      "reb": 6822,
      "eczan": 6823,
      "kia": 6824,
      "kaps": 6825,
      "alama": 6826,
      "zalim": 6827,
      "derl": 6828,
      "rtan": 6829,
      "vapur": 6830,
      "dink": 6831,
      "traj": 6832,
      "pala": 6833,
      "ofya": 6834,
      "wagen": 6835,
      "eras": 6836,
      "matem": 6837,
      "vahşe": 6838,
      "titr": 6839,
      "dayı": 6840,
      "fıkra": 6841,
      "pizza": 6842,
      "mafya": 6843,
      "bla": 6844,
      "lke": 6845,
      "nlı": 6846,
      "pli": 6847,
      "ylı": 6848,
      "zmi̇": 6849,
      "##ner": 6850,
      "##one": 6851,
      "iray": 6852,
      "atle": 6853,
      "rast": 6854,
      "urat": 6855,
      "evh": 6856,
      "üzd": 6857,
      "ahit": 6858,
      "ahşap": 6859,
      "ceh": 6860,
      "ürül": 6861,
      "düşer": 6862,
      "apt": 6863,
      "apma": 6864,
      "meno": 6865,
      "rıca": 6866,
      "afiş": 6867,
      "ıkar": 6868,
      "zedel": 6869,
      "125": 6870,
      "sted": 6871,
      "ivi": 6872,
      "nesco": 6873,
      "ronz": 6874,
      "sterd": 6875,
      "şeria": 6876,
      "ğunda": 6877,
      "impar": 6878,
      "lukas": 6879,
      "fl": 6880,
      "ior": 6881,
      "kşi": 6882,
      "üle": 6883,
      "şla": 6884,
      "enü": 6885,
      "i̇m": 6886,
      "onet": 6887,
      "karg": 6888,
      "eyp": 6889,
      "eşik": 6890,
      "ideri": 6891,
      "kumaş": 6892,
      "ehm": 6893,
      "eği̇l": 6894,
      "nsu": 6895,
      "retme": 6896,
      "170": 6897,
      "nikâh": 6898,
      "rasyo": 6899,
      "adis": 6900,
      "ramva": 6901,
      "cakl": 6902,
      "loke": 6903,
      "ti̇ka": 6904,
      "entag": 6905,
      "cis": 6906,
      "kımı": 6907,
      "stü": 6908,
      "tki̇": 6909,
      "vleri": 6910,
      "zah": 6911,
      "şlar": 6912,
      "##pi": 6913,
      "##ire": 6914,
      "anus": 6915,
      "ndi̇": 6916,
      "damı": 6917,
      "ardan": 6918,
      "erör": 6919,
      "sıt": 6920,
      "lag": 6921,
      "acim": 6922,
      "müsi̇": 6923,
      "yerle": 6924,
      "amız": 6925,
      "mekke": 6926,
      "turd": 6927,
      "marj": 6928,
      "olmam": 6929,
      "rmedi": 6930,
      "sow": 6931,
      "hib": 6932,
      "epet": 6933,
      "akik": 6934,
      "ites": 6935,
      "quot": 6936,
      "anoz": 6937,
      "ezonu": 6938,
      "aksat": 6939,
      "urad": 6940,
      "telif": 6941,
      "emsal": 6942,
      "cazip": 6943,
      "dge": 6944,
      "fal": 6945,
      "hl": 6946,
      "hı": 6947,
      "iat": 6948,
      "jere": 6949,
      "ping": 6950,
      "tul": 6951,
      "üda": 6952,
      "ıka": 6953,
      "şli": 6954,
      "##ris": 6955,
      "dest": 6956,
      "enzi": 6957,
      "lack": 6958,
      "##oko": 6959,
      "suat": 6960,
      "emzi": 6961,
      "güve": 6962,
      "örüş": 6963,
      "faa": 6964,
      "stina": 6965,
      "reng": 6966,
      "sayan": 6967,
      "afp": 6968,
      "nsar": 6969,
      "ödem": 6970,
      "retle": 6971,
      "annes": 6972,
      "opec": 6973,
      "3d": 6974,
      "cla": 6975,
      "cdu": 6976,
      "esaj": 6977,
      "hor": 6978,
      "ix": 6979,
      "nbul": 6980,
      "rmu": 6981,
      "tus": 6982,
      "##âl": 6983,
      "dale": 6984,
      "arina": 6985,
      "onel": 6986,
      "abın": 6987,
      "atv": 6988,
      "acın": 6989,
      "resan": 6990,
      "gea": 6991,
      "aşdi": 6992,
      "okyo": 6993,
      "elit": 6994,
      "metr": 6995,
      "low": 6996,
      "ehli": 6997,
      "eriç": 6998,
      "big": 6999,
      "ofaş": 7000,
      "igren": 7001,
      "li̇k": 7002,
      "ki̇şi̇": 7003,
      "##que": 7004,
      "lotof": 7005,
      "aaliy": 7006,
      "cs": 7007,
      "furt": 7008,
      "iami": 7009,
      "lken": 7010,
      "nlat": 7011,
      "pul": 7012,
      "##fik": 7013,
      "enya": 7014,
      "nimet": 7015,
      "tala": 7016,
      "görün": 7017,
      "örme": 7018,
      "köle": 7019,
      "apsi": 7020,
      "mola": 7021,
      "isle": 7022,
      "ehdi": 7023,
      "afın": 7024,
      "zarf": 7025,
      "hamit": 7026,
      "asim": 7027,
      "üşük": 7028,
      "ahsin": 7029,
      "##li̇k": 7030,
      "ilav": 7031,
      "addes": 7032,
      "ferib": 7033,
      "aur": 7034,
      "omet": 7035,
      "smi": 7036,
      "arles": 7037,
      "buhar": 7038,
      "##des": 7039,
      "erman": 7040,
      "iro": 7041,
      "lebil": 7042,
      "ekno": 7043,
      "izlik": 7044,
      "suv": 7045,
      "asl": 7046,
      "ria": 7047,
      "pota": 7048,
      "ükü": 7049,
      "alep": 7050,
      "rud": 7051,
      "lter": 7052,
      "##nie": 7053,
      "arsel": 7054,
      "lina": 7055,
      "resep": 7056,
      "evap": 7057,
      "fera": 7058,
      "ium": 7059,
      "nba": 7060,
      "reli": 7061,
      "sm": 7062,
      "wor": 7063,
      "yc": 7064,
      "##vik": 7065,
      "oly": 7066,
      "mati": 7067,
      "buse": 7068,
      "bucak": 7069,
      "ays": 7070,
      "taar": 7071,
      "acılı": 7072,
      "ulz": 7073,
      "reg": 7074,
      "sedi": 7075,
      "adar": 7076,
      "ülkem": 7077,
      "artma": 7078,
      "itnel": 7079,
      "lenf": 7080,
      "reni": 7081,
      "ish": 7082,
      "ross": 7083,
      "fiat": 7084,
      "müşt": 7085,
      "hassa": 7086,
      "dilme": 7087,
      "rkas": 7088,
      "linin": 7089,
      "amid": 7090,
      "lduğ": 7091,
      "rtes": 7092,
      "ılara": 7093,
      "agaj": 7094,
      "inop": 7095,
      "lesin": 7096,
      "etiri": 7097,
      "zmi̇r": 7098,
      "hgs": 7099,
      "lir": 7100,
      "lut": 7101,
      "rsu": 7102,
      "ssa": 7103,
      "ötv": 7104,
      "şmak": 7105,
      "##ep": 7106,
      "##pat": 7107,
      "dez": 7108,
      "yala": 7109,
      "aluke": 7110,
      "imur": 7111,
      "orya": 7112,
      "ikby": 7113,
      "gide": 7114,
      "asarı": 7115,
      "ahall": 7116,
      "yaka": 7117,
      "manlı": 7118,
      "lobi": 7119,
      "ress": 7120,
      "çiğ": 7121,
      "şağ": 7122,
      "eşid": 7123,
      "şısı": 7124,
      "hou": 7125,
      "veto": 7126,
      "lass": 7127,
      "mhk": 7128,
      "psg": 7129,
      "myk": 7130,
      "adila": 7131,
      "luna": 7132,
      "riyel": 7133,
      "lâm": 7134,
      "rown": 7135,
      "zafiy": 7136,
      "ometr": 7137,
      "aö": 7138,
      "fta": 7139,
      "gür": 7140,
      "lmiş": 7141,
      "mli̇": 7142,
      "tha": 7143,
      "vler": 7144,
      "üya": 7145,
      "##ai": 7146,
      "lerl": 7147,
      "arça": 7148,
      "##dik": 7149,
      "niyle": 7150,
      "atr": 7151,
      "evher": 7152,
      "rex": 7153,
      "ülüş": 7154,
      "miy": 7155,
      "laşa": 7156,
      "yiğit": 7157,
      "adro": 7158,
      "lens": 7159,
      "ehra": 7160,
      "talan": 7161,
      "##nia": 7162,
      "ütle": 7163,
      "enko": 7164,
      "atırl": 7165,
      "nımız": 7166,
      "risti": 7167,
      "ourin": 7168,
      "teyze": 7169,
      "ndıra": 7170,
      "lexis": 7171,
      "şinin": 7172,
      "exus": 7173,
      "kmek": 7174,
      "rre": 7175,
      "sir": 7176,
      "sse": 7177,
      "war": 7178,
      "çile": 7179,
      "ğız": 7180,
      "##ole": 7181,
      "##ğin": 7182,
      "##yk": 7183,
      "##ja": 7184,
      "ndr": 7185,
      "hai": 7186,
      "akses": 7187,
      "urn": 7188,
      "elma": 7189,
      "ech": 7190,
      "sudan": 7191,
      "eydi": 7192,
      "cisim": 7193,
      "nlen": 7194,
      "mert": 7195,
      "kub": 7196,
      "usk": 7197,
      "eher": 7198,
      "ango": 7199,
      "etind": 7200,
      "ritm": 7201,
      "iola": 7202,
      "li̇r": 7203,
      "inko": 7204,
      "şunla": 7205,
      "frei": 7206,
      "psv": 7207,
      "dikiş": 7208,
      "gh": 7209,
      "iam": 7210,
      "pma": 7211,
      "sf": 7212,
      "sleri": 7213,
      "zmet": 7214,
      "şi̇": 7215,
      "##io": 7216,
      "##uf": 7217,
      "mala": 7218,
      "illo": 7219,
      "nıtı": 7220,
      "teç": 7221,
      "##olo": 7222,
      "kota": 7223,
      "lıp": 7224,
      "kader": 7225,
      "iynet": 7226,
      "eyza": 7227,
      "ırı": 7228,
      "muaz": 7229,
      "bom": 7230,
      "inip": 7231,
      "renci": 7232,
      "ispat": 7233,
      "rdon": 7234,
      "rang": 7235,
      "##i̇t": 7236,
      "alife": 7237,
      "vaa": 7238,
      "traf": 7239,
      "trab": 7240,
      "link": 7241,
      "linde": 7242,
      "arlos": 7243,
      "con": 7244,
      "egan": 7245,
      "gsy": 7246,
      "zk": 7247,
      "##pil": 7248,
      "##ana": 7249,
      "arba": 7250,
      "arni": 7251,
      "eryat": 7252,
      "mele": 7253,
      "ileme": 7254,
      "ekos": 7255,
      "dola": 7256,
      "eman": 7257,
      "yanus": 7258,
      "okt": 7259,
      "road": 7260,
      "##gua": 7261,
      "##i̇h": 7262,
      "ansür": 7263,
      "şöhre": 7264,
      "ick": 7265,
      "vasi": 7266,
      "valid": 7267,
      "maske": 7268,
      "gas": 7269,
      "hamb": 7270,
      "ped": 7271,
      "reddi": 7272,
      "jest": 7273,
      "nci̇": 7274,
      "ldığı": 7275,
      "(!": 7276,
      "bh": 7277,
      "gri": 7278,
      "hlak": 7279,
      "ji": 7280,
      "md": 7281,
      "nsız": 7282,
      "pik": 7283,
      "zyon": 7284,
      "##cc": 7285,
      "##20": 7286,
      "diğin": 7287,
      "nevi": 7288,
      "sid": 7289,
      "aylan": 7290,
      "onca": 7291,
      "nazi": 7292,
      "iren": 7293,
      "ims": 7294,
      "larım": 7295,
      "ünya": 7296,
      "toch": 7297,
      "emre": 7298,
      "ikos": 7299,
      "örün": 7300,
      "apte": 7301,
      "idar": 7302,
      "nemi": 7303,
      "cıb": 7304,
      "rume": 7305,
      "afı": 7306,
      "yout": 7307,
      "stedi": 7308,
      "estel": 7309,
      "atıf": 7310,
      "azibe": 7311,
      "ihay": 7312,
      "bmgk": 7313,
      "anes": 7314,
      "ouch": 7315,
      "rladı": 7316,
      "gamze": 7317,
      "tusk": 7318,
      "(!)": 7319,
      "hri": 7320,
      "iga": 7321,
      "kvad": 7322,
      "lel": 7323,
      "rdan": 7324,
      "rden": 7325,
      "tck": 7326,
      "zs": 7327,
      "öylü": 7328,
      "ığı": 7329,
      "##hur": 7330,
      "yama": 7331,
      "arem": 7332,
      "enli": 7333,
      "eri̇": 7334,
      "etih": 7335,
      "nafak": 7336,
      "karan": 7337,
      "geld": 7338,
      "rep": 7339,
      "elver": 7340,
      "aşka": 7341,
      "emper": 7342,
      "ikt": 7343,
      "makro": 7344,
      "##zai": 7345,
      "ado": 7346,
      "ader": 7347,
      "lub": 7348,
      "yordu": 7349,
      "iddi": 7350,
      "itha": 7351,
      "ipras": 7352,
      "102": 7353,
      "lukla": 7354,
      "sila": 7355,
      "dilen": 7356,
      "zanne": 7357,
      "reviz": 7358,
      "240": 7359,
      "voley": 7360,
      "aldun": 7361,
      "rince": 7362,
      "eyner": 7363,
      "mecra": 7364,
      "ğlama": 7365,
      "ipad": 7366,
      "mehme": 7367,
      "vaadi": 7368,
      "agi̇": 7369,
      "eut": 7370,
      "fında": 7371,
      "hme": 7372,
      "ldür": 7373,
      "muk": 7374,
      "nr": 7375,
      "oot": 7376,
      "pd": 7377,
      "sli": 7378,
      "tuş": 7379,
      "çil": 7380,
      "##op": 7381,
      "debil": 7382,
      "##dad": 7383,
      "atkı": 7384,
      "evfik": 7385,
      "rei": 7386,
      "bulm": 7387,
      "izim": 7388,
      "asy": 7389,
      "ahis": 7390,
      "merhu": 7391,
      "rdi̇": 7392,
      "kuaf": 7393,
      "hazal": 7394,
      "aleb": 7395,
      "kanç": 7396,
      "şimin": 7397,
      "ezan": 7398,
      "ikay": 7399,
      "remit": 7400,
      "gana": 7401,
      "keler": 7402,
      "lyar": 7403,
      "650": 7404,
      "mony": 7405,
      "uskon": 7406,
      "esta": 7407,
      "fyon": 7408,
      "gss": 7409,
      "iba": 7410,
      "msuz": 7411,
      "tf": 7412,
      "tran": 7413,
      "vi̇": 7414,
      "ylan": 7415,
      "üve": 7416,
      "##kur": 7417,
      "erfo": 7418,
      "neb": 7419,
      "i̇do": 7420,
      "medy": 7421,
      "abe": 7422,
      "ack": 7423,
      "imit": 7424,
      "amas": 7425,
      "ılda": 7426,
      "ellen": 7427,
      "aşim": 7428,
      "ride": 7429,
      "ırlık": 7430,
      "ürt": 7431,
      "ürih": 7432,
      "ihir": 7433,
      "uth": 7434,
      "edim": 7435,
      "soba": 7436,
      "hals": 7437,
      "omb": 7438,
      "tekno": 7439,
      "bid": 7440,
      "tone": 7441,
      "etic": 7442,
      "135": 7443,
      "abia": 7444,
      "ilano": 7445,
      "zami": 7446,
      "veri̇": 7447,
      "nişan": 7448,
      "rzu": 7449,
      "esinl": 7450,
      "550": 7451,
      "runo": 7452,
      "kbal": 7453,
      "zekâ": 7454,
      "efi": 7455,
      "llen": 7456,
      "nsan": 7457,
      "pus": 7458,
      "sül": 7459,
      "ylık": 7460,
      "âli": 7461,
      "şini": 7462,
      "ştu": 7463,
      "##rs": 7464,
      "yaza": 7465,
      "arnes": 7466,
      "oları": 7467,
      "meç": 7468,
      "abur": 7469,
      "istle": 7470,
      "geler": 7471,
      "koli": 7472,
      "ülbül": 7473,
      "amba": 7474,
      "##azi": 7475,
      "eyf": 7476,
      "eyiz": 7477,
      "avis": 7478,
      "mani": 7479,
      "osb": 7480,
      "rog": 7481,
      "zap": 7482,
      "ouse": 7483,
      "di̇sk": 7484,
      "enfur": 7485,
      "lunu": 7486,
      "zulmü": 7487,
      "cat": 7488,
      "hür": 7489,
      "ial": 7490,
      "tış": 7491,
      "vira": 7492,
      "zeki": 7493,
      "âh": 7494,
      "##̇h": 7495,
      "dat": 7496,
      "arara": 7497,
      "ardo": 7498,
      "olsu": 7499,
      "libi": 7500,
      "enlik": 7501,
      "##onk": 7502,
      "akir": 7503,
      "azarı": 7504,
      "tiyo": 7505,
      "toka": 7506,
      "lanıl": 7507,
      "emr": 7508,
      "esk": 7509,
      "eyse": 7510,
      "adel": 7511,
      "##gili": 7512,
      "mole": 7513,
      "bunda": 7514,
      "issan": 7515,
      "ishal": 7516,
      "loka": 7517,
      "rabb": 7518,
      "##yid": 7519,
      "115": 7520,
      "rduk": 7521,
      "ksin": 7522,
      "i̇ki̇": 7523,
      "üşme": 7524,
      "timi": 7525,
      "fonu": 7526,
      "kabus": 7527,
      "lakap": 7528,
      "iana": 7529,
      "amanı": 7530,
      "lavye": 7531,
      "i̇yi̇": 7532,
      "evhid": 7533,
      "4k": 7534,
      "dre": 7535,
      "lün": 7536,
      "lgili": 7537,
      "pc": 7538,
      "sri": 7539,
      "tç": 7540,
      "vra": 7541,
      "vlen": 7542,
      "çük": 7543,
      "##ph": 7544,
      "##ent": 7545,
      "inel": 7546,
      "dai": 7547,
      "alnı": 7548,
      "liki": 7549,
      "didim": 7550,
      "didik": 7551,
      "nev": 7552,
      "lasti": 7553,
      "evat": 7554,
      "kot": 7555,
      "doh": 7556,
      "izyo": 7557,
      "umhur": 7558,
      "##vay": 7559,
      "otaş": 7560,
      "stem": 7561,
      "israf": 7562,
      "rub": 7563,
      "mazer": 7564,
      "ifşa": 7565,
      "üccar": 7566,
      "atit": 7567,
      "enaj": 7568,
      "own": 7569,
      "lokal": 7570,
      "uhal": 7571,
      "çent": 7572,
      "frin": 7573,
      "emtia": 7574,
      "cska": 7575,
      "zkere": 7576,
      "bor": 7577,
      "blu": 7578,
      "dt": 7579,
      "hlas": 7580,
      "klem": 7581,
      "ll": 7582,
      "ool": 7583,
      "pya": 7584,
      "slam": 7585,
      "ubat": 7586,
      "von": 7587,
      "ıla": 7588,
      "ıkan": 7589,
      "##can": 7590,
      "##mal": 7591,
      "##of": 7592,
      "##ğiz": 7593,
      "##jk": 7594,
      "enti": 7595,
      "teve": 7596,
      "akli": 7597,
      "imen": 7598,
      "leve": 7599,
      "ilec": 7600,
      "rew": 7601,
      "sedan": 7602,
      "azi̇": 7603,
      "ecd": 7604,
      "önl": 7605,
      "aht": 7606,
      "eşvik": 7607,
      "maymu": 7608,
      "marş": 7609,
      "meti": 7610,
      "beşi̇": 7611,
      "ingle": 7612,
      "üpe": 7613,
      "##gas": 7614,
      "zikre": 7615,
      "mhrs": 7616,
      "akina": 7617,
      "ouble": 7618,
      "mbal": 7619,
      "berle": 7620,
      "zırh": 7621,
      "njonk": 7622,
      "egane": 7623,
      "likid": 7624,
      "duş": 7625,
      "rler": 7626,
      "tg": 7627,
      "uo": 7628,
      "yra": 7629,
      "şte": 7630,
      "##ob": 7631,
      "##ov": 7632,
      "##yl": 7633,
      "##şan": 7634,
      "incar": 7635,
      "mast": 7636,
      "masaj": 7637,
      "bura": 7638,
      "liv": 7639,
      "die": 7640,
      "neğ": 7641,
      "nic": 7642,
      "irol": 7643,
      "##ces": 7644,
      "taya": 7645,
      "amamı": 7646,
      "rej": 7647,
      "izd": 7648,
      "ecb": 7649,
      "lanl": 7650,
      "asak": 7651,
      "umru": 7652,
      "eylik": 7653,
      "bot": 7654,
      "üreç": 7655,
      "uto": 7656,
      "utb": 7657,
      "103": 7658,
      "##i̇b": 7659,
      "nsari": 7660,
      "nılma": 7661,
      "ıraç": 7662,
      "ıktı": 7663,
      "kred": 7664,
      "hamil": 7665,
      "üştü": 7666,
      "hua": 7667,
      "valiz": 7668,
      "nüfuz": 7669,
      "treet": 7670,
      "fitil": 7671,
      "frik": 7672,
      "ercih": 7673,
      "urnal": 7674,
      "cim": 7675,
      "fc": 7676,
      "fle": 7677,
      "lmak": 7678,
      "oji": 7679,
      "tları": 7680,
      "##son": 7681,
      "andi": 7682,
      "dab": 7683,
      "kabir": 7684,
      "lipo": 7685,
      "eth": 7686,
      "teye": 7687,
      "akto": 7688,
      "atb": 7689,
      "veril": 7690,
      "selam": 7691,
      "ılık": 7692,
      "toma": 7693,
      "tolik": 7694,
      "asma": 7695,
      "aslak": 7696,
      "eys": 7697,
      "mud": 7698,
      "ndent": 7699,
      "yakl": 7700,
      "örd": 7701,
      "##vas": 7702,
      "dirme": 7703,
      "eşt": 7704,
      "üreci": 7705,
      "mark": 7706,
      "anıy": 7707,
      "tüfe": 7708,
      "ruç": 7709,
      "küb": 7710,
      "afran": 7711,
      "epil": 7712,
      "acıy": 7713,
      "ıkın": 7714,
      "114": 7715,
      "kemot": 7716,
      "koçya": 7717,
      "gala": 7718,
      "kılıf": 7719,
      "üşra": 7720,
      "erap": 7721,
      "inson": 7722,
      "şakir": 7723,
      "eytan": 7724,
      "idans": 7725,
      "tevaz": 7726,
      "fasul": 7727,
      "norm": 7728,
      "ayfun": 7729,
      "aik": 7730,
      "g20": 7731,
      "jim": 7732,
      "lyo": 7733,
      "ocu": 7734,
      "rfa": 7735,
      "rnia": 7736,
      "tki": 7737,
      "zd": 7738,
      "zıt": 7739,
      "##ela": 7740,
      "##dye": 7741,
      "anımı": 7742,
      "ardar": 7743,
      "birli": 7744,
      "etül": 7745,
      "##lig": 7746,
      "yele": 7747,
      "nad": 7748,
      "hab": 7749,
      "ach": 7750,
      "arah": 7751,
      "araj": 7752,
      "urel": 7753,
      "aşımı": 7754,
      "##cas": 7755,
      "umd": 7756,
      "amk": 7757,
      "amsi": 7758,
      "##ros": 7759,
      "eyh": 7760,
      "luces": 7761,
      "oth": 7762,
      "inic": 7763,
      "apne": 7764,
      "idon": 7765,
      "ipül": 7766,
      "isca": 7767,
      "çed": 7768,
      "rot": 7769,
      "104": 7770,
      "i̇lgi̇": 7771,
      "ruy": 7772,
      "i̇şkur": 7773,
      "vago": 7774,
      "ezil": 7775,
      "şad": 7776,
      "kinli": 7777,
      "şanti": 7778,
      "190": 7779,
      "ling": 7780,
      "incan": 7781,
      "330": 7782,
      "sapla": 7783,
      "nasib": 7784,
      "nezar": 7785,
      "gsm": 7786,
      "meier": 7787,
      "aöf": 7788,
      "euts": 7789,
      "viraj": 7790,
      "huaw": 7791,
      "gn": 7792,
      "ml": 7793,
      "mw": 7794,
      "nna": 7795,
      "pin": 7796,
      "pta": 7797,
      "pleri": 7798,
      "yb": 7799,
      "ydan": 7800,
      "ân": 7801,
      "çam": 7802,
      "çta": 7803,
      "çik": 7804,
      "ıh": 7805,
      "şara": 7806,
      "##uc": 7807,
      "arfi": 7808,
      "olm": 7809,
      "maha": 7810,
      "liyat": 7811,
      "ilci": 7812,
      "meg": 7813,
      "edbir": 7814,
      "ndaj": 7815,
      "sıy": 7816,
      "laj": 7817,
      "atak": 7818,
      "##okal": 7819,
      "amac": 7820,
      "iles": 7821,
      "reşat": 7822,
      "##itu": 7823,
      "aşl": 7824,
      "emsa": 7825,
      "ikmal": 7826,
      "asum": 7827,
      "umun": 7828,
      "riğ": 7829,
      "eyy": 7830,
      "ürre": 7831,
      "addi": 7832,
      "cial": 7833,
      "apsa": 7834,
      "stra": 7835,
      "kıt": 7836,
      "utma": 7837,
      "roda": 7838,
      "rose": 7839,
      "fidye": 7840,
      "küp": 7841,
      "ünika": 7842,
      "şid": 7843,
      "116": 7844,
      "ukla": 7845,
      "ürüy": 7846,
      "odtü": 7847,
      "ordro": 7848,
      "tate": 7849,
      "tlas": 7850,
      "##si̇n": 7851,
      "zuela": 7852,
      "rson": 7853,
      "şefk": 7854,
      "850": 7855,
      "ahmin": 7856,
      "lng": 7857,
      "cnr": 7858,
      "ineko": 7859,
      "mkyk": 7860,
      "btk": 7861,
      "bs": 7862,
      "blig": 7863,
      "cg": 7864,
      "cah": 7865,
      "dw": 7866,
      "dp": 7867,
      "dj": 7868,
      "dra": 7869,
      "gm": 7870,
      "ius": 7871,
      "out": 7872,
      "tru": 7873,
      "ıkı": 7874,
      "şal": 7875,
      "##ct": 7876,
      "##ap": 7877,
      "##ins": 7878,
      "dede": 7879,
      "ndir": 7880,
      "arraf": 7881,
      "didem": 7882,
      "erz": 7883,
      "ernie": 7884,
      "erazi": 7885,
      "etra": 7886,
      "nail": 7887,
      "iret": 7888,
      "abip": 7889,
      "habe": 7890,
      "arap": 7891,
      "açka": 7892,
      "reha": 7893,
      "sez": 7894,
      "elva": 7895,
      "izan": 7896,
      "gio": 7897,
      "amla": 7898,
      "rig": 7899,
      "eyzi": 7900,
      "fast": 7901,
      "dediğ": 7902,
      "apla": 7903,
      "idd": 7904,
      "leni": 7905,
      "rıc": 7906,
      "ortum": 7907,
      "usla": 7908,
      "alid": 7909,
      "alifo": 7910,
      "rtun": 7911,
      "klim": 7912,
      "drar": 7913,
      "220": 7914,
      "270": 7915,
      "owa": 7916,
      "rhang": 7917,
      "iliği": 7918,
      "arco": 7919,
      "olfsb": 7920,
      "nezak": 7921,
      "cehen": 7922,
      "rexit": 7923,
      "gsyh": 7924,
      "vasip": 7925,
      "cha": 7926,
      "dız": 7927,
      "ilay": 7928,
      "igu": 7929,
      "kım": 7930,
      "mgk": 7931,
      "nle": 7932,
      "nsa": 7933,
      "nlam": 7934,
      "peri": 7935,
      "vokal": 7936,
      "şme": 7937,
      "##ûn": 7938,
      "##ane": 7939,
      "dei̇k": 7940,
      "yati": 7941,
      "aren": 7942,
      "arli": 7943,
      "vez": 7944,
      "enva": 7945,
      "errak": 7946,
      "unk": 7947,
      "i̇li̇": 7948,
      "sava": 7949,
      "tava": 7950,
      "oroz": 7951,
      "geli̇": 7952,
      "ulti": 7953,
      "koz": 7954,
      "els": 7955,
      "iyon": 7956,
      "öze": 7957,
      "##ci̇": 7958,
      "geni": 7959,
      "ürl": 7960,
      "ürdü": 7961,
      "mayd": 7962,
      "##nez": 7963,
      "feth": 7964,
      "eli̇": 7965,
      "##i̇l": 7966,
      "rugua": 7967,
      "155": 7968,
      "arıt": 7969,
      "ümer": 7970,
      "rakı": 7971,
      "ifat": 7972,
      "şahsı": 7973,
      "guez": 7974,
      "zama": 7975,
      "rağb": 7976,
      "dild": 7977,
      "atio": 7978,
      "tesla": 7979,
      "niko": 7980,
      "elenk": 7981,
      "ütl": 7982,
      "levha": 7983,
      "azab": 7984,
      "ezai": 7985,
      "arfüm": 7986,
      "oussa": 7987,
      "kubbe": 7988,
      "bg": 7989,
      "bk": 7990,
      "balı": 7991,
      "cit": 7992,
      "fs": 7993,
      "hina": 7994,
      "iet": 7995,
      "lta": 7996,
      "lly": 7997,
      "poke": 7998,
      "rra": 7999,
      "vam": 8000,
      "vip": 8001,
      "##ise": 8002,
      "##pt": 8003,
      "##any": 8004,
      "ardi": 8005,
      "oler": 8006,
      "kadim": 8007,
      "diya": 8008,
      "etva": 8009,
      "aylo": 8010,
      "mest": 8011,
      "edri": 8012,
      "irya": 8013,
      "hama": 8014,
      "akil": 8015,
      "laca": 8016,
      "atun": 8017,
      "rai": 8018,
      "eken": 8019,
      "açi": 8020,
      "açta": 8021,
      "bach": 8022,
      "doye": 8023,
      "elâ": 8024,
      "gede": 8025,
      "sue": 8026,
      "önt": 8027,
      "amda": 8028,
      "rian": 8029,
      "tanap": 8030,
      "ahşi": 8031,
      "ahec": 8032,
      "mic": 8033,
      "##eraf": 8034,
      "eşir": 8035,
      "itel": 8036,
      "lüp": 8037,
      "iple": 8038,
      "kenya": 8039,
      "oper": 8040,
      "metle": 8041,
      "edes": 8042,
      "usse": 8043,
      "mezh": 8044,
      "ümün": 8045,
      "iftar": 8046,
      "üpür": 8047,
      "zaval": 8048,
      "rımı": 8049,
      "endil": 8050,
      "rner": 8051,
      "linke": 8052,
      "##cks": 8053,
      "mpany": 8054,
      "280": 8055,
      "ridge": 8056,
      "bmw": 8057,
      "eynin": 8058,
      "mirza": 8059,
      "icab": 8060,
      "imay": 8061,
      "dona": 8062,
      "müna": 8063,
      "rtivo": 8064,
      "yildi": 8065,
      "nefis": 8066,
      "zulme": 8067,
      "rkiye": 8068,
      "pıh": 8069,
      "aki̇ka": 8070,
      "kübra": 8071,
      "cca": 8072,
      "cus": 8073,
      "hla": 8074,
      "jak": 8075,
      "jon": 8076,
      "loğ": 8077,
      "pm": 8078,
      "rli̇": 8079,
      "xp": 8080,
      "ym": 8081,
      "ylo": 8082,
      "ğil": 8083,
      "ırada": 8084,
      "##ie": 8085,
      "anına": 8086,
      "insa": 8087,
      "##ora": 8088,
      "ariz": 8089,
      "alak": 8090,
      "eril": 8091,
      "erun": 8092,
      "erem": 8093,
      "aybe": 8094,
      "uni": 8095,
      "yapti": 8096,
      "iril": 8097,
      "atra": 8098,
      "doz": 8099,
      "ello": 8100,
      "aşba": 8101,
      "eyran": 8102,
      "avşan": 8103,
      "aham": 8104,
      "ağına": 8105,
      "ağını": 8106,
      "keb": 8107,
      "##bap": 8108,
      "bed": 8109,
      "ihya": 8110,
      "apur": 8111,
      "seve": 8112,
      "isse": 8113,
      "ranan": 8114,
      "ahad": 8115,
      "reko": 8116,
      "rüs": 8117,
      "kli̇": 8118,
      "farz": 8119,
      "eze": 8120,
      "113": 8121,
      "ferdi": 8122,
      "eğri": 8123,
      "301": 8124,
      "zerre": 8125,
      "üşen": 8126,
      "üşün": 8127,
      "kted": 8128,
      "ilas": 8129,
      "zgâh": 8130,
      "keyf": 8131,
      "ersey": 8132,
      "zenle": 8133,
      "runda": 8134,
      "hiza": 8135,
      "üğünü": 8136,
      "mukav": 8137,
      "faşi": 8138,
      "meçhu": 8139,
      "dabık": 8140,
      "jer": 8141,
      "ocuk": 8142,
      "psa": 8143,
      "pit": 8144,
      "plum": 8145,
      "rini": 8146,
      "sare": 8147,
      "tya": 8148,
      "trol": 8149,
      "wen": 8150,
      "##ri̇": 8151,
      "##bus": 8152,
      "alf": 8153,
      "ense": 8154,
      "abat": 8155,
      "orla": 8156,
      "oros": 8157,
      "dena": 8158,
      "kobe": 8159,
      "reed": 8160,
      "tanda": 8161,
      "pody": 8162,
      "ürat": 8163,
      "##bay": 8164,
      "luet": 8165,
      "bele": 8166,
      "okta": 8167,
      "##hua": 8168,
      "i̇sti̇": 8169,
      "eliha": 8170,
      "alez": 8171,
      "resul": 8172,
      "usb": 8173,
      "kora": 8174,
      "raft": 8175,
      "eğim": 8176,
      "rton": 8177,
      "icik": 8178,
      "ezo": 8179,
      "amayı": 8180,
      "uphi": 8181,
      "182": 8182,
      "mpole": 8183,
      "agnez": 8184,
      "them": 8185,
      "ffet": 8186,
      "loko": 8187,
      "eşitl": 8188,
      "ouis": 8189,
      "i̇to": 8190,
      "aidi": 8191,
      "ions": 8192,
      "ennif": 8193,
      "i̇yar": 8194,
      "ceği̇": 8195,
      "lmalı": 8196,
      "ael": 8197,
      "bın": 8198,
      "fb": 8199,
      "gem": 8200,
      "gdan": 8201,
      "myan": 8202,
      "rr": 8203,
      "tlan": 8204,
      "tsız": 8205,
      "uha": 8206,
      "ymes": 8207,
      "çler": 8208,
      "çlan": 8209,
      "şeraf": 8210,
      "##fü": 8211,
      "##gar": 8212,
      "anaş": 8213,
      "arh": 8214,
      "arbi": 8215,
      "lid": 8216,
      "dig": 8217,
      "dimi": 8218,
      "ilki": 8219,
      "ilva": 8220,
      "erle": 8221,
      "etve": 8222,
      "unar": 8223,
      "onna": 8224,
      "nağ": 8225,
      "sıca": 8226,
      "irl": 8227,
      "hası": 8228,
      "aksı": 8229,
      "akut": 8230,
      "labil": 8231,
      "ilel": 8232,
      "üntü": 8233,
      "raha": 8234,
      "rafa": 8235,
      "bac": 8236,
      "söyl": 8237,
      "tock": 8238,
      "landi": 8239,
      "riay": 8240,
      "eyyid": 8241,
      "durm": 8242,
      "ahya": 8243,
      "mite": 8244,
      "lucas": 8245,
      "şehi̇r": 8246,
      "ükmü": 8247,
      "apım": 8248,
      "rome": 8249,
      "ediy": 8250,
      "metan": 8251,
      "cağiz": 8252,
      "##şaf": 8253,
      "oyunc": 8254,
      "zag": 8255,
      "tıkl": 8256,
      "rmann": 8257,
      "misal": 8258,
      "gap": 8259,
      "rass": 8260,
      "nano": 8261,
      "suri̇": 8262,
      "rami": 8263,
      "iğre": 8264,
      "jes": 8265,
      "bolc": 8266,
      "##bi̇s": 8267,
      "ovac": 8268,
      "ogher": 8269,
      "mbel": 8270,
      "rgun": 8271,
      "weet": 8272,
      "ulaf": 8273,
      "ebay": 8274,
      "sdg": 8275,
      "houhe": 8276,
      "aidiy": 8277,
      "06": 8278,
      "a2": 8279,
      "bjk": 8280,
      "cal": 8281,
      "eur": 8282,
      "lgo": 8283,
      "mme": 8284,
      "rşi": 8285,
      "ssi": 8286,
      "tn": 8287,
      "way": 8288,
      "zları": 8289,
      "##gir": 8290,
      "##ac": 8291,
      "##âne": 8292,
      "anlan": 8293,
      "##ore": 8294,
      "arşaf": 8295,
      "olvo": 8296,
      "liya": 8297,
      "erhan": 8298,
      "naf": 8299,
      "ird": 8300,
      "sale": 8301,
      "akki": 8302,
      "akos": 8303,
      "lee": 8304,
      "aras": 8305,
      "rea": 8306,
      "ılığı": 8307,
      "azhar": 8308,
      "aşi": 8309,
      "ikon": 8310,
      "bilg": 8311,
      "avva": 8312,
      "ahip": 8313,
      "bomb": 8314,
      "adin": 8315,
      "bedaş": 8316,
      "malul": 8317,
      "eki̇": 8318,
      "eşer": 8319,
      "nunda": 8320,
      "eçer": 8321,
      "kıp": 8322,
      "105": 8323,
      "cad": 8324,
      "otob": 8325,
      "derle": 8326,
      "icat": 8327,
      "epki": 8328,
      "ezik": 8329,
      "cola": 8330,
      "revi": 8331,
      "nane": 8332,
      "qua": 8333,
      "vesel": 8334,
      "lakab": 8335,
      "avai": 8336,
      "ketin": 8337,
      "ındığ": 8338,
      "errin": 8339,
      "idane": 8340,
      "ukas": 8341,
      "ustin": 8342,
      "yten": 8343,
      "klin": 8344,
      "leler": 8345,
      "01": 8346,
      "fem": 8347,
      "lür": 8348,
      "lmu": 8349,
      "mca": 8350,
      "tm": 8351,
      "usi": 8352,
      "ute": 8353,
      "uge": 8354,
      "vran": 8355,
      "wal": 8356,
      "xim": 8357,
      "yün": 8358,
      "zc": 8359,
      "zarı": 8360,
      "ğlan": 8361,
      "ğuz": 8362,
      "##ron": 8363,
      "##bs": 8364,
      "##çay": 8365,
      "##ant": 8366,
      "aron": 8367,
      "olle": 8368,
      "oldo": 8369,
      "max": 8370,
      "alik": 8371,
      "lix": 8372,
      "life": 8373,
      "erba": 8374,
      "erpil": 8375,
      "onde": 8376,
      "lağ": 8377,
      "amaya": 8378,
      "bale": 8379,
      "back": 8380,
      "azil": 8381,
      "izbo": 8382,
      "önüm": 8383,
      "##bic": 8384,
      "eyan": 8385,
      "ırmak": 8386,
      "mih": 8387,
      "luç": 8388,
      "luy": 8389,
      "mans": 8390,
      "ihal": 8391,
      "iter": 8392,
      "kapi": 8393,
      "ipim": 8394,
      "iyazi": 8395,
      "107": 8396,
      "rubi": 8397,
      "usya": 8398,
      "verdi̇": 8399,
      "afha": 8400,
      "hatt": 8401,
      "üslü": 8402,
      "mazot": 8403,
      "taht": 8404,
      "i̇şe": 8405,
      "klişe": 8406,
      "vaha": 8407,
      "vaaz": 8408,
      "128": 8409,
      "nakdi": 8410,
      "ibra": 8411,
      "now": 8412,
      "erton": 8413,
      "şenko": 8414,
      "ovp": 8415,
      "rina": 8416,
      "260": 8417,
      "owl": 8418,
      "lmeye": 8419,
      "oray": 8420,
      "li̇ra": 8421,
      "ramaz": 8422,
      "matb": 8423,
      "more": 8424,
      "ydin": 8425,
      "ği̇ti̇": 8426,
      "arçın": 8427,
      "llega": 8428,
      "anju": 8429,
      "ferah": 8430,
      "gasus": 8431,
      "rşiv": 8432,
      "3g": 8433,
      "5g": 8434,
      "6s": 8435,
      "aari": 8436,
      "bl": 8437,
      "dc": 8438,
      "tüt": 8439,
      "uaz": 8440,
      "##uh": 8441,
      "##xi": 8442,
      "angu": 8443,
      "ani̇": 8444,
      "antim": 8445,
      "insk": 8446,
      "damat": 8447,
      "ilve": 8448,
      "erj": 8449,
      "erna": 8450,
      "sisi": 8451,
      "ayg": 8452,
      "nado": 8453,
      "ning": 8454,
      "sala": 8455,
      "akçay": 8456,
      "tada": 8457,
      "imda": 8458,
      "imül": 8459,
      "orre": 8460,
      "rade": 8461,
      "açin": 8462,
      "seba": 8463,
      "aştır": 8464,
      "üzit": 8465,
      "rix": 8466,
      "ırlan": 8467,
      "ağli": 8468,
      "ürşat": 8469,
      "ntin": 8470,
      "utnik": 8471,
      "yetle": 8472,
      "101": 8473,
      "afari": 8474,
      "perd": 8475,
      "tilki": 8476,
      "çığ": 8477,
      "antos": 8478,
      "tıkır": 8479,
      "nmeye": 8480,
      "andar": 8481,
      "165": 8482,
      "nos": 8483,
      "ksp": 8484,
      "vida": 8485,
      "pato": 8486,
      "230": 8487,
      "320": 8488,
      "zenf": 8489,
      "şkani": 8490,
      "di̇n": 8491,
      "mond": 8492,
      "lahom": 8493,
      "lpg": 8494,
      "ryant": 8495,
      "hipo": 8496,
      "insaf": 8497,
      "09": 8498,
      "boko": 8499,
      "col": 8500,
      "celi": 8501,
      "dh": 8502,
      "dor": 8503,
      "jüp": 8504,
      "lyoz": 8505,
      "mg": 8506,
      "mları": 8507,
      "uer": 8508,
      "ûre": 8509,
      "ğsü": 8510,
      "##ou": 8511,
      "##ola": 8512,
      "##hut": 8513,
      "##pp": 8514,
      "##iny": 8515,
      "als": 8516,
      "ali̇": 8517,
      "ilb": 8518,
      "etre": 8519,
      "ettah": 8520,
      "göl": 8521,
      "unde": 8522,
      "i̇ya": 8523,
      "nac": 8524,
      "last": 8525,
      "##rao": 8526,
      "##rag": 8527,
      "acer": 8528,
      "isten": 8529,
      "radı": 8530,
      "rady": 8531,
      "ulya": 8532,
      "##itz": 8533,
      "elbet": 8534,
      "ecik": 8535,
      "lanse": 8536,
      "aşer": 8537,
      "terya": 8538,
      "iks": 8539,
      "ikro": 8540,
      "riyo": 8541,
      "ried": 8542,
      "eyik": 8543,
      "pos": 8544,
      "##bao": 8545,
      "idyat": 8546,
      "idrak": 8547,
      "mozai": 8548,
      "renc": 8549,
      "tekli": 8550,
      "alad": 8551,
      "106": 8552,
      "hans": 8553,
      "hew": 8554,
      "çıvan": 8555,
      "i̇şi": 8556,
      "ngaj": 8557,
      "iflis": 8558,
      "ezar": 8559,
      "mino": 8560,
      "şacak": 8561,
      "eğini": 8562,
      "arışı": 8563,
      "185": 8564,
      "ibet": 8565,
      "arebe": 8566,
      "rino": 8567,
      "poro": 8568,
      "iii": 8569,
      "medet": 8570,
      "jac": 8571,
      "inkâr": 8572,
      "ördüğ": 8573,
      "ahver": 8574,
      "ercan": 8575,
      "ebap": 8576,
      "dınla": 8577,
      "tefan": 8578,
      "mukab": 8579,
      "eyyar": 8580,
      "cahit": 8581,
      "arlie": 8582,
      "aarif": 8583,
      "eiro": 8584,
      "fly": 8585,
      "gt": 8586,
      "hum": 8587,
      "ibol": 8588,
      "kw": 8589,
      "mran": 8590,
      "nya": 8591,
      "nlay": 8592,
      "ox": 8593,
      "sle": 8594,
      "sca": 8595,
      "slo": 8596,
      "uil": 8597,
      "wik": 8598,
      "zur": 8599,
      "âl": 8600,
      "üçe": 8601,
      "ıc": 8602,
      "##fan": 8603,
      "##hir": 8604,
      "##hiş": 8605,
      "##wi": 8606,
      "ancar": 8607,
      "arris": 8608,
      "ari̇h": 8609,
      "aliz": 8610,
      "eriz": 8611,
      "ermiş": 8612,
      "nedar": 8613,
      "i̇f": 8614,
      "i̇tü": 8615,
      "atvan": 8616,
      "imb": 8617,
      "iley": 8618,
      "rema": 8619,
      "reya": 8620,
      "emer": 8621,
      "emsi": 8622,
      "yera": 8623,
      "ikk": 8624,
      "yanın": 8625,
      "şev": 8626,
      "vari": 8627,
      "tani": 8628,
      "sorul": 8629,
      "paro": 8630,
      "parl": 8631,
      "apec": 8632,
      "mobe": 8633,
      "eçi̇": 8634,
      "stle": 8635,
      "renle": 8636,
      "ntv": 8637,
      "elike": 8638,
      "yeti": 8639,
      "heves": 8640,
      "ehi": 8641,
      "ışan": 8642,
      "ümb": 8643,
      "ümen": 8644,
      "üminy": 8645,
      "pide": 8646,
      "rtod": 8647,
      "onuc": 8648,
      "tras": 8649,
      "145": 8650,
      "zana": 8651,
      "oval": 8652,
      "lamba": 8653,
      "215": 8654,
      "210": 8655,
      "225": 8656,
      "ieb": 8657,
      "hugo": 8658,
      "lmedi": 8659,
      "365": 8660,
      "entez": 8661,
      "ti̇k": 8662,
      "ti̇b": 8663,
      "inkar": 8664,
      "urica": 8665,
      "otaj": 8666,
      "ydg": 8667,
      "ai̇le": 8668,
      "megav": 8669,
      "##hou": 8670,
      "hila": 8671,
      "rtis": 8672,
      "uang": 8673,
      "ipote": 8674,
      "ilyar": 8675,
      "rookl": 8676,
      "ixon": 8677,
      "piker": 8678,
      "pdrag": 8679,
      "bkm": 8680,
      "öntem": 8681,
      "rubio": 8682,
      "b1": 8683,
      "g5": 8684,
      "gyo": 8685,
      "gna": 8686,
      "gâh": 8687,
      "hile": 8688,
      "hsb": 8689,
      "lmam": 8690,
      "mul": 8691,
      "oen": 8692,
      "pur": 8693,
      "rh": 8694,
      "rok": 8695,
      "rön": 8696,
      "sha": 8697,
      "syan": 8698,
      "yri": 8699,
      "zb": 8700,
      "zda": 8701,
      "çla": 8702,
      "##ux": 8703,
      "##vat": 8704,
      "##şin": 8705,
      "##şır": 8706,
      "arr": 8707,
      "arol": 8708,
      "arip": 8709,
      "ınc": 8710,
      "kabe": 8711,
      "live": 8712,
      "liter": 8713,
      "ilbao": 8714,
      "ersi̇n": 8715,
      "ettür": 8716,
      "ung": 8717,
      "nid": 8718,
      "iron": 8719,
      "able": 8720,
      "laat": 8721,
      "lahan": 8722,
      "imm": 8723,
      "lej": 8724,
      "istri": 8725,
      "urna": 8726,
      "evcu": 8727,
      "elda": 8728,
      "terem": 8729,
      "##bih": 8730,
      "ikmen": 8731,
      "öza": 8732,
      "asvir": 8733,
      "rivay": 8734,
      "esur": 8735,
      "eyne": 8736,
      "eyid": 8737,
      "ırç": 8738,
      "miyo": 8739,
      "tird": 8740,
      "bev": 8741,
      "##ney": 8742,
      "app": 8743,
      "lüğün": 8744,
      "opra": 8745,
      "neml": 8746,
      "iyale": 8747,
      "roin": 8748,
      "alaz": 8749,
      "kupo": 8750,
      "orth": 8751,
      "nko": 8752,
      "afet": 8753,
      "mezra": 8754,
      "tili": 8755,
      "nüs": 8756,
      "sof": 8757,
      "eski̇": 8758,
      "güçl": 8759,
      "ormo": 8760,
      "önes": 8761,
      "ezire": 8762,
      "111": 8763,
      "rımız": 8764,
      "zary": 8765,
      "ledik": 8766,
      "136": 8767,
      "şanz": 8768,
      "175": 8769,
      "241": 8770,
      "serie": 8771,
      "slüm": 8772,
      "ego": 8773,
      "klas": 8774,
      "290": 8775,
      "shi": 8776,
      "arpuz": 8777,
      "dunf": 8778,
      "tmesi": 8779,
      "weuke": 8780,
      "tkil": 8781,
      "work": 8782,
      "tockh": 8783,
      "hsbc": 8784,
      "oense": 8785,
      "aun": 8786,
      "age": 8787,
      "csu": 8788,
      "eir": 8789,
      "fos": 8790,
      "hro": 8791,
      "jel": 8792,
      "jun": 8793,
      "klo": 8794,
      "mira": 8795,
      "nâ": 8796,
      "nsı": 8797,
      "nör": 8798,
      "rch": 8799,
      "saka": 8800,
      "smer": 8801,
      "tine": 8802,
      "ual": 8803,
      "vw": 8804,
      "vol": 8805,
      "vay": 8806,
      "wo": 8807,
      "zi̇": 8808,
      "zhou": 8809,
      "öh": 8810,
      "üma": 8811,
      "şmiş": 8812,
      "##dd": 8813,
      "##ger": 8814,
      "##gge": 8815,
      "##nat": 8816,
      "##het": 8817,
      "##hat": 8818,
      "##vd": 8819,
      "##we": 8820,
      "##pro": 8821,
      "##ino": 8822,
      "##ila": 8823,
      "anga": 8824,
      "inar": 8825,
      "arhan": 8826,
      "olak": 8827,
      "etd": 8828,
      "neşet": 8829,
      "##sih": 8830,
      "teven": 8831,
      "abya": 8832,
      "akdi": 8833,
      "##umb": 8834,
      "##sab": 8835,
      "sina": 8836,
      "eldi̇": 8837,
      "ecde": 8838,
      "tof": 8839,
      "terd": 8840,
      "tıs": 8841,
      "eml": 8842,
      "amos": 8843,
      "elep": 8844,
      "kona": 8845,
      "ırla": 8846,
      "ırma": 8847,
      "keder": 8848,
      "üral": 8849,
      "ürlü": 8850,
      "sald": 8851,
      "ayri": 8852,
      "rili": 8853,
      "ips": 8854,
      "ipuc": 8855,
      "adab": 8856,
      "kenne": 8857,
      "kıta": 8858,
      "opel": 8859,
      "eliğ": 8860,
      "elipe": 8861,
      "cac": 8862,
      "ruj": 8863,
      "ruise": 8864,
      "152": 8865,
      "zid": 8866,
      "ümr": 8867,
      "rafo": 8868,
      "ayınl": 8869,
      "rtiz": 8870,
      "halin": 8871,
      "vadi": 8872,
      "yoz": 8873,
      "yoga": 8874,
      "117": 8875,
      "eğin": 8876,
      "lamb": 8877,
      "zıp": 8878,
      "ezid": 8879,
      "iğin": 8880,
      "jason": 8881,
      "kabül": 8882,
      "edaş": 8883,
      "hpv": 8884,
      "şükre": 8885,
      "ömer": 8886,
      "ekai": 8887,
      "ntezi": 8888,
      "orsch": 8889,
      "kokt": 8890,
      "i̇hra": 8891,
      "oung": 8892,
      "juan": 8893,
      "oulma": 8894,
      "rreal": 8895,
      "etraj": 8896,
      "gdano": 8897,
      "..": 8898,
      "4a": 8899,
      "aği": 8900,
      "aim": 8901,
      "cini": 8902,
      "dul": 8903,
      "gon": 8904,
      "hö": 8905,
      "hçe": 8906,
      "hus": 8907,
      "küt": 8908,
      "nka": 8909,
      "rlik": 8910,
      "slen": 8911,
      "sch": 8912,
      "ubil": 8913,
      "win": 8914,
      "ylar": 8915,
      "çlü": 8916,
      "üca": 8917,
      "üşe": 8918,
      "şat": 8919,
      "##ev": 8920,
      "##ale": 8921,
      "##ors": 8922,
      "arren": 8923,
      "arına": 8924,
      "bud": 8925,
      "alg": 8926,
      "kase": 8927,
      "kamaş": 8928,
      "kadaş": 8929,
      "eno": 8930,
      "eram": 8931,
      "sist": 8932,
      "ayip": 8933,
      "unvan": 8934,
      "yey": 8935,
      "irne": 8936,
      "vere": 8937,
      "rest": 8938,
      "elvi": 8939,
      "izer": 8940,
      "tiy": 8941,
      "aşv": 8942,
      "aşit": 8943,
      "yang": 8944,
      "asri": 8945,
      "umus": 8946,
      "yarb": 8947,
      "cez": 8948,
      "posa": 8949,
      "ağri": 8950,
      "fahiş": 8951,
      "okr": 8952,
      "nuna": 8953,
      "takil": 8954,
      "apşır": 8955,
      "teni": 8956,
      "mens": 8957,
      "sevi": 8958,
      "lene": 8959,
      "ipi": 8960,
      "ipek": 8961,
      "çehre": 8962,
      "mare": 8963,
      "iyatı": 8964,
      "merun": 8965,
      "loo": 8966,
      "fidel": 8967,
      "silya": 8968,
      "sell": 8969,
      "heim": 8970,
      "atas": 8971,
      "çıt": 8972,
      "rtti": 8973,
      "feder": 8974,
      "fesih": 8975,
      "miks": 8976,
      "kilid": 8977,
      "ğind": 8978,
      "uklar": 8979,
      "latt": 8980,
      "gart": 8981,
      "burj": 8982,
      "erso": 8983,
      "149": 8984,
      "tten": 8985,
      "cidd": 8986,
      "187": 8987,
      "184": 8988,
      "ibret": 8989,
      "ebru": 8990,
      "nohut": 8991,
      "şıma": 8992,
      "efik": 8993,
      "hdr": 8994,
      "peare": 8995,
      "lash": 8996,
      "lassa": 8997,
      "remen": 8998,
      "ies": 8999,
      "ieg": 9000,
      "ebep": 9001,
      "eynır": 9002,
      "tbf": 9003,
      "naylo": 9004,
      "qual": 9005,
      "aas": 9006,
      "rsey": 9007,
      "semer": 9008,
      "icas": 9009,
      "püf": 9010,
      "gani": 9011,
      "ki̇m": 9012,
      "rlama": 9013,
      "elly": 9014,
      "gbt": 9015,
      "htapo": 9016,
      "olek": 9017,
      "agic": 9018,
      "aev": 9019,
      "fdt": 9020,
      "antez": 9021,
      "nsanı": 9022,
      "blue": 9023,
      "azi̇a": 9024,
      "unkt": 9025,
      "ği̇ti̇m": 9026,
      "07": 9027,
      "cir": 9028,
      "eal": 9029,
      "fur": 9030,
      "fro": 9031,
      "ftar": 9032,
      "fşin": 9033,
      "gˆ": 9034,
      "kş": 9035,
      "kya": 9036,
      "rlı": 9037,
      "rçe": 9038,
      "spit": 9039,
      "tkı": 9040,
      "yke": 9041,
      "zleş": 9042,
      "ğar": 9043,
      "##cal": 9044,
      "##ubi": 9045,
      "##bal": 9046,
      "##ât": 9047,
      "anmak": 9048,
      "anpo": 9049,
      "ndis": 9050,
      "##maz": 9051,
      "olt": 9052,
      "mamı": 9053,
      "albay": 9054,
      "erum": 9055,
      "erdan": 9056,
      "eten": 9057,
      "unt": 9058,
      "onat": 9059,
      "naim": 9060,
      "nica": 9061,
      "irpo": 9062,
      "hae": 9063,
      "lao": 9064,
      "acik": 9065,
      "koda": 9066,
      "reat": 9067,
      "repo": 9068,
      "##ito": 9069,
      "lıkl": 9070,
      "kalbe": 9071,
      "giye": 9072,
      "assa": 9073,
      "avc": 9074,
      "avuz": 9075,
      "ahn": 9076,
      "laşı": 9077,
      "ürm": 9078,
      "bedi": 9079,
      "artu": 9080,
      "şehi̇t": 9081,
      "fethi": 9082,
      "cans": 9083,
      "alas": 9084,
      "lot": 9085,
      "cafe": 9086,
      "fiba": 9087,
      "ınai": 9088,
      "kand": 9089,
      "heck": 9090,
      "ehdit": 9091,
      "ulaşa": 9092,
      "arkot": 9093,
      "afiz": 9094,
      "afra": 9095,
      "sody": 9096,
      "pivo": 9097,
      "üsran": 9098,
      "rekke": 9099,
      "bilek": 9100,
      "şahsa": 9101,
      "farc": 9102,
      "ayac": 9103,
      "steo": 9104,
      "fire": 9105,
      "iraç": 9106,
      "rnea": 9107,
      "142": 9108,
      "cover": 9109,
      "138": 9110,
      "joa": 9111,
      "188": 9112,
      "leyna": 9113,
      "abib": 9114,
      "üyü": 9115,
      "ofis": 9116,
      "mito": 9117,
      "egüm": 9118,
      "şoka": 9119,
      "367": 9120,
      "orais": 9121,
      "hire": 9122,
      "övbe": 9123,
      "kontr": 9124,
      "şeren": 9125,
      "nbc": 9126,
      "ours": 9127,
      "teyen": 9128,
      "ahriş": 9129,
      "i̇rke": 9130,
      "zof": 9131,
      "911": 9132,
      "ıvıl": 9133,
      "ived": 9134,
      "eyhun": 9135,
      "peria": 9136,
      "mestr": 9137,
      "micro": 9138,
      "rritu": 9139,
      "scape": 9140,
      "rönt": 9141,
      "ücade": 9142,
      "dıl": 9143,
      "ean": 9144,
      "fri": 9145,
      "kh": 9146,
      "kber": 9147,
      "mya": 9148,
      "nke": 9149,
      "pure": 9150,
      "rış": 9151,
      "rizm": 9152,
      "çları": 9153,
      "çip": 9154,
      "ıvad": 9155,
      "şor": 9156,
      "##bro": 9157,
      "dej": 9158,
      "deği̇": 9159,
      "aniz": 9160,
      "anno": 9161,
      "inn": 9162,
      "insta": 9163,
      "dala": 9164,
      "arim": 9165,
      "olk": 9166,
      "bub": 9167,
      "alli": 9168,
      "lia": 9169,
      "liy": 9170,
      "lide": 9171,
      "like": 9172,
      "dime": 9173,
      "ils": 9174,
      "irfan": 9175,
      "##dus": 9176,
      "akrao": 9177,
      "lava": 9178,
      "acca": 9179,
      "lede": 9180,
      "leceğ": 9181,
      "orak": 9182,
      "iled": 9183,
      "raul": 9184,
      "rauf": 9185,
      "vers": 9186,
      "işik": 9187,
      "elil": 9188,
      "elta": 9189,
      "izip": 9190,
      "##lus": 9191,
      "rien": 9192,
      "rivan": 9193,
      "eset": 9194,
      "eygir": 9195,
      "ırka": 9196,
      "ineğ": 9197,
      "örül": 9198,
      "fair": 9199,
      "luiz": 9200,
      "soro": 9201,
      "arto": 9202,
      "turk": 9203,
      "menşe": 9204,
      "star": 9205,
      "ntar": 9206,
      "108": 9207,
      "öğre": 9208,
      "kubic": 9209,
      "cıv": 9210,
      "i̇lle": 9211,
      "##i̇p": 9212,
      "seli": 9213,
      "158": 9214,
      "heba": 9215,
      "rten": 9216,
      "hift": 9217,
      "129": 9218,
      "ezber": 9219,
      "aric": 9220,
      "141": 9221,
      "com": 9222,
      "132": 9223,
      "rbes": 9224,
      "klara": 9225,
      "via": 9226,
      "spk": 9227,
      "endi̇": 9228,
      "küloz": 9229,
      "nlari": 9230,
      "hud": 9231,
      "ütfü": 9232,
      "bessü": 9233,
      "kâbus": 9234,
      "thors": 9235,
      "ohio": 9236,
      "encil": 9237,
      "flash": 9238,
      "mdat": 9239,
      "rpg": 9240,
      "##lâk": 9241,
      "each": 9242,
      "zence": 9243,
      "ıçra": 9244,
      "ğladı": 9245,
      "hâl": 9246,
      "psm": 9247,
      "auck": 9248,
      "desin": 9249,
      "reyf": 9250,
      "kyk": 9251,
      "##ti̇b": 9252,
      "ierre": 9253,
      "720": 9254,
      "gates": 9255,
      "nazik": 9256,
      "edikl": 9257,
      "arino": 9258,
      "i̇hh": 9259,
      "nomik": 9260,
      "eröri̇": 9261,
      "agi̇t": 9262,
      "ooth": 9263,
      "rtune": 9264,
      "ais": 9265,
      "aolo": 9266,
      "eer": 9267,
      "hin": 9268,
      "hi̇": 9269,
      "jam": 9270,
      "mol": 9271,
      "mri": 9272,
      "np": 9273,
      "nli̇k": 9274,
      "piş": 9275,
      "pch": 9276,
      "üj": 9277,
      "şür": 9278,
      "##ua": 9279,
      "##zen": 9280,
      "##âd": 9281,
      "##jet": 9282,
      "anos": 9283,
      "yatı": 9284,
      "dax": 9285,
      "argi": 9286,
      "olum": 9287,
      "alti": 9288,
      "limak": 9289,
      "enit": 9290,
      "enant": 9291,
      "ilmek": 9292,
      "side": 9293,
      "siste": 9294,
      "aydi": 9295,
      "ayra": 9296,
      "unami": 9297,
      "edge": 9298,
      "onne": 9299,
      "nice": 9300,
      "niver": 9301,
      "haç": 9302,
      "sama": 9303,
      "laven": 9304,
      "ullar": 9305,
      "ulva": 9306,
      "##uşi": 9307,
      "arabe": 9308,
      "ursi": 9309,
      "evle": 9310,
      "sean": 9311,
      "çıkı": 9312,
      "ülil": 9313,
      "güt": 9314,
      "umre": 9315,
      "bilen": 9316,
      "kono": 9317,
      "muva": 9318,
      "ahor": 9319,
      "ahır": 9320,
      "ahmak": 9321,
      "ahpe": 9322,
      "##gev": 9323,
      "araka": 9324,
      "iniğ": 9325,
      "idal": 9326,
      "moh": 9327,
      "kto": 9328,
      "ktri": 9329,
      "ktris": 9330,
      "ipod": 9331,
      "role": 9332,
      "rosb": 9333,
      "alaga": 9334,
      "şeyma": 9335,
      "edia": 9336,
      "metod": 9337,
      "i̇sra": 9338,
      "caiz": 9339,
      "süs": 9340,
      "afd": 9341,
      "iyech": 9342,
      "i̇ndi̇": 9343,
      "nasuh": 9344,
      "rtt": 9345,
      "rtla": 9346,
      "ify": 9347,
      "ifler": 9348,
      "hiv": 9349,
      "high": 9350,
      "abad": 9351,
      "126": 9352,
      "118": 9353,
      "davi": 9354,
      "atika": 9355,
      "traji": 9356,
      "163": 9357,
      "erkür": 9358,
      "176": 9359,
      "erten": 9360,
      "vuko": 9361,
      "hamd": 9362,
      "angal": 9363,
      "raton": 9364,
      "arson": 9365,
      "pollo": 9366,
      "rkun": 9367,
      "rason": 9368,
      "ambur": 9369,
      "adik": 9370,
      "ainz": 9371,
      "üşte": 9372,
      "yong": 9373,
      "uruy": 9374,
      "tbb": 9375,
      "##li̇s": 9376,
      "evecc": 9377,
      "tazy": 9378,
      "##lâl": 9379,
      "340": 9380,
      "iang": 9381,
      "şerb": 9382,
      "keşan": 9383,
      "vahit": 9384,
      "kafes": 9385,
      "adire": 9386,
      "820": 9387,
      "nlere": 9388,
      "awk": 9389,
      "yds": 9390,
      "ears": 9391,
      "ferag": 9392,
      "atrik": 9393,
      "rres": 9394,
      "ghz": 9395,
      "umruğ": 9396,
      "zdf": 9397,
      "ânâ": 9398,
      "lajen": 9399,
      "nüsha": 9400,
      "eirel": 9401,
      "fosil": 9402,
      "ümrüt": 9403,
      "rtizo": 9404,
      "kütük": 9405,
      "haepe": 9406,
      "pchat": 9407,
      "nicef": 9408,
      "muvaf": 9409,
      "bn": 9410,
      "bük": 9411,
      "btö": 9412,
      "cr": 9413,
      "cl": 9414,
      "cv": 9415,
      "dine": 9416,
      "eil": 9417,
      "fok": 9418,
      "lüz": 9419,
      "lmi": 9420,
      "mman": 9421,
      "nsi": 9422,
      "oi": 9423,
      "oah": 9424,
      "ptal": 9425,
      "wan": 9426,
      "xf": 9427,
      "zra": 9428,
      "zaz": 9429,
      "zne": 9430,
      "znik": 9431,
      "çb": 9432,
      "şb": 9433,
      "şem": 9434,
      "##sv": 9435,
      "##fir": 9436,
      "##gut": 9437,
      "##nin": 9438,
      "##bb": 9439,
      "##bü": 9440,
      "##wn": 9441,
      "##ani": 9442,
      "##ake": 9443,
      "init": 9444,
      "##eks": 9445,
      "##orn": 9446,
      "arki": 9447,
      "arut": 9448,
      "arga": 9449,
      "##ell": 9450,
      "olmen": 9451,
      "alara": 9452,
      "enel": 9453,
      "ersa": 9454,
      "##lia": 9455,
      "unes": 9456,
      "i̇p": 9457,
      "edret": 9458,
      "nadi": 9459,
      "naif": 9460,
      "irte": 9461,
      "abile": 9462,
      "akul": 9463,
      "lase": 9464,
      "laus": 9465,
      "atü": 9466,
      "orse": 9467,
      "likon": 9468,
      "arad": 9469,
      "urbo": 9470,
      "redit": 9471,
      "reog": 9472,
      "azir": 9473,
      "eck": 9474,
      "lanc": 9475,
      "aşin": 9476,
      "üzza": 9477,
      "üzgâ": 9478,
      "bül": 9479,
      "emet": 9480,
      "##gie": 9481,
      "##azz": 9482,
      "esil": 9483,
      "esmer": 9484,
      "esgut": 9485,
      "eyfi": 9486,
      "makt": 9487,
      "varis": 9488,
      "avza": 9489,
      "mile": 9490,
      "bosi": 9491,
      "otte": 9492,
      "eki̇n": 9493,
      "ture": 9494,
      "ihsan": 9495,
      "itra": 9496,
      "keni": 9497,
      "isnat": 9498,
      "girit": 9499,
      "rod": 9500,
      "esi̇": 9501,
      "kanla": 9502,
      "netm": 9503,
      "156": 9504,
      "hez": 9505,
      "diyan": 9506,
      "rafta": 9507,
      "ansen": 9508,
      "121": 9509,
      "123": 9510,
      "ezz": 9511,
      "rmato": 9512,
      "205": 9513,
      "i̇zle": 9514,
      "paca": 9515,
      "eling": 9516,
      "zanı": 9517,
      "137": 9518,
      "entil": 9519,
      "hoven": 9520,
      "tması": 9521,
      "199": 9522,
      "214": 9523,
      "aatle": 9524,
      "irec": 9525,
      "amble": 9526,
      "pper": 9527,
      "bmd": 9528,
      "venüs": 9529,
      "gezer": 9530,
      "aston": 9531,
      "flaj": 9532,
      "ubl": 9533,
      "sco": 9534,
      "strük": 9535,
      "470": 9536,
      "folik": 9537,
      "arref": 9538,
      "rund": 9539,
      "yyubi": 9540,
      "mukay": 9541,
      "arrie": 9542,
      "yekün": 9543,
      "etruk": 9544,
      "rli̇ği̇": 9545,
      "psala": 9546,
      "ugeot": 9547,
      "elaş": 9548,
      "emat": 9549,
      "eid": 9550,
      "giler": 9551,
      "gps": 9552,
      "kek": 9553,
      "lçok": 9554,
      "mok": 9555,
      "mba": 9556,
      "mniy": 9557,
      "oa": 9558,
      "omi": 9559,
      "pel": 9560,
      "pi̇": 9561,
      "tüz": 9562,
      "yus": 9563,
      "yfer": 9564,
      "şiz": 9565,
      "##raş": 9566,
      "##fen": 9567,
      "##ğu": 9568,
      "##ök": 9569,
      "##art": 9570,
      "deal": 9571,
      "ndık": 9572,
      "mayo": 9573,
      "bire": 9574,
      "enri": 9575,
      "erah": 9576,
      "eriy": 9577,
      "##ont": 9578,
      "neu": 9579,
      "neş": 9580,
      "unn": 9581,
      "i̇si̇": 9582,
      "teme": 9583,
      "mef": 9584,
      "abc": 9585,
      "atur": 9586,
      "##kap": 9587,
      "ledo": 9588,
      "orn": 9589,
      "orsu": 9590,
      "##emo": 9591,
      "ekti": 9592,
      "deni": 9593,
      "arade": 9594,
      "urr": 9595,
      "eviy": 9596,
      "##had": 9597,
      "bast": 9598,
      "azdı": 9599,
      "izy": 9600,
      "ecai": 9601,
      "ülf": 9602,
      "asv": 9603,
      "amal": 9604,
      "amsun": 9605,
      "avut": 9606,
      "ahl": 9607,
      "ahal": 9608,
      "ahur": 9609,
      "pole": 9610,
      "keç": 9611,
      "ürgev": 9612,
      "lula": 9613,
      "eşale": 9614,
      "ükhet": 9615,
      "feto": 9616,
      "ölük": 9617,
      "isin": 9618,
      "elic": 9619,
      "rdiç": 9620,
      "109": 9621,
      "ediz": 9622,
      "hard": 9623,
      "hes": 9624,
      "çika": 9625,
      "tila": 9626,
      "şekl": 9627,
      "icho": 9628,
      "hia": 9629,
      "higan": 9630,
      "ezker": 9631,
      "ezzet": 9632,
      "ikah": 9633,
      "119": 9634,
      "zarif": 9635,
      "trik": 9636,
      "143": 9637,
      "kavak": 9638,
      "lett": 9639,
      "131": 9640,
      "rkada": 9641,
      "nodar": 9642,
      "urtul": 9643,
      "elaf": 9644,
      "elale": 9645,
      "195": 9646,
      "elikg": 9647,
      "ajla": 9648,
      "kerim": 9649,
      "meşal": 9650,
      "rtej": 9651,
      "cemi": 9652,
      "bbp": 9653,
      "rgia": 9654,
      "anks": 9655,
      "ftse": 9656,
      "hiro": 9657,
      "udret": 9658,
      "vasat": 9659,
      "macun": 9660,
      "370": 9661,
      "425": 9662,
      "420": 9663,
      "i̇ksv": 9664,
      "yht": 9665,
      "bylo": 9666,
      "zeri̇": 9667,
      "560": 9668,
      "tiraj": 9669,
      "ngi̇n": 9670,
      "awai": 9671,
      "essen": 9672,
      "yi̇n": 9673,
      "hell": 9674,
      "ienal": 9675,
      "ount": 9676,
      "dsö": 9677,
      "üdah": 9678,
      "pedro": 9679,
      "nics": 9680,
      "tnt": 9681,
      "ibolu": 9682,
      "ırçın": 9683,
      "tofaş": 9684,
      "şort": 9685,
      "lavab": 9686,
      "05": 9687,
      "?)": 9688,
      "aul": 9689,
      "agan": 9690,
      "bp": 9691,
      "bik": 9692,
      "cılı": 9693,
      "dm": 9694,
      "dda": 9695,
      "dvd": 9696,
      "een": 9697,
      "eit": 9698,
      "ebat": 9699,
      "fın": 9700,
      "gdo": 9701,
      "het": 9702,
      "iu": 9703,
      "kşa": 9704,
      "lfa": 9705,
      "mt": 9706,
      "mtv": 9707,
      "nlik": 9708,
      "nmo": 9709,
      "pso": 9710,
      "tp": 9711,
      "tlay": 9712,
      "u2": 9713,
      "ufo": 9714,
      "vik": 9715,
      "wü": 9716,
      "çleri": 9717,
      "ülit": 9718,
      "şlet": 9719,
      "##ibe": 9720,
      "##nak": 9721,
      "##10": 9722,
      "##ju": 9723,
      "deva": 9724,
      "anit": 9725,
      "ange": 9726,
      "das": 9727,
      "arner": 9728,
      "bule": 9729,
      "ınla": 9730,
      "alip": 9731,
      "kac": 9732,
      "kaman": 9733,
      "limi": 9734,
      "enus": 9735,
      "##aşi": 9736,
      "diva": 9737,
      "##iza": 9738,
      "erbe": 9739,
      "edere": 9740,
      "onte": 9741,
      "onus": 9742,
      "nisa": 9743,
      "nipro": 9744,
      "akne": 9745,
      "aktır": 9746,
      "atum": 9747,
      "atlay": 9748,
      "ndex": 9749,
      "oron": 9750,
      "orpo": 9751,
      "ulvi": 9752,
      "eval": 9753,
      "evki": 9754,
      "rec": 9755,
      "reda": 9756,
      "tima": 9757,
      "bütö": 9758,
      "emm": 9759,
      "emn": 9760,
      "ikta": 9761,
      "şeyle": 9762,
      "##cap": 9763,
      "ülfi": 9764,
      "amı": 9765,
      "eyya": 9766,
      "eyon": 9767,
      "aval": 9768,
      "ahlâk": 9769,
      "adaki": 9770,
      "örek": 9771,
      "örük": 9772,
      "##nad": 9773,
      "otti": 9774,
      "onuşm": 9775,
      "manu": 9776,
      "eşek": 9777,
      "takl": 9778,
      "cien": 9779,
      "kıble": 9780,
      "isal": 9781,
      "opla": 9782,
      "elisa": 9783,
      "metot": 9784,
      "sıral": 9785,
      "tüber": 9786,
      "edebi": 9787,
      "alime": 9788,
      "pider": 9789,
      "yuan": 9790,
      "ltra": 9791,
      "i̇şle": 9792,
      "eçti̇": 9793,
      "lmay": 9794,
      "zaim": 9795,
      "122": 9796,
      "burn": 9797,
      "buruk": 9798,
      "endin": 9799,
      "168": 9800,
      "ebron": 9801,
      "178": 9802,
      "erec": 9803,
      "245": 9804,
      "laska": 9805,
      "centa": 9806,
      "275": 9807,
      "adio": 9808,
      "ramp": 9809,
      "261": 9810,
      "timur": 9811,
      "işimi": 9812,
      "316": 9813,
      "310": 9814,
      "qui": 9815,
      "yedek": 9816,
      "jess": 9817,
      "lake": 9818,
      "makas": 9819,
      "tmeye": 9820,
      "zind": 9821,
      "umach": 9822,
      "nduğu": 9823,
      "llard": 9824,
      "390": 9825,
      "onuçl": 9826,
      "aksam": 9827,
      "teyak": 9828,
      "aklav": 9829,
      "lümü": 9830,
      "ewis": 9831,
      "pila": 9832,
      "htiya": 9833,
      "cmk": 9834,
      "kisve": 9835,
      "ivaç": 9836,
      "enny": 9837,
      "impik": 9838,
      "ulian": 9839,
      "iasse": 9840,
      "yekûn": 9841,
      "gi̇bi̇": 9842,
      "aybed": 9843,
      "orrea": 9844,
      "dhmi̇": 9845,
      "iegel": 9846,
      "şizof": 9847,
      "asvip": 9848,
      "03": 9849,
      "aos": 9850,
      "bc": 9851,
      "baki": 9852,
      "clas": 9853,
      "dter": 9854,
      "ddi̇": 9855,
      "eul": 9856,
      "eis": 9857,
      "elat": 9858,
      "fk": 9859,
      "kiş": 9860,
      "kvar": 9861,
      "llo": 9862,
      "och": 9863,
      "pey": 9864,
      "sum": 9865,
      "tzo": 9866,
      "ux": 9867,
      "ude": 9868,
      "use": 9869,
      "wiz": 9870,
      "yot": 9871,
      "ysk": 9872,
      "zın": 9873,
      "âlen": 9874,
      "üv": 9875,
      "ğri": 9876,
      "şure": 9877,
      "##dz": 9878,
      "lark": 9879,
      "ansi": 9880,
      "yaba": 9881,
      "veşat": 9882,
      "vegas": 9883,
      "oluk": 9884,
      "ınam": 9885,
      "alke": 9886,
      "kain": 9887,
      "enna": 9888,
      "ayse": 9889,
      "yeğ": 9890,
      "nap": 9891,
      "akte": 9892,
      "akpo": 9893,
      "ladi": 9894,
      "taa": 9895,
      "ats": 9896,
      "leg": 9897,
      "##yev": 9898,
      "orpil": 9899,
      "üngür": 9900,
      "rain": 9901,
      "rasa": 9902,
      "rabi": 9903,
      "raig": 9904,
      "evri": 9905,
      "evad": 9906,
      "rego": 9907,
      "ecdad": 9908,
      "lana": 9909,
      "emile": 9910,
      "iksi": 9911,
      "ikol": 9912,
      "ikane": 9913,
      "gida": 9914,
      "asm": 9915,
      "esp": 9916,
      "eles": 9917,
      "eley": 9918,
      "ahin": 9919,
      "keh": 9920,
      "adra": 9921,
      "turbo": 9922,
      "adah": 9923,
      "renin": 9924,
      "isak": 9925,
      "isil": 9926,
      "gazoz": 9927,
      "ürec": 9928,
      "uts": 9929,
      "rop": 9930,
      "şeyd": 9931,
      "i̇so": 9932,
      "i̇ski̇": 9933,
      "cade": 9934,
      "kang": 9935,
      "cher": 9936,
      "157": 9937,
      "153": 9938,
      "154": 9939,
      "kamil": 9940,
      "rahmi": 9941,
      "aflet": 9942,
      "perv": 9943,
      "soçi": 9944,
      "pig": 9945,
      "üsun": 9946,
      "lemey": 9947,
      "müşah": 9948,
      "erif": 9949,
      "127": 9950,
      "miny": 9951,
      "latif": 9952,
      "şaibe": 9953,
      "lekse": 9954,
      "tepki̇": 9955,
      "oday": 9956,
      "164": 9957,
      "181": 9958,
      "177": 9959,
      "246": 9960,
      "tesin": 9961,
      "sky": 9962,
      "rumen": 9963,
      "rata": 9964,
      "pati": 9965,
      "223": 9966,
      "lind": 9967,
      "rinin": 9968,
      "fiks": 9969,
      "thle": 9970,
      "aster": 9971,
      "ness": 9972,
      "mi̇r": 9973,
      "ubli": 9974,
      "aiti": 9975,
      "kafil": 9976,
      "ni̇z": 9977,
      "410": 9978,
      "ntast": 9979,
      "cağız": 9980,
      "530": 9981,
      "ulaşı": 9982,
      "ravel": 9983,
      "620": 9984,
      "i̇ri̇ş": 9985,
      "ssen": 9986,
      "erhum": 9987,
      "holo": 9988,
      "yi̇z": 9989,
      "kefen": 9990,
      "afad": 9991,
      "enjam": 9992,
      "nefs": 9993,
      "aktul": 9994,
      "yekun": 9995,
      "ayfur": 9996,
      "uoan": 9997,
      "atbik": 9998,
      "sezar": 9999
    }
  }
}