<unk>	0
<s>	0
</s>	0
.	-3.12433
,	-3.34335
'	-3.66419
▁ve	-4.32881
▁bir	-4.63281
n	-5.00399
"	-5.10655
▁"	-5.16367
a	-5.18589
e	-5.35706
nin	-5.37555
da	-5.38671
▁bu	-5.46036
▁de	-5.47175
▁da	-5.49053
de	-5.5059
▁için	-5.56368
nın	-5.57676
i	-5.58863
▁ile	-5.60429
in	-5.62792
ın	-5.62975
k	-5.75519
lar	-5.76708
▁	-5.83457
ler	-5.84787
na	-5.90882
:	-5.92332
ya	-6.02582
ye	-6.02823
▁Türkiye	-6.02979
ne	-6.0428
-	-6.0743
m	-6.08192
ı	-6.10212
▁Bu	-6.12759
▁olarak	-6.14727
▁çok	-6.21809
dan	-6.2291
den	-6.2369
ları	-6.26497
leri	-6.28599
▁(	-6.28768
li	-6.28945
▁olan	-6.29325
la	-6.32096
▁ise	-6.32874
▁daha	-6.37482
▁en	-6.39352
▁-	-6.40806
)	-6.41868
le	-6.44484
ni	-6.4662
ki	-6.49674
lı	-6.50769
nde	-6.51764
ta	-6.55809
te	-6.57657
▁sonra	-6.59923
nda	-6.60221
▁kadar	-6.61651
▁gibi	-6.62181
si	-6.62964
r	-6.64036
?	-6.64461
nı	-6.6582
z	-6.66775
▁bin	-6.68218
yla	-6.72218
▁var	-6.73894
un	-6.7411
▁göre	-6.75186
t	-6.76784
yi	-6.77779
s	-6.80851
u	-6.80918
lerin	-6.82236
ların	-6.83843
▁yer	-6.84448
▁dedi	-6.85403
▁olduğunu	-6.85714
▁ilk	-6.86463
▁olduğu	-6.86635
▁büyük	-6.86721
...	-6.86792
▁3	-6.883
yı	-6.89938
▁2	-6.90185
▁yüzde	-6.92529
▁yeni	-6.93594
▁'	-6.94856
yle	-6.96453
▁her	-6.96623
▁1	-6.98301
▁ne	-6.99551
▁son	-6.99721
▁tarafından	-6.99934
▁yıl	-7.00138
▁devam	-7.00234
l	-7.02276
sı	-7.05144
▁etti	-7.05226
▁oldu	-7.05457
lik	-7.06819
nun	-7.07259
▁diye	-7.07397
▁İstanbul	-7.09023
▁o	-7.09808
;	-7.09945
▁ardından	-7.10533
▁ilgili	-7.11667
▁iki	-7.12762
▁4	-7.12881
▁karşı	-7.13339
p	-7.14002
▁Türk	-7.14005
▁yapılan	-7.14033
▁önce	-7.142
lere	-7.14534
an	-7.14681
di	-7.15253
▁arasında	-7.1704
!	-7.17863
▁Başkanı	-7.18193
▁milyon	-7.19087
daki	-7.19261
lara	-7.19466
▁eden	-7.19697
▁değil	-7.20082
ma	-7.20745
larını	-7.20898
▁5	-7.22526
▁iyi	-7.25316
▁Haberleri	-7.2601
▁önemli	-7.2649
▁gelen	-7.28373
▁ABD	-7.28624
▁A	-7.287
lerini	-7.29043
deki	-7.29193
▁gün	-7.2955
▁söyledi	-7.30334
tan	-7.3062
▁O	-7.30701
▁terör	-7.32388
ndan	-7.32977
K	-7.33074
y	-7.33212
▁ki	-7.33996
ten	-7.35156
dir	-7.35474
▁yaptığı	-7.36277
▁10	-7.36363
▁ya	-7.36705
▁zaman	-7.37188
en	-7.38605
▁Bir	-7.39778
▁Erdoğan	-7.40244
▁15	-7.40531
S	-7.40943
▁kişi	-7.41255
▁ama	-7.41448
▁ifade	-7.41457
dır	-7.41582
lık	-7.41806
▁içinde	-7.42776
nden	-7.43164
▁bulunan	-7.43181
sa	-7.45566
▁birlikte	-7.45651
▁üzerine	-7.46292
▁şekilde	-7.48486
▁6	-7.48519
ü	-7.49023
▁Suriye	-7.49329
er	-7.50655
▁alan	-7.50959
▁tüm	-7.51241
o	-7.51307
▁Avrupa	-7.51867
▁S	-7.54268
▁yok	-7.54492
▁hem	-7.54826
▁konuştu	-7.55053
▁fazla	-7.56295
ca	-7.56446
▁FETÖ	-7.56847
▁aynı	-7.5751
▁Gazetesi	-7.5818
­	-7.6052
▁iş	-7.61538
A	-7.61638
▁geldi	-7.61911
ti	-7.62075
me	-7.64647
▁Cumhurbaşkanı	-7.64821
T	-7.64867
lu	-7.64986
▁7	-7.67058
▁K	-7.67624
larının	-7.68257
▁nedeniyle	-7.68602
▁üzere	-7.69391
▁saat	-7.69439
▁ortaya	-7.69649
larına	-7.70326
larda	-7.70856
mız	-7.70901
▁diğer	-7.70981
▁şu	-7.70996
▁kez	-7.71019
▁PKK	-7.71048
▁olmak	-7.71901
▁Genel	-7.72269
▁olacak	-7.72476
▁verdi	-7.7254
▁edildi	-7.73221
▁yapan	-7.7334
lerinin	-7.74022
▁polis	-7.74121
▁TL	-7.74122
lerde	-7.74481
B	-7.7463
ün	-7.75233
d	-7.75261
▁veya	-7.75451
dı	-7.75654
▁yaptı	-7.75728
▁Ankara	-7.75831
▁edilen	-7.76027
▁8	-7.76743
▁tek	-7.7683
▁geçen	-7.76983
▁çıktı	-7.77196
▁B	-7.78077
lerine	-7.78422
▁2016	-7.78731
▁sadece	-7.78983
se	-7.79042
▁kendi	-7.79193
▁G	-7.79221
ce	-7.79365
▁yönelik	-7.79711
".	-7.80623
▁günü	-7.80635
▁şey	-7.80862
ini	-7.81128
▁darbe	-7.81451
▁Ancak	-7.81533
larla	-7.81863
▁Fenerbahçe	-7.82065
▁Rusya	-7.82794
M	-7.82847
▁aldı	-7.83005
▁Beşiktaş	-7.8324
/	-7.83983
miz	-7.84212
▁hafta	-7.84341
▁bile	-7.85002
▁karar	-7.85163
▁özel	-7.86239
D	-7.86339
▁Spor	-7.86531
▁M	-7.86969
cı	-7.8698
▁ay	-7.87138
▁üzerinde	-7.8739
▁yerine	-7.87504
▁yılında	-7.87588
▁sahip	-7.87623
▁20	-7.87971
al	-7.88571
▁güvenlik	-7.88586
▁E	-7.88811
▁ediyor	-7.88934
▁milyar	-7.89393
h	-7.89548
▁Galatasaray	-7.89737
▁nasıl	-7.89751
▁hakkında	-7.89946
▁başka	-7.89954
▁F	-7.90318
▁bazı	-7.90467
▁şöyle	-7.90553
▁destek	-7.9068
▁Son	-7.90825
g	-7.91383
▁bugün	-7.9167
lerle	-7.91685
▁doğru	-7.92092
du	-7.92126
▁dikkat	-7.92506
G	-7.93133
▁süre	-7.9334
▁C	-7.93634
▁19	-7.94517
▁el	-7.94813
▁mi	-7.95354
▁Ama	-7.95516
▁az	-7.95555
C	-7.95583
▁Temmuz	-7.95668
um	-7.95761
▁konusunda	-7.96132
▁bulundu	-7.96621
▁farklı	-7.96688
im	-7.96851
▁olması	-7.97215
ine	-7.97226
▁Dünya	-7.973
▁para	-7.97416
▁ancak	-7.97726
▁T	-7.98013
▁açıklamada	-7.98774
▁neden	-7.98854
▁biri	-7.98911
▁dün	-7.99234
▁yaşındaki	-7.99297
lerden	-7.99464
▁lira	-7.99623
f	-7.9981
ri	-7.99911
▁görev	-8.00146
▁12	-8.00259
E	-8.00775
uz	-8.00928
▁yüksek	-8.01137
),	-8.01359
at	-8.01786
ç	-8.01947
nün	-8.02134
oğlu	-8.02368
▁Mehmet	-8.02369
mış	-8.0241
▁kabul	-8.02505
ra	-8.026
P	-8.02866
▁9	-8.03034
▁Bakanı	-8.03742
▁ilişkin	-8.03981
▁başladı	-8.04157
▁kapsamında	-8.04856
tı	-8.05658
▁böyle	-8.05775
larında	-8.0597
▁bulunduğu	-8.0624
ar	-8.06508
lardan	-8.06833
tır	-8.06854
▁su	-8.07077
▁Müdürlüğü	-8.07125
▁dolar	-8.07321
▁eski	-8.07342
re	-8.07385
▁an	-8.07415
el	-8.07573
▁hava	-8.08294
▁yakın	-8.0836
▁açık	-8.08455
ını	-8.08483
▁ettiği	-8.09074
ci	-8.09107
▁D	-8.09242
İ	-8.0943
mak	-8.09488
sini	-8.09499
▁geri	-8.1014
tir	-8.10747
▁şehit	-8.11466
▁rağmen	-8.11603
▁gözaltına	-8.11655
▁mücadele	-8.11656
▁konusu	-8.11835
▁belirten	-8.11909
▁yol	-8.11969
arak	-8.12058
acak	-8.12158
sını	-8.12452
ş	-8.12563
▁çıkan	-8.12725
▁olay	-8.12819
▁uzun	-8.1329
▁Bakanlığı	-8.13427
▁alınan	-8.13434
▁meydan	-8.1381
miş	-8.14166
su	-8.14487
▁bütün	-8.14826
▁kişinin	-8.14833
▁ait	-8.1489
ması	-8.14977
▁ülke	-8.15362
ir	-8.15531
▁örgütü	-8.15568
▁söz	-8.15824
O	-8.1594
▁Mahallesi	-8.16313
▁bağlı	-8.16329
ur	-8.16932
ır	-8.17229
▁yaklaşık	-8.17438
▁Kurulu	-8.17828
▁kararı	-8.18799
▁30	-8.18828
sine	-8.18893
▁ikinci	-8.19227
▁14	-8.20032
▁Ali	-8.20179
▁üç	-8.20657
▁Başbakan	-8.207
▁dile	-8.2073
larından	-8.21304
man	-8.21773
▁Devlet	-8.21804
▁altında	-8.2189
▁Ben	-8.22075
lerinden	-8.2223
ndeki	-8.2241
▁Zaman	-8.22467
il	-8.22546
▁hiç	-8.22803
▁ele	-8.23456
▁sosyal	-8.23734
Y	-8.23965
v	-8.24113
▁Sözcü	-8.2417
▁bunu	-8.24293
▁aldığı	-8.24321
▁18	-8.24503
▁Yıldırım	-8.2474
▁tespit	-8.25075
▁sıra	-8.25089
lü	-8.25287
▁kadın	-8.25341
▁alındı	-8.25519
▁mı	-8.25521
▁ev	-8.25525
▁yeniden	-8.25937
▁Biz	-8.26112
▁kullandı	-8.26189
▁Parti	-8.26205
▁devlet	-8.26995
ka	-8.27155
▁haber	-8.27157
▁Dr	-8.27171
ğı	-8.27324
▁birçok	-8.27399
▁hiçbir	-8.27573
▁etmek	-8.27749
▁yine	-8.2779
▁Her	-8.27819
▁Cumhuriyet	-8.28255
ken	-8.28321
lerinde	-8.28472
▁Yeni	-8.28479
▁13	-8.28665
ecek	-8.28713
▁biz	-8.28723
▁dünya	-8.28729
▁Mustafa	-8.29083
▁11	-8.29126
▁ceza	-8.29449
▁artık	-8.30062
▁sağlık	-8.30338
▁16	-8.3057
▁AB	-8.30669
▁Bunun	-8.30725
▁veren	-8.30787
▁Ne	-8.30821
▁hale	-8.31053
yu	-8.31185
▁Emniyet	-8.31354
▁üst	-8.31387
▁P	-8.31566
▁sonrası	-8.31788
▁gol	-8.31814
▁anda	-8.32389
▁verdiği	-8.32468
niz	-8.32578
ına	-8.32799
▁belirtildi	-8.33431
▁H	-8.3359
▁eğitim	-8.33811
▁üzerinden	-8.33955
liği	-8.34132
▁gece	-8.34219
Bu	-8.34236
▁insan	-8.34381
▁takım	-8.34385
luk	-8.34494
▁iç	-8.34515
▁sonucu	-8.34625
3	-8.34661
▁kısa	-8.3476
siz	-8.34976
▁belirtti	-8.35118
▁17	-8.35144
▁Ahmet	-8.35236
▁zor	-8.35481
▁çalışma	-8.356
▁bizim	-8.35796
▁tedavi	-8.35866
▁hayatını	-8.35942
▁En	-8.36007
▁ekipleri	-8.362
▁CHP	-8.36261
▁içerisinde	-8.36294
nu	-8.3681
▁ayında	-8.36942
▁sezon	-8.36956
nız	-8.37094
mi	-8.37166
▁olur	-8.37215
▁yardım	-8.37534
▁iddia	-8.37993
▁ben	-8.38457
▁güzel	-8.38681
R	-8.38854
▁sahibi	-8.38885
dığı	-8.39024
▁göz	-8.39341
▁25	-8.39421
▁Almanya	-8.39501
▁İ	-8.39858
`	-8.40299
▁çocuk	-8.40374
▁kontrol	-8.40594
b	-8.40699
erek	-8.40705
▁bilgi	-8.40748
lığı	-8.40945
▁yanı	-8.41042
▁belirterek	-8.4126
sel	-8.41422
▁şeklinde	-8.41665
ıyor	-8.42109
▁dönemde	-8.42142
sız	-8.42278
▁dakika	-8.42284
▁sırasında	-8.42554
lan	-8.42585
lama	-8.42856
▁Üniversitesi	-8.42918
▁toplam	-8.42983
▁kalan	-8.43005
çi	-8.43126
▁tam	-8.43364
▁yana	-8.43411
▁teknik	-8.43502
▁çalışan	-8.43967
ktan	-8.44039
▁oyuncu	-8.44288
▁Ak	-8.44565
▁düzenlenen	-8.4473
▁Milli	-8.44757
▁Daha	-8.45173
sinde	-8.45286
▁durum	-8.45341
▁soruşturma	-8.45426
2	-8.45504
▁Lig	-8.45514
▁İl	-8.45564
▁hizmet	-8.45612
▁Şubat	-8.45631
▁100	-8.45996
▁imza	-8.46074
▁kaydetti	-8.46188
1	-8.46389
F	-8.46666
▁ara	-8.46956
▁bomba	-8.47507
▁özellikle	-8.47535
▁hareket	-8.47782
▁kar	-8.48161
▁Y	-8.48194
▁sağ	-8.48282
sına	-8.48342
ım	-8.48357
▁siyasi	-8.4853
▁açıklama	-8.48679
▁olsun	-8.4969
dur	-8.49738
▁yapılacak	-8.4998
▁bunun	-8.50051
▁İzmir	-8.50141
▁Ocak	-8.50141
▁sık	-8.50167
▁maç	-8.50385
▁öğrenildi	-8.50946
H	-8.50998
▁önünde	-8.51633
ndaki	-8.51653
larıyla	-8.52115
▁sırada	-8.52133
▁konu	-8.52217
▁ağır	-8.52508
▁genç	-8.52509
▁sevk	-8.52518
▁AK	-8.52571
ik	-8.52585
▁Ç	-8.52601
▁basın	-8.52726
Ş	-8.52755
▁yandan	-8.53119
N	-8.53147
▁burada	-8.53303
ba	-8.53461
▁oluyor	-8.53593
I	-8.54033
▁geliyor	-8.54037
mesi	-8.54063
4	-8.54651
ydi	-8.54667
▁yaşanan	-8.54748
▁yıllık	-8.54806
▁tarihi	-8.55045
▁Başkan	-8.55486
▁İlk	-8.55875
▁gerekiyor	-8.55957
▁Mart	-8.5621
inde	-8.56214
▁askeri	-8.56214
▁gelir	-8.5643
▁altına	-8.5643
▁sayı	-8.56649
ha	-8.56656
▁satış	-8.5691
▁Çünkü	-8.56924
▁halinde	-8.56977
▁El	-8.57181
7	-8.57463
ği	-8.57522
▁Me	-8.57577
▁ederek	-8.57704
be	-8.57778
▁akşam	-8.57841
▁Er	-8.58097
▁tekrar	-8.58494
sin	-8.58609
ul	-8.58628
▁mu	-8.58659
▁suç	-8.5871
▁yayın	-8.58775
▁24	-8.59036
▁50	-8.59107
▁kaldı	-8.59329
▁olabilir	-8.59586
▁saldırı	-8.6022
▁edecek	-8.60238
▁22	-8.60295
▁ortak	-8.60313
▁kat	-8.60347
▁gelecek	-8.60395
▁yapmak	-8.60407
▁adet	-8.60497
▁savaş	-8.60502
▁ateş	-8.60747
sın	-8.6094
▁2015	-8.6101
▁önceki	-8.61074
sinin	-8.61092
c	-8.61351
ran	-8.61428
▁yatırım	-8.61463
▁öne	-8.61588
▁dakikada	-8.61672
▁yoğun	-8.61786
▁getirdi	-8.6201
▁şunları	-8.62163
leriyle	-8.62648
sal	-8.6282
▁araç	-8.62889
▁Ay	-8.62891
▁benim	-8.6298
▁orta	-8.62986
▁Yılmaz	-8.63036
▁Ayrıca	-8.63125
▁sayısı	-8.6314
▁yapı	-8.63142
▁hazır	-8.63158
▁dışında	-8.63228
▁tepki	-8.63754
▁zamanda	-8.63771
▁olmadığını	-8.63774
▁Aralık	-8.63808
bi	-8.6405
kten	-8.64056
▁sayıda	-8.6411
▁takip	-8.64116
▁21	-8.64159
it	-8.64172
▁gereken	-8.64203
00	-8.64232
8	-8.64397
ay	-8.64483
▁Allah	-8.64491
▁ziyaret	-8.64694
▁küçük	-8.64799
iz	-8.64853
▁gerektiğini	-8.65406
teki	-8.65508
▁Euro	-8.65903
▁puan	-8.65975
▁Irak	-8.6604
▁dava	-8.66162
▁kötü	-8.66403
▁mümkün	-8.66404
▁verildi	-8.66471
va	-8.66523
▁ön	-8.66592
▁vardı	-8.66816
ak	-8.6689
▁bulunuyor	-8.66914
▁yanında	-8.66925
▁Rus	-8.66951
▁U	-8.67363
sun	-8.67452
▁hemen	-8.67561
▁İşte	-8.67673
▁Bugün	-8.67734
6	-8.67883
▁başlayan	-8.67896
mek	-8.68154
▁sene	-8.68188
▁çıkar	-8.68286
▁geçti	-8.68549
▁uygun	-8.68581
▁Hastanesi	-8.68624
ıp	-8.68843
V	-8.68943
▁Trabzonspor	-8.68958
▁Terör	-8.69128
dığını	-8.69171
▁Diyarbakır	-8.69206
▁dolayı	-8.69465
U	-8.69562
inin	-8.69772
▁operasyon	-8.69799
▁yaşayan	-8.69803
▁silah	-8.69812
▁tercih	-8.69914
▁ifadelerini	-8.70002
▁ciddi	-8.70047
▁genel	-8.70114
▁açıkladı	-8.70582
▁Ligi	-8.70627
▁Ve	-8.71223
▁Kara	-8.71291
▁başına	-8.71392
▁adam	-8.71407
▁Davutoğlu	-8.71431
▁alıyor	-8.71448
▁Öz	-8.71743
▁Olay	-8.71775
▁Gülen	-8.71867
yan	-8.71884
▁itibaren	-8.71891
Ç	-8.72033
▁kız	-8.72055
▁terörist	-8.72076
▁transfer	-8.72076
▁boyunca	-8.72261
▁anne	-8.72568
▁durumda	-8.72892
▁40	-8.72916
▁ana	-8.7303
▁aile	-8.73034
▁güçlü	-8.7333
▁Al	-8.73405
▁şimdi	-8.73519
▁olmayan	-8.73535
▁23	-8.73556
▁Haber	-8.73785
▁izin	-8.73846
ip	-8.739
▁kamu	-8.74022
▁adına	-8.74041
▁konuda	-8.74166
▁kredi	-8.74445
▁söyleyen	-8.74457
tu	-8.74498
▁medya	-8.7464
çı	-8.74674
▁elde	-8.74894
▁Belediye	-8.74896
▁derece	-8.75042
▁ek	-8.75275
▁Anadolu	-8.75304
▁serbest	-8.75379
diği	-8.75568
len	-8.75667
▁Şimdi	-8.75698
▁adlı	-8.75766
▁hedef	-8.75894
▁enerji	-8.75895
▁kan	-8.75972
▁yerinde	-8.76125
▁Gül	-8.76215
▁internet	-8.7634
▁top	-8.76377
▁yılı	-8.76422
▁sivil	-8.76529
▁İran	-8.76665
▁zarar	-8.76667
▁uluslararası	-8.76809
▁Polis	-8.76813
▁yabancı	-8.76817
▁eşi	-8.76868
▁başında	-8.77094
▁Antalya	-8.77189
▁Süper	-8.77192
▁resmi	-8.77198
▁gerçek	-8.77211
▁N	-8.77218
▁Çok	-8.77342
▁istedi	-8.77461
▁maçında	-8.77606
ydı	-8.77687
▁ayrıca	-8.77721
▁durumu	-8.7789
ö	-8.77909
▁müdahale	-8.77917
▁Can	-8.7793
▁teslim	-8.78055
vi	-8.78323
▁arasındaki	-8.78539
▁örgüt	-8.78548
ol	-8.78549
▁Müdürü	-8.78613
▁milli	-8.78652
on	-8.78987
▁Bakan	-8.79013
▁yapıldı	-8.7905
▁belli	-8.79075
▁verilen	-8.79325
▁Eğitim	-8.79327
▁bana	-8.79409
Türkiye	-8.79516
▁ayrı	-8.79656
▁hep	-8.79743
▁Recep	-8.79811
iyor	-8.80129
9	-8.8028
▁Tayyip	-8.80305
▁sonunda	-8.80543
▁araya	-8.80646
▁bize	-8.80706
▁sabah	-8.80733
▁e	-8.80898
▁herhangi	-8.81003
za	-8.81106
▁Mahkemesi	-8.81124
▁Yardımcısı	-8.812
zi	-8.81284
▁ünlü	-8.81391
▁dönem	-8.814
▁parti	-8.81429
ül	-8.8144
maya	-8.8177
is	-8.82422
▁faiz	-8.82518
▁pek	-8.82522
▁baş	-8.8254
▁saatlerinde	-8.82578
▁karşısında	-8.82707
▁Güvenlik	-8.8272
▁çekti	-8.82946
ge	-8.82951
▁diyor	-8.8307
▁maçı	-8.83406
▁Merkezi	-8.83421
▁fiyatı	-8.83421
▁isteyen	-8.83474
▁arada	-8.83486
▁Birliği	-8.83668
▁Çin	-8.83795
▁lazım	-8.83814
▁500	-8.83854
mızı	-8.83982
▁Dışişleri	-8.84531
▁Kemal	-8.84533
▁Ekonomi	-8.84587
▁sistemi	-8.84626
Ö	-8.84724
mizi	-8.84823
30	-8.84874
▁fark	-8.84891
▁nedenle	-8.84932
▁dünyanın	-8.85205
L	-8.85217
▁ülkenin	-8.85261
▁Yönetim	-8.85352
▁yılın	-8.85537
▁asker	-8.85553
layan	-8.85635
cu	-8.85703
▁futbolcu	-8.85738
▁dışı	-8.85843
▁yönetim	-8.85875
▁28	-8.86027
▁olsa	-8.86033
▁İki	-8.86064
rken	-8.86265
▁Koç	-8.86576
w	-8.8672
us	-8.86747
▁ettiğini	-8.86753
▁gerek	-8.87146
ko	-8.87152
▁Ö	-8.87156
▁il	-8.87216
▁Ceza	-8.8745
▁tarihinde	-8.87475
▁talep	-8.87517
▁almak	-8.87582
to	-8.87633
han	-8.87748
▁üyesi	-8.87977
taki	-8.88049
▁anlattı	-8.88159
▁Ba	-8.88215
▁tür	-8.88341
▁De	-8.88477
▁alma	-8.88525
▁Alman	-8.88527
▁ilgi	-8.88639
▁canlı	-8.88817
▁şüpheli	-8.88831
▁yılda	-8.88849
▁Nisan	-8.88851
▁olmadığı	-8.8893
▁arama	-8.88986
▁yazı	-8.89164
▁tehdit	-8.89166
▁otomobil	-8.8918
▁at	-8.89192
▁sonrasında	-8.89232
▁Şu	-8.89329
muş	-8.89547
▁eş	-8.89554
spor	-8.89652
▁Sarı	-8.89656
▁İlçesi	-8.89701
▁İngiltere	-8.89827
▁adı	-8.89874
ke	-8.89959
▁Sağlık	-8.90056
▁işaret	-8.90125
▁HDP	-8.90273
▁sonu	-8.90357
▁Fatih	-8.9037
▁ödeme	-8.90389
5	-8.90407
▁başarılı	-8.90721
▁onu	-8.90756
▁Trump	-8.90806
or	-8.90917
▁bilgiye	-8.90975
▁girdi	-8.91017
▁I	-8.91086
▁amacıyla	-8.91293
▁giden	-8.91524
▁Su	-8.91672
▁Murat	-8.91687
▁attı	-8.917
▁katıldı	-8.91777
▁türlü	-8.91784
▁Prof	-8.91932
lo	-8.91969
▁Özel	-8.92021
▁bildirildi	-8.92103
▁sarı	-8.92106
▁grup	-8.92133
▁cevap	-8.92168
▁dair	-8.92387
ter	-8.92458
▁adım	-8.92533
▁getiren	-8.92614
▁bölgede	-8.92662
▁Merkez	-8.92893
▁Mayıs	-8.93013
▁kolay	-8.93027
ça	-8.93125
▁dahil	-8.9318
▁seçim	-8.93222
▁maçta	-8.93316
▁hızlı	-8.9332
tik	-8.93367
▁spor	-8.93533
Ü	-8.93544
▁27	-8.93546
landı	-8.93674
▁geç	-8.93744
▁oy	-8.93788
▁değer	-8.94025
▁henüz	-8.94027
▁savunma	-8.94035
iş	-8.94052
▁yaş	-8.94209
▁La	-8.94357
▁IŞİD	-8.9438
▁hak	-8.94485
▁DAEŞ	-8.94491
▁yapıyor	-8.94504
▁yarın	-8.94586
fa	-8.94637
▁alacak	-8.94703
▁PYD	-8.94742
▁Deniz	-8.9488
▁Fransa	-8.95059
▁açısından	-8.95061
▁Ya	-8.95125
▁isimli	-8.95131
mıştı	-8.95188
ro	-8.95244
▁aralarında	-8.95286
sının	-8.95387
▁kendisine	-8.95392
▁güven	-8.95595
et	-8.95655
▁çeken	-8.95656
▁ediliyor	-8.95675
▁gündem	-8.95789
abilir	-8.95921
▁Aydın	-8.95951
▁çeşitli	-8.95958
as	-8.96004
lük	-8.96004
▁hangi	-8.9601
â	-8.96037
▁yönünde	-8.9612
▁Hava	-8.96146
▁tutuklandı	-8.96178
muz	-8.96233
▁net	-8.96339
▁ekonomik	-8.96378
▁telefon	-8.96425
▁aylık	-8.96489
▁acı	-8.96502
▁düşük	-8.96898
▁İş	-8.96935
▁ileri	-8.97163
▁giriş	-8.97288
▁ekibi	-8.9732
x	-8.97364
▁soru	-8.974
▁tahmin	-8.97481
▁Atatürk	-8.97493
▁temel	-8.9751
▁Meclis	-8.97666
▁Öte	-8.97803
san	-8.98045
▁işlem	-8.98087
▁döneminde	-8.98141
▁yıldır	-8.98152
▁öncesi	-8.98334
▁Kasım	-8.9866
▁onun	-8.98742
▁giren	-8.9883
▁al	-8.98891
sında	-8.98945
diğini	-8.99045
▁anlatan	-8.9905
▁edilmesi	-8.99085
▁pazar	-8.99105
▁öyle	-8.99155
gi	-8.99483
▁ilçesinde	-8.99507
▁Ra	-8.99556
▁Büyük	-8.99806
▁dört	-8.99864
▁gitti	-8.99873
▁diyerek	-8.99898
kları	-8.99909
▁sürekli	-8.99974
▁konuşan	-9.00024
inci	-9.00025
▁26	-9.00098
▁baba	-9.00186
▁gösterdi	-9.00252
▁can	-9.00299
▁oyun	-9.00826
▁kilometre	-9.01302
▁Kılıçdaroğlu	-9.01306
▁günlerde	-9.01317
▁Ha	-9.01711
▁bölge	-9.01724
▁zorunda	-9.01733
▁Caddesi	-9.0175
▁başta	-9.01772
▁artış	-9.01955
▁diyen	-9.01961
▁biraz	-9.02052
▁mahkeme	-9.02062
▁etmesi	-9.02138
▁birkaç	-9.02249
▁Başkanlığı	-9.02274
ga	-9.02274
▁etme	-9.02489
▁proje	-9.02502
▁isim	-9.02622
▁cezası	-9.02657
▁yemek	-9.02744
▁beraber	-9.02774
▁olup	-9.02778
▁yani	-9.02896
▁emekli	-9.02967
▁yerde	-9.02988
▁yasa	-9.03087
▁sınır	-9.03364
▁Eylül	-9.03393
▁yazılı	-9.0341
lenen	-9.03477
▁beni	-9.03517
▁dış	-9.03703
▁bildirdi	-9.0375
▁bizi	-9.03933
▁olma	-9.03951
▁önüne	-9.0405
▁etkili	-9.04058
▁Sosyal	-9.04406
▁dünyada	-9.04465
▁Ekim	-9.04535
▁Halep	-9.04537
ladı	-9.04684
▁Amerika	-9.04795
▁R	-9.04811
▁29	-9.04832
▁bekleniyor	-9.04899
çe	-9.0504
ve	-9.05051
▁Adana	-9.05217
mı	-9.0523
▁Anayasa	-9.05303
▁forma	-9.05322
▁katkı	-9.0545
▁Van	-9.05475
▁düştü	-9.05526
▁hesap	-9.05689
▁hayata	-9.05734
?"	-9.05742
▁Demir	-9.0582
os	-9.05875
kan	-9.05976
▁merkez	-9.06057
▁gören	-9.0607
▁alanda	-9.06103
▁sol	-9.06123
▁Belediyesi	-9.06182
ad	-9.06188
▁Yani	-9.06221
▁elektrik	-9.06236
▁değildir	-9.06365
ch	-9.0642
▁Araştırma	-9.06679
▁geldiği	-9.06684
▁başarı	-9.0671
▁Ma	-9.06719
▁anlaşma	-9.06835
▁teknoloji	-9.06919
▁hapis	-9.07061
▁Özellikle	-9.0711
▁Dakika	-9.07323
▁insanlar	-9.07376
ının	-9.07556
▁gerekli	-9.07671
▁ölüm	-9.07675
▁sayesinde	-9.07712
▁deniz	-9.07719
▁bunlar	-9.07767
dü	-9.07833
ık	-9.07843
▁babası	-9.07966
▁yüz	-9.08059
nce	-9.0814
▁kafa	-9.0818
▁yanlış	-9.08199
▁sert	-9.08429
▁Bankası	-9.08455
klarını	-9.085
ey	-9.08677
▁Grubu	-9.08755
▁yaralı	-9.08795
▁ayı	-9.08799
▁kim	-9.08858
▁yan	-9.08891
▁yurt	-9.08912
▁sorun	-9.09091
mişti	-9.0921
ebilir	-9.09217
▁haline	-9.0927
▁Teknik	-9.09284
▁Re	-9.09284
▁yaşında	-9.09411
▁yardımcı	-9.09441
▁kaybetti	-9.09662
▁Bizim	-9.09741
▁vardır	-9.09771
▁güç	-9.09816
▁ulaştı	-9.09825
▁konut	-9.09904
▁İslam	-9.09934
▁Ömer	-9.09951
▁oluşan	-9.09955
▁Se	-9.10012
▁ülkede	-9.10018
▁metre	-9.10129
▁buna	-9.10163
▁kendisini	-9.10282
iyle	-9.10333
▁ilan	-9.10524
ah	-9.10683
▁kaydedildi	-9.1072
▁DEAŞ	-9.10743
▁din	-9.10776
nca	-9.10778
▁uygulama	-9.1082
siniz	-9.10864
do	-9.10869
▁kaç	-9.10906
▁edildiği	-9.10916
▁Ar	-9.10962
▁belediye	-9.1101
ğ	-9.11184
▁yapma	-9.11309
sunuz	-9.11411
▁Eğer	-9.11464
▁çalışmalar	-9.11553
▁üniversite	-9.11581
hi	-9.11641
▁yargı	-9.11662
▁Derneği	-9.11683
▁çıkma	-9.1184
▁altın	-9.11942
▁beri	-9.12111
▁ona	-9.12121
▁Haberler	-9.12141
es	-9.12168
▁Da	-9.1224
▁tamamen	-9.12259
▁60	-9.12344
▁yapacak	-9.12366
▁İbrahim	-9.12497
▁ismi	-9.12527
▁yaşam	-9.12687
▁günlük	-9.12714
▁etkisiz	-9.1276
▁et	-9.12822
▁yapılması	-9.13053
▁çözüm	-9.13156
▁Suriyeli	-9.13208
▁film	-9.13216
▁Burada	-9.13501
▁kart	-9.13506
▁kalp	-9.1363
▁kazandı	-9.137
▁herkes	-9.1376
ğını	-9.13927
▁Güneş	-9.14008
▁İsrail	-9.14031
▁yere	-9.14238
▁üretim	-9.14245
▁hakem	-9.14257
▁Futbol	-9.14286
▁şirket	-9.14291
▁Güncel	-9.14551
ış	-9.14578
▁ses	-9.14694
▁işbirliği	-9.14743
▁anlamı	-9.14771
sınız	-9.14795
▁kullandığı	-9.14906
▁Batı	-9.14983
▁Kültür	-9.15036
▁Aynı	-9.15059
▁geniş	-9.15124
▁vergi	-9.15137
▁banka	-9.1515
▁yaşadığı	-9.15416
▁süren	-9.15436
cü	-9.15643
▁zaten	-9.15683
▁sona	-9.15687
▁veriyor	-9.15774
▁Çelik	-9.1582
▁kendini	-9.15906
sıyla	-9.16014
▁ediyorum	-9.16086
min	-9.1611
▁aday	-9.16138
▁Obama	-9.16254
lanan	-9.163
▁teklif	-9.16384
▁önem	-9.16438
unu	-9.16558
▁Kupası	-9.16693
▁yara	-9.16709
▁kilo	-9.16783
▁silahlı	-9.16936
AR	-9.17014
▁girişimi	-9.17119
▁sebep	-9.17128
▁Hüseyin	-9.17243
▁s	-9.17265
▁yaralandı	-9.17368
▁oğlu	-9.176
▁Tüm	-9.17668
▁merkezi	-9.17749
▁kaza	-9.17796
▁gerçekleştiril	-9.17887
▁çalışmaları	-9.18091
▁te	-9.18132
0	-9.18197
▁Di	-9.18248
▁başvuru	-9.18289
tur	-9.1839
▁yarı	-9.18474
▁baskı	-9.18478
▁Bey	-9.18666
▁orada	-9.18714
20	-9.18798
▁Geçen	-9.18852
▁lideri	-9.18872
sanız	-9.18903
▁Bunlar	-9.18913
▁f	-9.18956
▁defa	-9.18981
▁rahat	-9.19001
▁Kaya	-9.19024
▁MHP	-9.1912
▁ortada	-9.1913
let	-9.19147
▁hakkı	-9.19251
▁Bursa	-9.19296
▁ölü	-9.19311
▁eylem	-9.194
▁ta	-9.19427
▁başkan	-9.19443
▁gösteren	-9.19588
▁Şube	-9.19621
▁Jandarma	-9.19693
▁başkanı	-9.1972
▁oldukça	-9.19724
▁çıkıyor	-9.19792
st	-9.19925
▁normal	-9.20055
▁açtı	-9.20178
▁Bunu	-9.20198
▁oranı	-9.20218
▁olduğuna	-9.20495
▁inceleme	-9.205
yen	-9.20552
▁okul	-9.20573
▁futbol	-9.20643
▁hakim	-9.20746
dik	-9.20796
▁belirlendi	-9.20809
▁Büyükşehir	-9.20874
ür	-9.21
ist	-9.21045
▁Hasan	-9.21061
▁31	-9.2115
▁mevcut	-9.21167
▁verme	-9.21177
▁Emre	-9.21178
▁a	-9.21244
▁saha	-9.21354
▁engel	-9.21356
▁büyüme	-9.21362
▁durumunda	-9.21379
▁Buna	-9.21438
yor	-9.21463
▁teşekkür	-9.21464
▁hasta	-9.2157
▁atan	-9.21609
▁düşen	-9.21637
▁mutlu	-9.21723
▁insanların	-9.21804
▁gerçekleştir	-9.21875
▁desteği	-9.21956
▁35	-9.22024
suz	-9.22098
▁Doğu	-9.22166
▁anayasa	-9.22191
▁olumsuz	-9.22204
▁üye	-9.22228
▁Na	-9.22232
▁Örgütü	-9.22294
ev	-9.22325
▁alarak	-9.224
▁2015'	-9.22446
▁Ko	-9.22475
▁bundan	-9.22595
▁halk	-9.22622
▁An	-9.22643
ız	-9.2272
▁kurulu	-9.22967
▁bölüm	-9.23267
▁Uluslararas	-9.23288
▁Peki	-9.23293
▁demokrasi	-9.2337
▁emniyet	-9.23377
▁Sa	-9.23472
▁topu	-9.23482
▁düzenleme	-9.23525
▁madde	-9.23585
yiz	-9.23955
▁diş	-9.23967
▁Mücadele	-9.24028
▁UEFA	-9.24028
▁annesi	-9.24141
▁marka	-9.24156
▁yağ	-9.24913
▁Orta	-9.24927
leşme	-9.24968
▁fotoğraf	-9.25042
iye	-9.25101
▁hatta	-9.25217
▁söylüyor	-9.25223
▁gerekir	-9.25233
▁vermek	-9.25235
▁Ağustos	-9.25258
▁olumlu	-9.25258
acağız	-9.25268
▁etki	-9.25326
▁Milletvekili	-9.25413
▁Kurumu	-9.25492
▁L	-9.25591
▁şehir	-9.25616
▁yüzden	-9.25622
▁rol	-9.25634
▁konuşma	-9.25639
men	-9.25707
una	-9.25713
nü	-9.25821
▁Gaziantep	-9.25886
▁bağ	-9.26019
▁hayat	-9.26024
tü	-9.26067
▁Kuvvetleri	-9.26137
▁Sayın	-9.26154
mızın	-9.26196
can	-9.26351
ver	-9.26375
▁araştırma	-9.26421
▁başkanlık	-9.26464
bu	-9.26593
▁varsa	-9.26618
▁ak	-9.26699
lendi	-9.26773
▁Le	-9.26777
son	-9.26898
▁Kar	-9.26963
ıcı	-9.26999
▁2014	-9.27103
▁toplum	-9.2715
▁mü	-9.27176
ru	-9.27265
Z	-9.27358
ic	-9.27487
▁yapımı	-9.27532
sak	-9.27587
▁fiyat	-9.27847
▁finans	-9.2789
▁Havalimanı	-9.27923
▁sürede	-9.27926
▁yolu	-9.28006
▁patlayıcı	-9.28017
▁yıllarda	-9.2803
▁Be	-9.28222
▁erkek	-9.28252
mez	-9.28303
▁sahne	-9.28312
▁kent	-9.28355
ren	-9.28439
▁Ta	-9.28466
▁Te	-9.28479
ret	-9.28517
▁vatandaşlar	-9.28581
▁geçtiğimiz	-9.28587
▁erken	-9.28603
▁tur	-9.28712
▁krizi	-9.28777
ut	-9.28781
▁takımı	-9.28783
▁toplantı	-9.28836
▁tartışma	-9.28854
▁kara	-9.28856
▁sistem	-9.28966
▁hukuk	-9.29047
▁yola	-9.2908
▁200	-9.29262
▁Cumhuriyeti	-9.2932
▁civarında	-9.29325
▁Ş	-9.29328
▁dolu	-9.29373
j	-9.29387
ze	-9.29505
siyle	-9.29545
▁in	-9.2962
▁Şahin	-9.29778
bo	-9.29815
kar	-9.30024
▁verecek	-9.30154
▁İsmail	-9.30173
sen	-9.30178
▁Sur	-9.30216
▁Hakan	-9.30218
▁hükümet	-9.30231
▁faaliyet	-9.30284
inden	-9.30307
der	-9.30453
▁lider	-9.30512
▁TV	-9.30634
▁istediği	-9.30644
▁döndü	-9.30656
▁Doğan	-9.30672
▁eder	-9.30728
▁etmeye	-9.30737
▁ediyoruz	-9.308
▁geçiş	-9.30814
▁buldu	-9.30893
▁Fakat	-9.30991
▁İnsan	-9.31085
▁olacağını	-9.31107
▁sürüyor	-9.31219
▁Sokak	-9.31249
▁aracı	-9.31298
dım	-9.31322
▁2.	-9.31471
lanma	-9.31599
fe	-9.31712
▁vurgulaya	-9.31761
▁Bo	-9.31787
▁derin	-9.31791
▁Ro	-9.31891
▁Haziran	-9.31984
▁yaparak	-9.31998
sü	-9.32007
leme	-9.32111
▁üçüncü	-9.32148
fi	-9.32536
▁aslında	-9.32655
▁Ev	-9.32671
▁güçleri	-9.32807
▁kırmızı	-9.32921
▁saygı	-9.32937
▁İngiliz	-9.32938
▁altını	-9.32967
▁alın	-9.32968
ber	-9.3304
▁getirildi	-9.33078
ırken	-9.33104
▁Kulübü	-9.3314
▁alanı	-9.33158
▁kullanılan	-9.33163
▁istiyorum	-9.33176
▁kimse	-9.33211
▁model	-9.33218
▁öğrenci	-9.33428
▁kanser	-9.33431
▁sorunu	-9.33445
▁görüş	-9.33478
maz	-9.33501
▁kamera	-9.33552
▁sonuç	-9.33571
▁Z	-9.33576
liğe	-9.33665
▁ihtiyaç	-9.33772
▁yakalandı	-9.33803
meye	-9.33838
▁İlçe	-9.33849
▁beş	-9.33876
lerimiz	-9.3393
▁işi	-9.33948
luğu	-9.34143
▁kaybeden	-9.34165
lığa	-9.34194
▁halde	-9.34218
10	-9.34338
▁istiyor	-9.34363
▁taşıyan	-9.34667
▁Komutanlığı	-9.34669
▁3.	-9.34709
DE	-9.34724
▁yaptıkları	-9.34744
▁kişilik	-9.34755
▁barış	-9.3476
▁yolcu	-9.34763
▁petrol	-9.34783
up	-9.34945
▁Dün	-9.34967
EN	-9.35015
▁katılan	-9.35075
▁gizli	-9.35122
▁genelinde	-9.35136
lanması	-9.35162
▁mal	-9.35324
miyor	-9.3533
▁karşıya	-9.35334
▁küresel	-9.35342
▁b	-9.3535
▁Kendi	-9.35377
▁televizyon	-9.35378
imiz	-9.3543
▁takımın	-9.35468
▁kişiler	-9.35487
yız	-9.35543
lıyor	-9.35627
▁birinci	-9.35697
▁dünyaya	-9.35704
▁çıkacak	-9.35742
▁ekran	-9.35801
▁trafik	-9.36007
▁mülteci	-9.3604
▁cenaze	-9.36045
rak	-9.36048
▁çıkış	-9.36237
▁kişilerin	-9.36243
▁kalma	-9.36305
▁getir	-9.36449
▁uzak	-9.36529
▁siz	-9.36537
▁sınav	-9.36545
▁Güney	-9.36557
▁Bölge	-9.36603
ılması	-9.3668
▁Diğer	-9.36729
▁asla	-9.36819
▁yeri	-9.36826
▁millet	-9.36839
▁Twitter	-9.36898
▁yaz	-9.3693
▁V	-9.36941
▁operasyonda	-9.36977
▁Benim	-9.3704
▁İyi	-9.37085
▁süreci	-9.37208
▁kadro	-9.3721
▁alınması	-9.37226
Bir	-9.37315
▁yönetimi	-9.37354
pe	-9.37399
▁Genelkurmay	-9.37421
▁TBMM	-9.3743
▁davet	-9.37451
▁bölgesinde	-9.37569
▁bak	-9.37586
▁çünkü	-9.37589
eceğini	-9.37659
▁yapmaya	-9.37777
▁çıkardı	-9.37829
▁W	-9.37862
▁ton	-9.37914
▁sanat	-9.38001
▁yeterli	-9.3805
▁BM	-9.3807
▁arka	-9.38135
▁plan	-9.38144
▁Cuma	-9.38292
ek	-9.38331
▁gider	-9.38401
▁gösteriyor	-9.38406
▁Kuzey	-9.38487
▁gerekçesiyle	-9.38492
▁yasağı	-9.3858
▁ha	-9.38589
▁Genç	-9.3862
▁Kürt	-9.38694
nizi	-9.38743
▁arkadaşı	-9.38805
▁görevli	-9.38851
▁istiyoruz	-9.38858
DA	-9.3896
▁Gökhan	-9.39017
AN	-9.39123
▁45	-9.39339
id	-9.39471
▁yoktur	-9.39495
▁Osmanlı	-9.39545
▁yürütülen	-9.39548
▁300	-9.39665
mıştır	-9.3967
▁dolarlık	-9.3976
▁çevre	-9.39772
▁sıralarında	-9.39775
van	-9.39867
▁80	-9.39989
▁çalışması	-9.40041
▁Arena	-9.40073
larımız	-9.401
▁şeyler	-9.40106
▁kriz	-9.40343
▁şeyi	-9.40413
▁tatil	-9.40483
▁çerçevesinde	-9.40614
▁yıla	-9.40829
▁Konya	-9.40881
▁Baş	-9.40887
▁Yapılan	-9.40988
no	-9.40998
kleri	-9.41107
▁Yunanistan	-9.41167
▁Sadece	-9.41181
▁mutlaka	-9.41222
▁sözleşme	-9.41311
▁önümüzde	-9.41336
▁ödül	-9.41369
▁doğum	-9.41381
▁olmaz	-9.41387
tar	-9.41452
▁attığı	-9.41467
▁değerlendirme	-9.41526
▁etkisi	-9.41529
▁ortalama	-9.41533
▁alt	-9.41564
▁ilçe	-9.41595
▁dönemi	-9.41638
▁hastaneye	-9.41695
sinden	-9.4171
▁dur	-9.42109
▁Şehit	-9.42126
▁Pazar	-9.42139
▁görme	-9.42191
î	-9.4222
▁üyeleri	-9.42271
acağı	-9.42285
▁kaldırıldı	-9.42355
imi	-9.4242
▁öğretmen	-9.42538
▁mahalle	-9.42631
▁ilişki	-9.42745
▁Aile	-9.42774
▁neler	-9.42818
▁satın	-9.42854
▁kızı	-9.42902
▁Ni	-9.42913
▁Sonra	-9.42943
▁bölümü	-9.43017
▁yasak	-9.4303
▁karşılaşma	-9.43164
▁ka	-9.432
▁geldiğini	-9.4333
▁olursa	-9.43361
▁ekip	-9.43407
▁düzey	-9.43507
▁New	-9.43565
mizin	-9.43602
▁evinde	-9.43637
▁işçi	-9.43706
▁gerçekleştirile	-9.43756
▁sonucunda	-9.43759
▁aç	-9.4382
▁ücret	-9.43887
nci	-9.43902
▁kol	-9.43912
▁İtalya	-9.43916
▁parça	-9.43972
▁müzik	-9.44021
am	-9.44126
▁açıklaması	-9.44166
▁sorumlu	-9.44184
▁iptal	-9.44254
▁ameliyat	-9.44345
▁dizi	-9.44372
▁kur	-9.44401
▁k	-9.44409
▁onların	-9.44507
50	-9.44583
mektedir	-9.44597
▁kapı	-9.44674
▁geçirdi	-9.44842
▁kaydeden	-9.4486
▁numara	-9.44913
▁kardeşi	-9.44949
▁kurum	-9.45051
▁telefonu	-9.45057
go	-9.45122
▁gir	-9.45251
▁yazdı	-9.45289
▁Volkan	-9.45411
▁Holding	-9.45411
▁Adalet	-9.45429
▁sağlıklı	-9.45441
▁tanı	-9.45488
▁taş	-9.45539
▁haberi	-9.45562
lardı	-9.45602
▁Böyle	-9.45604
▁YPG	-9.45655
▁ince	-9.45722
tr	-9.45736
kı	-9.45755
▁sektör	-9.45801
▁Suudi	-9.45804
nızı	-9.46047
▁Kan	-9.46068
▁imha	-9.46171
▁terk	-9.46232
▁alanında	-9.46311
▁çıktığı	-9.46322
▁ihtiyacı	-9.46381
▁endişe	-9.46421
▁AKP	-9.46445
▁operasyonu	-9.46485
▁vurguladı	-9.46556
Biz	-9.46607
▁benzer	-9.46687
▁gösteri	-9.46703
▁kır	-9.46712
▁Söz	-9.46793
▁olduklarını	-9.46814
▁Bazı	-9.46815
▁kuru	-9.46841
ing	-9.46904
▁açıldı	-9.46995
▁doğal	-9.46998
ed	-9.47151
lanmış	-9.4725
▁başlattı	-9.47298
ünü	-9.47488
▁İkinci	-9.47506
▁başlayacak	-9.47525
▁ederken	-9.47545
▁gazete	-9.47565
▁Savunma	-9.47717
▁bilinen	-9.4772
▁işlemleri	-9.47762
▁önde	-9.47902
▁gördü	-9.47905
▁yük	-9.47967
▁vatan	-9.48061
▁inşa	-9.48102
▁Ağır	-9.48106
▁öncesinde	-9.48148
▁Kadın	-9.48189
▁görüşme	-9.48294
▁denildi	-9.48343
▁galibiyet	-9.48346
bir	-9.48348
▁evde	-9.48552
▁edin	-9.48593
▁olmuş	-9.48643
▁merak	-9.48705
▁vatandaş	-9.48766
ER	-9.48818
▁servis	-9.48828
▁yerli	-9.48921
▁bulunduğunu	-9.48941
▁yaralanan	-9.49087
dim	-9.49106
şe	-9.49148
▁karşılık	-9.49168
▁Mahkeme	-9.49213
üncü	-9.49275
▁uçak	-9.49281
▁kimlik	-9.49284
▁devletin	-9.49335
▁Tıp	-9.49338
▁iktidar	-9.49373
▁90	-9.49378
▁J	-9.49388
ck	-9.49414
acağını	-9.4945
▁Uzun	-9.49513
▁kaleci	-9.49526
▁kaybı	-9.49586
▁bulutlu	-9.49668
▁Başsavcılığı	-9.4967
▁hain	-9.497
▁kulüp	-9.49811
▁San	-9.49838
▁Şırnak	-9.49861
ok	-9.49868
▁demek	-9.49978
▁ilçesi	-9.49979
▁toplantısında	-9.50029
▁çift	-9.50074
PDY	-9.50078
▁Hem	-9.50149
▁Ge	-9.50151
▁yapıldığı	-9.50348
▁günde	-9.50407
▁kesin	-9.5061
▁2016'	-9.50643
▁hakaret	-9.50655
▁iletişim	-9.50655
▁alıp	-9.50684
yım	-9.50693
ov	-9.50697
▁Ka	-9.50763
▁kendilerine	-9.50791
LAR	-9.50799
▁sıkıntı	-9.50843
▁görülen	-9.50858
▁düşünüyorum	-9.50878
co	-9.50953
Ha	-9.51066
▁çık	-9.51092
▁gücü	-9.51198
▁Mo	-9.51219
▁hafif	-9.51224
lat	-9.51231
▁aşırı	-9.51258
▁kendisi	-9.51259
▁patlama	-9.51417
▁Osman	-9.51459
▁açılan	-9.51475
▁çalışıyor	-9.51606
ılan	-9.5161
▁Nur	-9.51641
▁Sultan	-9.51655
▁cinsel	-9.51683
laşma	-9.51686
▁Bütün	-9.51701
ledi	-9.51736
▁size	-9.51817
▁Direktörü	-9.51827
klerini	-9.51906
▁korku	-9.51954
▁yıldız	-9.52061
mıyor	-9.52067
▁Yıldız	-9.52079
▁direktör	-9.52085
▁milletin	-9.52085
▁Li	-9.52138
▁gelmesi	-9.52185
▁dev	-9.52271
▁yaşamını	-9.52317
▁bugüne	-9.52406
▁Tek	-9.52413
▁Enerji	-9.52466
▁personel	-9.52475
yü	-9.52486
▁binlerce	-9.52526
▁kaldığı	-9.52668
▁Ege	-9.52774
▁çaba	-9.5281
mize	-9.52833
▁yerel	-9.52922
▁örnek	-9.52928
▁32	-9.5295
▁harekete	-9.53007
▁anlamda	-9.53071
▁istihdam	-9.53077
alım	-9.53078
▁köy	-9.53183
ör	-9.53214
İN	-9.53243
▁mesaj	-9.53251
▁olmaya	-9.53291
ici	-9.53305
eceği	-9.5342
▁kuruş	-9.53421
▁altı	-9.53434
▁sergi	-9.53442
▁ürün	-9.53458
▁Asya	-9.53487
Ben	-9.5357
▁Eski	-9.53639
▁Komisyonu	-9.53684
▁re	-9.53734
▁belki	-9.53749
▁bunların	-9.53758
▁onlar	-9.5384
▁Kayseri	-9.5391
▁Böylece	-9.53943
▁siyah	-9.53979
▁bıraktı	-9.5413
mıza	-9.54182
▁Ga	-9.54208
▁şirketi	-9.54243
dık	-9.5435
▁görüntü	-9.54412
▁Kur	-9.54436
▁belirtilen	-9.54531
taş	-9.54562
ımız	-9.54571
ab	-9.54634
▁içi	-9.54663
▁geçmiş	-9.54672
▁dua	-9.54729
▁şiddet	-9.54902
▁medyada	-9.54929
▁Arabistan	-9.54933
▁oynadığı	-9.5504
▁ifadesini	-9.5523
▁video	-9.5523
▁saldırıda	-9.55296
▁kanun	-9.55419
▁liraya	-9.55453
▁uzman	-9.55461
▁başı	-9.55511
▁Sinan	-9.55564
▁Şen	-9.55569
madı	-9.55613
▁kira	-9.55719
▁dahi	-9.5572
▁Müslüman	-9.55757
▁sen	-9.55791
▁oynanan	-9.55796
▁Siz	-9.56002
▁güvenliği	-9.5601
▁masa	-9.56025
▁yaşandı	-9.56117
▁tane	-9.56185
▁Putin	-9.56189
▁yapmış	-9.56324
▁oyuncusu	-9.56353
ton	-9.56368
▁kitap	-9.56416
▁hal	-9.56452
▁Turan	-9.56463
▁70	-9.56471
▁sonuçları	-9.5673
▁açıklandı	-9.56835
▁giderek	-9.56837
▁Sabah	-9.56858
▁evine	-9.56935
▁yanıt	-9.57002
▁tahliye	-9.57008
▁fiyatları	-9.57022
▁Belçika	-9.57036
▁Aziz	-9.57064
▁yalan	-9.57076
ıldı	-9.57081
▁politika	-9.57109
▁oldukları	-9.572
▁katıldığı	-9.57206
▁süreçte	-9.57207
▁Musul	-9.57274
▁temsil	-9.57296
▁gerektiği	-9.57352
▁çocuğu	-9.57381
▁Orman	-9.57483
▁bilgileri	-9.57483
▁dikkati	-9.57621
▁Grup	-9.57683
▁kaynak	-9.57696
▁otobüs	-9.57698
dür	-9.57719
▁asıl	-9.57733
▁hala	-9.57833
▁Başakşehir	-9.5789
▁hayal	-9.58111
▁güncelleme	-9.58122
▁bas	-9.58144
▁0	-9.58157
lüğü	-9.5817
▁farkı	-9.58224
▁Gün	-9.58232
yim	-9.58315
▁kurulan	-9.58438
▁olmadı	-9.58448
ll	-9.58454
▁adli	-9.585
▁edilecek	-9.58521
Cumhurbaşkanlığı	-9.58535
▁Paris	-9.58544
▁sonraki	-9.58546
bey	-9.58621
▁sıcak	-9.58642
FETÖ	-9.58673
▁isimler	-9.5868
▁çocukları	-9.58692
▁istihbarat	-9.58755
▁tarih	-9.58809
▁Fa	-9.58891
▁görevi	-9.58898
▁haberine	-9.58948
▁eve	-9.58972
▁Apple	-9.58989
per	-9.59048
▁gel	-9.59053
▁süredir	-9.59087
met	-9.5915
▁oyunu	-9.5916
▁almaya	-9.5916
malı	-9.59164
liğin	-9.59169
▁bölgeye	-9.5918
pa	-9.59238
▁vurdu	-9.59249
▁koruma	-9.59252
▁bölümünde	-9.59259
▁gelin	-9.59274
▁halkın	-9.59278
lenmesi	-9.59315
▁içine	-9.59336
yken	-9.59351
miştir	-9.59361
▁iPhone	-9.59402
▁edeceğiz	-9.59474
▁Mi	-9.59591
▁bilgiler	-9.59632
▁kapalı	-9.59633
tığı	-9.59749
▁çıkması	-9.59752
▁bunları	-9.59787
▁34	-9.5979
▁Toto	-9.59861
▁yapılıyor	-9.59865
▁risk	-9.59929
▁kişiyi	-9.60041
▁Trabzon	-9.60054
ho	-9.60122
mızda	-9.60168
▁Ke	-9.60169
▁talebi	-9.60175
J	-9.60203
maktadır	-9.60254
▁milletvekili	-9.60277
▁sokağa	-9.6028
▁Kim	-9.60288
▁bebek	-9.60477
▁Albayrak	-9.605
▁kısmı	-9.60563
▁insanları	-9.60564
▁kullanan	-9.60602
▁süreç	-9.60662
▁başlıyor	-9.60665
liğini	-9.60702
▁Dolayısıyla	-9.60725
▁birisi	-9.60734
▁Tabii	-9.60845
▁gecesi	-9.60854
▁sağlamak	-9.60895
▁gıda	-9.60908
▁cenazesi	-9.60913
▁tutuklu	-9.60914
▁Mersin	-9.60968
▁Bar	-9.61024
iyet	-9.61053
▁Amerikan	-9.61083
▁programı	-9.61107
▁Bülent	-9.61158
▁dolara	-9.61218
landığı	-9.61228
▁noktada	-9.61244
▁yangın	-9.61247
▁zengin	-9.61279
▁Pa	-9.61288
▁bakım	-9.61327
▁huzur	-9.61427
▁paylaştı	-9.61513
▁kampanya	-9.61616
▁konuk	-9.61764
▁örgütün	-9.61799
▁sa	-9.61814
▁olayı	-9.61819
▁olacağı	-9.6182
▁Madrid	-9.61825
▁ke	-9.61851
▁hazırlanan	-9.61853
▁cep	-9.62037
▁çoğu	-9.62046
▁Ukrayna	-9.62067
lenme	-9.6209
▁vatandaşların	-9.621
▁i	-9.62107
▁hız	-9.62239
▁teşvik	-9.62272
▁çatışma	-9.62357
▁yetkilileri	-9.62401
yet	-9.62427
▁kas	-9.62468
▁çocukların	-9.62495
▁Öztürk	-9.62503
▁boş	-9.62519
▁yaptığını	-9.62553
▁siyaset	-9.62564
▁Darbe	-9.62637
▁onları	-9.62681
▁adeta	-9.62713
▁indirim	-9.62754
▁çocuklar	-9.62795
▁bilim	-9.62795
Gündem	-9.62876
▁sanayi	-9.62876
▁akıllı	-9.62884
▁ma	-9.62897
▁Altın	-9.6294
▁Afrika	-9.62946
45	-9.63021
AK	-9.63032
▁sebebi	-9.63076
▁hoca	-9.63117
▁gelişme	-9.63124
▁Ortadoğu	-9.63172
▁muhalefet	-9.63183
unun	-9.63236
hane	-9.63236
▁Komutanı	-9.63316
köy	-9.63318
▁vermesi	-9.63336
▁ayrıldı	-9.63359
▁üzerindeki	-9.63397
▁düşüş	-9.63407
▁merkezinde	-9.6347
▁giy	-9.63541
▁Ara	-9.63564
▁Ana	-9.63584
▁inan	-9.63635
uyor	-9.63644
abiliyor	-9.63657
mda	-9.63675
▁esas	-9.63676
▁Başbakanı	-9.63753
▁Denizli	-9.63784
▁olmasına	-9.63979
▁algı	-9.64026
▁golü	-9.64034
▁beklenen	-9.64094
▁belge	-9.64192
▁hızla	-9.64245
▁İç	-9.64256
▁ekonomi	-9.64275
▁Sanat	-9.64283
▁öğle	-9.64308
laş	-9.64336
▁yerini	-9.6435
▁mali	-9.64361
▁başkenti	-9.64383
ından	-9.64449
Lİ	-9.64546
▁dönemin	-9.64614
▁temiz	-9.64631
ley	-9.64705
LER	-9.64817
▁gidiyor	-9.64923
▁Vakfı	-9.64996
▁p	-9.65002
▁Yüksek	-9.65004
aş	-9.65036
▁başladığı	-9.65046
▁çalıştığı	-9.65152
▁teröristler	-9.65173
▁dil	-9.65178
▁verilmesi	-9.65219
▁meyve	-9.65226
▁yükseldi	-9.65272
▁aracın	-9.65309
▁kazanan	-9.65356
▁Fransız	-9.65457
▁Onlar	-9.65458
▁nedeni	-9.65494
▁plakalı	-9.65504
YA	-9.65557
▁hedefi	-9.6556
bar	-9.65603
▁acil	-9.65629
▁suçundan	-9.65733
▁nokta	-9.6575
▁gazeteci	-9.65764
ıyla	-9.65774
▁Takımı	-9.65819
W	-9.65849
▁biliyor	-9.66139
▁ticari	-9.66153
▁edip	-9.66154
▁olacaktır	-9.66179
▁yapması	-9.6633
▁düzenlediği	-9.66368
▁sayısının	-9.66394
▁Abdullah	-9.66397
▁değişiklik	-9.66441
▁Taş	-9.66457
▁etmiş	-9.66499
▁konuş	-9.66537
▁geleceği	-9.66604
▁yaparken	-9.66638
▁bakan	-9.66664
▁Federasyonu	-9.66665
25	-9.6667
▁kaynağı	-9.66743
▁güneş	-9.66813
▁performans	-9.66824
▁intihar	-9.66854
▁adamı	-9.66864
▁herkesin	-9.66882
▁adını	-9.66887
▁sürdü	-9.66946
rek	-9.6696
▁sanık	-9.67003
Ya	-9.67006
▁gerçekten	-9.67015
▁er	-9.67081
▁%	-9.67091
he	-9.67111
▁Fırat	-9.67123
mer	-9.67244
▁bilgisayar	-9.67324
▁kritik	-9.67324
▁Karadeniz	-9.67325
▁kayıt	-9.67329
▁sinema	-9.67343
▁vurgu	-9.67368
▁amacı	-9.67386
▁öldü	-9.67392
tiği	-9.6741
▁duyurdu	-9.67451
▁sahada	-9.67478
▁sürpriz	-9.6756
▁Onun	-9.67569
▁ihtimali	-9.67598
▁final	-9.67708
▁maçın	-9.67725
▁prim	-9.67733
▁Turizm	-9.67801
▁terörle	-9.6781
▁Za	-9.67853
lardır	-9.67912
▁yavaş	-9.67924
▁c	-9.67925
▁üretimi	-9.67973
▁olayın	-9.67984
▁hepsi	-9.68009
▁inşaat	-9.68111
▁olmasını	-9.68225
▁grubu	-9.6823
▁protesto	-9.68271
▁Ünlü	-9.68271
▁örgütünün	-9.6835
dum	-9.68435
▁kişiye	-9.6847
▁not	-9.6848
▁ayak	-9.68506
▁Moskova	-9.68518
▁park	-9.68553
▁hayatı	-9.68621
▁kon	-9.68674
▁Artık	-9.68819
▁kentinde	-9.68831
▁görmek	-9.68847
▁as	-9.68873
▁kayıp	-9.68901
LE	-9.68962
▁Ol	-9.6897
▁Facebook	-9.68987
▁alışveriş	-9.68987
▁milletvekilleri	-9.68987
▁Halk	-9.69015
▁der	-9.6902
40	-9.69061
▁işlemi	-9.69077
evi	-9.69091
▁kullanımı	-9.69093
masını	-9.69106
▁filmi	-9.69162
▁rakip	-9.69184
▁Dündar	-9.69235
▁hasar	-9.69259
bet	-9.69269
MA	-9.69288
üz	-9.69325
▁ada	-9.69411
▁arası	-9.69454
▁Ticaret	-9.69467
▁York	-9.69468
kü	-9.69498
▁TSK	-9.69527
▁iz	-9.6957
▁verdiğini	-9.69573
▁memuru	-9.69654
▁yazar	-9.69665
▁Do	-9.69719
▁Azerbaycan	-9.69729
▁sefer	-9.69763
▁değerli	-9.69792
▁sağlayan	-9.69903
▁Yusuf	-9.6995
▁Mardin	-9.69953
▁Salih	-9.69967
▁Bursaspor	-9.69998
▁çağrı	-9.70001
▁değiştir	-9.70025
▁istediğini	-9.70042
▁2013	-9.70065
▁aş	-9.70128
ğini	-9.70146
▁Konseyi	-9.70271
▁paylaşım	-9.7029
▁işe	-9.70369
▁fırsat	-9.70388
▁aykırı	-9.70435
UR	-9.70575
▁hastane	-9.70604
▁çöz	-9.70633
▁bütçe	-9.70663
şi	-9.70664
▁içindeki	-9.70693
▁sebebiyle	-9.70781
▁heyeti	-9.70789
▁seyahat	-9.7084
▁beyaz	-9.70852
▁u	-9.70923
ılmış	-9.7094
▁hastanede	-9.71025
po	-9.71119
tepe	-9.71146
▁Arslan	-9.71166
▁ihracat	-9.71182
▁itibarıyla	-9.71187
▁belirlenen	-9.71193
▁2017	-9.71193
▁yorum	-9.71231
▁Arap	-9.71243
abilecek	-9.71257
▁beslenme	-9.71315
▁geçici	-9.71427
12	-9.71444
lanıyor	-9.71509
ebilecek	-9.71515
ağa	-9.71532
▁gerçekleşti	-9.71597
▁adayı	-9.71615
▁doğrudan	-9.71635
▁jandarma	-9.71657
▁bekliyor	-9.71664
▁yayınlanan	-9.7169
▁Arda	-9.71751
▁As	-9.71801
▁rapor	-9.71819
▁kale	-9.72021
▁Yine	-9.72031
▁sağlığı	-9.72096
▁yaşadı	-9.72102
▁gönderildi	-9.72136
▁Film	-9.7214
▁gittiği	-9.72162
▁sahte	-9.72168
▁yüzünden	-9.7221
▁aşağı	-9.72232
▁olun	-9.72272
▁art	-9.72329
▁Selçuk	-9.7236
▁veri	-9.72364
▁euro	-9.72398
▁yaşama	-9.72414
▁Fetullahçı	-9.72425
▁sayılı	-9.72457
ğu	-9.72488
▁topla	-9.725
▁kullan	-9.72563
▁köprü	-9.72587
▁Çocuk	-9.72598
▁işin	-9.7261
▁edilmiş	-9.72628
▁sürdürdü	-9.72644
▁itibariyle	-9.7265
▁istifa	-9.72672
▁hakları	-9.72705
if	-9.7271
▁Açıklamada	-9.72794
▁yaptık	-9.72834
▁turizm	-9.72867
▁getirilen	-9.72921
▁h	-9.73012
▁kadının	-9.73052
▁The	-9.73087
▁Kaza	-9.73142
▁sürücü	-9.7316
▁kap	-9.73189
▁arazi	-9.73202
▁Sanayi	-9.73208
▁rakibi	-9.7323
▁ticaret	-9.73336
layarak	-9.73368
▁tedavisi	-9.73371
▁şirketin	-9.73438
lerimizi	-9.73452
▁elinde	-9.73523
▁mesele	-9.73582
▁hastalık	-9.73591
▁Akdeniz	-9.73645
em	-9.73661
▁İspanya	-9.73681
▁halkı	-9.73804
▁Beyaz	-9.73827
▁batı	-9.73837
▁Süleyman	-9.73896
▁liralık	-9.73989
70	-9.74005
▁boyu	-9.74021
▁gaz	-9.74077
▁36	-9.74157
meyen	-9.74161
▁tamam	-9.74228
▁ettik	-9.7425
▁güvenli	-9.74381
▁yanına	-9.74519
▁hayvan	-9.74557
▁açıklamalarda	-9.74619
▁başlatılan	-9.74673
▁AA	-9.74685
▁Burak	-9.74742
▁gönderdi	-9.74774
▁arkasında	-9.74879
▁yolda	-9.74908
▁kaldır	-9.74911
▁Hatta	-9.74974
▁şarkı	-9.74976
lığını	-9.75034
▁liradan	-9.75047
▁oranında	-9.7505
▁antrenman	-9.75162
▁Erdem	-9.75206
▁dik	-9.75212
gen	-9.75267
dikleri	-9.75291
▁sınıf	-9.7532
▁payı	-9.75351
▁Barcelona	-9.75438
▁Küçük	-9.75449
▁polisi	-9.75497
▁Mü	-9.75527
ger	-9.75544
▁saatleri	-9.75548
▁özelliği	-9.75559
medi	-9.75603
▁İçişleri	-9.75673
▁tabii	-9.75683
izm	-9.75747
▁yalnız	-9.75878
ladığı	-9.75895
AL	-9.75903
▁bombalı	-9.75938
▁Si	-9.7594
▁Kartal	-9.75947
▁Çavuşoğlu	-9.75951
ez	-9.75961
▁kullanma	-9.76123
19	-9.76208
▁kaldırılması	-9.76227
▁me	-9.76236
▁gitmek	-9.76262
▁girişiminin	-9.76294
▁dedim	-9.76307
▁işte	-9.76309
▁Takım	-9.76333
ğa	-9.76352
▁toprak	-9.76362
▁geride	-9.76395
lanarak	-9.76396
▁av	-9.76398
▁kazan	-9.76442
▁sizin	-9.76464
▁yüzü	-9.7649
▁ilaç	-9.76512
ilmesi	-9.76558
▁Ala	-9.7668
tör	-9.76779
11	-9.76817
▁süt	-9.76844
▁Partisi	-9.76872
▁Çetin	-9.76956
▁cesedi	-9.76962
amaz	-9.76994
▁yedi	-9.77028
▁sizi	-9.7711
net	-9.77121
▁sahaya	-9.77125
op	-9.77178
▁görüyor	-9.77198
mizde	-9.77213
▁düşünce	-9.77225
▁uçuş	-9.7725
▁şart	-9.77312
liler	-9.77331
▁insanın	-9.77419
▁hata	-9.77441
dıkları	-9.77457
nd	-9.77572
ova	-9.77588
▁aldığını	-9.77617
yacak	-9.77621
▁Şampiyonlar	-9.77661
▁gitme	-9.77667
▁doğrultusunda	-9.77743
▁akıl	-9.77851
▁Uğur	-9.77956
▁/	-9.77958
▁soruşturması	-9.77988
gan	-9.7801
▁çocuğun	-9.78113
▁fayda	-9.78114
▁geçirildi	-9.78121
ınca	-9.78169
▁To	-9.78175
▁yaşıyor	-9.78203
▁Samsun	-9.78237
▁uyarı	-9.78242
th	-9.78262
▁Fakültesi	-9.78267
▁rahmet	-9.78267
▁tarım	-9.78272
▁Metin	-9.78287
▁ülkeler	-9.78364
▁kamp	-9.78437
▁ülkeye	-9.78447
▁davası	-9.78496
▁satışı	-9.78496
AB	-9.78497
▁alması	-9.78523
nızda	-9.78531
az	-9.78563
▁Lo	-9.78598
▁çekiyor	-9.78683
▁itfaiye	-9.78794
▁onlara	-9.78805
60	-9.78817
▁33	-9.78823
başı	-9.78882
leşmiş	-9.78884
▁Ca	-9.78959
▁doğu	-9.78979
▁kültür	-9.79071
▁gözaltı	-9.79136
eçtiğimiz	-9.79138
gu	-9.79198
duk	-9.79207
▁götürüldü	-9.79249
▁dönüşüm	-9.79272
▁operasyonlar	-9.79275
▁parçası	-9.79314
▁artması	-9.79323
▁Clinton	-9.79324
▁Londra	-9.79324
▁Şimşek	-9.79324
▁reklam	-9.79324
▁Cizre	-9.79341
irken	-9.79362
▁Vi	-9.79367
▁gördüğü	-9.79374
▁koydu	-9.79485
▁tüketici	-9.79541
▁ilginç	-9.7959
▁yapacağı	-9.79591
▁vize	-9.79592
▁Yaklaşı	-9.79607
▁ligde	-9.79614
▁onay	-9.79723
cılar	-9.79741
▁sanatçı	-9.79744
15	-9.79748
▁ister	-9.79764
▁ifadeleri	-9.79811
▁karşısına	-9.79889
▁yeşil	-9.79889
▁hesabı	-9.79902
▁meselesi	-9.79924
üyor	-9.79983
▁tablo	-9.79998
▁sözlerini	-9.80064
▁örgütüne	-9.80082
▁gurur	-9.80124
▁gözü	-9.80169
▁insani	-9.80271
ğe	-9.80314
▁ihraç	-9.80392
Dk	-9.80401
▁Brüksel	-9.80404
▁pa	-9.80436
▁rahatsız	-9.80451
▁çay	-9.80529
ilen	-9.80559
▁Terörle	-9.80575
▁Ata	-9.80587
▁mağdur	-9.80588
▁performansı	-9.80589
yse	-9.80639
▁hastalığı	-9.80704
tal	-9.80936
rı	-9.80982
elim	-9.8112
▁lig	-9.81128
▁gelişmeler	-9.8116
▁Ü	-9.81163
▁teröristlerin	-9.81164
▁Aslan	-9.81195
▁NATO	-9.81201
▁hediye	-9.81202
▁birinin	-9.81202
▁verilecek	-9.81211
ss	-9.81266
▁dağ	-9.81297
▁sıkı	-9.81302
▁almış	-9.81372
unda	-9.81451
▁program	-9.8146
kaya	-9.81466
▁uyku	-9.81485
▁Silahlı	-9.81522
▁kendilerini	-9.81673
▁Üç	-9.81704
▁öz	-9.81705
▁hükümeti	-9.8173
▁dediği	-9.8175
▁soğuk	-9.81938
▁bol	-9.81973
▁Persie	-9.82016
▁ışık	-9.8202
▁Cem	-9.82025
▁dolayısıyla	-9.82048
▁be	-9.82126
▁ambulans	-9.82131
mayı	-9.8216
▁modeli	-9.82246
▁açıklamaya	-9.82248
▁tavsiye	-9.82289
▁endeksi	-9.82319
▁mücadelede	-9.8237
▁kavga	-9.82382
▁400	-9.82418
▁maddesi	-9.82419
▁taşıma	-9.82422
nize	-9.82452
▁kurul	-9.82494
▁Bal	-9.82498
▁projesi	-9.82547
▁lise	-9.82568
▁Ziraat	-9.82585
mde	-9.82646
▁firma	-9.82654
▁Bil	-9.82726
▁say	-9.82873
▁bilen	-9.82888
▁dosya	-9.82898
om	-9.82983
▁cami	-9.82992
▁planı	-9.82998
mo	-9.83009
▁ülkelerin	-9.83032
▁çek	-9.83033
▁pozisyon	-9.83125
▁Merkel	-9.83126
▁bulun	-9.8318
▁Du	-9.83226
▁arkadaşları	-9.83227
▁açıklamasında	-9.83234
▁polisin	-9.8324
▁girdiği	-9.83247
▁2010	-9.83279
AT	-9.83299
▁Anne	-9.83402
▁nefes	-9.83421
▁alınarak	-9.83438
▁haftasında	-9.83578
▁sigara	-9.83666
▁Aşk	-9.8367
▁alındığı	-9.83692
▁seç	-9.83776
▁edildiğini	-9.83903
▁Yavuz	-9.83944
▁Stadı	-9.83945
▁fakat	-9.83947
▁toplantısı	-9.83949
▁Vodafone	-9.83954
▁mağlu	-9.83964
▁yağışı	-9.83968
▁görevlisi	-9.83971
▁Belediyespor	-9.83985
▁etkin	-9.84029
▁bırakıldı	-9.84051
▁mesajı	-9.84052
larımızı	-9.84062
lığın	-9.8411
tim	-9.84175
▁görüldü	-9.84217
▁Esad	-9.84232
▁tazminat	-9.84345
▁açan	-9.84359
bil	-9.84361
▁şeker	-9.84415
beyazlı	-9.8442
lay	-9.84431
▁Ardından	-9.84502
▁bölücü	-9.84503
▁neredeyse	-9.84514
sek	-9.84548
▁on	-9.8456
▁Bay	-9.84569
▁ikili	-9.84574
ban	-9.84596
▁öğren	-9.84601
▁seyirci	-9.84613
▁Ülke	-9.84626
▁Barış	-9.84641
ince	-9.84648
leniyor	-9.8466
▁So	-9.84724
▁Çalışma	-9.84733
▁sahası	-9.84734
▁Fetullah	-9.84778
dar	-9.84783
▁yasal	-9.84832
▁altyapı	-9.84868
▁Va	-9.84916
eri	-9.85009
▁ailesi	-9.85156
▁sorunları	-9.85202
▁Hükümet	-9.85216
▁kendine	-9.85265
▁deprem	-9.85303
eceğiz	-9.85346
▁kes	-9.85365
▁test	-9.85379
▁çalıştı	-9.85397
▁temsilcisi	-9.85448
▁sürecinde	-9.85455
av	-9.85483
▁65	-9.85487
▁saç	-9.85612
▁Pereira	-9.85627
▁Alına	-9.85636
leşti	-9.85656
▁kalbi	-9.85661
▁konser	-9.85687
DI	-9.85696
▁2014'	-9.85713
▁Valisi	-9.85749
▁tamamladı	-9.85754
▁Hollanda	-9.85766
cak	-9.85806
İL	-9.85919
▁150	-9.85925
▁denge	-9.85962
pi	-9.85969
▁Günü	-9.85974
ucu	-9.86013
▁hisse	-9.86029
▁kartı	-9.8604
▁ş	-9.86059
▁Ber	-9.86076
▁Hi	-9.86082
ysa	-9.86155
▁değişikliği	-9.86168
▁göster	-9.86174
▁gemi	-9.8624
▁sözleri	-9.86347
baş	-9.86375
yon	-9.86399
▁yaşlı	-9.86483
ası	-9.86651
▁devreye	-9.86696
▁yararlan	-9.86759
▁Muhammed	-9.86772
▁Washington	-9.86776
▁Ku	-9.86789
▁kullanarak	-9.868
▁75	-9.86862
▁göç	-9.86902
sından	-9.86905
▁gelmiş	-9.86924
LA	-9.86928
▁hesabından	-9.86958
▁mensubu	-9.86965
▁kararını	-9.87014
▁İpek	-9.87051
▁Berlin	-9.87056
▁döviz	-9.87061
▁Güzel	-9.87072
▁etmişti	-9.87084
Ne	-9.87097
ciler	-9.87108
▁araba	-9.87114
▁kanıt	-9.87282
▁aktardı	-9.87319
▁sal	-9.87324
▁alış	-9.87368
▁zam	-9.87446
▁Edinile	-9.87631
▁tak	-9.87636
▁gül	-9.87652
▁demokratik	-9.87662
▁dönüş	-9.87691
▁ders	-9.8778
▁Türkmen	-9.878
▁rejim	-9.87844
▁geçerli	-9.87847
▁kaydı	-9.87849
Türk	-9.87902
▁polise	-9.87904
▁olanlar	-9.87932
▁sinir	-9.88031
▁Kanunu	-9.88045
▁itiraz	-9.88093
▁yakınları	-9.88124
▁sınırı	-9.88161
▁Mısır	-9.88206
▁sevgi	-9.88213
▁buraya	-9.88214
▁katılım	-9.88214
▁Çanakkale	-9.88221
▁Konyaspor	-9.88228
▁uygulaması	-9.88264
meli	-9.88296
gel	-9.88376
▁Valiliği	-9.88377
▁bina	-9.88407
▁kış	-9.88442
▁Ramazan	-9.88464
▁Özgür	-9.88488
▁Kılıç	-9.88497
▁penaltı	-9.88497
▁tanım	-9.88551
▁gram	-9.88555
▁şansı	-9.88582
▁kahraman	-9.88724
▁futbolcular	-9.88725
▁toprağa	-9.88788
▁Önce	-9.88813
▁olmalı	-9.88814
▁bazen	-9.88841
▁kaçak	-9.88856
▁yolunda	-9.88941
▁olmadan	-9.88963
eli	-9.89045
▁alternatif	-9.89081
malıdır	-9.89083
▁aktif	-9.89089
▁oynanacak	-9.89095
▁yakından	-9.89104
▁Yeşil	-9.89106
lim	-9.89114
▁eleştiri	-9.89206
▁gereği	-9.89286
TA	-9.89334
Dünya	-9.89374
▁sohbet	-9.89374
▁Manisa	-9.89391
▁2008	-9.89427
lak	-9.89464
▁daire	-9.8947
leyen	-9.89616
▁düzenlendi	-9.89625
▁bağış	-9.89672
▁Bahçeli	-9.89743
▁umut	-9.89784
▁bulunması	-9.89792
▁paket	-9.89794
▁Yayın	-9.89801
▁kuvvet	-9.89807
▁aklı	-9.89817
amadı	-9.89872
▁kimsenin	-9.89903
▁izle	-9.89922
▁deplasmanda	-9.89923
Bahçe	-9.89963
rim	-9.89996
abileceği	-9.90004
gün	-9.90022
▁Gök	-9.90026
!..	-9.90071
▁göçmen	-9.9008
▁Kanun	-9.9014
▁fikir	-9.90155
▁savcı	-9.90175
müş	-9.90183
▁Ordu	-9.902
▁ihlal	-9.90218
▁nedir	-9.90258
▁olağanüstü	-9.9026
▁Işık	-9.90265
▁Hukuk	-9.90281
gül	-9.90328
▁dayan	-9.90332
▁Meclisi	-9.90385
leş	-9.90443
▁halen	-9.90444
▁şok	-9.90509
ıyoruz	-9.90528
▁hükümetin	-9.90529
▁rekabet	-9.90556
▁1-0	-9.9056
leyerek	-9.90581
▁arttı	-9.906
▁saldırısı	-9.90643
▁davran	-9.90706
▁Co	-9.90709
▁sözü	-9.90711
▁anlat	-9.90835
▁maruz	-9.90854
masına	-9.90897
▁TIR	-9.90924
zan	-9.90931
▁ağrı	-9.90933
▁duygu	-9.90944
▁ayda	-9.91034
▁açtığı	-9.91063
ku	-9.91071
duğu	-9.91121
▁sağlayacak	-9.9114
com	-9.91145
▁oynadı	-9.9115
▁bekleyen	-9.91163
▁avukat	-9.91166
▁yıllar	-9.91223
▁tehlike	-9.91252
lendirme	-9.91259
▁sigorta	-9.91274
▁motor	-9.91297
▁verici	-9.91303
▁eğitimi	-9.91312
▁haftada	-9.91351
▁ser	-9.91369
▁temas	-9.91465
▁cinayet	-9.91496
▁biçimde	-9.91538
▁Konu	-9.91647
▁sözlerine	-9.91674
sh	-9.91678
▁uyuşturucu	-9.91752
▁doğalgaz	-9.91753
▁Serdar	-9.91756
▁öde	-9.91765
▁Şenol	-9.91774
▁zirve	-9.91791
▁Bilim	-9.91819
▁eğer	-9.9182
diklerini	-9.91847
▁ihale	-9.91875
▁buluştu	-9.91932
▁süresi	-9.92013
▁Tan	-9.92057
▁Köprüsü	-9.92057
▁bırakma	-9.92123
▁kurban	-9.92127
▁Gi	-9.92147
▁açıklamaları	-9.92158
▁olurken	-9.92175
▁yetkililer	-9.92185
mar	-9.92215
ilmiş	-9.92216
▁kadınlar	-9.92332
▁işler	-9.92356
▁aşk	-9.92427
aj	-9.92476
▁dini	-9.92494
UN	-9.9255
▁aktara	-9.92574
▁öğrenciler	-9.9259
▁bölgedeki	-9.92638
▁kimliği	-9.92658
▁Kore	-9.92663
▁bedeli	-9.92676
▁avukatı	-9.92706
▁turist	-9.92883
▁düzenledi	-9.92972
▁seri	-9.92976
▁Akhisar	-9.92993
▁Gece	-9.93041
▁şekil	-9.93071
likle	-9.93099
▁Türkçe	-9.93154
▁Sen	-9.93165
▁adalet	-9.93166
▁Bunların	-9.93171
madan	-9.93223
▁Ki	-9.93238
ünün	-9.93251
▁Kısa	-9.93271
ebiliyor	-9.93307
▁arttır	-9.93314
▁600	-9.9334
▁paylaş	-9.93404
▁alınacak	-9.93416
lılar	-9.93458
80	-9.93508
emez	-9.93523
▁zemin	-9.9359
▁Binal	-9.93591
▁müşteri	-9.93596
▁maça	-9.93653
▁köşe	-9.9366
tif	-9.9373
14	-9.93801
▁Marmara	-9.93814
yar	-9.93839
▁tipi	-9.93859
▁oturan	-9.93957
▁bulan	-9.94002
▁ba	-9.94045
▁rakam	-9.94159
▁Kay	-9.9418
İstanbul	-9.94201
▁aracılığıyla	-9.94209
▁olayları	-9.94221
▁verir	-9.94226
▁kimi	-9.94242
lendiği	-9.94252
İM	-9.94265
cilik	-9.94333
▁piyasa	-9.94477
▁üstünde	-9.94488
▁Google	-9.94496
▁kuruluşu	-9.94527
▁getirdiği	-9.94537
▁belirtiliyor	-9.94539
▁aşkın	-9.94615
ydu	-9.94641
▁düşünüyor	-9.94741
▁yeme	-9.9476
▁Kilis	-9.94802
▁CEO	-9.94805
▁hazırlık	-9.94818
▁otel	-9.94822
▁paralel	-9.9486
▁gösterdiği	-9.94933
▁fotoğrafı	-9.94938
▁Vali	-9.94942
▁11'	-9.94945
▁4.5	-9.94954
▁Onur	-9.94979
▁Az	-9.95005
▁Eş	-9.95037
▁raporu	-9.95066
▁Çevre	-9.95116
▁Bundan	-9.95133
▁güçlerinin	-9.95136
▁gelip	-9.9514
▁sap	-9.95179
▁oynayan	-9.9526
IN	-9.95282
▁doğa	-9.95294
▁devleti	-9.95314
▁eksik	-9.9533
SA	-9.95369
▁Ja	-9.95391
▁yaka	-9.95394
▁meclis	-9.95427
▁Cumartesi	-9.95429
▁Eren	-9.95477
▁değeri	-9.95505
▁yoktu	-9.95533
sta	-9.95534
aç	-9.95585
▁şans	-9.95671
▁bek	-9.95737
▁Teknoloji	-9.95762
▁öneri	-9.95791
▁Oysa	-9.95831
▁Yapı	-9.95846
▁Hollandalı	-9.95916
▁dışarı	-9.9592
▁Uzman	-9.95974
▁olmuştu	-9.95985
▁söylediği	-9.96009
yarak	-9.96114
▁kulübün	-9.96146
yum	-9.96174
▁Kır	-9.96219
mayan	-9.96311
▁gidip	-9.96368
▁görülüyor	-9.96368
▁ol	-9.96372
▁Orhan	-9.96382
▁Sözcüsü	-9.96418
layacak	-9.96433
▁Tam	-9.96469
▁Kamu	-9.96478
▁hizmeti	-9.96506
fer	-9.96552
▁maddi	-9.96683
▁gidecek	-9.96685
▁Yatırım	-9.96702
▁z	-9.96726
▁kanseri	-9.96782
▁teklifi	-9.96838
▁ilişkileri	-9.96853
▁derbi	-9.96981
▁kongre	-9.97
▁Şanlıurfa	-9.97006
▁olmuştur	-9.9715
▁Orada	-9.97151
▁har	-9.97177
▁ettikleri	-9.97181
EL	-9.97217
▁kaçan	-9.97265
▁geçirdiği	-9.97304
▁Perşembe	-9.97317
▁sağlıyor	-9.97324
▁vererek	-9.97326
▁sığınmacı	-9.97326
▁ettiklerini	-9.97327
▁Göz	-9.97332
▁üste	-9.97365
▁birlik	-9.97381
▁ölen	-9.97383
▁ürünleri	-9.97417
▁Karar	-9.97424
▁taraf	-9.97506
▁tabi	-9.9751
lanacak	-9.97516
▁temsilcileri	-9.976
▁ilişkiler	-9.97613
oz	-9.97627
▁Herkes	-9.97662
▁okuma	-9.97669
▁MİT	-9.9767
▁görüyoruz	-9.97678
▁devre	-9.97723
üm	-9.97725
▁Şa	-9.9775
▁olmaması	-9.97763
▁çarptı	-9.97768
▁noktasında	-9.9778
▁Car	-9.97813
lerdir	-9.97846
▁anlaşması	-9.97889
larımızın	-9.9789
▁sektöründe	-9.9794
▁dijital	-9.97955
▁hâlâ	-9.97955
▁İnşaat	-9.97955
▁kesinlikle	-9.97963
▁Örneğin	-9.97971
▁Erzurum	-9.97972
ES	-9.97974
AM	-9.97989
▁içeren	-9.98001
▁kadınların	-9.98007
▁indir	-9.98073
▁At	-9.98121
▁sitesi	-9.98157
▁Man	-9.98203
▁yarışma	-9.98226
▁ter	-9.98227
▁Çarşamba	-9.98276
▁kod	-9.98307
nıza	-9.98323
▁kay	-9.98326
▁bölgesi	-9.98341
▁ülkeyi	-9.98357
▁55	-9.98385
▁sev	-9.98474
▁pas	-9.98486
▁ortasında	-9.98529
▁yerlerde	-9.98575
▁sorularını	-9.9862
▁Dk	-9.98714
▁bilgilere	-9.98722
▁geçiyor	-9.98737
▁tutuklama	-9.98769
▁kurtar	-9.98806
iliyor	-9.9883
▁Savaş	-9.98986
▁aldık	-9.98987
▁Selim	-9.9903
tür	-9.99072
▁içeri	-9.99075
-20	-9.99093
ji	-9.9911
lerimizin	-9.99112
▁talimat	-9.99157
AY	-9.99172
rat	-9.99194
▁kurşun	-9.99244
▁es	-9.99339
▁katılma	-9.99386
▁250	-9.99393
▁xx	-9.99399
▁yapacağız	-9.99406
▁insanı	-9.99427
▁anlatıyor	-9.99516
▁bitir	-9.99536
▁hızı	-9.99584
▁Demirtaş	-9.99586
▁Avcı	-9.99593
▁2012	-9.99633
▁Meydanı	-9.9964
▁katı	-9.9973
ama	-9.99742
▁Hayat	-9.99788
har	-9.99806
▁kaynakları	-9.99857
▁halka	-9.99897
seniz	-9.99915
▁He	-9.99963
▁Tur	-9.99989
▁saniye	-10.0003
▁kurtul	-10.0004
▁Basın	-10.0008
▁riski	-10.0014
üş	-10.0014
dıklarını	-10.0018
▁öğrencisi	-10.0018
ih	-10.0018
ot	-10.0019
▁Ünal	-10.0022
▁heyecan	-10.0025
▁Saray	-10.0036
▁Or	-10.0039
▁mahkemeye	-10.0054
▁kitabı	-10.0054
▁Şehir	-10.0055
▁birliği	-10.0057
▁Tarım	-10.0058
▁geçiren	-10.006
90	-10.0063
▁adliye	-10.0066
▁anı	-10.007
▁imkanı	-10.0071
▁sok	-10.0085
▁Gazete	-10.0087
▁kere	-10.0087
▁ekledi	-10.009
2016	-10.009
▁sağlanması	-10.0092
▁gelme	-10.0094
▁Zaten	-10.0097
▁taşın	-10.0099
▁yapıyoruz	-10.01
▁do	-10.01
ılıyor	-10.0102
▁Baba	-10.0105
▁meslek	-10.0109
-3	-10.0114
▁THY	-10.0124
▁hali	-10.0126
▁meş	-10.0128
▁37	-10.013
▁başardı	-10.013
▁yarım	-10.0134
▁yağmur	-10.0139
ımı	-10.0142
asyon	-10.0145
▁toplumun	-10.0145
▁idari	-10.0154
▁Usta	-10.0156
▁yaşandığı	-10.0162
altı	-10.0168
▁ordu	-10.0169
▁kupa	-10.0174
▁kaybetme	-10.0174
ük	-10.0183
▁tiyatro	-10.0187
▁Yargıtay	-10.0187
▁Kıbrıs	-10.0188
meyi	-10.0189
▁Manchester	-10.0189
▁Kerim	-10.019
uk	-10.0193
▁liste	-10.0201
▁Ze	-10.0204
▁kal	-10.0215
▁taciz	-10.022
▁Dursun	-10.0221
▁amaç	-10.0223
▁na	-10.0235
▁se	-10.0236
▁Adli	-10.0237
ket	-10.0238
▁iade	-10.0239
şa	-10.0242
▁Var	-10.0246
▁çalış	-10.0248
▁ekipler	-10.0255
▁çeyrek	-10.0258
▁doktor	-10.0258
▁tip	-10.0258
▁asist	-10.0264
lenmiş	-10.0269
▁birimleri	-10.0273
▁güne	-10.0276
▁1.5	-10.028
▁alır	-10.0284
▁kişisel	-10.0284
▁kuş	-10.0284
▁memnun	-10.0287
▁icra	-10.0287
▁değişim	-10.0289
▁birbirine	-10.0293
▁yoksa	-10.0296
▁mobil	-10.0297
▁Real	-10.0298
▁şirketlerin	-10.0298
▁yaptığımız	-10.0306
▁kalın	-10.031
bay	-10.0312
▁yerden	-10.0312
▁olmayı	-10.0318
▁taşıyor	-10.0322
▁duruma	-10.0324
▁gerçekleşen	-10.0325
Dİ	-10.0338
▁hat	-10.0343
▁evlilik	-10.0348
uncu	-10.0355
▁gazetesi	-10.0357
▁müsabaka	-10.0358
▁basit	-10.0358
▁düzenlenecek	-10.0358
▁Oyuncu	-10.0359
▁38	-10.0364
▁bırak	-10.0368
nizde	-10.037
▁iddiasıyla	-10.037
▁Ham	-10.037
▁sorgulama	-10.0371
▁tut	-10.0371
▁eylemi	-10.0373
▁heyet	-10.0374
▁özgürlüğü	-10.0377
lenecek	-10.0379
▁görevini	-10.038
▁muhalif	-10.0382
ME	-10.0386
▁Han	-10.0386
▁Hu	-10.0388
▁Mahmut	-10.0389
▁Özbek	-10.0389
▁Kadıköy	-10.0392
▁İnşallah	-10.0392
amayan	-10.0393
▁Üyesi	-10.0393
▁Aslında	-10.04
▁kazı	-10.04
▁uçağı	-10.04
▁kullanıyor	-10.0406
▁Pe	-10.0407
mu	-10.041
ron	-10.0413
▁ayakta	-10.0414
▁Açık	-10.042
şan	-10.0422
▁mağaza	-10.0423
▁açığa	-10.0423
▁Faruk	-10.0423
▁Hürriyet	-10.0424
▁şikayet	-10.0436
▁başlatıldı	-10.0436
▁fa	-10.0437
▁Bana	-10.0439
▁açıdan	-10.0439
▁girme	-10.0443
▁vermeye	-10.0444
tık	-10.0444
▁kurma	-10.0448
▁Gür	-10.0451
zar	-10.0452
▁bağlantı	-10.0452
▁Lu	-10.0454
▁korumak	-10.0455
▁112	-10.0457
tma	-10.0459
▁tamamlandı	-10.0459
▁mekan	-10.046
▁Terim	-10.0461
▁Ön	-10.0464
▁çizgi	-10.0465
▁taraftarlar	-10.0469
▁kuruluşları	-10.047
kçe	-10.0471
▁getirmek	-10.0472
▁olaylar	-10.0472
▁sektörü	-10.0474
▁açılış	-10.0476
▁borç	-10.0478
▁yarısı	-10.0478
▁beyin	-10.0478
ET	-10.0486
▁boz	-10.0494
▁oyuncular	-10.0494
ner	-10.0496
▁ç	-10.0498
▁taraftan	-10.0499
▁yetki	-10.0504
▁ülkeleri	-10.0508
sizlik	-10.0511
▁2011	-10.0514
Spor	-10.0525
▁İsveç	-10.0527
▁İtalyan	-10.0528
lardaki	-10.0529
▁saf	-10.0532
▁gerekçe	-10.0533
▁tutar	-10.0539
▁kampanyası	-10.0558
▁öğrencilerin	-10.0558
▁tesis	-10.056
▁Burcu	-10.0561
▁Soruşturma	-10.0561
▁önemlidir	-10.0562
▁şampiyonluk	-10.0562
bur	-10.0564
▁yüklü	-10.0565
▁giyen	-10.057
▁toplu	-10.0572
acaktır	-10.0572
▁düşünme	-10.0573
▁demir	-10.0576
▁ateşkes	-10.0587
▁elbette	-10.0595
▁Özdemir	-10.0596
▁ihbar	-10.0599
▁Pi	-10.0601
▁cemaat	-10.0607
▁sessiz	-10.0607
yat	-10.0607
▁getirilmesi	-10.0611
▁gerçekleştirdi	-10.0618
▁gönder	-10.0618
▁Bab	-10.062
▁toplantıda	-10.0621
▁bitti	-10.0626
▁beraberlik	-10.0627
iyoruz	-10.0628
▁farkında	-10.0629
▁rekor	-10.064
▁Po	-10.0641
▁uyar	-10.0642
kal	-10.0643
ste	-10.0645
▁isabet	-10.0645
▁artan	-10.0646
▁kalıyor	-10.0652
▁taşı	-10.0653
▁Bilgi	-10.0654
▁komisyon	-10.0658
▁günler	-10.0662
kırmızılı	-10.0664
▁esnasında	-10.0664
▁misafir	-10.0664
▁ihanet	-10.0664
▁denetim	-10.0665
▁ortamı	-10.0666
▁gelerek	-10.0668
▁yönetmen	-10.0669
▁vatandaşı	-10.067
rma	-10.0672
75	-10.0679
▁yap	-10.0679
▁olacağız	-10.0685
▁yönetici	-10.0686
▁ekiplerinin	-10.0688
▁Ek	-10.069
▁itiraf	-10.0693
▁yapılmış	-10.0693
▁bal	-10.0697
Tİ	-10.0699
▁gerçeği	-10.0699
▁engelli	-10.0701
muyor	-10.0704
▁Salı	-10.0714
▁yapar	-10.0717
müz	-10.0719
laması	-10.0728
ks	-10.0729
▁transferi	-10.0729
Ge	-10.0733
leştirme	-10.0734
▁sorunlar	-10.0734
paşa	-10.0734
▁42	-10.0737
▁yönet	-10.0737
gar	-10.0739
▁şüphe	-10.0744
▁getiriyor	-10.0745
▁san	-10.0746
▁biliyoruz	-10.0747
▁vermiş	-10.0751
▁açıklamalar	-10.0753
▁Suçlar	-10.0756
▁mo	-10.0761
▁ye	-10.0764
▁Nusaybin	-10.0769
▁Magazin	-10.0769
▁kaçtı	-10.077
▁mensupları	-10.077
21	-10.077
▁hatırlatan	-10.0774
▁Antalyaspor	-10.0774
▁Para	-10.0775
▁vatandaşlarımız	-10.0777
▁sayfa	-10.0785
▁Güven	-10.0786
▁yükseliş	-10.0789
▁düzen	-10.0791
▁suyu	-10.0794
▁zayıf	-10.0794
çu	-10.0795
▁Savaşı	-10.0801
▁tüfeği	-10.0805
▁işadamı	-10.0805
▁bilgisi	-10.0806
▁Umut	-10.0806
▁di	-10.0808
En	-10.081
▁Fi	-10.081
▁pay	-10.0814
▁hareketi	-10.0824
▁yaptıklarını	-10.0824
▁mesafe	-10.0826
muştu	-10.0828
▁önlemleri	-10.0829
▁saldırgan	-10.0832
▁temin	-10.0838
▁Yalçın	-10.084
▁kilit	-10.0841
▁Topal	-10.0844
▁48	-10.0845
▁girecek	-10.0849
▁yakalama	-10.0859
▁esnaf	-10.0863
lamak	-10.0865
res	-10.0865
▁yönde	-10.0866
uş	-10.0869
▁maaş	-10.087
▁görevlileri	-10.0873
▁enflasyon	-10.0883
▁noktası	-10.0888
▁balık	-10.0893
▁tutuk	-10.0902
İT	-10.0904
▁120	-10.0908
İZ	-10.0911
▁St	-10.0915
▁yetkili	-10.092
abileceğini	-10.0922
▁bağlantılı	-10.0927
▁sağladı	-10.093
▁vazgeç	-10.0937
▁şartları	-10.0945
▁ifadesi	-10.0948
▁Kasımpaşa	-10.0951
▁Kanal	-10.0961
▁durumun	-10.0964
▁nerede	-10.0968
▁fragmanı	-10.0976
▁olduğunun	-10.0978
▁olmayacak	-10.0983
▁Hakkari	-10.0983
▁İsviçre	-10.0984
▁Siyah	-10.0984
▁City	-10.0985
lamış	-10.0987
▁dönen	-10.0989
▁duyma	-10.0992
▁çıkarak	-10.0996
▁kalması	-10.1
▁benzeri	-10.1002
▁duvar	-10.1003
▁sonuçlar	-10.1003
ıldığı	-10.101
abilirsiniz	-10.1013
▁vur	-10.1014
TE	-10.1017
▁Demokrat	-10.1017
▁suikast	-10.1019
▁tamamı	-10.1028
▁isteği	-10.103
sam	-10.1031
mayın	-10.1031
tra	-10.1034
▁izni	-10.1038
▁Koca	-10.1041
▁41	-10.1052
▁maliyeti	-10.1054
▁39	-10.1055
▁asgari	-10.1056
▁Kurtulmuş	-10.1056
▁Paşa	-10.1057
▁maden	-10.1061
▁merkezli	-10.1063
▁Ho	-10.1064
süz	-10.1066
▁işletme	-10.1067
rıl	-10.1067
cık	-10.1068
▁damar	-10.1072
▁seviyesinde	-10.1073
▁etkisiyle	-10.1077
▁göreve	-10.108
▁Öyle	-10.108
▁bayrağı	-10.1083
▁ülkemizde	-10.1084
▁borcu	-10.1088
▁t	-10.1091
▁bölgelerde	-10.1091
▁Pazartesi	-10.1092
▁cilt	-10.1092
▁ulusal	-10.1093
▁düzenli	-10.1095
▁yürüyüş	-10.1098
▁hattı	-10.1101
▁olayda	-10.1103
13	-10.1105
▁renk	-10.1105
▁kontrolü	-10.1106
▁bağımsız	-10.111
▁Evet	-10.1111
lerdeki	-10.1128
▁Güneydoğu	-10.1129
▁Gomez	-10.1129
▁zamanı	-10.1133
▁kapat	-10.1133
▁araçlar	-10.1133
▁taraftar	-10.1135
▁Erol	-10.1136
▁Kurt	-10.1137
▁tehlikeli	-10.1138
▁delil	-10.1139
▁yapıldığını	-10.1143
▁başından	-10.1146
▁beyan	-10.1147
▁öğretim	-10.1152
▁durma	-10.1154
RA	-10.1165
▁Ter	-10.1165
▁yumurta	-10.1165
▁gö	-10.1168
▁girmesi	-10.1177
esi	-10.118
▁Proje	-10.118
▁mücadelesi	-10.1181
▁sporcu	-10.1183
▁Kal	-10.1186
▁Mar	-10.1186
▁günden	-10.1188
▁44	-10.1191
▁yoluyla	-10.1193
▁kullanım	-10.1194
▁hücre	-10.1198
▁Gazi	-10.1198
▁46	-10.1199
▁çalışmalarını	-10.1202
▁Semih	-10.1202
ildi	-10.1204
▁sorumluluk	-10.1206
▁yalnızca	-10.1209
ktadır	-10.121
▁tarafı	-10.121
▁sesi	-10.1214
▁düşman	-10.1214
▁mezun	-10.1215
▁memur	-10.1216
▁saldırıları	-10.1218
▁istismar	-10.1218
▁birer	-10.1219
▁suçu	-10.122
▁konularda	-10.1227
▁Har	-10.1227
ağ	-10.1232
▁cam	-10.1236
landığını	-10.1238
mesine	-10.1239
▁kaygı	-10.1239
▁Acil	-10.1243
▁ücretsiz	-10.1244
imizi	-10.1246
▁Es	-10.125
ılacak	-10.1256
▁İşleri	-10.1256
üs	-10.1268
▁ikramiye	-10.1276
▁ülkelerde	-10.1278
▁fabrika	-10.1279
amıyor	-10.1282
mekte	-10.1282
▁Saat	-10.1285
▁Per	-10.1286
-1	-10.1291
▁düzeyde	-10.1295
▁kaybettiği	-10.1297
▁sürü	-10.1307
▁47	-10.131
▁kahve	-10.1313
▁geldik	-10.1314
▁ilave	-10.1314
▁orman	-10.1314
▁olduk	-10.1316
▁yazdığı	-10.1316
▁Gu	-10.1321
▁muhabirine	-10.1324
▁anlama	-10.1334
▁demişti	-10.1334
▁gördük	-10.1335
▁işgal	-10.134
düğü	-10.1341
▁Kelime	-10.135
▁cuma	-10.1351
▁genellikle	-10.1353
▁Roma	-10.1353
▁örgütleri	-10.1353
▁Osmanlıspor	-10.1353
▁sat	-10.1358
rdı	-10.1359
▁Beş	-10.1364
ly	-10.1366
▁ordusu	-10.1367
▁2017'	-10.1369
▁helikopter	-10.1373
▁baz	-10.1375
▁nesil	-10.1381
tin	-10.1382
▁mektup	-10.1388
▁lüks	-10.1388
▁sermaye	-10.1394
▁43	-10.1395
▁Bak	-10.1397
▁irade	-10.1398
▁53	-10.1398
maması	-10.14
▁haberler	-10.1403
▁hakkını	-10.1405
17	-10.1409
▁çağrısı	-10.1409
▁miktar	-10.141
mesini	-10.1412
▁karakter	-10.1417
▁Başka	-10.1417
▁Boz	-10.1419
▁Sneijder	-10.1425
▁buradan	-10.1426
▁Amerikalı	-10.1438
▁yöneticileri	-10.1438
▁Bölgesi	-10.1443
▁Halil	-10.1445
▁ekmek	-10.1452
▁bekleme	-10.1456
hu	-10.1456
▁yolunu	-10.1457
▁yöntem	-10.1457
ac	-10.146
▁tanesi	-10.1461
▁şifre	-10.1461
▁Jo	-10.1462
▁geçecek	-10.1463
▁taziye	-10.1463
▁edilerek	-10.1465
var	-10.1466
▁çıkıp	-10.1466
İK	-10.1473
Sen	-10.1478
▁va	-10.1486
▁bulunma	-10.1487
▁artışı	-10.1489
imizin	-10.1499
▁modern	-10.1505
▁Hoca	-10.1511
nuz	-10.1512
▁sezonunda	-10.1514
▁ocak	-10.1515
▁çağır	-10.1516
▁edeceği	-10.1516
▁AŞ	-10.1516
layıp	-10.1517
▁düğün	-10.1517
▁Yıl	-10.152
▁öğrencileri	-10.152
yoruz	-10.1521
yıp	-10.1532
yorum	-10.1533
▁Karşı	-10.1537
▁John	-10.1538
▁Kenan	-10.154
▁Gıda	-10.154
▁Karaca	-10.1541
▁olası	-10.1544
▁Millet	-10.1546
▁bedel	-10.1553
▁evin	-10.1554
▁koalisyon	-10.1562
▁İn	-10.1563
▁sağanak	-10.1577
▁of	-10.1579
▁evi	-10.1587
▁tüketimi	-10.1598
▁haklı	-10.1602
yecek	-10.1609
▁sahipliği	-10.1612
▁Anahtar	-10.1616
▁Maliye	-10.1618
▁bar	-10.162
▁2007	-10.1623
lerindeki	-10.1626
▁yaklaşım	-10.1628
▁anlayışı	-10.1629
▁bilet	-10.1637
▁Ri	-10.1637
▁çal	-10.164
▁dikkatli	-10.1647
▁sunuyor	-10.1651
▁görüştü	-10.1655
▁Yasin	-10.1661
gı	-10.167
▁savaşı	-10.1671
▁Bel	-10.1673
ser	-10.169
▁merkezine	-10.1692
▁tuttu	-10.1692
▁Bayram	-10.1692
▁sürülen	-10.1694
▁g	-10.1694
▁üzeri	-10.1695
▁bit	-10.1699
▁2-1	-10.1699
▁sorunun	-10.17
▁sana	-10.17
▁atılan	-10.17
▁İnan	-10.171
▁Yer	-10.1718
▁yaşa	-10.1718
▁teröristin	-10.1721
▁Tolga	-10.1725
ry	-10.1727
▁yakınlarında	-10.1733
▁grubun	-10.1734
▁Gençlerbirliği	-10.1735
▁Kent	-10.1735
▁Nasıl	-10.1736
▁Demokrasi	-10.1738
gin	-10.1741
bı	-10.1745
▁yarış	-10.1748
▁projeler	-10.1749
▁önceden	-10.1755
▁Savcı	-10.1757
▁şirketler	-10.176
▁Akın	-10.1767
▁etmeyi	-10.1767
▁ayrılma	-10.1768
▁olabileceği	-10.177
▁Bodrum	-10.177
▁tecavüz	-10.177
▁ruh	-10.1779
▁Yan	-10.1787
▁Gençlik	-10.1789
▁ürünler	-10.1791
▁İdaresi	-10.1794
▁Fer	-10.1794
▁olamaz	-10.1798
▁dışına	-10.1804
▁kendisinin	-10.1807
▁belirledi	-10.1808
▁dalga	-10.1809
▁görünüyor	-10.181
▁Ulusal	-10.1811
▁Başbakanlık	-10.1814
▁hamile	-10.1814
abilmek	-10.1814
Saray	-10.1819
NA	-10.1821
emedi	-10.1833
▁erdi	-10.1839
▁tabanca	-10.184
ebileceği	-10.1842
▁başlaması	-10.1844
▁kapsamda	-10.1849
▁oynama	-10.1851
▁hoş	-10.1854
▁Çek	-10.1858
▁şirketleri	-10.1859
▁Mu	-10.1863
▁kardeş	-10.1865
TI	-10.1877
dere	-10.1883
▁Çavuş	-10.1885
▁arz	-10.1888
▁tünel	-10.1888
▁2-0	-10.1888
▁ikna	-10.1889
▁Esed	-10.1889
▁kemik	-10.1889
▁açılması	-10.1892
lek	-10.1893
▁bekliyoruz	-10.1894
▁akşamı	-10.1896
ou	-10.1898
▁tutan	-10.1901
▁yılından	-10.1904
▁SA	-10.1909
▁Caner	-10.1912
▁yürüttüğü	-10.1912
nizin	-10.192
▁başlar	-10.1924
▁saldırılar	-10.1927
▁takıma	-10.193
▁vermedi	-10.1931
▁Bakanlar	-10.1934
▁uygulamaları	-10.1943
abilen	-10.1944
▁zamanlarda	-10.1948
▁köyü	-10.1952
▁yarat	-10.1956
▁2002	-10.1957
▁yarıda	-10.1961
▁Ser	-10.1962
▁DE	-10.1962
Me	-10.1966
▁yerleşim	-10.1967
▁Cengiz	-10.1968
▁Kocaeli	-10.1968
▁alkış	-10.1968
▁Kurul	-10.197
▁Ozan	-10.1977
▁2009	-10.1983
▁görüntüleri	-10.1985
▁üstüne	-10.1985
▁Ajansı	-10.1987
▁yarısında	-10.1991
EK	-10.1993
▁sahil	-10.1996
▁Köyü	-10.2
▁organizasyon	-10.2001
▁edeceğini	-10.2007
▁oynuyor	-10.2007
▁organize	-10.2007
▁inanıyorum	-10.2008
▁otomatik	-10.2009
cılık	-10.2012
▁ölçüde	-10.2013
▁52	-10.2018
-2	-10.2035
▁tasarım	-10.2037
▁ortamda	-10.2045
▁halkının	-10.2045
▁Donald	-10.2047
▁Hindistan	-10.2047
▁profesyonel	-10.2047
▁yapıp	-10.2047
▁Samsung	-10.2053
▁Kimse	-10.2055
▁karşılaştı	-10.206
▁korunması	-10.2069
▁yıldızı	-10.2073
▁üret	-10.2074
▁görüşü	-10.2075
▁sürdüğü	-10.2077
▁gönderme	-10.2078
▁yat	-10.2084
▁öldürüldü	-10.2087
▁Bayramı	-10.2087
ize	-10.2088
▁kalıcı	-10.2088
▁noktaya	-10.2089
▁Günlük	-10.209
▁fatura	-10.2096
▁soy	-10.2096
▁Demirel	-10.2097
▁tarihleri	-10.21
▁Kız	-10.2101
▁konuşmada	-10.2101
▁Japonya	-10.2102
▁Cumhuriyetçi	-10.2102
▁töreni	-10.2104
▁kuzeyinde	-10.2106
ebilirsiniz	-10.2108
yo	-10.211
tti	-10.212
▁yatırımcı	-10.2121
▁tören	-10.2123
▁Riekerink	-10.2127
▁Hacı	-10.2128
▁Ödülü	-10.2135
▁Ayşe	-10.2136
▁düzeni	-10.2138
▁kurduğu	-10.2142
▁değildi	-10.2143
▁söyleme	-10.2144
▁karşılığında	-10.2145
▁sezonun	-10.2146
▁Kul	-10.2147
▁Milletler	-10.2149
▁Maç	-10.2154
sti	-10.2154
▁projeleri	-10.2159
▁festival	-10.2168
▁motosiklet	-10.2168
▁Fikret	-10.2168
▁Mesela	-10.2168
▁Odası	-10.217
▁kuzey	-10.2173
▁mensuplarının	-10.2173
▁aldıkları	-10.2179
▁doku	-10.2179
▁*	-10.2179
▁Am	-10.2182
▁ağız	-10.2182
ON	-10.2183
demir	-10.2184
▁ziyareti	-10.2185
▁it	-10.2185
▁duy	-10.2187
▁adımlar	-10.2187
▁tatlı	-10.2189
▁karşın	-10.2192
▁yıllardır	-10.2192
▁kapattı	-10.2192
hal	-10.2192
▁oran	-10.2195
▁hayır	-10.22
▁askerler	-10.2202
▁özellikleri	-10.2203
▁çevresinde	-10.2205
▁saldırısında	-10.2205
larken	-10.2209
▁Bağ	-10.221
▁Rizespor	-10.221
▁bünyesinde	-10.221
▁man	-10.2212
▁kararları	-10.2212
▁Go	-10.2212
▁yayımlanan	-10.2213
▁artarak	-10.2214
▁sorgu	-10.2215
▁canlandır	-10.2218
▁alım	-10.2224
▁kullanılması	-10.2224
▁fırsatı	-10.2224
▁seçimleri	-10.2224
▁X	-10.2226
▁bildiri	-10.2236
▁çıkarıldı	-10.2244
▁isteme	-10.2246
▁çıkmış	-10.2246
▁güney	-10.2247
▁uygula	-10.2247
kat	-10.2249
▁Yunan	-10.2249
▁Sakarya	-10.2249
▁gözlem	-10.2251
▁toplanan	-10.2254
▁güçlendir	-10.2256
ster	-10.2259
&	-10.2261
▁açıkça	-10.2261
▁kentin	-10.2262
▁görüşmeler	-10.2263
▁boyun	-10.2268
▁söyle	-10.2275
▁yakaladı	-10.2276
▁pilot	-10.2279
▁araçların	-10.228
▁değiş	-10.2282
▁ödülü	-10.2284
▁hizmetleri	-10.2287
▁Top	-10.2289
▁tren	-10.229
▁üzüntü	-10.229
▁Pakistan	-10.229
▁Sulh	-10.229
▁Avusturya	-10.2292
▁Borsa	-10.2293
▁selam	-10.2293
▁geçirilen	-10.2295
▁yürüten	-10.2298
▁şampiyon	-10.2301
▁No	-10.2302
▁sürece	-10.2302
▁km	-10.2306
▁Ru	-10.2306
▁Yaşar	-10.2306
▁kalmadı	-10.2316
▁çıkart	-10.2319
▁72	-10.2319
bat	-10.2321
▁düşme	-10.2323
▁sitesinde	-10.2324
▁Başkanlık	-10.2326
▁bayram	-10.2326
▁vitamini	-10.2329
▁Zira	-10.233
▁nükleer	-10.2332
▁◊	-10.2332
▁Sahil	-10.2332
▁yatır	-10.2332
▁getirme	-10.2332
▁Sivas	-10.2333
▁TFF	-10.2335
▁Tarihi	-10.2336
▁çizen	-10.2336
▁arkadaş	-10.2337
▁sahasında	-10.2339
▁kurtarma	-10.2339
18	-10.2339
▁çalışıyoruz	-10.2339
▁olmaktan	-10.2341
▁idam	-10.2343
▁şarkıcı	-10.2344
▁ulaşma	-10.2344
▁stratejik	-10.2353
▁yapmayı	-10.2355
▁bakış	-10.2356
İR	-10.2358
▁Hiçbir	-10.2358
daş	-10.236
▁kuvvetli	-10.2365
▁dili	-10.2367
▁koşulları	-10.2368
▁rolü	-10.237
▁uygulanan	-10.2373
meyecek	-10.2373
▁tanıma	-10.2381
▁kıl	-10.2381
▁harcama	-10.2387
▁ettim	-10.2389
lem	-10.239
▁faaliyetleri	-10.2392
▁düşmesi	-10.2392
mıyorum	-10.2394
▁politikası	-10.2395
▁bi	-10.2396
▁insanlara	-10.2397
lıyız	-10.2401
▁kazanma	-10.2402
▁oda	-10.2407
▁kadrosu	-10.2408
▁üyelerinin	-10.2408
mon	-10.2409
▁birini	-10.241
▁Sistemi	-10.241
baba	-10.2412
▁öfke	-10.2414
▁Ümit	-10.2414
▁Yunus	-10.2414
▁Bozdağ	-10.2415
▁Soylu	-10.2417
▁çekerek	-10.2418
▁iken	-10.242
▁amaçlı	-10.2421
▁alırken	-10.2421
▁yemeği	-10.2424
▁85	-10.2424
▁aşı	-10.2426
▁ip	-10.2427
▁telefonla	-10.2428
▁usta	-10.2429
ral	-10.2433
maları	-10.2433
▁yolları	-10.2433
▁avukatları	-10.2436
▁komşu	-10.2437
22	-10.2439
▁yıldan	-10.244
▁Şubesi	-10.2442
▁ağ	-10.2443
▁Askeri	-10.2446
▁savcılık	-10.2447
▁Ti	-10.2448
▁operasyonlarda	-10.2452
▁maalesef	-10.2456
▁Resmi	-10.2456
▁resim	-10.2456
▁miktarda	-10.2458
▁buluşan	-10.246
▁alacağı	-10.2462
▁zorunlu	-10.2462
▁men	-10.2463
▁olunca	-10.2465
▁Bank	-10.2465
▁geçtiği	-10.2466
larımıza	-10.247
▁Belki	-10.2473
▁girişim	-10.2474
▁oranda	-10.2478
▁Hafta	-10.2487
▁sak	-10.2488
▁taraftarı	-10.2495
KA	-10.2496
▁vücut	-10.2497
▁hâkim	-10.2498
▁İstihbarat	-10.2498
LI	-10.2506
▁vali	-10.2507
▁zamanlı	-10.2512
▁ülkemizin	-10.2512
▁sorumlusu	-10.2512
▁niye	-10.2517
dığımız	-10.2519
hir	-10.2521
▁Sü	-10.2523
ebileceğini	-10.2526
▁araçları	-10.2527
▁Hiç	-10.253
▁uyu	-10.253
▁d	-10.2533
▁yöntemi	-10.2534
▁Malatya	-10.2539
▁Advocaat	-10.254
▁Oscar	-10.254
▁lisans	-10.254
▁Balıkesir	-10.2541
▁ilde	-10.2543
▁yükselen	-10.2544
▁kişiden	-10.2544
▁toplumsal	-10.2545
▁Yurt	-10.2545
▁ağrısı	-10.2547
▁bulmak	-10.2551
EM	-10.2557
▁iddiası	-10.2562
▁açı	-10.2565
layıcı	-10.2566
▁Ses	-10.2566
!"	-10.2574
▁51	-10.2581
▁Festivali	-10.2581
▁Eskişehir	-10.2581
▁cadde	-10.2582
▁forvet	-10.2582
▁çıktığını	-10.2588
▁büyü	-10.2588
OR	-10.2591
▁oyuncunun	-10.2593
▁belir	-10.2593
▁gösterme	-10.2599
▁idare	-10.2603
▁Sal	-10.2607
▁81	-10.2607
▁geliri	-10.2613
laştı	-10.2613
▁Beni	-10.2613
65	-10.262
▁stres	-10.2624
▁diliyorum	-10.2625
▁Kahraman	-10.2627
▁Otomobil	-10.2627
▁ila	-10.2631
▁Akar	-10.2631
▁burun	-10.2634
▁salon	-10.2635
▁maaşı	-10.264
▁bölümde	-10.2645
▁tedbir	-10.2646
ker	-10.2647
▁Sekreteri	-10.2648
Her	-10.2648
▁Brezilya	-10.2649
▁dönme	-10.2652
▁girişimine	-10.2658
▁parlamento	-10.2658
sar	-10.2658
▁yazarı	-10.266
▁sür	-10.2666
▁Yap	-10.2667
▁ayakkabı	-10.2667
▁popüler	-10.2667
▁olabileceğini	-10.2668
▁kullanmak	-10.2676
▁gündür	-10.2681
▁Okul	-10.2685
▁koy	-10.2686
ürü	-10.2686
▁pe	-10.2686
▁Üst	-10.2693
▁kariyeri	-10.2693
▁yardımcısı	-10.2695
▁eşit	-10.2696
▁problem	-10.2696
▁yönetiminin	-10.27
▁turu	-10.2708
▁madalya	-10.271
▁Cenk	-10.271
▁ulaşan	-10.271
▁bilme	-10.2711
▁Oğuzhan	-10.2711
▁Tepe	-10.2712
▁bakımından	-10.2714
▁bayrak	-10.2714
dipol	-10.2715
hat	-10.2715
▁iddianame	-10.2721
▁mezar	-10.2722
Devlet	-10.2723
eş	-10.2724
▁kala	-10.2725
▁tepe	-10.2727
▁senin	-10.2729
▁arasına	-10.2729
▁avantaj	-10.2737
▁Özer	-10.2739
syon	-10.2739
▁etmedi	-10.2739
▁Ulu	-10.2741
▁isimleri	-10.2743
▁geriledi	-10.2745
▁ücreti	-10.2746
▁hazırladığı	-10.2749
▁sürdürüyor	-10.275
▁şiddetli	-10.2751
▁sıfır	-10.2753
▁geçme	-10.2754
mle	-10.2756
▁ismini	-10.2764
▁kalacak	-10.2765
▁katlı	-10.2765
▁hukuki	-10.2767
▁harekat	-10.2771
▁yaygın	-10.2773
▁ortam	-10.2773
▁sağlama	-10.2774
▁sektörün	-10.2775
▁oyuncuları	-10.2775
diğimiz	-10.278
lanır	-10.2784
▁aradı	-10.2785
▁yukarı	-10.2788
26	-10.2789
kur	-10.2789
▁tüket	-10.2795
▁işveren	-10.2796
▁yüzlerce	-10.2797
▁site	-10.2799
▁Birçok	-10.2799
mb	-10.2799
▁Gaziantepspor	-10.28
racak	-10.28
▁bulma	-10.2802
▁Bi	-10.2807
▁zorla	-10.2808
leyecek	-10.2809
▁eğ	-10.2809
▁Hal	-10.2809
▁üretici	-10.2812
▁Bas	-10.2818
05	-10.282
▁ga	-10.282
▁puanla	-10.2821
▁Ci	-10.2821
▁takdirde	-10.2835
▁SABAH	-10.2839
▁hücum	-10.2839
▁derken	-10.2843
▁54	-10.2847
▁Alper	-10.2848
▁ayrılan	-10.285
zer	-10.2852
lenir	-10.2852
▁sözde	-10.2855
▁restoran	-10.2868
▁Hak	-10.287
▁emin	-10.2872
▁değine	-10.2875
▁olduğumuz	-10.2877
▁Kırmızı	-10.2877
▁izledi	-10.2878
abil	-10.2878
▁United	-10.2883
▁söyleyerek	-10.2883
▁çıkmak	-10.2883
▁personeli	-10.2885
▁Kayserispor	-10.2885
lerce	-10.2886
▁hayatta	-10.2888
▁saatte	-10.2888
▁Kalkanı	-10.2888
▁oyuna	-10.2888
▁gönderdiği	-10.2889
▁Hasta	-10.289
▁grupların	-10.289
▁gördüm	-10.289
▁ekiplerince	-10.2891
dağ	-10.2891
▁soruları	-10.2894
riz	-10.2895
▁başladığını	-10.2898
24	-10.29
▁Üniversite	-10.2901
▁sorusuna	-10.2902
▁kamyon	-10.2903
Kİ	-10.2904
▁almıştı	-10.2906
16	-10.2907
▁dağıt	-10.2907
▁anlar	-10.2908
ışı	-10.291
▁alanlarda	-10.2914
▁tutma	-10.2914
▁dinleme	-10.2915
▁nüfus	-10.2916
▁ettiler	-10.2917
▁Sol	-10.2918
▁bankalar	-10.292
▁hesapları	-10.2925
▁sınırlı	-10.2926
▁Basketbol	-10.2926
▁yedek	-10.2926
▁3'	-10.2929
▁partisi	-10.2935
▁gelince	-10.2936
rin	-10.2936
▁hepimiz	-10.2941
makta	-10.2945
▁cevabı	-10.2946
din	-10.2947
▁tarihte	-10.2948
▁şehri	-10.2949
▁trafiği	-10.2951
▁verdik	-10.2951
47	-10.2956
▁dizisi	-10.2957
▁ayar	-10.2958
madığını	-10.2959
▁Et	-10.2961
▁iddiaları	-10.2969
▁Turkcell	-10.297
▁egzersiz	-10.297
▁konuşmasında	-10.2971
▁Bekir	-10.2972
▁Hatay	-10.2973
▁Erkan	-10.2977
-16	-10.298
▁suçlu	-10.2982
▁belirtiyor	-10.2986
▁edilmiştir	-10.2988
▁Dolar	-10.299
▁ifadesinde	-10.3002
▁değerlendir	-10.3005
▁Pro	-10.3006
▁Otel	-10.3007
meden	-10.3013
▁Fatma	-10.3015
▁hamle	-10.3017
▁şahıs	-10.3018
▁çıkarılan	-10.3023
▁müdürü	-10.3028
▁çalışmaya	-10.3029
▁geldiğinde	-10.3029
▁ar	-10.303
rt	-10.3032
▁herkese	-10.3034
rme	-10.3035
▁yönetimindeki	-10.3038
▁yaşta	-10.3038
▁hastalıklar	-10.3039
rit	-10.3048
▁ilgisi	-10.3048
▁insanlık	-10.3052
▁istendi	-10.3056
▁öldürdü	-10.3058
▁vakit	-10.3058
▁oynayacağı	-10.3059
▁şunu	-10.3059
rik	-10.3062
▁üyeliği	-10.3064
▁ailesine	-10.3066
▁etkinliği	-10.3066
▁eylemleri	-10.3067
▁parayı	-10.3074
▁ailesinin	-10.3079
▁eser	-10.3086
▁eseri	-10.3091
▁kalmış	-10.3092
▁saldırının	-10.3092
▁Sarayı	-10.3092
▁çap	-10.31
▁askerlerin	-10.31
tor	-10.3101
▁Ye	-10.3103
▁kulübe	-10.3103
23	-10.3104
▁Sev	-10.3105
▁BİR	-10.3107
▁kazandığı	-10.3108
▁bugünkü	-10.311
▁zorlu	-10.3112
▁havalimanı	-10.3112
▁Lisesi	-10.3115
▁verilerin	-10.312
▁ölümü	-10.3123
▁ucuz	-10.3124
bal	-10.3125
▁ligin	-10.3129
▁olsaydı	-10.3129
▁kaldığını	-10.313
gun	-10.3139
▁Emin	-10.3139
▁maçının	-10.3143
▁müziği	-10.3147
▁Bulut	-10.3148
▁buluyor	-10.3149
▁kura	-10.3149
▁elinden	-10.3151
▁alıcı	-10.3151
▁rejimi	-10.3152
▁yakalanması	-10.3153
▁yağışlı	-10.3161
br	-10.3162
şı	-10.3163
▁tecrübeli	-10.3163
örü	-10.3168
▁kanatta	-10.317
▁kâr	-10.3171
▁alanına	-10.3176
▁Geri	-10.3178
▁Tel	-10.3179
▁Yol	-10.318
▁ifadeler	-10.3188
▁Çakır	-10.3189
▁tamamlanması	-10.3189
29	-10.3189
▁yaşat	-10.319
▁elektronik	-10.3192
▁dernek	-10.3193
▁kolu	-10.3194
ans	-10.3197
▁cezaevine	-10.32
AP	-10.3204
▁sağlam	-10.3204
▁dost	-10.3206
▁atıldı	-10.3207
▁Paralel	-10.3209
▁uç	-10.321
par	-10.3213
▁kurulması	-10.3213
ft	-10.322
af	-10.3226
▁is	-10.3227
55	-10.3236
▁uzmanı	-10.3237
▁Cenevre	-10.3237
▁kalabalık	-10.3237
▁eşliğinde	-10.3237
▁Kredi	-10.3237
▁kesim	-10.3241
▁yayınlandı	-10.3242
▁olayla	-10.3246
▁tarzı	-10.3249
lediği	-10.325
▁takdir	-10.3252
▁Der	-10.3254
▁şahsın	-10.3256
▁Asker	-10.3257
▁imkan	-10.326
▁sistemine	-10.326
▁düştüğü	-10.3265
▁görüntüler	-10.3265
▁oradan	-10.3268
▁elini	-10.3269
▁hekim	-10.3281
▁Bölümü	-10.3285
▁olmaları	-10.3285
TL	-10.3287
▁yurtdışında	-10.3287
▁hastalıkları	-10.3288
▁haberleri	-10.3289
ris	-10.3289
madığı	-10.3289
▁demektir	-10.329
▁sordu	-10.3293
▁başarısız	-10.3294
▁Bakanlık	-10.3295
liğine	-10.3297
▁Şirket	-10.3299
mayacak	-10.3301
▁istediklerini	-10.3303
▁altındaki	-10.3303
▁deri	-10.3303
ğin	-10.3305
raf	-10.3306
▁oluşturduğu	-10.3307
mın	-10.3313
▁sınavı	-10.3316
▁imamı	-10.3318
▁metrekare	-10.3319
▁polisler	-10.3323
▁füze	-10.3328
▁üstü	-10.3328
▁yaşanıyor	-10.3328
▁uzay	-10.3329
▁kayyum	-10.3329
▁yazılım	-10.3329
▁kav	-10.333
▁sürücüsü	-10.333
liyor	-10.3334
▁kaldırılan	-10.3335
▁saldırıyı	-10.334
▁sisteminin	-10.3346
LAN	-10.335
fo	-10.3352
▁değerlendirmesi	-10.3353
▁Gol	-10.3359
▁sebze	-10.3363
▁tanık	-10.3363
▁oldum	-10.3366
▁ihbarı	-10.3368
▁açığı	-10.3368
mur	-10.337
▁belirli	-10.337
▁kanalı	-10.3371
▁artışla	-10.3371
▁Gönül	-10.3373
▁enfeksiyon	-10.3374
▁inşallah	-10.3374
▁cumhurbaşkanı	-10.3374
▁KOBİ	-10.3376
▁ilerleme	-10.3381
▁kapasitesi	-10.3381
▁parmak	-10.3381
▁tuzak	-10.3386
▁değerleri	-10.339
ril	-10.3393
▁Dış	-10.3395
▁süreli	-10.3397
▁geliştirme	-10.3406
dal	-10.3411
▁alana	-10.3411
luğa	-10.3411
▁gayret	-10.3412
▁böylece	-10.3414
▁Bin	-10.3417
▁filmin	-10.3419
▁Mer	-10.3419
▁Şii	-10.3419
▁fırtına	-10.342
▁Zeynep	-10.342
▁diz	-10.3421
▁Serkan	-10.3421
▁özen	-10.3432
lacivertli	-10.3433
▁atma	-10.3437
▁bo	-10.3443
▁eli	-10.3445
▁78	-10.3456
tım	-10.3457
leyip	-10.3457
▁adliyey	-10.3458
▁garanti	-10.3458
▁yazık	-10.3464
▁bireysel	-10.3466
▁Edirne	-10.3466
▁Gözaltın	-10.3466
YE	-10.3466
▁dakikalarda	-10.3469
▁Dava	-10.3477
▁mücadeleyi	-10.348
▁konuyu	-10.3481
▁Töre	-10.3481
Terör	-10.3483
▁varlığı	-10.3485
▁Bina	-10.3487
▁Park	-10.3489
▁sokak	-10.3491
▁gününde	-10.3498
▁başkent	-10.3498
▁49	-10.3503
▁Mert	-10.3503
▁isten	-10.3507
▁sınırları	-10.3509
▁geriye	-10.351
▁başsağlığı	-10.3512
▁Ateş	-10.3513
▁planlanan	-10.3515
▁psikolojik	-10.3518
▁Sp	-10.3518
▁oluştur	-10.3518
▁sır	-10.3521
▁teröre	-10.3521
▁ilişkilerin	-10.353
▁otomobilin	-10.353
▁kenti	-10.3534
▁Wi	-10.3535
▁x	-10.3535
laştırma	-10.3535
▁söylen	-10.3536
▁sistemini	-10.3536
▁kanlı	-10.354
▁bazıları	-10.3547
▁çıkarma	-10.3548
DAN	-10.3548
▁gazetecilerin	-10.355
▁dinle	-10.3551
▁tavır	-10.3556
▁dayanışma	-10.3559
▁Sınır	-10.3559
▁ko	-10.3564
▁düşün	-10.3567
▁geçerek	-10.3569
şehir	-10.3571
28	-10.3577
larındaki	-10.3584
▁AR	-10.3589
▁Kor	-10.3591
▁çalışmalarına	-10.3593
bilir	-10.3597
▁değişti	-10.3597
▁bölgenin	-10.3598
▁Kongre	-10.3598
▁yön	-10.3602
▁67	-10.3602
▁kurmak	-10.3605
▁Orgeneral	-10.3605
▁disiplin	-10.3605
▁abone	-10.3605
▁uyum	-10.3611
▁Mal	-10.3614
▁diyorlar	-10.3616
yalım	-10.3616
lenerek	-10.3617
▁kullanıcı	-10.3618
▁karıştı	-10.3626
ÜR	-10.3628
▁baskın	-10.3632
▁depo	-10.3632
uh	-10.3633
▁maliyet	-10.3634
▁Star	-10.3637
▁işleme	-10.3639
▁karşıtı	-10.3639
▁Av	-10.3644
▁verileri	-10.3646
terör	-10.3647
▁Finans	-10.3648
▁duyuru	-10.3652
▁Parçalı	-10.3652
▁başlangıç	-10.3652
▁harika	-10.3652
▁hendek	-10.3652
▁çekme	-10.3652
▁Rize	-10.3653
▁olayların	-10.3654
▁Cerablus	-10.3655
▁Müdür	-10.3656
▁ilişkisi	-10.3659
▁kimin	-10.3664
▁kurumlar	-10.3665
▁Hepsi	-10.3665
▁Portekizli	-10.3666
▁Eşi	-10.3668
▁şehrin	-10.3669
▁cihaz	-10.367
Ankara	-10.367
▁Şi	-10.367
▁taksi	-10.3675
▁vatandaşın	-10.3676
▁husus	-10.3677
▁şube	-10.3678
▁Has	-10.3679
▁kalk	-10.368
▁yılları	-10.3682
▁organ	-10.3683
▁atama	-10.3684
▁çözümü	-10.3686
▁kapsamlı	-10.3699
▁mahkum	-10.3699
▁yürürlüğ	-10.3699
▁Ağbal	-10.37
▁sabit	-10.37
▁karanlık	-10.37
▁avro	-10.3702
▁geçmek	-10.3702
▁Cezaevi	-10.3702
▁moral	-10.3703
▁durdur	-10.3705
▁eti	-10.3705
▁oyuncuların	-10.3711
▁serisi	-10.3718
▁eline	-10.3719
dy	-10.3721
▁sor	-10.3725
):	-10.3726
yorsunuz	-10.373
▁denk	-10.3734
▁kul	-10.3742
TO	-10.3743
▁çarpı	-10.3744
▁edilmişti	-10.3744
▁analiz	-10.3745
▁konferans	-10.3747
▁duyduğu	-10.3748
▁duruyor	-10.3749
lam	-10.3749
▁görünce	-10.375
▁subay	-10.3753
▁Tar	-10.3753
▁mutluluk	-10.3755
▁bölgesel	-10.3755
35	-10.3756
▁bakanlık	-10.376
▁vadeli	-10.3761
▁yenilgi	-10.3765
Suriye	-10.3765
tro	-10.3766
▁durumlarda	-10.3773
▁başbakan	-10.3776
ff	-10.378
▁Dairesi	-10.3782
▁vicdan	-10.3783
▁doları	-10.3784
▁örgüte	-10.3794
▁kalkınma	-10.3796
▁Kandil	-10.3797
▁çekilen	-10.3799
▁sokakta	-10.3803
ılarak	-10.3804
▁savundu	-10.3804
▁öncelikle	-10.3804
▁çatışmalar	-10.3807
▁araştırmalar	-10.3807
▁evli	-10.3808
▁müze	-10.381
▁Cami	-10.381
Ekonomi	-10.3813
▁rast	-10.3815
cik	-10.3818
▁bine	-10.382
▁giriyor	-10.3822
ven	-10.3824
▁onur	-10.3827
▁işleri	-10.3828
▁öte	-10.3831
▁ulaşım	-10.3834
▁tarihli	-10.3835
01	-10.3836
ud	-10.3838
▁geçmesi	-10.3838
vo	-10.384
▁alkol	-10.3841
▁miting	-10.3844
▁şeyin	-10.3844
abilmesi	-10.3845
▁aktör	-10.385
▁değerlendiren	-10.3851
99	-10.3854
imize	-10.3854
▁hayatına	-10.3854
▁Bölgede	-10.3858
▁indi	-10.386
▁ölme	-10.3861
▁deneyim	-10.3863
▁gözler	-10.3866
DHA	-10.3867
▁56	-10.3872
sızlık	-10.3878
▁çektiği	-10.3889
▁Astsubay	-10.389
▁Çiçek	-10.389
▁geçirmek	-10.3891
▁tutuklanan	-10.3892
▁Ertuğrul	-10.3892
▁çapında	-10.3893
▁Medya	-10.3894
▁görsel	-10.3895
EY	-10.3895
▁Önümüzdeki	-10.3896
▁musunuz	-10.3898
▁gazetecilere	-10.3899
▁ederim	-10.3901
zo	-10.3901
▁moda	-10.3905
▁giz	-10.3908
▁yitirdi	-10.3909
▁derdi	-10.3911
▁VE	-10.3911
▁aktar	-10.3914
▁geliştir	-10.3917
07	-10.3917
masının	-10.3921
▁albüm	-10.3923
▁ekim	-10.393
▁Hakları	-10.3932
▁kolaylaştır	-10.3933
▁güncel	-10.3935
▁Muğla	-10.3939
▁tavrı	-10.3939
▁oluşturuyor	-10.3939
▁açma	-10.3939
▁fiziksel	-10.394
▁kontrolünde	-10.3941
don	-10.3943
▁emri	-10.3943
▁Albay	-10.3946
▁istenen	-10.3947
▁vermişti	-10.3949
▁geçmişte	-10.3952
▁Adil	-10.3953
gil	-10.3953
▁Gar	-10.3955
▁Kış	-10.3956
▁gelişmiş	-10.396
▁Uzmanı	-10.3962
▁izleyici	-10.3963
▁bahçe	-10.3965
▁uygulanması	-10.3969
ıyorum	-10.397
▁Güler	-10.3971
▁2'	-10.3971
duğunu	-10.3971
▁Kadınlar	-10.3974
▁hane	-10.3974
▁operasyonların	-10.3976
▁hakkındaki	-10.3986
▁Quaresma	-10.3987
▁ihmal	-10.3987
▁başlıklı	-10.3993
üstü	-10.3998
▁listesinde	-10.3998
türk	-10.4003
larınızı	-10.4003
▁kendileri	-10.4005
▁aldıklarını	-10.4007
▁güvenliğini	-10.4009
▁On	-10.401
▁katıl	-10.4014
ettin	-10.4016
istan	-10.4018
üne	-10.4021
▁alanları	-10.4022
▁memleketi	-10.4023
▁Katar	-10.4023
lamaya	-10.4029
İş	-10.4031
larım	-10.4033
▁haksız	-10.4033
▁namazı	-10.4033
▁bıçak	-10.4033
▁istemiyor	-10.4033
▁Sun	-10.4033
▁yapılır	-10.4035
▁pasaport	-10.4036
▁Tosun	-10.4039
▁kasa	-10.4041
▁alımı	-10.4042
▁beğen	-10.4043
▁vuruşunda	-10.4054
▁AL	-10.4057
▁götür	-10.4058
▁iste	-10.4062
▁hayati	-10.4067
▁Yolu	-10.4068
▁gerçekleştiren	-10.4068
▁uyan	-10.407
▁yapısı	-10.4075
sün	-10.4078
▁minibüs	-10.4085
▁seviye	-10.4089
▁başlandı	-10.409
▁yakalanan	-10.409
▁gönüllü	-10.4091
▁Adam	-10.4092
▁Araç	-10.4094
▁miktarı	-10.4095
▁bölgelerinde	-10.4101
▁bulduğu	-10.4103
▁yaklaş	-10.4103
▁hastalığın	-10.4106
▁savaşın	-10.4109
▁cezasına	-10.4114
▁Ver	-10.4115
mut	-10.4117
▁başlat	-10.4122
▁geçer	-10.4122
▁günleri	-10.4123
▁2000	-10.4125
▁vereceği	-10.4132
iyorum	-10.4132
▁kedi	-10.4134
▁saldırıya	-10.4134
▁İstiklal	-10.4134
▁Yabancı	-10.4134
▁SGK	-10.4134
▁nakli	-10.4134
▁uyarısı	-10.4135
▁alındığını	-10.4147
▁Camii	-10.4148
▁Görev	-10.415
▁Kadir	-10.415
▁bakma	-10.4151
▁aylarında	-10.4157
▁duran	-10.4159
▁binanın	-10.416
▁dönemlerde	-10.4162
▁ani	-10.4162
▁cerrahi	-10.4162
▁kararının	-10.4165
▁ekibin	-10.4166
▁ayrıntı	-10.4166
▁gü	-10.4168
▁karşılıklı	-10.4172
▁görüşmeleri	-10.4176
▁Büyükelçisi	-10.4178
öz	-10.418
▁göstermek	-10.418
▁ülkeden	-10.4182
▁Levent	-10.4184
▁somut	-10.4184
▁kilogram	-10.4184
▁otur	-10.4186
▁çevir	-10.4189
▁Kızılay	-10.419
▁geçişi	-10.4192
▁karşılaş	-10.4195
▁fon	-10.42
▁Sağ	-10.4201
▁yaşı	-10.4202
lerdi	-10.4203
▁Projesi	-10.4203
▁gerekse	-10.4203
▁başlattığı	-10.4205
▁Alp	-10.4207
▁Biden	-10.4208
Rusya	-10.4211
▁saati	-10.4216
▁içer	-10.4217
▁Banka	-10.4217
▁fiyatlarında	-10.422
▁değerlendirdi	-10.4221
▁söylemek	-10.4223
▁karış	-10.4227
▁Oğuz	-10.4232
lerimize	-10.4232
▁Ju	-10.4233
′	-10.4233
▁Elektrik	-10.4233
▁Muhammet	-10.4233
▁nefret	-10.4233
▁santral	-10.4233
▁şahit	-10.4234
▁liman	-10.4234
▁TRT	-10.4235
▁Artvin	-10.4235
▁durumunun	-10.4238
▁düşünüyoruz	-10.4239
▁kültürel	-10.4239
lanırken	-10.424
ham	-10.4245
lerinizi	-10.4247
▁ilçesine	-10.4252
▁özür	-10.4252
▁oturum	-10.4254
▁trafiğ	-10.4255
▁içeride	-10.4258
mü	-10.4258
▁800	-10.4261
▁sunduğu	-10.4262
▁karara	-10.4263
▁kulak	-10.4264
▁Mat	-10.4266
▁oynat	-10.4266
▁vücudun	-10.427
▁ayağı	-10.4273
▁uçağın	-10.4275
▁sil	-10.4276
▁pazarı	-10.4278
iniz	-10.4279
▁tekne	-10.4281
▁başladık	-10.4282
▁istemiyle	-10.4283
▁gözyaşları	-10.4285
▁önlem	-10.4287
▁üssü	-10.4288
▁alınmış	-10.4289
▁eserleri	-10.4291
▁zamanla	-10.4292
▁skor	-10.4296
▁oluşuyor	-10.4298
▁Yazı	-10.4303
▁çalışmak	-10.4306
rd	-10.4306
▁bağlantısı	-10.4315
amayacak	-10.4319
▁sözleşmesi	-10.432
▁ilçede	-10.432
DEN	-10.4321
▁yağış	-10.4321
▁m	-10.4327
sunu	-10.4328
SI	-10.433
▁yılına	-10.4331
▁sınırında	-10.4333
▁dördüncü	-10.4334
▁zehir	-10.4334
▁muhteşem	-10.4334
▁yakıt	-10.4334
▁Kazada	-10.4334
▁patlat	-10.4335
▁emir	-10.4338
so	-10.4339
▁azından	-10.4342
▁testi	-10.4343
▁standart	-10.4347
▁plana	-10.4354
ücü	-10.4355
ildiği	-10.4358
▁artıyor	-10.4358
▁reform	-10.4359
▁sürecinin	-10.436
▁oranları	-10.4362
▁milleti	-10.4368
▁63	-10.4376
▁okulların	-10.4379
iç	-10.4379
▁duruşu	-10.438
▁Mevlüt	-10.4384
▁Münih	-10.4384
▁Öksüz	-10.4384
▁idman	-10.4384
▁İspanyol	-10.4384
▁düzenleyen	-10.4385
▁Kanada	-10.4385
▁Zafer	-10.4385
▁geleneksel	-10.4385
▁deneme	-10.4387
▁ellerinde	-10.4391
▁milyonlarca	-10.4391
▁Toplam	-10.4394
▁mevsim	-10.4395
▁bebeğin	-10.4396
▁İngilizce	-10.4397
▁kalem	-10.4398
Ba	-10.4405
▁mücadelenin	-10.4406
▁Konut	-10.441
▁belgesi	-10.4415
▁odaklan	-10.4415
▁sistemin	-10.4416
▁sundu	-10.4419
▁içeriği	-10.4419
▁kararın	-10.4419
▁girmek	-10.4421
▁olduğundan	-10.4423
▁ağaç	-10.4428
▁tuz	-10.443
▁görülme	-10.4431
▁değiliz	-10.4431
▁Kat	-10.4432
ıldığını	-10.4434
▁uyruklu	-10.4435
▁bizzat	-10.4435
▁galip	-10.4435
▁Kerry	-10.4436
▁Birleşi	-10.4437
▁çatı	-10.4438
▁Tunceli	-10.4438
▁hazırlanıyor	-10.4439
▁Final	-10.4439
▁isyan	-10.4441
▁gücünü	-10.4449
▁kendimi	-10.445
dri	-10.4451
▁tarafında	-10.4451
▁kuralları	-10.4452
▁bitki	-10.4455
▁şehidin	-10.4457
▁konuldu	-10.4458
▁yollar	-10.4459
oğu	-10.446
▁karşılaşmada	-10.4462
ABD	-10.4464
▁Kaç	-10.4469
▁sağladığı	-10.4469
▁Neden	-10.4469
▁şoförü	-10.447
ent	-10.4473
ang	-10.4473
▁66	-10.4474
▁piyasaya	-10.4475
bra	-10.4476
▁59	-10.4486
▁yardımı	-10.4487
▁bil	-10.4489
▁ailenin	-10.4489
▁ağlar	-10.4489
▁Hanım	-10.4492
▁başkanları	-10.4498
▁onlarca	-10.4499
tt	-10.45
▁Yasa	-10.45
▁katkısı	-10.45
▁yaşadıkları	-10.4501
mediğini	-10.4504
▁değerlendiril	-10.4506
▁bunlara	-10.4511
▁çıkarmak	-10.4513
▁başa	-10.4515
birinden	-10.4517
ben	-10.4519
▁çocuklara	-10.452
▁Yaz	-10.4521
▁eşinin	-10.4528
lıların	-10.4529
cağı	-10.4529
▁1.2	-10.453
▁programları	-10.4533
▁yatırımları	-10.4535
▁ekonomisi	-10.4536
▁randevu	-10.4537
▁ediyorlar	-10.454
▁Doğru	-10.4541
▁kulübü	-10.4543
▁Ercan	-10.4544
▁götürdü	-10.4545
.000	-10.4546
LARI	-10.4548
▁merkezleri	-10.4548
02	-10.4553
saydı	-10.4554
çü	-10.4557
Bugün	-10.4564
▁kök	-10.4567
▁cezaevinde	-10.4568
▁doğan	-10.4569
▁söylemişti	-10.4575
▁ham	-10.4583
mediği	-10.4587
▁po	-10.4588
▁Android	-10.4589
▁referandum	-10.4589
▁AVM	-10.4589
CE	-10.4589
▁çekildi	-10.4589
▁Mutlu	-10.459
▁atıyor	-10.459
▁Celal	-10.4591
ılır	-10.4594
▁sürdüren	-10.4596
▁giderken	-10.4597
gü	-10.4598
▁sektörünün	-10.46
▁İs	-10.4603
▁katma	-10.4603
▁ajansı	-10.4605
Kur	-10.4607
ja	-10.4609
▁dokun	-10.461
▁gez	-10.4617
vet	-10.4619
▁hikaye	-10.4622
▁uygulamaya	-10.4628
▁renkli	-10.463
▁projenin	-10.4631
▁verimli	-10.4632
▁tanıtım	-10.4633
▁dünyasının	-10.4636
▁evden	-10.4637
▁Çift	-10.4639
▁Adnan	-10.4641
▁Petrol	-10.4641
▁mevzuat	-10.4642
▁saatlerde	-10.4643
▁dışındaki	-10.4643
▁neticesinde	-10.4643
▁hayali	-10.4644
▁gerekmektedir	-10.4645
▁albümü	-10.4645
▁golle	-10.4645
▁okula	-10.4646
▁getirerek	-10.4647
▁Pan	-10.4647
▁gruplar	-10.4648
▁gemisi	-10.465
ilecek	-10.465
▁dönük	-10.4652
▁doğumlu	-10.4654
▁vatandaşları	-10.4656
▁Kazan	-10.4657
gerçekleştirdiği	-10.4658
▁etkileri	-10.466
▁seviyesine	-10.4661
nik	-10.4662
▁Zirvesi	-10.4664
ecektir	-10.4673
▁ağı	-10.4674
▁hızlandır	-10.4676
▁şüpheliler	-10.4679
▁malzeme	-10.4683
▁takımda	-10.4684
▁tasarruf	-10.4687
▁yıllarında	-10.4687
31	-10.4689
▁ağabeyi	-10.4689
▁doldur	-10.4692
▁Muharrem	-10.4693
▁Telekom	-10.4693
▁mühimmat	-10.4693
▁tebrik	-10.4693
▁kişilere	-10.4694
İB	-10.4695
▁boşanma	-10.4696
▁ters	-10.4698
▁Fed	-10.4699
ime	-10.4701
▁Okulu	-10.4702
ktedir	-10.4707
lt	-10.4712
▁anlaşıl	-10.4713
▁liderleri	-10.4713
▁müzakere	-10.4716
▁Toplum	-10.4718
▁Din	-10.4718
kara	-10.472
▁ondan	-10.4722
-19	-10.4723
95	-10.4727
▁oturma	-10.4727
▁okudu	-10.473
▁sayısında	-10.4732
lacivertliler	-10.4732
art	-10.4736
düğünü	-10.4739
▁ağzı	-10.4739
▁Bize	-10.4742
·	-10.4745
▁Avukat	-10.4745
▁bonservis	-10.4745
▁tehdidi	-10.4745
▁manzara	-10.4745
▁çekici	-10.4747
▁önünü	-10.4747
▁dilekçe	-10.4747
▁sunulan	-10.475
▁Özcan	-10.4751
ğü	-10.4753
61	-10.4754
▁yüzünü	-10.4756
lığına	-10.4757
▁konuya	-10.4758
03	-10.4759
▁çıkardığı	-10.4762
▁ülkelere	-10.4764
▁çıkmaya	-10.4767
Şu	-10.4767
▁58	-10.4769
▁işyeri	-10.4769
▁camia	-10.4773
▁kuruluş	-10.4775
▁bey	-10.4776
▁biten	-10.4778
▁babasının	-10.4778
▁çalıştığını	-10.4783
▁değilim	-10.4785
▁ortağı	-10.4787
▁Tekin	-10.4788
▁adamın	-10.479
▁boya	-10.479
▁adamları	-10.479
▁seviyede	-10.4791
ÜN	-10.4792
▁talimatı	-10.4794
seydi	-10.4796
▁Gümüş	-10.4797
▁düşür	-10.4797
▁yoluna	-10.4797
pınar	-10.4797
▁işadamları	-10.4798
▁ufak	-10.4798
▁Tugay	-10.4798
▁finale	-10.4798
▁zırhlı	-10.4801
▁gönderilen	-10.4801
▁Karşılaşma	-10.4802
▁kazanç	-10.4804
▁geleceğini	-10.4805
▁Direktör	-10.4806
▁yıkıl	-10.4813
▁aşamasında	-10.4814
▁namaz	-10.4815
▁falan	-10.4819
▁maçlarda	-10.4819
▁belgeleri	-10.4821
▁dar	-10.4822
▁Mir	-10.4824
▁konular	-10.4825
▁ürünlerin	-10.483
IM	-10.483
▁geçir	-10.4836
▁sakat	-10.4837
▁sözler	-10.4837
▁araçla	-10.4843
▁terörün	-10.4846
sem	-10.4846
▁dans	-10.4847
▁litre	-10.4851
▁otomotiv	-10.4851
▁Sabri	-10.4851
▁sarf	-10.4852
▁yönetiminde	-10.4852
▁akışı	-10.4852
▁Elazığ	-10.4853
▁duygusal	-10.4854
amadığı	-10.4854
▁kurdu	-10.4856
TÜ	-10.4857
▁Çayk	-10.4867
▁Sch	-10.4867
▁dönüştür	-10.487
▁imam	-10.487
nur	-10.4872
▁yanıtladı	-10.4874
▁şiir	-10.4874
landırma	-10.4875
▁hatırlattı	-10.4882
oloji	-10.4883
▁ameliyatı	-10.4886
▁fotoğrafları	-10.489
▁kelime	-10.489
▁tutarı	-10.4891
▁hatırla	-10.4894
▁futbolcunun	-10.4894
▁örneği	-10.4895
▁fuar	-10.4898
▁dediler	-10.4898
▁verildiği	-10.49
▁kullanıldı	-10.4902
▁gönül	-10.4902
▁Asayiş	-10.4904
▁roket	-10.4904
▁emanet	-10.4904
▁Bingöl	-10.4904
ard	-10.4906
▁sorunların	-10.4906
▁Ermeni	-10.4907
▁eriş	-10.4907
▁Ban	-10.4908
▁piyasada	-10.491
ara	-10.491
▁pozisyonu	-10.4911
▁Yönetimi	-10.4911
▁yolculuk	-10.4911
▁Çocuklar	-10.4912
▁57	-10.4913
▁tedbirler	-10.4914
▁konumunda	-10.4916
▁kazanmak	-10.4918
ebilmek	-10.4921
▁ez	-10.4924
▁paylaştığı	-10.4924
09	-10.4931
▁tehlikesi	-10.4935
▁koyma	-10.4936
▁kafe	-10.4938
▁Organiz	-10.4939
til	-10.4941
▁yerleşti	-10.4941
▁tecrübe	-10.4943
▁anında	-10.4947
▁700	-10.4948
▁karakteri	-10.4948
▁mah	-10.4949
▁oluşturdu	-10.495
▁seçimi	-10.495
▁emeklilik	-10.4954
beyazlılar	-10.4955
▁pahalı	-10.4957
▁Ulaştırma	-10.4959
▁ata	-10.4959
▁bilmiyorum	-10.496
08	-10.4961
▁uçakları	-10.4963
▁hacmi	-10.4963
▁vermeyi	-10.4965
▁etmektedir	-10.4965
▁kına	-10.497
▁kork	-10.497
▁uzmanlar	-10.4972
▁kamuoyu	-10.4973
▁belgeler	-10.4977
▁Vatan	-10.4979
▁pi	-10.498
▁kapasite	-10.4983
▁kararlı	-10.4983
▁hastaların	-10.4988
▁harekatı	-10.4988
▁gidil	-10.4993
▁verdikleri	-10.5003
layın	-10.501
▁yazısı	-10.5011
▁böbrek	-10.5011
▁oraya	-10.5011
▁Gerçek	-10.5012
▁büyümesi	-10.5012
▁Avustralya	-10.5013
▁mart	-10.5013
▁Polat	-10.5014
fet	-10.5014
▁kaynaklar	-10.5014
▁bilimsel	-10.5016
▁vefat	-10.5017
▁kalite	-10.5021
▁tarihe	-10.5022
▁Fuarı	-10.5024
▁ihracatı	-10.5026
▁yarışı	-10.5028
▁çalışanı	-10.503
▁çete	-10.5033
▁görüşmede	-10.5037
▁satıl	-10.5038
▁İz	-10.5038
inizi	-10.5039
▁teknolojisi	-10.5041
▁oto	-10.5042
▁BA	-10.5043
▁Tesisleri	-10.5044
▁yitir	-10.5044
kent	-10.5045
▁Daire	-10.5046
▁görüşmesi	-10.5048
▁etkisini	-10.5048
▁sayısını	-10.5049
▁omuz	-10.5056
▁salonu	-10.5056
▁istikrar	-10.5063
▁isimlerin	-10.5063
▁Galaxy	-10.5065
▁Turgut	-10.5065
▁otopsi	-10.5065
▁Pınar	-10.5065
▁metro	-10.5067
▁şekli	-10.5067
▁kutla	-10.5068
▁edilirken	-10.5068
▁gördüğünü	-10.5068
▁gezi	-10.5068
▁fikri	-10.507
▁Emir	-10.5072
▁indirimi	-10.5073
▁kökenli	-10.5076
▁planları	-10.5077
tel	-10.5078
▁cezalandırılma	-10.508
▁mesajlar	-10.508
▁eyalet	-10.5083
▁operasyonları	-10.5089
▁1,5	-10.5093
▁golcü	-10.5093
▁cümle	-10.5095
▁bakın	-10.5096
lmaz	-10.5102
▁Kut	-10.5104
▁tarz	-10.5105
▁kültürü	-10.5111
▁ülkesi	-10.5112
▁filmde	-10.5113
▁zafer	-10.5114
▁kesintisi	-10.5117
▁layık	-10.5119
▁Emekli	-10.512
▁Yakın	-10.5121
Yeni	-10.5122
▁çanta	-10.5122
▁çalışırken	-10.5122
▁hattında	-10.5125
▁anket	-10.5125
▁Kap	-10.5127
Sİ	-10.5129
▁2006	-10.5129
▁Musa	-10.5129
▁değişik	-10.513
▁Dünyada	-10.5131
▁5'	-10.5134
04	-10.5134
▁üstün	-10.5135
kış	-10.5135
▁Birinci	-10.5136
▁ilerleyen	-10.5137
▁korun	-10.5138
▁ikisi	-10.5139
▁eğlence	-10.514
▁beklentisi	-10.514
▁ideal	-10.5142
▁Müzesi	-10.5142
▁kadını	-10.5144
▁Zeki	-10.5145
▁yolun	-10.5146
▁çekmek	-10.5147
▁organları	-10.5148
▁11.	-10.5155
▁ili	-10.5157
diye	-10.5165
▁mide	-10.5166
▁Şam	-10.5168
wa	-10.5169
▁çalışmalarının	-10.517
▁gelişimi	-10.5171
▁sisteme	-10.5172
▁iyice	-10.5173
▁cesaret	-10.5174
▁HABER	-10.5174
▁Destek	-10.5174
▁Üstelik	-10.5174
▁Batman	-10.5174
▁arzu	-10.5178
▁isterim	-10.5182
▁katılacak	-10.5185
ec	-10.5186
▁maçını	-10.5186
▁efsane	-10.5187
▁beklediği	-10.5188
▁herkesi	-10.5191
▁markası	-10.5194
▁yaşamı	-10.5198
ıyorlar	-10.5198
▁oğlunu	-10.5199
▁ruhu	-10.52
▁günün	-10.5202
▁saldır	-10.5202
▁kayıtlı	-10.5214
▁yatırımlar	-10.5218
▁hedefleri	-10.5218
▁arıyor	-10.5221
▁senaryo	-10.5222
▁76	-10.5222
▁kategori	-10.5223
▁kanat	-10.5225
▁darbeci	-10.5227
▁iftira	-10.5229
▁zamanında	-10.523
▁detaylar	-10.5231
▁İmam	-10.5231
▁sevgilisi	-10.5232
▁programında	-10.5236
▁ö	-10.5238
▁çıkarken	-10.5245
▁adres	-10.5246
▁eleştir	-10.5247
▁laf	-10.5248
▁sanki	-10.5253
46	-10.5256
▁bilir	-10.5258
▁Dağ	-10.5258
▁muhalifler	-10.5263
lanıp	-10.5266
▁basına	-10.5267
▁82	-10.5273
▁tarihine	-10.5277
▁boşa	-10.5278
▁kullanıldığı	-10.5279
soy	-10.5279
▁kesimleri	-10.528
▁kitle	-10.5281
ğunu	-10.5282
▁bel	-10.5283
▁müthiş	-10.5284
▁Yüksekova	-10.5286
▁Körfez	-10.5286
▁açıklamıştı	-10.5287
▁şikayetçi	-10.5288
▁karşılığı	-10.5288
▁masum	-10.5289
▁sürecek	-10.529
▁Hay	-10.529
▁dayalı	-10.5291
nızın	-10.5291
▁Berat	-10.5292
"...	-10.5297
▁Esra	-10.5301
▁mahkemece	-10.5303
tay	-10.5305
▁durdu	-10.5306
sever	-10.5306
▁aksine	-10.5306
▁79	-10.5306
▁TE	-10.5308
▁We	-10.5309
▁girişi	-10.5309
▁Kon	-10.531
leyici	-10.531
▁olmasının	-10.5311
▁aydır	-10.5315
▁kaldırıldığı	-10.5315
▁partinin	-10.5321
▁meme	-10.5327
▁dışarıda	-10.5328
▁62	-10.533
▁sağlar	-10.5331
▁Onu	-10.5332
▁durdurulması	-10.5333
De	-10.5336
▁seni	-10.5339
▁artır	-10.534
▁Gümrük	-10.534
▁kararına	-10.534
▁suretiyle	-10.534
▁gayrimenkul	-10.534
▁sıvı	-10.534
▁Seçim	-10.534
▁uygulanacak	-10.534
▁veriliyor	-10.5341
▁dünyası	-10.5342
ski	-10.5343
▁Messi	-10.5347
yüz	-10.5348
▁haftanın	-10.5348
rip	-10.535
▁2003	-10.5352
▁ürünü	-10.5354
rü	-10.5355
▁açıklayan	-10.5356
▁sakin	-10.5357
▁atarak	-10.5357
▁düşünen	-10.536
▁hayırlı	-10.5363
▁besin	-10.5365
▁taşıdı	-10.537
▁Sel	-10.5378
▁platform	-10.538
UM	-10.5381
bak	-10.5383
▁Ah	-10.5385
▁yatak	-10.5387
▁açıklamasını	-10.539
27	-10.5392
▁takımının	-10.5394
▁olanların	-10.5394
▁hafıza	-10.5396
▁Diyanet	-10.5396
▁Bakırköy	-10.5396
▁sürüldü	-10.5397
▁Yüz	-10.5399
▁Akif	-10.5401
▁Sey	-10.5401
▁adıyla	-10.5402
▁ölçü	-10.5406
▁tartışıl	-10.5407
▁düzenlemeler	-10.5407
ınız	-10.5412
▁dön	-10.5412
top	-10.5416
BA	-10.5418
LIK	-10.5421
▁eleme	-10.5422
▁vizyon	-10.5423
▁2.5	-10.5425
melidir	-10.5427
▁biliniyor	-10.5428
▁muhaliflerin	-10.5429
▁Em	-10.5429
▁katında	-10.5435
▁firmalar	-10.5435
▁yargılama	-10.5438
▁tatili	-10.544
▁arayan	-10.5441
▁koyduğu	-10.5442
dılar	-10.5443
▁propagandası	-10.5444
▁Dev	-10.5445
▁Mil	-10.5445
▁Kas	-10.5447
▁hariç	-10.5452
▁denilen	-10.5453
▁Satış	-10.5453
▁ettiğimiz	-10.5455
▁kararlar	-10.5455
▁varlık	-10.5458
▁inanç	-10.546
▁ekiplerine	-10.546
▁Dil	-10.5463
▁İlhan	-10.5463
▁gerilim	-10.5464
▁bulunmuştu	-10.5464
▁işlemler	-10.5466
▁veriyoruz	-10.5467
+1	-10.5467
▁sürecin	-10.547
▁kentte	-10.5472
mal	-10.5475
▁1-1	-10.5478
▁davanın	-10.548
val	-10.548
▁sahneye	-10.5481
▁Oyun	-10.5481
▁Hakim	-10.5482
▁fiyatlar	-10.5483
bb	-10.5484
göz	-10.5484
umuz	-10.5495
▁toplamda	-10.5496
▁sevgili	-10.5499
▁bekle	-10.55
▁kadına	-10.5503
kâr	-10.5504
▁zanlı	-10.5504
▁köyünde	-10.5506
▁Karşıyaka	-10.5508
▁radyo	-10.5509
34	-10.5509
ACAK	-10.5509
▁Tarih	-10.5509
▁Başkent	-10.5509
▁bankacılık	-10.551
▁Engin	-10.5512
▁gelmişti	-10.5514
▁Kral	-10.5515
▁hapse	-10.5517
▁KA	-10.5518
▁detaylı	-10.552
▁yapmıştı	-10.5521
▁Mak	-10.5524
▁politikaları	-10.5524
▁faydalı	-10.5526
▁Op	-10.5533
anlar	-10.5534
luyor	-10.5534
▁yürü	-10.5535
▁davada	-10.5536
▁işsizlik	-10.5536
▁Akıncı	-10.5537
▁ağırlık	-10.5538
▁Dağı	-10.5539
▁müdahalesi	-10.5542
▁desteğiyle	-10.5544
ef	-10.5551
▁Martin	-10.5554
ow	-10.5558
kon	-10.5559
OL	-10.5561
▁teşebbüs	-10.5562
▁Kalkınma	-10.5565
▁başrol	-10.5565
▁hitap	-10.5565
▁perde	-10.5566
▁Ağrı	-10.5566
▁ayın	-10.5567
▁sekiz	-10.5568
▁Rum	-10.5569
▁gelişen	-10.557
▁Öl	-10.5573
▁rakipleri	-10.5575
-10	-10.5576
leştirilmesi	-10.5578
▁gazeteciler	-10.5579
▁idi	-10.558
mayacağı	-10.558
İYE	-10.5582
▁varil	-10.5584
▁geçeceği	-10.5589
▁Harekat	-10.559
▁sürecini	-10.5592
▁erkekler	-10.5594
▁kızın	-10.5602
▁öğret	-10.5605
▁evlerinde	-10.5606
▁tesisi	-10.5609
▁getirecek	-10.561
▁sistemleri	-10.5611
▁kurumları	-10.5615
▁davranış	-10.562
▁unut	-10.5621
▁61	-10.5622
▁Podolski	-10.5622
▁mağlubiyet	-10.5622
▁çiçek	-10.5622
▁kimyasal	-10.5622
▁Kars	-10.5625
▁Camisi	-10.5626
▁sunan	-10.5627
▁OHAL	-10.5627
▁In	-10.5629
▁atlat	-10.5632
▁2004	-10.5633
▁uygulamalar	-10.5634
sınlar	-10.5634
▁demiş	-10.5635
▁söylüyorum	-10.5636
▁ihtiyacımız	-10.5637
▁eksikliği	-10.5638
▁makine	-10.5638
▁Arka	-10.5641
▁suçlarından	-10.5643
▁Sezon	-10.5645
06	-10.5647
▁uygulanma	-10.5647
▁Filistin	-10.5649
▁unsurları	-10.5652
bor	-10.5654
▁yaptım	-10.5657
▁sakinleri	-10.5659
▁başlamış	-10.566
▁Mark	-10.5661
▁öldüğü	-10.5663
▁Bolu	-10.5666
▁TEM	-10.567
▁altının	-10.5676
▁konuşuyor	-10.5679
▁yapabilir	-10.5679
mdan	-10.568
▁cumartesi	-10.568
▁sayede	-10.568
▁Erdal	-10.5682
EV	-10.5684
▁Diş	-10.5685
abildi	-10.5691
▁Komitesi	-10.5691
▁Hizmet	-10.5692
▁aldım	-10.5692
▁Cihan	-10.5692
▁Bürosu	-10.5693
larsa	-10.5694
▁göze	-10.5695
▁aya	-10.5695
CI	-10.5696
mla	-10.5698
▁özgürlük	-10.57
irse	-10.5704
▁yen	-10.5705
▁virüs	-10.5707
▁İnsanlar	-10.5709
▁bebeği	-10.5725
▁mühendis	-10.5726
▁TA	-10.5729
▁berabere	-10.5729
▁şüphelilerin	-10.5734
zu	-10.5734
▁İLGİL	-10.5738
▁gözyaşı	-10.5738
▁SE	-10.5738
▁küfür	-10.5738
▁düşüyor	-10.5738
▁sözcüsü	-10.5738
▁isteyenler	-10.5738
▁manevi	-10.5739
▁İddiay	-10.574
▁öldürülen	-10.5741
▁boy	-10.5742
▁anlaşmaya	-10.5744
▁hac	-10.5745
▁yansıdı	-10.5745
▁yuvarlak	-10.5746
▁toz	-10.5748
▁açıklanan	-10.575
▁detayları	-10.5751
▁değişiklikler	-10.5753
▁sorumluluğu	-10.5757
▁arkadaşlarımız	-10.5759
▁evinin	-10.5761
▁artırmak	-10.5765
▁borsa	-10.5766
▁muayene	-10.5768
▁türü	-10.5772
Bizim	-10.5777
▁DA	-10.578
▁problemi	-10.578
▁okullar	-10.5784
▁Sigorta	-10.5785
mıyoruz	-10.5789
▁69	-10.5792
▁ihlali	-10.5794
ümüz	-10.5794
▁Meteoroloji	-10.5796
▁Silopi	-10.5796
▁Tuğgeneral	-10.5796
▁Adem	-10.5799
lıkları	-10.58
▁yürütme	-10.58
▁tespiti	-10.5801
▁73	-10.5801
▁fazlası	-10.5803
▁savunan	-10.5804
▁satışları	-10.5809
▁konuları	-10.581
▁lirayı	-10.5813
▁Operasyon	-10.5814
▁gelişi	-10.5818
▁konuşması	-10.5821
▁kesti	-10.5826
▁adresi	-10.5826
▁iletti	-10.5828
Siz	-10.5829
▁bilgisini	-10.5829
isi	-10.583
ers	-10.5835
▁karayolu	-10.5838
▁ofis	-10.584
iyeti	-10.5845
▁Kol	-10.5848
▁değiştirme	-10.5852
▁ıs	-10.5852
▁robot	-10.5854
▁siyasal	-10.5854
▁Rıza	-10.5854
▁Muslera	-10.5854
▁Trafik	-10.5854
▁kıs	-10.5856
▁binası	-10.5859
ımızı	-10.5861
▁Özkan	-10.5862
▁kavram	-10.5865
▁yöneticisi	-10.5866
AŞ	-10.5866
▁düş	-10.5866
▁önlemler	-10.5869
▁Temsilcisi	-10.5869
▁yaşamak	-10.587
▁yardımıyla	-10.5874
▁maçına	-10.5882
▁Mah	-10.5888
▁mesajları	-10.5892
▁sakatlığı	-10.5893
▁paylaşımı	-10.5894
▁askerin	-10.5897
rarak	-10.5899
36	-10.5901
▁sigortası	-10.5903
eh	-10.5907
▁bölgeler	-10.5909
▁gelmeye	-10.591
▁şut	-10.5911
▁Instagram	-10.5913
▁ömür	-10.5913
▁Elbette	-10.5913
▁gittiğini	-10.5914
▁Ortak	-10.5916
▁yaşanma	-10.5916
▁peşinde	-10.5917
▁yarattığı	-10.5921
DER	-10.5924
▁olduğum	-10.5925
▁rahatsızlık	-10.5926
▁röportaj	-10.5932
ilebilir	-10.5935
▁v	-10.5935
▁Ordusu	-10.5937
▁sokakları	-10.5938
▁görür	-10.5939
miyorum	-10.5941
▁Önceki	-10.5944
▁ayağ	-10.5946
▁Kes	-10.5947
▁galibiyeti	-10.5951
öl	-10.5953
▁uğraş	-10.5954
▁kadrosunda	-10.5955
▁hikâye	-10.5956
cek	-10.5958
▁akademisyen	-10.5964
▁sitesinden	-10.5964
▁yapılacağı	-10.5964
▁yetkisi	-10.5967
▁kapatma	-10.5968
▁İlişkiler	-10.5972
▁Dört	-10.5972
gh	-10.5973
▁Nihat	-10.5973
▁Mimar	-10.5974
▁beden	-10.5975
▁koku	-10.5982
▁abi	-10.5982
▁etmiyor	-10.5983
▁numarası	-10.5984
▁yapılma	-10.5985
▁firması	-10.5985
▁seçilmiş	-10.5986
bin	-10.5987
▁Pat	-10.5989
▁alet	-10.599
ilerek	-10.5993
▁kıyı	-10.5995
▁almayı	-10.5998
▁2015"	-10.6001
PKK	-10.6002
▁gençler	-10.6003
▁tank	-10.6005
▁kullanılma	-10.6007
▁2013'	-10.601
▁Zor	-10.6016
▁haklarını	-10.6016
▁Gra	-10.6017
▁gitmesi	-10.6019
▁Doç	-10.6023
▁edilir	-10.6025
▁hassas	-10.6031
ruk	-10.6031
▁Enstitüsü	-10.6032
▁Sabancı	-10.6032
▁Şehidin	-10.6032
▁manşet	-10.6032
▁koltuk	-10.6032
▁rengi	-10.6032
▁çalışanlar	-10.6032
▁olmuyor	-10.6033
▁Ersoy	-10.6034
ğerlendirmesinde	-10.6036
▁kalitesi	-10.6044
▁Pek	-10.6044
meyin	-10.6046
▁yazan	-10.6048
▁set	-10.605
bel	-10.6054
▁kor	-10.6054
lıdır	-10.6056
▁ho	-10.606
▁aşama	-10.6061
▁sıkıntılar	-10.6062
▁girişimci	-10.6063
▁edilme	-10.6066
▁saatlik	-10.6069
▁hayran	-10.6072
che	-10.6075
▁Eto	-10.6078
▁işten	-10.608
ilir	-10.6081
zken	-10.6085
▁hissi	-10.6087
▁vatandaşlara	-10.6087
ts	-10.6088
▁market	-10.6092
SPOR	-10.6092
▁Şampiyonası	-10.6092
xx	-10.6093
▁karışık	-10.6093
▁Kurban	-10.6093
▁aranan	-10.6094
▁kaçırma	-10.6094
▁alakalı	-10.6095
▁olabilecek	-10.6098
dil	-10.6098
lemiş	-10.6101
emiyor	-10.6102
▁Biri	-10.6103
▁gaye	-10.6106
▁Ağ	-10.6107
▁utan	-10.6107
▁memleket	-10.6108
▁Birlik	-10.6111
▁yılbaşı	-10.6113
▁Mor	-10.6116
kça	-10.6117
ğünü	-10.6119
▁Tü	-10.6122
Fenerbahçe	-10.6122
▁diğeri	-10.6123
▁virüsü	-10.6123
▁gecikme	-10.6123
▁sığın	-10.6125
▁83	-10.6125
▁planlama	-10.613
▁alev	-10.6132
▁Far	-10.6133
▁töreninde	-10.6135
▁&	-10.6135
ovic	-10.6137
68	-10.6137
▁etkinlik	-10.6138
▁olmasın	-10.6139
▁YA	-10.6141
NE	-10.6141
▁?	-10.6142
▁Hat	-10.6142
▁girişiminde	-10.6142
acağım	-10.6146
▁bağır	-10.6147
▁cephe	-10.6147
▁77	-10.615
▁yapılanması	-10.615
▁Uygulama	-10.6152
▁Yiğit	-10.6152
▁tweet	-10.6152
▁çöp	-10.6152
▁David	-10.6152
▁Mesut	-10.6152
▁oyunun	-10.6153
▁kıyasla	-10.6156
▁soruya	-10.6156
▁çıkaran	-10.6157
▁firmaların	-10.6157
▁direkt	-10.6162
les	-10.6164
▁vaka	-10.6169
▁Adı	-10.6175
mir	-10.6175
▁Oto	-10.6179
▁Onların	-10.6179
▁ger	-10.618
▁cevabını	-10.6183
▁Saldırı	-10.6185
lendiğini	-10.6187
▁bitirdi	-10.6191
▁koru	-10.6195
▁sezonu	-10.6197
▁71	-10.6203
▁dağıtım	-10.6203
burg	-10.6204
▁Tu	-10.6207
▁Ger	-10.6208
▁şaşır	-10.6212
▁oynamak	-10.6212
▁FIFA	-10.6212
▁geçtiğini	-10.6213
▁bilinmeyen	-10.6214
▁Par	-10.6214
Federal	-10.6214
▁göstererek	-10.6217
▁ulaşmak	-10.6217
▁üretilen	-10.6218
emi	-10.6219
▁uyumlu	-10.6219
land	-10.6219
ayım	-10.6221
▁riskini	-10.6222
▁döner	-10.6224
ram	-10.6226
▁sınıfı	-10.6229
Al	-10.623
▁siyasetin	-10.623
▁etrafında	-10.6231
▁edilebilir	-10.6233
▁kaliteli	-10.6235
▁yarar	-10.6236
▁güçlerine	-10.6238
▁kalmak	-10.6238
▁yetiştir	-10.6244
▁lezzet	-10.6246
▁gündemde	-10.6248
▁seyir	-10.6249
▁olmasa	-10.6251
▁64	-10.6252
▁hissetme	-10.6255
▁uyma	-10.6255
▁09	-10.6256
▁amaçla	-10.6256
▁çabaları	-10.6267
▁Acı	-10.6268
▁kavuş	-10.6269
-15	-10.627
▁Hazine	-10.6273
▁bakıldığında	-10.6274
▁nereye	-10.6274
mem	-10.6274
▁Üssü	-10.6274
▁Yargı	-10.6278
▁seçilen	-10.6281
41	-10.6282
▁arsa	-10.6282
▁edil	-10.6283
▁Beyoğlu	-10.6287
▁Jan	-10.6288
▁oluşturma	-10.6289
▁bizden	-10.629
▁Mavi	-10.629
▁Kaynak	-10.6291
▁bırakan	-10.6291
zen	-10.6297
▁ihtiyaçları	-10.6297
mik	-10.6297
▁Özal	-10.6297
▁Kızıl	-10.6301
▁hayatın	-10.6304
▁Programı	-10.6308
ünde	-10.631
▁bankaların	-10.6316
geç	-10.6318
▁kapan	-10.6318
▁Yağ	-10.632
bek	-10.632
▁koşu	-10.6321
▁68	-10.6322
bank	-10.6323
85	-10.6323
▁ulaştığı	-10.6324
bü	-10.6328
▁vadede	-10.6333
▁Kişi	-10.6334
û	-10.6335
▁Bağdat	-10.6335
▁protein	-10.6335
▁özgür	-10.6336
▁çerçevede	-10.6337
▁Ekonomik	-10.634
▁Yanal	-10.6341
▁Yenikapı	-10.6342
▁Cemal	-10.6345
▁değişen	-10.6345
▁Sh	-10.6349
▁okulda	-10.635
▁Şener	-10.6351
ub	-10.6353
▁çiftçi	-10.6355
▁şeye	-10.6357
▁kaybetmesi	-10.6359
▁Hakem	-10.6366
▁Çi	-10.6372
▁gök	-10.6374
▁zamanlar	-10.638
▁Büyükelçi	-10.6382
▁devir	-10.6383
▁Suç	-10.6384
▁iddianamede	-10.6385
▁başkanlığı	-10.6385
▁verdim	-10.6386
yacağını	-10.6386
yer	-10.6386
stik	-10.6386
▁anlam	-10.6388
▁Vatandaş	-10.6392
Benim	-10.6393
▁doların	-10.6393
▁gazı	-10.6394
rilme	-10.6395
▁infaz	-10.6397
▁iklim	-10.6397
▁lehine	-10.6397
rul	-10.6402
▁Bahar	-10.6402
▁derecede	-10.6402
▁şartıyla	-10.641
▁adaylar	-10.641
▁talebinde	-10.6411
▁geçirme	-10.6412
larca	-10.6415
▁Efes	-10.6416
▁oylama	-10.6419
▁diyorum	-10.6419
▁ülkelerine	-10.6421
▁duruşma	-10.6425
▁öğrenme	-10.6431
▁Is	-10.6432
Çok	-10.6434
▁görüşmelerin	-10.6435
▁mermi	-10.6439
▁kaldırıl	-10.6443
▁sabır	-10.6448
▁çizdi	-10.6448
▁temizlik	-10.6452
mamış	-10.6454
muzu	-10.6454
▁edebilir	-10.6456
ön	-10.6458
▁gidiş	-10.6458
▁ikamet	-10.6459
▁kaşığı	-10.6459
ktüel	-10.6459
▁çıkışı	-10.646
▁resmen	-10.6461
▁yolsuzluk	-10.6461
▁cebi	-10.6462
▁Kendisi	-10.6463
▁hükümetinin	-10.6463
▁edilemez	-10.6463
▁başkanlığında	-10.6465
▁Evi	-10.6466
▁işlemlerin	-10.6478
diğiniz	-10.6479
gal	-10.6481
▁dönüştü	-10.6483
LERİ	-10.6487
▁oku	-10.6487
▁özetle	-10.6489
▁gözleri	-10.6491
▁makam	-10.6493
▁söyler	-10.6494
▁personelin	-10.6497
▁meşru	-10.6499
▁Yerli	-10.65
▁şiş	-10.65
▁civarı	-10.6502
▁potansiyeli	-10.6505
şar	-10.6505
▁oynan	-10.6508
▁çekim	-10.6509
▁yapacağını	-10.6513
▁Tiyatro	-10.6516
▁saldırdı	-10.6517
▁Cüneyt	-10.6521
▁Yüksel	-10.6521
▁kahvaltı	-10.6521
▁sesleri	-10.6522
▁07	-10.6525
▁taban	-10.6526
▁vurgulayarak	-10.6526
54	-10.6529
▁medyası	-10.6532
▁tutum	-10.6534
▁yaşadıklarını	-10.6535
▁ağırlıklı	-10.6538
▁çatışmada	-10.6539
▁otomobili	-10.6541
lıkla	-10.6549
▁iadesi	-10.655
▁fiyatlarının	-10.6551
abiliriz	-10.6551
▁milletimiz	-10.6551
▁kalır	-10.6551
▁Yaş	-10.6552
▁kazada	-10.6558
▁militanları	-10.6558
▁işini	-10.6561
▁değişme	-10.6562
▁arkadaşlar	-10.6562
▁başvurdu	-10.6563
▁çeşit	-10.6565
▁tık	-10.6565
▁katliam	-10.6565
▁Büro	-10.657
Son	-10.657
▁bilgilendirme	-10.6571
▁Uzmanlar	-10.6571
▁hüküm	-10.6574
▁kardeşlerimiz	-10.6577
▁alçak	-10.6583
▁Hamza	-10.6584
▁Aksu	-10.6584
bilme	-10.6584
▁bisiklet	-10.6584
▁İşbirliği	-10.6584
▁Boğaziçi	-10.6584
▁tasarı	-10.6585
▁tezahürat	-10.6585
▁büyüyen	-10.6586
▁olabiliyor	-10.6586
▁izleme	-10.6587
▁çıkarılması	-10.6587
▁aktarıldı	-10.6587
▁buz	-10.6589
▁oluşturulan	-10.659
▁iniş	-10.6591
▁belgesel	-10.6591
▁oluştu	-10.6593
▁kutlama	-10.66
▁unutul	-10.66
▁şüphelinin	-10.6606
▁buluşma	-10.6607
▁uzlaşma	-10.6611
IR	-10.6616
59	-10.6619
▁şeyleri	-10.6622
▁taksit	-10.6622
DU	-10.6624
▁vekil	-10.6628
▁besinler	-10.6628
▁ekibinin	-10.6631
▁sinyal	-10.6633
▁eleştiriler	-10.6633
▁7'	-10.6635
▁devri	-10.6635
likte	-10.6643
▁felaket	-10.6647
▁klasik	-10.6647
▁pozitif	-10.6647
▁çirkin	-10.6647
▁Müzik	-10.6647
▁Kitap	-10.6648
▁kaynaklı	-10.665
▁Hz	-10.6651
▁uyarınca	-10.6651
▁Yoksa	-10.6652
▁sırt	-10.6652
▁törenine	-10.6653
▁evliliği	-10.6655
▁Plan	-10.6657
▁Cha	-10.6661
▁yansıt	-10.6661
▁seçenek	-10.6663
▁Men	-10.6663
▁Teşkilatı	-10.6665
▁içme	-10.667
öğretim	-10.6677
44	-10.6678
▁terörü	-10.6681
CİHAN	-10.6681
▁eyaletinde	-10.6682
▁yürek	-10.6682
▁olanak	-10.6684
port	-10.6685
▁Yaralılar	-10.6687
▁okur	-10.6689
▁20.00	-10.6689
▁örgütlerinin	-10.6693
▁başarısı	-10.6693
sat	-10.6694
63	-10.6695
▁Ok	-10.67
▁kiralama	-10.67
▁kaldırdı	-10.6704
▁muhtemel	-10.6704
severler	-10.671
▁taşıdığı	-10.671
▁vakıf	-10.6711
▁Ebru	-10.6711
▁büyükelçi	-10.6711
▁Sayı	-10.6712
▁Toprak	-10.6712
▁Uşak	-10.6713
▁Sergi	-10.6713
▁raporda	-10.6714
cil	-10.6717
▁Sistem	-10.6718
▁aralık	-10.6719
▁girerek	-10.6719
▁don	-10.6721
▁kardeşim	-10.6723
▁to	-10.6724
▁takviye	-10.6724
▁bot	-10.6727
▁bakar	-10.6727
▁Karaman	-10.6731
▁konulan	-10.6732
▁çalışmaların	-10.6733
▁tel	-10.6733
▁yaklaştı	-10.6735
▁Brezilyalı	-10.6738
▁Soy	-10.6739
▁işsiz	-10.674
▁yiyecek	-10.6743
▁Zi	-10.6743
▁finansman	-10.6745
▁hastanın	-10.6748
▁getirildiği	-10.675
▁kuvvetleri	-10.676
NI	-10.6764
ari	-10.6769
lanmıştır	-10.6769
▁dönmesi	-10.677
▁Fethullah	-10.6771
▁görevine	-10.6772
▁Coşkun	-10.6775
▁Rüzgar	-10.6775
▁sipariş	-10.6775
▁stoper	-10.6775
▁Adıyaman	-10.6775
▁Tedavi	-10.6775
▁siber	-10.6775
▁yayıl	-10.6776
▁yönlü	-10.6779
ladığını	-10.6779
▁çıkarıldığı	-10.6779
▁zorundayız	-10.678
liğinin	-10.6782
▁korucu	-10.6783
▁Olur	-10.6783
emeyen	-10.6784
▁arayarak	-10.6785
▁boğaz	-10.6786
▁gösterilen	-10.6788
mden	-10.6788
▁Say	-10.6788
▁Ona	-10.6788
▁tıp	-10.679
▁baktığı	-10.679
off	-10.6793
▁beğeni	-10.6794
▁modelleri	-10.6796
▁Harun	-10.6796
▁95	-10.6796
38	-10.6798
▁bahar	-10.6798
▁bizler	-10.6799
▁Hep	-10.6799
▁Salonu	-10.6801
▁ilçesindeki	-10.6802
▁strateji	-10.6802
▁Mali	-10.6805
▁tarihinden	-10.6806
▁tartış	-10.6808
32	-10.6809
▁hastası	-10.681
▁kendisinden	-10.681
▁paketi	-10.6813
▁em	-10.6814
▁Şah	-10.6815
▁unutma	-10.6819
▁elindeki	-10.6819
▁Portekiz	-10.682
▁Partili	-10.6823
▁millete	-10.6823
ilirken	-10.6832
▁seviyesini	-10.6834
bol	-10.6834
▁bıçakla	-10.6837
▁mükemmel	-10.6837
▁belirsiz	-10.6837
▁samimi	-10.6838
▁tescil	-10.684
▁çabuk	-10.684
▁Napoli	-10.684
▁Show	-10.684
şim	-10.6841
od	-10.6841
▁öden	-10.6842
▁öğrencilere	-10.6843
▁Yetkililer	-10.6843
▁duman	-10.6844
▁ihtimal	-10.6845
▁Hani	-10.6846
▁Bilal	-10.6849
▁yetersiz	-10.685
▁katılımıyla	-10.685
▁Kongresi	-10.6851
▁Taksim	-10.6852
▁çağırdı	-10.6854
▁oluşturan	-10.6854
▁dolaş	-10.6857
▁86	-10.6858
lanmıştı	-10.6866
▁öldürme	-10.6869
▁gazetesinin	-10.6871
▁topa	-10.6871
pol	-10.6871
▁birimi	-10.6876
▁fi	-10.6876
▁oyunları	-10.688
▁milletimizin	-10.688
▁kesinti	-10.688
▁adımı	-10.6881
▁azalma	-10.6882
▁gerçekleşecek	-10.6884
▁Mac	-10.6886
▁bombası	-10.6891
49	-10.6891
fen	-10.6893
▁Avrupalı	-10.6895
çılar	-10.6896
▁Mur	-10.6901
▁yapmadı	-10.6903
▁atış	-10.6904
▁beraat	-10.6905
▁cumhuriyet	-10.6905
▁elbise	-10.6905
▁Meslek	-10.6906
▁Akşam	-10.6906
▁Yorumu	-10.6907
▁gündüz	-10.6908
▁Yeter	-10.691
▁panel	-10.6911
▁yarattı	-10.6912
▁Fu	-10.6913
▁yüzyıl	-10.6913
▁anlaşıldı	-10.6915
▁biliyorum	-10.6915
▁Ayhan	-10.6916
▁Ada	-10.6917
▁girmiş	-10.6921
▁Erkek	-10.6921
Rİ	-10.6926
▁Mahalle	-10.6928
▁dök	-10.6931
▁aldığımız	-10.6936
ASI	-10.6937
▁haftalık	-10.6944
▁Kale	-10.6944
leşmesi	-10.6947
▁tarama	-10.6951
▁Piyasa	-10.6955
▁gittik	-10.6959
▁inancı	-10.6961
▁şikâyet	-10.6968
▁aileleri	-10.6968
▁peynir	-10.697
▁Afganistan	-10.697
▁Gel	-10.6971
▁baraj	-10.6971
▁Vitor	-10.6971
▁sorusu	-10.6972
▁olmazsa	-10.6972
org	-10.6974
▁İnternet	-10.6974
▁kademe	-10.6974
▁asit	-10.6976
lıyoruz	-10.6977
▁uğra	-10.6978
▁verirken	-10.698
▁şartı	-10.6984
▁EN	-10.6985
▁2005	-10.6989
▁Alevi	-10.699
▁hikayesi	-10.6993
▁ku	-10.6998
▁Den	-10.7
▁operasyonunda	-10.7
pan	-10.7006
oto	-10.7011
53	-10.7016
▁dedik	-10.7017
▁Saha	-10.7026
▁yaralandığı	-10.7032
▁imkân	-10.7033
▁Cinayet	-10.7036
▁Menderes	-10.7036
▁edici	-10.7036
▁vakti	-10.7036
▁general	-10.7036
▁17-25	-10.7037
▁dokunulmazlık	-10.7037
▁sel	-10.7042
▁istedikleri	-10.7046
▁evlenme	-10.7046
▁üreten	-10.7048
▁İşçi	-10.7049
▁teşhis	-10.7049
yol	-10.7052
▁müdür	-10.7053
▁pil	-10.7054
▁form	-10.7055
▁50'	-10.7056
▁Cor	-10.706
▁bozma	-10.7061
▁Servis	-10.7062
▁siyasetçi	-10.7062
▁maçları	-10.7064
▁sars	-10.707
▁süs	-10.707
▁dizinin	-10.7072
▁faydalan	-10.7072
▁babam	-10.7072
▁sakatlık	-10.7073
▁j	-10.7073
▁dönüm	-10.7079
▁kapatılması	-10.7085
▁sisteminde	-10.7086
▁Gör	-10.7089
rack	-10.7091
▁dönüşü	-10.7096
▁Televizyon	-10.7102
▁inanılmaz	-10.7102
▁rüzgar	-10.7102
▁Eyüp	-10.7102
▁Duruşma	-10.7102
▁Selahattin	-10.7102
▁pazartesi	-10.7102
76	-10.7107
▁yapının	-10.7108
▁elebaşı	-10.7109
▁duyurusunda	-10.7109
▁itibar	-10.711
▁devi	-10.711
▁parası	-10.7114
▁göstermesi	-10.7115
▁2018	-10.7116
▁zararlı	-10.7118
▁alınma	-10.7118
▁seven	-10.7118
▁giydiği	-10.7124
▁nöbeti	-10.7125
bul	-10.7126
▁Aslı	-10.7126
▁değiştirdi	-10.7127
▁duyan	-10.7127
▁Müslümanlar	-10.713
▁evre	-10.7133
▁şampiyonluğu	-10.7137
▁önemi	-10.714
▁kısmını	-10.714
lacak	-10.7141
▁yapım	-10.7143
▁Japon	-10.7147
▁ulaşması	-10.715
▁koca	-10.7153
▁okulun	-10.7156
▁sanıklar	-10.7156
▁futbolcuların	-10.7157
likleri	-10.7159
▁par	-10.716
▁maddeler	-10.716
▁20'	-10.7162
▁çekin	-10.7164
▁bilmiyor	-10.7166
laşması	-10.7168
▁Amirliği	-10.7169
▁göğüs	-10.7169
▁Sivil	-10.7171
▁okun	-10.7172
▁tutun	-10.7173
▁kurumsal	-10.7175
▁çıkmıştı	-10.7175
▁tribün	-10.7176
MAN	-10.7181
TV	-10.7182
▁2001	-10.7183
▁vuran	-10.7185
▁mesleği	-10.7188
▁takımları	-10.7188
57	-10.7189
şık	-10.7191
▁vermeden	-10.7191
▁gazi	-10.7191
▁skandal	-10.7194
je	-10.7196
▁gündemi	-10.7197
▁yaptırma	-10.7198
leşen	-10.7199
▁Ailesi	-10.7202
▁bildir	-10.7207
▁üstünlüğü	-10.7212
▁beraberliği	-10.7222
▁olmanın	-10.7225
▁Kupa	-10.7227
▁gole	-10.7232
▁Köprü	-10.7235
▁turnuva	-10.7236
▁Danimarka	-10.7236
▁cennet	-10.7236
▁coşku	-10.7236
▁koordinasyon	-10.7236
▁mesai	-10.7237
▁tutuklanarak	-10.7237
▁Üçüncü	-10.7238
▁nöbetçi	-10.7238
▁buradaki	-10.7238
bileceği	-10.7238
▁AYM	-10.724
him	-10.724
▁piyasalarda	-10.7243
CA	-10.7246
▁şer	-10.7248
▁yaşıyoruz	-10.7248
▁İşletme	-10.725
▁uçaklarının	-10.725
▁yiy	-10.7254
▁kayıtları	-10.7256
▁edecektir	-10.7261
▁has	-10.7262
▁işçiler	-10.7262
▁sü	-10.7265
▁toprakları	-10.7266
▁ülkedeki	-10.7269
▁oranının	-10.7272
▁İste	-10.7273
▁olmayacağı	-10.7273
▁Bur	-10.7274
▁Adası	-10.7276
▁etmiştir	-10.7279
▁olgu	-10.7282
▁forması	-10.7283
▁çoğunluğu	-10.7284
▁Emine	-10.7285
AV	-10.7288
▁otobüsü	-10.729
▁anlaş	-10.7291
▁kü	-10.7292
▁gerçekleş	-10.7293
▁çak	-10.7297
▁açıyor	-10.7299
▁tutul	-10.73
we	-10.7302
▁diyet	-10.7302
▁idrar	-10.7303
▁kalori	-10.7303
▁istiyorlar	-10.7304
▁estetik	-10.7304
▁GE	-10.7304
▁Giriş	-10.7305
▁açılacak	-10.7305
▁diplomatik	-10.7306
▁okuyan	-10.7306
▁çalışanları	-10.7306
▁bırakıp	-10.7306
▁2016"	-10.7307
▁Tanı	-10.7308
▁anlamında	-10.731
▁Sow	-10.7313
▁açılışı	-10.7313
▁belirtileri	-10.7317
▁komutan	-10.7319
▁geçmeye	-10.732
▁yuva	-10.7322
mp	-10.7324
▁ambulansla	-10.7332
▁vurgulandı	-10.7333
▁adayları	-10.7334
▁çevredeki	-10.7339
▁oluşması	-10.7341
▁futbolcusu	-10.7344
▁van	-10.7346
▁Mete	-10.7349
▁Kaynaklar	-10.7352
▁satan	-10.7354
tıl	-10.7354
▁sigortalı	-10.7355
▁getirilmiş	-10.7356
▁yetiş	-10.7357
▁vade	-10.736
▁tüketim	-10.736
▁beraberinde	-10.7367
▁seçme	-10.7369
▁Veli	-10.7369
▁lanet	-10.7371
▁bordo	-10.7371
▁Lens	-10.7372
▁Bayraktar	-10.7372
▁büyüdü	-10.7373
▁katil	-10.7373
▁Telefon	-10.7375
▁vitamin	-10.7375
▁gelmedi	-10.7377
▁2023	-10.7377
▁ge	-10.7379
▁ederiz	-10.7379
▁aramada	-10.738
67	-10.7382
▁sezonda	-10.7387
▁tok	-10.7388
▁akın	-10.7392
▁görmesi	-10.7395
▁tat	-10.7398
▁düzeyinde	-10.7402
▁88	-10.7403
▁2011'	-10.7405
▁sorusunu	-10.7409
▁eşya	-10.7409
▁Sar	-10.7409
▁tutuklanması	-10.7411
▁başla	-10.7413
▁verip	-10.742
▁filmleri	-10.742
▁emek	-10.742
▁kullanıl	-10.7422
▁huzuru	-10.7425
▁Peygamber	-10.7426
miyoruz	-10.7426
nuzu	-10.7429
▁girişimini	-10.743
▁Koza	-10.7431
▁eylemler	-10.7433
▁krizin	-10.7435
alan	-10.7435
▁seçimlerinde	-10.7435
72	-10.7436
▁hesabını	-10.7439
▁Fotoğraf	-10.744
▁deşifre	-10.744
▁İktidar	-10.744
▁Şeker	-10.744
▁Oktay	-10.744
▁delege	-10.744
▁filminde	-10.744
▁destekleme	-10.744
▁Azez	-10.7441
▁havadan	-10.7442
▁Mobil	-10.7442
▁pist	-10.7445
▁seçildi	-10.7445
▁Parlamentosu	-10.7445
▁vaat	-10.7446
▁büyüklüğünde	-10.7446
▁destekleyen	-10.7449
▁Dur	-10.745
▁Andre	-10.7451
▁01	-10.7452
▁altından	-10.7452
▁oranla	-10.7452
▁başarılar	-10.7454
iyorlar	-10.7457
▁taraflar	-10.7462
ras	-10.7463
▁hastalar	-10.7463
▁genelde	-10.7464
▁aşkı	-10.7469
▁çalışacak	-10.747
▁yetkililerin	-10.7472
▁Sert	-10.7474
Galatasaray	-10.7479
Allah	-10.7479
▁etmesini	-10.7479
▁Olayın	-10.7481
▁gelebilir	-10.7481
suzluk	-10.7482
ros	-10.7482
▁dergisi	-10.7483
▁niyet	-10.7483
▁ülkelerinin	-10.7483
▁Toplantı	-10.7485
imizde	-10.7486
▁koşul	-10.7487
sch	-10.7488
▁katılmak	-10.7492
▁öldür	-10.7492
▁kapatıldı	-10.7492
fik	-10.7493
mizden	-10.7493
▁direktörü	-10.7499
▁halkına	-10.75
▁görüldüğü	-10.7501
▁üs	-10.7501
sinler	-10.7501
▁çekiliş	-10.7506
▁bulunmak	-10.7506
▁Atletico	-10.7509
▁Moody	-10.7509
▁Müezzinoğlu	-10.7509
▁ittifak	-10.7509
▁merdiven	-10.7509
▁pankart	-10.7509
▁perakende	-10.7509
▁Piyango	-10.7509
▁Başkanvekili	-10.7509
▁hanım	-10.7511
▁Siyaset	-10.7512
▁VAR	-10.7513
▁toplandı	-10.7515
▁etmez	-10.7516
▁Hadi	-10.7516
▁hareketleri	-10.7516
▁ÖSO	-10.7521
▁dergi	-10.7524
▁Sak	-10.7524
48	-10.7524
tek	-10.7526
ullah	-10.7526
▁girer	-10.7529
leriniz	-10.753
▁Rio	-10.753
▁istedim	-10.7532
▁düşündü	-10.7534
▁Program	-10.7539
▁yatırımı	-10.754
▁aşan	-10.7541
▁çadır	-10.7545
▁onunla	-10.7547
▁74	-10.7547
▁devrim	-10.7547
▁puanı	-10.7548
▁cihazlar	-10.7553
▁iyileşme	-10.7556
▁dünyasında	-10.7556
▁köpek	-10.7558
▁deme	-10.756
▁Stat	-10.7563
▁saatlerinden	-10.7564
▁doktora	-10.7567
▁anlayış	-10.7569
▁inşaatı	-10.7569
▁edenler	-10.7573
▁damga	-10.7573
▁yatırımcılar	-10.7574
▁netice	-10.7575
▁bakanlar	-10.7575
▁olmasından	-10.7576
▁Hillary	-10.7578
▁Serbest	-10.7578
▁Öğretmen	-10.7578
▁ümit	-10.7578
▁Nitekim	-10.7578
▁hassasiyet	-10.758
▁Politikalar	-10.758
▁deney	-10.7581
▁düşünül	-10.7581
▁dediğimiz	-10.7581
▁flaş	-10.7581
▁desteğini	-10.7583
▁sevdiği	-10.7588
ong	-10.7588
▁pazarında	-10.7591
▁satır	-10.7593
▁anlaştı	-10.7598
▁dolardan	-10.7601
okul	-10.7601
▁Hemen	-10.7603
▁yollarını	-10.7604
▁belirlenmesi	-10.7606
▁Sam	-10.7607
▁aydın	-10.7608
▁oynaya	-10.7608
▁ediyordu	-10.7612
lilerin	-10.7614
▁kapatıl	-10.7614
▁kazası	-10.7615
Beşiktaş	-10.7619
▁dizisinde	-10.7619
▁imkânı	-10.7619
takım	-10.762
▁olduğunda	-10.762
▁oluşturmak	-10.7622
▁blok	-10.7626
▁gelirleri	-10.7626
▁kısmında	-10.7628
▁gelişmeleri	-10.7628
▁sebeple	-10.7631
▁memurları	-10.7634
▁Tüneli	-10.7637
81	-10.7643
▁ısrar	-10.7644
▁kaçır	-10.7645
▁geliş	-10.7645
▁Erzincan	-10.7648
▁Mezarlığı	-10.7648
▁astsubay	-10.7648
▁hatırlatarak	-10.7648
▁rüya	-10.7648
▁kucak	-10.7649
▁oynayacak	-10.7649
▁baktığımızda	-10.7649
▁kırsal	-10.765
▁kazanması	-10.765
▁hu	-10.7651
▁Birkaç	-10.7651
▁şov	-10.7652
▁yayınlanacak	-10.7652
▁taze	-10.7653
▁Mario	-10.7653
▁önlenmesi	-10.7654
▁beklentileri	-10.7661
ceği	-10.7667
▁Dere	-10.7668
▁Ey	-10.7668
▁ot	-10.7669
âl	-10.767
▁koyan	-10.7673
▁izlediği	-10.7675
▁projelerin	-10.7676
▁gelmek	-10.7678
▁met	-10.7679
▁Ülker	-10.7681
ED	-10.7681
▁anlamak	-10.7682
▁kamuoyuna	-10.7684
diler	-10.7685
▁yendi	-10.7687
▁ölümüne	-10.7688
▁siyaseti	-10.7689
▁çağrısında	-10.769
▁karın	-10.7696
▁dosyası	-10.77
▁seviyesi	-10.7703
Aile	-10.7705
▁atıl	-10.7706
▁sorular	-10.7707
▁memnuniyet	-10.7711
▁geleni	-10.7712
▁gittim	-10.7713
▁başlama	-10.7714
▁yüzüne	-10.7716
X	-10.7717
▁ekonomisinin	-10.7717
▁Fernandao	-10.7719
▁takibi	-10.7719
▁Hayvancılık	-10.7719
▁olamadı	-10.7719
▁feda	-10.772
jen	-10.772
▁binada	-10.772
▁AY	-10.7721
▁havaya	-10.7721
▁Polonya	-10.7722
▁HSYK	-10.7722
▁90'	-10.7723
▁vesile	-10.7723
▁tarif	-10.7724
▁talepleri	-10.7725
▁tır	-10.7725
▁yanındaki	-10.7726
▁okulu	-10.7726
▁2-3	-10.7726
▁şehrinde	-10.7728
▁erteleme	-10.7728
▁yüksel	-10.7729
64	-10.7731
▁araçta	-10.7733
▁70'	-10.7734
rah	-10.7734
dığım	-10.7736
▁atmak	-10.7737
▁Adliyesi	-10.7737
▁Gö	-10.7738
▁Operasyonu	-10.7738
▁yerlere	-10.7741
▁yurtdışına	-10.7743
▁ah	-10.7743
▁Hakimliği	-10.7744
▁açmak	-10.7748
▁Koruma	-10.7752
▁ortaklık	-10.7753
▁güneyinde	-10.7753
▁çevril	-10.7753
diğim	-10.7756
▁silin	-10.7757
▁Tork	-10.7758
ırsa	-10.7758
Kültür	-10.776
▁uğradı	-10.776
▁İnce	-10.776
▁350	-10.7761
AZ	-10.7762
▁bez	-10.7765
▁Bunları	-10.7766
▁karşıladı	-10.7766
▁bakıyor	-10.7768
▁fotoğrafını	-10.7768
yordu	-10.7771
▁girişinde	-10.778
▁vergisi	-10.7781
her	-10.7781
▁uy	-10.7783
▁dersi	-10.7784
▁heyecanı	-10.7785
▁bölgesindeki	-10.7787
▁Cenaze	-10.7789
▁radikal	-10.7789
▁tasfiye	-10.7789
▁Bulgaristan	-10.779
▁Çınar	-10.779
▁direksiyon	-10.779
▁ödenmesi	-10.779
▁nisan	-10.779
▁İsmet	-10.779
▁defalarca	-10.7791
▁devredil	-10.7792
▁Hangi	-10.7792
▁yapıyorlar	-10.7793
▁tamamlayan	-10.7793
▁bini	-10.7794
▁GÜN	-10.7795
▁İm	-10.7796
▁yaşandığını	-10.7796
▁umudu	-10.7796
▁Altun	-10.78
▁gelişmesi	-10.78
▁Cemil	-10.7801
▁artı	-10.7802
▁makinesi	-10.7803
▁kurucusu	-10.7803
▁açar	-10.7803
▁çarpıcı	-10.7804
42	-10.7804
▁kadınlara	-10.7804
▁West	-10.7805
cılığı	-10.7812
▁taraftarların	-10.7812
▁kirli	-10.7812
▁Avni	-10.7814
kas	-10.7817
73	-10.7821
▁katkıda	-10.7822
58	-10.7827
▁çekil	-10.7829
▁Çağlar	-10.783
▁girişiminden	-10.7831
▁kullanıcıların	-10.7832
▁130	-10.7833
▁vatandaşımız	-10.7837
▁kılı	-10.7839
▁kurumu	-10.7841
▁üstlendiği	-10.7842
▁mutabakat	-10.7842
▁kuran	-10.7845
▁AN	-10.7854
▁çukur	-10.7858
▁Sorumlu	-10.7858
▁kurucu	-10.786
▁Norveç	-10.7861
▁Odeabank	-10.7861
▁Vladimir	-10.7861
▁İhbar	-10.7861
▁İletişim	-10.7861
▁Zengin	-10.7861
▁Dönem	-10.7861
▁KDV	-10.7861
▁ispat	-10.7861
▁yapılabilir	-10.7861
▁Önder	-10.7863
▁Kiev	-10.7863
▁Dal	-10.7868
▁atışı	-10.7869
OS	-10.7872
▁uzatma	-10.7875
▁sürerken	-10.7885
▁balıkçı	-10.7886
▁diyoruz	-10.7886
▁veriler	-10.789
biliyor	-10.789
▁Eroğlu	-10.7891
▁kimseye	-10.7893
lerim	-10.7893
▁sanal	-10.7894
▁Temel	-10.7895
▁Sonuç	-10.7895
▁adında	-10.7897
▁Örgüt	-10.7903
▁84	-10.7905
▁artırılması	-10.7905
37	-10.7905
▁geçiril	-10.7906
▁duyduğunu	-10.7906
lâ	-10.7911
▁Şehitler	-10.7916
▁zorluk	-10.7917
▁mensuplarına	-10.792
▁benzin	-10.7923
▁Gezi	-10.7923
▁yapılmasını	-10.7927
▁akciğer	-10.7933
▁infilak	-10.7933
▁mezhep	-10.7933
▁müebbet	-10.7933
▁Üsküdar	-10.7933
▁seçeneği	-10.7933
▁Arınç	-10.7933
▁yavru	-10.7933
▁zevk	-10.7933
▁Yaşanan	-10.7933
▁rehin	-10.7933
▁tanınan	-10.7934
▁şehirler	-10.7934
▁öğrenilen	-10.7934
▁Aykut	-10.7934
▁sözünü	-10.7938
▁yargılanan	-10.7938
▁çatışmaların	-10.794
▁maçlar	-10.794
▁şubat	-10.7941
▁kesme	-10.7942
▁sahasına	-10.7942
▁saray	-10.7944
▁kanal	-10.7947
ladıkları	-10.7949
▁çekilme	-10.7949
▁doğusunda	-10.7949
çok	-10.7949
▁uzat	-10.7949
▁devlete	-10.795
▁bildiği	-10.7952
▁Gazeteciler	-10.7954
▁öp	-10.7956
▁(20	-10.7959
▁yazma	-10.796
▁kararıyla	-10.7966
▁Savcısı	-10.7967
▁dert	-10.797
▁oturduğu	-10.7972
▁hatırlatıl	-10.7973
bahar	-10.7976
lıklar	-10.7984
lısınız	-10.7985
▁atak	-10.7987
▁kuruldu	-10.7987
▁işlediği	-10.7989
▁tutmak	-10.7989
▁budur	-10.7996
▁yükselt	-10.8
▁alınmıştı	-10.8002
▁Fonu	-10.8004
▁şarj	-10.8004
▁Danıştay	-10.8005
▁Marmaris	-10.8005
▁Mercedes	-10.8005
▁keşif	-10.8005
▁ceset	-10.8005
▁Necip	-10.8005
▁razı	-10.8005
▁Bitlis	-10.8005
▁James	-10.8006
▁Yangın	-10.8006
▁biber	-10.8007
▁haklarında	-10.8007
ight	-10.8008
▁kaste	-10.8008
est	-10.801
▁Tabi	-10.8011
▁89	-10.8012
▁Yarın	-10.8013
▁sendika	-10.8013
▁bulunacak	-10.8017
▁şunlar	-10.8018
▁Devletin	-10.8022
▁Kardeş	-10.8024
▁oturdu	-10.8027
▁şoför	-10.8028
▁uğur	-10.8031
▁yapanlar	-10.8032
▁ardı	-10.8034
▁çabası	-10.8036
▁şarkısı	-10.8037
▁Savcılık	-10.804
▁bulunmadığı	-10.8042
kov	-10.8044
dro	-10.8044
ARI	-10.8048
▁Kuş	-10.8049
▁başvur	-10.8053
▁protokol	-10.8054
mızla	-10.8055
▁İŞ	-10.8055
52	-10.8062
▁Başta	-10.8062
▁İlker	-10.8062
▁Geliş	-10.8062
▁özellik	-10.8062
▁Bit	-10.8065
▁ısı	-10.8067
▁konulu	-10.8069
▁hedefimiz	-10.807
ildiğini	-10.8073
▁Tom	-10.8075
luğunu	-10.8078
▁Zonguldak	-10.8078
▁Kaçakçılık	-10.8078
▁Siirt	-10.8078
▁Kuvvet	-10.8078
▁medeniyet	-10.8079
▁panik	-10.8079
▁roman	-10.808
▁sahipleri	-10.8081
▁izlemek	-10.8081
▁tamamlanan	-10.8081
▁oradaki	-10.8083
▁bozukluğu	-10.8083
43	-10.8083
▁Yazar	-10.8086
▁boyutu	-10.8089
▁bölümünü	-10.8091
▁indirdi	-10.8096
AH	-10.8096
▁ülkelerden	-10.8097
▁deneyimi	-10.8099
▁içerik	-10.81
kor	-10.8101
▁izleyen	-10.8105
▁kamerası	-10.8106
+	-10.8108
▁ailelerine	-10.8109
▁hayatında	-10.8109
▁belde	-10.8109
▁artırma	-10.811
▁döneme	-10.8111
▁şartlarda	-10.8114
▁bıraktığı	-10.8115
▁Mas	-10.8116
▁ayrılık	-10.8117
▁Göç	-10.8119
▁Hakemler	-10.812
lidir	-10.8123
▁Boy	-10.8126
▁konuşmak	-10.8129
▁düşünür	-10.8131
▁dünyayı	-10.8132
▁Bahçe	-10.8134
▁arkadaşlarım	-10.8134
▁polislerin	-10.8138
▁faktörler	-10.8142
▁Kimi	-10.8147
▁artacak	-10.8147
▁paranın	-10.8147
şak	-10.8149
▁du	-10.8151
▁Otomotiv	-10.8152
▁Premier	-10.8152
▁tahsis	-10.8152
▁yeteneği	-10.8152
▁Küba	-10.8152
▁BBC	-10.8152
▁mesela	-10.8152
▁helal	-10.8152
▁Karabükspor	-10.8153
▁etnik	-10.8154
▁Aksoy	-10.8155
▁Ergenekon	-10.8155
▁sevinci	-10.8158
KCK	-10.8158
▁Küresel	-10.8159
▁Kamer	-10.8159
▁Jose	-10.8165
osu	-10.8165
▁Tor	-10.8167
lamıştı	-10.8167
lüğe	-10.8167
69	-10.8171
▁potansiyel	-10.8171
Ay	-10.8172
▁birine	-10.8173
▁iddialı	-10.8173
▁birlikleri	-10.8177
▁engellemek	-10.8178
▁hatıra	-10.8179
▁savun	-10.818
▁eşim	-10.8181
▁koyuyor	-10.8184
▁duyarlı	-10.8185
▁gelmez	-10.8188
▁yaptılar	-10.8189
meleri	-10.8193
mazsa	-10.8195
muzun	-10.8198
▁vazgeçme	-10.8199
▁Hastane	-10.82
▁Yaralı	-10.8201
▁Ligde	-10.8203
▁Fenerbahçeli	-10.8206
▁Yo	-10.8209
▁Hakkında	-10.8209
▁baskısı	-10.8211
▁kaba	-10.8212
kol	-10.8212
▁müdahalelere	-10.8213
▁başını	-10.8215
ort	-10.8216
▁noktasına	-10.8216
▁Öncelikle	-10.8216
▁faaliyeti	-10.8221
▁ödülünü	-10.8222
▁borçlanma	-10.8226
▁Ermenistan	-10.8226
▁iflas	-10.8226
▁Çevik	-10.8226
▁Şişli	-10.8226
▁korkunç	-10.8226
▁Vekili	-10.8226
▁Yüzde	-10.8226
▁Karlov	-10.8226
▁salı	-10.8226
▁keskin	-10.8226
▁şaka	-10.8227
▁salgı	-10.8229
▁inanıyoruz	-10.8229
▁Kırım	-10.8231
▁yığ	-10.8233
▁kenarında	-10.8234
▁duruş	-10.8236
▁Dar	-10.8236
▁görüyorum	-10.8236
▁git	-10.8238
▁öldüren	-10.8238
▁adayların	-10.8239
▁Muş	-10.8241
▁kör	-10.8242
▁doğdu	-10.8243
▁yatan	-10.8244
▁nöbet	-10.8244
▁durdurma	-10.8247
▁aut	-10.8247
yerek	-10.8249
▁bilinç	-10.8252
▁malzemeleri	-10.8252
▁verin	-10.8257
▁detay	-10.8259
▁yakında	-10.8261
▁katılması	-10.8261
▁plaka	-10.8262
▁tedavisinde	-10.8263
▁tanıdığı	-10.8264
▁hizmetler	-10.8269
▁atanan	-10.8271
şer	-10.8271
rar	-10.8273
▁Denizi	-10.8273
▁güçler	-10.8274
▁maçlarında	-10.8276
▁Okan	-10.8277
▁aşamada	-10.8281
bilecek	-10.8285
▁sığ	-10.8286
▁incelemede	-10.8288
▁uçağının	-10.829
▁korkusu	-10.8291
▁yakınlarına	-10.8294
▁notu	-10.8297
tetik	-10.8297
▁bölgesine	-10.8299
▁pencere	-10.8301
▁rövanş	-10.8301
▁Giresun	-10.8301
▁muhtar	-10.8301
▁İcra	-10.8301
▁Tufan	-10.8301
▁Boydak	-10.8301
▁zorluklar	-10.8301
▁etmeleri	-10.8302
▁izliyor	-10.8302
memesi	-10.8304
abildiği	-10.8304
▁seviyorum	-10.8304
▁yanıtlayan	-10.8306
▁Eylem	-10.8309
▁aylarda	-10.8309
▁Paul	-10.831
▁görün	-10.8311
▁ekiplerinden	-10.8312
96	-10.832
▁üzül	-10.8321
allah	-10.8322
likten	-10.8327
▁okullarda	-10.8331
▁önlemi	-10.8331
▁110	-10.8332
▁gösteril	-10.8332
▁değişiyor	-10.8335
umu	-10.8335
▁zirvede	-10.8337
▁tarafta	-10.8346
▁çiftin	-10.8347
▁Sami	-10.8348
▁milyona	-10.8351
▁Toplantısı	-10.8351
▁sözleriyle	-10.8354
▁çekilmesi	-10.8354
▁beklenti	-10.8356
▁ülkemize	-10.8358
▁grupları	-10.8359
gör	-10.8359
▁kumpas	-10.836
▁hatır	-10.836
▁kapılarını	-10.8364
▁Muha	-10.8364
▁anti	-10.8368
▁kurumun	-10.8371
▁konuşmasını	-10.8372
cular	-10.8372
▁davasında	-10.8373
▁Nas	-10.8374
▁Harp	-10.8374
▁Kahramanmaraş	-10.8376
▁Silivri	-10.8376
▁diyabet	-10.8376
▁hedefliyor	-10.8376
▁Gazze	-10.8377
▁yenerek	-10.8379
▁istemeyen	-10.8379
▁kurultay	-10.8379
UZ	-10.838
▁Demokratik	-10.838
▁oyu	-10.8381
▁tepkiler	-10.8381
▁Elif	-10.8386
▁kusur	-10.8387
▁sürdür	-10.8388
▁kaleme	-10.839
▁metrekarelik	-10.839
▁zararı	-10.8394
▁Düz	-10.8395
▁Yolları	-10.8396
▁arkasına	-10.8399
▁mesajını	-10.8401
memiş	-10.8402
▁çevirdi	-10.8405
yeceğiz	-10.8407
▁koş	-10.8407
▁yöneticiler	-10.8412
▁ajan	-10.8414
▁derbisi	-10.8415
▁atılması	-10.8416
UL	-10.8421
▁arayışı	-10.8422
▁varlığını	-10.8424
▁basını	-10.8427
▁sütü	-10.8427
▁kurtardı	-10.8427
▁denen	-10.8431
▁kullanılıyor	-10.8432
▁kısmının	-10.8433
▁aramızda	-10.8433
▁çalışıyorlar	-10.8438
▁parasını	-10.8439
▁satma	-10.8439
sto	-10.8445
▁Çay	-10.8447
İST	-10.8448
▁Michael	-10.8451
▁antrenör	-10.8451
▁Monaco	-10.8451
▁Libya	-10.8451
▁Robin	-10.8453
▁korner	-10.8453
▁Düzenleme	-10.8454
▁Nijerya	-10.8455
▁programda	-10.8455
▁topladı	-10.8456
▁Beşiktaşlı	-10.8456
▁yönlendir	-10.8458
▁bizde	-10.8459
▁görünen	-10.8461
siyon	-10.8461
▁yöne	-10.8461
▁Hav	-10.8465
▁birbirleri	-10.8466
kay	-10.8466
▁Sosa	-10.8468
▁Dilek	-10.8468
▁3-1	-10.847
▁izi	-10.8471
▁destekli	-10.8471
▁kullandıkları	-10.8472
▁Kö	-10.8472
GE	-10.8473
▁ziyaretçi	-10.8474
▁ülkemiz	-10.8477
▁paylaşan	-10.8477
ğına	-10.8479
▁Yıllar	-10.8479
▁yürütül	-10.8479
▁önemlisi	-10.848
▁atandı	-10.8485
▁şe	-10.8486
▁yayınladı	-10.8486
▁biyo	-10.8487
▁Olimpiyat	-10.8491
▁hazırladı	-10.8496
▁vermiyor	-10.8496
▁önemine	-10.8499
▁geçirilmesi	-10.85
▁bence	-10.8504
diğinde	-10.8504
▁hormon	-10.8507
▁kitapları	-10.8507
▁hukukun	-10.8509
▁şehitlerimiz	-10.851
▁olmayacağını	-10.8511
▁Meydan	-10.8511
rmak	-10.8513
ımızın	-10.8513
▁silahı	-10.8514
ılırken	-10.8515
▁konumu	-10.8519
▁aktivite	-10.8522
▁pasta	-10.8522
▁Piya	-10.8527
▁Bütçe	-10.8528
▁hadise	-10.8528
▁tuvalet	-10.8528
▁kırdı	-10.8528
▁ithalat	-10.8528
▁Sünni	-10.8528
▁düz	-10.8529
▁geçtik	-10.8531
▁yapılanma	-10.8531
▁Hedef	-10.8532
▁gelecekte	-10.8533
▁kanadı	-10.8535
▁Devleti	-10.8537
rem	-10.8538
▁beklet	-10.854
▁kapıl	-10.8542
▁değerler	-10.8546
▁önlemek	-10.8547
▁çalışanların	-10.8548
▁Hayır	-10.8553
▁ulaşama	-10.8554
▁projede	-10.8555
▁firari	-10.8557
▁futbolu	-10.8557
▁kadroya	-10.8558
LÜ	-10.8561
▁şeyden	-10.8563
▁edilmesini	-10.8566
▁kimdir	-10.8566
▁Bek	-10.8573
yolu	-10.8581
▁Yaşam	-10.8581
ıyordu	-10.8582
▁bahçesinde	-10.8584
kul	-10.8584
▁Patlama	-10.8586
▁çıktık	-10.8587
ST	-10.8592
of	-10.8594
▁Yapılanması	-10.8594
▁bakanlığı	-10.8595
▁Sizin	-10.8596
şu	-10.8604
▁rahatsızlığı	-10.8604
▁AFAD	-10.8605
▁Kurtuluş	-10.8605
▁başlangıcı	-10.8605
▁ibadet	-10.8605
▁Öcalan	-10.8605
▁Normal	-10.8605
▁sürdürülebilir	-10.8605
▁kapsayan	-10.8606
▁Burhan	-10.8607
▁duruşmada	-10.8607
▁Bazen	-10.8607
▁Erkin	-10.8608
ire	-10.8608
▁süresince	-10.8608
▁06	-10.8609
▁bütçesi	-10.861
▁1990	-10.8613
▁uyguladığı	-10.8613
dis	-10.8614
▁propaganda	-10.8615
▁hırsızlık	-10.8615
▁dolandırıcılık	-10.8617
▁yorumu	-10.8617
▁am	-10.8618
▁kasım	-10.8618
▁Enes	-10.8619
▁görmeye	-10.8626
▁silahla	-10.8626
▁sıraya	-10.8626
▁Ödülleri	-10.8626
▁Yolcu	-10.8627
▁hakemi	-10.8629
▁çiz	-10.8635
▁yetkilisi	-10.8641
▁açıkladığı	-10.8642
▁durdurul	-10.8643
▁akla	-10.8644
▁Gir	-10.8645
▁tüp	-10.8645
▁kenara	-10.8646
doğan	-10.8646
▁arkadaşım	-10.8647
▁Parkı	-10.8648
▁günah	-10.8648
▁adil	-10.8648
▁Hami	-10.8651
▁Evde	-10.8652
Paralel	-10.8653
▁00	-10.8653
▁bozul	-10.8654
▁parçaları	-10.8654
▁ülkelerinde	-10.8658
▁irtibat	-10.8659
▁hastalıkların	-10.8662
78	-10.8664
▁bulamadı	-10.8667
▁açılma	-10.8673
▁basketbol	-10.8675
tta	-10.8677
▁Sanatçı	-10.8679
▁yorumlar	-10.8681
▁Meksika	-10.8682
▁Zarrab	-10.8682
▁ehliyet	-10.8682
▁yüreği	-10.8682
▁Çolak	-10.8682
▁kağıt	-10.8682
▁Çeşme	-10.8682
▁toplumu	-10.8682
▁kilise	-10.8683
▁Angeles	-10.8683
▁Çetinkaya	-10.8684
▁he	-10.8684
▁Yemen	-10.8684
▁kurgu	-10.8685
▁Eskişehirspor	-10.8685
▁İdil	-10.8685
hra	-10.8686
▁burs	-10.869
▁Türkler	-10.869
▁Sınav	-10.8691
▁ByLock	-10.8693
▁gerisinde	-10.8695
▁kopar	-10.8695
▁satılan	-10.8696
56	-10.8696
▁Ersun	-10.87
▁destekle	-10.8701
sey	-10.8702
▁başlamıştı	-10.8705
▁"15	-10.8706
▁şebeke	-10.8708
▁so	-10.871
lon	-10.8711
▁Şüpheli	-10.8712
Be	-10.8713
▁düşüncesi	-10.8713
▁kapısını	-10.8714
▁talebiyle	-10.8716
▁bekledi	-10.8717
▁saldırıların	-10.8717
▁yaşamaya	-10.872
kır	-10.8723
İŞ	-10.8727
▁kaçırıl	-10.8728
▁coğrafya	-10.873
▁şirketlerinin	-10.8732
▁çevresi	-10.8734
sunun	-10.8738
▁Sinema	-10.8739
▁Akademi	-10.874
▁Kaba	-10.8746
▁partiler	-10.8746
▁insana	-10.8749
▁bırakmak	-10.8749
▁olurdu	-10.8752
▁durumlar	-10.8754
▁Los	-10.8759
▁Karabük	-10.8759
▁zeytin	-10.876
▁Açılış	-10.876
▁Bulvarı	-10.876
▁dehşet	-10.876
▁trilyon	-10.876
▁çocuğa	-10.876
▁döşe	-10.876
▁taşeron	-10.876
▁herhalde	-10.876
▁TÜRKİYE	-10.8761
que	-10.8761
▁yaşanacak	-10.8761
▁derhal	-10.8762
▁Arif	-10.8765
▁Melek	-10.8765
▁sağlandı	-10.8765
▁faul	-10.8766
▁geçiriyor	-10.8766
▁bulur	-10.8766
▁1999	-10.8766
▁Süt	-10.8766
▁geliştirilen	-10.8767
▁önerisi	-10.8767
▁yapın	-10.8768
▁kaybettiğini	-10.877
ök	-10.8771
▁kurs	-10.8771
▁uzmanları	-10.8778
▁düşürdü	-10.8781
▁uyardı	-10.8784
▁birbirlerine	-10.8786
▁dökül	-10.8787
▁karşılaşacak	-10.879
▁verildiğini	-10.8791
▁yerleri	-10.8793
▁Of	-10.8793
▁güzellik	-10.8794
▁Yılın	-10.8799
▁benden	-10.8801
▁böl	-10.8801
cilerin	-10.8803
▁tazminatı	-10.8804
▁Çinli	-10.8805
Fi	-10.8806
▁tedbirleri	-10.8808
kuş	-10.8809
▁gide	-10.8813
▁başvurusu	-10.8813
▁isteniyor	-10.8818
▁Operasyonda	-10.882
▁örtü	-10.8822
▁incelemesi	-10.8822
▁bastı	-10.8824
▁ödemesi	-10.8825
▁vereme	-10.8825
▁kurtarmak	-10.8832
▁yaşadığını	-10.8833
muştur	-10.8834
▁kıyafet	-10.8835
▁Toyota	-10.8839
▁müracaat	-10.8839
▁acaba	-10.8839
▁Ekipler	-10.884
▁Robert	-10.884
▁tutuyor	-10.8841
▁kolları	-10.8841
▁planlanıyor	-10.8842
▁sağlanacak	-10.8844
▁alınırken	-10.8845
▁istemiyorum	-10.8845
▁mülteciler	-10.8846
▁kaybetmiş	-10.8846
▁şartlar	-10.8849
▁Lise	-10.885
▁Düzen	-10.8851
▁komutanı	-10.8851
▁göstergesi	-10.8853
▁ocağı	-10.8853
rio	-10.8855
62	-10.8856
▁güçlerin	-10.8859
▁(1	-10.8859
39	-10.8859
▁Akademisi	-10.8859
▁Mars	-10.8861
▁günkü	-10.8862
▁eri	-10.8863
▁GB	-10.8865
▁Arı	-10.8868
▁yönettiği	-10.887
▁Asliy	-10.887
▁karşımıza	-10.8871
▁öncelikli	-10.8871
▁kok	-10.8871
▁geliştirilmesi	-10.8872
▁düştüğünü	-10.8874
▁kişileri	-10.8874
hit	-10.8875
lüğünü	-10.8876
▁anlamlı	-10.8878
▁kısım	-10.8879
▁bununla	-10.8882
▁havada	-10.8883
▁kanaat	-10.8885
▁kırıklığı	-10.8886
liyiz	-10.8887
▁durumuna	-10.8887
Burada	-10.8893
▁harcamaları	-10.8893
▁kare	-10.8894
▁araca	-10.8898
lip	-10.8899
▁inen	-10.89
▁Hali	-10.8904
▁unsurlar	-10.8905
▁tansiyon	-10.8905
▁gösterir	-10.8906
▁bacak	-10.8908
▁Saldırıda	-10.8909
DÜ	-10.891
▁ithal	-10.8915
▁içe	-10.8916
▁görülür	-10.8916
▁müjde	-10.8917
▁Platformu	-10.8918
▁bombardıman	-10.8918
▁diyalog	-10.8918
▁müsaade	-10.8918
▁Hikmet	-10.8918
▁rehber	-10.8918
▁Hulusi	-10.8918
▁yıkım	-10.8918
51	-10.8919
▁imalat	-10.8919
▁yapılarak	-10.892
▁Bebek	-10.892
▁Maçın	-10.892
▁sevinç	-10.8922
▁Tokat	-10.8922
▁ısınma	-10.8923
▁Yahudi	-10.8924
▁içinden	-10.8926
▁bulunarak	-10.8927
▁bırakılan	-10.8927
▁versin	-10.8928
▁ışığı	-10.8929
▁sunulacak	-10.8929
▁Enver	-10.8931
▁Tim	-10.8931
▁almadı	-10.8937
▁görmez	-10.8939
▁alınıyor	-10.8942
▁süreyle	-10.8943
▁deliller	-10.8944
▁koyu	-10.8946
▁Yüce	-10.8947
▁mağduriyet	-10.8947
▁toplantıya	-10.8959
▁yöneten	-10.896
▁yılını	-10.896
▁ötesinde	-10.8964
▁puana	-10.8967
▁bahane	-10.8971
▁görünme	-10.8974
▁bölgeden	-10.8975
▁takımlar	-10.898
▁kaos	-10.898
▁askerleri	-10.8981
▁iddialar	-10.8982
▁katılımcı	-10.8983
▁Altan	-10.8983
▁temsilci	-10.8984
▁alanlar	-10.8985
▁gazetesine	-10.8987
▁hepimizin	-10.8988
▁Sha	-10.8989
▁törenle	-10.8992
▁uzan	-10.8992
lemek	-10.8993
▁noktaları	-10.8993
▁ilçelerinde	-10.8994
▁teröristlere	-10.8995
▁maçtan	-10.8996
▁Survivor	-10.8998
▁mektubu	-10.8998
▁taburcu	-10.8998
AĞI	-10.8998
▁Korkmaz	-10.8998
▁macera	-10.8998
▁hayli	-10.8999
▁Söyle	-10.8999
▁otopark	-10.8999
▁Bosna	-10.8999
▁belirlenemeyen	-10.8999
▁kıta	-10.8999
▁takibe	-10.8999
▁durağı	-10.8999
▁Silah	-10.8999
▁genetik	-10.8999
▁yapabilecek	-10.9
▁Papa	-10.9003
▁kamyonet	-10.9004
▁girip	-10.9005
▁Elvan	-10.9007
▁kuruluşlar	-10.9009
▁sıcaklığı	-10.901
▁tamamlama	-10.901
▁teminat	-10.9011
▁şimdiden	-10.9012
2016-03-1	-10.9012
▁konunun	-10.9013
▁Naci	-10.9015
▁toplayan	-10.9017
▁sayfasında	-10.9017
▁hikâyesi	-10.9021
liğimiz	-10.9025
▁kanı	-10.9029
▁söyledim	-10.9032
▁kullanıcılar	-10.9032
▁sevin	-10.9034
▁İddianamede	-10.9035
▁şık	-10.9038
▁yum	-10.9045
▁karşılaşması	-10.9045
enler	-10.9047
▁kapısı	-10.9048
▁Con	-10.9048
▁geldim	-10.9048
▁niyeti	-10.905
▁erişim	-10.9051
▁inme	-10.9053
▁eğitime	-10.9054
5'	-10.9055
San	-10.906
▁gitmiş	-10.9062
▁900	-10.9063
▁aileler	-10.9064
▁kova	-10.9066
▁asıllı	-10.9066
▁koridoru	-10.9067
ib	-10.9067
▁günümüzde	-10.907
▁çocuklarının	-10.9071
▁almadan	-10.9072
▁verilmiş	-10.9072
▁semt	-10.9073
müyor	-10.9077
▁Disiplin	-10.9079
▁Lavrov	-10.9079
▁muhatap	-10.9079
▁Chris	-10.9079
▁mecbur	-10.9079
▁nikah	-10.9079
▁jüri	-10.9079
▁Düşü	-10.9079
▁Zeybekci	-10.908
-5	-10.908
▁kayyım	-10.9081
▁Tarık	-10.9081
▁Akdoğan	-10.9081
▁deyip	-10.9081
▁Kalp	-10.9083
▁araştır	-10.9084
lıktan	-10.9087
▁seferleri	-10.9087
▁Sportif	-10.9089
▁gıdalar	-10.909
▁3-4	-10.909
LİK	-10.9091
▁mevzi	-10.9091
▁çalma	-10.9092
SE	-10.9093
▁tasarısı	-10.9093
▁poz	-10.9097
▁inç	-10.9097
BM	-10.9098
▁talimatıyla	-10.91
▁öğretmeni	-10.9101
▁kesil	-10.9101
▁öğrenen	-10.9104
▁Fener	-10.9105
92	-10.9105
▁Doğuş	-10.9108
▁mini	-10.9118
▁yurtdışı	-10.9125
▁firmaları	-10.9126
▁olmadığına	-10.9127
ESİ	-10.9131
çek	-10.9131
Avrupa	-10.9131
▁kurulacak	-10.9134
▁güveni	-10.9134
▁yapmasını	-10.9137
vir	-10.9137
▁ayrılması	-10.9138
▁Fas	-10.9143
▁Köse	-10.9143
larımı	-10.9143
▁yaşına	-10.9144
▁tehlikeye	-10.9145
▁mes	-10.9145
▁çifti	-10.9146
▁2,5	-10.9147
▁çeyreğinde	-10.915
▁gençlerin	-10.9153
▁yapay	-10.9154
▁tarife	-10.9155
▁belirlen	-10.9156
▁şiddetle	-10.9156
▁1-	-10.9157
▁Emenike	-10.916
▁Tüketici	-10.916
▁global	-10.916
▁koruyucu	-10.916
▁mutfağı	-10.916
▁Çankaya	-10.916
▁hemşire	-10.916
▁Kontrol	-10.9161
▁evet	-10.9161
▁boğul	-10.9161
▁Konser	-10.9161
▁Ferhat	-10.9161
▁süper	-10.9161
▁Kum	-10.9161
▁arıza	-10.9162
▁uğurlandı	-10.9162
▁Motor	-10.9162
▁Times	-10.9162
▁onarım	-10.9163
▁beton	-10.9163
▁Sivasspor	-10.9163
▁Eli	-10.9164
▁kurtarılamadı	-10.9167
▁İst	-10.9169
▁Akıllı	-10.9169
▁yeterin	-10.917
▁istasyonu	-10.917
▁seçmen	-10.9171
▁gitmeye	-10.9173
▁beste	-10.9173
▁örneğin	-10.9173
▁yapılacağını	-10.9174
▁odası	-10.9174
▁(2)	-10.9178
▁sizler	-10.918
▁öl	-10.9182
▁konvoy	-10.9182
▁komp	-10.919
▁biçimi	-10.919
▁sıcaklık	-10.919
IYOR	-10.9192
▁08	-10.9194
▁haberini	-10.9195
▁tepkisini	-10.9197
bas	-10.9197
▁1000	-10.9198
▁yürüme	-10.92
Bunlar	-10.9201
▁hatları	-10.9201
▁Kulüp	-10.9204
▁azalması	-10.9207
▁şarkıları	-10.9208
▁verdiler	-10.9209
▁BU	-10.9209
▁gelmiyor	-10.9214
▁söylediler	-10.9215
▁yeti	-10.9216
▁altyapısı	-10.9218
▁danışma	-10.9219
▁gömül	-10.9219
set	-10.922
▁(19	-10.9222
▁odak	-10.9223
▁Yönetmeni	-10.9227
▁Fo	-10.9229
bilirsiniz	-10.923
▁teyi	-10.9233
▁Boğaz	-10.9236
▁Şan	-10.9236
▁ayının	-10.9237
tap	-10.9237
şik	-10.9241
▁karaciğer	-10.9242
&#39;	-10.9242
▁Bomba	-10.9243
▁yürütüyor	-10.9243
▁Hayvan	-10.9243
▁3-0	-10.9244
▁Zanlı	-10.9246
▁Kaplan	-10.9246
▁KO	-10.9247
▁Siyasi	-10.9247
▁TMSF	-10.9248
▁sorgusu	-10.925
olojik	-10.9251
▁Geç	-10.9253
▁suçlama	-10.9254
▁listede	-10.9255
oğ	-10.9255
▁sırasıyla	-10.9257
▁diyecek	-10.9258
▁saldırısına	-10.9258
ttığı	-10.9259
▁ticareti	-10.926
▁sürecine	-10.9262
▁fotoğraflar	-10.9264
▁sıkıntısı	-10.9264
red	-10.9266
▁ED	-10.9266
▁02	-10.9269
▁Nuri	-10.9272
for	-10.9274
hur	-10.9274
▁skoru	-10.9274
▁firmanın	-10.9275
ney	-10.9275
▁rekoru	-10.9276
▁seçil	-10.9276
▁kısıtlama	-10.9278
▁Gaz	-10.9278
▁Efendi	-10.9278
▁paraları	-10.928
▁Evli	-10.9281
▁`	-10.9281
laşan	-10.9283
▁Zorlu	-10.9284
▁yıka	-10.9284
▁durdurdu	-10.9286
▁oluş	-10.9288
▁peşin	-10.9289
▁darbeye	-10.9291
▁ağrıları	-10.9292
▁ilaçlar	-10.9294
▁yazıyor	-10.9294
▁Kir	-10.9295
▁BİN	-10.9297
▁girmeye	-10.9297
▁l	-10.9299
rım	-10.9302
▁yolculuğu	-10.9304
yal	-10.9305
▁yeter	-10.9306
fil	-10.9307
▁teşkilatı	-10.9307
▁bedeni	-10.9307
▁ayrım	-10.9307
yeceğini	-10.9307
▁Maden	-10.931
▁çıkarıl	-10.9312
▁For	-10.9313
sil	-10.9314
▁indirme	-10.9315
▁mücadeleye	-10.9315
▁soruşturmada	-10.9315
▁internette	-10.9319
▁kül	-10.9321
▁Tuncay	-10.9325
▁depresyon	-10.9325
▁perşembe	-10.9325
▁Diego	-10.9325
▁vücutta	-10.9326
▁bağırsak	-10.9326
▁yakış	-10.9327
▁Kanser	-10.9327
▁aleyhine	-10.9327
tiğini	-10.9329
▁sevilen	-10.9329
▁Ergin	-10.9329
▁burası	-10.933
▁uydu	-10.933
71	-10.9331
▁içerisine	-10.9332
▁çatısı	-10.9333
▁kalarak	-10.9334
▁isterken	-10.9335
PA	-10.9337
▁etapta	-10.9338
▁kameraları	-10.9338
▁cihazı	-10.9339
▁evrak	-10.9339
▁durak	-10.9339
▁tarafların	-10.9342
▁planlıyor	-10.9342
▁Öğrenciler	-10.9345
▁servisi	-10.9346
▁Vo	-10.9346
İYOR	-10.9347
▁giydi	-10.9349
▁tartışması	-10.9351
▁ayakları	-10.9352
▁Büyükelçiliği	-10.9355
▁tanış	-10.9355
▁politik	-10.9355
▁yaşlarda	-10.9355
▁keyifli	-10.9358
▁Gerek	-10.9365
▁Külliyesi	-10.9365
▁salonda	-10.9367
▁kutu	-10.9369
▁Kaan	-10.937
66	-10.9371
▁Hü	-10.9371
▁sponsor	-10.9373
ood	-10.9374
▁demokrasiye	-10.9375
▁Yücel	-10.9379
▁tartışmalar	-10.9379
▁İsa	-10.9379
▁Tab	-10.938
▁Ülkenin	-10.9381
▁oluşturulması	-10.9387
▁evlendi	-10.9388
▁3.5	-10.939
▁telefonlar	-10.9397
▁ederse	-10.9403
▁dokuz	-10.9405
▁hazırlıklarını	-10.9405
▁mutfak	-10.9408
▁Benfica	-10.9408
▁kaymakam	-10.9408
▁temenni	-10.9408
▁telafi	-10.9408
▁taahhüt	-10.9408
▁Hülya	-10.9408
▁çarpıştı	-10.9409
▁Emrah	-10.9409
▁Ekrem	-10.9409
▁Şerif	-10.9409
▁makul	-10.9409
▁Uzay	-10.9411
▁Uçak	-10.9411
▁Inter	-10.9411
car	-10.9412
▁Macaristan	-10.9412
▁Ece	-10.9413
▁Ad	-10.9413
▁kaldırılarak	-10.9413
▁gideceği	-10.9416
▁merkezlerinde	-10.9417
▁öncü	-10.9418
▁istedik	-10.9419
▁emniyette	-10.942
▁Gelin	-10.9422
▁kadınlarda	-10.9422
üğü	-10.9425
▁seviyelerinde	-10.9425
▁sokul	-10.9427
▁sahadan	-10.9427
lıoğlu	-10.9432
ymiş	-10.9432
▁kiralık	-10.9433
▁gerekirse	-10.9433
▁yönetimine	-10.9434
▁öldüğünü	-10.9435
▁Del	-10.9437
▁yaratma	-10.9437
▁evlerine	-10.944
▁rejiminin	-10.9443
▁projesinin	-10.9445
▁Aç	-10.9445
▁teknolojik	-10.9446
▁işlet	-10.9448
▁etkileme	-10.9448
▁mücadelesinde	-10.9448
▁içki	-10.9449
unuz	-10.945
▁yerler	-10.9455
▁zamandır	-10.9455
▁2-	-10.9459
▁imkanları	-10.9459
▁kazanacak	-10.9464
▁uçakta	-10.9465
▁etmeyen	-10.9466
ğimiz	-10.9466
▁partilerin	-10.9467
▁iktidarın	-10.9469
▁Taraftar	-10.947
iyordu	-10.9472
▁iktidarı	-10.9472
▁açısı	-10.9473
▁Dede	-10.9477
▁deplasman	-10.948
▁olacaktı	-10.9483
Baş	-10.9483
▁üz	-10.9486
▁teşkil	-10.9488
▁yakalay	-10.9491
▁kütüphane	-10.9492
▁Öğretim	-10.9492
▁nezdinde	-10.9492
▁gasp	-10.9492
▁Uslu	-10.9492
▁birinde	-10.9493
▁Güngör	-10.9493
▁zeka	-10.9493
▁Bordo	-10.9494
▁belirtilerek	-10.9495
▁kaynaklanan	-10.9497
▁Koray	-10.9497
▁KPSS	-10.9497
▁yapılırken	-10.9497
▁trend	-10.9497
▁ekonomiye	-10.9498
▁bırakarak	-10.9499
▁ettirme	-10.95
▁döktü	-10.9502
▁çaldı	-10.9504
üç	-10.9505
▁Tartışma	-10.9505
tum	-10.9506
▁açarak	-10.9508
▁isimlerden	-10.9509
▁verdiğimiz	-10.9512
▁evladı	-10.9514
▁2020	-10.9514
▁Roman	-10.9516
▁törende	-10.9517
▁ihtiyacını	-10.9518
kut	-10.952
YI	-10.952
▁etmeyin	-10.9521
oy	-10.9522
▁metin	-10.9523
▁villa	-10.9524
▁yaptırım	-10.9526
▁eşyaları	-10.9526
▁birileri	-10.9527
▁Gündem	-10.9527
▁yöntemleri	-10.953
▁kimler	-10.9531
▁kırık	-10.9533
▁mavi	-10.9534
▁unuttu	-10.9537
▁görünüm	-10.9538
Ar	-10.954
▁koştu	-10.954
▁kontrolünden	-10.9541
▁sattı	-10.9542
▁gösterdiğini	-10.9545
hangi	-10.9546
▁haberlere	-10.9546
Eğer	-10.9548
etti	-10.955
ast	-10.9551
▁şehirde	-10.9552
layacağı	-10.9552
▁arkasından	-10.9556
▁destekliyor	-10.9557
ora	-10.9558
▁programına	-10.956
▁3-	-10.956
▁şirketlere	-10.9561
kurt	-10.9561
▁Aralarında	-10.9565
ant	-10.9566
▁toplumda	-10.9567
abilme	-10.9568
▁Sevgili	-10.9571
▁Tüfenkci	-10.9577
▁kömür	-10.9577
▁müzisyen	-10.9577
▁ribaunt	-10.9577
▁Olcay	-10.9577
▁edebilecek	-10.9577
▁Numan	-10.9577
▁morguna	-10.9578
▁kral	-10.9578
▁İSTANBUL	-10.958
US	-10.9582
▁bulacak	-10.9582
▁göreceğiz	-10.9582
▁etkilenen	-10.9584
▁ilgilen	-10.9584
▁bulunmaktadır	-10.9584
▁yapmıyor	-10.9586
▁kapatılan	-10.959
▁başvuran	-10.9591
▁darp	-10.9593
▁Yönetmen	-10.9593
▁Doktor	-10.9595
▁kredisi	-10.9596
▁Biraz	-10.96
▁nitelendir	-10.9606
▁dakikasında	-10.9608
▁yapıyorum	-10.9609
▁mesafede	-10.961
amam	-10.9613
▁Saç	-10.9615
▁yönetimin	-10.9616
lanacağı	-10.9618
▁seviyeye	-10.9619
▁tasarımı	-10.962
▁kalktı	-10.9621
alp	-10.9622
▁Hareket	-10.9624
▁Alış	-10.9624
▁bizimle	-10.9626
SO	-10.9627
emeyecek	-10.9629
İnsan	-10.9633
▁Sık	-10.9634
▁seviyor	-10.9636
▁sabaha	-10.9637
▁miras	-10.9638
▁eksi	-10.9639
▁gerekçesi	-10.9641
▁diplomat	-10.9641
▁karşılama	-10.9643
▁ülkesinde	-10.9644
▁adrese	-10.9649
▁ihtiyaçlarını	-10.965
▁kurtarıldı	-10.9658
▁Avrasya	-10.9663
▁Kıdem	-10.9663
▁asansör	-10.9663
▁Bruma	-10.9663
▁online	-10.9663
▁İÇİN	-10.9663
▁Henüz	-10.9663
▁laik	-10.9663
▁kartları	-10.9664
▁ödeyecek	-10.9664
▁ulaşıldı	-10.9664
▁ırkçı	-10.9664
ty	-10.9664
▁Yarım	-10.9665
▁Kısmets	-10.9665
▁giderilmesi	-10.9666
▁askı	-10.9666
▁bakalım	-10.9666
▁Denizcilik	-10.9666
▁mültecilerin	-10.9668
▁Divan	-10.9669
▁Q	-10.9672
▁Kuru	-10.9676
▁eleştiren	-10.9678
▁Sağlığı	-10.9678
▁kapanış	-10.9678
▁Kav	-10.9681
▁elma	-10.9681
▁barikat	-10.9686
ğım	-10.9687
▁Ker	-10.9688
▁boynu	-10.9693
acağına	-10.9694
▁girişimleri	-10.9698
ray	-10.9702
▁taşındı	-10.9703
▁Babası	-10.9705
mışlar	-10.9707
▁tümör	-10.971
▁kanalları	-10.9711
▁"20	-10.9712
▁enerjisi	-10.9717
▁hocası	-10.9717
▁kavramı	-10.9717
▁metrelik	-10.9718
▁nüfusun	-10.9719
▁Mus	-10.9719
Şehit	-10.9719
▁gelirse	-10.9721
▁futbolun	-10.9725
▁odasında	-10.9725
suna	-10.9727
▁Pas	-10.9729
▁gerçekleştirdik	-10.9729
▁140	-10.973
▁Hastanesine	-10.9731
▁pozisyonda	-10.9734
▁olduğumuzu	-10.9735
▁kaldık	-10.9735
▁kalkış	-10.9736
▁uzaktan	-10.9736
▁ateşe	-10.9737
▁darbeciler	-10.9743
▁değerinde	-10.9745
▁Isparta	-10.9748
▁EXPO	-10.9749
▁Lübnan	-10.9749
▁motivasyon	-10.9749
▁Çağatay	-10.9749
▁işkence	-10.9749
▁cari	-10.975
HA	-10.9751
▁adlandırılan	-10.9752
▁Firma	-10.9752
▁hissedil	-10.9752
▁Meral	-10.9753
▁kararlılıkla	-10.9753
▁ithalatı	-10.9753
▁bulunur	-10.9755
▁tavan	-10.9756
ilip	-10.9756
▁suçlamaları	-10.9756
▁Acar	-10.9756
▁namlul	-10.9757
▁ikiye	-10.9758
▁akademisyenler	-10.9761
▁baştan	-10.9768
▁yaktı	-10.9768
▁sözcü	-10.977
▁ortalaması	-10.9771
mizle	-10.9772
▁Hakkı	-10.9772
▁kayded	-10.9773
eceğim	-10.9773
▁1.1	-10.9774
▁OL	-10.9774
lerse	-10.9775
▁Dost	-10.9775
▁hastanelere	-10.9777
▁Ebu	-10.9781
▁deneyimli	-10.9783
cısı	-10.9785
▁atmış	-10.9786
▁hücreleri	-10.9787
▁maliyetleri	-10.9795
▁askerlik	-10.9796
▁kullanmaya	-10.9798
▁ağırlığı	-10.9798
▁bırakın	-10.9801
▁faizi	-10.9802
▁faaliyetlerini	-10.9802
▁mimar	-10.9803
▁Uz	-10.9804
leyin	-10.9805
▁Art	-10.9805
▁peş	-10.9805
▁silahlarla	-10.9806
ebilmesi	-10.9806
▁varlıkları	-10.9811
▁kum	-10.9814
Kar	-10.982
▁bırakılması	-10.982
▁harita	-10.9821
▁milyonu	-10.9822
uç	-10.9824
▁kullanması	-10.9825
▁defans	-10.9825
▁kaz	-10.9826
▁Kab	-10.9828
-12	-10.9828
▁kaybettik	-10.9828
▁anlaşmanın	-10.9834
▁gerçekleşmesi	-10.9835
▁Lazio	-10.9836
▁tüken	-10.9836
▁savunuyor	-10.9837
Mİ	-10.9837
▁karşılaştığı	-10.9838
▁harcan	-10.9839
▁başaran	-10.9839
▁Aylin	-10.9842
▁olasılığı	-10.9842
▁Ahmed	-10.9843
▁binaların	-10.9849
▁İN	-10.9851
▁gelişim	-10.9851
▁görmüş	-10.9852
▁bulunuldu	-10.9853
▁hepsini	-10.9853
▁gelişmekte	-10.9855
▁gerginlik	-10.9855
▁isti	-10.9857
▁seçimlerde	-10.9858
▁gar	-10.9861
▁Vatandaşlar	-10.9862
FA	-10.9864
▁beslen	-10.9865
▁ölç	-10.9866
▁finali	-10.9866
leştiği	-10.9867
▁bireyler	-10.9871
lav	-10.9876
▁sesini	-10.9878
▁ruhsat	-10.9878
bit	-10.9878
▁istemez	-10.9887
▁Yemek	-10.9893
▁doğrusu	-10.9893
şır	-10.9895
▁tarihlerinde	-10.9896
▁3,2	-10.9896
▁avantajı	-10.9898
Kara	-10.99
stro	-10.9901
▁oluşturul	-10.9902
▁üyelik	-10.9903
▁Soru	-10.9906
▁haftalarda	-10.9908
▁yürüt	-10.9908
ılıp	-10.9911
▁çare	-10.9911
ment	-10.9913
▁beklentilerin	-10.9916
makla	-10.9916
▁alanlarında	-10.9916
▁Fuar	-10.992
▁yaşadık	-10.9921
▁DHKP	-10.9924
▁gezegen	-10.9924
▁yıldönümü	-10.9924
▁şükür	-10.9924
▁Yalova	-10.9924
▁CIA	-10.9924
▁patates	-10.9924
▁Yok	-10.9924
▁evvel	-10.9924
▁tarla	-10.9924
▁tıpkı	-10.9925
▁savcılığa	-10.9926
▁yazısında	-10.9927
▁çalın	-10.9927
▁onlarla	-10.9927
ano	-10.9928
▁Hel	-10.9928
El	-10.9928
▁oyuncak	-10.9928
▁Olağanüstü	-10.9928
▁Başsavcılığınca	-10.9929
▁ileride	-10.9929
meliyiz	-10.9929
▁Nani	-10.993
▁Önemli	-10.993
▁durumunu	-10.993
▁sığınmacıların	-10.9931
▁parçalı	-10.9931
llo	-10.9932
▁Abi	-10.9932
▁açıklanacak	-10.9932
▁the	-10.9933
▁Qu	-10.9935
▁sunacak	-10.9935
▁görüşmelerde	-10.9936
▁bulundukları	-10.9939
▁haritası	-10.9939
▁yaşananlar	-10.9939
▁tarihin	-10.9941
malıyız	-10.9942
▁golünü	-10.9942
▁dönüyor	-10.9943
▁tutku	-10.995
▁tasarla	-10.9951
▁Dinam	-10.9952
▁yıllarca	-10.9953
▁komşuları	-10.9956
▁750	-10.9957
▁diledi	-10.9961
▁başlığı	-10.9962
▁gelsin	-10.9963
baz	-10.9968
lanmaya	-10.9969
▁AP	-10.9971
▁kapıyı	-10.9972
▁annem	-10.9972
▁yaşını	-10.9972
▁planladığı	-10.9973
▁elimizden	-10.9974
▁konuştuk	-10.9974
▁keyif	-10.9977
▁kayak	-10.9983
▁Şirketi	-10.9983
▁fonksiyon	-10.9984
▁sıralama	-10.9985
▁alama	-10.9987
▁dolandır	-10.9987
▁niteliğinde	-10.9988
▁militan	-10.9993
▁Başsavcı	-10.9995
▁tabutu	-10.9995
mızdan	-10.9998
▁otorite	-10.9999
▁tarihini	-10.9999
▁dışından	-11.0001
▁dakikalık	-11.0003
▁endeks	-11.0003
arım	-11.0004
▁dostu	-11.0005
87	-11.0007
▁maddeleri	-11.0009
ling	-11.0009
▁muhafaza	-11.0011
▁kronik	-11.0012
▁tablet	-11.0012
▁Çorum	-11.0012
▁İhsan	-11.0012
▁bağışıklık	-11.0012
▁Kobani	-11.0012
▁öncülüğünde	-11.0012
▁limit	-11.0012
▁profil	-11.0012
▁olmamız	-11.0012
▁çalıştırıcı	-11.0013
▁yuvarlağı	-11.0013
▁elleri	-11.0013
▁balkon	-11.0014
▁rahatlıkla	-11.0014
▁Komisyon	-11.0015
▁dönüp	-11.0017
Ak	-11.0018
▁Radyo	-11.0019
▁kaldırma	-11.002
▁himmet	-11.0021
▁uzanan	-11.0021
▁borcunu	-11.0022
▁yayımlan	-11.0024
▁artırıl	-11.0025
say	-11.0026
▁duyur	-11.0027
▁Doğum	-11.0027
▁alanların	-11.0029
▁bulması	-11.0029
▁varan	-11.0031
▁öğretmenler	-11.0032
▁diren	-11.0033
▁kaş	-11.0033
▁deplasmanında	-11.0037
▁buluş	-11.0037
▁ciro	-11.0037
▁satılıyor	-11.0038
▁takımla	-11.0041
▁Şampiyon	-11.0045
▁kurumların	-11.0045
▁kalkan	-11.0045
▁yaşadığımız	-11.0052
▁hayranları	-11.0053
▁nişan	-11.0054
▁eyaleti	-11.0056
▁oğlum	-11.0057
▁katılımı	-11.0057
ph	-11.0059
MI	-11.0062
ymış	-11.0064
▁finalde	-11.0067
aslan	-11.0069
▁tribünler	-11.0073
▁etmeli	-11.0073
▁raf	-11.0074
asyonu	-11.0077
nizle	-11.0078
▁Dizi	-11.0078
▁Suriyeliler	-11.008
▁isimlerinden	-11.0082
▁Kürtler	-11.0083
RT	-11.0085
▁keyfi	-11.0087
▁Yardım	-11.0089
cc	-11.0091
▁Örgütün	-11.0091
tion	-11.0094
▁2012'	-11.0095
▁eleman	-11.0095
▁yo	-11.0097
berg	-11.0098
▁stat	-11.0099
bah	-11.0099
▁Ürdün	-11.0101
▁George	-11.0101
▁haziran	-11.0101
▁Viyana	-11.0102
▁elden	-11.0103
▁Memur	-11.0105
▁bulunmayan	-11.0108
▁çıkmadı	-11.0108
▁suçlamasıyla	-11.0109
tmek	-11.011
▁bedelini	-11.0111
▁bağımsızlığı	-11.0111
▁getirir	-11.0111
▁yapabilme	-11.0111
▁kendinizi	-11.0112
▁1980	-11.0112
Cİ	-11.0116
▁atıp	-11.0116
▁artışın	-11.0118
▁Kapısı	-11.0119
▁Şeyh	-11.0121
ebiliriz	-11.0122
▁dönmek	-11.0123
▁toplama	-11.0125
▁Bayern	-11.0127
▁Romanya	-11.0128
vaz	-11.0128
hak	-11.0129
88	-11.0129
▁çocuklarda	-11.0133
▁büyüklüğü	-11.0135
▁Bre	-11.0138
mişler	-11.0139
▁alarm	-11.014
▁yediği	-11.0141
▁aziz	-11.0141
lenebilir	-11.0141
▁skorla	-11.0141
▁geçim	-11.0149
▁dola	-11.0152
▁çevirme	-11.0152
▁ahlak	-11.0155
▁Fidan	-11.0155
▁yaralılar	-11.0156
▁kaçmaya	-11.0156
mes	-11.0157
98	-11.0157
▁Bizi	-11.0158
leneceği	-11.0159
▁gününe	-11.0161
▁4,5	-11.0161
▁mücadelesini	-11.0162
uf	-11.0165
▁kendilerinin	-11.0165
mun	-11.0166
▁getiril	-11.017
▁televizyonu	-11.0171
▁tamir	-11.0173
▁belirleme	-11.0174
▁ifadesine	-11.0174
▁başladılar	-11.0175
▁verdiklerini	-11.0175
▁dışarıdan	-11.0179
▁sürücüler	-11.018
▁tabanı	-11.0182
İki	-11.0184
▁Alan	-11.0186
▁projeye	-11.0189
▁çiğ	-11.019
▁kızım	-11.0191
▁10.00	-11.0191
▁kürsü	-11.0191
▁ötürü	-11.0191
▁İdmanyurdu	-11.0191
▁tedirgin	-11.0191
▁istisna	-11.0191
▁SSK	-11.0191
▁Braga	-11.0193
▁ailelerin	-11.0193
▁YOK	-11.0193
▁ilham	-11.0194
▁uğrayan	-11.0194
▁Metro	-11.0195
▁Prens	-11.0195
▁değişimi	-11.0196
▁Yerel	-11.0199
▁arkadaşımız	-11.0199
▁ürettiği	-11.02
▁çalıştır	-11.02
▁Müdürlüğüne	-11.02
meyeceği	-11.02
▁zaferi	-11.02
▁savcısı	-11.0201
▁nitelikli	-11.0202
▁Mis	-11.0203
▁kaya	-11.0203
▁ağacı	-11.0203
▁Herkesin	-11.0204
▁Çalışan	-11.0205
▁işareti	-11.0205
▁bütünlüğü	-11.0207
▁çalışıyorum	-11.0208
▁Kapı	-11.0209
▁açıklanması	-11.021
▁kuruluşlarının	-11.021
▁tas	-11.0213
▁şahıslar	-11.0214
▁niteliği	-11.0216
▁yanıtını	-11.0216
▁platformu	-11.0217
▁terörizm	-11.0218
▁1-2	-11.0219
▁açıldığı	-11.022
▁kaptan	-11.0222
▁metni	-11.0223
▁gelirken	-11.0224
amayınca	-11.0228
▁şarkılar	-11.0229
▁içerisindeki	-11.023
▁alıyoruz	-11.0231
▁davranma	-11.0232
La	-11.0232
▁Berk	-11.0236
▁Kürtlerin	-11.0237
▁incelemelerde	-11.024
▁yetenek	-11.0243
mayacağız	-11.0244
▁sonuçlarını	-11.0244
▁suçlar	-11.0245
▁problemleri	-11.0245
▁haberleşme	-11.0246
▁pazarlık	-11.0246
▁paylaşıl	-11.0246
▁Savcılığı	-11.0248
▁eleştirdi	-11.0248
▁başvurma	-11.0249
84	-11.025
94	-11.0253
▁şeref	-11.0256
▁MA	-11.0258
SU	-11.0258
▁eserler	-11.0259
▁sunul	-11.0262
▁basınında	-11.0263
▁dk	-11.0263
▁sanığın	-11.0266
▁LG	-11.0267
▁akım	-11.0273
Gel	-11.0273
▁yapısını	-11.0276
▁tahsil	-11.0277
▁ilişkilerini	-11.028
▁merakla	-11.028
▁adımları	-11.0281
▁intikam	-11.0282
▁EURO	-11.0282
▁akaryakıt	-11.0282
▁doküman	-11.0282
▁niçin	-11.0282
▁periyod	-11.0282
▁Şafak	-11.0282
▁Şükrü	-11.0282
▁Sürücü	-11.0282
▁web	-11.0282
▁dürüst	-11.0282
▁ziyade	-11.0282
▁DAİŞ	-11.0283
▁Haydar	-11.0283
▁yasadışı	-11.0283
▁Baykal	-11.0284
▁19.00	-11.0284
▁durması	-11.0287
▁dokunma	-11.0288
▁hayatlarını	-11.0288
▁saldırısının	-11.0288
▁fren	-11.0291
▁düşünün	-11.0292
▁Hor	-11.0295
▁aracına	-11.0295
▁aramalarda	-11.0295
▁geçip	-11.0295
▁peşine	-11.0296
▁sahnede	-11.03
▁kızları	-11.0305
▁kurtuldu	-11.0307
▁algısı	-11.0307
▁oyundan	-11.0311
▁açlık	-11.0313
▁yakalamak	-11.0315
kale	-11.0315
▁tersine	-11.0317
▁Konuşma	-11.0318
lanabilir	-11.0318
▁artırdı	-11.0323
▁bilmediği	-11.0324
▁Col	-11.0327
medim	-11.0327
▁soruşturmanın	-11.033
▁minik	-11.033
▁yönlendirme	-11.0331
▁tutulması	-11.0339
loji	-11.034
▁sever	-11.0343
▁öğrenmek	-11.0345
▁azaldı	-11.0346
Başkan	-11.0346
▁varmış	-11.0347
▁üretil	-11.0348
▁ikiz	-11.035
ümü	-11.035
▁tamamını	-11.0351
▁Şarkı	-11.0351
▁yitirdiği	-11.0353
▁Galatasaraylı	-11.0354
▁yiyecekler	-11.0356
▁Raporda	-11.0363
▁zinciri	-11.037
▁kardeşleri	-11.0373
▁söyleniyor	-11.0374
▁Fevzi	-11.0374
▁Pensilvanya	-11.0374
▁Hıristiyan	-11.0374
▁laboratuvar	-11.0374
▁plastik	-11.0374
▁ÖSYM	-11.0374
▁dayanıklı	-11.0374
▁bardağı	-11.0374
▁Sahne	-11.0374
▁düzgün	-11.0375
▁nihayet	-11.0375
▁istediğimiz	-11.0375
▁ertesi	-11.0376
▁çocuklarımız	-11.0377
▁Çoğu	-11.0378
▁amir	-11.0378
ELİ	-11.0378
▁çifte	-11.038
▁müsabakasında	-11.0381
▁güvence	-11.0382
▁edilmesine	-11.0382
▁kategorisinde	-11.0383
▁muhabiri	-11.0384
▁duyar	-11.0385
93	-11.0386
▁öğrendim	-11.039
▁otelde	-11.0391
▁Yara	-11.0392
▁kule	-11.0393
▁otomobilde	-11.0395
▁taşıt	-11.0396
▁Geçmişte	-11.0399
▁bittiği	-11.0402
▁yolculuğuna	-11.0405
▁Çağ	-11.0408
▁çocuklarını	-11.041
▁karakol	-11.0411
▁verilmedi	-11.0414
▁sloganı	-11.0414
▁bırakıl	-11.0414
▁yatırımların	-11.0414
lediğini	-11.0415
▁duyul	-11.0416
▁birbirini	-11.0416
89	-11.0417
▁tempo	-11.0418
▁sevme	-11.0421
▁giyim	-11.0422
▁hukuka	-11.0422
77	-11.0423
▁Hepimiz	-11.0423
▁yaşaya	-11.0423
▁silahlar	-11.0424
▁Harekatı	-11.0425
▁yağlı	-11.0426
▁yaralanma	-11.0428
▁ihalesi	-11.0428
▁kaydedile	-11.0429
▁hayvanlar	-11.0431
▁bilinme	-11.0433
Cumhurbaşkanı	-11.0437
nüz	-11.0437
▁okulları	-11.0438
▁camiası	-11.0438
İlk	-11.0439
IZ	-11.0439
▁Selin	-11.0441
▁zirvesi	-11.0443
▁sonuçlandı	-11.0447
▁saldırılarının	-11.0448
▁tadı	-11.0449
star	-11.045
mamız	-11.0455
▁şirketinin	-11.0455
▁360	-11.0456
▁mülk	-11.0461
-4	-11.0464
▁İstatistik	-11.0467
▁Florya	-11.0467
▁parlamenter	-11.0467
▁stadyum	-11.0467
▁metreküp	-11.0467
▁Veysel	-11.0467
▁mahsur	-11.0467
▁azalarak	-11.0467
▁Rakka	-11.0467
▁Farklı	-11.0467
▁nakil	-11.0467
▁bardak	-11.0468
▁Melih	-11.0468
▁yürüyen	-11.0469
▁Fiyat	-11.047
▁Çiftçi	-11.0471
▁Melis	-11.0471
▁eşini	-11.0472
▁kapandı	-11.0475
▁bağlayan	-11.0475
▁duruşması	-11.0475
▁tartışmaya	-11.0476
▁Kurum	-11.0476
▁boşluk	-11.0477
▁çavuş	-11.0478
IL	-11.0479
▁kararname	-11.0479
▁kaptır	-11.0479
▁Görgü	-11.0483
▁Kamp	-11.0483
▁imzaladı	-11.0485
yıldız	-11.0486
▁Ders	-11.0486
ecekler	-11.0486
▁Edi	-11.0488
▁fileler	-11.0492
▁primi	-11.0494
▁işlemlerini	-11.0495
83	-11.0497
larımızla	-11.0497
82	-11.0497
▁sokaklarda	-11.0498
▁alacağını	-11.0502
▁Asıl	-11.0504
▁geliştiril	-11.0504
▁oluşma	-11.0506
▁araştırmaya	-11.0508
▁farklılık	-11.0509
başka	-11.0513
▁piyasası	-11.0513
▁donat	-11.0514
LU	-11.0516
▁bağı	-11.0518
ımıza	-11.0518
▁heykel	-11.0519
▁bilgilerin	-11.052
▁düşürülmesi	-11.0522
▁gençlik	-11.0522
mezse	-11.0527
▁etken	-11.0527
▁Raporu	-11.0528
▁Polisin	-11.0532
▁kasaba	-11.0532
▁co	-11.0533
▁facia	-11.0533
▁koyun	-11.0533
▁gerçekleri	-11.0534
▁çözme	-11.0538
▁sunucu	-11.0539
▁Çocukların	-11.054
dor	-11.054
OK	-11.0543
▁kayna	-11.0545
▁kampı	-11.0547
▁Şans	-11.0549
▁teker	-11.0553
▁far	-11.0556
▁kesildi	-11.0557
▁bulduk	-11.0558
▁Öğrenci	-11.0558
▁Vakıf	-11.056
▁öldürüldüğü	-11.056
▁çikolata	-11.056
▁sandalye	-11.056
▁travma	-11.056
▁yeğeni	-11.056
▁Köln	-11.056
▁ihracatçı	-11.056
▁Kosova	-11.056
▁Sultanahmet	-11.0561
▁ilgilendiren	-11.0561
▁Uludağ	-11.0561
▁mayıs	-11.0561
▁Val	-11.0561
▁Kerem	-11.0562
▁Atalay	-11.0562
▁temizlenmesi	-11.0563
▁Tunç	-11.0564
▁Cemaat	-11.0565
▁Tatar	-11.0566
▁Ford	-11.0569
▁patladı	-11.0569
▁verilmesini	-11.057
▁tayin	-11.057
▁kadroda	-11.0571
▁kazanarak	-11.0571
▁çalıştıklarını	-11.0571
cisi	-11.0576
▁öğün	-11.058
▁taraftarları	-11.058
lıyorum	-11.058
▁çalışır	-11.0581
ölü	-11.0581
▁Bankalar	-11.0582
▁arttığını	-11.0583
▁olmalıdır	-11.0583
▁kıy	-11.0584
▁oranını	-11.0585
kül	-11.0585
▁ücretin	-11.0587
ebilen	-11.0589
▁kesimi	-11.0589
▁kaynaklarından	-11.0593
▁konum	-11.0594
▁kızının	-11.0594
mus	-11.0595
▁görevlendiril	-11.0598
▁BAŞ	-11.0599
amazsınız	-11.0599
▁duruşmaya	-11.0599
▁aldılar	-11.0601
▁atması	-11.0602
▁istiyordu	-11.0603
▁söndür	-11.0606
▁bırakıyor	-11.0609
▁takımdan	-11.0609
▁motoru	-11.061
▁soruyor	-11.061
▁toplantılar	-11.0611
▁Hükümeti	-11.0611
▁odasın	-11.0611
▁faaliyetler	-11.0614
▁operasyonun	-11.0615
▁savunması	-11.0616
▁harf	-11.0617
▁apartman	-11.0618
▁sıradan	-11.062
▁sokaklara	-11.0621
▁ideoloji	-11.0623
▁bulunmadığını	-11.0623
layacağız	-11.0625
▁Sektör	-11.0625
▁sektörde	-11.0628
▁Hele	-11.063
▁açacak	-11.0632
▁Sevgi	-11.0633
▁Filmi	-11.0635
▁dağıtıl	-11.0636
▁Aksi	-11.0637
▁Bence	-11.0638
▁maaşları	-11.064
▁yayınladığı	-11.064
▁Tuna	-11.0642
▁gen	-11.0645
▁oyunlar	-11.0647
▁heyecanlı	-11.0648
▁bazında	-11.0653
▁gruba	-11.0654
▁tahvil	-11.0654
▁obezite	-11.0654
▁gerektiren	-11.0654
▁göğsü	-11.0654
▁çoğal	-11.0654
▁Sürekli	-11.0654
▁seyri	-11.0654
▁solunum	-11.0655
▁Kapalı	-11.0655
▁piyade	-11.0655
▁rica	-11.0655
▁İnönü	-11.0655
▁işçilerin	-11.0655
▁makale	-11.0655
▁Ronaldo	-11.0655
▁leke	-11.0655
▁NBA	-11.0657
▁92	-11.0658
▁hedefliyoruz	-11.066
▁uçakla	-11.0661
▁gördüğümüz	-11.0663
▁takvim	-11.0664
▁Adanaspor	-11.0665
▁borçları	-11.0665
▁sorma	-11.0666
▁gelişmelerin	-11.0667
▁başvuruları	-11.0671
▁yatırımcıların	-11.0671
▁etkiler	-11.0671
▁şikayeti	-11.0671
▁atık	-11.0672
▁Nar	-11.0673
▁nadir	-11.0676
▁anılan	-11.0677
▁kapatan	-11.068
▁başlatan	-11.0681
▁durumdan	-11.0682
▁bacağı	-11.0684
▁inanma	-11.0684
▁geçmişi	-11.0685
▁reddedil	-11.0685
▁tüfek	-11.0685
▁nereden	-11.0693
▁yöntemler	-11.0694
▁ofisi	-11.0695
▁namazının	-11.0697
▁filmler	-11.0699
▁ziyaretinde	-11.07
▁yorumunu	-11.07
▁öldürülmesi	-11.0701
had	-11.0701
▁sokma	-11.0703
▁şansını	-11.0705
▁canı	-11.0707
▁yayımlandı	-11.0707
raz	-11.0712
▁okuduğu	-11.0712
▁pilotu	-11.0713
▁tabir	-11.0713
▁katılıyor	-11.0717
devlet	-11.072
graf	-11.0723
▁kendisiyle	-11.0724
▁hap	-11.0725
▁bela	-11.0725
▁seçenekleri	-11.0726
▁konusunu	-11.0731
▁mahkemenin	-11.0732
▁1.3	-11.0734
▁yakını	-11.0736
▁azaltma	-11.0736
▁Mc	-11.0739
▁Balık	-11.0745
▁Zekeriya	-11.075
▁domates	-11.075
▁köpeği	-11.075
▁olimpiyat	-11.075
▁tıbbi	-11.075
▁Çoban	-11.075
▁çılgın	-11.075
▁Marcelo	-11.075
▁Başvuru	-11.075
▁FBI	-11.075
▁donanım	-11.075
▁gişe	-11.075
▁09.00	-11.075
▁Souza	-11.075
▁Eyalet	-11.075
▁Lirası	-11.075
▁Elitaş	-11.0751
▁paniğ	-11.0751
▁sistemde	-11.0752
▁Kuzu	-11.0752
▁güvenilir	-11.0752
▁Ağaoğlu	-11.0753
▁mutluyum	-11.0753
▁yaratıcı	-11.0753
▁geçerken	-11.0755
▁dostluk	-11.0755
▁ekonominin	-11.0755
▁ülkemizi	-11.0756
▁Tiyatrosu	-11.0758
▁Babam	-11.0759
▁kadınları	-11.0759
▁gösterildi	-11.0761
▁VER	-11.0762
▁etsin	-11.0764
▁doktorlar	-11.0764
▁yaya	-11.0765
▁ayrıldığı	-11.0777
▁Tok	-11.0777
▁aşağıdaki	-11.0779
▁bölgeyi	-11.078
▁Şirketin	-11.0782
▁Kuvvetler	-11.0783
▁şişe	-11.0783
TAN	-11.0784
▁arttığı	-11.0788
▁etrafı	-11.079
▁olmakla	-11.0791
▁taraflı	-11.0795
ksızın	-11.0796
▁diyordu	-11.0799
▁kural	-11.0801
▁sim	-11.0801
▁görüntüsü	-11.0807
▁kendimizi	-11.081
▁180	-11.0811
▁söylemi	-11.0813
▁gelmesini	-11.0816
▁kalkması	-11.0817
▁eğlen	-11.0817
▁Kaymakamı	-11.0825
▁yaratan	-11.0826
▁cinayeti	-11.0826
▁çağ	-11.0827
ECEK	-11.0827
▁Bra	-11.0827
▁aldıktan	-11.0828
▁Hizmetleri	-11.083
▁pop	-11.083
▁anlatmak	-11.083
▁müsabakada	-11.0831
▁Boru	-11.0834
nizden	-11.0836
▁sunma	-11.0839
▁etkiliyor	-11.084
▁Buradan	-11.0841
▁derse	-11.0842
▁kamuoyunda	-11.0844
▁sanatçısı	-11.0844
▁sek	-11.0844
▁telefonda	-11.0844
▁bilirkişi	-11.0846
▁tavuk	-11.0846
▁İtfaiye	-11.0846
▁Hatice	-11.0846
▁Fikri	-11.0846
▁MEB	-11.0846
▁Başika	-11.0846
▁Soğuk	-11.0846
▁Transfer	-11.0846
▁Meryem	-11.0846
▁Kalın	-11.0846
▁Sedat	-11.0846
▁tekstil	-11.0846
▁yapalım	-11.0848
▁yetişkin	-11.0848
▁Liste	-11.0848
▁duyuyorum	-11.0849
▁gündeminde	-11.0849
▁direnç	-11.0849
▁yakalanarak	-11.085
▁Sonrasında	-11.0853
▁düşürme	-11.0857
▁değerlendirilen	-11.086
▁2019	-11.086
▁sağlanan	-11.086
▁binasında	-11.0861
▁Somali	-11.0861
▁İHA	-11.0861
▁Özge	-11.0862
▁sivillerin	-11.0862
▁kalmayı	-11.0863
▁kullanılacak	-11.0869
▁yitiren	-11.0869
▁87	-11.0869
▁uydur	-11.087
▁sonuçla	-11.087
▁formasıyla	-11.0871
by	-11.0872
▁verebilir	-11.0872
▁şekeri	-11.0876
▁Elçi	-11.0881
▁sonlandır	-11.0883
-25	-11.0884
▁şirkete	-11.0888
▁04	-11.0889
▁tanıyor	-11.089
▁Adliye	-11.0891
▁yaralanmıştı	-11.0894
▁rakibini	-11.0895
▁makineleri	-11.0898
▁kalkışma	-11.09
▁gireceği	-11.0901
▁doğusu	-11.0902
▁ikincisi	-11.0902
▁hareketli	-11.0903
▁ücretleri	-11.0905
▁Hastalıkları	-11.0906
▁edilmeye	-11.0907
▁reddetti	-11.0911
ÜL	-11.0912
▁fuarı	-11.0912
▁Erken	-11.0912
▁kaçınma	-11.0914
kes	-11.0915
▁Mik	-11.0915
▁gözaltında	-11.0917
▁ödediği	-11.0921
▁çizgisi	-11.0922
▁havuz	-11.0928
emediği	-11.0929
▁uzaklaştı	-11.0932
▁mevki	-11.0933
▁barındır	-11.0934
▁hazırlama	-11.0937
▁çerçeve	-11.0937
▁kandır	-11.0939
▁harcadı	-11.0942
▁Koalisyon	-11.0943
▁Windows	-11.0943
▁mevduat	-11.0943
▁Furkan	-11.0943
▁PTT	-11.0943
▁ödüyor	-11.0943
▁Esnaf	-11.0943
▁yumruk	-11.0943
▁desteklediği	-11.0943
▁Muhtar	-11.0943
▁sunuluyor	-11.0944
▁Emlak	-11.0944
▁Ayşegül	-11.0944
mel	-11.0944
▁Ofisi	-11.0945
▁alandaki	-11.0945
▁Devrim	-11.0946
▁etkileyen	-11.0946
▁tarafa	-11.0946
▁telsiz	-11.0947
▁Poyraz	-11.0947
▁kalıp	-11.0948
▁şifresi	-11.0948
▁yaşındayken	-11.0948
▁YIL	-11.0948
▁Super	-11.0949
▁yapılmasına	-11.0949
▁örgütlerine	-11.0952
▁Ruh	-11.0954
▁Arama	-11.0957
▁Anlaşma	-11.0958
▁baktı	-11.0958
sman	-11.0959
▁tedavisinin	-11.096
▁kutladı	-11.0963
▁İşin	-11.0965
▁beraberindeki	-11.0965
▁görecek	-11.0965
▁galibiyetini	-11.0965
▁ülkesinin	-11.0966
▁ibaret	-11.0966
▁kanalında	-11.0969
▁Filistinli	-11.0971
▁soğu	-11.0972
▁otobüsün	-11.0973
▁kocası	-11.0974
▁Note	-11.0976
▁yolla	-11.0978
▁Sat	-11.0979
▁Eser	-11.0979
▁İslami	-11.0981
aklı	-11.0983
▁etmeme	-11.0988
▁Fen	-11.0988
▁Konferansı	-11.099
▁ray	-11.099
▁görevinden	-11.0993
▁işçinin	-11.0994
▁keşfed	-11.0995
▁kanama	-11.0997
shi	-11.0998
▁KAL	-11.1
▁edileceği	-11.1001
▁ortaklığı	-11.1003
▁biridir	-11.1005
▁düşürül	-11.1005
▁şampiyonu	-11.1007
▁gösterisi	-11.1007
▁uzatıl	-11.1008
▁düşündüğü	-11.101
▁müzakereler	-11.1011
üştü	-11.1012
ÜZ	-11.1013
▁öldürmek	-11.1014
▁otoyol	-11.1015
▁ekranı	-11.1016
▁Che	-11.1017
▁yağı	-11.1017
▁Hazır	-11.1025
▁temizleme	-11.103
▁bayrakları	-11.1031
▁tercihi	-11.1033
▁havanın	-11.1039
▁TT	-11.1039
ığın	-11.104
▁Ameliyat	-11.1041
▁Arsenal	-11.1041
▁Kazakistan	-11.1041
▁TOKİ	-11.1041
▁favori	-11.1041
▁geleceğe	-11.1041
▁promosyon	-11.1041
▁eylül	-11.1041
▁fındık	-11.1041
▁ünite	-11.1041
▁teori	-11.1041
▁belirgin	-11.1042
▁Aksaray	-11.1042
▁sırrı	-11.1044
Kim	-11.1045
▁çıkabilir	-11.1045
▁taktik	-11.1046
▁yakalanma	-11.1046
▁notunu	-11.1046
▁haberde	-11.1047
▁Milletimiz	-11.105
lanacağını	-11.105
▁bildiren	-11.1051
▁bizlere	-11.1052
acaklarını	-11.1052
▁hatası	-11.1053
▁asır	-11.1053
▁tutulan	-11.1053
▁tuttuğu	-11.1056
▁Kutlu	-11.1058
▁oynamaya	-11.1059
▁vicdanı	-11.1064
▁ayrılmak	-11.1065
▁içerikli	-11.1066
▁Yen	-11.1068
97	-11.1073
▁Gelen	-11.1075
▁daral	-11.1077
▁görüştük	-11.108
▁Ziya	-11.1081
▁çevresindeki	-11.1082
lıkta	-11.1084
Ev	-11.1084
▁Tra	-11.1086
▁malzemesi	-11.1088
▁reformlar	-11.1091
▁Bizde	-11.1094
▁Zirve	-11.1095
▁İşlem	-11.1095
tuğ	-11.1097
▁zanlısı	-11.1097
Er	-11.1098
▁ekonomisine	-11.1099
▁Sezonu	-11.1102
IP	-11.1105
▁paylaşma	-11.1108
PYD	-11.111
▁atar	-11.1112
▁katılacağı	-11.1113
ulmuş	-11.1113
posta	-11.1114
rıp	-11.1115
bağ	-11.1115
▁teşebbüsü	-11.1115
▁Üye	-11.1116
▁öğrencinin	-11.1117
ble	-11.1119
▁girdiğini	-11.112
▁Sıra	-11.1122
▁nitelikte	-11.1124
▁üretme	-11.1126
▁çeyrekte	-11.1129
▁burnu	-11.1129
öğ	-11.1132
▁yoğunluğu	-11.1133
Par	-11.1134
▁vuruldu	-11.1139
▁görülebil	-11.114
▁görmüyor	-11.114
▁Muammer	-11.114
▁Personel	-11.114
▁Tekirdağ	-11.114
▁TÜBİTAK	-11.114
▁negatif	-11.114
▁çorba	-11.114
▁kutsal	-11.114
▁mineral	-11.114
▁Havaalanı	-11.114
▁soyunma	-11.114
▁havaalanı	-11.114
▁Kararname	-11.114
▁fakir	-11.114
▁deyince	-11.114
▁parlak	-11.1141
▁Nurettin	-11.1141
▁kaçma	-11.1142
▁alındığında	-11.1143
▁Arkadaşları	-11.1143
▁istikametine	-11.1143
▁benzet	-11.1143
▁şiddetin	-11.1145
▁oynar	-11.1145
▁Fuat	-11.1145
▁sızdı	-11.1146
▁beşinci	-11.1148
▁Fethullahçı	-11.1149
▁Otobüs	-11.1154
şit	-11.1156
▁komisyonu	-11.1156
▁II	-11.1158
▁genelge	-11.1159
▁açılışını	-11.1159
▁Bol	-11.1159
▁hiçbiri	-11.1163
▁ihracatın	-11.1164
▁kalitesini	-11.1164
▁sınava	-11.1166
▁Çık	-11.1167
▁odaklı	-11.1167
▁yüzyılda	-11.1169
▁Eve	-11.1171
79	-11.1173
▁nüfusu	-11.1173
▁ons	-11.1177
▁tanıştı	-11.1178
▁doz	-11.1188
74	-11.1188
▁İçin	-11.1188
▁Ülkemizde	-11.119
▁sergiledi	-11.1191
▁ödenecek	-11.1194
diniz	-11.1194
▁Pay	-11.1198
▁takımını	-11.1199
86	-11.12
▁ilişkili	-11.1201
▁kaldırmak	-11.1207
▁yaklaşımı	-11.1213
▁sakla	-11.1213
▁satıyor	-11.1218
▁yürüdü	-11.122
▁bulunul	-11.1221
▁pişir	-11.1221
▁mekanizma	-11.1226
▁iman	-11.1226
▁yolcular	-11.123
▁oturt	-11.1232
▁tarafsız	-11.1236
▁ulus	-11.1237
▁Doğa	-11.1237
▁PFDK	-11.124
▁traktör	-11.124
▁espri	-11.124
▁Vural	-11.124
▁Aşırı	-11.124
▁Yalnız	-11.124
▁Vadisi	-11.124
▁gönlü	-11.124
▁zeytinyağı	-11.124
▁müdürlüğü	-11.124
▁Yüzyıl	-11.124
▁emeği	-11.124
▁duyuruldu	-11.124
▁olduğunuz	-11.1241
▁kaydederek	-11.1243
▁gribi	-11.1244
▁barışı	-11.1245
▁Hamzaoğlu	-11.1245
▁bilinci	-11.1245
▁tekme	-11.1246
▁hatalar	-11.1246
▁Sad	-11.1246
▁vahim	-11.1246
▁Ergün	-11.1246
▁Konuk	-11.1248
▁güldü	-11.1248
▁kırsalında	-11.1248
▁konuşulan	-11.125
▁Buradaki	-11.1252
▁stil	-11.1252
▁Nazlı	-11.1252
▁kurumlarında	-11.1253
▁koz	-11.1253
▁sizden	-11.1256
▁yiyen	-11.1256
▁sağlığını	-11.1257
hil	-11.1259
▁giyme	-11.126
DO	-11.1267
▁petrolün	-11.1267
▁pasında	-11.1267
▁99	-11.1267
▁sıklıkla	-11.1271
leşiyor	-11.1275
▁Abd	-11.1278
▁bastır	-11.1279
▁yaratmak	-11.128
▁ER	-11.128
▁Yeniden	-11.128
▁istemedi	-11.1281
acağımız	-11.1281
▁ör	-11.1291
▁yılların	-11.1291
▁Kulüpler	-11.1292
▁Sonuçta	-11.1297
▁uçu	-11.1305
▁mezunu	-11.1306
▁eğlenceli	-11.1308
▁erecek	-11.1309
▁çıkarıyor	-11.131
Darbe	-11.1311
▁öğrenim	-11.1312
▁çatışmalarda	-11.1314
▁otelin	-11.1317
▁yakınında	-11.1317
▁Sorun	-11.1317
▁görüşlerini	-11.1319
▁İnci	-11.1319
lamaz	-11.132
▁aştı	-11.1324
▁his	-11.1324
▁Gazeteci	-11.1325
Gün	-11.1329
atif	-11.1332
▁Oyunları	-11.1334
▁gösterecek	-11.1334
laştığı	-11.1334
The	-11.1335
▁Efe	-11.1335
q	-11.1338
▁saldırılarını	-11.1338
▁aracının	-11.1338
▁gümrük	-11.1341
▁yöre	-11.1341
▁çıplak	-11.1341
▁Aboubakar	-11.1341
▁CNN	-11.1341
▁implant	-11.1341
▁iğne	-11.1341
▁roketatar	-11.1341
▁torba	-11.1341
▁Ceylan	-11.1341
▁fişeği	-11.1341
▁poşet	-11.1341
▁şair	-11.1341
▁toprağı	-11.1341
▁vesayet	-11.1342
▁Çalışkan	-11.1342
xxx	-11.1343
▁Abdul	-11.1343
▁düşmanı	-11.1344
▁Gelecek	-11.1345
▁mevkisinde	-11.1345
▁Maalesef	-11.1346
▁çalışmalarda	-11.1347
▁Loto	-11.1348
▁hedeflerini	-11.1349
▁DNA	-11.1349
▁yaşar	-11.1349
▁batısında	-11.135
▁yönetecek	-11.135
▁saçma	-11.135
▁yapıya	-11.1355
▁GÖ	-11.1356
▁teknolojileri	-11.1361
▁yattı	-11.1362
▁eklem	-11.1363
▁kalmıştı	-11.1364
lerimizde	-11.1365
▁vereceğiz	-11.1367
muzda	-11.1368
ord	-11.1371
▁ilişkilerinin	-11.1372
▁Bizler	-11.1372
▁fileleri	-11.1375
▁bırakmadı	-11.1375
▁rakamın	-11.1378
▁sarılı	-11.1379
▁komuta	-11.1379
▁mağduru	-11.138
▁görmedi	-11.1381
▁edemez	-11.1386
▁formasını	-11.1387
▁girişimler	-11.1387
▁almıştır	-11.1391
▁boru	-11.1391
▁Gelir	-11.1392
▁istediğiniz	-11.1394
▁uyarısında	-11.1394
▁anahtar	-11.1397
▁Müsteşarı	-11.1397
▁gönderilmesi	-11.1397
▁Altı	-11.14
SAN	-11.1401
▁bölgeleri	-11.1405
▁etmeden	-11.1406
▁bilgilerini	-11.1406
eyim	-11.1407
▁yargılanması	-11.1411
▁liranın	-11.1412
GS	-11.1413
▁fena	-11.1415
▁bakmak	-11.1415
▁üçte	-11.1418
▁kavuştu	-11.1419
amayız	-11.1419
▁Müslümanların	-11.1422
▁teşhisi	-11.1422
▁çalışmış	-11.1423
▁hisseleri	-11.1425
▁cezasını	-11.1428
▁Eşim	-11.143
▁ciddiye	-11.1431
▁şimdilik	-11.1436
▁Rey	-11.1436
▁eleştirme	-11.1437
▁yoksun	-11.1439
ARA	-11.144
▁dinledi	-11.1442
▁Akşener	-11.1443
▁götürülen	-11.1443
▁övgü	-11.1443
▁uzantısı	-11.1443
▁yansıyan	-11.1443
▁edelim	-11.1443
▁Dicle	-11.1443
▁tebliğ	-11.1443
▁Video	-11.1444
▁tapu	-11.1444
▁çalışıl	-11.1444
▁kulağı	-11.1444
▁Yüzbaşı	-11.1444
▁bulunmuyor	-11.1445
▁rakamları	-11.1445
▁kısmen	-11.1445
▁Kamil	-11.1446
▁olmaktadır	-11.1449
▁alabilecek	-11.1449
▁duyurmuştu	-11.145
▁bağımlı	-11.1451
sol	-11.1453
▁haberdar	-11.1454
▁varken	-11.1455
▁verilmiştir	-11.1456
▁Selam	-11.1457
▁araştırmada	-11.1457
▁Konak	-11.146
▁kablo	-11.146
▁kop	-11.1463
ich	-11.1465
▁denetimi	-11.1466
▁engelle	-11.1469
▁olaya	-11.147
▁Alanya	-11.147
ps	-11.1472
▁TAK	-11.1473
▁edeceğim	-11.1474
▁3-2	-11.1474
▁Ülkemiz	-11.1475
▁benze	-11.1476
▁seslendi	-11.1478
▁93	-11.1478
▁sıkıştır	-11.148
▁yenilikler	-11.1481
▁gelmiştir	-11.1481
▁bayıl	-11.1481
▁zamanki	-11.1481
▁bayi	-11.1483
▁Tav	-11.1483
▁Köy	-11.149
▁Tut	-11.1491
▁KAP	-11.1497
-100	-11.1498
MO	-11.1501
▁vuruşu	-11.1502
▁seçti	-11.1505
▁taşımak	-11.1506
▁düşmüş	-11.1508
amp	-11.151
▁boğa	-11.1511
▁üretiminde	-11.1516
YPG	-11.1517
Daha	-11.1517
▁Ölüm	-11.1519
▁uğrat	-11.152
▁özgü	-11.1521
▁dükkan	-11.1525
▁polisleri	-11.1525
▁topluma	-11.1526
▁halini	-11.1528
▁vermediği	-11.1531
▁liderlik	-11.1531
gue	-11.1534
▁kurtulma	-11.1535
▁Anlaşması	-11.1537
▁Durumu	-11.1539
▁hükümete	-11.1539
▁Batılı	-11.154
▁slogan	-11.1541
▁alınmasını	-11.1542
▁çök	-11.1546
▁Endonezya	-11.1546
▁Gürcistan	-11.1546
▁Lokomotiv	-11.1546
▁Rıdvan	-11.1546
▁İrfan	-11.1546
▁bürokrasi	-11.1546
▁boyutlu	-11.1546
▁Atilla	-11.1546
▁Necati	-11.1546
▁radar	-11.1546
▁Daniel	-11.1546
▁Hırvatistan	-11.1546
▁terminal	-11.1546
yiğit	-11.1546
▁Bozkır	-11.1547
▁esnada	-11.1547
▁Umarım	-11.1547
▁kitaplar	-11.1547
▁şutunda	-11.1547
▁Lozan	-11.1548
▁dershane	-11.1548
▁Sarıyer	-11.1549
çeşme	-11.1549
▁getirdiğini	-11.1551
▁Çözüm	-11.1553
▁stratejisi	-11.1555
▁kazandıran	-11.156
▁Faiz	-11.1567
▁göçü	-11.157
▁dilim	-11.157
▁karışan	-11.1571
hip	-11.1572
▁anlatma	-11.1572
▁dostları	-11.1573
▁yorumları	-11.1575
UK	-11.1576
▁gelenek	-11.1577
eceklerini	-11.158
▁ifadesinin	-11.1581
Tek	-11.1581
▁puanını	-11.1582
amayacağını	-11.1582
▁Planı	-11.1582
▁fiziki	-11.1583
▁uzunluğunda	-11.1586
▁unsur	-11.1593
▁kapak	-11.1596
ydü	-11.1597
▁onayı	-11.1598
▁düzeltme	-11.1598
▁duygularını	-11.1598
▁Tak	-11.1599
▁arkadaşlarının	-11.16
▁Yaptığı	-11.1608
▁duygusu	-11.161
▁ömrü	-11.161
▁yaşanması	-11.1612
▁Müze	-11.1613
▁galeri	-11.1614
▁sıkıntılı	-11.1618
▁sağlandığı	-11.1623
▁standartları	-11.1624
▁edeceklerini	-11.1627
▁uygulamasının	-11.1629
▁akraba	-11.1629
▁gerçeklik	-11.1631
▁ödemeleri	-11.1631
▁farkla	-11.1635
▁listesi	-11.1638
▁kişiyle	-11.1638
▁faaliyetlerine	-11.1638
▁başlamak	-11.1639
▁kaybetmişti	-11.1641
▁gazetesinde	-11.1642
▁gölge	-11.1642
▁hazırlıkları	-11.1642
▁projeyi	-11.1643
▁Chi	-11.1646
▁gerçekleştiği	-11.1646
▁mikro	-11.1648
▁planda	-11.1649
▁Katılım	-11.1649
▁niha	-11.165
▁Mandıralı	-11.165
▁Reuters	-11.165
▁bertaraf	-11.165
▁kıdem	-11.165
▁tesadüf	-11.165
▁sömür	-11.165
▁Uysal	-11.165
▁ivme	-11.165
▁Modern	-11.165
▁buçuk	-11.1651
▁Topçu	-11.1651
▁ekstra	-11.1652
▁sığınak	-11.1654
▁Pri	-11.1654
▁aranıyor	-11.1655
▁Özlem	-11.1655
▁TSİ	-11.1657
▁izah	-11.1658
▁köyleri	-11.1658
sson	-11.1659
▁Esen	-11.166
▁Play	-11.1661
▁finalinde	-11.1661
▁Kurmay	-11.1663
▁soruların	-11.1663
▁ekranlar	-11.1664
▁akademik	-11.1664
emeyiz	-11.1666
▁koruması	-11.1668
▁gezme	-11.1672
▁riskli	-11.1676
▁kaldırmaya	-11.1676
▁TK	-11.1676
▁karşılığını	-11.1677
▁evleri	-11.1677
▁kayıplar	-11.1677
▁hissettir	-11.168
▁ilerliyor	-11.1682
İNİ	-11.1684
▁gr	-11.1685
▁metal	-11.1687
▁özgürlüğünü	-11.1689
▁çöktü	-11.169
▁and	-11.1691
▁yakalan	-11.1692
▁gözle	-11.1693
▁unsuru	-11.1696
▁zammı	-11.1696
▁doktorların	-11.1699
▁aşık	-11.1701
▁muhabirinin	-11.1705
▁korunma	-11.1706
▁alabilir	-11.1706
▁Ödül	-11.1707
▁turistler	-11.1707
▁aldat	-11.1709
lacağı	-11.1711
▁işine	-11.1711
▁atmaya	-11.1712
▁almasını	-11.1713
▁Kastamonu	-11.1713
▁Şüphelilerin	-11.1717
▁Toplantıda	-11.1721
▁fizik	-11.1723
▁ucu	-11.1724
▁alerji	-11.1724
▁sis	-11.1727
▁Bakın	-11.1729
▁görüntülendi	-11.1729
▁kararında	-11.1731
▁göstermeye	-11.1732
▁Sto	-11.1733
▁havalimanında	-11.1734
▁Ağa	-11.1744
▁gözünü	-11.1745
DK	-11.1745
▁görüşmek	-11.1746
▁yayında	-11.1747
▁etmekte	-11.175
▁savaşa	-11.1753
▁yarısını	-11.1754
▁Liverpool	-11.1756
▁Sönmez	-11.1756
▁Kjaer	-11.1756
▁fakülte	-11.1756
▁Tahran	-11.1756
▁lobi	-11.1756
▁Kirby	-11.1756
▁meşhur	-11.1756
▁basket	-11.1758
▁gözet	-11.1758
▁koruyan	-11.1759
▁bulunurken	-11.1759
▁kapağı	-11.1759
▁1997	-11.1759
▁rezervasyon	-11.1759
▁değiştirmek	-11.176
▁1996	-11.1761
biz	-11.1761
▁sürdürecek	-11.1761
▁tutumu	-11.1761
▁Dick	-11.1762
▁yapmamız	-11.1763
▁mültecilere	-11.1763
▁liderliği	-11.1766
jan	-11.1766
▁öğrendik	-11.1769
▁Çağla	-11.1771
▁artıran	-11.1773
▁Dü	-11.1775
▁engeller	-11.1775
teri	-11.1775
▁atmosfer	-11.1778
▁kriter	-11.1779
▁ordusunun	-11.1781
▁yapıyordu	-11.1781
ston	-11.1783
▁etkiledi	-11.1784
▁önü	-11.1785
▁annesinin	-11.1786
kırmızılılar	-11.1788
▁Angela	-11.1789
▁küme	-11.1789
▁kulüpte	-11.179
▁malzemeler	-11.1792
▁kenar	-11.1792
▁yenileme	-11.1792
▁oluşumu	-11.1796
amadık	-11.1797
▁masraf	-11.1797
▁bakımı	-11.1799
▁Balkan	-11.1799
RU	-11.18
▁haftaya	-11.18
▁soruşturmasında	-11.1802
▁kullanıldığını	-11.1803
▁Sekreter	-11.1804
leyeceği	-11.1805
▁Hac	-11.1806
zade	-11.181
▁yükselmesi	-11.1812
▁çıkmasını	-11.1814
log	-11.1815
▁patlamada	-11.1818
▁arkasındaki	-11.1821
▁edilmek	-11.1823
▁bulmuş	-11.1823
▁kokusu	-11.1828
▁kapıları	-11.1832
*	-11.1832
Erdoğan	-11.1833
Sayın	-11.1833
▁yanıtı	-11.1833
Kendi	-11.1833
▁bankanın	-11.1834
▁Güçlü	-11.1839
▁sürme	-11.1842
▁seferber	-11.1843
▁Hol	-11.1847
form	-11.1851
▁yayım	-11.1855
▁illerde	-11.1856
labilecek	-11.1858
▁İranlı	-11.186
▁hissediyor	-11.1861
▁öngörül	-11.1861
uhteşem	-11.1862
▁Microsoft	-11.1862
▁Hollywood	-11.1862
▁Nevruz	-11.1862
▁Sanders	-11.1862
▁diktatör	-11.1862
▁istişare	-11.1862
▁referans	-11.1862
▁restorasyon	-11.1862
▁mekân	-11.1862
▁tabela	-11.1862
▁lastik	-11.1862
▁STK	-11.1862
▁sorduğu	-11.1862
▁nakit	-11.1862
▁eksiklik	-11.1863
▁bitmesi	-11.1863
▁Göztepe	-11.1864
▁Sağlıklı	-11.1865
▁duyuyoruz	-11.1865
▁belirlediği	-11.1865
▁geleceğine	-11.1866
▁damat	-11.1867
▁köklü	-11.1867
▁aynen	-11.1868
▁izlenen	-11.1868
▁konuşul	-11.1869
▁işletim	-11.1869
▁karla	-11.187
▁düşer	-11.187
fir	-11.1871
▁piyasasında	-11.1871
▁barınma	-11.1871
▁kazanıyor	-11.1873
▁alınıp	-11.1873
▁anma	-11.1874
▁medyanın	-11.1875
▁Gökçek	-11.1875
▁sevenleri	-11.1876
▁sürüklen	-11.1877
▁sözlü	-11.1879
▁Taner	-11.1885
▁söylenen	-11.1888
▁Gökçe	-11.1889
▁gereğini	-11.189
▁önemini	-11.189
▁partisinin	-11.1891
▁kardeşlik	-11.1898
▁yerlerinde	-11.1898
▁domuz	-11.1899
▁alacağız	-11.1903
▁gününü	-11.1904
▁etkinlikler	-11.1908
▁Fox	-11.1908
▁160	-11.191
▁tarafın	-11.191
▁Ayak	-11.1911
lerimi	-11.1912
▁dönemini	-11.1912
▁yüze	-11.1913
▁Yedi	-11.1913
▁94	-11.1917
emeyeceği	-11.1917
▁salonunda	-11.1918
▁ödemek	-11.1918
▁yaralama	-11.1919
▁Kendisine	-11.1922
▁cildi	-11.1923
▁kayboldu	-11.1927
▁uzaklaş	-11.1928
▁cihazın	-11.1929
▁usul	-11.193
gon	-11.193
▁vermeyen	-11.1936
▁şüphelilerden	-11.1938
şam	-11.1938
efendi	-11.194
Şimdi	-11.194
▁umu	-11.1942
▁tıka	-11.1944
▁Onları	-11.1945
▁Stadyumu	-11.1954
▁Sema	-11.1959
▁patlamanın	-11.196
▁kast	-11.1962
▁Annesi	-11.1964
▁çıkmaz	-11.1964
▁benimle	-11.1965
▁Eskiden	-11.1967
▁ülkesine	-11.1968
▁rakamı	-11.1969
▁reyting	-11.1969
▁Hazret	-11.1969
▁federasyon	-11.1969
▁kaçınılmaz	-11.1969
▁vazife	-11.1969
▁şeffaf	-11.1969
▁sorulması	-11.197
▁Otoyolu	-11.197
▁Yağmur	-11.197
▁öngörülüyor	-11.197
▁çelik	-11.197
▁Nobel	-11.197
▁belirleyecek	-11.197
▁ağırlaştırılmış	-11.197
▁çene	-11.1971
▁Alanyaspor	-11.1971
▁Toner	-11.1971
▁yapabilirsiniz	-11.1973
▁1998	-11.1974
▁yararlı	-11.1974
▁yakalandığı	-11.1974
▁Şiddet	-11.1974
▁izlenme	-11.1974
▁engellenmesi	-11.1975
▁Sevil	-11.1975
▁hedefleniyor	-11.1976
▁direk	-11.1976
▁fazlasını	-11.1978
▁devrildi	-11.1979
▁söylemesi	-11.198
▁ilacı	-11.1981
hisar	-11.1981
▁Törende	-11.1985
▁gidiyoruz	-11.1985
▁turizmi	-11.1986
▁koridor	-11.1986
▁Bro	-11.1989
▁şoku	-11.199
▁arabası	-11.1991
▁haz	-11.1991
▁karısı	-11.1991
mayacağını	-11.1991
▁Niye	-11.1995
amaması	-11.1996
▁Yaman	-11.1996
İP	-11.1997
▁sanatı	-11.1997
▁çat	-11.1998
▁misiniz	-11.2
▁ima	-11.2001
▁üreticisi	-11.2006
▁kesintisiz	-11.2006
▁öteki	-11.2009
▁görüşleri	-11.2015
şir	-11.2015
▁adının	-11.2017
▁sanatçının	-11.2017
gov	-11.202
▁değerini	-11.2022
mavili	-11.2023
▁evinden	-11.2026
▁Cap	-11.2027
▁no	-11.2028
▁krizinin	-11.2029
▁geçin	-11.203
▁söyledikleri	-11.2032
▁suyun	-11.2035
▁kullanacak	-11.2037
▁döndüğü	-11.2037
▁götürme	-11.2038
▁yarışında	-11.204
TİR	-11.204
▁programını	-11.2041
▁finansmanı	-11.2043
▁yaptırdı	-11.2044
▁saldırılarda	-11.2045
▁gönderildiği	-11.2046
ekli	-11.2052
▁TC	-11.2052
▁War	-11.2052
▁Tamam	-11.2053
▁Günümüzde	-11.2055
ddin	-11.2058
▁Gençler	-11.2058
▁hırsız	-11.2058
▁sektörüne	-11.2059
▁davranışları	-11.2059
amayacağı	-11.2062
▁simge	-11.2063
ınızı	-11.2063
▁kurtarıl	-11.2063
▁hazırlandı	-11.2065
▁yor	-11.2066
▁yaşananları	-11.2066
▁satıldı	-11.2069
▁Parlamento	-11.2069
NIN	-11.2071
▁engellemeye	-11.2072
▁Devre	-11.2072
▁Üstün	-11.2073
▁hepsinin	-11.2074
▁Post	-11.2076
▁Chedjou	-11.2078
▁Yukarı	-11.2078
▁Bandırma	-11.2078
▁sterlin	-11.2078
▁Kanarya	-11.2078
▁derneği	-11.2079
▁casusluk	-11.2079
▁Bankacılık	-11.2079
▁Ekici	-11.2081
▁talebini	-11.2082
▁vb	-11.2082
▁yoğurt	-11.2083
▁Zika	-11.2083
▁düşerek	-11.2083
▁Luis	-11.2083
▁olumsuzluklar	-11.2084
▁buluşacak	-11.2084
▁görü	-11.2085
▁Hükümetin	-11.2085
▁bağlantıları	-11.2086
▁nitele	-11.2089
▁Burası	-11.209
▁sığınmacılar	-11.2095
CU	-11.2096
▁artırıyor	-11.2097
▁tanıtımı	-11.2097
▁vs	-11.21
cuk	-11.2102
▁dalgalanma	-11.2104
▁edeme	-11.2106
RO	-11.2106
▁Olmaz	-11.2106
▁hissettiği	-11.2107
▁sürdüğünü	-11.2111
▁haberlerin	-11.2112
▁patla	-11.2113
lanmak	-11.2114
▁Gemi	-11.2115
▁çalıştık	-11.2116
▁beyni	-11.2121
▁imkansız	-11.2124
▁rakamlar	-11.2125
▁yetenekli	-11.2127
▁bankası	-11.2128
▁hainler	-11.2128
▁istikrarı	-11.2129
▁Etki	-11.213
▁Masa	-11.2132
▁getirmeye	-11.2132
PS	-11.2133
▁kalmasını	-11.2135
▁kaynaklardan	-11.2136
▁oluruz	-11.2136
▁koymak	-11.2145
▁yönetmeni	-11.2146
GA	-11.2146
2015	-11.2147
▁öngörüle	-11.2147
▁Salon	-11.2152
▁yarıya	-11.2152
SM	-11.2153
▁kimseyi	-11.2153
rum	-11.2154
ülmüştü	-11.2155
▁ağları	-11.2157
▁verilere	-11.2157
▁sonsuz	-11.2157
▁beklemek	-11.2158
Büyük	-11.2159
Zaman	-11.2159
▁takımında	-11.216
▁konumda	-11.2162
▁Leyla	-11.2164
▁taraftarın	-11.2164
▁Pen	-11.2169
NİN	-11.217
▁dediğini	-11.2172
▁paylaşıyor	-11.2172
▁başarıya	-11.2174
▁kavgaya	-11.2176
▁Saf	-11.2179
▁YENİ	-11.2182
▁Gü	-11.2186
▁işimiz	-11.2187
hor	-11.2188
▁rota	-11.2188
▁sistemiyle	-11.2188
▁Fırtına	-11.2188
▁Kütahya	-11.2188
▁profesör	-11.2188
▁İdlib	-11.2188
▁Hollande	-11.2188
▁hazırlığı	-11.2188
▁fırın	-11.2188
▁Medica	-11.2189
▁Kamuoyu	-11.2189
▁iOS	-11.2189
▁mantık	-11.2189
▁objektif	-11.2189
▁Binbaşı	-11.2189
▁Akyazı	-11.219
▁taşıyacak	-11.219
▁tatmin	-11.219
▁play	-11.2191
▁Makedonya	-11.2191
▁çıkınca	-11.2191
▁gördükleri	-11.2192
İNE	-11.2194
▁mevkiinde	-11.2195
▁yankı	-11.2196
▁Keşke	-11.2198
▁büyüt	-11.2198
▁grip	-11.2198
▁çıkmayı	-11.2198
▁sunum	-11.22
▁oyuncuyu	-11.22
▁HAK	-11.22
▁konularında	-11.2201
▁toplantısına	-11.2203
▁sırtı	-11.2204
▁arkadaşlarına	-11.2205
dışı	-11.2205
▁Ersan	-11.2206
▁gayreti	-11.2207
▁topraklarında	-11.221
▁KUR	-11.221
▁çoktan	-11.2212
▁Air	-11.2212
▁yükselme	-11.2212
▁vermez	-11.2214
▁depolama	-11.2214
▁geleneği	-11.2214
▁efendi	-11.2219
▁işletmeci	-11.2219
▁yoğunluk	-11.2222
▁dersleri	-11.2223
▁450	-11.2223
▁grev	-11.2224
▁eğilim	-11.2224
▁Kendisini	-11.2227
bildi	-11.2227
▁koleksiyon	-11.2229
▁çözmek	-11.223
▁koruyor	-11.2231
lenmeye	-11.2232
▁çıkacağı	-11.2234
▁paylaşmak	-11.2238
▁merkezinin	-11.2239
▁Bor	-11.2241
▁miydi	-11.2241
▁sonuca	-11.2242
▁yas	-11.2243
▁çekilmiş	-11.2245
▁nişancı	-11.2246
▁belirsizlik	-11.225
▁makamları	-11.2251
ahmet	-11.2251
▁kazanım	-11.2253
▁Açıklama	-11.2253
▁ablası	-11.2255
▁dinamik	-11.2256
▁Um	-11.2261
▁örnekleri	-11.2264
▁Seri	-11.2265
▁hedefler	-11.2267
Böyle	-11.227
TS	-11.227
▁bulunmuş	-11.2271
▁pat	-11.2271
▁kıza	-11.2274
▁Deli	-11.2274
▁sahiptir	-11.2275
yurt	-11.2276
▁solu	-11.2281
▁değin	-11.2281
▁çocuğunun	-11.2283
▁eşitliği	-11.2283
▁edilmesinin	-11.2284
▁planlarını	-11.2286
▁küçül	-11.2287
lamıyor	-11.2288
Ro	-11.2289
eğen	-11.2293
▁Petr	-11.2294
▁yemin	-11.2299
▁Cerrahi	-11.2299
▁WhatsApp	-11.2299
▁okuyucu	-11.2299
▁Pamuk	-11.2299
▁Riyad	-11.2299
▁nasip	-11.2299
▁iskele	-11.2299
▁mensup	-11.2299
▁Bozkurt	-11.23
▁salata	-11.23
▁taviz	-11.23
▁konuşuluyor	-11.23
▁edebileceği	-11.2301
▁•	-11.2302
▁yapabiliyor	-11.2302
▁değiştirilmesi	-11.2302
▁hırs	-11.2303
▁satıcı	-11.2303
▁tersi	-11.2303
▁Un	-11.2304
▁Mevcut	-11.2304
ulan	-11.2305
▁sürdürülen	-11.2305
▁hapishane	-11.2305
▁buyur	-11.2306
▁istemiyoruz	-11.2307
▁Mol	-11.2308
▁çalışmanın	-11.2309
▁Pir	-11.2309
cüler	-11.231
▁sınırlarını	-11.231
▁duyulan	-11.2311
▁fotoğraflarını	-11.2313
▁seti	-11.2314
uluyor	-11.2315
▁kişilerde	-11.2316
▁krem	-11.2318
▁oluşur	-11.2319
▁törene	-11.232
Ara	-11.232
▁hastalarda	-11.232
▁evlat	-11.2321
▁saldırısını	-11.2321
▁Ümraniye	-11.2322
▁edince	-11.2323
▁çevreleri	-11.2323
▁müttefik	-11.2324
▁dizide	-11.2326
▁menajeri	-11.2327
▁çalışmalarımız	-11.2327
▁yükseltti	-11.233
▁hükmü	-11.2331
▁binalar	-11.2333
▁taleplerini	-11.2337
▁Emeklilik	-11.2338
▁yaparsa	-11.2338
▁aydan	-11.2338
▁yenme	-11.234
▁Duran	-11.2346
▁bakanı	-11.2348
▁oluyoruz	-11.2349
▁açıklamasının	-11.2351
▁duvarı	-11.2352
▁konuşmaları	-11.2352
▁değerlendirmede	-11.2353
▁ret	-11.2355
▁yapmadan	-11.2355
▁edileceğini	-11.2355
▁Iraklı	-11.2362
▁istismarı	-11.2362
▁açması	-11.2363
▁şahs	-11.2364
dıktan	-11.2364
▁Yardımcı	-11.2364
▁evini	-11.2365
▁ayırdı	-11.2367
▁bağlama	-11.2367
▁hukuku	-11.2371
▁röportajda	-11.2375
▁kırma	-11.2375
söz	-11.2377
▁üstlendi	-11.2377
▁halı	-11.2381
Ancak	-11.2382
▁Erkekler	-11.2383
▁yarışması	-11.2387
▁telefonların	-11.2387
▁açıklamasına	-11.2387
▁istek	-11.2388
▁uçaklar	-11.2389
▁kapısında	-11.239
▁etmemiz	-11.2392
▁2018'	-11.2398
▁istediğim	-11.2399
kapı	-11.24
▁ailesini	-11.2405
▁ulaşmış	-11.2406
göl	-11.2407
▁şiddeti	-11.2407
▁duyguları	-11.2409
▁sergisi	-11.241
▁kesimlerinde	-11.241
Â	-11.2411
▁MİLYON	-11.2411
▁fuhuş	-11.2411
▁kolesterol	-11.2411
▁koordine	-11.2411
▁lojistik	-11.2411
▁lokanta	-11.2411
▁merhamet	-11.2411
▁çamaşır	-11.2411
▁ılımlı	-11.2411
▁metrobüs	-11.2411
▁Nusra	-11.2412
▁Nehri	-11.2412
▁Yoğun	-11.2412
▁Filiz	-11.2412
▁Ziyaret	-11.2413
▁buluşturdu	-11.2413
▁İzzet	-11.2413
▁ölmüş	-11.2413
▁Karabağ	-11.2413
▁Tahir	-11.2414
▁üstünlük	-11.2414
▁Simon	-11.2415
▁Rapor	-11.2415
▁çevrede	-11.2417
▁başlayarak	-11.2419
▁Evren	-11.2419
▁Yaşa	-11.2419
▁Noel	-11.242
ılacağını	-11.2421
▁Ensar	-11.2423
▁Veri	-11.2425
▁hazırız	-11.2426
▁Nerede	-11.2426
▁darbeyi	-11.2426
▁amiral	-11.2426
▁Jet	-11.2426
▁azaltmak	-11.2427
yacağım	-11.2428
▁yaşlarında	-11.2428
▁Demek	-11.243
▁anlatmaya	-11.243
▁kurallar	-11.2432
▁biletleri	-11.2433
▁bozuklukları	-11.2434
▁yurdun	-11.2434
▁işlerini	-11.2435
▁yayımladı	-11.244
▁Af	-11.244
▁kucağ	-11.2441
▁kalmaya	-11.2442
▁Gölü	-11.2445
▁İnsanların	-11.2445
▁yükseltme	-11.2445
▁sindirim	-11.2446
Arkadaş	-11.2447
▁hastaları	-11.2449
▁operasyona	-11.2451
▁Yarışması	-11.2453
▁düzenlendiği	-11.2455
▁çizil	-11.2455
▁açıklamayı	-11.2458
▁Lider	-11.246
▁yönlendiril	-11.2461
▁karşılaşmayı	-11.2462
▁Marin	-11.2463
▁savaşçı	-11.2464
▁İçinde	-11.2465
▁Limanı	-11.2465
▁Ülkede	-11.2465
▁kurtulmak	-11.2467
▁gerekiyordu	-11.2467
▁adımların	-11.2476
▁görevlilerinin	-11.2477
▁ertelendi	-11.2477
91	-11.2478
▁İdare	-11.248
▁eğitimini	-11.2481
▁incelemeye	-11.2485
▁raporunda	-11.2487
▁takma	-11.2491
▁ekranlarında	-11.2492
▁cezayı	-11.2492
▁alakası	-11.2494
▁önerge	-11.2494
▁bitecek	-11.2495
ografi	-11.2496
rom	-11.2496
▁egemen	-11.2497
▁arı	-11.2497
omi	-11.2497
▁organı	-11.2498
▁düzelt	-11.2499
▁dışarıya	-11.25
▁araçtan	-11.2501
▁kararla	-11.2508
▁bakteri	-11.2508
▁tamamının	-11.2509
▁Reza	-11.2509
▁bahçesi	-11.2513
▁filminin	-11.2514
▁görüştüğü	-11.2514
▁sertifika	-11.2515
▁kalacağı	-11.2516
IST	-11.2519
▁af	-11.2522
▁Şüpheliler	-11.2523
▁Mühendis	-11.2523
▁etmesinin	-11.2523
▁başladım	-11.2524
▁KKTC	-11.2525
▁Kapalıçarşı	-11.2525
▁kuyruk	-11.2525
▁Şemdinli	-11.2525
▁Hakkâri	-11.2525
▁Çakmak	-11.2525
▁konaklama	-11.2525
▁iştirak	-11.2525
▁protez	-11.2525
▁Kafkas	-11.2525
▁limon	-11.2525
▁parmağı	-11.2525
▁vahşi	-11.2525
▁çarşı	-11.2525
▁prensip	-11.2526
▁genişlet	-11.2526
▁aralığında	-11.2526
▁edilmektedir	-11.2527
▁YGS	-11.2528
▁Köşkü	-11.2528
▁Aydoğan	-11.2528
▁görülmesi	-11.2528
▁Dijital	-11.253
▁Akdağ	-11.2531
▁desteklemek	-11.2532
▁5-6	-11.2532
▁istiyorsanız	-11.2534
eğmen	-11.2536
▁anlatıl	-11.2539
▁öncelik	-11.2539
▁versiyonu	-11.254
▁düşecek	-11.254
▁sularında	-11.2541
▁ambulanslarla	-11.2542
▁vereceğini	-11.2543
▁Durum	-11.2544
önü	-11.2545
▁Erhan	-11.2546
▁kontrolünü	-11.2548
▁beklendiği	-11.2548
▁Yazıcı	-11.255
▁aralıklı	-11.2552
▁kopya	-11.2552
▁uygulandığı	-11.2556
▁diri	-11.2559
▁sakın	-11.256
▁Pol	-11.2561
▁ayrımı	-11.2561
▁listesine	-11.2561
▁sağlayacağı	-11.2562
evleri	-11.2567
▁çıkartıla	-11.2568
▁mıydı	-11.2568
▁Ayrı	-11.2572
liyoruz	-11.2574
mos	-11.2574
▁süresinin	-11.2575
▁kişilerle	-11.2576
▁kınadı	-11.2581
▁sattığı	-11.2583
▁Balta	-11.2586
▁Vergi	-11.2586
▁özellikler	-11.2587
▁ilkesi	-11.2588
▁imar	-11.259
▁varılan	-11.2593
▁uyandı	-11.2596
▁korumaya	-11.2597
▁gri	-11.2603
▁inceledi	-11.2608
▁parkı	-11.2609
▁hayvanları	-11.2611
▁çektirdi	-11.2611
▁kirliliği	-11.2613
▁yarışmacı	-11.2614
▁dilimi	-11.2617
▁teması	-11.2619
▁Duru	-11.262
▁galibiyetle	-11.2622
▁odaları	-11.2623
▁uygulamanın	-11.2625
▁okuyor	-11.2629
▁yöntemle	-11.263
iyo	-11.2635
▁pazarlama	-11.2636
▁Koru	-11.2637
▁115	-11.264
▁Denetleme	-11.264
▁Bahçelievler	-11.264
▁Dergisi	-11.264
▁felç	-11.264
▁İncirlik	-11.264
▁Deprem	-11.264
▁dokunulmazlığı	-11.264
▁atıf	-11.264
▁lazer	-11.264
▁temmuz	-11.264
▁vazgeçilmez	-11.264
▁Jean	-11.2641
▁Saygı	-11.2641
rey	-11.2642
▁garip	-11.2643
▁cinsiyet	-11.2643
▁Bayrak	-11.2643
▁edebiyat	-11.2643
▁Havacılık	-11.2644
▁Çağlayan	-11.2644
▁öngören	-11.2645
landırılması	-11.2645
▁hastalığa	-11.2647
▁ağabey	-11.2648
▁yerleştirildi	-11.2649
▁İçeri	-11.265
tasyon	-11.2652
▁bizleri	-11.2652
▁merci	-11.2654
▁havası	-11.2657
▁açılmış	-11.2659
▁karşılandı	-11.266
▁@	-11.2662
▁Halit	-11.2662
▁Haluk	-11.2663
RAN	-11.2664
▁gene	-11.2665
▁Sır	-11.2665
▁ateşkesin	-11.2669
▁ücretli	-11.267
▁ruhunu	-11.2671
▁Kök	-11.2672
▁faydası	-11.2674
▁şüphesi	-11.2675
▁getirmesi	-11.2675
▁sürüş	-11.2678
▁Dol	-11.2678
▁yapılmak	-11.2682
▁görüntülerin	-11.2686
▁kararlılığı	-11.2688
▁gencin	-11.2689
▁denli	-11.269
▁kabin	-11.2691
▁Çal	-11.2693
▁canını	-11.2694
▁istiyorsa	-11.2694
▁güçlükle	-11.2696
▁yapmaları	-11.2699
▁istikamet	-11.2708
▁sanıkların	-11.2709
▁yüzey	-11.2711
▁siteleri	-11.2712
▁organizasyonu	-11.2713
▁uzaklaştırıl	-11.2713
▁sokaklar	-11.2714
▁kıran	-11.2714
▁durdurmak	-11.2716
▁devral	-11.272
▁Mari	-11.272
▁devletinin	-11.2722
▁telefonunu	-11.2727
GB	-11.2727
▁demesi	-11.2727
▁odada	-11.2736
▁yürüyüşü	-11.2736
▁çalıştım	-11.2736
▁Operasyonlar	-11.2736
▁Arjantin	-11.2738
▁Pre	-11.2739
▁dünyasına	-11.274
▁hürriyeti	-11.2742
▁askerlerinin	-11.2743
Yİ	-11.2746
▁etmekten	-11.2746
▁bozuk	-11.2749
▁raporları	-11.2751
▁yükü	-11.2753
▁esir	-11.2753
▁araçlarının	-11.2755
▁hükme	-11.2756
▁Sem	-11.2756
̇	-11.2756
▁Cerattepe	-11.2756
▁Gebze	-11.2756
▁Afyonkarahisar	-11.2756
▁Linnes	-11.2756
▁fezleke	-11.2756
▁sofra	-11.2756
▁Yasemin	-11.2756
▁selfie	-11.2756
▁Barzani	-11.2756
▁Kötü	-11.2758
▁Aliyev	-11.2758
▁Terzi	-11.2758
▁sözlerle	-11.2759
▁Karayolu	-11.2759
▁Asgar	-11.2759
▁Altıntaş	-11.276
▁1993	-11.2761
▁Josef	-11.2762
▁unutulmaz	-11.2762
▁Oku	-11.2764
▁1995	-11.2764
▁Doğal	-11.2767
▁Fethiye	-11.2767
▁tutarında	-11.2767
▁Topu	-11.2768
▁deposu	-11.2771
▁okunması	-11.2771
▁bölümünün	-11.2773
▁emniyete	-11.2773
lendirilmesi	-11.2774
Mü	-11.2776
▁sevdi	-11.2782
▁gereksiz	-11.2783
▁İkincisi	-11.2783
▁Bora	-11.2784
▁saldıran	-11.2787
▁temelinde	-11.2787
▁Mora	-11.2788
▁Donk	-11.2788
▁şiddete	-11.2791
▁gönderen	-11.2793
▁haliyle	-11.2797
▁oyunculuk	-11.2798
yabilir	-11.2799
▁çocukluk	-11.2799
▁içecekler	-11.28
▁karakterini	-11.2803
▁116	-11.2804
▁Sokakları	-11.2804
▁müdürleri	-11.2811
▁olanlara	-11.2812
leştirdi	-11.2812
▁mesajında	-11.2813
▁programlar	-11.2814
▁Hamdi	-11.2815
-18	-11.2816
▁cansız	-11.2817
▁başvuruda	-11.2822
▁karşısındaki	-11.2822
▁Olayla	-11.2825
▁döneceği	-11.2831
▁getirmişti	-11.2833
▁mahkemede	-11.2834
▁sayılma	-11.2836
▁pişman	-11.284
▁Temsilci	-11.2844
▁kullanıcıları	-11.2844
▁coğrafyası	-11.2844
Artık	-11.2845
▁bağımlılığı	-11.2846
▁konulara	-11.2849
▁Oy	-11.285
▁fiili	-11.2855
▁bahsede	-11.2856
▁aşma	-11.2856
vat	-11.2857
Önce	-11.2858
▁şanslı	-11.2859
▁ötesi	-11.2862
▁paylaşıldı	-11.2867
▁Başarı	-11.2868
▁sağlaması	-11.2869
rent	-11.2869
Politika	-11.287
▁olağan	-11.2874
▁Talisca	-11.2874
▁fırça	-11.2874
▁Darüşşafaka	-11.2874
▁Harekât	-11.2874
▁Turgay	-11.2874
▁partner	-11.2874
▁santimetre	-11.2874
▁tahrip	-11.2874
▁Beykoz	-11.2874
▁dolgu	-11.2874
▁Gizem	-11.2874
▁danışmanlık	-11.2874
▁İfade	-11.2874
▁Halisdemir	-11.2874
://	-11.2874
▁esrar	-11.2875
▁Hotel	-11.2875
▁emlak	-11.2875
▁kente	-11.2875
▁16.00	-11.2876
▁beklediklerini	-11.2876
▁değerlendirmek	-11.2877
▁Böylelikle	-11.2877
▁ergen	-11.2878
▁hekimi	-11.2879
▁statüsü	-11.288
▁Düzce	-11.2881
▁alamayan	-11.2881
▁Görmez	-11.2881
▁masada	-11.2882
▁Gürsel	-11.2882
▁YAŞ	-11.2882
▁maddenin	-11.2884
rdo	-11.2889
▁ekonomide	-11.289
▁91	-11.2891
▁Başarılı	-11.2891
▁sevgisi	-11.2892
▁Şehri	-11.2893
▁yolcuların	-11.2893
▁tüketme	-11.2893
▁türkü	-11.2894
▁sorulan	-11.2898
▁Kart	-11.2898
▁yansıtma	-11.2899
▁faaliyetlerinin	-11.2899
▁bulgular	-11.29
▁basında	-11.29
▁Yeri	-11.2906
hâ	-11.2906
▁yapılandırma	-11.2907
▁kıymetli	-11.2908
▁oteller	-11.2909
▁Burun	-11.2909
SD	-11.2909
miştim	-11.291
▁geliştirdiği	-11.291
▁Üzeri	-11.2911
▁cezalı	-11.2912
▁kıyafetleri	-11.2912
ümüzü	-11.2913
▁ilçeleri	-11.2913
▁seçilmesi	-11.2915
▁ortamında	-11.2917
▁ödedi	-11.292
▁kaybına	-11.2922
şen	-11.2926
▁şifa	-11.2927
▁antik	-11.293
▁törenin	-11.2932
▁Ülkemizin	-11.2933
ydım	-11.2934
▁elimizde	-11.2937
▁bozulma	-11.2938
▁otele	-11.2939
▁98	-11.294
▁çalışmasını	-11.2941
▁yıldızlı	-11.2942
▁kaldırım	-11.2943
▁yatırımla	-11.2945
▁skandalı	-11.2948
▁gündemin	-11.2948
lenirken	-11.2948
▁aileye	-11.2948
▁Cel	-11.2949
▁güvenliğinin	-11.295
▁şehidimiz	-11.295
▁babasını	-11.2955
▁eğilimi	-11.2958
▁alınmak	-11.2959
▁geçirmeye	-11.2961
▁Gökçen	-11.2961
▁belirtiler	-11.2962
▁geliştirdi	-11.2962
▁Özen	-11.2964
▁vurma	-11.2966
▁piyasalar	-11.2966
▁torunu	-11.2968
▁mor	-11.2971
▁yetkililerinin	-11.2971
▁kaldım	-11.2982
▁alanını	-11.2984
Çatışma	-11.2988
▁Şahan	-11.299
▁Tuğ	-11.2991
▁hassasiyeti	-11.2991
▁hücrelerin	-11.2992
▁Muhalefet	-11.2993
▁kelepçe	-11.2993
▁Kolombiya	-11.2993
▁Koordinasyon	-11.2993
▁Nilüfer	-11.2993
▁lütfen	-11.2993
▁sempati	-11.2993
▁çarşamba	-11.2993
▁General	-11.2993
▁inovasyon	-11.2993
▁IMF	-11.2993
▁Yurdu	-11.2993
▁Huzur	-11.2993
▁yurtiçi	-11.2993
▁ettiğim	-11.2993
▁Yüksekdağ	-11.2995
▁Kazım	-11.2995
▁edebilirsiniz	-11.2995
▁oturuyor	-11.2995
▁benziyor	-11.2996
▁PARA	-11.2997
▁diliyoruz	-11.2997
▁Chelsea	-11.2997
▁kalkıp	-11.2997
▁zanlılar	-11.2998
▁düşünerek	-11.2999
▁KOSGEB	-11.3
▁Arapça	-11.3
TSK	-11.3001
▁karşılaşmasında	-11.3001
▁hedefe	-11.3002
▁söylerken	-11.3002
▁Kocaman	-11.3002
▁sunuldu	-11.3002
▁malı	-11.3003
▁koyarak	-11.3004
▁görünümü	-11.3005
▁Kaymakam	-11.3006
▁Başak	-11.3008
▁kolon	-11.3008
INDA	-11.3008
▁çeyreği	-11.3011
▁seyreden	-11.3011
▁Arjantinli	-11.3012
▁etkinlikleri	-11.3012
▁Senin	-11.3014
▁dizisinin	-11.3014
▁evlerin	-11.3015
▁mısınız	-11.3016
meyince	-11.3017
▁almaz	-11.3017
▁bilin	-11.3018
▁imajı	-11.3019
ERİ	-11.3021
▁projesini	-11.3024
▁geliştirmek	-11.3024
▁açıp	-11.3027
▁alınmıştır	-11.3028
▁tanıtıl	-11.3029
▁tabancayla	-11.303
▁eleştirileri	-11.3033
▁Efendimiz	-11.3035
all	-11.3036
▁devriye	-11.3039
▁Com	-11.304
▁kalmayacak	-11.3041
▁görüşmenin	-11.3042
▁Polisi	-11.3044
▁sahiplerine	-11.3044
▁haksızlık	-11.3045
▁futbolcuları	-11.3045
▁grubunda	-11.3045
▁96	-11.3051
yüzde	-11.3052
▁sağlamaya	-11.3053
▁Nazi	-11.3054
▁18.00	-11.3063
▁kabine	-11.3063
roz	-11.3066
▁muamele	-11.3066
▁yüzeyi	-11.3069
▁yapılmadı	-11.3072
▁ulaşıla	-11.3074
meyeceğini	-11.3079
▁direkte	-11.3083
▁İkili	-11.3084
▁yoğunlaş	-11.3084
İzmir	-11.3084
▁ayırma	-11.3087
▁edilmemesi	-11.3087
▁dönecek	-11.3089
▁DO	-11.309
▁yanma	-11.3091
raj	-11.3093
Evet	-11.3093
▁Dir	-11.3094
▁nedenlerle	-11.3096
▁sürdürdüğü	-11.3098
▁ışığında	-11.3099
▁haberinde	-11.31
▁söylediğini	-11.3104
▁üzgün	-11.3106
▁meraklı	-11.3108
▁bahsediyor	-11.3111
▁sorunlarını	-11.3111
İLDİ	-11.3111
▁seyred	-11.3112
▁YAP	-11.3112
lenip	-11.3112
▁yerleştirme	-11.3113
▁Peşmerge	-11.3114
▁karbonhidrat	-11.3114
▁talihsiz	-11.3114
▁uğruna	-11.3114
▁İşadamları	-11.3114
▁0-0	-11.3114
▁arşiv	-11.3114
▁plaj	-11.3114
▁ceviz	-11.3114
▁dedikodu	-11.3114
▁azalış	-11.3114
▁kaçarken	-11.3114
▁İzlanda	-11.3114
▁Green	-11.3114
▁yanlısı	-11.3114
▁çarpan	-11.3114
▁kiloda	-11.3114
▁üzücü	-11.3114
soykırım	-11.3114
▁yükümlülükler	-11.3115
▁yapmaktan	-11.3115
▁gürültülü	-11.3116
cal	-11.3116
▁tekniği	-11.3117
▁kariyerinde	-11.3118
▁1994	-11.3118
▁sportif	-11.3119
▁yollardan	-11.3119
▁faktör	-11.3119
▁başlayıp	-11.3119
▁açılıyor	-11.3119
▁hayalleri	-11.3119
▁arayıp	-11.312
▁boğuldu	-11.312
▁çekip	-11.3121
▁Hızlı	-11.3123
▁taraftarlarının	-11.3124
▁müşterileri	-11.3125
▁programa	-11.3125
Kiralık	-11.3127
▁Sana	-11.3128
▁başlık	-11.3128
▁kısıt	-11.3128
▁ödenen	-11.313
▁sözleşmeli	-11.3131
▁edemedi	-11.3131
▁Joe	-11.3132
▁olabilirsiniz	-11.3132
▁lif	-11.3133
▁geçit	-11.3135
▁olunması	-11.3135
▁ört	-11.3135
▁savcılar	-11.3136
▁125	-11.3136
▁sunmak	-11.3136
▁TÜRK	-11.3139
▁statü	-11.3139
▁görüntülerini	-11.3141
bildiği	-11.3142
▁yakma	-11.3143
▁Bilgin	-11.3145
▁atılacak	-11.3145
▁kaldıkları	-11.3146
▁evlerini	-11.3147
▁Özlü	-11.3149
▁başlamadan	-11.3149
▁sokaklarında	-11.315
gür	-11.3156
▁05	-11.3156
▁Milletin	-11.3157
▁Not	-11.3157
▁kurumlarının	-11.3158
▁Hayatı	-11.3166
▁alınır	-11.3169
▁engelleme	-11.317
jo	-11.3172
abildiğini	-11.3173
▁izleyiciler	-11.3176
▁okumak	-11.3179
▁yasası	-11.3181
▁binasına	-11.3182
▁günümüz	-11.3183
▁Güner	-11.3185
▁kesen	-11.3187
enko	-11.3187
▁üyelerine	-11.3188
▁masasın	-11.3192
▁görevlerini	-11.3197
▁vatandaşlarının	-11.3198
▁üzerimiz	-11.32
▁Toplu	-11.3203
▁koltuğunda	-11.3204
▁yapmanız	-11.3205
Kadın	-11.3207
▁Haberde	-11.3208
▁etmenin	-11.3209
▁siyasete	-11.3209
▁dizel	-11.3209
▁oyunda	-11.321
▁sektöre	-11.3212
▁formayı	-11.3212
mail	-11.3213
Eski	-11.3214
▁eşine	-11.3221
▁gittikleri	-11.3223
entegre	-11.3223
▁sabahı	-11.3225
▁alanındaki	-11.3228
▁kapsa	-11.3231
Çocuğu	-11.3233
▁aşağıya	-11.3233
melisiniz	-11.3234
▁Derdiyok	-11.3235
▁Kıvanç	-11.3235
▁kuyumcu	-11.3235
▁müfettiş	-11.3235
▁müteahhit	-11.3235
▁rüşvet	-11.3235
▁tatbikat	-11.3235
▁Sezgin	-11.3235
▁YÖK	-11.3235
▁gözüküyor	-11.3235
▁Michel	-11.3236
▁Yakup	-11.3236
▁Uyku	-11.3236
▁Tatlı	-11.3236
▁Evin	-11.3236
▁Madde	-11.3236
▁logo	-11.3236
▁tırnak	-11.3236
▁gümüş	-11.3237
▁Marşı	-11.3237
▁stok	-11.3237
▁Maltepe	-11.3237
▁Buraya	-11.3237
▁işyerleri	-11.3237
laşır	-11.3238
▁Teröristler	-11.324
▁sıralamasında	-11.324
▁girerken	-11.324
▁$	-11.324
▁Gur	-11.3241
leştirilmiş	-11.3242
▁atarken	-11.3242
▁balon	-11.3244
▁görüp	-11.3244
▁kesimin	-11.3244
▁öğrendiği	-11.3245
▁çalışacağız	-11.3247
▁edinile	-11.3247
▁Marka	-11.3248
▁kuşak	-11.3248
▁1960	-11.3252
▁okundu	-11.3253
▁bayramı	-11.3253
▁imzalanan	-11.3254
▁riskler	-11.3256
▁hastalığının	-11.3256
ledikleri	-11.3257
▁kişilerden	-11.3257
▁tanıtma	-11.3258
▁kapsamına	-11.3258
▁bölme	-11.3259
▁Mes	-11.3261
▁bağışı	-11.3261
▁saygın	-11.3262
▁TEK	-11.3262
▁Cansel	-11.3264
▁yut	-11.3265
▁sürdürül	-11.3265
▁mucize	-11.3266
▁çar	-11.3267
▁önleme	-11.3268
AF	-11.327
laşmış	-11.3273
▁politikalar	-11.3273
▁mermisi	-11.3277
▁sesle	-11.3278
▁yapabileceği	-11.3284
▁Rabb	-11.3287
▁Teröre	-11.3287
▁dönemlerinde	-11.3289
rıldı	-11.329
▁bitiyor	-11.3291
▁Kafa	-11.3292
olog	-11.3295
▁kavuştur	-11.3295
▁hakimiyetini	-11.3297
▁Endeksi	-11.3299
▁günlerinde	-11.3302
▁İhracatçılar	-11.3306
▁sıkıntıları	-11.3309
larımızda	-11.3311
▁Onlara	-11.3313
▁akını	-11.3317
▁rejimin	-11.3319
▁bulduğunu	-11.332
▁iddialarını	-11.332
▁başlatma	-11.332
▁yaşaması	-11.3325
▁Çocukları	-11.3325
oğul	-11.3326
▁Halkın	-11.3327
▁sızma	-11.3328
▁sade	-11.3328
▁renkleri	-11.3329
Q	-11.3329
▁Bazıları	-11.333
▁Big	-11.333
▁doğduğu	-11.333
▁gerçekleşme	-11.3331
▁sanıyor	-11.3332
▁vuruşta	-11.3334
▁kime	-11.3334
▁kılına	-11.3335
rup	-11.3336
cülerin	-11.3337
eğer	-11.3338
▁tepkisi	-11.3338
▁ürünlerinin	-11.3339
▁Akça	-11.334
▁çalışmayı	-11.334
▁müzakerelerin	-11.3341
Baba	-11.3343
lendirdi	-11.3345
▁Danışma	-11.3346
▁EL	-11.3347
▁fil	-11.3348
▁patronu	-11.3349
▁Yetki	-11.3352
kap	-11.3352
▁gençleri	-11.3355
.01.2016	-11.3359
▁Analistler	-11.3359
▁Yozgat	-11.3359
▁eczane	-11.3359
▁kalsiyum	-11.3359
▁mazlum	-11.3359
▁Pilot	-11.3359
▁Rahmi	-11.3359
▁alışkanlığı	-11.3359
▁gövde	-11.3359
▁Atiba	-11.3359
▁Kayıt	-11.3359
▁Üretim	-11.3359
▁Alparslan	-11.3359
▁uzaklıkta	-11.3359
▁vurularak	-11.336
Ama	-11.336
▁Ulusoy	-11.336
▁Ed	-11.336
▁Pendik	-11.336
▁Amed	-11.336
▁komedi	-11.336
▁duydum	-11.3361
▁atışları	-11.3361
▁Cep	-11.3361
▁yenilen	-11.3361
▁Kardemir	-11.3362
▁inceleyen	-11.3362
▁verilir	-11.3362
lerarası	-11.3363
▁yerleştirilen	-11.3363
▁oluşu	-11.3364
▁gereğince	-11.3364
▁Tren	-11.3364
▁bileti	-11.3365
▁dengesi	-11.3369
▁Canlı	-11.3369
▁içeriyor	-11.3369
▁muhtemelen	-11.3372
yacağız	-11.3372
▁artar	-11.3373
▁ağla	-11.3374
▁uygulamasına	-11.3375
ity	-11.3378
▁arkadan	-11.3379
▁Çam	-11.338
▁dille	-11.338
leştiren	-11.3381
▁Ürün	-11.3381
▁GEÇ	-11.3382
▁yukarıda	-11.3382
landıran	-11.3384
▁adresler	-11.3385
▁sürerek	-11.3385
▁hareketsiz	-11.3388
▁Demirci	-11.339
eddin	-11.339
▁HD	-11.3391
▁etmediği	-11.3393
▁anlık	-11.3393
▁şef	-11.3393
▁düşündüm	-11.34
▁kesimlerde	-11.3402
▁yangında	-11.3402
▁konuştuğu	-11.3402
▁canım	-11.3405
▁Don	-11.3406
lenmişti	-11.3407
▁durduğu	-11.3409
▁yenilme	-11.3409
▁dolaşım	-11.341
▁medyadan	-11.3412
▁gazetenin	-11.3413
▁İleri	-11.3416
▁vatandaşlarına	-11.3417
▁atölye	-11.3418
▁düzel	-11.3418
▁ker	-11.3418
▁tez	-11.3418
▁aşaması	-11.3418
▁formül	-11.342
▁arkadaşlarıyla	-11.3421
▁Kuran	-11.3422
oş	-11.3423
▁bildirim	-11.3424
▁hazırlanmış	-11.3425
▁anlattığı	-11.3426
▁yataklık	-11.3427
▁işyerinde	-11.3427
▁plakası	-11.343
▁alay	-11.3431
▁görüşmelere	-11.3431
▁geçmesine	-11.3435
oid	-11.3439
▁hataları	-11.3439
fes	-11.3439
▁DHA	-11.344
▁Turu	-11.3441
▁kalkma	-11.3445
rilecek	-11.3449
lanınca	-11.3449
-6	-11.345
▁pis	-11.3455
ting	-11.3456
▁gruplara	-11.3456
▁konseri	-11.3459
▁yapsın	-11.346
▁çıkartıldı	-11.3461
▁gösterge	-11.3463
eksiyon	-11.3464
▁kimliğini	-11.3464
▁kaybed	-11.3466
▁yetmez	-11.3467
▁Günde	-11.3469
▁patlaması	-11.3471
▁1.6	-11.3471
▁posta	-11.3471
▁bakımdan	-11.3472
▁hakkına	-11.3473
▁yaralıların	-11.3474
▁Bölüm	-11.3478
▁Alt	-11.3479
▁romanı	-11.3479
▁cm	-11.3481
▁bürokrat	-11.3482
▁ikram	-11.3483
▁mayın	-11.3483
orgeneral	-11.3484
▁Feyenoord	-11.3484
▁Komando	-11.3484
▁Netanyahu	-11.3484
▁Numara	-11.3484
▁Nüfus	-11.3484
▁hesaba	-11.3484
▁oksijen	-11.3484
▁Şükür	-11.3484
▁GATA	-11.3484
▁Mistura	-11.3484
▁intikal	-11.3484
▁Kudüs	-11.3484
▁Ünsal	-11.3484
▁soğan	-11.3484
▁Gültekin	-11.3484
▁TOP	-11.3484
▁kalabalığ	-11.3484
▁esnek	-11.3484
▁figür	-11.3484
▁OLDU	-11.3484
▁belirleyici	-11.3485
▁kardeşler	-11.3485
▁birikimi	-11.3485
Kan	-11.3486
▁Tipi	-11.3486
▁ortaokul	-11.3487
▁Terzioğlu	-11.3487
▁şerit	-11.3488
▁kupada	-11.3488
▁yorul	-11.3488
▁gözlerini	-11.3489
▁beklerken	-11.3489
▁Karadağ	-11.349
▁birikim	-11.349
▁belirtil	-11.3491
▁Erbil	-11.3492
▁getireceği	-11.3493
▁damgasını	-11.3494
▁havacılık	-11.3494
▁planlayan	-11.3494
mayacaktır	-11.3495
▁getirip	-11.3496
lemeye	-11.3496
▁demokrasinin	-11.3496
▁yapıcı	-11.3497
▁hatırlatma	-11.3497
▁onlardan	-11.3497
▁ileriye	-11.3498
▁Gerçekten	-11.3499
▁öğretmenlerin	-11.3501
▁yapsa	-11.3502
▁değişiklikleri	-11.3502
▁sayfalık	-11.3506
▁Düğün	-11.3506
▁kazanır	-11.3509
▁planını	-11.351
▁ettirdi	-11.3511
▁silahları	-11.3511
▁gerçekçi	-11.3513
▁Yel	-11.3515
▁Filmin	-11.3516
▁kuyu	-11.3518
▁işletmeler	-11.3518
▁yaşanmış	-11.352
müzü	-11.3523
▁geçildi	-11.3527
▁sarma	-11.3534
▁Ul	-11.3534
▁istikrarlı	-11.3535
▁polislere	-11.3535
▁Çağrı	-11.3539
▁seçtiği	-11.354
▁aksi	-11.354
▁elektrikli	-11.3542
▁özü	-11.3547
İD	-11.3548
larımızdan	-11.3551
▁şifalar	-11.3554
▁tartışmaları	-11.3557
▁taşınması	-11.3557
ates	-11.3559
▁ulaştığını	-11.3562
-14	-11.3563
▁sorulara	-11.3564
▁uzlaş	-11.3565
▁dönüştürme	-11.3565
▁bozdu	-11.3566
▁bilinçli	-11.3569
▁özgün	-11.3569
▁kazasında	-11.357
▁yapacağım	-11.3571
▁geldikleri	-11.3572
▁yargılanma	-11.3573
▁hastanesi	-11.3574
▁mobilya	-11.3576
▁kızar	-11.3576
▁kazanmış	-11.3582
ülmüş	-11.3584
▁ilçelerde	-11.3587
▁ısrarla	-11.3588
▁tanınma	-11.3592
▁14.00	-11.3595
▁seks	-11.3595
▁faaliyete	-11.3601
bilen	-11.3603
▁Lima	-11.3603
▁anımsata	-11.3604
▁AD	-11.3604
[...]
