<unk>	0
<s>	0
</s>	0
▁.	-3.64188
▁,	-3.94187
n	-4.15442
▁'	-4.18788
l	-4.25706
▁i	-4.36851
▁s	-4.43518
▁a	-4.47604
▁k	-4.63961
i	-4.66375
r	-4.8031
▁ve	-4.80988
▁de	-4.8501
t	-4.85546
a	-4.9049
▁ı	-4.91734
e	-4.94025
▁"	-4.96991
▁lar	-4.99179
▁e	-5.00713
▁ler	-5.02801
▁da	-5.11377
k	-5.11651
▁bir	-5.12467
▁b	-5.16892
▁A	-5.1959
▁o	-5.21553
▁t	-5.27684
▁an	-5.28497
▁B	-5.33945
▁S	-5.44122
▁h	-5.44785
▁y	-5.4499
▁m	-5.47594
▁in	-5.53358
▁n	-5.53589
▁en	-5.54
▁1	-5.60463
▁nda	-5.61234
d	-5.61426
ş	-5.62414
▁leri	-5.63154
▁0	-5.63181
▁si	-5.65324
▁K	-5.65639
▁ye	-5.66502
▁nı	-5.68286
▁M	-5.70686
▁H	-5.75524
▁T	-5.75643
▁nin	-5.76856
▁u	-5.78492
▁2	-5.81348
▁ne	-5.81876
m	-5.8295
▁ın	-5.83108
▁g	-5.83481
▁sı	-5.86635
▁ları	-5.86952
▁ya	-5.88249
▁na	-5.90746
▁nde	-5.91065
▁bu	-5.91575
▁ni	-5.93306
▁nın	-5.93774
▁-	-5.94547
▁için	-5.98681
▁E	-5.98727
▁d	-6.02481
▁r	-6.04205
u	-6.04385
▁yap	-6.09737
▁lik	-6.15115
▁ile	-6.15375
▁te	-6.16183
ki	-6.16344
s	-6.17321
▁Y	-6.17916
▁D	-6.21007
▁Türk	-6.22458
▁G	-6.22469
▁ü	-6.24594
▁f	-6.24933
▁ol	-6.27468
▁dı	-6.31132
▁di	-6.32316
y	-6.33116
▁li	-6.34975
▁iyor	-6.37531
▁ma	-6.37787
▁ö	-6.3821
▁P	-6.3839
▁gö	-6.39202
▁O	-6.42028
▁ç	-6.42378
▁p	-6.43852
ı	-6.4469
▁ması	-6.44845
▁ama	-6.46972
▁den	-6.47971
▁:	-6.48027
▁F	-6.49446
▁3	-6.50352
▁al	-6.51204
▁İ	-6.51582
▁5	-6.52172
▁et	-6.54671
▁ver	-6.55426
▁	-6.56587
▁la	-6.56994
▁edi	-6.58306
▁Bu	-6.59348
▁dan	-6.59492
▁ndan	-6.60334
▁lı	-6.61881
la	-6.6216
▁ir	-6.62318
▁acak	-6.62693
▁le	-6.63681
▁tı	-6.65989
▁unu	-6.66143
lduğ	-6.66343
▁6	-6.66531
ma	-6.67392
▁C	-6.67749
an	-6.69303
da	-6.69461
▁bulu	-6.69813
▁lık	-6.71801
▁larak	-6.72638
▁ed	-6.73114
▁(	-6.74
▁etti	-6.74131
▁er	-6.7433
▁ki	-6.74528
▁gel	-6.74755
▁yıl	-6.74931
▁4	-6.75697
▁yapı	-6.76181
▁Ç	-6.7752
▁ecek	-6.77733
o	-6.77825
▁)	-6.7801
▁çok	-6.78224
▁ta	-6.79432
▁ği	-6.80408
▁il	-6.8074
▁olan	-6.81569
le	-6.82922
▁9	-6.83233
▁ıyor	-6.83435
▁onra	-6.83928
z	-6.85179
▁yer	-6.85952
▁kal	-6.86705
▁ine	-6.86915
▁çalı	-6.88277
▁im	-6.88478
▁diği	-6.89138
▁dığı	-6.89384
▁baş	-6.89647
▁mak	-6.89651
▁ise	-6.90766
▁karşı	-6.91365
öyle	-6.93354
▁daha	-6.95044
▁var	-6.97338
▁beli	-6.99245
▁un	-6.99331
▁liği	-7.00194
c	-7.00587
▁7	-7.02245
▁N	-7.02428
▁mesi	-7.04899
▁ele	-7.04927
▁ay	-7.05103
▁açık	-7.06636
▁yla	-7.07457
▁du	-7.07667
▁ko	-7.08469
▁z	-7.09
▁kişi	-7.09115
ya	-7.09157
▁inin	-7.09167
cağı	-7.09358
▁um	-7.09901
▁ğı	-7.09948
▁iş	-7.10346
▁nden	-7.11051
▁konu	-7.11271
er	-7.1197
▁lığı	-7.12702
▁bin	-7.13085
▁at	-7.1328
▁yle	-7.13316
▁8	-7.15418
▁ulla	-7.15422
▁ş	-7.15547
▁R	-7.16046
▁yeni	-7.16118
ları	-7.16155
▁su	-7.16259
▁abil	-7.16563
araf	-7.16643
te	-7.18209
▁ıl	-7.18601
▁kadar	-7.18653
▁Ö	-7.19102
▁ti	-7.19129
▁gibi	-7.19269
▁üzer	-7.20072
▁oldu	-7.20095
▁yi	-7.20391
ta	-7.20437
▁arası	-7.2257
▁dedi	-7.22862
▁c	-7.23771
b	-7.23916
▁mek	-7.24586
▁ında	-7.25134
▁me	-7.26016
▁Ş	-7.26197
ste	-7.26416
▁U	-7.2678
▁uz	-7.27329
▁ülke	-7.27388
▁eceği	-7.27646
▁arak	-7.27691
▁son	-7.27776
ğ	-7.28316
▁terör	-7.28389
▁yöne	-7.29232
▁anla	-7.29892
▁tığı	-7.29933
▁mış	-7.30174
▁ından	-7.30793
▁gerek	-7.31332
endi	-7.31798
▁erek	-7.3181
▁ilgi	-7.32012
▁alın	-7.32179
▁iste	-7.32948
.	-7.33457
▁onuş	-7.3351
▁?	-7.34532
▁mü	-7.34748
▁inde	-7.35423
▁gün	-7.35625
▁her	-7.35696
me	-7.37652
▁ının	-7.37803
▁çık	-7.38017
▁yı	-7.38295
▁larda	-7.38359
▁miş	-7.38407
▁göre	-7.38507
ge	-7.38548
▁büyük	-7.39428
▁yaşa	-7.3946
▁sini	-7.39678
▁nun	-7.39712
▁v	-7.4182
▁ını	-7.42351
▁karar	-7.43483
▁geti	-7.4404
▁zaman	-7.44564
▁düze	-7.44567
▁ilk	-7.44737
▁ifad	-7.44978
▁diye	-7.45086
▁L	-7.45167
▁syon	-7.45546
▁neden	-7.46517
▁uyor	-7.47848
▁aber	-7.4821
im	-7.48598
▁anı	-7.48715
▁ini	-7.48741
▁yol	-7.49173
▁lendi	-7.49189
▁başl	-7.49194
üzde	-7.49216
,	-7.49466
▁unda	-7.49531
yle	-7.49673
▁ek	-7.50105
▁evle	-7.50365
▁İst	-7.50964
▁laş	-7.51245
▁lan	-7.51273
▁tut	-7.51301
▁dir	-7.51631
▁değil	-7.51994
▁sını	-7.52049
▁kur	-7.52478
▁iç	-7.52897
▁maya	-7.53096
▁Cumh	-7.53242
h	-7.53461
iş	-7.54704
▁üre	-7.55015
▁ara	-7.55523
▁devam	-7.5672
▁top	-7.56938
▁eden	-7.57299
▁şu	-7.57324
aşka	-7.57366
▁Z	-7.57553
▁tan	-7.5829
▁V	-7.58295
▁dır	-7.58874
▁daki	-7.59043
▁iki	-7.59971
▁anbul	-7.60184
▁ak	-7.60549
▁do	-7.60564
▁yan	-7.60694
▁oğlu	-7.60802
▁ağı	-7.61442
▁ev	-7.6156
▁yara	-7.61704
▁ten	-7.62237
▁önce	-7.62752
▁ardı	-7.62788
▁durum	-7.62821
ler	-7.62837
p	-7.63195
▁etki	-7.63362
▁nce	-7.63805
asta	-7.64038
▁Baka	-7.642
▁imi	-7.64254
▁lu	-7.64721
▁olay	-7.64884
▁altı	-7.64929
▁fa	-7.65207
▁!	-7.65588
▁isti	-7.66777
▁tu	-7.66979
▁ğını	-7.67311
▁örgü	-7.67518
▁siz	-7.68002
▁geç	-7.68518
▁saat	-7.68784
▁insan	-7.69054
▁imiz	-7.69258
▁;	-7.69769
▁alan	-7.69822
bir	-7.6991
▁böl	-7.69987
▁tır	-7.70315
▁düşü	-7.70369
▁ey	-7.7043
▁iyi	-7.70783
▁mi	-7.71346
▁etme	-7.71624
▁söz	-7.71967
▁yor	-7.7198
▁lerde	-7.72138
▁nemli	-7.73002
bil	-7.73085
▁el	-7.73327
▁gerç	-7.73573
▁Bir	-7.73961
▁ekle	-7.73995
▁olma	-7.75047
et	-7.7528
▁ren	-7.75669
▁öze	-7.75788
▁sında	-7.75949
aldı	-7.76574
▁l	-7.77039
▁dış	-7.7713
▁miz	-7.77339
▁spor	-7.77807
▁taş	-7.78048
▁bilgi	-7.78348
▁ik	-7.79335
ağla	-7.79373
ü	-7.79595
▁orta	-7.80245
▁erke	-7.80265
yla	-7.80446
▁aç	-7.80446
▁hem	-7.80471
▁lara	-7.80614
▁dünya	-7.80764
▁bekl	-7.8087
▁Baş	-7.80943
▁uriye	-7.81014
▁değer	-7.81102
▁iyet	-7.82071
▁ABD	-7.82337
▁güve	-7.82688
en	-7.82748
▁sev	-7.82943
▁kleri	-7.83401
▁yok	-7.84605
ilyo	-7.84745
▁re	-7.84831
▁polis	-7.85376
▁ril	-7.85411
▁ün	-7.85525
▁öğre	-7.85694
▁topl	-7.8587
▁şey	-7.86046
▁nlığı	-7.87557
▁çıkar	-7.87825
▁Ü	-7.88233
▁gelen	-7.88552
▁tir	-7.88636
▁kuru	-7.88819
ep	-7.88907
▁mız	-7.88936
rken	-7.89213
▁cı	-7.89372
▁üç	-7.89508
arih	-7.89703
▁ist	-7.89858
▁aldı	-7.91527
▁landı	-7.91993
▁İs	-7.92127
▁takım	-7.92286
▁ır	-7.9239
▁pro	-7.92554
▁dönem	-7.93321
▁esi	-7.93692
▁sinde	-7.94273
▁başka	-7.94362
ç	-7.94399
▁ip	-7.94488
▁bil	-7.95143
▁Ko	-7.95749
▁luk	-7.96189
▁geçi	-7.9619
▁ıp	-7.96198
▁lama	-7.96235
▁rbaş	-7.96287
▁haber	-7.96715
cı	-7.96828
▁Rus	-7.97364
▁oper	-7.97383
lı	-7.97477
▁una	-7.97537
▁lüğü	-7.97617
▁zor	-7.97756
▁sıra	-7.97763
▁sun	-7.9781
▁katı	-7.98015
▁dü	-7.98125
lar	-7.98454
▁şeki	-7.98695
▁gid	-7.99339
00	-7.99891
doğ	-8.0017
lişk	-8.00429
▁bo	-8.00674
▁dur	-8.00788
▁ci	-8.00955
▁ici	-8.01155
▁iler	-8.01407
▁istem	-8.01466
▁vrupa	-8.02032
▁FETÖ	-8.02235
▁hayat	-8.02388
▁üyor	-8.02794
ayb	-8.03069
▁oku	-8.03447
▁hafta	-8.03555
▁ayı	-8.03563
uk	-8.03723
▁soru	-8.03773
▁mill	-8.03783
▁ına	-8.038
▁ale	-8.03922
▁tüm	-8.03923
▁iz	-8.04057
▁İl	-8.04081
▁ra	-8.04344
▁arı	-8.045
▁rme	-8.04761
▁nız	-8.04861
▁azla	-8.04943
▁ım	-8.05464
▁çocuk	-8.05567
ynı	-8.05587
▁lira	-8.05741
▁malar	-8.0598
▁kazan	-8.06344
▁ımız	-8.06886
▁hakkı	-8.07436
▁ceza	-8.07462
▁vata	-8.07474
▁yuncu	-8.07533
▁görev	-8.08468
▁iriş	-8.08477
▁ayrı	-8.08489
de	-8.08657
▁ce	-8.08708
▁geldi	-8.09199
▁yakın	-8.09491
▁niz	-8.09585
▁ebi	-8.09606
▁dolar	-8.10093
▁maç	-8.10301
▁Gene	-8.10318
▁az	-8.10559
cü	-8.10606
▁yak	-8.10828
▁oyna	-8.1091
ğiş	-8.11054
▁Al	-8.1122
▁madı	-8.11288
▁nu	-8.11886
üdür	-8.1194
▁yet	-8.11971
▁ulaş	-8.12249
▁kadın	-8.12415
▁doğru	-8.12416
▁Öz	-8.13077
ke	-8.13296
f	-8.13599
▁verdi	-8.13905
▁eme	-8.13914
▁tek	-8.1402
ine	-8.14176
▁mey	-8.14395
erke	-8.14462
▁müca	-8.14539
▁üst	-8.14678
▁sa	-8.14728
▁sağ	-8.14788
▁içer	-8.15082
▁gir	-8.15244
▁daş	-8.15326
▁yaşı	-8.15485
▁ul	-8.15618
▁lere	-8.16197
▁zi	-8.16271
▁eşi	-8.16984
dece	-8.17027
▁kra	-8.17051
▁ekip	-8.17096
▁bakan	-8.17156
▁hazır	-8.17246
▁em	-8.17472
▁kes	-8.17552
▁osya	-8.17863
▁olmak	-8.18095
▁I	-8.18138
▁bunu	-8.18166
▁ürü	-8.18326
­	-8.18398
▁mily	-8.18657
▁Gaze	-8.18826
▁Gö	-8.18941
▁Ka	-8.19156
▁man	-8.19592
▁darbe	-8.19811
▁nün	-8.20315
▁10	-8.20317
▁iddia	-8.20412
▁15	-8.20484
▁tur	-8.20485
nde	-8.20553
▁sahip	-8.20566
▁ar	-8.20788
▁adı	-8.20804
▁oto	-8.20853
▁iyas	-8.20935
▁biri	-8.21001
ırak	-8.21156
▁riyet	-8.21165
KK	-8.2143
▁men	-8.21566
▁rdi	-8.22025
▁as	-8.22166
▁üksek	-8.22285
▁hare	-8.22332
▁unlar	-8.22471
▁kayd	-8.22617
▁sız	-8.22912
▁tiri	-8.22927
▁Fen	-8.23016
▁ca	-8.23118
▁nkara	-8.23249
▁ikkat	-8.23249
▁anan	-8.23269
▁diğer	-8.23425
▁sel	-8.23494
▁Ak	-8.23975
▁kim	-8.24277
▁üret	-8.24765
▁uy	-8.24829
▁TL	-8.24887
▁yürü	-8.2496
▁çıktı	-8.24987
▁para	-8.24999
▁bahçe	-8.25434
▁uzu	-8.2552
▁ladı	-8.25621
▁biz	-8.25682
diği	-8.25701
▁/	-8.25722
▁tiği	-8.25851
▁arka	-8.26003
▁inden	-8.26584
▁hava	-8.26976
▁azete	-8.27349
▁enler	-8.27355
yas	-8.2744
▁tanı	-8.27566
▁görüş	-8.27664
▁geçe	-8.27704
▁uygu	-8.27976
▁tü	-8.27977
▁rtay	-8.28142
▁aşkan	-8.28172
▁aha	-8.28259
▁kaps	-8.28363
cak	-8.28387
▁geri	-8.28429
▁mah	-8.29016
▁kez	-8.29071
▁gör	-8.29084
▁es	-8.29222
▁üzere	-8.29381
▁art	-8.29485
eşik	-8.30193
▁Spor	-8.30626
▁vur	-8.30773
▁ana	-8.31813
▁nü	-8.32193
▁ur	-8.32198
unda	-8.32225
▁şehir	-8.32551
▁istan	-8.32591
iz	-8.3262
▁alata	-8.32675
▁ayın	-8.32766
▁kaç	-8.3299
ca	-8.33017
▁ndı	-8.33154
▁mez	-8.33394
▁günü	-8.33517
▁andı	-8.33714
▁sü	-8.33738
▁şirk	-8.33951
▁yaş	-8.33974
▁isim	-8.34173
▁suç	-8.34265
esi	-8.34374
▁maz	-8.34723
▁Dünya	-8.34798
▁it	-8.34848
▁maçı	-8.34927
▁olu	-8.35185
▁mizi	-8.35361
▁yanı	-8.35708
ar	-8.35743
▁ilçe	-8.3588
▁Söz	-8.359
si	-8.36186
▁ğini	-8.36312
azı	-8.36532
▁saray	-8.36681
ugün	-8.37031
▁eği	-8.37053
▁muh	-8.37094
▁aile	-8.37344
▁edef	-8.37555
▁Anca	-8.37757
▁fiya	-8.38008
▁net	-8.38102
▁ünü	-8.38198
▁açıl	-8.38281
▁gol	-8.38426
▁zaltı	-8.38622
ün	-8.38681
▁taşı	-8.39145
▁çı	-8.39303
▁sorun	-8.39335
▁sürdü	-8.39509
▁ağlı	-8.39682
▁ran	-8.39764
▁aya	-8.39854
▁duğu	-8.402
▁tamam	-8.40227
▁proje	-8.40399
▁ince	-8.40445
▁rak	-8.40967
▁duğ	-8.41153
▁can	-8.41351
▁ih	-8.41403
leş	-8.41815
raç	-8.41854
▁yüz	-8.42127
▁bak	-8.42324
▁sık	-8.4235
▁ec	-8.42366
dığı	-8.42417
▁Kara	-8.42561
▁liler	-8.42562
▁rek	-8.42591
▁Su	-8.42892
▁onun	-8.42929
▁is	-8.4295
▁arklı	-8.43038
▁bile	-8.43094
▁Son	-8.43128
▁miyor	-8.43143
▁leme	-8.43164
▁adam	-8.43265
▁silah	-8.43336
ski	-8.43352
▁rü	-8.44155
▁ka	-8.44155
▁izle	-8.44404
▁öldü	-8.44526
ildi	-8.44612
▁rı	-8.44834
üs	-8.44918
▁aş	-8.45093
▁turma	-8.45288
▁ken	-8.45502
▁hali	-8.45754
ab	-8.45777
▁may	-8.45797
▁ildi	-8.45817
ter	-8.45907
▁duy	-8.46315
▁görü	-8.46437
▁yu	-8.4656
▁yayın	-8.46598
▁nası	-8.46835
▁hak	-8.46916
▁rsit	-8.47105
▁rab	-8.47323
▁sin	-8.47602
▁raf	-8.47893
▁izmet	-8.47895
▁yasa	-8.48051
▁Bunu	-8.48093
▁gec	-8.48425
▁müş	-8.4859
nik	-8.4893
▁urada	-8.48933
▁tırma	-8.48999
ezon	-8.49282
imdi	-8.49335
▁ekon	-8.49356
▁kıs	-8.49476
▁luğ	-8.49633
▁mu	-8.49642
▁İş	-8.49891
miz	-8.50075
▁ntrol	-8.50215
▁eçti	-8.50381
▁kö	-8.50477
ren	-8.50645
oğu	-8.50699
▁kar	-8.50711
▁lü	-8.50727
▁çi	-8.50769
▁meye	-8.50883
▁ıldı	-8.50921
ında	-8.50989
▁mı	-8.51213
▁düş	-8.51344
▁Ben	-8.51396
▁oy	-8.51761
▁on	-8.51889
▁erken	-8.51932
▁ğren	-8.52492
▁plan	-8.52552
▁kız	-8.52778
▁dön	-8.52866
man	-8.5289
▁emmuz	-8.53
▁laşı	-8.53148
▁ing	-8.53387
▁ğu	-8.53389
▁acı	-8.53395
edav	-8.53552
▁De	-8.53651
▁tam	-8.53713
▁işlem	-8.53729
▁ünde	-8.53779
▁tar	-8.53975
▁ıcı	-8.5438
il	-8.5441
▁bul	-8.54505
▁metre	-8.54529
▁nokta	-8.54567
▁mızı	-8.54917
▁ehmet	-8.54954
▁gene	-8.54969
▁lana	-8.55129
▁W	-8.5547
▁Parti	-8.5573
el	-8.55736
▁kan	-8.5588
▁Büyü	-8.56335
▁Er	-8.56425
▁mo	-8.5675
▁kabul	-8.56904
▁böyle	-8.56985
▁üne	-8.57312
▁edya	-8.57402
▁göz	-8.577
▁kent	-8.57775
▁eş	-8.57888
▁sonu	-8.58235
▁say	-8.58692
▁ğü	-8.58734
▁siniz	-8.58816
▁lene	-8.58925
ncel	-8.59155
▁medi	-8.59214
▁dik	-8.59307
▁luştu	-8.59655
▁mik	-8.59862
ardı	-8.60059
▁azı	-8.60197
sker	-8.60523
▁par	-8.60635
▁dar	-8.6078
▁kır	-8.60862
▁bomba	-8.60877
lef	-8.61012
▁oloji	-8.61059
▁ro	-8.61076
▁Biz	-8.61317
▁tür	-8.61448
▁us	-8.61453
gu	-8.61663
▁bölüm	-8.61775
▁büt	-8.61892
▁manı	-8.61951
▁yazı	-8.62002
▁han	-8.6232
tiba	-8.62436
▁şehit	-8.62471
iç	-8.62882
▁ız	-8.62932
▁ardım	-8.63046
▁mal	-8.63161
▁sor	-8.63162
▁film	-8.63175
▁ku	-8.63376
▁evi	-8.63446
▁lc	-8.63901
▁mıyor	-8.63976
atır	-8.64112
▁şma	-8.64292
▁dava	-8.64468
▁sına	-8.6454
▁şüphe	-8.64602
▁Yeni	-8.64689
▁to	-8.64944
arış	-8.65007
▁tem	-8.65414
İ	-8.65545
▁ayısı	-8.65603
▁Mah	-8.6566
mız	-8.65693
▁ait	-8.65975
▁eder	-8.6609
▁dün	-8.66329
▁yağ	-8.66359
▁res	-8.66439
erör	-8.66516
▁nıl	-8.66772
▁önün	-8.66878
nkü	-8.66985
▁yaka	-8.67238
ce	-8.67267
▁köy	-8.67531
▁rağ	-8.67642
▁Ay	-8.68214
▁öne	-8.68444
rgı	-8.6847
▁ad	-8.68684
▁sal	-8.68701
▁af	-8.69016
▁aka	-8.69413
▁ter	-8.69487
utbo	-8.6963
▁cu	-8.69795
▁eyi	-8.69817
▁ille	-8.69886
▁bank	-8.69988
▁ünlü	-8.70012
▁oyun	-8.70173
▁tti	-8.70237
▁oru	-8.70241
▁koy	-8.70306
▁üye	-8.70418
çok	-8.70455
kinc	-8.70498
izim	-8.70583
▁kika	-8.70623
ilo	-8.70712
▁indi	-8.71075
▁aşı	-8.71286
▁lesi	-8.71296
▁mes	-8.71426
▁espi	-8.71639
v	-8.71656
▁etmek	-8.71691
▁ündem	-8.71735
▁ze	-8.7195
▁madd	-8.72161
?	-8.72261
▁Maha	-8.72635
zo	-8.72676
▁ğa	-8.72715
▁amay	-8.7272
▁olur	-8.72764
▁dile	-8.73004
▁lç	-8.73283
▁leş	-8.73392
▁onu	-8.73917
▁atıl	-8.7392
▁tırım	-8.74023
▁has	-8.7417
▁po	-8.74203
▁iye	-8.74298
ürü	-8.74432
▁dırı	-8.74463
▁met	-8.74528
▁lük	-8.74613
▁kaldı	-8.74646
▁ücre	-8.74688
avaş	-8.74754
çe	-8.74916
▁mayı	-8.75142
▁Mü	-8.75325
▁AB	-8.75475
enç	-8.75506
▁amadı	-8.75522
▁bağlı	-8.75532
▁anda	-8.757
mo	-8.75769
ıldı	-8.75798
▁ziya	-8.75843
▁ize	-8.7604
▁tere	-8.76062
▁mev	-8.76367
▁elim	-8.76693
▁tak	-8.7673
▁türk	-8.76747
▁len	-8.76752
rans	-8.77122
▁kend	-8.77155
▁ardeş	-8.7722
▁mod	-8.77539
▁ön	-8.77693
▁J	-8.77713
▁Zaman	-8.77865
▁sonuç	-8.78069
▁satış	-8.78216
kil	-8.78303
▁kayn	-8.78511
▁lider	-8.7852
▁parti	-8.78577
▁yö	-8.78647
▁urul	-8.78695
▁atl	-8.78734
▁kol	-8.7907
ne	-8.79182
▁eki	-8.79264
▁inan	-8.79411
▁oca	-8.79459
▁güzel	-8.7946
▁fer	-8.79575
▁sayı	-8.79692
▁rım	-8.7977
▁anlı	-8.8008
▁akat	-8.80136
▁tane	-8.80277
▁atan	-8.80433
▁izin	-8.80543
▁teş	-8.80593
▁rke	-8.80713
▁leşme	-8.80894
▁avu	-8.80936
▁elir	-8.8104
▁ayla	-8.81391
lis	-8.81437
▁puan	-8.81457
▁utbol	-8.81506
▁20	-8.81548
▁or	-8.81577
▁Özel	-8.8183
▁ür	-8.81923
▁muş	-8.82011
▁uç	-8.82012
lay	-8.82016
▁gram	-8.82034
▁avcı	-8.82038
▁İngi	-8.82279
▁imza	-8.82454
▁ri	-8.82628
▁tah	-8.82784
▁pek	-8.82858
▁ans	-8.82925
▁engel	-8.82979
▁eli	-8.82994
▁fir	-8.83004
▁ateş	-8.83071
no	-8.83105
▁mobil	-8.83189
▁akta	-8.83224
▁süre	-8.83482
▁asa	-8.83596
▁Ya	-8.83735
▁şekl	-8.83924
usta	-8.84049
▁rah	-8.84168
▁ullah	-8.84339
▁attı	-8.84453
▁rül	-8.84472
▁kten	-8.84611
▁ciler	-8.84613
▁â	-8.84655
▁meler	-8.84763
▁ika	-8.84781
lam	-8.84782
▁tedir	-8.84826
▁alanı	-8.85073
▁va	-8.85085
▁Ahme	-8.85155
▁grup	-8.85314
▁kara	-8.85633
▁yacak	-8.8588
▁ağ	-8.85896
▁madan	-8.85928
▁ışı	-8.86003
▁piyon	-8.86016
▁üm	-8.86063
▁pazar	-8.86132
ürec	-8.86153
▁tes	-8.86246
▁yine	-8.86265
▁nması	-8.86271
ükse	-8.86282
▁çevr	-8.86309
▁artı	-8.86384
▁ıs	-8.86552
az	-8.86652
▁aday	-8.86716
▁malı	-8.86779
▁eti	-8.86807
htiy	-8.86886
▁ben	-8.86969
▁ton	-8.87055
▁öyle	-8.87068
▁ah	-8.87099
▁lman	-8.87215
▁gitti	-8.87377
▁ydı	-8.87483
▁Lig	-8.87706
▁artık	-8.87739
rası	-8.87807
▁Üniv	-8.87899
▁amaz	-8.88266
▁seçim	-8.88302
cu	-8.88342
▁elin	-8.88474
▁ıldız	-8.88598
▁atı	-8.88738
▁foto	-8.88866
▁ası	-8.89048
▁diyor	-8.89176
▁gelir	-8.89234
yet	-8.89283
▁Mill	-8.893
▁CHP	-8.8932
▁AK	-8.89347
▁cü	-8.89364
▁rik	-8.89408
▁ölüm	-8.89434
vil	-8.89484
▁Yöne	-8.89531
▁ydi	-8.89821
▁otu	-8.89856
▁aske	-8.89934
erek	-8.9029
▁hale	-8.90292
meri	-8.90831
▁ağla	-8.91175
niy	-8.91197
▁Deniz	-8.91513
▁if	-8.91545
▁lıyor	-8.91553
▁`	-8.91555
▁rüntü	-8.91739
▁Bo	-8.91815
▁aba	-8.91836
▁çıka	-8.92079
▁yurt	-8.92124
▁dönüş	-8.92153
amu	-8.92263
▁ağa	-8.92367
▁iniz	-8.92463
▁avun	-8.92625
▁ledi	-8.92833
▁ulus	-8.92842
▁ru	-8.9291
lık	-8.92959
üz	-8.9302
▁adım	-8.93464
▁Demir	-8.93617
▁uzak	-8.93792
▁tüke	-8.93868
▁kü	-8.939
▁mıştı	-8.94194
▁gar	-8.94386
▁ahib	-8.94481
ra	-8.94522
▁tildi	-8.94587
▁dev	-8.94649
▁diz	-8.94759
▁rmek	-8.94828
▁muta	-8.94985
niz	-8.95032
ut	-8.95189
nlar	-8.9538
▁emey	-8.95414
▁ça	-8.95582
▁götü	-8.95636
▁yaz	-8.95977
▁ültür	-8.96206
▁bası	-8.96282
▁nacak	-8.96338
▁tepki	-8.96507
▁Daha	-8.96571
▁faal	-8.96607
lü	-8.96697
şlar	-8.96875
▁tık	-8.97091
ruş	-8.97104
kşam	-8.97227
▁se	-8.97269
▁hiss	-8.97406
▁ndi	-8.97646
▁bera	-8.9768
▁lantı	-8.97751
▁ık	-8.97797
▁yen	-8.98065
▁ğ	-8.98081
▁av	-8.98297
▁adın	-8.98706
▁yeme	-8.98757
▁çatı	-8.98761
▁Dr	-8.98832
▁ıntı	-8.98968
▁Gaz	-8.98976
▁Os	-8.99015
▁evin	-8.9905
▁Ne	-8.99092
M	-8.99236
artı	-8.99263
▁niyor	-8.99339
K	-8.99361
▁bit	-8.99734
▁soka	-8.99776
▁elek	-8.99857
▁30	-8.99858
g	-9.00002
▁kriz	-9.00014
▁ralık	-9.00015
▁şe	-9.0007
por	-9.00118
T	-9.00158
▁yo	-9.0021
▁lma	-9.00338
▁olsun	-9.00356
▁mama	-9.00477
▁Mart	-9.00502
▁mesaj	-9.0056
dah	-9.00806
▁ktan	-9.01034
▁Bank	-9.01135
▁iy	-9.0135
▁ada	-9.01396
▁apı	-9.01434
▁12	-9.01476
▁uvv	-9.01493
▁eylem	-9.0165
ktör	-9.01815
▁kapat	-9.01883
▁İzmir	-9.0212
▁ney	-9.02207
▁çeki	-9.02262
▁aşla	-9.02398
▁Şubat	-9.02399
▁boz	-9.02611
▁bancı	-9.0262
▁söyl	-9.02755
▁rdü	-9.02803
▁tekn	-9.02876
▁üz	-9.02881
▁küçü	-9.02949
▁bet	-9.0304
▁liye	-9.03138
▁erçek	-9.0316
▁Muh	-9.03174
▁etro	-9.03267
▁duyu	-9.03406
rec	-9.03421
▁bina	-9.03519
▁Dav	-9.0359
▁poli	-9.03663
▁lıklı	-9.04019
▁isi	-9.04212
▁yön	-9.04501
▁tin	-9.04862
▁ona	-9.04864
▁yum	-9.04874
▁ez	-9.04906
▁w	-9.05137
▁kın	-9.05269
▁artış	-9.05276
▁klar	-9.05645
▁baba	-9.06272
▁tif	-9.0648
▁yoğun	-9.06681
▁ses	-9.06694
▁rneği	-9.06704
▁ede	-9.06725
▁alt	-9.06739
▁Ço	-9.06778
▁takip	-9.06809
▁rüldü	-9.06839
▁yorum	-9.06863
▁üküm	-9.06879
▁git	-9.06955
▁eler	-9.07054
▁riyor	-9.07201
▁aray	-9.07254
▁Ab	-9.07355
taly	-9.07373
▁tör	-9.07584
▁ıllık	-9.07623
▁ortak	-9.07663
▁umuz	-9.0771
▁Ocak	-9.07783
▁ilet	-9.07854
▁up	-9.07899
▁pay	-9.07946
▁erli	-9.07995
▁Ulu	-9.08184
▁tay	-9.08484
▁ilen	-9.08507
▁sunuz	-9.08631
▁one	-9.08843
▁Eko	-9.08997
▁Güve	-9.0918
▁anne	-9.09235
▁zan	-9.09319
▁end	-9.09319
▁şart	-9.09339
▁zarar	-9.0938
▁arış	-9.0946
▁kapa	-9.0969
O	-9.09783
eza	-9.09876
▁lt	-9.09971
▁mlu	-9.10275
▁ber	-9.10299
▁alış	-9.10328
▁DE	-9.10395
▁kras	-9.10448
▁yız	-9.10527
▁emek	-9.1069
▁bili	-9.10706
▁huk	-9.10733
▁kç	-9.10784
▁ut	-9.10827
▁yana	-9.10942
▁Euro	-9.10963
▁lenme	-9.11066
▁uyu	-9.11313
▁kli	-9.11375
▁uğr	-9.11378
▁güç	-9.11482
akım	-9.11547
▁rildi	-9.11894
Bu	-9.11923
▁tım	-9.11928
▁dim	-9.11943
▁çocu	-9.12034
▁yü	-9.12152
▁organ	-9.12187
▁Gül	-9.12312
▁ant	-9.12339
▁Irak	-9.1249
▁itesi	-9.12493
amp	-9.12665
▁büyü	-9.12722
▁rılar	-9.12803
mış	-9.13009
▁las	-9.13053
▁çift	-9.1332
llah	-9.13376
▁etmiş	-9.13386
▁ic	-9.13486
▁Val	-9.13523
▁oranı	-9.13578
▁tadır	-9.13602
▁uş	-9.13621
▁Ar	-9.13624
▁işe	-9.13625
▁tasa	-9.13702
R	-9.13717
▁dağ	-9.13735
▁laya	-9.13999
▁cidd	-9.1413
▁tab	-9.14261
▁rbest	-9.14325
oru	-9.14338
▁Dış	-9.14491
▁yolcu	-9.14633
▁öz	-9.1468
▁kap	-9.14739
▁bel	-9.14762
▁suz	-9.14824
▁lılar	-9.14852
▁lek	-9.14882
▁azi	-9.1517
▁ntısı	-9.15347
▁çe	-9.15465
▁kav	-9.15476
▁urt	-9.15585
▁rma	-9.15602
rıca	-9.15717
▁yiz	-9.1576
▁iyesi	-9.15801
▁gördü	-9.15813
▁ılmaz	-9.16073
▁lo	-9.16108
nşa	-9.16108
▁tıl	-9.16123
▁anu	-9.1614
▁lat	-9.16184
▁öde	-9.16286
▁yüzü	-9.16294
▁forma	-9.16343
▁kadro	-9.16771
▁rol	-9.16785
▁kork	-9.16808
▁uçak	-9.16832
▁ilme	-9.16896
▁şa	-9.16965
▁lay	-9.1713
▁ira	-9.17157
▁kul	-9.17191
are	-9.17221
▁Genç	-9.17305
ümkü	-9.17556
▁mcısı	-9.17652
▁ami	-9.17703
▁temel	-9.17713
A	-9.17763
▁tören	-9.17943
▁uza	-9.18127
▁gu	-9.18229
us	-9.18466
▁şeh	-9.18475
nda	-9.18482
miş	-9.18598
ahçe	-9.18683
▁arama	-9.18758
ötü	-9.18906
▁şı	-9.18944
▁kat	-9.19051
▁Ve	-9.19057
es	-9.19135
▁vuru	-9.19177
üküm	-9.19208
▁lig	-9.19296
▁benim	-9.19482
▁11	-9.19504
▁tik	-9.19616
▁rim	-9.19647
▁nspor	-9.19759
iy	-9.19867
▁elçi	-9.1992
▁oda	-9.19923
▁oğu	-9.19995
am	-9.20208
lci	-9.20256
▁İran	-9.20268
▁rne	-9.20364
▁ort	-9.20372
▁ül	-9.20398
▁kıy	-9.20527
▁çiz	-9.20698
▁Do	-9.20751
▁kredi	-9.20829
abah	-9.20871
▁tepe	-9.20933
▁vardı	-9.20944
▁abı	-9.20981
C	-9.21128
ursa	-9.21158
▁sene	-9.21305
▁hang	-9.21407
▁min	-9.21414
▁abi	-9.2157
▁onla	-9.21733
▁ör	-9.21808
▁ap	-9.21893
▁Diya	-9.22043
▁diy	-9.22077
det	-9.22082
▁ong	-9.22169
E	-9.22176
▁ab	-9.22339
▁rüşme	-9.22343
▁dür	-9.22356
▁doğ	-9.2239
▁üpe	-9.22408
▁risk	-9.22454
▁Kay	-9.2248
▁25	-9.22586
▁sın	-9.22684
nerj	-9.22737
▁gramı	-9.2274
▁kaza	-9.22783
▁rıl	-9.22804
arp	-9.2285
▁Kö	-9.22894
5	-9.22897
▁ayat	-9.22944
▁alma	-9.22985
▁alı	-9.22993
▁enaz	-9.23017
▁Ad	-9.23036
▁Mar	-9.23073
▁tırı	-9.23177
▁Kılıç	-9.23263
▁üneş	-9.23377
▁belge	-9.23417
▁bakır	-9.23441
▁arım	-9.23541
ukat	-9.23555
▁urta	-9.23698
▁ser	-9.23808
cih	-9.23857
▁Orta	-9.23871
▁tor	-9.23874
▁kış	-9.23943
▁til	-9.23952
▁başı	-9.2424
to	-9.24297
▁üncü	-9.24352
▁fet	-9.24401
▁ere	-9.24495
▁iyat	-9.24556
▁olsa	-9.24584
▁şan	-9.24718
▁Kasım	-9.24805
▁endi	-9.24892
▁rala	-9.24895
▁14	-9.25167
gı	-9.25192
▁inans	-9.25322
ensu	-9.25328
▁za	-9.25387
▁ediye	-9.25449
▁taki	-9.25582
▁alet	-9.25803
▁mut	-9.25815
▁üs	-9.25871
▁eyaz	-9.25974
▁yım	-9.26023
▁om	-9.26186
▁ef	-9.26238
▁dö	-9.26249
▁AŞ	-9.26253
▁Gülen	-9.26277
▁soy	-9.26308
▁doğa	-9.26343
▁alo	-9.2644
▁bü	-9.26483
racı	-9.26507
▁mutlu	-9.26507
P	-9.26665
▁ttığı	-9.26686
▁Hav	-9.26708
▁lteci	-9.26722
▁tica	-9.26863
▁elde	-9.2691
▁aması	-9.26948
▁etin	-9.27012
▁şidd	-9.27081
▁Bugün	-9.27108
▁hat	-9.27125
urgu	-9.27182
▁aşına	-9.27191
▁nıyor	-9.27252
▁işle	-9.27274
▁tav	-9.27302
▁parça	-9.27341
▁ervi	-9.27468
▁traf	-9.27486
▁anat	-9.27505
▁boyu	-9.27582
▁Jo	-9.27614
▁katkı	-9.27696
▁kims	-9.27727
▁nd	-9.27785
▁eks	-9.27858
▁Poli	-9.27895
▁rul	-9.27939
▁nite	-9.27953
▁umu	-9.28034
▁aklar	-9.28063
▁fes	-9.28127
▁ök	-9.28156
▁hesap	-9.28229
D	-9.28242
▁bas	-9.2826
▁Top	-9.28368
▁meden	-9.28563
I	-9.28679
▁güçlü	-9.28693
▁anal	-9.28772
▁eçmiş	-9.28787
▁ang	-9.28914
isyo	-9.28932
▁umlu	-9.28944
▁demir	-9.28948
▁eçi	-9.29044
▁Tü	-9.29076
▁durdu	-9.2913
▁ahi	-9.29141
▁ac	-9.29401
ev	-9.29489
▁atta	-9.29536
▁Böl	-9.29759
▁anca	-9.29763
▁To	-9.29817
▁teri	-9.29836
▁klif	-9.29902
nado	-9.29956
▁uygun	-9.30111
▁mişti	-9.30173
▁ayır	-9.30241
eşit	-9.30277
▁ert	-9.30299
ah	-9.30637
▁atma	-9.30654
▁dil	-9.307
ğlu	-9.30708
▁bizi	-9.30755
▁laşım	-9.30758
U	-9.3101
▁alım	-9.31099
▁rtı	-9.31433
▁inti	-9.3166
▁urum	-9.31727
▁deri	-9.31737
50	-9.31864
▁özgü	-9.31868
▁anayi	-9.31966
▁yunc	-9.3199
▁co	-9.32116
▁ata	-9.32123
▁yıp	-9.32252
tim	-9.32271
▁kaya	-9.32284
sı	-9.3241
zer	-9.32454
▁ekibi	-9.32506
olay	-9.3265
▁nma	-9.32791
▁rans	-9.32792
▁eri	-9.32992
▁girdi	-9.32997
▁daya	-9.33053
▁am	-9.33117
▁eyen	-9.33142
▁uldu	-9.33157
▁kart	-9.33392
▁adlı	-9.33461
▁50	-9.33537
▁marka	-9.33553
▁ımla	-9.33572
▁revl	-9.33627
lan	-9.33851
▁mcı	-9.3397
▁Ligi	-9.34008
yip	-9.34087
▁temiz	-9.34097
▁Ce	-9.34203
▁hızl	-9.34684
▁irek	-9.35058
▁orma	-9.35088
▁izi	-9.35196
prü	-9.35223
▁ödül	-9.35548
▁ıda	-9.35612
▁muştu	-9.35647
▁16	-9.3577
YD	-9.35779
▁Koç	-9.35788
▁şam	-9.35795
▁uzman	-9.35822
▁pers	-9.35909
▁bana	-9.35953
tor	-9.36
▁Ülk	-9.36016
▁aklı	-9.36056
▁slan	-9.3609
▁Rec	-9.3611
▁sınız	-9.36117
▁emi	-9.36196
▁tos	-9.36253
▁seç	-9.36267
▁13	-9.36292
▁resmi	-9.36362
▁ov	-9.3638
▁belli	-9.3653
▁rada	-9.36535
▁çözüm	-9.36632
▁aralı	-9.36697
▁id	-9.36707
▁sig	-9.36771
anat	-9.36786
▁ödem	-9.36878
▁atil	-9.36949
▁işler	-9.36959
▁ire	-9.37006
▁Örgü	-9.37097
▁akı	-9.37122
▁fark	-9.37165
tir	-9.37543
▁arın	-9.37557
▁azal	-9.37614
▁rdı	-9.37694
▁kesin	-9.37777
▁şah	-9.37781
lep	-9.37842
▁steği	-9.37882
â	-9.37923
▁rat	-9.37945
▁kay	-9.3799
▁ib	-9.3807
▁tirdi	-9.38192
▁Li	-9.38193
▁zı	-9.38198
▁poz	-9.38232
▁halkı	-9.38284
▁inci	-9.38396
▁geniş	-9.38414
▁kale	-9.38441
▁os	-9.38445
bası	-9.38469
lik	-9.38544
▁dım	-9.38749
▁şik	-9.38824
▁şarkı	-9.3887
▁açısı	-9.38874
▁zer	-9.38992
▁ttı	-9.39045
▁arşı	-9.39149
▁Kema	-9.39286
▁Gün	-9.39326
▁ob	-9.39348
▁imk	-9.39361
▁Dün	-9.39426
▁Ser	-9.39648
▁17	-9.39692
▁nti	-9.39704
▁Çin	-9.39871
▁nül	-9.39959
▁of	-9.40018
▁elik	-9.40033
düğü	-9.40168
▁18	-9.40244
▁hen	-9.4031
▁nen	-9.40335
▁uriz	-9.40378
▁seri	-9.40446
▁ral	-9.40619
▁Pro	-9.40712
şçi	-9.4081
▁güne	-9.40913
aleb	-9.40923
▁aşarı	-9.40964
▁pat	-9.40987
▁Mu	-9.41022
▁Kür	-9.41109
▁24	-9.41112
▁iğer	-9.41142
▁alle	-9.41145
▁ij	-9.41208
▁Sarı	-9.41297
▁ars	-9.41333
▁yanıt	-9.41389
▁j	-9.41409
▁final	-9.41487
nsan	-9.41567
vali	-9.41592
▁lazım	-9.41753
zey	-9.4181
kaç	-9.41811
▁Bü	-9.41944
▁lis	-9.41955
▁önemi	-9.41981
▁Gü	-9.42006
▁ret	-9.42064
▁Yap	-9.42116
▁HDP	-9.42118
ro	-9.42211
▁çıkl	-9.42335
▁hane	-9.42643
▁fai	-9.42692
▁esabı	-9.42718
▁cevap	-9.42823
nav	-9.42862
▁nme	-9.42879
▁dahil	-9.42908
▁eçe	-9.43059
▁Murat	-9.43132
▁dinl	-9.43151
▁alp	-9.43192
▁aat	-9.43223
▁hlike	-9.43239
▁Ro	-9.43343
▁rmak	-9.43345
▁ulüp	-9.43444
▁çekti	-9.43449
▁rese	-9.43495
▁Ch	-9.43582
▁iya	-9.43627
▁rısı	-9.43651
▁dık	-9.43657
▁üksel	-9.43658
▁eceğ	-9.43794
L	-9.43814
▁Man	-9.43819
▁nes	-9.4388
▁aret	-9.43931
▁muz	-9.43974
▁ntem	-9.43977
▁El	-9.44169
▁canlı	-9.44258
▁abet	-9.44263
▁nmış	-9.44297
▁kayıt	-9.44387
▁cil	-9.44414
▁nnes	-9.44427
▁alif	-9.44451
▁ail	-9.44479
▁Haz	-9.44554
▁ste	-9.44567
▁raş	-9.44579
▁inal	-9.44725
▁lığ	-9.44751
▁hdit	-9.44806
F	-9.44881
arı	-9.45002
▁tma	-9.45043
▁taz	-9.45235
▁yse	-9.45309
▁aşadı	-9.45334
ve	-9.45391
▁Trump	-9.4544
▁çak	-9.45459
smi	-9.45473
▁ord	-9.45561
▁anlar	-9.4562
▁Nisan	-9.45653
▁Konya	-9.45765
▁ihti	-9.45778
▁haf	-9.45817
▁meli	-9.45838
▁ala	-9.45868
▁gücü	-9.45879
ektö	-9.45908
▁anya	-9.45911
rinc	-9.45915
alib	-9.45937
▁taj	-9.46166
▁anma	-9.46212
j	-9.4629
S	-9.46302
▁ayva	-9.46362
▁Adana	-9.46402
▁sığı	-9.46403
▁dalet	-9.4641
▁En	-9.46419
▁Şah	-9.46484
▁ayram	-9.46515
▁amb	-9.46572
▁farkı	-9.46573
▁rahi	-9.46582
▁Aydın	-9.46614
▁sen	-9.46817
▁ınız	-9.46992
▁görm	-9.47037
▁tılım	-9.47056
▁rem	-9.47132
ocuk	-9.47141
▁ızı	-9.47213
▁Şam	-9.47227
▁ep	-9.47249
▁ış	-9.47271
▁duruş	-9.47297
lim	-9.47366
▁nç	-9.47412
▁uva	-9.47475
▁orm	-9.47478
▁rahat	-9.47487
▁ch	-9.47633
▁Şub	-9.47735
▁yere	-9.47796
▁IŞİD	-9.47801
▁ergi	-9.47815
▁okun	-9.47822
▁Şu	-9.47856
G	-9.47917
▁ilan	-9.4801
▁Pazar	-9.48019
▁Emn	-9.48101
▁eps	-9.48188
▁name	-9.48203
▁vü	-9.48258
▁sahne	-9.48347
▁kala	-9.48375
▁ntı	-9.48401
▁slın	-9.48407
H	-9.4852
▁ard	-9.48529
▁Em	-9.48553
▁üyüme	-9.48565
▁neral	-9.4858
▁ışık	-9.48586
▁Ev	-9.48591
▁ers	-9.48702
▁ğinde	-9.4877
▁rge	-9.48776
▁DAEŞ	-9.48784
▁rmans	-9.48802
fa	-9.48835
▁ütü	-9.4902
▁ırsat	-9.49299
▁siyon	-9.4935
▁Alma	-9.49439
▁çağrı	-9.49485
▁pi	-9.49488
▁kür	-9.495
▁beni	-9.49506
▁baskı	-9.49556
▁kafa	-9.496
▁ilo	-9.49725
▁apis	-9.49743
▁amera	-9.49817
▁mali	-9.49874
▁Fati	-9.49901
▁arada	-9.49999
▁yılı	-9.50126
▁nümü	-9.50277
▁Cadde	-9.50332
▁Mayıs	-9.50332
▁liğ	-9.50336
▁tida	-9.50347
▁dair	-9.50399
▁mer	-9.50427
▁sak	-9.50465
)	-9.50526
▁ena	-9.50739
▁Jan	-9.50754
▁işi	-9.50886
▁ref	-9.50933
▁gul	-9.51114
▁rç	-9.51284
▁üze	-9.51312
▁Ob	-9.51464
▁üyesi	-9.5151
▁Cuma	-9.51571
▁loji	-9.5163
▁rid	-9.51659
▁amel	-9.51751
▁mem	-9.51767
▁ulut	-9.51855
▁arb	-9.51911
▁ihra	-9.51926
▁bek	-9.52048
ğer	-9.52093
Ü	-9.52143
▁uşu	-9.52401
▁Tek	-9.52479
üğü	-9.52539
▁Go	-9.52559
▁alık	-9.52565
▁urken	-9.52601
▁Şen	-9.52624
slim	-9.5268
▁perf	-9.52739
ünde	-9.52881
▁his	-9.52908
rs	-9.53049
▁yarın	-9.53165
▁ıf	-9.53167
▁oka	-9.53195
urum	-9.53321
▁savu	-9.53388
▁kısmı	-9.5342
▁ekran	-9.53462
▁rkası	-9.53509
▁aylı	-9.536
▁göç	-9.53743
kika	-9.53757
▁atla	-9.53762
▁emedi	-9.53861
▁tele	-9.53897
▁çal	-9.53931
ahmi	-9.54023
▁iyah	-9.54048
▁kam	-9.54072
▁Güne	-9.54132
▁liste	-9.54141
▁talya	-9.5416
▁Kupa	-9.5431
▁recek	-9.5431
▁hal	-9.54372
▁sanız	-9.54466
suz	-9.54515
▁nlem	-9.54559
▁ırla	-9.54563
▁kop	-9.54568
▁buna	-9.54638
▁nlar	-9.54649
▁kira	-9.54652
▁hakem	-9.54784
▁van	-9.54801
▁fay	-9.54829
▁emez	-9.54981
▁olmuş	-9.55051
rlik	-9.55171
ulüb	-9.55224
▁izm	-9.55297
▁gal	-9.55317
▁kor	-9.5535
▁rda	-9.55389
emur	-9.55457
▁şağ	-9.55534
liğ	-9.55651
▁müz	-9.55683
tep	-9.5577
avcı	-9.55828
▁vaz	-9.55838
▁ilis	-9.55878
▁yık	-9.56171
▁akal	-9.56406
▁22	-9.56441
▁aire	-9.56562
▁Yuna	-9.56599
▁Po	-9.56637
▁öl	-9.56683
▁ıra	-9.56687
▁İb	-9.56977
▁esle	-9.57012
▁rejim	-9.57012
▁eg	-9.57131
ört	-9.57224
▁itap	-9.57419
men	-9.57535
izyo	-9.57563
▁yazdı	-9.57611
▁ızla	-9.57687
▁otel	-9.57733
▁erg	-9.57751
▁üslü	-9.57756
▁asyon	-9.5778
▁ucu	-9.57845
nive	-9.57862
▁aj	-9.57904
▁syonu	-9.57905
▁ment	-9.57926
aşvu	-9.57954
▁od	-9.58132
▁uar	-9.58239
eviy	-9.5827
▁civa	-9.58367
▁yerde	-9.58369
▁udi	-9.58447
▁aksi	-9.58548
▁rakam	-9.58734
▁düşük	-9.58736
▁nışma	-9.5878
▁üzü	-9.58843
▁So	-9.58849
▁tirme	-9.58935
▁gider	-9.59119
▁40	-9.59138
▁rdu	-9.59423
▁ölü	-9.59628
atı	-9.59658
▁Eylül	-9.59668
▁ımızı	-9.59669
▁Kadın	-9.59753
▁tec	-9.59779
▁ağrı	-9.59793
N	-9.59797
ayra	-9.59937
▁olla	-9.59956
▁gaz	-9.60039
▁eydan	-9.60052
nı	-9.601
▁oran	-9.60146
▁cami	-9.60187
▁ari	-9.60203
▁izl	-9.6023
▁angın	-9.60297
▁amm	-9.6046
▁Ekim	-9.60476
▁sol	-9.60568
▁sefer	-9.60652
▁ite	-9.60668
▁irke	-9.60673
▁era	-9.60692
▁çıkı	-9.60751
▁ho	-9.60784
ansı	-9.60802
▁arla	-9.60819
▁ideo	-9.60821
▁ela	-9.60928
▁amu	-9.60933
ehit	-9.60981
▁log	-9.61038
▁Kur	-9.61045
▁emo	-9.61083
▁Yo	-9.61123
▁Yani	-9.61218
▁iklik	-9.61238
▁enc	-9.61243
▁dire	-9.61245
▁oğ	-9.61262
▁num	-9.61338
▁sey	-9.61387
▁tuğ	-9.6139
▁ork	-9.61402
▁pera	-9.61438
▁oyu	-9.61682
▁ili	-9.61712
▁ga	-9.62027
▁layı	-9.62034
▁ain	-9.62116
▁per	-9.62119
▁ray	-9.6215
▁ahat	-9.62371
▁red	-9.62441
▁meyi	-9.62696
▁ımı	-9.62703
▁ng	-9.62749
▁bağ	-9.62835
▁ezi	-9.63015
▁Az	-9.63018
▁lta	-9.63197
▁usul	-9.63284
▁düştü	-9.63298
▁kri	-9.63392
▁paşa	-9.63407
▁üp	-9.63551
▁ğe	-9.63673
baka	-9.6368
▁asla	-9.63706
▁abri	-9.63929
▁arik	-9.63941
▁dum	-9.63964
▁21	-9.64023
▁gın	-9.64031
▁limat	-9.64071
▁ani	-9.64091
▁bey	-9.64094
syon	-9.64149
▁tip	-9.64193
▁lka	-9.64263
▁cılar	-9.64379
▁yal	-9.64384
▁yani	-9.64385
▁28	-9.64638
▁arıl	-9.64873
▁utl	-9.64891
▁pas	-9.64895
▁ina	-9.65179
▁İd	-9.65267
▁lans	-9.65364
▁No	-9.65385
▁inç	-9.65411
▁ras	-9.65427
▁19	-9.65444
▁rede	-9.655
▁mar	-9.65679
▁kuş	-9.65683
ğünü	-9.657
▁rez	-9.65831
▁rad	-9.65837
▁2.	-9.65851
▁Van	-9.65888
▁uku	-9.6593
▁not	-9.66052
▁ilm	-9.66101
▁avet	-9.66108
▁iriz	-9.66191
▁ünler	-9.66314
▁eser	-9.66467
▁konut	-9.6665
▁dağı	-9.66651
▁gören	-9.66718
erçe	-9.66766
▁aşa	-9.66818
▁ükl	-9.66836
▁riz	-9.66855
▁pla	-9.66916
▁rıy	-9.66961
lu	-9.67007
▁mre	-9.6703
▁verg	-9.67034
▁ayak	-9.67069
▁rgan	-9.67155
▁alk	-9.67185
as	-9.67287
yrıc	-9.67317
▁Sel	-9.67592
▁evre	-9.67614
tme	-9.67665
▁ngin	-9.67693
▁ordu	-9.67721
▁mit	-9.67816
▁zik	-9.67937
▁ern	-9.67963
▁vesi	-9.68045
▁aygı	-9.6809
va	-9.68123
rma	-9.68147
▁aran	-9.68328
▁elki	-9.68333
▁lanı	-9.68354
▁kere	-9.68355
▁alde	-9.68528
▁orad	-9.68607
▁TV	-9.68747
▁anım	-9.68751
▁Ana	-9.68852
▁atsız	-9.68941
▁atik	-9.69267
▁1.	-9.69325
ağ	-9.69379
▁Mes	-9.69482
▁akar	-9.69511
▁ıllı	-9.69606
▁demek	-9.69646
▁kı	-9.6976
▁yun	-9.69811
▁tri	-9.69956
▁nik	-9.70146
▁yazar	-9.70164
▁La	-9.70244
haz	-9.70255
▁arca	-9.70259
ur	-9.70377
▁gire	-9.70433
▁raba	-9.7046
▁masa	-9.70783
▁içe	-9.70793
▁bes	-9.70824
▁BM	-9.70876
▁vit	-9.70995
▁hata	-9.7108
rof	-9.71189
▁pları	-9.71197
▁etçi	-9.7134
▁izli	-9.71381
▁oğan	-9.71412
▁apımı	-9.7147
▁bara	-9.71537
▁gez	-9.71608
rubu	-9.71665
▁ysa	-9.71875
▁erim	-9.71992
▁hay	-9.72353
▁oş	-9.72382
▁önem	-9.72461
eceğ	-9.72784
▁adl	-9.72811
▁anet	-9.72814
▁oz	-9.72918
▁rmay	-9.73026
▁pp	-9.73255
▁raman	-9.73333
AN	-9.7353
▁Av	-9.73614
▁ade	-9.73622
▁seb	-9.73623
▁ge	-9.73625
▁Kır	-9.73631
▁idar	-9.73643
▁3.	-9.73777
▁işim	-9.73944
▁ktörü	-9.74016
▁şık	-9.74178
▁ldu	-9.74249
▁Tu	-9.74277
▁izde	-9.74334
▁eci	-9.74354
▁nsel	-9.74396
▁enek	-9.74573
▁zya	-9.74614
▁oruma	-9.74631
▁zate	-9.74648
▁27	-9.74705
▁are	-9.74785
▁anti	-9.74839
▁mamış	-9.74865
len	-9.74902
adem	-9.75249
▁ley	-9.75328
▁Na	-9.75407
▁enge	-9.75466
▁şif	-9.75478
▁zgü	-9.75629
▁ekme	-9.7563
▁atış	-9.75694
▁vic	-9.75697
▁uştu	-9.75698
▁usu	-9.757
▁blo	-9.75737
af	-9.75751
PG	-9.75754
▁mbu	-9.75771
▁Bey	-9.75794
▁raya	-9.7581
▁gen	-9.76354
▁Kal	-9.76833
▁lın	-9.77023
▁alis	-9.77045
▁fe	-9.77124
▁asar	-9.77219
▁erte	-9.77408
▁nla	-9.77502
▁mda	-9.77585
▁müs	-9.77662
▁Sü	-9.77854
▁uyarı	-9.77909
▁fi	-9.77923
raf	-9.77928
uh	-9.77938
▁gül	-9.78023
▁Da	-9.78027
▁rap	-9.78058
▁erid	-9.78096
▁içi	-9.78109
siyo	-9.78161
▁açtı	-9.78166
▁eran	-9.78222
▁buldu	-9.78308
▁Par	-9.78326
▁Re	-9.78338
▁eter	-9.78405
▁ahs	-9.78473
▁halk	-9.78476
hu	-9.78485
▁mada	-9.78519
▁kana	-9.78575
▁def	-9.78696
▁ağlar	-9.78748
▁ört	-9.78903
▁and	-9.7891
▁EFA	-9.7893
▁aşama	-9.79041
▁Dur	-9.79174
▁cılı	-9.79181
şik	-9.79243
▁eji	-9.79567
Z	-9.7962
▁sad	-9.79685
B	-9.79691
▁başa	-9.79838
▁alkı	-9.79849
uygu	-9.79921
▁iraz	-9.79956
▁iver	-9.79998
▁nca	-9.80054
▁inay	-9.80095
▁arma	-9.80109
▁Per	-9.80153
▁tro	-9.80204
▁aris	-9.80241
▁san	-9.8025
▁uyar	-9.80256
▁tesi	-9.8029
nser	-9.8029
▁rıcı	-9.80526
▁ark	-9.80555
um	-9.80614
is	-9.8063
▁Bay	-9.80646
▁sta	-9.80657
▁ors	-9.80677
inci	-9.80767
▁ayrak	-9.80782
▁rhan	-9.81016
▁enar	-9.81182
▁dılar	-9.81426
▁Vo	-9.81486
▁apa	-9.81721
▁itti	-9.81798
▁sana	-9.81887
▁nuz	-9.82043
on	-9.82091
▁üca	-9.82181
▁alka	-9.82199
▁akan	-9.822
▁asın	-9.82237
▁ılı	-9.8237
yec	-9.82448
▁eb	-9.8254
▁x	-9.8284
▁23	-9.82858
▁biti	-9.82886
▁eğe	-9.83006
▁dam	-9.83164
gö	-9.83175
▁lem	-9.83214
▁nak	-9.83235
▁diş	-9.8331
▁kle	-9.83417
▁ha	-9.83538
▁ktör	-9.83568
▁ekte	-9.83597
▁diler	-9.83605
▁old	-9.8366
▁mir	-9.8377
▁tiv	-9.8381
▁ulan	-9.83836
met	-9.84148
▁ksik	-9.84245
▁tal	-9.84328
▁fı	-9.84383
▁onya	-9.84477
▁sh	-9.84503
▁zma	-9.84506
▁mas	-9.84544
▁pany	-9.84551
▁zay	-9.84565
▁ltın	-9.84565
▁ag	-9.84625
▁ısı	-9.84709
▁kah	-9.84773
▁ştı	-9.84908
▁işti	-9.84913
▁ebek	-9.85269
▁lal	-9.85321
▁stek	-9.85556
ha	-9.85644
▁raç	-9.85647
▁onse	-9.85698
▁aket	-9.85739
▁ig	-9.85896
▁esin	-9.85904
▁mayın	-9.86109
▁fil	-9.86179
▁renk	-9.86255
▁esti	-9.86324
▁örev	-9.8634
▁kuz	-9.8636
▁duk	-9.86645
▁irse	-9.86652
▁29	-9.8673
▁26	-9.86748
▁riler	-9.8677
▁Sam	-9.86795
▁dolu	-9.86822
▁mde	-9.86962
▁inc	-9.87132
▁özle	-9.87151
▁ete	-9.87203
▁eğ	-9.87274
▁ot	-9.87313
▁klan	-9.87413
▁ald	-9.8744
▁aldır	-9.87739
▁olun	-9.87786
▁yay	-9.87865
▁altın	-9.87871
▁akır	-9.87992
▁liş	-9.88001
▁atın	-9.88071
▁ava	-9.88375
▁eç	-9.88523
▁llah	-9.88574
▁yat	-9.88586
▁çey	-9.88622
▁ban	-9.88707
▁irli	-9.88707
▁iptal	-9.8871
▁ram	-9.88851
BMM	-9.88993
▁bal	-9.89085
▁ağan	-9.89126
▁iyer	-9.89126
▁grub	-9.89287
▁esn	-9.89328
▁lıdır	-9.89358
▁mutl	-9.89383
ö	-9.89768
▁ikr	-9.89851
▁Sa	-9.89886
▁zam	-9.89991
▁zem	-9.90025
▁Ri	-9.901
▁erel	-9.90149
mesi	-9.90202
▁Ma	-9.90224
▁Kuru	-9.90377
▁Mo	-9.90396
ile	-9.90403
▁devre	-9.90412
▁ımcı	-9.90421
▁uns	-9.90489
▁dası	-9.9057
▁bay	-9.90678
▁adi	-9.90811
▁kiz	-9.90837
▁meme	-9.90857
▁Kaza	-9.9103
▁ınar	-9.91072
▁ursa	-9.91118
▁atar	-9.91162
▁Fa	-9.91283
▁önde	-9.91422
x	-9.91445
▁rka	-9.91504
▁arar	-9.91594
▁tarı	-9.91625
ülen	-9.91648
▁abir	-9.91719
▁din	-9.91763
▁Sur	-9.91788
müz	-9.91922
▁uran	-9.92002
7	-9.92122
▁eğer	-9.92168
▁gitme	-9.92183
▁aynak	-9.92185
ici	-9.92205
▁lardı	-9.92272
▁Wa	-9.92375
▁yon	-9.92393
▁nf	-9.92532
▁nö	-9.92604
▁rin	-9.92614
▁erbi	-9.92871
▁kum	-9.92895
3	-9.92951
▁çuk	-9.93064
rak	-9.93097
▁rt	-9.93109
▁Saray	-9.93217
▁kler	-9.93286
▁lım	-9.93361
▁atif	-9.93394
▁YE	-9.93556
▁ow	-9.93577
▁yna	-9.93637
▁reye	-9.93741
▁Üs	-9.93811
▁gili	-9.93902
gi	-9.9392
▁işin	-9.9399
▁arek	-9.94022
▁onser	-9.94455
▁üstü	-9.9451
▁sunu	-9.9468
ıp	-9.94705
▁cel	-9.94707
▁Mad	-9.94804
▁Ta	-9.94911
▁palı	-9.94974
▁vali	-9.94987
▁fon	-9.95059
▁akış	-9.95125
▁lev	-9.95145
▁ldi	-9.95155
lup	-9.95183
▁sebe	-9.953
▁htar	-9.95368
▁ace	-9.95424
▁rum	-9.95568
▁zlem	-9.95787
▁sas	-9.95816
▁uc	-9.95954
▁roj	-9.9604
▁rit	-9.96067
▁hu	-9.96321
▁necek	-9.96352
▁ksel	-9.96378
▁kin	-9.9641
▁ğum	-9.96618
▁iza	-9.96723
▁rta	-9.96763
▁ğın	-9.96783
os	-9.96827
▁üçü	-9.96849
▁rci	-9.96972
▁evde	-9.97
▁sok	-9.97018
▁meş	-9.97018
▁şıyor	-9.97232
▁utu	-9.97306
▁iv	-9.97324
▁yim	-9.97493
▁kit	-9.9755
tik	-9.97601
▁üc	-9.97701
▁rmiş	-9.97766
▁ster	-9.97787
▁upa	-9.97998
▁bölü	-9.98058
▁ff	-9.98077
▁klı	-9.98096
▁gere	-9.98115
▁Sal	-9.98201
▁har	-9.98307
▁Hal	-9.98328
▁DA	-9.98386
▁mbe	-9.98484
▁vad	-9.98574
▁racı	-9.98632
▁Dk	-9.98642
▁lmadı	-9.98668
▁gin	-9.98679
▁imli	-9.98794
▁kıl	-9.98949
▁este	-9.98967
▁mil	-9.99094
▁Bil	-9.99191
ko	-9.99326
▁ore	-9.99329
▁eo	-9.99415
▁eker	-9.99452
▁arab	-9.99526
▁katl	-9.99613
▁60	-9.99617
▁uçla	-9.99697
▁Pol	-9.99698
▁unca	-9.99715
aj	-9.99739
▁nay	-9.99885
sa	-9.99899
▁azıl	-9.99902
▁zun	-9.99983
▁üt	-10
▁narak	-10.0002
▁ub	-10.0008
▁ırt	-10.0019
▁yük	-10.0032
▁aze	-10.0038
▁nüf	-10.0041
▁dırdı	-10.005
▁çağ	-10.005
▁aki	-10.0055
▁elle	-10.0061
▁ikli	-10.0061
▁alya	-10.0065
▁31	-10.0079
▁fla	-10.0082
ER	-10.0088
▁tli	-10.0089
▁Yapı	-10.0096
LA	-10.0102
▁%	-10.0123
▁ende	-10.0125
▁asi	-10.0135
▁mina	-10.0143
▁ok	-10.0152
▁niye	-10.0172
▁rir	-10.0173
▁alb	-10.0183
▁nlü	-10.0186
▁vu	-10.0206
▁nerji	-10.0216
lah	-10.0222
▁rman	-10.0237
&	-10.0253
▁üle	-10.0294
▁ora	-10.0296
▁lisi	-10.0301
▁abah	-10.0304
▁imha	-10.0304
▁şar	-10.0316
▁tırdı	-10.0329
V	-10.0345
▁sna	-10.0358
▁bar	-10.0361
▁aru	-10.0362
▁ulübü	-10.0368
▁cili	-10.0369
▁ece	-10.0388
▁nter	-10.0421
▁sker	-10.0428
▁ikle	-10.0448
▁benz	-10.0459
▁ıları	-10.0482
▁nel	-10.0484
laş	-10.0488
▁ker	-10.0488
▁ters	-10.0494
▁cev	-10.0496
▁mekt	-10.051
▁akin	-10.0519
▁evg	-10.0542
▁ayr	-10.0556
▁ond	-10.0558
▁yin	-10.0558
▁mur	-10.0562
Lİ	-10.0567
▁kas	-10.0568
▁liyor	-10.0597
▁nne	-10.0604
4	-10.0606
▁alga	-10.061
▁ihbar	-10.0617
DY	-10.0633
▁rk	-10.0636
▁rip	-10.0643
▁YOR	-10.066
▁New	-10.0677
▁urlar	-10.0678
▁kte	-10.069
Ç	-10.0719
▁rüyor	-10.0734
▁Kar	-10.0738
▁İyi	-10.074
▁emen	-10.0761
▁Başb	-10.0764
▁arm	-10.0765
▁rse	-10.0766
▁urk	-10.0773
▁öste	-10.0776
▁kla	-10.0779
▁akka	-10.0781
▁no	-10.0787
20	-10.0789
▁giz	-10.081
▁rif	-10.0821
▁rtesi	-10.0828
▁asit	-10.083
▁imin	-10.0831
▁lac	-10.0847
▁rgi	-10.0861
▁erse	-10.0862
▁eve	-10.0869
▁uklu	-10.0874
▁Kü	-10.0884
2	-10.0889
▁neli	-10.089
▁cak	-10.0907
▁beş	-10.0909
van	-10.0924
▁rp	-10.0932
av	-10.0958
▁azır	-10.0958
▁iği	-10.0966
▁arp	-10.0973
▁ruk	-10.0975
▁evl	-10.0978
▁afe	-10.0992
▁açı	-10.0999
▁arş	-10.1004
▁tel	-10.1025
▁mini	-10.1038
▁tme	-10.1038
▁lin	-10.104
▁35	-10.1044
üsü	-10.1062
▁ent	-10.1067
▁ansı	-10.1069
▁elen	-10.1072
ch	-10.1075
w	-10.1079
▁tlı	-10.1084
▁avaşı	-10.113
miyo	-10.1136
▁zir	-10.1137
▁ılar	-10.1152
▁rac	-10.1161
▁mun	-10.1167
▁çöz	-10.1176
▁cep	-10.1179
▁leye	-10.1179
▁rag	-10.1181
lmak	-10.1182
▁LAR	-10.1196
▁eşit	-10.1202
▁rcu	-10.1214
ını	-10.1215
▁rup	-10.1216
▁vo	-10.1219
▁Pe	-10.122
kim	-10.1235
tü	-10.1238
Ph	-10.1245
▁klam	-10.1248
ebe	-10.1264
▁ltu	-10.1268
▁kırı	-10.1271
▁irad	-10.1276
▁dahi	-10.1306
arak	-10.1307
▁zalt	-10.1316
▁amp	-10.133
▁lidir	-10.1333
▁Ol	-10.1337
"	-10.1351
vra	-10.1384
▁rmey	-10.1403
▁netim	-10.1407
▁zler	-10.1414
,5	-10.1415
▁inli	-10.1423
▁gun	-10.1429
▁lom	-10.1438
▁Ham	-10.1439
▁karı	-10.1441
▁icar	-10.1454
▁ry	-10.1454
▁özü	-10.146
▁gay	-10.1493
ikir	-10.1499
▁rdo	-10.1502
▁rası	-10.1503
▁saya	-10.1508
▁iyo	-10.1513
▁arda	-10.1517
▁epe	-10.1524
▁kare	-10.1531
▁ayda	-10.1539
▁şeker	-10.1542
▁örü	-10.1547
▁şul	-10.1551
▁ild	-10.1567
▁yapar	-10.1571
▁ırs	-10.1587
kış	-10.1591
▁fır	-10.1612
san	-10.1614
▁dip	-10.1615
▁aspor	-10.1629
ME	-10.1634
▁ros	-10.1645
▁Co	-10.165
▁oşa	-10.1664
▁cum	-10.1671
▁faz	-10.1672
▁kut	-10.168
▁unc	-10.1707
▁orun	-10.171
▁kula	-10.1712
▁kova	-10.1734
▁dönü	-10.1735
▁ime	-10.1739
▁olda	-10.174
▁iyeti	-10.1766
▁ham	-10.1767
▁Erd	-10.1768
▁steri	-10.1786
▁irle	-10.1787
▁Yak	-10.1805
▁kab	-10.1808
▁ğim	-10.1808
▁xx	-10.1816
▁ista	-10.1821
▁Has	-10.1827
▁uğ	-10.1831
ür	-10.1842
▁viz	-10.1854
▁rını	-10.1855
▁tmak	-10.1862
▁rıyor	-10.1882
▁nımı	-10.1883
▁rduğ	-10.1894
ig	-10.1898
▁esto	-10.1898
▁eyn	-10.1907
▁arih	-10.1908
▁açlar	-10.1921
▁ekil	-10.1923
onu	-10.193
▁lent	-10.1945
ebeb	-10.1951
▁Diy	-10.1966
▁ümü	-10.1973
Y	-10.1979
▁öre	-10.198
ırmı	-10.198
▁sem	-10.1981
▁key	-10.1981
▁atır	-10.1993
▁î	-10.1999
▁che	-10.201
▁aylar	-10.201
▁urg	-10.2013
▁Hem	-10.2015
▁ova	-10.2016
▁rmesi	-10.2025
▁ldü	-10.2037
▁nam	-10.2047
hi	-10.2051
▁ersi	-10.2056
▁tadı	-10.2061
▁undu	-10.2062
▁LER	-10.2072
▁avra	-10.2084
▁zet	-10.2085
▁4.	-10.2097
▁üstün	-10.2102
▁ero	-10.2103
▁tand	-10.2105
▁enin	-10.2107
▁fak	-10.2107
luğ	-10.2114
sız	-10.2116
▁Ed	-10.2117
▁X	-10.2132
▁jan	-10.2136
ddia	-10.2141
▁aten	-10.2149
▁zu	-10.2154
▁Uy	-10.2155
▁ins	-10.2162
▁tra	-10.2163
▁ırıl	-10.2165
▁zde	-10.2173
▁venli	-10.2178
▁doğan	-10.2184
tih	-10.2189
▁vir	-10.219
▁muha	-10.2194
▁cam	-10.2201
▁form	-10.2214
▁ori	-10.2215
▁sik	-10.2228
▁arkı	-10.2244
▁ebe	-10.2265
▁esel	-10.2272
▁racak	-10.2284
▁bol	-10.2297
▁ngel	-10.2302
▁lak	-10.2312
▁ğin	-10.2324
▁uh	-10.235
▁isa	-10.2353
▁ksa	-10.2368
Ş	-10.238
▁KP	-10.2382
▁isy	-10.24
▁urd	-10.2403
▁yesi	-10.2404
▁Sp	-10.2417
▁sat	-10.2422
çı	-10.2423
▁ita	-10.2435
▁abu	-10.2435
▁45	-10.246
▁Te	-10.2477
▁heli	-10.2482
▁hız	-10.2482
▁bat	-10.2498
▁rom	-10.252
▁avi	-10.2534
▁val	-10.2536
be	-10.2538
▁ılır	-10.2566
▁rö	-10.2576
▁pol	-10.2581
▁ica	-10.2588
▁ilya	-10.2594
▁ikay	-10.2595
▁nede	-10.2595
▁ism	-10.2597
bu	-10.2606
▁çözü	-10.2614
▁yed	-10.2626
▁uluş	-10.265
▁baz	-10.2656
▁ekr	-10.2664
▁rj	-10.2675
▁üf	-10.2676
▁nv	-10.2684
▁reği	-10.2688
▁çu	-10.2702
▁rici	-10.2709
▁iko	-10.2714
▁amam	-10.2727
▁Ge	-10.2741
▁veri	-10.2745
▁emb	-10.275
▁kült	-10.2759
▁avaş	-10.2766
▁aza	-10.2773
▁line	-10.278
▁lok	-10.2781
HP	-10.2782
▁tura	-10.2782
▁nama	-10.2787
▁uyan	-10.2803
▁let	-10.2803
▁pe	-10.2806
vi	-10.2813
▁ğla	-10.2832
▁aht	-10.2834
▁akk	-10.2845
▁uro	-10.2845
▁go	-10.2847
▁edefi	-10.2858
▁aden	-10.2859
▁ind	-10.2868
▁oğa	-10.2874
TA	-10.2878
▁sya	-10.2883
▁şek	-10.2889
▁nci	-10.289
▁AA	-10.2892
▁ahve	-10.2918
▁araf	-10.2927
▁laka	-10.2942
▁tile	-10.2943
▁tılar	-10.2952
▁ayb	-10.2965
▁kenti	-10.2991
▁him	-10.2991
▁üş	-10.2995
▁nış	-10.3001
▁AR	-10.3007
▁Alt	-10.3011
▁nc	-10.3011
▁tad	-10.3017
▁amile	-10.3018
1	-10.3027
eyaz	-10.3029
▁kâ	-10.3031
▁Hale	-10.3037
▁mec	-10.304
▁lları	-10.3042
▁tarz	-10.3043
▁erdi	-10.3047
▁rur	-10.3053
▁msi	-10.3053
▁vak	-10.3064
AR	-10.3064
▁mp	-10.3099
▁ck	-10.3102
LE	-10.3107
▁oh	-10.3108
▁iğ	-10.3115
▁bis	-10.3122
▁ente	-10.3128
▁nst	-10.3135
▁SI	-10.3152
▁mara	-10.3154
go	-10.3164
▁siye	-10.3171
▁sed	-10.3186
▁tıldı	-10.3195
▁ihan	-10.3196
▁risi	-10.3197
▁Bak	-10.3202
ATO	-10.3214
▁şki	-10.322
▁rtada	-10.3221
▁pü	-10.3228
▁elesi	-10.3233
▁ug	-10.3247
▁oplu	-10.3255
tbol	-10.3259
▁misi	-10.3266
▁ks	-10.3275
▁beya	-10.3293
▁ıb	-10.3298
▁lup	-10.33
▁ydın	-10.3314
▁ift	-10.3328
▁ebebi	-10.333
▁Sen	-10.333
▁önü	-10.3342
▁ice	-10.335
land	-10.3352
▁uğu	-10.3359
▁maaş	-10.3369
▁prot	-10.3375
▁rebi	-10.3401
▁anta	-10.3407
▁ate	-10.3445
▁urun	-10.3447
▁elli	-10.3449
▁mse	-10.3465
ap	-10.3471
▁arsa	-10.3474
▁90	-10.3479
▁70	-10.3507
▁şler	-10.3521
▁og	-10.353
▁irin	-10.3531
oku	-10.3531
▁alla	-10.3534
▁vize	-10.3544
▁lme	-10.355
▁iha	-10.355
▁Şim	-10.3567
ub	-10.357
▁esli	-10.3574
▁stan	-10.3597
▁uşa	-10.3598
▁aşar	-10.3602
ga	-10.3603
▁olo	-10.3607
▁deme	-10.3612
▁hir	-10.3615
▁akıl	-10.3634
▁andal	-10.364
▁değ	-10.3641
▁İç	-10.3649
▁aga	-10.3692
▁edin	-10.3699
MA	-10.3704
▁eye	-10.3707
▁Ok	-10.3714
▁HP	-10.3723
▁Ci	-10.3728
▁rand	-10.3729
▁zin	-10.3736
▁çek	-10.3749
▁canl	-10.3774
▁üler	-10.3782
▁çar	-10.3782
▁dırma	-10.3785
▁lgi	-10.3788
▁âlâ	-10.38
▁arttı	-10.3801
▁tuz	-10.3829
▁ıç	-10.3829
po	-10.3836
▁tılı	-10.3842
-	-10.3852
▁apta	-10.3855
▁nüm	-10.3857
▁Şeh	-10.3865
▁Ken	-10.3866
▁sus	-10.3877
▁ışla	-10.3881
▁üsü	-10.3887
▁rz	-10.3887
▁Kom	-10.3891
▁ük	-10.3905
▁Sİ	-10.3912
▁lata	-10.3928
▁izyo	-10.3928
▁aral	-10.3933
▁ano	-10.3945
▁est	-10.3951
▁ıza	-10.3959
▁üzel	-10.3962
▁ast	-10.3984
▁mezu	-10.3987
▁üny	-10.3994
▁nluk	-10.3996
▁rolü	-10.3999
▁anse	-10.4012
▁34	-10.4015
▁aye	-10.4036
üphe	-10.404
▁rib	-10.4063
▁ahar	-10.4064
▁zen	-10.4069
▁Kadı	-10.408
▁Eş	-10.4081
▁erat	-10.4087
▁uncu	-10.4092
▁itle	-10.4094
▁alat	-10.4101
AT	-10.4107
▁maka	-10.411
▁ırk	-10.4112
▁rama	-10.4122
EN	-10.4124
▁eza	-10.4126
▁aşk	-10.4144
DI	-10.4147
▁tern	-10.415
▁tank	-10.4154
9	-10.416
▁yoğu	-10.4176
ruz	-10.4179
▁anç	-10.4179
▁mand	-10.4193
▁seyi	-10.4199
▁SK	-10.42
▁for	-10.4202
▁düz	-10.4211
▁ehir	-10.4211
▁80	-10.4222
▁oyunu	-10.4231
▁şka	-10.4236
▁On	-10.4237
▁alır	-10.4259
▁kme	-10.4263
▁elam	-10.4265
▁meyv	-10.4269
▁otom	-10.4271
▁kası	-10.4279
▁rar	-10.4283
ergi	-10.429
▁phe	-10.4321
▁ekin	-10.4327
▁müh	-10.4331
kımı	-10.4335
▁uv	-10.4341
▁gor	-10.4344
İT	-10.4347
▁lga	-10.4359
Ö	-10.4363
▁32	-10.4364
▁liz	-10.4367
▁CEO	-10.4379
▁ördü	-10.4407
▁alen	-10.4427
▁ağın	-10.4433
ğit	-10.4434
▁tim	-10.4444
▁zat	-10.445
▁ner	-10.4454
etic	-10.4466
▁öv	-10.4472
▁kta	-10.4479
▁ons	-10.4498
▁Qu	-10.4504
▁rlar	-10.4507
▁oya	-10.4516
ına	-10.4531
▁kont	-10.4539
▁uru	-10.4563
▁ydu	-10.4563
▁dol	-10.4568
▁şok	-10.4597
▁Tur	-10.4598
▁ikra	-10.46
▁üldü	-10.4608
▁ynadı	-10.4608
▁yip	-10.461
▁eşme	-10.4627
▁arıs	-10.4639
▁ağış	-10.4649
▁oo	-10.4675
▁rız	-10.468
▁arf	-10.4681
▁azar	-10.4688
▁add	-10.4689
▁ırsa	-10.47
▁iyan	-10.4712
RE	-10.4714
▁kemi	-10.4716
▁Rea	-10.4721
HY	-10.4757
▁erin	-10.4758
▁ilin	-10.4779
▁şof	-10.4787
ons	-10.4788
▁klık	-10.4788
▁çiler	-10.4794
▁aydı	-10.4796
▁grubu	-10.4801
▁nşa	-10.483
▁ens	-10.4841
mse	-10.4844
▁je	-10.4851
▁ener	-10.4866
▁nso	-10.487
oz	-10.487
▁str	-10.4898
▁türü	-10.4898
▁NA	-10.491
▁misa	-10.4914
▁Doğ	-10.4918
▁ibe	-10.492
▁lus	-10.4949
▁arke	-10.495
▁uf	-10.4954
▁tlama	-10.4965
▁usta	-10.4971
▁Tem	-10.4974
RT	-10.4978
▁YA	-10.4997
▁fik	-10.5003
▁ygu	-10.5016
▁ırı	-10.5051
ON	-10.5069
▁turdu	-10.5085
▁akla	-10.5092
▁Yu	-10.5098
▁yecek	-10.5116
▁IR	-10.5129
▁meni	-10.5129
ag	-10.5137
▁por	-10.5145
▁üni	-10.5149
▁oyn	-10.5165
▁tat	-10.5167
ton	-10.5179
▁ister	-10.518
▁Dir	-10.5202
▁+	-10.5203
▁ındı	-10.5213
▁sma	-10.5216
▁ksi	-10.5231
çık	-10.525
▁ürek	-10.526
▁üml	-10.5265
▁erisi	-10.5278
▁edek	-10.5289
▁niş	-10.5289
lmuş	-10.5294
▁raz	-10.531
GK	-10.5317
▁As	-10.5323
▁vas	-10.5326
▁laştı	-10.5333
▁yoktu	-10.5333
▁ipl	-10.5346
mam	-10.5346
▁arac	-10.5349
▁oks	-10.5363
▁nis	-10.5366
▁kül	-10.537
▁uruc	-10.5371
▁nşaa	-10.5378
▁imle	-10.5379
▁lerdi	-10.5386
▁urs	-10.5397
▁iliş	-10.5398
▁rba	-10.5398
▁ural	-10.5406
▁devr	-10.5414
DE	-10.5415
▁düğü	-10.5416
▁amle	-10.5417
▁mac	-10.5419
▁ığa	-10.5439
kem	-10.5453
AK	-10.5459
▁kele	-10.5462
▁bah	-10.5468
İK	-10.5469
İN	-10.5471
▁kus	-10.5474
▁pan	-10.5496
▁lad	-10.5497
▁*	-10.5521
▁hü	-10.5531
▁Th	-10.5536
▁vcı	-10.5536
▁luş	-10.5543
RA	-10.5544
▁lh	-10.5546
▁nmak	-10.5575
▁taba	-10.5582
▁urgu	-10.5583
▁rıs	-10.5587
▁arayı	-10.5592
▁bb	-10.5602
▁şef	-10.5613
▁afi	-10.5616
6	-10.5617
▁ettik	-10.5619
▁anıt	-10.562
▁kun	-10.562
▁akım	-10.5646
▁Kul	-10.5648
▁dli	-10.5662
▁erv	-10.5664
▁dini	-10.5675
▁ruyor	-10.568
▁ygı	-10.5692
▁çü	-10.5693
▁sanı	-10.5694
ing	-10.572
▁adem	-10.575
▁icra	-10.5754
▁vr	-10.5759
▁şir	-10.576
▁olar	-10.5761
▁kapı	-10.5779
▁tiya	-10.5784
▁sür	-10.5786
▁5.	-10.5813
yo	-10.5817
▁ncel	-10.5824
▁ali	-10.5825
▁rafik	-10.583
▁tein	-10.5836
▁irişi	-10.5842
▁arlı	-10.5849
▁öp	-10.5863
▁emin	-10.5866
ley	-10.5867
do	-10.587
▁irim	-10.5876
▁boy	-10.5889
▁kov	-10.5896
ül	-10.5914
rac	-10.5931
▁port	-10.5935
YK	-10.5939
▁osu	-10.594
tika	-10.5946
▁çın	-10.5949
60	-10.5953
▁tres	-10.596
▁dere	-10.5962
▁Med	-10.5968
ber	-10.5972
▁ahv	-10.5978
▁esir	-10.5998
▁miye	-10.6003
▁ırdı	-10.6009
▁zafer	-10.601
▁iri	-10.602
▁luğu	-10.6036
aç	-10.6069
▁enti	-10.608
▁dua	-10.6091
▁ğre	-10.6092
▁arz	-10.6117
SO	-10.6126
▁ndu	-10.6128
▁inen	-10.6168
▁roke	-10.6169
▁yeri	-10.6178
▁tabi	-10.6181
▁api	-10.6184
▁çıl	-10.6208
rem	-10.6208
▁LA	-10.6222
▁reti	-10.6226
▁llar	-10.6233
▁lamış	-10.6239
zah	-10.6245
riyo	-10.6247
▁çılar	-10.6247
▁apl	-10.6256
▁Vi	-10.6256
▁NI	-10.6269
▁rük	-10.6274
▁mb	-10.6278
▁uta	-10.6279
▁rtu	-10.6291
▁fre	-10.6291
▁iade	-10.6292
▁cek	-10.6316
▁kel	-10.632
▁Mİ	-10.6322
▁oma	-10.6333
piy	-10.6339
▁ty	-10.6345
▁spo	-10.6361
▁mad	-10.6371
ız	-10.6371
bo	-10.6376
▁laf	-10.638
▁luyor	-10.6382
▁şer	-10.639
▁atö	-10.6401
▁iyel	-10.6406
▁zıl	-10.6411
▁resi	-10.6414
▁şıl	-10.642
anlı	-10.6423
▁nadı	-10.6424
▁aldık	-10.6424
▁neği	-10.6425
▁36	-10.6426
▁ezon	-10.6435
30	-10.6435
8	-10.644
FF	-10.6443
▁ermi	-10.6456
▁ayım	-10.6467
▁izni	-10.6478
▁kaçı	-10.6479
▁tiyor	-10.6487
10	-10.6505
▁şi	-10.651
▁sek	-10.6521
▁irt	-10.6524
▁şun	-10.6532
▁Lİ	-10.654
▁33	-10.6549
▁kem	-10.655
eden	-10.6599
J	-10.6614
▁ıştı	-10.6629
▁tiler	-10.6638
fe	-10.6639
▁zli	-10.664
bi	-10.6645
▁6.	-10.6655
▁eçm	-10.6663
▁tıyor	-10.6664
▁dun	-10.6664
▁LE	-10.6665
▁AN	-10.6675
▁hâ	-10.6676
▁Kana	-10.6693
▁erde	-10.6706
Kİ	-10.671
▁rc	-10.6719
▁ırlı	-10.6724
▁nakl	-10.6727
▁rde	-10.6736
▁ilesi	-10.6742
▁nucu	-10.6744
akla	-10.676
Tİ	-10.6776
▁alil	-10.6778
▁ave	-10.6778
▁şk	-10.6784
▁lemek	-10.6797
▁orum	-10.6802
▁TÜRK	-10.6808
▁inir	-10.681
▁arc	-10.6817
▁cer	-10.6822
SK	-10.6825
▁rey	-10.6826
▁nüyor	-10.6843
▁kad	-10.6844
▁yad	-10.6848
▁Ege	-10.6871
▁AKP	-10.6885
▁lb	-10.6894
▁sp	-10.6895
▁ısın	-10.6903
▁ürme	-10.6928
▁tler	-10.6951
▁urdu	-10.6953
▁Üç	-10.6975
▁ER	-10.698
▁zle	-10.6988
fır	-10.6996
▁orman	-10.6999
lığı	-10.7014
ır	-10.7025
▁erha	-10.7036
▁ülü	-10.7041
▁Ağ	-10.7048
▁irdi	-10.7048
▁lla	-10.7056
zze	-10.7062
▁lüks	-10.7065
▁saba	-10.7074
▁ron	-10.708
:	-10.7087
▁nb	-10.709
▁erc	-10.71
▁ilke	-10.713
▁ide	-10.7132
▁ud	-10.7136
▁zesi	-10.7136
▁ill	-10.7136
▁üşü	-10.7142
▁lur	-10.7152
▁emem	-10.7156
▁TÜ	-10.7164
▁idir	-10.7186
DK	-10.7187
ARI	-10.7189
▁Dev	-10.7192
▁ns	-10.7195
▁rev	-10.7196
▁çin	-10.7199
▁Le	-10.7212
▁vat	-10.7214
▁ask	-10.7218
▁aro	-10.7237
▁onuç	-10.7239
dir	-10.7261
▁ulma	-10.7261
▁ato	-10.7269
▁dis	-10.7276
▁ğımı	-10.7278
SA	-10.7287
▁şiir	-10.729
▁mon	-10.7292
aciz	-10.7298
▁EN	-10.7303
▁nfe	-10.7305
DA	-10.731
▁ion	-10.7317
IN	-10.7322
▁turu	-10.7323
▁leti	-10.7324
▁UR	-10.7325
▁çer	-10.7325
▁DHA	-10.7332
muz	-10.7334
▁rist	-10.7337
▁ilde	-10.7345
plar	-10.7346
▁ilik	-10.735
liye	-10.7354
▁hav	-10.7381
▁tema	-10.7396
15	-10.7396
▁op	-10.7402
▁uydu	-10.7404
▁tap	-10.7417
▁elem	-10.7423
▁aca	-10.743
▁Tam	-10.7454
▁rf	-10.7455
▁112	-10.7459
▁rg	-10.7467
▁MA	-10.7473
▁cağı	-10.7483
▁redi	-10.751
▁Para	-10.7514
▁keşf	-10.7519
▁ğru	-10.752
▁vin	-10.7527
▁ılma	-10.7533
▁öb	-10.7542
▁jd	-10.7551
NE	-10.7555
▁ett	-10.757
▁arl	-10.7576
▁tla	-10.7624
▁vru	-10.7631
▁sam	-10.7652
▁Rİ	-10.7652
▁uk	-10.7653
'	-10.7654
▁ikna	-10.7657
▁Dİ	-10.7671
▁akti	-10.7675
▁th	-10.7677
▁Kı	-10.7695
▁ary	-10.7708
▁ost	-10.7713
▁zel	-10.7714
▁gan	-10.7714
▁dalar	-10.7718
▁VE	-10.7723
▁şkı	-10.7736
▁ves	-10.7738
OBİ	-10.774
40	-10.775
▁ocu	-10.7771
▁omut	-10.7772
▁hey	-10.7781
▁eke	-10.7784
▁gesi	-10.7785
▁idam	-10.7791
▁reme	-10.7793
▁itha	-10.7804
tçı	-10.7815
▁keti	-10.7816
▁neri	-10.783
ES	-10.784
SS	-10.7846
▁ço	-10.785
▁ft	-10.7856
▁65	-10.7866
▁engi	-10.7868
▁eksi	-10.789
▁inler	-10.7892
leme	-10.7913
▁AD	-10.7929
▁AY	-10.794
▁kom	-10.7941
▁dri	-10.7943
▁asta	-10.7952
▁ked	-10.7957
▁uri	-10.7959
uvv	-10.7963
▁orc	-10.7963
▁rafi	-10.7963
▁rın	-10.7971
▁akdi	-10.798
▁ekç	-10.7984
▁rya	-10.799
▁yg	-10.8008
▁1-0	-10.8009
▁tıp	-10.8016
▁◊	-10.8037
son	-10.8038
▁tama	-10.8052
ov	-10.8054
▁pra	-10.807
▁elal	-10.8072
▁akma	-10.808
▁abit	-10.808
▁etli	-10.8081
▁San	-10.8087
▁lib	-10.809
▁zak	-10.8094
▁tisi	-10.8096
▁fat	-10.8098
▁lah	-10.8111
▁syo	-10.8115
▁lattı	-10.812
ARA	-10.8131
BA	-10.815
▁arzu	-10.8151
ası	-10.8162
▁lum	-10.8203
▁our	-10.8206
▁Çal	-10.8214
▁Lo	-10.8218
▁tün	-10.825
▁ıyı	-10.8255
▁kâr	-10.826
▁zır	-10.827
▁kusu	-10.8277
▁tül	-10.8282
▁tre	-10.8294
▁şak	-10.8297
▁cell	-10.8326
▁kaz	-10.8354
W	-10.8356
▁ris	-10.8363
şin	-10.8363
▁nler	-10.8365
▁we	-10.8386
AŞ	-10.8401
▁ly	-10.8407
▁orcu	-10.8409
▁pis	-10.8418
▁LI	-10.8424
▁Din	-10.845
▁wa	-10.847
▁land	-10.8482
▁Fran	-10.8493
▁ette	-10.8495
▁ares	-10.8496
▁ABAH	-10.8499
▁erç	-10.8517
▁ırak	-10.8521
▁eral	-10.8523
▁Beş	-10.853
▁suçu	-10.8531
▁apo	-10.8565
▁ğun	-10.8568
▁esl	-10.8575
▁ahla	-10.8576
stro	-10.8582
▁Mal	-10.8582
ho	-10.8588
▁TE	-10.8589
▁rusu	-10.8601
▁yma	-10.8607
▁apar	-10.8614
▁pu	-10.8621
▁rlüğ	-10.8621
AM	-10.8622
▁zey	-10.8627
▁oğru	-10.8628
▁osun	-10.8632
▁tuk	-10.8633
▁küf	-10.8641
▁ilir	-10.8665
▁lif	-10.8666
▁Ho	-10.8667
imar	-10.8678
▁rga	-10.8681
▁ğdu	-10.8682
▁Fed	-10.8693
▁urma	-10.8696
;	-10.87
▁TSK	-10.8709
▁öndü	-10.8714
TE	-10.8723
▁Dil	-10.8728
▁umar	-10.8745
▁imar	-10.8745
▁pler	-10.8751
▁adis	-10.8752
▁sko	-10.8761
LI	-10.8762
▁çağr	-10.8763
▁eviy	-10.879
▁nmay	-10.8796
▁rna	-10.8819
▁sar	-10.882
▁Rum	-10.8837
msu	-10.8838
▁adir	-10.8856
▁küm	-10.886
▁fen	-10.8862
▁psi	-10.8874
▁vaki	-10.8875
ot	-10.8886
rgu	-10.889
▁vaka	-10.8904
▁rel	-10.8941
▁yh	-10.8945
▁ibar	-10.8959
80	-10.8961
▁illi	-10.8965
▁ES	-10.8965
▁tte	-10.8966
▁leşti	-10.8987
▁yları	-10.9
▁cular	-10.9013
▁inat	-10.9022
▁AL	-10.9023
▁yoruz	-10.9028
ver	-10.9037
▁ksu	-10.9054
▁aci	-10.906
▁ilt	-10.9061
▁obi	-10.9064
İM	-10.9102
▁ayd	-10.9107
▁75	-10.9113
▁opla	-10.9114
fat	-10.9115
▁Res	-10.9119
▁zar	-10.912
▁viye	-10.9121
▁lab	-10.9121
▁aram	-10.9124
▁emir	-10.9124
▁rülm	-10.9129
ERİ	-10.9129
▁isyan	-10.9144
▁ller	-10.9148
IR	-10.9153
UR	-10.9155
▁lüyor	-10.9161
▁arbo	-10.9167
▁açma	-10.9179
▁usa	-10.9188
▁ehl	-10.9192
▁rku	-10.9198
TAN	-10.9237
▁arit	-10.9269
▁aks	-10.9278
▁mart	-10.9287
▁slı	-10.9289
▁üb	-10.932
▁ylü	-10.9324
▁dy	-10.9324
▁sap	-10.9327
▁zih	-10.934
▁slar	-10.9343
▁kçi	-10.9346
▁kka	-10.9353
▁CAK	-10.9365
▁kup	-10.937
▁gü	-10.9375
▁iden	-10.9382
▁kafe	-10.9384
▁38	-10.9395
▁eşe	-10.9405
▁olduk	-10.941
▁48	-10.9413
▁ülme	-10.9441
▁öy	-10.9441
▁orlu	-10.945
▁süt	-10.9459
vir	-10.9461
▁ğme	-10.9462
▁aid	-10.9475
▁BA	-10.9494
▁kulu	-10.9505
▁şen	-10.9511
▁37	-10.9523
▁CİHAN	-10.9534
▁rumu	-10.9544
AP	-10.9573
Sİ	-10.9586
▁zara	-10.9586
▁rsan	-10.9592
▁Zaf	-10.9602
GS	-10.9607
▁enf	-10.9611
▁şeri	-10.9618
EK	-10.9626
▁lulu	-10.9658
▁niha	-10.9667
▁eng	-10.9673
▁lp	-10.9706
▁Fil	-10.9708
▁erm	-10.9721
▁iyes	-10.9737
▁lyo	-10.9737
▁idi	-10.9751
▁EM	-10.9755
▁lazı	-10.9758
▁isle	-10.9761
YA	-10.9767
▁zmi	-10.9771
AH	-10.9772
▁OHAL	-10.9775
mih	-10.9781
▁Kav	-10.9794
rrem	-10.9798
▁vil	-10.9809
▁İT	-10.9809
▁Var	-10.9812
ehdi	-10.9814
▁ehr	-10.9823
▁roğlu	-10.9834
▁TC	-10.9834
▁azan	-10.9855
TV	-10.9857
▁ilal	-10.986
▁aşım	-10.9863
▁Gar	-10.9865
▁#	-10.9873
▁brik	-10.9874
▁ormo	-10.9876
▁Ja	-10.988
▁sc	-10.9902
▁aça	-10.9907
▁44	-10.9908
▁55	-10.9919
AVM	-10.994
▁lmes	-10.9941
ültü	-10.9962
▁erji	-10.9972
▁çay	-10.9973
▁tun	-10.9979
▁hlı	-10.9987
▁şeb	-10.9989
▁derdi	-10.9994
▁kına	-11
▁ell	-11.0019
▁zg	-11.0035
▁gil	-11.0037
▁aksa	-11.0049
▁veda	-11.005
▁sto	-11.0052
î	-11.0057
▁Kol	-11.0065
▁kre	-11.0065
▁NE	-11.0066
oka	-11.0081
▁med	-11.0089
▁46	-11.0091
▁Tar	-11.0098
vo	-11.0103
▁irde	-11.011
je	-11.0121
▁akvim	-11.0121
▁lüm	-11.0127
▁udu	-11.013
▁leh	-11.014
▁7.	-11.0146
▁kod	-11.0147
CK	-11.0148
▁erya	-11.015
▁ej	-11.0167
▁oç	-11.0168
▁neg	-11.0179
▁şle	-11.018
▁ruz	-11.0183
▁42	-11.0184
▁Dic	-11.0189
AL	-11.019
mür	-11.02
TK	-11.0213
dro	-11.0215
▁vı	-11.0225
▁rgu	-11.0229
▁bı	-11.0239
▁lmas	-11.0248
▁şahi	-11.0256
▁Hü	-11.026
▁efa	-11.0279
▁2,	-11.0282
▁2-1	-11.0285
▁Say	-11.0286
▁asp	-11.029
▁edd	-11.0294
▁ahra	-11.0304
En	-11.0313
▁saf	-11.0316
▁ızlık	-11.0318
TI	-11.0339
70	-11.035
▁emri	-11.0391
▁olcu	-11.0396
▁nım	-11.0401
▁riş	-11.0407
▁enni	-11.0415
▁üd	-11.0421
▁ider	-11.0426
▁çısı	-11.0442
▁bür	-11.0442
IM	-11.0444
▁sim	-11.0451
▁yas	-11.0461
▁ekib	-11.0462
IK	-11.0476
▁uma	-11.0484
▁tta	-11.0486
▁arlık	-11.0502
▁81	-11.0521
▁·	-11.0533
▁Yıl	-11.0536
▁Şeri	-11.0536
▁53	-11.054
▁2-0	-11.0546
▁lda	-11.0547
▁39	-11.0549
▁NDA	-11.0551
▁many	-11.0552
▁Ban	-11.0552
▁şçi	-11.0555
▁TA	-11.0556
▁etle	-11.0557
▁RA	-11.0568
▁tas	-11.0568
▁zon	-11.0573
NA	-11.0575
▁biyet	-11.0577
TC	-11.0581
▁zirve	-11.0588
▁eren	-11.0601
▁47	-11.0605
▁1,	-11.0612
kti	-11.0613
xy	-11.0624
▁antı	-11.0632
▁esa	-11.0644
▁ahı	-11.065
▁41	-11.066
UN	-11.0661
▁tlar	-11.0688
▁Hat	-11.0702
▁cen	-11.0714
▁HS	-11.0721
▁koç	-11.0724
sını	-11.074
▁acm	-11.0762
▁edeb	-11.0771
▁idra	-11.0781
▁nto	-11.0784
▁nakli	-11.0785
▁evet	-11.079
▁erzi	-11.0807
▁eyla	-11.0808
▁AYM	-11.0813
▁seni	-11.0847
▁kanı	-11.0865
▁opra	-11.0866
▁menin	-11.0888
▁tom	-11.0893
▁ğrı	-11.0908
▁iydi	-11.091
▁ğlı	-11.0912
▁rüş	-11.0923
▁ps	-11.0926
▁nmey	-11.0929
▁rla	-11.0937
▁tatü	-11.0948
▁İŞ	-11.0953
▁ult	-11.096
▁idma	-11.0961
̈	-11.0962
▁iteli	-11.0969
▁Bizi	-11.0975
▁bru	-11.098
▁züm	-11.0988
▁evd	-11.0996
yon	-11.1016
▁üh	-11.1023
deal	-11.1026
▁ABER	-11.1034
▁tle	-11.1044
▁eyha	-11.1046
▁amer	-11.1051
▁ngi	-11.1055
▁ME	-11.106
▁ahm	-11.1095
▁ubu	-11.1126
▁Ala	-11.1134
▁arta	-11.1139
▁72	-11.1157
eç	-11.1167
DU	-11.117
TÜ	-11.1174
▁kısm	-11.1178
rısı	-11.1186
▁ulun	-11.1191
▁TAK	-11.1201
▁eyr	-11.1205
TT	-11.1205
▁eynir	-11.1207
▁şke	-11.1207
▁Jos	-11.121
▁taç	-11.1211
▁rtla	-11.1224
▁Ni	-11.1225
▁ariç	-11.1245
▁LGİL	-11.1245
erdi	-11.1266
HK	-11.1275
▁nmadı	-11.1296
ucu	-11.1303
▁Kaf	-11.1305
▁Nu	-11.1311
▁dili	-11.1312
▁işkin	-11.1316
▁43	-11.132
▁Aşk	-11.1321
▁AP	-11.1326
▁çlar	-11.1328
▁Bel	-11.1338
▁Ker	-11.1339
▁arg	-11.1339
▁rasy	-11.1344
IFA	-11.1345
▁ültü	-11.1348
▁lon	-11.1378
▁ls	-11.1398
▁ew	-11.1403
iye	-11.1405
IZ	-11.141
▁ahri	-11.1419
▁nedi	-11.1424
las	-11.1428
▁essi	-11.1428
▁Kap	-11.1434
▁Lok	-11.1435
sil	-11.144
▁lüğ	-11.1443
▁zm	-11.1447
KA	-11.1448
▁AS	-11.145
▁Şii	-11.1453
▁ifi	-11.1462
▁rür	-11.149
▁imal	-11.1493
▁üzey	-11.1497
▁olmu	-11.1501
25	-11.1503
pse	-11.1516
▁rtak	-11.1524
OS	-11.1524
▁BİR	-11.1526
▁′	-11.1528
SE	-11.1531
ST	-11.1555
▁hb	-11.1575
▁ığın	-11.1586
▁andaş	-11.1592
▁riye	-11.1593
▁ifl	-11.1597
▁yağı	-11.1604
IA	-11.1611
▁masu	-11.162
ow	-11.1632
▁ndır	-11.1643
▁zla	-11.1647
▁rmu	-11.1655
▁İN	-11.1656
▁Hay	-11.1671
▁tomo	-11.1675
▁cisi	-11.1675
üf	-11.1676
İS	-11.1681
▁ass	-11.1684
▁tok	-11.17
▁şim	-11.1704
▁ndü	-11.1732
DO	-11.1757
▁zal	-11.1759
▁52	-11.1767
▁sra	-11.178
wa	-11.1784
▁ont	-11.1808
▁mür	-11.1809
▁hur	-11.1812
▁rus	-11.1815
▁tweet	-11.1819
DV	-11.1827
▁Nİ	-11.1827
▁sti	-11.1831
▁loj	-11.1851
▁desi	-11.1851
▁fed	-11.1861
▁eyni	-11.1861
PO	-11.1866
âh	-11.1877
▁ario	-11.1878
▁adil	-11.1886
▁rv	-11.1886
▁RI	-11.1888
▁kşam	-11.1892
▁uçu	-11.1916
▁ranı	-11.1923
İŞ	-11.1927
▁GB	-11.1966
▁kaş	-11.1971
▁güze	-11.1982
LER	-11.2019
▁Kİ	-11.203
▁DI	-11.2041
▁isk	-11.2042
▁EK	-11.2043
▁alay	-11.2052
▁omba	-11.2065
ayı	-11.2069
▁tira	-11.2072
▁EL	-11.2089
▁Zar	-11.2094
ikro	-11.2095
▁edavi	-11.2125
▁ayk	-11.2141
▁ets	-11.2151
İB	-11.2177
▁alta	-11.2189
▁pre	-11.221
▁erb	-11.2215
ang	-11.2215
▁amla	-11.2225
▁ess	-11.2227
▁hit	-11.2234
▁Tİ	-11.2242
▁açın	-11.2245
▁list	-11.2265
▁anik	-11.228
▁zü	-11.2291
▁üke	-11.2296
▁mizle	-11.2311
▁apsa	-11.2312
▁güc	-11.232
▁ımın	-11.2325
▁ahr	-11.2325
▁nav	-11.2327
▁3,	-11.2335
▁iral	-11.2338
▁ric	-11.2345
UZ	-11.235
▁andır	-11.2351
▁emil	-11.2357
ınd	-11.2363
▁air	-11.2369
▁oro	-11.2373
hşe	-11.2376
▁akip	-11.2399
▁levi	-11.2433
▁şü	-11.2439
▁rüz	-11.2471
▁ipa	-11.2502
üncü	-11.2533
▁siyo	-11.254
▁baka	-11.2556
▁menf	-11.2563
▁xxx	-11.2564
▁lişi	-11.257
▁baha	-11.2574
▁ayna	-11.2593
▁tez	-11.2603
▁köp	-11.2612
▁ıta	-11.2624
▁öç	-11.2633
▁Mor	-11.2651
▁TMS	-11.2652
▁Şek	-11.2662
Ne	-11.267
▁opu	-11.2673
Şu	-11.268
▁acağ	-11.2684
▁ED	-11.27
▁8.	-11.2716
▁emel	-11.2724
üri	-11.2731
-5	-11.2738
▁ünni	-11.2742
mes	-11.2745
▁DAN	-11.2745
▁51	-11.2745
CA	-11.2754
▁zlar	-11.2757
▁the	-11.2764
▁vahş	-11.2777
▁ciro	-11.2781
▁kip	-11.2785
▁ırp	-11.2788
EL	-11.2793
ünü	-11.2801
ED	-11.2803
DÜ	-11.2806
▁54	-11.2812
▁@	-11.2823
eşif	-11.2823
▁aştı	-11.2827
▁Mak	-11.285
▁atür	-11.2854
▁vakt	-11.2854
-4	-11.2855
▁üme	-11.2874
▁çel	-11.2905
▁şere	-11.2925
▁müsa	-11.294
▁şov	-11.297
▁Nit	-11.2979
▁bra	-11.2992
▁hela	-11.2997
▁aps	-11.2998
▁arko	-11.3
▁Q	-11.3002
▁vni	-11.3003
▁gra	-11.3005
▁şük	-11.302
▁5,	-11.302
▁arç	-11.3023
▁idan	-11.3025
▁fiy	-11.303
▁alin	-11.3047
▁56	-11.305
▁İZ	-11.3054
sip	-11.3061
og	-11.3062
▁85	-11.3064
umlu	-11.3075
▁leks	-11.3079
▁üzi	-11.3081
▁org	-11.3083
▁Sol	-11.3093
▁9.	-11.3105
▁vor	-11.3114
Rİ	-11.3146
90	-11.3176
▁kro	-11.3197
▁Men	-11.3208
BB	-11.321
▁çoğ	-11.3214
▁üsl	-11.3225
▁yede	-11.3226
▁flaş	-11.3242
▁lg	-11.3243
▁CEK	-11.3246
ÜN	-11.325
LAR	-11.3257
anşe	-11.3273
▁irme	-11.3286
▁amil	-11.3304
▁yası	-11.3332
▁elg	-11.3333
▁omu	-11.3334
▁POR	-11.3379
▁erh	-11.338
▁takı	-11.3415
VA	-11.3416
har	-11.342
▁kabu	-11.3422
▁Don	-11.3432
▁Ğİ	-11.3436
▁4,	-11.3438
▁detti	-11.344
▁rüya	-11.3451
▁terl	-11.3465
▁aşta	-11.3468
KI	-11.3472
▁klü	-11.3479
▁lex	-11.349
▁78	-11.352
Mİ	-11.3521
▁cra	-11.3529
AS	-11.3531
▁cas	-11.3532
▁eyre	-11.3532
▁Op	-11.3541
▁sün	-11.3541
▁Jame	-11.3544
X	-11.3563
▁lih	-11.3577
▁hbar	-11.3582
▁hmet	-11.3585
▁lya	-11.3586
▁6,	-11.3626
AY	-11.3628
▁ürd	-11.3636
▁Los	-11.3637
▁unv	-11.3649
▁infi	-11.3658
▁zihi	-11.3659
▁Jac	-11.3665
▁ON	-11.3666
Dİ	-11.3669
▁Hol	-11.3681
▁avr	-11.3691
flas	-11.3696
▁MI	-11.3699
ÖK	-11.3706
!	-11.3707
▁şaka	-11.3708
▁ENİ	-11.3715
▁amir	-11.3718
▁ALI	-11.372
▁ruldu	-11.3721
▁şin	-11.3722
▁rehi	-11.3735
▁lini	-11.3736
▁Bö	-11.3739
▁OS	-11.3744
▁49	-11.3755
▁ams	-11.3763
▁rimi	-11.3772
▁Tel	-11.3776
▁diyo	-11.3778
▁Ron	-11.378
eck	-11.3782
▁ibi	-11.3784
▁kaf	-11.3793
▁RE	-11.3801
▁10.	-11.3804
▁aiz	-11.3804
▁2-3	-11.3811
▁ilg	-11.3825
BI	-11.3826
▁adde	-11.3828
▁röv	-11.3829
▁olf	-11.3833
▁63	-11.3839
▁aluk	-11.384
LU	-11.3852
▁rsun	-11.3868
▁BBC	-11.3893
▁Gal	-11.3894
▁Net	-11.3928
▁zis	-11.393
▁yakı	-11.3931
▁dirim	-11.3937
▁fyo	-11.3943
▁rvi	-11.3946
▁veli	-11.3946
▁Fid	-11.395
▁Gazz	-11.395
ANI	-11.3951
▁58	-11.397
of	-11.3972
▁iev	-11.3978
CI	-11.3991
▁estek	-11.3995
▁Paul	-11.4014
▁Sosa	-11.4019
▁meti	-11.4032
▁ahim	-11.4034
▁tmiş	-11.4044
▁ansu	-11.4061
▁car	-11.4064
▁TOK	-11.4074
▁çağı	-11.4079
cro	-11.4081
▁Mis	-11.4098
▁ecza	-11.4098
▁okra	-11.4101
▁Yok	-11.4109
▁3'	-11.4117
▁oni	-11.4122
▁SE	-11.4122
▁lki	-11.4126
▁Ver	-11.4135
▁66	-11.4152
▁79	-11.4156
▁aw	-11.4165
▁uld	-11.4167
▁limi	-11.4208
bal	-11.4214
▁elih	-11.4237
mik	-11.4244
NG	-11.4245
▁bez	-11.4246
▁emur	-11.4249
▁yev	-11.426
▁nist	-11.4261
İZ	-11.4262
▁BUL	-11.4273
▁aşam	-11.4286
▁saç	-11.4287
▁Gol	-11.4303
▁pri	-11.4305
▁ozu	-11.4305
▁nse	-11.4307
.2	-11.4314
▁ÖSY	-11.4316
▁emli	-11.4327
▁kabi	-11.4331
▁çö	-11.434
▁cala	-11.4341
OL	-11.4343
▁ja	-11.4345
rsin	-11.4354
ATA	-11.4384
▁raca	-11.4386
▁satı	-11.439
▁Kıv	-11.4396
▁FAD	-11.4397
▁İHA	-11.4401
▁Bat	-11.4413
▁DEN	-11.4415
▁uça	-11.4426
▁59	-11.4434
▁mpa	-11.4459
▁rca	-11.447
İKA	-11.4487
▁AT	-11.4502
▁nara	-11.4511
▁NDE	-11.4533
▁İR	-11.4534
▁alim	-11.4549
▁LMA	-11.4551
▁omo	-11.456
▁Yar	-11.4562
▁Kos	-11.4574
▁LG	-11.4577
▁rsa	-11.4593
▁imaj	-11.4595
▁lumu	-11.4596
▁KK	-11.4598
16	-11.4619
▁EV	-11.462
lif	-11.4631
▁mates	-11.4631
▁OL	-11.4632
▁merh	-11.4632
▁uka	-11.4661
▁11.	-11.469
▁tlu	-11.4699
q	-11.4706
▁62	-11.4708
VE	-11.475
14	-11.475
▁ladık	-11.4756
▁evda	-11.4757
▁etler	-11.4762
ÜK	-11.4774
▁Pala	-11.4774
MB	-11.4795
▁ravm	-11.4809
▁ÜR	-11.4815
▁şika	-11.484
TO	-11.4846
▁emd	-11.485
▁irb	-11.4851
▁tıbb	-11.487
▁tıka	-11.4884
▁Meh	-11.49
▁Diva	-11.4915
▁SA	-11.4923
▁İz	-11.4924
▁amlı	-11.4928
▁toz	-11.4943
▁ulu	-11.495
▁AM	-11.4951
▁ruma	-11.4951
▁Ref	-11.4957
MS	-11.4964
▁II	-11.4973
▁hel	-11.4975
▁5'	-11.4979
▁cısı	-11.4983
▁teyi	-11.4984
mis	-11.4985
▁enci	-11.5029
▁KA	-11.5034
▁VAR	-11.504
▁iddet	-11.5044
LÜ	-11.5062
▁hami	-11.5068
▁arri	-11.5097
▁aptı	-11.5116
▁raga	-11.512
▁inlik	-11.512
▁cid	-11.5131
▁mega	-11.5142
▁Şafa	-11.5181
ZE	-11.5185
▁69	-11.5186
▁57	-11.52
▁Dile	-11.521
▁rsin	-11.5223
▁argo	-11.5228
pp	-11.523
▁rneğ	-11.5256
▁1'	-11.5275
▁Şeyh	-11.528
▁ino	-11.5283
▁lip	-11.5286
▁ph	-11.529
▁inik	-11.5295
UT	-11.5299
ET	-11.5304
itiz	-11.5311
▁PF	-11.5319
▁zme	-11.5319
SM	-11.5319
▁aff	-11.5323
▁lli	-11.5326
▁Hami	-11.5333
▁68	-11.5338
▁vg	-11.5354
▁üdür	-11.5354
▁ahmi	-11.5363
̧	-11.5365
▁elfi	-11.5366
▁LDI	-11.5383
şiv	-11.5396
11	-11.5401
▁mus	-11.5403
rıl	-11.5408
laj	-11.5417
▁kef	-11.544
▁oj	-11.5452
▁7,	-11.5454
▁82	-11.5462
▁eze	-11.547
▁hid	-11.5477
0	-11.5493
SB	-11.5493
▁ipo	-11.5503
▁bula	-11.5532
▁ıdır	-11.5538
▁ırrı	-11.5542
▁Kış	-11.5549
manı	-11.555
▁MEB	-11.5557
RS	-11.556
▁Haf	-11.5563
▁fel	-11.5566
▁zade	-11.5572
▁ezer	-11.5581
28	-11.5585
MI	-11.56
TAŞ	-11.56
▁67	-11.5603
▁term	-11.5608
▁alib	-11.5615
▁zlu	-11.5621
▁atip	-11.5628
tığı	-11.5635
▁jet	-11.5641
▁adyo	-11.5649
▁zge	-11.5683
▁Şükr	-11.5683
koz	-11.5707
▁DHKP	-11.5711
▁71	-11.5713
▁mpar	-11.5749
ff	-11.5757
▁Sab	-11.576
▁Dü	-11.5796
▁lecek	-11.5801
▁Lui	-11.5822
▁Rio	-11.5881
▁sefe	-11.5881
▁ŞI	-11.5893
▁karm	-11.5895
▁alit	-11.59
▁reğ	-11.5914
▁83	-11.5934
▁mlak	-11.5939
▁TEM	-11.5939
API	-11.594
▁tezi	-11.5957
▁12.	-11.5975
NN	-11.5976
Bİ	-11.5984
▁afa	-11.5989
▁ows	-11.6
▁64	-11.6012
▁iyar	-11.6035
▁vler	-11.6045
▁tih	-11.6048
PA	-11.605
▁kili	-11.606
▁Mit	-11.6064
stil	-11.6066
▁Lis	-11.6076
▁que	-11.6078
▁zeka	-11.6079
▁evz	-11.6095
kah	-11.6128
▁ndo	-11.6145
BE	-11.6152
▁cza	-11.6177
ASA	-11.6193
▁Kere	-11.6219
▁BİN	-11.6225
▁Uz	-11.624
▁jen	-11.6242
▁Tah	-11.6248
▁(2)	-11.6254
▁rica	-11.6274
-6	-11.6287
▁row	-11.63
dyo	-11.6303
▁sef	-11.6314
meye	-11.632
▁ğd	-11.6345
▁enid	-11.6355
▁Bas	-11.6358
.6	-11.6362
▁opa	-11.6371
▁1-1	-11.6373
▁afı	-11.6376
▁zlık	-11.6383
▁akli	-11.6384
▁İLE	-11.6404
zgâ	-11.6416
▁8,	-11.6423
MF	-11.6423
SI	-11.6428
▁IK	-11.6434
▁orno	-11.6439
amb	-11.6439
▁anto	-11.6442
▁kledi	-11.6445
▁pool	-11.6445
▁LDU	-11.6452
ÇİN	-11.6455
▁Je	-11.6471
▁ücü	-11.6474
OR	-11.6493
▁Çek	-11.6498
ix	-11.6499
sül	-11.65
▁GE	-11.6518
lama	-11.6526
AZ	-11.6529
▁ötü	-11.6535
▁elç	-11.6563
12	-11.6573
▁gre	-11.6582
35	-11.6596
▁hük	-11.6633
▁efer	-11.6636
17	-11.6637
▁3-1	-11.6644
▁Şere	-11.6659
▁61	-11.666
▁4'	-11.6662
ADE	-11.6669
bet	-11.6674
▁Bah	-11.6678
GEB	-11.6687
▁Har	-11.6689
▁vis	-11.6708
▁fav	-11.6712
▁lav	-11.6716
▁STE	-11.6719
▁nli	-11.6732
▁şair	-11.6741
▁inov	-11.6756
99	-11.6759
▁uba	-11.6759
▁nakil	-11.6768
▁hed	-11.6769
ekân	-11.6784
▁ood	-11.6789
▁izem	-11.679
▁Fas	-11.681
MAN	-11.681
▁ex	-11.6823
rj	-11.6831
▁73	-11.6838
▁iğne	-11.6842
▁uard	-11.6843
▁fesh	-11.6853
▁URU	-11.6868
BP	-11.6883
▁arif	-11.6906
▁ywood	-11.6928
▁nsar	-11.694
▁20.	-11.6945
▁İK	-11.6961
▁ajı	-11.6962
▁şini	-11.6964
▁ston	-11.6967
18	-11.6981
▁eşti	-11.6986
▁reler	-11.6997
▁Jet	-11.7001
▁erso	-11.7015
NYA	-11.7017
▁tleri	-11.7017
▁aciz	-11.7019
▁1-2	-11.7028
▁ORU	-11.7034
▁alyo	-11.7061
▁file	-11.7062
▁poşe	-11.7071
▁muci	-11.7081
▁ope	-11.7082
▁üdü	-11.7082
▁urb	-11.7122
▁bö	-11.7124
▁zım	-11.7128
21	-11.7141
ach	-11.7145
UK	-11.7175
EM	-11.7182
▁htiy	-11.7183
▁TSİ	-11.7199
▁14.	-11.7206
Çİ	-11.7207
▁4-	-11.7226
mur	-11.723
▁1-	-11.7237
▁TÜB	-11.7238
▁ıtı	-11.7246
▁YOK	-11.7246
▁enja	-11.726
▁ahran	-11.7263
▁Şef	-11.7289
▁ony	-11.7309
▁3-	-11.7314
▁ube	-11.7322
▁imdi	-11.7325
13	-11.7329
û	-11.7333
▁jou	-11.7334
▁Koza	-11.7338
eyve	-11.7344
▁şoku	-11.7347
▁ŞTI	-11.7348
▁OD	-11.7359
▁anyo	-11.7366
▁erme	-11.741
▁zze	-11.7437
▁iva	-11.7443
▁erkü	-11.7451
▁tiba	-11.7452
▁ulüb	-11.7456
▁ella	-11.7467
▁elsea	-11.7474
▁ivme	-11.7479
▁Vah	-11.748
▁TT	-11.7483
65	-11.7487
YAR	-11.7489
▁tiğ	-11.75
▁Veda	-11.7503
▁IN	-11.7518
▁89	-11.7521
▁stro	-11.7535
▁keyif	-11.7543
▁ktır	-11.7547
▁nomi	-11.7572
▁88	-11.7573
▁şö	-11.7573
▁biye	-11.7577
▁rfa	-11.7578
▁84	-11.7578
▁abbi	-11.758
▁76	-11.7613
▁tw	-11.762
utin	-11.7627
▁aric	-11.7656
▁Luc	-11.7658
▁apri	-11.766
01	-11.7663
▁ızlı	-11.7678
RI	-11.7689
▁rkes	-11.7743
atbi	-11.775
▁şahs	-11.7756
▁amc	-11.7771
▁15.	-11.7774
UL	-11.7778
▁ekli	-11.7783
▁rarl	-11.7785
▁Kud	-11.7797
▁asyo	-11.7828
▁16.	-11.7831
tah	-11.7836
▁ONU	-11.7838
RO	-11.7843
vad	-11.7845
▁piya	-11.7857
▁rone	-11.7866
▁LYON	-11.7866
▁EZA	-11.787
SV	-11.7884
CU	-11.7896
▁lde	-11.795
▁2-	-11.7954
▁One	-11.7956
41	-11.797
▁86	-11.7982
▁Tra	-11.7984
▁keli	-11.7984
▁yva	-11.7986
▁beyli	-11.7987
▁olisi	-11.7993
▁zab	-11.7994
▁Tip	-11.7995
▁üğün	-11.7995
▁laik	-11.8002
kos	-11.8002
▁tatm	-11.8007
▁rij	-11.801
▁Tri	-11.8017
▁lmuş	-11.8026
▁77	-11.8064
▁faka	-11.8066
FA	-11.8079
▁lke	-11.8093
▁limon	-11.8093
▁Jean	-11.8105
▁irmi	-11.8128
PD	-11.8131
75	-11.815
▁LU	-11.8154
▁terc	-11.8169
İŞİ	-11.8205
▁TİM	-11.8206
▁EY	-11.8209
ylo	-11.8209
▁mede	-11.8226
AB	-11.8243
▁74	-11.8246
IP	-11.8249
▁Sö	-11.8261
▁OLA	-11.8272
̇	-11.8313
▁kûm	-11.8314
▁ldı	-11.8318
▁ceği	-11.8328
▁eldi	-11.8338
▁ülte	-11.8341
RDİ	-11.8345
MK	-11.8353
▁traj	-11.8368
▁EDİ	-11.8382
igür	-11.8383
▁Jer	-11.8397
▁akib	-11.8402
▁lef	-11.8411
/	-11.8414
▁şandı	-11.8429
▁zdı	-11.8435
sup	-11.8438
▁LTI	-11.8446
▁ÖNE	-11.8452
▁emsa	-11.8454
23	-11.8454
▁Cİ	-11.8462
▁OLU	-11.8463
▁MÜS	-11.8471
▁sse	-11.8478
▁ralı	-11.8492
▁zulm	-11.8575
▁uplar	-11.8582
-0	-11.8584
▁muka	-11.8587
▁ARI	-11.8591
SG	-11.8616
▁Kem	-11.862
▁gey	-11.8628
▁Pir	-11.8632
AD	-11.8632
▁NKARA	-11.8662
apur	-11.8675
▁Kaba	-11.8678
36	-11.8684
▁Mid	-11.8706
▁YAŞ	-11.8721
▁reen	-11.8736
▁13.	-11.8742
é	-12.0761
>	-12.5772
Q	-12.6252
°	-12.6522
а	-12.7056
ˆ	-12.9185
′	-12.9873
ə	-12.9887
+	-13.0243
á	-13.0257
*	-13.0628
е	-13.1893
¦	-13.385
ä	-13.385
`	-13.4392
̆	-13.4406
%	-13.498
¥	-13.5619
ó	-13.6286
ñ	-13.7769
€	-13.7769
í	-13.9512
\	-14.0512
	-14.0512
å	-14.1623
¬	-14.1623
⁄	-14.1623
■	-14.4301
×	-14.5968
¡	-15.0468
®	-15.0468
ï	-15.0468
ø	-15.0468
ú	-15.0468
ć	-15.0468
⭐	-15.0468
️	-15.0468
]	-15.3787
о	-15.3801
^	-15.3801
£	-15.3801
Ä	-15.3801
à	-15.3801
●	-15.3801
🇷	-15.3801
🇹	-15.3801
	-15.8801
É	-15.8801
ß	-15.8801
ã	-15.8801
ƒ	-15.8801
α	-15.8801
і	-15.8801
د	-15.8801
س	-15.8801
ي	-15.8801
‬	-15.8801
∂	-15.8801
☮	-15.8801
👍	-15.8801
ل	-15.8802
و	-15.8802
ا	-16.8786
Î	-16.8787
æ	-16.8788
ê	-16.8789
è	-16.879
[	-16.8791
_	-16.8792
=	-16.8793
Â	-16.8794
$	-16.8795
•	-16.8796
@	-16.8797
·	-16.8798
#	-16.8799
◊	-16.88
Ğ	-16.8801
μ	-16.8801
~	-16.8801
	-16.8801
Å	-16.8801
Ñ	-16.8801
Ø	-16.8801
Û	-16.8801
ë	-16.8801
ē	-16.8801
ł	-16.8801
к	-16.8801
н	-16.8801
п	-16.8801
с	-16.8801
т	-16.8801
у	-16.8801
ة	-16.8801
ر	-16.8801
ق	-16.8801
م	-16.8801
ن	-16.8801
‫	-16.8801
›	-16.8801
🏆	-16.8801
🏻	-16.8801
👑	-16.8801
💋	-16.8801
💧	-16.8801
💰	-16.8801
😁	-16.8801
😊	-16.8801
ù	-16.8802
(	-16.8802
Л	-16.8802
ح	-16.8802
غ	-16.8802
