{
  "version": "1.0",
  "truncation": null,
  "padding": null,
  "added_tokens": [
    {
      "id": 0,
      "content": "[UNK]",
      "single_word": false,
      "lstrip": false,
      "rstrip": false,
      "normalized": false,
      "special": true
    },
    {
      "id": 1,
      "content": "[CLS]",
      "single_word": false,
      "lstrip": false,
      "rstrip": false,
      "normalized": false,
      "special": true
    },
    {
      "id": 2,
      "content": "[SEP]",
      "single_word": false,
      "lstrip": false,
      "rstrip": false,
      "normalized": false,
      "special": true
    },
    {
      "id": 3,
      "content": "[PAD]",
      "single_word": false,
      "lstrip": false,
      "rstrip": false,
      "normalized": false,
      "special": true
    },
    {
      "id": 4,
      "content": "[MASK]",
      "single_word": false,
      "lstrip": false,
      "rstrip": false,
      "normalized": false,
      "special": true
    }
  ],
  "normalizer": {
    "type": "Sequence",
    "normalizers": [
      {
        "type": "NFKC"
      },
      {
        "type": "Lowercase"
      }
    ]
  },
  "pre_tokenizer": {
    "type": "Whitespace"
  },
  "post_processor": null,
  "decoder": {
    "type": "WordPiece",
    "prefix": "##",
    "cleanup": true
  },
  "model": {
    "type": "WordPiece",
    "unk_token": "[UNK]",
    "continuing_subword_prefix": "##",
    "max_input_chars_per_word": 100,
    "vocab": {
      "[UNK]": 0,
      "[CLS]": 1,
      "[SEP]": 2,
      "[PAD]": 3,
      "[MASK]": 4,
      "!": 5,
      "\"": 6,
      "#": 7,
      "$": 8,
      "%": 9,
      "&": 10,
      "'": 11,
      "(": 12,
      ")": 13,
      "*": 14,
      "+": 15,
      ",": 16,
      "-": 17,
      ".": 18,
      "/": 19,
      "0": 20,
      "1": 21,
      "2": 22,
      "3": 23,
      "4": 24,
      "5": 25,
      "6": 26,
      "7": 27,
      "8": 28,
      "9": 29,
      ":": 30,
      ";": 31,
      "=": 32,
      ">": 33,
      "?": 34,
      "@": 35,
      "[": 36,
      "\\": 37,
      "]": 38,
      "^": 39,
      "_": 40,
      "`": 41,
      "a": 42,
      "b": 43,
      "c": 44,
      "d": 45,
      "e": 46,
      "f": 47,
      "g": 48,
      "h": 49,
      "i": 50,
      "j": 51,
      "k": 52,
      "l": 53,
      "m": 54,
      "n": 55,
      "o": 56,
      "p": 57,
      "q": 58,
      "r": 59,
      "s": 60,
      "t": 61,
      "u": 62,
      "v": 63,
      "w": 64,
      "x": 65,
      "y": 66,
      "z": 67,
      "~": 68,
      "": 69,
      "": 70,
      "": 71,
      "": 72,
      "¡": 73,
      "£": 74,
      "¥": 75,
      "¦": 76,
      "¬": 77,
      "­": 78,
      "®": 79,
      "°": 80,
      "·": 81,
      "×": 82,
      "ß": 83,
      "à": 84,
      "á": 85,
      "â": 86,
      "ã": 87,
      "ä": 88,
      "å": 89,
      "æ": 90,
      "ç": 91,
      "è": 92,
      "é": 93,
      "ê": 94,
      "ë": 95,
      "í": 96,
      "î": 97,
      "ï": 98,
      "ñ": 99,
      "ó": 100,
      "ö": 101,
      "ø": 102,
      "ù": 103,
      "ú": 104,
      "û": 105,
      "ü": 106,
      "ć": 107,
      "ē": 108,
      "ğ": 109,
      "ı": 110,
      "ł": 111,
      "ş": 112,
      "ƒ": 113,
      "ə": 114,
      "ˆ": 115,
      "̇": 116,
      "̈": 117,
      "̧": 118,
      "α": 119,
      "μ": 120,
      "а": 121,
      "е": 122,
      "к": 123,
      "л": 124,
      "н": 125,
      "о": 126,
      "п": 127,
      "с": 128,
      "т": 129,
      "у": 130,
      "і": 131,
      "ا": 132,
      "ة": 133,
      "ح": 134,
      "د": 135,
      "ر": 136,
      "س": 137,
      "غ": 138,
      "ق": 139,
      "ل": 140,
      "م": 141,
      "ن": 142,
      "و": 143,
      "ي": 144,
      "‎": 145,
      "‏": 146,
      "•": 147,
      "‫": 148,
      "‬": 149,
      "′": 150,
      "›": 151,
      "⁄": 152,
      "€": 153,
      "∂": 154,
      "■": 155,
      "◊": 156,
      "●": 157,
      "☮": 158,
      "⭐": 159,
      "️": 160,
      "�": 161,
      "🇷": 162,
      "🇹": 163,
      "🏆": 164,
      "🏻": 165,
      "👍": 166,
      "👑": 167,
      "💋": 168,
      "💧": 169,
      "💰": 170,
      "😁": 171,
      "😊": 172,
      "🙏": 173,
      "##b": 174,
      "##a": 175,
      "##r": 176,
      "##e": 177,
      "##s": 178,
      "##i": 179,
      "##n": 180,
      "##l": 181,
      "##u": 182,
      "##d": 183,
      "##k": 184,
      "##y": 185,
      "##ı": 186,
      "##t": 187,
      "##ğ": 188,
      "##o": 189,
      "##c": 190,
      "##m": 191,
      "##v": 192,
      "##z": 193,
      "##ü": 194,
      "##f": 195,
      "##ç": 196,
      "##p": 197,
      "##h": 198,
      "##9": 199,
      "##0": 200,
      "##ş": 201,
      "##ö": 202,
      "##â": 203,
      "##g": 204,
      "##x": 205,
      "##6": 206,
      "##̇": 207,
      "##2": 208,
      "##5": 209,
      "##1": 210,
      "##7": 211,
      "##4": 212,
      "##.": 213,
      "##'": 214,
      "##w": 215,
      "##à": 216,
      "##î": 217,
      "##ć": 218,
      "##j": 219,
      "##û": 220,
      "##3": 221,
      "##8": 222,
      "##!": 223,
      "##)": 224,
      "##ä": 225,
      "##�": 226,
      "##,": 227,
      "##q": 228,
      "##_": 229,
      "##;": 230,
      "##:": 231,
      "##\"": 232,
      "##]": 233,
      "##ó": 234,
      "##é": 235,
      "##-": 236,
      "##?": 237,
      "##%": 238,
      "##е": 239,
      "##å": 240,
      "##(": 241,
      "##&": 242,
      "##@": 243,
      "##ə": 244,
      "##ē": 245,
      "##а": 246,
      "##*": 247,
      "###": 248,
      "##ø": 249,
      "##ˆ": 250,
      "##و": 251,
      "##غ": 252,
      "##ل": 253,
      "##ي": 254,
      "##د": 255,
      "##ن": 256,
      "##س": 257,
      "##ق": 258,
      "##ة": 259,
      "##ا": 260,
      "##ح": 261,
      "##ر": 262,
      "##م": 263,
      "##è": 264,
      "##/": 265,
      "##á": 266,
      "##`": 267,
      "##í": 268,
      "##ê": 269,
      "##🏻": 270,
      "##ñ": 271,
      "##^": 272,
      "##о": 273,
      "##+": 274,
      "##\\": 275,
      "##ù": 276,
      "##ú": 277,
      "##æ": 278,
      "##­": 279,
      "##🇷": 280,
      "##🇹": 281,
      "##ï": 282,
      "##◊": 283,
      "##💰": 284,
      "##к": 285,
      "##у": 286,
      "##т": 287,
      "##ë": 288,
      "##ł": 289,
      "##п": 290,
      "##с": 291,
      "##👍": 292,
      "##ß": 293,
      "##>": 294,
      "##[": 295,
      "##ã": 296,
      "##і": 297,
      "##‫": 298,
      "##′": 299,
      "##la": 300,
      "##er": 301,
      "##in": 302,
      "##an": 303,
      "##ın": 304,
      "##en": 305,
      "##ar": 306,
      "##ir": 307,
      "##il": 308,
      "##lar": 309,
      "##ak": 310,
      "##le": 311,
      "##de": 312,
      "##ma": 313,
      "##da": 314,
      "##ler": 315,
      "##ek": 316,
      "##iy": 317,
      "##or": 318,
      "##un": 319,
      "##li": 320,
      "##et": 321,
      "##lı": 322,
      "##on": 323,
      "##dı": 324,
      "##es": 325,
      "##di": 326,
      "##at": 327,
      "##ur": 328,
      "##as": 329,
      "##ay": 330,
      "ve": 331,
      "de": 332,
      "bir": 333,
      "##lan": 334,
      "##aş": 335,
      "##ün": 336,
      "##el": 337,
      "##ür": 338,
      "##im": 339,
      "##iz": 340,
      "##al": 341,
      "bu": 342,
      "##tı": 343,
      "da": 344,
      "##ap": 345,
      "##em": 346,
      "##am": 347,
      "##st": 348,
      "ol": 349,
      "##ik": 350,
      "##ların": 351,
      "##ey": 352,
      "gö": 353,
      "##az": 354,
      "##ğı": 355,
      "##den": 356,
      "##dan": 357,
      "ar": 358,
      "##ıl": 359,
      "##ab": 360,
      "##du": 361,
      "##ya": 362,
      "##ul": 363,
      "##ti": 364,
      "##ini": 365,
      "##um": 366,
      "##inde": 367,
      "##ında": 368,
      "##ları": 369,
      "yap": 370,
      "##ık": 371,
      "##ah": 372,
      "##iş": 373,
      "baş": 374,
      "##ır": 375,
      "i̇": 376,
      "##ine": 377,
      "##iye": 378,
      "##it": 379,
      "##sı": 380,
      "##ol": 381,
      "##ok": 382,
      "##is": 383,
      "iç": 384,
      "al": 385,
      "##ını": 386,
      "##leri": 387,
      "##ce": 388,
      "an": 389,
      "##yor": 390,
      "##esi": 391,
      "kar": 392,
      "##mı": 393,
      "##ük": 394,
      "##me": 395,
      "##iyor": 396,
      "ka": 397,
      "##ki": 398,
      "##anı": 399,
      "##ta": 400,
      "sa": 401,
      "##üz": 402,
      "gör": 403,
      "##inin": 404,
      "##iler": 405,
      "ge": 406,
      "##ği": 407,
      "son": 408,
      "in": 409,
      "##lik": 410,
      "##uş": 411,
      "##ca": 412,
      "##cak": 413,
      "##oğ": 414,
      "##ına": 415,
      "et": 416,
      "##ut": 417,
      "##te": 418,
      "kon": 419,
      "##ürk": 420,
      "##lık": 421,
      "##af": 422,
      "ön": 423,
      "için": 424,
      "ile": 425,
      "##ev": 426,
      "##lu": 427,
      "##uz": 428,
      "##len": 429,
      "oldu": 430,
      "ay": 431,
      "türk": 432,
      "##dır": 433,
      "ver": 434,
      "##ön": 435,
      "##üm": 436,
      "##ör": 437,
      "##ez": 438,
      "##cı": 439,
      "##şı": 440,
      "ed": 441,
      "##se": 442,
      "##alı": 443,
      "yıl": 444,
      "##üş": 445,
      "aç": 446,
      "##arı": 447,
      "ger": 448,
      "##ec": 449,
      "##us": 450,
      "en": 451,
      "##uk": 452,
      "##ra": 453,
      "##lama": 454,
      "##aki": 455,
      "##ından": 456,
      "gün": 457,
      "te": 458,
      "##dir": 459,
      "ne": 460,
      "##yon": 461,
      "##unu": 462,
      "##mak": 463,
      "il": 464,
      "##öy": 465,
      "##ha": 466,
      "##lay": 467,
      "bul": 468,
      "bil": 469,
      "20": 470,
      "tar": 471,
      "##ül": 472,
      "gel": 473,
      "##ması": 474,
      "##ası": 475,
      "or": 476,
      "kur": 477,
      "##om": 478,
      "##ının": 479,
      "yer": 480,
      "##op": 481,
      "türkiye": 482,
      "çık": 483,
      "bel": 484,
      "##ildi": 485,
      "iş": 486,
      "geç": 487,
      "##larak": 488,
      "yaş": 489,
      "##man": 490,
      "ma": 491,
      "değ": 492,
      "sür": 493,
      "##laş": 494,
      "ak": 495,
      "olduğ": 496,
      "##mek": 497,
      "mil": 498,
      "bü": 499,
      "##lerin": 500,
      "##tan": 501,
      "##ım": 502,
      "##tir": 503,
      "mü": 504,
      "nin": 505,
      "kay": 506,
      "##dar": 507,
      "##dığı": 508,
      "çok": 509,
      "##ken": 510,
      "dev": 511,
      "##öyle": 512,
      "er": 513,
      "ter": 514,
      "##bi": 515,
      "##zer": 516,
      "olarak": 517,
      "gi": 518,
      "ist": 519,
      "##yla": 520,
      "yapı": 521,
      "yar": 522,
      "##ğını": 523,
      "##sa": 524,
      "##si": 525,
      "ın": 526,
      "##ış": 527,
      "öz": 528,
      "##ro": 529,
      "##ci": 530,
      "##bil": 531,
      "gü": 532,
      "##eni": 533,
      "başk": 534,
      "##iyle": 535,
      "##ili": 536,
      "olan": 537,
      "##let": 538,
      "##mız": 539,
      "##tır": 540,
      "par": 541,
      "##ğini": 542,
      "yön": 543,
      "ta": 544,
      "daha": 545,
      "##iyet": 546,
      "##aber": 547,
      "##eye": 548,
      "##lü": 549,
      "##mas": 550,
      "##ede": 551,
      "##ağ": 552,
      "top": 553,
      "çalı": 554,
      "ken": 555,
      "##eş": 556,
      "##ru": 557,
      "##aya": 558,
      "ha": 559,
      "##cu": 560,
      "bulun": 561,
      "açık": 562,
      "##mış": 563,
      "belir": 564,
      "##larını": 565,
      "##ada": 566,
      "oy": 567,
      "si": 568,
      "var": 569,
      "karşı": 570,
      "kul": 571,
      "üzer": 572,
      "##miş": 573,
      "kal": 574,
      "##daki": 575,
      "##eh": 576,
      "sor": 577,
      "büy": 578,
      "ise": 579,
      "##imiz": 580,
      "##ilen": 581,
      "bak": 582,
      "##fa": 583,
      "her": 584,
      "##uşt": 585,
      "201": 586,
      "kı": 587,
      "##leş": 588,
      "tek": 589,
      "yak": 590,
      "çalış": 591,
      "##ecek": 592,
      "bin": 593,
      "dur": 594,
      "##asında": 595,
      "##ayı": 596,
      "gen": 597,
      "ya": 598,
      "dün": 599,
      "den": 600,
      "haber": 601,
      "##öz": 602,
      "ko": 603,
      "yan": 604,
      "yüz": 605,
      "hak": 606,
      "##lara": 607,
      "##der": 608,
      "##unda": 609,
      "po": 610,
      "##aman": 611,
      "##por": 612,
      "sağ": 613,
      "##üt": 614,
      "düş": 615,
      "terör": 616,
      "ara": 617,
      "nın": 618,
      "##lk": 619,
      "bö": 620,
      "kiş": 621,
      "##ih": 622,
      "uy": 623,
      "##lerini": 624,
      "##re": 625,
      "##maya": 626,
      "dön": 627,
      "kap": 628,
      "##ip": 629,
      "##os": 630,
      "biz": 631,
      "büyük": 632,
      "yeni": 633,
      "taraf": 634,
      "as": 635,
      "##mesi": 636,
      "##be": 637,
      "sah": 638,
      "..": 639,
      "##atı": 640,
      "sonra": 641,
      "gir": 642,
      "##ğr": 643,
      "##stan": 644,
      "##ladı": 645,
      "yaptı": 646,
      "ev": 647,
      "##dür": 648,
      "ek": 649,
      "##ter": 650,
      "kullan": 651,
      "on": 652,
      "bun": 653,
      "se": 654,
      "has": 655,
      "ab": 656,
      "##men": 657,
      "böl": 658,
      "pro": 659,
      "##diği": 660,
      "do": 661,
      "##lığı": 662,
      "gerek": 663,
      "kadar": 664,
      "doğ": 665,
      "li": 666,
      "##liş": 667,
      "##lat": 668,
      "##ece": 669,
      "gibi": 670,
      "ola": 671,
      "gaz": 672,
      "ama": 673,
      "##inden": 674,
      "##isi": 675,
      "##met": 676,
      "etti": 677,
      "##va": 678,
      "mu": 679,
      "hay": 680,
      "##eler": 681,
      "##dü": 682,
      "su": 683,
      "söyle": 684,
      "##lem": 685,
      "zaman": 686,
      "ülk": 687,
      "mer": 688,
      "##larda": 689,
      "ör": 690,
      "söz": 691,
      "##i̇": 692,
      "##may": 693,
      "bo": 694,
      "dedi": 695,
      "##gu": 696,
      "##arak": 697,
      "tak": 698,
      "##ıldı": 699,
      "##ark": 700,
      "av": 701,
      "ben": 702,
      "##ten": 703,
      "##larının": 704,
      "düz": 705,
      "##san": 706,
      "el": 707,
      "##esinde": 708,
      "tr": 709,
      "##asyon": 710,
      "der": 711,
      "##çe": 712,
      "##lis": 713,
      "hal": 714,
      "uz": 715,
      "göre": 716,
      "alan": 717,
      "ilg": 718,
      "alın": 719,
      "tem": 720,
      "göz": 721,
      "cum": 722,
      "##lah": 723,
      "sal": 724,
      "yol": 725,
      "##çek": 726,
      "##ız": 727,
      "##est": 728,
      "...": 729,
      "mah": 730,
      "##kin": 731,
      "ye": 732,
      "##ğu": 733,
      "##ic": 734,
      "alt": 735,
      "ot": 736,
      "ilk": 737,
      "##etir": 738,
      "un": 739,
      "ser": 740,
      "##ven": 741,
      "##azı": 742,
      "##ans": 743,
      "10": 744,
      "at": 745,
      "neden": 746,
      "##hur": 747,
      "getir": 748,
      "sav": 749,
      "öğr": 750,
      "##ley": 751,
      "kat": 752,
      "##fade": 753,
      "bur": 754,
      "##ret": 755,
      "san": 756,
      "es": 757,
      "olduğunu": 758,
      "maç": 759,
      "##dım": 760,
      "##ara": 761,
      "ifade": 762,
      "ün": 763,
      "sır": 764,
      "##eri": 765,
      "cumhur": 766,
      "olduğu": 767,
      "sev": 768,
      "özel": 769,
      "##ot": 770,
      "##uy": 771,
      "yüzde": 772,
      "##maz": 773,
      "##per": 774,
      "tut": 775,
      "açıklama": 776,
      "şu": 777,
      "yük": 778,
      "çek": 779,
      "##dik": 780,
      "##gi": 781,
      "##mes": 782,
      "##cü": 783,
      "##erek": 784,
      "ço": 785,
      "har": 786,
      "ad": 787,
      "##larına": 788,
      "yapılan": 789,
      "##larında": 790,
      "kendi": 791,
      "##ındaki": 792,
      "yönet": 793,
      "şek": 794,
      "##tü": 795,
      "gazet": 796,
      "önce": 797,
      "##cağı": 798,
      "önem": 799,
      "gerçek": 800,
      "##tr": 801,
      "örg": 802,
      "##dırı": 803,
      "ort": 804,
      "güven": 805,
      "##una": 806,
      "##bul": 807,
      "##ster": 808,
      "##lere": 809,
      "kaz": 810,
      "bölg": 811,
      "devam": 812,
      "##rı": 813,
      "değil": 814,
      "##uştur": 815,
      "##cek": 816,
      "##oğlu": 817,
      "##ka": 818,
      "##rup": 819,
      "örgüt": 820,
      "tarafından": 821,
      "##ed": 822,
      "##stanbul": 823,
      "##acak": 824,
      "i̇stanbul": 825,
      "##tar": 826,
      "sur": 827,
      "ard": 828,
      "##tik": 829,
      "##landı": 830,
      "##eli": 831,
      "##iniz": 832,
      "##abil": 833,
      "kad": 834,
      "kan": 835,
      "diye": 836,
      "##baş": 837,
      "##eyi": 838,
      "##ran": 839,
      "##bir": 840,
      "ardından": 841,
      "göster": 842,
      "ada": 843,
      "bek": 844,
      "##iç": 845,
      "em": 846,
      "##han": 847,
      "##ile": 848,
      "##uyor": 849,
      "kor": 850,
      "genel": 851,
      "be": 852,
      "saat": 853,
      "şeh": 854,
      "başkanı": 855,
      "düzen": 856,
      "##leştir": 857,
      "##lam": 858,
      "durum": 859,
      "##ünü": 860,
      "##unun": 861,
      "##doğ": 862,
      "##madı": 863,
      "##lerinin": 864,
      "kam": 865,
      "ok": 866,
      "##sel": 867,
      "hem": 868,
      "##imi": 869,
      "milyon": 870,
      "olay": 871,
      "##anın": 872,
      "##ünde": 873,
      "nde": 874,
      "##gün": 875,
      "##id": 876,
      "##lıyor": 877,
      "yet": 878,
      "yok": 879,
      "##iğ": 880,
      "eğ": 881,
      "iy": 882,
      "ih": 883,
      "##liği": 884,
      "fet": 885,
      "##if": 886,
      "##ist": 887,
      "oyun": 888,
      "ilgili": 889,
      "##ıyor": 890,
      "görev": 891,
      "##lerde": 892,
      "##bilir": 893,
      "öl": 894,
      "karar": 895,
      "öğren": 896,
      "##ğü": 897,
      "edil": 898,
      "15": 899,
      "ban": 900,
      "iki": 901,
      "is": 902,
      "##elik": 903,
      "önemli": 904,
      "##sız": 905,
      "##anda": 906,
      "az": 907,
      "i̇n": 908,
      "eden": 909,
      "19": 910,
      "haz": 911,
      "bas": 912,
      "merk": 913,
      "gelen": 914,
      "belirt": 915,
      "haf": 916,
      "hat": 917,
      "##lerine": 918,
      "bulundu": 919,
      "abd": 920,
      "insan": 921,
      "sayı": 922,
      "cez": 923,
      "ancak": 924,
      "##ira": 925,
      "##sun": 926,
      "##ika": 927,
      "##ba": 928,
      "##uştu": 929,
      "kurul": 930,
      "arasında": 931,
      "mes": 932,
      "eki": 933,
      "dönem": 934,
      "##ket": 935,
      "##lanan": 936,
      "polis": 937,
      "##aret": 938,
      "##ver": 939,
      "dan": 940,
      "##usu": 941,
      "##lacak": 942,
      "##ileri": 943,
      "##üp": 944,
      "haberleri": 945,
      "tarih": 946,
      "ku": 947,
      "##tık": 948,
      "##art": 949,
      "sonu": 950,
      "##cuk": 951,
      "dar": 952,
      "##lığ": 953,
      "birlik": 954,
      "##mir": 955,
      "kö": 956,
      "##ram": 957,
      "##ne": 958,
      "başkan": 959,
      "\".": 960,
      "##bol": 961,
      "##ağı": 962,
      "##meye": 963,
      "##dece": 964,
      "merkez": 965,
      "değer": 966,
      "2016": 967,
      "çocuk": 968,
      "eş": 969,
      "bağ": 970,
      "hayat": 971,
      "duy": 972,
      "tüm": 973,
      "söyledi": 974,
      "devlet": 975,
      "ga": 976,
      "kim": 977,
      "tes": 978,
      "oper": 979,
      "dünya": 980,
      "##iyas": 981,
      "##tör": 982,
      "bugün": 983,
      "fark": 984,
      "dış": 985,
      "aş": 986,
      "##dık": 987,
      "iz": 988,
      "##lerinde": 989,
      "##eki": 990,
      "yay": 991,
      "##leme": 992,
      "##doğan": 993,
      "suriye": 994,
      "##larla": 995,
      "##det": 996,
      "saldırı": 997,
      "ayn": 998,
      "yaptığı": 999,
      "i̇s": 1000,
      "iyi": 1001,
      "##enin": 1002,
      "içinde": 1003,
      "##layan": 1004,
      "bakan": 1005,
      "vat": 1006,
      "fa": 1007,
      "zor": 1008,
      "##lendir": 1009,
      "##bak": 1010,
      "hakk": 1011,
      "etk": 1012,
      "yat": 1013,
      "spor": 1014,
      "taş": 1015,
      "tur": 1016,
      "ki": 1017,
      "operasyon": 1018,
      "vur": 1019,
      "per": 1020,
      "##üs": 1021,
      "##dur": 1022,
      "dav": 1023,
      "çalışma": 1024,
      "##lim": 1025,
      "görüş": 1026,
      "##ep": 1027,
      "kom": 1028,
      "değiş": 1029,
      "hava": 1030,
      "geldi": 1031,
      "güç": 1032,
      "##taş": 1033,
      "üst": 1034,
      "oyn": 1035,
      "##tür": 1036,
      "##00": 1037,
      "##lardan": 1038,
      "##üyor": 1039,
      "##ener": 1040,
      "ediyor": 1041,
      "##tığı": 1042,
      "erdoğan": 1043,
      "##başk": 1044,
      "##siz": 1045,
      "##ilerin": 1046,
      "müdür": 1047,
      "aynı": 1048,
      "##iyat": 1049,
      "iliş": 1050,
      "##cade": 1051,
      "rus": 1052,
      "kişi": 1053,
      "tekn": 1054,
      "mücade": 1055,
      "##ddi": 1056,
      "bilg": 1057,
      "##ad": 1058,
      "am": 1059,
      "ayrı": 1060,
      "##bet": 1061,
      "hiç": 1062,
      "##gı": 1063,
      "kes": 1064,
      "cumhurbaşk": 1065,
      "şekil": 1066,
      "beş": 1067,
      "dik": 1068,
      "konuş": 1069,
      "seç": 1070,
      "şey": 1071,
      "uygu": 1072,
      "edildi": 1073,
      "##ahçe": 1074,
      "ask": 1075,
      "im": 1076,
      "dak": 1077,
      "giriş": 1078,
      "say": 1079,
      "bulunan": 1080,
      "orta": 1081,
      "faz": 1082,
      "avrup": 1083,
      "##eme": 1084,
      "fetö": 1085,
      "can": 1086,
      "yardım": 1087,
      "yaz": 1088,
      "kaç": 1089,
      "birlikte": 1090,
      "kır": 1091,
      "##liğ": 1092,
      "üzerine": 1093,
      "sat": 1094,
      "geliş": 1095,
      "##dem": 1096,
      "millet": 1097,
      "dest": 1098,
      "konu": 1099,
      "mo": 1100,
      "na": 1101,
      "açı": 1102,
      "çıkar": 1103,
      "fut": 1104,
      "fazla": 1105,
      "hazır": 1106,
      "harek": 1107,
      "suç": 1108,
      "yür": 1109,
      "##eyen": 1110,
      "##rak": 1111,
      "diğ": 1112,
      "avrupa": 1113,
      "şekilde": 1114,
      "destek": 1115,
      "ark": 1116,
      "##onom": 1117,
      "futbol": 1118,
      "takım": 1119,
      "##sek": 1120,
      "##likle": 1121,
      "##üne": 1122,
      "verdi": 1123,
      "##aray": 1124,
      "kazan": 1125,
      "git": 1126,
      "diy": 1127,
      "ele": 1128,
      "##ge": 1129,
      "gazetesi": 1130,
      "sist": 1131,
      "i̇ş": 1132,
      "##layı": 1133,
      "##ektör": 1134,
      "süre": 1135,
      "##bar": 1136,
      "diğer": 1137,
      "##ilik": 1138,
      "tan": 1139,
      "bey": 1140,
      "nun": 1141,
      "yarı": 1142,
      "tama": 1143,
      "##kı": 1144,
      "geçen": 1145,
      "ekonom": 1146,
      "olacak": 1147,
      "yas": 1148,
      "##kat": 1149,
      "vatanda": 1150,
      "şir": 1151,
      "böyle": 1152,
      "olma": 1153,
      "geçir": 1154,
      "tele": 1155,
      "güvenlik": 1156,
      "olmak": 1157,
      "hastan": 1158,
      "ekip": 1159,
      "gön": 1160,
      "##oy": 1161,
      "konuştu": 1162,
      "##iyon": 1163,
      "##tal": 1164,
      "##sında": 1165,
      "##ırak": 1166,
      "sen": 1167,
      "11": 1168,
      "ceza": 1169,
      "##olo": 1170,
      "kadın": 1171,
      "tab": 1172,
      "yaşan": 1173,
      "kab": 1174,
      "bırak": 1175,
      "##çı": 1176,
      "ber": 1177,
      "##fer": 1178,
      "##masına": 1179,
      "##ğimiz": 1180,
      "mücadele": 1181,
      "##ilm": 1182,
      "sistem": 1183,
      "sadece": 1184,
      "bazı": 1185,
      "##lenen": 1186,
      "##larımız": 1187,
      "büt": 1188,
      "uç": 1189,
      "şirket": 1190,
      "##masını": 1191,
      "##lantı": 1192,
      "muh": 1193,
      "##kan": 1194,
      "##led": 1195,
      "kr": 1196,
      "üret": 1197,
      "eğit": 1198,
      "##za": 1199,
      "i̇l": 1200,
      "##up": 1201,
      "cumhurbaşkanı": 1202,
      "mahk": 1203,
      "met": 1204,
      "sık": 1205,
      "sı": 1206,
      "dikkat": 1207,
      "##larından": 1208,
      "üy": 1209,
      "iddi": 1210,
      "yı": 1211,
      "üç": 1212,
      "##indeki": 1213,
      "sahip": 1214,
      "12": 1215,
      "##lus": 1216,
      "bunun": 1217,
      "proj": 1218,
      "##kk": 1219,
      "sonr": 1220,
      "kız": 1221,
      "##raf": 1222,
      "##mıştı": 1223,
      "sağlık": 1224,
      "##iyoruz": 1225,
      "yüksek": 1226,
      "re": 1227,
      "hasta": 1228,
      "bab": 1229,
      "##edef": 1230,
      "iste": 1231,
      "genç": 1232,
      "nas": 1233,
      "##kara": 1234,
      "sab": 1235,
      "##sam": 1236,
      "ulaş": 1237,
      "pkk": 1238,
      "##ri": 1239,
      "hedef": 1240,
      "veya": 1241,
      "fener": 1242,
      "ey": 1243,
      "bay": 1244,
      "yatır": 1245,
      "aldı": 1246,
      "hafta": 1247,
      "siz": 1248,
      "sez": 1249,
      "##bahçe": 1250,
      "ağı": 1251,
      "yakın": 1252,
      "silah": 1253,
      "vatandaş": 1254,
      "ik": 1255,
      "ankara": 1256,
      "##lerinden": 1257,
      "tl": 1258,
      "##tış": 1259,
      "dir": 1260,
      "ortaya": 1261,
      "para": 1262,
      "siyas": 1263,
      "nedeniyle": 1264,
      "kez": 1265,
      "düny": 1266,
      "yapan": 1267,
      "alı": 1268,
      "nda": 1269,
      "##alt": 1270,
      "##usunda": 1271,
      "##oloj": 1272,
      "##diğini": 1273,
      "##kü": 1274,
      "##mayı": 1275,
      "tah": 1276,
      "parti": 1277,
      "##luk": 1278,
      "doğru": 1279,
      "##lak": 1280,
      "30": 1281,
      "hük": 1282,
      "çıktı": 1283,
      "##esine": 1284,
      "##osy": 1285,
      "mey": 1286,
      "üzere": 1287,
      "kend": 1288,
      "fenerbahçe": 1289,
      "boy": 1290,
      "ede": 1291,
      "şehit": 1292,
      "beşik": 1293,
      "##olu": 1294,
      "##cağını": 1295,
      "),": 1296,
      "olur": 1297,
      "##sını": 1298,
      "gol": 1299,
      "beled": 1300,
      "günü": 1301,
      "kil": 1302,
      "yönetim": 1303,
      "##lerle": 1304,
      "tutuk": 1305,
      "başbak": 1306,
      "beşiktaş": 1307,
      "pat": 1308,
      "sok": 1309,
      "##muz": 1310,
      "eğitim": 1311,
      "##eti": 1312,
      "plan": 1313,
      "başladı": 1314,
      "##cel": 1315,
      "lira": 1316,
      "##manın": 1317,
      "çev": 1318,
      "mahal": 1319,
      "rusya": 1320,
      "##ılması": 1321,
      "mar": 1322,
      "gerçekleştir": 1323,
      "araç": 1324,
      "##ıp": 1325,
      "yaklaş": 1326,
      "##mişti": 1327,
      "gele": 1328,
      "darbe": 1329,
      "##mal": 1330,
      "##spor": 1331,
      "şim": 1332,
      "edilen": 1333,
      "tanı": 1334,
      "##iyorum": 1335,
      "isim": 1336,
      "içer": 1337,
      "200": 1338,
      "pay": 1339,
      "##yar": 1340,
      "##mi": 1341,
      "##van": 1342,
      "dolar": 1343,
      "##ça": 1344,
      "##gan": 1345,
      "kapsam": 1346,
      "başla": 1347,
      "00": 1348,
      "bit": 1349,
      "mi": 1350,
      "##sit": 1351,
      "nasıl": 1352,
      "##çi": 1353,
      "##latas": 1354,
      "anla": 1355,
      "##ayan": 1356,
      "##bu": 1357,
      "##mez": 1358,
      "##latasaray": 1359,
      "galatasaray": 1360,
      "mut": 1361,
      "görün": 1362,
      "ch": 1363,
      "yönelik": 1364,
      "ülke": 1365,
      "cumhuriyet": 1366,
      "sezon": 1367,
      "man": 1368,
      "##fon": 1369,
      "terörist": 1370,
      "##emiz": 1371,
      "##lüğü": 1372,
      "daki": 1373,
      "savaş": 1374,
      "##lerden": 1375,
      "oyuncu": 1376,
      "yazı": 1377,
      "düşün": 1378,
      "##lesi": 1379,
      "##iya": 1380,
      "##lo": 1381,
      "sıra": 1382,
      "##isinde": 1383,
      "film": 1384,
      "gönder": 1385,
      "sosy": 1386,
      "##niyet": 1387,
      "açıklamada": 1388,
      "bütün": 1389,
      "ağır": 1390,
      "uzun": 1391,
      "yaka": 1392,
      "eski": 1393,
      "bildir": 1394,
      "örgütü": 1395,
      "hep": 1396,
      "##gil": 1397,
      "##yı": 1398,
      "hiz": 1399,
      "##mayan": 1400,
      "yatırım": 1401,
      "yen": 1402,
      "##pr": 1403,
      "bizim": 1404,
      "hareket": 1405,
      "yıldır": 1406,
      "yayın": 1407,
      "başka": 1408,
      "poli": 1409,
      "paz": 1410,
      "farklı": 1411,
      "hüküm": 1412,
      "##nak": 1413,
      "üzerinde": 1414,
      "değerlendir": 1415,
      "yanı": 1416,
      "hakkında": 1417,
      "ah": 1418,
      "kü": 1419,
      "lig": 1420,
      "arkada": 1421,
      "##iver": 1422,
      "##lük": 1423,
      "soruştur": 1424,
      "yerine": 1425,
      "yaşa": 1426,
      "men": 1427,
      "##ali": 1428,
      "##ing": 1429,
      "dem": 1430,
      "##deki": 1431,
      "mev": 1432,
      "deki": 1433,
      "tamam": 1434,
      "##urt": 1435,
      "sosyal": 1436,
      "alman": 1437,
      "başarı": 1438,
      "emniyet": 1439,
      "şöyle": 1440,
      "ağ": 1441,
      "mal": 1442,
      "##dav": 1443,
      "ulus": 1444,
      "bor": 1445,
      "kontr": 1446,
      "bunu": 1447,
      "##iversit": 1448,
      "hale": 1449,
      "##las": 1450,
      "kurum": 1451,
      "yara": 1452,
      "##gram": 1453,
      "üniversit": 1454,
      "##muş": 1455,
      "##mızı": 1456,
      "meh": 1457,
      "la": 1458,
      "milyar": 1459,
      "##okr": 1460,
      "fin": 1461,
      "##asına": 1462,
      "deniz": 1463,
      "yılında": 1464,
      "hizmet": 1465,
      "##üph": 1466,
      "25": 1467,
      "şüph": 1468,
      "14": 1469,
      "yi": 1470,
      "hız": 1471,
      "temmuz": 1472,
      "milli": 1473,
      "tedav": 1474,
      "dok": 1475,
      "mı": 1476,
      "bölüm": 1477,
      "tür": 1478,
      "katı": 1479,
      "meydan": 1480,
      "dakika": 1481,
      "bom": 1482,
      "med": 1483,
      "##tu": 1484,
      "##ünün": 1485,
      "asker": 1486,
      "kendis": 1487,
      "##esinin": 1488,
      "nok": 1489,
      "##ınır": 1490,
      "##ilere": 1491,
      "toplantı": 1492,
      "##ber": 1493,
      "cen": 1494,
      "biri": 1495,
      "16": 1496,
      "##teş": 1497,
      "sak": 1498,
      "rah": 1499,
      "kontrol": 1500,
      "güz": 1501,
      "bar": 1502,
      "for": 1503,
      "ilç": 1504,
      "sözcü": 1505,
      "bile": 1506,
      "teş": 1507,
      "##kes": 1508,
      "geçti": 1509,
      "anlaş": 1510,
      "##yan": 1511,
      "##sin": 1512,
      "##abilir": 1513,
      "18": 1514,
      "13": 1515,
      "##laşı": 1516,
      "##rar": 1517,
      "gözalt": 1518,
      "müz": 1519,
      "##larıyla": 1520,
      "kabul": 1521,
      "başbakan": 1522,
      "##kinci": 1523,
      "geri": 1524,
      "yaklaşık": 1525,
      "##uma": 1526,
      "##tırma": 1527,
      "sınır": 1528,
      "##acağı": 1529,
      "araş": 1530,
      "işlem": 1531,
      "alınan": 1532,
      "##omo": 1533,
      "mehmet": 1534,
      "##lif": 1535,
      "2015": 1536,
      "art": 1537,
      "hes": 1538,
      "##vet": 1539,
      "kullanı": 1540,
      "din": 1541,
      "olması": 1542,
      "##üldü": 1543,
      "yaşındaki": 1544,
      "##can": 1545,
      "##lerimiz": 1546,
      "17": 1547,
      "ayrıca": 1548,
      "okul": 1549,
      "telefon": 1550,
      "tale": 1551,
      "bakanı": 1552,
      "##ehir": 1553,
      "##dığını": 1554,
      "mad": 1555,
      "çar": 1556,
      "##tıl": 1557,
      "##masının": 1558,
      "taki": 1559,
      "##ümüz": 1560,
      "teknik": 1561,
      "kül": 1562,
      "iti": 1563,
      "özellikle": 1564,
      "mem": 1565,
      "halk": 1566,
      "savun": 1567,
      "kara": 1568,
      "kür": 1569,
      "##gel": 1570,
      "gözaltına": 1571,
      "kaldır": 1572,
      "kurulu": 1573,
      "burada": 1574,
      "konusunda": 1575,
      "yardımcı": 1576,
      "grup": 1577,
      "oluştur": 1578,
      "##malı": 1579,
      "##yen": 1580,
      "artık": 1581,
      "taşı": 1582,
      "demokr": 1583,
      "teh": 1584,
      "##mekte": 1585,
      "##for": 1586,
      "res": 1587,
      "##bay": 1588,
      "##ici": 1589,
      "##yle": 1590,
      "çalışan": 1591,
      "##kları": 1592,
      "uygulama": 1593,
      "##aj": 1594,
      "ilişkin": 1595,
      "yine": 1596,
      "##duğu": 1597,
      "tep": 1598,
      "##ledi": 1599,
      "##suz": 1600,
      "##lum": 1601,
      "##ğunu": 1602,
      "##mem": 1603,
      "##ilmesi": 1604,
      "##amp": 1605,
      "ür": 1606,
      "##ch": 1607,
      "##şam": 1608,
      "##ari": 1609,
      "##eceği": 1610,
      "sonuç": 1611,
      "##esini": 1612,
      "güzel": 1613,
      "mak": 1614,
      "##oğun": 1615,
      "i̇z": 1616,
      "boz": 1617,
      "çağ": 1618,
      "fır": 1619,
      "##oğraf": 1620,
      "##ve": 1621,
      "##ıldığı": 1622,
      "hiçbir": 1623,
      "kapsamında": 1624,
      "şah": 1625,
      "kamu": 1626,
      "sarı": 1627,
      "##hale": 1628,
      "otomo": 1629,
      "##tin": 1630,
      "yor": 1631,
      "program": 1632,
      "yetk": 1633,
      "benim": 1634,
      "sektör": 1635,
      "##siniz": 1636,
      "##arası": 1637,
      "pr": 1638,
      "çöz": 1639,
      "##bat": 1640,
      "rağ": 1641,
      "##lendi": 1642,
      "##medi": 1643,
      "ateş": 1644,
      "mahkem": 1645,
      "birç": 1646,
      "kaybet": 1647,
      "##vur": 1648,
      "##mesini": 1649,
      "dil": 1650,
      "##sal": 1651,
      "##deş": 1652,
      "##yacak": 1653,
      "bah": 1654,
      "çıkan": 1655,
      "sey": 1656,
      "##tep": 1657,
      "sorun": 1658,
      "bulunduğu": 1659,
      "##gun": 1660,
      "girişim": 1661,
      "ail": 1662,
      "şimdi": 1663,
      "karşılaş": 1664,
      "##net": 1665,
      "##izi": 1666,
      "##tiği": 1667,
      "rağmen": 1668,
      "##su": 1669,
      "fiyat": 1670,
      "tas": 1671,
      "kısa": 1672,
      "tam": 1673,
      "belirten": 1674,
      "kararı": 1675,
      "gelir": 1676,
      "lider": 1677,
      "##leyen": 1678,
      "##ga": 1679,
      "##ulu": 1680,
      "kişinin": 1681,
      "##min": 1682,
      "##vek": 1683,
      "tesp": 1684,
      "müdürlüğü": 1685,
      "küç": 1686,
      "sürdür": 1687,
      "##madığını": 1688,
      "han": 1689,
      "##asını": 1690,
      "sanat": 1691,
      "birçok": 1692,
      "##ob": 1693,
      "##yorum": 1694,
      "##ülen": 1695,
      "sabah": 1696,
      "##var": 1697,
      "ziy": 1698,
      "##eceğ": 1699,
      "beklen": 1700,
      "ait": 1701,
      "öldür": 1702,
      "dolayı": 1703,
      "os": 1704,
      "başvur": 1705,
      "siv": 1706,
      "fak": 1707,
      "##sına": 1708,
      "demir": 1709,
      "sin": 1710,
      "oğ": 1711,
      "bağlı": 1712,
      "pu": 1713,
      "öde": 1714,
      "fot": 1715,
      "##tiğini": 1716,
      "yargı": 1717,
      "koy": 1718,
      "##son": 1719,
      "pazar": 1720,
      "so": 1721,
      "çün": 1722,
      "##iyi": 1723,
      "çünkü": 1724,
      "##isyon": 1725,
      "ke": 1726,
      "yaşam": 1727,
      "oluş": 1728,
      "mahallesi": 1729,
      "eur": 1730,
      "ham": 1731,
      "ses": 1732,
      "##lek": 1733,
      "bağı": 1734,
      "mec": 1735,
      "yeniden": 1736,
      "iddia": 1737,
      "kaynak": 1738,
      "ettiği": 1739,
      "##sil": 1740,
      "vurgu": 1741,
      "kardeş": 1742,
      "aldığı": 1743,
      "##afa": 1744,
      "##ince": 1745,
      "herkes": 1746,
      "öğrenc": 1747,
      "konusu": 1748,
      "ali": 1749,
      "hükümet": 1750,
      "##umuz": 1751,
      "arkadaş": 1752,
      "cam": 1753,
      "altında": 1754,
      "mas": 1755,
      "##eceğini": 1756,
      "##ayet": 1757,
      "sü": 1758,
      "##şa": 1759,
      "kav": 1760,
      "dr": 1761,
      "##anız": 1762,
      "ziyaret": 1763,
      "iht": 1764,
      "tespit": 1765,
      "##umlu": 1766,
      "sun": 1767,
      "soru": 1768,
      "##gin": 1769,
      "kah": 1770,
      "etmek": 1771,
      "engel": 1772,
      "##na": 1773,
      "##zon": 1774,
      "##yoruz": 1775,
      "uluslar": 1776,
      "tük": 1777,
      "hey": 1778,
      "ikinci": 1779,
      "bakanlığı": 1780,
      "##ğa": 1781,
      "ortak": 1782,
      "kuv": 1783,
      "gül": 1784,
      "toplam": 1785,
      "##lattı": 1786,
      "yıldırım": 1787,
      "ba": 1788,
      "yürüt": 1789,
      "##lım": 1790,
      "tat": 1791,
      "##mada": 1792,
      "beraber": 1793,
      "dile": 1794,
      "dair": 1795,
      "cev": 1796,
      "zar": 1797,
      "##din": 1798,
      "##ize": 1799,
      "##leriyle": 1800,
      "me": 1801,
      "##ıt": 1802,
      "yüksel": 1803,
      "i̇ngil": 1804,
      "ilişk": 1805,
      "ayr": 1806,
      "satış": 1807,
      "uluslararası": 1808,
      "##apor": 1809,
      "kültür": 1810,
      "##lır": 1811,
      "50": 1812,
      "kit": 1813,
      "##makta": 1814,
      "gru": 1815,
      "adam": 1816,
      "ihtiya": 1817,
      "sebe": 1818,
      "trab": 1819,
      "alındı": 1820,
      "medya": 1821,
      "veril": 1822,
      "##pan": 1823,
      "şamp": 1824,
      "##landır": 1825,
      "##erj": 1826,
      "fran": 1827,
      "otomobil": 1828,
      "ho": 1829,
      "st": 1830,
      "##ladığı": 1831,
      "must": 1832,
      "fotoğraf": 1833,
      "##üb": 1834,
      "öğret": 1835,
      "his": 1836,
      "eder": 1837,
      "dönüş": 1838,
      "##ov": 1839,
      "yurt": 1840,
      "basın": 1841,
      "trabzon": 1842,
      "##ye": 1843,
      "##asının": 1844,
      "küçük": 1845,
      "##ıntı": 1846,
      "##lin": 1847,
      "yoğun": 1848,
      "huk": 1849,
      "toplum": 1850,
      "mustafa": 1851,
      "mağ": 1852,
      "##sıyla": 1853,
      "itibar": 1854,
      "ce": 1855,
      "anay": 1856,
      "##sının": 1857,
      "olduk": 1858,
      "şampiyon": 1859,
      "seçim": 1860,
      "sokak": 1861,
      "enerj": 1862,
      "##ancı": 1863,
      "anayas": 1864,
      "21": 1865,
      "fir": 1866,
      "kent": 1867,
      "görüşme": 1868,
      "##mesine": 1869,
      "önc": 1870,
      "kalk": 1871,
      "bilin": 1872,
      "veren": 1873,
      "gece": 1874,
      "akşam": 1875,
      "##dim": 1876,
      "i̇lk": 1877,
      "##talya": 1878,
      "kuvvet": 1879,
      "ince": 1880,
      "22": 1881,
      "sürec": 1882,
      "yaşanan": 1883,
      "belediye": 1884,
      "kayde": 1885,
      "rahat": 1886,
      "kurt": 1887,
      "söy": 1888,
      "tör": 1889,
      "##ğın": 1890,
      "chp": 1891,
      "ocak": 1892,
      "özg": 1893,
      "trans": 1894,
      "##cılık": 1895,
      "kullandı": 1896,
      "24": 1897,
      "kas": 1898,
      "mart": 1899,
      "##undan": 1900,
      "##unca": 1901,
      "euro": 1902,
      "üzerinden": 1903,
      "milletvek": 1904,
      "##aliyet": 1905,
      "yani": 1906,
      "ülkeler": 1907,
      "fat": 1908,
      "sonrası": 1909,
      "##ere": 1910,
      "##uldu": 1911,
      "nün": 1912,
      "##dül": 1913,
      "sar": 1914,
      "af": 1915,
      "##terek": 1916,
      "şekl": 1917,
      "ala": 1918,
      "##mıştır": 1919,
      "belirtildi": 1920,
      "ahmet": 1921,
      "araştırma": 1922,
      "cin": 1923,
      "##tif": 1924,
      "kuz": 1925,
      "amer": 1926,
      "yem": 1927,
      "çif": 1928,
      "##dın": 1929,
      "banka": 1930,
      "futbolcu": 1931,
      "aralık": 1932,
      "kıs": 1933,
      "hayatını": 1934,
      "madde": 1935,
      "##sın": 1936,
      "gök": 1937,
      "şubat": 1938,
      "##br": 1939,
      "gider": 1940,
      "teknoloj": 1941,
      "puan": 1942,
      "100": 1943,
      "soruşturma": 1944,
      "meydana": 1945,
      "köy": 1946,
      "##isini": 1947,
      "hol": 1948,
      "##ğına": 1949,
      "##arım": 1950,
      "anda": 1951,
      "##unuyor": 1952,
      "##bek": 1953,
      "faaliyet": 1954,
      "sahi": 1955,
      "almanya": 1956,
      "##ünden": 1957,
      "gelecek": 1958,
      "##ide": 1959,
      "otur": 1960,
      "##sü": 1961,
      "dah": 1962,
      "ann": 1963,
      "##madan": 1964,
      "götür": 1965,
      "tartış": 1966,
      "kork": 1967,
      "##aba": 1968,
      "di": 1969,
      "temsil": 1970,
      "hatır": 1971,
      "##lış": 1972,
      "##ğin": 1973,
      "yıldı": 1974,
      "takı": 1975,
      "çat": 1976,
      "yapıl": 1977,
      "piyas": 1978,
      "ip": 1979,
      "##işleri": 1980,
      "eylem": 1981,
      "görüntü": 1982,
      "um": 1983,
      "belirtti": 1984,
      "##ğünü": 1985,
      "##lanması": 1986,
      "le": 1987,
      "##aspor": 1988,
      "buna": 1989,
      "kalan": 1990,
      "mesaj": 1991,
      "tic": 1992,
      "ten": 1993,
      "gerçekleş": 1994,
      "elek": 1995,
      "osman": 1996,
      "yıldız": 1997,
      "vak": 1998,
      "çocu": 1999,
      "içerisinde": 2000,
      "kol": 2001,
      "emek": 2002,
      "##av": 2003,
      "müda": 2004,
      "verdiği": 2005,
      "politik": 2006,
      "ac": 2007,
      "beyaz": 2008,
      "##ınca": 2009,
      "rek": 2010,
      "müs": 2011,
      "prof": 2012,
      "##asındaki": 2013,
      "rapor": 2014,
      "du": 2015,
      "kre": 2016,
      "##üc": 2017,
      "ürün": 2018,
      "ora": 2019,
      "##tem": 2020,
      "komut": 2021,
      "bes": 2022,
      "belirterek": 2023,
      "dakik": 2024,
      "elektr": 2025,
      "##meyi": 2026,
      "uzak": 2027,
      "edecek": 2028,
      "bölgede": 2029,
      "imza": 2030,
      "##ban": 2031,
      "##ğim": 2032,
      "erk": 2033,
      "gazetec": 2034,
      "##lamak": 2035,
      "bank": 2036,
      "yağ": 2037,
      "kaydet": 2038,
      "dö": 2039,
      "merkezi": 2040,
      "paylaş": 2041,
      "kup": 2042,
      "##mektedir": 2043,
      "ödül": 2044,
      "##dak": 2045,
      "23": 2046,
      "verildi": 2047,
      "ekipleri": 2048,
      "siyasi": 2049,
      "kapı": 2050,
      "##isinin": 2051,
      "onun": 2052,
      "düzenlenen": 2053,
      "tay": 2054,
      "##ebil": 2055,
      "kuru": 2056,
      "br": 2057,
      "güncel": 2058,
      "##anlı": 2059,
      "mark": 2060,
      "hukuk": 2061,
      "##eleri": 2062,
      "organ": 2063,
      "##ğinde": 2064,
      "sırasında": 2065,
      "adı": 2066,
      "##miştir": 2067,
      "##siyon": 2068,
      "##ğine": 2069,
      "i̇zmir": 2070,
      "##anış": 2071,
      "##enk": 2072,
      "##ck": 2073,
      "askeri": 2074,
      "##ınız": 2075,
      "kut": 2076,
      "kesin": 2077,
      "##ama": 2078,
      "bilgi": 2079,
      "bomba": 2080,
      "##do": 2081,
      "##diler": 2082,
      "sonucu": 2083,
      "##fet": 2084,
      "oluyor": 2085,
      "ünlü": 2086,
      "üc": 2087,
      "##esel": 2088,
      "##ışı": 2089,
      "mek": 2090,
      "##mer": 2091,
      "öncek": 2092,
      "diz": 2093,
      "##şehir": 2094,
      "adım": 2095,
      "takip": 2096,
      "aile": 2097,
      "aday": 2098,
      "##uluk": 2099,
      "##istan": 2100,
      ".,": 2101,
      "yetkil": 2102,
      "ücret": 2103,
      "##ii": 2104,
      "yapılacak": 2105,
      "dünyanın": 2106,
      "üniversitesi": 2107,
      "tu": 2108,
      "olsun": 2109,
      "##ilerine": 2110,
      "##ton": 2111,
      "inter": 2112,
      "mül": 2113,
      "##ğında": 2114,
      "sig": 2115,
      "sevk": 2116,
      "bana": 2117,
      "oran": 2118,
      "des": 2119,
      "ayında": 2120,
      "uçak": 2121,
      "önceki": 2122,
      "kası": 2123,
      "anlam": 2124,
      "40": 2125,
      "değişik": 2126,
      "çeş": 2127,
      "istem": 2128,
      "dönemde": 2129,
      "çevr": 2130,
      "yab": 2131,
      "##iyordu": 2132,
      "sivil": 2133,
      "yıllık": 2134,
      "boş": 2135,
      "mus": 2136,
      "##oz": 2137,
      "hen": 2138,
      "net": 2139,
      "##kün": 2140,
      "##irken": 2141,
      "kırmızı": 2142,
      "##maları": 2143,
      "##sunuz": 2144,
      "yapıldı": 2145,
      "##meden": 2146,
      "direktör": 2147,
      "dör": 2148,
      "##viz": 2149,
      "kulüb": 2150,
      "altın": 2151,
      "şun": 2152,
      "öğrenildi": 2153,
      "##sik": 2154,
      "##gın": 2155,
      "##mayacak": 2156,
      "cid": 2157,
      "##lal": 2158,
      "ölüm": 2159,
      "i̇ç": 2160,
      "##ücü": 2161,
      "##iyorlar": 2162,
      "ekonomi": 2163,
      "istedi": 2164,
      "##mey": 2165,
      "güney": 2166,
      "artır": 2167,
      "duyur": 2168,
      "giy": 2169,
      "yal": 2170,
      "##sat": 2171,
      "##müş": 2172,
      "şehir": 2173,
      "laz": 2174,
      "indir": 2175,
      "alıyor": 2176,
      "olabilir": 2177,
      "##üf": 2178,
      "traf": 2179,
      "kaydetti": 2180,
      "##sından": 2181,
      "yandan": 2182,
      "allah": 2183,
      "##altı": 2184,
      "##meli": 2185,
      "tüket": 2186,
      "jan": 2187,
      "##ilerinin": 2188,
      "oda": 2189,
      "gündem": 2190,
      "##iyesi": 2191,
      "sırada": 2192,
      "##menin": 2193,
      "ihra": 2194,
      "devr": 2195,
      "tekrar": 2196,
      "özgür": 2197,
      "şeklinde": 2198,
      "sit": 2199,
      "müm": 2200,
      "irak": 2201,
      "hemen": 2202,
      "yapmak": 2203,
      "##ort": 2204,
      "kapat": 2205,
      "transfer": 2206,
      "##tım": 2207,
      "değiştir": 2208,
      "##mesinin": 2209,
      "##ova": 2210,
      "ris": 2211,
      "serb": 2212,
      "yarış": 2213,
      "demokras": 2214,
      "hap": 2215,
      "hav": 2216,
      "uzman": 2217,
      "raki": 2218,
      "çiz": 2219,
      "amacı": 2220,
      "altına": 2221,
      "mez": 2222,
      "çatış": 2223,
      "##ebilir": 2224,
      "gerekiyor": 2225,
      "kasım": 2226,
      "##unuz": 2227,
      "##ırı": 2228,
      "kılı": 2229,
      "kons": 2230,
      "günde": 2231,
      "geliştir": 2232,
      "isteyen": 2233,
      "mode": 2234,
      "önünde": 2235,
      "##cih": 2236,
      "sam": 2237,
      "##cağız": 2238,
      ".'": 2239,
      "gördü": 2240,
      "##lüğ": 2241,
      "çarp": 2242,
      "yana": 2243,
      "büyü": 2244,
      "yaralı": 2245,
      "taraftar": 2246,
      "pek": 2247,
      "##rol": 2248,
      "tercih": 2249,
      "##dy": 2250,
      "ederek": 2251,
      "nokta": 2252,
      "çalışı": 2253,
      "kolay": 2254,
      "ül": 2255,
      "ana": 2256,
      "##tığını": 2257,
      "##esiyle": 2258,
      "sahibi": 2259,
      "yabancı": 2260,
      "##tor": 2261,
      "##iliyor": 2262,
      "aydın": 2263,
      "th": 2264,
      "##endi": 2265,
      "##ilerini": 2266,
      "bize": 2267,
      "gazi": 2268,
      "erkek": 2269,
      "##dikleri": 2270,
      "##ade": 2271,
      "koş": 2272,
      "kuruluş": 2273,
      "fe": 2274,
      "##sini": 2275,
      "##lerce": 2276,
      "enerji": 2277,
      "kaldı": 2278,
      "mümkün": 2279,
      "birbir": 2280,
      "kötü": 2281,
      "ülkemiz": 2282,
      "kadro": 2283,
      "pet": 2284,
      "şid": 2285,
      "##manı": 2286,
      "aktar": 2287,
      "savcı": 2288,
      "##diklerini": 2289,
      "gali": 2290,
      "kuzey": 2291,
      "##ırken": 2292,
      "batı": 2293,
      "trabzonspor": 2294,
      "zarar": 2295,
      "serbest": 2296,
      "adet": 2297,
      "bal": 2298,
      "28": 2299,
      "##masında": 2300,
      "acı": 2301,
      "ayak": 2302,
      "ila": 2303,
      "##lığını": 2304,
      "resmi": 2305,
      "ru": 2306,
      "##abı": 2307,
      "yeter": 2308,
      "##laştır": 2309,
      "talep": 2310,
      "süper": 2311,
      "dakikada": 2312,
      "##yip": 2313,
      "##lanıyor": 2314,
      "i̇ran": 2315,
      "##dük": 2316,
      "##mat": 2317,
      "yav": 2318,
      "ner": 2319,
      "##sen": 2320,
      "##çesi": 2321,
      "geliyor": 2322,
      "saldır": 2323,
      "artış": 2324,
      "şunları": 2325,
      "tedavi": 2326,
      "##ullah": 2327,
      "uygun": 2328,
      "yardımcısı": 2329,
      "nis": 2330,
      "part": 2331,
      "##ekli": 2332,
      "##ump": 2333,
      "eğer": 2334,
      "diyar": 2335,
      "tören": 2336,
      "hesap": 2337,
      "sol": 2338,
      "kılıç": 2339,
      "it": 2340,
      "##lanacak": 2341,
      "şark": 2342,
      "##mar": 2343,
      "dağı": 2344,
      "ro": 2345,
      "bulunuyor": 2346,
      "##sta": 2347,
      "yılmaz": 2348,
      "güneş": 2349,
      "dışında": 2350,
      "cenaz": 2351,
      "gülen": 2352,
      "fi": 2353,
      "düşünü": 2354,
      "##osu": 2355,
      "zamanda": 2356,
      "mese": 2357,
      "i̇şte": 2358,
      "tarihi": 2359,
      "müdürü": 2360,
      "##yız": 2361,
      "##tim": 2362,
      "##leti": 2363,
      "tehdi": 2364,
      "silahlı": 2365,
      "##tiv": 2366,
      "davut": 2367,
      "etkin": 2368,
      "eleştir": 2369,
      "cih": 2370,
      "halinde": 2371,
      "faiz": 2372,
      "çin": 2373,
      "siyaset": 2374,
      "don": 2375,
      "karak": 2376,
      "avuk": 2377,
      "##bakır": 2378,
      "yapıyor": 2379,
      "sayıda": 2380,
      "i̇st": 2381,
      "internet": 2382,
      "ci": 2383,
      "sına": 2384,
      "uğ": 2385,
      "mur": 2386,
      "yorum": 2387,
      "atı": 2388,
      "teklif": 2389,
      "diyarbakır": 2390,
      "mik": 2391,
      "ordu": 2392,
      "hakem": 2393,
      "gereken": 2394,
      "##meyen": 2395,
      "birliği": 2396,
      "##of": 2397,
      "##sine": 2398,
      "##sk": 2399,
      "ap": 2400,
      "çift": 2401,
      "oyna": 2402,
      "ülken": 2403,
      "##nek": 2404,
      "##ola": 2405,
      "##esinden": 2406,
      "nor": 2407,
      "bölge": 2408,
      "27": 2409,
      "olmadığını": 2410,
      "##adde": 2411,
      "##imizin": 2412,
      "çeşit": 2413,
      "##ime": 2414,
      "darb": 2415,
      "##rek": 2416,
      "##aşa": 2417,
      "başlayan": 2418,
      "gec": 2419,
      "kale": 2420,
      "tav": 2421,
      "üyesi": 2422,
      "hastalık": 2423,
      "ciddi": 2424,
      "26": 2425,
      "##fi": 2426,
      "anad": 2427,
      "##maktadır": 2428,
      "yaşayan": 2429,
      "ni": 2430,
      "##elen": 2431,
      "mülte": 2432,
      "barı": 2433,
      "göç": 2434,
      "şart": 2435,
      "##biyet": 2436,
      "##og": 2437,
      "yanında": 2438,
      "yu": 2439,
      "##klarını": 2440,
      "katkı": 2441,
      "güçlü": 2442,
      "ef": 2443,
      "tali": 2444,
      "ligi": 2445,
      "bi": 2446,
      "öne": 2447,
      "açıkladı": 2448,
      "cadde": 2449,
      "##iyatı": 2450,
      "başına": 2451,
      "##isine": 2452,
      "durumda": 2453,
      "anayasa": 2454,
      "anadolu": 2455,
      "ettik": 2456,
      "vardı": 2457,
      "2014": 2458,
      "##izm": 2459,
      "dava": 2460,
      "davutoğlu": 2461,
      "##dek": 2462,
      "##aten": 2463,
      "kredi": 2464,
      "beni": 2465,
      "yun": 2466,
      "##üsü": 2467,
      "sayısı": 2468,
      "##hangi": 2469,
      "alış": 2470,
      "##lül": 2471,
      "temsilc": 2472,
      "ra": 2473,
      "gerektiğini": 2474,
      "herhangi": 2475,
      "koç": 2476,
      "##laşım": 2477,
      "antalya": 2478,
      "dep": 2479,
      "dol": 2480,
      "asl": 2481,
      "jandar": 2482,
      "##lediği": 2483,
      "ülkenin": 2484,
      "öyle": 2485,
      "onu": 2486,
      "##elç": 2487,
      "elde": 2488,
      "boyunca": 2489,
      "savunma": 2490,
      "şarkı": 2491,
      "itibaren": 2492,
      "##yd": 2493,
      "##zi": 2494,
      "derece": 2495,
      "olmayan": 2496,
      "izin": 2497,
      "\",": 2498,
      "fik": 2499,
      "şik": 2500,
      "##lemek": 2501,
      "belli": 2502,
      "adına": 2503,
      "finans": 2504,
      "pan": 2505,
      "duruş": 2506,
      "199": 2507,
      "baba": 2508,
      "35": 2509,
      "##dip": 2510,
      "sanay": 2511,
      "##lanma": 2512,
      "edece": 2513,
      "geniş": 2514,
      "hakim": 2515,
      "hastanesi": 2516,
      "grubu": 2517,
      "500": 2518,
      "##liyor": 2519,
      "ifadelerini": 2520,
      "nokt": 2521,
      "rak": 2522,
      "##cat": 2523,
      "##arken": 2524,
      "inan": 2525,
      "söyleyen": 2526,
      "deste": 2527,
      "temel": 2528,
      "çözüm": 2529,
      "çağrı": 2530,
      "müdahale": 2531,
      "giz": 2532,
      "##landığı": 2533,
      "durumu": 2534,
      "kans": 2535,
      "##meleri": 2536,
      "elektrik": 2537,
      "sistemi": 2538,
      "üretim": 2539,
      "45": 2540,
      "başsa": 2541,
      "anne": 2542,
      "onlar": 2543,
      "adlı": 2544,
      "meclis": 2545,
      "hd": 2546,
      "ekonomik": 2547,
      "29": 2548,
      "yarat": 2549,
      "##mıyor": 2550,
      "lis": 2551,
      "sp": 2552,
      "sem": 2553,
      "üz": 2554,
      "düştü": 2555,
      "şiddet": 2556,
      "inşa": 2557,
      "##üncü": 2558,
      "verilen": 2559,
      "bundan": 2560,
      "etkis": 2561,
      "edin": 2562,
      "temiz": 2563,
      "##bilecek": 2564,
      "num": 2565,
      "##bo": 2566,
      "kamer": 2567,
      "başında": 2568,
      "konut": 2569,
      "nisan": 2570,
      "sözleş": 2571,
      "##tur": 2572,
      "sonunda": 2573,
      "yılın": 2574,
      "##başı": 2575,
      "teslim": 2576,
      "bunlar": 2577,
      "lir": 2578,
      "taz": 2579,
      "##miyor": 2580,
      "sk": 2581,
      "canlı": 2582,
      "dört": 2583,
      "zorunda": 2584,
      "dışişleri": 2585,
      "aşk": 2586,
      "sul": 2587,
      "getirdi": 2588,
      "süreç": 2589,
      "zaten": 2590,
      "person": 2591,
      "##taj": 2592,
      "kayıt": 2593,
      "adan": 2594,
      "##üst": 2595,
      "yolu": 2596,
      "ticaret": 2597,
      "arasındaki": 2598,
      "rece": 2599,
      "##ilecek": 2600,
      "hatta": 2601,
      "köpr": 2602,
      "##tay": 2603,
      "araya": 2604,
      "kaf": 2605,
      "##kur": 2606,
      "eşi": 2607,
      "##sınız": 2608,
      "##li̇": 2609,
      "akıl": 2610,
      "oynan": 2611,
      "tayyip": 2612,
      "recep": 2613,
      "##tere": 2614,
      "takımı": 2615,
      "nit": 2616,
      "of": 2617,
      "boğ": 2618,
      "gür": 2619,
      "pen": 2620,
      "##ucu": 2621,
      "işaret": 2622,
      "diyor": 2623,
      "yeş": 2624,
      "ülkede": 2625,
      "##sak": 2626,
      "##..": 2627,
      "##anlığı": 2628,
      "barış": 2629,
      "##liğini": 2630,
      "i̇slam": 2631,
      "lı": 2632,
      "ri": 2633,
      "##dıkları": 2634,
      "##cılar": 2635,
      "geçmiş": 2636,
      "i̇ki": 2637,
      "görül": 2638,
      "##lilik": 2639,
      "doğal": 2640,
      "maçı": 2641,
      "henüz": 2642,
      "##eği": 2643,
      "##cılığı": 2644,
      "cevap": 2645,
      "##asıyla": 2646,
      "istih": 2647,
      "başarılı": 2648,
      "atan": 2649,
      "##vi": 2650,
      "sonrasında": 2651,
      "fu": 2652,
      "mayı": 2653,
      "yemek": 2654,
      "##diş": 2655,
      "kart": 2656,
      "##ağa": 2657,
      "jandarma": 2658,
      "kurtar": 2659,
      "oyunc": 2660,
      "doktor": 2661,
      "geçtiğimiz": 2662,
      "go": 2663,
      "rol": 2664,
      "bilim": 2665,
      "günlük": 2666,
      "konuda": 2667,
      "memur": 2668,
      "risk": 2669,
      "##eg": 2670,
      "komisyon": 2671,
      "yılda": 2672,
      "ekim": 2673,
      "alacak": 2674,
      "##üman": 2675,
      "karşısında": 2676,
      "katıldı": 2677,
      "ata": 2678,
      "mutlu": 2679,
      "##iliği": 2680,
      "fakat": 2681,
      "##abet": 2682,
      "##kaç": 2683,
      "şüphel": 2684,
      "öner": 2685,
      "kuş": 2686,
      "##ilmiş": 2687,
      "##gaz": 2688,
      "list": 2689,
      "saatlerinde": 2690,
      "sınav": 2691,
      "murat": 2692,
      "hızlı": 2693,
      "tepki": 2694,
      "##alar": 2695,
      "karış": 2696,
      "otob": 2697,
      "str": 2698,
      "##ildiği": 2699,
      "mayıs": 2700,
      "müş": 2701,
      "##ilerek": 2702,
      "mahkeme": 2703,
      "milletvekili": 2704,
      "lazım": 2705,
      "hdp": 2706,
      "##ast": 2707,
      "kriz": 2708,
      "unut": 2709,
      "i̇nsan": 2710,
      "kayded": 2711,
      "pyd": 2712,
      "soy": 2713,
      "yöntem": 2714,
      "yağı": 2715,
      "kaybe": 2716,
      "##i̇d": 2717,
      "yılı": 2718,
      "van": 2719,
      "##ılmış": 2720,
      "##ni": 2721,
      "kendisine": 2722,
      "kürt": 2723,
      "##eb": 2724,
      "##inci": 2725,
      "düşür": 2726,
      "kilo": 2727,
      "##acağız": 2728,
      "durdur": 2729,
      "ker": 2730,
      "kulüp": 2731,
      "##ğiniz": 2732,
      "rej": 2733,
      "dışı": 2734,
      "##ğiz": 2735,
      "sıkıntı": 2736,
      "##layacak": 2737,
      "##ate": 2738,
      "##atürk": 2739,
      "tehlik": 2740,
      "##antep": 2741,
      "yık": 2742,
      "tehdit": 2743,
      "öte": 2744,
      "nedenle": 2745,
      "##hal": 2746,
      "##eyin": 2747,
      "##lığa": 2748,
      "fay": 2749,
      "yürü": 2750,
      "31": 2751,
      "##omet": 2752,
      "yarın": 2753,
      "dahil": 2754,
      "belg": 2755,
      "i̇ngiltere": 2756,
      "zir": 2757,
      "##ke": 2758,
      "biraz": 2759,
      "sorum": 2760,
      "başkanlık": 2761,
      "ilçesinde": 2762,
      "model": 2763,
      "trump": 2764,
      "##birliği": 2765,
      "ileri": 2766,
      "atatürk": 2767,
      "şen": 2768,
      "yapacak": 2769,
      "kitap": 2770,
      "birkaç": 2771,
      "gelece": 2772,
      "##dam": 2773,
      "sığın": 2774,
      "orada": 2775,
      "haberler": 2776,
      "bat": 2777,
      "başta": 2778,
      "jo": 2779,
      "##landa": 2780,
      "bizi": 2781,
      "maçında": 2782,
      "nden": 2783,
      "ces": 2784,
      "arama": 2785,
      "fatih": 2786,
      "##ena": 2787,
      "##layarak": 2788,
      "sürekli": 2789,
      "amaç": 2790,
      "dal": 2791,
      "çan": 2792,
      "##lığın": 2793,
      "perfor": 2794,
      "fer": 2795,
      "mot": 2796,
      "##imizi": 2797,
      "tw": 2798,
      "uğr": 2799,
      "##ahim": 2800,
      "##artesi": 2801,
      "gı": 2802,
      "eylül": 2803,
      "bayram": 2804,
      "pas": 2805,
      "giden": 2806,
      "anlattı": 2807,
      "yıllar": 2808,
      "yansı": 2809,
      "ister": 2810,
      "gaziantep": 2811,
      "60": 2812,
      "yeşil": 2813,
      "performan": 2814,
      "##dum": 2815,
      "işi̇d": 2816,
      "aralarında": 2817,
      "sek": 2818,
      "##zı": 2819,
      "bilgiye": 2820,
      "hangi": 2821,
      "almak": 2822,
      "düşük": 2823,
      "tarihinde": 2824,
      "##gör": 2825,
      "ettiğini": 2826,
      "şüpheli": 2827,
      "aslında": 2828,
      "aylık": 2829,
      "yanıt": 2830,
      "cep": 2831,
      "çer": 2832,
      "daeş": 2833,
      "arada": 2834,
      "fransa": 2835,
      "sıcak": 2836,
      "arab": 2837,
      "düzey": 2838,
      "çeşitli": 2839,
      "amacıyla": 2840,
      "proje": 2841,
      "türlü": 2842,
      "##eceğiz": 2843,
      "öğretmen": 2844,
      "sürücü": 2845,
      "##düğü": 2846,
      "##deniz": 2847,
      "##imize": 2848,
      "dünyada": 2849,
      "baz": 2850,
      "satı": 2851,
      "kişiler": 2852,
      "doğu": 2853,
      "gitti": 2854,
      "ndan": 2855,
      "##amız": 2856,
      "##muştu": 2857,
      "görüyor": 2858,
      "val": 2859,
      "##elere": 2860,
      "sert": 2861,
      "kira": 2862,
      "gez": 2863,
      "getiren": 2864,
      "maçta": 2865,
      "bildirildi": 2866,
      "##gen": 2867,
      "ortam": 2868,
      "##dağ": 2869,
      "salon": 2870,
      "##abilecek": 2871,
      "mahkemesi": 2872,
      "##teki": 2873,
      "##sızlık": 2874,
      "serv": 2875,
      "ağr": 2876,
      "##ılma": 2877,
      "kemal": 2878,
      "##sanız": 2879,
      "feder": 2880,
      "##apı": 2881,
      "##asyonu": 2882,
      "bahçe": 2883,
      "dk": 2884,
      "##neği": 2885,
      "gid": 2886,
      "petrol": 2887,
      "galibiyet": 2888,
      "olsa": 2889,
      "ekran": 2890,
      "i̇lçesi": 2891,
      "##lamaya": 2892,
      "2017": 2893,
      "demokrat": 2894,
      "##tepe": 2895,
      "benzer": 2896,
      "sta": 2897,
      "önümüz": 2898,
      "bağlantı": 2899,
      "ihtiyaç": 2900,
      "avukat": 2901,
      "hik": 2902,
      "ted": 2903,
      "tabii": 2904,
      "açısından": 2905,
      "isimli": 2906,
      "yanlış": 2907,
      "osmanlı": 2908,
      "##ale": 2909,
      "##iyah": 2910,
      "olmaz": 2911,
      "diyen": 2912,
      "sebep": 2913,
      "##liye": 2914,
      "mh": 2915,
      "kalp": 2916,
      "##dal": 2917,
      "##luğu": 2918,
      "##laması": 2919,
      "##etin": 2920,
      "olabil": 2921,
      "çeken": 2922,
      "kilomet": 2923,
      "##sinde": 2924,
      "gören": 2925,
      "##daroğlu": 2926,
      "sene": 2927,
      "toprak": 2928,
      "sefer": 2929,
      "zey": 2930,
      "seviy": 2931,
      "gelişme": 2932,
      "esn": 2933,
      "amel": 2934,
      "##eyle": 2935,
      "meş": 2936,
      "tor": 2937,
      "geçiş": 2938,
      "##vizyon": 2939,
      "mor": 2940,
      "fiyatı": 2941,
      "tıp": 2942,
      "##laya": 2943,
      "##çev": 2944,
      "##adan": 2945,
      "adalet": 2946,
      "zen": 2947,
      "##doğu": 2948,
      "televizyon": 2949,
      "yazılı": 2950,
      "fayda": 2951,
      "90": 2952,
      "bunların": 2953,
      "dost": 2954,
      "##dr": 2955,
      "yerde": 2956,
      "gar": 2957,
      "##sinin": 2958,
      "yönetic": 2959,
      "##set": 2960,
      "terörle": 2961,
      "halep": 2962,
      "cer": 2963,
      "##üle": 2964,
      "ruh": 2965,
      "ağrı": 2966,
      "gay": 2967,
      "##ğe": 2968,
      "yaşadığı": 2969,
      "hapis": 2970,
      "##liy": 2971,
      "giren": 2972,
      "##med": 2973,
      "gerekli": 2974,
      "hüs": 2975,
      "istik": 2976,
      "olmadığı": 2977,
      "başsav": 2978,
      "gıda": 2979,
      "anlatan": 2980,
      "?\"": 2981,
      "##umsuz": 2982,
      "arac": 2983,
      "kurtul": 2984,
      "diş": 2985,
      "##sup": 2986,
      "##one": 2987,
      "aya": 2988,
      "##ansı": 2989,
      "önlem": 2990,
      "siyah": 2991,
      "konuşan": 2992,
      "vaz": 2993,
      "##yaspor": 2994,
      "##ona": 2995,
      "##umu": 2996,
      "şube": 2997,
      "diyerek": 2998,
      "tutuklandı": 2999,
      "cuma": 3000,
      "##duk": 3001,
      "başken": 3002,
      "çocuğ": 3003,
      "çatışma": 3004,
      "dolayısıyla": 3005,
      "##rail": 3006,
      "##mam": 3007,
      "poz": 3008,
      "##lığına": 3009,
      "yunan": 3010,
      "##ku": 3011,
      "öncesi": 3012,
      "ikti": 3013,
      "##panya": 3014,
      "kılıçdaroğlu": 3015,
      "##ekk": 3016,
      "yaptır": 3017,
      "tahmin": 3018,
      "çerçev": 3019,
      "adana": 3020,
      "turizm": 3021,
      "##tıldı": 3022,
      "müsl": 3023,
      "trafik": 3024,
      "demek": 3025,
      "yolcu": 3026,
      "ediliyor": 3027,
      "söylü": 3028,
      "zam": 3029,
      "başar": 3030,
      "balık": 3031,
      "##luluk": 3032,
      "hayata": 3033,
      "kendisini": 3034,
      "final": 3035,
      "nur": 3036,
      "##abak": 3037,
      "çekti": 3038,
      "rakam": 3039,
      "##asından": 3040,
      "sayın": 3041,
      "##to": 3042,
      "##layıcı": 3043,
      "mensup": 3044,
      "bür": 3045,
      "önüne": 3046,
      "yarar": 3047,
      "##elerde": 3048,
      "oku": 3049,
      "day": 3050,
      "baskı": 3051,
      "yasa": 3052,
      "çelik": 3053,
      "kala": 3054,
      "co": 3055,
      "hâ": 3056,
      "amerika": 3057,
      "olup": 3058,
      "normal": 3059,
      "det": 3060,
      "çal": 3061,
      "##ydı": 3062,
      "hır": 3063,
      "##türk": 3064,
      "günlerde": 3065,
      "kanal": 3066,
      "##mıza": 3067,
      "doğan": 3068,
      "i̇ngiliz": 3069,
      "ilan": 3070,
      "kir": 3071,
      "lik": 3072,
      "ölü": 3073,
      "##bin": 3074,
      "haft": 3075,
      "etkili": 3076,
      "üs": 3077,
      "##mızın": 3078,
      "tedbir": 3079,
      "##lanmış": 3080,
      "gerekir": 3081,
      "ndeki": 3082,
      "kahr": 3083,
      "sanık": 3084,
      "gösterdi": 3085,
      "başvuru": 3086,
      "enf": 3087,
      "karşılık": 3088,
      "hüc": 3089,
      "##cut": 3090,
      "yönünde": 3091,
      "uyarı": 3092,
      "buluş": 3093,
      "##har": 3094,
      "alanda": 3095,
      "##brahim": 3096,
      "i̇h": 3097,
      "defa": 3098,
      "yere": 3099,
      "##pek": 3100,
      "bulut": 3101,
      "girdi": 3102,
      "muha": 3103,
      "ihti": 3104,
      "kahraman": 3105,
      "kays": 3106,
      "denet": 3107,
      "fetullah": 3108,
      "caddesi": 3109,
      "vali": 3110,
      "olumsuz": 3111,
      "yetiş": 3112,
      "tamamen": 3113,
      "mis": 3114,
      "ömer": 3115,
      "sorgu": 3116,
      "hayvan": 3117,
      "bağım": 3118,
      "##ze": 3119,
      "##sed": 3120,
      "değildir": 3121,
      "babası": 3122,
      "##liler": 3123,
      "yaln": 3124,
      "##inc": 3125,
      "##udi": 3126,
      "etme": 3127,
      "demokrasi": 3128,
      "sine": 3129,
      "i̇srail": 3130,
      "bomb": 3131,
      "##iyeti": 3132,
      "mevcut": 3133,
      "merak": 3134,
      "umut": 3135,
      "soğ": 3136,
      "##tesi": 3137,
      "##iran": 3138,
      "##macı": 3139,
      "kong": 3140,
      "işlet": 3141,
      "dü": 3142,
      "iler": 3143,
      "çav": 3144,
      "parç": 3145,
      "mahalle": 3146,
      "##lenmesi": 3147,
      "##lığının": 3148,
      "inceleme": 3149,
      "bankası": 3150,
      "adli": 3151,
      "üçüncü": 3152,
      "##co": 3153,
      "deaş": 3154,
      "döneminde": 3155,
      "##dıklarını": 3156,
      "tuz": 3157,
      "ona": 3158,
      "dışarı": 3159,
      "yaralandı": 3160,
      "yalnız": 3161,
      "yerinde": 3162,
      "cezaev": 3163,
      "70": 3164,
      "muhalif": 3165,
      "şe": 3166,
      "##meni": 3167,
      "##tiş": 3168,
      "bakım": 3169,
      "kızı": 3170,
      "gem": 3171,
      "##çak": 3172,
      "##landırı": 3173,
      "sayesinde": 3174,
      "önümüzdeki": 3175,
      "##madığı": 3176,
      "tv": 3177,
      "olmaya": 3178,
      "otel": 3179,
      "kanun": 3180,
      "başkanlığı": 3181,
      "küresel": 3182,
      "erken": 3183,
      "##i̇n": 3184,
      "amerik": 3185,
      "##form": 3186,
      "oluşan": 3187,
      "nerede": 3188,
      "uğur": 3189,
      "bm": 3190,
      "##eyim": 3191,
      "çey": 3192,
      "##ons": 3193,
      "personel": 3194,
      "ale": 3195,
      "vardır": 3196,
      "müzik": 3197,
      "fon": 3198,
      "##demir": 3199,
      "olmadı": 3200,
      "borç": 3201,
      "bekleniyor": 3202,
      "##yi": 3203,
      "##lisi": 3204,
      "haline": 3205,
      "tip": 3206,
      "metre": 3207,
      "müslüman": 3208,
      "##anıyor": 3209,
      "bildirdi": 3210,
      "kanser": 3211,
      "çavuş": 3212,
      "##atif": 3213,
      "edilmesi": 3214,
      "kendini": 3215,
      "##matik": 3216,
      "istiyor": 3217,
      "aj": 3218,
      "çıkış": 3219,
      "belki": 3220,
      "itir": 3221,
      "çö": 3222,
      "bede": 3223,
      "##lanarak": 3224,
      "##ulması": 3225,
      "##elerinin": 3226,
      "nef": 3227,
      "katılım": 3228,
      "oba": 3229,
      "yum": 3230,
      "def": 3231,
      "##ulan": 3232,
      "sona": 3233,
      "##ğinin": 3234,
      "belediyesi": 3235,
      "nak": 3236,
      "peş": 3237,
      "kaza": 3238,
      "beri": 3239,
      "sını": 3240,
      "etkisiz": 3241,
      "müh": 3242,
      "öğ": 3243,
      "bursa": 3244,
      "##lığında": 3245,
      "doğr": 3246,
      "kamp": 3247,
      "cezası": 3248,
      "##duğunu": 3249,
      "i̇brahim": 3250,
      "süren": 3251,
      "##tıyor": 3252,
      "##lel": 3253,
      "emre": 3254,
      "obama": 3255,
      "bugüne": 3256,
      "kesim": 3257,
      "##luğ": 3258,
      "##ğust": 3259,
      "ağust": 3260,
      "##yum": 3261,
      "##laka": 3262,
      "##lasyon": 3263,
      "kaydedildi": 3264,
      "##acağını": 3265,
      "yaşında": 3266,
      "tesis": 3267,
      "operasyonda": 3268,
      "32": 3269,
      "##bur": 3270,
      "##paşa": 3271,
      "teşekk": 3272,
      "davet": 3273,
      "çoğ": 3274,
      "paralel": 3275,
      "ton": 3276,
      "patlama": 3277,
      "kupası": 3278,
      "derneği": 3279,
      "sonuc": 3280,
      "##şık": 3281,
      "birleş": 3282,
      "orman": 3283,
      "hasan": 3284,
      "kimse": 3285,
      "##geç": 3286,
      "kaybetti": 3287,
      "min": 3288,
      "##ene": 3289,
      "albay": 3290,
      "büyükşehir": 3291,
      "##ülü": 3292,
      "kims": 3293,
      "güm": 3294,
      "firma": 3295,
      "kilometre": 3296,
      "##tarı": 3297,
      "attı": 3298,
      "ihracat": 3299,
      "port": 3300,
      "sanatçı": 3301,
      "vit": 3302,
      "vol": 3303,
      "##lamen": 3304,
      "değişiklik": 3305,
      "##sur": 3306,
      "aka": 3307,
      "örnek": 3308,
      "mağdur": 3309,
      "gerekç": 3310,
      "oldukça": 3311,
      "saray": 3312,
      "##masından": 3313,
      "yayım": 3314,
      "böylece": 3315,
      "mhp": 3316,
      "onların": 3317,
      "kaçak": 3318,
      "hüseyin": 3319,
      "çay": 3320,
      "anlat": 3321,
      "##anım": 3322,
      "##masıyla": 3323,
      "civar": 3324,
      "##go": 3325,
      "##etik": 3326,
      "derin": 3327,
      "##undaki": 3328,
      "fes": 3329,
      "yapıla": 3330,
      "##süz": 3331,
      "haziran": 3332,
      "aşağı": 3333,
      "ediyorum": 3334,
      "sakat": 3335,
      "heyec": 3336,
      "hesab": 3337,
      "teknoloji": 3338,
      "renk": 3339,
      "##ayla": 3340,
      "##sizlik": 3341,
      "teşekkür": 3342,
      "azal": 3343,
      "##ana": 3344,
      "veriyor": 3345,
      "eser": 3346,
      "##limanı": 3347,
      "##lulu": 3348,
      "##uyu": 3349,
      "yasak": 3350,
      "ağustos": 3351,
      "krit": 3352,
      "acil": 3353,
      "80": 3354,
      "hain": 3355,
      "hayır": 3356,
      "arkadaşı": 3357,
      "not": 3358,
      "fırsat": 3359,
      "sultan": 3360,
      "kem": 3361,
      "forma": 3362,
      "36": 3363,
      "##ğan": 3364,
      "##imin": 3365,
      "kullandığı": 3366,
      "adr": 3367,
      "##pany": 3368,
      "##yo": 3369,
      "##ğının": 3370,
      "##ho": 3371,
      "##ham": 3372,
      "##alım": 3373,
      "huz": 3374,
      "tec": 3375,
      "##taki": 3376,
      "##pg": 3377,
      "##espor": 3378,
      "etmeye": 3379,
      "olduğuna": 3380,
      "sunu": 3381,
      "##kın": 3382,
      "havalimanı": 3383,
      "pozisyon": 3384,
      "akadem": 3385,
      "namaz": 3386,
      "çevre": 3387,
      "hollanda": 3388,
      "şikayet": 3389,
      "##inç": 3390,
      "çalışıyor": 3391,
      "##yu": 3392,
      "huzur": 3393,
      "##esindeki": 3394,
      "##mesiyle": 3395,
      "yönetimi": 3396,
      "##eyecek": 3397,
      "saygı": 3398,
      "##ff": 3399,
      "##abir": 3400,
      "yüzden": 3401,
      "hazırlık": 3402,
      "##ent": 3403,
      "çıkıyor": 3404,
      "kayb": 3405,
      "ölç": 3406,
      "dokun": 3407,
      "lar": 3408,
      "naz": 3409,
      "öden": 3410,
      "depr": 3411,
      "kali": 3412,
      "cihaz": 3413,
      "zengin": 3414,
      "gösteren": 3415,
      "yapılması": 3416,
      "ders": 3417,
      "piyasa": 3418,
      "34": 3419,
      "tok": 3420,
      "parlamen": 3421,
      "düzenleme": 3422,
      "##mm": 3423,
      "getirildi": 3424,
      "durumunda": 3425,
      "sınıf": 3426,
      "zira": 3427,
      "##tren": 3428,
      "##bulan": 3429,
      "olumlu": 3430,
      "ambulan": 3431,
      "dünyaya": 3432,
      "pa": 3433,
      "araştır": 3434,
      "miktar": 3435,
      "ler": 3436,
      "şar": 3437,
      "alk": 3438,
      "suriyeli": 3439,
      "ameliyat": 3440,
      "prot": 3441,
      "##ıldığını": 3442,
      "idar": 3443,
      "ue": 3444,
      "geçer": 3445,
      "girişimi": 3446,
      "tb": 3447,
      "##atör": 3448,
      "##larındaki": 3449,
      "##barat": 3450,
      "bitir": 3451,
      "##imde": 3452,
      "##emez": 3453,
      "yerleş": 3454,
      "serg": 3455,
      "ödeme": 3456,
      "alma": 3457,
      "yerli": 3458,
      "twit": 3459,
      "uefa": 3460,
      "emekli": 3461,
      "zirv": 3462,
      "keş": 3463,
      "##rü": 3464,
      "sanayi": 3465,
      "kıy": 3466,
      "##lemeye": 3467,
      "üye": 3468,
      "detay": 3469,
      "belirlendi": 3470,
      "politika": 3471,
      "alarak": 3472,
      "2013": 3473,
      "isten": 3474,
      "##larımızın": 3475,
      "maaş": 3476,
      "hayal": 3477,
      "hakkı": 3478,
      "##ust": 3479,
      "##tiler": 3480,
      "##ina": 3481,
      "kapalı": 3482,
      "tarım": 3483,
      "tartışma": 3484,
      "çak": 3485,
      "##rah": 3486,
      "##lenme": 3487,
      "abdu": 3488,
      "çalışmaları": 3489,
      "biç": 3490,
      "süt": 3491,
      "##mail": 3492,
      "kamuoy": 3493,
      "samsun": 3494,
      "çap": 3495,
      "birinci": 3496,
      "yola": 3497,
      "##daş": 3498,
      "##ati": 3499,
      "kaya": 3500,
      "iktidar": 3501,
      "dayan": 3502,
      "öngör": 3503,
      "çıkarı": 3504,
      "kurumu": 3505,
      "milletvekil": 3506,
      "rakip": 3507,
      "300": 3508,
      "peki": 3509,
      "şans": 3510,
      "##par": 3511,
      "##anlar": 3512,
      "yapma": 3513,
      "gönül": 3514,
      "##orta": 3515,
      "##lıkla": 3516,
      "insanlar": 3517,
      "kayıp": 3518,
      "twitter": 3519,
      "gündeme": 3520,
      "kış": 3521,
      "##iydi": 3522,
      "##liğe": 3523,
      "danış": 3524,
      "ekibi": 3525,
      "cami": 3526,
      "##barı": 3527,
      "bebek": 3528,
      "müşter": 3529,
      "sorumlu": 3530,
      "asıl": 3531,
      "vatandaşlar": 3532,
      "tüf": 3533,
      "##ib": 3534,
      "otobüs": 3535,
      "ağa": 3536,
      "bölümü": 3537,
      "33": 3538,
      "##oda": 3539,
      "##larım": 3540,
      "hakan": 3541,
      "insanların": 3542,
      "edildiği": 3543,
      "tun": 3544,
      "neler": 3545,
      "pak": 3546,
      "##olojik": 3547,
      "vermek": 3548,
      "onur": 3549,
      "düzenlen": 3550,
      "ade": 3551,
      "##his": 3552,
      "doğum": 3553,
      "##tılan": 3554,
      "eksik": 3555,
      "tasar": 3556,
      "tatil": 3557,
      "buldu": 3558,
      "kulübü": 3559,
      "altı": 3560,
      "geldiği": 3561,
      "ilaç": 3562,
      "ez": 3563,
      "##ding": 3564,
      "##ciler": 3565,
      "##onya": 3566,
      "##larımızı": 3567,
      "alır": 3568,
      "09": 3569,
      "prob": 3570,
      "esk": 3571,
      "##ılan": 3572,
      "##urken": 3573,
      "sağlıklı": 3574,
      "nüf": 3575,
      "yazar": 3576,
      "şahin": 3577,
      "pil": 3578,
      "##car": 3579,
      "devletin": 3580,
      "red": 3581,
      "##rik": 3582,
      "işç": 3583,
      "çevir": 3584,
      "vide": 3585,
      "##uluyor": 3586,
      "i̇k": 3587,
      "kayn": 3588,
      "ortalama": 3589,
      "##lasman": 3590,
      "burs": 3591,
      "cem": 3592,
      "sürede": 3593,
      "75": 3594,
      "##biyle": 3595,
      "endiş": 3596,
      "##lamaz": 3597,
      "düşen": 3598,
      "lim": 3599,
      "üm": 3600,
      "##muyor": 3601,
      "antren": 3602,
      "verecek": 3603,
      "aracı": 3604,
      "oğlu": 3605,
      "sigorta": 3606,
      "ypg": 3607,
      "##larca": 3608,
      "##dat": 3609,
      "etmesi": 3610,
      "new": 3611,
      "##ınar": 3612,
      "aşırı": 3613,
      "i̇smail": 3614,
      "to": 3615,
      "ihtiyacı": 3616,
      "direktörü": 3617,
      "psik": 3618,
      "akp": 3619,
      "parça": 3620,
      "evde": 3621,
      "yakalandı": 3622,
      "##bal": 3623,
      "##iyer": 3624,
      "yerel": 3625,
      "198": 3626,
      "lideri": 3627,
      "eya": 3628,
      "##allah": 3629,
      "vergi": 3630,
      "muhale": 3631,
      "##elerine": 3632,
      "##inizi": 3633,
      "##gar": 3634,
      "del": 3635,
      "içeri": 3636,
      "saç": 3637,
      "sürüyor": 3638,
      "akın": 3639,
      "##üler": 3640,
      "##ırnak": 3641,
      "far": 3642,
      "##ücu": 3643,
      "muhabir": 3644,
      "beyazlı": 3645,
      "yit": 3646,
      "##mur": 3647,
      "topu": 3648,
      "bunları": 3649,
      "açılış": 3650,
      "sizin": 3651,
      "##büs": 3652,
      "##rika": 3653,
      "varsa": 3654,
      "saha": 3655,
      "##üstü": 3656,
      "yavaş": 3657,
      "##ân": 3658,
      "turist": 3659,
      "şaş": 3660,
      "operasyonu": 3661,
      "ediyoruz": 3662,
      "cumhuriyeti": 3663,
      "söyley": 3664,
      "ilgi": 3665,
      "altını": 3666,
      "hafif": 3667,
      "vurgulayan": 3668,
      "fab": 3669,
      "##ko": 3670,
      "sahn": 3671,
      "eg": 3672,
      "servis": 3673,
      "söylüyor": 3674,
      "etkil": 3675,
      "##liğinde": 3676,
      "kullanılan": 3677,
      "düşüş": 3678,
      "uyar": 3679,
      "annesi": 3680,
      "yitir": 3681,
      "he": 3682,
      "plak": 3683,
      "yolc": 3684,
      "car": 3685,
      "xx": 3686,
      "##20": 3687,
      "başı": 3688,
      "benz": 3689,
      "seviye": 3690,
      "yaparak": 3691,
      "konya": 3692,
      "kişilerin": 3693,
      "hastaneye": 3694,
      "ulaştı": 3695,
      "yurtdı": 3696,
      "kişilik": 3697,
      "size": 3698,
      "rejim": 3699,
      "kaldırı": 3700,
      "çalışmalar": 3701,
      "tbmm": 3702,
      "birim": 3703,
      "oranı": 3704,
      "meslek": 3705,
      "##cının": 3706,
      "gelin": 3707,
      "asla": 3708,
      "kendisi": 3709,
      "anlaşma": 3710,
      "ettir": 3711,
      "##ildiğini": 3712,
      "olağan": 3713,
      "##oto": 3714,
      "problem": 3715,
      "##muştur": 3716,
      "genelkur": 3717,
      "güçleri": 3718,
      "tepk": 3719,
      "kaybeden": 3720,
      "##atej": 3721,
      "##bi̇": 3722,
      "istiyorum": 3723,
      "ir": 3724,
      "endek": 3725,
      "gide": 3726,
      "##ilendir": 3727,
      "##sef": 3728,
      "olacağını": 3729,
      "patlayıcı": 3730,
      "mutlaka": 3731,
      "yerleştir": 3732,
      "seyir": 3733,
      "deplasman": 3734,
      "yalan": 3735,
      "unsur": 3736,
      "satın": 3737,
      "stratej": 3738,
      "nö": 3739,
      "kimlik": 3740,
      "imk": 3741,
      "genelkurmay": 3742,
      "yeri": 3743,
      "##mızda": 3744,
      "karşıya": 3745,
      "##elerinde": 3746,
      "sel": 3747,
      "ıs": 3748,
      "katılan": 3749,
      "kuvvetleri": 3750,
      "gökhan": 3751,
      "taşıyan": 3752,
      "akıllı": 3753,
      "lo": 3754,
      "çıkacak": 3755,
      "bayrak": 3756,
      "##lırken": 3757,
      "içine": 3758,
      "gizli": 3759,
      "keli": 3760,
      "##masın": 3761,
      "aziz": 3762,
      "çocuklar": 3763,
      "vatan": 3764,
      "muham": 3765,
      "vazgeç": 3766,
      "hi": 3767,
      "rom": 3768,
      "tiyat": 3769,
      "##ag": 3770,
      "##anam": 3771,
      "arda": 3772,
      "alanı": 3773,
      "##si̇": 3774,
      "halde": 3775,
      "aşa": 3776,
      "gur": 3777,
      "tez": 3778,
      "karay": 3779,
      "ayır": 3780,
      "holding": 3781,
      "yapmaya": 3782,
      "başak": 3783,
      "##utin": 3784,
      "halkı": 3785,
      "##oli": 3786,
      "park": 3787,
      "yürüy": 3788,
      "motor": 3789,
      "nöbet": 3790,
      "sonuna": 3791,
      "yıllarda": 3792,
      "yunanistan": 3793,
      "i̇yi": 3794,
      "##duğ": 3795,
      "##liğine": 3796,
      "gerçekleştirilen": 3797,
      "the": 3798,
      "hür": 3799,
      "tir": 3800,
      "##kaya": 3801,
      "##cilik": 3802,
      "alb": 3803,
      "köş": 3804,
      "cinsel": 3805,
      "civarında": 3806,
      "##slan": 3807,
      "##ia": 3808,
      "##mıyla": 3809,
      "yürütülen": 3810,
      "müsabak": 3811,
      "muhalefet": 3812,
      "vücu": 3813,
      "belirlen": 3814,
      "eve": 3815,
      "ast": 3816,
      "##âr": 3817,
      "örgütün": 3818,
      "başbakanı": 3819,
      "yağış": 3820,
      "stan": 3821,
      "##ıs": 3822,
      "##zan": 3823,
      "nı": 3824,
      "çaba": 3825,
      "alına": 3826,
      "ayk": 3827,
      "yapımı": 3828,
      "yoktur": 3829,
      "saldırıda": 3830,
      "##gener": 3831,
      "##ahat": 3832,
      "yetkililer": 3833,
      "##ite": 3834,
      "gerekçesiyle": 3835,
      "zaf": 3836,
      "vuruş": 3837,
      "kaçır": 3838,
      "takımın": 3839,
      "kullanıcı": 3840,
      "39": 3841,
      "istiyoruz": 3842,
      "koca": 3843,
      "cinayet": 3844,
      "volkan": 3845,
      "##aka": 3846,
      "arena": 3847,
      "görüldü": 3848,
      "konuk": 3849,
      "yaptık": 3850,
      "hatırla": 3851,
      "##dil": 3852,
      "binlerce": 3853,
      "özellik": 3854,
      "inci": 3855,
      "korun": 3856,
      "##meyece": 3857,
      "dolarlık": 3858,
      "programı": 3859,
      "marka": 3860,
      "arka": 3861,
      "##ümü": 3862,
      "güc": 3863,
      "tiyatro": 3864,
      "##sim": 3865,
      "##maması": 3866,
      "algı": 3867,
      "belediy": 3868,
      "herkesin": 3869,
      "bı": 3870,
      "hayatı": 3871,
      "arz": 3872,
      "bina": 3873,
      "##mesinde": 3874,
      "##lete": 3875,
      "i̇talya": 3876,
      "öldü": 3877,
      "diren": 3878,
      "##öl": 3879,
      "##amıyor": 3880,
      "yaptıkları": 3881,
      "##sas": 3882,
      "karab": 3883,
      "şeker": 3884,
      "duygu": 3885,
      "##oloji": 3886,
      "##general": 3887,
      "çağı": 3888,
      "##ılmaz": 3889,
      "büyüm": 3890,
      "hakaret": 3891,
      "yıla": 3892,
      "partisi": 3893,
      "sıralarında": 3894,
      "sil": 3895,
      "##şallah": 3896,
      "onları": 3897,
      "ambulans": 3898,
      "##lâ": 3899,
      "evet": 3900,
      "bilgiler": 3901,
      "mi̇": 3902,
      "şi": 3903,
      "##yım": 3904,
      "emin": 3905,
      "malz": 3906,
      "süreci": 3907,
      "yaşıyor": 3908,
      "yenil": 3909,
      "ulusal": 3910,
      "karakter": 3911,
      "fiz": 3912,
      "##rem": 3913,
      "##amet": 3914,
      "us": 3915,
      "##liğin": 3916,
      "kaldırıldı": 3917,
      "çetin": 3918,
      "##hat": 3919,
      "##ikat": 3920,
      "alty": 3921,
      "##leye": 3922,
      "ortadan": 3923,
      "##ult": 3924,
      "maçın": 3925,
      "konuşma": 3926,
      "çerçevesinde": 3927,
      "abdul": 3928,
      "memn": 3929,
      "iptal": 3930,
      "kamera": 3931,
      "kop": 3932,
      "sorunu": 3933,
      "rekor": 3934,
      "65": 3935,
      "no": 3936,
      "rö": 3937,
      "çekil": 3938,
      "kendilerine": 3939,
      "mağlu": 3940,
      "büyüme": 3941,
      "cil": 3942,
      "attığı": 3943,
      "##abiliyor": 3944,
      "mobil": 3945,
      "açıldı": 3946,
      "fil": 3947,
      "vade": 3948,
      "birey": 3949,
      "i̇kinci": 3950,
      "koru": 3951,
      "yaralanan": 3952,
      "grub": 3953,
      "eyalet": 3954,
      "yaptığını": 3955,
      "düğ": 3956,
      "sonucunda": 3957,
      "halkın": 3958,
      "##aat": 3959,
      "suudi": 3960,
      "##mayın": 3961,
      "koruma": 3962,
      "mülteci": 3963,
      "ça": 3964,
      "##emin": 3965,
      "##evi": 3966,
      "hac": 3967,
      "gerçekten": 3968,
      "hoca": 3969,
      "##ray": 3970,
      "##liyoruz": 3971,
      "##ileş": 3972,
      "yapım": 3973,
      "##cağına": 3974,
      "slo": 3975,
      "##mediği": 3976,
      "##vert": 3977,
      "skor": 3978,
      "sığınmacı": 3979,
      "55": 3980,
      "sap": 3981,
      "##soy": 3982,
      "##ital": 3983,
      "kazandı": 3984,
      "medy": 3985,
      "##iyel": 3986,
      "##lıp": 3987,
      "açılan": 3988,
      "kaydeden": 3989,
      "dip": 3990,
      "##ıcı": 3991,
      "##hi": 3992,
      "##erken": 3993,
      "kilis": 3994,
      "##memiş": 3995,
      "desteği": 3996,
      "vek": 3997,
      "yeterli": 3998,
      "##ond": 3999,
      "rest": 4000,
      "##ündeki": 4001,
      "izley": 4002,
      "değerlendirme": 4003,
      "##düm": 4004,
      "ayı": 4005,
      "erz": 4006,
      "evinde": 4007,
      "çocukların": 4008,
      "kok": 4009,
      "##manız": 4010,
      "toplu": 4011,
      "geldiğini": 4012,
      "bilinen": 4013,
      "##meyecek": 4014,
      "##iği": 4015,
      "##he": 4016,
      "##gari": 4017,
      "##laşma": 4018,
      "lu": 4019,
      "##ren": 4020,
      "##yse": 4021,
      "##ever": 4022,
      "komutanı": 4023,
      "şeyi": 4024,
      "##abilirsiniz": 4025,
      "tazmin": 4026,
      "arap": 4027,
      "##tacak": 4028,
      "##vik": 4029,
      "##civert": 4030,
      "başlayacak": 4031,
      "soğuk": 4032,
      "##isyen": 4033,
      "mali": 4034,
      "##i̇r": 4035,
      "bölgeye": 4036,
      "krizi": 4037,
      "konser": 4038,
      "nes": 4039,
      "olmuş": 4040,
      "etmiş": 4041,
      "basket": 4042,
      "azer": 4043,
      "zanlı": 4044,
      "##ple": 4045,
      "##şi": 4046,
      "##esiz": 4047,
      "dağ": 4048,
      "##eci": 4049,
      "hali": 4050,
      "istediği": 4051,
      "ederken": 4052,
      "rahatsız": 4053,
      "demokratik": 4054,
      "ima": 4055,
      "##usuna": 4056,
      "direk": 4057,
      "cema": 4058,
      "göçmen": 4059,
      "boyut": 4060,
      "dök": 4061,
      "dis": 4062,
      "şırnak": 4063,
      "##ato": 4064,
      "##lent": 4065,
      "hakları": 4066,
      "olursa": 4067,
      "tık": 4068,
      "##mel": 4069,
      "2012": 4070,
      "komş": 4071,
      "üstün": 4072,
      "dilek": 4073,
      "test": 4074,
      "##memiz": 4075,
      "başlan": 4076,
      "alanında": 4077,
      "olmalı": 4078,
      "taban": 4079,
      "sokağa": 4080,
      "üniversite": 4081,
      "2011": 4082,
      "bölgesinde": 4083,
      "uk": 4084,
      "##ry": 4085,
      "##say": 4086,
      "kurban": 4087,
      "terk": 4088,
      "##osk": 4089,
      "elbet": 4090,
      "##di̇": 4091,
      "##embe": 4092,
      "edilecek": 4093,
      "harekat": 4094,
      "enflasyon": 4095,
      "##yer": 4096,
      "##po": 4097,
      "##gal": 4098,
      "kaldığı": 4099,
      "katıl": 4100,
      "##landığını": 4101,
      "bulutlu": 4102,
      "usta": 4103,
      "şiş": 4104,
      "##esyon": 4105,
      "saf": 4106,
      "iletiş": 4107,
      "sürdü": 4108,
      "hala": 4109,
      "##osya": 4110,
      "yükse": 4111,
      "projesi": 4112,
      "hisset": 4113,
      "olduklarını": 4114,
      "kısm": 4115,
      "##mali": 4116,
      "maden": 4117,
      "şeyler": 4118,
      "gençler": 4119,
      "##malıdır": 4120,
      "vurguladı": 4121,
      "ege": 4122,
      "pop": 4123,
      "bilgis": 4124,
      "musul": 4125,
      "düşünüyorum": 4126,
      "memnun": 4127,
      "restor": 4128,
      "##antaj": 4129,
      "##enek": 4130,
      "gördük": 4131,
      "teki": 4132,
      "imha": 4133,
      "yaşandı": 4134,
      "alıp": 4135,
      "lacivert": 4136,
      "köprü": 4137,
      "çi": 4138,
      "##ğinden": 4139,
      "##hone": 4140,
      "genelinde": 4141,
      "cenaze": 4142,
      "inşaat": 4143,
      "bol": 4144,
      "tü": 4145,
      "##fı": 4146,
      "konum": 4147,
      "##rag": 4148,
      "şirketi": 4149,
      "harekete": 4150,
      "altyapı": 4151,
      "##ilir": 4152,
      "##iyiz": 4153,
      "görülen": 4154,
      "büyükelç": 4155,
      "asya": 4156,
      "##veriş": 4157,
      "taşın": 4158,
      "komutanlığı": 4159,
      "dolu": 4160,
      "odak": 4161,
      "pdy": 4162,
      "döndü": 4163,
      "kapas": 4164,
      "##mür": 4165,
      "denildi": 4166,
      "öğrenciler": 4167,
      "37": 4168,
      "plat": 4169,
      "##gisi": 4170,
      "belç": 4171,
      "örne": 4172,
      "sonraki": 4173,
      "hisse": 4174,
      "##seniz": 4175,
      "38": 4176,
      "##dun": 4177,
      "##larımıza": 4178,
      "vatandaşların": 4179,
      "kırmızılı": 4180,
      "açtı": 4181,
      "kuruş": 4182,
      "putin": 4183,
      "evine": 4184,
      "açıklaması": 4185,
      "tutuklu": 4186,
      "if": 4187,
      "##gül": 4188,
      "##emi": 4189,
      "olayın": 4190,
      "cumhurbaşkanlığı": 4191,
      "nec": 4192,
      "##binin": 4193,
      "##siye": 4194,
      "belirtilen": 4195,
      "arabistan": 4196,
      "01": 4197,
      "sim": 4198,
      "##sır": 4199,
      "##iyan": 4200,
      "##edeki": 4201,
      "cumartesi": 4202,
      "##kale": 4203,
      "öğrenci": 4204,
      "etkilen": 4205,
      "sinan": 4206,
      "organiz": 4207,
      "##onik": 4208,
      "selç": 4209,
      "kararlı": 4210,
      "teşvik": 4211,
      "kamyon": 4212,
      "koşul": 4213,
      "selçuk": 4214,
      "dizi": 4215,
      "kör": 4216,
      "tsk": 4217,
      "yeme": 4218,
      "##lardır": 4219,
      "olacağı": 4220,
      "bölgesi": 4221,
      "stat": 4222,
      "41": 4223,
      "artı": 4224,
      "##liğinin": 4225,
      "yapacağı": 4226,
      "başlattı": 4227,
      "uçuş": 4228,
      "bazen": 4229,
      "başlat": 4230,
      "ins": 4231,
      "mersin": 4232,
      "imkan": 4233,
      "paylaşım": 4234,
      "sözcüsü": 4235,
      "fakül": 4236,
      "liraya": 4237,
      "kayseri": 4238,
      "bilgisay": 4239,
      "##dikten": 4240,
      "beğ": 4241,
      "bebe": 4242,
      "savaşı": 4243,
      "heyet": 4244,
      "giderek": 4245,
      "mezar": 4246,
      "amerikan": 4247,
      "##tek": 4248,
      "önde": 4249,
      "çıkma": 4250,
      "##elim": 4251,
      "bulunduğunu": 4252,
      "uygulan": 4253,
      "prim": 4254,
      "yaşamını": 4255,
      "işi": 4256,
      "işbirliği": 4257,
      "üncü": 4258,
      "gösteriyor": 4259,
      "##lerimizi": 4260,
      "anlamda": 4261,
      "ukray": 4262,
      "sahte": 4263,
      "seyahat": 4264,
      "toplantısında": 4265,
      "iphone": 4266,
      "doldur": 4267,
      "fizik": 4268,
      "lük": 4269,
      "##nam": 4270,
      "##limiz": 4271,
      "kadınlar": 4272,
      "oğuz": 4273,
      "apple": 4274,
      "##rid": 4275,
      "kural": 4276,
      "ifadesini": 4277,
      "yönetmen": 4278,
      "şehr": 4279,
      "oynanan": 4280,
      "hücre": 4281,
      "adeta": 4282,
      "jap": 4283,
      "kıl": 4284,
      "rez": 4285,
      "istis": 4286,
      "##biliyor": 4287,
      "##tıkları": 4288,
      "medyada": 4289,
      "sız": 4290,
      "##lardı": 4291,
      "kurulan": 4292,
      "başakşehir": 4293,
      "46": 4294,
      "yur": 4295,
      "##cisi": 4296,
      "işada": 4297,
      "milletin": 4298,
      "##book": 4299,
      "geçici": 4300,
      "paris": 4301,
      "fırat": 4302,
      "etkinlik": 4303,
      "çeyrek": 4304,
      "02": 4305,
      "##yaş": 4306,
      "##ılmasına": 4307,
      "onlara": 4308,
      "değerli": 4309,
      "hazırlanan": 4310,
      "yatırımcı": 4311,
      "elbette": 4312,
      "47": 4313,
      "##ruk": 4314,
      "aran": 4315,
      "geril": 4316,
      "metrek": 4317,
      "hepsi": 4318,
      "dahi": 4319,
      "##od": 4320,
      "##üyle": 4321,
      "##ây": 4322,
      "197": 4323,
      "davr": 4324,
      "komisyonu": 4325,
      "yapmış": 4326,
      "##lamadı": 4327,
      "alınması": 4328,
      "tel": 4329,
      "##usunu": 4330,
      "bölü": 4331,
      "çıkardı": 4332,
      "şanlı": 4333,
      "##ulmaz": 4334,
      "##isel": 4335,
      "##ilerden": 4336,
      "koor": 4337,
      "ligde": 4338,
      "##alis": 4339,
      "anali": 4340,
      "kişiyi": 4341,
      "pilot": 4342,
      "ob": 4343,
      "##bine": 4344,
      "##cusu": 4345,
      "##lıkları": 4346,
      "##leşme": 4347,
      "oto": 4348,
      "i̇lçe": 4349,
      "sinir": 4350,
      "ticari": 4351,
      "tün": 4352,
      "##lip": 4353,
      "##eyn": 4354,
      "##ezz": 4355,
      "bülent": 4356,
      "devre": 4357,
      "açıklandı": 4358,
      "2010": 4359,
      "dolara": 4360,
      "sizi": 4361,
      "düşünce": 4362,
      "##lamanın": 4363,
      "##hane": 4364,
      "olayı": 4365,
      "yoksa": 4366,
      "ismi": 4367,
      "##elikop": 4368,
      "ortadoğu": 4369,
      "##veç": 4370,
      "alışveriş": 4371,
      "olağanüstü": 4372,
      "helikop": 4373,
      "şok": 4374,
      "başlıyor": 4375,
      "##ayıf": 4376,
      "haberine": 4377,
      "onay": 4378,
      "katıldığı": 4379,
      "diplo": 4380,
      "vir": 4381,
      "topra": 4382,
      "düşman": 4383,
      "takdir": 4384,
      "gözyaş": 4385,
      "kök": 4386,
      "süredir": 4387,
      "tasarı": 4388,
      "##are": 4389,
      "##leniyor": 4390,
      "aslan": 4391,
      "metin": 4392,
      "madrid": 4393,
      "öncesinde": 4394,
      "##nik": 4395,
      "##uyla": 4396,
      "turan": 4397,
      "ramaz": 4398,
      "iade": 4399,
      "i̇ddi": 4400,
      "inti": 4401,
      "avust": 4402,
      "harca": 4403,
      "edeceğiz": 4404,
      "toto": 4405,
      "zayıf": 4406,
      "and": 4407,
      "emir": 4408,
      "çocuğu": 4409,
      "bursaspor": 4410,
      "kelime": 4411,
      "##ura": 4412,
      "##emeyen": 4413,
      "##iklet": 4414,
      "yapılıyor": 4415,
      "yangın": 4416,
      "trib": 4417,
      "albayrak": 4418,
      "video": 4419,
      "43": 4420,
      "##ekim": 4421,
      "olun": 4422,
      "yağmur": 4423,
      "yurtdış": 4424,
      "kanı": 4425,
      "##ester": 4426,
      "kısı": 4427,
      "face": 4428,
      "atıl": 4429,
      "kanat": 4430,
      "##layıp": 4431,
      "kritik": 4432,
      "nu": 4433,
      "##şet": 4434,
      "çıktığı": 4435,
      "mekan": 4436,
      "fikir": 4437,
      "edip": 4438,
      "##tisi": 4439,
      "sürpr": 4440,
      "sahil": 4441,
      "güçlendir": 4442,
      "mesele": 4443,
      "bahçeli": 4444,
      "aracın": 4445,
      "##ktan": 4446,
      "##ğından": 4447,
      "##enler": 4448,
      "öztürk": 4449,
      "gazete": 4450,
      "i̇spanya": 4451,
      "dikkati": 4452,
      "maliyet": 4453,
      "protest": 4454,
      "gr": 4455,
      "hus": 4456,
      "kafa": 4457,
      "koalis": 4458,
      "kadının": 4459,
      "##baycan": 4460,
      "kaleci": 4461,
      "03": 4462,
      "44": 4463,
      "##ınma": 4464,
      "##işehir": 4465,
      "müzak": 4466,
      "hürr": 4467,
      "bıçak": 4468,
      "azerbaycan": 4469,
      "koalisyon": 4470,
      "##emesi": 4471,
      "sali": 4472,
      "konuyla": 4473,
      "bağımsız": 4474,
      "facebook": 4475,
      "42": 4476,
      "mit": 4477,
      "##fak": 4478,
      "##labilir": 4479,
      "##yalı": 4480,
      "üzerindeki": 4481,
      "sağlamak": 4482,
      "filmi": 4483,
      "toplantısı": 4484,
      "abdullah": 4485,
      "helikopter": 4486,
      "mim": 4487,
      "olmasına": 4488,
      "adını": 4489,
      "polisin": 4490,
      "perş": 4491,
      "güncelleme": 4492,
      "sözleşme": 4493,
      "##rübe": 4494,
      "adliy": 4495,
      "itibarı": 4496,
      "tecrübe": 4497,
      "ira": 4498,
      "##bey": 4499,
      "##ant": 4500,
      "indirim": 4501,
      "amir": 4502,
      "nus": 4503,
      "##ash": 4504,
      "##mediğini": 4505,
      "çalışması": 4506,
      "##leyi": 4507,
      "tane": 4508,
      "noktada": 4509,
      "sinema": 4510,
      "ramazan": 4511,
      "yü": 4512,
      "şük": 4513,
      "##lıklar": 4514,
      "buraya": 4515,
      "kampany": 4516,
      "boğaz": 4517,
      "##lacağı": 4518,
      "##anet": 4519,
      "##amak": 4520,
      "çalıştı": 4521,
      "temsilcisi": 4522,
      "istihdam": 4523,
      "çoğu": 4524,
      "nüfus": 4525,
      "mic": 4526,
      "yapıldığı": 4527,
      "i̇m": 4528,
      "aldık": 4529,
      "anlay": 4530,
      "##ülüyor": 4531,
      "##tıklarını": 4532,
      "ilişkiler": 4533,
      "oynadığı": 4534,
      "heyecan": 4535,
      "perşembe": 4536,
      "##lili": 4537,
      "araz": 4538,
      "olası": 4539,
      "i̇pek": 4540,
      "almaya": 4541,
      "anı": 4542,
      "ilet": 4543,
      "##faiye": 4544,
      "esas": 4545,
      "karadeniz": 4546,
      "48": 4547,
      "400": 4548,
      "##memesi": 4549,
      "şahıs": 4550,
      "tatlı": 4551,
      "ayrıldı": 4552,
      "gecesi": 4553,
      "bombalı": 4554,
      "mosk": 4555,
      "haberi": 4556,
      "kişiye": 4557,
      "avantaj": 4558,
      "bedel": 4559,
      "eli": 4560,
      "est": 4561,
      "##latı": 4562,
      "##leket": 4563,
      "salı": 4564,
      "uzat": 4565,
      "tamamladı": 4566,
      "memleket": 4567,
      "fransız": 4568,
      "##ij": 4569,
      "##yıl": 4570,
      "##cık": 4571,
      "yerini": 4572,
      "elinde": 4573,
      "sayısının": 4574,
      "çocukları": 4575,
      "bilgisayar": 4576,
      "yusu": 4577,
      "##indi": 4578,
      "##land": 4579,
      "kartal": 4580,
      "oyunu": 4581,
      "binali": 4582,
      "etkisi": 4583,
      "kazandır": 4584,
      "pazartesi": 4585,
      "rahmet": 4586,
      "esnaf": 4587,
      "plakalı": 4588,
      "belçika": 4589,
      "moskova": 4590,
      "##matı": 4591,
      "##ürken": 4592,
      "belge": 4593,
      "kullanan": 4594,
      "##leyecek": 4595,
      "güvenli": 4596,
      "örgütünün": 4597,
      "şirketin": 4598,
      "teröristlerin": 4599,
      "geride": 4600,
      "ukrayna": 4601,
      "yuk": 4602,
      "##les": 4603,
      "dedim": 4604,
      "takv": 4605,
      "suçundan": 4606,
      "götürüldü": 4607,
      "uyuştur": 4608,
      "kullanım": 4609,
      "tutar": 4610,
      "ism": 4611,
      "olacaktır": 4612,
      "mevz": 4613,
      "cü": 4614,
      "##edi": 4615,
      "##cer": 4616,
      "dam": 4617,
      "yapar": 4618,
      "yaparken": 4619,
      "kariyer": 4620,
      "beklenen": 4621,
      "tahliye": 4622,
      "ailesi": 4623,
      "hoş": 4624,
      "##ücut": 4625,
      "com": 4626,
      "tim": 4627,
      "##nan": 4628,
      "##ou": 4629,
      "##erv": 4630,
      "##ong": 4631,
      "inanı": 4632,
      "##lıklı": 4633,
      "sahada": 4634,
      "hatt": 4635,
      "edinilen": 4636,
      "kaş": 4637,
      "lok": 4638,
      "##cra": 4639,
      "##urum": 4640,
      "müt": 4641,
      "gücü": 4642,
      "çalıştır": 4643,
      "polisi": 4644,
      "hızla": 4645,
      "roman": 4646,
      "yusuf": 4647,
      "aa": 4648,
      "##sad": 4649,
      "sağladı": 4650,
      "üyeleri": 4651,
      "makam": 4652,
      "yükseldi": 4653,
      "dij": 4654,
      "çocuğun": 4655,
      "adres": 4656,
      "mat": 4657,
      "##elt": 4658,
      "işe": 4659,
      "insanları": 4660,
      "moder": 4661,
      "yayınlanan": 4662,
      "istihbarat": 4663,
      "başsavcılığı": 4664,
      "qu": 4665,
      "##ğer": 4666,
      "##umak": 4667,
      "devleti": 4668,
      "dündar": 4669,
      "dönemi": 4670,
      "ilçesi": 4671,
      "dönüşüm": 4672,
      "organize": 4673,
      "öğle": 4674,
      "fili": 4675,
      "##köy": 4676,
      "halen": 4677,
      "eşit": 4678,
      "içindeki": 4679,
      "doğrudan": 4680,
      "olmasını": 4681,
      "mardin": 4682,
      "denizli": 4683,
      "barcel": 4684,
      "vakfı": 4685,
      "doğrult": 4686,
      "mün": 4687,
      "şif": 4688,
      "belirlenen": 4689,
      "burak": 4690,
      "sevg": 4691,
      "ihlal": 4692,
      "aldığını": 4693,
      "fetullahçı": 4694,
      "yürüyüş": 4695,
      "ec": 4696,
      "rüz": 4697,
      "vücut": 4698,
      "yaşlı": 4699,
      "görevi": 4700,
      "oynaya": 4701,
      "vatandaşı": 4702,
      "york": 4703,
      "hoc": 4704,
      "başkenti": 4705,
      "##ıf": 4706,
      "anah": 4707,
      "deneyim": 4708,
      "sahne": 4709,
      "hassas": 4710,
      "görevli": 4711,
      "hastanede": 4712,
      "duyurdu": 4713,
      "##hisar": 4714,
      "dijital": 4715,
      "53": 4716,
      "nih": 4717,
      "##müyor": 4718,
      "bilet": 4719,
      "ödülü": 4720,
      "süreçte": 4721,
      "örneğin": 4722,
      "id": 4723,
      "sö": 4724,
      "görmek": 4725,
      "etraf": 4726,
      "oldukları": 4727,
      "op": 4728,
      "##anak": 4729,
      "çalıştığı": 4730,
      "##leyman": 4731,
      "paket": 4732,
      "pla": 4733,
      "arslan": 4734,
      "ilçe": 4735,
      "eriş": 4736,
      "erdem": 4737,
      "oyuncusu": 4738,
      "aykırı": 4739,
      "platform": 4740,
      "bölücü": 4741,
      "protesto": 4742,
      "##lerek": 4743,
      "sağlayan": 4744,
      "feth": 4745,
      "mensu": 4746,
      "öldürüldü": 4747,
      "gerçekleşti": 4748,
      "mühendi": 4749,
      "standar": 4750,
      "asi": 4751,
      "##lerince": 4752,
      "##tern": 4753,
      "eğlen": 4754,
      "kahv": 4755,
      "mültec": 4756,
      "gurur": 4757,
      "tazminat": 4758,
      "çab": 4759,
      "##şek": 4760,
      "göl": 4761,
      "biliyor": 4762,
      "bölümünde": 4763,
      "ateşkes": 4764,
      "yukarı": 4765,
      "karan": 4766,
      "günümüz": 4767,
      "afrika": 4768,
      "reklam": 4769,
      "numar": 4770,
      "neredeyse": 4771,
      "salih": 4772,
      "lond": 4773,
      "##ilebilir": 4774,
      "##madık": 4775,
      "suçlama": 4776,
      "mısır": 4777,
      "sebebiyle": 4778,
      "gu": 4779,
      "hed": 4780,
      "viz": 4781,
      "vic": 4782,
      "##ens": 4783,
      "##isa": 4784,
      "akdeniz": 4785,
      "tac": 4786,
      "mesaf": 4787,
      "tabi": 4788,
      "istediğini": 4789,
      "form": 4790,
      "çarşam": 4791,
      "gram": 4792,
      "##yken": 4793,
      "##fik": 4794,
      "deng": 4795,
      "yanına": 4796,
      "sahaya": 4797,
      "üretic": 4798,
      "bayra": 4799,
      "çanak": 4800,
      "vitam": 4801,
      "kapasit": 4802,
      "itibarıyla": 4803,
      "ndaki": 4804,
      "piş": 4805,
      "##sy": 4806,
      "##kim": 4807,
      "##larken": 4808,
      "vurdu": 4809,
      "tanış": 4810,
      "polise": 4811,
      "konseyi": 4812,
      "performans": 4813,
      "gidiyor": 4814,
      "koordin": 4815,
      "uyuşturucu": 4816,
      "sh": 4817,
      "##ünüz": 4818,
      "getirilen": 4819,
      "farkı": 4820,
      "tuğ": 4821,
      "istikrar": 4822,
      "cemaat": 4823,
      "yüzünden": 4824,
      "ülkeye": 4825,
      "bura": 4826,
      "düzenlediği": 4827,
      "bilgileri": 4828,
      "kazanan": 4829,
      "sakin": 4830,
      "süleyman": 4831,
      "deprem": 4832,
      "antrenman": 4833,
      "çarşamba": 4834,
      "birinin": 4835,
      "##iledi": 4836,
      "zorun": 4837,
      "teşki": 4838,
      "bağış": 4839,
      "dek": 4840,
      "reh": 4841,
      "##mut": 4842,
      "hata": 4843,
      "arkasında": 4844,
      "başlatılan": 4845,
      "bara": 4846,
      "##tuk": 4847,
      "i̇dar": 4848,
      "##üksel": 4849,
      "sermay": 4850,
      "##iğe": 4851,
      "iyileş": 4852,
      "edilmiş": 4853,
      "itibariyle": 4854,
      "sekret": 4855,
      "yetiştir": 4856,
      "mini": 4857,
      "##çu": 4858,
      "buz": 4859,
      "uyan": 4860,
      "buradan": 4861,
      "geçirdi": 4862,
      "alım": 4863,
      "gönderildi": 4864,
      "brez": 4865,
      "talimat": 4866,
      "stadı": 4867,
      "barcelona": 4868,
      "##lardaki": 4869,
      "temas": 4870,
      "##idin": 4871,
      "müdürlüğ": 4872,
      "kendilerini": 4873,
      "basketbol": 4874,
      "ciz": 4875,
      "##tak": 4876,
      "birisi": 4877,
      "karş": 4878,
      "uzmanı": 4879,
      "##ıza": 4880,
      "bahç": 4881,
      "bölgedeki": 4882,
      "penaltı": 4883,
      "tank": 4884,
      "liralık": 4885,
      "uğraş": 4886,
      "ümit": 4887,
      "brezil": 4888,
      "85": 4889,
      "zih": 4890,
      "##hn": 4891,
      "kaymak": 4892,
      "sağlan": 4893,
      "bakanlık": 4894,
      "liradan": 4895,
      "başkent": 4896,
      "gümüş": 4897,
      "hor": 4898,
      "mir": 4899,
      "ren": 4900,
      "örgütüne": 4901,
      "verdiğini": 4902,
      "yasağı": 4903,
      "iddianam": 4904,
      "sürdürdü": 4905,
      "mesela": 4906,
      "hürriyet": 4907,
      "adliyeye": 4908,
      "##lamış": 4909,
      "arası": 4910,
      "altern": 4911,
      "görevl": 4912,
      "sıf": 4913,
      "sürpriz": 4914,
      "51": 4915,
      "içi": 4916,
      "adamı": 4917,
      "turk": 4918,
      "hükümeti": 4919,
      "tedavisi": 4920,
      "girişiminin": 4921,
      "çavuşoğlu": 4922,
      "eskişehir": 4923,
      "dosya": 4924,
      "##örü": 4925,
      "kendine": 4926,
      "yavuz": 4927,
      "08": 4928,
      "sch": 4929,
      "yah": 4930,
      "##so": 4931,
      "nedir": 4932,
      "temin": 4933,
      "açıklamalarda": 4934,
      "duyg": 4935,
      "tanık": 4936,
      "brüksel": 4937,
      "i̇çişleri": 4938,
      "şaşır": 4939,
      "çor": 4940,
      "##bini": 4941,
      "##tük": 4942,
      "yardı": 4943,
      "gözaltı": 4944,
      "150": 4945,
      "şampiyonlar": 4946,
      "anlamına": 4947,
      "cerrah": 4948,
      "kimsenin": 4949,
      "delil": 4950,
      "londra": 4951,
      "52": 4952,
      "clin": 4953,
      "##ata": 4954,
      "##ılmasını": 4955,
      "işte": 4956,
      "akar": 4957,
      "kalın": 4958,
      "##lerindeki": 4959,
      "hastane": 4960,
      "arttı": 4961,
      "cizre": 4962,
      "kapatı": 4963,
      "nedeni": 4964,
      "teröristler": 4965,
      "##ington": 4966,
      "coş": 4967,
      "zafer": 4968,
      "54": 4969,
      "##sem": 4970,
      "marm": 4971,
      "##fone": 4972,
      "tasarım": 4973,
      "öğretim": 4974,
      "döviz": 4975,
      "fuar": 4976,
      "çiçek": 4977,
      "alternatif": 4978,
      "clinton": 4979,
      "alama": 4980,
      "kapan": 4981,
      "seb": 4982,
      "##i̇k": 4983,
      "sevgil": 4984,
      "şub": 4985,
      "nato": 4986,
      "##çiler": 4987,
      "aray": 4988,
      "bilen": 4989,
      "##tanın": 4990,
      "sivas": 4991,
      "federasyonu": 4992,
      "denetim": 4993,
      "intihar": 4994,
      "##io": 4995,
      "##diye": 4996,
      "##gh": 4997,
      "##ink": 4998,
      "##ire": 4999,
      "196": 5000,
      "##emedi": 5001,
      "yasal": 5002,
      "kadınların": 5003,
      "işletme": 5004,
      "ziraat": 5005,
      "modern": 5006,
      "##maktan": 5007,
      "açıklamaya": 5008,
      "bekliyor": 5009,
      "insani": 5010,
      "davran": 5011,
      "şimşek": 5012,
      "köyü": 5013,
      "##eira": 5014,
      "##itan": 5015,
      "yüzyıl": 5016,
      "geçirildi": 5017,
      "başlangı": 5018,
      "esad": 5019,
      "##rim": 5020,
      "##iri": 5021,
      "##eker": 5022,
      "##aza": 5023,
      "koc": 5024,
      "sağlayacak": 5025,
      "ortada": 5026,
      "şanlıur": 5027,
      "##ımı": 5028,
      "##ekiz": 5029,
      "##ti̇": 5030,
      "aktif": 5031,
      "aracılığı": 5032,
      "metro": 5033,
      "soh": 5034,
      "##gah": 5035,
      "yolda": 5036,
      "isimler": 5037,
      "iletişim": 5038,
      "doğrultusunda": 5039,
      "rad": 5040,
      "##resi": 5041,
      "işin": 5042,
      "##sie": 5043,
      "hasar": 5044,
      "savcılık": 5045,
      "##mesinden": 5046,
      "kampanya": 5047,
      "merkel": 5048,
      "doğalgaz": 5049,
      "portekiz": 5050,
      "endeksi": 5051,
      "rob": 5052,
      "ves": 5053,
      "voda": 5054,
      "##ğiyle": 5055,
      "##arya": 5056,
      "değin": 5057,
      "farkında": 5058,
      "ağab": 5059,
      "kardeşi": 5060,
      "nefes": 5061,
      "##alan": 5062,
      "##illi": 5063,
      "verir": 5064,
      "uzan": 5065,
      "yazdı": 5066,
      "senar": 5067,
      "uçağ": 5068,
      "ihtimal": 5069,
      "niş": 5070,
      "tol": 5071,
      "ölen": 5072,
      "şof": 5073,
      "karşısına": 5074,
      "teröre": 5075,
      "ilginç": 5076,
      "sıkış": 5077,
      "sohbet": 5078,
      "##elerle": 5079,
      "sayılı": 5080,
      "tanım": 5081,
      "satışa": 5082,
      "hikay": 5083,
      "anahtar": 5084,
      "fo": 5085,
      "##kar": 5086,
      "almış": 5087,
      "##imizde": 5088,
      "maça": 5089,
      "haftada": 5090,
      "verilecek": 5091,
      "fakültesi": 5092,
      "##miyorum": 5093,
      "##ity": 5094,
      "incel": 5095,
      "gençlik": 5096,
      "bozuk": 5097,
      "gazeteci": 5098,
      "kupa": 5099,
      "valisi": 5100,
      "vodafone": 5101,
      "senin": 5102,
      "ışık": 5103,
      "##des": 5104,
      "gelmiş": 5105,
      "orhan": 5106,
      "isti": 5107,
      "olanlar": 5108,
      "##edek": 5109,
      "evlilik": 5110,
      "borsa": 5111,
      "oranında": 5112,
      "ihraç": 5113,
      "uğra": 5114,
      "600": 5115,
      "##labil": 5116,
      "hadi": 5117,
      "okuy": 5118,
      "rekabet": 5119,
      "köprüsü": 5120,
      "hâlâ": 5121,
      "çanakkale": 5122,
      "ayş": 5123,
      "asgari": 5124,
      "##meniz": 5125,
      "albüm": 5126,
      "çuk": 5127,
      "##caat": 5128,
      "yarım": 5129,
      "boşan": 5130,
      "finansal": 5131,
      "ide": 5132,
      "je": 5133,
      "wash": 5134,
      "yiye": 5135,
      "başlama": 5136,
      "işbir": 5137,
      "##istik": 5138,
      "persie": 5139,
      "başladığı": 5140,
      "kesinlikle": 5141,
      "itiraz": 5142,
      "nik": 5143,
      "nci": 5144,
      "şer": 5145,
      "##pe": 5146,
      "yang": 5147,
      "kişisel": 5148,
      "saatleri": 5149,
      "gitmek": 5150,
      "bütçe": 5151,
      "toplantıda": 5152,
      "yetkilileri": 5153,
      "yuvar": 5154,
      "talimatı": 5155,
      "##kır": 5156,
      "##cunun": 5157,
      "##çın": 5158,
      "##ger": 5159,
      "##ki̇": 5160,
      "ayda": 5161,
      "kıyı": 5162,
      "yaygın": 5163,
      "kısmı": 5164,
      "başsavcı": 5165,
      "##ly": 5166,
      "##lanmak": 5167,
      "zorlu": 5168,
      "kırık": 5169,
      "planı": 5170,
      "##lerimizin": 5171,
      "coğraf": 5172,
      "fed": 5173,
      "frag": 5174,
      "##lerken": 5175,
      "konyaspor": 5176,
      "2008": 5177,
      "washington": 5178,
      "49": 5179,
      "##lendiği": 5180,
      "eren": 5181,
      "sağlığı": 5182,
      "güvenliği": 5183,
      "gelenek": 5184,
      "##melidir": 5185,
      "anti": 5186,
      "saniye": 5187,
      "mücadelede": 5188,
      "beklent": 5189,
      "mağlup": 5190,
      "##akistan": 5191,
      "kurş": 5192,
      "tren": 5193,
      "alınarak": 5194,
      "yedi": 5195,
      "ran": 5196,
      "gerçe": 5197,
      "kararını": 5198,
      "##bank": 5199,
      "kaybı": 5200,
      "07": 5201,
      "nük": 5202,
      "##ındır": 5203,
      "bıraktı": 5204,
      "paylaşı": 5205,
      "fiyatları": 5206,
      "paylaştı": 5207,
      "belediyespor": 5208,
      "beğen": 5209,
      "niye": 5210,
      "nev": 5211,
      "##ron": 5212,
      "##vo": 5213,
      "##lamıştı": 5214,
      "birik": 5215,
      "akhisar": 5216,
      "kıya": 5217,
      "öncelikle": 5218,
      "bırakıldı": 5219,
      "davranış": 5220,
      "star": 5221,
      "##lerdir": 5222,
      "##lanmıştı": 5223,
      "bulu": 5224,
      "maddi": 5225,
      "maale": 5226,
      "pereira": 5227,
      "##ovic": 5228,
      "sorumluluk": 5229,
      "maalesef": 5230,
      "konfer": 5231,
      "merkezinde": 5232,
      "edildiğini": 5233,
      "kurtarı": 5234,
      "alev": 5235,
      "komşu": 5236,
      "kaymakam": 5237,
      "damar": 5238,
      "bilir": 5239,
      "##ülmesi": 5240,
      "şehidin": 5241,
      "yaşadı": 5242,
      "ceo": 5243,
      "som": 5244,
      "çoğun": 5245,
      "açan": 5246,
      "insanın": 5247,
      "##ebilecek": 5248,
      "devreye": 5249,
      "çök": 5250,
      "muhammed": 5251,
      "toprağa": 5252,
      "hu": 5253,
      "uc": 5254,
      "şut": 5255,
      "##dk": 5256,
      "magaz": 5257,
      "sigara": 5258,
      "astsu": 5259,
      "##amaz": 5260,
      "##nu": 5261,
      "##lor": 5262,
      "yakından": 5263,
      "##i̇m": 5264,
      "##i̇z": 5265,
      "dua": 5266,
      "özgürlük": 5267,
      "##fe": 5268,
      "yapması": 5269,
      "berlin": 5270,
      "ülkelerin": 5271,
      "hükümetin": 5272,
      "vakıf": 5273,
      "!..": 5274,
      "56": 5275,
      "##stin": 5276,
      "kullanarak": 5277,
      "dolandırı": 5278,
      "açıklamasında": 5279,
      "##uyoruz": 5280,
      "vicdan": 5281,
      "çukur": 5282,
      "tır": 5283,
      "##gk": 5284,
      "##gü": 5285,
      "ikram": 5286,
      "sonuçları": 5287,
      "ülkemizin": 5288,
      "hesabından": 5289,
      "59": 5290,
      "güne": 5291,
      "olduğumuz": 5292,
      "kalma": 5293,
      "sözlerini": 5294,
      "korku": 5295,
      "yükseliş": 5296,
      "küt": 5297,
      "##vat": 5298,
      "beden": 5299,
      "ekipler": 5300,
      "mete": 5301,
      "şampiyonluk": 5302,
      "memuru": 5303,
      "lev": 5304,
      "##üny": 5305,
      "##ilerle": 5306,
      "işık": 5307,
      "dönüştür": 5308,
      "cenazesi": 5309,
      "ajansı": 5310,
      "##liyet": 5311,
      "yaşar": 5312,
      "alındığı": 5313,
      "olmadan": 5314,
      "oğl": 5315,
      "meclisi": 5316,
      "thy": 5317,
      "aktaran": 5318,
      "zeytin": 5319,
      "rast": 5320,
      "ulaşı": 5321,
      "##larınız": 5322,
      "bodr": 5323,
      "yenilen": 5324,
      "mahkemeye": 5325,
      "ülkemizde": 5326,
      "itfaiye": 5327,
      "oynanacak": 5328,
      "şenol": 5329,
      "alkol": 5330,
      "##ner": 5331,
      "işçi": 5332,
      "##eyece": 5333,
      "sana": 5334,
      "adayı": 5335,
      "gönderdi": 5336,
      "john": 5337,
      "organizasyon": 5338,
      "##uta": 5339,
      "kaçan": 5340,
      "meyve": 5341,
      "##yiz": 5342,
      "olmayacak": 5343,
      "i̇d": 5344,
      "topla": 5345,
      "düzenlendi": 5346,
      "basit": 5347,
      "dikkate": 5348,
      "soruşturması": 5349,
      "işlemleri": 5350,
      "dalga": 5351,
      "disip": 5352,
      "tanın": 5353,
      "va": 5354,
      "##varı": 5355,
      "yönlendir": 5356,
      "bakanlar": 5357,
      "##limp": 5358,
      "hit": 5359,
      "##eyt": 5360,
      "kazada": 5361,
      "maruz": 5362,
      "profesyon": 5363,
      "bodrum": 5364,
      "##ele": 5365,
      "##etim": 5366,
      "##işi": 5367,
      "kıb": 5368,
      "kore": 5369,
      "sıkı": 5370,
      "duvar": 5371,
      "##ogle": 5372,
      "google": 5373,
      "kaynağı": 5374,
      "deplasmanda": 5375,
      "57": 5376,
      "81": 5377,
      "##emen": 5378,
      "##lenin": 5379,
      "##ladığını": 5380,
      "sözlerine": 5381,
      "serdar": 5382,
      "kanunu": 5383,
      "bekleyen": 5384,
      "reform": 5385,
      "besin": 5386,
      "haftasında": 5387,
      "irade": 5388,
      "mük": 5389,
      "##gay": 5390,
      "##liman": 5391,
      "##usunun": 5392,
      "evlen": 5393,
      "hast": 5394,
      "aktardı": 5395,
      "mi̇t": 5396,
      "hediye": 5397,
      "magazin": 5398,
      "zan": 5399,
      "##kun": 5400,
      "##fan": 5401,
      "oysa": 5402,
      "##tüğü": 5403,
      "mesle": 5404,
      "##lerimize": 5405,
      "##memek": 5406,
      "gayret": 5407,
      "profesyonel": 5408,
      "##yas": 5409,
      "okun": 5410,
      "isabet": 5411,
      "hastalığı": 5412,
      "arttır": 5413,
      "prop": 5414,
      "mesajı": 5415,
      "##meyin": 5416,
      "imkân": 5417,
      "alınacak": 5418,
      "',": 5419,
      "sön": 5420,
      "verim": 5421,
      "olduğunun": 5422,
      "uyku": 5423,
      "otop": 5424,
      "koruy": 5425,
      "##dıktan": 5426,
      "biçimde": 5427,
      "payı": 5428,
      "##rük": 5429,
      "##ğuna": 5430,
      "##eksiyon": 5431,
      "ilgilen": 5432,
      "havaliman": 5433,
      "bahar": 5434,
      "komutan": 5435,
      "yıllardır": 5436,
      "erzurum": 5437,
      "5g": 5438,
      "rok": 5439,
      "##eyiz": 5440,
      "dursun": 5441,
      "olurken": 5442,
      "gördüğü": 5443,
      "misaf": 5444,
      "parçalı": 5445,
      "parçası": 5446,
      "itiraf": 5447,
      "çatı": 5448,
      "##sever": 5449,
      "gelip": 5450,
      "müst": 5451,
      "saldırısı": 5452,
      "değişim": 5453,
      "talebi": 5454,
      "ayrıl": 5455,
      "ordusu": 5456,
      "marmara": 5457,
      "astsubay": 5458,
      "atış": 5459,
      "dum": 5460,
      "kus": 5461,
      "tra": 5462,
      "ök": 5463,
      "müte": 5464,
      "genellikle": 5465,
      "i̇nşa": 5466,
      "güçlerinin": 5467,
      "karşılaşma": 5468,
      "hamile": 5469,
      "kalkış": 5470,
      "mühendis": 5471,
      "standart": 5472,
      "##gi̇": 5473,
      "kadık": 5474,
      "terim": 5475,
      "##vali": 5476,
      "i̇nşallah": 5477,
      "kongre": 5478,
      "tipi": 5479,
      "çağır": 5480,
      "dini": 5481,
      "sanı": 5482,
      "##mon": 5483,
      "##ilirken": 5484,
      "dey": 5485,
      "işle": 5486,
      "gidip": 5487,
      "sorunun": 5488,
      "250": 5489,
      "arkadaşları": 5490,
      "dokunulmaz": 5491,
      "gidecek": 5492,
      "filistin": 5493,
      "kurşun": 5494,
      "67": 5495,
      "kimi": 5496,
      "maz": 5497,
      "evin": 5498,
      "adil": 5499,
      "beyin": 5500,
      "üretimi": 5501,
      "##suzluk": 5502,
      "##chester": 5503,
      "otomotiv": 5504,
      "kalite": 5505,
      "lit": 5506,
      "##kesi": 5507,
      "veda": 5508,
      "##cav": 5509,
      "vermesi": 5510,
      "tuttu": 5511,
      "azalt": 5512,
      "üste": 5513,
      "uygulaması": 5514,
      "##ebilirsiniz": 5515,
      "insanı": 5516,
      "72": 5517,
      "yerden": 5518,
      "yakınları": 5519,
      "düşünüyor": 5520,
      "nitelik": 5521,
      "mensubu": 5522,
      "aracılığıyla": 5523,
      "kadıköy": 5524,
      "büny": 5525,
      "mür": 5526,
      "##düz": 5527,
      "##yal": 5528,
      "##eral": 5529,
      "##celi": 5530,
      "##ilerinden": 5531,
      "selim": 5532,
      "yoktu": 5533,
      "ihbar": 5534,
      "operasyonlar": 5535,
      "oynayan": 5536,
      "2009": 5537,
      "teşeb": 5538,
      "ölçü": 5539,
      "eb": 5540,
      "niyet": 5541,
      "##ilmişti": 5542,
      "##emiş": 5543,
      "ülkeyi": 5544,
      "##inize": 5545,
      "yaptığımız": 5546,
      "##ğimizi": 5547,
      "maddesi": 5548,
      "efsan": 5549,
      "58": 5550,
      "kuy": 5551,
      "mon": 5552,
      "ulu": 5553,
      "##tup": 5554,
      "##cil": 5555,
      "türkmen": 5556,
      "sağlıyor": 5557,
      "mahmut": 5558,
      "##rıs": 5559,
      "manchester": 5560,
      "##iyade": 5561,
      "kentinde": 5562,
      "hollandalı": 5563,
      "bet": 5564,
      "olimp": 5565,
      "vah": 5566,
      "verilmesi": 5567,
      "##ilip": 5568,
      "##i̇ş": 5569,
      "##leyerek": 5570,
      "çekiyor": 5571,
      "kendim": 5572,
      "koydu": 5573,
      "kemik": 5574,
      "asist": 5575,
      "kum": 5576,
      "ney": 5577,
      "##ers": 5578,
      "dönemin": 5579,
      "çıkarıldı": 5580,
      "bununla": 5581,
      "##lüğe": 5582,
      "saldırgan": 5583,
      "görülüyor": 5584,
      "##binde": 5585,
      "##uç": 5586,
      "olmuştur": 5587,
      "etmişti": 5588,
      "ekmek": 5589,
      "suik": 5590,
      "refer": 5591,
      "şanlıurfa": 5592,
      "aşı": 5593,
      "##gam": 5594,
      "##elerden": 5595,
      "112": 5596,
      "manisa": 5597,
      "kerim": 5598,
      "cilt": 5599,
      "nam": 5600,
      "##leer": 5601,
      "##isinden": 5602,
      "verme": 5603,
      "##leriniz": 5604,
      "kod": 5605,
      "tablo": 5606,
      "real": 5607,
      "meydanı": 5608,
      "fırt": 5609,
      "görüyoruz": 5610,
      "gelişmeler": 5611,
      "dediği": 5612,
      "gereği": 5613,
      "duruma": 5614,
      "kateg": 5615,
      "bilgilere": 5616,
      "telefonu": 5617,
      "darbec": 5618,
      "aşkın": 5619,
      "kategor": 5620,
      "78": 5621,
      "birer": 5622,
      "artan": 5623,
      "alması": 5624,
      "vererek": 5625,
      "evi": 5626,
      "halka": 5627,
      "gözlem": 5628,
      "düzenledi": 5629,
      "olayla": 5630,
      "kaçakçı": 5631,
      "kıbrıs": 5632,
      "by": 5633,
      "cüm": 5634,
      "vi": 5635,
      "##lerim": 5636,
      "##mesin": 5637,
      "dinam": 5638,
      "##eceğine": 5639,
      "kadros": 5640,
      "zamanı": 5641,
      "yumur": 5642,
      "geçerli": 5643,
      "dosy": 5644,
      "##raz": 5645,
      "i̇tal": 5646,
      "kalem": 5647,
      "çıkması": 5648,
      "süresi": 5649,
      "ermeni": 5650,
      "potan": 5651,
      "göreve": 5652,
      "belirtiliyor": 5653,
      "kulak": 5654,
      "içeren": 5655,
      "beraberlik": 5656,
      "##aganda": 5657,
      "propaganda": 5658,
      "bis": 5659,
      "kalı": 5660,
      "bölgesel": 5661,
      "düzenli": 5662,
      "kendisinin": 5663,
      "güneydoğu": 5664,
      "ayakta": 5665,
      "ağaç": 5666,
      "tasarru": 5667,
      "mimar": 5668,
      "nükleer": 5669,
      "95": 5670,
      "may": 5671,
      "yapacağız": 5672,
      "##isiyle": 5673,
      "gelmesi": 5674,
      "yaşat": 5675,
      "hayran": 5676,
      "avcı": 5677,
      "##ick": 5678,
      "sürecinde": 5679,
      "usul": 5680,
      "kanıt": 5681,
      "anlayış": 5682,
      "bec": 5683,
      "çet": 5684,
      "şansı": 5685,
      "##amadı": 5686,
      "sporcu": 5687,
      "açığa": 5688,
      "demirtaş": 5689,
      "yargıtay": 5690,
      "birbirine": 5691,
      "faruk": 5692,
      "kıyafet": 5693,
      "ihale": 5694,
      "öt": 5695,
      "şeri": 5696,
      "##lerdi": 5697,
      "açtığı": 5698,
      "olayda": 5699,
      "anlaşı": 5700,
      "kulübün": 5701,
      "misafir": 5702,
      "i̇talyan": 5703,
      "city": 5704,
      "birden": 5705,
      "##ald": 5706,
      "varlık": 5707,
      "##mayacağı": 5708,
      "selam": 5709,
      "bağır": 5710,
      "sulh": 5711,
      "kurtulmuş": 5712,
      "çakır": 5713,
      "lüks": 5714,
      "##lenmiş": 5715,
      "davası": 5716,
      "ettiklerini": 5717,
      "yalnızca": 5718,
      "vize": 5719,
      "##lası": 5720,
      "bulan": 5721,
      "bulundur": 5722,
      "gerektiği": 5723,
      "burcu": 5724,
      "##hanet": 5725,
      "oturan": 5726,
      "akademisyen": 5727,
      "i̇nşaat": 5728,
      "ergen": 5729,
      "yapıyoruz": 5730,
      "bakır": 5731,
      "derb": 5732,
      "i̇sveç": 5733,
      "taşıyor": 5734,
      "tutuklama": 5735,
      "##etici": 5736,
      "tavsiye": 5737,
      "##diy": 5738,
      "##viç": 5739,
      "##ps": 5740,
      "gerekti": 5741,
      "##uyorum": 5742,
      "tanıtım": 5743,
      "daire": 5744,
      "yükselt": 5745,
      "elektronik": 5746,
      "saldırının": 5747,
      "garan": 5748,
      "idari": 5749,
      "06": 5750,
      "##giz": 5751,
      "vef": 5752,
      "olmuştu": 5753,
      "yapabil": 5754,
      "geldik": 5755,
      "özbek": 5756,
      "yolları": 5757,
      "muhaf": 5758,
      "heyeti": 5759,
      "sebebi": 5760,
      "##elendir": 5761,
      "rüzgar": 5762,
      "tasarruf": 5763,
      "66": 5764,
      "oluştu": 5765,
      "verici": 5766,
      "gittik": 5767,
      "kayser": 5768,
      "fabrik": 5769,
      "nusay": 5770,
      "05": 5771,
      "##ral": 5772,
      "##ulduğu": 5773,
      "antal": 5774,
      "##mıyorum": 5775,
      "ert": 5776,
      "kullanıyor": 5777,
      "önceden": 5778,
      "ikili": 5779,
      "kavg": 5780,
      "toplumsal": 5781,
      "beslenme": 5782,
      "mektup": 5783,
      "tecrübeli": 5784,
      "antalyaspor": 5785,
      "76": 5786,
      "##jan": 5787,
      "bakıyor": 5788,
      "yakış": 5789,
      "sırt": 5790,
      "korumak": 5791,
      "kral": 5792,
      "kilit": 5793,
      "##berg": 5794,
      "avukatı": 5795,
      "gayrim": 5796,
      "yolculu": 5797,
      "ex": 5798,
      "seni": 5799,
      "vermiş": 5800,
      "biliyoruz": 5801,
      "dernek": 5802,
      "ünal": 5803,
      "##lusu": 5804,
      "oyuncular": 5805,
      "numara": 5806,
      "gomez": 5807,
      "düzenlenecek": 5808,
      "otomatik": 5809,
      "roket": 5810,
      "özer": 5811,
      "##lemesi": 5812,
      "kalıyor": 5813,
      "özet": 5814,
      "kenar": 5815,
      "sahası": 5816,
      "derec": 5817,
      "sayf": 5818,
      "geçiren": 5819,
      "ağız": 5820,
      "61": 5821,
      "tap": 5822,
      "yedek": 5823,
      "##zat": 5824,
      "##emeyecek": 5825,
      "ani": 5826,
      "##makla": 5827,
      "sözleri": 5828,
      "##bilirsiniz": 5829,
      "kavga": 5830,
      "sorularını": 5831,
      "tünel": 5832,
      "edi": 5833,
      "tecav": 5834,
      "iddiasıyla": 5835,
      "2007": 5836,
      "başbakanlık": 5837,
      "gerçekleşen": 5838,
      "olimpiyat": 5839,
      "##âh": 5840,
      "##lacağını": 5841,
      "##ane": 5842,
      "##ği̇": 5843,
      "##mekten": 5844,
      "burun": 5845,
      "önemlidir": 5846,
      "eşya": 5847,
      "açıdan": 5848,
      "ekiplerinin": 5849,
      "muhteş": 5850,
      "120": 5851,
      "boyu": 5852,
      "sessiz": 5853,
      "mezun": 5854,
      "##tival": 5855,
      "festival": 5856,
      "bireysel": 5857,
      "muhteşem": 5858,
      "çam": 5859,
      "##dol": 5860,
      "##ste": 5861,
      "başından": 5862,
      "kartı": 5863,
      "yolunda": 5864,
      "yüklü": 5865,
      "ücretsiz": 5866,
      "tecavüz": 5867,
      "luk": 5868,
      "topal": 5869,
      "haklı": 5870,
      "taraftan": 5871,
      "##lığından": 5872,
      "zorluk": 5873,
      "bilgilendir": 5874,
      "kalkınma": 5875,
      "odası": 5876,
      "000": 5877,
      "alak": 5878,
      "pah": 5879,
      "##ulmuş": 5880,
      "günden": 5881,
      "yerlerde": 5882,
      "##ciğer": 5883,
      "hacı": 5884,
      "##portaj": 5885,
      "dönen": 5886,
      "ondan": 5887,
      "bunlardan": 5888,
      "makine": 5889,
      "toplumun": 5890,
      "röportaj": 5891,
      "nusaybin": 5892,
      "##fen": 5893,
      "##her": 5894,
      "##qu": 5895,
      "görünü": 5896,
      "ayar": 5897,
      "eğitimi": 5898,
      "ödey": 5899,
      "dayanış": 5900,
      "gümrük": 5901,
      "düğün": 5902,
      "##bah": 5903,
      "##dılar": 5904,
      "işler": 5905,
      "##laştı": 5906,
      "özen": 5907,
      "özdemir": 5908,
      "sağlam": 5909,
      "durumun": 5910,
      "bugünkü": 5911,
      "yürür": 5912,
      "kavuş": 5913,
      "giyen": 5914,
      "kasımpaşa": 5915,
      "ettikleri": 5916,
      "tehlikeli": 5917,
      "bayramı": 5918,
      "karabük": 5919,
      "nez": 5920,
      "##nes": 5921,
      "##ard": 5922,
      "##mamız": 5923,
      "tarif": 5924,
      "uzay": 5925,
      "atak": 5926,
      "başlatıldı": 5927,
      "motos": 5928,
      "osmanlıspor": 5929,
      "aley": 5930,
      "dha": 5931,
      "##sındaki": 5932,
      "##tülü": 5933,
      "malat": 5934,
      "##ansiyon": 5935,
      "özelliği": 5936,
      "yatak": 5937,
      "##tılması": 5938,
      "yapılmış": 5939,
      "gördüğ": 5940,
      "cihan": 5941,
      "yumurta": 5942,
      "68": 5943,
      "bl": 5944,
      "##ski": 5945,
      "##cay": 5946,
      "başrol": 5947,
      "gelerek": 5948,
      "olacağız": 5949,
      "bekle": 5950,
      "i̇sviç": 5951,
      "edeb": 5952,
      "anlatıyor": 5953,
      "tüketici": 5954,
      "stratejik": 5955,
      "şunu": 5956,
      "##lanmasına": 5957,
      "##ited": 5958,
      "görme": 5959,
      "ekledi": 5960,
      "duyar": 5961,
      "komp": 5962,
      "cumhurbaşkan": 5963,
      "##medim": 5964,
      "ayrıntı": 5965,
      "ürünleri": 5966,
      "i̇stih": 5967,
      "depo": 5968,
      "esnasında": 5969,
      "taciz": 5970,
      "yiyecek": 5971,
      "pey": 5972,
      "yla": 5973,
      "##illa": 5974,
      "##ğıt": 5975,
      "mavi": 5976,
      "##leyici": 5977,
      "geçirdiği": 5978,
      "hedefi": 5979,
      "ela": 5980,
      "icra": 5981,
      "##ano": 5982,
      "##asi": 5983,
      "##ecektir": 5984,
      "görevlendir": 5985,
      "takıma": 5986,
      "bağlantılı": 5987,
      "hatırlatan": 5988,
      "gençlerbirliği": 5989,
      "istifa": 5990,
      "i̇sviçre": 5991,
      "hil": 5992,
      "laf": 5993,
      "öf": 5994,
      "##diniz": 5995,
      "##ahh": 5996,
      "bakış": 5997,
      "duran": 5998,
      "köpek": 5999,
      "bazıları": 6000,
      "dikkatli": 6001,
      "hissed": 6002,
      "##müştü": 6003,
      "tüketic": 6004,
      "##ülebilir": 6005,
      "##luluğu": 6006,
      "paşa": 6007,
      "zır": 6008,
      "birini": 6009,
      "##ilerde": 6010,
      "yerinden": 6011,
      "görevini": 6012,
      "gala": 6013,
      "gittiği": 6014,
      "ref": 6015,
      "babam": 6016,
      "bitti": 6017,
      "sektörü": 6018,
      "sorunları": 6019,
      "karşın": 6020,
      "69": 6021,
      "62": 6022,
      "64": 6023,
      "hekim": 6024,
      "por": 6025,
      "sne": 6026,
      "##amış": 6027,
      "bizler": 6028,
      "yaptıklarını": 6029,
      "bunlara": 6030,
      "getirmek": 6031,
      "merkezli": 6032,
      "moda": 6033,
      "bankacılık": 6034,
      "emeklilik": 6035,
      "uzmanlar": 6036,
      "valiliği": 6037,
      "parlamento": 6038,
      "ulaşım": 6039,
      "##sh": 6040,
      "##vin": 6041,
      "olmayı": 6042,
      "mav": 6043,
      "yaklaşım": 6044,
      "prote": 6045,
      "sergil": 6046,
      "sevgi": 6047,
      "ortasında": 6048,
      "muhtem": 6049,
      "nesil": 6050,
      "set": 6051,
      "öy": 6052,
      "türkçe": 6053,
      "işgal": 6054,
      "ifadeleri": 6055,
      "örgü": 6056,
      "merkezine": 6057,
      "beyan": 6058,
      "uzaklaştır": 6059,
      "tribün": 6060,
      "63": 6061,
      "71": 6062,
      "ailen": 6063,
      "hindi": 6064,
      "piyan": 6065,
      "tff": 6066,
      "##lant": 6067,
      "tarz": 6068,
      "çıkarak": 6069,
      "girecek": 6070,
      "gerektir": 6071,
      "hakkari": 6072,
      "futbolcular": 6073,
      "raporu": 6074,
      "hastalıkları": 6075,
      "noktasında": 6076,
      "73": 6077,
      "hanım": 6078,
      "##liliği": 6079,
      "birleştir": 6080,
      "vermeye": 6081,
      "yılının": 6082,
      "kaygı": 6083,
      "erol": 6084,
      "telek": 6085,
      "karıştır": 6086,
      "hâkim": 6087,
      "bedeli": 6088,
      "##mda": 6089,
      "##malar": 6090,
      "##usal": 6091,
      "süreli": 6092,
      "suyu": 6093,
      "dedik": 6094,
      "##lerdeki": 6095,
      "çalışmalarını": 6096,
      "imz": 6097,
      "sayfa": 6098,
      "sektöründe": 6099,
      "ayakk": 6100,
      "gecik": 6101,
      "etkisiyle": 6102,
      "yoluyla": 6103,
      "yağışı": 6104,
      "omuz": 6105,
      "riz": 6106,
      "##ılmıştı": 6107,
      "##itesi": 6108,
      "aks": 6109,
      "bakın": 6110,
      "girdiği": 6111,
      "sözü": 6112,
      "halil": 6113,
      "2002": 6114,
      "herkese": 6115,
      "endişe": 6116,
      "irti": 6117,
      "##ijder": 6118,
      "sıfır": 6119,
      "sneijder": 6120,
      "82": 6121,
      "km": 6122,
      "##rist": 6123,
      "##ydi": 6124,
      "##ispor": 6125,
      "yılından": 6126,
      "aky": 6127,
      "görevlisi": 6128,
      "operasyonlarda": 6129,
      "üstünde": 6130,
      "cezalandır": 6131,
      "ülkeleri": 6132,
      "sürdürüyor": 6133,
      "amerikalı": 6134,
      "müzakere": 6135,
      "cey": 6136,
      "##feri": 6137,
      "sözde": 6138,
      "getirdiği": 6139,
      "yaşandığı": 6140,
      "kavram": 6141,
      "tavır": 6142,
      "kere": 6143,
      "sus": 6144,
      "##gesi": 6145,
      "çıkıp": 6146,
      "geçiyor": 6147,
      "söylem": 6148,
      "tutan": 6149,
      "maliye": 6150,
      "tuzak": 6151,
      "şartı": 6152,
      "eh": 6153,
      "##liyesi": 6154,
      "##lav": 6155,
      "birinc": 6156,
      "2018": 6157,
      "izle": 6158,
      "ligin": 6159,
      "semih": 6160,
      "geleceği": 6161,
      "fethullah": 6162,
      "cas": 6163,
      "ep": 6164,
      "esed": 6165,
      "ozan": 6166,
      "yle": 6167,
      "##uki": 6168,
      "##ıyla": 6169,
      "##ladık": 6170,
      "üstüne": 6171,
      "canlandır": 6172,
      "edebil": 6173,
      "teröristin": 6174,
      "bordo": 6175,
      "oradan": 6176,
      "dağıtım": 6177,
      "meşru": 6178,
      "sorgulama": 6179,
      "festi": 6180,
      "disiplin": 6181,
      ".)": 6182,
      "79": 6183,
      "##mamış": 6184,
      "işyer": 6185,
      "##lüğünü": 6186,
      "kenan": 6187,
      "kaçın": 6188,
      "değerlendirmesinde": 6189,
      "##abiliriz": 6190,
      "yetkili": 6191,
      "sorumlusu": 6192,
      "satışı": 6193,
      "benzeri": 6194,
      "muhabirine": 6195,
      "malzeme": 6196,
      "kısıt": 6197,
      "##yur": 6198,
      "##23": 6199,
      "##dev": 6200,
      "madal": 6201,
      "militan": 6202,
      "##derek": 6203,
      "sanki": 6204,
      "yasin": 6205,
      "üyeli": 6206,
      "tamamlandı": 6207,
      "##eceğim": 6208,
      "yapıldığını": 6209,
      "dörd": 6210,
      "atılan": 6211,
      "popüler": 6212,
      "zırh": 6213,
      "lüt": 6214,
      "sağanak": 6215,
      "katli": 6216,
      "olayları": 6217,
      "hamza": 6218,
      "şüphelilerin": 6219,
      "zorunlu": 6220,
      "gayrimenk": 6221,
      "zinc": 6222,
      "##çisi": 6223,
      "##iyot": 6224,
      "günler": 6225,
      "aktör": 6226,
      "yüzlerce": 6227,
      "ifadesi": 6228,
      "i̇nan": 6229,
      "bilgisi": 6230,
      "hesabı": 6231,
      "düzeyde": 6232,
      "!\"": 6233,
      "##satı": 6234,
      "edilerek": 6235,
      "kaybol": 6236,
      "kaps": 6237,
      "raporda": 6238,
      "tüketim": 6239,
      "alkış": 6240,
      "kocaeli": 6241,
      "77": 6242,
      "83": 6243,
      "olamaz": 6244,
      "##idi": 6245,
      "##ms": 6246,
      "##ilmesini": 6247,
      "##ore": 6248,
      "mac": 6249,
      "##iyetini": 6250,
      "kimin": 6251,
      "saldırıyı": 6252,
      "caner": 6253,
      "golü": 6254,
      "filmin": 6255,
      "barikat": 6256,
      "resim": 6257,
      "kaynaklar": 6258,
      "öğrencilerin": 6259,
      "yalçın": 6260,
      "lisans": 6261,
      "meşin": 6262,
      "yönündeki": 6263,
      "virüs": 6264,
      "tolga": 6265,
      "bez": 6266,
      "pi": 6267,
      "sün": 6268,
      "##iyim": 6269,
      "##cısı": 6270,
      "yaratı": 6271,
      "altının": 6272,
      "harit": 6273,
      "kana": 6274,
      "seçenek": 6275,
      "tutuklanan": 6276,
      "düşünc": 6277,
      "öğrencisi": 6278,
      "galip": 6279,
      "meselesi": 6280,
      "motosiklet": 6281,
      "ca": 6282,
      "lezz": 6283,
      "şere": 6284,
      "##don": 6285,
      "gergin": 6286,
      "değeri": 6287,
      "akl": 6288,
      "evli": 6289,
      "faktör": 6290,
      "taraftarlar": 6291,
      "geçmişte": 6292,
      "oyuncunun": 6293,
      "i̇hra": 6294,
      "egzer": 6295,
      "slogan": 6296,
      "##saydı": 6297,
      "dür": 6298,
      "##yak": 6299,
      "çekim": 6300,
      "##balık": 6301,
      "uçağı": 6302,
      "kızıl": 6303,
      "yenik": 6304,
      "küf": 6305,
      "cengiz": 6306,
      "anlaşması": 6307,
      "dizisi": 6308,
      "netic": 6309,
      "taziye": 6310,
      "redde": 6311,
      "psikolojik": 6312,
      "avustur": 6313,
      "buradaki": 6314,
      "sermaye": 6315,
      "##lanırken": 6316,
      "##dukları": 6317,
      "enst": 6318,
      "değildi": 6319,
      "sürülen": 6320,
      "kayyum": 6321,
      "##ğrul": 6322,
      "gösterdiği": 6323,
      "dışına": 6324,
      "izledi": 6325,
      "saldırıları": 6326,
      "i̇şleri": 6327,
      "projenin": 6328,
      "gerçekleştirdi": 6329,
      "sezonun": 6330,
      "yunus": 6331,
      "şiddetli": 6332,
      "japonya": 6333,
      "istismar": 6334,
      "kalıcı": 6335,
      "gayrimenkul": 6336,
      "egzersiz": 6337,
      "kazı": 6338,
      "pol": 6339,
      "tetik": 6340,
      "##vor": 6341,
      "##gs": 6342,
      "yıldan": 6343,
      "geçecek": 6344,
      "##düğünü": 6345,
      "öncelik": 6346,
      "##oyu": 6347,
      "yıldızı": 6348,
      "vekil": 6349,
      "vizyon": 6350,
      "ihanet": 6351,
      "##kal": 6352,
      "##ınıyor": 6353,
      "günün": 6354,
      "toplanan": 6355,
      "##idor": 6356,
      "##iğit": 6357,
      "\"...": 6358,
      "milletler": 6359,
      "mevki": 6360,
      "mevsim": 6361,
      "okulu": 6362,
      "kaldırılması": 6363,
      "devrim": 6364,
      "bayrağı": 6365,
      "hindistan": 6366,
      "dük": 6367,
      "lık": 6368,
      "##kiler": 6369,
      "##vel": 6370,
      "önder": 6371,
      "geriye": 6372,
      "yönde": 6373,
      "##ıldığında": 6374,
      "derken": 6375,
      "görüştü": 6376,
      "##lock": 6377,
      "telefonla": 6378,
      "bilinç": 6379,
      "kuvvetli": 6380,
      "hatırlat": 6381,
      "bağımlı": 6382,
      "##burg": 6383,
      "las": 6384,
      "##lanır": 6385,
      "oyuna": 6386,
      "kanlı": 6387,
      "##eyif": 6388,
      "bekliyoruz": 6389,
      "eşinin": 6390,
      "üstelik": 6391,
      "halkının": 6392,
      "sonuçlar": 6393,
      "yükselen": 6394,
      "sitesi": 6395,
      "stres": 6396,
      "ısrar": 6397,
      "işadam": 6398,
      "ayakkabı": 6399,
      "keyif": 6400,
      "pakistan": 6401,
      "çiğ": 6402,
      "##şak": 6403,
      "##göz": 6404,
      "ettim": 6405,
      "buluştu": 6406,
      "##oper": 6407,
      "aktiv": 6408,
      "muğ": 6409,
      "polisler": 6410,
      "yazılım": 6411,
      "hizmetleri": 6412,
      "hukuki": 6413,
      "sigort": 6414,
      "donald": 6415,
      "rieker": 6416,
      "soylu": 6417,
      "üssü": 6418,
      "telekom": 6419,
      "04": 6420,
      "?.": 6421,
      "bro": 6422,
      "yo": 6423,
      "##kon": 6424,
      "##cin": 6425,
      "##esir": 6426,
      "etki": 6427,
      "##usundaki": 6428,
      "baktığı": 6429,
      "oscar": 6430,
      "fotoğrafı": 6431,
      "birleşmiş": 6432,
      "şubesi": 6433,
      "geleneksel": 6434,
      "kayserispor": 6435,
      "görünüyor": 6436,
      "tos": 6437,
      "utan": 6438,
      "##kil": 6439,
      "##racak": 6440,
      "akr": 6441,
      "parayı": 6442,
      "##mayacağını": 6443,
      "asay": 6444,
      "yazdığı": 6445,
      "kırsal": 6446,
      "hizmeti": 6447,
      "samsung": 6448,
      "sekreteri": 6449,
      "elimiz": 6450,
      "imam": 6451,
      "i̇liş": 6452,
      "erte": 6453,
      "erkan": 6454,
      "gidece": 6455,
      "yapıp": 6456,
      "karşıy": 6457,
      "karşılığında": 6458,
      "bizde": 6459,
      "koridor": 6460,
      "tarihinin": 6461,
      "ikna": 6462,
      "ailesinin": 6463,
      "fikret": 6464,
      "ucuz": 6465,
      "vefat": 6466,
      "diyet": 6467,
      "play": 6468,
      "öv": 6469,
      "##ani": 6470,
      "##onal": 6471,
      "##ablus": 6472,
      "alp": 6473,
      "advo": 6474,
      "bölgenin": 6475,
      "suriyel": 6476,
      "yazık": 6477,
      "demirel": 6478,
      "kültürel": 6479,
      "alacağı": 6480,
      "üzün": 6481,
      "balıkesir": 6482,
      "danışman": 6483,
      "inanıyorum": 6484,
      "rizespor": 6485,
      "şeref": 6486,
      "riekerink": 6487,
      "##bon": 6488,
      "##ilmesine": 6489,
      "##ami": 6490,
      "anım": 6491,
      "##lıkta": 6492,
      "geçtik": 6493,
      "yüzü": 6494,
      "alana": 6495,
      "otoy": 6496,
      "yönetme": 6497,
      "##abileceği": 6498,
      "olaylar": 6499,
      "görevden": 6500,
      "hatay": 6501,
      "ilişki": 6502,
      "noktaya": 6503,
      "ceph": 6504,
      "yayımlanan": 6505,
      "oğuzhan": 6506,
      "ölçüde": 6507,
      "86": 6508,
      "füz": 6509,
      "##etiyle": 6510,
      "##attin": 6511,
      "göm": 6512,
      "anlama": 6513,
      "kendimi": 6514,
      "okur": 6515,
      "kararın": 6516,
      "hareketi": 6517,
      "itha": 6518,
      "i̇stik": 6519,
      "gaziantepspor": 6520,
      "yaptırım": 6521,
      "mensuplarının": 6522,
      "katliam": 6523,
      "tüp": 6524,
      "##sey": 6525,
      "##göl": 6526,
      "demiş": 6527,
      "##okul": 6528,
      "##leri̇": 6529,
      "teb": 6530,
      "muay": 6531,
      "bence": 6532,
      "##liğiyle": 6533,
      "bütç": 6534,
      "##cell": 6535,
      "kapsamda": 6536,
      "skanda": 6537,
      "şiir": 6538,
      "kâ": 6539,
      "##ud": 6540,
      "çıkmış": 6541,
      "zamanlı": 6542,
      "insanlara": 6543,
      "kişiden": 6544,
      "uygulanan": 6545,
      "başarısız": 6546,
      "sektörün": 6547,
      "kitab": 6548,
      "imkanı": 6549,
      "mevzu": 6550,
      "asayiş": 6551,
      "##ruz": 6552,
      "##steri": 6553,
      "ettiler": 6554,
      "müj": 6555,
      "taraftarı": 6556,
      "seven": 6557,
      "##tıktan": 6558,
      "köken": 6559,
      "hayati": 6560,
      "olmaktan": 6561,
      "artarak": 6562,
      "tepe": 6563,
      "kaybettiği": 6564,
      "döv": 6565,
      "kesinti": 6566,
      "hendek": 6567,
      "bürokr": 6568,
      "başlangıç": 6569,
      "suikast": 6570,
      "klas": 6571,
      "##ser": 6572,
      "##yet": 6573,
      "##ysa": 6574,
      "alper": 6575,
      "aldıkları": 6576,
      "##arız": 6577,
      "##dere": 6578,
      "derbi": 6579,
      "tarihleri": 6580,
      "##olog": 6581,
      "üyelerinin": 6582,
      "içerik": 6583,
      "sezonunda": 6584,
      "yakalama": 6585,
      "yenilik": 6586,
      "cenk": 6587,
      "çalışıyoruz": 6588,
      "spons": 6589,
      "peygam": 6590,
      "sponsor": 6591,
      "):": 6592,
      "ste": 6593,
      "##desi": 6594,
      "##lıca": 6595,
      "##ladıkları": 6596,
      "zamanlarda": 6597,
      "united": 6598,
      "santr": 6599,
      "milyonlarca": 6600,
      "geçirilen": 6601,
      "çıktığını": 6602,
      "işlemi": 6603,
      "bahset": 6604,
      "çeyre": 6605,
      "vücud": 6606,
      "teşebbüs": 6607,
      "advocaat": 6608,
      "fas": 6609,
      "fiş": 6610,
      "başlar": 6611,
      "i̇r": 6612,
      "verdik": 6613,
      "bulunması": 6614,
      "belirledi": 6615,
      "doları": 6616,
      "muam": 6617,
      "taksi": 6618,
      "açıklamalar": 6619,
      "çekerek": 6620,
      "abdül": 6621,
      "kimliği": 6622,
      "yarıda": 6623,
      "bozdağ": 6624,
      "yürüten": 6625,
      "cesedi": 6626,
      "okula": 6627,
      "cezaevine": 6628,
      "yerleşim": 6629,
      "numaralı": 6630,
      "incelen": 6631,
      "dördüncü": 6632,
      "haş": 6633,
      "iken": 6634,
      "za": 6635,
      "gördüm": 6636,
      "gere": 6637,
      "##layın": 6638,
      "sürük": 6639,
      "konuşmada": 6640,
      "çevresinde": 6641,
      "brezilya": 6642,
      "i̇stihbarat": 6643,
      "##diğimiz": 6644,
      "kalacak": 6645,
      "kos": 6646,
      "bölün": 6647,
      "##abilmek": 6648,
      "hattı": 6649,
      "şirketler": 6650,
      "sabit": 6651,
      "yönetiminin": 6652,
      "gerçekleştirdiği": 6653,
      "sorunlar": 6654,
      "ilave": 6655,
      "salonu": 6656,
      "alırken": 6657,
      "analiz": 6658,
      "festivali": 6659,
      "74": 6660,
      "88": 6661,
      "kına": 6662,
      "pap": 6663,
      "rum": 6664,
      "##atik": 6665,
      "##stik": 6666,
      "verg": 6667,
      "195": 6668,
      "babasının": 6669,
      "sabır": 6670,
      "forvet": 6671,
      "ortamda": 6672,
      "buluşan": 6673,
      "fiziksel": 6674,
      "fragmanı": 6675,
      "fırtına": 6676,
      "örgüte": 6677,
      "avusturya": 6678,
      "gri": 6679,
      "##line": 6680,
      "koz": 6681,
      "##biliriz": 6682,
      "konuya": 6683,
      "sendik": 6684,
      "katılı": 6685,
      "sakarya": 6686,
      "gazetecilerin": 6687,
      "##iyordum": 6688,
      "amaçlı": 6689,
      "ihtimali": 6690,
      "turkcell": 6691,
      "şoför": 6692,
      "flor": 6693,
      "##int": 6694,
      "##malarını": 6695,
      "##lılar": 6696,
      "anket": 6697,
      "ini": 6698,
      "konak": 6699,
      "konuyu": 6700,
      "sürdüğü": 6701,
      "terörün": 6702,
      "sergi": 6703,
      "mutluluk": 6704,
      "hepimiz": 6705,
      "cenev": 6706,
      "akşamı": 6707,
      "riski": 6708,
      "lise": 6709,
      "i̇daresi": 6710,
      "peygamber": 6711,
      "ci̇": 6712,
      "diyorlar": 6713,
      "ikin": 6714,
      "tit": 6715,
      "##ğunda": 6716,
      "##ende": 6717,
      "oldum": 6718,
      "oraya": 6719,
      "oranda": 6720,
      "katlı": 6721,
      "kaçtı": 6722,
      "diliyorum": 6723,
      "girişimine": 6724,
      "görüşmeler": 6725,
      "kalkanı": 6726,
      "vakit": 6727,
      "federal": 6728,
      "gönüllü": 6729,
      "bylock": 6730,
      "##dınız": 6731,
      "##jen": 6732,
      "arasına": 6733,
      "##ıklı": 6734,
      "karara": 6735,
      "2000": 6736,
      "yönel": 6737,
      "sağlanması": 6738,
      "elinden": 6739,
      "##içi": 6740,
      "##ilebil": 6741,
      "aza": 6742,
      "hayatta": 6743,
      "konularda": 6744,
      "yarısı": 6745,
      "şirketlerin": 6746,
      "yakalanan": 6747,
      "##malıyız": 6748,
      "söylen": 6749,
      "çizen": 6750,
      "kalabalık": 6751,
      "enfeksiyon": 6752,
      "mühim": 6753,
      "zirvesi": 6754,
      "ailenin": 6755,
      "##tah": 6756,
      "##gur": 6757,
      "##dağı": 6758,
      "olunca": 6759,
      "gündür": 6760,
      "kobi̇": 6761,
      "haksız": 6762,
      "kullanıl": 6763,
      "##eceğimiz": 6764,
      "sınırlı": 6765,
      "görüşmede": 6766,
      "şarkıcı": 6767,
      "cerablus": 6768,
      "miktarda": 6769,
      "##tekin": 6770,
      "muğla": 6771,
      "glo": 6772,
      "müsa": 6773,
      "##ros": 6774,
      "harika": 6775,
      "kadına": 6776,
      "haftanın": 6777,
      "çocuklara": 6778,
      "dünyadaki": 6779,
      "saldırılar": 6780,
      "mücadelenin": 6781,
      "ayrılan": 6782,
      "sistemine": 6783,
      "mutabak": 6784,
      "medip": 6785,
      "kitle": 6786,
      "roma": 6787,
      "edeceğini": 6788,
      "bakımından": 6789,
      "baraj": 6790,
      "değinen": 6791,
      "malatya": 6792,
      "cenevre": 6793,
      "medipol": 6794,
      "800": 6795,
      "bine": 6796,
      "bi̇r": 6797,
      "zek": 6798,
      "çik": 6799,
      "##fez": 6800,
      "demişti": 6801,
      "##umda": 6802,
      "##luğa": 6803,
      "ertu": 6804,
      "açıkça": 6805,
      "oyunun": 6806,
      "hakkını": 6807,
      "turu": 6808,
      "ailesine": 6809,
      "engelli": 6810,
      "ülkelerde": 6811,
      "çizg": 6812,
      "pasapor": 6813,
      "çaykur": 6814,
      "tey": 6815,
      "##rat": 6816,
      "##yorlar": 6817,
      "##lıktan": 6818,
      "gündüz": 6819,
      "işver": 6820,
      "##lerinizi": 6821,
      "##uştuk": 6822,
      "bekir": 6823,
      "i̇nter": 6824,
      "mücadeleyi": 6825,
      "başladığını": 6826,
      "sof": 6827,
      "hamle": 6828,
      "lisesi": 6829,
      "fuarı": 6830,
      "kurtarma": 6831,
      "başardı": 6832,
      "takdirde": 6833,
      "lezzet": 6834,
      "84": 6835,
      "kump": 6836,
      "şam": 6837,
      "##ilmiştir": 6838,
      "sorusuna": 6839,
      "söylediği": 6840,
      "düzelt": 6841,
      "i̇şlet": 6842,
      "muhar": 6843,
      "acaba": 6844,
      "zeyne": 6845,
      "karşılıklı": 6846,
      "çıkarılan": 6847,
      "sgk": 6848,
      "##ğlığı": 6849,
      "binanın": 6850,
      "sahasında": 6851,
      "doç": 6852,
      "serkan": 6853,
      "katar": 6854,
      "maçının": 6855,
      "suçlu": 6856,
      "yürek": 6857,
      "olmaması": 6858,
      "ekiplerince": 6859,
      "berat": 6860,
      "sisteminin": 6861,
      "##eceğiniz": 6862,
      "meden": 6863,
      "sarayı": 6864,
      "kutlu": 6865,
      "noktası": 6866,
      "niteli": 6867,
      "söyleyerek": 6868,
      "##duğumuz": 6869,
      "atıldı": 6870,
      "gas": 6871,
      "sesi": 6872,
      "tev": 6873,
      "##öğr": 6874,
      "##wa": 6875,
      "##eron": 6876,
      "gösteri": 6877,
      "alçak": 6878,
      "ange": 6879,
      "çıkart": 6880,
      "derg": 6881,
      "burası": 6882,
      "suçu": 6883,
      "ulaştırma": 6884,
      "adımlar": 6885,
      "çarptı": 6886,
      "yararlan": 6887,
      "yağışlı": 6888,
      "somut": 6889,
      "ışı": 6890,
      "##bis": 6891,
      "##ök": 6892,
      "##emeyece": 6893,
      "##aban": 6894,
      "##dığımız": 6895,
      "edilmiştir": 6896,
      "gelişmiş": 6897,
      "sıv": 6898,
      "askerlerin": 6899,
      "toplamda": 6900,
      "puanla": 6901,
      "görüntüleri": 6902,
      "koltu": 6903,
      "hikây": 6904,
      "şarj": 6905,
      "ertuğrul": 6906,
      "zeki": 6907,
      "##likleri": 6908,
      "buluştur": 6909,
      "parmak": 6910,
      "denk": 6911,
      "böbr": 6912,
      "uyum": 6913,
      "evden": 6914,
      "alanına": 6915,
      "insanlık": 6916,
      "eşlik": 6917,
      "yönetimindeki": 6918,
      "araçlar": 6919,
      "rahatsızlık": 6920,
      "çağrısı": 6921,
      "katılımcı": 6922,
      "milletvekilleri": 6923,
      "karayol": 6924,
      "karayolu": 6925,
      "vadeli": 6926,
      "mütte": 6927,
      "duygusal": 6928,
      "aleyh": 6929,
      "böbrek": 6930,
      "fit": 6931,
      "olama": 6932,
      "çı": 6933,
      "##ji": 6934,
      "##diğim": 6935,
      "kalmış": 6936,
      "kalmadı": 6937,
      "gözden": 6938,
      "esen": 6939,
      "yapılanması": 6940,
      "##lıyoruz": 6941,
      "mücadelesi": 6942,
      "vatandaşın": 6943,
      "oğlum": 6944,
      "müsteş": 6945,
      "zeynep": 6946,
      "müttefik": 6947,
      "##ras": 6948,
      "##mit": 6949,
      "edir": 6950,
      "kurtu": 6951,
      "istasyon": 6952,
      "siber": 6953,
      "harekâ": 6954,
      "alıcı": 6955,
      "müzesi": 6956,
      "fatma": 6957,
      "modeli": 6958,
      "olabileceğini": 6959,
      "nefret": 6960,
      "kalit": 6961,
      "ayşe": 6962,
      "randev": 6963,
      "referan": 6964,
      "rektör": 6965,
      "ömür": 6966,
      "##ned": 6967,
      "##opi": 6968,
      "özür": 6969,
      "açıklan": 6970,
      "##larınızı": 6971,
      "kaldığını": 6972,
      "sevin": 6973,
      "saatte": 6974,
      "hakkındaki": 6975,
      "ulaşan": 6976,
      "sınırı": 6977,
      "işlemlerinin": 6978,
      "afgan": 6979,
      "gazeteciler": 6980,
      "apart": 6981,
      "radyo": 6982,
      "blok": 6983,
      "rab": 6984,
      "sunuyor": 6985,
      "##ulacak": 6986,
      "##çay": 6987,
      "##16": 6988,
      "i̇t": 6989,
      "görsel": 6990,
      "konuldu": 6991,
      "gününde": 6992,
      "basına": 6993,
      "dönemine": 6994,
      "karaca": 6995,
      "töreni": 6996,
      "dizinin": 6997,
      "oynadı": 6998,
      "şikây": 6999,
      "finansman": 7000,
      "kriter": 7001,
      "cümle": 7002,
      "edem": 7003,
      "##cını": 7004,
      "##gut": 7005,
      "##medik": 7006,
      "kader": 7007,
      "inşallah": 7008,
      "orgeneral": 7009,
      "katil": 7010,
      "çekmek": 7011,
      "bölgelerde": 7012,
      "baskın": 7013,
      "saldırısında": 7014,
      "havaalan": 7015,
      "yazarı": 7016,
      "hazırladığı": 7017,
      "takımda": 7018,
      "sistemin": 7019,
      "teklifi": 7020,
      "kanseri": 7021,
      "birleşik": 7022,
      "dayanışma": 7023,
      "üzüntü": 7024,
      "hur": 7025,
      "leh": 7026,
      "zemin": 7027,
      "##ris": 7028,
      "##onu": 7029,
      "ilde": 7030,
      "sürece": 7031,
      "general": 7032,
      "eline": 7033,
      "otor": 7034,
      "ifadesinde": 7035,
      "tutum": 7036,
      "eşliğinde": 7037,
      "kapsamlı": 7038,
      "görünüm": 7039,
      "müdaha": 7040,
      "bilimsel": 7041,
      "demektir": 7042,
      "renkli": 7043,
      "kaldırılan": 7044,
      "seyirc": 7045,
      "izleyic": 7046,
      "klasik": 7047,
      "bini": 7048,
      "pe": 7049,
      "##isindeki": 7050,
      "almıştı": 7051,
      "indi": 7052,
      "yaşanıyor": 7053,
      "##laşan": 7054,
      "müf": 7055,
      "getiriyor": 7056,
      "hemş": 7057,
      "hayatına": 7058,
      "mahkum": 7059,
      "hükm": 7060,
      "bölümde": 7061,
      "beslen": 7062,
      "değişikliği": 7063,
      "özgürlüğü": 7064,
      "şüpheliler": 7065,
      "performansı": 7066,
      "şef": 7067,
      "tesisleri": 7068,
      "egemen": 7069,
      "zırhlı": 7070,
      "fın": 7071,
      "##ub": 7072,
      "##tt": 7073,
      "##ares": 7074,
      "veri": 7075,
      "kurduğu": 7076,
      "isteme": 7077,
      "eğil": 7078,
      "saldırıya": 7079,
      "davanın": 7080,
      "çalışmalarına": 7081,
      "gelişim": 7082,
      "planlanan": 7083,
      "yayınlandı": 7084,
      "dairesi": 7085,
      "cevab": 7086,
      "başsağlığı": 7087,
      "stady": 7088,
      "istikamet": 7089,
      "cezaevi": 7090,
      "şebek": 7091,
      "abi": 7092,
      "bos": 7093,
      "eleme": 7094,
      "##gat": 7095,
      "##ınç": 7096,
      "##ınan": 7097,
      "dediler": 7098,
      "##ulma": 7099,
      "inf": 7100,
      "etmeyi": 7101,
      "kuran": 7102,
      "erdi": 7103,
      "karşıtı": 7104,
      "##lığıyla": 7105,
      "geldiğinde": 7106,
      "##çılar": 7107,
      "taşıma": 7108,
      "masum": 7109,
      "artışla": 7110,
      "hakemler": 7111,
      "işadamı": 7112,
      "levent": 7113,
      "biy": 7114,
      "idam": 7115,
      "##iti": 7116,
      "##lağı": 7117,
      "##list": 7118,
      "##emiyor": 7119,
      "ente": 7120,
      "##omuz": 7121,
      "aksine": 7122,
      "gidiş": 7123,
      "bizden": 7124,
      "yolunu": 7125,
      "altındaki": 7126,
      "çektir": 7127,
      "istediklerini": 7128,
      "yorumu": 7129,
      "##panyol": 7130,
      "sebze": 7131,
      "?'": 7132,
      "tı": 7133,
      "zehir": 7134,
      "##denin": 7135,
      "##ileriyle": 7136,
      "kıdem": 7137,
      "çalışmaya": 7138,
      "zamanla": 7139,
      "çekilen": 7140,
      "örgütleri": 7141,
      "edilir": 7142,
      "şeyin": 7143,
      "projeler": 7144,
      "ulaştır": 7145,
      "mide": 7146,
      "filmde": 7147,
      "kullanımı": 7148,
      "gazetecilere": 7149,
      "alışkan": 7150,
      "hayırlı": 7151,
      "tüfeği": 7152,
      "şehrin": 7153,
      "89": 7154,
      "dans": 7155,
      "lanet": 7156,
      "piyade": 7157,
      "toz": 7158,
      "##by": 7159,
      "##onun": 7160,
      "##ell": 7161,
      "tebr": 7162,
      "geçerek": 7163,
      "devir": 7164,
      "belirli": 7165,
      "kullanıldı": 7166,
      "##i̇l": 7167,
      "kararının": 7168,
      "şirketleri": 7169,
      "öğrencileri": 7170,
      "sitesinde": 7171,
      "rezerv": 7172,
      "meteor": 7173,
      "yürürlüğe": 7174,
      "anımsat": 7175,
      "99": 7176,
      "aler": 7177,
      "rü": 7178,
      "##hk": 7179,
      "görmez": 7180,
      "##ülük": 7181,
      "çıkmak": 7182,
      "##düğ": 7183,
      "gözler": 7184,
      "adliye": 7185,
      "yetenek": 7186,
      "keskin": 7187,
      "ülkeden": 7188,
      "artvin": 7189,
      "ilişkileri": 7190,
      "kuruluşu": 7191,
      "hırsız": 7192,
      "duman": 7193,
      "i̇hracat": 7194,
      "bra": 7195,
      "cir": 7196,
      "tansiyon": 7197,
      "##ai": 7198,
      "##lemenin": 7199,
      "##lamayı": 7200,
      "gelince": 7201,
      "oynuyor": 7202,
      "sezonu": 7203,
      "yakaladı": 7204,
      "ağbal": 7205,
      "dakikalarda": 7206,
      "yürüttüğü": 7207,
      "ayrım": 7208,
      "kast": 7209,
      "##ınızı": 7210,
      "yöneticisi": 7211,
      "quares": 7212,
      "cerrahi": 7213,
      "##ularak": 7214,
      "##ja": 7215,
      "##uncu": 7216,
      "araba": 7217,
      "##ceği": 7218,
      "kadir": 7219,
      "yapılır": 7220,
      "güler": 7221,
      "haberleşme": 7222,
      "sportif": 7223,
      "üstü": 7224,
      "sisteme": 7225,
      "sistemini": 7226,
      "görünce": 7227,
      "borc": 7228,
      "kontrolü": 7229,
      "seyre": 7230,
      "otomobilin": 7231,
      "ederim": 7232,
      "transferi": 7233,
      "lacivertli": 7234,
      "körfez": 7235,
      "##rin": 7236,
      "topar": 7237,
      "edilmişti": 7238,
      "tarihli": 7239,
      "konuşmasında": 7240,
      "siyasal": 7241,
      "araçların": 7242,
      "makin": 7243,
      "yaşamak": 7244,
      "büyükelçisi": 7245,
      "ismini": 7246,
      "ci̇han": 7247,
      "quaresma": 7248,
      "eman": 7249,
      "ohal": 7250,
      "##tc": 7251,
      "##lab": 7252,
      "##irt": 7253,
      "##diven": 7254,
      "##atistik": 7255,
      "başlıklı": 7256,
      "##ınıza": 7257,
      "geriledi": 7258,
      "##roid": 7259,
      "kole": 7260,
      "gerekçe": 7261,
      "trt": 7262,
      "kadını": 7263,
      "kanada": 7264,
      "masaya": 7265,
      "kapısı": 7266,
      "##ülecek": 7267,
      "reddet": 7268,
      "##ruklu": 7269,
      "edirne": 7270,
      "di̇": 7271,
      "##batı": 7272,
      "##yüz": 7273,
      "##ğumuz": 7274,
      "yılına": 7275,
      "herkesi": 7276,
      "avm": 7277,
      "gözet": 7278,
      "kararnam": 7279,
      "boyun": 7280,
      "şehitler": 7281,
      "manz": 7282,
      "sokakları": 7283,
      "ücreti": 7284,
      "hip": 7285,
      "key": 7286,
      "kağıt": 7287,
      "yılları": 7288,
      "kaydı": 7289,
      "kalması": 7290,
      "yakıt": 7291,
      "##abileceğini": 7292,
      "araçları": 7293,
      "şimdiye": 7294,
      "alabil": 7295,
      "piyasaya": 7296,
      "musunuz": 7297,
      "kiralık": 7298,
      "federasyon": 7299,
      "grubun": 7300,
      "##meliyiz": 7301,
      "öksüz": 7302,
      "garanti": 7303,
      "lab": 7304,
      "rize": 7305,
      "ufak": 7306,
      "zem": 7307,
      "##lilerin": 7308,
      "##ayım": 7309,
      "akk": 7310,
      "istendi": 7311,
      "##lüt": 7312,
      "avro": 7313,
      "##tüel": 7314,
      "cezasına": 7315,
      "kendileri": 7316,
      "fırsatı": 7317,
      "biden": 7318,
      "ayağa": 7319,
      "portekizli": 7320,
      "tosun": 7321,
      "global": 7322,
      "ju": 7323,
      "jet": 7324,
      "suna": 7325,
      "yiy": 7326,
      "##ttı": 7327,
      "##eniz": 7328,
      "yolsuzluk": 7329,
      "atm": 7330,
      "kanaat": 7331,
      "durumunun": 7332,
      "hastanın": 7333,
      "emniyetteki": 7334,
      "şahit": 7335,
      "cevabı": 7336,
      "##ulduğunu": 7337,
      "sars": 7338,
      "faaliyetleri": 7339,
      "korkut": 7340,
      "çarpış": 7341,
      "yetersiz": 7342,
      "##stagram": 7343,
      "onlarca": 7344,
      "seviyesinde": 7345,
      "loj": 7346,
      "teşkilatı": 7347,
      "hormon": 7348,
      "i̇stiklal": 7349,
      "700": 7350,
      "bons": 7351,
      "tc": 7352,
      "şem": 7353,
      "##ts": 7354,
      "##çü": 7355,
      "##immet": 7356,
      "başlandı": 7357,
      "aldıklarını": 7358,
      "içinden": 7359,
      "ayına": 7360,
      "aklı": 7361,
      "kolek": 7362,
      "bizzat": 7363,
      "alanlarda": 7364,
      "hazine": 7365,
      "plana": 7366,
      "isimleri": 7367,
      "2006": 7368,
      "değerlendiren": 7369,
      "finale": 7370,
      "bahsed": 7371,
      "bankalar": 7372,
      "##zığ": 7373,
      "kongr": 7374,
      "muhammet": 7375,
      "günümüzde": 7376,
      "elazığ": 7377,
      "enstit": 7378,
      "yiğit": 7379,
      "##amayan": 7380,
      "##unç": 7381,
      "##lanıp": 7382,
      "##emek": 7383,
      "kalır": 7384,
      "##rali": 7385,
      "tartı": 7386,
      "olduğundan": 7387,
      "##ağının": 7388,
      "kişilere": 7389,
      "elini": 7390,
      "getirilmesi": 7391,
      "yaşama": 7392,
      "şahsın": 7393,
      "heyk": 7394,
      "törende": 7395,
      "büro": 7396,
      "yolculuk": 7397,
      "android": 7398,
      "i̇nternet": 7399,
      "bonserv": 7400,
      "92": 7401,
      "##enn": 7402,
      "yapmayı": 7403,
      "engin": 7404,
      "çalıştığını": 7405,
      "##ayıp": 7406,
      "sağlaya": 7407,
      "kullanmak": 7408,
      "adnan": 7409,
      "güvenliğini": 7410,
      "i̇spanyol": 7411,
      "yorgun": 7412,
      "kentte": 7413,
      "sürecinin": 7414,
      "nereye": 7415,
      "düşünüyoruz": 7416,
      "sözleşmesi": 7417,
      "batman": 7418,
      "olabileceği": 7419,
      "kurtuluş": 7420,
      "protok": 7421,
      "kıyas": 7422,
      "tebrik": 7423,
      "ja": 7424,
      "kâr": 7425,
      "ır": 7426,
      "verilm": 7427,
      "bulmak": 7428,
      "##ayacak": 7429,
      "si̇": 7430,
      "gerekse": 7431,
      "subay": 7432,
      "alındığını": 7433,
      "yolun": 7434,
      "şehri": 7435,
      "belirtiyor": 7436,
      "turnu": 7437,
      "diyal": 7438,
      "tanesi": 7439,
      "2003": 7440,
      "ilçesine": 7441,
      "rakibi": 7442,
      "savcısı": 7443,
      "cesaret": 7444,
      "istenen": 7445,
      "yitirdi": 7446,
      "husus": 7447,
      "mükem": 7448,
      "##bc": 7449,
      "##yat": 7450,
      "artıyor": 7451,
      "etik": 7452,
      "##lenecek": 7453,
      "##rama": 7454,
      "zamanında": 7455,
      "alınmış": 7456,
      "seri": 7457,
      "genelde": 7458,
      "durumlarda": 7459,
      "gerçekleştirilecek": 7460,
      "camii": 7461,
      "giderken": 7462,
      "partinin": 7463,
      "artışı": 7464,
      "münih": 7465,
      "karanlık": 7466,
      "koordinasyon": 7467,
      "pasaport": 7468,
      "vas": 7469,
      "yel": 7470,
      "yayı": 7471,
      "öso": 7472,
      "##ota": 7473,
      "##hiş": 7474,
      "##dışı": 7475,
      "##abi": 7476,
      "##kif": 7477,
      "günleri": 7478,
      "neh": 7479,
      "bilmiyorum": 7480,
      "geçmek": 7481,
      "ercan": 7482,
      "büyüt": 7483,
      "mert": 7484,
      "suçlarla": 7485,
      "cumhurbaşkanımız": 7486,
      "mevlüt": 7487,
      "karşılaşmanın": 7488,
      "oluşuyor": 7489,
      "ülkelere": 7490,
      "istemiyle": 7491,
      "kerry": 7492,
      "rejimi": 7493,
      "zirve": 7494,
      "moral": 7495,
      "nöbetçi": 7496,
      "vuruşunda": 7497,
      "şükür": 7498,
      "vitamini": 7499,
      ").": 7500,
      "caz": 7501,
      "çe": 7502,
      "çir": 7503,
      "##siyel": 7504,
      "##hu": 7505,
      "##ator": 7506,
      "aramız": 7507,
      "##tip": 7508,
      "kentin": 7509,
      "tarafı": 7510,
      "çekildi": 7511,
      "değiliz": 7512,
      "düzenleyen": 7513,
      "azından": 7514,
      "tarihe": 7515,
      "hizmete": 7516,
      "politikası": 7517,
      "##ebiliyor": 7518,
      "dondur": 7519,
      "sekiz": 7520,
      "muharrem": 7521,
      "fen": 7522,
      "pist": 7523,
      "zul": 7524,
      "##sul": 7525,
      "##çilerin": 7526,
      "##pt": 7527,
      "##ess": 7528,
      "##ırım": 7529,
      "verilerine": 7530,
      "kurmak": 7531,
      "ters": 7532,
      "tekin": 7533,
      "bingöl": 7534,
      "uyruklu": 7535,
      "açıklamaları": 7536,
      "gelişen": 7537,
      "futbolcunun": 7538,
      "diyanet": 7539,
      "geçirmek": 7540,
      "geçtiği": 7541,
      "savundu": 7542,
      "oluşturuyor": 7543,
      "oluşturduğu": 7544,
      "onunla": 7545,
      "kapattı": 7546,
      "şüphelinin": 7547,
      "önlemleri": 7548,
      "avustral": 7549,
      "gerçeği": 7550,
      "söndür": 7551,
      "potansiyel": 7552,
      "yenikapı": 7553,
      "93": 7554,
      "elim": 7555,
      "haya": 7556,
      "lay": 7557,
      "ısı": 7558,
      "##ladi": 7559,
      "##ımda": 7560,
      "ediyorlar": 7561,
      "ortağı": 7562,
      "milletimiz": 7563,
      "hazırlanıyor": 7564,
      "sahipliği": 7565,
      "uygulamaya": 7566,
      "soruları": 7567,
      "çatışmada": 7568,
      "efen": 7569,
      "valilik": 7570,
      "tokat": 7571,
      "arzu": 7572,
      "obez": 7573,
      "müthiş": 7574,
      "##yasal": 7575,
      "irtibat": 7576,
      "mükemmel": 7577,
      "nap": 7578,
      "##zda": 7579,
      "##pat": 7580,
      "##abilen": 7581,
      "##mece": 7582,
      "instagram": 7583,
      "etap": 7584,
      "##dırdı": 7585,
      "vermedi": 7586,
      "haberde": 7587,
      "dönük": 7588,
      "yoluna": 7589,
      "i̇nce": 7590,
      "izni": 7591,
      "harekatı": 7592,
      "kazanç": 7593,
      "kazanmak": 7594,
      "eleman": 7595,
      "tabur": 7596,
      "cumhuriyetçi": 7597,
      "oyuncuları": 7598,
      "gönderilen": 7599,
      "sektörünün": 7600,
      "sokakta": 7601,
      "havuz": 7602,
      "birbirinden": 7603,
      "temsilcileri": 7604,
      "karışık": 7605,
      "kilogram": 7606,
      "tunceli": 7607,
      "malzem": 7608,
      "çekiliş": 7609,
      "şifre": 7610,
      "kusur": 7611,
      "tartışı": 7612,
      "raf": 7613,
      "şan": 7614,
      "##lanmasını": 7615,
      "intik": 7616,
      "vermişti": 7617,
      "evren": 7618,
      "##dikal": 7619,
      "##lıyorum": 7620,
      "##ıyoruz": 7621,
      "perak": 7622,
      "tamamı": 7623,
      "dünyasının": 7624,
      "gerçekleştiren": 7625,
      "araçla": 7626,
      "2004": 7627,
      "kurumsal": 7628,
      "öldürülen": 7629,
      "belgesi": 7630,
      "müşteri": 7631,
      "sevgili": 7632,
      "rıza": 7633,
      "sho": 7634,
      "çil": 7635,
      "##siy": 7636,
      "##tıcı": 7637,
      "aylarında": 7638,
      "özcan": 7639,
      "terörü": 7640,
      "doğumlu": 7641,
      "bot": 7642,
      "muhtar": 7643,
      "doku": 7644,
      "karşılaşmada": 7645,
      "hani": 7646,
      "kentsel": 7647,
      "market": 7648,
      "trafiğe": 7649,
      "sunulan": 7650,
      "robot": 7651,
      "şikâyet": 7652,
      "perakende": 7653,
      "87": 7654,
      "94": 7655,
      "ib": 7656,
      "ilerle": 7657,
      "##labilecek": 7658,
      "olmasının": 7659,
      "göğü": 7660,
      "anında": 7661,
      "karma": 7662,
      "karbon": 7663,
      "olanların": 7664,
      "gerekmektedir": 7665,
      "trak": 7666,
      "getirerek": 7667,
      "yapılandır": 7668,
      "değilim": 7669,
      "emlak": 7670,
      "194": 7671,
      "falan": 7672,
      "cennet": 7673,
      "anlaşmaya": 7674,
      "öldürdü": 7675,
      "kitabı": 7676,
      "##ograf": 7677,
      "duruşma": 7678,
      "genişlet": 7679,
      "kayıtlı": 7680,
      "tehlike": 7681,
      "seviyesine": 7682,
      "teşkilat": 7683,
      "ağabey": 7684,
      "küfür": 7685,
      "protokol": 7686,
      "lens": 7687,
      "rev": 7688,
      "##eet": 7689,
      "##no": 7690,
      "##kus": 7691,
      "##iner": 7692,
      "##elle": 7693,
      "arayan": 7694,
      "##ılmasının": 7695,
      "##likte": 7696,
      "polat": 7697,
      "##ladım": 7698,
      "yönetmeni": 7699,
      "izleyen": 7700,
      "milletimizin": 7701,
      "artması": 7702,
      "sürdüren": 7703,
      "öldürül": 7704,
      "şartları": 7705,
      "fikri": 7706,
      "parlament": 7707,
      "korunması": 7708,
      "aranan": 7709,
      "estetik": 7710,
      "bisiklet": 7711,
      "pahalı": 7712,
      "nar": 7713,
      "pınar": 7714,
      "##dün": 7715,
      "##pa": 7716,
      "##ese": 7717,
      "##lanmasının": 7718,
      "anlar": 7719,
      "çıkara": 7720,
      "##ağında": 7721,
      "sözler": 7722,
      "okuma": 7723,
      "oyunları": 7724,
      "hastalığın": 7725,
      "yakınlarında": 7726,
      "golle": 7727,
      "çevik": 7728,
      "mağaza": 7729,
      "ihrac": 7730,
      "dışarıda": 7731,
      "alex": 7732,
      "i̇kti": 7733,
      "sahneye": 7734,
      "imamı": 7735,
      "miting": 7736,
      "buluyor": 7737,
      "zincir": 7738,
      "neticesinde": 7739,
      "muk": 7740,
      "ric": 7741,
      "vası": 7742,
      "##xy": 7743,
      "##und": 7744,
      "##elli": 7745,
      "##app": 7746,
      "##okulu": 7747,
      "duruyor": 7748,
      "evinin": 7749,
      "doğa": 7750,
      "dönemlerde": 7751,
      "turgut": 7752,
      "oyuncuların": 7753,
      "pazarı": 7754,
      "masraf": 7755,
      "meb": 7756,
      "adamın": 7757,
      "özgü": 7758,
      "fatura": 7759,
      "kurucu": 7760,
      "darbeci": 7761,
      "sürücüsü": 7762,
      "ebru": 7763,
      "fel": 7764,
      "meme": 7765,
      "bulama": 7766,
      "topa": 7767,
      "döner": 7768,
      "kaptan": 7769,
      "##ladıklarını": 7770,
      "kandil": 7771,
      "##sızın": 7772,
      "kimyasal": 7773,
      "çalışmalarının": 7774,
      "golcü": 7775,
      "eskiden": 7776,
      "kasab": 7777,
      "eylemi": 7778,
      "erkekler": 7779,
      "edeceği": 7780,
      "muhaliflerin": 7781,
      "iftir": 7782,
      "##ole": 7783,
      "aldım": 7784,
      "##önü": 7785,
      "sağladığı": 7786,
      "söylemek": 7787,
      "kanalı": 7788,
      "muhat": 7789,
      "gönderdiği": 7790,
      "##laşıyor": 7791,
      "yanıtladı": 7792,
      "mensupları": 7793,
      "i̇ngilizce": 7794,
      "kıymet": 7795,
      "fabrika": 7796,
      "lacivertliler": 7797,
      "görevlileri": 7798,
      "lin": 7799,
      "uşak": 7800,
      "dele": 7801,
      "etmektedir": 7802,
      "belirsiz": 7803,
      "suy": 7804,
      "##mayız": 7805,
      "ihmal": 7806,
      "ihbarı": 7807,
      "kararına": 7808,
      "##lığınca": 7809,
      "operatör": 7810,
      "takımının": 7811,
      "yarısında": 7812,
      "sabri": 7813,
      "başladık": 7814,
      "denize": 7815,
      "askerler": 7816,
      "mülteciler": 7817,
      "personeli": 7818,
      "kuşat": 7819,
      "tıpkı": 7820,
      "kaşı": 7821,
      "santral": 7822,
      "randevu": 7823,
      "himmet": 7824,
      "ote": 7825,
      "sir": 7826,
      "##ılmıştır": 7827,
      "karı": 7828,
      "endü": 7829,
      "erdal": 7830,
      "kenti": 7831,
      "bakalım": 7832,
      "çalışırken": 7833,
      "##leyip": 7834,
      "yönetici": 7835,
      "sayısını": 7836,
      "tarihine": 7837,
      "iyice": 7838,
      "çıkarmak": 7839,
      "##larımızla": 7840,
      "i̇lç": 7841,
      "yüksekova": 7842,
      "maliyeti": 7843,
      "katılacak": 7844,
      "askerin": 7845,
      "sinyal": 7846,
      "kahve": 7847,
      "kutlama": 7848,
      "düştüğü": 7849,
      "detaylı": 7850,
      "restoran": 7851,
      "yurtdışında": 7852,
      "kahvaltı": 7853,
      "bünyesinde": 7854,
      "labor": 7855,
      "endüst": 7856,
      "91": 7857,
      "ray": 7858,
      "tüz": 7859,
      "##ice": 7860,
      "##dını": 7861,
      "açılması": 7862,
      "bakı": 7863,
      "podol": 7864,
      "ilgilendir": 7865,
      "saati": 7866,
      "saatlerde": 7867,
      "edilirken": 7868,
      "messi": 7869,
      "çıkarken": 7870,
      "güzer": 7871,
      "beraberinde": 7872,
      "melek": 7873,
      "cins": 7874,
      "oradaki": 7875,
      "ordus": 7876,
      "darbeye": 7877,
      "temizlik": 7878,
      "ağrısı": 7879,
      "dayalı": 7880,
      "hayvancılık": 7881,
      "ilerleyen": 7882,
      "ajans": 7883,
      "çadır": 7884,
      "galaxy": 7885,
      "çirkin": 7886,
      "alar": 7887,
      "mol": 7888,
      "çıl": 7889,
      "##siyle": 7890,
      "##yü": 7891,
      "##miyoruz": 7892,
      "dede": 7893,
      "gebe": 7894,
      "##dıran": 7895,
      "yıllarında": 7896,
      "olduğum": 7897,
      "milliyet": 7898,
      "yaptım": 7899,
      "doğur": 7900,
      "alanları": 7901,
      "esra": 7902,
      "maçını": 7903,
      "olaydan": 7904,
      "vatandaşlara": 7905,
      "dünyası": 7906,
      "başlamış": 7907,
      "menaj": 7908,
      "borcu": 7909,
      "mecbur": 7910,
      "kaynakları": 7911,
      "piyasada": 7912,
      "görüntüler": 7913,
      "koltuk": 7914,
      "politikalar": 7915,
      "pank": 7916,
      "ayağı": 7917,
      "çapında": 7918,
      "tezah": 7919,
      "metrekar": 7920,
      "tuğgeneral": 7921,
      "ikramiye": 7922,
      "oğlunun": 7923,
      "sigortası": 7924,
      "layık": 7925,
      "con": 7926,
      "war": 7927,
      "##üme": 7928,
      "##mamak": 7929,
      "karn": 7930,
      "inin": 7931,
      "konv": 7932,
      "verdikleri": 7933,
      "vergisi": 7934,
      "aktarı": 7935,
      "parkı": 7936,
      "habere": 7937,
      "sağlar": 7938,
      "dönüm": 7939,
      "katılma": 7940,
      "göstermek": 7941,
      "dışındaki": 7942,
      "davada": 7943,
      "i̇lgi̇": 7944,
      "sıralama": 7945,
      "mahkemece": 7946,
      "ülkedeki": 7947,
      "isterim": 7948,
      "faydalı": 7949,
      "mi̇l": 7950,
      "kaliteli": 7951,
      "duyarlı": 7952,
      "##öğretim": 7953,
      "sıvı": 7954,
      "tezahür": 7955,
      "##ilmez": 7956,
      "##lera": 7957,
      "olsaydı": 7958,
      "eto": 7959,
      "aydır": 7960,
      "ilti": 7961,
      "##dığım": 7962,
      "sorg": 7963,
      "tarafında": 7964,
      "suretiyle": 7965,
      "faci": 7966,
      "diyabet": 7967,
      "ekiplerine": 7968,
      "##dimiz": 7969,
      "##tifak": 7970,
      "##gazi": 7971,
      "geleceğini": 7972,
      "seferber": 7973,
      "müsabaka": 7974,
      "senaryo": 7975,
      "bakırköy": 7976,
      "ertelen": 7977,
      "podolski": 7978,
      "96": 7979,
      "akif": 7980,
      "##bb": 7981,
      "##cir": 7982,
      "##val": 7983,
      "##eyerek": 7984,
      "aym": 7985,
      "açıklanan": 7986,
      "karşılığı": 7987,
      "büyüklüğ": 7988,
      "girmek": 7989,
      "doların": 7990,
      "maçtan": 7991,
      "maçlarda": 7992,
      "bekleme": 7993,
      "uygulanacak": 7994,
      "satır": 7995,
      "yakalanması": 7996,
      "ürünler": 7997,
      "muslera": 7998,
      "inanç": 7999,
      "listesinde": 8000,
      "gemi": 8001,
      "gücünü": 8002,
      "fındık": 8003,
      "cün": 8004,
      "peyn": 8005,
      "##amayacak": 8006,
      "##ganı": 8007,
      "##lediğini": 8008,
      "##aydı": 8009,
      "veli": 8010,
      "açıklayan": 8011,
      "atarak": 8012,
      "yüküm": 8013,
      "başkanları": 8014,
      "vatandaşları": 8015,
      "savaşın": 8016,
      "berabere": 8017,
      "sürecin": 8018,
      "araştırmalar": 8019,
      "adıyla": 8020,
      "çarptır": 8021,
      "semt": 8022,
      "gürül": 8023,
      "seviyede": 8024,
      "mağlubiyet": 8025,
      "tabanca": 8026,
      "metrekare": 8027,
      "mekaniz": 8028,
      "efsane": 8029,
      "koleksiyon": 8030,
      "nü": 8031,
      "yoğ": 8032,
      "##eden": 8033,
      "##atu": 8034,
      "deş": 8035,
      "olmasın": 8036,
      "##ahmet": 8037,
      "görür": 8038,
      "##tedir": 8039,
      "biliyorum": 8040,
      "sürüldü": 8041,
      "##laşması": 8042,
      "oylama": 8043,
      "dünkü": 8044,
      "açıklamasını": 8045,
      "hariç": 8046,
      "kararları": 8047,
      "eşim": 8048,
      "oynat": 8049,
      "oynamak": 8050,
      "i̇lhan": 8051,
      "iddiası": 8052,
      "dokuz": 8053,
      "masa": 8054,
      "üzül": 8055,
      "ofis": 8056,
      "show": 8057,
      "##laket": 8058,
      "##ilmesinin": 8059,
      "etken": 8060,
      "etmedi": 8061,
      "veriyoruz": 8062,
      "kıv": 8063,
      "denilen": 8064,
      "doğuş": 8065,
      "ifadeler": 8066,
      "##ilebilecek": 8067,
      "izlen": 8068,
      "hatırlattı": 8069,
      "##müştür": 8070,
      "yaralılar": 8071,
      "felaket": 8072,
      "şidde": 8073,
      "tweet": 8074,
      "tüfek": 8075,
      "harcama": 8076,
      "yuvarlak": 8077,
      "karşıyaka": 8078,
      "adem": 8079,
      "iğ": 8080,
      "kd": 8081,
      "ti": 8082,
      "öm": 8083,
      "şık": 8084,
      "##ben": 8085,
      "##los": 8086,
      "##dinde": 8087,
      "##unt": 8088,
      "##api": 8089,
      "##abildi": 8090,
      "##ulur": 8091,
      "yapabilir": 8092,
      "millete": 8093,
      "müezz": 8094,
      "özkan": 8095,
      "açıklamıştı": 8096,
      "durak": 8097,
      "maçına": 8098,
      "çektiği": 8099,
      "olmaları": 8100,
      "metr": 8101,
      "##vekili": 8102,
      "partili": 8103,
      "desteğiyle": 8104,
      "ekrana": 8105,
      "çatışmalar": 8106,
      "##parator": 8107,
      "bebeğin": 8108,
      "platformu": 8109,
      "eğlence": 8110,
      "i̇dman": 8111,
      "hitap": 8112,
      "göğüs": 8113,
      "jür": 8114,
      "jam": 8115,
      "kabil": 8116,
      "wil": 8117,
      "ödem": 8118,
      "şeye": 8119,
      "##bel": 8120,
      "##yolu": 8121,
      "deh": 8122,
      "olmuyor": 8123,
      "##oks": 8124,
      "kars": 8125,
      "bulunu": 8126,
      "düşüyor": 8127,
      "taksim": 8128,
      "sanal": 8129,
      "mesut": 8130,
      "değişen": 8131,
      "ikisi": 8132,
      "lav": 8133,
      "anlaşıldı": 8134,
      "güzellik": 8135,
      "sindir": 8136,
      "iddiaları": 8137,
      "sürecini": 8138,
      "mikro": 8139,
      "söylüyorum": 8140,
      "bürosu": 8141,
      "fonu": 8142,
      "liman": 8143,
      "diplomatik": 8144,
      "müzaker": 8145,
      "emanet": 8146,
      "ihracatı": 8147,
      "cor": 8148,
      "lak": 8149,
      "##hum": 8150,
      "##esince": 8151,
      "yapacağını": 8152,
      "istek": 8153,
      "çalışmak": 8154,
      "gözük": 8155,
      "hayatın": 8156,
      "komitesi": 8157,
      "suçlarından": 8158,
      "haftalık": 8159,
      "ağırlıklı": 8160,
      "ahlak": 8161,
      "oluşum": 8162,
      "camisi": 8163,
      "##landırdı": 8164,
      "yarışma": 8165,
      "başlattığı": 8166,
      "müjde": 8167,
      "##imini": 8168,
      "arjan": 8169,
      "gezi": 8170,
      "işten": 8171,
      "devlete": 8172,
      "özlem": 8173,
      "##rov": 8174,
      "aradan": 8175,
      "evlat": 8176,
      "merm": 8177,
      "taksit": 8178,
      "benden": 8179,
      "ilgisi": 8180,
      "bekledi": 8181,
      "azalı": 8182,
      "sayede": 8183,
      "avrupalı": 8184,
      "gerçekleştirildi": 8185,
      "##vanya": 8186,
      "havay": 8187,
      "mezh": 8188,
      "lirayı": 8189,
      "lerin": 8190,
      "##meyeceğiz": 8191,
      "silopi": 8192,
      "yüce": 8193,
      "hassasiyet": 8194,
      "vitamin": 8195,
      "avustralya": 8196,
      "arjantin": 8197,
      "hz": 8198,
      "öp": 8199,
      "##çileri": 8200,
      "##atay": 8201,
      "birine": 8202,
      "işsizlik": 8203,
      "sürecek": 8204,
      "yakında": 8205,
      "sever": 8206,
      "güçlerine": 8207,
      "suçlar": 8208,
      "kızın": 8209,
      "bayer": 8210,
      "premi": 8211,
      "kele": 8212,
      "veriliyor": 8213,
      "musa": 8214,
      "soyun": 8215,
      "şifa": 8216,
      "referandum": 8217,
      "meteoroloji": 8218,
      "i̇lgi̇li̇": 8219,
      "cans": 8220,
      "win": 8221,
      "yör": 8222,
      "##fo": 8223,
      "##lemiş": 8224,
      "arıyor": 8225,
      "karaman": 8226,
      "kurdu": 8227,
      "terzi": 8228,
      "pozi": 8229,
      "olabilecek": 8230,
      "bölgeler": 8231,
      "bitk": 8232,
      "öğrencilere": 8233,
      "medi": 8234,
      "##ereden": 8235,
      "sitesinden": 8236,
      "sığınma": 8237,
      "yöneticileri": 8238,
      "keşke": 8239,
      "i̇ddiaya": 8240,
      "becer": 8241,
      "##cın": 8242,
      "##ike": 8243,
      "ant": 8244,
      "konusundaki": 8245,
      "##luğunu": 8246,
      "##lenerek": 8247,
      "milleti": 8248,
      "sordu": 8249,
      "##mayacağız": 8250,
      "prov": 8251,
      "##mayınca": 8252,
      "adası": 8253,
      "saatlik": 8254,
      "kimdir": 8255,
      "zorla": 8256,
      "perde": 8257,
      "seçilen": 8258,
      "verdim": 8259,
      "beyoğlu": 8260,
      "üretilen": 8261,
      "projeleri": 8262,
      "hastaların": 8263,
      "isimlerin": 8264,
      "2005": 8265,
      "değerlendirdi": 8266,
      "ağz": 8267,
      "kurumları": 8268,
      "teşhis": 8269,
      "soruya": 8270,
      "celal": 8271,
      "geliştirme": 8272,
      "kolaylaştır": 8273,
      "nitelendir": 8274,
      "off": 8275,
      "peşinde": 8276,
      "akıncı": 8277,
      "aşamasında": 8278,
      "ambulansla": 8279,
      "i̇ddianam": 8280,
      "çabuk": 8281,
      "yardımıyla": 8282,
      "98": 8283,
      "ası": 8284,
      "pir": 8285,
      "rot": 8286,
      "toy": 8287,
      "##afak": 8288,
      "ersoy": 8289,
      "teker": 8290,
      "yanal": 8291,
      "ülkesi": 8292,
      "##tikleri": 8293,
      "##iğin": 8294,
      "191": 8295,
      "david": 8296,
      "çalışmaların": 8297,
      "havacılık": 8298,
      "sabancı": 8299,
      "manevi": 8300,
      "yaşadıklarını": 8301,
      "kendisinden": 8302,
      "resmen": 8303,
      "sunan": 8304,
      "şeklindeki": 8305,
      "uçağın": 8306,
      "şa": 8307,
      "şener": 8308,
      "##yurt": 8309,
      "##ody": 8310,
      "##lanmıştır": 8311,
      "i̇mam": 8312,
      "içecek": 8313,
      "##cağının": 8314,
      "akciğer": 8315,
      "sipar": 8316,
      "kov": 8317,
      "ettiğimiz": 8318,
      "tutun": 8319,
      "sayısında": 8320,
      "seçilmiş": 8321,
      "başlaya": 8322,
      "başlatıl": 8323,
      "programında": 8324,
      "bilinmeyen": 8325,
      "fatur": 8326,
      "büyüyen": 8327,
      "fidan": 8328,
      "fifa": 8329,
      "i̇nsanlar": 8330,
      "jose": 8331,
      "başaran": 8332,
      "uyarısı": 8333,
      "helal": 8334,
      "tabanc": 8335,
      "nihat": 8336,
      "arayış": 8337,
      "skandal": 8338,
      "pozitif": 8339,
      "diyorum": 8340,
      "mc": 8341,
      "vo": 8342,
      "##yası": 8343,
      "##vit": 8344,
      "##lari": 8345,
      "##lit": 8346,
      "tela": 8347,
      "topçu": 8348,
      "##ayız": 8349,
      "deney": 8350,
      "aslı": 8351,
      "elbis": 8352,
      "değişti": 8353,
      "kırk": 8354,
      "yüre": 8355,
      "hedefimiz": 8356,
      "savunan": 8357,
      "ürünü": 8358,
      "ödülleri": 8359,
      "törene": 8360,
      "duruşmada": 8361,
      "boğaziçi": 8362,
      "konferans": 8363,
      "edebiyat": 8364,
      "akraba": 8365,
      "napoli": 8366,
      "ag": 8367,
      "bolu": 8368,
      "fah": 8369,
      "hek": 8370,
      "what": 8371,
      "zev": 8372,
      "çür": 8373,
      "##uel": 8374,
      "##diyor": 8375,
      "##ksiyon": 8376,
      "##yim": 8377,
      "##larsa": 8378,
      "##mıyoruz": 8379,
      "varlığı": 8380,
      "binası": 8381,
      "sağlama": 8382,
      "uyumlu": 8383,
      "yetmez": 8384,
      "bağdat": 8385,
      "etkisini": 8386,
      "yönetiminde": 8387,
      "ilçede": 8388,
      "oluşturulan": 8389,
      "kardeşim": 8390,
      "hükümetinin": 8391,
      "adamları": 8392,
      "şampiyonası": 8393,
      "martin": 8394,
      "ülkelerine": 8395,
      "verildiği": 8396,
      "zararlı": 8397,
      "yansıt": 8398,
      "litre": 8399,
      "alakalı": 8400,
      "kökenli": 8401,
      "cüneyt": 8402,
      "lan": 8403,
      "çınar": 8404,
      "şii": 8405,
      "##ğimi": 8406,
      "##imli": 8407,
      "##ceğini": 8408,
      "##taç": 8409,
      "yaşta": 8410,
      "yüzünü": 8411,
      "asit": 8412,
      "düzel": 8413,
      "dert": 8414,
      "harp": 8415,
      "##acaktır": 8416,
      "##inizin": 8417,
      "patron": 8418,
      "##sinler": 8419,
      "girişiminde": 8420,
      "sarf": 8421,
      "artırmak": 8422,
      "hikmet": 8423,
      "torun": 8424,
      "torku": 8425,
      "##luğunda": 8426,
      "idman": 8427,
      "ithalat": 8428,
      "kumpas": 8429,
      "müezzin": 8430,
      "nem": 8431,
      "##dor": 8432,
      "##yaman": 8433,
      "##ğünde": 8434,
      "##madım": 8435,
      "##azi": 8436,
      "edilebilir": 8437,
      "kayak": 8438,
      "çalışanı": 8439,
      "denge": 8440,
      "zamanlar": 8441,
      "##cağım": 8442,
      "göstererek": 8443,
      "polislerin": 8444,
      "tarihinden": 8445,
      "aşık": 8446,
      "oynay": 8447,
      "kadınlara": 8448,
      "tabut": 8449,
      "beraat": 8450,
      "char": 8451,
      "sınırları": 8452,
      "oluşturdu": 8453,
      "pren": 8454,
      "aileler": 8455,
      "paylaştığı": 8456,
      "##iyorduk": 8457,
      "efes": 8458,
      "belgesel": 8459,
      "tedbirler": 8460,
      "##luğun": 8461,
      "kamuoyu": 8462,
      "piyango": 8463,
      "madalya": 8464,
      "laboratu": 8465,
      "ece": 8466,
      "##sün": 8467,
      "##diğiniz": 8468,
      "##alp": 8469,
      "##tion": 8470,
      "yapmıştı": 8471,
      "##tadır": 8472,
      "kurs": 8473,
      "çıkmaz": 8474,
      "olanak": 8475,
      "herhal": 8476,
      "gözü": 8477,
      "isyan": 8478,
      "anlatı": 8479,
      "toplantıya": 8480,
      "taşıdı": 8481,
      "ilişkisi": 8482,
      "tugay": 8483,
      "ceset": 8484,
      "hırsızlık": 8485,
      "hele": 8486,
      "vekili": 8487,
      "coşkun": 8488,
      "otopsi": 8489,
      "muhtemel": 8490,
      "bru": 8491,
      "##ates": 8492,
      "##lanmaya": 8493,
      "##lıkların": 8494,
      "##hai": 8495,
      "işsiz": 8496,
      "kayyım": 8497,
      "yapısı": 8498,
      "bakıldığında": 8499,
      "giriyor": 8500,
      "elindeki": 8501,
      "uncu": 8502,
      "kararlar": 8503,
      "ekibinin": 8504,
      "çıkaran": 8505,
      "2001": 8506,
      "yaşadık": 8507,
      "mülk": 8508,
      "radikal": 8509,
      "yöntemi": 8510,
      "hücum": 8511,
      "kızılay": 8512,
      "şikayetçi": 8513,
      "kampanyası": 8514,
      "medeniyet": 8515,
      "ırk": 8516,
      "herhalde": 8517,
      "eti": 8518,
      "idi": 8519,
      "ödü": 8520,
      "##ileceği": 8521,
      "birileri": 8522,
      "yapının": 8523,
      "##iter": 8524,
      "gelmişti": 8525,
      "bulunmak": 8526,
      "varil": 8527,
      "kalkan": 8528,
      "kullanılması": 8529,
      "merdiven": 8530,
      "##i̇t": 8531,
      "dergisi": 8532,
      "##çekmece": 8533,
      "altından": 8534,
      "emr": 8535,
      "milyona": 8536,
      "kömür": 8537,
      "testi": 8538,
      "dünyaca": 8539,
      "bilgisini": 8540,
      "##layışı": 8541,
      "gruplar": 8542,
      "fiyatlarının": 8543,
      "kuvvetler": 8544,
      "adaylar": 8545,
      "ölümü": 8546,
      "isteyenler": 8547,
      "kuruluşları": 8548,
      "balkan": 8549,
      "yeterince": 8550,
      "kimseye": 8551,
      "tecr": 8552,
      "nazlı": 8553,
      "kamuoyuna": 8554,
      "ihtiyacımız": 8555,
      "##meyeceğini": 8556,
      "dilekç": 8557,
      "japon": 8558,
      "yurtdışına": 8559,
      "miras": 8560,
      "nişan": 8561,
      "şartıyla": 8562,
      "mutabakat": 8563,
      "lehine": 8564,
      "enteg": 8565,
      "enstitüsü": 8566,
      "mezhep": 8567,
      "dic": 8568,
      "sili": 8569,
      "##ws": 8570,
      "##ettin": 8571,
      "##larınca": 8572,
      "ayhan": 8573,
      "paranın": 8574,
      "##i̇h": 8575,
      "atleti": 8576,
      "sevda": 8577,
      "gazetesinin": 8578,
      "bölgelerinde": 8579,
      "##ediler": 8580,
      "gösterilen": 8581,
      "edilemez": 8582,
      "diğeri": 8583,
      "gittiğini": 8584,
      "ekonomisi": 8585,
      "edebilir": 8586,
      "yaşadıkları": 8587,
      "##bert": 8588,
      "geçtiğini": 8589,
      "##umuzu": 8590,
      "ziyareti": 8591,
      "cemal": 8592,
      "istemiyor": 8593,
      "gündemde": 8594,
      "törenine": 8595,
      "cesed": 8596,
      "çatışmaların": 8597,
      "fonksiyon": 8598,
      "çapraz": 8599,
      "kısım": 8600,
      "prensi": 8601,
      "air": 8602,
      "gam": 8603,
      "ps": 8604,
      "şov": 8605,
      "##esun": 8606,
      "##ahan": 8607,
      "infi": 8608,
      "geleni": 8609,
      "işleri": 8610,
      "gi̇": 8611,
      "kalmak": 8612,
      "kalka": 8613,
      "çekici": 8614,
      "çoban": 8615,
      "harun": 8616,
      "yeten": 8617,
      "duyduğu": 8618,
      "çıkardığı": 8619,
      "bırakan": 8620,
      "kızım": 8621,
      "dünyayı": 8622,
      "yatırımları": 8623,
      "laik": 8624,
      "sürdürülebilir": 8625,
      "seslendir": 8626,
      "vurgulayarak": 8627,
      "sundu": 8628,
      "görüşmeleri": 8629,
      "##unuzu": 8630,
      "ülkemize": 8631,
      "çerçevede": 8632,
      "kanattan": 8633,
      "etrafında": 8634,
      "iddianamede": 8635,
      "kaşığı": 8636,
      "hsy": 8637,
      "pam": 8638,
      "##jer": 8639,
      "##latan": 8640,
      "yeğ": 8641,
      "örgütlerinin": 8642,
      "beklet": 8643,
      "görevine": 8644,
      "konuşuyor": 8645,
      "yürüm": 8646,
      "ikamet": 8647,
      "manşet": 8648,
      "çağr": 8649,
      "sunduğu": 8650,
      "çiftin": 8651,
      "annem": 8652,
      "korkunç": 8653,
      "kesintisi": 8654,
      "samimi": 8655,
      "töreninde": 8656,
      "bilal": 8657,
      "gole": 8658,
      "yıllarca": 8659,
      "kongresi": 8660,
      "yumuş": 8661,
      "sergilen": 8662,
      "özellikleri": 8663,
      "analist": 8664,
      "gözyaşı": 8665,
      "takviye": 8666,
      "zihin": 8667,
      "ehliyet": 8668,
      "afganistan": 8669,
      "hsyk": 8670,
      "mel": 8671,
      "şak": 8672,
      "##sis": 8673,
      "##ood": 8674,
      "##lali": 8675,
      "##ledik": 8676,
      "##ayeti": 8677,
      "##uldak": 8678,
      "antik": 8679,
      "kade": 8680,
      "##masız": 8681,
      "aksi": 8682,
      "yönlü": 8683,
      "taahh": 8684,
      "aradı": 8685,
      "girmesi": 8686,
      "ekme": 8687,
      "selah": 8688,
      "dolaş": 8689,
      "olmasa": 8690,
      "ulaşmak": 8691,
      "anlamı": 8692,
      "denizi": 8693,
      "müziği": 8694,
      "yargılama": 8695,
      "kaynaklı": 8696,
      "##ebilmek": 8697,
      "adıyaman": 8698,
      "derecede": 8699,
      "350": 8700,
      "riba": 8701,
      "uyarınca": 8702,
      "plastik": 8703,
      "yardımı": 8704,
      "polonya": 8705,
      "mühimmat": 8706,
      "cevabını": 8707,
      "canı": 8708,
      "kep": 8709,
      "zong": 8710,
      "##ydu": 8711,
      "##şen": 8712,
      "##lata": 8713,
      "##tılar": 8714,
      "geçmesi": 8715,
      "aksu": 8716,
      "parası": 8717,
      "kalor": 8718,
      "genetik": 8719,
      "##deres": 8720,
      "kaplan": 8721,
      "girerek": 8722,
      "ört": 8723,
      "düzeni": 8724,
      "getirecek": 8725,
      "öldüğü": 8726,
      "azez": 8727,
      "havadan": 8728,
      "##üyoruz": 8729,
      "konulan": 8730,
      "kazandığı": 8731,
      "110": 8732,
      "yazıcı": 8733,
      "aldığımız": 8734,
      "kısmet": 8735,
      "ürünlerin": 8736,
      "ilçesindeki": 8737,
      "fern": 8738,
      "olmazsa": 8739,
      "zeybek": 8740,
      "gerekirse": 8741,
      "çöp": 8742,
      "bayraktar": 8743,
      "brezilyalı": 8744,
      "kütüp": 8745,
      "expo": 8746,
      "whats": 8747,
      "zonguldak": 8748,
      "afa": 8749,
      "fur": 8750,
      "gran": 8751,
      "muş": 8752,
      "##dine": 8753,
      "##ılmaya": 8754,
      "##mede": 8755,
      "akım": 8756,
      "istiyorlar": 8757,
      "göze": 8758,
      "kucak": 8759,
      "güçlük": 8760,
      "şeyleri": 8761,
      "konular": 8762,
      "ağırlık": 8763,
      "menderes": 8764,
      "##üldüğü": 8765,
      "kaldırıldığı": 8766,
      "sow": 8767,
      "firari": 8768,
      "krediler": 8769,
      "panik": 8770,
      "inanılmaz": 8771,
      "zorundayız": 8772,
      "sınavı": 8773,
      "ameliyatı": 8774,
      "defalarca": 8775,
      "beyazlılar": 8776,
      "xxx": 8777,
      "iyileştir": 8778,
      "arayarak": 8779,
      "ideal": 8780,
      "protein": 8781,
      "katılımıyla": 8782,
      "alerj": 8783,
      "cel": 8784,
      "dor": 8785,
      "fena": 8786,
      "ram": 8787,
      "süs": 8788,
      "tms": 8789,
      "ul": 8790,
      "##bas": 8791,
      "##çının": 8792,
      "##ekon": 8793,
      "##imark": 8794,
      "arif": 8795,
      "anlayışı": 8796,
      "etmez": 8797,
      "günah": 8798,
      "akış": 8799,
      "yönelt": 8800,
      "##ağına": 8801,
      "tekst": 8802,
      "uydu": 8803,
      "liber": 8804,
      "örneği": 8805,
      "çekin": 8806,
      "danimark": 8807,
      "sport": 8808,
      "açılı": 8809,
      "projede": 8810,
      "tutuksuz": 8811,
      "düşünen": 8812,
      "130": 8813,
      "talebinde": 8814,
      "çarşı": 8815,
      "halkına": 8816,
      "çalışanların": 8817,
      "ilişkilerin": 8818,
      "biliniyor": 8819,
      "tuva": 8820,
      "lirası": 8821,
      "nitekim": 8822,
      "tüneli": 8823,
      "yücel": 8824,
      "minibüs": 8825,
      "peynir": 8826,
      "eme": 8827,
      "flaş": 8828,
      "##liyorum": 8829,
      "##meme": 8830,
      "##fil": 8831,
      "##we": 8832,
      "arsa": 8833,
      "başa": 8834,
      "türkler": 8835,
      "verirken": 8836,
      "termin": 8837,
      "##masyon": 8838,
      "post": 8839,
      "turiz": 8840,
      "çalışmalara": 8841,
      "yazan": 8842,
      "moody": 8843,
      "yarışı": 8844,
      "hızlandır": 8845,
      "uygulamaları": 8846,
      "seçimleri": 8847,
      "köylü": 8848,
      "kred": 8849,
      "kuzeyinde": 8850,
      "1999": 8851,
      "geçişi": 8852,
      "üskü": 8853,
      "vitor": 8854,
      "sakatlığı": 8855,
      "oynayacağı": 8856,
      "nihayet": 8857,
      "öfk": 8858,
      "heykel": 8859,
      "bonservis": 8860,
      "whatsapp": 8861,
      "fev": 8862,
      "mid": 8863,
      "saman": 8864,
      "##rab": 8865,
      "##pınar": 8866,
      "##inal": 8867,
      "##ünce": 8868,
      "bulduğu": 8869,
      "biliş": 8870,
      "kullanma": 8871,
      "söyleye": 8872,
      "atma": 8873,
      "ifadelerine": 8874,
      "sevinç": 8875,
      "olayların": 8876,
      "kurultay": 8877,
      "hastanesine": 8878,
      "istedik": 8879,
      "eyüp": 8880,
      "mutfak": 8881,
      "düşünmüyor": 8882,
      "programda": 8883,
      "havada": 8884,
      "nijer": 8885,
      "parlamenter": 8886,
      "içeride": 8887,
      "albümü": 8888,
      "atletico": 8889,
      "selahattin": 8890,
      "üsküdar": 8891,
      "alet": 8892,
      "file": 8893,
      "varı": 8894,
      "şö": 8895,
      "##balı": 8896,
      "##sar": 8897,
      "##oter": 8898,
      "##fiye": 8899,
      "##ando": 8900,
      "olmanın": 8901,
      "arı": 8902,
      "başlaması": 8903,
      "etnik": 8904,
      "vermeden": 8905,
      "2023": 8906,
      "olduğunda": 8907,
      "yandaş": 8908,
      "girmiş": 8909,
      "abon": 8910,
      "merce": 8911,
      "eseri": 8912,
      "saatlerinden": 8913,
      "seçildi": 8914,
      "bırakın": 8915,
      "üreten": 8916,
      "gençlerin": 8917,
      "ikil": 8918,
      "tutuklanarak": 8919,
      "eğitime": 8920,
      "sezonda": 8921,
      "##lov": 8922,
      "askerlik": 8923,
      "anlaşmanın": 8924,
      "okulda": 8925,
      "oluşturan": 8926,
      "sonuçta": 8927,
      "mahkemenin": 8928,
      "sorunların": 8929,
      "girişimini": 8930,
      "şimdiden": 8931,
      "kuzu": 8932,
      "çifte": 8933,
      "bankaların": 8934,
      "profes": 8935,
      "havaya": 8936,
      "cezaevinde": 8937,
      "keşif": 8938,
      "vadede": 8939,
      "direkt": 8940,
      "memleketi": 8941,
      "dolandırıcılık": 8942,
      "nitelikli": 8943,
      "ergenekon": 8944,
      "diyalog": 8945,
      "kdv": 8946,
      "los": 8947,
      "ode": 8948,
      "sini": 8949,
      "uf": 8950,
      "##bbi": 8951,
      "##ie": 8952,
      "##ker": 8953,
      "görecek": 8954,
      "konunun": 8955,
      "neş": 8956,
      "halis": 8957,
      "aramada": 8958,
      "##lemeyi": 8959,
      "atöl": 8960,
      "emine": 8961,
      "i̇smet": 8962,
      "operasyonun": 8963,
      "yönetimin": 8964,
      "planlama": 8965,
      "şimd": 8966,
      "hepimizin": 8967,
      "mevdu": 8968,
      "türki̇": 8969,
      "kardeşler": 8970,
      "stil": 8971,
      "afyon": 8972,
      "##ğimde": 8973,
      "oranının": 8974,
      "duyurusunda": 8975,
      "miktarı": 8976,
      "otobüsü": 8977,
      "##atörü": 8978,
      "sigortalı": 8979,
      "baktığımızda": 8980,
      "feri": 8981,
      "sinin": 8982,
      "ısın": 8983,
      "##ço": 8984,
      "##jek": 8985,
      "##lediklerini": 8986,
      "##iminde": 8987,
      "##ulus": 8988,
      "i̇leti": 8989,
      "öncü": 8990,
      "verip": 8991,
      "aktüel": 8992,
      "müeb": 8993,
      "##ağın": 8994,
      "yüzüne": 8995,
      "haklarını": 8996,
      "haklarında": 8997,
      "kullanıldığı": 8998,
      "atv": 8999,
      "bağlam": 9000,
      "açılacak": 9001,
      "finali": 9002,
      "çağdaş": 9003,
      "geliri": 9004,
      "stoper": 9005,
      "ülkelerinin": 9006,
      "çocuğa": 9007,
      "kurucusu": 9008,
      "uçaklarının": 9009,
      "gördüğünü": 9010,
      "avukatları": 9011,
      "defter": 9012,
      "minik": 9013,
      "yapılacağı": 9014,
      "benzin": 9015,
      "yenilg": 9016,
      "kısmını": 9017,
      "uzantı": 9018,
      "mevzuat": 9019,
      "infaz": 9020,
      "müebbet": 9021,
      "97": 9022,
      "nereden": 9023,
      "##sch": 9024,
      "##çin": 9025,
      "##lary": 9026,
      "vey": 9027,
      "##ılmak": 9028,
      "##ilerinde": 9029,
      "etmiştir": 9030,
      "yılbaşı": 9031,
      "kurmay": 9032,
      "yerlere": 9033,
      "çıkmıştı": 9034,
      "iştah": 9035,
      "giresun": 9036,
      "oktay": 9037,
      "etkileri": 9038,
      "vuran": 9039,
      "seçimi": 9040,
      "destekleyen": 9041,
      "i̇şbirliği": 9042,
      "##acağım": 9043,
      "mağaz": 9044,
      "gerçekleşecek": 9045,
      "beste": 9046,
      "edecektir": 9047,
      "atıyor": 9048,
      "talih": 9049,
      "biber": 9050,
      "yansıdı": 9051,
      "namazı": 9052,
      "ların": 9053,
      "yaşıyoruz": 9054,
      "pişir": 9055,
      "pişman": 9056,
      "edici": 9057,
      "gasp": 9058,
      "atmos": 9059,
      "afad": 9060,
      "bon": 9061,
      "cn": 9062,
      "fre": 9063,
      "pal": 9064,
      "vaat": 9065,
      "west": 9066,
      "##yk": 9067,
      "##elçi": 9068,
      "budur": 9069,
      "##umcu": 9070,
      "almayı": 9071,
      "inde": 9072,
      "iniş": 9073,
      "çıkmaya": 9074,
      "gib": 9075,
      "özk": 9076,
      "büyükelçi": 9077,
      "dolardan": 9078,
      "adlandırı": 9079,
      "##andao": 9080,
      "başkanvekili": 9081,
      "çocuklarının": 9082,
      "aşan": 9083,
      "tanrı": 9084,
      "bırakıp": 9085,
      "iklim": 9086,
      "mevk": 9087,
      "yaralandığı": 9088,
      "çağlar": 9089,
      "bağışık": 9090,
      "firmanın": 9091,
      "umarım": 9092,
      "kapatıldı": 9093,
      "katkısı": 9094,
      "dostluk": 9095,
      "hırvat": 9096,
      "gemisi": 9097,
      "##2016": 9098,
      "yurtdışı": 9099,
      "##si̇ad": 9100,
      "direksiyon": 9101,
      "kapatılan": 9102,
      "kaçakçılık": 9103,
      "hillary": 9104,
      "deşif": 9105,
      "fernandao": 9106,
      "pom": 9107,
      "vladi": 9108,
      "##binden": 9109,
      "##tey": 9110,
      "##akar": 9111,
      "##lez": 9112,
      "arasından": 9113,
      "##melerini": 9114,
      "geor": 9115,
      "##lenir": 9116,
      "bulgari": 9117,
      "işini": 9118,
      "toplandı": 9119,
      "##ders": 9120,
      "onlarla": 9121,
      "##ment": 9122,
      "lib": 9123,
      "ülker": 9124,
      "tutul": 9125,
      "gelişmeleri": 9126,
      "gitmiş": 9127,
      "gittim": 9128,
      "istedim": 9129,
      "patlamanın": 9130,
      "marmar": 9131,
      "araçta": 9132,
      "yaşadığını": 9133,
      "ederiz": 9134,
      "vaka": 9135,
      "hapse": 9136,
      "önündeki": 9137,
      "yarattı": 9138,
      "ortamı": 9139,
      "arazi": 9140,
      "##bahar": 9141,
      "casus": 9142,
      "işveren": 9143,
      "##abank": 9144,
      "türki̇ye": 9145,
      "amed": 9146,
      "rı": 9147,
      "web": 9148,
      "##nel": 9149,
      "##ğince": 9150,
      "olmasından": 9151,
      "artacak": 9152,
      "etmesini": 9153,
      "konuştuk": 9154,
      "##uza": 9155,
      "yaşay": 9156,
      "kayın": 9157,
      "##tırken": 9158,
      "yaptılar": 9159,
      "avni": 9160,
      "deri": 9161,
      "derhal": 9162,
      "altun": 9163,
      "sandal": 9164,
      "kazanı": 9165,
      "190": 9166,
      "ekibin": 9167,
      "izn": 9168,
      "operasyonları": 9169,
      "mario": 9170,
      "okullar": 9171,
      "##aristan": 9172,
      "sabaha": 9173,
      "kedi": 9174,
      "söyler": 9175,
      "ölümüne": 9176,
      "ittifak": 9177,
      "karakol": 9178,
      "panel": 9179,
      "taze": 9180,
      "ruhsat": 9181,
      "arkadaşım": 9182,
      "rövan": 9183,
      "memnuniyet": 9184,
      "konumunda": 9185,
      "necip": 9186,
      "müdürlüğüne": 9187,
      "nikah": 9188,
      "tmsf": 9189,
      "i̇letiş": 9190,
      "bulgaristan": 9191,
      "meli": 9192,
      "rüt": 9193,
      "##ig": 9194,
      "##ula": 9195,
      "##has": 9196,
      "aralı": 9197,
      "##hael": 9198,
      "yanlı": 9199,
      "girer": 9200,
      "söylemişti": 9201,
      "dediğimiz": 9202,
      "beklediği": 9203,
      "taşeron": 9204,
      "operasyonların": 9205,
      "nadir": 9206,
      "tahr": 9207,
      "görünen": 9208,
      "grupların": 9209,
      "prom": 9210,
      "koyduğu": 9211,
      "pazarlama": 9212,
      "otomobili": 9213,
      "futbolcuların": 9214,
      "uçakları": 9215,
      "bölgeden": 9216,
      "olabiliyor": 9217,
      "okudu": 9218,
[...]
