<unk>	0
<s>	0
</s>	0
.	-3.34076
,	-3.57388
'	-3.87332
▁ve	-4.54367
▁	-4.69436
n	-4.8011
▁bir	-4.83022
k	-4.87157
i	-5.01861
a	-5.08168
da	-5.1407
e	-5.16115
r	-5.19141
de	-5.23467
m	-5.2385
t	-5.28418
"	-5.32492
lar	-5.34196
ı	-5.39566
▁"	-5.39886
in	-5.42699
ın	-5.44899
ler	-5.48221
li	-5.49611
nin	-5.52413
l	-5.55133
▁de	-5.57204
s	-5.58726
▁bu	-5.59904
▁da	-5.6473
ya	-5.64901
si	-5.66131
la	-5.70616
ları	-5.71692
leri	-5.74556
▁için	-5.76609
nın	-5.77351
z	-5.77994
ye	-5.80954
▁ile	-5.8143
na	-5.88828
lı	-5.90466
ne	-5.93969
u	-5.94926
le	-5.96502
an	-5.97201
y	-6.00832
ma	-6.02538
p	-6.11384
:	-6.12194
den	-6.12974
-	-6.13275
te	-6.16604
en	-6.18976
di	-6.20706
sı	-6.23277
ta	-6.25932
▁Türkiye	-6.26514
dan	-6.27337
▁Bu	-6.28057
ni	-6.28611
▁A	-6.34178
ki	-6.34839
ların	-6.3771
▁(	-6.38137
▁olarak	-6.38229
ra	-6.38717
ü	-6.40477
▁çok	-6.4463
lerin	-6.4638
▁olan	-6.46593
er	-6.47178
me	-6.47243
un	-6.47738
nda	-6.50934
▁S	-6.51585
h	-6.53415
d	-6.54328
ri	-6.54459
)	-6.56175
▁ise	-6.564
ş	-6.57501
lık	-6.58258
▁en	-6.58773
▁daha	-6.61076
lik	-6.6187
nde	-6.6261
ç	-6.6298
▁-	-6.65431
sa	-6.66321
ca	-6.67707
S	-6.70752
yı	-6.70974
ti	-6.71961
o	-6.73694
K	-6.74417
A	-6.74586
yi	-6.76032
▁sonra	-6.783
ar	-6.78734
▁yer	-6.7908
re	-6.79926
▁3	-6.80585
▁var	-6.83
nı	-6.83112
▁kadar	-6.84314
▁gibi	-6.84908
f	-6.85621
lara	-6.85991
g	-6.86187
?	-6.86207
se	-6.86236
▁bin	-6.86905
dı	-6.86931
lere	-6.87122
▁o	-6.87481
v	-6.89601
▁yıl	-6.90287
ce	-6.90715
T	-6.90933
▁O	-6.93209
▁iş	-6.93823
▁1	-6.95237
▁göre	-6.95512
▁4	-6.95552
▁2	-6.96208
larını	-6.96418
tan	-6.98139
du	-6.98372
▁dedi	-6.98656
im	-7.00928
▁olduğu	-7.0098
lerini	-7.01377
b	-7.01444
▁G	-7.01591
lan	-7.01676
lu	-7.03657
mak	-7.04087
▁ne	-7.04376
▁olduğunu	-7.04563
...	-7.05071
nun	-7.05612
dir	-7.05884
▁5	-7.05949
▁B	-7.06194
yla	-7.06543
▁K	-7.06661
ması	-7.06683
▁ilk	-7.06808
▁gün	-7.08061
tı	-7.08153
▁büyük	-7.08298
İ	-7.08814
▁yeni	-7.08941
ba	-7.09149
▁etti	-7.09246
larda	-7.0962
D	-7.09908
ün	-7.10414
al	-7.1049
▁karşı	-7.10496
ğ	-7.10604
ka	-7.11209
B	-7.11733
▁E	-7.11749
at	-7.12054
▁Ha	-7.12401
ğı	-7.12878
ini	-7.13673
E	-7.14206
ır	-7.14675
cı	-7.15418
yle	-7.15598
su	-7.15793
▁yüzde	-7.15935
▁son	-7.16191
▁her	-7.17504
ci	-7.17937
il	-7.19174
▁T	-7.19267
▁iki	-7.19668
larının	-7.19985
▁oldu	-7.2101
daki	-7.21236
5	-7.22036
▁devam	-7.225
▁C	-7.229
deki	-7.23156
▁tarafından	-7.23405
▁diye	-7.24151
ine	-7.24481
▁önce	-7.24492
el	-7.24776
man	-7.25843
um	-7.25986
acak	-7.26773
ir	-7.27525
▁Ç	-7.27767
!	-7.27919
2	-7.27978
3	-7.29638
▁zaman	-7.29685
▁yapılan	-7.29874
O	-7.3012
▁değil	-7.30349
8	-7.30947
dır	-7.31145
7	-7.31541
M	-7.31713
▁İstanbul	-7.31764
▁Türk	-7.32097
▁6	-7.32303
ten	-7.32364
ını	-7.32846
lerde	-7.32924
mi	-7.33179
;	-7.3344
▁terör	-7.33882
▁ya	-7.33995
▁ardından	-7.34016
▁Ka	-7.34577
▁D	-7.34697
▁ilgili	-7.35216
lerinin	-7.35259
▁kişi	-7.35645
▁ev	-7.35825
▁'	-7.36439
larına	-7.36972
arak	-7.37004
ecek	-7.37425
▁iyi	-7.3757
4	-7.37724
▁milyon	-7.37808
▁ifade	-7.3817
c	-7.38944
▁İ	-7.39374
▁F	-7.39774
▁Bir	-7.4007
▁Başkanı	-7.40427
▁eden	-7.40459
▁arasında	-7.4055
▁ülke	-7.40818
lerine	-7.41236
00	-7.41425
▁önemli	-7.41489
▁Me	-7.41544
mış	-7.42446
▁alan	-7.42655
mek	-7.4268
G	-7.4327
inde	-7.43384
ıyor	-7.43599
ur	-7.4415
çi	-7.44288
erek	-7.44532
▁gelen	-7.45052
larında	-7.45126
lığı	-7.45293
▁10	-7.45553
▁Ya	-7.46292
▁7	-7.47
ö	-7.47376
▁söyledi	-7.47797
C	-7.48043
hi	-7.48427
▁ko	-7.49125
liği	-7.49554
▁Haberleri	-7.4959
be	-7.5107
▁Sa	-7.51194
▁ay	-7.51199
sini	-7.51604
sine	-7.51679
zi	-7.51713
1	-7.51738
diği	-7.51763
ha	-7.51904
▁ABD	-7.52114
dığı	-7.52267
▁polis	-7.52289
▁yaptığı	-7.5246
▁M	-7.52566
ndan	-7.53001
lü	-7.53316
▁ki	-7.53772
I	-7.54122
▁Y	-7.54318
lama	-7.54569
▁baş	-7.55029
sında	-7.55414
bi	-7.55565
▁ta	-7.55845
ul	-7.55988
▁8	-7.56175
▁19	-7.56548
ım	-7.57572
▁an	-7.57674
▁olay	-7.58336
▁saat	-7.58723
P	-7.58756
▁H	-7.58953
to	-7.59502
sını	-7.59611
▁15	-7.59696
ına	-7.59945
sinde	-7.604
▁Ak	-7.60792
inin	-7.61102
▁kendi	-7.61195
miş	-7.61205
▁şu	-7.62256
▁mi	-7.62262
ay	-7.6266
mız	-7.62982
▁Ma	-7.63013
▁konu	-7.6309
▁içinde	-7.63145
9	-7.63367
▁yok	-7.63465
▁ama	-7.63615
▁Erdoğan	-7.63738
ül	-7.63786
sel	-7.64778
ak	-7.64975
za	-7.65539
▁20	-7.65992
▁yaptı	-7.66169
Y	-7.66613
▁bulunan	-7.66783
lerinde	-7.66947
mesi	-7.67061
uz	-7.67177
ken	-7.67275
▁el	-7.67488
▁P	-7.67715
▁karar	-7.67861
▁Er	-7.68014
ge	-7.68165
▁saldırı	-7.68166
6	-7.68709
nden	-7.68792
▁birlikte	-7.69081
ro	-7.6928
▁tüm	-7.69745
▁üzerine	-7.69794
▁al	-7.69903
luk	-7.70268
▁Avrupa	-7.71256
larla	-7.71508
lo	-7.71805
▁şekilde	-7.71991
▁at	-7.72372
▁insan	-7.72421
▁yol	-7.7243
▁fazla	-7.72509
▁Suriye	-7.72637
▁hem	-7.72726
▁geldi	-7.72961
▁aldı	-7.73213
▁konuştu	-7.7324
▁Al	-7.74092
oğlu	-7.74222
▁kal	-7.74497
sinin	-7.74644
▁yakın	-7.74802
va	-7.76022
▁söz	-7.76159
rken	-7.76396
or	-7.76598
ze	-7.7672
▁görev	-7.7696
len	-7.77119
▁bile	-7.77302
iyor	-7.77981
on	-7.78176
H	-7.78505
▁destek	-7.78709
sına	-7.78736
▁2016	-7.79107
▁hafta	-7.79169
U	-7.79184
▁az	-7.79302
▁ka	-7.7944
miz	-7.79576
▁U	-7.79766
▁tek	-7.80105
▁verdi	-7.80126
▁mücadele	-7.80359
▁FETÖ	-7.80423
lerle	-7.80733
▁aynı	-7.81063
unu	-7.81346
maya	-7.81373
dü	-7.81561
lardan	-7.81568
▁Gazetesi	-7.8173
ip	-7.82367
▁geri	-7.82669
▁te	-7.82982
ış	-7.82982
ol	-7.83322
ği	-7.8338
▁be	-7.83764
lerden	-7.838
­	-7.84014
ran	-7.84121
▁günü	-7.84291
▁olmak	-7.84319
tik	-7.84443
▁şey	-7.84767
▁Ta	-7.84767
▁ma	-7.84778
▁Ne	-7.84945
▁süre	-7.84979
gi	-7.85511
▁darbe	-7.85518
ik	-7.8604
▁yapı	-7.86068
siz	-7.86234
▁i	-7.86385
▁Kara	-7.86586
▁sahip	-7.86732
▁açık	-7.87411
▁dikkat	-7.87472
▁Cumhurbaşkanı	-7.88335
/	-7.88585
▁para	-7.88668
▁diğer	-7.89117
ey	-7.89559
tir	-7.89692
▁biri	-7.89798
diğini	-7.89868
▁p	-7.89996
ıp	-7.90249
▁hava	-7.9036
sal	-7.90688
iş	-7.90731
▁a	-7.90824
yu	-7.90961
sin	-7.9114
it	-7.91336
".	-7.91549
▁olacak	-7.92079
▁nedeniyle	-7.92093
▁Se	-7.92142
tır	-7.92169
nu	-7.9222
▁yapan	-7.92495
▁çıktı	-7.9265
▁üzere	-7.92885
vi	-7.92974
leme	-7.93083
▁ortaya	-7.93268
ga	-7.93329
▁haber	-7.93469
▁olma	-7.93508
kan	-7.93758
landı	-7.94271
tü	-7.94367
▁PKK	-7.94577
sız	-7.94642
▁kez	-7.94685
x	-7.94757
ının	-7.95106
larından	-7.95406
ko	-7.95578
▁etki	-7.95595
uyor	-7.95671
▁Genel	-7.95766
▁Ö	-7.96093
ru	-7.96205
▁su	-7.96338
▁Di	-7.96389
▁Öz	-7.96679
iz	-7.97385
▁hedef	-7.9748
yan	-7.97598
▁TL	-7.97642
▁ediyor	-7.97671
▁kadın	-7.97822
▁oyuncu	-7.97871
▁edildi	-7.97893
▁dolar	-7.99237
▁bazı	-7.99339
▁Ankara	-7.9937
R	-7.99656
▁edilen	-7.99678
ke	-7.99786
▁Ba	-7.99794
▁sa	-7.99923
çı	-8.00101
▁ara	-8.00326
▁11	-8.00524
▁geçen	-8.00663
▁göz	-8.00716
▁Fenerbahçe	-8.00719
lerinden	-8.0082
ür	-8.0122
▁geç	-8.0137
▁sağ	-8.01643
▁Bo	-8.01752
▁özel	-8.01791
▁Beşiktaş	-8.01951
lanan	-8.0219
▁veya	-8.02194
j	-8.02243
▁ç	-8.02473
▁sadece	-8.02477
▁neden	-8.02525
▁Spor	-8.02681
▁tanı	-8.027
▁yılında	-8.03087
tu	-8.03111
▁yönelik	-8.03196
▁mu	-8.03258
▁bak	-8.03285
F	-8.03411
▁De	-8.03607
▁bugün	-8.04033
▁doğru	-8.04125
▁başladı	-8.04363
ah	-8.04442
han	-8.04583
),	-8.04789
▁Son	-8.04927
▁Ancak	-8.05017
▁bölge	-8.05125
▁bulundu	-8.05126
▁f	-8.05675
▁hakkında	-8.05929
▁olması	-8.06121
cu	-8.06132
▁veri	-8.06318
ter	-8.06376
▁Rusya	-8.06388
▁çalışma	-8.06836
ve	-8.06891
ev	-8.06946
▁takım	-8.06996
▁araç	-8.07088
▁kararı	-8.07191
▁9	-8.07241
▁yap	-8.07277
ladı	-8.07281
sının	-8.07621
▁açıklama	-8.07815
▁iç	-8.08112
▁se	-8.08339
▁plan	-8.08616
çe	-8.08631
▁Galatasaray	-8.09001
▁ha	-8.09517
▁12	-8.09598
▁iddia	-8.09615
şa	-8.09736
▁s	-8.10248
▁hazır	-8.10268
▁üzerinde	-8.10707
▁maç	-8.10744
▁yerine	-8.11122
▁Ge	-8.11288
dığını	-8.11323
▁başka	-8.11358
ça	-8.11489
▁ak	-8.11529
nız	-8.11543
▁lira	-8.11662
▁güvenlik	-8.12087
▁verme	-8.12192
ık	-8.12215
ünü	-8.12274
▁Ama	-8.12353
▁belir	-8.12363
▁yaş	-8.12368
▁Re	-8.12371
▁milyar	-8.12887
N	-8.12919
ber	-8.13024
w	-8.13041
▁nasıl	-8.13246
ndeki	-8.13294
▁Dünya	-8.13294
▁farklı	-8.1381
â	-8.13916
▁şöyle	-8.14047
sun	-8.14388
▁va	-8.14435
▁üst	-8.14843
▁operasyon	-8.14865
ör	-8.15043
▁sezon	-8.15098
mıştı	-8.15391
▁Ko	-8.15461
▁sıra	-8.15589
▁kar	-8.15648
▁bilgi	-8.15904
▁me	-8.16368
et	-8.16525
▁ele	-8.16789
▁yüksek	-8.17027
st	-8.17072
▁çıkar	-8.17261
▁top	-8.17641
Ü	-8.17705
▁e	-8.17752
▁suç	-8.18206
▁soru	-8.18207
▁ek	-8.18708
Ş	-8.18736
tığı	-8.18757
met	-8.19035
▁ku	-8.19054
▁Temmuz	-8.19162
▁durum	-8.19343
▁k	-8.19384
▁böyle	-8.19544
▁biz	-8.19608
▁konusunda	-8.19681
▁kazan	-8.19858
niz	-8.20036
▁et	-8.20043
ren	-8.20048
▁Ş	-8.20279
do	-8.20279
▁ekipleri	-8.20378
▁gol	-8.20384
es	-8.21124
▁dur	-8.21184
imiz	-8.21204
▁ancak	-8.21217
▁devlet	-8.21237
ch	-8.21323
▁ettiği	-8.2133
mişti	-8.21367
▁edil	-8.21435
▁Da	-8.21685
▁Parti	-8.2204
▁Müdürlüğü	-8.2204
▁Ve	-8.22072
fa	-8.22322
▁etme	-8.22528
▁örgütü	-8.22549
laş	-8.22553
fi	-8.22596
▁dün	-8.22633
nün	-8.22666
acağı	-8.22696
▁açıklamada	-8.22699
▁yaşındaki	-8.22807
▁mü	-8.2296
▁Ben	-8.23077
▁Pa	-8.23081
▁kabul	-8.23099
AN	-8.23318
L	-8.23382
▁Biz	-8.23409
▁pa	-8.23412
▁Mehmet	-8.2362
▁Ay	-8.24143
tar	-8.24356
▁sev	-8.24544
▁gir	-8.24731
is	-8.24761
▁çık	-8.24792
▁I	-8.24892
▁çalışan	-8.24907
am	-8.25348
▁proje	-8.25737
▁ar	-8.26009
▁En	-8.26092
men	-8.26268
▁zor	-8.26408
▁çek	-8.26529
▁hareket	-8.26646
▁hizmet	-8.26858
▁bulunduğu	-8.27036
us	-8.2716
▁eski	-8.2722
▁ba	-8.27266
nce	-8.27366
Ö	-8.27469
kları	-8.27473
▁Bakanı	-8.2769
▁ayrı	-8.27778
▁eğitim	-8.281
▁ilişkin	-8.28132
spor	-8.28215
▁N	-8.283
▁kapsamında	-8.28374
▁aç	-8.28396
▁oku	-8.28469
▁şehit	-8.28657
▁kat	-8.2866
Bu	-8.2868
Z	-8.28837
luğu	-8.28984
▁yayın	-8.29025
rak	-8.29161
▁bütün	-8.29171
ilen	-8.29177
üm	-8.29369
po	-8.29415
şi	-8.29425
▁altında	-8.29443
▁Başbakan	-8.29512
▁tut	-8.29549
▁uzun	-8.29784
▁aile	-8.30174
▁konusu	-8.30338
rı	-8.30496
▁14	-8.30601
▁ceza	-8.30701
layan	-8.30813
▁sınır	-8.31191
▁mı	-8.31235
▁dile	-8.31525
▁Devlet	-8.31597
▁Mi	-8.31611
▁savaş	-8.31634
unda	-8.32283
şe	-8.3235
▁Yeni	-8.32517
meye	-8.32597
eceği	-8.32684
bil	-8.32835
▁ağır	-8.32937
▁il	-8.33179
▁Bakanlığı	-8.33424
▁üç	-8.33428
larıyla	-8.33716
ktan	-8.33974
▁h	-8.33987
ndaki	-8.34355
▁dünya	-8.34363
▁eşi	-8.34461
▁W	-8.34625
▁ben	-8.3467
▁yarı	-8.34857
▁rağmen	-8.35097
▁ön	-8.351
▁gözaltına	-8.35164
▁belirten	-8.35481
▁kaç	-8.3566
▁meydan	-8.35696
▁yardım	-8.35934
▁getir	-8.36139
lat	-8.36278
abilir	-8.3634
▁çıkan	-8.36483
▁18	-8.36527
▁13	-8.3684
▁dön	-8.36916
▁alınan	-8.37146
▁ikinci	-8.37344
▁Cumhuriyet	-8.37642
ğını	-8.37704
▁Kurulu	-8.37754
dur	-8.38072
▁kontrol	-8.38243
▁ait	-8.3845
▁do	-8.38471
▁kişinin	-8.38483
▁taraf	-8.3862
▁yatırım	-8.38687
▁Mo	-8.38794
▁hale	-8.3886
▁Do	-8.39051
▁b	-8.39116
▁dakika	-8.39136
▁genç	-8.39202
▁tespit	-8.39253
fe	-8.39338
ıyla	-8.3953
üz	-8.39536
▁Mahallesi	-8.39864
▁bağlı	-8.40128
AR	-8.40175
leriyle	-8.40353
▁30	-8.40587
ıldı	-8.40601
▁So	-8.40666
▁asker	-8.40675
ku	-8.4087
ırken	-8.40892
▁orta	-8.40908
van	-8.40916
▁yaklaşık	-8.40933
▁bil	-8.41173
▁re	-8.41278
▁El	-8.41301
▁Ra	-8.41301
gu	-8.41429
kı	-8.41466
▁16	-8.41624
bu	-8.41645
▁aldığı	-8.41895
ebilir	-8.41906
bo	-8.41983
▁gelir	-8.42039
▁değer	-8.42079
▁çocuk	-8.42106
▁sektör	-8.4214
▁kullandı	-8.42333
▁gerek	-8.42343
ek	-8.42425
▁futbolcu	-8.42425
▁V	-8.42427
pa	-8.42502
Ç	-8.4268
▁etmek	-8.42971
asyon	-8.43187
▁olur	-8.43271
▁alın	-8.43549
muş	-8.43622
▁Ali	-8.43702
▁söyle	-8.43871
yet	-8.44064
▁basın	-8.44395
let	-8.44488
una	-8.44504
▁satış	-8.44732
dik	-8.44781
▁işlem	-8.44798
▁bit	-8.44896
lanma	-8.44915
▁sistemi	-8.44967
▁silah	-8.45119
▁duy	-8.45225
▁hiçbir	-8.45345
▁okul	-8.45401
▁parti	-8.45666
ab	-8.45749
▁Ku	-8.4588
ok	-8.45952
▁u	-8.45964
▁Zaman	-8.45978
▁soruşturma	-8.46154
▁tarih	-8.46224
▁An	-8.46238
▁alındı	-8.46272
▁hiç	-8.46324
▁düzen	-8.46401
▁Her	-8.46456
▁burada	-8.4683
leyen	-8.46929
▁İl	-8.47071
lendi	-8.47115
▁sosyal	-8.4722
▁güzel	-8.47333
▁özellikle	-8.47339
sıyla	-8.47445
▁ol	-8.47508
▁Sözcü	-8.47657
▁kan	-8.4766
▁bunu	-8.47988
▁Te	-8.47989
yor	-8.48111
inden	-8.48121
▁yanı	-8.4815
▁puan	-8.48179
▁17	-8.48208
0	-8.48222
▁Yıldırım	-8.48234
▁ke	-8.48449
-1	-8.48519
▁imza	-8.48577
üyor	-8.4866
can	-8.48699
▁bulun	-8.48703
kü	-8.48856
▁gece	-8.48957
▁güven	-8.49096
ıcı	-8.49154
▁200	-8.49189
os	-8.49534
▁yeniden	-8.49592
▁toplam	-8.4992
▁ziyaret	-8.49947
▁engel	-8.50069
▁İş	-8.50116
▁verdiği	-8.50119
▁0	-8.50235
ydı	-8.50315
mu	-8.50411
▁oyun	-8.50509
ral	-8.50575
ağ	-8.50592
▁gö	-8.50801
lak	-8.50805
▁Baş	-8.50809
▁birçok	-8.50816
▁grup	-8.51228
▁yine	-8.51303
he	-8.51337
▁sayı	-8.51499
▁Li	-8.51501
ret	-8.51585
per	-8.51657
▁girişimi	-8.51745
▁tedavi	-8.51858
maz	-8.51901
▁konuşma	-8.5195
▁Mü	-8.52089
ük	-8.52102
teki	-8.52139
san	-8.52197
▁kısa	-8.52282
▁bizim	-8.52361
▁Be	-8.52441
▁Can	-8.5255
▁Mustafa	-8.52573
▁dava	-8.52749
▁Dr	-8.52925
▁içerisinde	-8.53058
▁yaz	-8.53145
ılan	-8.5348
▁artık	-8.5357
▁bomba	-8.5369
▁sağlık	-8.53904
▁kullanıl	-8.53939
▁yan	-8.5434
▁Bunun	-8.54432
ydi	-8.54561
▁Ar	-8.54601
▁hasta	-8.54751
▁belirtti	-8.54752
▁AB	-8.5482
▁yazı	-8.54821
▁Emniyet	-8.54845
sın	-8.5486
▁pazar	-8.5486
min	-8.54918
iyle	-8.55024
▁yapma	-8.55036
▁veren	-8.55437
siyle	-8.55715
▁oluştur	-8.55833
▁aday	-8.55875
unun	-8.55986
`	-8.56062
miyor	-8.56107
▁seçim	-8.56118
▁eş	-8.56283
▁görme	-8.56287
muz	-8.56346
sü	-8.56409
em	-8.5659
▁er	-8.56689
▁sonrası	-8.5672
▁belirtildi	-8.56803
suz	-8.56957
▁yoğun	-8.56984
duğu	-8.57058
ER	-8.5715
▁ilişki	-8.57425
yo	-8.57542
▁kız	-8.57643
▁üzerinden	-8.57691
▁öğren	-8.57882
lük	-8.57957
▁yaşa	-8.57982
▁sonucu	-8.58158
ız	-8.5827
▁25	-8.58274
▁anda	-8.5829
▁hayatını	-8.5847
ılması	-8.58641
▁Ahmet	-8.5873
lerimiz	-8.58762
▁diyor	-8.5881
▁Gül	-8.58869
▁in	-8.58982
▁bekle	-8.59009
▁tam	-8.59018
mayı	-8.59021
▁uygulama	-8.59071
▁otur	-8.59073
cü	-8.5916
▁Lig	-8.59308
▁artır	-8.59378
▁La	-8.59516
▁CHP	-8.5974
▁fotoğraf	-8.59931
▁koy	-8.59942
▁tamam	-8.6004
mektedir	-8.60041
der	-8.60274
▁Başkan	-8.60465
▁ayında	-8.60524
▁kaldı	-8.60595
▁durumu	-8.60713
▁kim	-8.6072
▁tarihi	-8.60768
lıyor	-8.60792
▁yürü	-8.60974
liyor	-8.6102
▁sık	-8.61029
▁yara	-8.6107
▁kaynak	-8.6109
▁Kur	-8.61302
▁şüpheli	-8.61554
▁Mu	-8.61634
▁Milli	-8.61798
30	-8.61808
▁banka	-8.61864
▁adım	-8.62006
▁fa	-8.62047
▁sayısı	-8.62147
▁sahibi	-8.62379
▁tepki	-8.62445
▁oy	-8.62537
▁örgüt	-8.62556
▁art	-8.62591
ilmesi	-8.62635
▁kap	-8.62696
kten	-8.62941
inci	-8.62963
▁Almanya	-8.63054
▁akşam	-8.631
▁ortak	-8.63338
İN	-8.6335
no	-8.63479
▁yaşanan	-8.63632
▁telefon	-8.63704
ck	-8.6378
▁Ke	-8.63884
larımız	-8.63936
▁Bakan	-8.63997
▁medya	-8.64046
ver	-8.64114
▁alma	-8.64197
▁To	-8.64274
▁toplum	-8.64299
▁san	-8.64398
▁dönem	-8.64754
▁belirterek	-8.64755
masını	-8.64831
▁c	-8.64851
▁J	-8.64948
▁bunun	-8.65132
▁mahkeme	-8.65156
▁İlk	-8.65188
▁şeklinde	-8.65205
▁tak	-8.6522
▁Ni	-8.6526
yen	-8.65284
▁merkez	-8.65284
▁kay	-8.65316
co	-8.6536
▁otomobil	-8.65424
▁film	-8.6548
▁yargı	-8.65492
▁yana	-8.65624
▁edecek	-8.65708
▁düş	-8.6574
▁dışında	-8.65831
ımız	-8.65865
lanması	-8.65876
▁adam	-8.6591
masına	-8.66055
▁sırasında	-8.66122
▁gerçekleştir	-8.6616
▁dönemde	-8.66352
▁göster	-8.66363
▁Üniversitesi	-8.6656
go	-8.66596
as	-8.66778
▁iz	-8.66833
▁kalan	-8.66925
▁teknik	-8.66987
▁görüntü	-8.67006
ağa	-8.67021
ası	-8.67043
nca	-8.67114
▁2015	-8.6712
lay	-8.67305
▁bo	-8.67335
mez	-8.674
▁Mart	-8.67633
▁eylem	-8.67747
▁terörist	-8.67857
ut	-8.68024
▁100	-8.68154
▁düzenlenen	-8.6824
ıyoruz	-8.68275
V	-8.68282
▁bağ	-8.68483
▁ses	-8.68698
▁Daha	-8.68729
▁fi	-8.68811
▁sistem	-8.68959
▁kır	-8.69087
▁Şubat	-8.69123
imi	-8.69296
▁kullan	-8.69409
▁kaydetti	-8.69682
▁kurum	-8.69691
▁gelecek	-8.69694
▁t	-8.69777
mar	-8.69924
▁Si	-8.70067
▁bırak	-8.70131
▁He	-8.70328
▁anlaşma	-8.70386
▁hak	-8.70515
▁Tu	-8.70582
▁oluyor	-8.70602
▁açı	-8.70611
▁sırada	-8.70634
▁askeri	-8.70791
▁artış	-8.70943
▁50	-8.70955
tro	-8.70974
▁öne	-8.70991
▁kur	-8.71092
üs	-8.712
▁gündem	-8.71261
▁görüşme	-8.71358
▁sak	-8.7165
▁sorun	-8.7166
▁sonuç	-8.71719
▁giy	-8.71871
▁koru	-8.71872
▁siyasi	-8.72024
▁yüz	-8.72048
▁beraber	-8.72115
▁Şa	-8.72123
▁em	-8.72137
▁yağ	-8.72184
▁çalış	-8.72227
▁Ü	-8.72236
▁R	-8.72343
abilecek	-8.72352
ban	-8.72381
▁transfer	-8.72528
▁kent	-8.72696
alım	-8.72705
ing	-8.72716
▁takip	-8.72722
▁yönetimi	-8.72813
▁bina	-8.7283
▁po	-8.73008
mizi	-8.73087
▁olsun	-8.73221
▁gerekiyor	-8.73295
▁sevk	-8.73375
pe	-8.73436
lenen	-8.73455
▁çıkma	-8.73468
▁yapılacak	-8.73494
▁genel	-8.73547
▁İzmir	-8.73617
▁Ocak	-8.73623
▁geliyor	-8.73731
▁21	-8.73735
▁derece	-8.73772
▁başında	-8.738
yum	-8.73865
leşme	-8.74166
▁Na	-8.74184
▁Mar	-8.74238
▁AK	-8.7435
▁Ro	-8.74448
▁öğrenildi	-8.74464
▁der	-8.74517
20	-8.74549
▁na	-8.74714
ından	-8.74781
klarını	-8.74938
▁şart	-8.74947
▁önünde	-8.74959
sta	-8.75016
▁kapı	-8.75132
▁müdahale	-8.75161
▁22	-8.75191
▁istedi	-8.75195
▁ateş	-8.75247
▁Fi	-8.75258
evi	-8.75416
dim	-8.75456
▁Su	-8.75538
▁değiş	-8.75593
▁yön	-8.75822
EN	-8.75848
mı	-8.75894
▁yasa	-8.75948
▁uygula	-8.76212
▁zarar	-8.76279
▁hayat	-8.76327
▁öğrenci	-8.76364
▁24	-8.76511
ğe	-8.76517
▁taraftar	-8.76549
▁yandan	-8.76773
▁iste	-8.76788
▁inan	-8.76855
▁yanında	-8.76862
▁Terör	-8.7698
acağını	-8.77159
▁Olay	-8.77195
öl	-8.77282
az	-8.77386
▁piyasa	-8.77409
▁hukuk	-8.77485
▁benim	-8.77651
2016	-8.77789
▁gerçek	-8.77893
mer	-8.77929
▁Ev	-8.78165
▁şimdi	-8.78323
▁güçleri	-8.78442
rek	-8.78467
▁Euro	-8.78477
▁araya	-8.78697
iyet	-8.78794
▁yıllık	-8.78941
▁izle	-8.79132
tör	-8.79221
▁yapmak	-8.7926
▁adı	-8.79353
▁olabilir	-8.79474
dık	-8.798
▁isteyen	-8.79808
tiği	-8.79887
fer	-8.79901
▁altına	-8.80039
hane	-8.80138
müş	-8.80283
▁yolcu	-8.80349
maktadır	-8.80374
▁Çünkü	-8.80409
if	-8.80409
▁yüksel	-8.80505
ledi	-8.80612
▁çift	-8.80646
▁halinde	-8.80652
mızı	-8.80872
▁bulunuyor	-8.80934
ğa	-8.80983
mıştır	-8.81071
▁yolu	-8.81117
eceğini	-8.81134
lığın	-8.8118
▁ederek	-8.8122
meyen	-8.81283
ley	-8.81356
▁geçti	-8.8137
▁seviye	-8.8143
▁öldür	-8.81516
taki	-8.81653
▁geçir	-8.81654
ici	-8.81671
▁tekrar	-8.81988
son	-8.82051
▁siz	-8.82133
▁Irak	-8.8219
▁başarı	-8.82199
▁onlar	-8.82204
▁Demir	-8.82211
▁ciddi	-8.82222
madı	-8.82284
▁Hastanesi	-8.82307
▁alıyor	-8.82365
oğu	-8.82559
iye	-8.82742
▁ayı	-8.82878
acağız	-8.83061
▁geliş	-8.83096
▁ter	-8.83108
▁kurul	-8.83126
▁sene	-8.83219
▁tür	-8.83251
▁süreci	-8.83341
▁Fa	-8.83356
▁Pe	-8.83358
▁Haber	-8.83408
▁Polis	-8.83602
ildi	-8.83672
▁adet	-8.83942
medi	-8.83967
▁gel	-8.83968
▁can	-8.84031
tur	-8.84091
kar	-8.84177
▁anne	-8.84178
ünün	-8.84241
▁Ser	-8.84305
▁forma	-8.84557
▁giriş	-8.84584
▁mümkün	-8.84636
diklerini	-8.84678
▁tercih	-8.84718
▁çalışmaları	-8.84811
▁önceki	-8.84811
▁öz	-8.84874
▁kon	-8.84997
ist	-8.85189
▁kalk	-8.85205
▁Ceza	-8.8521
lim	-8.85267
▁ilgi	-8.85349
▁Ye	-8.8539
▁di	-8.85535
▁dakikada	-8.85575
▁ekibi	-8.8562
▁şunları	-8.85629
başı	-8.85673
▁gitti	-8.85693
▁durumda	-8.85717
ad	-8.85944
▁sivil	-8.85948
▁kötü	-8.85948
▁anlat	-8.86005
▁Ga	-8.86012
lenmesi	-8.86161
▁açıkladı	-8.86176
▁kes	-8.86182
▁sabah	-8.86198
▁Ca	-8.86265
▁Bugün	-8.86376
▁Yılmaz	-8.8654
▁ödeme	-8.86551
amadı	-8.86592
▁Ayrıca	-8.86611
▁onu	-8.86619
▁eder	-8.86675
▁mo	-8.86707
tay	-8.86714
▁olmadığını	-8.86773
▁içeri	-8.86803
ğü	-8.86811
bey	-8.86814
▁kamu	-8.86857
▁yarat	-8.86888
▁Z	-8.86917
▁Rus	-8.86938
▁izin	-8.86983
▁yapıyor	-8.87002
▁dışı	-8.87026
▁taşı	-8.87068
▁Kar	-8.87113
liğin	-8.87129
▁toplantı	-8.87131
ladığı	-8.87363
▁Aralık	-8.87416
▁din	-8.87485
▁araştırma	-8.87491
▁kredi	-8.8753
dikleri	-8.87634
▁Meclis	-8.87781
▁23	-8.87786
▁gereken	-8.87958
tepe	-8.87962
▁sayıda	-8.88016
ho	-8.8802
▁Allah	-8.88063
▁çekil	-8.88085
sinden	-8.8815
par	-8.88176
up	-8.8827
▁küçük	-8.88287
▁verildi	-8.88406
▁ilçe	-8.88427
▁lider	-8.88459
▁gitme	-8.88491
▁teknoloji	-8.88541
▁yurt	-8.88541
▁zamanda	-8.88567
til	-8.88599
▁firma	-8.88607
raf	-8.8869
▁gerektiğini	-8.88693
▁nokta	-8.88823
▁güçlü	-8.8888
▁internet	-8.88965
▁enerji	-8.88965
▁talep	-8.89052
▁olsa	-8.89178
▁ge	-8.89203
lığını	-8.8939
▁belge	-8.89392
▁ağ	-8.89408
▁getirdi	-8.89546
ımı	-8.89575
▁sarı	-8.8969
▁gazeteci	-8.89713
tif	-8.89719
▁kimse	-8.898
▁Gün	-8.8987
▁faiz	-8.89959
▁maçı	-8.90022
▁geliştir	-8.90047
▁vardı	-8.90301
▁Le	-8.90376
▁sat	-8.90506
kat	-8.90532
ova	-8.90585
▁Ho	-8.90703
siniz	-8.90768
▁hep	-8.90948
▁arama	-8.90973
AL	-8.90995
▁Yönetim	-8.91028
▁çevre	-8.9143
▁İşte	-8.91466
▁başlayan	-8.91473
▁hemen	-8.91537
meyi	-8.91547
▁madde	-8.91561
▁Kor	-8.91614
mize	-8.91644
▁İran	-8.91745
▁boş	-8.91811
▁Bi	-8.9183
▁ana	-8.91937
laşma	-8.91991
▁Vi	-8.92031
▁uygun	-8.92075
▁başvuru	-8.92185
▁inceleme	-8.92209
▁mutlu	-8.92397
▁herkes	-8.92429
▁Trabzonspor	-8.92498
▁Ekonomi	-8.92683
▁Diyarbakır	-8.92691
net	-8.9273
▁Ara	-8.92817
▁Deniz	-8.92883
▁Bunlar	-8.92916
▁dolayı	-8.92944
▁yılın	-8.93227
▁ifadelerini	-8.93271
▁yaşayan	-8.93278
▁serbest	-8.934
▁so	-8.93453
▁katkı	-8.93457
▁oluş	-8.93478
▁üye	-8.93578
yoruz	-8.93716
taş	-8.93717
▁kalma	-8.93951
yız	-8.93965
▁Sarı	-8.94043
▁bölüm	-8.94129
▁as	-8.94192
▁saatlerinde	-8.94197
▁siyaset	-8.94204
▁götür	-8.94306
▁İs	-8.9435
▁kazandı	-8.94366
▁elde	-8.94408
▁şiddet	-8.94473
▁40	-8.94511
▁kart	-8.94552
▁Ligi	-8.94754
rdı	-8.94758
▁hesap	-8.94924
▁Davutoğlu	-8.94924
ste	-8.94951
▁Ri	-8.94977
▁ürün	-8.94993
▁yönetim	-8.95055
for	-8.9506
▁fark	-8.9507
▁başına	-8.95112
AK	-8.95162
▁baskı	-8.95212
▁Hi	-8.95277
▁edilmesi	-8.95338
▁Hava	-8.95343
▁itibaren	-8.95422
▁Gülen	-8.9559
▁ulaştı	-8.95604
▁önem	-8.95684
▁milli	-8.95752
▁boyunca	-8.95758
lenme	-8.96009
▁çekti	-8.96156
▁kaza	-8.96176
tor	-8.9629
50	-8.96299
▁İki	-8.96396
ton	-8.96478
dür	-8.96596
DE	-8.96784
▁yapıldı	-8.96813
▁güç	-8.96867
▁büyü	-8.96903
▁L	-8.96978
ciler	-8.96991
▁politika	-8.97022
ed	-8.97129
▁olmayan	-8.97154
▁tarihinde	-8.97189
▁boyu	-8.97426
▁tartışma	-8.97429
▁Çin	-8.97453
▁yazılı	-8.97474
▁görüş	-8.9751
bay	-8.97598
▁adına	-8.97639
▁gelme	-8.97641
▁Belediye	-8.97715
ucu	-8.97783
ğu	-8.97799
▁gider	-8.97928
▁söyleyen	-8.97984
▁faaliyet	-8.98052
▁karşısında	-8.98216
mo	-8.98238
▁kapat	-8.98455
lek	-8.98628
▁ücret	-8.98656
ji	-8.98662
▁Tek	-8.98748
▁Anadolu	-8.9879
▁yardımcı	-8.99
▁Amerika	-8.99069
▁geldiği	-8.99131
▁Şimdi	-8.99167
▁adlı	-8.99264
leş	-8.99296
▁düşün	-8.99489
▁aktar	-8.99527
▁ekip	-8.99588
▁ga	-8.99606
▁babası	-8.99646
▁Po	-8.99698
soy	-8.99851
▁acı	-8.99878
▁şirket	-8.99894
▁Bölge	-9.00112
▁Ol	-9.00278
▁uluslararası	-9.00303
▁yabancı	-9.00303
▁As	-9.0049
▁resmi	-9.00495
bü	-9.00514
▁orada	-9.00558
▁Kö	-9.00571
leşti	-9.00612
▁Antalya	-9.00659
ket	-9.00659
▁Süper	-9.00685
▁yılı	-9.00699
▁zorunda	-9.00738
▁Zi	-9.0074
▁savunma	-9.00817
▁pek	-9.00822
uş	-9.00869
▁Çok	-9.00905
sından	-9.00936
▁olmadığı	-9.00962
▁hakkı	-9.01039
▁anlattı	-9.01292
▁baba	-9.01327
▁yerinde	-9.01336
▁ayrıca	-9.01427
▁ödül	-9.01453
▁Ki	-9.01527
▁teslim	-9.01549
abiliyor	-9.01596
▁vur	-9.01604
sınız	-9.01631
▁gerçekleş	-9.01709
▁savcı	-9.01748
▁fiyatı	-9.01818
▁maçında	-9.01841
▁2014	-9.02055
▁Prof	-9.02067
▁arasındaki	-9.0218
▁üret	-9.02208
▁işaret	-9.02228
▁yönet	-9.02322
▁Müdürü	-9.02357
▁futbol	-9.02388
lanıyor	-9.02398
Türkiye	-9.02398
▁konuda	-9.02402
▁belli	-9.02525
gün	-9.02535
▁tutuk	-9.02545
▁Bey	-9.02646
▁Eğitim	-9.02811
şan	-9.02878
▁verilen	-9.02948
▁insanlar	-9.03096
hat	-9.03214
▁Recep	-9.03302
gen	-9.03321
▁kü	-9.03356
▁bana	-9.03459
▁kara	-9.03476
▁çözüm	-9.03693
▁uzman	-9.03698
▁istiyor	-9.03725
▁Koç	-9.03741
▁es	-9.03747
likle	-9.03755
▁Tayyip	-9.03793
▁Sağlık	-9.03853
▁İn	-9.03874
iyoruz	-9.04031
▁kaldır	-9.04086
▁oran	-9.04093
▁sonunda	-9.04124
▁ileri	-9.04155
▁millet	-9.0416
AT	-9.04319
▁şehir	-9.04363
▁değiştir	-9.04364
▁28	-9.04483
▁herhangi	-9.04486
▁şarkı	-9.04487
▁geniş	-9.04487
▁cezası	-9.0454
▁Yardımcısı	-9.04685
▁bize	-9.04789
▁hayatı	-9.04835
▁ünlü	-9.04888
▁Jo	-9.0501
▁yaralı	-9.05035
aj	-9.05154
▁halk	-9.05198
▁değerlendirme	-9.05256
miştir	-9.05265
▁sorumlu	-9.05365
▁Mahkemesi	-9.0541
▁düzey	-9.05485
▁emekli	-9.05586
▁kolay	-9.05648
▁karşılaşma	-9.05664
ES	-9.05708
▁bakan	-9.05773
▁sen	-9.05776
yü	-9.0578
▁atan	-9.05815
sunuz	-9.05901
▁bulunma	-9.05975
▁yılda	-9.06006
▁Güvenlik	-9.06235
▁desteği	-9.06294
▁başkan	-9.06304
▁temel	-9.06394
malı	-9.06404
id	-9.06418
eceğiz	-9.06617
▁önlem	-9.06637
ürü	-9.06673
ğünü	-9.06756
▁gösteri	-9.06857
▁mesaj	-9.0695
▁maçta	-9.06973
▁onun	-9.06997
▁Bil	-9.07139
pi	-9.07144
IN	-9.07201
▁yorum	-9.07205
▁net	-9.07254
▁Birliği	-9.07274
mesini	-9.07294
▁lazım	-9.07308
▁mülteci	-9.07308
▁Es	-9.07324
▁sokak	-9.07348
▁final	-9.07372
▁pi	-9.07416
ih	-9.07511
▁metre	-9.07517
▁ilçesinde	-9.07583
▁nedenle	-9.07607
▁temiz	-9.07629
AŞ	-9.07763
▁Bay	-9.07779
▁yıldız	-9.07788
▁500	-9.07793
▁sol	-9.07843
▁dahil	-9.07864
▁Dışişleri	-9.08026
▁Kemal	-9.08029
▁avukat	-9.08232
▁kesin	-9.08275
▁İslam	-9.08286
▁yanıt	-9.08287
▁Merkezi	-9.08353
▁tur	-9.08367
▁sıkıntı	-9.08439
▁ismi	-9.08453
▁attı	-9.08464
lığa	-9.08509
sak	-9.08537
▁oğlu	-9.08589
▁program	-9.08646
liğini	-9.08664
▁dünyanın	-9.08692
▁işçi	-9.08765
ince	-9.08767
▁isim	-9.08775
▁kas	-9.08778
▁ettiğini	-9.08828
DA	-9.08885
İL	-9.0896
iyorum	-9.08995
▁cevap	-9.0906
▁yük	-9.09146
▁bunlar	-9.09333
▁büyüme	-9.09338
▁erkek	-9.09374
mıza	-9.09474
▁bölgede	-9.09633
▁spor	-9.09805
laştı	-9.09862
▁yöntem	-9.09905
▁düşür	-9.0994
▁ülkenin	-9.0997
▁sergi	-9.10041
▁defa	-9.10065
▁arada	-9.10107
15	-9.10239
hal	-9.1028
▁veriyor	-9.1031
▁kayıt	-9.10322
▁Va	-9.10345
bir	-9.10362
tra	-9.10428
▁Ek	-9.10453
▁çalışıyor	-9.10493
İR	-9.10524
▁konuş	-9.10678
yiz	-9.1073
af	-9.10804
▁uçak	-9.10924
muştu	-9.10942
▁rol	-9.10955
▁atıl	-9.11131
▁Murat	-9.11165
▁gördü	-9.11182
mayacak	-9.11394
▁ekonomi	-9.11461
▁merkezi	-9.11599
▁Bel	-9.11679
▁durdur	-9.11757
▁dış	-9.11779
sen	-9.11782
▁sür	-9.11804
▁Der	-9.11833
▁27	-9.11934
dıkları	-9.11955
▁Şu	-9.11996
▁kilo	-9.12057
▁San	-9.12104
▁demokrasi	-9.12123
▁Alman	-9.12183
▁öğretmen	-9.12241
tık	-9.12276
▁seç	-9.12286
10	-9.12291
▁alacak	-9.12317
▁Nisan	-9.12374
▁bildir	-9.12406
▁almak	-9.12427
▁Du	-9.12442
▁çal	-9.12451
▁Burada	-9.12454
▁canlı	-9.12494
▁yaşam	-9.12546
▁Orta	-9.12567
▁Co	-9.12652
tti	-9.12658
▁tehdit	-9.1266
▁Doğu	-9.12674
▁üyesi	-9.12753
▁kardeş	-9.12769
▁fiyat	-9.1281
▁Şube	-9.13041
▁uzak	-9.13065
fet	-9.13133
▁Kon	-9.13172
▁sonrasında	-9.13178
▁yapılması	-9.13239
▁İngiltere	-9.13309
kaya	-9.13385
▁değerlendir	-9.13418
▁tehlike	-9.13635
▁İlçesi	-9.13723
▁paylaş	-9.13727
▁HDP	-9.13745
▁korku	-9.13749
▁çeşitli	-9.13816
▁Fatih	-9.13854
istan	-9.13979
▁Bar	-9.1402
▁yapacağı	-9.14065
▁sahne	-9.14073
▁Genç	-9.14077
madan	-9.14104
nci	-9.14104
▁düzenleme	-9.14267
▁Trump	-9.14291
▁sonu	-9.14302
▁kanser	-9.14308
▁etmesi	-9.14354
▁Büyük	-9.14394
▁marka	-9.14405
ınca	-9.14407
▁başarılı	-9.14451
▁katıldı	-9.14542
ll	-9.14545
▁kendisini	-9.14564
▁girdi	-9.14575
▁talebi	-9.14621
▁sözleşme	-9.14686
▁har	-9.14724
▁amacıyla	-9.14777
▁Merkez	-9.14821
▁giden	-9.14848
▁bilgiye	-9.1488
▁bas	-9.14902
▁Kal	-9.14943
▁yapacak	-9.14951
▁düştü	-9.15069
▁Aydın	-9.15179
▁türlü	-9.15302
ümüz	-9.15348
▁bildirildi	-9.15464
mıyor	-9.15537
▁rahat	-9.15614
▁programı	-9.15836
▁Kürt	-9.15839
▁sınav	-9.15871
cılık	-9.15917
▁ihracat	-9.15948
▁Atatürk	-9.15953
▁ince	-9.16076
▁Özel	-9.16104
▁Adana	-9.16108
▁vatandaşlar	-9.16113
▁çalışmalar	-9.16145
▁Kaza	-9.16317
yon	-9.16333
▁Mayıs	-9.16509
düğü	-9.1652
▁getiren	-9.16527
▁hükümet	-9.1662
je	-9.16719
▁Suriyeli	-9.16911
▁hızlı	-9.16957
▁yaşadığı	-9.17063
sanız	-9.17068
▁dev	-9.17163
oloji	-9.17199
▁26	-9.17259
▁Za	-9.17278
▁dair	-9.17373
▁kafa	-9.17409
UR	-9.17414
▁yemek	-9.17465
ıldığı	-9.17513
▁henüz	-9.17521
-2	-9.1757
gü	-9.17571
▁başta	-9.1762
▁bar	-9.17636
landığı	-9.17638
dağ	-9.17772
▁kaybetti	-9.17819
▁IŞİD	-9.17861
siyon	-9.1793
▁kısmı	-9.1796
▁DAEŞ	-9.17974
▁finans	-9.1809
▁liste	-9.18093
▁kendini	-9.18157
▁PYD	-9.18202
LAR	-9.18242
ov	-9.1828
▁Kim	-9.18363
▁eğ	-9.18427
▁kültür	-9.1843
▁çiz	-9.18445
▁yaralandı	-9.18465
▁Gaziantep	-9.18544
▁fırsat	-9.18544
▁ihtiyaç	-9.18544
▁Fransa	-9.18545
▁açısından	-9.18565
▁arkadaşları	-9.1857
▁deniz	-9.18599
lanacak	-9.18718
▁uyarı	-9.18761
▁galibiyet	-9.18773
▁İnsan	-9.1881
▁aralarında	-9.18823
▁isimli	-9.18905
yorum	-9.19065
▁kendisine	-9.19124
▁yönünde	-9.19151
▁Ber	-9.19424
▁ekran	-9.19426
▁hangi	-9.19466
hu	-9.19475
▁hapis	-9.1958
▁çeken	-9.19646
syon	-9.19689
▁emniyet	-9.19695
ans	-9.19696
▁yerde	-9.19771
▁gerçekleştiril	-9.19809
▁bağlantı	-9.1981
▁ser	-9.19935
▁ediliyor	-9.19975
▁elektrik	-9.20042
▁çalıştı	-9.20063
MA	-9.20078
▁kurulu	-9.20127
▁gerekli	-9.20215
▁hastane	-9.20229
▁gez	-9.20252
▁ihtiyacı	-9.20275
▁kilometre	-9.20275
▁Lo	-9.20363
▁yaşında	-9.20372
▁aş	-9.20374
▁ülkede	-9.20403
▁düşük	-9.20428
▁Top	-9.2043
ham	-9.20431
▁aylık	-9.20471
▁tutuklandı	-9.20499
▁ekonomik	-9.20523
▁öncesi	-9.20528
▁olacağı	-9.20538
▁unut	-9.20611
▁vergi	-9.20648
▁amaç	-9.20793
▁isten	-9.2089
▁gönder	-9.20955
▁tahmin	-9.20975
▁kamera	-9.21095
▁kira	-9.21127
mızın	-9.21166
lüğü	-9.2117
▁kişiler	-9.21221
▁krizi	-9.21227
▁takımın	-9.21273
▁hakem	-9.21281
▁kol	-9.21294
▁vatandaş	-9.21397
▁öde	-9.21404
▁oranı	-9.21587
▁dizi	-9.21638
▁arka	-9.21692
kur	-9.21705
▁katılım	-9.21749
▁girişim	-9.21752
masının	-9.2178
▁döneminde	-9.21805
▁yıldır	-9.21895
▁duygu	-9.21967
▁sebep	-9.22036
▁yarın	-9.2204
yim	-9.22075
▁oda	-9.2212
▁dönüş	-9.22134
▁Kasım	-9.22157
▁ölüm	-9.22179
▁savun	-9.2223
▁saha	-9.22397
▁Öte	-9.22423
yım	-9.22447
▁altın	-9.22527
▁öyle	-9.22633
▁kıl	-9.22646
nızı	-9.22725
▁ister	-9.22725
▁Futbol	-9.22748
▁giren	-9.22828
zar	-9.2283
meli	-9.22858
▁anlatan	-9.22886
duğunu	-9.22937
▁fayda	-9.22991
▁sıcak	-9.23107
▁Ze	-9.23144
▁kızı	-9.23147
Ha	-9.23206
▁ayak	-9.23244
▁anlamı	-9.23286
▁dört	-9.23346
▁miktar	-9.23348
tal	-9.23457
▁diyerek	-9.23468
▁sürekli	-9.23479
▁üyeleri	-9.2353
ebilecek	-9.23589
▁Gö	-9.23692
▁gösterdi	-9.23722
▁konuşan	-9.23824
▁yakalan	-9.23838
▁Tar	-9.23845
mızda	-9.2385
▁Cem	-9.23872
ET	-9.24023
▁İtalya	-9.2407
▁geçmiş	-9.24266
diğimiz	-9.24286
▁hakim	-9.2434
bet	-9.24358
▁mal	-9.24412
▁arkadaşı	-9.24526
▁günlerde	-9.24653
▁Gel	-9.24731
▁görün	-9.24752
▁Kılıçdaroğlu	-9.24796
▁söylüyor	-9.24796
▁rakam	-9.24798
▁sürdür	-9.24842
EM	-9.24871
op	-9.24944
▁sorunu	-9.24972
▁boz	-9.25141
▁Caddesi	-9.25162
▁model	-9.2524
▁kesim	-9.25282
▁29	-9.25386
▁koruma	-9.25493
▁etkili	-9.25659
▁birkaç	-9.25675
▁aracı	-9.25726
▁Çocuk	-9.25772
▁geçiş	-9.25923
▁Başkanlığı	-9.25964
▁Kap	-9.25983
▁katıl	-9.26059
▁Batı	-9.26088
▁olup	-9.26303
▁kadro	-9.26328
irken	-9.26474
▁biraz	-9.26541
▁sefer	-9.26567
rıl	-9.26569
▁kuvvet	-9.26763
▁ona	-9.26767
▁ilan	-9.26837
▁Eylül	-9.26888
▁diyen	-9.26914
lardır	-9.26955
demir	-9.271
▁anayasa	-9.27266
▁yanlış	-9.27388
▁uğra	-9.2751
▁önüne	-9.27515
dıklarını	-9.2752
▁birbiri	-9.2754
▁benzer	-9.27545
▁gerekir	-9.27548
▁alanda	-9.27591
▁risk	-9.27598
AY	-9.27646
üş	-9.27715
dım	-9.27749
?"	-9.27784
▁çıkış	-9.27824
liğe	-9.27871
▁Sosyal	-9.27887
▁üniversite	-9.27887
▁İngiliz	-9.27887
▁yani	-9.27903
▁üretim	-9.27994
▁Halep	-9.28018
▁operasyonu	-9.28051
▁istediği	-9.28052
▁Konu	-9.2808
▁Ekim	-9.28147
▁Tan	-9.28168
▁dünyada	-9.28278
▁çöz	-9.28283
▁edin	-9.28344
▁konut	-9.28367
▁fiyatları	-9.28383
▁bizi	-9.28389
▁bekleniyor	-9.28395
▁çaba	-9.28396
▁beni	-9.28443
▁Kan	-9.28468
▁parça	-9.28623
▁doktor	-9.28643
▁cami	-9.28707
▁Anayasa	-9.2877
İK	-9.28833
▁No	-9.28947
▁sevgi	-9.29044
mizin	-9.2917
zer	-9.29179
▁Güncel	-9.29406
Ben	-9.29467
sti	-9.29532
▁otobüs	-9.29533
▁Kadın	-9.29602
▁vurgu	-9.29622
▁rapor	-9.29829
▁hayata	-9.29831
▁Ja	-9.29883
▁Şi	-9.29959
tim	-9.29974
▁değildir	-9.30048
▁av	-9.30107
▁Araştırma	-9.30173
▁Van	-9.30261
▁bildirdi	-9.30455
▁Özellikle	-9.3047
▁işbirliği	-9.30559
kal	-9.30577
▁Belediyesi	-9.3059
amaz	-9.30606
▁Yani	-9.30622
cılar	-9.30627
sizlik	-9.30655
▁Yüksek	-9.30688
▁Örgütü	-9.30808
▁Dakika	-9.30818
lendiği	-9.30886
▁kullanma	-9.31055
▁sayesinde	-9.31206
▁gören	-9.31269
▁topla	-9.3133
ff	-9.31568
▁Onlar	-9.31656
▁numara	-9.31726
mesine	-9.31766
▁kitap	-9.31859
▁sunul	-9.32022
▁tedbir	-9.32119
▁2017	-9.32147
▁Grubu	-9.32249
▁Bankası	-9.32343
▁Millet	-9.32381
▁Tüm	-9.32495
▁sert	-9.32506
▁buna	-9.32514
▁masa	-9.32514
▁Gür	-9.32527
▁Nur	-9.32585
▁teklif	-9.32649
▁olumsuz	-9.32775
▁Teknik	-9.32778
▁eser	-9.32788
▁haline	-9.32885
▁Kır	-9.32923
▁yarış	-9.33143
Saray	-9.33231
▁çocuklar	-9.33284
▁normal	-9.33304
▁site	-9.33306
▁Bizim	-9.33331
LER	-9.33378
▁yen	-9.33422
▁Ömer	-9.33505
▁60	-9.33532
▁kullandığı	-9.33673
▁karşılık	-9.33688
▁ailesi	-9.337
örü	-9.33782
▁oluşan	-9.33823
▁buluş	-9.3392
layarak	-9.33971
▁vardır	-9.34098
▁Sev	-9.34134
AB	-9.34145
▁öğrenciler	-9.34213
▁Yaş	-9.34217
▁DEAŞ	-9.34236
▁kaydedildi	-9.34255
▁iktidar	-9.3437
▁elinde	-9.3445
▁ölü	-9.34476
▁belediye	-9.34504
▁çağrı	-9.34552
▁halkın	-9.34708
lamak	-9.34709
▁patlama	-9.34735
▁edildiği	-9.34773
▁olmaz	-9.34805
▁Eğer	-9.34909
▁tüket	-9.34911
▁güvenliği	-9.34924
-20	-9.34941
lediği	-9.3495
▁çatışma	-9.35019
▁hisse	-9.35077
▁Derneği	-9.35177
ılmış	-9.35235
▁anı	-9.35269
▁kıy	-9.35293
▁hayal	-9.353
▁davet	-9.35349
▁doğum	-9.35508
▁İç	-9.35544
▁ruh	-9.35628
▁hız	-9.35678
▁Haberler	-9.35707
iniz	-9.35718
▁imkan	-9.35724
▁kurtul	-9.35734
mayan	-9.35875
▁tören	-9.35903
dum	-9.3596
▁mensupları	-9.35991
▁İbrahim	-9.35991
▁35	-9.3605
▁ders	-9.3614
▁tamamen	-9.36164
ılacak	-9.36228
▁geleceği	-9.36261
▁beri	-9.36274
▁tatil	-9.36311
▁günlük	-9.36316
bı	-9.36384
▁yazar	-9.36416
üncü	-9.36549
meyecek	-9.3655
▁hükümeti	-9.36556
▁gaz	-9.36647
▁etkisiz	-9.36656
▁saygı	-9.36811
▁tane	-9.3682
▁derin	-9.36823
▁başlattı	-9.36952
▁etkisi	-9.37036
▁isimler	-9.37043
▁öldü	-9.3711
▁Müslüman	-9.37224
▁kuru	-9.37277
gül	-9.37364
▁takımı	-9.37434
▁Yol	-9.37495
▁İsrail	-9.375
▁Güneş	-9.37502
▁olun	-9.37504
mizde	-9.37512
yacak	-9.37604
▁ameliyat	-9.37638
▁kulüp	-9.37638
▁çıkarıl	-9.37708
▁buldu	-9.37777
▁Şehit	-9.37794
▁cihaz	-9.37915
▁hata	-9.37975
▁barış	-9.38127
▁Şen	-9.38157
▁etmeye	-9.38208
▁kalp	-9.38248
▁Gör	-9.38337
meyeceği	-9.38359
▁annesi	-9.38494
▁Kaya	-9.38506
▁rahatsız	-9.38614
▁Kültür	-9.38651
▁durumunda	-9.38655
▁Ülke	-9.3867
▁Aynı	-9.387
▁mahalle	-9.38741
▁Kendi	-9.38757
▁yapıldığı	-9.38765
▁bilgiler	-9.3881
▁Abd	-9.38943
ort	-9.3896
▁demek	-9.39082
EL	-9.39132
▁bölgesinde	-9.39147
▁zaten	-9.39176
▁90	-9.39282
▁hal	-9.39297
▁Çelik	-9.3932
▁köy	-9.39364
ON	-9.39415
▁dost	-9.39421
▁indir	-9.39436
▁açıklaması	-9.39458
mekte	-9.39474
mayın	-9.39475
▁vurgulaya	-9.39504
▁bi	-9.3951
▁sanat	-9.39534
▁seçil	-9.39549
▁Obama	-9.39738
▁ediyorum	-9.3975
▁yapımı	-9.398
▁kuş	-9.39814
mayacağı	-9.39933
res	-9.39936
▁isteme	-9.40008
▁Bal	-9.40054
▁Tur	-9.40091
▁Kupası	-9.40161
▁merak	-9.40259
▁şikayet	-9.40303
▁başkanı	-9.40339
▁süren	-9.40353
▁yere	-9.40454
▁sona	-9.4049
▁yazdı	-9.40593
▁getiril	-9.40676
▁Hüseyin	-9.4073
▁Altın	-9.40824
▁silahlı	-9.40875
yecek	-9.40932
▁otel	-9.40971
▁patlayıcı	-9.41016
▁tesis	-9.41017
▁dışarı	-9.41017
Biz	-9.41096
▁Hasan	-9.41096
▁dayan	-9.41098
mur	-9.41221
lanmış	-9.41379
▁televizyon	-9.41447
▁sanatçı	-9.41484
▁Sokak	-9.41597
LI	-9.41697
▁Söz	-9.41867
▁31	-9.41869
▁ağrı	-9.41872
▁Bağ	-9.4188
▁Pi	-9.41883
▁Aile	-9.4193
▁belirlendi	-9.41944
EK	-9.4197
▁toprak	-9.41978
▁açtı	-9.4198
▁gr	-9.42183
▁teröristler	-9.42248
▁Geçen	-9.42315
▁alanı	-9.42502
▁yapılma	-9.42559
▁petrol	-9.42603
▁MHP	-9.42604
▁Har	-9.42643
▁maçın	-9.42653
▁Bursa	-9.42742
gan	-9.42776
▁görü	-9.42855
▁yat	-9.42865
▁beş	-9.42912
▁Uzman	-9.43042
cilik	-9.43071
▁altını	-9.43112
YA	-9.43137
▁Jandarma	-9.43187
▁oldukça	-9.43189
▁aşama	-9.43297
▁alınması	-9.43317
daş	-9.43425
▁gösteren	-9.43474
▁değişiklik	-9.4348
▁Hasta	-9.43494
▁Ata	-9.43586
▁borç	-9.43776
▁hastalık	-9.43811
▁gelin	-9.44032
öz	-9.44034
▁asıl	-9.44059
abilirsiniz	-9.44139
ster	-9.44189
İM	-9.44258
▁lig	-9.44277
▁Bunu	-9.44294
▁olduğuna	-9.44328
▁Büyükşehir	-9.44373
▁Yapılan	-9.44417
▁Yıl	-9.44433
▁direktör	-9.44486
▁mevcut	-9.44661
▁beklenti	-9.44664
▁Emre	-9.44668
▁edilme	-9.4474
çu	-9.44839
▁teşekkür	-9.44958
ğini	-9.45037
▁şampiyon	-9.4506
ven	-9.45093
▁Eş	-9.45148
19	-9.45265
▁gazete	-9.45351
▁yangın	-9.4542
▁düşen	-9.45613
▁başvur	-9.45669
▁Peki	-9.45692
▁pozisyon	-9.45706
▁dolu	-9.45729
▁2015'	-9.45773
▁Buna	-9.45787
▁bundan	-9.45847
▁Ti	-9.46023
▁ortalama	-9.46082
▁Sultan	-9.46159
▁insanların	-9.46169
▁alarak	-9.46232
▁bitir	-9.46371
▁getirildi	-9.46379
bilir	-9.4638
▁sanık	-9.46396
▁yalnız	-9.4646
ilmiş	-9.46472
Lİ	-9.46728
▁Uluslararas	-9.46762
vo	-9.46781
▁not	-9.46875
▁Hu	-9.46958
▁Siz	-9.46972
▁örnek	-9.47065
▁kardeşi	-9.47072
▁çıkıyor	-9.47088
▁anlaşıl	-9.47235
▁kaldırıl	-9.47319
▁getirme	-9.4752
▁Mücadele	-9.47523
▁UEFA	-9.47523
▁muhalif	-9.47523
18	-9.47546
▁hazırlık	-9.47663
▁ilçesi	-9.47724
▁BM	-9.47819
▁filmi	-9.47873
▁sigorta	-9.47982
▁üstü	-9.48066
▁lideri	-9.4814
▁gücü	-9.4818
▁ülkelerin	-9.48226
▁kıs	-9.48243
▁çıktığı	-9.48369
▁gü	-9.48377
▁diş	-9.48452
12	-9.48506
▁döndü	-9.48528
▁ortada	-9.48545
▁hain	-9.48554
î	-9.48598
▁Ağustos	-9.48752
▁olumlu	-9.48753
▁Kurumu	-9.48757
▁Önce	-9.4881
▁hatta	-9.48818
▁birinci	-9.4884
▁Milletvekili	-9.48907
▁heyecan	-9.48907
▁hastalığı	-9.49089
▁çoğu	-9.49116
▁sor	-9.4916
▁Savcı	-9.49231
▁Sayın	-9.49242
ücü	-9.49272
▁gelişme	-9.49304
umuz	-9.49345
▁trafik	-9.49373
▁üçüncü	-9.494
▁Sonra	-9.495
altı	-9.4957
▁mağdur	-9.49685
▁düşünce	-9.49697
▁ıs	-9.49763
▁Kuvvetleri	-9.49792
▁sahası	-9.49815
▁müdür	-9.49898
▁oynaya	-9.49908
▁dil	-9.49923
ED	-9.50048
▁işlemleri	-9.50058
▁başkanlık	-9.50064
▁Ru	-9.50125
▁geçme	-9.50286
▁örgütün	-9.50467
▁zirve	-9.50626
▁dosya	-9.5063
▁varsa	-9.5065
▁salon	-9.50663
▁gönderil	-9.50668
▁kullanıcı	-9.50673
▁kaldırıldı	-9.50741
▁70	-9.50782
▁yıllarda	-9.50792
lendirme	-9.50819
▁yüzden	-9.50925
▁aşağı	-9.50943
▁Yer	-9.50953
▁renk	-9.50996
60	-9.51078
▁halkı	-9.5108
▁Hem	-9.51095
▁hayvan	-9.511
▁sürü	-9.51108
▁servis	-9.51109
▁topu	-9.51151
abileceği	-9.51178
gı	-9.51189
▁dinle	-9.51218
▁edilmiş	-9.51235
▁temsil	-9.51242
▁Samsun	-9.5126
▁ilaç	-9.51264
▁Dur	-9.51266
▁sır	-9.51349
köy	-9.5137
▁Havalimanı	-9.51417
▁sınıf	-9.51434
▁kendisi	-9.51466
▁uçağı	-9.51591
▁bilim	-9.51697
▁olmuştu	-9.51781
▁yakalandı	-9.51864
▁karşıya	-9.51866
▁öden	-9.51963
▁geçtiğimiz	-9.52086
▁Sur	-9.52108
▁indirim	-9.52155
25	-9.52173
▁kriz	-9.522
▁yaşama	-9.52314
▁öneri	-9.52372
-3	-9.5238
▁erken	-9.52388
▁yasak	-9.52415
▁yönetici	-9.52444
▁tip	-9.52498
▁maaş	-9.52542
lmaz	-9.52592
AP	-9.52727
▁vermek	-9.52734
▁Sen	-9.52735
▁civarında	-9.52818
▁gidiyor	-9.52858
leniyor	-9.52874
▁Başsavcılığı	-9.52893
▁Pazar	-9.52896
▁bulma	-9.52912
▁sürede	-9.52953
▁kırmızı	-9.53141
▁Şahin	-9.53183
gar	-9.53189
▁kalite	-9.53195
▁evinde	-9.5328
acaktır	-9.53328
İZ	-9.53387
▁Osman	-9.53393
▁git	-9.53537
▁bakım	-9.53618
▁İsmail	-9.53667
▁adres	-9.53667
ümü	-9.53718
40	-9.53748
▁Bak	-9.53761
▁Doğan	-9.5383
▁geçiril	-9.53946
▁Böyle	-9.54055
▁edeceği	-9.54077
▁Hakan	-9.54098
▁verecek	-9.54258
yse	-9.54306
▁2013	-9.54318
▁gemi	-9.54318
01	-9.54338
▁olursa	-9.54344
▁Cumhuriyeti	-9.5438
▁ediyoruz	-9.54387
▁test	-9.54434
▁yola	-9.54455
▁uç	-9.54468
▁Fakat	-9.54512
▁girme	-9.54529
ME	-9.54632
▁doğu	-9.54634
▁tutul	-9.54636
▁iptal	-9.54647
LE	-9.54673
▁peş	-9.54675
▁TV	-9.54692
▁hoca	-9.54813
▁sürüyor	-9.5483
▁olacağını	-9.54885
▁açıldı	-9.54888
▁karış	-9.54902
▁çevir	-9.54978
▁kamp	-9.54989
▁kaçır	-9.55087
▁haberi	-9.55139
DI	-9.55229
▁çıkardı	-9.55275
▁yitir	-9.55311
muyor	-9.55367
▁Haziran	-9.5547
▁attığı	-9.55553
▁gazetesi	-9.55571
▁aracın	-9.55622
▁New	-9.55632
▁arkasında	-9.55632
▁dök	-9.55635
▁İkinci	-9.55657
▁bıraktı	-9.55755
▁yaparak	-9.55794
▁Bazı	-9.55808
Dİ	-9.55876
▁gelişmeler	-9.55877
iyeti	-9.55911
▁kadınlar	-9.55925
▁maliyet	-9.55927
▁ambulans	-9.55967
▁müzik	-9.55973
▁aslında	-9.56134
▁yaklaş	-9.56173
şık	-9.56175
▁gittiği	-9.5636
▁vatan	-9.56434
▁kaldığı	-9.56475
▁düşüş	-9.56492
▁algı	-9.56555
▁İlçe	-9.56596
▁çocuğu	-9.56628
▁Kulübü	-9.56634
▁istiyorum	-9.56765
▁gösterme	-9.56772
▁45	-9.56801
▁huzur	-9.56802
müz	-9.57073
▁Baba	-9.57095
▁cenaze	-9.5711
▁endişe	-9.57139
▁görevli	-9.57149
▁Taş	-9.57184
▁gördüğü	-9.57351
▁yetkilileri	-9.57351
▁kullanılan	-9.5741
▁Savaş	-9.57475
▁rakip	-9.57476
▁devre	-9.5749
yorsunuz	-9.57504
▁alanında	-9.57548
▁şeyler	-9.57578
▁hattı	-9.57597
▁yaptıkları	-9.57633
▁kaybı	-9.57692
▁Halk	-9.57768
▁taşın	-9.578
▁kaybeden	-9.57805
dışı	-9.57812
▁eksik	-9.57825
▁Film	-9.57865
▁mah	-9.57955
▁şeyi	-9.57967
▁Komutanlığı	-9.58152
▁unsur	-9.58152
▁organ	-9.58153
▁Sanat	-9.5816
doğan	-9.58189
▁eleştiri	-9.58229
▁taşıyan	-9.58229
▁halde	-9.58265
AM	-9.58274
stik	-9.58307
▁Cami	-9.5839
OL	-9.58403
▁kayıp	-9.5842
▁yapmış	-9.58453
▁kale	-9.58467
▁katılma	-9.58503
▁çocukların	-9.58622
▁genelinde	-9.58811
▁küresel	-9.58834
▁çalıştığı	-9.58887
▁kişilik	-9.58918
▁Dün	-9.58935
makta	-9.58967
▁katılan	-9.58993
▁gizli	-9.59006
▁tedavisi	-9.59028
▁sorgu	-9.59087
▁Gazete	-9.59106
▁biliyor	-9.59119
▁problem	-9.59177
▁şehri	-9.59177
▁sanayi	-9.59189
▁paylaştı	-9.5926
▁hesabı	-9.59292
▁Bayram	-9.59355
emez	-9.5936
▁personel	-9.59367
▁denge	-9.59383
mon	-9.59476
▁bölümü	-9.59529
▁Fer	-9.59532
▁kapatıl	-9.59585
▁dünyaya	-9.59728
▁Eski	-9.59833
▁neler	-9.59876
İŞ	-9.599
kâr	-9.59908
▁çıkart	-9.59919
▁sürücü	-9.59998
Ya	-9.60083
▁Tıp	-9.60121
▁Güney	-9.60122
▁saldırısı	-9.60137
▁paylaşım	-9.60142
▁sığınmacı	-9.60213
▁Diğer	-9.60214
▁inşa	-9.60216
▁gıda	-9.60218
▁arkadaş	-9.60227
vet	-9.60325
▁Twitter	-9.60386
ışı	-9.60525
▁kaleci	-9.60536
tım	-9.60547
▁Benim	-9.6059
▁üretimi	-9.60639
▁oynama	-9.60646
▁oyunu	-9.6069
▁başı	-9.60705
▁kişilerin	-9.60718
▁ticaret	-9.60734
leştirme	-9.60761
▁Ön	-9.60866
lerimizi	-9.6089
▁Genelkurmay	-9.60908
▁TBMM	-9.60908
▁ihlal	-9.6091
▁çocukları	-9.60914
Bir	-9.60957
▁80	-9.60972
▁çünkü	-9.61083
düğünü	-9.61178
▁vatandaşların	-9.61195
▁önde	-9.61243
▁deplasman	-9.61258
▁kanun	-9.61425
▁İyi	-9.6144
▁ton	-9.61494
▁asla	-9.61597
▁zengin	-9.6161
▁ada	-9.6165
▁satıl	-9.61663
▁sok	-9.61664
▁çıkacak	-9.6171
▁devletin	-9.61752
tür	-9.61769
▁Cuma	-9.61802
▁yeterli	-9.61917
▁Kuzey	-9.61964
▁çocuğun	-9.61969
▁gerekçesiyle	-9.61976
▁yapmaya	-9.61992
▁koşul	-9.62002
mik	-9.62005
▁kupa	-9.62063
▁inşaat	-9.62244
▁telefonu	-9.62282
▁istiyoruz	-9.62415
▁am	-9.62457
▁hakları	-9.62488
▁vuruş	-9.62516
▁Gökhan	-9.62522
▁operasyonda	-9.62571
▁yerleşti	-9.62742
▁görüldü	-9.62971
madığını	-9.63007
▁müşteri	-9.63027
▁yasağı	-9.63071
▁gözü	-9.63091
Gündem	-9.63093
▁yürütülen	-9.63113
UN	-9.63118
▁Osmanlı	-9.63127
▁içi	-9.63226
▁yoktur	-9.63276
ildiği	-9.63321
TÜ	-9.63376
▁vazgeç	-9.63384
▁300	-9.63387
▁sıralarında	-9.63488
şar	-9.6349
lanarak	-9.63498
var	-9.6355
▁Arena	-9.63587
ard	-9.63592
23	-9.63592
▁turist	-9.6362
03	-9.63689
▁hafif	-9.63743
▁meslek	-9.63743
▁dolarlık	-9.63759
▁Ege	-9.63779
▁Per	-9.63813
▁kamuoyu	-9.64103
▁başladığı	-9.64104
▁çerçevesinde	-9.64132
▁ölçü	-9.64191
▁Hükümet	-9.64283
▁hepsi	-9.64307
biliriz	-9.64414
▁park	-9.64421
beyazlı	-9.64461
▁yavaş	-9.64465
▁alt	-9.64498
▁Tü	-9.64536
▁mutlaka	-9.64645
▁Sadece	-9.6465
▁Yunanistan	-9.6465
▁duruşma	-9.64651
▁önümüzde	-9.64842
▁Konya	-9.64864
▁ulaşma	-9.64873
▁Darbe	-9.65011
▁devri	-9.65017
▁gösteriyor	-9.65034
▁Hay	-9.65101
▁geldiğini	-9.65241
yken	-9.65243
▁Fo	-9.65309
▁şüphe	-9.6532
okul	-9.65368
▁hastaneye	-9.65485
rilme	-9.65621
▁satın	-9.65631
▁altı	-9.65659
▁yüzü	-9.65667
▁Yüz	-9.65757
▁gül	-9.6576
▁sayfa	-9.65923
▁Adli	-9.65939
TI	-9.65942
▁turizm	-9.66121
▁ayrıldı	-9.66179
▁Ağ	-9.66286
▁kurtar	-9.66307
paşa	-9.66406
J	-9.66495
▁ifadesini	-9.66516
▁alındığı	-9.66525
▁diren	-9.6659
▁bütçe	-9.6666
ıyorum	-9.66689
süz	-9.66729
▁verilmesi	-9.66816
▁hatırla	-9.66926
▁patla	-9.67005
▁karakter	-9.67032
▁arttı	-9.67193
▁hücre	-9.67217
larımızı	-9.67252
▁sonucunda	-9.67266
▁Proje	-9.6741
▁Göz	-9.67561
ettin	-9.67841
▁don	-9.67867
▁yaşadı	-9.67894
▁yetki	-9.67896
fo	-9.67952
▁32	-9.68006
▁olmaya	-9.68048
▁dik	-9.68049
▁ürünleri	-9.68069
IR	-9.6808
▁dağıt	-9.68157
izm	-9.68192
OR	-9.68306
▁kavga	-9.6834
▁bağış	-9.68379
▁yatırımcı	-9.68486
▁kaydeden	-9.68495
▁men	-9.68495
▁prim	-9.68572
▁Car	-9.68697
▁arası	-9.68709
▁köprü	-9.68716
▁onların	-9.68771
▁güney	-9.68829
▁çalışması	-9.68888
▁Holding	-9.68905
▁Volkan	-9.68905
▁Adalet	-9.68909
dığımız	-9.68921
▁Anne	-9.68964
▁dönemi	-9.69078
▁YPG	-9.69095
▁biçim	-9.69097
▁yeter	-9.69165
▁video	-9.69176
▁gerektiği	-9.69206
▁sağlıklı	-9.69209
▁taş	-9.6923
▁Operasyon	-9.69285
▁Suudi	-9.69286
şehir	-9.69314
▁bilme	-9.69317
▁Naz	-9.69323
▁belirlen	-9.69415
▁görüyor	-9.69441
▁süreç	-9.69565
dro	-9.69582
▁medyada	-9.696
malıdır	-9.69663
▁imha	-9.69676
ebiliyor	-9.69677
▁eleştir	-9.69725
▁oluşturul	-9.69733
yolu	-9.69775
▁Yeşil	-9.69859
▁olduklarını	-9.69862
▁rekor	-9.69868
▁düşünüyor	-9.69885
▁Lu	-9.69906
▁AKP	-9.69991
▁bekliyor	-9.70001
▁malzeme	-9.70049
laştırma	-9.70126
▁vurguladı	-9.70283
▁adliye	-9.70316
▁İz	-9.70405
▁süresi	-9.70413
▁muhalefet	-9.70431
80	-9.70444
▁Üç	-9.70599
▁doğal	-9.70759
▁süt	-9.70807
▁olmuş	-9.70878
02	-9.70985
▁çarpı	-9.71011
ow	-9.71037
▁başlayacak	-9.71062
▁temas	-9.71067
layacak	-9.71096
▁ederken	-9.71124
▁Mahkeme	-9.71153
seniz	-9.71164
▁Savunma	-9.71202
▁tutuklu	-9.71202
▁bilinen	-9.71209
▁başlat	-9.71274
▁vatandaşı	-9.71379
▁gereği	-9.71398
▁34	-9.71438
▁kuruluşları	-9.71458
▁Çetin	-9.71592
▁işletme	-9.71597
▁kapan	-9.71611
▁Ağır	-9.71692
elim	-9.71716
▁eve	-9.71759
▁denildi	-9.71784
ıyordu	-9.71822
▁saç	-9.71898
▁yapar	-9.71938
▁kurma	-9.71962
▁tahliye	-9.7198
▁bulunduğunu	-9.71981
▁sahada	-9.72039
▁öncesinde	-9.72137
45	-9.72161
▁öte	-9.72161
abileceğini	-9.72289
▁gelmesi	-9.72345
uncu	-9.72527
▁derbi	-9.72536
▁kutla	-9.72588
▁katıldığı	-9.72627
▁düşman	-9.72646
▁yaralanan	-9.72669
99	-9.72673
▁şirketi	-9.72722
▁müsabaka	-9.72763
▁eyalet	-9.72764
▁bebek	-9.72767
leyecek	-9.72903
▁ihbar	-9.7296
▁rakibi	-9.7296
▁Uzun	-9.72964
▁Ordu	-9.72969
▁terk	-9.73018
▁yararlan	-9.7313
▁bulutlu	-9.73157
▁Şirket	-9.73158
▁kimlik	-9.73171
▁buluştu	-9.73326
▁Şırnak	-9.73355
▁bilgileri	-9.73412
▁milletin	-9.73459
▁yarışma	-9.73477
PDY	-9.73556
▁yalan	-9.73598
▁yaşamını	-9.73609
▁meş	-9.73664
imizin	-9.73699
Bahçe	-9.73706
▁toplantısında	-9.73778
W	-9.7384
▁töreni	-9.73886
öğretim	-9.73913
▁istediğini	-9.74026
▁görüştü	-9.7406
16	-9.74111
▁iletişim	-9.7415
▁hakaret	-9.7415
▁yaşandı	-9.74185
▁yuva	-9.74202
▁istikrar	-9.74349
▁görülen	-9.7441
▁düşünüyorum	-9.74424
▁alıp	-9.74447
▁kesil	-9.74467
▁kendilerine	-9.74475
▁nüfus	-9.74549
▁onay	-9.74554
lerimizin	-9.746
her	-9.74602
90	-9.74759
▁aşırı	-9.74774
▁sıkı	-9.74811
▁skor	-9.74966
▁gösteril	-9.75056
▁Bilgi	-9.75057
▁karşılaş	-9.75093
▁bırakıl	-9.75138
▁Bütün	-9.75151
▁cinsel	-9.75187
LA	-9.75203
▁etmiş	-9.75241
▁açılan	-9.75307
lamaya	-9.75349
▁gerçekleşti	-9.75395
▁Ter	-9.75404
▁uygulaması	-9.75417
▁isti	-9.75433
▁Direktörü	-9.75497
▁strateji	-9.75555
▁Yıldız	-9.75556
▁farkı	-9.75584
landığını	-9.75613
▁paket	-9.75621
▁Okul	-9.75627
▁söylen	-9.75744
▁cinayet	-9.75757
▁adamı	-9.75853
▁mesajı	-9.7586
inizi	-9.75929
ARA	-9.75929
ecektir	-9.75959
▁Enerji	-9.7596
▁binlerce	-9.75968
▁noktada	-9.76096
▁size	-9.76257
▁Arap	-9.76494
▁istihdam	-9.76571
şim	-9.76612
11	-9.7667
▁edilecek	-9.7671
▁bugüne	-9.76753
▁Komisyonu	-9.76776
▁Gök	-9.76856
arım	-9.76923
▁anlamda	-9.77076
▁batı	-9.77079
amayan	-9.77176
▁siyah	-9.77188
▁belki	-9.77191
▁dönemin	-9.77244
▁yaka	-9.77287
larımızın	-9.77309
▁Kayseri	-9.77366
▁tazminat	-9.77392
▁Hayat	-9.77444
▁Böylece	-9.77518
▁%	-9.77524
▁kuruş	-9.77528
07	-9.77581
▁Asya	-9.77583
▁Büyükelçi	-9.77598
dri	-9.77611
▁cep	-9.77617
▁acil	-9.77625
▁bunların	-9.77725
▁harekete	-9.77731
▁sorunları	-9.77756
▁çarptı	-9.77805
▁yerel	-9.77855
▁tecrübe	-9.78012
▁belirtilen	-9.78013
▁dua	-9.78022
▁kaçak	-9.78033
▁amacı	-9.78048
▁Çal	-9.78122
▁değerlendiril	-9.78141
▁yaptığını	-9.78356
▁Başbakanı	-9.78365
▁gözaltı	-9.78397
▁Arabistan	-9.78427
▁uyar	-9.78564
▁nöbet	-9.78635
▁sürdü	-9.78651
▁36	-9.787
▁Yapı	-9.78712
▁projesi	-9.78774
▁geçirdi	-9.78795
▁altyapı	-9.78844
▁kapasite	-9.78844
▁yayımlan	-9.78866
▁performans	-9.78983
lanmıştı	-9.78991
lenmiş	-9.78992
yol	-9.79048
▁Sinan	-9.79098
▁seyahat	-9.79263
▁zanlı	-9.79263
▁sinema	-9.79281
▁uzat	-9.79282
▁göçmen	-9.793
▁oyuncusu	-9.79314
▁oynadığı	-9.79347
▁oynanan	-9.79392
▁ayrılma	-9.794
▁Düz	-9.79551
▁adını	-9.79656
▁bırakma	-9.79668
▁Putin	-9.79684
▁liraya	-9.79688
▁Sanayi	-9.79692
▁kampanya	-9.79724
▁sap	-9.79789
▁etmişti	-9.7983
▁toplu	-9.79962
▁doldur	-9.80106
▁olmasını	-9.80138
▁Ödül	-9.8015
ebilirsiniz	-9.80211
▁açıklandı	-9.80234
▁oldukları	-9.80274
▁Sabah	-9.8033
amıyor	-9.8034
▁dünyası	-9.80357
▁giderek	-9.80379
▁Turan	-9.80419
▁kararlı	-9.80466
▁şirketler	-9.80472
▁Belçika	-9.8053
▁çağır	-9.80531
▁Aziz	-9.80543
▁sağlığı	-9.80621
▁süreçte	-9.80725
▁Musul	-9.80745
▁evine	-9.80774
▁kavuş	-9.80956
▁Orman	-9.80964
▁gecesi	-9.81068
▁Selçuk	-9.8117
▁Grup	-9.81172
▁yerini	-9.81178
▁görüşmeler	-9.81182
▁Arda	-9.81265
▁sonuçları	-9.81277
baş	-9.81278
▁saldır	-9.81382
X	-9.81384
▁Başakşehir	-9.81384
▁olabileceği	-9.81393
▁bal	-9.81421
▁toplantısı	-9.81519
leyici	-9.8154
▁zorlu	-9.81553
FETÖ	-9.81553
▁güncelleme	-9.81616
▁doku	-9.81753
▁umut	-9.81817
IM	-9.81856
▁Beyaz	-9.81858
▁hali	-9.81872
türk	-9.81885
▁adli	-9.81956
▁vurdu	-9.82019
Cumhurbaşkanlığı	-9.82029
▁Paris	-9.82033
▁duyuru	-9.82046
▁olmadı	-9.82052
▁tık	-9.82052
NA	-9.82189
▁ertele	-9.8219
▁istihbarat	-9.82245
▁grubu	-9.8226
▁örgütleri	-9.82296
▁gördük	-9.82351
▁kaybetme	-9.82383
▁payı	-9.82415
▁bölümünde	-9.8244
▁Apple	-9.82461
▁kahraman	-9.82461
▁şeker	-9.82462
▁Asker	-9.82475
▁memur	-9.82476
bul	-9.8251
▁deneyim	-9.82681
▁kura	-9.82697
▁kurulan	-9.82701
tiğini	-9.82764
▁yedi	-9.82764
▁hac	-9.82767
▁duyurdu	-9.82787
70	-9.82798
▁süredir	-9.82877
▁haberine	-9.82881
▁iPhone	-9.82896
▁anlayış	-9.82897
▁ez	-9.83073
▁değişim	-9.83134
▁iade	-9.83142
▁kapalı	-9.83162
▁ilgilen	-9.83182
▁özgü	-9.83195
▁sağlamak	-9.83247
▁edeceğiz	-9.83307
▁2012	-9.83402
▁uyu	-9.83412
▁başlıyor	-9.8345
▁yapılıyor	-9.83469
▁Toto	-9.83499
▁Trabzon	-9.83526
14	-9.83595
▁karıştı	-9.83726
▁milletvekili	-9.8377
▁sokağa	-9.83792
▁bunları	-9.83814
▁kişiyi	-9.83827
▁yönetmen	-9.83868
▁sürdürdü	-9.83896
▁yetkili	-9.83989
▁Albayrak	-9.8399
▁albüm	-9.84002
▁bölgeye	-9.84021
▁2011	-9.84042
▁suçlama	-9.84089
▁almaya	-9.84206
▁Dolayısıyla	-9.8421
▁Tabii	-9.84213
▁koydu	-9.84395
▁sahte	-9.84433
▁Mersin	-9.84434
▁Karşı	-9.84435
▁kaybed	-9.8447
▁taksi	-9.84492
▁tamamladı	-9.84519
▁maddesi	-9.8463
▁Bülent	-9.84652
▁Kızıl	-9.84664
▁uçuş	-9.84672
▁hala	-9.84744
▁gönderdi	-9.84746
▁imam	-9.84784
▁kullanan	-9.84787
▁ölümü	-9.8483
▁anlama	-9.84871
▁tablo	-9.84874
▁kuzey	-9.84895
önü	-9.84981
▁konser	-9.85108
▁namazı	-9.85114
▁hat	-9.85193
▁özelliği	-9.85206
▁sayılı	-9.85293
▁Madrid	-9.85319
▁Amerikan	-9.85326
▁For	-9.85392
▁uyum	-9.85424
▁sizin	-9.8547
▁Roma	-9.85486
▁hazırlanan	-9.8551
▁kentinde	-9.85524
▁şans	-9.85531
▁yükseldi	-9.85531
▁Ukrayna	-9.85542
▁şahs	-9.85554
abilmek	-9.85557
▁beyaz	-9.85563
95	-9.85574
▁davran	-9.85629
▁faaliyetleri	-9.85741
▁teşvik	-9.85766
▁hızla	-9.85802
▁dalga	-9.86
▁beğen	-9.86004
▁Öztürk	-9.86027
▁olmalı	-9.86072
▁geçirme	-9.86182
▁şirketin	-9.86379
▁adeta	-9.86388
17	-9.86395
▁Afrika	-9.8644
▁bağımsız	-9.86441
▁akıllı	-9.86452
▁zam	-9.86517
▁sebebi	-9.86587
▁kadrosu	-9.86606
▁çıkması	-9.86648
▁Komutanı	-9.86666
▁Ortadoğu	-9.86666
▁istifa	-9.86697
▁aklı	-9.86731
▁aşk	-9.86809
▁33	-9.86847
▁Vali	-9.86922
▁onları	-9.86963
▁göç	-9.86993
▁tuttu	-9.87
▁üzerindeki	-9.87067
▁ihale	-9.87121
▁motor	-9.8716
▁söyleme	-9.87208
▁taşıma	-9.87387
▁cenazesi	-9.87611
▁beklenen	-9.87625
▁Dev	-9.8763
▁araba	-9.87639
▁güçlendir	-9.87801
▁öğle	-9.87802
▁üretici	-9.87842
▁olmasına	-9.87856
ÜN	-9.87908
▁Denizli	-9.87958
▁tüketici	-9.88059
▁kanal	-9.88091
▁alır	-9.8817
▁Binal	-9.88225
▁yapması	-9.88231
▁götürüldü	-9.88274
▁katı	-9.88296
▁başkenti	-9.88401
▁rejimi	-9.88418
▁merkezinde	-9.88487
+	-9.8849
▁Vakfı	-9.8849
▁esas	-9.88684
▁meyve	-9.88721
layacağı	-9.88878
▁plakalı	-9.88951
▁Fransız	-9.88952
▁Uğur	-9.88952
▁yetkililer	-9.88982
tuğ	-9.89135
▁golü	-9.8914
▁suçundan	-9.89186
▁irade	-9.89192
ebileceği	-9.89292
▁kullanımı	-9.8948
▁ticari	-9.89647
▁deprem	-9.89648
▁edip	-9.89652
▁şok	-9.89654
▁olacaktır	-9.89716
▁kaybettiği	-9.89734
▁sayısının	-9.89754
▁kendilerini	-9.89805
▁pas	-9.8983
▁Takımı	-9.89857
▁düzenlediği	-9.89867
▁Federasyonu	-9.89881
▁trafiğ	-9.89881
▁Abdullah	-9.89887
▁dönüşüm	-9.89946
▁alınma	-9.89984
▁boy	-9.90068
▁kaynağı	-9.90126
▁komuta	-9.90128
▁güneş	-9.90172
▁yaparken	-9.90175
▁verdiğini	-9.90193
▁kazanan	-9.90217
▁intihar	-9.90348
▁Bahçeli	-9.90353
▁gerçekten	-9.90561
▁Fırat	-9.90584
▁hayır	-9.90589
▁Sağ	-9.90637
▁herkesin	-9.90656
▁bilgisayar	-9.90819
▁bahçe	-9.90819
▁kritik	-9.90819
▁Karadeniz	-9.9082
▁Herkes	-9.9083
leyerek	-9.90865
kırmızılı	-9.90927
▁alış	-9.90928
▁sürpriz	-9.91054
▁helikopter	-9.91291
▁Turizm	-9.91302
▁Onun	-9.91417
▁Tor	-9.91449
▁yaşıyor	-9.91477
▁tasarım	-9.91693
▁protesto	-9.91765
▁Ünlü	-9.91767
▁istemiyor	-9.91772
▁örgütünün	-9.91857
▁Moskova	-9.92003
▁itiraz	-9.92003
▁makam	-9.92029
luğunu	-9.92157
layıp	-9.92241
▁harekat	-9.92243
▁makine	-9.92263
▁Artık	-9.92291
▁Facebook	-9.92481
▁alışveriş	-9.92481
▁milletvekilleri	-9.92481
▁kamyon	-9.92482
▁etkinlik	-9.925
▁gönderildi	-9.9254
▁balık	-9.92581
▁Ulu	-9.92631
▁Dündar	-9.92726
▁hasar	-9.92744
▁vücudu	-9.92961
▁Ticaret	-9.92961
▁avantaj	-9.92961
▁enflasyon	-9.92961
▁komşu	-9.92962
▁Ramazan	-9.92962
▁TSK	-9.92964
▁York	-9.92965
▁köyü	-9.93058
▁Azerbaycan	-9.93202
▁edeme	-9.93212
▁yaşandığı	-9.93273
▁kenar	-9.93338
▁sitesinde	-9.93351
▁çekme	-9.93365
▁sağlayan	-9.93372
▁Yusuf	-9.93444
▁denetim	-9.93453
▁Mardin	-9.93456
▁Salih	-9.93474
▁Bursaspor	-9.93486
▁mesele	-9.93501
▁suyu	-9.93518
▁Konseyi	-9.93686
▁bedeli	-9.93717
iyordu	-9.93918
▁aykırı	-9.93929
▁İpek	-9.93931
▁alması	-9.94063
&	-9.94172
▁bıçak	-9.94172
▁düzel	-9.94172
▁Açık	-9.94188
▁sebebiyle	-9.94257
▁Demokrat	-9.94416
▁Koca	-9.94464
layın	-9.94589
▁değerli	-9.9465
lacivertli	-9.9466
▁Arslan	-9.94662
▁itibarıyla	-9.94674
▁davası	-9.9469
06	-9.94713
▁raporu	-9.94828
▁zayıf	-9.94906
▁Kamu	-9.95012
▁geçici	-9.95013
▁tabi	-9.95016
▁gerekçe	-9.95032
▁belirlenen	-9.95034
▁konuşul	-9.9509
▁jandarma	-9.95151
▁doğrudan	-9.95235
▁olası	-9.95256
▁girdiği	-9.95262
▁2010	-9.95262
▁yayınlanan	-9.95326
▁bahse	-9.95347
▁temin	-9.95413
▁ihtimali	-9.95559
▁şansı	-9.95575
▁fikir	-9.9565
▁soruşturması	-9.95676
▁öldürüldü	-9.95688
▁yüzünden	-9.95712
▁euro	-9.95893
▁Fetullahçı	-9.95922
▁beslenme	-9.96031
▁Banka	-9.96134
▁Açıklamada	-9.96141
▁itibariyle	-9.96152
▁memuru	-9.96179
▁yeme	-9.96247
▁Yine	-9.96254
AZ	-9.96282
▁daire	-9.96366
▁diploma	-9.96389
hur	-9.96468
melidir	-9.96543
▁çalıştır	-9.96624
▁mensubu	-9.96638
▁soğuk	-9.96641
▁tank	-9.96714
▁Bah	-9.96844
▁getirilen	-9.96876
sızlık	-9.96882
▁çeyrek	-9.96888
▁mesafe	-9.96888
▁ekonomisi	-9.96902
▁yapılmış	-9.97029
▁alacağı	-9.97032
▁delil	-9.97072
▁arazi	-9.97079
▁uyan	-9.97101
▁İspanya	-9.97139
▁Japon	-9.9714
▁Akdeniz	-9.97142
▁fizik	-9.97155
▁hastanede	-9.97194
▁rejim	-9.9722
▁The	-9.97245
ılarak	-9.9735
▁Süleyman	-9.9739
▁Sistem	-9.97395
▁seyre	-9.97414
▁kimliği	-9.97636
▁ayağı	-9.97684
▁65	-9.97773
▁geçirildi	-9.97831
▁düzenlendi	-9.97835
▁aldığını	-9.97868
▁Özgür	-9.97895
▁Daire	-9.97902
▁iddianame	-9.97926
bahar	-9.9795
▁kurban	-9.97973
▁çizgi	-9.97988
▁liralık	-9.98044
▁dokun	-9.98086
▁heyeti	-9.98092
▁cevabı	-9.98148
▁açıklamalarda	-9.98152
▁şirketlerin	-9.9816
▁Maç	-9.98218
▁Var	-9.98227
▁başlatılan	-9.98295
▁yanına	-9.98418
▁Hatta	-9.98421
yacağını	-9.98523
▁liradan	-9.98644
▁antrenman	-9.98656
▁fabrika	-9.98656
▁Muha	-9.9881
▁oranında	-9.98865
▁Barcelona	-9.98911
▁Brezilya	-9.98911
▁Küçük	-9.98911
▁şahıs	-9.98911
▁gönül	-9.98913
▁pilot	-9.98915
▁Burak	-9.98965
▁ortamı	-9.99126
▁tamamı	-9.99153
▁köşe	-9.99167
▁İçişleri	-9.99167
▁özgürlüğü	-9.99167
▁Emin	-9.99188
▁Takım	-9.99203
▁dönme	-9.9923
▁dili	-9.99315
▁vitamin	-9.99423
▁aşı	-9.99426
▁uğraş	-9.99427
▁yakalama	-9.99439
▁Çavuşoğlu	-9.99452
▁kış	-9.99452
▁Kartal	-9.99459
▁Erdem	-9.99515
▁yetiştir	-9.99532
▁tabii	-9.99557
▁çağrısı	-9.99595
▁anlam	-9.99628
▁Kilis	-9.99735
▁performansı	-9.99766
▁açtığı	-9.99832
▁Bilim	-9.99883
▁75	-9.99887
▁komisyon	-9.99938
▁borcu	-9.99939
▁aralık	-9.99959
▁gösterdiği	-9.99962
▁bombalı	-9.99992
▁kayded	-10.0007
▁çıkarma	-10.0008
▁Vatandaş	-10.002
▁ajan	-10.0021
▁tutan	-10.0023
▁ilişkilerin	-10.0025
▁cesedi	-10.0046
▁milletimiz	-10.0066
▁sahaya	-10.0097
▁Şampiyonlar	-10.0098
▁atış	-10.0099
▁Kısa	-10.0099
▁Töre	-10.01
▁doğa	-10.0103
▁davranış	-10.0114
▁nerede	-10.0115
▁Kral	-10.0116
▁doğrultusunda	-10.0124
▁ülkelerde	-10.0124
▁kök	-10.0126
▁akıl	-10.0128
▁yansıt	-10.013
▁zemin	-10.015
▁bırakıldı	-10.0151
eçtiğimiz	-10.0152
▁sağlayacak	-10.0155
▁sürdürül	-10.0164
96	-10.0167
▁oynadı	-10.0175
▁Fakültesi	-10.0176
▁organizasyon	-10.0176
▁rahmet	-10.0176
▁kuruluşu	-10.0179
▁uzan	-10.0179
▁tarım	-10.0181
▁saniye	-10.0183
▁Metin	-10.0185
▁bozul	-10.0197
▁tribün	-10.0202
▁bağır	-10.0214
▁Üst	-10.0225
▁itfaiye	-10.0229
▁grubun	-10.0253
tion	-10.0263
▁riski	-10.0263
▁vereceği	-10.0274
▁Park	-10.0275
▁sözlerini	-10.0275
▁Clinton	-10.0282
▁Londra	-10.0282
▁Şimşek	-10.0282
▁Teknoloji	-10.0282
▁Cizre	-10.0282
▁Marmara	-10.0282
▁reklam	-10.0282
▁mobil	-10.029
leşmiş	-10.0295
▁başkanlığı	-10.0302
▁Yaklaşı	-10.0308
▁vize	-10.0309
▁ilginç	-10.0309
▁ateşkes	-10.031
▁kaldırılması	-10.0316
▁müzakere	-10.0335
▁yeşil	-10.0335
▁çök	-10.0336
▁görüşü	-10.0355
▁arttır	-10.0356
▁düzenledi	-10.0357
RA	-10.036
▁etmeyi	-10.0361
▁gurur	-10.0362
▁Toplantı	-10.0362
▁adalet	-10.0368
▁almış	-10.0381
▁yayıl	-10.0382
▁karşısına	-10.0388
▁ihraç	-10.0389
▁Brüksel	-10.0389
▁temsilcileri	-10.0391
▁düşündü	-10.0401
▁memleket	-10.0415
▁Yurt	-10.0417
▁sinir	-10.0432
▁detaylar	-10.0437
ovic	-10.0438
▁bebeği	-10.0443
▁verilecek	-10.0445
▁Terörle	-10.0447
▁diz	-10.0452
▁dizisi	-10.0458
mıyorum	-10.0463
▁fon	-10.0464
▁karşılaştı	-10.0465
▁mezun	-10.0466
▁NATO	-10.0469
▁hediye	-10.0469
▁fuar	-10.047
▁Aslan	-10.0471
▁çay	-10.0475
▁çatı	-10.0478
▁Uç	-10.0495
▁şaşır	-10.0497
▁Kongre	-10.0497
▁uyku	-10.0497
▁Silahlı	-10.0497
▁endeksi	-10.0497
▁kulübün	-10.0513
▁zorunlu	-10.0513
24	-10.0516
▁Portekiz	-10.0524
▁şifre	-10.0524
▁teröristlerin	-10.0539
▁duvar	-10.0551
▁Persie	-10.0551
▁idare	-10.0552
▁ışık	-10.0555
▁dolayısıyla	-10.0557
▁harcama	-10.0559
▁tavsiye	-10.0578
▁Sivas	-10.0578
▁Eskişehir	-10.0579
▁modeli	-10.058
▁yağışı	-10.0582
▁parçası	-10.0583
▁getirdiği	-10.0596
▁kurtarıl	-10.0602
▁Ziraat	-10.0606
▁kitabı	-10.0606
▁150	-10.0607
▁birimleri	-10.061
▁ligde	-10.0615
▁lise	-10.0616
05	-10.0631
ÜR	-10.0644
▁ordusu	-10.0646
▁Merkel	-10.0661
▁Saldırı	-10.0661
▁Aşk	-10.0672
▁tren	-10.0681
▁çekiyor	-10.0683
▁aktardı	-10.0684
▁dolaş	-10.0684
▁Şanlıurfa	-10.0688
▁nefes	-10.0692
▁istismar	-10.0716
▁sigara	-10.0716
▁yürüyüş	-10.0716
▁geçtiği	-10.072
▁alınarak	-10.0721
▁meselesi	-10.0738
▁Vodafone	-10.0744
▁vücut	-10.0744
▁mağlu	-10.0744
▁Yavuz	-10.0744
▁değişikliği	-10.0744
▁Stadı	-10.0745
▁edildiğini	-10.0745
▁sağladı	-10.0745
▁talimat	-10.0747
▁fakat	-10.075
▁Belediyespor	-10.0751
▁açıklamasında	-10.0754
▁haftasında	-10.0763
▁yaygın	-10.0772
▁Çalışma	-10.0772
▁Esad	-10.0777
▁gelmiş	-10.0785
▁seyirci	-10.08
▁Ardından	-10.08
▁bölücü	-10.08
▁neredeyse	-10.08
▁yaklaşım	-10.0809
▁Fetullah	-10.0824
▁temsilcisi	-10.0828
▁Barış	-10.0831
▁gerçekleştirile	-10.0852
▁sürecinde	-10.0855
▁mevki	-10.0856
▁çatışmalar	-10.0861
▁farkında	-10.0865
ebileceğini	-10.0873
▁Günü	-10.0882
98	-10.0882
▁Beş	-10.0885
▁saldırgan	-10.0886
▁sağlama	-10.0898
▁Pereira	-10.0912
▁cemaat	-10.0912
▁Hollanda	-10.0913
▁metrekare	-10.0941
▁hoş	-10.0941
laşması	-10.0945
▁Valisi	-10.0956
▁esnaf	-10.0969
Paralel	-10.097
▁Kanunu	-10.0973
▁Kız	-10.0984
▁noktası	-10.099
▁hepimiz	-10.0993
▁Orhan	-10.0998
▁yağmur	-10.1001
lenecek	-10.1004
▁kalbi	-10.1004
TV	-10.1004
LAN	-10.1008
▁kanıt	-10.1009
▁yetiş	-10.1014
▁Ayşe	-10.1015
landırma	-10.1021
▁Washington	-10.1026
▁Muhammed	-10.1026
▁kahve	-10.1026
▁hesabından	-10.1035
▁söylediği	-10.1038
▁artması	-10.1046
▁devreye	-10.1049
▁kullanarak	-10.1051
▁Güzel	-10.1055
▁öngör	-10.1057
▁Berlin	-10.1057
▁döviz	-10.1057
abilmesi	-10.1066
▁kontrolünde	-10.1073
▁Yazı	-10.1078
Türk	-10.1079
▁hayran	-10.1083
▁kaçtı	-10.1086
▁yatır	-10.1092
▁çevresinde	-10.1094
▁olduğumuz	-10.1098
▁demokratik	-10.1112
▁Edinile	-10.1112
▁geçerli	-10.1113
▁niyet	-10.1114
▁sporcu	-10.1122
▁görevlisi	-10.1124
▁görevlileri	-10.1133
▁hikaye	-10.1141
▁slogan	-10.1141
▁militan	-10.1142
▁kanalı	-10.1146
▁stat	-10.115
▁Türkmen	-10.1163
▁Çanakkale	-10.117
▁Mısır	-10.117
▁Konyaspor	-10.1174
▁buraya	-10.1176
▁Valiliği	-10.1182
▁Kılıç	-10.1199
▁penaltı	-10.1199
▁dönüştür	-10.1201
▁Alına	-10.1202
▁gram	-10.1206
▁kurtarma	-10.1216
▁yolunda	-10.122
ASI	-10.1222
Dünya	-10.1226
▁toprağa	-10.1228
▁geçirdiği	-10.1229
▁bazen	-10.1229
▁yükseliş	-10.1245
▁alternatif	-10.1257
▁bayrağı	-10.1258
▁oynanacak	-10.1262
▁üzeri	-10.1268
▁aktif	-10.1268
*	-10.1287
▁sohbet	-10.1287
▁isabet	-10.1287
▁teklifi	-10.1287
▁Manisa	-10.1287
76	-10.1288
▁düşünül	-10.1303
▁personeli	-10.1313
luğa	-10.1314
▁virüs	-10.1316
▁husus	-10.1316
▁asist	-10.1317
▁rast	-10.1317
▁bekleme	-10.1319
▁2008	-10.132
▁Yayın	-10.1323
▁aşkın	-10.1334
▁teşkil	-10.1346
▁tabanca	-10.1356
93	-10.1374
▁imkân	-10.1375
▁olağanüstü	-10.1375
▁Hukuk	-10.1375
▁Işık	-10.138
▁mezar	-10.1385
▁mekan	-10.1388
▁koalisyon	-10.1405
▁rekabet	-10.1405
▁1-0	-10.1405
▁uzaklaştı	-10.1413
AV	-10.1413
04	-10.1427
▁başlatıldı	-10.1429
▁bayrak	-10.1435
▁maruz	-10.1435
▁başardı	-10.1437
▁TIR	-10.1447
▁sığın	-10.1465
▁açılış	-10.147
▁bekleyen	-10.1475
21	-10.1482
▁açma	-10.1493
26	-10.1493
▁şoför	-10.1495
UL	-10.1495
▁aydın	-10.15
▁kına	-10.1504
▁kurdu	-10.1504
▁kaydı	-10.1515
▁beraberlik	-10.1517
▁saf	-10.1522
▁uyuşturucu	-10.1525
▁doğalgaz	-10.1525
▁John	-10.1525
▁Büro	-10.1525
▁Serdar	-10.1526
▁sözlerine	-10.1533
▁Şenol	-10.1533
▁sil	-10.1547
Q	-10.1555
▁Özbek	-10.1555
▁Köprüsü	-10.1558
▁verici	-10.1561
▁araştır	-10.1569
▁olmayacak	-10.1576
▁üretil	-10.1578
▁olurken	-10.1582
ılır	-10.1583
▁ulaşım	-10.1585
burg	-10.1613
LU	-10.1613
▁Sekreter	-10.1615
▁itiraf	-10.1615
▁Yok	-10.1617
▁düşünme	-10.1619
▁Pro	-10.1638
▁şekil	-10.1645
▁Akhisar	-10.1646
▁üstünde	-10.1657
▁bölgedeki	-10.1668
▁duyduğu	-10.1679
▁çıkarıldı	-10.1682
▁sorumluluk	-10.1691
▁Güven	-10.1693
▁Gazi	-10.1697
▁Türkçe	-10.17
▁kıyafet	-10.1707
İstanbul	-10.1708
▁kariyeri	-10.1737
▁sermaye	-10.1738
▁görülme	-10.1749
▁bayram	-10.1768
▁aracılığıyla	-10.1768
▁birbirleri	-10.1778
▁duyul	-10.1784
▁talimatı	-10.1796
▁Google	-10.1799
▁belirtiliyor	-10.1799
▁fatura	-10.1799
▁Oyun	-10.18
▁beyan	-10.1804
▁Suçlar	-10.181
▁CEO	-10.183
▁kazı	-10.183
▁Onur	-10.1832
▁paralel	-10.1833
▁4.5	-10.1837
▁yönlendir	-10.1837
▁şef	-10.184
▁alınacak	-10.1849
▁Çevre	-10.1861
severler	-10.1864
▁gelip	-10.1877
▁yoktu	-10.1883
▁Cumartesi	-10.1892
▁meclis	-10.1892
▁danışma	-10.1893
▁sağlıyor	-10.1897
▁Çek	-10.19
▁havalimanı	-10.1923
▁Oysa	-10.1924
▁Hakim	-10.1935
amam	-10.1943
▁ettiklerini	-10.1947
▁kalem	-10.1951
▁Hollandalı	-10.1954
▁yapılır	-10.1957
▁belirledi	-10.1962
▁gidip	-10.1986
▁görülüyor	-10.1986
EV	-10.1995
▁Sözcüsü	-10.1997
▁ettikleri	-10.2004
▁gidecek	-10.2018
▁Yatırım	-10.2018
▁maddi	-10.2018
▁işgal	-10.2026
▁sorularını	-10.2041
▁kongre	-10.2049
▁böl	-10.2065
▁başlaması	-10.2069
▁geçiyor	-10.2073
▁Perşembe	-10.2081
▁teşebbüs	-10.2081
▁hamile	-10.2082
▁ölen	-10.2083
▁vererek	-10.2091
ilirken	-10.2093
▁Orada	-10.2094
▁Ermeni	-10.2107
▁Filistin	-10.2113
▁MİT	-10.2113
▁görüyoruz	-10.2124
▁yaşanma	-10.2127
▁açılması	-10.2132
▁Erzurum	-10.2145
▁dijital	-10.2145
▁hâlâ	-10.2145
▁yukarı	-10.2145
▁Örneğin	-10.2145
▁İnşaat	-10.2145
▁içeren	-10.2145
▁kesinlikle	-10.2149
▁sordu	-10.216
▁Zor	-10.2162
▁vicdan	-10.2177
▁Çarşamba	-10.2177
▁Festival	-10.2177
▁Şüpheli	-10.2177
▁uğur	-10.2177
▁Kurul	-10.2184
▁noktasında	-10.2185
▁örneği	-10.2209
▁Kaynak	-10.2209
▁heyet	-10.2217
malıyız	-10.2237
▁Tolga	-10.2241
▁kelime	-10.2249
▁muhabir	-10.2266
▁hatır	-10.2268
▁tutuklama	-10.2269
▁ortasında	-10.227
▁250	-10.2272
▁Meydanı	-10.2274
▁gayret	-10.2274
▁kurşun	-10.2275
▁Avcı	-10.2276
▁Selim	-10.2286
▁yakaladı	-10.2296
▁kırıl	-10.2296
▁Program	-10.2306
▁propaganda	-10.2306
▁yüzyıl	-10.2309
▁Demirtaş	-10.2312
▁uçakları	-10.2327
ullah	-10.2365
66	-10.2365
▁hekim	-10.2372
▁hırsız	-10.2372
▁Rapor	-10.2373
▁Ünal	-10.2374
▁kalması	-10.2395
▁hamle	-10.2406
▁izleme	-10.2408
▁Şehir	-10.2409
▁Kent	-10.2434
▁Tarım	-10.2435
▁canlandır	-10.2441
▁tartış	-10.2447
▁sağlanması	-10.2456
▁Zaten	-10.2457
Baş	-10.2458
▁THY	-10.247
göz	-10.248
▁yapıyoruz	-10.2485
▁şer	-10.2487
▁Çakır	-10.2503
▁idari	-10.2504
▁sunuyor	-10.2508
94	-10.2521
▁Usta	-10.2523
▁gözlem	-10.2534
▁Kıbrıs	-10.2536
▁Manchester	-10.2536
▁tiyatro	-10.2536
▁City	-10.2537
▁isimlerin	-10.2537
▁Yargıtay	-10.2537
▁Kerim	-10.2538
▁Çift	-10.2538
▁şiş	-10.2548
▁ordu	-10.2557
▁misafir	-10.257
▁bakış	-10.257
▁Gümüş	-10.257
▁reform	-10.257
▁Fuar	-10.2571
▁taciz	-10.2571
▁Dursun	-10.2576
▁1.5	-10.2582
▁oluştu	-10.2598
▁ekledi	-10.2599
û	-10.2603
▁Hakem	-10.2605
▁memnun	-10.261
▁tutma	-10.261
▁yaşadıkları	-10.2612
▁yöneticileri	-10.2629
▁icra	-10.2637
▁usta	-10.265
▁anlatıyor	-10.2664
▁değine	-10.267
▁Hafta	-10.2671
▁evlilik	-10.2672
▁almıştı	-10.2674
▁verildiği	-10.2687
▁kitle	-10.2704
▁potansiyel	-10.2704
▁düzenlenecek	-10.2707
▁Oyuncu	-10.2708
▁hastalıkları	-10.2709
▁basit	-10.272
▁iddiasıyla	-10.2723
▁yiy	-10.2736
▁Mahmut	-10.2738
▁standart	-10.2738
▁İnşallah	-10.2738
▁Kadıköy	-10.2738
▁Aslında	-10.2738
▁zafer	-10.2738
▁Üyesi	-10.2739
Spor	-10.2751
▁sorgulama	-10.2761
▁hissetti	-10.2762
▁öngörül	-10.277
▁Hürriyet	-10.2772
▁hikâye	-10.2772
▁mağaza	-10.2772
▁Faruk	-10.2772
▁yıkıl	-10.2775
▁açığa	-10.278
Politika	-10.2806
▁bulunul	-10.281
▁kutu	-10.2814
▁Terim	-10.2823
▁cümle	-10.2841
▁yapılacağı	-10.2864
▁verilmiş	-10.2866
▁bedel	-10.2872
▁kategori	-10.2875
▁İsveç	-10.2875
▁sars	-10.2881
▁giz	-10.2882
▁vermiş	-10.2904
▁Soruşturma	-10.2909
▁platform	-10.2909
▁istasyon	-10.291
▁Burcu	-10.291
▁roman	-10.2911
abilen	-10.2911
▁şampiyonluk	-10.292
▁yüklü	-10.2932
▁taşıyor	-10.2932
▁sahil	-10.2933
▁elbette	-10.2944
DHA	-10.2947
▁izleyici	-10.2947
▁Özdemir	-10.2954
▁vatandaşlarımız	-10.296
▁sağlam	-10.2974
▁mühendis	-10.2979
▁restoran	-10.2979
▁kavram	-10.298
▁tasarı	-10.2989
▁yaptıklarını	-10.3012
▁esnasında	-10.3014
▁roket	-10.3014
▁ihanet	-10.3014
▁alkol	-10.3017
▁gelerek	-10.3039
▁getirilmesi	-10.3047
▁gerçeği	-10.3049
▁açılışı	-10.3077
▁hüküm	-10.3078
▁sessiz	-10.3079
▁akademisyen	-10.3084
▁bilinme	-10.3084
▁tanıtım	-10.3094
▁biliyoruz	-10.3102
▁2009	-10.3112
▁Magazin	-10.3119
▁Nusaybin	-10.3119
▁Harekat	-10.3119
▁karayolu	-10.3121
▁usul	-10.3124
▁müze	-10.3125
▁Antalyaspor	-10.3128
▁hatırlatan	-10.3137
▁ülkemizde	-10.3139
▁işadamı	-10.3154
▁tüfeği	-10.3154
▁eğlence	-10.3154
▁Umut	-10.3154
▁verdikleri	-10.3156
▁edebilir	-10.3189
▁Yalçın	-10.319
▁özgürlük	-10.319
▁kilit	-10.3193
▁Topal	-10.3216
▁tuz	-10.3224
▁parlamento	-10.3225
▁garanti	-10.3225
▁takıl	-10.3267
▁gönderme	-10.3272
▁görünüm	-10.3291
▁girmesi	-10.3292
▁fragmanı	-10.3297
▁Yardım	-10.3297
▁Kasımpaşa	-10.3299
abildiği	-10.3307
▁değiştirme	-10.331
▁kullanıyor	-10.3312
▁düğün	-10.332
▁Hakkari	-10.3333
▁İsviçre	-10.3333
▁nitelik	-10.3333
▁Hizmet	-10.3333
▁Siyah	-10.3333
▁haksız	-10.3361
▁Kanal	-10.3364
▁suikast	-10.3369
▁sebze	-10.3369
▁bulduğu	-10.3374
▁sürücüsü	-10.3386
▁Ülkemiz	-10.339
▁ofis	-10.3395
▁Kurtulmuş	-10.3405
▁asgari	-10.3405
▁Sezon	-10.3405
▁tamamlandı	-10.3416
▁Paşa	-10.343
q	-10.3441
▁coğrafya	-10.3441
▁yetenek	-10.3441
▁ulusal	-10.3441
▁Pazartesi	-10.3442
▁cilt	-10.3442
▁seviyesinde	-10.3455
▁Evet	-10.3474
▁Güneydoğu	-10.3478
▁Gomez	-10.3478
▁Malatya	-10.3478
▁ısrar	-10.3478
▁ayrıntı	-10.3479
▁Emekli	-10.3479
▁sürdürüyor	-10.3486
▁tüketimi	-10.3509
▁yumurta	-10.3515
▁tavır	-10.3515
▁atama	-10.3516
▁cephe	-10.3518
▁odaklan	-10.3539
▁cam	-10.3542
▁Fed	-10.3546
▁Semih	-10.3552
▁ağaç	-10.3552
▁isteği	-10.3554
86	-10.3555
▁yakış	-10.3555
▁vermişti	-10.3557
▁Gökçe	-10.3559
▁kurumların	-10.3581
▁dolandırıcı	-10.3588
▁başbakan	-10.3588
▁işyeri	-10.3592
▁kaygı	-10.3594
▁Acil	-10.3595
▁ücretsiz	-10.3604
▁ikramiye	-10.3625
▁taban	-10.3625
▁analiz	-10.3628
▁gücünü	-10.366
▁ilave	-10.3663
▁orman	-10.3665
▁Kendisi	-10.3665
▁muhabirine	-10.3671
layıcı	-10.3692
▁senaryo	-10.37
▁Kelime	-10.37
▁Osmanlıspor	-10.3705
▁genellikle	-10.3706
▁cuma	-10.3711
▁geçmesi	-10.3718
▁nesil	-10.372
▁mektup	-10.3737
▁Ateş	-10.3741
▁lüks	-10.3742
▁kurduğu	-10.3753
▁etmiyor	-10.3758
▁çerçeve	-10.3769
▁azalma	-10.3774
▁Sneijder	-10.3775
▁Gerçek	-10.3775
▁başarısız	-10.378
başka	-10.3793
▁yiyecek	-10.3798
▁kampanyası	-10.3806
▁mevsim	-10.3813
▁Tiyatro	-10.3813
▁taziye	-10.3813
▁tarif	-10.3818
▁tuzak	-10.3819
▁ilerleme	-10.3825
▁vekil	-10.3842
▁modern	-10.3851
▁şiir	-10.3851
▁ocak	-10.3861
▁vefat	-10.3873
▁seçenek	-10.3888
▁Kenan	-10.3893
▁Maliye	-10.3896
▁Gıda	-10.3896
▁çektiği	-10.3904
79	-10.3909
▁efsane	-10.3927
▁sağanak	-10.3927
▁direkt	-10.3939
▁uydu	-10.395
▁Anahtar	-10.3965
▁kısıt	-10.3966
▁faktör	-10.4003
▁deneme	-10.4005
▁verimli	-10.4006
nuzu	-10.4028
▁yatak	-10.403
▁röportaj	-10.4042
▁Hamza	-10.4043
ddin	-10.4044
▁sürülen	-10.4053
▁gelmişti	-10.4065
▁Gençlerbirliği	-10.4081
▁Nasıl	-10.4081
▁olamaz	-10.4088
▁kulübü	-10.4097
▁Bodrum	-10.412
▁Fethullah	-10.412
▁tecavüz	-10.412
▁İdaresi	-10.412
▁redded	-10.412
▁yenilgi	-10.412
▁nişan	-10.412
▁Temsilci	-10.4159
▁barikat	-10.4159
▁Ulusal	-10.4165
▁görünüyor	-10.4166
▁ortamda	-10.417
▁kapsamda	-10.4198
▁Akademi	-10.4198
pınar	-10.4211
▁sürdüğü	-10.4212
▁Çavuş	-10.4233
▁yürüttüğü	-10.4237
▁2-0	-10.4237
▁tünel	-10.4238
▁kemik	-10.4243
▁Esed	-10.4244
▁ikna	-10.4244
▁korunması	-10.4247
▁bekliyoruz	-10.4247
▁kuzeyinde	-10.4275
▁tasarruf	-10.4277
▁Gönül	-10.4277
▁çanta	-10.4278
▁Finans	-10.4278
▁sağladığı	-10.4301
▁yıka	-10.4302
▁Cengiz	-10.4317
▁Ajansı	-10.4317
▁yerleşim	-10.4317
▁Kocaeli	-10.4317
▁alkış	-10.4317
▁Ozan	-10.4321
▁Köyü	-10.4323
▁tasarla	-10.4342
▁Müdür	-10.435
▁otomatik	-10.4356
▁organize	-10.4356
▁oynuyor	-10.4358
▁inanıyorum	-10.436
▁meşru	-10.4364
İYE	-10.4366
▁Donald	-10.4396
▁Hindistan	-10.4396
▁profesyonel	-10.4396
▁teşhis	-10.4396
▁Tepe	-10.4409
▁Günlük	-10.4446
İST	-10.4451
▁yetme	-10.4465
▁Riekerink	-10.4477
▁istikamet	-10.4477
▁gözyaşları	-10.4477
İYOR	-10.4477
Arkadaş	-10.4477
▁karşılığında	-10.4478
▁duruşu	-10.4479
▁festival	-10.4517
▁ithalat	-10.4517
▁motosiklet	-10.4517
▁Fikret	-10.4517
▁Mesela	-10.4519
▁tatlı	-10.452
terapi	-10.4522
.000	-10.4526
▁ağız	-10.4528
▁Odası	-10.4531
▁bünyesinde	-10.4558
▁Rizespor	-10.4558
▁gideceği	-10.4558
▁Yüce	-10.4558
▁gergin	-10.4599
◊	-10.4599
▁Sakarya	-10.4599
▁Yunan	-10.4599
▁Emir	-10.4607
▁Avusturya	-10.464
▁irtibat	-10.464
▁üzüntü	-10.464
▁Pakistan	-10.464
▁Sulh	-10.4641
▁Borsa	-10.4641
▁yaptırım	-10.4642
▁selam	-10.4663
▁nükleer	-10.4681
▁Hiçbir	-10.4681
▁TFF	-10.4681
▁Erkek	-10.4682
▁mermi	-10.4682
▁çete	-10.4685
▁Sahil	-10.4693
▁Kuvvet	-10.4694
▁dilekçe	-10.4722
▁aleyh	-10.4723
▁uygulanan	-10.4725
▁konuldu	-10.4739
▁Bank	-10.4755
▁öfke	-10.4764
▁Bozdağ	-10.4764
▁Soylu	-10.4764
▁Ümit	-10.4764
▁Yunus	-10.4765
▁Toplum	-10.4765
▁bağımlı	-10.4766
▁idam	-10.477
▁itibar	-10.478
▁olmayacağı	-10.4781
▁yemeği	-10.4791
▁çeyreğ	-10.4805
▁Yönetmen	-10.4805
▁maalesef	-10.4805
▁Resmi	-10.4806
▁resim	-10.4808
meliyiz	-10.4817
▁komp	-10.4825
▁çalışıl	-10.4837
▁hâkim	-10.4847
▁İstihbarat	-10.4847
▁kriter	-10.4847
▁Sonuç	-10.4848
▁uyma	-10.4848
▁Parlamento	-10.4889
▁Advocaat	-10.4889
▁Balıkesir	-10.4889
▁köpek	-10.4889
▁muhtemel	-10.4889
▁Oscar	-10.4889
▁lisans	-10.489
▁fikri	-10.4891
▁görüşmelerin	-10.491
▁forvet	-10.4932
▁cadde	-10.4932
▁şekli	-10.4943
▁tartışıl	-10.4944
▁oynan	-10.4946
▁cins	-10.4968
▁Kahraman	-10.4974
▁Otomobil	-10.4974
▁katliam	-10.4974
▁stres	-10.4974
▁diliyorum	-10.4979
▁kanatta	-10.4979
Devlet	-10.5011
▁ayakkabı	-10.5016
▁popüler	-10.5016
▁başrol	-10.5023
▁burun	-10.5025
▁Organiz	-10.5059
▁madalya	-10.5059
▁skandal	-10.5059
▁ulaşan	-10.5059
▁keyif	-10.5059
▁Oğuzhan	-10.5062
▁Cenk	-10.5063
▁bakımından	-10.5064
▁odasın	-10.5076
▁ağzı	-10.509
▁sıfır	-10.5102
▁Kırmızı	-10.5107
▁laf	-10.5127
▁Birçok	-10.5145
▁işveren	-10.5145
▁yüzlerce	-10.5145
▁Üniversite	-10.5154
▁yürütül	-10.5155
▁ihtimal	-10.516
▁ölç	-10.5174
▁SABAH	-10.5188
▁hücum	-10.5188
▁lezzet	-10.5188
▁sinyal	-10.5189
▁United	-10.5232
▁Sigorta	-10.5232
▁Kalkanı	-10.5232
▁söyleyerek	-10.5232
▁sorusuna	-10.5232
▁Kayserispor	-10.5237
▁düştüğü	-10.5253
▁Basketbol	-10.5276
▁Kaymakam	-10.5276
▁yedek	-10.5276
▁harita	-10.5277
▁öğret	-10.5279
▁döv	-10.5316
▁zeytin	-10.5319
▁Turkcell	-10.5319
▁egzersiz	-10.5319
▁Bekir	-10.5321
▁belirtiyor	-10.5325
▁hassasiyet	-10.5337
▁kirli	-10.5356
▁kasaba	-10.5364
▁Fatma	-10.5365
▁sunma	-10.539
ebilmek	-10.5391
▁vizyon	-10.5408
▁yurtdışında	-10.5408
▁oynayacağı	-10.5409
▁vakit	-10.5409
▁Lisesi	-10.541
▁Otel	-10.543
▁kulübe	-10.5452
▁çap	-10.5455
▁ucuz	-10.5459
▁niteliği	-10.5497
▁müziği	-10.5497
▁borsa	-10.5497
▁damga	-10.55
▁Bulut	-10.5501
▁elektronik	-10.5542
▁sponsor	-10.5542
▁cezaevine	-10.5542
▁akraba	-10.5542
▁kaybetmiş	-10.5542
▁dernek	-10.5544
▁Örgüt	-10.5545
▁Cenevre	-10.5587
▁kalabalık	-10.5587
▁Kulüp	-10.5587
▁eşliğinde	-10.5587
▁Kredi	-10.5588
▁üzül	-10.56
▁09.00	-10.5632
▁Piyasa	-10.5632
▁gidil	-10.5632
▁samimi	-10.5633
▁fileler	-10.5648
▁cumhurbaşkanı	-10.5677
▁zincir	-10.5678
▁füze	-10.5678
▁Cihan	-10.5678
▁yaşanıyor	-10.5681
▁uzay	-10.5684
Yeni	-10.5686
▁Hepsi	-10.5692
▁enfeksiyon	-10.5723
▁inşallah	-10.5723
▁KOBİ	-10.5723
efendi	-10.5724
▁ahlak	-10.5724
▁ölme	-10.573
▁başkent	-10.5742
lendirdi	-10.5745
▁Zeynep	-10.5769
▁fırtına	-10.5769
Terör	-10.5773
▁koridor	-10.5815
▁bireysel	-10.5816
▁Edirne	-10.5816
▁Gözaltın	-10.5816
▁kusur	-10.5821
▁başsağlığı	-10.5861
▁psikolojik	-10.5861
▁muayene	-10.5861
▁rezerv	-10.5861
▁şarj	-10.5861
▁Giriş	-10.5862
▁kanaat	-10.5862
▁dayanışma	-10.5909
▁Kardeş	-10.5912
▁Sınır	-10.5917
▁kuralları	-10.5938
▁Orgeneral	-10.5955
▁disiplin	-10.5955
▁abone	-10.5955
▁bilinç	-10.5955
ACAK	-10.5956
Ankara	-10.5958
▁kolaylaştır	-10.599
▁Cerablus	-10.6002
▁Parçalı	-10.6002
▁başlangıç	-10.6002
▁hendek	-10.6002
▁sabır	-10.6002
▁Andre	-10.6002
▁harika	-10.6002
▁kapsamlı	-10.6049
▁muhafaza	-10.6049
▁yürürlüğ	-10.6049
▁Ağbal	-10.6049
▁mahkum	-10.6049
▁sabit	-10.6049
▁karanlık	-10.605
Suriye	-10.6053
CİHAN	-10.6096
▁konferans	-10.6096
▁adlandır	-10.6096
▁vadeli	-10.6099
Ekonomi	-10.6101
▁Telekom	-10.6144
▁takviye	-10.6144
▁Kandil	-10.6155
▁yapama	-10.6158
▁kalkınma	-10.6167
▁görsel	-10.6192
▁miting	-10.6192
▁ışığı	-10.6195
▁Astsubay	-10.624
▁Ertuğrul	-10.624
▁Çiçek	-10.624
▁Önümüzdeki	-10.624
▁Efendi	-10.624
▁gidiş	-10.624
▁reddet	-10.624
▁Medya	-10.6241
▁Servis	-10.6243
▁çapında	-10.6244
▁tanıştı	-10.6257
mavili	-10.6272
▁memnuniyet	-10.6279
▁şikâyet	-10.6288
▁güncel	-10.6288
▁Muğla	-10.6288
▁cezalandırılma	-10.6288
▁tavrı	-10.6288
▁lanet	-10.6291
ktüel	-10.6293
▁Quaresma	-10.6336
▁ihmal	-10.6337
▁boğul	-10.6337
▁başlıklı	-10.6337
▁pasaport	-10.6385
çavuş	-10.6385
▁yürek	-10.6385
▁minibüs	-10.6434
▁İşletme	-10.6435
▁alçak	-10.6435
▁doğdu	-10.6436
▁İstiklal	-10.6484
▁çevril	-10.6484
▁Yabancı	-10.6484
▁SGK	-10.6484
▁nakli	-10.6486
Rusya	-10.6492
▁hızlandır	-10.6515
▁kilogram	-10.6533
▁müttefik	-10.6533
▁Levent	-10.6533
▁somut	-10.6533
▁blok	-10.6535
▁yurd	-10.6537
▁sunduğu	-10.6557
olog	-10.656
▁Oğuz	-10.658
′	-10.6583
▁Artvin	-10.6583
▁Elektrik	-10.6583
▁şahit	-10.6583
▁Muhammet	-10.6583
▁Boğaz	-10.6583
▁nefret	-10.6583
▁TRT	-10.6583
▁santral	-10.6584
▁Kamp	-10.6588
▁oynat	-10.6595
▁istemiyle	-10.6633
▁üssü	-10.6636
ografi	-10.6661
▁dördüncü	-10.6683
▁şehidin	-10.6683
▁zehir	-10.6683
▁muhteşem	-10.6683
▁yakıt	-10.6684
▁çadır	-10.6685
▁Mevlüt	-10.6734
▁İspanyol	-10.6734
▁geleneksel	-10.6734
▁Öksüz	-10.6734
▁Münih	-10.6734
▁sunucu	-10.6734
▁idman	-10.6734
▁milyonlarca	-10.6735
▁paylaşıl	-10.6768
▁mutabakat	-10.6784
▁uyruklu	-10.6784
▁Kerry	-10.6784
▁Tunceli	-10.6784
▁mevzi	-10.6784
▁koltuğu	-10.6785
▁galip	-10.6785
▁bizzat	-10.6785
▁cezaevinde	-10.6785
▁Birleşi	-10.6787
▁çoğunluğu	-10.6789
▁Toplam	-10.679
▁Final	-10.6811
▁miras	-10.683
Çocuğu	-10.6835
▁şebeke	-10.6835
▁sembol	-10.6836
▁mikro	-10.6836
▁Sınav	-10.6838
▁dergisi	-10.684
▁Hanım	-10.6847
▁kıyasla	-10.6874
▁randevu	-10.6887
▁söndür	-10.6887
▁İnternet	-10.6887
▁Doğru	-10.6887
▁sundu	-10.6888
▁Düşü	-10.6907
▁Android	-10.6938
▁referandum	-10.6938
▁kumpas	-10.6938
▁AVM	-10.6938
▁Mutlu	-10.6939
▁Celal	-10.6939
▁yakalay	-10.6944
▁mevzuat	-10.699
▁aktivite	-10.699
▁Adnan	-10.699
▁Petrol	-10.699
▁Muharrem	-10.7042
▁Müsteşar	-10.7042
▁Vakıf	-10.7042
▁hormon	-10.7042
▁mühimmat	-10.7042
▁tebrik	-10.7042
▁konumunda	-10.7044
▁radyo	-10.7046
▁boşanma	-10.7088
·	-10.7094
▁bonservis	-10.7094
▁Avukat	-10.7094
▁manzara	-10.7094
▁tehdidi	-10.7094
▁müjde	-10.7095
▁üstünlüğü	-10.7095
Silah	-10.71
▁sakinleri	-10.7103
▁Direktör	-10.7109
▁Şeh	-10.7141
▁zırhlı	-10.7147
▁İhracat	-10.7147
▁işadamları	-10.7147
▁ufak	-10.7147
▁Tugay	-10.7149
▁Elazığ	-10.72
▁otomotiv	-10.72
▁Taraftar	-10.72
▁litre	-10.72
▁Sabri	-10.7201
▁tansiyon	-10.7201
▁hatırlattı	-10.7203
▁sarf	-10.7239
▁Olimpiyat	-10.7253
▁Asayiş	-10.7253
▁Bingöl	-10.7253
▁otorite	-10.7253
▁Doktor	-10.7253
▁emanet	-10.7254
▁azaltma	-10.7257
▁cild	-10.7265
▁Külliye	-10.7307
▁Sorumlu	-10.7307
▁pahalı	-10.7307
▁bulgu	-10.7308
▁benzin	-10.7328
▁Başsavcı	-10.7348
▁özetle	-10.7356
▁Avustralya	-10.736
▁böbrek	-10.736
▁Tesisleri	-10.736
▁Hareket	-10.7361
▁başlatıl	-10.7393
▁Galaxy	-10.7414
▁otopsi	-10.7414
▁Turgut	-10.7415
▁kökenli	-10.7415
▁Tasarı	-10.7417
▁Pınar	-10.7418
amayacağını	-10.7433
▁layık	-10.7469
▁Müzesi	-10.7469
▁ideal	-10.7499
▁HABER	-10.7523
▁cesaret	-10.7523
▁masraf	-10.7524
▁Üstelik	-10.7524
▁Destek	-10.7524
▁Batman	-10.7524
▁Alex	-10.7525
yıldız	-10.7544
▁heykel	-10.7578
▁iftira	-10.7578
▁Görüşme	-10.7578
▁görmüş	-10.7578
▁çukur	-10.7578
▁Körfez	-10.7634
▁müthiş	-10.7634
▁açıklamıştı	-10.7634
▁Patlama	-10.7634
TÜRK	-10.7635
IYOR	-10.7637
▁masum	-10.7638
▁Gümrük	-10.7689
▁gayrimenkul	-10.7689
▁suretiyle	-10.7689
▁sıvı	-10.769
▁Seçim	-10.7692
▁uygulanacak	-10.7695
▁görülebil	-10.7723
▁Peygamber	-10.7745
▁yorgun	-10.7745
▁Bakırköy	-10.7745
▁hafıza	-10.7745
▁Diyanet	-10.7745
▁biliniyor	-10.7749
▁sürüldü	-10.7752
ByLock	-10.7801
▁hariç	-10.7802
▁Hedef	-10.7803
▁Satış	-10.7803
▁Karşıyaka	-10.7858
▁hapse	-10.7858
▁detaylı	-10.7858
▁Başkent	-10.7859
▁Engin	-10.7859
▁Akıncı	-10.786
▁protokol	-10.7915
▁Kalkınma	-10.7915
▁hitap	-10.7915
▁sekiz	-10.7917
▁yönelt	-10.7918
Hayır	-10.7924
ebilmesi	-10.7965
▁Podolski	-10.7972
▁çiçek	-10.7972
▁OHAL	-10.7972
▁mağlubiyet	-10.7972
▁kimyasal	-10.7972
▁eğilim	-10.7972
▁konvoy	-10.7972
que	-10.7973
▁duyarlı	-10.7973
▁azaldı	-10.7983
▁basketbol	-10.8029
▁Komitesi	-10.8029
▁cumartesi	-10.8029
▁Değiş	-10.803
gerçekleştirdiği	-10.8035
▁apartman	-10.8087
▁İLGİL	-10.8087
▁İddiay	-10.8087
@	-10.9385
•	-11.3792
$	-11.4
Â	-11.4761
̇	-11.5106
#	-11.5585
=	-11.6218
_	-11.6755
%	-11.6944
é	-11.7323
[	-12.0175
]	-12.0571
>	-12.2334
°	-12.3084
а	-12.3618
ˆ	-12.5747
ə	-12.6449
á	-12.6819
е	-12.8455
¦	-13.0412
ä	-13.0412
¥	-13.2181
ó	-13.2848
€	-13.4331
í	-13.6073
\	-13.7073
	-13.7073
¬	-13.8185
å	-13.8185
è	-13.8185
⁄	-13.8185
■	-14.0863
ê	-14.0863
×	-14.253
ï	-14.703
¡	-14.703
®	-14.703
ø	-14.703
⭐	-14.703
️	-14.703
ú	-14.703
^	-15.0363
£	-15.0363
Ä	-15.0363
à	-15.0363
о	-15.0363
●	-15.0363
د	-15.5362
س	-15.5362
ي	-15.5362
و	-15.5363
ا	-15.5363
ل	-15.5363
	-15.5363
É	-15.5363
Î	-15.5363
ß	-15.5363
ã	-15.5363
ƒ	-15.5363
і	-15.5363
‬	-15.5363
∂	-15.5363
☮	-15.5363
👍	-15.5363
α	-16.5354
🇹	-16.5355
🇷	-16.5356
æ	-16.5357
ć	-16.5358
ñ	-16.5359
̧	-16.536
̈	-16.5361
ة	-16.5362
ق	-16.5362
ن	-16.5362
‫	-16.5362
Ğ	-16.5362
ح	-16.5363
ر	-16.5363
غ	-16.5363
😊	-16.5363
Å	-16.5363
🏆	-16.5363
💋	-16.5363
💰	-16.5363
ù	-16.5363
ł	-16.5363
~	-16.5363
	-16.5363
Ø	-16.5363
Û	-16.5363
ē	-16.5363
μ	-16.5363
к	-16.5363
н	-16.5363
т	-16.5363
у	-16.5363
م	-16.5363
›	-16.5363
🏻	-16.5363
👑	-16.5363
🙏	-16.5363
Ñ	-16.5363
ë	-16.5363
😁	-16.5363
💧	-16.5363
(	-16.5363
Л	-16.5363
п	-16.5363
с	-16.5363
