<unk>	0
<s>	0
</s>	0
.	-3.26037
n	-3.74205
'	-4.01338
▁,	-4.08781
,	-4.12634
▁ve	-4.39062
a	-4.64701
▁bir	-4.66409
e	-4.73857
▁	-4.74916
▁"	-4.7797
k	-5.03178
▁'	-5.03266
nin	-5.25347
i	-5.26614
▁de	-5.33337
da	-5.33376
▁da	-5.33382
▁bu	-5.48124
de	-5.51934
nın	-5.54613
▁için	-5.5971
▁ile	-5.66306
ın	-5.704
in	-5.74425
na	-5.75571
ya	-5.76424
ye	-5.77817
ki	-5.85167
"	-5.89201
ne	-5.91745
▁.	-5.93607
▁n	-6.0005
▁-	-6.00623
ı	-6.0616
▁Türkiye	-6.07369
lı	-6.07393
▁Bu	-6.10306
m	-6.16901
li	-6.19339
lar	-6.20018
▁olarak	-6.2105
nı	-6.22353
▁çok	-6.26994
la	-6.27353
dan	-6.30498
den	-6.30683
p	-6.3262
ni	-6.33628
▁olan	-6.3416
le	-6.34336
si	-6.34697
▁(	-6.36433
t	-6.36545
yle	-6.36667
▁ise	-6.38847
ler	-6.38928
▁en	-6.40783
▁daha	-6.43555
nde	-6.49383
yla	-6.51963
▁ne	-6.534
r	-6.53644
:	-6.54845
-	-6.59957
▁ki	-6.6133
▁sonra	-6.61426
te	-6.61623
ta	-6.66116
▁kadar	-6.67572
nda	-6.68117
▁gibi	-6.68405
ları	-6.69736
l	-6.69981
u	-6.70773
)	-6.72261
▁lar	-6.73874
▁bin	-6.75524
▁göre	-6.78195
z	-6.78306
▁var	-6.78904
yi	-6.79795
yı	-6.79975
▁kişi	-6.81058
ce	-6.81391
leri	-6.81417
▁olduğu	-6.82856
▁yıl	-6.82949
▁yer	-6.85015
sı	-6.85323
lık	-6.86458
lik	-6.86996
▁her	-6.87024
▁olduğunu	-6.88429
▁dedi	-6.89389
▁ilk	-6.92142
▁büyük	-6.93141
▁önce	-6.94513
▁3	-6.95035
▁o	-6.95095
un	-6.96214
▁yeni	-6.96219
▁yüzde	-6.96929
▁ler	-6.97999
▁A	-6.98202
?	-6.98364
s	-6.99778
▁2	-7.00613
▁oldu	-7.01667
▁son	-7.03127
▁tarafında	-7.03287
▁ya	-7.03886
▁arasında	-7.0514
▁:	-7.06403
ca	-7.07966
▁devam	-7.0805
▁etti	-7.08099
▁diye	-7.09744
en	-7.10827
nun	-7.11718
▁İstanbul	-7.11873
▁iki	-7.14953
er	-7.15158
▁1	-7.16814
▁ardından	-7.16956
▁m	-7.17662
▁ilgili	-7.17916
▁Türk	-7.18697
▁karşı	-7.19273
▁milyon	-7.19478
▁yapılan	-7.21061
▁K	-7.21255
▁...	-7.232
▁Başkanı	-7.24459
▁iyi	-7.24461
▁terör	-7.24641
▁O	-7.24654
▁eden	-7.24868
▁değil	-7.2662
▁S	-7.28009
▁Bir	-7.29257
▁leri	-7.29719
ma	-7.29892
▁4	-7.30137
▁5	-7.30937
▁gelen	-7.32197
▁Haberleri	-7.32361
▁ları	-7.32737
▁ABD	-7.33264
▁önemli	-7.33514
▁gün	-7.33612
▁üzerinde	-7.3496
ü	-7.36081
▁söyledi	-7.36388
o	-7.36489
▁zaman	-7.36622
▁yaptığı	-7.38117
rak	-7.38419
▁ama	-7.3931
▁10	-7.396
▁15	-7.40555
▁T	-7.41185
▁içinde	-7.42159
▁Erdoğan	-7.45243
an	-7.47409
▁F	-7.4764
▁k	-7.48262
y	-7.49448
▁bulunan	-7.49562
▁;	-7.50326
▁birlikte	-7.51812
▁alan	-7.52039
▁üzerine	-7.52685
▁ifade	-7.52868
▁İ	-7.52921
▁Suriye	-7.53688
▁şekilde	-7.54845
▁B	-7.54979
▁6	-7.55208
▁Avrupa	-7.56567
▁iş	-7.57557
ndan	-7.5763
▁tüm	-7.5807
daki	-7.58138
▁konuştu	-7.58296
ğı	-7.58522
el	-7.59684
▁hem	-7.60604
▁FETÖ	-7.60832
deki	-7.61994
▁fazla	-7.62346
▁yok	-7.6316
▁aynı	-7.63775
▁ülke	-7.64235
▁Gazetesi	-7.64579
di	-7.64838
me	-7.64878
▁na	-7.65234
miz	-7.65456
▁dünya	-7.65617
▁lerin	-7.6618
▁D	-7.66387
▁nedeni	-7.66504
▁geldi	-7.66649
▁2016	-7.67767
▁kendi	-7.68944
lu	-7.69071
▁E	-7.69479
▁polis	-7.69509
▁dolar	-7.69652
▁M	-7.70372
▁!	-7.70705
▁larını	-7.70875
▁bugün	-7.70909
▁olmak	-7.71859
▁Cumhurbaşkanı	-7.71961
▁hafta	-7.7205
▁süre	-7.72431
tan	-7.73052
▁mi	-7.73165
▁yaşında	-7.7418
▁7	-7.74795
▁ların	-7.75092
al	-7.75198
▁PKK	-7.752
▁verdi	-7.75482
▁e	-7.75571
▁üzere	-7.75789
K	-7.75868
f	-7.75952
▁olması	-7.76184
▁şu	-7.76435
▁edildi	-7.76447
▁biz	-7.76477
▁şey	-7.76682
▁saat	-7.77159
▁kez	-7.77205
▁Genel	-7.77465
▁tek	-7.77956
▁a	-7.78395
▁olacak	-7.78536
▁TL	-7.78734
sa	-7.78809
▁)	-7.79274
▁diğer	-7.79412
▁Ankara	-7.79742
▁dir	-7.79783
▁i	-7.80266
▁çıktı	-7.80536
▁edilen	-7.80555
▁günü	-7.8122
▁Ç	-7.81538
▁lira	-7.81941
▁aldı	-7.82251
▁lerini	-7.8231
▁yapan	-7.82371
rek	-7.82529
mız	-7.82627
▁darbe	-7.82835
▁veya	-7.83074
▁geçen	-7.83242
lerin	-7.83251
▁doğru	-7.83434
▁ay	-7.84079
▁bile	-7.84204
▁yılında	-7.84499
▁yaptı	-7.84598
sel	-7.85378
▁G	-7.85403
­	-7.85435
▁Fenerbahçe	-7.85438
▁nin	-7.85788
▁Beşiktaş	-7.85914
▁yönelik	-7.86114
ların	-7.86559
▁Rusya	-7.87256
▁Ancak	-7.87654
▁Galatasaray	-7.87932
▁20	-7.87973
▁hakkında	-7.883
ten	-7.88847
▁sade	-7.89359
at	-7.90225
▁ni	-7.90597
▁C	-7.90839
▁özel	-7.90956
ti	-7.91219
▁para	-7.91438
▁karar	-7.91488
ş	-7.91533
▁8	-7.91634
▁nı	-7.9316
▁bazı	-7.93168
▁Spor	-7.93593
▁yerine	-7.93618
▁ediyor	-7.94085
▁sahip	-7.9426
▁güvenlik	-7.94524
▁mücadele	-7.94882
▁ortay	-7.94905
▁az	-7.95069
▁yol	-7.95404
▁nasıl	-7.95473
▁yla	-7.9625
▁yle	-7.96631
▁şöyle	-7.96669
▁?	-7.96923
▁milyar	-7.97062
▁su	-7.97325
▁Son	-7.9734
▁başka	-7.97427
▁destek	-7.97934
cı	-7.98199
S	-7.98257
▁hava	-7.98346
▁bilgi	-7.98358
▁neden	-7.98744
A	-7.99393
▁Ama	-7.99466
▁dikkat	-7.99504
▁biri	-7.99588
▁el	-7.99624
▁mı	-7.99696
▁insan	-8.00741
se	-8.01016
h	-8.0107
▁la	-8.01281
▁Temmuz	-8.01518
tı	-8.01643
▁bulundu	-8.0167
▁konusunda	-8.01745
▁böyle	-8.02066
▁nın	-8.02115
▁dır	-8.0212
g	-8.02125
▁Dünya	-8.02918
▁farklı	-8.03113
ri	-8.03377
▁H	-8.03645
mış	-8.03692
▁söz	-8.04002
ancak	-8.04212
nden	-8.04432
▁lere	-8.04618
▁yüksek	-8.04721
lü	-8.04871
▁açıklamada	-8.05184
▁z	-8.05277
dı	-8.05447
B	-8.05478
▁le	-8.06189
▁kararı	-8.0622
▁P	-8.06751
▁geri	-8.06802
▁örgütü	-8.06811
ği	-8.07376
▁başladı	-8.07554
▁Mehmet	-8.07573
dır	-8.08011
▁12	-8.08063
▁dün	-8.08189
▁lara	-8.08287
▁miz	-8.08688
d	-8.08736
▁eski	-8.08764
larla	-8.08804
▁Müdürlüğü	-8.08963
ün	-8.09159
▁altında	-8.09612
5	-8.09968
▁bulunduğu	-8.10086
▁ilişkin	-8.10304
▁kabul	-8.10931
ci	-8.1101
▁kapsamında	-8.11229
▁görev	-8.11662
▁açık	-8.1174
▁Bakanı	-8.12008
dir	-8.12155
▁an	-8.12272
▁ettiği	-8.12336
nün	-8.1242
rası	-8.12469
ra	-8.12902
lerle	-8.13245
nu	-8.14433
▁ekipleri	-8.14625
▁Sözcü	-8.14665
T	-8.14694
▁uzun	-8.15211
▁yakın	-8.15453
1	-8.15733
▁Ay	-8.15834
▁belirte	-8.15964
▁yaklaşı	-8.16021
▁9	-8.1699
çok	-8.17149
▁rağmen	-8.17951
du	-8.18467
▁hale	-8.18636
▁oğlu	-8.18737
▁çıkan	-8.19233
▁alınan	-8.19314
▁ye	-8.19455
▁konusu	-8.19825
▁Y	-8.1997
▁30	-8.20103
!	-8.2035
▁meydan	-8.20739
▁18	-8.20907
▁kadın	-8.20977
▁14	-8.21007
ması	-8.21022
▁Ben	-8.21316
siz	-8.21347
▁Bakanlığı	-8.21719
b	-8.21795
▁Biz	-8.21833
ç	-8.21951
su	-8.22087
▁bağlı	-8.22124
um	-8.22377
lerini	-8.22467
larını	-8.22577
▁saldırı	-8.22613
▁Mahallesi	-8.22702
lığı	-8.22745
▁ait	-8.22791
▁sıra	-8.22986
▁bütün	-8.23479
▁silah	-8.23852
▁oyuncu	-8.23918
▁yanı	-8.24269
▁Kurulu	-8.24445
▁üç	-8.24534
▁ikinci	-8.24562
▁olay	-8.24766
▁13	-8.2489
▁sa	-8.25846
▁konu	-8.25985
▁Başbakan	-8.2599
▁şehit	-8.26106
▁bölge	-8.26315
▁aldığı	-8.26356
▁Zaman	-8.26686
▁Ali	-8.26812
▁gözaltın	-8.26936
▁haber	-8.27271
v	-8.27497
D	-8.27549
▁ele	-8.27567
▁16	-8.2786
▁Devlet	-8.28299
▁dile	-8.28392
▁sosyal	-8.28402
▁hiç	-8.28675
▁bunu	-8.28705
▁etmek	-8.28805
▁25	-8.28846
▁17	-8.2976
▁Yeni	-8.30041
▁başarı	-8.3011
▁hareket	-8.30264
▁Yıldırım	-8.30742
▁alındı	-8.30742
üz	-8.30913
▁açıklama	-8.31073
▁11	-8.31123
lerde	-8.3116
▁kullandı	-8.31531
O	-8.31588
lere	-8.31599
▁yeniden	-8.31712
▁Parti	-8.32051
▁s	-8.32201
C	-8.32311
▁devlet	-8.32314
▁Dr	-8.32391
0	-8.32415
sal	-8.32583
▁Her	-8.32616
▁Cumhuriyet	-8.32992
/	-8.33005
▁tespit	-8.33033
▁verdiği	-8.33098
▁itibar	-8.33167
▁yine	-8.3346
lama	-8.33528
▁Sa	-8.33545
▁orta	-8.33628
▁burada	-8.33731
▁Mustafa	-8.33893
▁si	-8.33933
G	-8.33942
ur	-8.3414
▁bizim	-8.34262
▁AB	-8.34316
liği	-8.34342
▁li	-8.34427
▁siz	-8.34604
▁ekonomi	-8.34716
larda	-8.34723
▁Başkan	-8.34733
▁hiçbir	-8.34775
▁çalışma	-8.3487
yu	-8.35036
▁artık	-8.35618
▁takım	-8.35685
sız	-8.35902
cak	-8.35914
▁tır	-8.35924
▁içerisinde	-8.3602
▁anda	-8.361
▁adet	-8.36105
▁sağlık	-8.36173
▁larda	-8.36214
▁Emniyet	-8.36486
re	-8.36607
▁gol	-8.36786
▁Bunun	-8.37397
▁eğitim	-8.37433
ktan	-8.37726
▁sonrası	-8.38058
▁ceza	-8.38444
▁maç	-8.38529
cek	-8.38733
▁lerden	-8.38758
▁hayat	-8.38849
▁soruşturma	-8.39605
▁belirtildi	-8.39703
E	-8.39964
▁mız	-8.40085
▁üst	-8.40093
lara	-8.40156
▁r	-8.40205
▁ev	-8.40262
▁N	-8.40264
▁gece	-8.40278
;	-8.40691
▁kısa	-8.40744
▁CHP	-8.40972
▁sonucu	-8.41011
▁veren	-8.41077
".	-8.41129
▁toplam	-8.41232
ini	-8.41294
▁Ne	-8.41413
▁belirtti	-8.41469
M	-8.41671
▁Terör	-8.41794
▁ben	-8.4187
▁dakika	-8.41892
bilir	-8.41945
▁ayında	-8.4221
ar	-8.42403
uz	-8.4272
▁iddia	-8.42836
▁ta	-8.43085
luk	-8.43158
cağı	-8.43221
▁durum	-8.43231
yor	-8.43484
▁lı	-8.43715
▁Almanya	-8.43738
▁yardım	-8.43867
▁100	-8.44061
▁genel	-8.44152
▁hayatını	-8.44455
▁sezon	-8.44581
2	-8.44719
▁güzel	-8.44752
▁sahibi	-8.45087
▁sağ	-8.45227
larında	-8.45368
miş	-8.45371
P	-8.45475
im	-8.45522
ine	-8.45628
▁yana	-8.45714
▁Büyük	-8.45806
▁olur	-8.46046
7	-8.46691
▁24	-8.46699
çı	-8.46754
▁dışında	-8.47057
▁düzenlene	-8.47234
▁dönemde	-8.47362
▁şeklinde	-8.47539
▁50	-8.47541
▁dolayı	-8.47681
▁belirterek	-8.47713
rken	-8.47799
▁larında	-8.48174
▁tam	-8.48179
▁19	-8.48218
▁kar	-8.48276
▁ara	-8.4834
6	-8.4875
4	-8.48842
▁bunun	-8.48887
▁sırasında	-8.48889
▁teknik	-8.49211
▁Üniversitesi	-8.49344
▁kalan	-8.49693
▁tedavi	-8.49756
▁çocuk	-8.50321
▁Milli	-8.5036
▁sırada	-8.50427
ünkü	-8.50609
▁Ahme	-8.50625
▁tarihi	-8.50678
Bu	-8.51042
▁kontrol	-8.5107
▁tir	-8.511
▁basın	-8.51121
▁En	-8.51433
▁Şubat	-8.51541
▁Lig	-8.51821
▁niz	-8.51902
▁zor	-8.52329
8	-8.52982
▁nda	-8.52993
▁larına	-8.52999
▁İl	-8.53011
▁siyasi	-8.53084
▁iç	-8.53122
▁AK	-8.53222
▁ağır	-8.53325
ik	-8.53336
▁başında	-8.53445
▁özellikle	-8.53535
▁sayısı	-8.53737
▁mahkeme	-8.54023
▁eşi	-8.54097
▁kaydetti	-8.54212
▁genç	-8.54249
▁Daha	-8.54446
▁İzmir	-8.5446
▁amacı	-8.54992
▁olsun	-8.55112
▁lerinde	-8.55467
▁Ocak	-8.55954
▁çalışan	-8.56217
▁yapılacak	-8.56232
▁I	-8.56569
▁ndan	-8.56815
▁öğrenildi	-8.57327
▁U	-8.58216
▁di	-8.5856
▁geçti	-8.58741
▁önünde	-8.58883
▁geliyor	-8.59247
▁yoğun	-8.59275
çi	-8.59356
▁askeri	-8.59451
▁yandan	-8.59504
nca	-8.59853
▁edecek	-8.60033
▁izin	-8.60035
▁nden	-8.60076
▁2015	-8.6015
▁ederek	-8.6024
▁kan	-8.60299
▁şimdi	-8.60464
▁El	-8.60465
▁kaldı	-8.60679
▁hizmet	-8.60942
ba	-8.6108
▁yanında	-8.61142
▁sevk	-8.61304
▁Mart	-8.61388
sini	-8.61438
▁İlk	-8.61613
▁Irak	-8.61674
▁22	-8.61693
▁boyun	-8.61772
3	-8.61777
▁oluyor	-8.6196
▁Amerika	-8.62225
▁in	-8.62238
▁gerekiyor	-8.6236
▁altına	-8.62462
▁onlar	-8.62732
▁imza	-8.63234
▁kat	-8.63482
▁te	-8.63691
▁sene	-8.63705
▁bölgede	-8.63865
▁halinde	-8.63901
▁sistemi	-8.63985
▁yaşanan	-8.64118
▁akşam	-8.64227
▁Kara	-8.64273
▁den	-8.64411
▁dava	-8.64533
▁tekrar	-8.64571
▁aile	-8.64824
▁21	-8.64909
▁hedef	-8.64934
▁olma	-8.65153
▁başlaya	-8.65394
▁yapı	-8.65404
▁Allah	-8.65419
▁dakikada	-8.65435
▁olabilir	-8.65763
▁sı	-8.65785
cü	-8.6606
İ	-8.66123
▁dışı	-8.66271
▁..	-8.66645
▁medya	-8.66674
▁/	-8.66897
▁mu	-8.67272
00	-8.67458
▁gelecek	-8.67696
▁bomba	-8.67697
▁Bugün	-8.67741
▁dan	-8.67763
▁Ayrıca	-8.67955
▁terörist	-8.68135
▁bulunuyor	-8.68269
▁benim	-8.6837
▁yapmak	-8.68589
sine	-8.68639
▁isim	-8.6877
▁Yılmaz	-8.68854
9	-8.68894
▁40	-8.68913
▁ön	-8.6899
▁zamanda	-8.69019
▁göz	-8.69038
▁küçük	-8.69058
▁ana	-8.69133
▁olmadığını	-8.69185
▁Aralık	-8.69309
▁kötü	-8.69598
ceği	-8.69632
▁tepki	-8.69763
▁derece	-8.69801
▁durumda	-8.6984
▁sayıda	-8.69893
▁vardı	-8.70053
▁ateş	-8.70151
▁nız	-8.70182
▁eş	-8.70217
▁proje	-8.7022
▁mizi	-8.70369
▁gereken	-8.70379
▁sık	-8.70488
▁Gül	-8.70518
▁verildi	-8.70585
▁araç	-8.70781
▁Hastanesi	-8.7093
▁gerektiğini	-8.71003
▁gelir	-8.71022
iyle	-8.71054
▁28	-8.71176
L	-8.71212
▁kimse	-8.71298
▁Trabzonspor	-8.713
▁girişimi	-8.71364
▁spor	-8.71636
▁Ak	-8.71664
▁elde	-8.71665
nü	-8.71792
▁öne	-8.71834
tır	-8.71847
▁mızı	-8.71925
▁23	-8.72139
Y	-8.72399
▁mümkün	-8.72463
▁kamu	-8.72543
▁Ekonomi	-8.72598
▁takip	-8.72628
▁Euro	-8.72721
▁R	-8.72805
▁baş	-8.72907
▁İşte	-8.72917
R	-8.72932
▁Diyarbakır	-8.72981
▁verile	-8.73141
▁puan	-8.73315
▁savaş	-8.73324
▁operasyon	-8.73348
▁hemen	-8.73384
şunları	-8.73419
▁h	-8.73426
ir	-8.73654
▁`	-8.7395
▁durumu	-8.7396
ay	-8.74
▁Ö	-8.7402
▁ziyaret	-8.74199
▁Rus	-8.74297
▁örgüt	-8.7436
▁adı	-8.74508
▁ifadelerini	-8.74524
...	-8.7467
▁Ligi	-8.74898
▁ortak	-8.74921
▁saatlerinde	-8.75226
▁gerçek	-8.75275
▁serbest	-8.75595
▁uygun	-8.75709
▁Polis	-8.75747
hangi	-8.75876
▁yi	-8.75901
▁başına	-8.76032
▁yaşayan	-8.76037
sü	-8.76051
▁ciddi	-8.76247
▁ı	-8.76368
▁getirdi	-8.7641
▁Gülen	-8.76686
▁Z	-8.76712
▁suç	-8.76733
▁sabah	-8.76742
▁futbolcu	-8.76899
il	-8.77014
▁Davutoğlu	-8.77019
▁açıkladı	-8.77455
mi	-8.7755
▁Haber	-8.77692
ır	-8.77734
▁tarihinde	-8.77967
▁İran	-8.78004
▁tamam	-8.78186
▁maçı	-8.78302
▁V	-8.78411
▁yatırım	-8.78488
▁du	-8.78693
▁yerinde	-8.78698
▁konuda	-8.78817
▁Anadolu	-8.78825
▁sayı	-8.78843
▁yılda	-8.79116
sını	-8.79169
▁parti	-8.7938
▁yılı	-8.795
▁Şimdi	-8.79518
▁adına	-8.79546
▁alıyor	-8.7967
iz	-8.79797
▁ileri	-8.79909
▁satış	-8.79991
▁Belediye	-8.80126
▁olmayan	-8.80154
▁gerek	-8.80347
▁şüpheli	-8.80486
▁yılın	-8.80564
sinde	-8.8061
oğlu	-8.80753
▁Ve	-8.81043
▁söyleyen	-8.81051
▁resmi	-8.8118
▁karşısında	-8.81255
▁Antalya	-8.8131
bi	-8.81396
▁500	-8.81425
▁uluslara	-8.81602
▁adlı	-8.81623
▁Süper	-8.81787
▁),	-8.81851
▁27	-8.81962
▁can	-8.82109
dığı	-8.82219
▁maçında	-8.82301
ım	-8.82424
▁araya	-8.82537
Ş	-8.82669
▁saha	-8.82673
▁Eğitim	-8.82731
▁edilmesi	-8.82794
▁güçlü	-8.82811
▁yolu	-8.82826
▁herkes	-8.82951
▁orada	-8.83031
▁bana	-8.83119
▁uygulama	-8.83244
▁Çok	-8.83256
▁edildiği	-8.83296
▁Can	-8.83299
▁yapıldı	-8.83315
▁olmadığı	-8.83451
▁teslim	-8.83493
▁u	-8.83494
man	-8.83547
▁yayın	-8.83626
▁bunlar	-8.8379
▁milli	-8.83811
▁enerji	-8.83866
▁ayrıca	-8.83959
▁Tayyi	-8.8436
▁Sağlık	-8.84476
▁Rece	-8.84519
▁De	-8.84561
▁me	-8.84581
▁Er	-8.84669
▁Müdürü	-8.84853
▁merkezi	-8.8495
▁oyun	-8.84985
▁internet	-8.85018
▁belli	-8.85077
▁ayrı	-8.85172
▁arada	-8.85331
ken	-8.85343
▁fiyatı	-8.85587
▁Bakan	-8.85649
▁Olay	-8.85657
▁maçta	-8.85765
kça	-8.85916
▁transfer	-8.86004
▁zarar	-8.86016
▁sonunda	-8.86051
▁anlaşma	-8.86091
▁ettiğini	-8.86238
▁ter	-8.86273
▁konuşa	-8.86291
▁yerde	-8.86376
F	-8.86402
▁insanlar	-8.86456
▁hep	-8.86761
▁Öz	-8.86858
▁nde	-8.87048
▁istedi	-8.87144
▁ülkede	-8.873
▁Yardımcısı	-8.87499
▁pek	-8.8752
▁müdahale	-8.87844
▁29	-8.87979
arak	-8.88022
▁Çin	-8.88091
▁se	-8.88246
▁tarih	-8.88305
▁ma	-8.88365
us	-8.88384
▁sivil	-8.88587
▁tercih	-8.88664
▁Güvenli	-8.88828
▁Merkezi	-8.88872
▁cezası	-8.88907
▁yabancı	-8.88982
▁Hava	-8.89052
▁çekti	-8.89075
▁ilçesinde	-8.8915
vi	-8.89204
▁anne	-8.89264
▁sarı	-8.89303
diği	-8.89366
▁26	-8.89583
sıyla	-8.89757
▁Koç	-8.89806
▁Dışişleri	-8.89806
▁Birliği	-8.89822
▁uz	-8.89923
▁L	-8.89968
▁adam	-8.89976
▁lazım	-8.90109
▁isteyen	-8.90151
ö	-8.9074
▁beraber	-8.9108
▁demokrasi	-8.91135
▁Yönetim	-8.91149
▁nedenle	-8.91296
H	-8.9134
▁HDP	-8.91346
▁dı	-8.91355
▁onu	-8.91362
▁Murat	-8.91657
▁hukuk	-8.91744
▁ekibi	-8.91896
▁Mahkemesi	-8.91935
▁olsa	-8.92059
▁Ceza	-8.92167
c	-8.92443
▁canlı	-8.92641
▁toplum	-8.92744
▁bilir	-8.92749
▁Burada	-8.92807
▁Şu	-8.93063
kten	-8.93114
▁Fatih	-8.93114
U	-8.93309
▁kendisini	-8.93601
▁hazır	-8.93649
▁Alman	-8.9377
han	-8.93878
▁diyor	-8.93918
▁ünlü	-8.93967
▁İngiltere	-8.93973
▁üyesi	-8.94088
et	-8.94088
▁Trump	-8.94172
▁Nisan	-8.94174
nce	-8.94257
muz	-8.94334
▁babası	-8.94338
▁fark	-8.94341
▁anlattı	-8.94663
▁dur	-8.94672
lan	-8.94678
▁merkez	-8.94771
▁sonrasında	-8.94857
▁Deniz	-8.94892
şehir	-8.9542
ran	-8.95462
▁PYD	-8.95614
▁top	-8.95703
▁faiz	-8.95893
▁il	-8.95997
▁İlçesi	-8.96008
▁ilgi	-8.96131
▁asker	-8.96139
▁Kemal	-8.96206
▁tür	-8.96313
▁ediliyor	-8.96323
▁t	-8.96433
▁etmesi	-8.96605
sına	-8.96716
▁girdi	-8.96737
N	-8.96885
▁katıldı	-8.96975
▁yı	-8.97074
▁işaret	-8.97101
▁geçtiği	-8.97193
▁IŞİD	-8.97195
▁attı	-8.97295
ğını	-8.97321
▁giden	-8.97398
▁DAEŞ	-8.97524
I	-8.97641
▁Özel	-8.97662
▁yönetim	-8.97704
▁Ha	-8.97763
▁Merkez	-8.97765
▁dahil	-8.9777
▁adım	-8.97784
▁dair	-8.97933
▁talep	-8.97995
▁cevap	-8.9807
▁türlü	-8.98108
▁Prof	-8.98116
▁onları	-8.98164
▁bildirildi	-8.98186
mesi	-8.98226
▁metre	-8.98297
▁İki	-8.98363
▁Sarı	-8.98382
▁Aydın	-8.98568
▁kız	-8.98741
▁forma	-8.98801
▁hen	-8.9881
▁kredi	-8.98828
▁Mayıs	-8.98852
▁p	-8.98958
st	-8.99057
▁öncesi	-8.99123
▁Fransa	-8.99191
▁getiren	-8.99377
▁hızlı	-8.994
▁60	-8.9943
▁zorunda	-8.99748
▁açısında	-8.99928
▁almak	-9.00035
▁Al	-9.00052
▁Atatürk	-9.00196
niz	-9.0028
ul	-9.00344
klarını	-9.00377
▁ek	-9.00457
▁kolay	-9.00567
▁kendisi	-9.0068
▁biliyor	-9.0086
▁er	-9.00949
kları	-9.01102
▁Ma	-9.01179
▁bunları	-9.01247
▁aralarında	-9.0137
▁onun	-9.01407
▁net	-9.01502
▁elektrik	-9.01562
cu	-9.01611
▁ydi	-9.01744
▁Su	-9.01761
▁çalışmaları	-9.01797
▁yarın	-9.02071
lanan	-9.02165
▁çeken	-9.0221
▁grup	-9.02214
▁düştü	-9.02269
ndeki	-9.0235
▁düşük	-9.02626
▁Öte	-9.02669
▁yönünde	-9.02793
▁çeşitli	-9.02809
ında	-9.02874
▁döneminde	-9.02925
▁aylık	-9.02943
▁katkı	-9.0316
▁Kasım	-9.03411
▁kullanıla	-9.03683
▁alacak	-9.03734
▁sonu	-9.03764
▁yıldır	-9.0381
▁tur	-9.03832
▁alanda	-9.03838
▁sebebi	-9.03879
▁ayı	-9.03909
tir	-9.04014
▁alanı	-9.04016
▁teknoloji	-9.04023
larına	-9.04073
▁Meclis	-9.04077
▁dönem	-9.04215
▁b	-9.04263
▁Sayı	-9.04265
▁öyle	-9.04411
▁Demir	-9.04657
be	-9.04765
▁soru	-9.04786
▁dört	-9.0482
▁güçleri	-9.04849
▁gitti	-9.04974
▁yargı	-9.05089
it	-9.05096
▁ten	-9.0511
▁krizi	-9.05316
▁savunma	-9.05375
▁yapıyor	-9.05392
▁sürekli	-9.05422
ro	-9.05427
is	-9.05431
ch	-9.05556
▁arama	-9.05559
▁giren	-9.05729
▁anlatan	-9.05732
▁desteği	-9.05754
▁başta	-9.05823
▁baba	-9.06095
▁gösterdi	-9.061
▁diyerek	-9.06176
zi	-9.06243
ıyor	-9.06244
▁Kılıçdaroğlu	-9.0637
▁Sosyal	-9.0637
▁günlerde	-9.06421
▁defa	-9.065
▁deniz	-9.06551
▁larımız	-9.06667
▁yaş	-9.07111
▁Halep	-9.07133
▁31	-9.07179
▁yere	-9.0745
▁yaşadığı	-9.07547
▁kilometre	-9.07578
▁etkisi	-9.07664
▁yazılı	-9.07853
▁d	-9.07869
▁yasa	-9.07884
▁35	-9.07917
os	-9.07952
▁yani	-9.08112
▁Caddesi	-9.0812
▁biraz	-9.08186
▁Eylül	-9.08188
▁olup	-9.08204
▁dünyada	-9.0834
es	-9.0834
▁yazı	-9.0839
▁Adana	-9.0839
▁şiddet	-9.08495
▁kişiler	-9.08519
▁yapılması	-9.08527
▁gündem	-9.08537
▁hak	-9.08541
▁tutuklandı	-9.08588
▁Başkanlığı	-9.08593
▁acı	-9.08712
▁sistem	-9.08719
▁anayasa	-9.0881
▁bildirdi	-9.08926
▁beni	-9.08928
▁Ekim	-9.08974
▁Van	-9.09035
▁gerçekleştirile	-9.09043
▁oluşa	-9.09158
▁İngiliz	-9.09172
▁hangi	-9.0953
▁etkili	-9.09535
▁hasta	-9.09573
▁okul	-9.09593
▁Yani	-9.09694
▁ken	-9.09785
to	-9.09851
▁büyüme	-9.09873
▁tehdit	-9.09986
▁artış	-9.09986
▁çözüm	-9.10146
▁ydı	-9.10148
mak	-9.10349
▁değerlendirme	-9.10376
or	-9.10427
▁birkaç	-9.10534
▁temel	-9.1061
tu	-9.10629
▁bizi	-9.10656
▁ortada	-9.10764
▁kaza	-9.10884
w	-9.11008
▁Ba	-9.11158
▁teröristler	-9.11227
▁yarı	-9.11227
▁Fetullah	-9.11294
▁bekleniyor	-9.11296
▁oy	-9.11336
▁önün	-9.11413
▁vatandaşlar	-9.11425
▁ti	-9.11468
▁talebi	-9.11626
dece	-9.11676
▁atan	-9.11782
ol	-9.11871
▁Tüm	-9.11919
▁Bunlar	-9.12152
ilen	-9.12165
▁giriş	-9.1223
▁Belediyesi	-9.12276
▁Özellikle	-9.12519
▁değildir	-9.12546
▁gerekli	-9.12572
▁dış	-9.12646
ha	-9.12679
▁annesi	-9.12708
▁yanlış	-9.12811
▁Bizim	-9.12942
va	-9.13069
▁Tekni	-9.13116
▁İslam	-9.13119
▁yapacak	-9.13142
▁elinde	-9.13184
▁sert	-9.13268
▁tahmin	-9.13292
▁otomobil	-9.13337
▁Dakika	-9.13462
▁İş	-9.13493
▁45	-9.13583
▁işbirliği	-9.13601
V	-9.13843
▁etme	-9.13861
▁ulaştı	-9.13902
▁Ömer	-9.13983
▁ücret	-9.14011
▁sayesinde	-9.14113
▁sınır	-9.14194
▁yan	-9.142
▁değer	-9.14279
▁İsrail	-9.14389
▁Anayasa	-9.1444
as	-9.14447
▁Grubu	-9.1463
▁DEAŞ	-9.1476
▁Bankası	-9.14786
tik	-9.14859
▁ödeme	-9.14942
▁kaybetti	-9.15115
▁bilgiler	-9.15119
▁çalışmalar	-9.15187
▁karşılık	-9.15375
▁Futbol	-9.15654
▁başvuru	-9.15708
inde	-9.15738
▁konuşma	-9.15775
do	-9.15816
▁işlem	-9.15922
▁kazandı	-9.16023
▁yapıldığı	-9.16059
▁vardır	-9.16109
▁kim	-9.16185
▁mü	-9.16428
Ç	-9.16457
▁ona	-9.16469
▁aracı	-9.16755
▁başkan	-9.16957
▁Ş	-9.17006
▁Güneş	-9.17007
ğa	-9.17025
▁ölüm	-9.17027
▁kaydedildi	-9.17152
▁yurt	-9.17183
ça	-9.17288
▁ilan	-9.1736
▁kara	-9.17854
▁Kar	-9.17914
▁Derneği	-9.17946
▁İbrahim	-9.17946
▁plan	-9.17987
▁et	-9.17988
▁günde	-9.18045
▁evin	-9.18057
▁günlük	-9.18146
▁altın	-9.18189
▁altını	-9.1821
▁Suriyeli	-9.18223
▁beri	-9.18264
▁Haberler	-9.18353
▁tı	-9.18387
▁etkisiz	-9.18497
▁millet	-9.18501
▁Batı	-9.18513
▁kalp	-9.18535
acak	-9.18538
▁oranı	-9.1854
▁Obama	-9.18622
meyen	-9.18639
▁l	-9.18891
▁kafa	-9.18928
▁yara	-9.18986
▁veriyor	-9.19033
▁lik	-9.19105
▁buna	-9.19121
▁Bey	-9.19183
ğini	-9.19284
▁hapis	-9.19296
lük	-9.19367
▁yüz	-9.19388
▁ediyorum	-9.19399
▁g	-9.19633
▁um	-9.1978
▁Kültür	-9.19871
▁görüşme	-9.20106
▁vergi	-9.207
▁Güncel	-9.20809
▁ismi	-9.20973
▁tartışma	-9.21051
▁konut	-9.21058
▁Hüseyin	-9.21097
▁Hasan	-9.21128
▁olmaz	-9.21143
▁kendini	-9.21172
▁kullandığı	-9.21209
▁hükümet	-9.2143
▁yardımcı	-9.21451
▁başkanı	-9.21465
▁zaten	-9.21517
suz	-9.21576
▁çıkma	-9.21631
▁2014	-9.21664
▁geldiği	-9.21724
▁Çelik	-9.21799
▁geniş	-9.2182
▁Bursa	-9.21838
▁bölgesinde	-9.21883
▁yaralandı	-9.21905
▁alma	-9.21959
▁edin	-9.22013
▁sahne	-9.22131
▁emniyet	-9.222
▁yaralı	-9.22298
▁emekli	-9.22342
▁sorun	-9.22615
▁nokta	-9.22619
▁yapımı	-9.22634
▁MHP	-9.22639
▁iz	-9.2267
▁lideri	-9.22693
lo	-9.22794
▁Kupası	-9.23088
▁ilçesi	-9.23215
▁Ya	-9.23384
▁evde	-9.23387
▁ölü	-9.23468
▁telefon	-9.23591
▁lık	-9.23835
▁ailesi	-9.23839
klerini	-9.2384
▁üretim	-9.23964
▁süreci	-9.24
▁Bunu	-9.24017
sında	-9.24288
▁şirket	-9.2433
▁Geçen	-9.24484
▁arası	-9.24517
▁Kaya	-9.24593
▁Jandarma	-9.24638
▁araştırma	-9.24693
▁gerekçesi	-9.24696
▁madde	-9.24743
▁sol	-9.24858
▁yemek	-9.24867
▁hakkı	-9.25018
▁Ar	-9.25025
Türkiye	-9.25068
▁baskı	-9.25127
▁kent	-9.25388
▁Emre	-9.25518
j	-9.25744
▁takımı	-9.25747
▁2015'	-9.25787
▁Vali	-9.25839
▁programı	-9.25864
▁yorum	-9.25865
▁olumsuz	-9.25942
x	-9.25946
▁üyeleri	-9.26117
▁futbol	-9.26129
▁kurulu	-9.26157
▁yaşam	-9.26181
▁Hollanda	-9.26237
▁sona	-9.26248
▁gösteren	-9.26264
▁hakim	-9.26326
▁alarak	-9.26429
▁Şube	-9.26518
▁güç	-9.26551
▁kilo	-9.26559
▁belirlendi	-9.26721
▁Peki	-9.2675
▁durumunda	-9.26754
▁Araştırma	-9.26865
ber	-9.26887
▁etmeye	-9.26888
▁Di	-9.26942
likle	-9.26961
▁topu	-9.2701
inci	-9.2706
leme	-9.27119
▁mevcut	-9.27132
▁Uluslara	-9.27166
▁öğrenci	-9.272
▁Örgütü	-9.27209
lenen	-9.27217
▁haberi	-9.27314
maz	-9.27342
iyor	-9.27379
▁mutlu	-9.27531
▁erken	-9.27547
nız	-9.27647
▁inceleme	-9.27844
▁teşekkür	-9.27862
hi	-9.27981
▁al	-9.28023
▁düşen	-9.28047
kü	-9.28236
▁ş	-9.28274
▁UEFA	-9.2831
▁yalnız	-9.2831
▁ton	-9.28464
am	-9.28574
▁Genç	-9.28576
▁toplantı	-9.28654
ğ	-9.28689
▁film	-9.28696
▁Gaziantep	-9.28765
▁güven	-9.28828
▁hastane	-9.28847
▁pazar	-9.28921
▁Doğu	-9.28954
▁insanların	-9.29063
▁Na	-9.29179
▁saygı	-9.29347
▁Mücadele	-9.29514
erek	-9.29552
▁bilim	-9.29587
▁geç	-9.29659
ğünü	-9.29837
▁Hem	-9.29877
▁3.	-9.29943
▁yönetimi	-9.30006
ad	-9.30098
▁TV	-9.30132
▁Ağustos	-9.30273
▁Nur	-9.30447
ter	-9.3049
▁yıllarda	-9.30555
▁süren	-9.30631
▁re	-9.30725
▁olumlu	-9.30736
▁Orta	-9.30827
▁Kuvvetleri	-9.30832
fa	-9.30846
çe	-9.31132
▁Eğ	-9.31252
▁aday	-9.31258
▁kırmızı	-9.31499
▁yeri	-9.31605
▁gerekir	-9.31635
▁derin	-9.31644
▁halin	-9.31645
▁üçüncü	-9.31679
▁açıklamalar	-9.31684
▁Milletvekili	-9.31712
▁açtı	-9.31713
▁Kurumu	-9.31726
▁ediyoruz	-9.31743
▁çıkıyor	-9.31809
▁rol	-9.31835
▁dizi	-9.31839
ic	-9.31875
▁nizi	-9.3189
▁200	-9.32018
▁evinde	-9.32127
▁takımın	-9.32184
▁kaç	-9.3225
▁La	-9.32253
▁ca	-9.32264
▁açıklaması	-9.32312
▁finans	-9.32883
▁kendisin	-9.32999
▁ak	-9.33015
▁Havalimanı	-9.33058
▁önem	-9.33097
▁görüle	-9.3313
▁halkın	-9.33176
▁alınması	-9.33233
▁taş	-9.33381
▁kapı	-9.33383
▁Hakan	-9.33412
▁normal	-9.33468
ey	-9.33507
â	-9.33539
▁J	-9.33539
ip	-9.33589
▁sürede	-9.33646
▁Sur	-9.33695
▁seçim	-9.3376
▁diyen	-9.33834
ütün	-9.3395
▁baz	-9.34023
landı	-9.34173
▁Cumhuriyeti	-9.34197
▁Böyle	-9.34296
▁dolu	-9.34303
▁çocuklar	-9.34324
▁varsa	-9.34389
lerinde	-9.34504
▁tan	-9.34721
▁banka	-9.34815
▁dik	-9.34829
on	-9.34865
▁70	-9.3489
ru	-9.34931
▁İsmail	-9.34958
▁Doğan	-9.34993
mizi	-9.35134
▁birinci	-9.35194
▁Şahin	-9.35205
▁kart	-9.35361
▁kadro	-9.35384
▁mutlak	-9.35439
▁civarında	-9.35482
▁hesap	-9.35553
mez	-9.3557
▁İnsan	-9.35658
▁döndü	-9.35674
▁kızı	-9.35677
id	-9.35716
▁Başsavcılığı	-9.35774
▁bina	-9.3587
üstü	-9.35886
▁çift	-9.359
▁Re	-9.35946
hatta	-9.36079
▁yolcu	-9.36176
▁uzak	-9.36283
▁karşılaşma	-9.36313
▁beş	-9.36329
▁kayıt	-9.36361
▁Zira	-9.36408
akat	-9.36433
▁Ra	-9.3655
▁Le	-9.36621
▁Haziran	-9.36732
▁sorunu	-9.36797
teki	-9.36834
ko	-9.3686
▁ses	-9.3689
▁vurgulaya	-9.36915
▁34	-9.36956
muş	-9.37131
▁alanında	-9.37167
▁erkek	-9.37269
▁asla	-9.37272
▁örgütün	-9.37291
▁sız	-9.37302
▁din	-9.37447
▁olacağını	-9.37507
▁vermek	-9.37544
▁yürütüle	-9.37549
▁yıldız	-9.37725
▁getirildi	-9.37735
▁Baş	-9.37783
ge	-9.37965
▁yıllar	-9.37977
▁Tabi	-9.38017
▁asıl	-9.3804
▁arkasında	-9.38075
▁yaparak	-9.38216
▁sürüyor	-9.38223
▁32	-9.38595
layan	-9.38628
▁aslında	-9.38719
▁şehir	-9.38751
dü	-9.38798
▁faaliyet	-9.38868
▁İlçe	-9.38874
▁300	-9.38975
▁istediği	-9.39053
▁Kulübü	-9.39054
▁işçi	-9.39055
▁alt	-9.39075
▁lerimiz	-9.39109
▁belirlene	-9.39136
▁mülteci	-9.39168
▁2013	-9.39203
▁küresel	-9.39218
▁şeyler	-9.39219
larıyla	-9.39354
asyon	-9.39377
▁final	-9.39379
ğu	-9.3945
▁Diğer	-9.39543
▁istiyorum	-9.39564
▁ka	-9.39594
▁teklif	-9.39809
▁halde	-9.39831
▁ülkeler	-9.39847
liğe	-9.39983
▁kültür	-9.39986
▁belediye	-9.40067
▁sağlaya	-9.40133
spor	-9.40149
▁ilçe	-9.40163
▁işi	-9.40183
▁yakalandı	-9.40217
▁bilecek	-9.40272
▁düzenleme	-9.40295
▁sözleşme	-9.40501
▁yaptıkları	-9.4054
▁halk	-9.40552
▁Eski	-9.40573
▁isimler	-9.40581
Ö	-9.40622
▁petrol	-9.40668
▁80	-9.40674
▁Da	-9.40692
▁attığı	-9.40768
▁Komutanlığı	-9.40892
▁kaybı	-9.40924
▁çatışma	-9.40986
▁şeyi	-9.41049
lim	-9.41066
▁Osmanlı	-9.41101
▁Twitter	-9.41226
▁Güney	-9.41236
dur	-9.41322
▁taşıyan	-9.41393
▁çıkacak	-9.41402
▁yapmaya	-9.41403
▁fotoğraf	-9.41406
▁TBMM	-9.41419
▁genelinde	-9.41455
▁sözleri	-9.41532
▁İyi	-9.41544
▁Genelkurmay	-9.41567
go	-9.41739
▁fiyat	-9.41793
▁engel	-9.41815
▁karşıya	-9.41898
▁lider	-9.41974
▁Onlar	-9.4198
unu	-9.42002
▁90	-9.42032
▁Gökhan	-9.42091
▁Kuzey	-9.42111
▁yapma	-9.42134
iyet	-9.42207
▁Bel	-9.42262
▁verecek	-9.42267
▁operasyonda	-9.4227
▁patlama	-9.42274
▁devletin	-9.42311
▁sıkıntı	-9.42329
▁Pazar	-9.42363
▁görevi	-9.42372
▁BM	-9.42389
▁ci	-9.42426
▁ettikleri	-9.42597
▁operasyonu	-9.42689
▁2.	-9.4278
▁Cuma	-9.42797
▁trafik	-9.42838
▁gücü	-9.42871
▁sın	-9.42972
▁kaleci	-9.4298
▁Benim	-9.42997
▁vatandaşların	-9.43003
▁ihtiyaç	-9.43066
▁bilen	-9.43106
▁Kürt	-9.43272
▁çünkü	-9.43302
▁eylem	-9.43459
▁nızı	-9.43468
▁yeterli	-9.43507
lma	-9.43594
▁patlayıcı	-9.43621
▁kişilerin	-9.43643
▁hakem	-9.43709
▁Yunanistan	-9.43988
▁üniversite	-9.44113
▁Sokak	-9.4418
▁plaka	-9.44192
▁Osman	-9.4428
▁Konya	-9.44297
▁açıla	-9.44413
▁rahat	-9.44446
▁ce	-9.44505
▁ülkelerin	-9.44526
▁yasağı	-9.4456
▁gördü	-9.44571
▁gazetesi	-9.44634
▁­	-9.44771
▁YPG	-9.44777
▁başkanlı	-9.44806
▁neler	-9.44838
▁üye	-9.44841
▁uyarı	-9.44849
▁tedavisi	-9.44875
▁sebep	-9.44968
ga	-9.44981
▁Bölge	-9.45005
▁gözaltı	-9.4501
▁gösteriyor	-9.45082
▁içi	-9.45139
▁ifadesini	-9.45237
▁istiyoruz	-9.45241
▁eder	-9.45343
▁çıkar	-9.45568
▁barış	-9.45575
î	-9.45582
▁gizli	-9.45682
▁yoktur	-9.45687
▁Arena	-9.45758
▁buldu	-9.4577
▁Do	-9.45784
▁yor	-9.45847
▁cins	-9.45849
▁arta	-9.45869
▁hafif	-9.45932
▁başlattı	-9.45964
▁sıralarında	-9.46004
▁başı	-9.46052
▁medyada	-9.46053
▁ödül	-9.46201
▁sanatçı	-9.46232
▁hali	-9.46261
▁şirketi	-9.46273
▁çıkardı	-9.46292
Ü	-9.46348
gu	-9.46404
▁bağlantı	-9.46563
▁altı	-9.46654
▁sanat	-9.46672
▁kuru	-9.46745
▁Yapılan	-9.46816
▁Aile	-9.46896
▁satın	-9.46942
▁açı	-9.46946
▁İtalya	-9.46992
▁lerde	-9.46996
▁çerçevesinde	-9.47018
az	-9.47032
▁koruma	-9.47088
▁çevre	-9.47159
▁Sonra	-9.47183
▁Adalet	-9.47189
şi	-9.47245
co	-9.47335
general	-9.47395
▁arkadaşı	-9.4745
ing	-9.47477
▁arkadaşları	-9.47605
▁New	-9.47651
▁Dün	-9.47666
▁Suudi	-9.47731
▁gören	-9.47734
▁işte	-9.47835
▁çalışması	-9.47976
▁gelişme	-9.47984
▁öldü	-9.48148
▁bölümü	-9.48201
▁marka	-9.48232
▁geldiğini	-9.48244
▁yakınları	-9.48291
▁arka	-9.483
▁kaldırıldı	-9.48473
ız	-9.48474
▁önümüzde	-9.48552
▁at	-9.4863
tr	-9.48651
kan	-9.49204
▁sahada	-9.49231
▁olursa	-9.49262
miyor	-9.49292
▁etki	-9.49335
▁istiyor	-9.49379
▁Ro	-9.49506
▁Söz	-9.4951
rem	-9.49713
▁Volkan	-9.49749
▁sonucunda	-9.49971
▁kardeşi	-9.50096
▁çocukları	-9.50193
▁kaydede	-9.50254
mı	-9.50271
▁Bü	-9.50353
▁ortalama	-9.50356
▁olacağı	-9.50418
▁katıldığı	-9.50494
▁ince	-9.50604
▁kurula	-9.50617
▁ederken	-9.50697
▁siniz	-9.50721
▁AKP	-9.50737
▁Yüksek	-9.5086
▁Geç	-9.50885
▁Savunma	-9.51055
▁mış	-9.51092
▁iptal	-9.51154
▁sağlıklı	-9.51221
ve	-9.51221
Lİ	-9.51273
fi	-9.513
▁Önce	-9.51324
▁maçın	-9.51328
▁verme	-9.51563
▁sunuz	-9.51584
▁36	-9.51645
▁dönemi	-9.51702
▁Holding	-9.51809
▁oynana	-9.51828
▁İkinci	-9.51836
▁duygu	-9.51847
bilecek	-9.51877
▁öncesinde	-9.51895
▁iddiası	-9.51906
▁yüzden	-9.51956
▁imha	-9.52008
▁parça	-9.52009
▁Or	-9.52027
▁Bazı	-9.52094
▁fiyatları	-9.52115
▁öğretmen	-9.52128
▁mal	-9.52148
▁çocukların	-9.52209
▁yerli	-9.52295
▁Şampiyon	-9.52406
▁ekip	-9.52419
▁doğal	-9.52448
▁getirile	-9.525
▁aracın	-9.52508
▁yağ	-9.52515
▁boş	-9.52529
▁yüzü	-9.52551
▁olmuş	-9.52556
▁olduklarını	-9.52569
▁adliye	-9.52658
▁bölüm	-9.52745
▁benzer	-9.52817
▁f	-9.52846
▁sen	-9.52881
▁davet	-9.52898
▁örgütleri	-9.52901
▁gerektiği	-9.52993
▁herkesi	-9.53084
▁önde	-9.53102
▁yetkilileri	-9.53121
▁sin	-9.53137
▁Ağır	-9.53172
▁Kadın	-9.53234
▁75	-9.53259
▁toplantısı	-9.53299
▁Şehit	-9.53343
▁ihtiyacı	-9.5339
▁vatandaş	-9.53435
▁vurguladı	-9.53438
▁açıldı	-9.53495
▁biline	-9.5351
▁kaynak	-9.53513
),	-9.53521
▁Kan	-9.53531
▁katılan	-9.53531
▁yıla	-9.53553
▁aşırı	-9.53563
▁sınız	-9.53599
▁noktada	-9.5364
▁Mahkeme	-9.5365
▁saldırısı	-9.53694
▁olmaya	-9.53707
▁anı	-9.53926
▁başlayacak	-9.53995
▁Tıp	-9.54011
▁taraf	-9.54049
▁bulunduğunu	-9.54164
▁geleceği	-9.54242
▁hedefi	-9.54447
▁Uzun	-9.54556
▁merak	-9.54622
▁2016'	-9.54741
▁müzik	-9.54781
mıyor	-9.54815
▁binler	-9.54843
▁Şırnak	-9.54883
▁Yıldız	-9.54905
▁olmasını	-9.54925
lığa	-9.55015
▁Sultan	-9.55076
▁alıp	-9.55091
▁iktidar	-9.55293
if	-9.55347
▁demek	-9.55438
▁yaralanan	-9.55487
▁Siz	-9.55573
▁Arap	-9.55647
▁kanser	-9.55707
▁çıkış	-9.55731
▁farkı	-9.5578
▁inşa	-9.55787
ist	-9.55793
iye	-9.55814
▁hakaret	-9.55866
▁bulutlu	-9.55869
▁cami	-9.55876
▁almaya	-9.55965
▁larımızı	-9.55998
▁denildi	-9.56053
▁Enerji	-9.56061
▁iletişim	-9.56061
nci	-9.56095
▁toplantısında	-9.56109
▁adını	-9.5622
▁Ev	-9.56225
▁güvenliği	-9.56239
▁cenaze	-9.56351
▁tatil	-9.56382
▁Kayseri	-9.56448
PDY	-9.56457
▁sokağ	-9.56469
▁mesaj	-9.5658
▁miktar	-9.56634
▁doğum	-9.56665
▁Ege	-9.56707
▁uçak	-9.56712
▁söylüyor	-9.5677
▁Ara	-9.56812
▁Musul	-9.56857
▁hazırlana	-9.56938
▁yerini	-9.57002
▁korku	-9.57046
▁sonuç	-9.57116
▁görün	-9.57118
▁geçirdi	-9.57137
▁çalışıyor	-9.57175
▁düşünüyorum	-9.57269
▁numara	-9.57284
▁Mü	-9.57292
▁yavaş	-9.57414
▁gidere	-9.57494
▁sınav	-9.57553
▁galibiyet	-9.57697
▁San	-9.57741
▁yaşamını	-9.57763
üncü	-9.57766
▁halkı	-9.5777
▁Av	-9.57784
▁kendilerin	-9.57915
▁Asya	-9.57945
▁Böylece	-9.57993
▁piyasa	-9.58046
▁Direktörü	-9.58079
Biz	-9.58138
▁milletin	-9.58141
▁Kur	-9.5816
▁33	-9.58221
▁Gün	-9.58428
landığı	-9.58433
▁Sinan	-9.58469
▁istihdam	-9.58661
▁Putin	-9.58661
▁siyah	-9.58682
▁kaybeden	-9.58794
▁lerimizi	-9.58809
▁Tek	-9.58823
▁sürdü	-9.58852
▁acil	-9.58884
▁oynaya	-9.58989
▁saldırıda	-9.59068
▁filmi	-9.59088
▁sahası	-9.59159
▁anlamda	-9.59189
▁Ülke	-9.5927
▁Arabistan	-9.59271
▁Altın	-9.5932
ıl	-9.59334
▁belki	-9.59396
▁telefonu	-9.594
▁kurum	-9.59459
▁çağrı	-9.59467
▁olanlar	-9.59527
dığını	-9.59561
▁yazdı	-9.59628
mızı	-9.59678
▁Komisyonu	-9.59768
▁kuruş	-9.59772
▁sonuçları	-9.59871
▁edilecek	-9.59872
▁Se	-9.59883
▁Aziz	-9.59903
gi	-9.59922
▁hain	-9.59995
▁personel	-9.60027
▁dikkati	-9.60143
▁öğrenciler	-9.60201
▁üretimi	-9.60448
▁belirtile	-9.60551
▁yaşandı	-9.60685
ıp	-9.60699
▁Sabah	-9.60772
▁gelmesi	-9.60834
▁Be	-9.60899
▁kaldığı	-9.60947
madı	-9.61017
▁çocuğu	-9.61048
`	-9.61077
▁3'	-9.61357
▁Ü	-9.61386
▁oynadığı	-9.61487
AR	-9.61505
▁gazeteci	-9.61508
ed	-9.61517
▁Apple	-9.61551
▁Turan	-9.61589
▁Gök	-9.6166
▁sorumlu	-9.61698
▁çoğu	-9.61709
ck	-9.61935
▁W	-9.61969
tü	-9.62012
▁hala	-9.62015
▁Mo	-9.62017
▁sizin	-9.62018
▁sayısını	-9.62097
▁kalma	-9.62114
▁Şen	-9.62157
▁lu	-9.62158
▁Başakşehir	-9.62169
▁seyahat	-9.6217
▁liraya	-9.62179
▁oldukları	-9.62301
▁Belçika	-9.62376
▁Mersin	-9.62377
▁Paris	-9.62383
▁Orman	-9.62399
▁kısmı	-9.62402
oz	-9.6247
▁dahi	-9.62532
▁arttı	-9.62537
▁yasak	-9.62577
▁Trabzon	-9.62579
▁görüş	-9.62585
▁kahraman	-9.62587
▁Selçuk	-9.62588
▁Grup	-9.62604
▁tutuklu	-9.62627
▁süreçte	-9.62655
▁görevli	-9.62731
▁insanları	-9.62944
▁yapmış	-9.62952
▁adli	-9.62959
▁Cumhurbaşkan	-9.62965
▁edeceğiz	-9.63067
▁renk	-9.6307
bilirsiniz	-9.63081
▁etmiş	-9.63097
▁iPhone	-9.63221
▁aşağı	-9.63235
▁ameliyat	-9.63277
▁açıklandı	-9.63298
▁kamera	-9.63324
▁kale	-9.63332
▁soruşturması	-9.63373
30	-9.63391
▁yangın	-9.63414
▁hepsi	-9.63419
ah	-9.63444
▁işin	-9.63498
kleri	-9.6354
▁sun	-9.63566
▁sağlamak	-9.63729
ev	-9.63819
▁cı	-9.63823
▁birisi	-9.63836
▁Dolayısıyla	-9.6386
▁temsil	-9.6387
▁görme	-9.63873
▁gelişmeler	-9.63898
▁olmadı	-9.6399
▁anlamı	-9.64037
▁direktör	-9.64057
▁örnek	-9.64067
▁uzman	-9.64136
▁bölümünde	-9.64181
▁geçiş	-9.64185
▁yanıt	-9.64218
▁sıcak	-9.6422
▁hakları	-9.64312
▁gider	-9.6432
ür	-9.64336
sun	-9.64389
▁kol	-9.64393
▁65	-9.64397
▁Pa	-9.64457
mek	-9.64491
▁güncelleme	-9.64507
▁tane	-9.64509
▁kadınlar	-9.64587
▁çıktığı	-9.64609
▁kesin	-9.64655
▁lığı	-9.64673
lent	-9.64777
▁Darbe	-9.64813
ut	-9.64826
▁olayı	-9.64857
▁Beyaz	-9.64858
▁geçmiş	-9.64871
AN	-9.6488
▁Ortadoğu	-9.64933
▁gazete	-9.65009
▁eve	-9.65159
▁Ukrayna	-9.65174
▁bilgileri	-9.65243
▁düzey	-9.6531
▁ilişki	-9.65322
▁birbirin	-9.65328
▁kapalı	-9.65444
aş	-9.65489
▁edip	-9.65583
▁duyurdu	-9.65583
min	-9.65634
▁cenazesi	-9.65689
ov	-9.65696
▁oyunu	-9.65724
▁akıllı	-9.65751
▁tahliye	-9.65759
▁Ala	-9.65803
▁Bo	-9.65925
▁doğrultu	-9.66032
▁kararını	-9.66049
▁merkezinde	-9.66121
▁sak	-9.66132
▁deplasman	-9.66173
▁başlıyor	-9.66212
▁işlemleri	-9.66213
▁yapılıyor	-9.66254
▁vurdu	-9.66261
▁milletvekili	-9.66292
▁yüzünde	-9.66383
Z	-9.66414
▁isiml	-9.66442
▁vatan	-9.66463
▁kavga	-9.66511
▁aça	-9.6653
▁tehlike	-9.6666
▁Madrid	-9.66674
▁gecesi	-9.66678
ör	-9.66736
▁gerçekte	-9.66851
▁örgütünü	-9.6688
▁park	-9.66894
rma	-9.66915
▁Albayrak	-9.66922
diğini	-9.6696
Bir	-9.66989
▁beyaz	-9.67023
▁adamı	-9.67079
yip	-9.67119
▁Tan	-9.67136
Ben	-9.67202
▁%	-9.67219
▁bıraktı	-9.67226
▁Afrika	-9.67335
▁kendilerini	-9.67449
▁maddesi	-9.67495
▁sıkı	-9.67496
▁Denizli	-9.67536
▁model	-9.67542
▁uygulaması	-9.67543
▁ürün	-9.6757
▁cep	-9.67578
▁firma	-9.67616
luğu	-9.67769
▁Müslüman	-9.67803
▁diş	-9.67936
▁Başbakanı	-9.68
▁dönemin	-9.68
▁lardı	-9.68015
▁liği	-9.68055
▁Komutanı	-9.6807
▁golü	-9.68346
▁gerçekleşti	-9.68353
▁2012	-9.68455
▁vermesi	-9.68571
▁zengin	-9.68579
DE	-9.68645
▁2011	-9.68668
▁teşvik	-9.68669
▁2'	-9.6878
▁hızla	-9.68803
▁oyuncusu	-9.68836
▁yaptığını	-9.68858
▁yiz	-9.68888
▁Öztürk	-9.68898
▁endişe	-9.68942
▁im	-9.68972
▁bölü	-9.69098
▁Sanayi	-9.69135
▁Artı	-9.69155
▁Kim	-9.69163
▁giye	-9.69208
▁yolda	-9.69242
▁ada	-9.69256
▁Abdullah	-9.69344
▁çıkması	-9.69365
Gündem	-9.69366
sunda	-9.69435
▁yükseldi	-9.69787
▁dev	-9.69883
▁geçire	-9.69895
▁kentinde	-9.69969
▁Azerbaycan	-9.70022
▁intihar	-9.70022
▁hoca	-9.70072
sın	-9.70124
▁başkenti	-9.70129
▁ayrıldı	-9.70238
▁sanayi	-9.7026
kar	-9.70315
▁bileceği	-9.70339
▁2017	-9.70439
▁sürü	-9.7046
▁öğle	-9.70477
▁beklenen	-9.70496
▁konuk	-9.70648
▁alması	-9.70649
▁Film	-9.70697
▁gerçekleştire	-9.70723
met	-9.70729
▁algı	-9.70763
▁55	-9.70792
▁köy	-9.708
beyazlı	-9.70839
▁kala	-9.70924
▁37	-9.70929
▁televizyon	-9.70932
tiğimiz	-9.71065
ış	-9.71097
▁on	-9.71114
▁edilmiş	-9.71114
▁birliği	-9.71126
▁Fransız	-9.71168
▁ekran	-9.71226
▁Me	-9.71228
▁kimlik	-9.71287
▁Vakfı	-9.71394
▁ölçü	-9.71418
▁indirim	-9.7143
▁Du	-9.71468
▁Arda	-9.71482
▁olacaktır	-9.71547
DA	-9.71597
▁ticar	-9.71624
▁Karadeniz	-9.71624
▁yaşandığı	-9.71667
▁döne	-9.71699
▁Fırat	-9.71707
▁süreç	-9.71849
▁köprü	-9.71853
▁Moskova	-9.71855
▁Salih	-9.71856
▁Turizm	-9.71857
▁bilirsiniz	-9.71892
▁mali	-9.71934
▁risk	-9.71948
▁görüntü	-9.71993
▁değişiklik	-9.72005
▁servis	-9.72069
▁Halk	-9.72124
▁gidiyor	-9.72239
▁Taş	-9.72303
▁1.	-9.72334
▁Federasyonu	-9.72341
▁adayı	-9.72528
▁siyaset	-9.72554
▁öz	-9.72566
▁oran	-9.72612
ğe	-9.72622
▁video	-9.72631
pol	-9.7271
▁düzenlediği	-9.72721
▁verdiğini	-9.72817
▁ettik	-9.72821
▁yapması	-9.72843
▁kaynağı	-9.72873
taki	-9.72927
▁Te	-9.7295
▁hastalığı	-9.7302
▁yaparken	-9.73028
▁başlatıla	-9.73134
▁yönetici	-9.73195
ester	-9.73195
ık	-9.732
▁sergi	-9.73235
▁heyeti	-9.73246
▁sürpriz	-9.73253
kritik	-9.73257
▁birini	-9.73339
▁Ca	-9.73376
▁hükümeti	-9.7342
▁Mardin	-9.73488
▁verilmesi	-9.73547
▁Bursaspor	-9.73549
▁çalıştığı	-9.73585
▁suçun	-9.7363
▁TSK	-9.7364
▁kura	-9.73793
▁Kaza	-9.73795
▁kaybettiği	-9.73836
▁itibarı	-9.73842
▁un	-9.73868
▁olağan	-9.73958
▁Ticaret	-9.7396
▁Onun	-9.73999
▁gereği	-9.74009
▁ülkeleri	-9.74025
son	-9.74053
▁tamamladı	-9.74085
▁sürücü	-9.74137
▁Facebook	-9.74197
▁bölgesi	-9.74253
▁oyuncular	-9.74356
▁Ber	-9.74461
▁yız	-9.74467
▁tarafta	-9.74588
▁Yusuf	-9.74669
▁Dündar	-9.74676
ettin	-9.74795
▁anlamın	-9.74803
▁geçici	-9.74927
▁Ana	-9.74968
▁milletvekilleri	-9.74977
▁gelin	-9.75051
sinin	-9.75056
▁istediğini	-9.7507
▁performans	-9.75084
▁hata	-9.75085
▁güvenli	-9.75107
▁yayınlana	-9.75127
▁yaz	-9.75173
▁fa	-9.75187
▁47	-9.7519
▁kazanan	-9.75192
▁paylaştı	-9.75202
▁saatleri	-9.7523
▁sayılı	-9.75277
▁Kendi	-9.75313
van	-9.75537
▁sitesinde	-9.75556
▁York	-9.75625
▁sanık	-9.75629
▁gaz	-9.75684
▁Takımı	-9.7574
▁değerli	-9.75763
çişleri	-9.75827
▁y	-9.7585
▁dil	-9.759
▁ifadeleri	-9.75969
leşme	-9.7607
▁hastanede	-9.76163
▁dışarı	-9.76217
▁grubu	-9.76239
mektedir	-9.76275
▁aykırı	-9.76347
▁turizm	-9.76368
▁400	-9.76386
▁As	-9.76432
▁38	-9.76549
▁0	-9.76579
▁Konseyi	-9.76635
▁üste	-9.76704
▁biçim	-9.76719
▁Gür	-9.76729
▁noktası	-9.76806
▁beslenme	-9.76838
▁şirketin	-9.76903
▁ülkelerde	-9.76967
▁hesabında	-9.76972
▁Bar	-9.76988
▁jandarma	-9.77076
▁projesi	-9.77144
▁strateji	-9.77245
lıyor	-9.77247
▁gıda	-9.77277
▁Arslan	-9.77564
▁Küçük	-9.77617
▁do	-9.77685
▁gazeteciler	-9.77714
▁çalıştı	-9.77762
▁gönderildi	-9.77783
▁Akdeniz	-9.77809
▁fizik	-9.7781
▁kullanan	-9.77897
ül	-9.77908
▁kulüp	-9.77995
▁savcı	-9.78046
▁euro	-9.78055
▁vurgu	-9.78081
▁gördüğü	-9.78101
▁İspanya	-9.78143
DI	-9.78152
▁Açıklamada	-9.78168
▁dönü	-9.78216
▁sahte	-9.78296
▁Süleyman	-9.78301
▁ister	-9.78385
▁yetkililer	-9.78433
▁bekliyor	-9.78473
ll	-9.78602
▁LAR	-9.78635
▁48	-9.78682
▁der	-9.78788
▁Bunları	-9.78812
▁yoruz	-9.78813
▁Barcelona	-9.7883
▁buray	-9.78932
▁yaşama	-9.78951
▁istifa	-9.79027
▁çeyrek	-9.79044
▁Kartal	-9.79061
▁görevlileri	-9.79145
▁çocuğun	-9.79184
▁bombalı	-9.79186
▁Mu	-9.79187
▁yeşil	-9.79293
▁Hatta	-9.79293
▁eli	-9.79307
ceğini	-9.79358
▁ayda	-9.79401
ğü	-9.79436
▁ticaret	-9.79506
▁Burak	-9.79527
▁The	-9.79566
▁AA	-9.79581
▁sizi	-9.79647
▁muhalefet	-9.79705
▁polisi	-9.79737
▁Mi	-9.79745
rı	-9.79773
▁Teknoloji	-9.79793
▁sürdürdü	-9.79809
▁39	-9.79897
ver	-9.7995
▁yön	-9.79956
▁hizmeti	-9.8001
▁Yaklaşı	-9.80042
▁kalem	-9.80091
▁planı	-9.80192
▁çalışmalarını	-9.80308
▁oranında	-9.80349
▁yaptık	-9.80358
▁kadının	-9.80388
▁huzur	-9.80413
bileceği	-9.80467
▁Çocuk	-9.80498
▁hayal	-9.80503
▁mensupları	-9.80513
▁ihracat	-9.80521
▁Brezilya	-9.80546
▁sinema	-9.80551
▁yönetiminde	-9.80603
ecek	-9.80605
▁gönderdi	-9.80607
▁inşaat	-9.80616
▁46	-9.80619
▁tabii	-9.80716
▁sağlığı	-9.80872
▁bütçe	-9.80877
▁etmişti	-9.80887
laşma	-9.80928
▁aralık	-9.80941
▁uyum	-9.81224
▁evi	-9.81268
cağız	-9.81336
▁aldıkları	-9.81372
▁geride	-9.81431
▁Si	-9.81491
▁Uğur	-9.81513
▁Cizre	-9.8156
▁yakalama	-9.81593
▁Yeşil	-9.81595
▁üstün	-9.81606
▁yakında	-9.81631
▁özelliği	-9.81641
tör	-9.81696
şa	-9.81698
▁liradan	-9.81715
▁düşüş	-9.81734
ze	-9.81759
▁ligde	-9.8179
▁bakım	-9.81809
▁2010	-9.81833
▁Erdem	-9.81839
▁dosya	-9.81843
▁Yer	-9.81878
▁hız	-9.81908
▁görüldü	-9.81917
▁dedim	-9.81923
▁sektör	-9.81936
▁ü	-9.81963
▁boyu	-9.81965
▁rakibi	-9.81999
▁Kore	-9.82043
▁Metin	-9.82138
▁fırsat	-9.82148
▁Ka	-9.82226
▁belge	-9.82254
▁kayıp	-9.82319
▁esas	-9.82343
▁kaldırıla	-9.82361
▁ilaç	-9.82462
▁kaldırılması	-9.82504
▁operasyonlar	-9.82535
▁görüyor	-9.82541
▁Samsun	-9.82553
▁Partisi	-9.82565
▁Brüksel	-9.82584
▁yazar	-9.82588
▁Çavuşoğlu	-9.82594
▁davası	-9.82607
▁vermeye	-9.82626
▁olun	-9.82632
lendi	-9.82645
▁not	-9.82651
▁değerlendirmesi	-9.82672
▁otobüs	-9.82717
▁şirketler	-9.82718
▁payı	-9.82791
▁protesto	-9.82829
▁çaba	-9.82831
▁Londra	-9.82842
▁Gi	-9.82853
fakat	-9.82895
▁başladığı	-9.82986
▁dediği	-9.83018
▁İç	-9.83024
▁yedi	-9.83046
▁istihbarat	-9.83089
▁Çetin	-9.83097
▁tarım	-9.83117
▁sözlerini	-9.83226
▁Clinton	-9.83359
▁cesedi	-9.83359
▁satışı	-9.83399
▁daki	-9.83412
▁Ünlü	-9.83509
▁sınıf	-9.83549
▁aracılığı	-9.83671
▁meselesi	-9.83829
▁artması	-9.83857
▁NATO	-9.83879
▁rahmet	-9.83886
▁almış	-9.83903
▁geçirildi	-9.83953
▁aktara	-9.83967
▁olayın	-9.84013
▁5'	-9.8403
▁kriz	-9.84128
▁saniye	-9.84151
▁insanın	-9.84227
▁çekiyor	-9.84229
▁150	-9.84363
▁yardımı	-9.84395
▁vize	-9.84406
esef	-9.84408
th	-9.84418
▁nerede	-9.84422
▁parçası	-9.84432
ON	-9.84457
▁memuru	-9.84499
▁meslek	-9.84511
▁modeli	-9.84511
▁Edin	-9.84514
▁So	-9.84634
▁görmek	-9.84648
▁Fakültesi	-9.84665
▁miş	-9.8467
▁Takım	-9.84779
▁itfaiye	-9.84928
▁kaçak	-9.84938
▁kanun	-9.84944
▁faaliyetleri	-9.84966
▁No	-9.85013
▁aldığını	-9.85046
▁hayatı	-9.85064
▁götürüldü	-9.85093
▁işlemi	-9.85115
▁Tam	-9.85139
▁kira	-9.85139
▁kitap	-9.8514
bo	-9.85148
▁Merkel	-9.85192
▁To	-9.85238
▁44	-9.85259
▁ifadesi	-9.85271
FETÖ	-9.85375
▁Sanat	-9.85375
▁tablo	-9.85414
▁bol	-9.85416
▁talimatı	-9.85464
▁mücadelede	-9.8547
▁muz	-9.85532
▁performansı	-9.85574
▁Çalışma	-9.85581
▁hastalık	-9.85688
lenme	-9.85713
▁Şimşek	-9.85721
▁kartı	-9.85737
▁4'	-9.85842
lanmış	-9.85857
▁devre	-9.85891
▁güneş	-9.85923
▁LER	-9.8599
▁ilginç	-9.85993
▁gösteri	-9.86024
leşmiş	-9.86035
▁Demokrat	-9.86056
▁Silahlı	-9.8615
yü	-9.86185
▁4.	-9.86206
▁Lo	-9.86212
▁yalan	-9.86221
▁politika	-9.86232
▁Esad	-9.86261
▁devleti	-9.86362
▁Ni	-9.86382
▁yapacağı	-9.86419
▁koydu	-9.86447
▁girişimini	-9.86504
▁gurur	-9.86522
lım	-9.86531
▁hal	-9.86575
▁doğu	-9.86715
▁ayak	-9.86781
▁ihraç	-9.86794
▁Aslan	-9.86794
▁temsilcileri	-9.86807
▁rahatsız	-9.86819
▁topla	-9.86979
▁Vodafone	-9.87058
▁süresi	-9.8708
▁biliyoruz	-9.87111
tar	-9.87214
▁geçirdiği	-9.8722
▁Yavuz	-9.87328
▁Portekiz	-9.87328
▁hediye	-9.87328
▁Ardında	-9.8733
br	-9.87457
▁Cem	-9.87529
▁verilecek	-9.8763
▁mağdur	-9.87701
Dk	-9.87755
▁endeksi	-9.87879
▁alınarak	-9.87883
▁Hükümet	-9.87884
tma	-9.87899
ok	-9.88023
▁soğuk	-9.88066
▁eleştiri	-9.88102
▁Büyükelçi	-9.88128
▁kullanma	-9.88133
▁görevlisi	-9.88145
▁demokratik	-9.88179
▁Barış	-9.88207
ladığı	-9.88237
▁mez	-9.8833
▁Persie	-9.88415
▁yasal	-9.8845
▁açıklamasında	-9.88453
sanız	-9.88516
▁Wi	-9.88544
▁Yapı	-9.88604
▁tavsiye	-9.88687
▁sigara	-9.88687
▁kupa	-9.88733
▁sorunları	-9.8875
▁Üç	-9.88768
▁düşünce	-9.88873
▁sayfa	-9.88968
▁polisin	-9.88969
▁kardeş	-9.88973
leniyor	-9.88995
▁haftasında	-9.89046
▁sürecinde	-9.89055
▁Bil	-9.89061
▁yağışı	-9.89085
rt	-9.89141
▁43	-9.89211
▁Ramazan	-9.8922
▁rapor	-9.89279
▁girdiği	-9.89359
▁Stadı	-9.89512
▁Ata	-9.89516
▁Günü	-9.89517
▁meyve	-9.89525
▁aktif	-9.89535
▁seyirci	-9.89543
▁rakip	-9.89583
▁mesajı	-9.89652
▁yaşadı	-9.89687
liğinde	-9.89692
▁futbolcular	-9.8971
▁kampanya	-9.89711
▁denge	-9.89769
▁Anne	-9.89779
▁dini	-9.89786
▁Washington	-9.89787
▁yolunda	-9.89799
dar	-9.89846
▁eğitimi	-9.89993
ren	-9.89995
▁bırakıldı	-9.90035
▁hasar	-9.90086
▁çağrısı	-9.90104
po	-9.90117
▁mağlu	-9.90122
▁rekor	-9.90133
▁görüştü	-9.90178
▁zamanı	-9.90198
20	-9.90203
▁Sen	-9.90207
▁katı	-9.90274
▁gram	-9.90348
▁Belediyespor	-9.90367
▁Alına	-9.90394
▁dua	-9.90539
▁alındığı	-9.90543
▁sorunlar	-9.90544
▁Çanakkale	-9.9062
▁TIR	-9.90648
he	-9.90655
▁tepe	-9.90664
▁zam	-9.9068
▁tutuklana	-9.9069
▁lig	-9.90691
▁Yin	-9.90731
▁ürünleri	-9.90752
▁Binal	-9.90774
com	-9.90821
▁İpek	-9.90881
▁Muhammed	-9.909
tepe	-9.90914
lanma	-9.90939
▁bıraka	-9.91016
▁av	-9.91019
▁Eş	-9.91022
▁fayda	-9.91116
▁değişikliği	-9.91125
▁Özgür	-9.91188
▁etkin	-9.91252
▁sözü	-9.91278
▁gelmiş	-9.91304
▁gerçekleştirdi	-9.9136
ho	-9.9139
▁nefes	-9.91406
▁temsilcisi	-9.91437
▁2014'	-9.91442
▁Mısır	-9.91461
▁Pereira	-9.91461
▁Konyaspor	-9.91474
▁hesabı	-9.91483
▁girme	-9.91525
▁dağ	-9.91611
iş	-9.91688
▁Gu	-9.91693
▁ayrılma	-9.91696
▁umut	-9.91706
▁olabileceği	-9.91719
▁heyecan	-9.9172
▁mensubu	-9.91724
▁tamamı	-9.91728
▁buluştu	-9.9176
▁prim	-9.91772
▁değiştirme	-9.91778
▁masa	-9.91793
anak	-9.91804
ıyla	-9.91829
▁deprem	-9.91857
kte	-9.91944
gan	-9.91984
▁yaşıyor	-9.92015
▁metrekare	-9.92025
▁Berlin	-9.92033
▁Güzel	-9.92033
▁2008	-9.92061
▁sını	-9.92062
layarak	-9.92249
▁es	-9.92268
▁taşıma	-9.92285
▁ihtimali	-9.92311
▁süt	-9.92353
İN	-9.92354
▁seri	-9.92391
▁hükümetin	-9.92442
▁tarihleri	-9.9246
▁sefer	-9.9252
▁döviz	-9.92592
▁kap	-9.92603
▁olduğumuz	-9.92628
▁yerlerde	-9.92649
kırmızılı	-9.92656
▁Meclisi	-9.92681
▁değeri	-9.92807
▁Kanunu	-9.92826
yorum	-9.92879
▁41	-9.92898
▁aktardı	-9.92916
▁işler	-9.92938
▁600	-9.93007
▁gittiği	-9.93036
▁gitmek	-9.93069
evi	-9.93078
▁gelme	-9.93136
▁demir	-9.93147
oto	-9.93178
leyici	-9.93191
▁kullanarak	-9.93196
▁eğer	-9.93252
▁Ko	-9.93267
ından	-9.93284
tur	-9.93338
▁çıkara	-9.93349
▁ikili	-9.93435
▁Ordu	-9.93517
▁Yayın	-9.93532
▁geçerli	-9.93568
▁çevresinde	-9.93703
ydi	-9.93726
▁tazminat	-9.93767
▁yaşadıkları	-9.93811
▁7'	-9.93928
▁bulunması	-9.93996
▁uygulana	-9.94008
▁Gece	-9.94037
▁dönüşüm	-9.94081
▁göç	-9.94094
▁Işık	-9.94115
▁Bahçeli	-9.94131
▁Herkes	-9.94163
▁mizde	-9.94214
▁haftada	-9.94269
▁adalet	-9.9427
▁hastaney	-9.94276
▁şansı	-9.94371
▁pas	-9.94401
▁Proje	-9.94467
▁şeker	-9.94487
▁rejim	-9.94511
ova	-9.94535
▁Ta	-9.9455
▁haberler	-9.94573
▁uyku	-9.94594
▁ulaşa	-9.94598
▁veri	-9.94599
▁Kılıç	-9.94604
▁alternatif	-9.94604
▁penaltı	-9.94604
▁yakalana	-9.94635
▁yönde	-9.94677
▁42	-9.94761
▁sohbet	-9.94897
▁1-0	-9.94905
▁Kanun	-9.94939
▁araba	-9.94952
▁girmesi	-9.94991
▁bakan	-9.95002
▁antrenman	-9.95003
ğer	-9.95018
▁Li	-9.95023
▁Konu	-9.95146
▁kontrolünde	-9.95167
▁bırakma	-9.95184
▁isabet	-9.95186
▁toprağa	-9.95186
▁kazı	-9.95206
▁Ga	-9.95223
▁batı	-9.95253
?"	-9.95267
▁aşı	-9.95267
▁DA	-9.95339
▁düzenlendi	-9.95367
▁tutma	-9.95424
▁sonuçlar	-9.95425
▁oynanacak	-9.95515
▁verir	-9.95516
ot	-9.95534
▁teklifi	-9.95541
▁bebek	-9.956
▁Az	-9.95671
▁bağımsız	-9.95766
▁11'	-9.95774
▁Serdar	-9.95775
leyen	-9.95783
▁şok	-9.95784
let	-9.9589
▁ağırlık	-9.95919
▁teröristleri	-9.96014
mıştı	-9.96031
âlâ	-9.96037
▁altyapı	-9.96058
▁açtığı	-9.96059
▁uyuşturucu	-9.96066
▁içere	-9.96068
▁Akhisar	-9.96071
▁Bilim	-9.96097
▁tabanca	-9.96105
▁ri	-9.9613
▁nedir	-9.96131
neredeyse	-9.96155
bey	-9.96306
▁akıl	-9.96336
▁kaydı	-9.96476
▁olmalı	-9.96509
▁aldık	-9.96515
▁ç	-9.96531
▁alın	-9.96563
▁araçlar	-9.96696
▁kanseri	-9.96742
▁istedikleri	-9.96743
▁kur	-9.96767
▁avukatı	-9.96782
▁bileceğini	-9.96896
▁53	-9.96915
▁törenin	-9.96969
▁madd	-9.9697
▁kaldırma	-9.9699
▁fotoğrafı	-9.97035
▁Hayat	-9.9707
▁beraberlik	-9.97074
▁sistemini	-9.97137
▁konser	-9.97239
▁maruz	-9.9726
▁alınacak	-9.97262
▁sağlayacak	-9.97283
ladı	-9.97321
▁1'	-9.97493
AK	-9.975
▁günler	-9.97535
▁sigorta	-9.97546
▁verici	-9.97585
▁Kamu	-9.97587
▁motor	-9.97592
▁Onur	-9.97642
▁paralel	-9.97659
▁bağış	-9.97691
▁Türkçe	-9.97702
▁alışveriş	-9.97753
▁Şanlıurfa	-9.97895
▁Medi	-9.97933
▁kimi	-9.97973
şem	-9.97979
▁hazırlık	-9.98045
▁bekleyen	-9.98089
▁doğalgaz	-9.98149
▁dura	-9.98157
▁MİT	-9.98177
▁olurken	-9.98219
▁üstünde	-9.98236
▁oynadı	-9.98261
▁itiraz	-9.98322
▁zayıf	-9.98411
▁Hukuk	-9.98448
▁şirketlerin	-9.98448
▁Kilis	-9.9845
▁itiraf	-9.9845
▁Köprüsü	-9.98458
▁izni	-9.98471
▁4.5	-9.98502
▁olmayı	-9.98587
▁Marmara	-9.98697
▁haberin	-9.98706
▁kendileri	-9.98745
▁sana	-9.98783
▁gerçekleşe	-9.98818
▁mıza	-9.98914
▁çay	-9.98979
▁Örneğin	-9.99056
▁Erzurum	-9.99056
▁ekiplerin	-9.99072
▁bilgisayar	-9.9908
▁tipi	-9.99087
▁Eren	-9.99131
▁şarkı	-9.99181
▁reklam	-9.99193
ünü	-9.99196
▁durumun	-9.99212
▁Orhan	-9.99223
▁katılım	-9.99247
▁ihale	-9.99313
nşallah	-9.99315
▁düzenledi	-9.99342
▁olayda	-9.99344
▁Google	-9.9936
▁getirme	-9.99496
▁anlam	-9.99517
▁duvar	-9.99533
▁gemi	-9.99548
▁yu	-9.9957
▁lise	-9.99608
▁Manisa	-9.99657
▁kalması	-9.9974
▁tu	-9.99812
▁250	-9.99819
▁CEO	-9.99971
▁oturan	-10
▁bak	-10.0004
▁kurban	-10.0005
▁sevgi	-10.0007
▁müşteri	-10.0008
▁değerlendire	-10.0012
▁olmuştu	-10.0015
▁ışık	-10.0016
▁aşk	-10.0017
▁belir	-10.0025
▁Cumartesi	-10.0028
▁Oysa	-10.0031
▁başlık	-10.0035
▁Orada	-10.0043
▁!..	-10.0052
▁farkında	-10.0053
▁şartı	-10.0053
▁program	-10.0058
▁tuttu	-10.0059
▁saldırıları	-10.0059
▁Manch	-10.006
Bahçe	-10.0063
eysel	-10.0076
▁okuma	-10.0088
▁şart	-10.0088
▁belirtiliyor	-10.009
▁sektöründe	-10.009
▁tüketici	-10.0111
YA	-10.0115
▁asist	-10.0119
▁yeme	-10.0122
▁Han	-10.0132
liyor	-10.0133
▁bedeli	-10.0141
▁tabi	-10.0144
▁Çarşamba	-10.0151
▁görülüyor	-10.0151
▁gelip	-10.0152
▁sorularını	-10.0155
▁yıldızı	-10.0158
▁eksik	-10.0159
▁daire	-10.016
▁üstü	-10.0163
▁gönderme	-10.0163
▁tip	-10.0165
▁sektörü	-10.0171
▁kimliği	-10.0172
▁olmaması	-10.0178
▁yoktu	-10.018
mayan	-10.0181
▁çi	-10.0182
▁gitme	-10.0187
▁Uzman	-10.019
▁DE	-10.019
bu	-10.0192
sen	-10.0205
▁gösterdiği	-10.0209
▁raporu	-10.021
▁kaçma	-10.021
▁yim	-10.0213
▁Tolga	-10.0214
▁töreni	-10.0214
▁saldırılar	-10.0216
▁mahalle	-10.022
▁zirve	-10.0226
▁yım	-10.023
▁kod	-10.0234
▁Para	-10.0236
lanması	-10.0238
▁getirdiği	-10.0244
▁Perşembe	-10.0245
▁çarptı	-10.0246
▁geçiyor	-10.0247
▁engelleme	-10.0247
▁görüyoruz	-10.0248
▁sağlıyor	-10.0249
layıp	-10.0256
mar	-10.0257
▁göçmen	-10.0258
▁49	-10.0258
kçe	-10.0261
▁Savaş	-10.0269
▁atıla	-10.0273
▁dijital	-10.0277
▁gidip	-10.0277
▁İnşaat	-10.0277
▁gidecek	-10.0278
▁ülkeyi	-10.0282
▁Güven	-10.0284
▁uçuş	-10.029
▁kaçan	-10.0293
▁ülkemizi	-10.03
▁suçu	-10.0307
▁Tarım	-10.0309
ulh	-10.031
▁ders	-10.0314
▁meş	-10.0317
▁Ham	-10.0321
▁noktasında	-10.0321
▁sitesi	-10.0323
▁olmuştur	-10.0324
▁transferi	-10.0325
▁dığı	-10.0338
▁yapılmış	-10.0339
▁Öyle	-10.0339
▁kongre	-10.034
▁yük	-10.0342
▁Ja	-10.0345
▁kullanımı	-10.0348
▁ayrıla	-10.0351
▁şampiyon	-10.0356
▁derbi	-10.0358
▁meme	-10.036
▁kış	-10.0361
şı	-10.0362
▁Basın	-10.0369
▁vererek	-10.0372
▁kuş	-10.0394
▁yüksele	-10.0397
uk	-10.0398
▁Şehir	-10.0398
▁Kıbrıs	-10.0403
▁Gazete	-10.0406
▁Saray	-10.0408
▁idar	-10.0414
▁bulan	-10.0421
▁dizisi	-10.0427
▁dönme	-10.0432
İM	-10.0434
▁Kadıköy	-10.0435
▁tutuklama	-10.0438
▁ruh	-10.0441
▁yarım	-10.0445
aj	-10.0446
▁Mari	-10.0449
▁karşısın	-10.0451
▁görüşmeler	-10.0453
▁geliştirme	-10.0453
AB	-10.0457
▁sığınmacı	-10.0457
▁olayları	-10.0469
▁Selim	-10.047
▁ortasında	-10.0473
▁yöntemi	-10.0474
▁Şeno	-10.0478
▁Em	-10.0478
▁insanı	-10.0484
▁yarışma	-10.0486
yet	-10.0492
▁anlatıyor	-10.0492
▁ihlal	-10.0495
▁ekledi	-10.0495
▁imkanı	-10.0498
▁başlaması	-10.0504
▁ko	-10.0512
▁alım	-10.0512
▁kadınların	-10.0517
▁mıyor	-10.0517
rme	-10.0519
▁Zat	-10.052
▁halka	-10.0524
▁yürüte	-10.0526
▁görevini	-10.0529
▁Yargıtay	-10.0532
▁Demirtaş	-10.0533
▁54	-10.0534
▁Adli	-10.0543
▁xx	-10.0545
▁yapacağız	-10.0545
▁yaşlı	-10.0546
▁söylediği	-10.055
▁uçağı	-10.055
▁şüpheliler	-10.0551
W	-10.0566
▁temiz	-10.0567
MA	-10.0569
▁hattı	-10.057
▁öğrencisi	-10.0575
▁sinir	-10.0578
▁öğrene	-10.058
▁Aşk	-10.0581
lardır	-10.0581
▁landı	-10.0582
▁Meydanı	-10.0584
▁şirketleri	-10.0586
▁tiyatro	-10.0597
▁2009	-10.0601
▁Koca	-10.0603
▁Real	-10.0606
▁otel	-10.0609
▁sanız	-10.061
nızı	-10.0612
▁toplumun	-10.0615
▁kere	-10.062
▁alır	-10.0624
▁kahve	-10.0629
▁Kerim	-10.0629
▁Ünal	-10.063
▁Usta	-10.0631
▁malı	-10.0633
▁Valiliği	-10.0636
Dünya	-10.064
▁polisler	-10.0647
▁Kısa	-10.0654
▁bildiği	-10.0657
▁kesinlik	-10.0659
▁maçını	-10.0661
▁Dursun	-10.0662
▁basit	-10.0663
▁Bal	-10.0665
▁olaylar	-10.0668
▁85	-10.0671
ledi	-10.0672
▁mobil	-10.0672
▁ması	-10.0672
J	-10.0672
▁doktor	-10.0675
▁detay	-10.0678
▁çıkarıla	-10.068
▁hatırlata	-10.0682
▁gerçekleştiril	-10.0686
▁tık	-10.0691
▁şans	-10.0694
▁Hürriyet	-10.0695
▁ürete	-10.0695
▁City	-10.0695
▁Bab	-10.0696
▁hayvan	-10.0696
▁ambulans	-10.0697
▁kişisel	-10.0698
▁çarpı	-10.0704
▁THY	-10.0704
sh	-10.0707
▁toplu	-10.0708
▁sokaklar	-10.0708
▁112	-10.071
▁İsveç	-10.0728
▁sağlanması	-10.073
▁usta	-10.0733
▁yapıyoruz	-10.0734
▁yayımlana	-10.0735
▁cemaat	-10.0741
▁dık	-10.075
▁başardı	-10.0751
▁önlemleri	-10.0752
▁Soruşturma	-10.0761
▁Ho	-10.0762
▁Mahmut	-10.0764
▁san	-10.0765
▁mak	-10.0765
▁Ek	-10.0766
▁Ye	-10.0768
ry	-10.077
▁56	-10.0776
▁59	-10.0784
▁onay	-10.0789
lüğü	-10.0794
▁avukat	-10.0798
▁suna	-10.08
▁doğa	-10.08
▁evlilik	-10.0802
▁Baba	-10.0807
▁bulma	-10.081
▁riski	-10.0814
▁kalıyor	-10.0814
san	-10.0827
▁taciz	-10.0827
▁istikrar	-10.0828
▁uygulamaları	-10.0829
▁balık	-10.0837
▁sürdüğü	-10.0848
▁taşıyor	-10.0852
▁yaka	-10.0856
▁paylaşım	-10.0857
▁arazi	-10.0859
▁hayatın	-10.086
▁öğrencilerin	-10.0872
▁bilmek	-10.0872
▁Per	-10.0873
▁yoksa	-10.0876
▁kullanıyor	-10.0878
cilik	-10.0882
op	-10.0882
▁girişiminde	-10.0886
▁görüşü	-10.0888
▁Umut	-10.0894
▁suyu	-10.0895
▁ayakta	-10.091
▁beyin	-10.091
▁açığ	-10.0918
▁ö	-10.0918
▁bal	-10.0921
▁sini	-10.0926
▁memnun	-10.0926
▁biliriz	-10.0932
▁78	-10.0933
▁savaşı	-10.0943
▁içeri	-10.0954
▁çıkarma	-10.0954
▁bek	-10.0956
▁sürecini	-10.0957
▁1.5	-10.0959
tif	-10.0967
▁ekipler	-10.0972
▁yken	-10.0975
▁ba	-10.0981
▁iade	-10.0986
▁verildiği	-10.0986
▁sesi	-10.0986
▁düşünüyor	-10.099
▁kök	-10.0992
▁birlik	-10.0993
▁toplantıda	-10.0994
▁aşkın	-10.0994
▁Özbek	-10.0994
▁taraftarlar	-10.0995
▁Terim	-10.0996
▁hakkını	-10.1
▁kas	-10.1004
▁düzenlenecek	-10.1007
ley	-10.1009
▁güçlerin	-10.102
▁oyna	-10.102
▁Bana	-10.1022
▁bitti	-10.1022
▁beklediği	-10.1024
▁x	-10.1025
ırken	-10.1025
▁Ol	-10.1028
▁sessiz	-10.1029
▁gözü	-10.103
▁açıklamaları	-10.1034
▁Üyesi	-10.1035
▁72	-10.1039
▁Ku	-10.1039
▁geçirile	-10.104
▁Dk	-10.1044
▁Vi	-10.1047
▁rakam	-10.1051
▁uyarısı	-10.1052
▁Açık	-10.1055
▁vermiş	-10.1055
▁Bay	-10.1058
▁52	-10.1061
▁getirmek	-10.1063
müş	-10.107
▁saç	-10.1092
▁fi	-10.1097
▁Burcu	-10.1097
▁Antalyaspor	-10.11
▁başlatıldı	-10.1105
▁özgürlüğü	-10.1114
▁dışarıda	-10.1115
▁test	-10.1118
▁vatandaşlarımız	-10.112
▁bi	-10.1126
▁Nusaybin	-10.1131
▁Siyah	-10.1131
50	-10.1132
▁kaçtı	-10.1132
▁şampiyonluk	-10.1133
▁yüklü	-10.1134
▁dönüş	-10.1141
▁yene	-10.1155
▁bildiri	-10.1158
▁vereceği	-10.116
▁Tuğ	-10.1161
▁Yatırım	-10.1164
▁tecrübe	-10.1169
▁izledi	-10.1175
▁yapılacağı	-10.1177
▁51	-10.1178
▁Savaşı	-10.1179
▁enflasyon	-10.1182
▁getirilmesi	-10.1183
AL	-10.1186
▁pay	-10.1188
▁adımlar	-10.1192
▁kapsam	-10.1197
▁elbette	-10.12
▁ihanet	-10.12
▁alkol	-10.12
▁korumak	-10.12
▁öğrenme	-10.1203
▁Kasımpaşa	-10.1204
▁İtalyan	-10.1208
▁120	-10.121
▁Kurt	-10.1211
▁kuruluşu	-10.1214
▁ar	-10.1221
▁vatandaşı	-10.1223
▁bölgelerde	-10.1231
▁Özdemir	-10.1236
▁cinayet	-10.1237
▁Bin	-10.1254
▁geliri	-10.1254
▁yaptıklarını	-10.1262
▁maya	-10.1265
▁geçmesi	-10.1267
EN	-10.1275
▁yüzler	-10.1276
▁ifadeler	-10.1276
aruk	-10.1281
▁şube	-10.1283
▁Et	-10.129
▁olacağız	-10.129
▁66	-10.1291
▁tedbir	-10.1294
▁hane	-10.1299
▁şekil	-10.1302
▁Magazin	-10.1304
▁esnasında	-10.1304
▁Gomez	-10.1305
▁gelerek	-10.1307
SA	-10.1312
▁düzenleye	-10.1314
▁konularda	-10.1316
▁sistemin	-10.1328
▁etmeyi	-10.1333
▁ülkemiz	-10.1343
başı	-10.1344
▁ateşkes	-10.1347
▁erdi	-10.1348
ez	-10.1353
▁yolunu	-10.1353
▁buluşa	-10.1358
▁katılımı	-10.136
▁gerekçe	-10.1363
▁ata	-10.1366
▁toplana	-10.1367
▁gruplar	-10.1373
▁Hakkari	-10.1374
▁ihbar	-10.1375
▁nöbet	-10.1378
▁gerçeği	-10.138
▁Emekli	-10.1382
▁düzenli	-10.1389
▁tanı	-10.1396
▁yarısı	-10.1401
kut	-10.1402
▁sonun	-10.1403
▁benzeri	-10.1406
leşik	-10.1409
▁işadamı	-10.1409
▁gününde	-10.1413
▁Topal	-10.1413
▁rekabet	-10.1433
▁mesele	-10.1435
gen	-10.1438
der	-10.1439
▁AŞ	-10.1444
▁garanti	-10.1445
▁eğlence	-10.1445
▁tüfeği	-10.1445
▁Pazartesi	-10.1445
▁Yalçın	-10.1445
▁temin	-10.1445
▁sağladı	-10.1446
▁girecek	-10.1446
uncu	-10.1447
▁kurucu	-10.1447
AM	-10.1448
▁ettiler	-10.145
▁dili	-10.1454
▁67	-10.1454
▁verilerin	-10.1462
▁demişti	-10.1475
▁kon	-10.1475
▁Salı	-10.1475
▁bilgisi	-10.1476
▁ha	-10.1476
▁tehlikeli	-10.1478
▁Beş	-10.148
▁ulusal	-10.1482
▁yapar	-10.149
▁6.	-10.149
▁önemlidir	-10.1494
▁İşleri	-10.1494
▁askerler	-10.1495
lenmiş	-10.1496
▁açılış	-10.1496
▁temas	-10.1496
▁yakınlarında	-10.1499
▁bilmesi	-10.1513
▁çekile	-10.1514
▁muhte	-10.1516
▁Güneydoğu	-10.1516
▁edilerek	-10.1516
▁yumurta	-10.1516
▁olmayacak	-10.1519
lendiği	-10.152
▁Acil	-10.152
▁sel	-10.1525
sunuz	-10.1525
dik	-10.153
▁Gazi	-10.1532
▁Göz	-10.1533
▁kararları	-10.1534
▁şartları	-10.1547
ger	-10.1549
▁Evet	-10.1551
▁2007	-10.1556
▁toprak	-10.1556
▁kanalı	-10.1558
▁isimlerin	-10.1564
▁ziyareti	-10.1572
▁Başka	-10.1586
▁Malatya	-10.1587
▁Semih	-10.1587
▁asgar	-10.1587
▁öğrencileri	-10.1588
▁sınırı	-10.1588
▁heyet	-10.1589
▁ülkemizde	-10.1589
▁İsviçre	-10.159
▁maden	-10.1594
▁Çevre	-10.1596
▁Gar	-10.1598
▁köşe	-10.1599
▁durumunu	-10.1605
▁şikayet	-10.1606
▁gençler	-10.1607
kal	-10.1608
▁Man	-10.1609
▁öğretim	-10.1611
▁olmayacağı	-10.1615
▁fragmanı	-10.1621
▁isteği	-10.1624
▁Paşa	-10.1624
▁oluşturduğu	-10.1627
▁denetim	-10.1629
▁paket	-10.1635
ang	-10.1636
▁gücünü	-10.1638
▁rejimi	-10.164
dem	-10.1647
UN	-10.1649
▁oda	-10.1652
▁bey	-10.1657
▁turist	-10.1658
▁Kurtulmuş	-10.1659
▁Osmanlıspor	-10.1665
▁coğrafya	-10.1665
▁Hu	-10.1668
▁birimleri	-10.1671
▁He	-10.1671
▁muhalif	-10.1678
men	-10.168
▁takımda	-10.1686
▁kaynaklar	-10.1694
yon	-10.1695
▁YA	-10.1696
▁Erol	-10.17
▁öldürüldü	-10.17
▁seviyesinde	-10.1701
▁Es	-10.1702
▁Hoca	-10.1704
▁Jo	-10.1707
▁Niha	-10.1708
▁yazdığı	-10.1709
▁çıkarak	-10.1709
▁öneri	-10.1713
▁Sneijder	-10.1732
▁cilt	-10.1732
▁komisyon	-10.1737
▁tarafı	-10.1739
▁81	-10.175
up	-10.1754
▁Fi	-10.1755
▁kulübün	-10.1756
▁vura	-10.1759
▁Saat	-10.176
▁Boz	-10.1763
▁sağlama	-10.1764
▁düzeyde	-10.1766
▁Var	-10.1772
▁orman	-10.1772
▁cuma	-10.1774
▁ekmek	-10.1776
▁ağrı	-10.178
▁ilişkileri	-10.178
▁ra	-10.1782
▁borcu	-10.1782
▁araçların	-10.1786
▁yöneticileri	-10.1791
UR	-10.1791
bar	-10.1799
▁ekonomisi	-10.1805
▁mezun	-10.1806
▁&	-10.1813
▁tanesi	-10.1824
▁58	-10.1827
▁lüks	-10.1828
▁alış	-10.1832
▁ordu	-10.1832
ttin	-10.1836
▁bayrağı	-10.1839
▁Gıda	-10.1843
▁oyuncuların	-10.1844
▁oluştura	-10.1845
▁sezonunda	-10.1845
▁kullanıldığı	-10.1845
▁Gençlerbirliği	-10.1846
mo	-10.1847
▁of	-10.1847
lenmesi	-10.1848
▁sorumluluk	-10.1854
yim	-10.1857
▁kaynakları	-10.1862
▁ettim	-10.1867
▁yönetmen	-10.1877
▁kamuoyu	-10.1878
▁Kelime	-10.1879
▁Esed	-10.1879
▁ilave	-10.1879
▁güne	-10.1886
▁karakter	-10.1888
▁is	-10.189
▁eti	-10.189
▁çıkarıldı	-10.1892
▁sürüle	-10.1892
▁Maliye	-10.1893
yım	-10.1901
▁69	-10.1903
alıcı	-10.1907
▁düştüğü	-10.1911
▁gördük	-10.1912
▁ikramiye	-10.1916
▁arkadaş	-10.1917
▁2002	-10.1921
▁yazma	-10.1921
zat	-10.193
▁Demokrasi	-10.1931
bet	-10.1935
▁Halil	-10.1938
köy	-10.1938
▁Kanal	-10.1945
▁düşünme	-10.1945
▁haklı	-10.1949
kaya	-10.1949
▁kontrolü	-10.195
▁hizmetleri	-10.195
▁Fethullah	-10.1953
▁Kenan	-10.1953
▁geçecek	-10.1954
▁Pi	-10.1963
▁tüketimi	-10.1963
▁Bayram	-10.1966
acağı	-10.1967
▁mücadelesi	-10.197
▁Roma	-10.1971
▁bekleme	-10.1974
lendirme	-10.1975
▁yaygın	-10.1979
▁Tur	-10.1984
▁Bölgesi	-10.1987
▁2017'	-10.1988
▁anlama	-10.1989
▁John	-10.199
▁Yasin	-10.1991
mon	-10.1991
▁2-1	-10.1992
demir	-10.1992
▁ordusu	-10.1992
▁yürüyüş	-10.1994
▁kesintisi	-10.1995
▁sektörün	-10.1997
▁anlaşması	-10.1998
▁At	-10.1998
yken	-10.1999
▁partisi	-10.1999
▁Nasıl	-10.2
▁kaya	-10.2
▁Karaca	-10.2
▁araçları	-10.2001
▁sermaye	-10.2003
▁hazırlıkları	-10.2012
▁organiz	-10.2019
▁fabrika	-10.202
▁ocak	-10.2021
▁icra	-10.2023
tal	-10.2023
▁mevsim	-10.2028
▁X	-10.2028
▁Kimse	-10.2033
▁Ze	-10.2034
biliyor	-10.2038
▁tutar	-10.2044
mişti	-10.2053
İZ	-10.2059
▁deri	-10.2061
▁etmedi	-10.2062
▁sorunun	-10.2063
▁kuvvet	-10.2064
▁sinde	-10.2072
▁sözlerin	-10.2076
▁Resm	-10.2077
▁ürünler	-10.2078
▁yetki	-10.2079
▁taraftarı	-10.2083
▁2-0	-10.2104
▁çıkıp	-10.2107
▁modern	-10.211
▁duyma	-10.211
▁düğün	-10.2111
▁şifre	-10.2122
▁sağladığı	-10.2128
▁İnan	-10.2134
▁hızı	-10.2139
▁avukatları	-10.2148
▁yolları	-10.215
▁güvenliğini	-10.2153
▁edeceğini	-10.2156
▁Ki	-10.2158
▁mesafe	-10.2159
▁aç	-10.2161
▁irade	-10.2162
cılık	-10.2166
▁Bank	-10.217
▁duyduğu	-10.2171
▁dikkatli	-10.2177
Donald	-10.2179
▁vermedi	-10.218
▁Tarihi	-10.2183
▁*	-10.2186
▁dayana	-10.2188
▁bıçak	-10.2189
▁Car	-10.219
▁kullanım	-10.2195
▁fikir	-10.2195
OS	-10.2195
▁Suçlar	-10.22
▁Po	-10.22
▁delil	-10.2209
gül	-10.2211
▁ulaşım	-10.2215
▁Bodrum	-10.2217
ret	-10.222
▁saf	-10.2224
▁bitki	-10.2229
▁ölümü	-10.2233
▁fuar	-10.2235
can	-10.225
▁seçme	-10.2253
▁tecavüz	-10.2255
▁Anahtar	-10.2255
ıcı	-10.2256
▁dığını	-10.2259
▁muş	-10.226
▁büyüye	-10.2263
▁işletme	-10.2268
▁psikoloji	-10.2273
▁oyuncuları	-10.2281
▁nıza	-10.2282
▁Sİ	-10.2284
▁ürünü	-10.2285
Ulusal	-10.2291
▁yarısında	-10.2295
▁Akın	-10.2296
▁kulak	-10.2296
▁koalisyon	-10.2297
▁Oyuncu	-10.2299
▁kurşun	-10.23
▁özellikleri	-10.2307
fer	-10.2307
▁kampanyası	-10.2307
▁varlığı	-10.2309
▁Karar	-10.2309
▁maz	-10.2309
▁hat	-10.2313
▁söyleme	-10.2315
▁ilde	-10.2317
▁kilit	-10.2317
▁Avcı	-10.2319
▁saatte	-10.2321
▁ülkesi	-10.2323
▁unu	-10.2327
▁Sivas	-10.2332
▁Temsilci	-10.2332
▁Kır	-10.2335
▁Ümi	-10.2338
▁yordu	-10.2339
cık	-10.2339
▁olduk	-10.2343
▁sal	-10.2343
▁yarıda	-10.2346
▁dim	-10.2353
▁yetkili	-10.2353
▁bedel	-10.2357
▁taşı	-10.236
▁çalışmaların	-10.2361
▁fırsatı	-10.2362
▁hareketi	-10.2362
▁Akar	-10.2363
▁puanı	-10.2367
▁zemin	-10.2368
▁artıra	-10.2369
▁kemik	-10.2371
▁olamaz	-10.2371
▁Cengiz	-10.2372
lanarak	-10.2373
▁İdaresi	-10.2377
▁SA	-10.2379
ağı	-10.2385
▁ilişkiler	-10.2386
▁kalbi	-10.2388
▁görüntüleri	-10.2393
▁belirledi	-10.2396
▁düzeni	-10.2397
▁dünyası	-10.2397
▁Caner	-10.2405
▁Başbakanlık	-10.2409
▁Park	-10.2409
▁Mesela	-10.241
▁Ozan	-10.241
▁Kocaeli	-10.241
▁borç	-10.2411
▁tünel	-10.2412
ton	-10.2412
sta	-10.2416
▁Ayşe	-10.2416
▁11.	-10.2416
▁Üste	-10.2416
▁binası	-10.2417
ydı	-10.2425
▁sorgulama	-10.2431
▁Bayramı	-10.2435
▁Bakanlar	-10.2441
▁sürdüre	-10.2446
▁getiriyor	-10.2449
▁görünüyor	-10.2449
taş	-10.2459
▁akşamı	-10.2463
▁Yurt	-10.2468
▁Kız	-10.2481
▁Top	-10.2485
▁hayır	-10.2486
▁Çavuş	-10.2487
▁Pakistan	-10.2488
▁Kayserispor	-10.249
▁Köyü	-10.2495
▁Kurul	-10.2496
▁Am	-10.2501
▁zorunlu	-10.2505
▁işleri	-10.2509
▁gözde	-10.2514
▁Askeri	-10.2517
▁hamile	-10.2517
▁Yunan	-10.2527
▁zamanlarda	-10.2528
▁dür	-10.2529
▁bekliyoruz	-10.2531
▁başlar	-10.2534
▁atıldı	-10.2536
▁Kızıl	-10.2538
▁ortamda	-10.254
▁kapsamda	-10.2544
▁Japonya	-10.2547
▁Yıl	-10.2548
▁ser	-10.2552
▁Ses	-10.2554
▁ağı	-10.2554
▁öldürdü	-10.2556
▁şüphe	-10.2556
▁kapasite	-10.2557
▁konuşmada	-10.2559
▁omuz	-10.2563
▁kazanma	-10.2568
▁Kor	-10.2568
▁57	-10.2568
▁sunuyor	-10.2575
▁organizasyon	-10.2575
▁Alp	-10.2576
▁Çek	-10.2577
▁ini	-10.2577
▁yürüttüğü	-10.2579
▁kuzeyinde	-10.2587
ban	-10.2589
▁yazarı	-10.259
▁AL	-10.2591
▁sahipliği	-10.2592
▁ça	-10.2593
▁hücre	-10.2594
▁kazana	-10.2596
ER	-10.2596
▁indi	-10.2596
▁çıkmış	-10.2603
Tİ	-10.2605
▁görüşmeleri	-10.2607
▁Avusturya	-10.2607
▁Hindistan	-10.2607
▁yerleşim	-10.2607
▁oynuyor	-10.2607
▁Yunus	-10.2607
▁profesyonel	-10.2607
▁ismini	-10.2608
▁Ajansı	-10.2611
▁Samsung	-10.2612
▁79	-10.2614
tra	-10.2614
▁kısmını	-10.2618
▁MA	-10.2631
larak	-10.2632
▁isimleri	-10.2632
▁Hafta	-10.2639
▁kuzey	-10.2645
▁Riekerink	-10.2647
▁Sakarya	-10.2647
Fikret	-10.2647
▁inanıyorum	-10.2648
▁otomatik	-10.2649
▁eylemi	-10.2649
▁Eskişehir	-10.2649
▁olası	-10.2649
▁alırken	-10.265
▁Yaşar	-10.2653
▁ayağı	-10.2653
▁Günlü	-10.2654
▁korunması	-10.2655
▁kurtarma	-10.2663
▁açılması	-10.2664
▁düşmesi	-10.267
▁değildi	-10.2672
▁müsabaka	-10.2672
▁tesis	-10.2676
gin	-10.2677
▁bölümde	-10.268
▁verdikleri	-10.2683
▁Balıkesir	-10.2687
▁diplomat	-10.2688
▁sahil	-10.2689
▁hoş	-10.2689
▁idam	-10.2693
▁tatlı	-10.2697
▁Hiç	-10.2699
▁rolü	-10.2701
▁dar	-10.2706
▁alanlarda	-10.2708
▁Ödülü	-10.2708
▁geldik	-10.2714
▁mezar	-10.2714
▁Pro	-10.2717
▁adamları	-10.2724
▁Kahraman	-10.2727
▁Oscar	-10.2727
▁Rizespor	-10.2728
▁arz	-10.2728
▁helikopter	-10.2734
▁saldırısında	-10.2735
▁yapıp	-10.2737
▁çete	-10.2738
▁Demirel	-10.2744
▁ayın	-10.2745
▁atma	-10.2749
▁sağlam	-10.2749
▁Hacı	-10.2749
▁emin	-10.2749
▁gözlem	-10.2751
▁devrey	-10.2751
▁kır	-10.2752
▁yürüye	-10.2755
▁ödülü	-10.2757
▁76	-10.2762
▁77	-10.2762
▁Mar	-10.2765
▁motosiklet	-10.2767
▁Sahil	-10.2768
▁Sistemi	-10.2768
▁Aslın	-10.2769
uş	-10.2772
bir	-10.2775
▁ilerleye	-10.2778
▁bankalar	-10.2778
▁Hali	-10.2779
▁Birlik	-10.2781
▁BİR	-10.2784
▁be	-10.2786
▁kapattı	-10.2786
▁Saldırı	-10.2789
▁karşılaştı	-10.279
▁vitamini	-10.2791
▁geriledi	-10.2796
▁karşılığı	-10.2799
yse	-10.28
▁bilme	-10.2806
▁Odası	-10.2809
▁dakikalar	-10.2809
▁bakımında	-10.2811
▁yaratma	-10.2811
▁Bak	-10.2811
▁adres	-10.2813
▁yakaladı	-10.2814
▁bildi	-10.2815
▁çı	-10.2817
▁açıkça	-10.282
▁Bilgi	-10.2825
▁gösterme	-10.2825
▁çizgi	-10.2827
▁miyor	-10.2832
İL	-10.2833
▁yapmayı	-10.2834
▁kentte	-10.2835
▁kurduğu	-10.2838
▁muhabirin	-10.2839
▁almıştı	-10.2842
▁Okul	-10.2843
▁sahasında	-10.2844
yarak	-10.2846
▁Sev	-10.2848
▁Sonuç	-10.2848
▁Çakır	-10.2848
▁taraftar	-10.2851
▁Kadınlar	-10.2853
▁müze	-10.2853
▁burun	-10.2854
nükle	-10.2856
▁tutan	-10.2857
▁amaçlı	-10.2859
▁art	-10.2864
▁ücreti	-10.2865
oloji	-10.2871
▁kitabı	-10.2873
▁Lu	-10.2881
▁çıktığını	-10.2888
▁Karşı	-10.2888
▁öfke	-10.2889
◊	-10.2889
zar	-10.2896
▁operasyonlarda	-10.2896
▁tanık	-10.2896
▁bünyesinde	-10.2897
▁işgal	-10.2897
▁izleme	-10.2905
▁Milletler	-10.2905
▁va	-10.2909
▁Ter	-10.2911
▁kuvvetli	-10.2911
▁Der	-10.2925
▁tören	-10.2928
▁Üniversite	-10.2929
▁tasarım	-10.2929
▁Oğuzhan	-10.2931
▁yaşta	-10.2937
▁kalın	-10.2938
▁Şubesi	-10.2938
▁şarkıcı	-10.2941
▁TFF	-10.2941
▁ağrısı	-10.2943
LA	-10.2945
▁tren	-10.2952
▁Petro	-10.2955
▁müt	-10.2957
▁iken	-10.296
▁alacağı	-10.2963
stihbarat	-10.2967
▁fatura	-10.2968
▁c	-10.297
▁Kol	-10.2971
▁Advocaat	-10.2971
▁Gaziantepspor	-10.2974
▁azal	-10.2974
rd	-10.2975
▁çalışıyoruz	-10.2976
gerçekleştirdiği	-10.2978
▁sürecin	-10.2979
▁kaybetme	-10.2981
▁süreli	-10.2983
layıcı	-10.2984
▁elini	-10.2985
▁girişi	-10.2987
ji	-10.2989
▁durdu	-10.2989
lanıyor	-10.2991
▁değişim	-10.2993
tor	-10.3001
▁sözler	-10.3002
▁kamp	-10.3006
Saray	-10.3008
▁başvura	-10.3013
▁Bozdağ	-10.3013
▁Cenk	-10.3013
▁men	-10.3015
▁açıklamasını	-10.3018
▁mini	-10.3019
▁bayrak	-10.302
ES	-10.3021
▁haberleri	-10.3023
▁kurma	-10.3027
ici	-10.3027
▁çizen	-10.3028
▁askerlerin	-10.3029
▁şunu	-10.3029
▁turu	-10.3033
▁ailelerin	-10.3035
▁gözyaşları	-10.3037
▁yardımcısı	-10.3046
Türk	-10.3049
▁devr	-10.3051
▁yolun	-10.3051
▁niye	-10.3054
▁muhtemel	-10.3054
▁Soylu	-10.3057
▁çekerek	-10.3057
▁eseri	-10.3057
▁gündür	-10.306
▁tarihte	-10.3062
▁leşme	-10.3063
▁madı	-10.3065
▁olunca	-10.3068
▁maal	-10.3075
▁Türkmen	-10.3077
▁telefonla	-10.3079
▁kuruluşları	-10.309
öğretim	-10.3092
ovic	-10.3094
▁Yönetmen	-10.3096
▁Festivali	-10.3096
▁Kon	-10.3097
▁saldırgan	-10.3106
▁km	-10.311
▁edilmiştir	-10.3111
▁bulunmadığı	-10.3112
▁man	-10.3113
▁misafir	-10.3116
▁ila	-10.3117
AT	-10.312
rse	-10.3127
ard	-10.313
▁artışı	-10.3131
▁soruları	-10.3133
▁as	-10.3137
▁bulmak	-10.3137
▁sıfır	-10.3138
▁medi	-10.314
▁suçlu	-10.3141
▁boyut	-10.3144
▁tamamlandı	-10.3144
▁Kırmızı	-10.3145
▁ız	-10.3149
▁aydın	-10.3152
▁Şa	-10.3153
▁kaşı	-10.3157
.000	-10.3158
▁izle	-10.316
ld	-10.3162
▁mülteciler	-10.3166
▁dinleme	-10.3168
▁6'	-10.3169
▁sokakları	-10.3172
▁68	-10.3174
▁yapısı	-10.3175
▁senin	-10.3176
▁bakın	-10.3178
▁edeceği	-10.318
▁diliyorum	-10.318
▁ayakkabı	-10.318
▁Sch	-10.3181
▁yollar	-10.3183
▁atama	-10.3183
Spor	-10.3187
▁hisse	-10.3188
▁Alper	-10.3189
▁pilot	-10.3191
▁bastı	-10.3193
▁Hiçbir	-10.3193
medi	-10.3203
▁engelli	-10.3203
▁başlama	-10.3204
liğini	-10.3211
▁peşin	-10.3217
▁anlar	-10.3219
▁sürdürüyor	-10.322
▁Hatay	-10.3222
▁Paralel	-10.3222
▁yöntem	-10.3223
▁popüler	-10.3224
▁sü	-10.3231
▁düzen	-10.3236
▁bilet	-10.3238
▁bizler	-10.3241
▁Kap	-10.3248
▁vatandaşları	-10.3254
▁Özer	-10.3258
▁değine	-10.326
▁Co	-10.3263
ET	-10.3263
▁zorla	-10.3263
▁Kredi	-10.3264
▁sorumlusu	-10.327
▁kalacak	-10.327
▁sağlana	-10.327
ow	-10.3271
dım	-10.3274
▁gelişe	-10.3274
▁dım	-10.3275
.30	-10.3275
▁zorlu	-10.3284
▁Sekreteri	-10.3285
▁bazıları	-10.3286
▁sına	-10.329
▁komşu	-10.3291
▁edilir	-10.3304
▁madalya	-10.3307
▁zırh	-10.3307
▁Sınır	-10.3307
▁Bas	-10.3309
▁elektroni	-10.3312
▁başladığını	-10.3314
▁ellerinde	-10.3315
▁hayatta	-10.3315
▁Ver	-10.3317
▁idare	-10.332
paşa	-10.3325
▁yuvarla	-10.333
▁Örgüt	-10.3331
▁hazırladığı	-10.3331
▁iddiaları	-10.3347
Basketbol	-10.3349
▁Turkcell	-10.3349
▁durdurma	-10.3351
▁63	-10.3352
▁araçta	-10.3353
▁Erkan	-10.3353
İK	-10.3356
dim	-10.3357
▁maaş	-10.336
▁projeleri	-10.3362
▁Önümüzde	-10.3364
▁ölen	-10.3368
▁kanatta	-10.337
▁liste	-10.3377
▁kaldığını	-10.3378
▁müdürü	-10.3379
▁fiyatlarında	-10.3381
▁ber	-10.3381
▁bayram	-10.3383
▁kurumlar	-10.3384
▁kazandığı	-10.3388
▁dalga	-10.3388
▁ip	-10.339
▁puanla	-10.3391
▁Cenevre	-10.3392
▁SABAH	-10.3392
▁hücum	-10.3392
▁peşinde	-10.3393
▁konuşmasında	-10.3395
▁Millet	-10.3396
▁iddianame	-10.3397
▁Şirket	-10.3398
▁gönderdiği	-10.3399
▁etkinlik	-10.34
▁personeli	-10.3405
▁yağmur	-10.3406
▁Bölgede	-10.3409
▁Geri	-10.341
▁milletimiz	-10.3416
▁vücut	-10.3417
▁kullanmak	-10.3417
▁muzu	-10.3419
▁istemi	-10.3419
▁duruşma	-10.3419
▁çatışmalar	-10.3427
▁yönetiminin	-10.3428
▁kentin	-10.343
▁pozisyon	-10.3431
dık	-10.3435
▁KOBİ	-10.3436
▁işveren	-10.3436
▁Bekir	-10.3436
▁Kaymakam	-10.3436
▁?"	-10.3438
▁yedek	-10.3438
▁Har	-10.3441
▁maliyeti	-10.3441
▁çalışmaya	-10.345
▁Bakanlık	-10.3451
▁yürek	-10.3451
▁gözler	-10.3452
▁Beni	-10.3454
▁Asker	-10.3462
▁St	-10.3468
▁muhabiri	-10.3469
▁sınırlı	-10.3469
▁takdirde	-10.3474
▁zanlı	-10.3476
▁United	-10.3484
▁Dolar	-10.3486
▁duruyor	-10.3486
▁sek	-10.3488
▁Dış	-10.3488
ud	-10.3489
▁oynama	-10.3493
▁sporcu	-10.3495
▁uzmanı	-10.3497
▁hastalığın	-10.3499
▁Şii	-10.3499
▁cam	-10.3499
▁ulaştığı	-10.35
▁politikası	-10.3502
▁5.	-10.3503
▁beyan	-10.3504
▁Hen	-10.3507
▁Serka	-10.3508
▁yayınlandı	-10.3508
▁Ağ	-10.351
▁fon	-10.351
▁büyü	-10.3512
▁geldiğinde	-10.3516
▁Emin	-10.352
▁geçme	-10.352
▁har	-10.3521
▁Gönül	-10.3522
▁söyleyerek	-10.3525
▁Kalkanı	-10.3528
▁Hak	-10.3529
▁gördüm	-10.3531
▁ifadesinde	-10.3531
▁ulaşma	-10.3534
▁parmak	-10.3535
▁cumhurbaşkanı	-10.3537
▁açıklaya	-10.3539
▁gelince	-10.3543
▁Üst	-10.3544
▁sorusuna	-10.3544
▁Cihan	-10.3547
▁öldüğü	-10.3547
▁sezonun	-10.3554
▁Bağ	-10.3557
▁88	-10.3558
▁yatırımcı	-10.356
▁diyorlar	-10.3562
▁bahs	-10.3564
▁merkezleri	-10.3564
▁ihbarı	-10.3565
▁Ateş	-10.3566
maktadır	-10.3567
▁koya	-10.357
▁seyr	-10.357
▁üyeliği	-10.3575
▁derken	-10.3576
▁filmin	-10.3581
▁anlayışı	-10.3583
▁şehri	-10.3586
istan	-10.3588
▁sorular	-10.3595
▁verdik	-10.3595
▁kurul	-10.3598
▁forması	-10.3601
▁kalmış	-10.3608
yecek	-10.3611
▁kalmadı	-10.3612
▁Sarayı	-10.3612
▁bilinç	-10.3612
▁Fatma	-10.3613
▁Mert	-10.3613
▁ucuz	-10.3616
▁tarzı	-10.3618
▁Medya	-10.3618
▁bakış	-10.3623
▁nüfus	-10.3631
▁2000	-10.3637
Ge	-10.3641
▁çekme	-10.3642
▁bozma	-10.3642
ham	-10.3643
▁taşıdığı	-10.3649
▁geçişi	-10.3649
▁vakit	-10.3654
▁Bulut	-10.3654
▁Kent	-10.3655
▁Ri	-10.3656
▁cevabı	-10.3656
▁sokak	-10.3659
▁belgeleri	-10.3664
▁sınırları	-10.3664
▁64	-10.3666
▁güçlerini	-10.3678
ceğiz	-10.3679
▁makam	-10.368
▁Gol	-10.3683
▁ilgisi	-10.3685
▁Adam	-10.3696
▁ligin	-10.3696
▁yakalanması	-10.3697
▁TE	-10.3698
▁Tepe	-10.3698
▁olsaydı	-10.37
gal	-10.3707
hiş	-10.3709
▁imamı	-10.3711
▁suikast	-10.3712
▁alıcı	-10.3716
▁ım	-10.3718
▁doları	-10.3719
▁destekleye	-10.3719
▁Bi	-10.372
▁Lisesi	-10.3724
▁anlaya	-10.3725
▁katılma	-10.3729
lay	-10.3731
▁sürece	-10.3731
ize	-10.3731
▁4,	-10.3733
▁Sağ	-10.3735
▁başara	-10.374
▁hastaların	-10.3741
▁kalabalık	-10.3743
▁sorumluluğu	-10.3744
▁ik	-10.3747
▁nere	-10.375
▁değişe	-10.3757
▁avantaj	-10.3757
lamıştı	-10.3763
ildi	-10.3764
▁hastalıkları	-10.3764
▁oluşturma	-10.3767
▁800	-10.3769
▁mektup	-10.3774
▁sektörünü	-10.3779
▁ortamı	-10.3782
▁İz	-10.3782
▁buluyor	-10.3783
▁Finans	-10.3784
▁otomobilin	-10.3786
▁alkış	-10.3787
▁Edirne	-10.3787
▁karanlık	-10.3788
▁gelişmeleri	-10.3793
▁suçların	-10.3794
▁takdir	-10.3794
ydu	-10.3796
▁öncelikle	-10.3797
yum	-10.3799
▁istene	-10.3803
▁yağışlı	-10.3804
har	-10.3806
▁gezi	-10.3808
▁kamyon	-10.3809
▁kaçı	-10.3817
▁bakma	-10.3821
▁Dava	-10.3824
▁edilmişti	-10.3825
▁olayla	-10.3829
▁Cerablus	-10.3832
▁Zeynep	-10.3832
▁Gözaltın	-10.3832
▁müziği	-10.3838
▁selam	-10.384
▁ediyorlar	-10.3841
▁Onları	-10.3841
▁görüntüler	-10.3848
▁ulaşan	-10.3854
▁Hepsi	-10.3859
OR	-10.3859
res	-10.3859
▁yurtdışında	-10.3859
▁Maç	-10.3862
▁Amerikalı	-10.3865
▁miktarı	-10.3866
hane	-10.3866
▁EN	-10.3866
▁Acı	-10.3867
▁mensuplarını	-10.3871
▁savuna	-10.3871
▁niyet	-10.3871
▁işleme	-10.3873
LE	-10.3879
▁Kal	-10.3879
▁doğan	-10.3883
▁uyu	-10.3883
▁günleri	-10.3884
Sİ	-10.3886
lmesi	-10.3888
▁müsa	-10.3894
▁kenar	-10.3895
▁yukarı	-10.3899
▁Bölümü	-10.3907
▁belirli	-10.392
▁kayyum	-10.3923
▁Parçal	-10.3923
▁demektir	-10.3925
▁düşman	-10.3925
▁Savcı	-10.3927
▁getirildiği	-10.3927
▁AN	-10.3928
dür	-10.3931
▁diz	-10.3934
▁araştırmalar	-10.3935
▁artışla	-10.3937
▁ailesini	-10.3942
▁oldum	-10.3944
▁kapata	-10.395
▁seçimleri	-10.395
▁şahsın	-10.3955
▁sordu	-10.3961
▁atıyor	-10.3966
▁hamle	-10.3966
▁bölümünü	-10.3966
▁fırtına	-10.3968
▁yaşanıyor	-10.3968
▁füze	-10.3968
▁kusur	-10.3968
▁62	-10.3971
▁Tel	-10.3971
▁kanıt	-10.3972
▁içeride	-10.3972
▁Adil	-10.3973
▁inşallah	-10.3975
▁konferans	-10.3975
▁grubun	-10.3975
▁don	-10.398
▁uzay	-10.3981
▁tamamlaya	-10.3989
▁harcama	-10.399
▁parlamento	-10.3994
▁ysa	-10.3997
ly	-10.3997
▁nesil	-10.4001
▁Kat	-10.4001
▁yılları	-10.4007
müz	-10.4012
▁harekat	-10.4013
▁enfeksiyon	-10.4014
▁Rize	-10.4015
sağlığı	-10.4017
▁amaç	-10.403
▁95	-10.4034
▁mağaza	-10.4038
▁gönderile	-10.4043
▁seçimi	-10.4047
▁kâr	-10.4053
▁Sol	-10.4053
▁VE	-10.4053
▁onur	-10.4054
lması	-10.4058
▁hâkim	-10.4059
▁projeler	-10.4076
▁çıkmak	-10.4088
▁kenti	-10.409
▁gazetecileri	-10.4092
▁katma	-10.4094
▁kafe	-10.4094
▁işlemlerini	-10.4094
lacak	-10.4097
▁Kongre	-10.4098
▁TEM	-10.4099
ğimiz	-10.4102
▁oray	-10.4102
▁aş	-10.4102
▁belirtiyor	-10.4107
▁geçmişte	-10.411
▁ederim	-10.4111
▁memur	-10.4113
▁ilçede	-10.4124
▁aradı	-10.4131
▁karayolu	-10.4132
▁memleketi	-10.4134
▁efsane	-10.4134
izm	-10.4139
▁Andre	-10.414
▁başkanları	-10.4142
▁önleme	-10.4142
▁özgürlük	-10.4145
▁yacak	-10.4145
▁düşüne	-10.4147
▁Şirketi	-10.4148
▁Cami	-10.4148
▁Gra	-10.4151
▁sabit	-10.4152
▁lıyız	-10.4152
▁dayanışma	-10.4152
▁avro	-10.4154
▁çalışanı	-10.4154
▁gönüllü	-10.4155
▁bulunma	-10.4155
▁taksi	-10.4157
▁etkileri	-10.4158
▁moral	-10.4159
▁Gala	-10.4161
▁lanma	-10.4161
▁durma	-10.4166
▁yazık	-10.4167
▁yaralandığı	-10.4167
▁değiştire	-10.4168
▁bine	-10.4168
IZ	-10.4171
▁kullanılması	-10.4172
▁tü	-10.4177
▁sebze	-10.4178
▁yükseliş	-10.418
▁durumlarda	-10.4183
▁sürücüsü	-10.4184
▁mah	-10.4184
▁ine	-10.4186
▁Ertuğrul	-10.4198
▁Artvin	-10.4198
▁harika	-10.4198
▁ktadır	-10.4198
▁kurtula	-10.4199
▁disiplin	-10.4199
▁tavır	-10.42
▁paylaşa	-10.42
▁kurumları	-10.4202
▁geçerek	-10.4202
▁73	-10.4207
▁şahıs	-10.4208
▁uçakları	-10.4208
▁özgür	-10.4209
▁leştirme	-10.4209
▁etrafında	-10.421
▁çıkmaya	-10.4211
▁Yolu	-10.4212
▁öldürme	-10.4214
▁çap	-10.4218
▁çözme	-10.4219
▁sokakta	-10.4222
▁geçirmek	-10.4225
▁bizde	-10.4227
▁uç	-10.4228
and	-10.4231
▁başkanlığı	-10.4233
diğimiz	-10.4236
▁Hakları	-10.4238
▁açıklana	-10.4241
CA	-10.4244
▁başlangıç	-10.4245
▁mahkum	-10.4245
▁açma	-10.4245
▁alanları	-10.4247
▁yaşa	-10.4248
▁kuralları	-10.425
▁Mor	-10.4251
▁İddia	-10.4253
▁Toplam	-10.4253
Ne	-10.4257
▁bağ	-10.4264
▁kurmak	-10.4267
▁özen	-10.4268
▁ağlar	-10.427
▁başkent	-10.427
▁evli	-10.4272
▁depo	-10.4274
▁Müdür	-10.4285
▁esnaf	-10.4288
▁taziye	-10.429
▁kurtulma	-10.4292
altı	-10.4294
▁Kale	-10.4297
▁seçile	-10.4302
▁salon	-10.4303
▁atarak	-10.4305
▁alımı	-10.4306
▁odak	-10.431
▁bakanlık	-10.4311
▁sistemleri	-10.4313
ıt	-10.4315
▁geçmek	-10.4318
▁damar	-10.4318
▁bekle	-10.4319
ılan	-10.4321
▁kimin	-10.4323
▁mayacak	-10.4324
▁ilerleme	-10.4325
▁ısı	-10.4326
▁mo	-10.4332
▁kararın	-10.4337
▁Ağbal	-10.4339
▁Telekom	-10.4339
▁yürürlüğ	-10.4339
▁tahri	-10.4339
▁Cezaevi	-10.4341
▁musunuz	-10.4342
▁Muhar	-10.4343
▁Otomobil	-10.4344
▁talimat	-10.4346
▁mutluluk	-10.4346
▁sakatlık	-10.4347
▁istismar	-10.4354
▁Dairesi	-10.4355
▁Görev	-10.4357
▁Cu	-10.4361
▁sunu	-10.4377
▁duyurul	-10.4379
▁değerlendirdi	-10.438
▁yaşı	-10.4386
▁takviye	-10.4386
▁Çiçek	-10.4386
▁İstikl	-10.4386
▁Katar	-10.4404
▁ekim	-10.4405
▁700	-10.4406
▁artı	-10.4415
▁savundu	-10.4416
▁bulduğu	-10.4416
süz	-10.4417
ket	-10.4424
▁namaz	-10.4426
▁evlerinde	-10.4426
▁kazası	-10.4427
▁yılını	-10.4428
▁yazılım	-10.443
▁üzüntü	-10.4431
▁it	-10.4432
▁derdi	-10.4433
▁güncel	-10.4433
▁dost	-10.4434
▁Muğla	-10.4434
▁kesme	-10.4434
▁Çayk	-10.4435
▁vatandaşın	-10.4437
▁TRT	-10.4437
▁ağaç	-10.4439
ğunu	-10.4446
▁ortam	-10.4447
tim	-10.4449
▁yitirdi	-10.4453
▁somu	-10.4462
▁yapılanması	-10.4465
İT	-10.4471
▁ameliyatı	-10.4475
stsubay	-10.4477
uyor	-10.4481
▁ihmal	-10.4482
pınar	-10.4482
▁8'	-10.4483
▁problem	-10.4486
▁emir	-10.4486
öz	-10.4486
▁hastaneler	-10.4487
▁giri	-10.4487
▁gayret	-10.4494
▁sahipleri	-10.4495
bilmek	-10.4497
leyerek	-10.4501
▁görsel	-10.4502
▁konuş	-10.4505
▁bölgelerinde	-10.4506
ME	-10.4508
▁Yasa	-10.451
▁dünyasında	-10.451
TA	-10.4511
▁vicdan	-10.4511
▁Cumhuriyetçi	-10.4513
▁yürü	-10.4516
yalı	-10.4521
▁bel	-10.4522
üzü	-10.4524
▁Albay	-10.4526
▁gelişmiş	-10.4531
▁moda	-10.4531
▁1,5	-10.4531
▁kedi	-10.4531
▁çapında	-10.4532
▁düşme	-10.4534
▁Güler	-10.4536
▁eşit	-10.454
▁testi	-10.4542
▁cerrahi	-10.4548
▁sınırında	-10.455
▁siyas	-10.4554
▁sayısında	-10.4555
▁ilişkisi	-10.4559
▁yanıtı	-10.4563
▁Uzmanı	-10.4566
▁listesinde	-10.4574
▁nefret	-10.4578
▁alınmış	-10.4579
▁koyma	-10.4579
▁zamanla	-10.4579
▁alçak	-10.4579
▁sine	-10.4581
▁yarışı	-10.4583
▁oluşturuyor	-10.4584
▁duru	-10.4585
▁Kadir	-10.4586
fet	-10.4587
eri	-10.4588
▁istendi	-10.4592
▁güney	-10.4597
▁arttığı	-10.4597
▁grupların	-10.4597
▁Go	-10.4599
▁vade	-10.46
▁analiz	-10.4605
▁meclis	-10.4609
▁yerler	-10.4614
▁havada	-10.4616
▁yıllarında	-10.4618
▁karşılaşmada	-10.4619
▁doku	-10.4624
▁alındığını	-10.4626
▁Quaresma	-10.4627
▁Tosun	-10.4628
Her	-10.4628
zer	-10.4629
▁bilin	-10.4632
▁Sar	-10.4632
▁SGK	-10.4635
DHA	-10.4637
abi	-10.4642
▁gösterile	-10.4644
▁Biden	-10.4649
▁fotoğrafları	-10.4652
ss	-10.4654
▁belgesi	-10.4654
kaç	-10.4655
▁dönemlerde	-10.4662
▁söylemek	-10.4667
▁Yönetimi	-10.4669
▁girişim	-10.4671
▁vermişti	-10.4672
▁istemiyor	-10.4673
▁Kazada	-10.4675
▁blok	-10.4676
sınız	-10.4678
▁yapılır	-10.4679
▁artıyor	-10.4679
▁Aslı	-10.4681
▁vuruşunda	-10.4685
Devlet	-10.4686
ou	-10.4687
▁Star	-10.4689
▁83	-10.4691
▁yaklaşım	-10.4694
▁leme	-10.4694
▁ülkelerinde	-10.4699
▁görüşmelerin	-10.4699
▁tuz	-10.4704
▁kesi	-10.4704
▁savaşın	-10.4704
▁olmakta	-10.4706
▁cu	-10.4716
▁yayınladı	-10.4716
▁öte	-10.4716
▁Tar	-10.4717
▁Sevgili	-10.4719
▁edileceği	-10.4725
▁Levent	-10.4725
▁Kanada	-10.4726
▁çizdi	-10.4727
▁liğin	-10.4728
▁müdahalesi	-10.473
▁albüm	-10.4733
▁özür	-10.4734
lemiş	-10.4735
▁SI	-10.474
▁emri	-10.4744
▁saati	-10.4745
EM	-10.4747
-4	-10.4749
▁sunula	-10.4751
▁Q	-10.4752
▁Kendisi	-10.4754
▁Projesi	-10.4755
▁namazı	-10.4756
▁göstermek	-10.4758
▁yatırımlar	-10.4759
▁Borsa	-10.4764
▁nun	-10.4766
▁Neden	-10.4766
▁götürdü	-10.4766
▁halkını	-10.4771
uyruklu	-10.4774
▁Elektrik	-10.4774
▁Muhammet	-10.4774
▁Mutlu	-10.4774
▁Zafer	-10.4774
▁çektiği	-10.4775
▁resim	-10.4775
▁Mesu	-10.478
▁89	-10.478
▁Vatan	-10.4787
▁yüzünü	-10.4789
yolu	-10.479
▁satıla	-10.4793
▁Camii	-10.4794
▁boy	-10.4797
▁Konut	-10.4804
luyor	-10.4806
▁ettiğimiz	-10.4807
▁savcılık	-10.4807
▁ani	-10.4808
▁şeyin	-10.481
▁toplaya	-10.4813
▁çatı	-10.4813
▁başlattığı	-10.4814
▁katkısı	-10.4823
▁lardır	-10.4823
Android	-10.4823
▁kilogram	-10.4823
▁Mevlü	-10.4823
▁Ermeni	-10.4823
▁İspanyol	-10.4824
▁üssü	-10.4825
▁bil	-10.4826
AZ	-10.4828
▁kullanıcı	-10.483
▁şoförü	-10.4831
▁9'	-10.4833
▁geçer	-10.4835
▁etmesini	-10.4837
▁yse	-10.4838
▁kıyı	-10.4839
▁ham	-10.4842
▁dünyasını	-10.4845
▁hepimiz	-10.4847
▁71	-10.4849
var	-10.485
▁kaldıra	-10.485
▁ilişkilerin	-10.4852
▁8,	-10.4857
▁Tot	-10.4859
▁yakıt	-10.486
▁ir	-10.486
▁şehrin	-10.4861
▁ters	-10.4866
q	-10.4869
▁Çift	-10.4872
▁Oğuz	-10.4872
▁Münih	-10.4873
▁başbakan	-10.4874
▁Adnan	-10.4874
▁şahit	-10.4874
▁başlandı	-10.4875
▁Hanım	-10.4876
▁Final	-10.4878
▁kadını	-10.488
▁nakli	-10.4883
▁74	-10.4883
▁çıkardığı	-10.4885
ebe	-10.4886
▁olmaları	-10.4888
▁indirimi	-10.4889
▁etkisini	-10.4904
▁çalıştığını	-10.4915
▁baskın	-10.4915
land	-10.4916
▁dönüştü	-10.4922
▁maçlarda	-10.4922
▁Avukat	-10.4923
▁bay	-10.4924
▁dördüncü	-10.4924
▁oluşuyor	-10.4924
▁Tunceli	-10.4928
▁milleti	-10.4928
▁20'	-10.4931
▁isyan	-10.4932
▁sunduğu	-10.4936
▁oturum	-10.4938
▁Dünyada	-10.4941
▁oyunları	-10.4946
ong	-10.4954
▁görü	-10.4959
▁mesajları	-10.496
▁ağız	-10.4961
▁baka	-10.4962
▁gözleri	-10.4962
▁tespiti	-10.4965
▁AVM	-10.4973
▁Öksüz	-10.4973
▁planları	-10.4974
▁elimizde	-10.4974
▁eleme	-10.4975
▁Kerry	-10.4976
▁saatlerde	-10.4984
▁aileleri	-10.4989
▁cezaevin	-10.4991
▁cağını	-10.4993
▁çalışanların	-10.5
▁oranını	-10.5001
▁gemisi	-10.5005
ac	-10.5011
▁çekildi	-10.5014
▁köyü	-10.5022
▁öldüre	-10.5023
▁mıştı	-10.5025
▁edenler	-10.5026
▁edilirken	-10.5027
▁düşünüyoruz	-10.5027
▁denile	-10.5027
▁Şam	-10.5028
▁içeriği	-10.503
▁vali	-10.503
▁82	-10.5035
▁lıyor	-10.5037
▁kılı	-10.5038
▁ga	-10.5039
▁Kişi	-10.5041
▁bahçe	-10.5042
▁silahı	-10.5043
▁tatili	-10.5044
▁hastalıklar	-10.5053
▁muhalifler	-10.5053
▁Fed	-10.5056
▁SE	-10.5061
▁ikisi	-10.5061
▁deneme	-10.5062
gar	-10.5062
▁değiliz	-10.5063
▁ajansı	-10.5065
▁eşini	-10.5067
▁işlemler	-10.5067
▁eylemleri	-10.5067
bur	-10.5073
▁randevu	-10.5075
▁galip	-10.5075
▁çıkarmak	-10.5075
▁deneyim	-10.5075
dy	-10.5077
▁Ercan	-10.5078
▁ol	-10.5082
▁hazırlanıyor	-10.5083
▁Ser	-10.5083
▁albümü	-10.5085
▁girmek	-10.5088
▁yatırımları	-10.5088
▁lezzet	-10.5089
▁vesile	-10.5089
▁hedefleri	-10.5097
▁Okulu	-10.5097
▁Çocuklar	-10.5099
▁!"	-10.5109
▁haksız	-10.5112
▁konuldu	-10.5116
ÜR	-10.5119
▁pazarı	-10.5123
▁utan	-10.5124
▁maaşı	-10.5125
▁ağabeyi	-10.5126
▁Seçim	-10.5126
▁kıyasla	-10.5126
▁getire	-10.5126
▁oğlunu	-10.5126
▁konula	-10.5127
TE	-10.5127
▁Celal	-10.5128
▁olduğundan	-10.5129
▁etmektedir	-10.5131
▁başlığı	-10.5136
▁dediler	-10.5138
▁evini	-10.5139
▁başladık	-10.5139
▁lerdir	-10.5141
▁Toplum	-10.5146
aç	-10.5146
▁AR	-10.5147
▁gelmeye	-10.5156
▁isteme	-10.5159
ami	-10.516
▁skor	-10.5161
▁seni	-10.5163
▁61	-10.5163
▁başarısız	-10.5165
▁piyasada	-10.5173
▁gönül	-10.5174
▁litre	-10.5177
▁Sorumlu	-10.5177
▁erkekler	-10.5181
▁yorlar	-10.5186
▁babasını	-10.5186
▁geleceğini	-10.5187
▁neticesi	-10.5191
▁sev	-10.5192
▁Bina	-10.5194
▁öğrenile	-10.5198
▁standart	-10.5199
▁dergisi	-10.5211
▁tekne	-10.5214
▁seviyede	-10.5216
▁sizler	-10.5216
▁yaşanma	-10.5217
▁12.	-10.5224
▁etmiyor	-10.5227
▁gü	-10.5227
kul	-10.5229
▁yeteri	-10.5232
▁firması	-10.5232
▁giderken	-10.5234
▁verileri	-10.5235
▁şehidin	-10.5238
▁filmde	-10.5244
▁lisans	-10.5244
▁seviye	-10.5256
İR	-10.5257
▁katında	-10.5258
▁Yıllar	-10.526
▁kesim	-10.5262
▁tasarruf	-10.5266
sever	-10.5267
▁han	-10.5268
▁verimli	-10.5269
▁uyar	-10.5272
▁kullanıldı	-10.5275
▁yenilgi	-10.5277
▁Körfez	-10.528
▁Müsteşar	-10.528
▁kazanç	-10.5281
▁mevzuat	-10.5282
▁İnsanlar	-10.5283
▁geçeceği	-10.5283
▁dağıt	-10.5283
▁gerekmektedir	-10.5284
▁getirerek	-10.5285
▁Akıl	-10.5285
▁Emir	-10.5287
▁Birinci	-10.5288
▁tamamlana	-10.529
▁Zirvesi	-10.529
▁kolu	-10.5291
▁doğumlu	-10.5292
▁50'	-10.5293
▁içe	-10.5297
▁duruşu	-10.5298
▁müz	-10.5301
En	-10.5304
▁madığı	-10.5304
▁sorma	-10.5307
xy	-10.531
▁Fuarı	-10.5312
▁v	-10.5313
▁Zeki	-10.5322
▁Sel	-10.5323
▁lerdi	-10.5329
▁ayağ	-10.5332
▁Avustralya	-10.5332
▁tebrik	-10.5332
▁Sabri	-10.5332
▁çekici	-10.5333
▁Karşılaşma	-10.5333
▁boşanma	-10.5333
▁İmam	-10.5334
▁Özcan	-10.5335
▁kendimi	-10.5338
▁aşamasında	-10.5341
▁kendiniz	-10.5345
▁2.5	-10.5346
lığını	-10.5346
▁konumunda	-10.5348
▁Ru	-10.5349
▁belgeler	-10.5351
fo	-10.5356
▁tehdidi	-10.5359
▁to	-10.5361
▁hükm	-10.5362
▁tesisi	-10.5362
▁okudu	-10.5364
▁cezaevinde	-10.5366
▁etmekte	-10.5367
▁yaralılar	-10.5372
çu	-10.5374
10	-10.5374
▁uçağın	-10.5375
▁Gör	-10.5376
▁Kazan	-10.5376
▁vermeyi	-10.5376
▁ortağı	-10.5377
CE	-10.5378
▁demiş	-10.5379
▁başlamıştı	-10.538
▁stres	-10.5381
▁sorunların	-10.5381
▁Jan	-10.5381
▁radyo	-10.5382
▁öde	-10.5384
▁Bingöl	-10.5385
▁ufak	-10.5385
▁bonservis	-10.5386
▁Gümüş	-10.5387
▁1-1	-10.5387
▁falan	-10.5389
▁operasyonların	-10.5389
▁değilim	-10.5391
▁Yakın	-10.5391
▁yakalaya	-10.5392
▁terörün	-10.5396
▁sakinleri	-10.5403
cüsü	-10.5403
▁şüphesi	-10.5404
▁195	-10.5406
▁biten	-10.5406
▁diği	-10.5407
▁Hep	-10.5408
▁hattında	-10.5408
▁Sal	-10.5409
▁geçi	-10.541
leşti	-10.5411
ucu	-10.5413
▁okulda	-10.5415
ans	-10.5416
şer	-10.542
▁muhafaza	-10.5421
▁Tekin	-10.5421
so	-10.5423
▁araçla	-10.5424
▁emeklilik	-10.5424
▁Has	-10.5427
▁Onu	-10.5429
▁Yaz	-10.543
ılmış	-10.5437
▁İLGİ	-10.5437
▁Batman	-10.5437
▁Pınar	-10.5438
eşke	-10.5438
hmet	-10.5438
▁Ulaştırma	-10.5439
▁gül	-10.5443
▁Kut	-10.5443
▁2003	-10.5444
▁üretile	-10.5462
▁2,9	-10.5463
▁çalışanlar	-10.5465
▁gördüğünü	-10.5466
▁artırma	-10.5467
▁forvet	-10.5467
▁görüşmede	-10.5473
▁Adı	-10.5475
▁arı	-10.5476
▁adımı	-10.5477
▁firmalar	-10.548
tomotiv	-10.5483
▁Direktör	-10.5484
sayiş	-10.5486
NA	-10.5488
▁hatırlattı	-10.549
▁Polat	-10.5491
▁cek	-10.5492
▁bilmiyorum	-10.5493
▁Esra	-10.5495
▁kaçırma	-10.5497
▁eri	-10.5498
duğu	-10.5498
▁Sü	-10.55
▁golle	-10.5504
▁mart	-10.5505
▁takımını	-10.5507
▁haklarını	-10.5508
▁ez	-10.5509
▁arıyor	-10.5511
▁verilme	-10.5511
▁değerlendirile	-10.5512
▁sat	-10.5512
▁soy	-10.5514
▁boşa	-10.5519
▁84	-10.5519
▁hita	-10.552
▁sakin	-10.5521
▁örneği	-10.5522
▁yarata	-10.5523
▁paylaştığı	-10.5526
mıza	-10.5527
▁Evi	-10.5529
▁kulübü	-10.553
▁önemi	-10.5531
▁önlem	-10.5539
▁Gümrük	-10.5544
▁roket	-10.5544
▁emanet	-10.5544
▁çukur	-10.5544
▁yanıtladı	-10.5545
▁kurulması	-10.5546
▁arzu	-10.5546
▁Hakim	-10.5546
▁mesajlar	-10.5549
▁yolculuk	-10.5551
▁dinle	-10.5552
▁önünü	-10.5552
düğü	-10.5556
▁sır	-10.5561
▁abi	-10.5563
▁nızda	-10.5564
ron	-10.5567
▁giriyor	-10.5569
LIK	-10.5571
▁programında	-10.5572
şan	-10.5572
▁fikri	-10.5578
▁düşü	-10.5583
▁sözleşmesi	-10.5583
▁kapatma	-10.5586
▁gelişi	-10.5587
▁bahar	-10.5589
▁kuvvetleri	-10.5594
▁iftira	-10.5597
▁metro	-10.5597
▁böbrek	-10.5597
▁paylaş	-10.5598
▁Yenikapı	-10.5598
▁Yüksekova	-10.5598
▁sarf	-10.5599
▁çaldı	-10.5599
▁hacmi	-10.5599
▁benzin	-10.56
▁2004	-10.5604
▁kararlar	-10.5606
▁Organiz	-10.5606
▁evleri	-10.5607
▁pahalı	-10.5607
▁Ban	-10.561
▁ayır	-10.5611
▁Musa	-10.5611
▁koruya	-10.5612
▁başvurusu	-10.5614
▁evlerin	-10.5615
▁festival	-10.5615
▁ün	-10.5617
▁davada	-10.5627
▁getiri	-10.5628
▁gel	-10.563
▁problemi	-10.5633
▁Hizmet	-10.564
▁kazanmak	-10.5643
▁sureti	-10.5644
▁Müslümanlar	-10.5647
▁ladı	-10.5648
▁sevgilisi	-10.565
▁Hal	-10.5651
▁Peygamber	-10.5651
Elbette	-10.5651
▁beklentisi	-10.5653
▁isteyenler	-10.5654
▁Tesisleri	-10.5656
▁Ger	-10.5657
▁çe	-10.5658
▁OHAL	-10.566
▁haps	-10.566
▁sanıklar	-10.5663
▁ayar	-10.5667
▁diğeri	-10.5668
▁şunlar	-10.5668
▁Daire	-10.5669
▁oluşturula	-10.567
▁detayları	-10.5673
▁çalışanları	-10.5673
▁ilişkilerini	-10.5677
▁konuları	-10.5679
▁malzeme	-10.5686
▁elleri	-10.5686
▁tel	-10.5687
▁cihaz	-10.5688
▁imkan	-10.5688
▁amaçla	-10.5689
▁yatırımı	-10.5692
▁sorgu	-10.5694
ıpkı	-10.5696
▁egzersiz	-10.5696
dikleri	-10.5696
▁muhalifleri	-10.5699
▁hiss	-10.57
▁kurdu	-10.5702
kâr	-10.5702
▁Destek	-10.5705
▁Diyanet	-10.5705
▁Satış	-10.5705
▁otopsi	-10.5705
▁masum	-10.5706
▁gerçekleştirme	-10.5708
▁anket	-10.5709
▁kökenli	-10.571
▁1.2	-10.5711
▁Messi	-10.5712
▁kalite	-10.5713
▁Berat	-10.5714
▁mühendis	-10.5714
▁tanıtım	-10.5719
om	-10.5719
▁senaryo	-10.5725
▁tıp	-10.5729
▁uygulamalar	-10.5731
▁ruhu	-10.5732
▁kızın	-10.5735
▁yap	-10.5736
▁çekmek	-10.5738
▁bo	-10.574
▁çöze	-10.5744
▁havalimanı	-10.5745
▁belirsiz	-10.5753
▁kaldırıldığı	-10.5756
▁HABER	-10.5759
ullah	-10.5759
▁sanki	-10.576
▁Abdul	-10.576
▁ideal	-10.576
▁layık	-10.576
▁iddialar	-10.5761
▁çalışırken	-10.5761
▁kültürü	-10.5761
▁aldım	-10.5762
▁2006	-10.5766
▁başlamış	-10.5769
▁biliyorum	-10.5772
▁Dizi	-10.5773
▁eleştire	-10.5781
▁Müzesi	-10.5784
▁geçirme	-10.5784
▁kaygı	-10.579
▁hayırlı	-10.5791
▁imam	-10.58
▁Yazı	-10.5802
▁Tarih	-10.5809
▁Başsavcı	-10.5809
▁bitirdi	-10.5811
▁idi	-10.5813
▁Trafik	-10.5814
▁Karşıyaka	-10.5814
▁özetle	-10.5815
▁maliyet	-10.5816
▁şekli	-10.5817
▁katılacak	-10.5817
▁isterim	-10.5819
▁Kay	-10.582
▁trafiğ	-10.582
▁gele	-10.582
▁arsa	-10.5821
▁mide	-10.5825
▁sürecek	-10.5826
▁Başarı	-10.5831
▁söylemişti	-10.5832
lacivertliler	-10.5832
▁değişik	-10.5832
▁duk	-10.5833
▁değişti	-10.5833
▁okullar	-10.5834
▁10.	-10.5835
▁Din	-10.5838
-3	-10.584
▁propagandası	-10.5843
▁yürütme	-10.5845
▁Filistin	-10.5848
▁Fer	-10.5849
▁öğretmeni	-10.5851
▁Kars	-10.5852
▁tedbirler	-10.5852
▁sağlar	-10.5853
▁kararlı	-10.5858
▁ekibin	-10.5859
▁Martin	-10.586
▁mızda	-10.5862
alkınma	-10.5863
▁kay	-10.5866
▁Şey	-10.5867
▁Bakırköy	-10.5869
▁Ağrı	-10.587
▁ahlak	-10.587
▁getirecek	-10.5872
mayacak	-10.5872
▁çıkarken	-10.5875
▁adamın	-10.5878
▁Rum	-10.588
▁geze	-10.5882
▁karşılığın	-10.5882
▁perde	-10.5885
▁aksine	-10.589
▁kulübe	-10.5891
▁artırmak	-10.5891
▁camia	-10.5896
▁sında	-10.5897
▁kese	-10.5898
▁paylaşımı	-10.5901
▁üstünlüğü	-10.5908
▁boya	-10.5909
▁10'	-10.591
▁galibiyeti	-10.5915
▁kelime	-10.5916
▁Gökçe	-10.5917
▁Pan	-10.5919
▁hafıza	-10.5924
▁Podolski	-10.5924
▁durdurulması	-10.5924
▁köyünde	-10.5926
▁şikayetçi	-10.5927
▁görevde	-10.5929
▁Akif	-10.5929
▁kanat	-10.5929
▁yatak	-10.5932
▁vefat	-10.5933
▁filmleri	-10.5938
▁öldürüle	-10.594
▁uzakta	-10.5942
▁olayların	-10.5947
▁fiyatlar	-10.5948
▁isten	-10.5948
▁bilgisini	-10.5951
dışı	-10.5952
▁yönetimin	-10.5955
▁yargılama	-10.5956
▁şehirler	-10.596
▁Op	-10.5964
▁düşürme	-10.5967
▁Sigorta	-10.5969
LER	-10.597
çü	-10.5974
▁oynayacağı	-10.5974
▁sıvı	-10.598
▁Erdal	-10.598
▁kimyasal	-10.598
▁veriliyor	-10.5981
▁biliniyor	-10.5981
▁inanç	-10.5983
▁Engin	-10.5983
▁uygulanacak	-10.5984
▁Akıncı	-10.5985
▁edilmesini	-10.5989
▁set	-10.599
▁çocuğunu	-10.5993
▁çalışa	-10.5997
▁kendimiz	-10.5999
▁izleyici	-10.6001
▁karakteri	-10.6002
▁gözyaş	-10.6006
par	-10.601
▁vizyon	-10.601
▁duyguları	-10.6015
▁TA	-10.6017
▁çalışmak	-10.6018
▁çanta	-10.6018
syon	-10.602
▁husus	-10.6025
▁faydalı	-10.6025
▁ihtiyaçları	-10.6026
▁86	-10.6026
▁Dağ	-10.6028
▁meşru	-10.6034
▁par	-10.6036
▁sürüldü	-10.6036
▁sekiz	-10.6039
▁oturu	-10.604
▁dum	-10.6041
▁veriyoruz	-10.6045
▁İlhan	-10.6046
▁salı	-10.6047
▁güveni	-10.6049
▁şut	-10.605
▁uydu	-10.6051
▁restoran	-10.6052
▁tuta	-10.6055
▁gazı	-10.6059
▁düş	-10.6064
▁Sezon	-10.6069
▁van	-10.607
▁Mark	-10.6074
che	-10.6077
sinden	-10.6081
▁Dağı	-10.6081
▁ili	-10.6082
▁yarar	-10.6083
▁oluşturdu	-10.6084
▁koyduğu	-10.6084
EK	-10.6088
▁Diş	-10.6088
▁mizle	-10.6089
▁tarz	-10.609
AP	-10.6091
▁edilebilir	-10.6092
▁hariç	-10.6092
▁yapmıştı	-10.6092
▁Başkent	-10.6092
▁çağırdı	-10.6092
IN	-10.6095
▁içme	-10.6098
▁şeyleri	-10.6099
▁dernek	-10.6099
▁riskini	-10.6101
▁ihlali	-10.6102
▁adında	-10.6103
▁gelmişti	-10.6109
▁tutuk	-10.6111
▁kesti	-10.6118
▁Bahçe	-10.6119
▁platform	-10.6125
▁kategori	-10.613
▁Kurba	-10.6137
▁Ant	-10.6141
▁Yoks	-10.6141
▁abone	-10.6142
▁Ah	-10.6143
▁KA	-10.6145
▁Pat	-10.6146
▁bakıyor	-10.6146
▁Şehidi	-10.6148
▁manevi	-10.6149
▁Gerek	-10.615
sko	-10.6154
▁Banka	-10.6155
▁has	-10.6156
▁uygulanması	-10.6156
▁çek	-10.6157
yiz	-10.6159
ayrimenkul	-10.6162
▁planlan	-10.6168
▁Far	-10.6169
▁mekan	-10.6171
Ekonomi	-10.6174
▁göze	-10.6174
▁lığın	-10.6179
▁yurtdışı	-10.6185
▁eksikliği	-10.6187
▁gire	-10.619
▁eğ	-10.6192
▁aya	-10.6192
▁taşın	-10.6198
▁detaylar	-10.6199
▁özgü	-10.6201
▁dıkları	-10.6201
▁kül	-10.6203
net	-10.6204
▁sevgili	-10.6204
▁gittiğini	-10.6204
▁ömür	-10.6205
▁küfür	-10.6206
▁bıraktığı	-10.6209
▁gündemde	-10.6211
▁ME	-10.6212
siniz	-10.6213
▁Kul	-10.6214
▁oturma	-10.6216
▁kullanılma	-10.6218
▁Şüpheliler	-10.6218
▁yapmadı	-10.6222
▁Hakem	-10.6224
▁Zor	-10.6224
▁kalkınma	-10.6225
▁Camisi	-10.6227
▁ihtiyacımız	-10.6227
▁alet	-10.6231
▁ürünlerin	-10.6232
ess	-10.6234
▁hekim	-10.6235
▁Operasyon	-10.6236
▁Hasta	-10.6238
▁ticareti	-10.6238
▁Gerçek	-10.6244
▁tamamını	-10.6248
▁Ön	-10.625
▁20.00	-10.6251
▁organ	-10.6253
▁Yabancı	-10.6254
▁alanlar	-10.6254
▁yaptım	-10.6256
▁yapabilir	-10.626
▁olduğum	-10.6261
▁Silopi	-10.6262
▁Meteoroloji	-10.6262
▁cumartesi	-10.6262
▁Selaha	-10.6262
▁konvoy	-10.6262
▁Rıza	-10.6262
▁duyuru	-10.6264
▁saldırılarını	-10.6268
▁05	-10.627
▁söylüyorum	-10.627
▁kararlılık	-10.6273
▁sigortası	-10.6276
▁saldırıların	-10.6278
▁hesapları	-10.628
▁teşebbüs	-10.628
▁virüs	-10.6282
▁ödene	-10.6288
▁yararlana	-10.6289
▁zafer	-10.6289
lenecek	-10.629
▁eser	-10.629
▁Nite	-10.6291
▁çifti	-10.6294
▁konuşuyor	-10.6296
▁yöntemler	-10.6297
▁içer	-10.6299
▁Pek	-10.6307
▁Arjantin	-10.632
▁ideoloji	-10.632
▁basketbol	-10.632
▁Muslera	-10.632
▁Vergi	-10.632
▁etap	-10.6321
▁Komitesi	-10.6322
▁Bürosu	-10.6322
▁çarpa	-10.6323
▁LARI	-10.633
▁Otel	-10.633
▁atılması	-10.6337
▁hepsini	-10.6338
▁maması	-10.6342
▁aylar	-10.6343
▁Par	-10.6345
▁cağı	-10.6346
berg	-10.6346
▁hayali	-10.6349
▁adaylar	-10.635
▁şiir	-10.6353
mem	-10.6358
▁kaybetmesi	-10.636
▁sınıfı	-10.6362
▁faaliyetlerini	-10.6363
▁Harekat	-10.6364
▁yaşamak	-10.6366
▁luğu	-10.6369
▁yat	-10.6372
▁göstere	-10.6374
-16	-10.6375
▁ısrar	-10.6375
▁muayene	-10.6377
▁apartman	-10.638
rit	-10.6381
▁yansıdı	-10.6381
▁Özkan	-10.6382
TÜ	-10.6389
gr	-10.6392
▁Adem	-10.6396
▁Programı	-10.64
▁denk	-10.6402
▁politikaları	-10.6402
▁Sır	-10.6404
▁görüldüğü	-10.6412
bat	-10.6414
▁kamuoyun	-10.642
▁liderleri	-10.6423
▁Kral	-10.6424
▁korunma	-10.6424
▁Mak	-10.6425
▁Dev	-10.6426
▁bağı	-10.6426
ser	-10.643
▁nuz	-10.6432
▁tanıma	-10.6433
▁edebilir	-10.6434
▁hassas	-10.6435
▁Dört	-10.6435
▁Kış	-10.6436
YE	-10.6436
▁meyecek	-10.644
▁pa	-10.6443
▁kadrosunda	-10.6448
▁seviyesi	-10.645
▁uzmanlar	-10.6453
▁rengi	-10.6455
▁götürme	-10.6464
▁tarihini	-10.6466
laştı	-10.6469
▁bulunmuştu	-10.6469
▁paketi	-10.647
▁99	-10.647
▁yarattığı	-10.6473
▁derecede	-10.6476
▁kazada	-10.6477
45	-10.6477
▁laf	-10.6477
lmış	-10.6481
▁Ulu	-10.6482
bank	-10.6484
org	-10.6485
▁şüphelileri	-10.6487
▁Eto	-10.6489
▁etmez	-10.649
▁Tiyatro	-10.6491
▁Elazığ	-10.6493
▁müzakere	-10.6493
▁Uygulama	-10.6494
▁robot	-10.6494
▁Kitap	-10.6494
▁koltuk	-10.6494
▁Mimar	-10.6495
▁kısım	-10.6495
▁düşüyor	-10.6496
▁Beyoğlu	-10.65
▁sakatlığı	-10.6503
▁Filmi	-10.6507
▁Araç	-10.6515
▁baktığımız	-10.6518
▁Biri	-10.6522
▁kanama	-10.6523
▁arkadaşlarımız	-10.6523
Bugün	-10.6526
▁militanları	-10.6527
▁değerleri	-10.6527
▁tadı	-10.6529
▁kurtarı	-10.6529
▁buz	-10.6532
▁Hz	-10.6533
▁Muh	-10.6534
port	-10.6535
▁gençleri	-10.6536
▁büyüdü	-10.6538
▁konular	-10.6539
▁Vatandaşlar	-10.6546
▁Cüney	-10.6553
▁Sabancı	-10.6553
▁Instagram	-10.6553
▁Tanı	-10.6554
▁edilemez	-10.6556
▁alakalı	-10.6557
▁yerlerinde	-10.6557
▁tutula	-10.6557
▁beden	-10.6565
▁türü	-10.6565
▁tuzak	-10.6566
▁İlişkiler	-10.6567
▁lü	-10.6568
▁Ortak	-10.657
▁ödeye	-10.657
▁dans	-10.657
tür	-10.657
▁gecikme	-10.6576
▁gereks	-10.6581
▁Je	-10.6581
tem	-10.6598
lacivertli	-10.6599
▁olgu	-10.66
▁sisteminde	-10.6601
▁okur	-10.6605
▁grupta	-10.6607
▁bölgeler	-10.6608
avid	-10.661
▁3-	-10.6611
▁Hamza	-10.6611
▁Doç	-10.6611
▁Yiğit	-10.6612
▁çöp	-10.6612
Boğaziçi	-10.6613
▁Ersoy	-10.6613
▁yaşaya	-10.6615
▁Yol	-10.6615
▁"...	-10.6617
▁Ordusu	-10.6618
▁bağlaya	-10.6618
▁yurdu	-10.6618
▁rahatsızlık	-10.662
▁aranan	-10.662
▁kardeşim	-10.6622
jen	-10.6624
▁reform	-10.6628
▁dü	-10.6629
▁üretici	-10.663
gil	-10.6635
▁ağ	-10.6636
▁borsa	-10.6637
KA	-10.6641
▁kalmak	-10.6642
▁talepleri	-10.6643
▁başlata	-10.6643
▁Mavi	-10.6643
▁sundu	-10.6643
▁oluştu	-10.6644
▁geçmeye	-10.6645
▁zararı	-10.6646
miştir	-10.6647
▁Bahar	-10.6649
od	-10.665
▁bankaların	-10.6651
▁2015"	-10.6651
▁yollarını	-10.6652
▁kesimleri	-10.6652
▁golcü	-10.6652
▁firmaların	-10.6656
▁almayı	-10.6659
▁birlikleri	-10.6662
▁gök	-10.6663
▁karışık	-10.6664
û	-10.6668
▁resme	-10.6668
▁yetkililerin	-10.667
▁FIFA	-10.6671
▁tweet	-10.6671
▁Napoli	-10.6671
▁Müzik	-10.6672
▁Enstitüsü	-10.6672
▁siyasetin	-10.6672
▁olabilecek	-10.6672
▁Meslek	-10.6673
▁olmuyor	-10.6675
▁kayd	-10.6676
▁vazgeç	-10.6677
▁seçe	-10.6679
▁17-2	-10.6681
▁Cemal	-10.6681
▁cevabını	-10.6682
▁2005	-10.6683
▁oto	-10.6684
▁direkt	-10.6684
vekili	-10.6694
▁bırakıla	-10.6695
▁unsurları	-10.6699
hat	-10.6701
▁lama	-10.6702
▁Mali	-10.6703
▁ah	-10.6706
▁başkanlığında	-10.6706
▁Kaynak	-10.6706
▁saye	-10.6709
▁bas	-10.671
▁bankacılı	-10.6713
rip	-10.6714
▁hizmetler	-10.6714
▁yemeği	-10.6718
▁teröristi	-10.6719
▁gideceği	-10.6725
▁2018	-10.673
▁şifa	-10.6731
▁Şampiyonası	-10.6732
Ebru	-10.6733
ft	-10.6734
▁Sey	-10.6736
▁bebeğin	-10.6737
▁mükemmel	-10.6738
▁Yılı	-10.6746
▁Özal	-10.6748
▁tamamlanması	-10.6749
▁seviyesini	-10.675
▁gaye	-10.6754
▁suçlaması	-10.6758
İstanbul	-10.6765
▁oyu	-10.6766
▁yazısı	-10.6767
▁liğini	-10.6769
▁sözcü	-10.6769
▁bildiğini	-10.6769
▁etmiştir	-10.677
▁yakış	-10.6772
▁ihracatı	-10.6773
İYOR	-10.6776
▁taşıdı	-10.6778
▁01	-10.6785
▁Akşam	-10.6792
▁Hazine	-10.6792
▁protein	-10.6792
▁zehir	-10.6798
▁Mal	-10.6801
▁parçaları	-10.6802
▁okulu	-10.6806
▁pil	-10.6807
TL	-10.6807
▁terörü	-10.6808
▁çocuklarını	-10.6813
▁operasyonları	-10.6814
▁kaliteli	-10.6814
▁iadesi	-10.6815
▁Siyas	-10.6818
▁verdim	-10.682
ilmiş	-10.6821
▁darbeci	-10.6821
mer	-10.6826
▁yapacağını	-10.683
▁soruya	-10.6831
▁beklenti	-10.6832
▁olmasa	-10.6835
▁söyler	-10.6836
▁Düzen	-10.6838
▁Yerli	-10.684
NE	-10.6842
▁varil	-10.6844
▁vadede	-10.6844
▁seyir	-10.6845
▁Yüksel	-10.6852
▁yolsuzluk	-10.6852
▁saldırdı	-10.6857
▁göstererek	-10.6857
▁Federa	-10.6857
orku	-10.6862
ınca	-10.6865
▁Bayer	-10.6867
▁Yaralılar	-10.6869
▁personelin	-10.6874
▁Şener	-10.6876
▁nizde	-10.6877
▁ulaşmak	-10.6883
▁futbolcuların	-10.6884
▁hesabını	-10.6886
▁iletti	-10.6886
▁başını	-10.6886
▁Avrupalı	-10.6889
▁aşama	-10.6891
▁işini	-10.6892
▁akademisyen	-10.6896
IM	-10.6897
▁cephe	-10.6897
▁anti	-10.6898
▁rekoru	-10.6898
diklerini	-10.69
▁ettire	-10.6906
▁iddianamede	-10.6909
uh	-10.6911
▁çıkarıldığı	-10.6912
cik	-10.6912
▁bakıldığında	-10.6913
▁göm	-10.6913
▁aktarıldı	-10.6913
▁kariyeri	-10.6914
▁Üssü	-10.6914
▁maddeler	-10.6915
▁danışman	-10.6917
▁Yanal	-10.6918
▁emniyette	-10.692
▁Efes	-10.6922
▁hendek	-10.6922
▁savaşa	-10.6922
▁hikâye	-10.6923
▁Okta	-10.6924
▁Dar	-10.6927
▁şer	-10.6928
▁koştu	-10.6929
▁çerçevede	-10.693
▁çabu	-10.6931
▁diyorum	-10.6933
▁otomobili	-10.6934
▁oynamak	-10.6934
ikna	-10.6937
ub	-10.694
▁toplama	-10.6944
▁ihtiyacını	-10.6945
▁kapısı	-10.6947
▁bağlantısı	-10.6948
▁tavrı	-10.6949
▁bireyler	-10.695
▁saatler	-10.6954
▁döner	-10.6955
▁birimi	-10.6958
▁günün	-10.6958
üs	-10.6965
▁hac	-10.6969
▁Partili	-10.6971
▁yazan	-10.6973
soy	-10.6974
▁felaket	-10.6975
▁Rüzgar	-10.6975
▁gürültü	-10.6975
▁Tedavi	-10.6975
▁lehine	-10.6975
▁eyaletinde	-10.6975
▁Bağdat	-10.6975
▁İŞ	-10.6977
▁7,	-10.6977
▁yerleri	-10.6978
▁yüksel	-10.6979
▁pasaport	-10.698
▁değişiklikler	-10.6981
▁yapanlar	-10.6985
▁açığı	-10.6985
▁2001	-10.6986
▁kitle	-10.6989
▁bombası	-10.6991
▁çiftin	-10.6991
▁vurma	-10.6992
▁görünüm	-10.6994
▁temizlik	-10.6995
▁üzül	-10.7005
▁derbisi	-10.7011
▁8.	-10.7014
▁ediyordu	-10.7019
▁duman	-10.7023
bel	-10.7024
▁uyma	-10.7027
▁general	-10.7027
İB	-10.7029
▁Piyasa	-10.7029
▁hastası	-10.703
▁sezonu	-10.703
IR	-10.7031
▁Yüz	-10.7033
▁sabır	-10.7034
▁Uşak	-10.7036
▁gündüz	-10.7036
▁kahvaltı	-10.7038
▁iklim	-10.7038
▁keyfi	-10.7039
▁Doğru	-10.7041
▁tarama	-10.7043
▁programları	-10.7043
tme	-10.7044
▁Olağan	-10.7045
▁kanı	-10.7045
▁Taksim	-10.7046
▁Kandil	-10.7046
▁Toprak	-10.7046
▁ist	-10.7047
lli	-10.705
▁liman	-10.7052
▁devi	-10.7056
abı	-10.7056
▁sıkıntılar	-10.7058
▁arayan	-10.7059
▁Töre	-10.706
▁saldırısını	-10.706
ano	-10.7062
▁ır	-10.7063
▁kalitesi	-10.7066
▁çıkışı	-10.7066
▁yın	-10.7067
▁duyu	-10.7068
▁koku	-10.7076
▁87	-10.7078
▁önlemler	-10.708
▁Gençli	-10.7083
15	-10.7083
▁raporda	-10.7084
▁gündemi	-10.7084
gün	-10.7086
▁hareketleri	-10.7088
zo	-10.7089
▁çalıştıkları	-10.709
▁fazlası	-10.709
▁ekranlar	-10.7091
▁makine	-10.7092
▁kalır	-10.7094
▁koşu	-10.7095
▁görmesi	-10.7097
▁alev	-10.7097
xx	-10.7098
muyor	-10.7098
▁dokunulmazlık	-10.7098
▁pozitif	-10.7098
▁ikamet	-10.7098
▁çıkarılması	-10.71
▁Siyaset	-10.7101
▁girişimci	-10.7102
▁klasik	-10.7102
▁HA	-10.7102
▁Şah	-10.7102
▁West	-10.7102
▁ederiz	-10.7104
▁bilgilendirme	-10.7104
baş	-10.7107
▁çıkacağı	-10.7107
▁İşçi	-10.7108
▁9,	-10.7109
▁Karaman	-10.7111
lediği	-10.7115
▁ofis	-10.7118
▁BA	-10.7121
▁varlık	-10.7123
▁Aksu	-10.7123
▁oylama	-10.7135
▁üretme	-10.7139
▁Hani	-10.7142
▁taraftarların	-10.7147
baba	-10.7151
ulmuş	-10.7155
şbirliği	-10.7157
▁civarı	-10.7157
▁izi	-10.7161
▁cumhuriyet	-10.7161
▁çirkin	-10.7161
▁bisiklet	-10.7161
Sen	-10.7163
▁asit	-10.7164
▁Ona	-10.7165
▁Men	-10.7166
▁miting	-10.7167
ent	-10.7169
▁yakınında	-10.7171
▁olabiliyor	-10.7175
▁projesini	-10.7176
▁kiralama	-10.7176
▁yerleşti	-10.7183
▁vurgulayarak	-10.7186
▁alınma	-10.7187
▁Cha	-10.7188
▁Yan	-10.719
▁Kimi	-10.7191
▁mermi	-10.7199
▁koşa	-10.7201
▁Kızılay	-10.7203
▁Maçı	-10.7204
▁kapasitesi	-10.7206
▁Erkek	-10.7207
▁dağıtım	-10.7207
▁girmiş	-10.7208
ilmesi	-10.7208
▁Del	-10.721
▁anlayış	-10.721
▁uzlaşma	-10.7213
,4	-10.7214
Benim	-10.7214
▁atmak	-10.7215
ince	-10.7217
▁filminde	-10.7219
▁buluşma	-10.7221
▁karşın	-10.7223
▁yargılana	-10.7223
▁Sivil	-10.7224
▁infaz	-10.7224
▁süper	-10.7224
▁tezahürat	-10.7225
▁Plan	-10.7227
▁yağış	-10.7228
▁yaklaştı	-10.723
▁teknolojisi	-10.7233
▁taksit	-10.7233
▁belgesel	-10.7234
▁Bilal	-10.7234
▁oyunda	-10.7235
▁Harun	-10.7238
▁heyecanı	-10.724
▁beğeni	-10.724
▁koyu	-10.7243
▁işsizli	-10.7245
▁tutarı	-10.7246
ÜN	-10.7246
ney	-10.7248
▁kayb	-10.725
▁kapatıla	-10.7252
▁Mahalle	-10.7255
▁iniş	-10.7258
▁söylene	-10.7259
▁hakemi	-10.7259
▁cezalandırılma	-10.7262
▁kaldırdı	-10.7263
▁besin	-10.727
▁satışları	-10.7273
▁he	-10.7273
▁diğini	-10.7274
▁Türkler	-10.7274
▁rakamlar	-10.7278
▁öngör	-10.7281
▁devir	-10.7282
▁Mars	-10.7285
▁Köprü	-10.7285
▁Sistem	-10.7286
▁Şeker	-10.7287
▁Coşkun	-10.7287
▁büyükelçi	-10.7287
▁Afganistan	-10.7287
▁Mobil	-10.7287
▁uzaklıkta	-10.7288
▁Sergi	-10.7288
▁yapılmasını	-10.7288
▁Uzmanlar	-10.7289
▁Üçüncü	-10.7289
▁fiyatlarını	-10.729
▁Teşkilatı	-10.7291
▁Olur	-10.7292
▁milletimizi	-10.7294
▁edic	-10.7296
▁Kürtleri	-10.7301
▁idman	-10.7301
▁(3	-10.7302
▁Salonu	-10.7303
▁destekleme	-10.7308
▁okulların	-10.7311
▁yapımcı	-10.7317
▁operasyonunda	-10.7319
▁Japon	-10.7319
▁koşulları	-10.7319
▁götüre	-10.7323
▁belirleme	-10.7324
▁arkadaşlar	-10.7324
CİHAN	-10.7326
▁Stat	-10.7328
▁cadde	-10.7329
dağ	-10.733
▁Kas	-10.7332
▁Mac	-10.7334
▁kesinti	-10.7341
▁Mil	-10.7341
▁Ailesi	-10.7343
▁sığ	-10.7346
▁sipariş	-10.7351
▁vakıf	-10.7351
▁taban	-10.7352
▁temizleme	-10.7353
ünde	-10.7353
▁girerek	-10.7356
yo	-10.7358
▁yetersiz	-10.7361
▁sezonda	-10.7371
▁kuruluş	-10.7372
landırma	-10.7372
▁zararlı	-10.7374
▁yaşın	-10.7375
▁Olayı	-10.7378
madığı	-10.7384
▁güçler	-10.7387
▁göstermesi	-10.739
▁doların	-10.7393
Çok	-10.7394
▁arayarak	-10.7396
▁Tal	-10.7403
hir	-10.7403
▁Kupa	-10.7407
lduğunu	-10.7409
▁etmediği	-10.7413
▁samimi	-10.7414
▁alerji	-10.7415
▁stoper	-10.7415
▁Adıyaman	-10.7415
▁zorundayız	-10.7415
▁Show	-10.7415
▁Premi	-10.7416
▁getirilmiş	-10.7416
▁geliştirile	-10.7416
▁gelenek	-10.7416
▁korucu	-10.7416
▁mda	-10.7418
▁pro	-10.7421
▁hepimizi	-10.7422
kas	-10.7423
▁Lİ	-10.7424
▁edecektir	-10.7425
▁Kongresi	-10.7426
▁Hastane	-10.7427
▁kolları	-10.7428
▁AYM	-10.7432
▁karın	-10.7432
▁Ayhan	-10.7433
▁Tim	-10.7434
▁tehlikesi	-10.7435
▁İnternet	-10.7435
▁Sert	-10.744
▁laşma	-10.7441
▁kavuştu	-10.7441
▁bildire	-10.7442
▁işsiz	-10.7445
▁değerler	-10.7447
▁Kurum	-10.7447
▁aklı	-10.7453
▁Yetkililer	-10.7453
▁piyasalarda	-10.7455
▁ayakları	-10.7458
▁basını	-10.746
▁düzenlemeler	-10.746
▁yönü	-10.746
▁seçimlerinde	-10.746
▁tutum	-10.7463
TI	-10.7466
▁belirtileri	-10.7467
▁devrim	-10.7469
▁oyunun	-10.747
▁Dil	-10.747
▁şehrinde	-10.7471
▁Ad	-10.7474
▁konuşması	-10.7476
▁Yardım	-10.7476
▁başvurdu	-10.7477
▁kurumların	-10.7478
▁ceğiz	-10.7479
▁koleksiyon	-10.7479
▁elbise	-10.7479
▁tescil	-10.7479
▁peynir	-10.748
▁Gezi	-10.748
▁karıştı	-10.7481
▁biber	-10.7481
rat	-10.7481
▁kapa	-10.7483
▁gerçekleşecek	-10.7484
▁büyümesi	-10.7485
▁Oyun	-10.7488
▁gen	-10.7489
pazartesi	-10.7491
▁2-3	-10.7492
▁kullan	-10.7499
inanılmaz	-10.7499
▁yaptırma	-10.75
▁dönüşü	-10.7501
gh	-10.7503
▁yapılanma	-10.7507
▁Arka	-10.7507
▁eylemler	-10.7508
▁tartışı	-10.7509
▁sayıla	-10.7513
▁dersi	-10.7518
▁anlaşıldı	-10.7518
▁90'	-10.7518
▁etkileye	-10.7518
▁karşımız	-10.7521
yıldız	-10.7522
▁başa	-10.7524
▁otobüsü	-10.7526
▁hastalar	-10.7532
▁görüşmesi	-10.7536
▁kurtardı	-10.7538
▁kırdı	-10.754
▁istikrarı	-10.7541
▁çekim	-10.7542
▁Erzincan	-10.7544
▁Menderes	-10.7544
▁tüketme	-10.7544
▁beraat	-10.7544
▁açılışı	-10.7545
▁Vitor	-10.7545
▁kademe	-10.7545
arslan	-10.7546
▁Nil	-10.7547
▁Yorumu	-10.7548
▁üzeri	-10.7549
▁istiyorlar	-10.7551
▁işyeri	-10.7553
▁bitirme	-10.7553
▁Suç	-10.7555
▁işadamları	-10.7555
▁sanığı	-10.7557
▁kten	-10.756
▁aşan	-10.7562
▁görülme	-10.7564
▁yarattı	-10.7568
▁cümle	-10.7569
▁çözümü	-10.7571
▁evlenme	-10.7579
▁350	-10.7584
▁adresi	-10.7585
▁finansman	-10.7586
▁oluşması	-10.7591
▁inanma	-10.7594
▁Vatandaş	-10.7595
▁hatırla	-10.7596
▁Cor	-10.7598
▁edilme	-10.7599
▁taraflar	-10.7599
▁katliam	-10.7605
▁manzara	-10.7605
▁Turgut	-10.7605
▁esteti	-10.7607
▁şikâyet	-10.7608
▁kısmında	-10.7608
▁memurları	-10.7609
▁Fotoğraf	-10.761
▁Duruşma	-10.761
▁Cinayet	-10.761
▁Azez	-10.7611
▁seviyesin	-10.7612
▁Evde	-10.7614
▁Angel	-10.7615
▁tasarı	-10.7616
Şu	-10.7617
▁kurumsal	-10.7618
▁verirken	-10.7618
▁5-	-10.762
▁beraberliği	-10.762
▁Servis	-10.7623
▁Af	-10.7627
▁İN	-10.7627
▁işlediği	-10.7628
▁mesi	-10.7629
hur	-10.7631
lenir	-10.7635
lâ	-10.7635
▁giydiği	-10.7636
▁ÖSO	-10.7637
▁sorgusu	-10.7642
▁mültecileri	-10.7644
▁inancı	-10.7647
▁yum	-10.7651
▁yönetme	-10.7653
▁kalesin	-10.7655
▁Teröristler	-10.7655
▁cak	-10.766
▁Atleti	-10.766
▁kadrosu	-10.766
▁9.	-10.7661
▁sesleri	-10.7662
▁dönüm	-10.7663
▁mayacağı	-10.7664
▁Mete	-10.7665
▁vazgeçme	-10.7666
▁oranları	-10.7666
▁Kes	-10.7667
▁malzemeleri	-10.7669
▁yayımladı	-10.7675
▁130	-10.7675
▁Danimarka	-10.7675
▁Eyüp	-10.7675
▁vakti	-10.7676
▁Yaşanan	-10.7676
▁yaktı	-10.7676
▁okullarda	-10.7677
▁yapım	-10.7682
▁Temel	-10.7684
SI	-10.7686
▁aileler	-10.7687
▁atışı	-10.7691
▁gördüğüm	-10.7699
▁kapatılması	-10.7701
▁tedir	-10.7702
▁üyelerini	-10.7705
▁yaptırdı	-10.7706
▁günümüz	-10.7706
▁uğraya	-10.7707
▁barın	-10.771
▁bebeği	-10.771
şar	-10.7715
ımı	-10.7716
▁giydi	-10.7716
▁gelişimi	-10.7719
▁sorusunu	-10.7722
▁Koza	-10.7724
▁gelişmesi	-10.7725
dere	-10.7726
▁Ey	-10.7726
▁eleştiriler	-10.7729
▁tanına	-10.7732
▁Mus	-10.7733
▁tanım	-10.7737
▁binada	-10.7738
bilen	-10.7739
▁dilekçe	-10.7739
▁kıs	-10.774
▁Serbest	-10.7742
▁göğüs	-10.7742
▁KDV	-10.7742
▁Moody	-10.7742
▁Bayraktar	-10.7742
▁önerge	-10.7743
▁Lens	-10.7743
▁Şarkı	-10.7743
rack	-10.7746
▁siyaseti	-10.7746
▁duyan	-10.7747
▁Toplantı	-10.7749
▁yatırımcılar	-10.775
▁internette	-10.7752
▁namazını	-10.7753
▁kimler	-10.7755
ort	-10.7756
▁konuşmasını	-10.7761
▁parası	-10.7762
İS	-10.7772
▁nöbeti	-10.7774
türk	-10.7781
▁almadı	-10.7781
▁2,5	-10.7781
▁zamanlar	-10.7782
▁kal	-10.7784
▁cihazlar	-10.7785
▁ge	-10.7785
Terör	-10.7788
terör	-10.779
▁aramada	-10.779
▁kaba	-10.7793
sizlik	-10.7796
▁büyüklüğünde	-10.7799
▁yet	-10.7803
▁bilmiyor	-10.7804
▁Cenaze	-10.7808
▁idrar	-10.7808
▁Amirliği	-10.7808
▁cennet	-10.7808
▁şeref	-10.7809
▁ını	-10.7811
mur	-10.7812
▁VAR	-10.7813
▁elebaşı	-10.7813
üş	-10.7818
▁kişilerde	-10.7818
▁Sow	-10.7822
▁işçiler	-10.7826
▁direktörü	-10.7828
▁j	-10.7832
▁70'	-10.7834
▁başarılar	-10.7835
▁Tom	-10.7837
▁(2	-10.7839
▁sığınmacılar	-10.7839
▁uğradı	-10.7843
RE	-10.7843
▁yo	-10.7849
▁girişimleri	-10.7849
▁davranış	-10.785
▁desteğini	-10.7852
tel	-10.7856
Yeni	-10.7857
▁baskısı	-10.7858
▁referandum	-10.7859
▁seçildi	-10.7865
▁vergisi	-10.7867
seniz	-10.7867
▁silahlar	-10.7867
▁partiler	-10.7868
▁faaliyeti	-10.787
▁minibüs	-10.787
ino	-10.7873
▁turnuva	-10.7875
▁Üsküdar	-10.7875
▁kalori	-10.7875
▁mesai	-10.7876
inizi	-10.7877
eskin	-10.7878
▁çalışacak	-10.7879
▁satan	-10.7879
▁fotoğrafını	-10.788
▁yaşıyoruz	-10.7882
▁çeşit	-10.7882
▁Hil	-10.7882
▁Cemil	-10.7883
▁çekin	-10.7886
▁Adası	-10.7888
rah	-10.7888
▁so	-10.789
▁Operasyonu	-10.7894
ris	-10.7895
▁maçları	-10.7896
▁gördükleri	-10.7897
▁kalkı	-10.7903
▁Kaynaklar	-10.7904
▁giyi	-10.7905
▁topa	-10.7909
▁hayatında	-10.7909
▁Emine	-10.791
▁tepkiler	-10.791
▁çevredeki	-10.7913
▁saray	-10.7914
▁deneyimi	-10.7917
▁aff	-10.7919
Rusya	-10.7923
▁olabil	-10.7925
▁Oto	-10.7926
▁sigortalı	-10.7928
▁hareketli	-10.793
Bizim	-10.7931
▁izlene	-10.7933
▁Şüpheli	-10.7933
▁96	-10.7938
▁Altı	-10.794
Ya	-10.7942
▁şarj	-10.7942
▁4-	-10.7943
▁gelecekte	-10.7943
▁perakende	-10.7943
▁2023	-10.7943
▁bırakıp	-10.7943
Hillary	-10.7944
▁sorusu	-10.7945
▁genci	-10.7947
▁lenme	-10.7949
▁taze	-10.795
▁açılacak	-10.7954
▁uzmanları	-10.7954
gerçekleştirildi	-10.7955
▁serisi	-10.7956
▁kirli	-10.7957
▁İS	-10.7958
▁düz	-10.7959
▁düşüre	-10.7959
▁önü	-10.7972
adil	-10.7972
▁seçenek	-10.7977
▁karşıladı	-10.798
▁Hayır	-10.798
▁Polisi	-10.7986
▁markası	-10.7987
▁beraberinde	-10.799
▁1-	-10.7991
▁seçilmiş	-10.7992
▁pazarında	-10.7992
laşı	-10.7993
▁girişinde	-10.7994
▁verin	-10.7994
▁savunması	-10.7995
▁başlı	-10.7996
▁anlatma	-10.8
▁Gazeteci	-10.8
▁koca	-10.8004
str	-10.8005
▁Tüneli	-10.8007
▁olduğunda	-10.8007
▁Gel	-10.8007
▁Yargı	-10.8009
▁değiştirdi	-10.801
▁Fernandao	-10.8011
▁flaş	-10.8011
▁TÜRKİYE	-10.8011
▁bordo	-10.8011
▁uzatma	-10.8011
▁radikal	-10.8012
▁geneti	-10.8013
▁tutuklanması	-10.8014
▁indirme	-10.8014
▁teşhis	-10.8015
▁hayran	-10.802
▁kıl	-10.802
▁katıla	-10.8021
▁tanıdığı	-10.8022
ografi	-10.8024
▁erteleme	-10.8026
▁skandal	-10.8029
▁tedbirleri	-10.8029
▁Parlamentosu	-10.8031
▁olamadı	-10.8032
▁çiftçi	-10.8032
▁imkânı	-10.8032
▁haklarında	-10.8036
▁girmeye	-10.8038
▁yendi	-10.8038
▁5"	-10.8039
etti	-10.8041
BA	-10.8042
bü	-10.8043
kim	-10.8044
▁çabası	-10.8045
▁Başta	-10.8046
LAR	-10.8049
▁askerin	-10.8049
vo	-10.805
▁kapatıldı	-10.8052
▁hatları	-10.8057
▁Bolu	-10.8058
▁okuyan	-10.8059
▁düzeyinde	-10.8059
şifre	-10.806
▁verip	-10.8063
▁bini	-10.8067
▁İnce	-10.8067
▁dizisinde	-10.8073
▁Polonya	-10.808
▁İletişim	-10.808
▁Şükr	-10.808
▁Zengin	-10.808
▁merdiven	-10.808
▁delege	-10.808
▁1999	-10.8081
▁duruş	-10.8082
▁şov	-10.8083
▁Yazar	-10.8085
Sa	-10.8086
▁kamerası	-10.8089
muştu	-10.8091
▁nisan	-10.8095
▁vurgulandı	-10.8095
▁ür	-10.8096
DU	-10.8096
▁izlediği	-10.8098
▁Hayvan	-10.8103
▁Piyang	-10.8107
▁bulunmak	-10.8109
▁Yarın	-10.8111
▁GB	-10.8113
ral	-10.8113
▁ağzı	-10.8115
▁09	-10.8116
▁Rio	-10.8119
▁110	-10.8122
▁köpek	-10.8123
▁kullana	-10.8123
rılması	-10.8123
▁Tugay	-10.8125
mayacağını	-10.8126
▁kurumu	-10.8128
▁onunla	-10.8129
▁ardı	-10.813
▁08	-10.8134
▁Olimpiyat	-10.8136
▁yuva	-10.8137
mediği	-10.8137
▁çıkmıştı	-10.814
▁kontrolünü	-10.8144
▁3,2	-10.8146
▁Müezzinoğlu	-10.8149
▁pankart	-10.8149
▁ümit	-10.8149
▁Micha	-10.8149
▁Çınar	-10.8149
▁yansıya	-10.8149
▁hüküm	-10.815
ğmen	-10.815
▁sözünü	-10.8153
▁ekonomisini	-10.8153
▁anlaştı	-10.8156
▁uzana	-10.8156
▁hissetme	-10.8156
▁toplandı	-10.8156
▁gerçekleştiği	-10.8156
▁istedim	-10.8157
▁Göç	-10.8158
▁trafiği	-10.8161
▁içerik	-10.8161
▁rüya	-10.8162
▁ortaklık	-10.8165
bı	-10.8168
▁futbolcusu	-10.817
▁doğusunda	-10.817
▁müdahaleler	-10.8172
▁düşüncesi	-10.8174
▁katılmak	-10.8174
▁vitamin	-10.8177
we	-10.8178
▁uygulaya	-10.8179
▁Kuş	-10.818
▁ödenmesi	-10.8181
▁varlığını	-10.8182
▁makinesi	-10.8185
bay	-10.8185
▁Gazeteciler	-10.8186
▁birden	-10.8187
▁aleyhin	-10.8187
rs	-10.8189
▁hay	-10.8189
▁yargılanma	-10.8196
▁maçlarında	-10.8197
▁Ülker	-10.8198
▁kaybol	-10.8201
▁katılması	-10.8202
▁konulu	-10.8202
▁ambulansla	-10.8203
▁medyası	-10.8208
▁doldura	-10.8208
▁Ada	-10.821
▁askerleri	-10.8214
▁koltuğun	-10.8216
ladimir	-10.8218
▁Ergenekon	-10.8218
▁atmosfer	-10.8218
▁menajer	-10.8218
▁Rektör	-10.8218
▁Abdül	-10.8218
▁Haydar	-10.8219
▁belirlenmesi	-10.8219
▁Hangi	-10.822
▁kucak	-10.822
▁Koruma	-10.8222
▁yöntemleri	-10.8224
▁umudu	-10.8224
▁astsubay	-10.8225
▁belirti	-10.8231
▁ihtimal	-10.8231
Siz	-10.8232
▁söyle	-10.8234
▁çoğunluğu	-10.8234
▁peş	-10.8237
▁tank	-10.8239
▁satır	-10.8242
mızda	-10.8248
▁takı	-10.8249
▁oluşturmak	-10.825
▁basa	-10.8252
çuk	-10.8256
▁Yaşam	-10.8259
▁numarası	-10.8265
▁Hor	-10.8265
▁Silah	-10.8265
▁tarif	-10.8267
▁başarısı	-10.8268
tıcı	-10.8268
▁kesimi	-10.8268
▁bulundukları	-10.8269
▁gazeteler	-10.827
▁paraları	-10.8271
▁anlamak	-10.8272
▁hırsız	-10.8275
▁meye	-10.8276
eh	-10.8277
▁alınmıştı	-10.8279
Aktüe	-10.8281
▁güçlük	-10.8286
▁etni	-10.8286
▁yavru	-10.8288
▁Bulgaristan	-10.8288
▁Mezarlığı	-10.8289
▁akın	-10.8289
▁sakat	-10.829
▁kırsal	-10.8291
▁önlenmesi	-10.8291
▁92	-10.8291
▁çiçek	-10.8293
▁luk	-10.8295
▁gitmeye	-10.8295
▁yayınlanacak	-10.8296
▁oynayacak	-10.8297
▁müdür	-10.8298
▁artacak	-10.8299
▁hatırlatarak	-10.8301
imizin	-10.8304
▁Ligde	-10.8305
▁adayların	-10.8307
▁Jose	-10.8312
▁LERİ	-10.8312
▁adayları	-10.8312
▁Adliyesi	-10.832
▁Say	-10.8321
▁katil	-10.8336
▁ru	-10.8337
▁girer	-10.8338
▁2"	-10.8338
▁netice	-10.8339
▁gittim	-10.8342
▁uyardı	-10.8345
▁tim	-10.835
▁ho	-10.8353
laştırılmış	-10.8353
▁doktora	-10.8355
▁kurtara	-10.8357
▁etkilene	-10.8357
▁Danıştay	-10.8358
▁Zonguldak	-10.8358
▁Giresun	-10.8358
▁Norveç	-10.8358
▁zihin	-10.8358
▁direksiyon	-10.8358
▁Karabükspor	-10.8359
▁Önder	-10.8359
▁takibi	-10.8359
▁Necip	-10.8359
▁Büro	-10.836
▁Hakimliği	-10.8361
▁Yo	-10.8362
▁Tem	-10.8363
▁maçlar	-10.8365
▁hissi	-10.8365
▁Altun	-10.8365
▁çevire	-10.8365
lenebilir	-10.8367
▁alanlarında	-10.8368
▁Otomotiv	-10.8368
▁götürüle	-10.8368
▁HSYK	-10.8369
▁Eroğlu	-10.8369
▁Hız	-10.837
▁takımlar	-10.8377
▁deliller	-10.838
▁gitmesi	-10.838
▁BAŞ	-10.8383
▁üstlendiği	-10.8386
▁Öncelikl	-10.8392
IYOR	-10.8393
laştırma	-10.8398
▁görmeye	-10.8398
▁kapılarını	-10.8402
▁ayrıntı	-10.8403
leşmesi	-10.8409
▁yapıyorlar	-10.8409
▁tüketim	-10.8409
▁aşkı	-10.8411
▁rast	-10.8412
▁unutma	-10.8412
▁sevdiği	-10.842
▁Con	-10.842
▁tazminatı	-10.8422
şma	-10.8423
▁yüzyıl	-10.8423
▁uy	-10.8425
▁sivilleri	-10.8426
▁Marmaris	-10.8429
▁akademi	-10.8429
▁müebbet	-10.8429
▁tasfiye	-10.8429
▁Normal	-10.8429
▁Mercedes	-10.8429
▁Küba	-10.8429
▁Arınç	-10.8429
▁Sünni	-10.843
▁parla	-10.8431
▁Kırım	-10.8432
▁Eşi	-10.8439
▁Eylem	-10.844
▁engelleye	-10.844
▁değerini	-10.8442
▁gelmek	-10.8445
▁davranma	-10.8445
▁oranla	-10.8446
▁diyoruz	-10.8446
▁katılımcı	-10.8447
▁Savcısı	-10.8447
▁gelmedi	-10.8448
▁örtü	-10.8448
▁Çağlar	-10.845
▁Fak	-10.845
▁açmak	-10.8453
▁polislerin	-10.8453
▁siyasetçi	-10.8456
▁güneyinde	-10.8458
▁programda	-10.8459
dor	-10.846
AH	-10.8461
aylarında	-10.8462
▁çalma	-10.8466
▁çalışmalarımız	-10.8467
▁indirdi	-10.8468
▁şartlarda	-10.8473
liler	-10.8473
▁akla	-10.8474
▁birinde	-10.8474
TT	-10.8475
▁Yüzde	-10.8476
▁3.5	-10.8477
▁göndere	-10.8479
▁zirvede	-10.8479
leştirme	-10.8479
▁kulüpleri	-10.8482
▁Yara	-10.8483
▁koru	-10.8484
&	-10.8485
▁sırt	-10.8485
▁araştır	-10.8486
▁komutan	-10.8487
▁form	-10.8487
kanlı	-10.8488
▁oturduğu	-10.8488
25	-10.849
▁market	-10.8495
▁Sinema	-10.8497
▁hedefimiz	-10.8497
▁iyileşme	-10.85
▁Odeabank	-10.8501
▁İhbar	-10.8501
▁rütbe	-10.8501
▁mesela	-10.8501
▁helal	-10.8501
▁yapılabilir	-10.8501
▁zevk	-10.8502
▁akciğer	-10.8502
▁Kiev	-10.8502
▁artırılması	-10.8503
▁bulunacak	-10.8503
▁mühimmat	-10.8503
▁gelebilir	-10.8504
▁Fenerbahçeli	-10.8505
▁balıkçı	-10.8505
▁şubat	-10.8506
▁firmaları	-10.8507
▁kuruldu	-10.8512
▁duyduğunu	-10.8516
▁yarış	-10.8516
lanır	-10.8517
▁Hakkında	-10.8517
▁tutmak	-10.8517
▁tanıştı	-10.8517
DAN	-10.8518
▁Veli	-10.8521
▁Yolcu	-10.8526
▁yiyecek	-10.8527
▁ayrılık	-10.8531
▁Beşiktaşlı	-10.8531
▁komutanı	-10.8533
▁üs	-10.8537
▁geleni	-10.8539
▁Kürtler	-10.8542
▁kazandıra	-10.8543
▁Program	-10.8544
▁incelemeler	-10.8544
▁sürerken	-10.8548
▁bakar	-10.8548
▁seven	-10.8549
ılması	-10.8549
▁notu	-10.8552
▁yaptılar	-10.8552
▁sebeple	-10.8554
▁Sun	-10.8559
▁vuruşu	-10.8568
▁tedavisinde	-10.8568
▁işlemlerin	-10.8569
▁kısıt	-10.857
▁hikaye	-10.8571
▁uğur	-10.8571
▁görür	-10.8572
▁Kahramanmaraş	-10.8573
▁Karlov	-10.8573
▁infilak	-10.8573
▁keşif	-10.8573
▁Monaco	-10.8573
▁Siirt	-10.8573
▁diyabet	-10.8573
▁razı	-10.8573
▁Ermenistan	-10.8573
▁seçeneği	-10.8573
▁rehin	-10.8573
▁sokma	-10.8576
▁arkadaşlarım	-10.8577
▁Fonu	-10.8582
▁atmış	-10.8583
▁milyonu	-10.8586
▁ov	-10.8586
▁yakını	-10.8588
▁LI	-10.8589
▁2016"	-10.859
▁Savcılık	-10.859
▁annem	-10.859
▁Muş	-10.8592
▁Sami	-10.8595
▁yaşamaya	-10.8596
▁sponsor	-10.8596
▁Politikalar	-10.8599
▁Tu	-10.86
▁politik	-10.8601
▁gelmez	-10.8602
▁inç	-10.8603
▁yapın	-10.8606
▁or	-10.8607
▁çekilme	-10.8608
▁kor	-10.8609
▁mesafede	-10.861
▁(5	-10.8611
▁yolculuğun	-10.8615
▁oturdu	-10.8616
▁bitme	-10.8618
▁Ebu	-10.8624
▁üyelerin	-10.8625
▁saya	-10.8625
hal	-10.8626
▁görevinde	-10.8628
▁izlemek	-10.8629
▁lığını	-10.863
▁aşamada	-10.8636
▁yaşananlar	-10.8638
▁incelemede	-10.8639
üresel	-10.864
▁seviyeler	-10.864
▁AY	-10.8641
▁davasında	-10.8641
EL	-10.8642
▁düşünceleri	-10.8644
▁Bitlis	-10.8645
▁Bütçe	-10.8645
▁Bomba	-10.8645
▁Robin	-10.8645
▁Gazze	-10.8646
▁Melek	-10.8646
▁Eskişehirspor	-10.8647
▁besle	-10.8647
▁panik	-10.8647
▁Değer	-10.8648
▁acaba	-10.8649
▁3-1	-10.8649
▁İlker	-10.8649
▁akışı	-10.865
▁olabileceğin	-10.8654
▁Şişli	-10.8655
▁gelirleri	-10.8656
▁gide	-10.8657
▁projede	-10.8668
ysa	-10.8669
▁Cin	-10.8671
▁çadır	-10.8672
,8	-10.8673
▁Jame	-10.8677
▁dert	-10.8678
▁düşürdü	-10.8682
üyor	-10.8683
tekin	-10.8685
▁gittik	-10.8687
▁parasını	-10.8688
▁fotoğraflar	-10.8691
▁takımında	-10.8693
tin	-10.8693
▁ladığı	-10.8694
▁Sizin	-10.8697
▁Köy	-10.8698
▁damga	-10.8699
▁ödemesi	-10.8702
▁diyet	-10.8708
▁korkusu	-10.871
▁düşünen	-10.871
▁ağrıları	-10.871
▁noktaları	-10.8711
▁Efendi	-10.8713
▁önlemi	-10.8716
▁Kısmet	-10.8718
▁Kaçakçılık	-10.8718
▁Silivri	-10.8718
▁İcra	-10.8718
▁BBC	-10.8718
▁şaka	-10.8718
▁Çevik	-10.8718
▁bozukluğu	-10.8719
▁iflas	-10.8719
▁kaldırı	-10.8723
▁Sanatçı	-10.8724
▁izliyor	-10.8725
▁hatıra	-10.8725
▁kast	-10.8726
▁borçlanma	-10.8727
▁yatan	-10.8732
▁lim	-10.8732
▁atıp	-10.8734
▁akar	-10.8737
▁memnuniyet	-10.8742
▁bar	-10.8742
▁Harp	-10.8749
▁koyan	-10.8749
▁işlerin	-10.8749
▁tasarla	-10.875
▁sağlayacağı	-10.8752
▁merkezlerinde	-10.8754
▁kalacağı	-10.8755
▁İsmet	-10.8756
▁ödülünü	-10.8757
▁Denizi	-10.8757
▁Devletin	-10.8762
▁ötesin	-10.8763
▁tutun	-10.8766
▁koşullar	-10.8767
CI	-10.877
▁kitapları	-10.8772
Vekili	-10.8772
▁rakipleri	-10.8775
▁gi	-10.8776
▁grupları	-10.8777
▁aut	-10.8777
▁mavi	-10.8777
yakıt	-10.8778
▁kesile	-10.8779
▁bez	-10.878
▁2-	-10.8781
urtuluş	-10.8785
▁04	-10.8786
▁turizmi	-10.8787
▁kumpas	-10.8787
▁sergileye	-10.8788
ürü	-10.8791
▁çevirdi	-10.8791
▁Toyota	-10.8792
▁tahsis	-10.8792
▁Libya	-10.8792
▁birileri	-10.8792
▁Boydak	-10.8792
ayet	-10.8792
▁muhtar	-10.8793
▁kurultay	-10.8793
▁Aksoy	-10.8794
▁yetkisi	-10.8794
▁Yaralı	-10.8794
▁sevinci	-10.8795
ünün	-10.8796
▁ajan	-10.8796
▁beklendiği	-10.8797
▁görüyorum	-10.88
▁kapısını	-10.8801
▁uçakta	-10.8807
▁savaşta	-10.8809
▁hukukun	-10.881
fen	-10.8814
▁Kav	-10.8815
▁atış	-10.8817
▁ByLock	-10.8819
▁mesajını	-10.8826
▁kurumun	-10.883
▁bitire	-10.8831
▁devamı	-10.8831
▁darbeciler	-10.8832
▁veriler	-10.8833
▁yanıtlaya	-10.8838
▁co	-10.8838
▁şiş	-10.8839
▁Devleti	-10.8839
▁doğdu	-10.8842
▁salonu	-10.8851
▁silahla	-10.8853
rarak	-10.8855
bor	-10.8859
korkunç	-10.8861
▁Sınav	-10.8863
▁etmeleri	-10.8863
▁Patlama	-10.8865
statistik	-10.8865
▁pencere	-10.8866
▁Zarrab	-10.8866
▁Tufan	-10.8866
▁kağıt	-10.8866
▁00:	-10.8867
▁inanıyoruz	-10.8867
▁Günümüz	-10.8867
▁kurgu	-10.8868
▁protokol	-10.8868
▁etsin	-10.8868
▁140	-10.8871
▁salonda	-10.8871
▁duyarlı	-10.8871
▁dolandırıcılık	-10.8872
▁Paul	-10.8872
▁tak	-10.8873
▁Operasyonda	-10.8877
▁değerlendirilme	-10.8878
▁istemediği	-10.8879
▁Yolları	-10.8881
▁Esen	-10.8886
▁sınavı	-10.8887
▁Dilek	-10.8888
▁atıldığı	-10.889
▁boz	-10.8894
▁kuran	-10.8895
racak	-10.8896
▁vermiyor	-10.8897
▁sendika	-10.8898
ciler	-10.89
▁06.	-10.8904
mut	-10.8904
LI	-10.8905
▁tüp	-10.8906
▁İste	-10.8907
Dİ	-10.8909
▁harekatı	-10.8912
▁iddialı	-10.8913
▁etmeyin	-10.8913
▁karşılama	-10.8913
▁Hakemler	-10.8917
,3	-10.8917
▁vücudun	-10.8918
US	-10.8922
▁etkinliği	-10.8924
ph	-10.8928
▁Yüce	-10.8928
▁telefonlar	-10.8928
▁şoför	-10.8929
▁isti	-10.893
▁arayışı	-10.8931
▁listede	-10.8932
▁vi	-10.8933
▁kapsaya	-10.8938
▁Meksika	-10.894
▁Hazır	-10.894
▁Öcalan	-10.894
▁kaybetmiş	-10.894
▁değişiyor	-10.8941
▁gerektire	-10.8941
▁Motor	-10.8942
▁seviyorum	-10.8942
▁hedefliyor	-10.8942
▁Tunca	-10.8943
▁Tüketici	-10.8944
▁şık	-10.8945
▁Ersu	-10.8948
▁açıyor	-10.8949
▁Nijerya	-10.8949
▁kendisinde	-10.8951
▁virüsü	-10.8951
▁atak	-10.8951
▁Toplantısı	-10.8952
▁taşına	-10.8954
▁neyi	-10.8956
▁Süt	-10.8956
▁TÜRK	-10.8957
▁evlendi	-10.8961
▁Meydan	-10.8969
▁bulamadı	-10.8969
sam	-10.8969
▁mek	-10.8974
▁budur	-10.8975
▁Arı	-10.8977
▁900	-10.8977
▁karşılaya	-10.8977
▁Mah	-10.8978
▁ulaşıla	-10.8978
▁pasta	-10.898
▁yürüme	-10.8982
▁Kuvvet	-10.8985
▁kullandıkları	-10.8988
▁cesaret	-10.899
▁hedefler	-10.8991
▁hassasiyet	-10.8994
▁hastalıkların	-10.8998
▁planlama	-10.9002
▁boza	-10.9006
▁barışı	-10.9006
▁bulunmaya	-10.9006
▁arkadaşım	-10.9012
▁boyutu	-10.9013
▁taşındı	-10.9013
▁Karabük	-10.9015
derhal	-10.9015
▁kullanılıyor	-10.9015
▁trilyon	-10.9015
▁ibadet	-10.9015
▁Çeşme	-10.9015
▁2016-03-1	-10.9016
▁Bebek	-10.9016
▁Açılış	-10.9016
▁Burhan	-10.9016
▁maktadır	-10.9016
▁istemeyen	-10.9017
▁milis	-10.9017
▁Yahudi	-10.9017
▁sürdürülebilir	-10.9018
▁alınıyor	-10.9019
▁aramızda	-10.902
▁imzaladı	-10.902
▁Elif	-10.9023
▁kadınlarda	-10.9024
▁duruşmada	-10.9025
▁Tamam	-10.9025
▁birbirleri	-10.9026
▁tik	-10.9027
▁Sosa	-10.9028
▁Suriyeliler	-10.9029
EY	-10.903
▁Enes	-10.903
▁kasım	-10.9031
▁döneme	-10.9033
wi	-10.9037
shi	-10.9037
▁çeyreğin	-10.9038
▁kür	-10.9042
▁olurdu	-10.9048
▁Piya	-10.9049
▁hayranları	-10.905
▁Los	-10.9053
▁sıcaklığı	-10.9054
▁geliştire	-10.9056
▁uyguladığı	-10.9057
▁kasa	-10.9057
▁koyuyor	-10.9065
▁cağız	-10.9065
▁Baze	-10.9065
▁geçirilmesi	-10.9067
▁bahçesinde	-10.9072
▁sonuçlarını	-10.9073
▁bence	-10.9075
▁Çinli	-10.9076
▁Şi	-10.9079
▁mutabakat	-10.9083
▁geçiriyor	-10.9084
▁BU	-10.9085
▁modelleri	-10.9086
▁futbolu	-10.9088
▁çıkın	-10.909
▁Müslümanları	-10.909
▁uyan	-10.9091
▁Survivor	-10.9091
▁İdil	-10.9091
▁tuvalet	-10.9091
▁herhalde	-10.9092
▁korner	-10.9092
▁Ekipler	-10.9092
▁Yemen	-10.9092
▁40'	-10.9093
▁kenarında	-10.9093
▁Arif	-10.9095
▁problemleri	-10.9096
▁Şehitler	-10.91
▁hırsızlık	-10.9103
▁söyleye	-10.9106
▁açar	-10.9109
▁biliyordu	-10.9111
▁tım	-10.9114
▁kaynaklana	-10.9116
uru	-10.9117
▁günah	-10.9117
▁tenis	-10.9118
▁açıkladığı	-10.9118
▁sür	-10.9121
▁Saldırıda	-10.9126
▁For	-10.9127
▁lıdır	-10.9132
▁evet	-10.9135
▁kaynakların	-10.9136
▁Parkı	-10.9137
▁yetkilisi	-10.9137
▁yaşadığını	-10.9138
▁rahatsızlığı	-10.9139
▁aktör	-10.914
▁gerisinde	-10.9141
▁otomobilde	-10.9141
▁vadel	-10.9145
▁daim	-10.9146
lerek	-10.9147
,6	-10.9147
▁yapmasını	-10.9151
▁kova	-10.9151
▁bakanlığı	-10.9156
YOR	-10.9157
allah	-10.9157
▁Evli	-10.916
▁30'	-10.9162
▁roman	-10.9162
▁kına	-10.9163
▁şehirde	-10.9165
▁kampı	-10.9166
ola	-10.9166
▁oku	-10.9167
▁taraftarları	-10.9167
▁ödemeleri	-10.9167
▁tuttuğu	-10.9167
▁zeytin	-10.9168
▁destekli	-10.9168
▁morgun	-10.9168
▁potansiyeli	-10.9169
▁Kanser	-10.9169
▁ehliyet	-10.9169
▁gezdi	-10.917
▁güçlendirme	-10.917
▁Peş	-10.917
Cumhurbaşkanımız	-10.9174
▁Dost	-10.9174
▁Kalp	-10.9176
▁Ödülleri	-10.9176
▁kum	-10.9176
▁Yapılanması	-10.9181
▁duyurusun	-10.9181
▁hadise	-10.9189
▁faizi	-10.9191
▁topladı	-10.9192
▁firari	-10.9194
▁iktidarı	-10.9195
▁yaşamı	-10.9196
▁bozuk	-10.9197
▁potansiyel	-10.9198
▁tartışmaları	-10.9198
▁Dur	-10.9208
▁uğradığı	-10.9216
▁atar	-10.9216
▁larsa	-10.9217
▁programını	-10.9218
▁aştı	-10.9219
▁söylemi	-10.9221
▁Gelin	-10.9224
▁14:	-10.923
▁hikâyesi	-10.9232
▁Sam	-10.9233
▁Asli	-10.9234
Kültür	-10.9234
▁öldürüldüğü	-10.9234
burcu	-10.9234
▁ilaçlar	-10.9239
▁ku	-10.9241
▁başlangıcı	-10.9244
▁başvurma	-10.9244
▁dehşet	-10.9244
▁bakteri	-10.9245
▁Devrim	-10.9245
,9	-10.9245
▁taşeron	-10.9245
▁Robert	-10.9245
▁Tarık	-10.9246
Hulusi	-10.9246
▁operasyonun	-10.9247
▁Papa	-10.9247
▁mağduriyet	-10.9247
▁Kulüp	-10.9247
▁süresince	-10.9249
▁öngörüle	-10.9251
▁Erkin	-10.9252
▁atması	-10.9252
▁AFAD	-10.9257
▁verdiler	-10.9258
▁Gaz	-10.926
▁kırıklığı	-10.9261
▁kimdir	-10.9263
▁91	-10.9265
ers	-10.9266
cil	-10.9269
▁bedeni	-10.927
▁almadan	-10.9274
▁tartışmalar	-10.9277
▁enflasyonu	-10.9284
▁edilmeye	-10.929
▁Lise	-10.9291
▁09.00-1	-10.9294
▁çocuğ	-10.9297
▁açılma	-10.9298
kadir	-10.9299
▁örgütlerini	-10.9304
mes	-10.9305
▁organizasyonu	-10.9307
▁bilgilerini	-10.9308
▁we	-10.9309
▁İs	-10.9309
▁verilmiş	-10.9311
▁Fas	-10.9312
▁gıdalar	-10.9313
▁başları	-10.9314
▁beklentileri	-10.9314
▁isteye	-10.9315
off	-10.9317
▁işleti	-10.9317
▁anma	-10.9318
nuzu	-10.932
▁ER	-10.9321
▁İSTANBUL	-10.9322
▁Çolak	-10.9322
▁giyme	-10.9323
▁bulur	-10.9323
▁Çetinkaya	-10.9323
▁Uzay	-10.9323
▁Angeles	-10.9323
▁çalışıyorlar	-10.9324
▁karşılaşacak	-10.9324
▁liyiz	-10.9326
▁seviyelerinde	-10.9326
▁sıkıntısı	-10.9326
▁faul	-10.9328
▁aktivite	-10.9329
▁İşletme	-10.9329
▁gözet	-10.9331
▁seyrede	-10.9331
▁aks	-10.9332
▁Kum	-10.9335
▁BİN	-10.9337
▁önemlisi	-10.934
▁karış	-10.9342
▁edebilme	-10.9347
-5	-10.9347
▁yorumlar	-10.935
▁):	-10.9351
▁örneğin	-10.9354
▁kutlama	-10.9354
rio	-10.9354
▁uçaklarını	-10.9356
▁vücutta	-10.9356
▁haberini	-10.9361
▁görmüş	-10.9366
▁öncelikl	-10.9367
▁eksi	-10.9368
▁alınmasını	-10.937
▁tercihi	-10.9371
▁özellik	-10.9381
▁denen	-10.9382
▁şartlar	-10.9386
ight	-10.9387
▁94	-10.9389
▁değerinde	-10.939
ECEK	-10.9392
▁malıdır	-10.9393
▁Bulvarı	-10.94
▁Hikmet	-10.94
▁Isparta	-10.94
▁Hülya	-10.94
▁yaşanacak	-10.94
▁edebilecek	-10.94
▁Macaristan	-10.94
▁diyalog	-10.94
▁versin	-10.9401
▁kıta	-10.9401
▁isteniyor	-10.9402
▁alınırken	-10.9402
▁Tokat	-10.9404
▁geçmişi	-10.9405
▁kaos	-10.9407
▁mayın	-10.9409
▁Sportif	-10.9409
▁Dede	-10.9411
▁bakımda	-10.9413
▁Akademisi	-10.9414
▁Fener	-10.9415
▁toz	-10.9417
▁kayıtları	-10.9418
▁ederse	-10.9419
▁Hayr	-10.9419
▁çocuklarda	-10.9421
▁savcılığ	-10.9426
▁ışığı	-10.9427
▁yıkım	-10.9427
▁düşünür	-10.9428
▁Soy	-10.9428
▁belirleye	-10.943
anılan	-10.9431
lenerek	-10.9432
▁Altan	-10.9438
abil	-10.9439
▁hormon	-10.9443
▁televizyonu	-10.9443
▁uçağını	-10.9448
▁stat	-10.9449
▁kurtarmak	-10.9451
▁izleyen	-10.9456
▁bulun	-10.9458
▁kaybed	-10.9458
▁Hakkı	-10.9461
▁Maden	-10.9466
▁törenle	-10.9467
▁Öğreti	-10.9467
▁ağacı	-10.9469
▁sapta	-10.9469
·	-10.947
olo	-10.9472
▁inceleye	-10.9474
og	-10.9477
▁odasın	-10.9477
▁görülür	-10.9477
▁mikro	-10.9478
▁glob	-10.9479
▁mektubu	-10.9479
▁müracaat	-10.9479
▁rehber	-10.9479
▁çevirme	-10.9479
▁kilise	-10.9479
▁kayyım	-10.9479
▁kurtarıldı	-10.948
▁Sivasspor	-10.9481
▁3-0	-10.9482
▁planlanıyor	-10.9483
▁atandı	-10.9483
▁istemiyorum	-10.9484
▁sağlanacak	-10.9485
▁poz	-10.9485
▁hakemler	-10.9485
▁Enver	-10.9486
▁kaçırdı	-10.9486
▁azalması	-10.9487
▁inen	-10.9488
▁bot	-10.9488
▁lenmiş	-10.9488
▁yönettiği	-10.949
▁niyeti	-10.9492
▁unutulma	-10.9495
▁göstergesi	-10.9496
▁yaşlarda	-10.9496
▁dokunma	-10.9497
▁Bosna	-10.9497
▁Doğuş	-10.9499
▁şahıslar	-10.9504
▁Naci	-10.9507
▁kutu	-10.9507
▁partilerin	-10.9508
▁alanların	-10.951
▁sayfasında	-10.9517
▁tartışması	-10.9519
gel	-10.9522
art	-10.9522
▁burs	-10.9523
▁lüğü	-10.9529
▁keşf	-10.9532
▁saydı	-10.9534
▁kızını	-10.9535
lmaz	-10.9535
▁Atik	-10.9542
▁kredisi	-10.9547
takım	-10.9551
▁çalın	-10.9552
▁İm	-10.9553
▁ithal	-10.9553
isiplin	-10.9557
▁hastaları	-10.9558
▁Kontrol	-10.9558
▁Olcay	-10.9558
▁geliştirilmesi	-10.9559
▁Platformu	-10.956
▁Times	-10.956
▁sevinç	-10.956
▁ithalat	-10.9562
▁eserleri	-10.9563
▁sunulacak	-10.9563
▁yapılarak	-10.9563
▁bulunarak	-10.9563
▁makul	-10.9564
▁Yarım	-10.9565
▁4,5	-10.9565
▁ısınma	-10.9566
▁şebeke	-10.957
▁Ur	-10.9572
▁tutuyor	-10.9575
▁kullanıcıların	-10.9578
▁cihazı	-10.9589
▁Is	-10.959
▁fe	-10.9591
▁suçlamaları	-10.9593
▁propaganda	-10.9595
▁hazırladı	-10.9598
▁yapısını	-10.9599
▁görmez	-10.9601
▁söyledim	-10.9602
▁Yanı	-10.9603
▁pozisyonda	-10.9608
▁bakanlar	-10.9609
▁kişileri	-10.9609
▁günümüzde	-10.9609
▁isterse	-10.9609
ayvancılık	-10.961
▁′	-10.9611
▁sesini	-10.9611
▁karakol	-10.9612
▁toplumda	-10.9616
▁mar	-10.9622
tık	-10.9623
RO	-10.9625
▁Numa	-10.9628
▁Yaş	-10.9628
Ankara	-10.9631
▁vermede	-10.9635
▁lım	-10.9636
▁mecbur	-10.9638
perşembe	-10.9638
▁Lavrov	-10.9638
▁muamele	-10.9638
▁otopark	-10.9638
▁Benfica	-10.9638
▁TMSF	-10.9638
▁bürokrat	-10.9638
▁Korkmaz	-10.9638
▁İşadam	-10.9638
▁nikah	-10.9638
▁arıza	-10.9638
▁Ferhat	-10.9639
▁binaların	-10.9639
▁yapabilecek	-10.9639
▁Şerif	-10.9639
▁koruyucu	-10.9639
▁salgı	-10.9639
▁yapmıyor	-10.964
▁takibe	-10.964
▁macera	-10.9642
▁çala	-10.9642
▁tüfek	-10.9643
▁mor	-10.9643
▁geldim	-10.9643
▁kamyonet	-10.9644
▁Elvan	-10.9645
▁seçimlerde	-10.9647
▁KPSS	-10.9648
▁metin	-10.9648
▁avantajı	-10.9651
▁müjde	-10.9652
▁Lider	-10.9652
▁İddianamede	-10.9653
▁güzellik	-10.9656
memesi	-10.9656
▁durağı	-10.9657
▁zi	-10.9658
▁görüşe	-10.9661
elli	-10.9662
▁Zorlu	-10.9664
▁etmeyen	-10.9666
▁kapandı	-10.9666
▁Gen	-10.9666
▁We	-10.9667
▁şiddetle	-10.9667
▁etmeli	-10.9668
▁çatışmaları	-10.9669
▁Mel	-10.967
▁kiralık	-10.9671
▁mde	-10.9673
▁yararlanma	-10.9675
▁örnekleri	-10.9678
▁teşkilatı	-10.968
▁1-2	-10.968
▁Oka	-10.9683
▁yollarda	-10.9683
▁memleket	-10.9684
▁odasında	-10.9684
▁rahatlık	-10.9687
▁etkileme	-10.9687
▁skoru	-10.9688
▁yöneten	-10.9689
70	-10.9689
▁canı	-10.969
▁yöneticiler	-10.9692
acağını	-10.9696
▁bedelini	-10.9696
▁planını	-10.9696
▁üreticileri	-10.9696
anç	-10.97
▁irtibat	-10.9702
▁ülkesinde	-10.9708
▁tabanı	-10.9713
Aile	-10.9714
▁listesi	-10.9715
▁sağlandı	-10.9717
▁Emenike	-10.9719
▁bağırsak	-10.9719
▁hemşire	-10.9719
▁Çankaya	-10.9719
▁jüri	-10.9719
▁yumuşa	-10.9719
▁Inter	-10.9719
▁Konser	-10.9719
▁Zeybekci	-10.972
▁Akdoğan	-10.972
▁beton	-10.972
▁finali	-10.9722
▁Kaplan	-10.9722
▁babam	-10.9725
que	-10.9726
▁köyleri	-10.9727
▁Yok	-10.973
▁kurulacak	-10.9733
oma	-10.9733
▁ör	-10.9733
▁gitmiş	-10.9735
▁dokuz	-10.9738
▁unvanı	-10.9742
▁tarife	-10.9745
▁yapılar	-10.9749
▁tasarımı	-10.9749
▁İsa	-10.975
▁dönmesi	-10.9756
▁durumlar	-10.9757
▁mücadelesinde	-10.9759
▁paylaşma	-10.976
▁zaferi	-10.9762
▁etmem	-10.9763
▁Telefon	-10.9765
▁Alevi	-10.9767
kişi	-10.9768
▁verilere	-10.9768
▁kesimlerin	-10.9773
▁çatısı	-10.9775
▁yeter	-10.9776
▁içerisin	-10.9779
▁Köse	-10.9783
▁atılma	-10.9786
▁vurula	-10.9787
▁konumu	-10.9788
▁gerilim	-10.9789
▁lendir	-10.9789
▁benimse	-10.9792
▁site	-10.9793
▁Air	-10.9793
iç	-10.9795
▁beste	-10.9797
▁hiçbiri	-10.9798
▁törende	-10.9799
▁Mühendis	-10.98
▁karaciğer	-10.98
▁mutfağı	-10.98
▁kaymakam	-10.98
▁onarım	-10.98
▁zeka	-10.9801
▁kanadı	-10.9801
▁uğurlandı	-10.9801
▁gelmiyor	-10.9801
▁konusunu	-10.9802
▁biliyorsunuz	-10.9803
▁2020	-10.9811
▁alacağını	-10.9812
▁Öneml	-10.9814
▁yakı	-10.9815
▁09:	-10.9817
▁tansiyon	-10.9818
▁dostu	-10.982
▁sürdürme	-10.9821
▁Kuru	-10.9822
kâ	-10.9826
▁zorluk	-10.9827
▁açarak	-10.9827
▁anlaşıla	-10.9827
▁(2)	-10.9831
▁yaşını	-10.9834
▁hocası	-10.9836
▁Nuri	-10.9838
▁inandığı	-10.9843
▁kullanması	-10.9844
▁gelmesini	-10.9847
▁mücadelesini	-10.9848
▁barda	-10.9851
lığına	-10.9851
▁tamamlama	-10.9852
▁semt	-10.9859
meden	-10.9861
▁gösterge	-10.9865
▁pat	-10.9866
▁istedik	-10.9867
▁kopar	-10.9868
▁hav	-10.987
▁AP	-10.9871
▁ayırdı	-10.9871
llo	-10.9873
by	-10.9873
▁doğrusu	-10.9873
▁Dİ	-10.9874
▁soyu	-10.9877
▁unsurlar	-10.9878
▁sektörde	-10.9878
▁yürütüyor	-10.9882
▁Bruma	-10.9882
▁ırkçı	-10.9882
▁kurtarılamadı	-10.9884
▁ithalatı	-10.9884
▁Ergin	-10.9885
▁kısıtlama	-10.9886
▁tanıya	-10.9886
▁kazanacak	-10.9887
▁GÜN	-10.9888
▁Tor	-10.9889
▁rüzgar	-10.989
▁Aylin	-10.9891
mayınca	-10.9895
▁kızları	-10.9899
▁tarafın	-10.9901
▁bağışıklı	-10.9901
▁keyifli	-10.9902
▁kul	-10.9902
▁cü	-10.9903
▁puana	-10.9903
▁pan	-10.9908
▁kullanıcılar	-10.991
▁10:	-10.9911
▁Hükümeti	-10.9913
İş	-10.9914
▁başlayacağı	-10.9914
▁Doğum	-10.9915
▁öp	-10.9917
online	-10.9917
rfan	-10.992
▁gerçekleri	-10.9921
▁evler	-10.9921
▁ihtiyaçlarını	-10.9921
▁gösterdiğini	-10.9925
▁sütü	-10.9926
▁büyüklüğü	-10.9929
▁trend	-10.9931
▁teyi	-10.9932
▁savcılar	-10.9934
▁kü	-10.9936
▁Ef	-10.9945
▁Boğaz	-10.9946
▁Ex	-10.9947
▁aşağıda	-10.995
▁Hedef	-10.9957
▁işle	-10.9961
▁hayvanları	-10.9962
▁depresyon	-10.9965
▁mutfak	-10.9965
▁telafi	-10.9965
▁Diego	-10.9965
▁Mis	-10.9965
▁çoğunluk	-10.9965
▁Farklı	-10.9965
▁19.00	-10.9966
▁evrak	-10.9966
▁Dön	-10.9966
ktif	-10.9967
aret	-10.9968
▁isterken	-10.997
▁besinler	-10.997
▁adlandırıla	-10.9971
▁Külliyesi	-10.9975
▁öğretmenler	-10.9977
▁Yücel	-10.9978
▁98	-10.9982
▁müşterilerin	-10.9984
▁olacaktı	-10.9991
▁kırık	-10.9992
▁Kaan	-10.9994
▁oluşturulması	-10.9996
▁bırakın	-10.9997
▁tar	-10.9998
▁gelirse	-10.9998
▁tecrübel	-11.0005
▁gösterir	-11.0009
▁birbirlerin	-11.0024
▁seferleri	-11.0026
▁masası	-11.0029
▁vaz	-11.0029
▁mağlubiyet	-11.003
▁Fo	-11.0032
▁kaste	-11.0034
▁bende	-11.0035
▁sığınmacıları	-11.0039
▁Öğrenci	-11.004
▁düşer	-11.0043
▁eleştirdi	-11.0045
▁rejimin	-11.0046
▁toplumu	-11.0046
▁emek	-11.0047
▁Tartışma	-11.0048
▁&#39;	-11.0048
▁atölye	-11.0048
▁taahhüt	-11.0048
▁çarpıştı	-11.0048
▁temenni	-11.0048
▁villa	-11.0048
▁askerlik	-11.0048
▁Bordo	-11.0049
▁Firma	-11.0051
▁tutu	-11.0051
▁Büyükelçiliği	-11.0052
▁nüfusun	-11.0054
sch	-11.0061
▁kavram	-11.0062
▁kullanmaya	-11.0064
▁gerekirse	-11.0067
▁çeviri	-11.0067
▁himmet	-11.0068
▁verilmesini	-11.0068
▁alıyoruz	-11.0069
▁metni	-11.007
▁15:	-11.0073
▁yazısında	-11.0074
rasya	-11.0076
atif	-11.0077
▁talebini	-11.0079
▁bekledi	-11.0081
▁durması	-11.0091
▁maddeleri	-11.0093
▁askı	-11.0096
▁Komisyon	-11.0096
▁primi	-11.0099
▁vaka	-11.01
▁Gir	-11.0101
▁ilaçları	-11.0101
▁söylediler	-11.0102
ürekli	-11.0104
▁sistemde	-11.0105
▁sevile	-11.0105
ammer	-11.0106
lor	-11.0106
▁hainler	-11.0106
▁git	-11.011
60	-11.0111
▁lanması	-11.0113
urkan	-11.0115
▁meyeceği	-11.0115
alp	-11.0121
▁soruşturmada	-11.0122
▁durdura	-11.0123
▁rma	-11.0124
▁teşkil	-11.0128
ılıp	-11.013
▁döktü	-11.0132
▁kütüphane	-11.0132
▁nezdinde	-11.0132
▁patates	-11.0132
▁gasp	-11.0132
▁Kıdem	-11.0132
▁Uslu	-11.0132
▁doktoru	-11.0134
ildiği	-11.0135
▁yapılırken	-11.0136
▁kanaat	-11.0136
▁Divan	-11.0136
▁ölme	-11.0137
▁karışa	-11.0138
▁Prens	-11.0139
▁evladı	-11.0139
▁kardeşlerimiz	-11.0141
▁tavan	-11.0144
▁durduğu	-11.0147
▁belirtilerek	-11.0149
▁Çoğu	-11.0155
▁komşuları	-11.0155
▁kule	-11.0162
▁yılbaşı	-11.0165
▁nü	-11.0167
▁yağı	-11.0167
FA	-11.0167
▁Gündem	-11.0168
▁şah	-11.0177
▁iktidarın	-11.0178
▁darp	-11.0179
▁müzakereler	-11.0182
▁şaşır	-11.0182
▁Ece	-11.0184
▁gazi	-11.0188
▁seniz	-11.0194
▁yolcular	-11.0198
▁w	-11.0198
▁görüşmelerde	-11.02
▁atmaya	-11.0209
▁bulacak	-11.0211
▁bırakılması	-11.0214
▁Kamer	-11.0215
▁kredileri	-11.0215
ötürü	-11.0216
▁Kapı	-11.0217
▁ribaunt	-11.0217
▁EXPO	-11.0217
▁Lazio	-11.0217
▁Tüfenkci	-11.0217
▁asansör	-11.0217
▁müzisyen	-11.0217
▁pompa	-11.0217
▁tohum	-11.0217
▁şükür	-11.0217
▁Meral	-11.0218
▁giderilmesi	-11.0218
▁değişimi	-11.0223
▁bilinme	-11.0223
▁Alış	-11.0224
▁ziyaretçi	-11.0224
▁İnsanları	-11.0225
lup	-11.0229
▁ekranı	-11.0231
▁içki	-11.0231
▁1.3	-11.0231
▁açıldığı	-11.0232
▁okulun	-11.0232
mir	-11.0234
val	-11.0234
ddin	-11.0237
▁lendi	-11.0237
▁göreceğiz	-11.0239
▁arkasın	-11.0239
▁yazıyor	-11.0239
▁Dinam	-11.024
▁yapıyorum	-11.0242
▁kalktı	-11.0243
▁Yemek	-11.0245
▁haritası	-11.0246
▁durak	-11.025
▁Milletimiz	-11.0256
▁Col	-11.0259
▁pilotu	-11.026
▁eşim	-11.0261
▁Hati	-11.0262
▁06	-11.0266
▁borcunu	-11.0271
▁finalde	-11.0272
▁ruhsat	-11.0274
▁gündemin	-11.0274
▁yorumu	-11.0277
▁sanatı	-11.0281
▁keyif	-11.0282
▁layın	-11.0287
▁Buray	-11.029
▁sevme	-11.0292
▁kuruluşlar	-11.0292
▁işareti	-11.0295
▁Yağ	-11.0296
▁Hareket	-11.0302
▁Lübnan	-11.0302
▁Pensilvanya	-11.0302
▁kömür	-11.0302
▁Çağatay	-11.0302
▁İhsan	-11.0302
▁Braga	-11.0302
▁Yalova	-11.0302
▁evvel	-11.0302
▁işkence	-11.0302
▁Thom	-11.0302
▁Viyana	-11.0303
▁yapabilme	-11.0303
▁İÇİN	-11.0303
▁ulaşıldı	-11.0303
▁Acar	-11.0303
▁Geliştir	-11.0303
▁Aksi	-11.0304
ble	-11.0304
▁bakalım	-11.0304
▁1980	-11.0304
▁Fiyat	-11.0305
▁CIA	-11.0305
▁ödeyecek	-11.0306
göz	-11.0307
lendirilmesi	-11.031
▁savcısı	-11.031
▁Saç	-11.0311
▁kazanması	-11.0313
▁azalma	-11.0314
▁açacak	-11.0316
▁terörizm	-11.0317
▁bulması	-11.0319
EDİ	-11.0322
▁cari	-11.0322
▁Memur	-11.0323
▁kapanış	-11.0326
▁telefonda	-11.0326
▁niteliğinde	-11.033
▁mimar	-11.033
▁şarkıları	-11.0331
▁larımızda	-11.0332
▁harcamaları	-11.0332
▁açlık	-11.0332
▁pozisyonu	-11.0333
▁vuru	-11.0333
▁alamadı	-11.0335
▁tema	-11.0335
▁Fuar	-11.0337
▁gerçekleşmesi	-11.0341
GE	-11.0342
▁çalışıl	-11.0342
▁Deme	-11.0343
▁öğrenim	-11.0347
▁Roman	-11.0353
▁ilçelerin	-11.0357
▁16:	-11.0358
▁olasılığı	-11.0362
diğiniz	-11.0364
▁yaklaşımı	-11.0364
▁leşe	-11.0364
▁sorununu	-11.0365
▁ilha	-11.0368
eksel	-11.037
▁Yeter	-11.0371
▁bahane	-11.0371
▁sahnede	-11.0371
▁çabaları	-11.0373
arif	-11.0373
▁kızım	-11.0374
▁Televizyon	-11.0376
X	-11.0377
▁Vo	-11.038
zen	-11.0381
▁Ahmed	-11.0382
bilmektedir	-11.0384
▁coşku	-11.0384
+	-11.0386
▁sıcaklık	-11.0387
▁düğünü	-11.0388
▁DHKP	-11.0389
▁Duygu	-11.0389
▁+	-11.039
▁yönlendirme	-11.039
▁kronik	-11.0391
▁Çorum	-11.0393
▁hayatımız	-11.0394
▁erişim	-11.0395
▁Söyle	-11.04
▁süs	-11.04
▁konum	-11.0401
▁çare	-11.0401
▁yerleştirile	-11.0403
▁bulunur	-11.0403
ahir	-11.0403
je	-11.0404
▁eyalet	-11.0406
▁07.	-11.0409
leştirilmesi	-11.0409
▁LA	-11.0411
▁oyuncak	-11.0411
▁sürdürüle	-11.0411
had	-11.0412
▁mensupların	-11.0414
▁yaya	-11.0415
▁93	-11.0421
▁Mat	-11.0425
▁otelde	-11.0426
▁vekil	-11.0427
▁karşılaştığı	-11.0428
▁dere	-11.0428
▁ch	-11.0428
▁yaptırım	-11.0429
▁biçimi	-11.043
▁kısme	-11.0431
▁seçenekleri	-11.0433
▁İktidar	-11.0435
▁ağları	-11.0436
▁imkanları	-11.0436
▁şikayeti	-11.0438
▁plasti	-11.0441
▁oğlum	-11.0442
▁üyelik	-11.0443
▁bilirler	-11.0443
▁istasyonu	-11.0444
▁rakibini	-11.0445
▁mesleği	-11.0445
▁Bol	-11.0446
▁makineleri	-11.0447
▁golünü	-11.0447
▁zirvesi	-11.0448
LAN	-11.0449
▁bat	-11.0451
▁kartları	-11.0452
▁bağımlı	-11.0453
▁oluşma	-11.0455
▁bıçakla	-11.0456
▁ucu	-11.0456
▁Eki	-11.0457
▁dersleri	-11.0457
▁dosyası	-11.0459
▁temsilci	-11.046
▁kutladı	-11.0464
▁komisyonu	-11.0466
▁parlament	-11.0468
▁gr	-11.0473
▁gidiş	-11.0475
Paralel	-11.0475
▁Yönetici	-11.0476
▁intikam	-11.0476
▁savunuyor	-11.0476
▁tablet	-11.0476
▁2019	-11.0476
▁Sürücü	-11.0476
▁öncülüğünde	-11.0476
▁Ürdün	-11.0476
▁SSK	-11.0476
▁Transfer	-11.0476
▁Rahm	-11.0476
▁Umarı	-11.0476
▁18.00	-11.0477
▁bağımsızlığı	-11.0477
▁oyunlar	-11.0479
▁planladığı	-11.0479
▁Nar	-11.048
▁Nec	-11.0481
ABD	-11.0482
▁gerginlik	-11.0483
▁ikiz	-11.0483
▁tok	-11.0483
▁Arkadaşları	-11.0485
▁devri	-11.0485
▁olmamız	-11.0487
▁yangını	-11.0488
▁yaklaşa	-11.0488
▁sahiplerini	-11.0488
▁fileler	-11.0488
▁tarafların	-11.0489
DEN	-11.049
▁belediyeler	-11.0491
▁tepkisi	-11.0492
▁istemez	-11.0495
▁çıkartı	-11.0497
▁Sevgi	-11.0497
▁tarla	-11.0497
▁Nani	-11.05
▁hazırlama	-11.0501
40	-11.0504
▁Bizde	-11.0504
▁Hepimiz	-11.0506
▁the	-11.0506
▁Pen	-11.0507
▁defans	-11.0507
▁160	-11.0508
▁anları	-11.0509
▁360	-11.0511
▁cezasını	-11.0513
▁hayvanlar	-11.0513
▁Şans	-11.0514
▁konuşula	-11.0516
▁organları	-11.0517
▁hayatlarını	-11.0519
▁Dü	-11.0519
▁Soru	-11.052
▁bırakıyor	-11.0522
▁camiası	-11.0522
▁Yangın	-11.0523
▁97	-11.0524
▁Saha	-11.0534
▁bulunuldu	-11.0535
▁kurumlarında	-11.0538
bah	-11.0538
▁Doktor	-11.0541
▁gösterisi	-11.0544
▁başrol	-11.0553
▁şampiyonluğu	-11.0553
▁Art	-11.0553
▁Mem	-11.0555
▁kadroda	-11.0555
üzgün	-11.0556
▁ger	-11.0557
▁mişti	-11.056
▁Yaptığı	-11.0563
ndows	-11.0563
▁George	-11.0563
▁yıldönümü	-11.0563
▁haziran	-11.0563
▁Soğuk	-11.0563
▁tutku	-11.0563
▁Başika	-11.0563
▁Kobani	-11.0563
▁dürüst	-11.0563
▁DAİŞ	-11.0564
▁Melih	-11.0564
▁gelsin	-11.0564
▁planlıyor	-11.0565
▁alabilir	-11.0565
cc	-11.0565
▁yanlı	-11.0567
lısınız	-11.0567
şen	-11.0568
▁açıklanacak	-11.057
▁artırdı	-11.0571
▁haberleşme	-11.0573
▁sunacak	-11.0577
▁ihalesi	-11.0577
▁şansını	-11.0578
▁gireceği	-11.0579
▁Tok	-11.058
▁Harekatı	-11.0583
beyazlılar	-11.0584
▁Şer	-11.0586
eyhan	-11.0587
▁Geçmişte	-11.0588
▁otur	-11.0588
▁alarm	-11.0589
▁evlerini	-11.059
▁tüketiciler	-11.0591
▁kategorisin	-11.0592
▁görünme	-11.0592
▁toplantılar	-11.0593
▁tersi	-11.0596
▁Romanya	-11.0597
▁dönüyor	-11.0597
▁vicdanı	-11.0598
▁platformu	-11.0599
▁tamir	-11.0599
▁Sezonu	-11.0599
▁İşin	-11.06
▁Sıra	-11.0602
▁etkiler	-11.0603
▁röportaj	-11.0605
▁Öğretmen	-11.0607
▁başladılar	-11.0612
▁yaza	-11.0612
▁olanak	-11.0612
▁patladı	-11.0613
▁karşılaşması	-11.0613
▁yitirdiği	-11.0617
▁Bro	-11.0618
▁evren	-11.0622
▁harita	-11.0622
▁durdurdu	-11.0626
▁13:	-11.0626
▁pazarlık	-11.0626
▁okuya	-11.0627
▁Berk	-11.063
▁yayımlandı	-11.0631
▁TT	-11.0632
▁sloganı	-11.0635
mrah	-11.0636
▁otorite	-11.0637
hisar	-11.0637
▁hikayesi	-11.0637
▁aldılar	-11.0638
▁jeo	-11.0645
▁burası	-11.0645
▁Bankacılı	-11.0646
▁Hadi	-11.0648
▁Bakın	-11.065
▁Güngör	-11.0652
▁Ameliyat	-11.0652
▁arındırıl	-11.0652
▁Rakka	-11.0652
▁satılıyor	-11.0652
▁Şafak	-11.0652
▁çalıştırıcı	-11.0652
▁Aşır	-11.0652
▁Asıl	-11.0654
▁YOK	-11.0654
▁bulunmaktadır	-11.0654
▁yapmakta	-11.0655
▁LG	-11.0656
▁sürme	-11.0658
▁zinciri	-11.0661
▁Kapısı	-11.0663
çelik	-11.0664
▁MÜ	-11.0669
▁skorla	-11.0669
▁Mas	-11.0673
▁kırma	-11.0674
▁uygulamasını	-11.0674
▁deplasmanında	-11.0677
▁laştıra	-11.0677
▁mıştır	-11.0686
▁getirir	-11.069
▁izleye	-11.0691
▁Babam	-11.0698
▁süz	-11.0699
▁hatır	-11.07
▁onayı	-11.0701
▁kulüpte	-11.0702
▁Aç	-11.0703
▁iradesi	-11.0704
▁takımla	-11.0706
▁çıkmasını	-11.0709
▁suçlama	-11.071
▁NE	-11.071
▁tutulması	-11.0713
▁elin	-11.0714
▁Selin	-11.0715
▁Gençler	-11.0716
▁oynamaya	-11.0721
▁elim	-11.0723
▁gerçekleşme	-11.0724
▁çavuş	-11.0724
▁yıka	-11.0725
yoruz	-11.0725
▁subay	-11.0726
80	-11.0728
▁motoru	-11.0729
▁düşündü	-11.0731
▁tahsil	-11.0731
▁hanım	-11.074
▁Pas	-11.074
▁diledi	-11.0741
ros	-11.0741
▁Fevzi	-11.0741
▁Kraliçe	-11.0741
▁istisna	-11.0741
▁Sahne	-11.0741
▁Kerem	-11.0741
▁Çiğ	-11.0742
▁ciro	-11.0744
▁Çiftçi	-11.0744
▁Baykal	-11.0745
▁fren	-11.0745
▁Ford	-11.0745
▁kardeşleri	-11.0746
▁harcan	-11.0748
▁Cemaat	-11.0751
▁gününü	-11.0754
▁gelişim	-11.0755
▁almasını	-11.0759
▁12:	-11.0759
▁tat	-11.0763
▁bilmediği	-11.0765
▁diyordu	-11.0765
▁kamuoyunu	-11.0765
▁alınacağı	-11.0766
▁gözle	-11.0767
▁Dal	-11.0772
▁yatırımcıları	-11.0774
▁Nerede	-11.0776
▁meli	-11.0777
for	-11.0778
▁insanlığı	-11.0781
▁1"	-11.0781
▁ilçeleri	-11.0786
▁aramalarda	-11.0788
▁çizgisi	-11.0789
▁Fidan	-11.079
top	-11.0791
▁çıkarları	-11.0794
▁liderliği	-11.0794
▁sağlığını	-11.0795
ty	-11.0797
▁geçim	-11.0801
▁zamanın	-11.0802
▁Hele	-11.0803
▁kok	-11.0806
-15	-11.0812
▁kayak	-11.0813
▁ilgilendire	-11.0813
▁bütünlüğü	-11.0813
▁kaybettik	-11.0814
▁soka	-11.0818
BM	-11.0821
▁faaliyetler	-11.0823
▁basınında	-11.0827
▁endeks	-11.0828
▁Seri	-11.083
▁giyim	-11.083
▁istediğimiz	-11.083
mlulu	-11.0831
▁EURO	-11.0831
▁laboratuvar	-11.0831
▁İdmanyurdu	-11.0831
▁çikolata	-11.0831
▁edelim	-11.0831
▁ÖSYM	-11.0831
▁Uludağ	-11.0831
▁kalitesini	-11.0832
▁tedirgin	-11.0832
▁ürettiği	-11.0832
▁müsabakada	-11.0832
▁ertesi	-11.0833
▁kürsü	-11.0833
▁diler	-11.0834
▁açmış	-11.0834
▁çıkmadı	-11.0834
▁Çocukların	-11.0835
▁desteklediği	-11.0836
▁Savcılığı	-11.0837
aziz	-11.084
▁barikat	-11.0841
▁anlata	-11.0844
▁çalışıyorum	-11.0844
▁hissede	-11.0846
▁iman	-11.0846
latma	-11.0846
▁piyasası	-11.0848
▁gelirken	-11.0848
▁hedeflerini	-11.0849
▁yağlı	-11.0851
şim	-11.0855
▁ünü	-11.0857
▁nce	-11.0858
sas	-11.0863
sson	-11.0864
▁golleri	-11.0864
▁ifadelerin	-11.0869
▁Raporda	-11.087
▁panel	-11.0873
12	-11.0877
▁Nazi	-11.0883
▁yapılma	-11.0886
▁araçlarını	-11.0889
▁YE	-11.0891
PA	-11.0895
▁nişan	-11.0896
İki	-11.0898
ct	-11.0899
▁geldikleri	-11.0899
ska	-11.0899
KI	-11.0905
▁adımları	-11.0905
▁gündeminde	-11.0906
İH	-11.0907
Ğİ	-11.0908
▁yönler	-11.0908
▁Raporu	-11.091
▁dönemini	-11.0911
▁düşmanı	-11.0911
▁süresini	-11.0912
▁Bizi	-11.0914
▁baktığı	-11.0919
▁mezhep	-11.092
▁çevresi	-11.092
▁Hıristiyan	-11.0922
▁Koalisyon	-11.0922
▁doküman	-11.0922
▁Florya	-11.0922
▁piyan	-11.0922
▁söyleniyor	-11.0922
▁periyod	-11.0922
▁Kuzu	-11.0922
▁ziyade	-11.0922
▁Fuat	-11.0922
▁Köln	-11.0922
▁varmış	-11.0923
▁ölçek	-11.0923
▁Kürd	-11.0924
▁Melis	-11.0925
▁Eşim	-11.0925
▁doktorlar	-11.0926
▁dostluk	-11.0926
▁paşa	-11.0928
▁Özge	-11.093
90	-11.0931
▁yorumları	-11.0932
▁Atil	-11.0933
▁boşluk	-11.0935
▁şiddetin	-11.0937
▁dinleye	-11.0944
▁arkadaşımız	-11.0945
▁kaçtığı	-11.0947
▁yürüdü	-11.0949
▁rica	-11.0951
kara	-11.0951
▁ala	-11.0955
▁kıyafet	-11.0955
▁satıyor	-11.0956
▁yarısını	-11.0958
▁şişe	-11.0959
▁3"	-11.0961
▁dergi	-11.0962
▁lük	-11.0963
▁ortakları	-11.0964
▁mayıs	-11.0964
▁Çamlı	-11.0965
▁yayında	-11.0968
▁Otobüs	-11.0968
▁fuarı	-11.0973
▁194	-11.0978
▁karşılandı	-11.0983
▁mevkii	-11.0983
▁kaptan	-11.0985
▁uzantı	-11.0985
▁katılıyor	-11.0989
▁Ülkemizde	-11.099
▁baktı	-11.0991
▁Sektör	-11.0992
▁şifresi	-11.0993
▁Seda	-11.0994
▁Duman	-11.0998
▁merakla	-11.0999
▁yaşananları	-11.0999
▁196	-11.1001
▁Balık	-11.1002
▁Gö	-11.1005
▁tempo	-11.101
▁bayrakları	-11.101
fil	-11.101
▁Kulüpler	-11.1011
▁İnönü	-11.1014
▁Başvuru	-11.1014
▁dayanıklı	-11.1014
▁çalışmış	-11.1014
▁Sultanahmet	-11.1014
▁nihayet	-11.1015
▁kararında	-11.1015
▁raporları	-11.1015
▁nakil	-11.1016
▁3-2	-11.1017
▁ulaşması	-11.1018
Suriye	-11.1018
▁bardağı	-11.102
▁ziyaretinde	-11.1024
▁enerjisi	-11.1025
▁müsabakasında	-11.1025
▁öğrendim	-11.1027
▁istek	-11.1027
▁çalışır	-11.1028
▁kaldık	-11.103
ys	-11.103
▁yaşadık	-11.1031
▁Gelen	-11.1032
▁mülk	-11.1032
▁farklılık	-11.1034
▁öğün	-11.1036
▁and	-11.1037
▁Eve	-11.1037
▁şarkılar	-11.1041
▁Üye	-11.1042
▁haberlerin	-11.1045
▁duydukları	-11.1045
▁İHA	-11.1045
ment	-11.1046
▁burnu	-11.1047
▁miktarını	-11.1047
▁kadınları	-11.1049
▁ölümün	-11.1053
bes	-11.1053
▁konuşmaları	-11.1053
▁bütçesi	-11.1058
▁bacağı	-11.1059
▁kalkış	-11.106
▁kesildi	-11.1065
8)	-11.1066
▁polisleri	-11.1067
ting	-11.107
▁Alan	-11.1073
SD	-11.1076
▁vatanı	-11.1079
▁demesi	-11.1079
▁yağdı	-11.1082
▁kayıplar	-11.1082
▁göstermeye	-11.1085
▁kıza	-11.1085
▁taşıt	-11.1085
▁180	-11.1086
▁sıralama	-11.1086
▁ışı	-11.1087
▁kapıları	-11.1092
layacak	-11.1094
▁yüzyılda	-11.1094
▁sıkıştı	-11.1095
▁yaptıra	-11.1098
▁azaldı	-11.1099
▁suçlar	-11.11
▁anlatmak	-11.1102
▁Vakıf	-11.1106
▁Kastamonu	-11.1106
▁Poyraz	-11.1106
▁tahvil	-11.1106
▁Meryem	-11.1106
▁Tekirdağ	-11.1106
▁Zekeriya	-11.1106
▁sandalye	-11.1106
▁travma	-11.1106
▁Şiddet	-11.1106
▁Yalnız	-11.1106
▁metreküp	-11.1106
▁tükete	-11.1106
▁Esnaf	-11.1106
▁çılgın	-11.1106
▁edemez	-11.1106
▁stadyum	-11.1107
▁düşürülmesi	-11.1107
▁Atalay	-11.1108
▁hatası	-11.1108
▁borçları	-11.1108
▁yaratıcı	-11.1108
▁Ronaldo	-11.1108
▁Yaku	-11.1108
▁Sh	-11.1108
▁Tatar	-11.1109
▁tetik	-11.1109
ion	-11.1109
▁NBA	-11.111
bahar	-11.111
▁Görgü	-11.111
▁sevenleri	-11.1112
▁Veysel	-11.1112
▁Adanaspor	-11.1113
▁kararname	-11.1114
▁ihracatçı	-11.1114
▁Serge	-11.1115
ster	-11.1118
▁işlerini	-11.1118
▁mahsur	-11.1119
▁çözüle	-11.112
▁bölgelerin	-11.1121
▁Hizmetleri	-11.1125
▁sonuçlandı	-11.1127
▁fena	-11.1128
▁mediği	-11.1129
▁çalışı	-11.113
▁kanal	-11.1132
Son	-11.1136
▁çalışmalarda	-11.1138
▁kalkan	-11.1142
▁Çay	-11.1144
▁dostları	-11.1145
▁ödediği	-11.1146
▁düşünün	-11.1147
▁biletleri	-11.1149
▁turisti	-11.1149
▁Sad	-11.1151
▁çıkarıyor	-11.1151
▁yaşamış	-11.1155
▁cinayeti	-11.116
▁192	-11.1161
▁geleceğ	-11.1161
gazi	-11.1162
▁Dam	-11.1166
▁soyunm	-11.1168
▁çevreleri	-11.1169
▁niteliği	-11.1171
▁Doğa	-11.1173
▁pası	-11.1173
▁kaldıkları	-11.1175
▁faydalana	-11.118
▁galibiyetini	-11.118
▁Tasarı	-11.1182
▁Abd	-11.1182
▁Örgütün	-11.1183
▁okulları	-11.1184
UK	-11.1184
▁Sha	-11.1185
▁yaşamın	-11.1188
▁Tuna	-11.1188
RT	-11.1188
▁Anlaşma	-11.119
▁tabir	-11.1191
▁Dere	-11.1193
▁duyar	-11.1193
▁görüştüğü	-11.1193
▁çekiliş	-11.1194
▁Pri	-11.1195
▁lenmesi	-11.1195
mür	-11.1196
▁FBI	-11.12
▁yeğeni	-11.12
▁Souza	-11.12
▁Eyalet	-11.12
▁Metro	-11.12
▁Liste	-11.12
▁Tunç	-11.12
▁binasında	-11.12
▁Kosova	-11.12
▁kombin	-11.12
piyade	-11.1201
▁temizlenmesi	-11.1201
▁mutluluğu	-11.1205
▁servisi	-11.1207
▁boynu	-11.1208
▁Ölüm	-11.121
▁ayrıldığı	-11.121
▁olmalıdır	-11.121
▁sırtı	-11.1215
▁II	-11.1216
▁özü	-11.1217
▁götürü	-11.1217
▁fazlasını	-11.1218
▁arkadaşlarını	-11.1219
▁gar	-11.1219
leştiği	-11.122
▁raf	-11.1221
▁tayin	-11.1222
▁Kendisini	-11.1223
▁sıklık	-11.1225
▁Yedi	-11.1227
▁simge	-11.1227
▁teknolojileri	-11.1228
▁190	-11.1229
▁oluşum	-11.1233
▁bilgilerin	-11.1236
▁vuruldu	-11.1242
▁ons	-11.1246
▁takma	-11.1246
▁bekledikleri	-11.1252
▁Düz	-11.1253
▁ikincisi	-11.1253
▁Kutlu	-11.1256
kon	-11.1256
▁önerisi	-11.126
▁dk	-11.1261
▁kanalında	-11.1267
▁koy	-11.1268
▁duruşmaya	-11.1268
▁duyula	-11.1269
▁harf	-11.1271
▁Kuvvetler	-11.1271
▁aşma	-11.1272
▁grub	-11.1272
▁katılacağı	-11.1272
ben	-11.1275
▁inme	-11.1277
▁tavuk	-11.1278
▁ayıra	-11.1279
▁22:	-11.1283
▁illerde	-11.1285
▁soruyor	-11.1286
▁koyun	-11.1287
▁ulus	-11.1289
▁kalkması	-11.129
▁gir	-11.1291
▁TÜBİTAK	-11.1294
▁Marcelo	-11.1294
▁tıbbi	-11.1294
▁1996	-11.1294
▁Kazakistan	-11.1294
▁eylül	-11.1294
▁obezite	-11.1294
▁güvenilir	-11.1294
▁solunum	-11.1294
▁Emlak	-11.1295
▁Kapalı	-11.1295
▁gidin	-11.1295
şafak	-11.1295
▁vesayet	-11.1295
▁makale	-11.1295
▁müdürlüğü	-11.1295
▁Muhtar	-11.1296
▁gerçekleştirdik	-11.1296
▁mutluyum	-11.1296
▁ödenecek	-11.1298
▁MEB	-11.1299
▁darbesi	-11.13
▁takipçi	-11.13
▁çekilişi	-11.1301
burg	-11.1302
▁yolla	-11.1302
▁rdı	-11.1302
Fikri	-11.1303
▁hataları	-11.1304
akit	-11.1307
▁çatışmalarda	-11.1307
▁leke	-11.1308
▁boğaz	-11.1314
anında	-11.1315
▁İslami	-11.1315
▁uygula	-11.1316
▁uçakla	-11.1318
▁futbolun	-11.1319
▁laştırma	-11.1319
▁vaat	-11.1319
▁SU	-11.1319
▁Abi	-11.1323
▁sözlü	-11.1324
▁gösterildi	-11.1325
▁Arama	-11.1328
▁yaralıları	-11.1328
▁yacağız	-11.1328
▁birbiri	-11.1328
▁zorluklar	-11.1329
▁yapacakları	-11.1331
▁facia	-11.1335
▁yılların	-11.1339
▁renkleri	-11.1339
▁alındığında	-11.1341
▁etmeden	-11.1342
▁Adliye	-11.1343
▁güvence	-11.1346
▁11:	-11.1346
▁ekleye	-11.135
▁katta	-11.1352
▁lanacak	-11.1355
▁lanmış	-11.1355
▁yaşar	-11.1356
▁projelerin	-11.1358
▁eklen	-11.136
▁hazırlaya	-11.1362
▁öldürülmesi	-11.1364
▁olmasında	-11.1366
▁80'	-11.1367
▁azaltıl	-11.1367
▁görüşleri	-11.137
▁kanalları	-11.1371
▁Sibe	-11.1376
▁göçü	-11.1381
▁soku	-11.1381
evcut	-11.1382
▁alınama	-11.1382
▁ambulanslar	-11.1383
▁incelemesi	-11.1384
▁Hac	-11.1384
aydır	-11.1389
▁domates	-11.1389
▁köpeği	-11.1389
▁olimpiyat	-11.1389
▁İtfaiye	-11.1389
▁Kahve	-11.1389
▁Ağaoğlu	-11.1389
▁Lozan	-11.1389
▁donanım	-11.1389
▁Elitaş	-11.1389
▁torba	-11.1389
▁direnç	-11.1389
▁Glob	-11.139
▁ekmeği	-11.139
▁fakir	-11.139
▁havuz	-11.139
▁Ayşegül	-11.139
▁taktik	-11.1391
▁yapay	-11.1391
▁maçlarını	-11.1392
▁geçerken	-11.1392
▁Tiyatrosu	-11.1394
▁patlamada	-11.1394
▁yakalanma	-11.1395
rıldığı	-11.1395
▁kör	-11.1395
▁Bizler	-11.1396
▁DNA	-11.1398
▁Lirası	-11.1399
▁Somali	-11.1405
▁artışın	-11.1405
▁miras	-11.1405
▁sergiledi	-11.1406
▁acısı	-11.1407
▁geçiri	-11.1407
▁inan	-11.1407
▁kullanılacak	-11.1409
▁çağı	-11.141
▁etrafı	-11.1413
▁düşünüle	-11.1414
▁sağlandığı	-11.1416
▁açılışını	-11.1418
▁silin	-11.1419
▁ortaklığı	-11.1419
▁atık	-11.142
▁malzemesi	-11.1421
İST	-11.1423
▁akım	-11.1423
▁davranışları	-11.1424
▁cezaları	-11.1424
▁Selam	-11.1425
urmay	-11.1427
▁Maal	-11.1427
tah	-11.1431
▁kandır	-11.1432
▁rakamları	-11.1432
▁Yeniden	-11.1433
▁eserler	-11.1434
▁açısı	-11.1436
▁tırman	-11.1437
▁Sim	-11.1439
▁alanını	-11.1441
▁haberde	-11.1442
▁belde	-11.1443
▁Note	-11.1449
▁odası	-11.1452
▁korka	-11.1454
▁çekilmesi	-11.1456
▁kitaplar	-11.1456
▁hükümetini	-11.1458
▁doz	-11.1459
▁Zirve	-11.1468
▁Necm	-11.1469
▁grubunu	-11.147
▁Mur	-11.147
▁kasaba	-11.1472
▁Res	-11.1472
RI	-11.1473
▁düzeltme	-11.1474
▁kaptı	-11.1481
▁TAK	-11.1481
▁tutuklanma	-11.1484
▁çıka	-11.1484
▁imalat	-11.1485
▁likte	-11.1486
▁Lokomoti	-11.1486
▁Personel	-11.1486
AĞI	-11.1486
▁1997	-11.1486
▁fındık	-11.1486
▁yapalım	-11.1486
▁yitiren	-11.1486
▁tekstil	-11.1486
▁Modern	-11.1486
▁kutsal	-11.1486
▁Ceylan	-11.1486
▁Sarıyer	-11.1486
▁16.00	-11.1487
▁kalıp	-11.1487
▁masay	-11.1488
▁duyuyorum	-11.1488
▁öğretmenleri	-11.1488
▁erecek	-11.1491
▁eleştirme	-11.1492
▁af	-11.1493
Burada	-11.1495
▁boğa	-11.1498
▁Çözüm	-11.1498
ÜL	-11.1499
▁gözünü	-11.15
▁Ruh	-11.1501
▁nadir	-11.1501
▁ad	-11.1501
▁kurtuldu	-11.1504
▁vermediği	-11.1505
▁Olmaz	-11.1505
▁lanmıştı	-11.1506
bol	-11.1508
▁seti	-11.1508
▁eleman	-11.1509
▁Bankalar	-11.1511
▁Elçi	-11.1511
▁zanlısı	-11.1512
▁türk	-11.152
▁araştırmada	-11.1521
▁bulunu	-11.153
▁sor	-11.1531
▁İst	-11.1532
▁kulağı	-11.1533
▁değişme	-11.1534
▁Chi	-11.1537
vat	-11.1537
▁kalmasını	-11.1541
▁saldırılarda	-11.1541
▁yüze	-11.1541
▁baştan	-11.1542
▁YIL	-11.1543
▁Konferansı	-11.1547
▁görüntüsü	-11.1548
▁7-	-11.1549
▁kuyu	-11.1549
▁fileleri	-11.1551
▁grubunda	-11.1552
▁getir	-11.1553
likçi	-11.1556
▁yönetmeni	-11.1559
meyeceği	-11.1559
▁fırl	-11.1559
▁ret	-11.1562
▁Kalın	-11.1562
▁değiştir	-11.1564
▁bırakmadı	-11.1565
▁otobüsün	-11.1565
▁Akademi	-11.1565
▁doğusu	-11.1566
istik	-11.1567
▁bit	-11.1567
merg	-11.1569
trik	-11.1571
▁turistler	-11.1579
▁yayıla	-11.1581
▁yapmaları	-11.1582
▁Reuters	-11.1583
▁mevduat	-11.1583
▁yumruk	-11.1583
▁ödüyor	-11.1583
▁Aksaray	-11.1583
▁Video	-11.1583
▁Havaalanı	-11.1583
▁gezme	-11.1583
▁şair	-11.1583
▁teori	-11.1583
▁Ofisi	-11.1583
▁sunuluyor	-11.1583
▁hedefliyoruz	-11.1586
▁ibaret	-11.1586
▁işlev	-11.1587
▁gösterecek	-11.1587
▁telsiz	-11.1588
▁imiz	-11.1588
▁mahallelerin	-11.159
OK	-11.159
▁Play	-11.159
▁fesh	-11.1592
▁ydu	-11.1592
▁ılım	-11.1593
▁teşhisi	-11.1594
▁Ayrı	-11.1595
başka	-11.1595
▁Kaba	-11.1596
▁nedenleri	-11.1597
▁TOKİ	-11.1597
▁yükseldiği	-11.1598
▁adaylığı	-11.1599
▁hatalar	-11.1602
▁Gelecek	-11.1602
▁mıyorum	-11.1602
▁yoksun	-11.161
▁indire	-11.1611
▁çalı	-11.1612
▁Eser	-11.1618
▁maske	-11.1619
▁Pir	-11.162
▁çeke	-11.1621
▁Balkan	-11.1623
▁işimiz	-11.1623
▁almıştır	-11.1624
▁rakamın	-11.1625
▁beraberindeki	-11.1625
tom	-11.1626
dvan	-11.1627
▁üretiminde	-11.1629
▁tekme	-11.163
ras	-11.1632
▁yatma	-11.1633
▁Rı	-11.1634
▁sınırlarını	-11.1635
oy	-11.1636
▁amaçları	-11.164
▁formasını	-11.1641
▁faktörler	-11.1647
▁Ch	-11.1647
▁öldürmek	-11.165
▁çağrısın	-11.1651
▁Batılı	-11.1652
▁etmemiz	-11.1656
▁biliyorlar	-11.1661
▁notunu	-11.1662
▁gayri	-11.1665
▁başvuruları	-11.1669
▁santral	-11.167
▁yaralanmıştı	-11.167
▁olduğunuz	-11.1671
▁Leyla	-11.1673
▁kayna	-11.1673
▁kalmayı	-11.1674
▁kral	-11.1674
▁odaları	-11.1675
▁ilişkili	-11.1675
▁ayrılı	-11.1676
▁getirdiğini	-11.1676
▁verebilir	-11.1677
UM	-11.168
▁favori	-11.1681
▁Arsenal	-11.1681
▁Gürcistan	-11.1681
▁diktatör	-11.1681
▁promosyon	-11.1681
▁traktör	-11.1681
▁çıplak	-11.1681
▁1998	-11.1681
▁çorba	-11.1681
▁sırrı	-11.1682
▁istikametin	-11.1683
▁negatif	-11.1685
▁beşinci	-11.1687
Bunu	-11.1689
▁Güçlü	-11.1689
▁atılacak	-11.1689
▁makamlar	-11.1692
▁başla	-11.1693
▁etken	-11.1695
▁Jet	-11.1697
▁ücretleri	-11.1699
▁leniyor	-11.17
▁gelişti	-11.17
▁taleplerini	-11.1702
▁kaçınma	-11.1702
jo	-11.1702
▁Ülkede	-11.1703
▁Konuk	-11.1707
▁Bit	-11.1707
▁Post	-11.1711
▁Ziya	-11.1712
laşması	-11.1713
▁çıkabilir	-11.1717
▁Alanya	-11.1718
▁Planı	-11.1718
▁nitelikte	-11.1719
▁ceset	-11.1725
▁kalkışma	-11.1725
▁kıla	-11.1727
▁yazıla	-11.1731
▁birbirimiz	-11.1731
▁seçti	-11.1733
ötü	-11.1735
▁edemedi	-11.1735
▁4"	-11.1736
▁planda	-11.1736
▁Sonrası	-11.1743
▁istediğiniz	-11.1744
▁durumları	-11.1744
▁imzası	-11.1748
▁sayıları	-11.1751
▁kurulduğu	-11.1751
▁bankası	-11.1754
▁mevzi	-11.1755
▁ateşkesi	-11.1757
casusluk	-11.176
▁kıran	-11.176
▁bölgeleri	-11.1762
▁lanırken	-11.1762
▁biridir	-11.1763
▁tanıkları	-11.1763
▁riskli	-11.1768
▁tesislerin	-11.1769
▁cildi	-11.1771
▁nüfusu	-11.1776
▁oteller	-11.1776
▁reddetti	-11.1777
▁görüşlerin	-11.178
▁bürokrasi	-11.178
▁düğme	-11.178
▁espri	-11.178
▁Kararname	-11.178
▁Yüzyıl	-11.178
▁iğne	-11.178
▁Çalışkan	-11.178
▁deyince	-11.178
▁zeytinyağı	-11.1781
▁Faiz	-11.1781
▁vahim	-11.1781
▁ürünlerini	-11.1783
▁takımlarında	-11.1785
▁stil	-11.1787
diğinde	-11.1788
▁Devre	-11.1789
▁gönderilmesi	-11.1791
▁tabut	-11.1791
▁yaratıl	-11.1793
▁alamaya	-11.1795
▁paylaşıyor	-11.1795
▁imkân	-11.1796
▁bela	-11.1797
▁saçma	-11.18
▁Nazlı	-11.1802
▁havalimanında	-11.1802
▁rö	-11.1803
▁boru	-11.1804
▁batısında	-11.1805
▁evre	-11.1805
▁varken	-11.1808
▁uça	-11.181
▁başımız	-11.1818
▁teması	-11.1819
üzenleme	-11.182
▁gribi	-11.1821
▁dikleri	-11.1822
▁gazetesinde	-11.1825
▁Fen	-11.1826
ation	-11.1826
▁birbirini	-11.1833
▁3,5	-11.1834
▁döndüğü	-11.1835
▁kıyafetleri	-11.1841
▁Durumu	-11.1842
▁sonuçlana	-11.1845
▁üstünlü	-11.1847
▁yaşanması	-11.1847
▁koruması	-11.1848
▁otoyol	-11.1853
▁Toplantıda	-11.1853
▁gayreti	-11.1854
▁tanıtımı	-11.1854
▁sunucu	-11.1856
▁İçin	-11.186
▁Kö	-11.186
▁çıkmaz	-11.1862
▁Filistinli	-11.1864
▁nasi	-11.1866
▁girdiğini	-11.1868
▁nca	-11.1869
INI	-11.1872
▁edilmek	-11.1873
▁değiş	-11.1877
▁rıla	-11.1878
▁Katılım	-11.188
▁Aboubakar	-11.188
▁CNN	-11.188
▁Vadisi	-11.188
▁implant	-11.188
▁övgü	-11.188
▁Vural	-11.188
▁Yoğun	-11.188
▁yöre	-11.188
▁Gemi	-11.188
▁emeği	-11.1881
▁ray	-11.1881
▁dershane	-11.1881
▁gönlü	-11.1881
▁Başkonsolos	-11.1881
▁Kamil	-11.1882
▁Gelir	-11.1883
▁başlatma	-11.1883
▁kırsalında	-11.1883
▁ekstr	-11.1884
▁girişimler	-11.1885
lsa	-11.1886
▁siviller	-11.1887
▁bilinci	-11.1888
▁PFDK	-11.1891
▁Of	-11.1892
PKK	-11.1893
▁binin	-11.1893
▁genelge	-11.1894
▁getirmeye	-11.1895
▁çıkartıla	-11.1895
▁Ülkemizi	-11.1895
▁yaralama	-11.1897
▁doldu	-11.1898
▁Tak	-11.1898
▁etkiliyor	-11.1899
itme	-11.1901
▁kaydederek	-11.1902
▁galeri	-11.1903
▁atı	-11.1903
▁his	-11.1904
The	-11.1904
▁planlarını	-11.1905
▁Tören	-11.1907
▁petrolün	-11.1909
▁organı	-11.1909
▁pazarlar	-11.191
▁taşımak	-11.1913
▁solu	-11.1915
▁Bes	-11.1916
▁mezunu	-11.1917
▁yargılanması	-11.1919
▁mağduru	-11.1922
▁bakmak	-11.1923
▁düşmüş	-11.1924
▁@	-11.1926
▁kaybedenler	-11.1928
▁yetenek	-11.1929
▁yenme	-11.193
▁gözlerini	-11.193
doğan	-11.1935
▁kokusu	-11.1938
▁Müze	-11.1941
▁saçları	-11.1942
▁ED	-11.1942
▁sonsuz	-11.1944
▁teşebbüsü	-11.1946
▁maddelerin	-11.1946
▁kablo	-11.1949
▁yolculuğu	-11.1951
▁sonuçla	-11.1954
▁dinledi	-11.1957
amp	-11.1959
▁şarkısı	-11.1961
▁yatırımların	-11.1963
▁Ayak	-11.1965
▁ateşi	-11.1968
▁aracını	-11.1968
▁aradığı	-11.1968
▁incelenme	-11.1969
▁Herkesi	-11.197
▁Çukur	-11.1972
▁gerçeklik	-11.1972
▁Vil	-11.1975
▁Efe	-11.198
▁fişeği	-11.1981
▁poşet	-11.1981
▁roketatar	-11.1981
armaşık	-11.1981
▁kıdem	-11.1981
▁Dicle	-11.1981
▁Hırvatistan	-11.1981
▁yakalandığı	-11.1981
▁toprağı	-11.1981
▁edebilirsiniz	-11.1981
▁mevkisinde	-11.1982
▁Göztepe	-11.1982
▁yönetecek	-11.1983
▁Ergün	-11.1983
LU	-11.1984
minal	-11.1985
▁tutumu	-11.1985
▁yatı	-11.1987
▁öncü	-11.1989
▁eklem	-11.1989
▁gümrük	-11.1989
▁Loto	-11.199
▁cezaevi	-11.1992
▁uzunluğunda	-11.1993
▁otelin	-11.1998
▁Oyunları	-11.2
▁bayramı	-11.2003
▁kaydedile	-11.2003
▁aşık	-11.2005
▁eşyaları	-11.2005
▁yapıyordu	-11.2005
▁ayıp	-11.2006
▁İçinde	-11.2011
▁seçimler	-11.2012
▁EL	-11.2014
▁vereceğiz	-11.2014
▁fotoğraflarını	-11.2016
nizde	-11.2017
▁Ödül	-11.2018
jan	-11.2019
▁şampiyonu	-11.202
▁toprakları	-11.202
▁yenilikler	-11.2021
▁edeceğim	-11.2023
▁unsuru	-11.2023
▁Erke	-11.2023
war	-11.2023
▁yorumun	-11.2024
▁iddialarını	-11.2024
▁ettirdi	-11.2025
▁hükmün	-11.2029
▁oynar	-11.2029
▁çalıştıra	-11.203
NİN	-11.2033
▁özgürlüğünü	-11.2033
▁çalışmasını	-11.2036
▁yükselmesi	-11.2038
xxx	-11.2046
stro	-11.2048
▁bağlana	-11.2054
▁siteleri	-11.2055
▁anlaşıl	-11.2058
▁huzurun	-11.2058
▁sezonunu	-11.2059
▁istismarı	-11.206
▁tribün	-11.2066
▁öldürü	-11.2066
▁çizil	-11.2068
▁tanımı	-11.2069
▁katılımcılar	-11.2069
▁takıla	-11.207
▁Düşü	-11.2074
▁Kıv	-11.2078
▁kav	-11.2079
▁verileceği	-11.2081
▁şoku	-11.2082
▁Akşener	-11.2083
▁Endonezya	-11.2083
▁Bozkır	-11.2083
▁paylaşıldı	-11.2083
▁Necati	-11.2083
▁tebliğ	-11.2083
▁bulunmuyor	-11.2083
▁Özlem	-11.2083
▁tapu	-11.2084
▁söylemesi	-11.2084
▁terminal	-11.2084
▁alabilecek	-11.2084
▁Jack	-11.2085
▁Konak	-11.2087
▁konseri	-11.2087
▁takımları	-11.2089
▁esna	-11.209
▁etse	-11.209
▁soruların	-11.2091
▁Cam	-11.2091
▁arabası	-11.2094
▁Anlaşması	-11.2095
▁atacak	-11.2097
▁yükseltme	-11.2097
▁ymış	-11.2098
▁ayrılması	-11.2099
▁konularında	-11.2102
Mİ	-11.2104
▁Kamp	-11.2105
rüt	-11.2106
▁imzalana	-11.2109
▁kları	-11.2109
▁mekanizma	-11.2112
▁sorduğu	-11.2114
▁rahatlat	-11.2115
▁saldırılarında	-11.2116
▁hastalarda	-11.2117
▁bağlantıları	-11.2118
▁çağ	-11.2122
▁gülü	-11.2124
▁kuruluşların	-11.2124
▁dinlenme	-11.2126
▁küme	-11.2128
▁bulunmuş	-11.2128
▁sorunlarını	-11.2135
▁Mir	-11.2136
UZ	-11.2138
▁kalmaya	-11.2139
▁sorula	-11.2141
▁getirilme	-11.2142
▁filmler	-11.2143
▁etkinlikleri	-11.2143
▁larken	-11.2144
▁vermez	-11.2145
▁Saman	-11.2147
▁masada	-11.2149
▁Sağlığ	-11.215
▁ödemek	-11.215
▁Sport	-11.2151
▁ücretin	-11.2152
üfer	-11.2153
▁23:	-11.2154
▁çevi	-11.2156
▁yenileme	-11.2158
▁havası	-11.2159
▁bizleri	-11.2161
▁ey	-11.2162
▁bakanı	-11.217
▁komuta	-11.2171
▁yayım	-11.2171
▁bildikleri	-11.2173
▁pist	-11.2174
▁rejimini	-11.2174
▁Yeri	-11.2177
▁Deli	-11.2177
▁Yaka	-11.2178
▁almaz	-11.2179
▁görmedi	-11.2182
▁duyurusu	-11.2182
▁sergisi	-11.2185
▁yapmamız	-11.2185
▁BÜYÜ	-11.2186
▁Cerattepe	-11.2186
▁Liverpool	-11.2186
▁Tecrübe	-11.2186
▁lojisti	-11.2186
▁tesadüf	-11.2186
Diriliş	-11.2186
▁1995	-11.2186
▁Daniel	-11.2186
▁kazanıyor	-11.2186
▁Topçu	-11.2187
▁Alanyaspor	-11.2187
7)	-11.2187
▁Kaç	-11.2187
▁yaklaşma	-11.2188
▁yiyen	-11.2188
▁radar	-11.2188
▁hayatım	-11.2189
▁yoğunluğu	-11.2189
▁yahu	-11.2191
▁açması	-11.2192
TAR	-11.2193
▁damat	-11.2193
▁sürdürecek	-11.2194
▁şutunda	-11.2195
▁â	-11.2198
▁yasası	-11.22
▁önemini	-11.2201
▁IN	-11.2201
taraf	-11.2202
▁günlerinde	-11.2203
▁yerlerin	-11.2205
▁dilimi	-11.2207
MAN	-11.2212
▁finalinde	-11.2214
▁piyasasında	-11.2215
▁hususun	-11.2215
▁öldürdüğü	-11.2216
▁farkla	-11.2217
▁gelmiştir	-11.2218
▁stratejisi	-11.2218
▁niha	-11.2218
▁bozulma	-11.2218
ülüyor	-11.2221
caba	-11.2222
▁09.00	-11.2223
▁metal	-11.2225
▁yaşlarında	-11.2226
▁azaltmak	-11.2226
▁alabilme	-11.2232
▁eğitimini	-11.2234
▁benze	-11.2234
İKA	-11.2235
▁finansmanı	-11.2236
ACAK	-11.2236
▁üreticisi	-11.2238
akış	-11.224
▁kutla	-11.224
▁Bölüm	-11.2241
▁İranlı	-11.2244
▁başlamak	-11.2245
▁karşılığını	-11.2245
rilmesi	-11.2246
▁Konuşma	-11.2251
▁antrenör	-11.2253
▁Binbaş	-11.2254
▁sis	-11.2255
▁arkadaşını	-11.2256
▁görülmesi	-11.2259
▁yaptığım	-11.2259
▁Parlamento	-11.226
▁Tut	-11.2263
▁verilmedi	-11.2266
▁benzet	-11.2269
▁işçilerin	-11.2272
sızın	-11.2272
▁Gri	-11.2275
irken	-11.228
▁yanma	-11.2281
▁Mini	-11.2281
▁yöneticilerin	-11.2285
NIN	-11.2288
▁altyapısı	-11.2288
▁devletimiz	-11.2288
▁Chedjou	-11.229
▁Fırtına	-11.229
▁Hazret	-11.229
▁Mandıralı	-11.229
▁kaçınılmaz	-11.229
▁1993	-11.229
▁Kamuoyu	-11.229
▁Tahran	-11.229
▁Uysal	-11.229
▁Kirby	-11.229
▁ivme	-11.229
▁oğulları	-11.229
▁ilerliyor	-11.229
▁havaalanı	-11.2291
▁aranıyor	-11.2291
▁mekân	-11.2291
▁Asgar	-11.2291
▁korkma	-11.2292
▁alınıp	-11.2293
▁Hamzaoğlu	-11.2293
▁Evren	-11.2294
▁Ensar	-11.2294
▁zammı	-11.2295
▁kalkma	-11.2295
▁domuz	-11.2296
ston	-11.2299
▁izah	-11.23
▁çıkarta	-11.2301
▁destekliyor	-11.2302
▁kapısında	-11.2303
▁mayı	-11.2305
▁sıkıntıları	-11.2306
▁inşaatı	-11.2307
▁Kad	-11.2309
▁yemin	-11.2312
▁rakamı	-11.2316
lojik	-11.2317
▁alacağız	-11.232
▁2.9	-11.2322
▁Medica	-11.2323
▁parkı	-11.2323
▁cihazın	-11.2325
▁salonunda	-11.2327
▁laşa	-11.2329
▁nitelik	-11.233
▁TK	-11.2331
EF	-11.2331
▁sığınak	-11.2333
▁kalka	-11.2334
▁liler	-11.2334
▁göçmenleri	-11.2334
▁kırı	-11.2337
▁hücreleri	-11.2337
▁yukarıda	-11.2344
▁davalar	-11.2345
▁kapak	-11.2346
▁Tü	-11.2347
▁lastik	-11.235
▁Toplu	-11.2352
▁yüreği	-11.2352
▁tasarlan	-11.2353
▁Sema	-11.2354
▁ömrü	-11.2354
▁ordusunu	-11.2355
▁Kab	-11.2361
▁arkası	-11.2365
▁dediğini	-11.2366
▁topraklarında	-11.2367
▁namazın	-11.2368
▁Açıklama	-11.2369
▁yıkı	-11.2369
▁dosyaları	-11.237
▁unutul	-11.237
▁Hastalık	-11.237
▁öğrendik	-11.2371
▁gereğini	-11.2373
▁önerileri	-11.2381
▁Çar	-11.2381
▁yarışında	-11.2381
▁görecek	-11.2386
▁slogan	-11.2387
▁usul	-11.2388
▁durmak	-11.2389
▁kalmıştı	-11.2389
sco	-11.239
▁dizide	-11.239
▁bahçesi	-11.2391
▁eylemin	-11.2392
▁Çağla	-11.2395
21	-11.2395
▁fakülte	-11.2395
▁Akyazı	-11.2395
▁Hollywood	-11.2395
▁Kjaer	-11.2395
▁Makedonya	-11.2395
▁Microsoft	-11.2395
▁Sönmez	-11.2395
▁fuhuş	-11.2395
▁şeffaf	-11.2395
▁Sanders	-11.2395
▁edilmektedir	-11.2395
▁Erte	-11.2395
▁STK	-11.2395
▁Kafkas	-11.2395
▁rezervasyon	-11.2396
▁Ziyaret	-11.2396
▁Nevruz	-11.2396
▁Fox	-11.2397
oş	-11.2397
▁görüntülendi	-11.2398
▁play	-11.2399
▁bulmuş	-11.2399
▁bulunurken	-11.2399
▁Dick	-11.24
▁kullanacak	-11.2401
▁uğrun	-11.2402
▁açıklanma	-11.2407
▁Ersan	-11.2408
▁Yaman	-11.2408
▁Politika	-11.2409
▁basında	-11.2409
▁Masa	-11.2412
▁SO	-11.2414
▁sesle	-11.2414
▁vs	-11.2416
posta	-11.2416
▁yetenekli	-11.2417
ağmur	-11.2418
▁helikopteri	-11.242
ST	-11.2423
▁işletmeci	-11.2426
▁hassasiyeti	-11.2427
hra	-11.2431
▁karla	-11.2432
▁makamın	-11.2432
▁Lima	-11.2433
▁eksiklik	-11.2435
▁yükseltti	-11.2436
▁Niye	-11.2437
▁azaltma	-11.244
▁bakımı	-11.2444
▁konumda	-11.2446
▁Oku	-11.2447
▁Nob	-11.2447
▁Sekreter	-11.2449
▁zanlılar	-11.245
▁karşılıyor	-11.2454
▁Deri	-11.2458
▁SPOR	-11.2462
▁kapağı	-11.2463
▁ittifak	-11.2466
▁uçaklar	-11.2468
▁Hükümetin	-11.2472
▁atışları	-11.2472
▁çekilmiş	-11.2473
▁bitiri	-11.2477
▁evliliği	-11.2481
▁aklım	-11.2481
▁Belge	-11.2485
▁izlenme	-11.2488
▁ettiğim	-11.2489
▁yürüyüşü	-11.249
▁seviyor	-11.2499
▁karşılaşa	-11.25
▁YENİ	-11.2502
▁istişare	-11.2502
▁referans	-11.2502
▁reyting	-11.2502
▁yoğurt	-11.2502
▁İdlib	-11.2502
▁vazife	-11.2502
▁tabela	-11.2502
▁Zika	-11.2502
▁yapabilirsiniz	-11.2502
▁duyuyoruz	-11.2504
YI	-11.2504
▁varıla	-11.2504
hor	-11.2506
▁olmaktadır	-11.2509
▁yemekleri	-11.251
▁Uz	-11.251
▁ilacı	-11.2511
▁misiniz	-11.2512
meyiz	-11.2512
▁hukuksuz	-11.2512
▁duygusu	-11.2512
▁Durum	-11.2513
▁bozdu	-11.2514
▁verilmiştir	-11.2514
▁olaylarda	-11.2514
▁kayıtlar	-11.2515
▁TEK	-11.2516
▁istediğim	-11.2517
▁Jen	-11.2517
▁Batu	-11.2518
eddin	-11.252
▁severler	-11.2521
▁Gökçek	-11.2522
▁cinsi	-11.2523
▁ablası	-11.2527
▁ödedi	-11.2528
▁sürdürdüğü	-11.2528
▁satıldı	-11.2528
▁dilim	-11.2529
▁katılmaya	-11.2529
▁çevrede	-11.253
▁artırıyor	-11.253
▁ülkesini	-11.253
▁imar	-11.2531
▁görevleri	-11.2532
▁mahalleler	-11.2534
▁telefonunu	-11.2535
▁AS	-11.2537
▁oluruz	-11.2538
▁laik	-11.2539
▁çöktü	-11.2545
▁yararlı	-11.2546
▁pazarın	-11.2547
▁açılmış	-11.2548
▁hattını	-11.255
▁istiyorsa	-11.2551
▁kuruluşlarını	-11.2554
▁tutarında	-11.256
▁süreçleri	-11.2562
▁belirlediği	-11.2562
Yİ	-11.2566
▁tartışıla	-11.2567
▁ıyor	-11.257
▁maliyetleri	-11.257
ray	-11.2576
▁meşhu	-11.2577
▁uyandı	-11.2578
▁Hale	-11.2579
▁direk	-11.2581
▁sarılı	-11.2582
▁suçları	-11.2586
▁okuna	-11.2586
▁Tab	-11.2588
▁21:	-11.2589
▁sevda	-11.2604
▁Çocukları	-11.2606
▁KKTC	-11.2609
▁Kütahya	-11.2609
▁maksadı	-11.2609
▁profesör	-11.2609
▁General	-11.2609
▁YGS	-11.2609
▁Otoyolu	-11.261
▁Toner	-11.261
▁Reza	-11.261
▁Kök	-11.2611
▁Stadyumu	-11.2611
▁engellenmesi	-11.2612
▁sorulması	-11.2612
▁halini	-11.2612
▁belirleyecek	-11.2612
▁bekletil	-11.2613
▁Luis	-11.2613
▁imkansız	-11.2614
▁14.00	-11.2614
▁Ekici	-11.2615
▁vb	-11.2615
▁işletmeler	-11.2618
▁Üstün	-11.2618
madığını	-11.2619
▁Dijital	-11.2619
▁gidiyoruz	-11.262
▁odada	-11.262
▁sabahı	-11.2622
▁hazırlığı	-11.2623
▁Sonun	-11.2623
▁miydi	-11.2626
▁bileti	-11.2629
▁bağlama	-11.2629
çavuş	-11.263
▁gönderildiği	-11.2631
▁savaşçı	-11.2636
▁AT	-11.2637
▁dakikasın	-11.2637
▁İdare	-11.2639
RU	-11.264
▁oluyoruz	-11.264
▁militan	-11.2641
▁diyecek	-11.2642
▁sorguları	-11.2642
▁barikatları	-11.2644
▁Evin	-11.2649
▁binalar	-11.265
▁önemse	-11.2656
▁gizlen	-11.2658
▁aklın	-11.2659
▁FA	-11.2663
▁görevlerini	-11.2664
▁müzakerelerin	-11.2666
▁ağa	-11.2667
▁şehitlerimiz	-11.2667
▁röportajda	-11.2669
▁çene	-11.2669
▁Müdürlüğünde	-11.267
▁koruyor	-11.2674
▁paylaşmak	-11.2675
▁halı	-11.2678
▁Babası	-11.2679
▁Annem	-11.268
▁Olayda	-11.2682
▁anahtar	-11.2682
laştığı	-11.2682
▁yükselme	-11.2682
atılan	-11.2687
▁sevdi	-11.2688
▁hukuku	-11.269
▁devrildi	-11.269
▁yurtdışın	-11.2691
▁sözleşmesini	-11.27
▁Kızı	-11.2701
▁tasarısı	-11.2703
▁dalgalanma	-11.2704
▁Ülkemiz	-11.2704
▁beklemek	-11.2708
▁kıra	-11.2709
▁maaşları	-11.271
ksiyon	-11.271
▁Erkekler	-11.2711
rüşvet	-11.2718
▁Chelsea	-11.2718
▁WhatsApp	-11.2718
▁bozuklukları	-11.2718
▁Riyad	-11.2718
▁Hollande	-11.2718
▁sterlin	-11.2718
▁Kanarya	-11.2718
▁heyecanla	-11.2718
▁Darüş	-11.2718
▁doldurma	-11.2719
▁okuyucu	-11.2719
▁takıldı	-11.2719
▁objektif	-11.2719
▁karısı	-11.2721
▁satıcı	-11.2723
▁istemiyoruz	-11.2723
▁Naz	-11.2724
▁hall	-11.2725
▁bildirme	-11.2725
▁Gölü	-11.2726
▁uygulandığı	-11.2728
▁hekimi	-11.2728
▁tıka	-11.2729
▁pozisyonun	-11.273
▁ulaşmış	-11.2731
▁Bayrak	-11.2737
▁ecek	-11.2738
▁belirsizlik	-11.274
İlk	-11.2741
▁dükkan	-11.2745
▁125	-11.275
▁bitmesi	-11.275
malıdır	-11.2752
▁ayrımcılı	-11.2753
▁öğrendiği	-11.2754
▁Veda	-11.2756
▁karakterini	-11.2757
▁www	-11.2758
▁önemin	-11.2759
▁direkte	-11.2762
5-6	-11.2764
▁raporunda	-11.2766
▁yazarları	-11.2769
▁amiral	-11.2778
tiş	-11.2779
▁zamanki	-11.2781
▁kariyerinde	-11.2783
lanırken	-11.2788
▁Nusra	-11.2788
▁şanslı	-11.2795
▁Topu	-11.2796
TSİ	-11.2797
▁uzaklaştı	-11.2799
▁yararlan	-11.2802
▁üstlendi	-11.2802
sar	-11.2805
▁gemileri	-11.2805
ets	-11.2807
▁ligi	-11.281
▁getirmesi	-11.281
▁yas	-11.2813
▁üretimini	-11.2817
▁çalıştık	-11.2818
▁sıralamasın	-11.282
▁iyor	-11.2821
▁Erha	-11.2822
▁Denizci	-11.2823
▁mahsu	-11.2824
▁Şar	-11.2824
▁geleneği	-11.2825
▁gösterileri	-11.2826
▁Afyonkarahisar	-11.2828
▁Muhalefet	-11.2828
▁kolesterol	-11.2828
▁sindirim	-11.2828
▁ölmüş	-11.2828
▁0-0	-11.2828
▁Ağabey	-11.2828
▁Deprem	-11.2828
▁Pamuk	-11.2828
▁temmuz	-11.2828
▁fırın	-11.2828
▁Huzur	-11.2828
▁iştirak	-11.2828
▁mantık	-11.2828
▁tatmin	-11.2829
▁çıkartıldı	-11.2829
▁yankı	-11.2829
▁merhamet	-11.283
▁taşıyacak	-11.283
▁edilmemesi	-11.283
▁hapishane	-11.283
▁kimliğini	-11.283
▁nişancı	-11.2832
▁$	-11.2832
▁YAŞ	-11.2832
▁pop	-11.2832
▁17.00	-11.2833
▁vatandaşımız	-11.2833
▁buluşacak	-11.2836
▁medeniyet	-11.2837
▁turun	-11.2837
▁yaralanma	-11.284
▁hırs	-11.284
▁esir	-11.2842
▁Doğal	-11.2842
▁grip	-11.2843
▁kriterleri	-11.2845
▁akını	-11.2846
▁Cerrahi	-11.2846
▁lanet	-11.2847
▁yarışması	-11.2847
▁faydası	-11.2851
▁hissettiği	-11.2853
▁fikirleri	-11.2857
ERİ	-11.2858
▁eşitliği	-11.2858
▁yoğunluk	-11.286
▁çalışmalarında	-11.2863
▁Bora	-11.2866
▁istemedi	-11.2868
▁inci	-11.2869
▁şahs	-11.287
▁Ras	-11.287
polama	-11.2872
▁Balta	-11.2873
▁şiiri	-11.2874
▁tümör	-11.2876
▁suz	-11.2877
▁Hayal	-11.288
▁layan	-11.288
▁yükü	-11.288
sem	-11.288
▁Halkın	-11.2883
▁She	-11.2887
▁operasyonunu	-11.2887
gov	-11.2888
▁bırak	-11.2889
vet	-11.2889
▁Üzeri	-11.289
tuğ	-11.289
ttiği	-11.289
▁Uçak	-11.289
▁hazırlandı	-11.2896
▁feda	-11.2897
▁eğilimi	-11.2899
▁sırası	-11.2903
ağdaş	-11.2903
▁Gerçekte	-11.2903
▁izleri	-11.2903
▁kayboldu	-11.2904
▁Olayla	-11.2907
▁açıklamış	-11.2913
▁Ros	-11.2914
▁sattı	-11.2915
▁Salon	-11.2915
▁ispat	-11.2916
▁derneği	-11.2918
▁Yardımcı	-11.2919
▁Bölü	-11.292
▁ruhunu	-11.2922
▁masraf	-11.2924
▁sınavları	-11.2924
▁giderme	-11.293
kül	-11.293
▁desteklemek	-11.2931
▁yaparsa	-11.2933
▁ker	-11.2934
▁Kardeşler	-11.2938
▁kaybetmişti	-11.2939
▁krem	-11.2939
▁Şemdinli	-11.2939
▁Karabağ	-11.2939
▁Nöbet	-11.2939
▁Çakmak	-11.2939
▁Kapalıçarşı	-11.2939
▁yapabiliyor	-11.2939
▁taviz	-11.2939
▁Saygı	-11.2939
▁konuşuluyor	-11.2939
▁Bozkurt	-11.2939
▁çarşı	-11.2939
▁Filiz	-11.294
▁salata	-11.294
▁düşecek	-11.294
▁yansıta	-11.294
▁Nük	-11.294
▁değiştirilmesi	-11.294
▁anlatıldı	-11.294
▁terapi	-11.2945
▁rövanş	-11.2947
▁lazer	-11.2947
mbi	-11.2948
▁protez	-11.295
▁çağda	-11.2951
▁ekranlarında	-11.2952
▁Düzce	-11.2952
▁Fethiye	-11.2952
▁yapmadan	-11.2954
▁alınır	-11.2954
▁dille	-11.2955
▁yöne	-11.2956
▁sanıyor	-11.2957
▁Duran	-11.2957
▁Şehri	-11.2958
▁Sto	-11.2958
▁pazarlama	-11.296
▁anlaşa	-11.2965
▁Hami	-11.2966
▁koymak	-11.2966
▁suyun	-11.2971
mavili	-11.2973
▁Eşini	-11.2974
▁Operasyonlar	-11.2976
ony	-11.2978
▁116	-11.298
▁02.	-11.2981
▁ayrımı	-11.2981
▁döke	-11.2982
▁tribünde	-11.2985
▁Duru	-11.2991
Sayı	-11.2993
▁peri	-11.2995
▁erkeklerde	-11.2997
▁inde	-11.2998
▁hürriyeti	-11.3001
▁sakın	-11.3001
▁başarısını	-11.3005
▁geçit	-11.3008
▁alakası	-11.3011
▁mahkemede	-11.3013
▁canını	-11.3014
▁7"	-11.3016
▁görüntülerin	-11.3021
▁skandalı	-11.3021
▁bam	-11.3021
▁okuyor	-11.3022
▁düzenlendiği	-11.3023
▁planlaya	-11.3025
izon	-11.3026
▁Senin	-11.3026
▁Not	-11.3026
EV	-11.3028
▁üstlene	-11.3034
▁kazanmış	-11.3038
▁özellikler	-11.3046
▁adresinde	-11.3046
▁öğren	-11.3047
▁mani	-11.3047
▁sağlaması	-11.3047
▁versiyonu	-11.3048
Kur	-11.3048
▁riskleri	-11.3049
▁MİLY	-11.3051
▁koordine	-11.3051
▁Üretim	-11.3051
▁çamaşır	-11.3051
▁lokanta	-11.3051
▁metrobüs	-11.3051
▁selfie	-11.3051
▁Nehri	-11.3051
▁Yanlış	-11.3051
▁periyot	-11.3051
▁öngörülüyor	-11.3052
▁vahşi	-11.3052
▁bitecek	-11.3052
▁90+	-11.3052
▁Çağlayan	-11.3053
▁gözaltında	-11.3053
▁konaklama	-11.3053
▁Gebze	-11.3053
▁taraftarın	-11.3053
▁düşürü	-11.3054
▁sunum	-11.3054
▁getireceği	-11.3054
▁Akdağ	-11.3054
▁oldular	-11.3055
▁İzzet	-11.3055
▁istiyorsanız	-11.3055
▁adamlar	-11.3056
▁alınmak	-11.3056
ansiyon	-11.3057
▁cinsiyet	-11.3057
▁Yazıcı	-11.3058
▁Simon	-11.3059
▁hazırız	-11.306
▁paylaşıla	-11.306
▁bağlam	-11.3061
▁limon	-11.3061
▁anıldı	-11.3062
▁Yarışması	-11.3063
▁pis	-11.3063
▁olunması	-11.3064
▁KOSGEB	-11.3065
CU	-11.3068
▁şehirlerde	-11.3069
▁törene	-11.3069
▁ertelendi	-11.307
▁testleri	-11.307
▁artacağı	-11.3072
▁çektirdi	-11.3072
▁Limanı	-11.3073
▁sora	-11.3077
▁telefonları	-11.3077
▁endişesi	-11.3078
▁sürücüler	-11.3082
▁Elma	-11.3084
▁bası	-11.3087
▁getirmişti	-11.3089
▁Ümraniye	-11.3089
▁sinyal	-11.309
▁koridoru	-11.3091
▁antik	-11.3091
▁noktalar	-11.3091
▁gerekiyordu	-11.3092
leştirilmiş	-11.3095
▁markaların	-11.3098
▁itirazı	-11.3099
▁üçlü	-11.3101
▁düzenlemesi	-11.3104
▁kınadı	-11.3105
▁yaşaması	-11.3105
▁bacak	-11.3107
▁biti	-11.3109
▁dönüşe	-11.311
▁yarışmacı	-11.3111
▁sattığı	-11.3111
▁üniversiteleri	-11.3112
▁istikamet	-11.3113
▁pazarda	-11.3115
▁doktorları	-11.3116
rdo	-11.312
▁us	-11.3124
▁İçeri	-11.3126
▁şekeri	-11.3128
fir	-11.3129
▁başladım	-11.3131
▁Rapor	-11.3131
▁girişimciler	-11.3132
▁seferi	-11.3132
▁Marka	-11.3136
▁söylemiş	-11.3137
▁redd	-11.3138
▁söyledikleri	-11.3138
▁endüstri	-11.314
lanmıştı	-11.3143
▁Mez	-11.3145
▁başlayarak	-11.3147
▁cebi	-11.315
▁yayıncı	-11.315
▁etkinlikler	-11.3154
▁tedavileri	-11.3154
▁uğraş	-11.3155
▁Tutuk	-11.3155
▁10.00	-11.3157
▁ciddiye	-11.3157
▁gittikleri	-11.3159
▁em	-11.316
▁düşündüğü	-11.3161
Bunlar	-11.3163
▁gözünde	-11.3163
▁Dolmabahçe	-11.3165
▁Enflasyon	-11.3165
▁Hakkâri	-11.3165
▁Yasemin	-11.3165
▁felç	-11.3165
lütfen	-11.3165
▁aralığında	-11.3165
▁ceviz	-11.3165
▁parmağı	-11.3165
▁kopya	-11.3165
▁Çağrı	-11.3166
▁balkon	-11.3166
▁Kayıt	-11.3166
▁Hotel	-11.3166
▁diliyoruz	-11.3166
▁söylediğini	-11.3166
▁garip	-11.3167
▁Köşkü	-11.3167
▁Aydoğan	-11.3168
▁kirliliği	-11.3169
▁kaynaklandığı	-11.3169
▁ederler	-11.317
▁ergen	-11.317
▁görüntülerini	-11.3171
▁sevin	-11.3172
▁Burun	-11.3172
▁mıydı	-11.3175
▁lif	-11.3176
▁açıklamalarını	-11.3177
▁klarını	-11.3178
▁İncirlik	-11.3179
▁birikimi	-11.3179
▁galibiyetle	-11.3182
▁Turg	-11.3183
bileceğini	-11.3186
▁müdürleri	-11.3187
▁imajı	-11.3187
Kİ	-11.3188
▁ap	-11.3188
▁Haluk	-11.3189
▁kabin	-11.3191
Şehit	-11.3192
▁yasalar	-11.3195
▁Gez	-11.3196
▁attığını	-11.3196
▁fiili	-11.3199
▁sahiptir	-11.32
▁ağaçları	-11.3201
▁hisseleri	-11.3202
▁KAL	-11.3203
kent	-11.3205
▁Düğün	-11.3215
▁türleri	-11.3217
▁Lar	-11.3217
larken	-11.3221
▁gölge	-11.3226
tüel	-11.3227
▁ücretli	-11.3233
▁Big	-11.3236
▁Çatışma	-11.3236
▁kararla	-11.3237
▁nakl	-11.3239
▁ışığında	-11.3241
▁kıyıları	-11.3244
▁Sokakları	-11.3246
▁One	-11.3246
olog	-11.3247
▁Hol	-11.325
▁Ted	-11.3252
▁arda	-11.3252
▁ayrım	-11.3255
▁dönüşümü	-11.3256
tica	-11.3258
▁hedeflerin	-11.326
▁sıfatı	-11.326
▁İkili	-11.3266
▁beyni	-11.327
▁çağırı	-11.3271
▁Fran	-11.3271
▁Che	-11.3271
▁araştırması	-11.3274
▁layacak	-11.3274
▁ortamında	-11.3274
▁geliştirdiği	-11.3276
▁dağıl	-11.3276
rofesyonel	-11.3278
enetleme	-11.3279
▁Bahçelievler	-11.328
▁Barzani	-11.328
▁Dikkat	-11.328
▁Linnes	-11.328
▁Talisca	-11.328
▁vazgeçilmez	-11.328
▁1994	-11.328
▁Kemer	-11.328
▁dokunulmazlığı	-11.328
▁karbon	-11.328
▁sofra	-11.328
▁yetişe	-11.328
▁Aliyev	-11.3281
▁ağabey	-11.3281
▁dönüştürme	-11.3281
▁Amed	-11.3281
▁Terzi	-11.3282
▁Altıntaş	-11.3282
▁2018'	-11.3283
▁ortalaması	-11.3283
▁inceledi	-11.3283
▁değişiklikleri	-11.3284
▁atıf	-11.3286
▁1960	-11.3286
▁Dergisi	-11.3286
▁katliamı	-11.3289
▁yöntemle	-11.3289
▁Donk	-11.329
▁ilkesi	-11.3291
▁yediği	-11.3295
▁Milletin	-11.3296
▁almakta	-11.3296
▁eşya	-11.3298
▁sürüş	-11.3299
▁koridor	-11.3304
▁ilçelerde	-11.3304
▁bildirim	-11.3304
▁anlaşılma	-11.3307
▁İhracatçılar	-11.3307
▁seve	-11.331
▁GE	-11.3311
▁damgası	-11.3311
tmek	-11.3312
▁temelinde	-11.3316
▁İleri	-11.3316
IST	-11.3317
▁akademisyenler	-11.3318
▁dönemlerinde	-11.3318
▁istemesi	-11.332
▁görünümü	-11.3321
tezi	-11.3322
▁bölme	-11.3322
baz	-11.3323
▁kiloda	-11.3323
▁rota	-11.3324
▁evlerde	-11.3326
ling	-11.3326
▁hazırlanmış	-11.3328
▁sertifika	-11.3328
▁kuralı	-11.3333
▁siyasete	-11.3333
▁ağladı	-11.3337
▁yüzeyi	-11.3338
▁seçilmesi	-11.334
rey	-11.3342
▁varlıkları	-11.3342
▁ES	-11.3342
abildi	-11.3342
▁pal	-11.3343
▁lidir	-11.3344
▁mesajında	-11.3345
DÜ	-11.3347
▁nitelendir	-11.3347
▁cihazları	-11.3349
▁ayağında	-11.335
▁Öğrenciler	-11.3352
▁seçimlerin	-11.3353
▁Türkmenler	-11.3353
▁okunması	-11.3357
▁muhatap	-11.3359
▁Jean	-11.3361
▁politikasını	-11.3363
▁bitir	-11.3368
▁Bazıları	-11.337
▁Hel	-11.3371
▁Turu	-11.3372
▁posta	-11.3372
▁Hay	-11.3376
▁duyul	-11.3377
▁hatırlatıl	-11.3378
▁çalıştım	-11.3379
▁kavramı	-11.3386
▁İkincisi	-11.3388
▁erişimi	-11.3388
▁ihti	-11.339
ülmüş	-11.3393
▁ayne	-11.3394
▁riskler	-11.3394
▁Com	-11.3396
▁Kolombiya	-11.3396
▁Uyku	-11.3396
▁Kudüs	-11.3396
▁fırça	-11.3396
▁Michel	-11.3396
▁Kazım	-11.3396
▁Gizem	-11.3396
▁Beykoz	-11.3396
▁fezleke	-11.3396
▁Halisdemir	-11.3396
▁gümüş	-11.3397
▁arkada	-11.3397
▁açıp	-11.3397
▁lenir	-11.3397
▁leşiyor	-11.3398
▁inovasyon	-11.3398
▁bebekleri	-11.3399
▁TC	-11.3399
▁2-2	-11.34
▁Kocaman	-11.3402
▁adımların	-11.3402
▁saldıran	-11.3404
▁Görmez	-11.3404
▁Cep	-11.3405
landırdı	-11.3405
▁atarken	-11.3406
▁asır	-11.3406
▁şehitleri	-11.3406
▁Kam	-11.3411
▁İKİ	-11.3412
▁Görüntüler	-11.3413
▁lanıyor	-11.3413
▁Hamdi	-11.3414
▁çıkaracak	-11.3415
▁otoriter	-11.3415
▁başlayın	-11.3417
▁kupada	-11.3417
▁üzerimiz	-11.3419
▁haksızlık	-11.342
▁Muhte	-11.3423
▁boğuldu	-11.3424
▁Kafa	-11.3424
▁anladı	-11.3425
▁Kısaca	-11.3427
▁borçlarını	-11.3431
▁emr	-11.3434
▁Çıka	-11.3434
▁Taraftar	-11.3435
▁oranlarını	-11.3438
▁mana	-11.3438
▁Başbakanımız	-11.3438
▁Kaş	-11.3438
▁balığı	-11.3439
▁içecekler	-11.3439
▁genişlet	-11.344
▁deposu	-11.3442
▁Madde	-11.3443
▁Şahan	-11.3443
▁işyerinde	-11.3445
LACAK	-11.3446
▁düzelt	-11.3449
▁mama	-11.3452
▁akraba	-11.3452
DER	-11.3456
▁tutulma	-11.3458
▁cm	-11.3459
▁güle	-11.346
▁türkü	-11.346
▁ekipte	-11.3461
▁bebekler	-11.3462
▁Başkanımız	-11.3462
▁Çoban	-11.3463
▁kapıl	-11.3465
▁tanıyor	-11.3466
▁ölenler	-11.3467
▁senaryosu	-11.3469
▁çocukluk	-11.347
▁bağımlılığı	-11.3471
▁(6	-11.3474
▁oluştuğu	-11.3476
▁ayrıntıları	-11.3477
▁8-	-11.3479
▁Kart	-11.348
▁kural	-11.3486
▁Kel	-11.3486
▁geçirmiş	-11.3487
▁kaldım	-11.3487
▁attıkları	-11.3489
▁meyi	-11.349
▁hayatınız	-11.349
▁kafasın	-11.3492
▁ödenme	-11.3498
▁tanıta	-11.35
▁romanı	-11.3503
▁sınırın	-11.3503
▁kleri	-11.3508
▁î	-11.3509
▁koşul	-11.3509
▁edili	-11.3511
▁futbolcuları	-11.3512
Sedat	-11.3514
çarşamba	-11.3514
▁ANKARA	-11.3514
▁partner	-11.3514
▁santimetre	-11.3514
▁Pilot	-11.3514
▁Yurdu	-11.3514
▁IMF	-11.3514
▁üzücü	-11.3514
▁esrar	-11.3514
://	-11.3514
▁muafiyet	-11.3514
▁Pendik	-11.3514
liberal	-11.3515
▁dök	-11.3515
▁GEÇ	-11.3515
▁canlandırdı	-11.3515
▁piş	-11.3515
▁statüsü	-11.3516
▁oyununu	-11.3516
▁bron	-11.3517
▁kazandırma	-11.352
▁yapılmıştı	-11.3521
▁Efendimiz	-11.3522
iyo	-11.3522
▁yapılandırma	-11.3523
▁larınız	-11.3526
▁krizinde	-11.3526
▁almaları	-11.3527
▁talihsiz	-11.3528
▁03	-11.3528
▁Fig	-11.353
▁şehidimiz	-11.353
▁kıymetli	-11.3533
▁uyarılar	-11.3541
▁nitelikl	-11.3542
politik	-11.3545
▁manşet	-11.3547
▁işlemini	-11.3551
▁yetenekleri	-11.3551
▁Yar	-11.3554
▁atacağı	-11.3556
▁baraj	-11.3558
▁saklama	-11.356
▁boğul	-11.356
ercan	-11.3561
▁Boş	-11.3562
▁Çocuğun	-11.3563
▁sinyali	-11.3563
▁eğilim	-11.3563
▁İnci	-11.3564
▁dalgası	-11.3566
▁piyasalar	-11.3566
▁Canlı	-11.3569
▁yakma	-11.357
▁Tür	-11.357
▁öğreti	-11.3571
▁sıkışa	-11.3571
▁akrabaları	-11.3574
▁inanı	-11.3575
▁Günde	-11.3578
▁yeteneği	-11.358
▁yatırımla	-11.3582
▁Dir	-11.3582
▁Ayte	-11.3583
TAŞ	-11.3586
▁kadrosun	-11.3586
▁kıya	-11.3587
ÖK	-11.3589
▁sponsorlu	-11.3593
▁kullanır	-11.3594
▁ilişkisini	-11.3598
▁otele	-11.3602
bul	-11.3604
dö	-11.3605
▁topraklar	-11.3605
▁ıs	-11.3607
▁etkilediği	-11.3608
yınca	-11.3614
▁Wes	-11.3617
▁hareketler	-11.3618
▁koruna	-11.3618
komik	-11.3619
▁tabutun	-11.3619
▁teminat	-11.3622
▁Yarışma	-11.3626
oordinasyon	-11.3627
▁patlaması	-11.3628
▁yangında	-11.3628
▁döneceği	-11.3628
▁ihlalleri	-11.3629
▁hissediyor	-11.363
lenip	-11.363
▁kesimlerde	-11.3631
▁federasyon	-11.3632
▁kelepçe	-11.3633
▁arşiv	-11.3633
▁benziyor	-11.3633
▁buluşturdu	-11.3633
▁Komşu	-11.3633
▁dedikodu	-11.3633
▁Tipi	-11.3633
▁Maltepe	-11.3634
▁Yüksekdağ	-11.3634
▁olumsuzluklar	-11.3635
▁çekip	-11.3635
▁Başak	-11.3636
▁sorgula	-11.3636
▁açılıyor	-11.3637
▁çıkartma	-11.3637
▁canım	-11.3638
▁söylerken	-11.3639
▁Özen	-11.364
▁Gayrimenkul	-11.3641
▁Green	-11.3641
▁kolon	-11.3641
▁mısınız	-11.3642
▁görmediği	-11.3644
▁uzatı	-11.3644
▁dönecek	-11.3645
▁politikalar	-11.3647
▁taktı	-11.3647
▁aksi	-11.3647
▁Cana	-11.365
▁tuzağ	-11.3652
▁iddiaların	-11.3654
▁Tasarım	-11.3656
▁meraklı	-11.3656
▁ödülleri	-11.3657
▁sınırını	-11.3658
dis	-11.3658
▁işlerde	-11.3662
▁evlatları	-11.3662
▁teklifini	-11.3666
▁aktarma	-11.3672
▁alışverişi	-11.3674
▁patla	-11.3675
▁sever	-11.3676
aslan	-11.3677
▁uçur	-11.3678
▁devriye	-11.3679
▁Sana	-11.368
▁yapmanız	-11.3681
▁hamlesi	-11.3681
▁mermisi	-11.3681
▁KAP	-11.3682
Balyoz	-11.3684
▁yapıcı	-11.3685
▁artar	-11.3689
▁Kesin	-11.3691
▁Haberde	-11.3691
▁denizde	-11.3692
▁heykeli	-11.3694
▁DEN	-11.3696
▁sağcı	-11.3696
dirme	-11.3697
▁edebiyat	-11.37
▁acak	-11.3702
▁Görüşme	-11.3702
▁Alt	-11.3705
▁Cel	-11.3707
▁sığına	-11.371
▁kurallar	-11.3712
▁kaldırım	-11.3716
▁kalmayacak	-11.3719
Cİ	-11.3719
▁170	-11.3722
▁bakışı	-11.3723
▁içecek	-11.3724
▁akımı	-11.3725
▁almadığı	-11.3725
▁02	-11.3726
▁vuruş	-11.3727
▁cezalı	-11.3728
▁duyura	-11.3731
▁satma	-11.3731
▁gönderi	-11.3733
▁yenildi	-11.3734
▁DHA	-11.3734
▁okuduğu	-11.3736
▁sunmak	-11.3736
▁sunuldu	-11.3736
▁haş	-11.3738
▁Etki	-11.3739
▁ettirme	-11.3742
▁düşünül	-11.3742
tter	-11.3743
▁elma	-11.3745
▁yıkıl	-11.3748
trat	-11.3748
▁Radyo	-11.3751
▁Müftü	-11.3752
▁Mira	-11.3753
▁Hükm	-11.3753
▁Yozgat	-11.3753
▁tatbikat	-11.3753
▁başörtü	-11.3753
▁plaj	-11.3753
▁İzmit	-11.3753
entegre	-11.3753
▁İBB	-11.3753
▁İzlanda	-11.3753
▁kaçarken	-11.3753
▁OLDU	-11.3753
▁Peter	-11.3753
▁Panama	-11.3754
▁Tatlı	-11.3754
▁dinamik	-11.3754
▁yükümlülükler	-11.3754
▁arayıp	-11.3754
▁karbonhidrat	-11.3754
▁üzgün	-11.3755
▁azalış	-11.3755
▁mazlum	-11.3756
▁torunu	-11.3757
▁olabilirsiniz	-11.3757
yol	-11.3758
▁şüphelen	-11.3759
▁balon	-11.3759
▁başlayıp	-11.376
▁tekniği	-11.376
▁Merv	-11.376
▁yönetile	-11.3761
▁almıyor	-11.3761
▁statü	-11.3761
▁taşıya	-11.3763
▁haberinde	-11.3767
▁Karayolu	-11.3767
▁kuşak	-11.3769
▁Kaptan	-11.3769
▁militanı	-11.377
▁Endeksi	-11.3773
▁yataklık	-11.3778
▁değişmesi	-11.378
TER	-11.3781
▁lanır	-11.3782
▁hastalığ	-11.3783
▁etkiledi	-11.3785
▁kullanacağı	-11.3786
▁barındır	-11.3787
▁Boğazı	-11.3788
▁yapılmadı	-11.3788
▁anlattığı	-11.379
▁tarihimiz	-11.379
▁tesisleri	-11.3791
▁sunma	-11.3792
▁Özlü	-11.3793
gg	-11.3794
▁ova	-11.3795
▁kurdukları	-11.3797
▁pasın	-11.3798
▁Kaf	-11.3799
▁dizel	-11.3802
▁Güner	-11.3802
▁Cansel	-11.3804
▁konuşmaya	-11.3804
▁kasları	-11.3806
▁teker	-11.3806
▁oturuyor	-11.3809
▁seçtiği	-11.381
▁haz	-11.3812
ÜK	-11.3814
▁Gal	-11.3814
▁Gündoğ	-11.3817
▁6"	-11.382
▁programlar	-11.3821
▁kuruluşlarında	-11.3821
▁çık	-11.3821
▁bulunmakta	-11.3826
▁İster	-11.3826
▁ihracatın	-11.3828
▁anlat	-11.3831
▁istekleri	-11.3831
▁kesen	-11.3832
▁yapsa	-11.3836
iss	-11.3838
▁ydım	-11.3839
▁alınmaya	-11.384
IL	-11.3842
▁numaraları	-11.3846
▁yolcuların	-11.3848
▁kabine	-11.385
▁Asla	-11.3853
gerçekleştirecek	-11.3858
▁Dav	-11.3862
hazırd	-11.3864
▁hükümleri	-11.3865
▁şiddeti	-11.3871
▁torun	-11.3872
▁demokrat	-11.3873
▁Strateji	-11.3875
▁Derdiyok	-11.3875
▁Elektroni	-11.3875
▁Feyenoord	-11.3875
▁Netanyahu	-11.3875
▁Nüfus	-11.3875
▁World	-11.3875
▁federal	-11.3875
▁gövde	-11.3875
▁müteahhit	-11.3875
▁Niğde	-11.3875
▁alışkanlığı	-11.3875
▁dolgu	-11.3875
▁Erbil	-11.3875
▁geçil	-11.3875
▁kuyumcu	-11.3875
▁Atiba	-11.3875
▁idaresinde	-11.3875
▁gözüküyor	-11.3875
▁soğan	-11.3876
▁verilir	-11.3876
▁Castro	-11.3876
▁talip	-11.3876
▁bilsin	-11.3876
▁Marşı	-11.3877
▁stok	-11.3877
▁İnceleme	-11.3877
▁şerit	-11.3878
▁YÖK	-11.3878
▁bitiyor	-11.3879
▁Karadağ	-11.3879
▁tanıtma	-11.3879
▁Sezgin	-11.3879
▁SUV	-11.3879
rahim	-11.388
▁engeller	-11.3882
▁girerken	-11.3882
▁söylemleri	-11.3883
▁çalışacağız	-11.3884
▁rken	-11.3884
▁okumak	-11.3885
▁faturası	-11.3886
▁havacılık	-11.3887
▁vuruşta	-11.3888
atağında	-11.3889
lisiniz	-11.3889
▁bombardıman	-11.3889
▁Bilgin	-11.389
▁malzemeler	-11.3891
▁fil	-11.3891
▁programa	-11.3896
▁yiyecekler	-11.3897
▁anlatı	-11.39
▁toparlanma	-11.3901
▁komedi	-11.3902
▁diyenler	-11.3906
▁sektöre	-11.3911
Artı	-11.3912
▁alacaklarını	-11.3912
▁tırnak	-11.3912
Ancak	-11.3913
▁doğduğu	-11.3914
▁futbolunu	-11.3914
▁gözük	-11.3914
▁ardında	-11.392
▁kriter	-11.392
sanal	-11.3921
▁eklendi	-11.3922
▁yatırımlarını	-11.3929
▁markalar	-11.3931
▁Joe	-11.3931
▁yanların	-11.3932
▁tahta	-11.3933
▁çile	-11.3936
▁buyur	-11.3941
▁yasama	-11.3948
▁boşandı	-11.3948
▁helikopterle	-11.3949
▁bağladı	-11.395
▁tarafsız	-11.3953
▁ilgilenme	-11.3953
▁silahları	-11.3958
▁dolay	-11.3958
▁sayılma	-11.396
▁çoğunu	-11.3961
▁diploma	-11.3964
▁ladıkları	-11.3967
▁sınavın	-11.3967
▁kılına	-11.3969
▁huzuru	-11.3969
▁yazıları	-11.3969
▁tev	-11.3971
▁yiye	-11.3973
▁sil	-11.3973
▁hesab	-11.3973
▁paha	-11.3978
Josef	-11.3978
99	-11.3979
▁Ürün	-11.3983
▁Demirci	-11.3985
▁şef	-11.3985
omando	-11.3995
▁Analistler	-11.3999
▁Kırklareli	-11.3999
▁eczane	-11.3999
▁kalsiyum	-11.3999
▁Şükür	-11.3999
▁1992	-11.3999
▁Nevşehir	-11.3999
▁İskender	-11.3999
▁duydum	-11.3999
▁Şeref	-11.3999
▁savrul	-11.3999
▁Değişikli	-11.3999
▁Ulusoy	-11.3999
▁tanışma	-11.4
▁Emek	-11.4
▁Mc	-11.4001
▁yapsın	-11.4001
▁GATA	-11.4001
▁çekecek	-11.4003
▁ilgisini	-11.4003
▁beklentilerin	-11.4005
▁patronu	-11.4009
▁Çukurca	-11.4009
▁ymiş	-11.4011
▁Hedefi	-11.4012
▁yazmış	-11.4012
▁taşınması	-11.4014
▁istihbaratı	-11.4019
▁Doktorlar	-11.402
▁konulara	-11.4021
▁konulması	-11.4025
▁düşündüm	-11.4028
▁yerlerini	-11.4031
▁değin	-11.4036
▁Gali	-11.4038
▁Varlık	-11.4041
▁dilekleri	-11.4043
▁Ova	-11.4043
▁konuştuğu	-11.4043
▁isimlerini	-11.4045
▁gı	-11.4048
▁harekâtı	-11.405
▁May	-11.4051
▁Kuran	-11.4053
▁sö	-11.4053
▁kararlarını	-11.4054
▁derse	-11.4055
▁günlerin	-11.4055
▁fiber	-11.4055
gah	-11.406
▁denetimi	-11.406
▁onlardan	-11.4064
ings	-11.4066
IP	-11.4067
▁Esas	-11.4067
▁Yel	-11.4069
▁şartlarını	-11.4071
▁ocağın	-11.4072
▁düşüşle	-11.4074
SİN	-11.4078
▁artırıl	-11.408
▁karı	-11.4085
▁daveti	-11.4086
gir	-11.4088
▁kurulmuş	-11.4094
▁geçirildiği	-11.4102
▁sar	-11.4103
▁Sakı	-11.4104
▁Heyeti	-11.4106
▁çıkmayı	-11.4108
▁sınıfta	-11.4109
▁Raf	-11.4109
▁karşılamak	-11.411
▁aylığı	-11.411
▁teklifleri	-11.411
▁koordinasyon	-11.4112
▁sergilediği	-11.4112
▁koalisyonu	-11.4113
▁Çam	-11.4114
▁formül	-11.4115
▁sark	-11.4116
▁noktalarında	-11.4116
▁Kob	-11.4117
▁anımsata	-11.4118
▁Futbolcu	-11.412
▁İhracat	-11.4122
▁uçuşu	-11.4123
▁ikram	-11.4123
▁duyuyor	-11.4123
▁yetmez	-11.4123
▁Koordinatör	-11.4124
▁Schengen	-11.4124
▁Uyuşturucu	-11.4124
▁atlattı	-11.4124
▁edilebilecek	-11.4124
▁oksijen	-11.4124
▁İnegöl	-11.4124
▁Mistura	-11.4124
▁intikal	-11.4124
▁meslektaşları	-11.4124
▁acımasız	-11.4124
▁işyerleri	-11.4124
▁çıkarttı	-11.4124
▁figür	-11.4124
▁Tunus	-11.4124
▁Ruhani	-11.4124
▁Ünsal	-11.4124
▁Fizik	-11.4124
▁esnek	-11.4125
▁Terzioğlu	-11.4125
▁Müşteri	-11.4125
▁Düşünce	-11.4126
▁Hekim	-11.4126
▁yaşatma	-11.4126
▁hatırlatma	-11.4127
▁katılı	-11.4128
▁kuzu	-11.4128
▁dönümü	-11.4128
▁kurumlarını	-11.4128
▁söyleyecek	-11.4128
▁Koz	-11.4129
▁reddede	-11.4129
▁Sefa	-11.413
▁Porto	-11.413
▁Tuğba	-11.413
▁beklerken	-11.413
▁algısı	-11.4131
▁Yapa	-11.4131
▁artıracak	-11.4132
▁otomobiller	-11.4133
▁tüken	-11.4133
▁içeriyor	-11.4134
▁biliş	-11.4138
▁etmeniz	-11.4138
▁Yaşa	-11.4139
▁kargo	-11.4139
▁1.6	-11.4141
▁yaşanmış	-11.4144
▁Lale	-11.4144
▁dolaşım	-11.4148
▁Yap	-11.415
▁düzenini	-11.415
▁bilirim	-11.4151
▁artma	-11.4151
▁olmanız	-11.4153
▁alınmıştır	-11.4154
▁açılışında	-11.4155
▁sürmesi	-11.4158
ÇOK	-11.4159
▁sürerek	-11.4161
KCK	-11.4162
DP	-11.4162
MO	-11.4163
Daha	-11.4163
▁Bandırma	-11.4164
▁merkezde	-11.4165
▁unsurların	-11.4165
▁1.8	-11.4167
▁yardımların	-11.4169
▁8"	-11.4169
▁değerlendiril	-11.4169
▁ötesi	-11.4172
▁edilmediği	-11.4175
▁dişi	-11.4177
▁alay	-11.4177
▁çoğal	-11.4177
▁Cap	-11.4182
▁bağları	-11.4183
▁bombalama	-11.4183
▁medik	-11.4184
LÜ	-11.4185
▁takvimi	-11.4186
▁ihtimalini	-11.4187
▁sıralarda	-11.4191
▁Sorun	-11.4191
-10	-11.4193
▁beslene	-11.4193
▁Cadde	-11.4194
▁yansıması	-11.4199
▁depremin	-11.4199
mekte	-11.42
▁luğunu	-11.42
EME	-11.4203
▁tehditler	-11.4203
▁böl	-11.4203
▁sam	-11.4204
▁kurtar	-11.4204
▁ilimiz	-11.4206
▁dolandırıcı	-11.4207
▁serisini	-11.421
▁yapacağım	-11.4214
▁modelini	-11.4215
▁kabulü	-11.4216
▁Ruslar	-11.4218
▁dükkanı	-11.4218
▁mıdır	-11.422
▁tribünler	-11.422
▁kası	-11.4222
▁mucize	-11.4229
▁fırsatları	-11.4231
▁atılmış	-11.4232
▁nıyor	-11.4234
▁Yarı	-11.4235
▁azalta	-11.4238
▁20:	-11.4239
▁fırsatta	-11.424
▁yapabileceği	-11.4244
▁luğ	-11.4244
▁çekmeye	-11.4245
▁mobilya	-11.4246
▁Safi	-11.4246
▁mensup	-11.4246
▁Çalışan	-11.4247
▁şirketlerini	-11.4247
▁yoksul	-11.4248
▁gu	-11.4248
▁Kir	-11.4249
▁Büyükçekmece	-11.425
▁Leonard	-11.425
▁Renault	-11.425
▁muhtaç	-11.425
▁mükellef	-11.425
▁1991	-11.425
▁tereddüt	-11.425
▁Bağcılar	-11.425
▁stüdyo	-11.425
▁yurtiçi	-11.425
oğul	-11.425
▁rektör	-11.425
▁dağılımı	-11.4251
▁provokasyon	-11.4251
▁sopa	-11.4251
▁kontrat	-11.4251
▁söyleyeyim	-11.4251
▁acele	-11.4251
▁Annesi	-11.4252
▁kapana	-11.4252
▁kurtarılama	-11.4253
rijinal	-11.4253
▁işçisi	-11.4253
▁yandaşları	-11.4254
▁Kilo	-11.4254
▁yükleme	-11.4254
▁görünür	-11.4255
▁Akçay	-11.4255
▁Kardeşi	-11.4255
▁Rock	-11.4255
▁ille	-11.4255
▁Bakır	-11.4255
▁Ers	-11.4255
▁çıkarıp	-11.4256
▁Aktaş	-11.4256
▁eceği	-11.4256
▁Ataman	-11.4258
▁Ivan	-11.4262
▁NA	-11.4262
▁tütün	-11.4262
▁yaraladı	-11.4263
▁dudak	-11.4264
▁Ram	-11.4267
▁görülebilir	-11.4268
▁gözlük	-11.4269
▁olaylarını	-11.4271
▁sıklığı	-11.4272
▁yapılmaya	-11.4272
▁Soma	-11.4275
▁gideceğiz	-11.4275
▁seans	-11.4275
▁goller	-11.4275
▁başkalarını	-11.4276
▁hesaplama	-11.4277
▁ilin	-11.4281
▁yıkılma	-11.4285
▁plakası	-11.4287
▁Seze	-11.4289
Allah	-11.4291
Fenerbahçe	-11.4291
▁üretmek	-11.4295
▁geçirmesi	-11.4295
▁meclisi	-11.4298
▁müttefik	-11.4299
▁hayl	-11.43
▁çekimi	-11.4303
▁ağırlığı	-11.4305
▁zorunluluğu	-11.431
▁iptali	-11.4312
▁fonu	-11.4317
▁kırılma	-11.4319
▁hazırlandığı	-11.4319
▁2,8	-11.4324
▁hareketin	-11.4327
▁etkilenme	-11.4327
▁alımları	-11.4333
▁cumhurbaşkan	-11.4336
▁çekildiği	-11.4341
▁3,0	-11.4342
▁Oyunu	-11.4343
▁And	-11.4345
▁özelliğini	-11.4345
▁toprakların	-11.4346
▁tanklar	-11.4348
▁kov	-11.4349
▁tedbiri	-11.435
SM	-11.4352
▁ART	-11.4353
▁payını	-11.4355
▁karışma	-11.4356
▁kıymet	-11.4358
▁İM	-11.4359
▁Rabb	-11.4359
▁görüşmelerini	-11.4361
▁deneyiml	-11.4361
▁sarma	-11.4362
▁düşmanlığı	-11.4363
▁yakaladığı	-11.4364
▁ölçüm	-11.4367
▁Kom	-11.4369
▁çök	-11.4373
▁sembol	-11.4374
▁sığınma	-11.4375
▁Yakası	-11.4376
▁Giriş	-11.4377
▁Dinç	-11.4378
▁Kavşağı	-11.4378
▁Ambulans	-11.4378
▁temyiz	-11.4378
▁cesur	-11.4379
▁Fındık	-11.4379
1.2016	-11.4379
▁08.00	-11.4379
▁planladıkları	-11.4379
▁düşünülüyor	-11.4379
▁rüzgâr	-11.4379
▁hasret	-11.4379
▁Hint	-11.438
▁bant	-11.4381
▁hazine	-11.4381
▁PARA	-11.4381
▁getiriliyor	-11.4382
▁hedefledikleri	-11.4382
▁leşti	-11.4382
▁gücümüz	-11.4383
▁sapı	-11.4384
▁şampiyonluğun	-11.4387
▁DAN	-11.4387
▁oluşturacak	-11.4387
▁Mes	-11.4388
▁miyiz	-11.4389
▁Ag	-11.439
▁dikkatini	-11.439
▁çü	-11.4391
▁kapsamı	-11.4394
▁Keskin	-11.4395
▁politikacı	-11.4395
▁yuvarlağ	-11.4397
▁misin	-11.4402
▁şikayetleri	-11.4404
rıp	-11.4409
▁diplomasi	-11.441
▁müşteriler	-11.4412
▁soktu	-11.4412
▁tanıtıl	-11.4413
▁ciler	-11.4414
▁grafik	-11.4415
▁sınırlama	-11.4415
▁Dağıtı	-11.442
▁Kül	-11.442
▁yönelme	-11.442
▁ofisi	-11.4421
Evet	-11.4423
▁maddesinde	-11.4424
▁düzenlemeleri	-11.4425
▁cihazların	-11.4425
▁LAN	-11.4425
ülen	-11.4432
▁vurduğu	-11.4433
▁ortamını	-11.4435
▁bağışı	-11.4438
▁geçile	-11.4438
▁olmamak	-11.4438
▁öteki	-11.4439
▁küçü	-11.4439
▁hayalleri	-11.4443
▁takvim	-11.4444
▁Gü	-11.4444
▁paralar	-11.445
fes	-11.4451
▁çeyreği	-11.4456
sy	-11.4457
▁topladığı	-11.4457
▁çözü	-11.4458
▁kota	-11.4458
▁unsur	-11.4464
▁müzesi	-11.4466
Kiralık	-11.4467
▁Zan	-11.4467
▁geliştirdi	-11.4467
▁Kuruluş	-11.4469
▁duruşmasın	-11.4471
▁yü	-11.4471
▁bozulması	-11.4473
▁İlişki	-11.4477
▁Gold	-11.4481
▁Hande	-11.4481
▁ağırladı	-11.4483
▁bakıl	-11.449
▁değilse	-11.4495
▁araçlarda	-11.4496
▁attık	-11.4498
▁Poli	-11.4499
▁Pala	-11.45
▁midir	-11.4503
hre	-11.4503
▁Festival	-11.4506
▁görmüyor	-11.4506
▁Aker	-11.4506
▁Super	-11.4507
2016-2017	-11.4508
▁görülmektedir	-11.4508
▁kaçakçılığı	-11.4508
▁materyal	-11.4508
▁mağara	-11.4508
▁meşgul	-11.4508
▁Smith	-11.4508
▁Kampanya	-11.4508
▁Hesap	-11.4508
▁Center	-11.4508
▁Cevde	-11.4508
▁amir	-11.4508
▁Gizli	-11.4509
▁özeti	-11.4509
▁heves	-11.4509
▁Boyko	-11.4509
▁kurt	-11.4509
▁keçi	-11.4509
▁ÖTV	-11.451
▁tamamlandığı	-11.451
▁Tarkan	-11.4511
▁mantar	-11.4511
▁sanırım	-11.4511
▁Jong	-11.4511
▁indiri	-11.4511
▁ilkeleri	-11.4511
▁denetle	-11.4511
▁Atina	-11.4511
▁Habertürk	-11.4511
▁İdri	-11.4512
▁karargah	-11.4512
▁yaşayacak	-11.4514
▁noktalarda	-11.4515
▁Bilgiç	-11.4517
▁şehr	-11.4519
▁Günay	-11.4519
▁görüntülerde	-11.452
▁gitmişti	-11.4521
▁ağlama	-11.4524
▁borçlu	-11.4524
ANI	-11.4525
▁yaprak	-11.4525
▁tutarak	-11.4525
▁yönetmelik	-11.4526
▁sanayici	-11.4526
▁göster	-11.4528
▁verenler	-11.4529
▁dengesini	-11.4529
▁fırsatlar	-11.4532
▁bölünme	-11.4534
▁aktardığı	-11.4534
▁müttefikleri	-11.4538
▁kapatmak	-11.4538
▁çektiğini	-11.4542
▁bekleye	-11.4543
▁arzusu	-11.4544
▁dişler	-11.4545
▁adresler	-11.4545
▁hareketle	-11.4546
▁bulundura	-11.4546
▁gözlendi	-11.4547
▁kitleler	-11.4547
▁zann	-11.4549
▁raporunu	-11.4549
▁çantası	-11.455
İLK	-11.455
▁kazanın	-11.4551
▁tahmini	-11.4551
▁çaprazda	-11.4553
▁vermesini	-11.4556
▁Moda	-11.4556
aldığımız	-11.4558
▁getirili	-11.4559
▁sara	-11.456
▁ımız	-11.4561
▁kullandığını	-11.4561
▁düzel	-11.4565
▁kazanır	-11.4565
▁mevki	-11.4568
ruyor	-11.4573
hit	-11.4576
▁çaresiz	-11.4578
▁Bırak	-11.458
▁yarışa	-11.458
▁tesisler	-11.4582
▁sendromu	-11.4584
▁03.	-11.4587
▁sos	-11.4589
loji	-11.4597
▁hap	-11.4598
▁düşüşün	-11.4599
▁arandığı	-11.4601
▁kısm	-11.4604
▁Lion	-11.4605
ILDI	-11.4606
▁kavgası	-11.4607
▁kampanyaları	-11.4608
▁Kong	-11.4609
▁ayırma	-11.461
kırmızılılar	-11.4614
▁kardeşlerim	-11.4617
▁Shak	-11.4618
bas	-11.462
▁yöneldi	-11.4626
▁vo	-11.4627
▁104	-11.4628
▁artırdığı	-11.4629
▁UZ	-11.4632
▁önleye	-11.4634
▁tümü	-11.4635
▁Chris	-11.4636
▁popül	-11.4636
▁zulüm	-11.464
▁Edebiyat	-11.464
▁LYS	-11.464
▁segment	-11.464
▁üniforma	-11.464
▁gevşe	-11.464
▁müdürlükleri	-11.464
▁mutsuz	-11.464
▁Dubai	-11.464
▁Sigara	-11.464
▁Hersek	-11.464
▁Çarşı	-11.464
▁doldurdu	-11.4641
▁afiş	-11.4641
▁atlata	-11.4641
▁Yener	-11.4641
▁Bayrampaşa	-11.4641
▁Kriz	-11.4641
▁kalmıyor	-11.4641
▁korsan	-11.4642
▁Cook	-11.4642
▁anlaşılıyor	-11.4642
▁rutin	-11.4642
▁ezber	-11.4642
▁uçtu	-11.4644
▁mahallede	-11.4644
▁seslene	-11.4647
▁olursunuz	-11.4648
▁eyaleti	-11.4649
▁esnafı	-11.4649
▁gebelik	-11.465
▁Güçleri	-11.465
▁Geçmiş	-11.4653
▁LE	-11.4654
▁kıldı	-11.4655
▁yerleştirme	-11.4661
▁daralma	-11.4661
▁Numara	-11.4661
▁tersin	-11.4662
▁beli	-11.4667
▁çiğne	-11.4668
▁Hatip	-11.4668
▁çekirdek	-11.4671
▁çözülmesi	-11.4672
▁kaybeder	-11.4672
▁off	-11.4673
▁okundu	-11.4677
▁bütünlüğünü	-11.4677
▁Yay	-11.4678
▁boşluğu	-11.468
▁kızlar	-11.4681
ıyoruz	-11.4682
▁kurtarılma	-11.4685
′	-11.4685
▁filmlerinde	-11.4686
▁yükselte	-11.4686
▁seslendi	-11.4687
▁rıyor	-11.4687
▁tez	-11.4688
▁114	-11.4688
▁düzensiz	-11.4689
100	-11.4691
▁bakanları	-11.4692
▁Zanlılar	-11.4693
müyor	-11.4694
▁Dair	-11.4698
▁edebiyatı	-11.4699
▁Jor	-11.4699
▁destan	-11.4703
▁193	-11.4707
▁Sem	-11.4709
ılacak	-11.4712
▁Bağlar	-11.4712
Serhat	-11.4712
▁kuzeyi	-11.4713
▁bulamaya	-11.4714
▁unun	-11.4714
▁telefonların	-11.4715
▁düşünmek	-11.4716
▁krizleri	-11.4717
▁mahallesinde	-11.4718
▁kuşatma	-11.4721
▁erkeği	-11.4724
▁eşleri	-11.4724
▁kurs	-11.4726
▁yırtı	-11.4733
▁mekanizması	-11.4735
▁pişman	-11.4735
▁soluk	-11.4736
İNİ	-11.4738
▁Veri	-11.4743
▁kaçırıl	-11.4745
▁Aracı	-11.4749
▁çocuğum	-11.4754
▁ül	-11.4755
▁öğr	-11.4755
▁darbecileri	-11.4758
83	-11.4759
▁gergin	-11.4761
▁müba	-11.4761
▁şaşkın	-11.4763
▁107	-11.4764
▁uçakların	-11.4766
▁dokuna	-11.4766
09	-11.4767
▁etkenler	-11.477
▁stadı	-11.477
▁Tuz	-11.4771
▁Kuşadası	-11.4773
▁Kırıkkale	-11.4773
▁göbeği	-11.4773
▁Juventus	-11.4773
▁Sancaktepe	-11.4773
▁Ufuk	-11.4773
▁buğday	-11.4773
▁dâhil	-11.4773
▁hoşgörü	-11.4773
▁vilayet	-11.4773
▁Çeşit	-11.4773
▁Özyakup	-11.4773
▁Kariyeri	-11.4773
▁mülakat	-11.4773
▁Öğle	-11.4773
▁Rejim	-11.4773
▁kullanılır	-11.4773
▁Senato	-11.4773
▁değerlendiriyor	-11.4773
▁Plus	-11.4773
▁kundak	-11.4773
▁kemer	-11.4773
▁Senegal	-11.4774
▁patent	-11.4774
▁istatistikler	-11.4775
▁reformlar	-11.4775
▁Soner	-11.4776
▁yetmezliği	-11.4776
▁Egemen	-11.4777
EĞİL	-11.4778
▁Derbi	-11.4778
▁Ataşehir	-11.478
▁Ekran	-11.4781
▁yüzme	-11.4782
▁12.00	-11.4783
▁atmıştı	-11.4783
▁anlatarak	-11.4784
dge	-11.4784
▁yansıtma	-11.4785
▁hakimiyetin	-11.4788
▁kullanıcıları	-11.4789
▁filan	-11.479
▁19:	-11.4791
▁Hida	-11.4793
▁Milan	-11.4793
▁Aras	-11.4793
▁motivasyon	-11.4793
▁odaklan	-11.4794
▁özgürlükleri	-11.4796
▁Riva	-11.4796
▁memiş	-11.4798
▁zincir	-11.48
▁08:	-11.4801
▁ikisini	-11.4802
RET	-11.4802
▁valilik	-11.4802
LİK	-11.4804
▁115	-11.4805
▁Temiz	-11.4805
▁Ulaş	-11.4805
▁yayıl	-11.4805
▁Otur	-11.4809
▁gelse	-11.4809
▁uğra	-11.481
siper	-11.4812
▁yurttaş	-11.4812
▁Engelli	-11.4812
fak	-11.4814
▁çözümün	-11.4814
lanınca	-11.4815
▁yapmıştır	-11.4819
▁temasları	-11.4819
▁geçildi	-11.482
▁Törene	-11.482
TSK	-11.4821
rilmiş	-11.4827
▁tecrübesi	-11.4829
▁açtığını	-11.4832
organik	-11.4832
▁elçi	-11.4835
▁Mik	-11.4837
▁Lütfi	-11.4847
▁basının	-11.4847
▁07	-11.4848
▁gazetecinin	-11.4851
▁giderleri	-11.4851
▁odaklanma	-11.4853
▁bölümleri	-11.4856
ekrar	-11.4856
▁ikilisi	-11.4856
üzbaşı	-11.486
▁ezan	-11.486
▁Şef	-11.486
▁İLE	-11.4862
▁Boy	-11.4863
▁elemanları	-11.4864
▁HAK	-11.4866
▁Sanık	-11.4867
▁Kos	-11.4869
▁3,3	-11.4869
▁seks	-11.4869
▁merci	-11.4869
▁çayı	-11.4872
▁oluşu	-11.4873
▁seviyey	-11.4873
▁güçlerimiz	-11.4876
▁barındıra	-11.4877
▁medyasında	-11.4879
▁18:	-11.4882
▁kesilmesi	-11.4884
▁karıştığı	-11.4888
▁gerileme	-11.4889
▁anlamaya	-11.4889
▁mirası	-11.4889
ürüm	-11.489
▁eylemlerin	-11.4895
▁abla	-11.4896
▁Üs	-11.4898
▁Olma	-11.4898
▁eylemlerini	-11.4899
▁yazıda	-11.4899
▁Alay	-11.4902
▁fonları	-11.4903
▁yönetmenliğin	-11.4904
▁Geliş	-11.4906
▁bahsediyor	-11.4906
▁laşması	-11.4907
▁satmak	-11.4908
▁istiyordu	-11.4908
▁püskü	-11.4908
▁Albüm	-11.4908
▁Esenyurt	-11.4908
▁Malezya	-11.4908
▁Sırbistan	-11.4908
▁seyrediyor	-11.4908
▁İrlanda	-11.4908
▁HTC	-11.4908
▁Aşağı	-11.4908
▁Tanıtım	-11.4908
▁SMS	-11.4908
TOBB	-11.4908
▁Alex	-11.4909
▁Etkinlik	-11.4909
▁sunulması	-11.4909
▁Göçmen	-11.4909
▁Hareketi	-11.491
▁düşünmüyorum	-11.491
▁kaybederken	-11.491
▁20:00	-11.491
▁Dernek	-11.491
▁Johnson	-11.4911
▁çekerken	-11.4913
▁Beck	-11.4913
▁etkileyecek	-11.4913
▁Akgül	-11.4914
▁sağlanıyor	-11.4915
▁otomobille	-11.4916
▁kullanıcısı	-11.4918
▁gönderiyor	-11.492
▁değişikliğ	-11.4921
▁TO	-11.4921
▁Grand	-11.4923
▁içimiz	-11.4923
▁Kamerun	-11.4924
▁1,1	-11.4924
▁yabancılar	-11.4925
▁gösterim	-11.4925
▁ekipman	-11.4926
▁etmemesi	-11.4926
▁per	-11.4928
▁malum	-11.4928
▁kolaylaştır	-11.493
▁birbirlerini	-11.493
▁Sür	-11.493
▁nice	-11.4931
▁kadroları	-11.4933
▁Kabu	-11.4934
▁çalıştırıl	-11.4937
▁Ola	-11.4938
RÜ	-11.4939
▁Esenler	-11.4939
INA	-11.494
▁işlemci	-11.494
▁deniyor	-11.494
▁eren	-11.494
htar	-11.4943
▁başlatıldığı	-11.4944
▁Kösem	-11.4944
▁Seni	-11.4947
▁bazılarını	-11.4949
▁tepkisin	-11.4951
▁kuşku	-11.4953
▁Birincisi	-11.4955
▁bandı	-11.4955
SAT	-11.4956
Beyaz	-11.4958
▁tüy	-11.4959
Bana	-11.4969
▁kutusu	-11.4969
▁geldiğimiz	-11.4972
cül	-11.4973
▁Melik	-11.4977
▁13.00	-11.4979
▁düzelme	-11.4979
▁yapılmak	-11.498
▁Hala	-11.498
▁olursak	-11.4986
▁üniversiteler	-11.4988
▁etkilerini	-11.5002
enko	-11.5005
-30	-11.5007
▁kasası	-11.5008
▁saldırma	-11.5009
▁belirtiler	-11.5011
▁güzelliği	-11.5012
silahl	-11.5013
▁kurbanı	-11.5013
rge	-11.5016
▁dostum	-11.5018
▁kayıtlarını	-11.5018
▁performansını	-11.502
▁Beh	-11.502
▁otobüste	-11.5023
▁tanıdık	-11.5029
▁kuruyor	-11.5031
ÜM	-11.5034
▁operasyonlarını	-11.5037
▁meyveler	-11.5038
▁dolaşa	-11.5039
▁iniz	-11.504
▁Best	-11.5041
▁lok	-11.5042
▁stad	-11.5043
▁harcadı	-11.5043
ayanışma	-11.5044
▁Ağı	-11.5045
▁zihni	-11.5045
▁Talimatı	-11.5045
▁TERÖR	-11.5045
▁mahkûm	-11.5045
▁milliyetçi	-11.5045
▁2016-01-2	-11.5045
▁Cameron	-11.5045
▁Kerkük	-11.5045
▁ağustos	-11.5045
▁http	-11.5045
▁lojman	-11.5045
▁vasıtası	-11.5045
▁vaziyette	-11.5045
▁Garanti	-11.5045
▁sarsıntı	-11.5045
▁banyo	-11.5045
_	-11.5045
[...]
