[UNK]	0
[CLS]	1
[SEP]	2
[PAD]	3
[MASK]	4
!	5
"	6
#	7
$	8
%	9
&	10
'	11
(	12
)	13
*	14
+	15
,	16
-	17
.	18
/	19
0	20
1	21
2	22
3	23
4	24
5	25
6	26
7	27
8	28
9	29
:	30
;	31
=	32
>	33
?	34
@	35
[	36
\	37
]	38
^	39
_	40
`	41
a	42
b	43
c	44
d	45
e	46
f	47
g	48
h	49
i	50
j	51
k	52
l	53
m	54
n	55
o	56
p	57
q	58
r	59
s	60
t	61
u	62
v	63
w	64
x	65
y	66
z	67
~	68
	69
	70
	71
	72
¡	73
£	74
¥	75
¦	76
¬	77
­	78
®	79
°	80
·	81
×	82
ß	83
à	84
á	85
â	86
ã	87
ä	88
å	89
æ	90
ç	91
è	92
é	93
ê	94
ë	95
í	96
î	97
ï	98
ñ	99
ó	100
ö	101
ø	102
ù	103
ú	104
û	105
ü	106
ć	107
ē	108
ğ	109
ı	110
ł	111
ş	112
ƒ	113
ə	114
ˆ	115
̇	116
̈	117
̧	118
α	119
μ	120
а	121
е	122
к	123
л	124
н	125
о	126
п	127
с	128
т	129
у	130
і	131
ا	132
ة	133
ح	134
د	135
ر	136
س	137
غ	138
ق	139
ل	140
م	141
ن	142
و	143
ي	144
‎	145
‏	146
•	147
‫	148
‬	149
′	150
›	151
⁄	152
€	153
∂	154
■	155
◊	156
●	157
☮	158
⭐	159
️	160
�	161
🇷	162
🇹	163
🏆	164
🏻	165
👍	166
👑	167
💋	168
💧	169
💰	170
😁	171
😊	172
🙏	173
##e	174
##t	175
##i	176
##r	177
##y	178
##o	179
##s	180
##a	181
##n	182
##ı	183
##z	184
##h	185
##l	186
##d	187
##g	188
##ş	189
##u	190
##c	191
##ğ	192
##v	193
##k	194
##m	195
##̇	196
##ö	197
##ü	198
##b	199
##p	200
##ç	201
##8	202
##x	203
##f	204
##â	205
##w	206
##/	207
##9	208
##1	209
##3	210
##j	211
##-	212
##2	213
##7	214
##4	215
##"	216
##î	217
##0	218
##`	219
##+	220
##'	221
##5	222
##6	223
##q	224
##é	225
##.	226
##)	227
##_	228
##è	229
##û	230
##ï	231
##о	232
##к	233
##а	234
##у	235
##т	236
##:	237
##?	238
##!	239
##ˆ	240
##ə	241
##&	242
##*	243
##^	244
##ä	245
##е	246
##;	247
###	248
##,	249
##◊	250
##>	251
##п	252
##с	253
##ê	254
##í	255
##ã	256
##à	257
##%	258
##і	259
##]	260
##ó	261
##�	262
##ć	263
##å	264
##æ	265
##ú	266
##@	267
##á	268
##ñ	269
##ø	270
##­	271
##ł	272
##🇷	273
##🇹	274
##🏻	275
##💰	276
##‫	277
##\	278
##(	279
##[	280
##👍	281
##ē	282
##و	283
##غ	284
##ل	285
##ي	286
##د	287
##ن	288
##س	289
##ق	290
##ة	291
##ا	292
##ح	293
##ر	294
##م	295
##ù	296
##ß	297
##ë	298
##′	299
##la	300
##er	301
##in	302
##an	303
##ın	304
##en	305
##ar	306
##ir	307
##il	308
##lar	309
##ak	310
##le	311
##de	312
##ma	313
##da	314
##ler	315
##ek	316
##iy	317
##or	318
##un	319
##li	320
##et	321
##lı	322
##on	323
##dı	324
##es	325
##di	326
##at	327
##ur	328
##as	329
##ay	330
ve	331
de	332
bir	333
##lan	334
##aş	335
##ün	336
##el	337
##ür	338
##im	339
##iz	340
##al	341
bu	342
##tı	343
da	344
##ap	345
##em	346
##am	347
##st	348
ol	349
##ik	350
##ların	351
##ey	352
gö	353
##az	354
##ğı	355
##den	356
##dan	357
ar	358
##ıl	359
##ab	360
##du	361
##ya	362
##ul	363
##ti	364
##ini	365
##um	366
##inde	367
##ında	368
##ları	369
yap	370
##ık	371
##ah	372
##iş	373
baş	374
##ır	375
i̇	376
##ine	377
##iye	378
##it	379
##sı	380
##ol	381
##ok	382
##is	383
iç	384
al	385
##ını	386
##leri	387
##ce	388
an	389
##yor	390
##esi	391
kar	392
##mı	393
##ük	394
##me	395
##iyor	396
ka	397
##ki	398
##anı	399
##ta	400
sa	401
##üz	402
gör	403
##inin	404
##iler	405
ge	406
##ği	407
son	408
in	409
##lik	410
##uş	411
##ca	412
##cak	413
##oğ	414
##ına	415
et	416
##ut	417
##te	418
kon	419
##ürk	420
##lık	421
##af	422
ön	423
için	424
ile	425
##ev	426
##lu	427
##uz	428
##len	429
oldu	430
ay	431
türk	432
##dır	433
ver	434
##ön	435
##üm	436
##ör	437
##ez	438
##cı	439
##şı	440
ed	441
##se	442
##alı	443
yıl	444
##üş	445
aç	446
##arı	447
ger	448
##ec	449
##us	450
en	451
##uk	452
##ra	453
##lama	454
##aki	455
##ından	456
gün	457
te	458
##dir	459
ne	460
##yon	461
##unu	462
##mak	463
il	464
##öy	465
##ha	466
##lay	467
bul	468
bil	469
20	470
tar	471
##ül	472
gel	473
##ması	474
##ası	475
or	476
kur	477
##om	478
##ının	479
yer	480
##op	481
türkiye	482
çık	483
bel	484
##ildi	485
iş	486
geç	487
##larak	488
yaş	489
##man	490
ma	491
değ	492
sür	493
##laş	494
ak	495
olduğ	496
##mek	497
mil	498
bü	499
##lerin	500
##tan	501
##ım	502
##tir	503
mü	504
nin	505
kay	506
##dar	507
##dığı	508
çok	509
##ken	510
dev	511
##öyle	512
er	513
ter	514
##bi	515
##zer	516
olarak	517
gi	518
ist	519
##yla	520
yapı	521
yar	522
##ğını	523
##sa	524
##si	525
ın	526
##ış	527
öz	528
##ro	529
##ci	530
##bil	531
gü	532
##eni	533
başk	534
##iyle	535
##ili	536
olan	537
##let	538
##mız	539
##tır	540
par	541
##ğini	542
yön	543
ta	544
daha	545
##iyet	546
##aber	547
##eye	548
##lü	549
##mas	550
##ede	551
##ağ	552
top	553
çalı	554
ken	555
##eş	556
##ru	557
##aya	558
ha	559
##cu	560
bulun	561
açık	562
##mış	563
belir	564
##larını	565
##ada	566
oy	567
si	568
var	569
karşı	570
kul	571
üzer	572
##miş	573
kal	574
##daki	575
##eh	576
sor	577
büy	578
ise	579
##imiz	580
##ilen	581
bak	582
##fa	583
her	584
##uşt	585
201	586
kı	587
##leş	588
tek	589
yak	590
çalış	591
##ecek	592
bin	593
dur	594
##asında	595
##ayı	596
gen	597
ya	598
dün	599
den	600
haber	601
##öz	602
ko	603
yan	604
yüz	605
hak	606
##lara	607
##der	608
##unda	609
po	610
##aman	611
##por	612
sağ	613
##üt	614
düş	615
terör	616
ara	617
nın	618
##lk	619
bö	620
kiş	621
##ih	622
uy	623
##lerini	624
##re	625
##maya	626
dön	627
kap	628
##ip	629
##os	630
biz	631
büyük	632
yeni	633
taraf	634
as	635
##mesi	636
##be	637
sah	638
..	639
##atı	640
sonra	641
gir	642
##ğr	643
##stan	644
##ladı	645
yaptı	646
ev	647
##dür	648
ek	649
##ter	650
kullan	651
on	652
bun	653
se	654
has	655
ab	656
##men	657
böl	658
pro	659
##diği	660
do	661
##lığı	662
gerek	663
kadar	664
doğ	665
li	666
##liş	667
##lat	668
##ece	669
gibi	670
ola	671
gaz	672
ama	673
##inden	674
##isi	675
##met	676
etti	677
##va	678
mu	679
hay	680
##eler	681
##dü	682
su	683
söyle	684
##lem	685
zaman	686
ülk	687
mer	688
##larda	689
ör	690
söz	691
##i̇	692
##may	693
bo	694
dedi	695
##gu	696
##arak	697
tak	698
##ıldı	699
##ark	700
av	701
ben	702
##ten	703
##larının	704
düz	705
##san	706
el	707
##esinde	708
tr	709
##asyon	710
der	711
##çe	712
##lis	713
hal	714
uz	715
göre	716
alan	717
ilg	718
alın	719
tem	720
göz	721
cum	722
##lah	723
sal	724
yol	725
##çek	726
##ız	727
##est	728
...	729
mah	730
##kin	731
ye	732
##ğu	733
##ic	734
alt	735
ot	736
ilk	737
##etir	738
un	739
ser	740
##ven	741
##azı	742
##ans	743
10	744
at	745
neden	746
##hur	747
getir	748
sav	749
öğr	750
##ley	751
kat	752
##fade	753
bur	754
##ret	755
san	756
es	757
olduğunu	758
maç	759
##dım	760
##ara	761
ifade	762
ün	763
sır	764
##eri	765
cumhur	766
olduğu	767
sev	768
özel	769
##ot	770
##uy	771
yüzde	772
##maz	773
##per	774
tut	775
açıklama	776
şu	777
yük	778
çek	779
##dik	780
##gi	781
##mes	782
##cü	783
##erek	784
ço	785
har	786
ad	787
##larına	788
yapılan	789
##larında	790
kendi	791
##ındaki	792
yönet	793
şek	794
##tü	795
gazet	796
önce	797
##cağı	798
önem	799
gerçek	800
##tr	801
örg	802
##dırı	803
ort	804
güven	805
##una	806
##bul	807
##ster	808
##lere	809
kaz	810
bölg	811
devam	812
##rı	813
değil	814
##uştur	815
##cek	816
##oğlu	817
##ka	818
##rup	819
örgüt	820
tarafından	821
##ed	822
##stanbul	823
##acak	824
i̇stanbul	825
##tar	826
sur	827
ard	828
##tik	829
##landı	830
##eli	831
##iniz	832
##abil	833
kad	834
kan	835
diye	836
##baş	837
##eyi	838
##ran	839
##bir	840
ardından	841
göster	842
ada	843
bek	844
##iç	845
em	846
##han	847
##ile	848
##uyor	849
kor	850
genel	851
be	852
saat	853
şeh	854
başkanı	855
düzen	856
##leştir	857
##lam	858
durum	859
##ünü	860
##unun	861
##doğ	862
##madı	863
##lerinin	864
kam	865
ok	866
##sel	867
hem	868
##imi	869
milyon	870
olay	871
##anın	872
##ünde	873
nde	874
##gün	875
##id	876
##lıyor	877
yet	878
yok	879
##iğ	880
eğ	881
iy	882
ih	883
##liği	884
fet	885
##if	886
##ist	887
oyun	888
ilgili	889
##ıyor	890
görev	891
##lerde	892
##bilir	893
öl	894
karar	895
öğren	896
##ğü	897
edil	898
15	899
ban	900
iki	901
is	902
##elik	903
önemli	904
##sız	905
##anda	906
az	907
i̇n	908
eden	909
19	910
haz	911
bas	912
merk	913
gelen	914
belirt	915
haf	916
hat	917
##lerine	918
bulundu	919
abd	920
insan	921
sayı	922
cez	923
ancak	924
##ira	925
##sun	926
##ika	927
##ba	928
##uştu	929
kurul	930
arasında	931
mes	932
eki	933
dönem	934
##ket	935
##lanan	936
polis	937
##aret	938
##ver	939
dan	940
##usu	941
##lacak	942
##ileri	943
##üp	944
haberleri	945
tarih	946
ku	947
##tık	948
##art	949
sonu	950
##cuk	951
dar	952
##lığ	953
birlik	954
##mir	955
kö	956
##ram	957
##ne	958
başkan	959
".	960
##bol	961
##ağı	962
##meye	963
##dece	964
merkez	965
değer	966
2016	967
çocuk	968
eş	969
bağ	970
hayat	971
duy	972
tüm	973
söyledi	974
devlet	975
ga	976
kim	977
tes	978
oper	979
dünya	980
##iyas	981
##tör	982
bugün	983
fark	984
dış	985
aş	986
##dık	987
iz	988
##lerinde	989
##eki	990
yay	991
##leme	992
##doğan	993
suriye	994
##larla	995
##det	996
saldırı	997
ayn	998
yaptığı	999
i̇s	1000
iyi	1001
##enin	1002
içinde	1003
##layan	1004
bakan	1005
vat	1006
fa	1007
zor	1008
##lendir	1009
##bak	1010
hakk	1011
etk	1012
yat	1013
spor	1014
taş	1015
tur	1016
ki	1017
operasyon	1018
vur	1019
per	1020
##üs	1021
##dur	1022
dav	1023
çalışma	1024
##lim	1025
görüş	1026
##ep	1027
kom	1028
değiş	1029
hava	1030
geldi	1031
güç	1032
##taş	1033
üst	1034
oyn	1035
##tür	1036
##00	1037
##lardan	1038
##üyor	1039
##ener	1040
ediyor	1041
##tığı	1042
erdoğan	1043
##başk	1044
##siz	1045
##ilerin	1046
müdür	1047
aynı	1048
##iyat	1049
iliş	1050
##cade	1051
rus	1052
kişi	1053
tekn	1054
mücade	1055
##ddi	1056
bilg	1057
##ad	1058
am	1059
ayrı	1060
##bet	1061
hiç	1062
##gı	1063
kes	1064
cumhurbaşk	1065
şekil	1066
beş	1067
dik	1068
konuş	1069
seç	1070
şey	1071
uygu	1072
edildi	1073
##ahçe	1074
ask	1075
im	1076
dak	1077
giriş	1078
say	1079
bulunan	1080
orta	1081
faz	1082
avrup	1083
##eme	1084
fetö	1085
can	1086
yardım	1087
yaz	1088
kaç	1089
birlikte	1090
kır	1091
##liğ	1092
üzerine	1093
sat	1094
geliş	1095
##dem	1096
millet	1097
dest	1098
konu	1099
mo	1100
na	1101
açı	1102
çıkar	1103
fut	1104
fazla	1105
hazır	1106
harek	1107
suç	1108
yür	1109
##eyen	1110
##rak	1111
diğ	1112
avrupa	1113
şekilde	1114
destek	1115
ark	1116
##onom	1117
futbol	1118
takım	1119
##sek	1120
##likle	1121
##üne	1122
verdi	1123
##aray	1124
kazan	1125
git	1126
diy	1127
ele	1128
##ge	1129
gazetesi	1130
sist	1131
i̇ş	1132
##layı	1133
##ektör	1134
süre	1135
##bar	1136
diğer	1137
##ilik	1138
tan	1139
bey	1140
nun	1141
yarı	1142
tama	1143
##kı	1144
geçen	1145
ekonom	1146
olacak	1147
yas	1148
##kat	1149
vatanda	1150
şir	1151
böyle	1152
olma	1153
geçir	1154
tele	1155
güvenlik	1156
olmak	1157
hastan	1158
ekip	1159
gön	1160
##oy	1161
konuştu	1162
##iyon	1163
##tal	1164
##sında	1165
##ırak	1166
sen	1167
11	1168
ceza	1169
##olo	1170
kadın	1171
tab	1172
yaşan	1173
kab	1174
bırak	1175
##çı	1176
ber	1177
##fer	1178
##masına	1179
##ğimiz	1180
mücadele	1181
##ilm	1182
sistem	1183
sadece	1184
bazı	1185
##lenen	1186
##larımız	1187
büt	1188
uç	1189
şirket	1190
##masını	1191
##lantı	1192
muh	1193
##kan	1194
##led	1195
kr	1196
üret	1197
eğit	1198
##za	1199
i̇l	1200
##up	1201
cumhurbaşkanı	1202
mahk	1203
met	1204
sık	1205
sı	1206
dikkat	1207
##larından	1208
üy	1209
iddi	1210
yı	1211
üç	1212
##indeki	1213
sahip	1214
12	1215
##lus	1216
bunun	1217
proj	1218
##kk	1219
sonr	1220
kız	1221
##raf	1222
##mıştı	1223
sağlık	1224
##iyoruz	1225
yüksek	1226
re	1227
hasta	1228
bab	1229
##edef	1230
iste	1231
genç	1232
nas	1233
##kara	1234
sab	1235
##sam	1236
ulaş	1237
pkk	1238
##ri	1239
hedef	1240
veya	1241
fener	1242
ey	1243
bay	1244
yatır	1245
aldı	1246
hafta	1247
siz	1248
sez	1249
##bahçe	1250
ağı	1251
yakın	1252
silah	1253
vatandaş	1254
ik	1255
ankara	1256
##lerinden	1257
tl	1258
##tış	1259
dir	1260
ortaya	1261
para	1262
siyas	1263
nedeniyle	1264
kez	1265
düny	1266
yapan	1267
alı	1268
nda	1269
##alt	1270
##usunda	1271
##oloj	1272
##diğini	1273
##kü	1274
##mayı	1275
tah	1276
parti	1277
##luk	1278
doğru	1279
##lak	1280
30	1281
hük	1282
çıktı	1283
##esine	1284
##osy	1285
mey	1286
üzere	1287
kend	1288
fenerbahçe	1289
boy	1290
ede	1291
şehit	1292
beşik	1293
##olu	1294
##cağını	1295
),	1296
olur	1297
##sını	1298
gol	1299
beled	1300
günü	1301
kil	1302
yönetim	1303
##lerle	1304
tutuk	1305
başbak	1306
beşiktaş	1307
pat	1308
sok	1309
##muz	1310
eğitim	1311
##eti	1312
plan	1313
başladı	1314
##cel	1315
lira	1316
##manın	1317
çev	1318
mahal	1319
rusya	1320
##ılması	1321
mar	1322
gerçekleştir	1323
araç	1324
##ıp	1325
yaklaş	1326
##mişti	1327
gele	1328
darbe	1329
##mal	1330
##spor	1331
şim	1332
edilen	1333
tanı	1334
##iyorum	1335
isim	1336
içer	1337
200	1338
pay	1339
##yar	1340
##van	1341
##mi	1342
dolar	1343
##gan	1344
##ça	1345
kapsam	1346
başla	1347
00	1348
bit	1349
mi	1350
##sit	1351
nasıl	1352
##çi	1353
##latas	1354
anla	1355
##ayan	1356
##bu	1357
##mez	1358
##latasaray	1359
galatasaray	1360
mut	1361
görün	1362
ch	1363
yönelik	1364
ülke	1365
cumhuriyet	1366
sezon	1367
man	1368
##fon	1369
terörist	1370
##emiz	1371
##lüğü	1372
daki	1373
savaş	1374
##lerden	1375
oyuncu	1376
yazı	1377
düşün	1378
##lesi	1379
##iya	1380
##lo	1381
sıra	1382
##isinde	1383
film	1384
gönder	1385
sosy	1386
##niyet	1387
açıklamada	1388
bütün	1389
ağır	1390
uzun	1391
yaka	1392
eski	1393
bildir	1394
örgütü	1395
hep	1396
##gil	1397
##yı	1398
hiz	1399
##mayan	1400
yatırım	1401
yen	1402
##pr	1403
bizim	1404
hareket	1405
yıldır	1406
yayın	1407
başka	1408
poli	1409
paz	1410
farklı	1411
hüküm	1412
##nak	1413
üzerinde	1414
değerlendir	1415
yanı	1416
hakkında	1417
ah	1418
kü	1419
lig	1420
arkada	1421
##iver	1422
##lük	1423
soruştur	1424
yerine	1425
yaşa	1426
men	1427
##ali	1428
##ing	1429
dem	1430
##deki	1431
mev	1432
deki	1433
tamam	1434
##urt	1435
sosyal	1436
alman	1437
başarı	1438
emniyet	1439
şöyle	1440
ağ	1441
mal	1442
##dav	1443
ulus	1444
bor	1445
kontr	1446
bunu	1447
##iversit	1448
hale	1449
##las	1450
kurum	1451
yara	1452
##gram	1453
üniversit	1454
##muş	1455
##mızı	1456
meh	1457
la	1458
milyar	1459
##okr	1460
fin	1461
##asına	1462
deniz	1463
yılında	1464
hizmet	1465
##üph	1466
25	1467
şüph	1468
14	1469
yi	1470
hız	1471
temmuz	1472
milli	1473
tedav	1474
dok	1475
mı	1476
bölüm	1477
tür	1478
katı	1479
meydan	1480
dakika	1481
bom	1482
med	1483
##tu	1484
##ünün	1485
asker	1486
kendis	1487
##esinin	1488
nok	1489
##ınır	1490
##ilere	1491
toplantı	1492
##ber	1493
cen	1494
biri	1495
16	1496
##teş	1497
sak	1498
rah	1499
kontrol	1500
güz	1501
bar	1502
for	1503
ilç	1504
sözcü	1505
bile	1506
teş	1507
##kes	1508
geçti	1509
anlaş	1510
##yan	1511
##sin	1512
##abilir	1513
18	1514
13	1515
##laşı	1516
##rar	1517
gözalt	1518
müz	1519
##larıyla	1520
kabul	1521
başbakan	1522
##kinci	1523
geri	1524
yaklaşık	1525
##uma	1526
##tırma	1527
sınır	1528
##acağı	1529
araş	1530
işlem	1531
alınan	1532
##omo	1533
mehmet	1534
##lif	1535
2015	1536
art	1537
hes	1538
##vet	1539
kullanı	1540
din	1541
olması	1542
##üldü	1543
yaşındaki	1544
##can	1545
##lerimiz	1546
17	1547
ayrıca	1548
okul	1549
telefon	1550
tale	1551
bakanı	1552
##ehir	1553
##dığını	1554
mad	1555
çar	1556
##tıl	1557
##masının	1558
taki	1559
##ümüz	1560
teknik	1561
kül	1562
iti	1563
özellikle	1564
mem	1565
halk	1566
savun	1567
kara	1568
kür	1569
##gel	1570
gözaltına	1571
kaldır	1572
kurulu	1573
burada	1574
konusunda	1575
yardımcı	1576
grup	1577
oluştur	1578
##malı	1579
##yen	1580
artık	1581
taşı	1582
demokr	1583
teh	1584
##mekte	1585
##for	1586
res	1587
##bay	1588
##ici	1589
##yle	1590
çalışan	1591
##kları	1592
uygulama	1593
##aj	1594
ilişkin	1595
yine	1596
##duğu	1597
tep	1598
##ledi	1599
##suz	1600
##lum	1601
##ğunu	1602
##mem	1603
##ilmesi	1604
##amp	1605
ür	1606
##şam	1607
##ch	1608
##ari	1609
##eceği	1610
sonuç	1611
##esini	1612
güzel	1613
mak	1614
##oğun	1615
i̇z	1616
boz	1617
çağ	1618
fır	1619
##oğraf	1620
##ve	1621
##ıldığı	1622
hiçbir	1623
kapsamında	1624
şah	1625
kamu	1626
sarı	1627
##hale	1628
otomo	1629
##tin	1630
yor	1631
program	1632
yetk	1633
benim	1634
sektör	1635
##siniz	1636
##arası	1637
pr	1638
çöz	1639
##bat	1640
rağ	1641
##lendi	1642
##medi	1643
ateş	1644
mahkem	1645
birç	1646
kaybet	1647
##vur	1648
##mesini	1649
dil	1650
##sal	1651
##deş	1652
##yacak	1653
bah	1654
çıkan	1655
sey	1656
##tep	1657
sorun	1658
bulunduğu	1659
##gun	1660
girişim	1661
ail	1662
şimdi	1663
karşılaş	1664
##net	1665
##izi	1666
##tiği	1667
rağmen	1668
##su	1669
fiyat	1670
tas	1671
kısa	1672
tam	1673
belirten	1674
kararı	1675
gelir	1676
lider	1677
##leyen	1678
##ga	1679
##ulu	1680
kişinin	1681
##min	1682
##vek	1683
tesp	1684
müdürlüğü	1685
küç	1686
sürdür	1687
##madığını	1688
han	1689
##asını	1690
sanat	1691
birçok	1692
##ob	1693
##yorum	1694
##ülen	1695
sabah	1696
##var	1697
ziy	1698
##eceğ	1699
beklen	1700
ait	1701
öldür	1702
dolayı	1703
os	1704
başvur	1705
siv	1706
fak	1707
##sına	1708
demir	1709
sin	1710
oğ	1711
bağlı	1712
pu	1713
öde	1714
fot	1715
##tiğini	1716
yargı	1717
koy	1718
##son	1719
pazar	1720
so	1721
çün	1722
##iyi	1723
çünkü	1724
##isyon	1725
ke	1726
yaşam	1727
oluş	1728
mahallesi	1729
eur	1730
ham	1731
ses	1732
##lek	1733
bağı	1734
mec	1735
yeniden	1736
iddia	1737
kaynak	1738
ettiği	1739
##sil	1740
vurgu	1741
kardeş	1742
aldığı	1743
##afa	1744
##ince	1745
herkes	1746
öğrenc	1747
konusu	1748
ali	1749
hükümet	1750
##umuz	1751
arkadaş	1752
cam	1753
altında	1754
mas	1755
##eceğini	1756
##ayet	1757
sü	1758
##şa	1759
kav	1760
dr	1761
##anız	1762
ziyaret	1763
iht	1764
tespit	1765
##umlu	1766
sun	1767
soru	1768
##gin	1769
kah	1770
etmek	1771
engel	1772
##na	1773
##zon	1774
##yoruz	1775
uluslar	1776
tük	1777
hey	1778
ikinci	1779
bakanlığı	1780
##ğa	1781
ortak	1782
kuv	1783
gül	1784
toplam	1785
##lattı	1786
yıldırım	1787
ba	1788
yürüt	1789
##lım	1790
tat	1791
##mada	1792
beraber	1793
dile	1794
dair	1795
cev	1796
zar	1797
##din	1798
##ize	1799
##leriyle	1800
me	1801
##ıt	1802
yüksel	1803
i̇ngil	1804
ilişk	1805
ayr	1806
satış	1807
uluslararası	1808
##apor	1809
kültür	1810
##lır	1811
50	1812
kit	1813
##makta	1814
gru	1815
adam	1816
ihtiya	1817
sebe	1818
trab	1819
alındı	1820
medya	1821
veril	1822
##pan	1823
şamp	1824
##landır	1825
##erj	1826
fran	1827
otomobil	1828
ho	1829
st	1830
##ladığı	1831
must	1832
fotoğraf	1833
##üb	1834
öğret	1835
his	1836
eder	1837
dönüş	1838
##ov	1839
yurt	1840
basın	1841
trabzon	1842
##ye	1843
##asının	1844
küçük	1845
##ıntı	1846
##lin	1847
yoğun	1848
huk	1849
toplum	1850
mustafa	1851
mağ	1852
##sıyla	1853
itibar	1854
ce	1855
anay	1856
##sının	1857
olduk	1858
şampiyon	1859
seçim	1860
sokak	1861
enerj	1862
##ancı	1863
anayas	1864
21	1865
fir	1866
kent	1867
görüşme	1868
##mesine	1869
önc	1870
kalk	1871
bilin	1872
veren	1873
gece	1874
akşam	1875
##dim	1876
i̇lk	1877
##talya	1878
kuvvet	1879
ince	1880
22	1881
sürec	1882
yaşanan	1883
belediye	1884
kayde	1885
rahat	1886
kurt	1887
söy	1888
tör	1889
##ğın	1890
chp	1891
ocak	1892
özg	1893
trans	1894
##cılık	1895
kullandı	1896
24	1897
kas	1898
mart	1899
##undan	1900
##unca	1901
euro	1902
üzerinden	1903
milletvek	1904
##aliyet	1905
yani	1906
ülkeler	1907
fat	1908
sonrası	1909
##ere	1910
##uldu	1911
nün	1912
##dül	1913
sar	1914
af	1915
##terek	1916
şekl	1917
ala	1918
##mıştır	1919
belirtildi	1920
ahmet	1921
araştırma	1922
cin	1923
##tif	1924
kuz	1925
amer	1926
yem	1927
çif	1928
##dın	1929
banka	1930
futbolcu	1931
aralık	1932
kıs	1933
hayatını	1934
madde	1935
##sın	1936
gök	1937
şubat	1938
##br	1939
gider	1940
teknoloj	1941
puan	1942
100	1943
soruşturma	1944
meydana	1945
köy	1946
##isini	1947
hol	1948
##ğına	1949
##arım	1950
anda	1951
##unuyor	1952
##bek	1953
faaliyet	1954
sahi	1955
almanya	1956
##ünden	1957
gelecek	1958
##ide	1959
otur	1960
##sü	1961
dah	1962
ann	1963
##madan	1964
götür	1965
tartış	1966
kork	1967
##aba	1968
di	1969
temsil	1970
hatır	1971
##lış	1972
##ğin	1973
yıldı	1974
takı	1975
çat	1976
yapıl	1977
piyas	1978
ip	1979
##işleri	1980
eylem	1981
görüntü	1982
um	1983
belirtti	1984
##ğünü	1985
##lanması	1986
le	1987
##aspor	1988
buna	1989
kalan	1990
mesaj	1991
tic	1992
ten	1993
gerçekleş	1994
elek	1995
osman	1996
yıldız	1997
vak	1998
çocu	1999
içerisinde	2000
kol	2001
emek	2002
##av	2003
müda	2004
verdiği	2005
politik	2006
ac	2007
beyaz	2008
##ınca	2009
rek	2010
müs	2011
prof	2012
##asındaki	2013
rapor	2014
du	2015
kre	2016
##üc	2017
ürün	2018
ora	2019
##tem	2020
komut	2021
bes	2022
belirterek	2023
dakik	2024
elektr	2025
##meyi	2026
uzak	2027
edecek	2028
bölgede	2029
imza	2030
##ban	2031
##ğim	2032
erk	2033
gazetec	2034
##lamak	2035
bank	2036
yağ	2037
kaydet	2038
dö	2039
merkezi	2040
paylaş	2041
kup	2042
##mektedir	2043
ödül	2044
##dak	2045
23	2046
verildi	2047
ekipleri	2048
siyasi	2049
kapı	2050
##isinin	2051
onun	2052
düzenlenen	2053
tay	2054
##ebil	2055
kuru	2056
br	2057
güncel	2058
##anlı	2059
mark	2060
hukuk	2061
##eleri	2062
organ	2063
##ğinde	2064
sırasında	2065
adı	2066
##miştir	2067
##siyon	2068
##ğine	2069
i̇zmir	2070
##anış	2071
##enk	2072
##ck	2073
askeri	2074
##ınız	2075
kut	2076
kesin	2077
##ama	2078
bilgi	2079
bomba	2080
##do	2081
##diler	2082
sonucu	2083
##fet	2084
oluyor	2085
ünlü	2086
üc	2087
##esel	2088
##ışı	2089
mek	2090
##mer	2091
öncek	2092
diz	2093
##şehir	2094
adım	2095
takip	2096
aile	2097
aday	2098
##uluk	2099
##istan	2100
.,	2101
yetkil	2102
ücret	2103
##ii	2104
yapılacak	2105
dünyanın	2106
üniversitesi	2107
tu	2108
olsun	2109
##ilerine	2110
##ton	2111
inter	2112
mül	2113
##ğında	2114
sig	2115
sevk	2116
bana	2117
oran	2118
des	2119
ayında	2120
uçak	2121
önceki	2122
kası	2123
anlam	2124
40	2125
değişik	2126
çeş	2127
istem	2128
dönemde	2129
çevr	2130
yab	2131
##iyordu	2132
sivil	2133
yıllık	2134
boş	2135
mus	2136
##oz	2137
hen	2138
net	2139
##kün	2140
##irken	2141
kırmızı	2142
##maları	2143
##sunuz	2144
yapıldı	2145
##meden	2146
direktör	2147
dör	2148
##viz	2149
kulüb	2150
altın	2151
şun	2152
öğrenildi	2153
##sik	2154
##gın	2155
##mayacak	2156
cid	2157
##lal	2158
ölüm	2159
i̇ç	2160
##ücü	2161
##iyorlar	2162
ekonomi	2163
istedi	2164
##mey	2165
güney	2166
artır	2167
duyur	2168
giy	2169
yal	2170
##sat	2171
##müş	2172
şehir	2173
laz	2174
indir	2175
alıyor	2176
olabilir	2177
##üf	2178
traf	2179
kaydetti	2180
##sından	2181
yandan	2182
allah	2183
##altı	2184
##meli	2185
tüket	2186
jan	2187
##ilerinin	2188
oda	2189
gündem	2190
##iyesi	2191
sırada	2192
##menin	2193
ihra	2194
devr	2195
tekrar	2196
özgür	2197
şeklinde	2198
sit	2199
müm	2200
irak	2201
hemen	2202
yapmak	2203
##ort	2204
kapat	2205
transfer	2206
##tım	2207
değiştir	2208
##mesinin	2209
##ova	2210
ris	2211
serb	2212
yarış	2213
demokras	2214
hap	2215
hav	2216
uzman	2217
raki	2218
çiz	2219
amacı	2220
altına	2221
mez	2222
çatış	2223
##ebilir	2224
gerekiyor	2225
kasım	2226
##unuz	2227
##ırı	2228
kılı	2229
kons	2230
günde	2231
geliştir	2232
isteyen	2233
mode	2234
önünde	2235
##cih	2236
sam	2237
##cağız	2238
.'	2239
gördü	2240
##lüğ	2241
çarp	2242
yana	2243
büyü	2244
yaralı	2245
taraftar	2246
pek	2247
##rol	2248
tercih	2249
##dy	2250
ederek	2251
nokta	2252
çalışı	2253
kolay	2254
ül	2255
ana	2256
##tığını	2257
##esiyle	2258
sahibi	2259
yabancı	2260
##tor	2261
##iliyor	2262
aydın	2263
th	2264
##endi	2265
##ilerini	2266
bize	2267
gazi	2268
erkek	2269
##dikleri	2270
##ade	2271
koş	2272
kuruluş	2273
fe	2274
##sini	2275
##lerce	2276
enerji	2277
kaldı	2278
mümkün	2279
birbir	2280
kötü	2281
ülkemiz	2282
kadro	2283
pet	2284
şid	2285
##manı	2286
aktar	2287
savcı	2288
##diklerini	2289
gali	2290
kuzey	2291
##ırken	2292
batı	2293
trabzonspor	2294
zarar	2295
serbest	2296
adet	2297
bal	2298
28	2299
##masında	2300
acı	2301
ayak	2302
ila	2303
##lığını	2304
resmi	2305
ru	2306
##abı	2307
yeter	2308
##laştır	2309
talep	2310
süper	2311
dakikada	2312
##yip	2313
##lanıyor	2314
i̇ran	2315
##dük	2316
##mat	2317
yav	2318
ner	2319
##sen	2320
##çesi	2321
geliyor	2322
saldır	2323
artış	2324
şunları	2325
tedavi	2326
##ullah	2327
uygun	2328
yardımcısı	2329
nis	2330
part	2331
##ekli	2332
##ump	2333
eğer	2334
diyar	2335
tören	2336
hesap	2337
sol	2338
kılıç	2339
it	2340
##lanacak	2341
şark	2342
##mar	2343
dağı	2344
ro	2345
bulunuyor	2346
##sta	2347
yılmaz	2348
güneş	2349
dışında	2350
cenaz	2351
gülen	2352
fi	2353
düşünü	2354
##osu	2355
zamanda	2356
mese	2357
i̇şte	2358
tarihi	2359
müdürü	2360
##tim	2361
##yız	2362
##leti	2363
tehdi	2364
silahlı	2365
##tiv	2366
davut	2367
etkin	2368
eleştir	2369
cih	2370
halinde	2371
faiz	2372
çin	2373
siyaset	2374
don	2375
karak	2376
avuk	2377
##bakır	2378
yapıyor	2379
sayıda	2380
i̇st	2381
internet	2382
ci	2383
sına	2384
uğ	2385
mur	2386
yorum	2387
atı	2388
teklif	2389
diyarbakır	2390
mik	2391
ordu	2392
hakem	2393
gereken	2394
##meyen	2395
birliği	2396
##of	2397
##sine	2398
##sk	2399
ap	2400
çift	2401
oyna	2402
ülken	2403
##ola	2404
##nek	2405
##esinden	2406
nor	2407
bölge	2408
27	2409
olmadığını	2410
##adde	2411
##imizin	2412
çeşit	2413
##ime	2414
darb	2415
##rek	2416
##aşa	2417
başlayan	2418
gec	2419
kale	2420
tav	2421
üyesi	2422
hastalık	2423
ciddi	2424
26	2425
##fi	2426
anad	2427
##maktadır	2428
yaşayan	2429
ni	2430
##elen	2431
mülte	2432
barı	2433
göç	2434
şart	2435
##og	2436
##biyet	2437
yanında	2438
yu	2439
##klarını	2440
katkı	2441
güçlü	2442
ef	2443
tali	2444
ligi	2445
bi	2446
öne	2447
açıkladı	2448
cadde	2449
##iyatı	2450
başına	2451
##isine	2452
durumda	2453
anayasa	2454
anadolu	2455
ettik	2456
vardı	2457
2014	2458
##izm	2459
dava	2460
davutoğlu	2461
##dek	2462
##aten	2463
kredi	2464
beni	2465
yun	2466
##üsü	2467
sayısı	2468
##hangi	2469
alış	2470
##lül	2471
temsilc	2472
ra	2473
gerektiğini	2474
herhangi	2475
koç	2476
##laşım	2477
antalya	2478
dep	2479
dol	2480
asl	2481
jandar	2482
##lediği	2483
ülkenin	2484
öyle	2485
onu	2486
##elç	2487
elde	2488
boyunca	2489
savunma	2490
şarkı	2491
itibaren	2492
##yd	2493
##zi	2494
derece	2495
olmayan	2496
izin	2497
",	2498
fik	2499
şik	2500
##lemek	2501
belli	2502
adına	2503
finans	2504
pan	2505
duruş	2506
199	2507
baba	2508
35	2509
##dip	2510
sanay	2511
##lanma	2512
edece	2513
geniş	2514
hakim	2515
hastanesi	2516
grubu	2517
500	2518
##liyor	2519
ifadelerini	2520
nokt	2521
rak	2522
##cat	2523
##arken	2524
inan	2525
söyleyen	2526
deste	2527
temel	2528
çözüm	2529
çağrı	2530
müdahale	2531
giz	2532
##landığı	2533
durumu	2534
kans	2535
##meleri	2536
elektrik	2537
sistemi	2538
üretim	2539
45	2540
başsa	2541
anne	2542
onlar	2543
adlı	2544
meclis	2545
hd	2546
ekonomik	2547
29	2548
yarat	2549
##mıyor	2550
lis	2551
sp	2552
sem	2553
üz	2554
düştü	2555
şiddet	2556
inşa	2557
##üncü	2558
verilen	2559
bundan	2560
etkis	2561
edin	2562
temiz	2563
##bilecek	2564
num	2565
##bo	2566
kamer	2567
başında	2568
konut	2569
nisan	2570
sözleş	2571
##tur	2572
sonunda	2573
yılın	2574
##başı	2575
teslim	2576
bunlar	2577
lir	2578
taz	2579
##miyor	2580
sk	2581
canlı	2582
dört	2583
zorunda	2584
dışişleri	2585
aşk	2586
sul	2587
getirdi	2588
süreç	2589
zaten	2590
person	2591
##taj	2592
kayıt	2593
adan	2594
##üst	2595
yolu	2596
ticaret	2597
arasındaki	2598
rece	2599
##ilecek	2600
hatta	2601
köpr	2602
##tay	2603
araya	2604
kaf	2605
##kur	2606
eşi	2607
##sınız	2608
##li̇	2609
akıl	2610
oynan	2611
tayyip	2612
recep	2613
##tere	2614
takımı	2615
nit	2616
of	2617
boğ	2618
gür	2619
pen	2620
##ucu	2621
işaret	2622
diyor	2623
yeş	2624
ülkede	2625
##sak	2626
##..	2627
##anlığı	2628
barış	2629
##liğini	2630
i̇slam	2631
lı	2632
ri	2633
##dıkları	2634
##cılar	2635
geçmiş	2636
i̇ki	2637
görül	2638
##lilik	2639
doğal	2640
maçı	2641
henüz	2642
##eği	2643
##cılığı	2644
cevap	2645
##asıyla	2646
istih	2647
başarılı	2648
atan	2649
##vi	2650
sonrasında	2651
fu	2652
mayı	2653
yemek	2654
##diş	2655
kart	2656
##ağa	2657
jandarma	2658
kurtar	2659
oyunc	2660
doktor	2661
geçtiğimiz	2662
go	2663
rol	2664
bilim	2665
günlük	2666
konuda	2667
memur	2668
risk	2669
##eg	2670
komisyon	2671
yılda	2672
ekim	2673
alacak	2674
##üman	2675
karşısında	2676
katıldı	2677
ata	2678
mutlu	2679
##iliği	2680
fakat	2681
##abet	2682
##kaç	2683
şüphel	2684
öner	2685
kuş	2686
##ilmiş	2687
##gaz	2688
list	2689
saatlerinde	2690
sınav	2691
murat	2692
hızlı	2693
tepki	2694
##alar	2695
karış	2696
otob	2697
str	2698
##ildiği	2699
mayıs	2700
müş	2701
##ilerek	2702
mahkeme	2703
milletvekili	2704
lazım	2705
hdp	2706
##ast	2707
kriz	2708
unut	2709
i̇nsan	2710
kayded	2711
pyd	2712
soy	2713
yöntem	2714
yağı	2715
kaybe	2716
##i̇d	2717
yılı	2718
van	2719
##ılmış	2720
##ni	2721
kendisine	2722
kürt	2723
##eb	2724
##inci	2725
düşür	2726
kilo	2727
##acağız	2728
durdur	2729
ker	2730
kulüp	2731
##ğiniz	2732
rej	2733
dışı	2734
##ğiz	2735
sıkıntı	2736
##layacak	2737
##ate	2738
##atürk	2739
tehlik	2740
##antep	2741
yık	2742
tehdit	2743
öte	2744
nedenle	2745
##hal	2746
##eyin	2747
##lığa	2748
fay	2749
yürü	2750
31	2751
##omet	2752
yarın	2753
dahil	2754
belg	2755
i̇ngiltere	2756
zir	2757
##ke	2758
biraz	2759
sorum	2760
başkanlık	2761
ilçesinde	2762
model	2763
trump	2764
##birliği	2765
ileri	2766
atatürk	2767
şen	2768
yapacak	2769
kitap	2770
birkaç	2771
gelece	2772
##dam	2773
sığın	2774
orada	2775
haberler	2776
bat	2777
başta	2778
jo	2779
##landa	2780
bizi	2781
maçında	2782
nden	2783
ces	2784
arama	2785
fatih	2786
##ena	2787
##layarak	2788
sürekli	2789
amaç	2790
dal	2791
çan	2792
##lığın	2793
perfor	2794
fer	2795
mot	2796
##imizi	2797
tw	2798
uğr	2799
##ahim	2800
##artesi	2801
gı	2802
eylül	2803
bayram	2804
pas	2805
giden	2806
anlattı	2807
yıllar	2808
yansı	2809
ister	2810
gaziantep	2811
60	2812
yeşil	2813
performan	2814
##dum	2815
işi̇d	2816
aralarında	2817
sek	2818
##zı	2819
bilgiye	2820
hangi	2821
almak	2822
düşük	2823
tarihinde	2824
##gör	2825
ettiğini	2826
şüpheli	2827
aslında	2828
aylık	2829
yanıt	2830
cep	2831
çer	2832
daeş	2833
arada	2834
fransa	2835
sıcak	2836
arab	2837
düzey	2838
çeşitli	2839
amacıyla	2840
proje	2841
türlü	2842
##eceğiz	2843
öğretmen	2844
sürücü	2845
##düğü	2846
##deniz	2847
##imize	2848
dünyada	2849
baz	2850
satı	2851
kişiler	2852
doğu	2853
gitti	2854
ndan	2855
##amız	2856
##muştu	2857
görüyor	2858
val	2859
##elere	2860
sert	2861
kira	2862
gez	2863
getiren	2864
maçta	2865
bildirildi	2866
##gen	2867
ortam	2868
##dağ	2869
salon	2870
##abilecek	2871
mahkemesi	2872
##teki	2873
##sızlık	2874
serv	2875
ağr	2876
##ılma	2877
kemal	2878
##sanız	2879
feder	2880
##apı	2881
##asyonu	2882
bahçe	2883
dk	2884
##neği	2885
gid	2886
petrol	2887
galibiyet	2888
olsa	2889
ekran	2890
i̇lçesi	2891
##lamaya	2892
2017	2893
demokrat	2894
##tepe	2895
benzer	2896
sta	2897
önümüz	2898
bağlantı	2899
ihtiyaç	2900
avukat	2901
hik	2902
ted	2903
tabii	2904
açısından	2905
isimli	2906
yanlış	2907
osmanlı	2908
##ale	2909
##iyah	2910
olmaz	2911
diyen	2912
sebep	2913
##liye	2914
mh	2915
kalp	2916
##dal	2917
##luğu	2918
##laması	2919
##etin	2920
olabil	2921
çeken	2922
kilomet	2923
##sinde	2924
gören	2925
##daroğlu	2926
sene	2927
toprak	2928
sefer	2929
zey	2930
seviy	2931
gelişme	2932
esn	2933
amel	2934
##eyle	2935
meş	2936
tor	2937
geçiş	2938
##vizyon	2939
mor	2940
fiyatı	2941
tıp	2942
##laya	2943
##çev	2944
##adan	2945
adalet	2946
zen	2947
##doğu	2948
televizyon	2949
yazılı	2950
fayda	2951
90	2952
bunların	2953
dost	2954
##dr	2955
yerde	2956
gar	2957
##sinin	2958
yönetic	2959
##set	2960
terörle	2961
halep	2962
cer	2963
##üle	2964
ruh	2965
ağrı	2966
gay	2967
##ğe	2968
yaşadığı	2969
hapis	2970
##liy	2971
giren	2972
##med	2973
gerekli	2974
hüs	2975
istik	2976
olmadığı	2977
başsav	2978
gıda	2979
anlatan	2980
?"	2981
##umsuz	2982
arac	2983
kurtul	2984
diş	2985
##sup	2986
##one	2987
aya	2988
##ansı	2989
önlem	2990
siyah	2991
konuşan	2992
vaz	2993
##yaspor	2994
##ona	2995
##umu	2996
şube	2997
diyerek	2998
tutuklandı	2999
cuma	3000
##duk	3001
başken	3002
çocuğ	3003
çatışma	3004
dolayısıyla	3005
##rail	3006
##mam	3007
poz	3008
##lığına	3009
yunan	3010
##ku	3011
öncesi	3012
ikti	3013
##panya	3014
kılıçdaroğlu	3015
##ekk	3016
yaptır	3017
tahmin	3018
çerçev	3019
adana	3020
turizm	3021
##tıldı	3022
müsl	3023
trafik	3024
demek	3025
yolcu	3026
ediliyor	3027
söylü	3028
zam	3029
başar	3030
balık	3031
##luluk	3032
hayata	3033
kendisini	3034
final	3035
nur	3036
##abak	3037
çekti	3038
rakam	3039
##asından	3040
sayın	3041
##to	3042
##layıcı	3043
mensup	3044
bür	3045
önüne	3046
yarar	3047
##elerde	3048
oku	3049
day	3050
baskı	3051
yasa	3052
çelik	3053
kala	3054
co	3055
hâ	3056
amerika	3057
olup	3058
normal	3059
det	3060
çal	3061
##ydı	3062
hır	3063
##türk	3064
günlerde	3065
kanal	3066
##mıza	3067
doğan	3068
i̇ngiliz	3069
ilan	3070
kir	3071
lik	3072
ölü	3073
##bin	3074
haft	3075
etkili	3076
üs	3077
##mızın	3078
tedbir	3079
##lanmış	3080
gerekir	3081
ndeki	3082
kahr	3083
sanık	3084
gösterdi	3085
başvuru	3086
enf	3087
karşılık	3088
hüc	3089
##cut	3090
yönünde	3091
uyarı	3092
buluş	3093
##har	3094
alanda	3095
##brahim	3096
i̇h	3097
defa	3098
yere	3099
##pek	3100
bulut	3101
girdi	3102
muha	3103
ihti	3104
kahraman	3105
kays	3106
denet	3107
fetullah	3108
caddesi	3109
vali	3110
olumsuz	3111
yetiş	3112
tamamen	3113
mis	3114
ömer	3115
sorgu	3116
hayvan	3117
bağım	3118
##ze	3119
##sed	3120
değildir	3121
babası	3122
##liler	3123
yaln	3124
##inc	3125
##udi	3126
etme	3127
demokrasi	3128
sine	3129
i̇srail	3130
bomb	3131
##iyeti	3132
mevcut	3133
merak	3134
umut	3135
soğ	3136
##tesi	3137
##iran	3138
##macı	3139
kong	3140
işlet	3141
dü	3142
iler	3143
çav	3144
parç	3145
mahalle	3146
##lenmesi	3147
##lığının	3148
inceleme	3149
bankası	3150
adli	3151
üçüncü	3152
##co	3153
deaş	3154
döneminde	3155
##dıklarını	3156
tuz	3157
ona	3158
dışarı	3159
yaralandı	3160
yalnız	3161
yerinde	3162
cezaev	3163
70	3164
muhalif	3165
şe	3166
##meni	3167
##tiş	3168
bakım	3169
kızı	3170
gem	3171
##çak	3172
##landırı	3173
sayesinde	3174
önümüzdeki	3175
##madığı	3176
tv	3177
olmaya	3178
otel	3179
kanun	3180
başkanlığı	3181
küresel	3182
erken	3183
##i̇n	3184
amerik	3185
##form	3186
oluşan	3187
nerede	3188
uğur	3189
bm	3190
##eyim	3191
çey	3192
##ons	3193
personel	3194
ale	3195
vardır	3196
müzik	3197
fon	3198
##demir	3199
olmadı	3200
borç	3201
bekleniyor	3202
##yi	3203
##lisi	3204
haline	3205
tip	3206
metre	3207
müslüman	3208
##anıyor	3209
bildirdi	3210
kanser	3211
çavuş	3212
##atif	3213
edilmesi	3214
kendini	3215
##matik	3216
istiyor	3217
aj	3218
çıkış	3219
belki	3220
itir	3221
çö	3222
bede	3223
##lanarak	3224
##ulması	3225
##elerinin	3226
nef	3227
katılım	3228
oba	3229
yum	3230
def	3231
##ulan	3232
sona	3233
##ğinin	3234
belediyesi	3235
nak	3236
peş	3237
kaza	3238
beri	3239
sını	3240
etkisiz	3241
müh	3242
öğ	3243
bursa	3244
##lığında	3245
doğr	3246
kamp	3247
cezası	3248
##duğunu	3249
i̇brahim	3250
süren	3251
##tıyor	3252
##lel	3253
emre	3254
obama	3255
bugüne	3256
kesim	3257
##luğ	3258
##ğust	3259
ağust	3260
##yum	3261
##laka	3262
##lasyon	3263
kaydedildi	3264
##acağını	3265
yaşında	3266
tesis	3267
operasyonda	3268
32	3269
##bur	3270
##paşa	3271
teşekk	3272
davet	3273
çoğ	3274
paralel	3275
ton	3276
patlama	3277
kupası	3278
derneği	3279
sonuc	3280
##şık	3281
birleş	3282
orman	3283
hasan	3284
kimse	3285
##geç	3286
kaybetti	3287
min	3288
##ene	3289
albay	3290
büyükşehir	3291
##ülü	3292
kims	3293
güm	3294
firma	3295
kilometre	3296
##tarı	3297
attı	3298
ihracat	3299
port	3300
sanatçı	3301
vit	3302
vol	3303
##lamen	3304
değişiklik	3305
##sur	3306
aka	3307
örnek	3308
mağdur	3309
gerekç	3310
oldukça	3311
saray	3312
##masından	3313
yayım	3314
böylece	3315
mhp	3316
onların	3317
kaçak	3318
hüseyin	3319
çay	3320
anlat	3321
##anım	3322
##masıyla	3323
civar	3324
##go	3325
##etik	3326
derin	3327
##undaki	3328
fes	3329
yapıla	3330
##süz	3331
haziran	3332
aşağı	3333
ediyorum	3334
sakat	3335
heyec	3336
hesab	3337
teknoloji	3338
renk	3339
##ayla	3340
##sizlik	3341
teşekkür	3342
azal	3343
##ana	3344
veriyor	3345
eser	3346
##limanı	3347
##lulu	3348
##uyu	3349
yasak	3350
ağustos	3351
krit	3352
acil	3353
80	3354
hain	3355
hayır	3356
arkadaşı	3357
not	3358
fırsat	3359
sultan	3360
kem	3361
forma	3362
36	3363
##ğan	3364
##imin	3365
kullandığı	3366
adr	3367
##pany	3368
##yo	3369
##ho	3370
##ham	3371
##ğının	3372
##alım	3373
huz	3374
tec	3375
##taki	3376
##pg	3377
##espor	3378
etmeye	3379
olduğuna	3380
sunu	3381
##kın	3382
havalimanı	3383
pozisyon	3384
akadem	3385
namaz	3386
çevre	3387
hollanda	3388
şikayet	3389
##inç	3390
çalışıyor	3391
##yu	3392
huzur	3393
##esindeki	3394
##mesiyle	3395
yönetimi	3396
##eyecek	3397
saygı	3398
##ff	3399
##abir	3400
yüzden	3401
hazırlık	3402
##ent	3403
çıkıyor	3404
kayb	3405
ölç	3406
dokun	3407
lar	3408
naz	3409
öden	3410
depr	3411
kali	3412
cihaz	3413
zengin	3414
gösteren	3415
yapılması	3416
ders	3417
piyasa	3418
34	3419
tok	3420
parlamen	3421
düzenleme	3422
##mm	3423
getirildi	3424
durumunda	3425
sınıf	3426
zira	3427
##tren	3428
##bulan	3429
olumlu	3430
ambulan	3431
dünyaya	3432
pa	3433
araştır	3434
miktar	3435
ler	3436
şar	3437
alk	3438
suriyeli	3439
ameliyat	3440
prot	3441
##ıldığını	3442
idar	3443
ue	3444
geçer	3445
girişimi	3446
tb	3447
##atör	3448
##larındaki	3449
##barat	3450
bitir	3451
##imde	3452
##emez	3453
yerleş	3454
serg	3455
ödeme	3456
alma	3457
yerli	3458
twit	3459
uefa	3460
emekli	3461
zirv	3462
keş	3463
##rü	3464
sanayi	3465
kıy	3466
##lemeye	3467
üye	3468
detay	3469
belirlendi	3470
politika	3471
alarak	3472
2013	3473
isten	3474
##larımızın	3475
maaş	3476
hayal	3477
hakkı	3478
##tiler	3479
##ust	3480
##ina	3481
kapalı	3482
tarım	3483
tartışma	3484
çak	3485
##rah	3486
##lenme	3487
abdu	3488
çalışmaları	3489
biç	3490
süt	3491
##mail	3492
kamuoy	3493
samsun	3494
çap	3495
birinci	3496
yola	3497
##daş	3498
##ati	3499
kaya	3500
iktidar	3501
dayan	3502
öngör	3503
çıkarı	3504
kurumu	3505
milletvekil	3506
rakip	3507
300	3508
peki	3509
şans	3510
##par	3511
##anlar	3512
yapma	3513
gönül	3514
##orta	3515
##lıkla	3516
insanlar	3517
kayıp	3518
twitter	3519
gündeme	3520
kış	3521
##iydi	3522
##liğe	3523
danış	3524
ekibi	3525
cami	3526
##barı	3527
bebek	3528
müşter	3529
sorumlu	3530
asıl	3531
vatandaşlar	3532
tüf	3533
##ib	3534
otobüs	3535
ağa	3536
bölümü	3537
33	3538
##oda	3539
##larım	3540
hakan	3541
insanların	3542
edildiği	3543
tun	3544
neler	3545
pak	3546
##olojik	3547
vermek	3548
onur	3549
düzenlen	3550
ade	3551
##his	3552
doğum	3553
##tılan	3554
eksik	3555
tasar	3556
tatil	3557
buldu	3558
kulübü	3559
altı	3560
geldiği	3561
ilaç	3562
ez	3563
##ding	3564
##ciler	3565
##onya	3566
##larımızı	3567
alır	3568
09	3569
prob	3570
esk	3571
##ılan	3572
##urken	3573
sağlıklı	3574
nüf	3575
yazar	3576
şahin	3577
pil	3578
##car	3579
devletin	3580
red	3581
##rik	3582
işç	3583
çevir	3584
vide	3585
##uluyor	3586
i̇k	3587
kayn	3588
ortalama	3589
##lasman	3590
burs	3591
cem	3592
sürede	3593
75	3594
##biyle	3595
endiş	3596
##lamaz	3597
düşen	3598
lim	3599
üm	3600
##muyor	3601
antren	3602
verecek	3603
aracı	3604
oğlu	3605
sigorta	3606
ypg	3607
##larca	3608
##dat	3609
etmesi	3610
new	3611
##ınar	3612
aşırı	3613
i̇smail	3614
to	3615
ihtiyacı	3616
direktörü	3617
psik	3618
akp	3619
parça	3620
evde	3621
yakalandı	3622
##bal	3623
##iyer	3624
yerel	3625
198	3626
lideri	3627
eya	3628
##allah	3629
vergi	3630
muhale	3631
##elerine	3632
##inizi	3633
##gar	3634
del	3635
içeri	3636
saç	3637
sürüyor	3638
akın	3639
##üler	3640
##ırnak	3641
far	3642
##ücu	3643
muhabir	3644
beyazlı	3645
yit	3646
##mur	3647
topu	3648
bunları	3649
açılış	3650
sizin	3651
##rika	3652
##büs	3653
varsa	3654
saha	3655
##üstü	3656
yavaş	3657
##ân	3658
turist	3659
şaş	3660
operasyonu	3661
ediyoruz	3662
cumhuriyeti	3663
söyley	3664
ilgi	3665
altını	3666
hafif	3667
vurgulayan	3668
fab	3669
##ko	3670
sahn	3671
eg	3672
servis	3673
söylüyor	3674
etkil	3675
##liğinde	3676
kullanılan	3677
düşüş	3678
uyar	3679
annesi	3680
yitir	3681
he	3682
plak	3683
yolc	3684
car	3685
xx	3686
##20	3687
başı	3688
benz	3689
seviye	3690
yaparak	3691
konya	3692
kişilerin	3693
hastaneye	3694
ulaştı	3695
yurtdı	3696
kişilik	3697
size	3698
rejim	3699
kaldırı	3700
çalışmalar	3701
tbmm	3702
birim	3703
oranı	3704
meslek	3705
##cının	3706
gelin	3707
asla	3708
kendisi	3709
anlaşma	3710
ettir	3711
##ildiğini	3712
olağan	3713
##oto	3714
problem	3715
##muştur	3716
genelkur	3717
güçleri	3718
tepk	3719
kaybeden	3720
##atej	3721
##bi̇	3722
istiyorum	3723
ir	3724
endek	3725
gide	3726
##ilendir	3727
##sef	3728
olacağını	3729
patlayıcı	3730
mutlaka	3731
yerleştir	3732
seyir	3733
deplasman	3734
yalan	3735
unsur	3736
satın	3737
stratej	3738
nö	3739
kimlik	3740
imk	3741
genelkurmay	3742
yeri	3743
##mızda	3744
karşıya	3745
##elerinde	3746
sel	3747
ıs	3748
katılan	3749
kuvvetleri	3750
gökhan	3751
taşıyan	3752
akıllı	3753
lo	3754
çıkacak	3755
bayrak	3756
##lırken	3757
içine	3758
gizli	3759
keli	3760
##masın	3761
aziz	3762
çocuklar	3763
vatan	3764
muham	3765
vazgeç	3766
hi	3767
rom	3768
tiyat	3769
##ag	3770
##anam	3771
arda	3772
alanı	3773
##si̇	3774
halde	3775
aşa	3776
gur	3777
tez	3778
karay	3779
ayır	3780
holding	3781
yapmaya	3782
başak	3783
##utin	3784
halkı	3785
##oli	3786
park	3787
yürüy	3788
motor	3789
nöbet	3790
sonuna	3791
yıllarda	3792
yunanistan	3793
i̇yi	3794
##duğ	3795
##liğine	3796
gerçekleştirilen	3797
the	3798
hür	3799
tir	3800
##cilik	3801
##kaya	3802
alb	3803
köş	3804
cinsel	3805
civarında	3806
##ia	3807
##slan	3808
##mıyla	3809
yürütülen	3810
müsabak	3811
muhalefet	3812
vücu	3813
belirlen	3814
eve	3815
ast	3816
##âr	3817
örgütün	3818
başbakanı	3819
yağış	3820
stan	3821
##ıs	3822
##zan	3823
nı	3824
çaba	3825
alına	3826
ayk	3827
yapımı	3828
yoktur	3829
saldırıda	3830
##gener	3831
##ahat	3832
yetkililer	3833
##ite	3834
gerekçesiyle	3835
zaf	3836
vuruş	3837
kaçır	3838
takımın	3839
kullanıcı	3840
39	3841
istiyoruz	3842
koca	3843
cinayet	3844
volkan	3845
##aka	3846
arena	3847
görüldü	3848
konuk	3849
yaptık	3850
hatırla	3851
##dil	3852
binlerce	3853
özellik	3854
inci	3855
korun	3856
##meyece	3857
dolarlık	3858
programı	3859
marka	3860
arka	3861
##ümü	3862
güc	3863
tiyatro	3864
##sim	3865
##maması	3866
algı	3867
belediy	3868
herkesin	3869
bı	3870
hayatı	3871
arz	3872
bina	3873
##mesinde	3874
##lete	3875
i̇talya	3876
öldü	3877
diren	3878
##öl	3879
##amıyor	3880
yaptıkları	3881
##sas	3882
karab	3883
şeker	3884
duygu	3885
##oloji	3886
##general	3887
çağı	3888
##ılmaz	3889
büyüm	3890
hakaret	3891
yıla	3892
partisi	3893
sıralarında	3894
sil	3895
##şallah	3896
onları	3897
ambulans	3898
##lâ	3899
evet	3900
bilgiler	3901
mi̇	3902
şi	3903
##yım	3904
emin	3905
malz	3906
süreci	3907
yaşıyor	3908
yenil	3909
ulusal	3910
karakter	3911
fiz	3912
##rem	3913
##amet	3914
us	3915
##liğin	3916
kaldırıldı	3917
çetin	3918
##hat	3919
##ikat	3920
alty	3921
##leye	3922
ortadan	3923
##ult	3924
maçın	3925
konuşma	3926
çerçevesinde	3927
abdul	3928
memn	3929
iptal	3930
kamera	3931
kop	3932
sorunu	3933
rekor	3934
65	3935
no	3936
rö	3937
çekil	3938
kendilerine	3939
mağlu	3940
büyüme	3941
cil	3942
attığı	3943
##abiliyor	3944
mobil	3945
açıldı	3946
fil	3947
vade	3948
birey	3949
i̇kinci	3950
koru	3951
yaralanan	3952
grub	3953
eyalet	3954
yaptığını	3955
düğ	3956
sonucunda	3957
halkın	3958
##aat	3959
suudi	3960
##mayın	3961
koruma	3962
mülteci	3963
ça	3964
##emin	3965
##evi	3966
hac	3967
gerçekten	3968
hoca	3969
##ray	3970
##liyoruz	3971
##ileş	3972
yapım	3973
##cağına	3974
slo	3975
##mediği	3976
##vert	3977
skor	3978
sığınmacı	3979
55	3980
sap	3981
##soy	3982
##ital	3983
kazandı	3984
medy	3985
##iyel	3986
##lıp	3987
açılan	3988
kaydeden	3989
dip	3990
##ıcı	3991
##hi	3992
##erken	3993
kilis	3994
##memiş	3995
desteği	3996
vek	3997
yeterli	3998
##ond	3999
rest	4000
##ündeki	4001
izley	4002
değerlendirme	4003
##düm	4004
ayı	4005
erz	4006
evinde	4007
çocukların	4008
kok	4009
##manız	4010
toplu	4011
geldiğini	4012
bilinen	4013
##meyecek	4014
##iği	4015
##he	4016
##gari	4017
##laşma	4018
lu	4019
##ren	4020
##yse	4021
##ever	4022
komutanı	4023
şeyi	4024
##abilirsiniz	4025
tazmin	4026
arap	4027
##tacak	4028
##vik	4029
##civert	4030
başlayacak	4031
soğuk	4032
##isyen	4033
mali	4034
##i̇r	4035
bölgeye	4036
krizi	4037
konser	4038
nes	4039
olmuş	4040
etmiş	4041
basket	4042
azer	4043
zanlı	4044
##şi	4045
##ple	4046
##esiz	4047
dağ	4048
##eci	4049
hali	4050
istediği	4051
ederken	4052
rahatsız	4053
demokratik	4054
ima	4055
##usuna	4056
direk	4057
cema	4058
göçmen	4059
boyut	4060
dök	4061
dis	4062
şırnak	4063
##ato	4064
##lent	4065
hakları	4066
olursa	4067
tık	4068
##mel	4069
2012	4070
komş	4071
üstün	4072
dilek	4073
test	4074
##memiz	4075
başlan	4076
alanında	4077
olmalı	4078
taban	4079
sokağa	4080
üniversite	4081
2011	4082
bölgesinde	4083
uk	4084
##ry	4085
##say	4086
kurban	4087
terk	4088
##osk	4089
elbet	4090
##di̇	4091
##embe	4092
edilecek	4093
harekat	4094
enflasyon	4095
##yer	4096
##gal	4097
##po	4098
kaldığı	4099
katıl	4100
##landığını	4101
bulutlu	4102
usta	4103
şiş	4104
##esyon	4105
saf	4106
iletiş	4107
sürdü	4108
hala	4109
##osya	4110
yükse	4111
projesi	4112
hisset	4113
olduklarını	4114
kısm	4115
##mali	4116
maden	4117
şeyler	4118
gençler	4119
##malıdır	4120
vurguladı	4121
ege	4122
pop	4123
bilgis	4124
musul	4125
düşünüyorum	4126
memnun	4127
restor	4128
##antaj	4129
##enek	4130
gördük	4131
teki	4132
imha	4133
yaşandı	4134
alıp	4135
lacivert	4136
köprü	4137
çi	4138
##hone	4139
##ğinden	4140
genelinde	4141
cenaze	4142
inşaat	4143
bol	4144
tü	4145
##fı	4146
konum	4147
##rag	4148
şirketi	4149
harekete	4150
altyapı	4151
##ilir	4152
##iyiz	4153
görülen	4154
büyükelç	4155
asya	4156
##veriş	4157
taşın	4158
komutanlığı	4159
dolu	4160
odak	4161
pdy	4162
döndü	4163
kapas	4164
##mür	4165
denildi	4166
öğrenciler	4167
37	4168
plat	4169
##gisi	4170
belç	4171
örne	4172
sonraki	4173
hisse	4174
##seniz	4175
38	4176
##dun	4177
##larımıza	4178
vatandaşların	4179
kırmızılı	4180
açtı	4181
kuruş	4182
putin	4183
evine	4184
açıklaması	4185
tutuklu	4186
if	4187
##gül	4188
##emi	4189
olayın	4190
cumhurbaşkanlığı	4191
nec	4192
##siye	4193
##binin	4194
belirtilen	4195
arabistan	4196
01	4197
sim	4198
##sır	4199
##iyan	4200
##edeki	4201
cumartesi	4202
##kale	4203
öğrenci	4204
etkilen	4205
sinan	4206
organiz	4207
##onik	4208
selç	4209
kararlı	4210
teşvik	4211
kamyon	4212
koşul	4213
selçuk	4214
dizi	4215
kör	4216
tsk	4217
yeme	4218
##lardır	4219
olacağı	4220
bölgesi	4221
stat	4222
41	4223
artı	4224
##liğinin	4225
yapacağı	4226
başlattı	4227
uçuş	4228
bazen	4229
başlat	4230
ins	4231
mersin	4232
imkan	4233
paylaşım	4234
sözcüsü	4235
fakül	4236
liraya	4237
kayseri	4238
bilgisay	4239
##dikten	4240
beğ	4241
bebe	4242
savaşı	4243
heyet	4244
giderek	4245
mezar	4246
amerikan	4247
##tek	4248
önde	4249
çıkma	4250
##elim	4251
bulunduğunu	4252
uygulan	4253
prim	4254
yaşamını	4255
işi	4256
işbirliği	4257
üncü	4258
gösteriyor	4259
##lerimizi	4260
anlamda	4261
ukray	4262
sahte	4263
seyahat	4264
toplantısında	4265
iphone	4266
doldur	4267
fizik	4268
lük	4269
##nam	4270
##limiz	4271
kadınlar	4272
oğuz	4273
apple	4274
##rid	4275
kural	4276
ifadesini	4277
yönetmen	4278
şehr	4279
oynanan	4280
hücre	4281
adeta	4282
jap	4283
kıl	4284
rez	4285
istis	4286
##biliyor	4287
##tıkları	4288
medyada	4289
sız	4290
##lardı	4291
kurulan	4292
başakşehir	4293
46	4294
yur	4295
##cisi	4296
işada	4297
milletin	4298
##book	4299
geçici	4300
paris	4301
fırat	4302
etkinlik	4303
çeyrek	4304
02	4305
##yaş	4306
##ılmasına	4307
onlara	4308
değerli	4309
hazırlanan	4310
yatırımcı	4311
elbette	4312
47	4313
##ruk	4314
aran	4315
geril	4316
metrek	4317
hepsi	4318
dahi	4319
##od	4320
##üyle	4321
##ây	4322
197	4323
davr	4324
komisyonu	4325
yapmış	4326
##lamadı	4327
alınması	4328
tel	4329
##usunu	4330
bölü	4331
çıkardı	4332
şanlı	4333
##ulmaz	4334
##isel	4335
##ilerden	4336
koor	4337
ligde	4338
##alis	4339
anali	4340
kişiyi	4341
pilot	4342
ob	4343
##cusu	4344
##bine	4345
##lıkları	4346
##leşme	4347
oto	4348
i̇lçe	4349
sinir	4350
ticari	4351
tün	4352
##lip	4353
##eyn	4354
##ezz	4355
bülent	4356
devre	4357
açıklandı	4358
2010	4359
dolara	4360
sizi	4361
düşünce	4362
##lamanın	4363
##hane	4364
olayı	4365
yoksa	4366
ismi	4367
##elikop	4368
ortadoğu	4369
##veç	4370
alışveriş	4371
olağanüstü	4372
helikop	4373
şok	4374
başlıyor	4375
##ayıf	4376
haberine	4377
onay	4378
katıldığı	4379
diplo	4380
vir	4381
topra	4382
düşman	4383
takdir	4384
gözyaş	4385
kök	4386
süredir	4387
tasarı	4388
##are	4389
##leniyor	4390
aslan	4391
metin	4392
madrid	4393
öncesinde	4394
##nik	4395
##uyla	4396
turan	4397
ramaz	4398
iade	4399
i̇ddi	4400
inti	4401
avust	4402
harca	4403
edeceğiz	4404
toto	4405
zayıf	4406
and	4407
emir	4408
çocuğu	4409
bursaspor	4410
kelime	4411
##ura	4412
##emeyen	4413
##iklet	4414
yapılıyor	4415
yangın	4416
trib	4417
albayrak	4418
video	4419
43	4420
##ekim	4421
olun	4422
yağmur	4423
yurtdış	4424
kanı	4425
##ester	4426
kısı	4427
face	4428
atıl	4429
kanat	4430
##layıp	4431
kritik	4432
nu	4433
##şet	4434
çıktığı	4435
mekan	4436
fikir	4437
edip	4438
##tisi	4439
sürpr	4440
sahil	4441
güçlendir	4442
mesele	4443
bahçeli	4444
aracın	4445
##ğından	4446
##ktan	4447
##enler	4448
öztürk	4449
gazete	4450
i̇spanya	4451
dikkati	4452
maliyet	4453
protest	4454
gr	4455
hus	4456
kafa	4457
koalis	4458
kadının	4459
##baycan	4460
kaleci	4461
03	4462
44	4463
##ınma	4464
##işehir	4465
müzak	4466
hürr	4467
bıçak	4468
azerbaycan	4469
koalisyon	4470
##emesi	4471
sali	4472
konuyla	4473
bağımsız	4474
facebook	4475
42	4476
mit	4477
##fak	4478
##labilir	4479
##yalı	4480
üzerindeki	4481
sağlamak	4482
filmi	4483
toplantısı	4484
abdullah	4485
helikopter	4486
mim	4487
olmasına	4488
adını	4489
polisin	4490
perş	4491
güncelleme	4492
sözleşme	4493
##rübe	4494
adliy	4495
itibarı	4496
tecrübe	4497
ira	4498
##bey	4499
##ant	4500
indirim	4501
amir	4502
nus	4503
##ash	4504
##mediğini	4505
çalışması	4506
##leyi	4507
tane	4508
noktada	4509
sinema	4510
ramazan	4511
yü	4512
şük	4513
##lıklar	4514
buraya	4515
kampany	4516
boğaz	4517
##lacağı	4518
##anet	4519
##amak	4520
çalıştı	4521
temsilcisi	4522
istihdam	4523
çoğu	4524
nüfus	4525
mic	4526
yapıldığı	4527
i̇m	4528
aldık	4529
anlay	4530
##ülüyor	4531
##tıklarını	4532
ilişkiler	4533
oynadığı	4534
heyecan	4535
perşembe	4536
##lili	4537
araz	4538
olası	4539
i̇pek	4540
almaya	4541
anı	4542
ilet	4543
##faiye	4544
esas	4545
karadeniz	4546
48	4547
400	4548
##memesi	4549
şahıs	4550
tatlı	4551
ayrıldı	4552
gecesi	4553
bombalı	4554
mosk	4555
haberi	4556
kişiye	4557
avantaj	4558
bedel	4559
eli	4560
est	4561
##latı	4562
##leket	4563
salı	4564
uzat	4565
tamamladı	4566
memleket	4567
fransız	4568
##ij	4569
##yıl	4570
##cık	4571
yerini	4572
elinde	4573
sayısının	4574
çocukları	4575
bilgisayar	4576
yusu	4577
##indi	4578
##land	4579
kartal	4580
oyunu	4581
binali	4582
etkisi	4583
kazandır	4584
pazartesi	4585
rahmet	4586
esnaf	4587
plakalı	4588
belçika	4589
moskova	4590
##matı	4591
##ürken	4592
belge	4593
kullanan	4594
##leyecek	4595
güvenli	4596
örgütünün	4597
şirketin	4598
teröristlerin	4599
geride	4600
ukrayna	4601
yuk	4602
##les	4603
dedim	4604
takv	4605
suçundan	4606
götürüldü	4607
uyuştur	4608
kullanım	4609
tutar	4610
ism	4611
olacaktır	4612
mevz	4613
cü	4614
##edi	4615
##cer	4616
dam	4617
yapar	4618
yaparken	4619
kariyer	4620
beklenen	4621
tahliye	4622
ailesi	4623
hoş	4624
##ücut	4625
com	4626
tim	4627
##ou	4628
##nan	4629
##erv	4630
##ong	4631
inanı	4632
##lıklı	4633
sahada	4634
hatt	4635
edinilen	4636
kaş	4637
lok	4638
##cra	4639
##urum	4640
müt	4641
gücü	4642
çalıştır	4643
polisi	4644
hızla	4645
roman	4646
yusuf	4647
aa	4648
##sad	4649
sağladı	4650
üyeleri	4651
makam	4652
yükseldi	4653
dij	4654
çocuğun	4655
adres	4656
mat	4657
##elt	4658
işe	4659
insanları	4660
moder	4661
yayınlanan	4662
istihbarat	4663
başsavcılığı	4664
qu	4665
##ğer	4666
##umak	4667
devleti	4668
dündar	4669
dönemi	4670
ilçesi	4671
dönüşüm	4672
organize	4673
öğle	4674
fili	4675
##köy	4676
halen	4677
eşit	4678
içindeki	4679
doğrudan	4680
olmasını	4681
mardin	4682
denizli	4683
barcel	4684
vakfı	4685
doğrult	4686
mün	4687
şif	4688
belirlenen	4689
burak	4690
sevg	4691
ihlal	4692
aldığını	4693
fetullahçı	4694
yürüyüş	4695
ec	4696
rüz	4697
vücut	4698
yaşlı	4699
görevi	4700
oynaya	4701
vatandaşı	4702
york	4703
hoc	4704
başkenti	4705
##ıf	4706
anah	4707
deneyim	4708
sahne	4709
hassas	4710
görevli	4711
hastanede	4712
duyurdu	4713
##hisar	4714
dijital	4715
53	4716
nih	4717
##müyor	4718
bilet	4719
ödülü	4720
süreçte	4721
örneğin	4722
id	4723
sö	4724
görmek	4725
etraf	4726
oldukları	4727
op	4728
##anak	4729
çalıştığı	4730
##leyman	4731
paket	4732
pla	4733
arslan	4734
ilçe	4735
eriş	4736
erdem	4737
oyuncusu	4738
aykırı	4739
platform	4740
bölücü	4741
protesto	4742
##lerek	4743
sağlayan	4744
feth	4745
mensu	4746
öldürüldü	4747
gerçekleşti	4748
mühendi	4749
standar	4750
asi	4751
##lerince	4752
##tern	4753
eğlen	4754
kahv	4755
mültec	4756
gurur	4757
tazminat	4758
çab	4759
##şek	4760
göl	4761
biliyor	4762
bölümünde	4763
ateşkes	4764
yukarı	4765
karan	4766
günümüz	4767
afrika	4768
reklam	4769
numar	4770
neredeyse	4771
salih	4772
lond	4773
##ilebilir	4774
##madık	4775
suçlama	4776
mısır	4777
sebebiyle	4778
gu	4779
hed	4780
viz	4781
vic	4782
##ens	4783
##isa	4784
akdeniz	4785
tac	4786
mesaf	4787
tabi	4788
istediğini	4789
form	4790
çarşam	4791
gram	4792
##yken	4793
##fik	4794
deng	4795
yanına	4796
sahaya	4797
üretic	4798
bayra	4799
çanak	4800
vitam	4801
kapasit	4802
itibarıyla	4803
ndaki	4804
piş	4805
##sy	4806
##kim	4807
##larken	4808
vurdu	4809
tanış	4810
polise	4811
konseyi	4812
performans	4813
gidiyor	4814
koordin	4815
uyuşturucu	4816
sh	4817
##ünüz	4818
getirilen	4819
farkı	4820
tuğ	4821
istikrar	4822
cemaat	4823
yüzünden	4824
ülkeye	4825
bura	4826
düzenlediği	4827
bilgileri	4828
kazanan	4829
sakin	4830
süleyman	4831
deprem	4832
antrenman	4833
çarşamba	4834
birinin	4835
##iledi	4836
zorun	4837
teşki	4838
bağış	4839
dek	4840
reh	4841
##mut	4842
hata	4843
arkasında	4844
başlatılan	4845
bara	4846
##tuk	4847
i̇dar	4848
##üksel	4849
sermay	4850
##iğe	4851
iyileş	4852
edilmiş	4853
itibariyle	4854
sekret	4855
yetiştir	4856
mini	4857
##çu	4858
buz	4859
uyan	4860
buradan	4861
geçirdi	4862
alım	4863
gönderildi	4864
brez	4865
talimat	4866
stadı	4867
barcelona	4868
##lardaki	4869
temas	4870
##idin	4871
müdürlüğ	4872
kendilerini	4873
basketbol	4874
ciz	4875
##tak	4876
birisi	4877
karş	4878
uzmanı	4879
##ıza	4880
bahç	4881
bölgedeki	4882
penaltı	4883
tank	4884
liralık	4885
uğraş	4886
ümit	4887
brezil	4888
85	4889
zih	4890
##hn	4891
kaymak	4892
sağlan	4893
bakanlık	4894
liradan	4895
başkent	4896
gümüş	4897
hor	4898
mir	4899
ren	4900
örgütüne	4901
verdiğini	4902
yasağı	4903
iddianam	4904
sürdürdü	4905
mesela	4906
hürriyet	4907
adliyeye	4908
##lamış	4909
arası	4910
altern	4911
görevl	4912
sıf	4913
sürpriz	4914
51	4915
içi	4916
adamı	4917
turk	4918
hükümeti	4919
tedavisi	4920
girişiminin	4921
çavuşoğlu	4922
eskişehir	4923
dosya	4924
##örü	4925
kendine	4926
yavuz	4927
08	4928
sch	4929
yah	4930
##so	4931
nedir	4932
temin	4933
açıklamalarda	4934
duyg	4935
tanık	4936
brüksel	4937
i̇çişleri	4938
şaşır	4939
çor	4940
##tük	4941
##bini	4942
yardı	4943
gözaltı	4944
150	4945
şampiyonlar	4946
anlamına	4947
cerrah	4948
kimsenin	4949
delil	4950
londra	4951
52	4952
clin	4953
##ata	4954
##ılmasını	4955
işte	4956
akar	4957
kalın	4958
##lerindeki	4959
hastane	4960
arttı	4961
cizre	4962
kapatı	4963
nedeni	4964
teröristler	4965
##ington	4966
coş	4967
zafer	4968
54	4969
##sem	4970
marm	4971
##fone	4972
tasarım	4973
öğretim	4974
döviz	4975
fuar	4976
çiçek	4977
alternatif	4978
clinton	4979
alama	4980
kapan	4981
seb	4982
##i̇k	4983
sevgil	4984
şub	4985
nato	4986
##çiler	4987
aray	4988
bilen	4989
##tanın	4990
sivas	4991
federasyonu	4992
denetim	4993
intihar	4994
##io	4995
##diye	4996
##gh	4997
##ink	4998
##ire	4999
