{
  "version": "1.0",
  "truncation": null,
  "padding": null,
  "added_tokens": [
    {
      "id": 0,
      "content": "[UNK]",
      "single_word": false,
      "lstrip": false,
      "rstrip": false,
      "normalized": false,
      "special": true
    },
    {
      "id": 1,
      "content": "[CLS]",
      "single_word": false,
      "lstrip": false,
      "rstrip": false,
      "normalized": false,
      "special": true
    },
    {
      "id": 2,
      "content": "[SEP]",
      "single_word": false,
      "lstrip": false,
      "rstrip": false,
      "normalized": false,
      "special": true
    },
    {
      "id": 3,
      "content": "[PAD]",
      "single_word": false,
      "lstrip": false,
      "rstrip": false,
      "normalized": false,
      "special": true
    },
    {
      "id": 4,
      "content": "[MASK]",
      "single_word": false,
      "lstrip": false,
      "rstrip": false,
      "normalized": false,
      "special": true
    }
  ],
  "normalizer": {
    "type": "Sequence",
    "normalizers": [
      {
        "type": "NFKC"
      },
      {
        "type": "Lowercase"
      }
    ]
  },
  "pre_tokenizer": {
    "type": "Whitespace"
  },
  "post_processor": null,
  "decoder": {
    "type": "WordPiece",
    "prefix": "##",
    "cleanup": true
  },
  "model": {
    "type": "WordPiece",
    "unk_token": "[UNK]",
    "continuing_subword_prefix": "##",
    "max_input_chars_per_word": 100,
    "vocab": {
      "[UNK]": 0,
      "[CLS]": 1,
      "[SEP]": 2,
      "[PAD]": 3,
      "[MASK]": 4,
      "!": 5,
      "\"": 6,
      "#": 7,
      "$": 8,
      "%": 9,
      "&": 10,
      "'": 11,
      "(": 12,
      ")": 13,
      "*": 14,
      "+": 15,
      ",": 16,
      "-": 17,
      ".": 18,
      "/": 19,
      "0": 20,
      "1": 21,
      "2": 22,
      "3": 23,
      "4": 24,
      "5": 25,
      "6": 26,
      "7": 27,
      "8": 28,
      "9": 29,
      ":": 30,
      ";": 31,
      "=": 32,
      ">": 33,
      "?": 34,
      "@": 35,
      "[": 36,
      "\\": 37,
      "]": 38,
      "^": 39,
      "_": 40,
      "`": 41,
      "a": 42,
      "b": 43,
      "c": 44,
      "d": 45,
      "e": 46,
      "f": 47,
      "g": 48,
      "h": 49,
      "i": 50,
      "j": 51,
      "k": 52,
      "l": 53,
      "m": 54,
      "n": 55,
      "o": 56,
      "p": 57,
      "q": 58,
      "r": 59,
      "s": 60,
      "t": 61,
      "u": 62,
      "v": 63,
      "w": 64,
      "x": 65,
      "y": 66,
      "z": 67,
      "~": 68,
      "": 69,
      "": 70,
      "": 71,
      "": 72,
      "¡": 73,
      "£": 74,
      "¥": 75,
      "¦": 76,
      "¬": 77,
      "­": 78,
      "®": 79,
      "°": 80,
      "·": 81,
      "×": 82,
      "ß": 83,
      "à": 84,
      "á": 85,
      "â": 86,
      "ã": 87,
      "ä": 88,
      "å": 89,
      "æ": 90,
      "ç": 91,
      "è": 92,
      "é": 93,
      "ê": 94,
      "ë": 95,
      "í": 96,
      "î": 97,
      "ï": 98,
      "ñ": 99,
      "ó": 100,
      "ö": 101,
      "ø": 102,
      "ù": 103,
      "ú": 104,
      "û": 105,
      "ü": 106,
      "ć": 107,
      "ē": 108,
      "ğ": 109,
      "ı": 110,
      "ł": 111,
      "ş": 112,
      "ƒ": 113,
      "ə": 114,
      "ˆ": 115,
      "̆": 116,
      "̇": 117,
      "̈": 118,
      "̧": 119,
      "α": 120,
      "μ": 121,
      "а": 122,
      "е": 123,
      "к": 124,
      "л": 125,
      "н": 126,
      "о": 127,
      "п": 128,
      "с": 129,
      "т": 130,
      "у": 131,
      "і": 132,
      "ا": 133,
      "ة": 134,
      "ح": 135,
      "د": 136,
      "ر": 137,
      "س": 138,
      "غ": 139,
      "ق": 140,
      "ل": 141,
      "م": 142,
      "ن": 143,
      "و": 144,
      "ي": 145,
      "‎": 146,
      "‏": 147,
      "•": 148,
      "‫": 149,
      "‬": 150,
      "′": 151,
      "›": 152,
      "⁄": 153,
      "€": 154,
      "∂": 155,
      "■": 156,
      "◊": 157,
      "●": 158,
      "☮": 159,
      "⭐": 160,
      "️": 161,
      "�": 162,
      "🇷": 163,
      "🇹": 164,
      "🏆": 165,
      "🏻": 166,
      "👍": 167,
      "👑": 168,
      "💋": 169,
      "💧": 170,
      "💰": 171,
      "😁": 172,
      "😊": 173,
      "🙏": 174,
      "##a": 175,
      "##v": 176,
      "##i": 177,
      "##l": 178,
      "##ç": 179,
      "##ü": 180,
      "##m": 181,
      "##e": 182,
      "##s": 183,
      "##r": 184,
      "##k": 185,
      "##t": 186,
      "##ğ": 187,
      "##n": 188,
      "##u": 189,
      "##z": 190,
      "##o": 191,
      "##f": 192,
      "##y": 193,
      "##ı": 194,
      "##d": 195,
      "##b": 196,
      "##h": 197,
      "##ö": 198,
      "##ş": 199,
      "##p": 200,
      "##)": 201,
      "##,": 202,
      "##̇": 203,
      "##g": 204,
      "##c": 205,
      "##5": 206,
      "##6": 207,
      "##0": 208,
      "##x": 209,
      "##1": 210,
      "##4": 211,
      "##â": 212,
      "##î": 213,
      "##w": 214,
      "##j": 215,
      "##9": 216,
      "##å": 217,
      "##q": 218,
      "##2": 219,
      "##û": 220,
      "##ə": 221,
      "##(": 222,
      "##3": 223,
      "##'": 224,
      "##8": 225,
      "##7": 226,
      "##é": 227,
      "##í": 228,
      "##_": 229,
      "##.": 230,
      "##-": 231,
      "##ó": 232,
      "##/": 233,
      "##\"": 234,
      "##е": 235,
      "##ß": 236,
      "##👍": 237,
      "##!": 238,
      "###": 239,
      "##&": 240,
      "##ú": 241,
      "##:": 242,
      "##а": 243,
      "##*": 244,
      "##ä": 245,
      "##ˆ": 246,
      "##æ": 247,
      "##ê": 248,
      "##🇷": 249,
      "##🇹": 250,
      "##п": 251,
      "##с": 252,
      "##@": 253,
      "##á": 254,
      "##‫": 255,
      "##ł": 256,
      "##ã": 257,
      "##%": 258,
      "##+": 259,
      "##\\": 260,
      "##�": 261,
      "##à": 262,
      "##­": 263,
      "##è": 264,
      "##;": 265,
      "##?": 266,
      "##ø": 267,
      "##ï": 268,
      "##о": 269,
      "##к": 270,
      "##у": 271,
      "##т": 272,
      "##🏻": 273,
      "##ë": 274,
      "##′": 275,
      "##ć": 276,
      "##💰": 277,
      "##ñ": 278,
      "##و": 279,
      "##غ": 280,
      "##ل": 281,
      "##ي": 282,
      "##د": 283,
      "##ن": 284,
      "##س": 285,
      "##ق": 286,
      "##ة": 287,
      "##ا": 288,
      "##ح": 289,
      "##ر": 290,
      "##م": 291,
      "##ù": 292,
      "##>": 293,
      "##]": 294,
      "##ē": 295,
      "##ar": 296,
      "##er": 297,
      "##an": 298,
      "##in": 299,
      "##ın": 300,
      "##en": 301,
      "##ir": 302,
      "##il": 303,
      "##ak": 304,
      "##al": 305,
      "##de": 306,
      "##le": 307,
      "##la": 308,
      "##lar": 309,
      "##ma": 310,
      "##da": 311,
      "##ek": 312,
      "##iy": 313,
      "##or": 314,
      "##el": 315,
      "##un": 316,
      "##et": 317,
      "##on": 318,
      "##at": 319,
      "##es": 320,
      "##di": 321,
      "##dı": 322,
      "##ur": 323,
      "##ler": 324,
      "de": 325,
      "##as": 326,
      "##ay": 327,
      "ve": 328,
      "bir": 329,
      "##aş": 330,
      "##li": 331,
      "##ıl": 332,
      "##ün": 333,
      "##ık": 334,
      "da": 335,
      "##ür": 336,
      "##iz": 337,
      "##im": 338,
      "ol": 339,
      "##ul": 340,
      "ya": 341,
      "##ik": 342,
      "##ır": 343,
      "##em": 344,
      "##am": 345,
      "##st": 346,
      "##ış": 347,
      "gö": 348,
      "##ey": 349,
      "ar": 350,
      "##ğı": 351,
      "al": 352,
      "bu": 353,
      "##ında": 354,
      "##iş": 355,
      "##den": 356,
      "##dan": 357,
      "##az": 358,
      "##du": 359,
      "##ah": 360,
      "##ını": 361,
      "##ab": 362,
      "##ti": 363,
      "##ya": 364,
      "##ini": 365,
      "yap": 366,
      "##um": 367,
      "i̇": 368,
      "baş": 369,
      "##inde": 370,
      "##tı": 371,
      "##it": 372,
      "##sı": 373,
      "##ol": 374,
      "##esi": 375,
      "##iye": 376,
      "##ok": 377,
      "iç": 378,
      "an": 379,
      "##is": 380,
      "##lı": 381,
      "##ine": 382,
      "##lan": 383,
      "##ec": 384,
      "##ım": 385,
      "kar": 386,
      "ka": 387,
      "##yor": 388,
      "##ği": 389,
      "##ük": 390,
      "##ları": 391,
      "##ına": 392,
      "lar": 393,
      "##leri": 394,
      "sa": 395,
      "in": 396,
      "##iyor": 397,
      "gör": 398,
      "##üz": 399,
      "son": 400,
      "et": 401,
      "##ki": 402,
      "##uş": 403,
      "##ız": 404,
      "##me": 405,
      "##eri": 406,
      "##cak": 407,
      "##ut": 408,
      "kon": 409,
      "##ca": 410,
      "##oğ": 411,
      "tür": 412,
      "##af": 413,
      "ön": 414,
      "##inin": 415,
      "için": 416,
      "##anı": 417,
      "##ev": 418,
      "ile": 419,
      "##ta": 420,
      "bil": 421,
      "ay": 422,
      "##lu": 423,
      "oldu": 424,
      "##te": 425,
      "türk": 426,
      "ne": 427,
      "ler": 428,
      "##ön": 429,
      "##eç": 430,
      "##uz": 431,
      "##ez": 432,
      "ver": 433,
      "##ce": 434,
      "gel": 435,
      "##len": 436,
      "ed": 437,
      "##üm": 438,
      "##alar": 439,
      "##ının": 440,
      "yıl": 441,
      "##ör": 442,
      "##ması": 443,
      "##ından": 444,
      "##lik": 445,
      "en": 446,
      "##dır": 447,
      "aç": 448,
      "##üş": 449,
      "te": 450,
      "##uk": 451,
      "##us": 452,
      "gün": 453,
      "##iler": 454,
      "il": 455,
      "##ra": 456,
      "##se": 457,
      "##yon": 458,
      "##unu": 459,
      "bul": 460,
      "##öy": 461,
      "tar": 462,
      "20": 463,
      "nin": 464,
      "##erek": 465,
      "kal": 466,
      "##cı": 467,
      "or": 468,
      "##ül": 469,
      "##mak": 470,
      "##aki": 471,
      "kur": 472,
      "yar": 473,
      "##om": 474,
      "##laş": 475,
      "türkiye": 476,
      "##op": 477,
      "çık": 478,
      "iş": 479,
      "##ası": 480,
      "##lay": 481,
      "ma": 482,
      "bel": 483,
      "geç": 484,
      "yer": 485,
      "##dir": 486,
      "yaş": 487,
      "değ": 488,
      "ak": 489,
      "##larak": 490,
      "##ildi": 491,
      "sür": 492,
      "##dığı": 493,
      "mil": 494,
      "##lık": 495,
      "olduğ": 496,
      "bü": 497,
      "##man": 498,
      "##mek": 499,
      "kay": 500,
      "##dar": 501,
      "##ha": 502,
      "mü": 503,
      "er": 504,
      "##tan": 505,
      "##bi": 506,
      "çok": 507,
      "##ıyor": 508,
      "dev": 509,
      "##öyle": 510,
      "ın": 511,
      "ter": 512,
      "ist": 513,
      "başk": 514,
      "olarak": 515,
      "gi": 516,
      "##eler": 517,
      "öz": 518,
      "##eni": 519,
      "##tir": 520,
      "##eş": 521,
      "##lama": 522,
      "##ro": 523,
      "çal": 524,
      "gü": 525,
      "##ci": 526,
      "ken": 527,
      "##ların": 528,
      "##zer": 529,
      "##si": 530,
      "##ili": 531,
      "##ılan": 532,
      "##ken": 533,
      "##ağ": 534,
      "olan": 535,
      "par": 536,
      "yön": 537,
      "daha": 538,
      "top": 539,
      "##sa": 540,
      "##iyet": 541,
      "nın": 542,
      "##ede": 543,
      "##aya": 544,
      "##lü": 545,
      "##ğini": 546,
      "çalış": 547,
      "karş": 548,
      "##ru": 549,
      "##cu": 550,
      "kul": 551,
      "##aber": 552,
      "var": 553,
      "##ama": 554,
      "oy": 555,
      "den": 556,
      "bulun": 557,
      "açık": 558,
      "belir": 559,
      "##ğını": 560,
      "li": 561,
      "##alı": 562,
      "##por": 563,
      "dur": 564,
      "ise": 565,
      "sor": 566,
      "##eh": 567,
      "büy": 568,
      "##ada": 569,
      "üzer": 570,
      "bak": 571,
      "##yla": 572,
      "##arı": 573,
      "201": 574,
      "##eye": 575,
      "her": 576,
      "##ilm": 577,
      "##ilen": 578,
      "hal": 579,
      "tek": 580,
      "##iyle": 581,
      "bin": 582,
      "##uşt": 583,
      "##tır": 584,
      "yak": 585,
      "yan": 586,
      "##fa": 587,
      "##mış": 588,
      "##asında": 589,
      "##let": 590,
      "gen": 591,
      "##ecek": 592,
      "##ist": 593,
      "dün": 594,
      "ko": 595,
      "##ece": 596,
      "yüz": 597,
      "hak": 598,
      "##öz": 599,
      "##ih": 600,
      "haber": 601,
      "po": 602,
      "sağ": 603,
      "##ip": 604,
      "##ıs": 605,
      "##üt": 606,
      "##aman": 607,
      "düş": 608,
      "terör": 609,
      "##unda": 610,
      "##diği": 611,
      "##bil": 612,
      "bö": 613,
      "##lk": 614,
      "ki": 615,
      "uy": 616,
      "##av": 617,
      "kiş": 618,
      "yeni": 619,
      "##leş": 620,
      "##lerin": 621,
      "dön": 622,
      "##daki": 623,
      "at": 624,
      "kap": 625,
      "##mas": 626,
      "as": 627,
      "biz": 628,
      "büyük": 629,
      "taraf": 630,
      "ev": 631,
      "sah": 632,
      "on": 633,
      "sonra": 634,
      "ek": 635,
      "gir": 636,
      "##os": 637,
      "kat": 638,
      "##isi": 639,
      "##ğr": 640,
      "kullan": 641,
      "##ap": 642,
      "bun": 643,
      "##eli": 644,
      "has": 645,
      "ger": 646,
      "say": 647,
      "ab": 648,
      "##lam": 649,
      "ama": 650,
      "böl": 651,
      "pro": 652,
      "##lem": 653,
      "##dür": 654,
      "kadar": 655,
      "##tığı": 656,
      "etti": 657,
      "##re": 658,
      "doğ": 659,
      "gerek": 660,
      "..": 661,
      "##be": 662,
      "su": 663,
      "##imiz": 664,
      "gibi": 665,
      "gaz": 666,
      "mu": 667,
      "hay": 668,
      "##der": 669,
      "ola": 670,
      "##dü": 671,
      "karşı": 672,
      "##ılı": 673,
      "##ıldı": 674,
      "ye": 675,
      "##met": 676,
      "belirt": 677,
      "##miş": 678,
      "zaman": 679,
      "do": 680,
      "söyle": 681,
      "uz": 682,
      "ülk": 683,
      "##larını": 684,
      "ör": 685,
      "söz": 686,
      "mer": 687,
      "##ele": 688,
      "bo": 689,
      "##ladı": 690,
      "##maya": 691,
      "##inden": 692,
      "##i̇": 693,
      "##san": 694,
      "sal": 695,
      "dedi": 696,
      "tak": 697,
      "av": 698,
      "el": 699,
      "ben": 700,
      "##arak": 701,
      "##ark": 702,
      "##ğu": 703,
      "##anlı": 704,
      "##est": 705,
      "ad": 706,
      "düz": 707,
      "tr": 708,
      "un": 709,
      "##gi": 710,
      "alt": 711,
      "##asyon": 712,
      "göre": 713,
      "##ans": 714,
      "alın": 715,
      "##eti": 716,
      "poli": 717,
      "tem": 718,
      "##stan": 719,
      "##lerini": 720,
      "der": 721,
      "yol": 722,
      "san": 723,
      "##esinde": 724,
      "göz": 725,
      "cum": 726,
      "##çek": 727,
      "ot": 728,
      "mah": 729,
      "##mesi": 730,
      "##men": 731,
      "10": 732,
      "##kin": 733,
      "ilk": 734,
      "ort": 735,
      "es": 736,
      "##etir": 737,
      "dan": 738,
      "ün": 739,
      "##lara": 740,
      "neden": 741,
      "sav": 742,
      "öğr": 743,
      "getir": 744,
      "##hur": 745,
      "olma": 746,
      "##fade": 747,
      "alan": 748,
      "nde": 749,
      "du": 750,
      "##dım": 751,
      "bur": 752,
      "##ot": 753,
      "##ven": 754,
      "sev": 755,
      "##bul": 756,
      "##acak": 757,
      "maç": 758,
      "olduğunu": 759,
      "tut": 760,
      "ifade": 761,
      "##çe": 762,
      "ser": 763,
      "sır": 764,
      "olduğu": 765,
      "cumhur": 766,
      "özel": 767,
      "ilg": 768,
      "##etim": 769,
      "di": 770,
      "şu": 771,
      "yüzde": 772,
      "##elik": 773,
      "##cağı": 774,
      "##ep": 775,
      "çek": 776,
      "yük": 777,
      "...": 778,
      "yaz": 779,
      "har": 780,
      "##cü": 781,
      "##per": 782,
      "##if": 783,
      "kendi": 784,
      "##tü": 785,
      "kaz": 786,
      "##yi": 787,
      "yapılan": 788,
      "##yan": 789,
      "##tar": 790,
      "ara": 791,
      "şek": 792,
      "ço": 793,
      "gazet": 794,
      "önem": 795,
      "gerçek": 796,
      "##gu": 797,
      "##tr": 798,
      "örg": 799,
      "güven": 800,
      "na": 801,
      "bölg": 802,
      "devam": 803,
      "##malar": 804,
      "değil": 805,
      "##ara": 806,
      "ih": 807,
      "##ındaki": 808,
      "##rup": 809,
      "##lat": 810,
      "örgüt": 811,
      "tarafından": 812,
      "göst": 813,
      "i̇stan": 814,
      "i̇stanbul": 815,
      "##iv": 816,
      "##ımız": 817,
      "##cek": 818,
      "sur": 819,
      "ard": 820,
      "##dik": 821,
      "art": 822,
      "##uştur": 823,
      "##sel": 824,
      "##ran": 825,
      "##ed": 826,
      "##alan": 827,
      "##ter": 828,
      "kad": 829,
      "em": 830,
      "ayr": 831,
      "oyun": 832,
      "diye": 833,
      "ardından": 834,
      "bek": 835,
      "dir": 836,
      "kor": 837,
      "kan": 838,
      "##ğü": 839,
      "şeh": 840,
      "##uyor": 841,
      "##ünü": 842,
      "genel": 843,
      "saldır": 844,
      "saat": 845,
      "önce": 846,
      "abd": 847,
      "##iç": 848,
      "##atı": 849,
      "hav": 850,
      "bağ": 851,
      "düzen": 852,
      "ok": 853,
      "durum": 854,
      "##liği": 855,
      "ta": 856,
      "##tik": 857,
      "başkanı": 858,
      "##ile": 859,
      "##bir": 860,
      "kam": 861,
      "hem": 862,
      "göster": 863,
      "##doğ": 864,
      "##baş": 865,
      "dış": 866,
      "milyon": 867,
      "olay": 868,
      "kurul": 869,
      "ür": 870,
      "##eyi": 871,
      "##ısı": 872,
      "dav": 873,
      "eğ": 874,
      "yok": 875,
      "##id": 876,
      "ilgili": 877,
      "fet": 878,
      "##gün": 879,
      "görev": 880,
      "tan": 881,
      "##una": 882,
      "i̇n": 883,
      "öl": 884,
      "ağ": 885,
      "yet": 886,
      "##alık": 887,
      "15": 888,
      "az": 889,
      "##ünde": 890,
      "ban": 891,
      "eden": 892,
      "##han": 893,
      "iki": 894,
      "karar": 895,
      "is": 896,
      "öğren": 897,
      "##ali": 898,
      "bas": 899,
      "önemli": 900,
      "iz": 901,
      "19": 902,
      "insan": 903,
      "##ıp": 904,
      "se": 905,
      "haz": 906,
      "##uştu": 907,
      "merk": 908,
      "gelen": 909,
      "hat": 910,
      "haf": 911,
      "bulundu": 912,
      "##larda": 913,
      "##dık": 914,
      "cez": 915,
      "ancak": 916,
      "açıklama": 917,
      "aş": 918,
      "##ley": 919,
      "##art": 920,
      "kim": 921,
      "##atan": 922,
      "##usu": 923,
      "arasında": 924,
      "mes": 925,
      "##ıla": 926,
      "##dem": 927,
      "ku": 928,
      "eki": 929,
      "##ileri": 930,
      "polis": 931,
      "dönem": 932,
      "##larının": 933,
      "##leştir": 934,
      "nda": 935,
      "##yı": 936,
      "hayat": 937,
      "haberleri": 938,
      "tarih": 939,
      "2016": 940,
      "dar": 941,
      "##üp": 942,
      "sonu": 943,
      "##oğlu": 944,
      "kö": 945,
      "##cuk": 946,
      "birlik": 947,
      "yay": 948,
      "##unun": 949,
      "##bol": 950,
      "##eleri": 951,
      "##ten": 952,
      "##ram": 953,
      "takım": 954,
      "##dece": 955,
      "##tür": 956,
      "eş": 957,
      "merkez": 958,
      "##sız": 959,
      "tüm": 960,
      "muh": 961,
      "çocuk": 962,
      "değer": 963,
      "iyi": 964,
      "spor": 965,
      "ada": 966,
      "dünya": 967,
      "la": 968,
      "tur": 969,
      "söyledi": 970,
      "ları": 971,
      "oper": 972,
      "devlet": 973,
      "##dığını": 974,
      "##iyas": 975,
      "am": 976,
      "##ika": 977,
      "dem": 978,
      "fark": 979,
      "bugün": 980,
      "##tör": 981,
      "im": 982,
      "##ers": 983,
      "taş": 984,
      "yaptığı": 985,
      "##iniz": 986,
      "dik": 987,
      "##doğan": 988,
      "kı": 989,
      "ayn": 990,
      "##işim": 991,
      "i̇s": 992,
      "duy": 993,
      "##liş": 994,
      "##ne": 995,
      "içinde": 996,
      "##ic": 997,
      "##bilir": 998,
      "zor": 999,
      "hakk": 1000,
      "##det": 1001,
      "##aret": 1002,
      "vur": 1003,
      "etk": 1004,
      "operasyon": 1005,
      "##bak": 1006,
      "sat": 1007,
      "##üs": 1008,
      "yat": 1009,
      "ediyor": 1010,
      "sı": 1011,
      "kom": 1012,
      "üst": 1013,
      "görüş": 1014,
      "baz": 1015,
      "ark": 1016,
      "vatan": 1017,
      "##ad": 1018,
      "güç": 1019,
      "yardım": 1020,
      "##başk": 1021,
      "##eki": 1022,
      "##daş": 1023,
      "geldi": 1024,
      "oyn": 1025,
      "##lah": 1026,
      "##ayı": 1027,
      "erdoğan": 1028,
      "kişi": 1029,
      "müdür": 1030,
      "##ener": 1031,
      "iliş": 1032,
      "rus": 1033,
      "tekn": 1034,
      "müca": 1035,
      "mücade": 1036,
      "##00": 1037,
      "##iyat": 1038,
      "##sun": 1039,
      "##taş": 1040,
      "aynı": 1041,
      "kes": 1042,
      "##enin": 1043,
      "fa": 1044,
      "edildi": 1045,
      "hiç": 1046,
      "##mız": 1047,
      "cumhurbaşk": 1048,
      "##ddi": 1049,
      "şey": 1050,
      "seç": 1051,
      "beş": 1052,
      "çıkar": 1053,
      "şekil": 1054,
      "##izi": 1055,
      "##ğer": 1056,
      "##ira": 1057,
      "##üyor": 1058,
      "##layan": 1059,
      "konuş": 1060,
      "bilg": 1061,
      "ask": 1062,
      "##leme": 1063,
      "##eme": 1064,
      "dak": 1065,
      "kazan": 1066,
      "bulunan": 1067,
      "\".": 1068,
      "faz": 1069,
      "##ket": 1070,
      "avrup": 1071,
      "kır": 1072,
      "konu": 1073,
      "fetö": 1074,
      "si": 1075,
      "lı": 1076,
      "##lendir": 1077,
      "kaç": 1078,
      "##asar": 1079,
      "suriye": 1080,
      "##lere": 1081,
      "##ale": 1082,
      "##larına": 1083,
      "##lerinin": 1084,
      "üzerine": 1085,
      "birlikte": 1086,
      "mo": 1087,
      "dest": 1088,
      "millet": 1089,
      "leri": 1090,
      "##esini": 1091,
      "ey": 1092,
      "nun": 1093,
      "yür": 1094,
      "##meye": 1095,
      "ulaş": 1096,
      "fazla": 1097,
      "##bet": 1098,
      "fut": 1099,
      "##anlığı": 1100,
      "hazır": 1101,
      "harek": 1102,
      "##lerde": 1103,
      "diy": 1104,
      "değiş": 1105,
      "suç": 1106,
      "avrupa": 1107,
      "tes": 1108,
      "verdi": 1109,
      "##ılması": 1110,
      "şekilde": 1111,
      "destek": 1112,
      "futbol": 1113,
      "sil": 1114,
      "yor": 1115,
      "##onom": 1116,
      "##rak": 1117,
      "##ağı": 1118,
      "##esine": 1119,
      "##maz": 1120,
      "ele": 1121,
      "git": 1122,
      "sen": 1123,
      "##ılık": 1124,
      "bey": 1125,
      "mücadele": 1126,
      "##abil": 1127,
      "gazetesi": 1128,
      "##ilmesi": 1129,
      "i̇ş": 1130,
      "başkan": 1131,
      "sist": 1132,
      "ni": 1133,
      "gal": 1134,
      "##ektör": 1135,
      "yönetim": 1136,
      "##tal": 1137,
      "##ayan": 1138,
      "##eyen": 1139,
      "##eceği": 1140,
      "##larında": 1141,
      "yi": 1142,
      "##tık": 1143,
      "diğer": 1144,
      "saldırı": 1145,
      "##ıcı": 1146,
      "##kan": 1147,
      "tama": 1148,
      "##bar": 1149,
      "geçen": 1150,
      "ekonom": 1151,
      "olacak": 1152,
      "##sek": 1153,
      "geçir": 1154,
      "##lerine": 1155,
      "şir": 1156,
      "geliş": 1157,
      "konuştu": 1158,
      "##dur": 1159,
      "##ilerin": 1160,
      "vatandaş": 1161,
      "güvenlik": 1162,
      "bar": 1163,
      "böyle": 1164,
      "olmak": 1165,
      "tele": 1166,
      "yas": 1167,
      "ekip": 1168,
      "gön": 1169,
      "hastan": 1170,
      "kr": 1171,
      "##ba": 1172,
      "ber": 1173,
      "mey": 1174,
      "##ırak": 1175,
      "yaptı": 1176,
      "yaşan": 1177,
      "11": 1178,
      "kadın": 1179,
      "le": 1180,
      "##iyon": 1181,
      "##ahçe": 1182,
      "tab": 1183,
      "kab": 1184,
      "##lerinde": 1185,
      "##kat": 1186,
      "bırak": 1187,
      "##aları": 1188,
      "##oj": 1189,
      "sistem": 1190,
      "sadece": 1191,
      "i̇l": 1192,
      "##üne": 1193,
      "bazı": 1194,
      "##edi": 1195,
      "uç": 1196,
      "##ka": 1197,
      "##itim": 1198,
      "büt": 1199,
      "##siz": 1200,
      "met": 1201,
      "##up": 1202,
      "##lığı": 1203,
      "##fer": 1204,
      "mız": 1205,
      "kız": 1206,
      "##ize": 1207,
      "sık": 1208,
      "##ri": 1209,
      "dikkat": 1210,
      "mahk": 1211,
      "toplan": 1212,
      "can": 1213,
      "##lenen": 1214,
      "##oy": 1215,
      "yaklaş": 1216,
      "##ilik": 1217,
      "12": 1218,
      "mi": 1219,
      "üy": 1220,
      "ayrı": 1221,
      "oğ": 1222,
      "üç": 1223,
      "iddi": 1224,
      "sahip": 1225,
      "bunun": 1226,
      "bab": 1227,
      "##likle": 1228,
      "proj": 1229,
      "nı": 1230,
      "per": 1231,
      "##çi": 1232,
      "##ov": 1233,
      "re": 1234,
      "##lus": 1235,
      "##kk": 1236,
      "##gan": 1237,
      "sağlık": 1238,
      "yüksek": 1239,
      "sonr": 1240,
      "##raf": 1241,
      "ank": 1242,
      "eğitim": 1243,
      "##edef": 1244,
      "genç": 1245,
      "nas": 1246,
      "ik": 1247,
      "sab": 1248,
      "pkk": 1249,
      "hedef": 1250,
      "fener": 1251,
      "##osy": 1252,
      "veya": 1253,
      "##landı": 1254,
      "silah": 1255,
      "ede": 1256,
      "yatır": 1257,
      "tl": 1258,
      "bay": 1259,
      "ankara": 1260,
      "yakın": 1261,
      "orta": 1262,
      "sez": 1263,
      "##alt": 1264,
      "parti": 1265,
      "ortaya": 1266,
      "yapan": 1267,
      "kaps": 1268,
      "30": 1269,
      "kez": 1270,
      "##kü": 1271,
      "siyas": 1272,
      "##usunda": 1273,
      "nedeniyle": 1274,
      "mal": 1275,
      "doğru": 1276,
      "dolar": 1277,
      "##mi": 1278,
      "tah": 1279,
      "man": 1280,
      "##ret": 1281,
      "fenerb": 1282,
      "cumhurbaşkanı": 1283,
      "çıktı": 1284,
      "bele": 1285,
      "üzerinde": 1286,
      "##lanan": 1287,
      "boy": 1288,
      "üzere": 1289,
      "hük": 1290,
      "hava": 1291,
      "ceza": 1292,
      "##ulan": 1293,
      "günü": 1294,
      "sun": 1295,
      "##oloj": 1296,
      "ların": 1297,
      "##olu": 1298,
      "sın": 1299,
      "gol": 1300,
      "şehit": 1301,
      "kend": 1302,
      "olur": 1303,
      "beşik": 1304,
      "hast": 1305,
      "edil": 1306,
      "beled": 1307,
      "kil": 1308,
      "gele": 1309,
      "başbak": 1310,
      "tutuk": 1311,
      "pat": 1312,
      "kas": 1313,
      "beşiktaş": 1314,
      "sok": 1315,
      "##muz": 1316,
      "##ban": 1317,
      "başladı": 1318,
      "edilen": 1319,
      "mar": 1320,
      "rusya": 1321,
      "plan": 1322,
      "##esinin": 1323,
      "##masını": 1324,
      "mahal": 1325,
      "çev": 1326,
      "fenerbahçe": 1327,
      "araç": 1328,
      "##ğimiz": 1329,
      "şim": 1330,
      "##luk": 1331,
      "gerçekleştir": 1332,
      "yle": 1333,
      "isim": 1334,
      "##cel": 1335,
      "200": 1336,
      "pay": 1337,
      "yla": 1338,
      "şirket": 1339,
      "##isinde": 1340,
      "hafta": 1341,
      "galat": 1342,
      "kapsam": 1343,
      "##iyoruz": 1344,
      "##gı": 1345,
      "00": 1346,
      "miz": 1347,
      "##yar": 1348,
      "##lüğü": 1349,
      "##kı": 1350,
      "tamam": 1351,
      "içer": 1352,
      "nasıl": 1353,
      "ch": 1354,
      "##aştır": 1355,
      "mut": 1356,
      "sosy": 1357,
      "kaldır": 1358,
      "##asaray": 1359,
      "galatasaray": 1360,
      "oyuncu": 1361,
      "##ımı": 1362,
      "darbe": 1363,
      "görün": 1364,
      "aldı": 1365,
      "yapıl": 1366,
      "yönelik": 1367,
      "cumhuriyet": 1368,
      "uygu": 1369,
      "bit": 1370,
      "sezon": 1371,
      "uzun": 1372,
      "terörist": 1373,
      "##eci": 1374,
      "##fon": 1375,
      "be": 1376,
      "savaş": 1377,
      "##çı": 1378,
      "##masına": 1379,
      "##ğa": 1380,
      "eski": 1381,
      "##ilmiş": 1382,
      "çalışmalar": 1383,
      "film": 1384,
      "siz": 1385,
      "##spor": 1386,
      "lerin": 1387,
      "##mıştı": 1388,
      "uyg": 1389,
      "düşün": 1390,
      "açıklamada": 1391,
      "daki": 1392,
      "girişim": 1393,
      "##larla": 1394,
      "ağır": 1395,
      "mahalle": 1396,
      "##ge": 1397,
      "##niyet": 1398,
      "##iya": 1399,
      "##acağı": 1400,
      "anlaş": 1401,
      "##imi": 1402,
      "gönder": 1403,
      "##lak": 1404,
      "örgütü": 1405,
      "hep": 1406,
      "men": 1407,
      "bütün": 1408,
      "alman": 1409,
      "bildir": 1410,
      "müz": 1411,
      "paz": 1412,
      "sosyal": 1413,
      "hiz": 1414,
      "yıldır": 1415,
      "yayın": 1416,
      "yatırım": 1417,
      "bizim": 1418,
      "sak": 1419,
      "ah": 1420,
      "##urt": 1421,
      "çağ": 1422,
      "hüküm": 1423,
      "hareket": 1424,
      "süre": 1425,
      "##nak": 1426,
      "kü": 1427,
      "##dav": 1428,
      "ala": 1429,
      "lig": 1430,
      "hakkında": 1431,
      "arkada": 1432,
      "yerine": 1433,
      "##anın": 1434,
      "##iyorum": 1435,
      "ha": 1436,
      "soruştur": 1437,
      "##pr": 1438,
      "iht": 1439,
      "mev": 1440,
      "##okt": 1441,
      "han": 1442,
      "sar": 1443,
      "##lim": 1444,
      "arkadaş": 1445,
      "lira": 1446,
      "değerlendir": 1447,
      "emniyet": 1448,
      "bor": 1449,
      "ulus": 1450,
      "milli": 1451,
      "##ivers": 1452,
      "şöyle": 1453,
      "##gil": 1454,
      "sin": 1455,
      "bunu": 1456,
      "kontr": 1457,
      "mı": 1458,
      "14": 1459,
      "fin": 1460,
      "##iversit": 1461,
      "mem": 1462,
      "mad": 1463,
      "bah": 1464,
      "meh": 1465,
      "25": 1466,
      "kurum": 1467,
      "üniversit": 1468,
      "yen": 1469,
      "lere": 1470,
      "milyar": 1471,
      "##lük": 1472,
      "##gram": 1473,
      "hizmet": 1474,
      "mak": 1475,
      "biri": 1476,
      "16": 1477,
      "##üph": 1478,
      "deki": 1479,
      "med": 1480,
      "##liğ": 1481,
      "##okr": 1482,
      "şüph": 1483,
      "yılında": 1484,
      "bile": 1485,
      "##cağını": 1486,
      "hız": 1487,
      "temmuz": 1488,
      "dır": 1489,
      "##tiği": 1490,
      "başka": 1491,
      "tedav": 1492,
      "##mez": 1493,
      "##laya": 1494,
      "bölüm": 1495,
      "yanı": 1496,
      "ilç": 1497,
      "meydan": 1498,
      "bom": 1499,
      "lan": 1500,
      "##muş": 1501,
      "##lo": 1502,
      "for": 1503,
      "lara": 1504,
      "toplantı": 1505,
      "kendis": 1506,
      "farklı": 1507,
      "cen": 1508,
      "18": 1509,
      "etm": 1510,
      "geri": 1511,
      "##tu": 1512,
      "rah": 1513,
      "kontrol": 1514,
      "güz": 1515,
      "##ğın": 1516,
      "sözcü": 1517,
      "önc": 1518,
      "##teş": 1519,
      "##ıda": 1520,
      "##kinci": 1521,
      "asker": 1522,
      "13": 1523,
      "teş": 1524,
      "halk": 1525,
      "##diğini": 1526,
      "kara": 1527,
      "##din": 1528,
      "işlem": 1529,
      "##duğu": 1530,
      "gözalt": 1531,
      "yı": 1532,
      "kabul": 1533,
      "##rar": 1534,
      "başbakan": 1535,
      "##ılacak": 1536,
      "katıl": 1537,
      "bakan": 1538,
      "yaklaşık": 1539,
      "sınır": 1540,
      "alınan": 1541,
      "##isyon": 1542,
      "mehmet": 1543,
      "okul": 1544,
      "##asına": 1545,
      "din": 1546,
      "yağ": 1547,
      "##van": 1548,
      "##uma": 1549,
      "paylaş": 1550,
      "hes": 1551,
      "##ber": 1552,
      "2015": 1553,
      "##omo": 1554,
      "##ça": 1555,
      "##manın": 1556,
      "17": 1557,
      "##kes": 1558,
      "araştır": 1559,
      "##ye": 1560,
      "olması": 1561,
      "ra": 1562,
      "##las": 1563,
      "yaşındaki": 1564,
      "kür": 1565,
      "##indeki": 1566,
      "##üldü": 1567,
      "tep": 1568,
      "telefon": 1569,
      "larını": 1570,
      "##mayı": 1571,
      "kurulu": 1572,
      "çar": 1573,
      "kül": 1574,
      "savun": 1575,
      "teknik": 1576,
      "ayrıca": 1577,
      "##za": 1578,
      "##vet": 1579,
      "nız": 1580,
      "özellikle": 1581,
      "iti": 1582,
      "##ehir": 1583,
      "##yen": 1584,
      "ail": 1585,
      "gözaltına": 1586,
      "ndan": 1587,
      "burada": 1588,
      "etmek": 1589,
      "bakanı": 1590,
      "konusunda": 1591,
      "geçti": 1592,
      "##ğunu": 1593,
      "grup": 1594,
      "res": 1595,
      "artık": 1596,
      "demokr": 1597,
      "deniz": 1598,
      "adam": 1599,
      "teh": 1600,
      "##tin": 1601,
      "oluştur": 1602,
      "yüksel": 1603,
      "çalışan": 1604,
      "boz": 1605,
      "yine": 1606,
      "ülke": 1607,
      "güzel": 1608,
      "##aj": 1609,
      "ilişkin": 1610,
      "##akip": 1611,
      "),": 1612,
      "kamu": 1613,
      "i̇z": 1614,
      "para": 1615,
      "olduk": 1616,
      "ten": 1617,
      "##bay": 1618,
      "sonuç": 1619,
      "##lum": 1620,
      "##deki": 1621,
      "eng": 1622,
      "um": 1623,
      "##ısında": 1624,
      "fır": 1625,
      "sey": 1626,
      "şah": 1627,
      "##amp": 1628,
      "##oğun": 1629,
      "##ünün": 1630,
      "##oğraf": 1631,
      "##for": 1632,
      "kapsamında": 1633,
      "##can": 1634,
      "hiçbir": 1635,
      "##şam": 1636,
      "##lardan": 1637,
      "##kil": 1638,
      "otomo": 1639,
      "yardımcı": 1640,
      "##bu": 1641,
      "##bat": 1642,
      "program": 1643,
      "##lendi": 1644,
      "benim": 1645,
      "sektör": 1646,
      "dolay": 1647,
      "ülkeler": 1648,
      "çöz": 1649,
      "karşılaş": 1650,
      "##alarında": 1651,
      "##üb": 1652,
      "ateş": 1653,
      "mahkem": 1654,
      "bulunduğu": 1655,
      "rağ": 1656,
      "nden": 1657,
      "pr": 1658,
      "yaşa": 1659,
      "##mişti": 1660,
      "##sin": 1661,
      "bank": 1662,
      "##suz": 1663,
      "çıkan": 1664,
      "##ışma": 1665,
      "##deş": 1666,
      "kısa": 1667,
      "şimdi": 1668,
      "##ıt": 1669,
      "dakika": 1670,
      "satış": 1671,
      "##arası": 1672,
      "tam": 1673,
      "bilir": 1674,
      "birç": 1675,
      "müdürlüğü": 1676,
      "dil": 1677,
      "##ch": 1678,
      "rağmen": 1679,
      "sorun": 1680,
      "fiyat": 1681,
      "kararı": 1682,
      "belirten": 1683,
      "gelir": 1684,
      "tır": 1685,
      "##ver": 1686,
      "kişinin": 1687,
      "##vur": 1688,
      "len": 1689,
      "küç": 1690,
      "ce": 1691,
      "kaybet": 1692,
      "tir": 1693,
      "##ilere": 1694,
      "demir": 1695,
      "tesp": 1696,
      "##yle": 1697,
      "##meler": 1698,
      "##su": 1699,
      "oğlu": 1700,
      "os": 1701,
      "ettiği": 1702,
      "##ırken": 1703,
      "sürdür": 1704,
      "birçok": 1705,
      "sanat": 1706,
      "ait": 1707,
      "mas": 1708,
      "sabah": 1709,
      "##min": 1710,
      "##ladığı": 1711,
      "##eceğini": 1712,
      "##vek": 1713,
      "ziy": 1714,
      "##ledi": 1715,
      "öldür": 1716,
      "beklen": 1717,
      "siv": 1718,
      "pazar": 1719,
      "fak": 1720,
      "lerini": 1721,
      "dakik": 1722,
      "##net": 1723,
      "##ümüz": 1724,
      "##ülen": 1725,
      "ham": 1726,
      "sarı": 1727,
      "tanı": 1728,
      "##tep": 1729,
      "ali": 1730,
      "kalk": 1731,
      "st": 1732,
      "pu": 1733,
      "fot": 1734,
      "aldığı": 1735,
      "başar": 1736,
      "konusu": 1737,
      "##sil": 1738,
      "istedi": 1739,
      "başvur": 1740,
      "mahallesi": 1741,
      "gül": 1742,
      "çün": 1743,
      "oluş": 1744,
      "çünkü": 1745,
      "soru": 1746,
      "bağlı": 1747,
      "##yas": 1748,
      "##ınız": 1749,
      "yaşam": 1750,
      "koy": 1751,
      "##br": 1752,
      "##laması": 1753,
      "kav": 1754,
      "eur": 1755,
      "##ulu": 1756,
      "ses": 1757,
      "kardeş": 1758,
      "##ılığı": 1759,
      "kaynak": 1760,
      "yeniden": 1761,
      "##leyen": 1762,
      "##alet": 1763,
      "mec": 1764,
      "##ayet": 1765,
      "sü": 1766,
      "50": 1767,
      "cam": 1768,
      "dile": 1769,
      "başlat": 1770,
      "dr": 1771,
      "##ğında": 1772,
      "toplam": 1773,
      "altında": 1774,
      "hey": 1775,
      "taşı": 1776,
      "ikinci": 1777,
      "##afa": 1778,
      "yaralan": 1779,
      "##umlu": 1780,
      "anlat": 1781,
      "yürüt": 1782,
      "kah": 1783,
      "herkes": 1784,
      "##hal": 1785,
      "tük": 1786,
      "bakanlığı": 1787,
      "anla": 1788,
      "##tiğini": 1789,
      "hükümet": 1790,
      "uluslar": 1791,
      "tespit": 1792,
      "engel": 1793,
      "##ob": 1794,
      "kuv": 1795,
      "##zon": 1796,
      "yönet": 1797,
      "ortak": 1798,
      "yıldırım": 1799,
      "##ari": 1800,
      "ince": 1801,
      "ho": 1802,
      "öğrenc": 1803,
      "tart": 1804,
      "##pan": 1805,
      "lik": 1806,
      "tat": 1807,
      "cev": 1808,
      "dair": 1809,
      "beraber": 1810,
      "medya": 1811,
      "zar": 1812,
      "##ğin": 1813,
      "his": 1814,
      "yurt": 1815,
      "##ga": 1816,
      "i̇ngil": 1817,
      "##ji": 1818,
      "alındı": 1819,
      "kültür": 1820,
      "uluslararası": 1821,
      "##unuyor": 1822,
      "##sal": 1823,
      "##ent": 1824,
      "##ült": 1825,
      "çalışma": 1826,
      "gru": 1827,
      "ihtiya": 1828,
      "sebe": 1829,
      "trab": 1830,
      "kit": 1831,
      "kent": 1832,
      "so": 1833,
      "##lek": 1834,
      "fran": 1835,
      "tal": 1836,
      "##ğe": 1837,
      "şamp": 1838,
      "must": 1839,
      "##istan": 1840,
      "fotoğraf": 1841,
      "dönüş": 1842,
      "küçük": 1843,
      "trabzon": 1844,
      "yoğun": 1845,
      "ener": 1846,
      "basın": 1847,
      "ilişk": 1848,
      "mustafa": 1849,
      "huk": 1850,
      "##asını": 1851,
      "toplum": 1852,
      "mağ": 1853,
      "mek": 1854,
      "nün": 1855,
      "##lin": 1856,
      "eder": 1857,
      "itibar": 1858,
      "##alarda": 1859,
      "fir": 1860,
      "kem": 1861,
      "şampiyon": 1862,
      "##ayas": 1863,
      "bilin": 1864,
      "köy": 1865,
      "sokak": 1866,
      "anayas": 1867,
      "seçim": 1868,
      "anlam": 1869,
      "veren": 1870,
      "tör": 1871,
      "##mir": 1872,
      "lerden": 1873,
      "##etic": 1874,
      "akşam": 1875,
      "sıra": 1876,
      "i̇lk": 1877,
      "rahat": 1878,
      "##ullah": 1879,
      "yaşanan": 1880,
      "##medi": 1881,
      "##masının": 1882,
      "kullandı": 1883,
      "euro": 1884,
      "hale": 1885,
      "kuvvet": 1886,
      "söy": 1887,
      "##talya": 1888,
      "24": 1889,
      "##ışı": 1890,
      "chp": 1891,
      "ocak": 1892,
      "sel": 1893,
      "ac": 1894,
      "mart": 1895,
      "##ğına": 1896,
      "trans": 1897,
      "22": 1898,
      "leş": 1899,
      "soruşturma": 1900,
      "yani": 1901,
      "af": 1902,
      "##ğiz": 1903,
      "##şa": 1904,
      "özg": 1905,
      "##lerinden": 1906,
      "##yanın": 1907,
      "üzerinden": 1908,
      "oran": 1909,
      "sonrası": 1910,
      "içerisinde": 1911,
      "ziyaret": 1912,
      "cin": 1913,
      "##eb": 1914,
      "##sü": 1915,
      "21": 1916,
      "milletvek": 1917,
      "##aliyet": 1918,
      "##larından": 1919,
      "##gin": 1920,
      "fat": 1921,
      "##dül": 1922,
      "futbolcu": 1923,
      "vurgu": 1924,
      "ahmet": 1925,
      "ip": 1926,
      "puan": 1927,
      "çif": 1928,
      "belirtildi": 1929,
      "mez": 1930,
      "kuz": 1931,
      "##ıldığı": 1932,
      "şekl": 1933,
      "dı": 1934,
      "anda": 1935,
      "100": 1936,
      "##tif": 1937,
      "teknoloj": 1938,
      "kurt": 1939,
      "gök": 1940,
      "kıs": 1941,
      "madde": 1942,
      "##emiz": 1943,
      "komut": 1944,
      "##unca": 1945,
      "beyaz": 1946,
      "aralık": 1947,
      "sahi": 1948,
      "şubat": 1949,
      "##iyi": 1950,
      "##lerle": 1951,
      "hol": 1952,
      "##mekte": 1953,
      "##abilir": 1954,
      "rek": 1955,
      "##işleri": 1956,
      "yapıyor": 1957,
      "almanya": 1958,
      "otomobil": 1959,
      "meydana": 1960,
      "adım": 1961,
      "kayde": 1962,
      "##ğünü": 1963,
      "ann": 1964,
      "çat": 1965,
      "amer": 1966,
      "faaliyet": 1967,
      "yem": 1968,
      "##yu": 1969,
      "##dız": 1970,
      "larının": 1971,
      "gelecek": 1972,
      "kork": 1973,
      "otur": 1974,
      "artır": 1975,
      "öde": 1976,
      "##malı": 1977,
      "##ck": 1978,
      "##tiv": 1979,
      "götür": 1980,
      "hatır": 1981,
      "temsil": 1982,
      "görüntü": 1983,
      "yıldız": 1984,
      "belirtti": 1985,
      "##siniz": 1986,
      "eylem": 1987,
      "edecek": 1988,
      "piyas": 1989,
      "##ince": 1990,
      "##na": 1991,
      "verdiği": 1992,
      "tic": 1993,
      "dah": 1994,
      "##lıyor": 1995,
      "buna": 1996,
      "mecli": 1997,
      "mesaj": 1998,
      "başarı": 1999,
      "kol": 2000,
      "bilgi": 2001,
      "##cılık": 2002,
      "lerle": 2003,
      "osman": 2004,
      "emek": 2005,
      "gerçekleş": 2006,
      "elek": 2007,
      "çevr": 2008,
      "politik": 2009,
      "niz": 2010,
      "##alama": 2011,
      "çocu": 2012,
      "dol": 2013,
      "vak": 2014,
      "lardan": 2015,
      "kalan": 2016,
      "müda": 2017,
      "müs": 2018,
      "yakalan": 2019,
      "onun": 2020,
      "##sında": 2021,
      "##ıntı": 2022,
      "ekonomi": 2023,
      "##uldu": 2024,
      "hayatını": 2025,
      "prof": 2026,
      "ürün": 2027,
      "siyasi": 2028,
      "rapor": 2029,
      "may": 2030,
      "merkezi": 2031,
      "kre": 2032,
      "belediye": 2033,
      "belirterek": 2034,
      "askeri": 2035,
      "##anıyor": 2036,
      "uzak": 2037,
      "yal": 2038,
      "##ef": 2039,
      "##esiyle": 2040,
      "bölgede": 2041,
      "ekipleri": 2042,
      "elektr": 2043,
      "##madı": 2044,
      "verildi": 2045,
      "dö": 2046,
      "##isini": 2047,
      "tay": 2048,
      "ödül": 2049,
      "lerinin": 2050,
      "nokt": 2051,
      "larına": 2052,
      "kup": 2053,
      "##amaz": 2054,
      "belediy": 2055,
      "erk": 2056,
      "##dın": 2057,
      "##ort": 2058,
      "40": 2059,
      "organ": 2060,
      "düzenlenen": 2061,
      "mark": 2062,
      "kut": 2063,
      "üretim": 2064,
      "güncel": 2065,
      "gece": 2066,
      "23": 2067,
      "br": 2068,
      "sırasında": 2069,
      "hukuk": 2070,
      "larımız": 2071,
      "lir": 2072,
      "oluyor": 2073,
      "i̇zmir": 2074,
      "##üc": 2075,
      "larla": 2076,
      "dok": 2077,
      "##enk": 2078,
      "##tem": 2079,
      "kesin": 2080,
      "yorum": 2081,
      "kaydet": 2082,
      "bal": 2083,
      "üniversitesi": 2084,
      "ünlü": 2085,
      "kir": 2086,
      "sonucu": 2087,
      "bes": 2088,
      "##siyon": 2089,
      "üc": 2090,
      "##ii": 2091,
      "ora": 2092,
      "devr": 2093,
      "olsun": 2094,
      "öncek": 2095,
      "önceki": 2096,
      "##esel": 2097,
      "kapat": 2098,
      "##dikleri": 2099,
      "takip": 2100,
      "ana": 2101,
      "bana": 2102,
      "dünyanın": 2103,
      "yapılacak": 2104,
      "aktar": 2105,
      "yetkil": 2106,
      "aday": 2107,
      "yapı": 2108,
      "##endi": 2109,
      "##may": 2110,
      "çeş": 2111,
      "inter": 2112,
      "sevk": 2113,
      "ner": 2114,
      "##şehir": 2115,
      "ayında": 2116,
      "sig": 2117,
      "##mı": 2118,
      "yapmak": 2119,
      "yaptık": 2120,
      "##ing": 2121,
      "mus": 2122,
      "boş": 2123,
      "##ğinde": 2124,
      "uçak": 2125,
      "alıyor": 2126,
      "indir": 2127,
      "tav": 2128,
      "değişik": 2129,
      "diyor": 2130,
      "sivil": 2131,
      "tu": 2132,
      "adı": 2133,
      "dönemde": 2134,
      "açıl": 2135,
      "##mer": 2136,
      "##asındaki": 2137,
      "yıllık": 2138,
      "gerekiyor": 2139,
      "kırmız": 2140,
      "yaban": 2141,
      "sına": 2142,
      "##ala": 2143,
      "##düğü": 2144,
      "gec": 2145,
      "##oz": 2146,
      "istem": 2147,
      "şehir": 2148,
      "allah": 2149,
      "##kün": 2150,
      "gid": 2151,
      "şun": 2152,
      "taraftar": 2153,
      "me": 2154,
      "altın": 2155,
      "##bek": 2156,
      "des": 2157,
      "##iliyor": 2158,
      "dör": 2159,
      "direktör": 2160,
      "yapıldı": 2161,
      "öğrenildi": 2162,
      "hen": 2163,
      "enerji": 2164,
      "ölüm": 2165,
      "##uluk": 2166,
      "##gın": 2167,
      "üret": 2168,
      "cid": 2169,
      "diz": 2170,
      "güney": 2171,
      "sam": 2172,
      "##sik": 2173,
      "laz": 2174,
      "##og": 2175,
      "kulüb": 2176,
      "##abı": 2177,
      "lider": 2178,
      "i̇ç": 2179,
      "kılı": 2180,
      "##ğim": 2181,
      "traf": 2182,
      "olabilir": 2183,
      "lu": 2184,
      "##üf": 2185,
      "##lerden": 2186,
      "kaydetti": 2187,
      "duyur": 2188,
      "jan": 2189,
      "yandan": 2190,
      "##ücü": 2191,
      "##ünden": 2192,
      "geliyor": 2193,
      "##dıkları": 2194,
      "sit": 2195,
      "giy": 2196,
      "şeklinde": 2197,
      "val": 2198,
      "yana": 2199,
      "##layacak": 2200,
      "sırada": 2201,
      "ihra": 2202,
      "gündem": 2203,
      "tekrar": 2204,
      "##eği": 2205,
      "##do": 2206,
      "özgür": 2207,
      "ederek": 2208,
      "hemen": 2209,
      "irak": 2210,
      "##lif": 2211,
      "müm": 2212,
      "ül": 2213,
      "ris": 2214,
      "büyü": 2215,
      "##ici": 2216,
      "##altı": 2217,
      "##ade": 2218,
      "##ilecek": 2219,
      "sahibi": 2220,
      "altına": 2221,
      "##larımız": 2222,
      "##etr": 2223,
      "demokras": 2224,
      "hap": 2225,
      "gazi": 2226,
      "transfer": 2227,
      "serb": 2228,
      "##umuz": 2229,
      "##aların": 2230,
      "it": 2231,
      "ob": 2232,
      "değiştir": 2233,
      "##ünüyor": 2234,
      "kasım": 2235,
      "biliyor": 2236,
      "üz": 2237,
      "##müş": 2238,
      "önünde": 2239,
      "uzman": 2240,
      "günde": 2241,
      "isteyen": 2242,
      "kons": 2243,
      "mode": 2244,
      "tedavi": 2245,
      "##dy": 2246,
      "düny": 2247,
      "##ova": 2248,
      "çiz": 2249,
      "pek": 2250,
      "##dak": 2251,
      "##cih": 2252,
      "aydın": 2253,
      "##mal": 2254,
      "##lamak": 2255,
      "seviy": 2256,
      "yabancı": 2257,
      "yu": 2258,
      "çarp": 2259,
      "bulunuyor": 2260,
      "kolay": 2261,
      "giriş": 2262,
      "tercih": 2263,
      "28": 2264,
      "##ve": 2265,
      "ru": 2266,
      "geliştir": 2267,
      "th": 2268,
      "sol": 2269,
      "yaralı": 2270,
      "##ılma": 2271,
      "ettik": 2272,
      "##ılıyor": 2273,
      "i̇st": 2274,
      "kötü": 2275,
      "iddia": 2276,
      "resmi": 2277,
      "bize": 2278,
      "arac": 2279,
      "##isinin": 2280,
      "kuruluş": 2281,
      "uygulama": 2282,
      "erkek": 2283,
      "ker": 2284,
      "kadro": 2285,
      "aile": 2286,
      "darb": 2287,
      "##viz": 2288,
      "kaldı": 2289,
      "araştırma": 2290,
      "inan": 2291,
      "mümkün": 2292,
      "koş": 2293,
      "şid": 2294,
      "ayak": 2295,
      "##fet": 2296,
      "ila": 2297,
      "##üsü": 2298,
      "kuzey": 2299,
      "serbest": 2300,
      "adet": 2301,
      "tartış": 2302,
      "##irken": 2303,
      "##ılmış": 2304,
      "trabzonspor": 2305,
      "yardımcısı": 2306,
      "zarar": 2307,
      "öğret": 2308,
      "yav": 2309,
      "tarihi": 2310,
      "müdürü": 2311,
      "dakikada": 2312,
      "süper": 2313,
      "##yip": 2314,
      "##aşa": 2315,
      "##ton": 2316,
      "talep": 2317,
      "savunma": 2318,
      "##ide": 2319,
      "##ğine": 2320,
      "##mar": 2321,
      "yargı": 2322,
      "uygulan": 2323,
      "şunları": 2324,
      "birliği": 2325,
      "artış": 2326,
      "izin": 2327,
      "çağr": 2328,
      "uygun": 2329,
      "kılıç": 2330,
      "hesap": 2331,
      "##sat": 2332,
      "eğer": 2333,
      "nis": 2334,
      "yılmaz": 2335,
      "##ekli": 2336,
      "##ilerine": 2337,
      "##ump": 2338,
      "rak": 2339,
      "##manı": 2340,
      "##duk": 2341,
      "##tığını": 2342,
      "şark": 2343,
      "##liyor": 2344,
      "diyar": 2345,
      "birbir": 2346,
      "sayısı": 2347,
      "tören": 2348,
      "i̇şte": 2349,
      "##elerin": 2350,
      "dışında": 2351,
      "cenaz": 2352,
      "##sta": 2353,
      "güneş": 2354,
      "gülen": 2355,
      "##izm": 2356,
      "halinde": 2357,
      "zamanda": 2358,
      "ücret": 2359,
      "##tadır": 2360,
      "##osu": 2361,
      "acı": 2362,
      "etkin": 2363,
      "kredi": 2364,
      "oku": 2365,
      "don": 2366,
      "uğ": 2367,
      "davut": 2368,
      "silahlı": 2369,
      "tehdi": 2370,
      "cih": 2371,
      "##undan": 2372,
      "belg": 2373,
      "##mesini": 2374,
      "ordu": 2375,
      "bağlan": 2376,
      "faiz": 2377,
      "ap": 2378,
      "##ınca": 2379,
      "##lediği": 2380,
      "çin": 2381,
      "sayıda": 2382,
      "avuk": 2383,
      "anayasa": 2384,
      "##çesi": 2385,
      "##meyi": 2386,
      "ro": 2387,
      "açıklam": 2388,
      "##maları": 2389,
      "üyesi": 2390,
      "internet": 2391,
      "mur": 2392,
      "kurtar": 2393,
      "##bakır": 2394,
      "çift": 2395,
      "##alim": 2396,
      "iste": 2397,
      "mik": 2398,
      "hakem": 2399,
      "teklif": 2400,
      "parç": 2401,
      "diyarbakır": 2402,
      "siyaset": 2403,
      "27": 2404,
      "gereken": 2405,
      "nor": 2406,
      "##mat": 2407,
      "gez": 2408,
      "##adde": 2409,
      "##lerce": 2410,
      "26": 2411,
      "##iyatı": 2412,
      "##asının": 2413,
      "##eyin": 2414,
      "ligi": 2415,
      "ciddi": 2416,
      "onu": 2417,
      "eleştir": 2418,
      "öne": 2419,
      "amacı": 2420,
      "olmadığını": 2421,
      "##nek": 2422,
      "##iliği": 2423,
      "çeşit": 2424,
      "ef": 2425,
      "fi": 2426,
      "##ırı": 2427,
      "part": 2428,
      "başına": 2429,
      "##meden": 2430,
      "bat": 2431,
      "lık": 2432,
      "hastalık": 2433,
      "başlayan": 2434,
      "haft": 2435,
      "##imizin": 2436,
      "göç": 2437,
      "yaşayan": 2438,
      "tasar": 2439,
      "anad": 2440,
      "mült": 2441,
      "yanında": 2442,
      "güçlü": 2443,
      "şart": 2444,
      "##ola": 2445,
      "şüphel": 2446,
      "##biyet": 2447,
      "anadolu": 2448,
      "cadde": 2449,
      "net": 2450,
      "eşi": 2451,
      "bölge": 2452,
      "öyle": 2453,
      "##tım": 2454,
      "karak": 2455,
      "yun": 2456,
      "alış": 2457,
      "##kenin": 2458,
      "vardı": 2459,
      "##lacak": 2460,
      "olmaya": 2461,
      "davutoğlu": 2462,
      "beni": 2463,
      "2014": 2464,
      "##sk": 2465,
      "i̇ran": 2466,
      "anne": 2467,
      "edece": 2468,
      "zat": 2469,
      "##dük": 2470,
      "##aba": 2471,
      "açıkladı": 2472,
      "pan": 2473,
      "##hangi": 2474,
      "koç": 2475,
      "lis": 2476,
      "pers": 2477,
      "gerektiğini": 2478,
      "##mem": 2479,
      "larından": 2480,
      "herhangi": 2481,
      "sem": 2482,
      "oda": 2483,
      "dep": 2484,
      "##cat": 2485,
      "jandar": 2486,
      "asl": 2487,
      "sınav": 2488,
      "##sini": 2489,
      "##ilerinin": 2490,
      "elde": 2491,
      "durumda": 2492,
      "ülkenin": 2493,
      "gür": 2494,
      "500": 2495,
      "olmayan": 2496,
      "##var": 2497,
      "##of": 2498,
      "boyunca": 2499,
      "itibaren": 2500,
      "belli": 2501,
      "durumu": 2502,
      "grubu": 2503,
      "adına": 2504,
      "##elim": 2505,
      "antalya": 2506,
      "sürec": 2507,
      "sistemi": 2508,
      "hakim": 2509,
      "##bilecek": 2510,
      "finans": 2511,
      "bomb": 2512,
      "##rek": 2513,
      "yolu": 2514,
      "temsilc": 2515,
      "şik": 2516,
      "fik": 2517,
      "29": 2518,
      "duruş": 2519,
      "etkis": 2520,
      "dolayı": 2521,
      "##lül": 2522,
      "hastanesi": 2523,
      "nisan": 2524,
      "onlar": 2525,
      "sanay": 2526,
      "##atür": 2527,
      "çözüm": 2528,
      "ifadelerini": 2529,
      "gider": 2530,
      "söyleyen": 2531,
      "199": 2532,
      "##elere": 2533,
      "##yd": 2534,
      "kaf": 2535,
      "elektrik": 2536,
      "deste": 2537,
      "edin": 2538,
      "kans": 2539,
      "bunlar": 2540,
      "of": 2541,
      "temel": 2542,
      "hd": 2543,
      "kuru": 2544,
      "45": 2545,
      "sp": 2546,
      "giz": 2547,
      "başında": 2548,
      "adlı": 2549,
      "##diklerini": 2550,
      "##üncü": 2551,
      "konut": 2552,
      "##ilerini": 2553,
      "geniş": 2554,
      "aşk": 2555,
      "ekonomik": 2556,
      "baba": 2557,
      "yarış": 2558,
      "bomba": 2559,
      "inşa": 2560,
      "verilen": 2561,
      "##ısından": 2562,
      "düştü": 2563,
      "karış": 2564,
      "yılın": 2565,
      "gazetec": 2566,
      "şiddet": 2567,
      "35": 2568,
      "temiz": 2569,
      "##dek": 2570,
      "bundan": 2571,
      "num": 2572,
      "sonunda": 2573,
      "lerinden": 2574,
      "kamer": 2575,
      "taz": 2576,
      "boğ": 2577,
      "fe": 2578,
      "##ni": 2579,
      "görül": 2580,
      "akıl": 2581,
      "köpr": 2582,
      "##larıyla": 2583,
      "dört": 2584,
      "sul": 2585,
      "##landır": 2586,
      "rece": 2587,
      "sözleş": 2588,
      "dışişleri": 2589,
      "hatta": 2590,
      "çalışıyor": 2591,
      "araya": 2592,
      "##ısıyla": 2593,
      "tepki": 2594,
      "kayded": 2595,
      "alma": 2596,
      "geçmiş": 2597,
      "süreç": 2598,
      "##sın": 2599,
      "arasındaki": 2600,
      "zaten": 2601,
      "atan": 2602,
      "kayıt": 2603,
      "milletvekili": 2604,
      "person": 2605,
      "##taj": 2606,
      "getirdi": 2607,
      "bilim": 2608,
      "adan": 2609,
      "i̇ki": 2610,
      "oynan": 2611,
      "müş": 2612,
      "##arken": 2613,
      "havalim": 2614,
      "##lanması": 2615,
      "teslim": 2616,
      "barış": 2617,
      "tayyip": 2618,
      "jandarma": 2619,
      "recep": 2620,
      "##ildiği": 2621,
      "ülkede": 2622,
      "i̇slam": 2623,
      "pen": 2624,
      "tale": 2625,
      "yeş": 2626,
      "almak": 2627,
      "zorunda": 2628,
      "nit": 2629,
      "sını": 2630,
      "düşünüyor": 2631,
      "yarat": 2632,
      "##ısına": 2633,
      "##tim": 2634,
      "##diler": 2635,
      "canlı": 2636,
      "sek": 2637,
      "istiyor": 2638,
      "rol": 2639,
      "soy": 2640,
      "van": 2641,
      "##inci": 2642,
      "##esinden": 2643,
      "##tıyor": 2644,
      "kart": 2645,
      "doğal": 2646,
      "kuş": 2647,
      "ri": 2648,
      "##tere": 2649,
      "dal": 2650,
      "##leriyle": 2651,
      "##üman": 2652,
      "henüz": 2653,
      "koru": 2654,
      "alacak": 2655,
      "##mektedir": 2656,
      "cevap": 2657,
      "mutlu": 2658,
      "poz": 2659,
      "sonrasında": 2660,
      "konuda": 2661,
      "batı": 2662,
      "fu": 2663,
      "##sas": 2664,
      "unut": 2665,
      "##lemek": 2666,
      "başarılı": 2667,
      "istih": 2668,
      "yemek": 2669,
      "go": 2670,
      "tec": 2671,
      "##kur": 2672,
      "##oktor": 2673,
      "doktor": 2674,
      "günlük": 2675,
      "##eg": 2676,
      "geçtiğimiz": 2677,
      "memur": 2678,
      "yeter": 2679,
      "karşısında": 2680,
      "komisyon": 2681,
      "##dim": 2682,
      "yılda": 2683,
      "kilo": 2684,
      "ekim": 2685,
      "##cağız": 2686,
      "fakat": 2687,
      "str": 2688,
      "dışı": 2689,
      "mayıs": 2690,
      "##ıyla": 2691,
      "risk": 2692,
      "list": 2693,
      "murat": 2694,
      "##sine": 2695,
      "saatlerinde": 2696,
      "hızlı": 2697,
      "pas": 2698,
      "öte": 2699,
      "hdp": 2700,
      "ileri": 2701,
      "pyd": 2702,
      "##miyor": 2703,
      "##diş": 2704,
      "lazım": 2705,
      "edilm": 2706,
      "i̇nsan": 2707,
      "kemal": 2708,
      "katıldı": 2709,
      "kriz": 2710,
      "##abet": 2711,
      "yılı": 2712,
      "arama": 2713,
      "yöntem": 2714,
      "mahkeme": 2715,
      "##lilik": 2716,
      "##elerde": 2717,
      "##i̇d": 2718,
      "kürt": 2719,
      "##ku": 2720,
      "##gaz": 2721,
      "kendisine": 2722,
      "meclis": 2723,
      "kulüp": 2724,
      "##kaç": 2725,
      "60": 2726,
      "##iyeti": 2727,
      "ettiğini": 2728,
      "##birliği": 2729,
      "banka": 2730,
      "gali": 2731,
      "yarın": 2732,
      "oyunc": 2733,
      "tehdit": 2734,
      "nok": 2735,
      "tehlik": 2736,
      "dağı": 2737,
      "otob": 2738,
      "nedenle": 2739,
      "savcı": 2740,
      "doğu": 2741,
      "fay": 2742,
      "yık": 2743,
      "##üst": 2744,
      "i̇ngiltere": 2745,
      "zir": 2746,
      "##antep": 2747,
      "dahil": 2748,
      "yapma": 2749,
      "gördü": 2750,
      "##leti": 2751,
      "model": 2752,
      "##atürk": 2753,
      "ülkemiz": 2754,
      "başkanlık": 2755,
      "rej": 2756,
      "ilçesinde": 2757,
      "şen": 2758,
      "##fi": 2759,
      "biraz": 2760,
      "trump": 2761,
      "ata": 2762,
      "##luğu": 2763,
      "hangi": 2764,
      "##ağa": 2765,
      "atatürk": 2766,
      "##mıştır": 2767,
      "jo": 2768,
      "haberler": 2769,
      "sığın": 2770,
      "kitap": 2771,
      "##eyecek": 2772,
      "yapacak": 2773,
      "başta": 2774,
      "##lenmesi": 2775,
      "##artesi": 2776,
      "oyna": 2777,
      "##yız": 2778,
      "##lanma": 2779,
      "düşür": 2780,
      "yürü": 2781,
      "orada": 2782,
      "öğretmen": 2783,
      "##şı": 2784,
      "bizi": 2785,
      "##ate": 2786,
      "aralarında": 2787,
      "gelece": 2788,
      "maçında": 2789,
      "tesi": 2790,
      "sürekli": 2791,
      "yeşil": 2792,
      "fer": 2793,
      "birkaç": 2794,
      "öner": 2795,
      "##neği": 2796,
      "##ansı": 2797,
      "##başı": 2798,
      "bayram": 2799,
      "ces": 2800,
      "ticaret": 2801,
      "sine": 2802,
      "fatih": 2803,
      "çan": 2804,
      "##imize": 2805,
      "##asyonu": 2806,
      "imza": 2807,
      "mot": 2808,
      "giden": 2809,
      "yıllar": 2810,
      "suriy": 2811,
      "tw": 2812,
      "durdur": 2813,
      "kaybe": 2814,
      "sorum": 2815,
      "##imizi": 2816,
      "eylül": 2817,
      "##ulması": 2818,
      "maçı": 2819,
      "amaç": 2820,
      "perfor": 2821,
      "##ğının": 2822,
      "ton": 2823,
      "arada": 2824,
      "##ahim": 2825,
      "işi̇d": 2826,
      "ediliyor": 2827,
      "uğr": 2828,
      "##dam": 2829,
      "tarihinde": 2830,
      "gaziantep": 2831,
      "performan": 2832,
      "dayan": 2833,
      "petr": 2834,
      "##lüyor": 2835,
      "yansı": 2836,
      "aslında": 2837,
      "düşük": 2838,
      "çeşitli": 2839,
      "cep": 2840,
      "##adan": 2841,
      "açı": 2842,
      "katkı": 2843,
      "arab": 2844,
      "işaret": 2845,
      "benz": 2846,
      "sıcak": 2847,
      "daeş": 2848,
      "aylık": 2849,
      "##lenme": 2850,
      "bilgiye": 2851,
      "sürücü": 2852,
      "fransa": 2853,
      "çer": 2854,
      "##isine": 2855,
      "##tay": 2856,
      "dü": 2857,
      "##tidar": 2858,
      "görüyor": 2859,
      "bağı": 2860,
      "##ğun": 2861,
      "##liğini": 2862,
      "adalet": 2863,
      "amacıyla": 2864,
      "edi": 2865,
      "##va": 2866,
      "##ebilir": 2867,
      "maçta": 2868,
      "serv": 2869,
      "##ast": 2870,
      "türlü": 2871,
      "sert": 2872,
      "civ": 2873,
      "düzey": 2874,
      "derece": 2875,
      "yanıt": 2876,
      "yanl": 2877,
      "dünyada": 2878,
      ".,": 2879,
      "dk": 2880,
      "sayı": 2881,
      "def": 2882,
      "edilmiş": 2883,
      "##liy": 2884,
      "getiren": 2885,
      "kişiler": 2886,
      "mahkemesi": 2887,
      "##ke": 2888,
      "şüpheli": 2889,
      "##dum": 2890,
      "ağr": 2891,
      "ilet": 2892,
      "salon": 2893,
      "90": 2894,
      "min": 2895,
      "##ısını": 2896,
      "petrol": 2897,
      "yanlış": 2898,
      "31": 2899,
      "sene": 2900,
      "bildirildi": 2901,
      "başvuru": 2902,
      "tor": 2903,
      "dava": 2904,
      "demokrat": 2905,
      "##masında": 2906,
      "galibiyet": 2907,
      "sız": 2908,
      "i̇lçesi": 2909,
      "gitti": 2910,
      "ortam": 2911,
      "kırmızı": 2912,
      "mor": 2913,
      "tali": 2914,
      "##ilerek": 2915,
      "##laştır": 2916,
      "2017": 2917,
      "osmanlı": 2918,
      "##ena": 2919,
      "ted": 2920,
      "olmaz": 2921,
      "ihtiyaç": 2922,
      "hik": 2923,
      "çi": 2924,
      "##tur": 2925,
      "tabii": 2926,
      "tas": 2927,
      "önümüz": 2928,
      "isimli": 2929,
      "tıp": 2930,
      "açısından": 2931,
      "gören": 2932,
      "kalp": 2933,
      "kanal": 2934,
      "##acağız": 2935,
      "aya": 2936,
      "yaptır": 2937,
      "toprak": 2938,
      "mh": 2939,
      "tı": 2940,
      "##bo": 2941,
      "çeken": 2942,
      "sebep": 2943,
      "mış": 2944,
      "meş": 2945,
      "iler": 2946,
      "lerine": 2947,
      "esn": 2948,
      "takımı": 2949,
      "fiyatı": 2950,
      "##üle": 2951,
      "##sını": 2952,
      "mızı": 2953,
      "anlattı": 2954,
      "##liye": 2955,
      "final": 2956,
      "zey": 2957,
      "##dağ": 2958,
      "amel": 2959,
      "sıkıntı": 2960,
      "çet": 2961,
      "dost": 2962,
      "olmadığı": 2963,
      "görüşmeler": 2964,
      "gar": 2965,
      "geçiş": 2966,
      "feder": 2967,
      "siy": 2968,
      "kilom": 2969,
      "nur": 2970,
      "avukat": 2971,
      "##deniz": 2972,
      "##avuş": 2973,
      "görevli": 2974,
      "kayb": 2975,
      "yaşadığı": 2976,
      "##vizyon": 2977,
      "gay": 2978,
      "bunların": 2979,
      "diyen": 2980,
      "cer": 2981,
      "sta": 2982,
      "vaz": 2983,
      "istik": 2984,
      "##doğu": 2985,
      "olsa": 2986,
      "ekran": 2987,
      "gerekli": 2988,
      "zen": 2989,
      "veriyor": 2990,
      "##asıyla": 2991,
      "yerde": 2992,
      "yolcu": 2993,
      "televizyon": 2994,
      "kahr": 2995,
      "ruh": 2996,
      "##dr": 2997,
      "diş": 2998,
      "doğan": 2999,
      "ydi": 3000,
      "##çev": 3001,
      "önlem": 3002,
      "##sav": 3003,
      "terörle": 3004,
      "##yum": 3005,
      "##alara": 3006,
      "halep": 3007,
      "kapı": 3008,
      "giren": 3009,
      "bahç": 3010,
      "hüs": 3011,
      "##dıklarını": 3012,
      "hapis": 3013,
      "i̇h": 3014,
      "##ısının": 3015,
      "mizi": 3016,
      "balık": 3017,
      "##meni": 3018,
      "##daroğlu": 3019,
      "öncesi": 3020,
      "anlatan": 3021,
      "##sup": 3022,
      "konuşan": 3023,
      "co": 3024,
      "##layıcı": 3025,
      "siyah": 3026,
      "##mıyor": 3027,
      "imz": 3028,
      "bi": 3029,
      "diyerek": 3030,
      "tahmin": 3031,
      "dolayısıyla": 3032,
      "yunan": 3033,
      "olm": 3034,
      "demokrasi": 3035,
      "sefer": 3036,
      "##sunuz": 3037,
      "70": 3038,
      "adana": 3039,
      "##alım": 3040,
      "ona": 3041,
      "sayın": 3042,
      "kılıçdaroğlu": 3043,
      "##umsuz": 3044,
      "##rail": 3045,
      "trafik": 3046,
      "kanser": 3047,
      "çerçev": 3048,
      "##meyen": 3049,
      "yarı": 3050,
      "yönetic": 3051,
      "##eceğiz": 3052,
      "##yaspor": 3053,
      "müsl": 3054,
      "nokta": 3055,
      "##meleri": 3056,
      "demek": 3057,
      "başsav": 3058,
      "ister": 3059,
      "turizm": 3060,
      "proje": 3061,
      "cuma": 3062,
      "hayata": 3063,
      "kurtul": 3064,
      "ilan": 3065,
      "çelik": 3066,
      "kendisini": 3067,
      "hâ": 3068,
      "önüne": 3069,
      "çekti": 3070,
      "kampan": 3071,
      "hastalı": 3072,
      "rakam": 3073,
      "üs": 3074,
      "iy": 3075,
      "dağ": 3076,
      "##ite": 3077,
      "etkili": 3078,
      "söylüyor": 3079,
      "##alif": 3080,
      "olup": 3081,
      "##one": 3082,
      "yazılı": 3083,
      "mensup": 3084,
      "amerika": 3085,
      "normal": 3086,
      "##ekk": 3087,
      "bür": 3088,
      "##dal": 3089,
      "##vi": 3090,
      "yarar": 3091,
      "##gen": 3092,
      "hır": 3093,
      "##lamaya": 3094,
      "konuşma": 3095,
      "müdah": 3096,
      "tv": 3097,
      "zam": 3098,
      "ti": 3099,
      "##luluk": 3100,
      "##abak": 3101,
      "günlerde": 3102,
      "erken": 3103,
      "i̇ngiliz": 3104,
      "cem": 3105,
      "##elen": 3106,
      "##udi": 3107,
      "şube": 3108,
      "azal": 3109,
      "hiss": 3110,
      "leştir": 3111,
      "det": 3112,
      "##arında": 3113,
      "girdi": 3114,
      "tedbir": 3115,
      "hüc": 3116,
      "gerekir": 3117,
      "caddesi": 3118,
      "mis": 3119,
      "enf": 3120,
      "sanık": 3121,
      "personel": 3122,
      "yum": 3123,
      "##cılığı": 3124,
      "##cut": 3125,
      "yere": 3126,
      "yönünde": 3127,
      "veri": 3128,
      "edilmesi": 3129,
      "buluş": 3130,
      "alanda": 3131,
      "babası": 3132,
      "larıyla": 3133,
      "tutuklandı": 3134,
      "etme": 3135,
      "karşılık": 3136,
      "hollan": 3137,
      "bulut": 3138,
      "hayvan": 3139,
      "olabil": 3140,
      "##brahim": 3141,
      "fon": 3142,
      "ömer": 3143,
      "##sına": 3144,
      "yetiş": 3145,
      "olumsuz": 3146,
      "kays": 3147,
      "fetullah": 3148,
      "bekleniyor": 3149,
      "##pek": 3150,
      "##iran": 3151,
      "##adem": 3152,
      "tamamen": 3153,
      "ölü": 3154,
      "bankası": 3155,
      "kahraman": 3156,
      "yaln": 3157,
      "işlet": 3158,
      "bakım": 3159,
      "mesele": 3160,
      "i̇srail": 3161,
      "bağım": 3162,
      "gösterdi": 3163,
      "üçüncü": 3164,
      "sk": 3165,
      "tip": 3166,
      "merak": 3167,
      "adli": 3168,
      "değildir": 3169,
      "##tepe": 3170,
      "teknoloji": 3171,
      "davran": 3172,
      "mevcut": 3173,
      "lim": 3174,
      "soğ": 3175,
      "##gun": 3176,
      "kong": 3177,
      "müslüman": 3178,
      "##iri": 3179,
      "##evi": 3180,
      "attı": 3181,
      "tuz": 3182,
      "başkanlığı": 3183,
      "deaş": 3184,
      "dışarı": 3185,
      "aj": 3186,
      "##sinin": 3187,
      "##emi": 3188,
      "##lanıyor": 3189,
      "döneminde": 3190,
      "umut": 3191,
      "cihaz": 3192,
      "yalnız": 3193,
      "##zi": 3194,
      "##umu": 3195,
      "##duğunu": 3196,
      "uyarı": 3197,
      "muhalif": 3198,
      "müzik": 3199,
      "yarg": 3200,
      "kaya": 3201,
      "kesim": 3202,
      "yerinde": 3203,
      "sayesinde": 3204,
      "derneği": 3205,
      "bm": 3206,
      "önümüzdeki": 3207,
      "not": 3208,
      "##ğiniz": 3209,
      "küresel": 3210,
      "##har": 3211,
      "otel": 3212,
      "uğur": 3213,
      "##ia": 3214,
      "çavuş": 3215,
      "haline": 3216,
      "kanun": 3217,
      "kendini": 3218,
      "oluşan": 3219,
      "belediyesi": 3220,
      "nerede": 3221,
      "ihracat": 3222,
      "çey": 3223,
      "vardır": 3224,
      "##sızlık": 3225,
      "borç": 3226,
      "##form": 3227,
      "amerik": 3228,
      "ydı": 3229,
      "etmiş": 3230,
      "çatış": 3231,
      "port": 3232,
      "plak": 3233,
      "çoğ": 3234,
      "##sak": 3235,
      "iktidar": 3236,
      "bildirdi": 3237,
      "beri": 3238,
      "##layarak": 3239,
      "emekli": 3240,
      "80": 3241,
      "##elerinin": 3242,
      "çıkış": 3243,
      "ale": 3244,
      "##med": 3245,
      "belki": 3246,
      "itir": 3247,
      "##car": 3248,
      "##gör": 3249,
      "ndeki": 3250,
      "öğ": 3251,
      "##çak": 3252,
      "nef": 3253,
      "kims": 3254,
      "peş": 3255,
      "bede": 3256,
      "##co": 3257,
      "bursa": 3258,
      "etkisiz": 3259,
      "çö": 3260,
      "müh": 3261,
      "kamp": 3262,
      "ağa": 3263,
      "ders": 3264,
      "katılım": 3265,
      "çay": 3266,
      "sona": 3267,
      "nak": 3268,
      "##lüğ": 3269,
      "i̇brahim": 3270,
      "paral": 3271,
      "cezası": 3272,
      "operasyonda": 3273,
      "ge": 3274,
      "obama": 3275,
      "hasan": 3276,
      "fil": 3277,
      "##lal": 3278,
      "##sinde": 3279,
      "##atif": 3280,
      "yaşında": 3281,
      "##ğust": 3282,
      "haziran": 3283,
      "bugüne": 3284,
      "ast": 3285,
      "ağust": 3286,
      "##ıma": 3287,
      "##ona": 3288,
      "##elerinde": 3289,
      "kaydedildi": 3290,
      "##ons": 3291,
      "teşekk": 3292,
      "paralel": 3293,
      "ediyorum": 3294,
      "kupası": 3295,
      "##madan": 3296,
      "başla": 3297,
      "yönetimi": 3298,
      "vit": 3299,
      "davet": 3300,
      "güm": 3301,
      "süren": 3302,
      "emre": 3303,
      "müdahale": 3304,
      "##matik": 3305,
      "kullandığı": 3306,
      "albay": 3307,
      "orman": 3308,
      "derin": 3309,
      "##bin": 3310,
      "vol": 3311,
      "saray": 3312,
      "kaybetti": 3313,
      "sığınma": 3314,
      "hüseyin": 3315,
      "değişiklik": 3316,
      "yerli": 3317,
      "sonuc": 3318,
      "yayım": 3319,
      "rejim": 3320,
      "örnek": 3321,
      "##etici": 3322,
      "forma": 3323,
      "##i̇n": 3324,
      "mağdur": 3325,
      "mhp": 3326,
      "doğr": 3327,
      "oldukça": 3328,
      "onların": 3329,
      "böylece": 3330,
      "fes": 3331,
      "gerekç": 3332,
      "taki": 3333,
      "büyükşehir": 3334,
      "kaçak": 3335,
      "sanayi": 3336,
      "##deri": 3337,
      "ağustos": 3338,
      "renk": 3339,
      "##mesine": 3340,
      "##ze": 3341,
      "kimse": 3342,
      "hain": 3343,
      "##sur": 3344,
      "ir": 3345,
      "##go": 3346,
      "prot": 3347,
      "heyec": 3348,
      "eser": 3349,
      "havalimanı": 3350,
      "##teki": 3351,
      "kaza": 3352,
      "acil": 3353,
      "teşekkür": 3354,
      "namaz": 3355,
      "##yo": 3356,
      "yapıla": 3357,
      "##demir": 3358,
      "##türk": 3359,
      "krit": 3360,
      "kızı": 3361,
      "sakat": 3362,
      "to": 3363,
      "##etre": 3364,
      "hayır": 3365,
      "suriyeli": 3366,
      "muz": 3367,
      "alk": 3368,
      "adr": 3369,
      "##kın": 3370,
      "##zı": 3371,
      "##etik": 3372,
      "pozisyon": 3373,
      "olduğuna": 3374,
      "##menin": 3375,
      "pil": 3376,
      "##ğan": 3377,
      "sultan": 3378,
      "naz": 3379,
      "huz": 3380,
      "akadem": 3381,
      "medi": 3382,
      "tok": 3383,
      "##ülü": 3384,
      "##lasyon": 3385,
      "huzur": 3386,
      "##leyi": 3387,
      "##lanacak": 3388,
      "girişimi": 3389,
      "çab": 3390,
      "ekibi": 3391,
      "şar": 3392,
      "##ho": 3393,
      "yapılması": 3394,
      "hazırlık": 3395,
      "zengin": 3396,
      "##pg": 3397,
      "yüzden": 3398,
      "fırsat": 3399,
      "yaralandı": 3400,
      "miktar": 3401,
      "##inç": 3402,
      "hesab": 3403,
      "birinci": 3404,
      "##alarının": 3405,
      "çıkıyor": 3406,
      "ölç": 3407,
      "##efa": 3408,
      "depr": 3409,
      "##alarını": 3410,
      "sınıf": 3411,
      "34": 3412,
      "parlam": 3413,
      "gösteren": 3414,
      "##ham": 3415,
      "lerde": 3416,
      "36": 3417,
      "getirildi": 3418,
      "ambul": 3419,
      "zira": 3420,
      "öden": 3421,
      "olumlu": 3422,
      "asıl": 3423,
      "##dalı": 3424,
      "yasak": 3425,
      "dünyaya": 3426,
      "alarak": 3427,
      "idar": 3428,
      "tb": 3429,
      "##aşı": 3430,
      "##tren": 3431,
      "durumunda": 3432,
      "gönül": 3433,
      "şikayet": 3434,
      "üm": 3435,
      "dokun": 3436,
      "32": 3437,
      "ettir": 3438,
      "çap": 3439,
      "##ina": 3440,
      "görüşme": 3441,
      "##son": 3442,
      "##sının": 3443,
      "##bur": 3444,
      "altı": 3445,
      "isten": 3446,
      "muhab": 3447,
      "edildiği": 3448,
      "uefa": 3449,
      "vergi": 3450,
      "mutlak": 3451,
      "##inc": 3452,
      "##unuz": 3453,
      "del": 3454,
      "ameliyat": 3455,
      "maya": 3456,
      "sorumlu": 3457,
      "aşağı": 3458,
      "kulübü": 3459,
      "twit": 3460,
      "keş": 3461,
      "##gar": 3462,
      "larda": 3463,
      "##ıldığını": 3464,
      "kurumu": 3465,
      "maz": 3466,
      "geldiği": 3467,
      ".'": 3468,
      "##mayan": 3469,
      "ba": 3470,
      "ez": 3471,
      "kullanıcı": 3472,
      "hayal": 3473,
      "##barat": 3474,
      "patlama": 3475,
      "bitir": 3476,
      "çalışmaları": 3477,
      "kış": 3478,
      "##..": 3479,
      "2013": 3480,
      "kapalı": 3481,
      "detay": 3482,
      "##lulu": 3483,
      "##atör": 3484,
      "ilgi": 3485,
      "##sed": 3486,
      "tesis": 3487,
      "yola": 3488,
      "tarım": 3489,
      "##elerini": 3490,
      "belirlendi": 3491,
      "gıda": 3492,
      "çak": 3493,
      "##sen": 3494,
      "##espor": 3495,
      "bilen": 3496,
      "süt": 3497,
      "##barı": 3498,
      "##mail": 3499,
      "etmesi": 3500,
      "kayn": 3501,
      "samsun": 3502,
      "300": 3503,
      "miş": 3504,
      "yazı": 3505,
      "metre": 3506,
      "zirv": 3507,
      "peki": 3508,
      "rakip": 3509,
      "neler": 3510,
      "birleş": 3511,
      "lideri": 3512,
      "patlayıcı": 3513,
      "bölümü": 3514,
      "tun": 3515,
      "şans": 3516,
      "kayıp": 3517,
      "##oloji": 3518,
      "laş": 3519,
      "##rah": 3520,
      "##amak": 3521,
      "çocuklar": 3522,
      "twitter": 3523,
      "##ust": 3524,
      "vatandaşlar": 3525,
      "gündeme": 3526,
      "şarkı": 3527,
      "bölgesinde": 3528,
      "devletin": 3529,
      "i̇span": 3530,
      "insanlar": 3531,
      "bebek": 3532,
      "kamuoy": 3533,
      "pak": 3534,
      "sizin": 3535,
      "yeri": 3536,
      "biç": 3537,
      "ima": 3538,
      "müdahal": 3539,
      "tüf": 3540,
      "##ene": 3541,
      "hakan": 3542,
      "##ladık": 3543,
      "insanların": 3544,
      "75": 3545,
      "yerleş": 3546,
      "sorgu": 3547,
      "ediyoruz": 3548,
      "otobüs": 3549,
      "##ati": 3550,
      "büyükel": 3551,
      "defa": 3552,
      "vermek": 3553,
      "##ıyoruz": 3554,
      "onur": 3555,
      "cumhuriyeti": 3556,
      "##meli": 3557,
      "##oda": 3558,
      "##bal": 3559,
      "şahin": 3560,
      "##madığı": 3561,
      "geçer": 3562,
      "eksik": 3563,
      "olmadı": 3564,
      "raki": 3565,
      "##mm": 3566,
      "##paşa": 3567,
      "yazar": 3568,
      "direktörü": 3569,
      "ade": 3570,
      "serg": 3571,
      "ilaç": 3572,
      "akp": 3573,
      "red": 3574,
      "şer": 3575,
      "##âr": 3576,
      "##eyim": 3577,
      "prob": 3578,
      "yasa": 3579,
      "ihtim": 3580,
      "09": 3581,
      "yetk": 3582,
      "sağlıklı": 3583,
      "nüf": 3584,
      "vide": 3585,
      "new": 3586,
      "uyar": 3587,
      "açılış": 3588,
      "##ucu": 3589,
      "içeri": 3590,
      "etmeye": 3591,
      "doğum": 3592,
      "##abilecek": 3593,
      "us": 3594,
      "tatil": 3595,
      "kuvvetleri": 3596,
      "##li̇": 3597,
      "yapmaya": 3598,
      "park": 3599,
      "düşen": 3600,
      "sürede": 3601,
      "##süz": 3602,
      "##mediği": 3603,
      "endiş": 3604,
      "i̇smail": 3605,
      "##ib": 3606,
      "antren": 3607,
      "evde": 3608,
      "psik": 3609,
      "ypg": 3610,
      "##ere": 3611,
      "verecek": 3612,
      "akın": 3613,
      "topu": 3614,
      "i̇k": 3615,
      "muhale": 3616,
      "annesi": 3617,
      "car": 3618,
      "far": 3619,
      "##dat": 3620,
      "varsa": 3621,
      "güçleri": 3622,
      "##ınar": 3623,
      "düzenlen": 3624,
      "##geç": 3625,
      "mi̇": 3626,
      "sığınmacı": 3627,
      "##lılık": 3628,
      "##ana": 3629,
      "yerel": 3630,
      "##lasman": 3631,
      "tık": 3632,
      "operasyonu": 3633,
      "öncelik": 3634,
      "bunları": 3635,
      "yavaş": 3636,
      "##ücu": 3637,
      "koca": 3638,
      "sürüyor": 3639,
      "##leye": 3640,
      "size": 3641,
      "198": 3642,
      "aşama": 3643,
      "turist": 3644,
      "beyazlı": 3645,
      "##iği": 3646,
      "##mur": 3647,
      "gide": 3648,
      "hafif": 3649,
      "vurgulayan": 3650,
      "##rika": 3651,
      "##his": 3652,
      "işç": 3653,
      "asla": 3654,
      "fab": 3655,
      "##acağını": 3656,
      "##onya": 3657,
      "yit": 3658,
      "##laşma": 3659,
      "kullanılan": 3660,
      "xx": 3661,
      "i̇yi": 3662,
      "gelin": 3663,
      "kendisi": 3664,
      "##olojik": 3665,
      "tecr": 3666,
      "eg": 3667,
      "tü": 3668,
      "inci": 3669,
      "gizli": 3670,
      "##allah": 3671,
      "yaparak": 3672,
      "kişilik": 3673,
      "sahn": 3674,
      "problem": 3675,
      "lük": 3676,
      "rom": 3677,
      "birim": 3678,
      "##ılır": 3679,
      "##emesi": 3680,
      "düşüş": 3681,
      "kişilerin": 3682,
      "kaçır": 3683,
      "yurtdı": 3684,
      "konya": 3685,
      "altını": 3686,
      "##ding": 3687,
      "ağrı": 3688,
      "oranı": 3689,
      "aşırı": 3690,
      "hastaneye": 3691,
      "bağlantı": 3692,
      "tbmm": 3693,
      "##biyle": 3694,
      "olağan": 3695,
      "aracı": 3696,
      "baskı": 3697,
      "yitir": 3698,
      "##siy": 3699,
      "karşıya": 3700,
      "benzer": 3701,
      "meslek": 3702,
      "?\"": 3703,
      "##alarına": 3704,
      "genelkur": 3705,
      "bayrak": 3706,
      "genelkurmay": 3707,
      "bilecek": 3708,
      "hasta": 3709,
      "kaybeden": 3710,
      "##çuk": 3711,
      "endek": 3712,
      "istiyorum": 3713,
      "##oto": 3714,
      "strate": 3715,
      "servis": 3716,
      "##aka": 3717,
      "arda": 3718,
      "saç": 3719,
      "ortalama": 3720,
      "i̇sv": 3721,
      "ca": 3722,
      "##ân": 3723,
      "##landığı": 3724,
      "milletvekil": 3725,
      "yaptıkları": 3726,
      "şaş": 3727,
      "satın": 3728,
      "akıllı": 3729,
      "mutlaka": 3730,
      "##urken": 3731,
      "attığı": 3732,
      "kimlik": 3733,
      "seyir": 3734,
      "kilometre": 3735,
      "the": 3736,
      "nö": 3737,
      "nizi": 3738,
      "unsur": 3739,
      "çıkma": 3740,
      "33": 3741,
      "##andır": 3742,
      "alanı": 3743,
      "sanatçı": 3744,
      "gökhan": 3745,
      "mültec": 3746,
      "##ern": 3747,
      "alına": 3748,
      "halde": 3749,
      "ulaştı": 3750,
      "taşıyan": 3751,
      "tez": 3752,
      "karay": 3753,
      "aziz": 3754,
      "etkil": 3755,
      "gur": 3756,
      "##eyle": 3757,
      "çıkacak": 3758,
      "katılan": 3759,
      "olacağını": 3760,
      "düzenlem": 3761,
      "cami": 3762,
      "deplasman": 3763,
      "hür": 3764,
      "hab": 3765,
      "kelim": 3766,
      "tiyat": 3767,
      "sonuna": 3768,
      "##yap": 3769,
      "içine": 3770,
      "##utin": 3771,
      "39": 3772,
      "motor": 3773,
      "yapımı": 3774,
      "larında": 3775,
      "yolc": 3776,
      "çevir": 3777,
      "muham": 3778,
      "hakkı": 3779,
      "civarında": 3780,
      "nu": 3781,
      "alb": 3782,
      "başak": 3783,
      "##sizlik": 3784,
      "yıllarda": 3785,
      "##hane": 3786,
      "yunanistan": 3787,
      "##üler": 3788,
      "ayı": 3789,
      "eve": 3790,
      "söyley": 3791,
      "köş": 3792,
      "stan": 3793,
      "##slan": 3794,
      "esk": 3795,
      "##üstü": 3796,
      "gerçekleştirilen": 3797,
      "programı": 3798,
      "cinsel": 3799,
      "##oli": 3800,
      "ambulans": 3801,
      "binlerce": 3802,
      "imk": 3803,
      "kıy": 3804,
      "partisi": 3805,
      "arena": 3806,
      "koruma": 3807,
      "yürütülen": 3808,
      "müsabak": 3809,
      "vücu": 3810,
      "##anam": 3811,
      "görüldü": 3812,
      "ayır": 3813,
      "leriyle": 3814,
      "veril": 3815,
      "süreci": 3816,
      "##i̇r": 3817,
      "danış": 3818,
      "tüket": 3819,
      "örgütün": 3820,
      "takımın": 3821,
      "saldırıda": 3822,
      "##ime": 3823,
      "buldu": 3824,
      "gelişmeler": 3825,
      "yakalandı": 3826,
      "lay": 3827,
      "##uluyor": 3828,
      "büyüme": 3829,
      "##mada": 3830,
      "##ital": 3831,
      "öldü": 3832,
      "dizi": 3833,
      "gençler": 3834,
      "holding": 3835,
      "yetkililer": 3836,
      "muhalefet": 3837,
      "zaf": 3838,
      "onları": 3839,
      "emin": 3840,
      "gerekçesiyle": 3841,
      "tiyatro": 3842,
      "##bi̇": 3843,
      "vuruş": 3844,
      "yatırımcı": 3845,
      "cinayet": 3846,
      "festiv": 3847,
      "bı": 3848,
      "dık": 3849,
      "ayk": 3850,
      "istiyoruz": 3851,
      "volkan": 3852,
      "gem": 3853,
      "##teri": 3854,
      "##zan": 3855,
      "##ahat": 3856,
      "konuk": 3857,
      "##liğinde": 3858,
      "yağış": 3859,
      "##sim": 3860,
      "arz": 3861,
      "anlay": 3862,
      "##sanız": 3863,
      "adliy": 3864,
      "yoktur": 3865,
      "yürüy": 3866,
      "yıla": 3867,
      "i̇talya": 3868,
      "sıralarında": 3869,
      "dolarlık": 3870,
      "herkesin": 3871,
      "ödeme": 3872,
      "mali": 3873,
      "##nan": 3874,
      "özellik": 3875,
      "inceleme": 3876,
      "desteği": 3877,
      "##tiler": 3878,
      "##elerine": 3879,
      "uygulam": 3880,
      "##lığını": 3881,
      "öğrenci": 3882,
      "tutuklan": 3883,
      "ıs": 3884,
      "##maktadır": 3885,
      "yargılan": 3886,
      "mıs": 3887,
      "##ko": 3888,
      "cumhurbaşkan": 3889,
      "çetin": 3890,
      "çerçevesinde": 3891,
      "cil": 3892,
      "rö": 3893,
      "vek": 3894,
      "##gener": 3895,
      "##ınma": 3896,
      "korun": 3897,
      "##işi": 3898,
      "yaşama": 3899,
      "sorunu": 3900,
      "boyut": 3901,
      "komutanı": 3902,
      "##ela": 3903,
      "i̇kinci": 3904,
      "güc": 3905,
      "evet": 3906,
      "kazandı": 3907,
      "incelem": 3908,
      "çocuğun": 3909,
      "65": 3910,
      "##tılı": 3911,
      "##nun": 3912,
      "##iyer": 3913,
      "malz": 3914,
      "mülteci": 3915,
      "kop": 3916,
      "yalan": 3917,
      "##rik": 3918,
      "##şallah": 3919,
      "yapar": 3920,
      "mobil": 3921,
      "ulusal": 3922,
      "şirk": 3923,
      "##lâ": 3924,
      "boğaz": 3925,
      "##general": 3926,
      "##antaj": 3927,
      "##ıyorum": 3928,
      "suudi": 3929,
      "dolu": 3930,
      "##amız": 3931,
      "##ümü": 3932,
      "belirlen": 3933,
      "maçın": 3934,
      "ortadan": 3935,
      "kalit": 3936,
      "bağış": 3937,
      "mağlu": 3938,
      "rekor": 3939,
      "va": 3940,
      "şeyi": 3941,
      "##tarı": 3942,
      "##emin": 3943,
      "diren": 3944,
      "hac": 3945,
      "iptal": 3946,
      "düğ": 3947,
      "fiz": 3948,
      "saha": 3949,
      "kendilerine": 3950,
      "halkın": 3951,
      "tepk": 3952,
      "yeterli": 3953,
      "müt": 3954,
      "terk": 3955,
      "kaldırıldı": 3956,
      "##od": 3957,
      "eyalet": 3958,
      "çevre": 3959,
      "yaralanan": 3960,
      "sonucunda": 3961,
      "saygı": 3962,
      "üniversite": 3963,
      "hatırlat": 3964,
      "şirketi": 3965,
      "açıklaması": 3966,
      "hakları": 3967,
      "altyap": 3968,
      "şeker": 3969,
      "çocukların": 3970,
      "geldiğini": 3971,
      "##gisi": 3972,
      "##are": 3973,
      "siniz": 3974,
      "birey": 3975,
      "açıldı": 3976,
      "evinde": 3977,
      "çatışma": 3978,
      "##ikat": 3979,
      "sunuz": 3980,
      "##cılı": 3981,
      "yaptığını": 3982,
      "edilecek": 3983,
      "anlaşma": 3984,
      "ederken": 3985,
      "uk": 3986,
      "##ond": 3987,
      "öngör": 3988,
      "hakaret": 3989,
      "oto": 3990,
      "gerçekten": 3991,
      "bol": 3992,
      "vade": 3993,
      "gösteriyor": 3994,
      "bilinen": 3995,
      "skor": 3996,
      "olmuş": 3997,
      "aray": 3998,
      "açılan": 3999,
      "kaydeden": 4000,
      "dip": 4001,
      "##isyen": 4002,
      "yerleştir": 4003,
      "erz": 4004,
      "cenaze": 4005,
      "köprü": 4006,
      "##büs": 4007,
      "##ult": 4008,
      "direk": 4009,
      "##vert": 4010,
      "rest": 4011,
      "büyüm": 4012,
      "cumhurbaşkanlığı": 4013,
      "parlament": 4014,
      "toplu": 4015,
      "kilis": 4016,
      "numar": 4017,
      "dis": 4018,
      "şır": 4019,
      "üye": 4020,
      "heyet": 4021,
      "tim": 4022,
      "test": 4023,
      "yapım": 4024,
      "teşkil": 4025,
      "vazgeç": 4026,
      "##fı": 4027,
      "##hat": 4028,
      "##erken": 4029,
      "##ato": 4030,
      "##asından": 4031,
      "işi": 4032,
      "laci": 4033,
      "tazmin": 4034,
      "nes": 4035,
      "ödem": 4036,
      "##amet": 4037,
      "başı": 4038,
      "istediği": 4039,
      "sınız": 4040,
      "karab": 4041,
      "krizi": 4042,
      "projesi": 4043,
      "tutuklu": 4044,
      "rahatsız": 4045,
      "lacivert": 4046,
      "##rem": 4047,
      "kurban": 4048,
      "grub": 4049,
      "komutanlığı": 4050,
      "soğuk": 4051,
      "atı": 4052,
      "zanlı": 4053,
      "##şık": 4054,
      "arap": 4055,
      "sürdü": 4056,
      "taban": 4057,
      "cezaev": 4058,
      "olursa": 4059,
      "ege": 4060,
      "##muştu": 4061,
      "##amış": 4062,
      "evine": 4063,
      "bölgeye": 4064,
      "şeyler": 4065,
      "göçmen": 4066,
      "demokratik": 4067,
      "##ray": 4068,
      "başlayacak": 4069,
      "maaş": 4070,
      "üstün": 4071,
      "##ou": 4072,
      "##embe": 4073,
      "saf": 4074,
      "sap": 4075,
      "kaldığı": 4076,
      "basket": 4077,
      "55": 4078,
      "olama": 4079,
      "duygu": 4080,
      "bilgiler": 4081,
      "cü": 4082,
      "dum": 4083,
      "alıp": 4084,
      "değişim": 4085,
      "dilek": 4086,
      "app": 4087,
      "şırnak": 4088,
      "sim": 4089,
      "alanında": 4090,
      "memnun": 4091,
      "kayseri": 4092,
      "##mesinin": 4093,
      "##öl": 4094,
      "olmalı": 4095,
      "2011": 4096,
      "2012": 4097,
      "genelinde": 4098,
      "başlan": 4099,
      "komş": 4100,
      "başbakanı": 4101,
      "enflasyon": 4102,
      "çatışmalar": 4103,
      "yeme": 4104,
      "kapan": 4105,
      "elbet": 4106,
      "imha": 4107,
      "sokağa": 4108,
      "tartışma": 4109,
      "konser": 4110,
      "sunu": 4111,
      "sigor": 4112,
      "eli": 4113,
      "fel": 4114,
      "pop": 4115,
      "##ilendir": 4116,
      "hala": 4117,
      "döndü": 4118,
      "taşın": 4119,
      "mos": 4120,
      "verilm": 4121,
      "denildi": 4122,
      "iletişim": 4123,
      "bulutlu": 4124,
      "ci": 4125,
      "if": 4126,
      "gördük": 4127,
      "musul": 4128,
      "pdy": 4129,
      "##hi": 4130,
      "##gal": 4131,
      "açtı": 4132,
      "vatandaşların": 4133,
      "olduklarını": 4134,
      "##vik": 4135,
      "##ayla": 4136,
      "maden": 4137,
      "düşünüyorum": 4138,
      "restor": 4139,
      "görülen": 4140,
      "olacağı": 4141,
      "cumartesi": 4142,
      "savaşı": 4143,
      "cı": 4144,
      "##hone": 4145,
      "bölgesi": 4146,
      "imkan": 4147,
      "harekat": 4148,
      "sonraki": 4149,
      "cema": 4150,
      "stat": 4151,
      "dök": 4152,
      "inşaat": 4153,
      "plat": 4154,
      "##dil": 4155,
      "##esyon": 4156,
      "yapacağı": 4157,
      "kapas": 4158,
      "laştır": 4159,
      "##lent": 4160,
      "vurguladı": 4161,
      "hi": 4162,
      "konum": 4163,
      "belç": 4164,
      "alınması": 4165,
      "kısm": 4166,
      "##mür": 4167,
      "##rag": 4168,
      "yaşandı": 4169,
      "sinan": 4170,
      "luk": 4171,
      "##enek": 4172,
      "kuruş": 4173,
      "kırmızılı": 4174,
      "muhabir": 4175,
      "odak": 4176,
      "şiş": 4177,
      "##kaya": 4178,
      "olayın": 4179,
      "harekete": 4180,
      "kör": 4181,
      "usta": 4182,
      "işbirliği": 4183,
      "deng": 4184,
      "asya": 4185,
      "derec": 4186,
      "bulunduğunu": 4187,
      "arka": 4188,
      "sigorta": 4189,
      "putin": 4190,
      "##po": 4191,
      "##leşme": 4192,
      "örne": 4193,
      "belirtilen": 4194,
      "şif": 4195,
      "##he": 4196,
      "##iyan": 4197,
      "başkanlı": 4198,
      "yenil": 4199,
      "anlamda": 4200,
      "tsk": 4201,
      "yü": 4202,
      "##liyoruz": 4203,
      "yapmış": 4204,
      "ismi": 4205,
      "kök": 4206,
      "day": 4207,
      "tel": 4208,
      "##areti": 4209,
      "i̇m": 4210,
      "kamyon": 4211,
      "beğ": 4212,
      "sözcüsü": 4213,
      "teşvik": 4214,
      "hoc": 4215,
      "ağı": 4216,
      "aran": 4217,
      "aslan": 4218,
      "selçuk": 4219,
      "##ry": 4220,
      "##ılmaz": 4221,
      "almaya": 4222,
      "uçuş": 4223,
      "##aladı": 4224,
      "nüfus": 4225,
      "##ren": 4226,
      "##taki": 4227,
      "##tisi": 4228,
      "önde": 4229,
      "i̇lçe": 4230,
      "toplantısında": 4231,
      "organiz": 4232,
      "komisyonu": 4233,
      "fizik": 4234,
      "ec": 4235,
      "##liler": 4236,
      "anal": 4237,
      "##isay": 4238,
      "bazen": 4239,
      "bilgisay": 4240,
      "öncesinde": 4241,
      "arabistan": 4242,
      "37": 4243,
      "nec": 4244,
      "##enti": 4245,
      "mersin": 4246,
      "paylaşım": 4247,
      "liraya": 4248,
      "koşul": 4249,
      "dür": 4250,
      "##anet": 4251,
      "and": 4252,
      "mekan": 4253,
      "giderek": 4254,
      "amerikan": 4255,
      "üncü": 4256,
      "değerli": 4257,
      "kadınlar": 4258,
      "bebe": 4259,
      "çağır": 4260,
      "edip": 4261,
      "##lanmış": 4262,
      "yaşamını": 4263,
      "apple": 4264,
      "rez": 4265,
      "hepsi": 4266,
      "ukray": 4267,
      "##rid": 4268,
      "denetim": 4269,
      "sağlamak": 4270,
      "milletin": 4271,
      "mizin": 4272,
      "##ilir": 4273,
      "##onik": 4274,
      "lerinde": 4275,
      "kaleci": 4276,
      "oğuz": 4277,
      "iphone": 4278,
      "ticari": 4279,
      "tün": 4280,
      "yur": 4281,
      "şi": 4282,
      "alım": 4283,
      "ifadesini": 4284,
      "çocuğu": 4285,
      "adeta": 4286,
      "jap": 4287,
      "##rı": 4288,
      "##akk": 4289,
      "kural": 4290,
      "kurulan": 4291,
      "tanım": 4292,
      "etkinlik": 4293,
      "roman": 4294,
      "bahçe": 4295,
      "key": 4296,
      "geçici": 4297,
      "istis": 4298,
      "etkilen": 4299,
      "katıldığı": 4300,
      "seyahat": 4301,
      "dahi": 4302,
      "oynanan": 4303,
      "başakşehir": 4304,
      "47": 4305,
      "vir": 4306,
      "yiz": 4307,
      "işada": 4308,
      "paris": 4309,
      "onlara": 4310,
      "gidiyor": 4311,
      "elbette": 4312,
      "38": 4313,
      "kıl": 4314,
      "çalışması": 4315,
      "metin": 4316,
      "fırat": 4317,
      "medyada": 4318,
      "çeyrek": 4319,
      "sizi": 4320,
      "##düm": 4321,
      "##tırma": 4322,
      "bölü": 4323,
      "çıkardı": 4324,
      "hazırlanan": 4325,
      "metrek": 4326,
      "prim": 4327,
      "sinema": 4328,
      "nöbet": 4329,
      "ran": 4330,
      "güvenli": 4331,
      "edeceğiz": 4332,
      "pilot": 4333,
      "video": 4334,
      "mel": 4335,
      "##soy": 4336,
      "gelmiş": 4337,
      "mezar": 4338,
      "şanlı": 4339,
      "##binin": 4340,
      "##ülmesi": 4341,
      "turan": 4342,
      "olağanüstü": 4343,
      "kok": 4344,
      "kişiyi": 4345,
      "görevi": 4346,
      "##tıkları": 4347,
      "doldur": 4348,
      "##esiz": 4349,
      "koor": 4350,
      "tane": 4351,
      "dikkati": 4352,
      "ligde": 4353,
      "azer": 4354,
      "##çisi": 4355,
      "##ulma": 4356,
      "hoca": 4357,
      "alışver": 4358,
      "pey": 4359,
      "şok": 4360,
      "##yse": 4361,
      "bülent": 4362,
      "##si̇": 4363,
      "##book": 4364,
      "kanı": 4365,
      "ini": 4366,
      "2010": 4367,
      "haberine": 4368,
      "düzenleme": 4369,
      "yoksa": 4370,
      "temsilcisi": 4371,
      "çoğu": 4372,
      "helik": 4373,
      "##ğinin": 4374,
      "##ff": 4375,
      "dolara": 4376,
      "face": 4377,
      "filmi": 4378,
      "helikop": 4379,
      "46": 4380,
      "inti": 4381,
      "teki": 4382,
      "onay": 4383,
      "sayf": 4384,
      "ortadoğu": 4385,
      "toplantısı": 4386,
      "biçim": 4387,
      "no": 4388,
      "ramaz": 4389,
      "takdir": 4390,
      "kanat": 4391,
      "süredir": 4392,
      "bahçeli": 4393,
      "stratej": 4394,
      "iade": 4395,
      "##cının": 4396,
      "içi": 4397,
      "##ezz": 4398,
      "topra": 4399,
      "madrid": 4400,
      "diplo": 4401,
      "ic": 4402,
      "slo": 4403,
      "##matı": 4404,
      "olun": 4405,
      "gözy": 4406,
      "pa": 4407,
      "zayı": 4408,
      "##ekim": 4409,
      "i̇ddi": 4410,
      "avust": 4411,
      "şehr": 4412,
      "197": 4413,
      "zayıf": 4414,
      "toto": 4415,
      "##ruk": 4416,
      "##ây": 4417,
      "##yacak": 4418,
      "başlıyor": 4419,
      "ert": 4420,
      "bursas": 4421,
      "bekliyor": 4422,
      "oynadığı": 4423,
      "bursaspor": 4424,
      "gr": 4425,
      "##cusu": 4426,
      "çıkart": 4427,
      "düşman": 4428,
      "yapılıyor": 4429,
      "denizli": 4430,
      "yönetmen": 4431,
      "güncelleme": 4432,
      "indirim": 4433,
      "ramazan": 4434,
      "lü": 4435,
      "som": 4436,
      "adını": 4437,
      "yağmur": 4438,
      "elim": 4439,
      "ktan": 4440,
      "##undaki": 4441,
      "##emez": 4442,
      "##isel": 4443,
      "çıktığı": 4444,
      "geril": 4445,
      "kadının": 4446,
      "üyeleri": 4447,
      "öğrenciler": 4448,
      "kısı": 4449,
      "kullanan": 4450,
      "trib": 4451,
      "fikir": 4452,
      "albayrak": 4453,
      "kritik": 4454,
      "yurtdış": 4455,
      "ira": 4456,
      "##leniyor": 4457,
      "oyunu": 4458,
      "aracın": 4459,
      "400": 4460,
      "salı": 4461,
      "kalma": 4462,
      "sürpr": 4463,
      "koal": 4464,
      "dönemi": 4465,
      "bıçak": 4466,
      "mit": 4467,
      "lardı": 4468,
      "##usunu": 4469,
      "açıklandı": 4470,
      "gösteri": 4471,
      "polisin": 4472,
      "tahliye": 4473,
      "##liğe": 4474,
      "nızı": 4475,
      "protest": 4476,
      "i̇spanya": 4477,
      "tecrüb": 4478,
      "est": 4479,
      "##nik": 4480,
      "##par": 4481,
      "inanıyor": 4482,
      "##ayacak": 4483,
      "olayı": 4484,
      "ailesi": 4485,
      "haberi": 4486,
      "azerbay": 4487,
      "olmasına": 4488,
      "sahil": 4489,
      "itibarı": 4490,
      "başlattı": 4491,
      "hürr": 4492,
      "koalisyon": 4493,
      "02": 4494,
      "başkenti": 4495,
      "abdullah": 4496,
      "müzak": 4497,
      "bağımsız": 4498,
      "heyecan": 4499,
      "facebook": 4500,
      "mim": 4501,
      "qu": 4502,
      "##gül": 4503,
      "##ıza": 4504,
      "devleti": 4505,
      "gücü": 4506,
      "konuyla": 4507,
      "şahıs": 4508,
      "01": 4509,
      "hus": 4510,
      "kartal": 4511,
      "yangın": 4512,
      "kazandır": 4513,
      "üzerindeki": 4514,
      "nus": 4515,
      "##gulan": 4516,
      "öztürk": 4517,
      "perş": 4518,
      "bakanlık": 4519,
      "reklam": 4520,
      "dolandır": 4521,
      "##bine": 4522,
      "arası": 4523,
      "##işehir": 4524,
      "çalıştı": 4525,
      "##faiye": 4526,
      "içindeki": 4527,
      "yapıldığı": 4528,
      "sinir": 4529,
      "hu": 4530,
      "mat": 4531,
      "şük": 4532,
      "##inizi": 4533,
      "tatlı": 4534,
      "korku": 4535,
      "perşembe": 4536,
      "48": 4537,
      "mic": 4538,
      "buraya": 4539,
      "##ımıza": 4540,
      "##dıktan": 4541,
      "noktada": 4542,
      "##kova": 4543,
      "##şi": 4544,
      "arslan": 4545,
      "i̇pek": 4546,
      "polisi": 4547,
      "##ımızın": 4548,
      "hastanede": 4549,
      "pazartesi": 4550,
      "hızla": 4551,
      "fakült": 4552,
      "karakter": 4553,
      "istihdam": 4554,
      "hisset": 4555,
      "mize": 4556,
      "şirketin": 4557,
      "##iklet": 4558,
      "araz": 4559,
      "elinde": 4560,
      "öğretim": 4561,
      "maliyet": 4562,
      "gecesi": 4563,
      "##dun": 4564,
      "işe": 4565,
      "avantaj": 4566,
      "konseyi": 4567,
      "malı": 4568,
      "göl": 4569,
      "vakfı": 4570,
      "başsavcılığı": 4571,
      "paket": 4572,
      "##fak": 4573,
      "##ura": 4574,
      "kişiye": 4575,
      "sayısının": 4576,
      "esas": 4577,
      "etkisi": 4578,
      "düşünc": 4579,
      "bilirsiniz": 4580,
      "ihtiyacı": 4581,
      "çağrı": 4582,
      "bedel": 4583,
      "yusu": 4584,
      "##ester": 4585,
      "yasal": 4586,
      "rahmet": 4587,
      "fransız": 4588,
      "götürüldü": 4589,
      "esnaf": 4590,
      "aa": 4591,
      "##yası": 4592,
      "yerini": 4593,
      "değin": 4594,
      "olacaktır": 4595,
      "öğle": 4596,
      "belçika": 4597,
      "##yer": 4598,
      "##şet": 4599,
      "##ash": 4600,
      "binali": 4601,
      "yakal": 4602,
      "gönderildi": 4603,
      "geride": 4604,
      "karadeniz": 4605,
      "hoş": 4606,
      "performans": 4607,
      "moskova": 4608,
      "koordin": 4609,
      "03": 4610,
      "id": 4611,
      "ren": 4612,
      "sini": 4613,
      "dedim": 4614,
      "örgütünün": 4615,
      "teröristlerin": 4616,
      "sözleşme": 4617,
      "plakalı": 4618,
      "ukrayna": 4619,
      "asi": 4620,
      "com": 4621,
      "##ilme": 4622,
      "##ulmaz": 4623,
      "aldığını": 4624,
      "ayrıldı": 4625,
      "moder": 4626,
      "suçundan": 4627,
      "ilişkiler": 4628,
      "##nam": 4629,
      "##lerimiz": 4630,
      "emir": 4631,
      "bölümünde": 4632,
      "oldukları": 4633,
      "hatırla": 4634,
      "44": 4635,
      "gu": 4636,
      "op": 4637,
      "##yalı": 4638,
      "lerimiz": 4639,
      "sahada": 4640,
      "beklenen": 4641,
      "kana": 4642,
      "çocukları": 4643,
      "makam": 4644,
      "##liğine": 4645,
      "tüketim": 4646,
      "gerçekleşti": 4647,
      "ödülü": 4648,
      "##ücut": 4649,
      "protesto": 4650,
      "yusuf": 4651,
      "yuk": 4652,
      "sahte": 4653,
      "tank": 4654,
      "bilgileri": 4655,
      "ilçesi": 4656,
      "firmalar": 4657,
      "organize": 4658,
      "edinilen": 4659,
      "süreçte": 4660,
      "gram": 4661,
      "rüz": 4662,
      "yaparken": 4663,
      "dij": 4664,
      "gazeteci": 4665,
      "tabi": 4666,
      "hükümeti": 4667,
      "azerbaycan": 4668,
      "fili": 4669,
      "lok": 4670,
      "mün": 4671,
      "##ij": 4672,
      "##ata": 4673,
      "halkı": 4674,
      "yükseldi": 4675,
      "oyuncusu": 4676,
      "kullanım": 4677,
      "takv": 4678,
      "insanları": 4679,
      "mardin": 4680,
      "yayınlanan": 4681,
      "##cilik": 4682,
      "birisi": 4683,
      "##tacak": 4684,
      "devre": 4685,
      "sahne": 4686,
      "salih": 4687,
      "ihlal": 4688,
      "eşit": 4689,
      "verm": 4690,
      "halen": 4691,
      "dündar": 4692,
      "gazete": 4693,
      "zorun": 4694,
      "barcel": 4695,
      "doğrudan": 4696,
      "dönüşüm": 4697,
      "duyurdu": 4698,
      "yız": 4699,
      "##ıf": 4700,
      "bilet": 4701,
      "çalıştığı": 4702,
      "sevg": 4703,
      "tuğ": 4704,
      "yürüyüş": 4705,
      "olmasını": 4706,
      "kafa": 4707,
      "belirlenen": 4708,
      "uyuştur": 4709,
      "tepe": 4710,
      "fetullahçı": 4711,
      "dijital": 4712,
      "vücut": 4713,
      "anah": 4714,
      "york": 4715,
      "bombalı": 4716,
      "itiraz": 4717,
      "bölücü": 4718,
      "sh": 4719,
      "##makta": 4720,
      "hassas": 4721,
      "##lemeye": 4722,
      "uçağ": 4723,
      "örneğin": 4724,
      "43": 4725,
      "nih": 4726,
      "##ese": 4727,
      "çalıştır": 4728,
      "öldürüldü": 4729,
      "istediğini": 4730,
      "marka": 4731,
      "gurur": 4732,
      "viz": 4733,
      "##ong": 4734,
      "liği": 4735,
      "platform": 4736,
      "muş": 4737,
      "öt": 4738,
      "##ılarak": 4739,
      "erdem": 4740,
      "##sad": 4741,
      "burak": 4742,
      "##alandır": 4743,
      "kardeşi": 4744,
      "istihbarat": 4745,
      "mühendi": 4746,
      "##reti": 4747,
      "dam": 4748,
      "kazanan": 4749,
      "yoruz": 4750,
      "ateşkes": 4751,
      "lond": 4752,
      "##umak": 4753,
      "##örü": 4754,
      "sağlayan": 4755,
      "tac": 4756,
      "##leyman": 4757,
      "mensu": 4758,
      "arkadaşı": 4759,
      "form": 4760,
      "##to": 4761,
      "##anak": 4762,
      "##alya": 4763,
      "##elt": 4764,
      "birinin": 4765,
      "##isa": 4766,
      "günümüz": 4767,
      "uzmanı": 4768,
      "düzenlediği": 4769,
      "hastane": 4770,
      "yukarı": 4771,
      "şef": 4772,
      "görmek": 4773,
      "etraf": 4774,
      "hatt": 4775,
      "lığı": 4776,
      "afrika": 4777,
      "neredeyse": 4778,
      "standar": 4779,
      "bilgisayar": 4780,
      "mevz": 4781,
      "##leyici": 4782,
      "alama": 4783,
      "hin": 4784,
      "##şek": 4785,
      "olmas": 4786,
      "##itesi": 4787,
      "edile": 4788,
      "nedeni": 4789,
      "arkasında": 4790,
      "sebebiyle": 4791,
      "vitam": 4792,
      "vic": 4793,
      "##mesinde": 4794,
      "##say": 4795,
      "yanına": 4796,
      "şub": 4797,
      "mesaf": 4798,
      "çarşam": 4799,
      "doğrult": 4800,
      "##hisar": 4801,
      "alışveriş": 4802,
      "hed": 4803,
      "##erv": 4804,
      "##cılar": 4805,
      "yüzy": 4806,
      "sakin": 4807,
      "mısır": 4808,
      "itibarıyla": 4809,
      "uyuşturucu": 4810,
      "çarşamba": 4811,
      "##resi": 4812,
      "alır": 4813,
      "##lendiği": 4814,
      "akdeniz": 4815,
      "getirilen": 4816,
      "saldırgan": 4817,
      "feth": 4818,
      "süleyman": 4819,
      "sö": 4820,
      "vali": 4821,
      "yüzünden": 4822,
      "sahaya": 4823,
      "polise": 4824,
      "##leyecek": 4825,
      "vurdu": 4826,
      "güçlendir": 4827,
      "kendilerini": 4828,
      "antrenman": 4829,
      "bara": 4830,
      "##ülüyor": 4831,
      "ülkeye": 4832,
      "##dikten": 4833,
      "ism": 4834,
      "geçirildi": 4835,
      "tedavisi": 4836,
      "42": 4837,
      "##mut": 4838,
      "##lete": 4839,
      "##usuna": 4840,
      "deneyim": 4841,
      "endeksi": 4842,
      "hor": 4843,
      "mir": 4844,
      "başlık": 4845,
      "##ündeki": 4846,
      "başlatılan": 4847,
      "köyü": 4848,
      "penaltı": 4849,
      "federasyonu": 4850,
      "istikrar": 4851,
      "sch": 4852,
      "##kim": 4853,
      "i̇dar": 4854,
      "temas": 4855,
      "verdiğini": 4856,
      "geçirdi": 4857,
      "bayra": 4858,
      "itibariyle": 4859,
      "sekret": 4860,
      "barcelona": 4861,
      "ciz": 4862,
      "piş": 4863,
      "##üksel": 4864,
      "yasağı": 4865,
      "brez": 4866,
      "basketbol": 4867,
      "reh": 4868,
      "##masıyla": 4869,
      "buradan": 4870,
      "gümüş": 4871,
      "41": 4872,
      "##arya": 4873,
      "bölgedeki": 4874,
      "fakültesi": 4875,
      "buz": 4876,
      "##itan": 4877,
      "##ever": 4878,
      "aktif": 4879,
      "uzat": 4880,
      "liralık": 4881,
      "açıklamalarda": 4882,
      "ümit": 4883,
      "brezil": 4884,
      "zih": 4885,
      "kariyer": 4886,
      "akar": 4887,
      "kaymak": 4888,
      "bakanlı": 4889,
      "tanış": 4890,
      "azalt": 4891,
      "liradan": 4892,
      "adamı": 4893,
      "çiçek": 4894,
      "fed": 4895,
      "işte": 4896,
      "örgütüne": 4897,
      "mesela": 4898,
      "sıf": 4899,
      "metro": 4900,
      "iddianam": 4901,
      "meclisi": 4902,
      "doğalgaz": 4903,
      "cerrah": 4904,
      "adliyeye": 4905,
      "fo": 4906,
      "##sy": 4907,
      "almış": 4908,
      "altern": 4909,
      "gözaltı": 4910,
      "turk": 4911,
      "yetiştir": 4912,
      "cemaat": 4913,
      "helikopter": 4914,
      "londra": 4915,
      "##ürken": 4916,
      "yedi": 4917,
      "kendine": 4918,
      "##fone": 4919,
      "politika": 4920,
      "i̇çişleri": 4921,
      "müşter": 4922,
      "stadı": 4923,
      "mini": 4924,
      "paşa": 4925,
      "##ity": 4926,
      "güvenliği": 4927,
      "tanık": 4928,
      "##tıklarını": 4929,
      "teröristler": 4930,
      "yavuz": 4931,
      "çavuşoğlu": 4932,
      "kimsenin": 4933,
      "eskişehir": 4934,
      "tazminat": 4935,
      "modern": 4936,
      "çor": 4937,
      "##nu": 4938,
      "nedir": 4939,
      "sağlan": 4940,
      "ortada": 4941,
      "girişiminin": 4942,
      "sürdürdü": 4943,
      "brüksel": 4944,
      "kelime": 4945,
      "hürriyet": 4946,
      "##hn": 4947,
      "##ori": 4948,
      "sağlığı": 4949,
      "temin": 4950,
      "bağır": 4951,
      "anlamına": 4952,
      "coş": 4953,
      "clin": 4954,
      "##çu": 4955,
      "##fik": 4956,
      "##tedir": 4957,
      "farkı": 4958,
      "bütçe": 4959,
      "fayda": 4960,
      "deprem": 4961,
      "cizre": 4962,
      "##urum": 4963,
      "işin": 4964,
      "seb": 4965,
      "şampiyonlar": 4966,
      "tasarım": 4967,
      "talimatı": 4968,
      "delil": 4969,
      "şaşır": 4970,
      "komşu": 4971,
      "nato": 4972,
      "##liliği": 4973,
      "##larca": 4974,
      "sayılı": 4975,
      "150": 4976,
      "kadınların": 4977,
      "alternatif": 4978,
      "clinton": 4979,
      "ndaki": 4980,
      "##ındır": 4981,
      "verir": 4982,
      "başkent": 4983,
      "varlık": 4984,
      "açıklamaya": 4985,
      "sivas": 4986,
      "##iledi": 4987,
      "196": 4988,
      "insani": 4989,
      "ziraat": 4990,
      "cel": 4991,
      "nci": 4992,
      "çı": 4993,
      "##üyle": 4994,
      "##muyor": 4995,
      "##bini": 4996,
      "biliyoruz": 4997,
      "görevl": 4998,
      "isimler": 4999,
      "tol": 5000,
      "duyg": 5001,
      "edildiğini": 5002,
      "mızın": 5003,
      "şimşek": 5004,
      "sigort": 5005,
      "aracılığı": 5006,
      "aykırı": 5007,
      "600": 5008,
      "esad": 5009,
      "##idin": 5010,
      "toplantıda": 5011,
      "kısmı": 5012,
      "talimat": 5013,
      "garan": 5014,
      "tunc": 5015,
      "zafer": 5016,
      "şanlıur": 5017,
      "rob": 5018,
      "##ink": 5019,
      "yang": 5020,
      "eğlen": 5021,
      "beklent": 5022,
      "döviz": 5023,
      "valisi": 5024,
      "sürpriz": 5025,
      "doğrultusunda": 5026,
      "##ekiz": 5027,
      "ins": 5028,
      "işçi": 5029,
      "##istik": 5030,
      "sağlayacak": 5031,
      "zorlu": 5032,
      "08": 5033,
      "pla": 5034,
      "çuk": 5035,
      "yarım": 5036,
      "hasar": 5037,
      "merkel": 5038,
      "soh": 5039,
      "oranında": 5040,
      "uğra": 5041,
      "intihar": 5042,
      "ışık": 5043,
      "##opa": 5044,
      "##amadı": 5045,
      "savcılık": 5046,
      "köprüsü": 5047,
      "portekiz": 5048,
      "voda": 5049,
      "ölen": 5050,
      "##eira": 5051,
      "##ire": 5052,
      "##eker": 5053,
      "anti": 5054,
      "bildi": 5055,
      "dosy": 5056,
      "şof": 5057,
      "##gari": 5058,
      "teröre": 5059,
      "maça": 5060,
      "hadi": 5061,
      "çanakk": 5062,
      "cek": 5063,
      "nik": 5064,
      "orhan": 5065,
      "ilginç": 5066,
      "yazdı": 5067,
      "üretic": 5068,
      "paylaştı": 5069,
      "ihtiyac": 5070,
      "yetkilileri": 5071,
      "nefes": 5072,
      "yaşlı": 5073,
      "eren": 5074,
      "isti": 5075,
      "karşısına": 5076,
      "yolda": 5077,
      "hikay": 5078,
      "irade": 5079,
      "star": 5080,
      "senin": 5081,
      "yiye": 5082,
      "##mara": 5083,
      "##müyor": 5084,
      "inf": 5085,
      "verilecek": 5086,
      "##sie": 5087,
      "ağab": 5088,
      "senar": 5089,
      "bozuk": 5090,
      "satışa": 5091,
      "hollanda": 5092,
      "vodafone": 5093,
      "çanakkale": 5094,
      "53": 5095,
      "rad": 5096,
      "##köy": 5097,
      "##gh": 5098,
      "evlilik": 5099,
      "##i̇k": 5100,
      "saatleri": 5101,
      "selam": 5102,
      "ithal": 5103,
      "yüzyıl": 5104,
      "niş": 5105,
      "##gah": 5106,
      "##ales": 5107,
      "##lıkla": 5108,
      "gençlik": 5109,
      "haftada": 5110,
      "telefonu": 5111,
      "##ington": 5112,
      "ihraç": 5113,
      "uğraş": 5114,
      "dini": 5115,
      "##tuk": 5116,
      "vermiş": 5117,
      "asgari": 5118,
      "hâlâ": 5119,
      "ayda": 5120,
      "arttı": 5121,
      "kahv": 5122,
      "anahtar": 5123,
      "##rim": 5124,
      "##cık": 5125,
      "karan": 5126,
      "bıraktı": 5127,
      "fiyatları": 5128,
      "finansal": 5129,
      "wash": 5130,
      "##fe": 5131,
      "açan": 5132,
      "alınarak": 5133,
      "kırık": 5134,
      "hükümetin": 5135,
      "kesinlikle": 5136,
      "si̇": 5137,
      "uc": 5138,
      "##io": 5139,
      "##sınız": 5140,
      "##ğuna": 5141,
      "##ğumuz": 5142,
      "##dip": 5143,
      "ayş": 5144,
      "kişisel": 5145,
      "uzan": 5146,
      "yaygın": 5147,
      "gitmek": 5148,
      "başladığı": 5149,
      "tren": 5150,
      "tutar": 5151,
      "kral": 5152,
      "persie": 5153,
      "coğraf": 5154,
      "ide": 5155,
      "##iğe": 5156,
      "##çın": 5157,
      "##emeyen": 5158,
      "yapması": 5159,
      "görme": 5160,
      "müdürlüğ": 5161,
      "##abileceği": 5162,
      "dos": 5163,
      "frag": 5164,
      "niye": 5165,
      "##yal": 5166,
      "##ileş": 5167,
      "yah": 5168,
      "konyaspor": 5169,
      "dolaş": 5170,
      "makin": 5171,
      "rekabet": 5172,
      "yuvar": 5173,
      "fuar": 5174,
      "mağlup": 5175,
      "washington": 5176,
      "konfer": 5177,
      "uyku": 5178,
      "sana": 5179,
      "gelenek": 5180,
      "davranış": 5181,
      "ajansı": 5182,
      "ihtimal": 5183,
      "##adaki": 5184,
      "##maması": 5185,
      "##caat": 5186,
      "evi": 5187,
      "kararını": 5188,
      "kıya": 5189,
      "damar": 5190,
      "verme": 5191,
      "ayrıl": 5192,
      "2008": 5193,
      "albüm": 5194,
      "hil": 5195,
      "##ano": 5196,
      "##iyiz": 5197,
      "maddi": 5198,
      "gerçe": 5199,
      "bask": 5200,
      "lendir": 5201,
      "memuru": 5202,
      "çök": 5203,
      "öncelikle": 5204,
      "49": 5205,
      "85": 5206,
      "dek": 5207,
      "kurş": 5208,
      "yaşıyor": 5209,
      "amir": 5210,
      "belediyespor": 5211,
      "boşan": 5212,
      "nük": 5213,
      "ves": 5214,
      "##distan": 5215,
      "bulan": 5216,
      "##ılıp": 5217,
      "##tüğü": 5218,
      "şehidin": 5219,
      "muhammed": 5220,
      "##ğından": 5221,
      "##illi": 5222,
      "maales": 5223,
      "olanlar": 5224,
      "##mayacak": 5225,
      "insanın": 5226,
      "merkezinde": 5227,
      "kaçan": 5228,
      "pereira": 5229,
      "soruşturması": 5230,
      "maalesef": 5231,
      "güne": 5232,
      "ilçe": 5233,
      "yaşar": 5234,
      "akhisar": 5235,
      "çekiyor": 5236,
      "sonuçları": 5237,
      "sigara": 5238,
      "hücr": 5239,
      "çukur": 5240,
      "##anda": 5241,
      "incel": 5242,
      "karşılı": 5243,
      "oynama": 5244,
      "berlin": 5245,
      "sıkış": 5246,
      "arkadaşları": 5247,
      "ceo": 5248,
      "##dukları": 5249,
      "zeytin": 5250,
      "deplasmanda": 5251,
      "etmişti": 5252,
      "##bileceği": 5253,
      "hayatı": 5254,
      "adayı": 5255,
      "bırakıldı": 5256,
      "ettikleri": 5257,
      "ülkemizde": 5258,
      "sorumluluk": 5259,
      "toprağa": 5260,
      "kaymakam": 5261,
      "cağı": 5262,
      "i̇r": 5263,
      "magaz": 5264,
      "##ımızı": 5265,
      "astsu": 5266,
      "magazin": 5267,
      "çoğun": 5268,
      "##diye": 5269,
      "##onu": 5270,
      "kalın": 5271,
      "olduğumuz": 5272,
      "açıklamasında": 5273,
      "mücadelede": 5274,
      "mete": 5275,
      "real": 5276,
      "ağırlık": 5277,
      "şüpheliler": 5278,
      "şut": 5279,
      "##bey": 5280,
      "##ildiğini": 5281,
      "##edek": 5282,
      "arttır": 5283,
      "okun": 5284,
      "işlemleri": 5285,
      "vakıf": 5286,
      "devreye": 5287,
      "talebi": 5288,
      "ülkemizin": 5289,
      "tasarı": 5290,
      "altyapı": 5291,
      "vicdan": 5292,
      "07": 5293,
      "işbir": 5294,
      "##tanın": 5295,
      "##esindeki": 5296,
      "olmadan": 5297,
      "ekipler": 5298,
      "uygulaması": 5299,
      "beden": 5300,
      "cenazesi": 5301,
      "alkol": 5302,
      "küt": 5303,
      "mon": 5304,
      "##so": 5305,
      "##kır": 5306,
      "##lis": 5307,
      "kullanarak": 5308,
      "ikram": 5309,
      "ülkelerin": 5310,
      "yaşadı": 5311,
      "özgürlük": 5312,
      "hesabından": 5313,
      "59": 5314,
      "nev": 5315,
      "##ly": 5316,
      "##cisi": 5317,
      "##stin": 5318,
      "bodr": 5319,
      "##ganda": 5320,
      "thy": 5321,
      "ettiklerini": 5322,
      "nam": 5323,
      "gördüğü": 5324,
      "vermesi": 5325,
      "kalab": 5326,
      "yakından": 5327,
      "koc": 5328,
      "vatandaşlarımız": 5329,
      "mıza": 5330,
      "şampiyonluk": 5331,
      "üretimi": 5332,
      "itfaiye": 5333,
      "kamera": 5334,
      "kaynağı": 5335,
      "bodrum": 5336,
      "mül": 5337,
      "ulu": 5338,
      "zan": 5339,
      "##siye": 5340,
      "##gk": 5341,
      "işık": 5342,
      "sözlerini": 5343,
      "alındığı": 5344,
      "basit": 5345,
      "kimi": 5346,
      "parçası": 5347,
      "kaybı": 5348,
      "sohbet": 5349,
      "rast": 5350,
      "##madığını": 5351,
      "##eyeceği": 5352,
      "planı": 5353,
      "enerj": 5354,
      "mensubu": 5355,
      "lev": 5356,
      "tra": 5357,
      "##biliyor": 5358,
      "kore": 5359,
      "kanunu": 5360,
      "besin": 5361,
      "john": 5362,
      "tipi": 5363,
      "üste": 5364,
      "mahkemeye": 5365,
      "oynanacak": 5366,
      "ır": 5367,
      "ülkem": 5368,
      "beyin": 5369,
      "beslenme": 5370,
      "aktardı": 5371,
      "hastalığı": 5372,
      "disip": 5373,
      "##tük": 5374,
      "birik": 5375,
      "##lerince": 5376,
      "oğl": 5377,
      "edeb": 5378,
      "şehitler": 5379,
      "aktaran": 5380,
      "hit": 5381,
      "##ğunda": 5382,
      "##ğinden": 5383,
      "##ılım": 5384,
      "##azı": 5385,
      "i̇d": 5386,
      "tuttu": 5387,
      "serdar": 5388,
      "tüketici": 5389,
      "haftasında": 5390,
      "şenol": 5391,
      "mi̇t": 5392,
      "lüks": 5393,
      "alınacak": 5394,
      "eb": 5395,
      "##gü": 5396,
      "##aza": 5397,
      "özbek": 5398,
      "dikkate": 5399,
      "maruz": 5400,
      "##ilmişti": 5401,
      "ölçü": 5402,
      "astsubay": 5403,
      "##ınıyor": 5404,
      "kazada": 5405,
      "reform": 5406,
      "bakanlar": 5407,
      "profesyon": 5408,
      "##ogle": 5409,
      "google": 5410,
      "alev": 5411,
      "profesyonel": 5412,
      "##vo": 5413,
      "##lamanın": 5414,
      "##akistan": 5415,
      "sorunun": 5416,
      "duvar": 5417,
      "düzenlendi": 5418,
      "bün": 5419,
      "mük": 5420,
      "##eral": 5421,
      "dediği": 5422,
      "müst": 5423,
      "oysa": 5424,
      "dursun": 5425,
      "sağlam": 5426,
      "isabet": 5427,
      "sıkı": 5428,
      "yakınları": 5429,
      "değerlendirme": 5430,
      "ordusu": 5431,
      "organizasyon": 5432,
      "56": 5433,
      "52": 5434,
      "kum": 5435,
      "##dk": 5436,
      "##ulduğu": 5437,
      "##emen": 5438,
      "202": 5439,
      "mesle": 5440,
      "bahar": 5441,
      "54": 5442,
      "##kesi": 5443,
      "##yım": 5444,
      "sözlerine": 5445,
      "bekleyen": 5446,
      "marmara": 5447,
      "selim": 5448,
      "maddesi": 5449,
      "olmayacak": 5450,
      "yıllardır": 5451,
      "kongre": 5452,
      "ağaç": 5453,
      "imkân": 5454,
      "je": 5455,
      "gelişim": 5456,
      "ermeni": 5457,
      "evin": 5458,
      "otop": 5459,
      "meydanı": 5460,
      "parçalı": 5461,
      "erzurum": 5462,
      "biçimde": 5463,
      "!..": 5464,
      "dim": 5465,
      "##arım": 5466,
      "verilmesi": 5467,
      "topla": 5468,
      "li̇": 5469,
      "adil": 5470,
      "sevgil": 5471,
      "çekil": 5472,
      "olurken": 5473,
      "##liğinin": 5474,
      "ayakta": 5475,
      "itiraf": 5476,
      "standart": 5477,
      "kurşun": 5478,
      "kus": 5479,
      "lit": 5480,
      "rok": 5481,
      "##liyet": 5482,
      "##rol": 5483,
      "##rük": 5484,
      "olduğunun": 5485,
      "saldırısı": 5486,
      "i̇nşa": 5487,
      "yaptığımız": 5488,
      "misaf": 5489,
      "5g": 5490,
      "bet": 5491,
      "algı": 5492,
      "gelip": 5493,
      "terim": 5494,
      "##edeki": 5495,
      "genellikle": 5496,
      "yoktu": 5497,
      "otomotiv": 5498,
      "hisse": 5499,
      "mühendis": 5500,
      "saniye": 5501,
      "tablo": 5502,
      "tamamladı": 5503,
      "pet": 5504,
      "sön": 5505,
      "vah": 5506,
      "yim": 5507,
      "ök": 5508,
      "##ğiyle": 5509,
      "##fan": 5510,
      "##ınan": 5511,
      "##eksiyon": 5512,
      "etki": 5513,
      "mahmut": 5514,
      "sevgi": 5515,
      "düzenli": 5516,
      "boyu": 5517,
      "dokunulmaz": 5518,
      "aldık": 5519,
      "##lığa": 5520,
      "kadık": 5521,
      "verim": 5522,
      "gidip": 5523,
      "dünyas": 5524,
      "##eliği": 5525,
      "ilgilen": 5526,
      "i̇nşallah": 5527,
      "gönderdi": 5528,
      "mesajı": 5529,
      "iyileş": 5530,
      "gidecek": 5531,
      "filistin": 5532,
      "##ger": 5533,
      "##gi̇": 5534,
      "başlama": 5535,
      "atış": 5536,
      "oturan": 5537,
      "açtığı": 5538,
      "kod": 5539,
      "güçlerinin": 5540,
      "meyve": 5541,
      "aşkın": 5542,
      "##luluğu": 5543,
      "72": 5544,
      "niyet": 5545,
      "##kun": 5546,
      "##tak": 5547,
      "ani": 5548,
      "bina": 5549,
      "gereği": 5550,
      "2009": 5551,
      "##iyade": 5552,
      "250": 5553,
      "koydu": 5554,
      "kentinde": 5555,
      "havaliman": 5556,
      "nitelik": 5557,
      "aracılığıyla": 5558,
      "yım": 5559,
      "artan": 5560,
      "##cağına": 5561,
      "türkmen": 5562,
      "yerden": 5563,
      "aks": 5564,
      "belirtiliyor": 5565,
      "ülkeyi": 5566,
      "##bank": 5567,
      "teşeb": 5568,
      "##chester": 5569,
      "sebebi": 5570,
      "dönüştür": 5571,
      "efendi": 5572,
      "görülüyor": 5573,
      "asist": 5574,
      "kadıköy": 5575,
      "kulak": 5576,
      "dönemin": 5577,
      "oynayan": 5578,
      "efsan": 5579,
      "by": 5580,
      "mür": 5581,
      "##yol": 5582,
      "##binde": 5583,
      "manchester": 5584,
      "oyuncular": 5585,
      "kemik": 5586,
      "hollandalı": 5587,
      "olim": 5588,
      "payı": 5589,
      "sün": 5590,
      "vil": 5591,
      "alması": 5592,
      "yapabilir": 5593,
      "operasyonlar": 5594,
      "kerim": 5595,
      "##memesi": 5596,
      "verici": 5597,
      "şanlıurfa": 5598,
      "olimp": 5599,
      "##tup": 5600,
      "##feri": 5601,
      "##ciler": 5602,
      "##maye": 5603,
      "##ulmuş": 5604,
      "süresi": 5605,
      "halka": 5606,
      "ihbar": 5607,
      "bununla": 5608,
      "##gay": 5609,
      "##leer": 5610,
      "oluştu": 5611,
      "##ti̇": 5612,
      "sağlıyor": 5613,
      "ekmek": 5614,
      "suik": 5615,
      "dua": 5616,
      "refer": 5617,
      "bahs": 5618,
      "görüyoruz": 5619,
      "cilt": 5620,
      "bilm": 5621,
      "bileceği": 5622,
      "karşılan": 5623,
      "edebilir": 5624,
      "manisa": 5625,
      "fırt": 5626,
      "güneydoğu": 5627,
      "avukatı": 5628,
      "##cunun": 5629,
      "avcı": 5630,
      "eğitimi": 5631,
      "hanım": 5632,
      "propa": 5633,
      "kadros": 5634,
      "olmuştur": 5635,
      "anlayış": 5636,
      "bis": 5637,
      "cüm": 5638,
      "mıyor": 5639,
      "##lığına": 5640,
      "##ımda": 5641,
      "çıkması": 5642,
      "yolları": 5643,
      "burun": 5644,
      "kıbr": 5645,
      "performansı": 5646,
      "usul": 5647,
      "başlangı": 5648,
      "51": 5649,
      "66": 5650,
      "ça": 5651,
      "##gesi": 5652,
      "birer": 5653,
      "antal": 5654,
      "vererek": 5655,
      "kateg": 5656,
      "harc": 5657,
      "çıkarıldı": 5658,
      "gelişme": 5659,
      "geçerli": 5660,
      "nükleer": 5661,
      "propaganda": 5662,
      "kıbrıs": 5663,
      "city": 5664,
      "##cer": 5665,
      "gelmesi": 5666,
      "##elerle": 5667,
      "##i̇m": 5668,
      "gözlem": 5669,
      "olayla": 5670,
      "bilgilere": 5671,
      "heyeti": 5672,
      "yargıtay": 5673,
      "çakır": 5674,
      "ex": 5675,
      "##raz": 5676,
      "anı": 5677,
      "işler": 5678,
      "duruma": 5679,
      "potan": 5680,
      "burcu": 5681,
      "içeren": 5682,
      "dinam": 5683,
      "kalkınma": 5684,
      "beraberlik": 5685,
      "tasarru": 5686,
      "olmuştu": 5687,
      "78": 5688,
      "mavi": 5689,
      "sağladı": 5690,
      "##ovic": 5691,
      "kendisinin": 5692,
      "anlatıyor": 5693,
      "daire": 5694,
      "geleceği": 5695,
      "bec": 5696,
      "şansı": 5697,
      "sanız": 5698,
      "düzenledi": 5699,
      "davası": 5700,
      "sporcu": 5701,
      "tutuklama": 5702,
      "araştırmalar": 5703,
      "bayramı": 5704,
      "faruk": 5705,
      "şeri": 5706,
      "##rab": 5707,
      "##ılmasına": 5708,
      "yapacağız": 5709,
      "göreve": 5710,
      "##liğin": 5711,
      "demirtaş": 5712,
      "birbirine": 5713,
      "sulh": 5714,
      "açığa": 5715,
      "##ane": 5716,
      "i̇tal": 5717,
      "geçiyor": 5718,
      "bölgesel": 5719,
      "olayda": 5720,
      "ikili": 5721,
      "tanıtım": 5722,
      "kulübün": 5723,
      "dağıt": 5724,
      "kurtulmuş": 5725,
      "kanıt": 5726,
      "rüzgar": 5727,
      "06": 5728,
      "ov": 5729,
      "##ps": 5730,
      "birden": 5731,
      "##lana": 5732,
      "##lenmiş": 5733,
      "ergen": 5734,
      "bakır": 5735,
      "başladık": 5736,
      "yenilen": 5737,
      "yükselt": 5738,
      "kardeşler": 5739,
      "valiliği": 5740,
      "sürecinde": 5741,
      "fabrik": 5742,
      "roket": 5743,
      "i̇nşaat": 5744,
      "ney": 5745,
      "seni": 5746,
      "##pe": 5747,
      "##gam": 5748,
      "##des": 5749,
      "başlar": 5750,
      "##lenin": 5751,
      "kale": 5752,
      "##i̇z": 5753,
      "##ılacağı": 5754,
      "yükseliş": 5755,
      "yalnızca": 5756,
      "akademisyen": 5757,
      "vize": 5758,
      "çam": 5759,
      "##jan": 5760,
      "##emiş": 5761,
      "denet": 5762,
      "gerektiği": 5763,
      "kendim": 5764,
      "karşılaşma": 5765,
      "idari": 5766,
      "i̇sveç": 5767,
      "tecrübeli": 5768,
      "i̇talyan": 5769,
      "fen": 5770,
      "kartı": 5771,
      "esen": 5772,
      "geçiren": 5773,
      "112": 5774,
      "ürünleri": 5775,
      "odası": 5776,
      "mimar": 5777,
      "tasarruf": 5778,
      "hel": 5779,
      "##uç": 5780,
      "##düz": 5781,
      "duran": 5782,
      "saldırının": 5783,
      "yapıyoruz": 5784,
      "elektronik": 5785,
      "##memiş": 5786,
      "kampanya": 5787,
      "beğen": 5788,
      "büny": 5789,
      "set": 5790,
      "özet": 5791,
      "bekle": 5792,
      "gittiği": 5793,
      "metr": 5794,
      "toplumun": 5795,
      "67": 5796,
      "##ula": 5797,
      "##ald": 5798,
      "##lerken": 5799,
      "dönen": 5800,
      "suyu": 5801,
      "sözleri": 5802,
      "muhaf": 5803,
      "gittik": 5804,
      "yapılmış": 5805,
      "hacı": 5806,
      "##suzluk": 5807,
      "larımızın": 5808,
      "ağız": 5809,
      "nusay": 5810,
      "95": 5811,
      "tap": 5812,
      "yken": 5813,
      "işle": 5814,
      "isteme": 5815,
      "önceden": 5816,
      "bankalar": 5817,
      "sorunları": 5818,
      "toplumsal": 5819,
      "misafir": 5820,
      "000": 5821,
      "alg": 5822,
      "geldik": 5823,
      "sahası": 5824,
      "getirdiği": 5825,
      "duyar": 5826,
      "oynaya": 5827,
      "kilit": 5828,
      "mektup": 5829,
      "antalyaspor": 5830,
      "sunuyor": 5831,
      "##âh": 5832,
      "##uyoruz": 5833,
      "geçirdiği": 5834,
      "##mayın": 5835,
      "gomez": 5836,
      "otomatik": 5837,
      "istifa": 5838,
      "ul": 5839,
      "##ner": 5840,
      "yarışma": 5841,
      "gerekti": 5842,
      "dernek": 5843,
      "ünal": 5844,
      "komp": 5845,
      "biliriz": 5846,
      "açıklamalar": 5847,
      "tehlikeli": 5848,
      "zamanı": 5849,
      "olimpiyat": 5850,
      "yedek": 5851,
      "##layıp": 5852,
      "yolunda": 5853,
      "özelliği": 5854,
      "korumak": 5855,
      "bugünkü": 5856,
      "başbakanlık": 5857,
      "mezun": 5858,
      "gerçekleşen": 5859,
      "gayrim": 5860,
      "69": 5861,
      "##giz": 5862,
      "##di̇": 5863,
      "başından": 5864,
      "kaybol": 5865,
      "##ciğer": 5866,
      "yönlendir": 5867,
      "sermaye": 5868,
      "iddiasıyla": 5869,
      "cihan": 5870,
      "tecav": 5871,
      "düzenlenecek": 5872,
      "yolculu": 5873,
      "tünel": 5874,
      "##zat": 5875,
      "günler": 5876,
      "aklı": 5877,
      "özer": 5878,
      "atılan": 5879,
      "durumun": 5880,
      "muhteş": 5881,
      "sessiz": 5882,
      "hediye": 5883,
      "muhteşem": 5884,
      "58": 5885,
      "pol": 5886,
      "militan": 5887,
      "topal": 5888,
      "ekledi": 5889,
      "ekiplerinin": 5890,
      "##lusu": 5891,
      "hamle": 5892,
      "ücretsiz": 5893,
      "açıdan": 5894,
      "bireysel": 5895,
      "kıyafet": 5896,
      "tecavüz": 5897,
      "##lası": 5898,
      "alak": 5899,
      "ettiler": 5900,
      "türkçe": 5901,
      "taraftan": 5902,
      "ondan": 5903,
      "sırt": 5904,
      "izle": 5905,
      "2007": 5906,
      "arkadaşlar": 5907,
      "sektörü": 5908,
      "raporu": 5909,
      "icra": 5910,
      "bl": 5911,
      "pah": 5912,
      "##vat": 5913,
      "günden": 5914,
      "##portaj": 5915,
      "girdiği": 5916,
      "bunlardan": 5917,
      "tutan": 5918,
      "röportaj": 5919,
      "nusaybin": 5920,
      "81": 5921,
      "dha": 5922,
      "çaba": 5923,
      "şunu": 5924,
      "##ılırken": 5925,
      "yerlerde": 5926,
      "getirmek": 5927,
      "yürür": 5928,
      "hedefi": 5929,
      "düşünce": 5930,
      "okulu": 5931,
      "sorularını": 5932,
      "dalg": 5933,
      "gümrük": 5934,
      "adres": 5935,
      "düğün": 5936,
      "karabük": 5937,
      "potansiy": 5938,
      "nü": 5939,
      "birini": 5940,
      "##eyerek": 5941,
      "alp": 5942,
      "özdemir": 5943,
      "atak": 5944,
      "##tığımız": 5945,
      "taşıyor": 5946,
      "##abiliyor": 5947,
      "bitti": 5948,
      "kavg": 5949,
      "giyen": 5950,
      "kasımpaşa": 5951,
      "hâkim": 5952,
      "stratejik": 5953,
      "05": 5954,
      "aley": 5955,
      "hekim": 5956,
      "riz": 5957,
      "##ard": 5958,
      "nez": 5959,
      "tarif": 5960,
      "##cısı": 5961,
      "hayran": 5962,
      "uzay": 5963,
      "##ansiyon": 5964,
      "kavuş": 5965,
      "osmanlıspor": 5966,
      "görevlisi": 5967,
      "vef": 5968,
      "başrol": 5969,
      "özen": 5970,
      "karşın": 5971,
      "olacağız": 5972,
      "yüklü": 5973,
      "örgü": 5974,
      "yatak": 5975,
      "ilişki": 5976,
      "malat": 5977,
      "kavga": 5978,
      "firma": 5979,
      "uzmanlar": 5980,
      "motos": 5981,
      "od": 5982,
      "##tek": 5983,
      "##land": 5984,
      "gelerek": 5985,
      "santr": 5986,
      "harca": 5987,
      "zorluk": 5988,
      "120": 5989,
      "hesabı": 5990,
      "pren": 5991,
      "başlatıldı": 5992,
      "esnasında": 5993,
      "i̇sviç": 5994,
      "festival": 5995,
      "eh": 5996,
      "##ited": 5997,
      "operasyonlarda": 5998,
      "dikkatli": 5999,
      "canlandır": 6000,
      "yaklaşım": 6001,
      "yağışı": 6002,
      "taşıma": 6003,
      "gençlerbirliği": 6004,
      "yiyecek": 6005,
      "kâr": 6006,
      "sinde": 6007,
      "##ispor": 6008,
      "yüzü": 6009,
      "##bilmek": 6010,
      "##apı": 6011,
      "söylem": 6012,
      "hakkari": 6013,
      "bazıları": 6014,
      "piyasa": 6015,
      "i̇stih": 6016,
      "hastalıkları": 6017,
      "kira": 6018,
      "##vu": 6019,
      "##atik": 6020,
      "görüle": 6021,
      "ettim": 6022,
      "lerimizi": 6023,
      "takıma": 6024,
      "seviye": 6025,
      "görevini": 6026,
      "üstü": 6027,
      "öğrencisi": 6028,
      "dığı": 6029,
      "hatırlatan": 6030,
      "taciz": 6031,
      "ela": 6032,
      "lo": 6033,
      "laf": 6034,
      "por": 6035,
      "öf": 6036,
      "##nes": 6037,
      "##dol": 6038,
      "##ki̇": 6039,
      "bilmek": 6040,
      "yara": 6041,
      "mav": 6042,
      "girecek": 6043,
      "prote": 6044,
      "olası": 6045,
      "sergi": 6046,
      "ihal": 6047,
      "##uyorum": 6048,
      "gösterdiği": 6049,
      "i̇nan": 6050,
      "önemlidir": 6051,
      "köpek": 6052,
      "##berg": 6053,
      "yoluyla": 6054,
      "bedeli": 6055,
      "endişe": 6056,
      "57": 6057,
      "sip": 6058,
      "zır": 6059,
      "çatı": 6060,
      "##desi": 6061,
      "##ğıt": 6062,
      "değeri": 6063,
      "bizler": 6064,
      "sözü": 6065,
      "ortasında": 6066,
      "ifadeleri": 6067,
      "emeklilik": 6068,
      "kere": 6069,
      "darbec": 6070,
      "nesil": 6071,
      "dosya": 6072,
      "sne": 6073,
      "şeb": 6074,
      "##lamış": 6075,
      "ayar": 6076,
      "edilerek": 6077,
      "yakış": 6078,
      "bunlara": 6079,
      "sözde": 6080,
      "sever": 6081,
      "hata": 6082,
      "bilgilendir": 6083,
      "babam": 6084,
      "maliye": 6085,
      "yapıldığını": 6086,
      "bankacılık": 6087,
      "fl": 6088,
      "ım": 6089,
      "##ıd": 6090,
      "##ıklık": 6091,
      "yerinden": 6092,
      "bakış": 6093,
      "evli": 6094,
      "kıyı": 6095,
      "bilgisi": 6096,
      "tanıt": 6097,
      "kaynaklar": 6098,
      "kitle": 6099,
      "fotoğrafı": 6100,
      "bağlantılı": 6101,
      "las": 6102,
      "dey": 6103,
      "##ahh": 6104,
      "vermeye": 6105,
      "bulundur": 6106,
      "haklı": 6107,
      "merkezine": 6108,
      "muhtem": 6109,
      "moda": 6110,
      "ref": 6111,
      "yıldızı": 6112,
      "irti": 6113,
      "piyan": 6114,
      "tff": 6115,
      "##übe": 6116,
      "##onal": 6117,
      "##ster": 6118,
      "ang": 6119,
      "bileceğini": 6120,
      "yılının": 6121,
      "çıkarak": 6122,
      "aktör": 6123,
      "gerektir": 6124,
      "ülkeleri": 6125,
      "derb": 6126,
      "benzeri": 6127,
      "gözyaş": 6128,
      "tribün": 6129,
      "km": 6130,
      "omuz": 6131,
      "buluştu": 6132,
      "liğe": 6133,
      "bakın": 6134,
      "merkezli": 6135,
      "futbolcular": 6136,
      "noktasında": 6137,
      "gördüğ": 6138,
      "sıfır": 6139,
      "68": 6140,
      "ozan": 6141,
      "ız": 6142,
      "##ilirken": 6143,
      "aram": 6144,
      "##usal": 6145,
      "erol": 6146,
      "farkında": 6147,
      "beyan": 6148,
      "yaşandığı": 6149,
      "ligin": 6150,
      "borsa": 6151,
      "resim": 6152,
      "herkese": 6153,
      "etkisiyle": 6154,
      "amerikalı": 6155,
      "kapasit": 6156,
      "##dırma": 6157,
      "süreli": 6158,
      "##manız": 6159,
      "##lüğe": 6160,
      "halil": 6161,
      "uzaklaştır": 6162,
      "kupa": 6163,
      "gecik": 6164,
      "ayakk": 6165,
      "##ijder": 6166,
      "zorunlu": 6167,
      "sneijder": 6168,
      "cey": 6169,
      "ur": 6170,
      "##mel": 6171,
      "##iydi": 6172,
      "yılından": 6173,
      "tarz": 6174,
      "kimliği": 6175,
      "i̇şleri": 6176,
      "mevki": 6177,
      "hizmeti": 6178,
      "sürdürüyor": 6179,
      "raporda": 6180,
      "tavır": 6181,
      "gazeteciler": 6182,
      "malzem": 6183,
      "76": 6184,
      "abi": 6185,
      "tos": 6186,
      "##ski": 6187,
      "işgal": 6188,
      "geçecek": 6189,
      "##ilip": 6190,
      "telek": 6191,
      "hükm": 6192,
      "teröristin": 6193,
      "mevsim": 6194,
      "hamile": 6195,
      "ödey": 6196,
      "sorumlusu": 6197,
      "meşru": 6198,
      "şartı": 6199,
      "yetkili": 6200,
      "edem": 6201,
      "esed": 6202,
      "nuz": 6203,
      "##vin": 6204,
      "çıkıp": 6205,
      "uyan": 6206,
      "cezalandır": 6207,
      "görüştü": 6208,
      "anlaşması": 6209,
      "nıza": 6210,
      "yaptıklarını": 6211,
      "meden": 6212,
      "##elendir": 6213,
      "kayser": 6214,
      "sorgulama": 6215,
      "79": 6216,
      "##satı": 6217,
      "aldıkları": 6218,
      "katli": 6219,
      "dedik": 6220,
      "kimin": 6221,
      "çalışmalarını": 6222,
      "değerlendirmesinde": 6223,
      "bordo": 6224,
      "kavram": 6225,
      "semih": 6226,
      "dağıtım": 6227,
      "zeyn": 6228,
      "şubesi": 6229,
      "dük": 6230,
      "##rist": 6231,
      "günün": 6232,
      "2018": 6233,
      "yüzlerce": 6234,
      "evlen": 6235,
      "derbi": 6236,
      "üstüne": 6237,
      "2002": 6238,
      "kaldırılması": 6239,
      "hamza": 6240,
      "kısıt": 6241,
      "ci̇": 6242,
      "ep": 6243,
      "##idi": 6244,
      "##ğit": 6245,
      "##ant": 6246,
      "##ılmasını": 6247,
      "enst": 6248,
      "##usunun": 6249,
      "kenan": 6250,
      "yönel": 6251,
      "yakalama": 6252,
      "sanki": 6253,
      "sergil": 6254,
      "yasin": 6255,
      "komutan": 6256,
      "oradan": 6257,
      "şüphelilerin": 6258,
      "geçmişte": 6259,
      "lacivertli": 6260,
      "popüler": 6261,
      "muhabirine": 6262,
      "fethullah": 6263,
      "##sh": 6264,
      "##sit": 6265,
      "##uki": 6266,
      "kayyum": 6267,
      "sağanak": 6268,
      "olmayı": 6269,
      "çekim": 6270,
      "alacağı": 6271,
      "hizmetleri": 6272,
      "sektöründe": 6273,
      "engelli": 6274,
      "yalçın": 6275,
      "üssü": 6276,
      "meselesi": 6277,
      "virüs": 6278,
      "zırh": 6279,
      "seri": 6280,
      "zinc": 6281,
      "##ancı": 6282,
      "tedir": 6283,
      "kalıyor": 6284,
      "##elerinden": 6285,
      "##larındaki": 6286,
      "kullanıyor": 6287,
      "amac": 6288,
      "ifadesi": 6289,
      "olayları": 6290,
      "##leyerek": 6291,
      "golü": 6292,
      "kaybettiği": 6293,
      "##enkul": 6294,
      "kilometr": 6295,
      "kocaeli": 6296,
      "sekreteri": 6297,
      "cümle": 6298,
      "gayrimenkul": 6299,
      "cas": 6300,
      "lüt": 6301,
      "##kar": 6302,
      "aktiv": 6303,
      "##iyetini": 6304,
      "seven": 6305,
      "üstünde": 6306,
      "dığını": 6307,
      "taraftarlar": 6308,
      "dörd": 6309,
      "depo": 6310,
      "bayrağı": 6311,
      "77": 6312,
      "bez": 6313,
      "##mesiyle": 6314,
      "buradaki": 6315,
      "harit": 6316,
      "uçağı": 6317,
      "kızıl": 6318,
      "filmin": 6319,
      "düzeyde": 6320,
      "tuzak": 6321,
      "milletvekilleri": 6322,
      "tolga": 6323,
      "ması": 6324,
      "sinin": 6325,
      "##ms": 6326,
      "##qu": 6327,
      "##eniz": 6328,
      "kalıcı": 6329,
      "yazdığı": 6330,
      "hareketi": 6331,
      "saldırıyı": 6332,
      "küf": 6333,
      "öğrencilerin": 6334,
      "larımızı": 6335,
      "meşin": 6336,
      "yönündeki": 6337,
      "olamaz": 6338,
      "di̇": 6339,
      "kanlı": 6340,
      "gergin": 6341,
      "taksi": 6342,
      "##ersiz": 6343,
      "##mızı": 6344,
      "galip": 6345,
      "vatandaşı": 6346,
      "caner": 6347,
      "tutuklanan": 6348,
      "dizisi": 6349,
      "yunus": 6350,
      "şeref": 6351,
      "ihtimali": 6352,
      "vizyon": 6353,
      "disiplin": 6354,
      "lezz": 6355,
      "sus": 6356,
      "öv": 6357,
      "##alarak": 6358,
      "seçenek": 6359,
      "cengiz": 6360,
      "şarkıcı": 6361,
      "kurtarma": 6362,
      "lisans": 6363,
      "şiddetli": 6364,
      "oyuncunun": 6365,
      "i̇hra": 6366,
      "egzer": 6367,
      "kategor": 6368,
      "cağ": 6369,
      "##kları": 6370,
      "yacak": 6371,
      "yıldan": 6372,
      "atıldı": 6373,
      "altının": 6374,
      "ihanet": 6375,
      "projenin": 6376,
      "periy": 6377,
      "sezonun": 6378,
      "jose": 6379,
      "psikolojik": 6380,
      "avustur": 6381,
      "cak": 6382,
      "tetik": 6383,
      "öy": 6384,
      "##ai": 6385,
      "##ğrul": 6386,
      "oyuna": 6387,
      "milletler": 6388,
      "faktör": 6389,
      "sitesi": 6390,
      "kaçakç": 6391,
      "festivali": 6392,
      "japonya": 6393,
      "müzaker": 6394,
      "##her": 6395,
      "##onun": 6396,
      "##ami": 6397,
      "bulama": 6398,
      "sürülen": 6399,
      "hali": 6400,
      "dışına": 6401,
      "kırsal": 6402,
      "devrim": 6403,
      "gayret": 6404,
      "alkış": 6405,
      "62": 6406,
      "ailen": 6407,
      "atıyor": 6408,
      "play": 6409,
      "##lili": 6410,
      "##eden": 6411,
      "bula": 6412,
      "##ği̇": 6413,
      "derken": 6414,
      "##idor": 6415,
      "eşinin": 6416,
      "toplanan": 6417,
      "yenik": 6418,
      "kuvvetli": 6419,
      "kampany": 6420,
      "vekil": 6421,
      "slogan": 6422,
      "hindistan": 6423,
      "##şak": 6424,
      "anlama": 6425,
      "yönde": 6426,
      "geriye": 6427,
      "barikat": 6428,
      "halkının": 6429,
      "telefonla": 6430,
      "yükselen": 6431,
      "sektörün": 6432,
      "hukuki": 6433,
      "bilinç": 6434,
      "bro": 6435,
      "he": 6436,
      "##gs": 6437,
      "##ore": 6438,
      "görünüyor": 6439,
      "çıkmış": 6440,
      "##port": 6441,
      "getiriyor": 6442,
      "görevlendir": 6443,
      "üstelik": 6444,
      "sonuçlar": 6445,
      "kesinti": 6446,
      "donald": 6447,
      "müşteri": 6448,
      "keyif": 6449,
      "mevzu": 6450,
      "insanı": 6451,
      "motosiklet": 6452,
      "64": 6453,
      "kalem": 6454,
      "işyer": 6455,
      "değildi": 6456,
      "erkan": 6457,
      "alana": 6458,
      "polisler": 6459,
      "tarihleri": 6460,
      "ikna": 6461,
      "kapsamda": 6462,
      "işlemi": 6463,
      "satışı": 6464,
      "üzün": 6465,
      "soylu": 6466,
      "rieker": 6467,
      "##burg": 6468,
      "telekom": 6469,
      "kayserispor": 6470,
      "tüp": 6471,
      "utan": 6472,
      "göm": 6473,
      "akl": 6474,
      "erte": 6475,
      "parayı": 6476,
      "muğ": 6477,
      "unu": 6478,
      "yazık": 6479,
      "bekliyoruz": 6480,
      "koridor": 6481,
      "ulaşım": 6482,
      "saldırıları": 6483,
      "gerçekleştirdi": 6484,
      "oscar": 6485,
      "geleneksel": 6486,
      "karşılığında": 6487,
      "sesi": 6488,
      "##pol": 6489,
      "##esir": 6490,
      "##ste": 6491,
      "##mediğini": 6492,
      "asay": 6493,
      "bizde": 6494,
      "doları": 6495,
      "yazılım": 6496,
      "kendimi": 6497,
      "izledi": 6498,
      "##lock": 6499,
      "##veren": 6500,
      "kurtarı": 6501,
      "tavsiye": 6502,
      "i̇sviçre": 6503,
      "nca": 6504,
      "##esin": 6505,
      "anım": 6506,
      "##landığını": 6507,
      "gidece": 6508,
      "turu": 6509,
      "yürek": 6510,
      "ailesinin": 6511,
      "kültürel": 6512,
      "çarptı": 6513,
      "lise": 6514,
      "samsung": 6515,
      "danışman": 6516,
      "karanlık": 6517,
      "ucuz": 6518,
      "ölçüde": 6519,
      "egzersiz": 6520,
      "88": 6521,
      "füz": 6522,
      "nize": 6523,
      "rum": 6524,
      "##mam": 6525,
      "##amıyor": 6526,
      "alıcı": 6527,
      "alırken": 6528,
      "##ablus": 6529,
      "yapıp": 6530,
      "i̇liş": 6531,
      "sürdüğü": 6532,
      "parmak": 6533,
      "söylediği": 6534,
      "advo": 6535,
      "bölgenin": 6536,
      "olaylar": 6537,
      "kararın": 6538,
      "hatay": 6539,
      "kaçın": 6540,
      "sezonunda": 6541,
      "##layacağı": 6542,
      "demirel": 6543,
      "fikret": 6544,
      "çiğ": 6545,
      "balıkesir": 6546,
      "ısrar": 6547,
      "elimiz": 6548,
      "inanıyorum": 6549,
      "i̇daresi": 6550,
      "rizespor": 6551,
      "riekerink": 6552,
      "bi̇r": 6553,
      "klas": 6554,
      "lerimizin": 6555,
      "##lıkları": 6556,
      "zamanlı": 6557,
      "bence": 6558,
      "artarak": 6559,
      "hattı": 6560,
      "gerçekleştirdiği": 6561,
      "şirketler": 6562,
      "noktaya": 6563,
      "okula": 6564,
      "yayımlanan": 6565,
      "yerleşim": 6566,
      "oğuzhan": 6567,
      "istismar": 6568,
      "işadam": 6569,
      "sevgili": 6570,
      "kalabalık": 6571,
      "katliam": 6572,
      "dördüncü": 6573,
      "kına": 6574,
      "miyor": 6575,
      "skan": 6576,
      "geçtik": 6577,
      "otoy": 6578,
      "hayati": 6579,
      "döv": 6580,
      "riski": 6581,
      "i̇stik": 6582,
      "karıştır": 6583,
      "fayd": 6584,
      "gaziantepspor": 6585,
      "birleşmiş": 6586,
      "fragmanı": 6587,
      "63": 6588,
      "diyet": 6589,
      "meme": 6590,
      "yo": 6591,
      "##bon": 6592,
      "inin": 6593,
      "##alarla": 6594,
      "teb": 6595,
      "koz": 6596,
      "görevden": 6597,
      "suçu": 6598,
      "olmaktan": 6599,
      "çıktığını": 6600,
      "başardı": 6601,
      "mensuplarının": 6602,
      "vefat": 6603,
      "##yur": 6604,
      "##leket": 6605,
      "##oper": 6606,
      "kos": 6607,
      "insanlara": 6608,
      "tarihinin": 6609,
      "memleket": 6610,
      "başarısız": 6611,
      "hendek": 6612,
      "ilave": 6613,
      "salonu": 6614,
      "federal": 6615,
      "gönüllü": 6616,
      "imam": 6617,
      "teşebbüs": 6618,
      "cu": 6619,
      "##yak": 6620,
      "##attin": 6621,
      "demiş": 6622,
      "alper": 6623,
      "yarısı": 6624,
      "müj": 6625,
      "muay": 6626,
      "##düğünü": 6627,
      "##miştir": 6628,
      "okur": 6629,
      "kişiden": 6630,
      "uygulanan": 6631,
      "cesedi": 6632,
      "amaçlı": 6633,
      "dayanışma": 6634,
      "ortamda": 6635,
      "zirvesi": 6636,
      "##name": 6637,
      "başlangıç": 6638,
      "vi": 6639,
      "ışı": 6640,
      "##rat": 6641,
      "birinc": 6642,
      "##lüğünü": 6643,
      "zamanlarda": 6644,
      "milyonlarca": 6645,
      "geçirilen": 6646,
      "içerik": 6647,
      "cenk": 6648,
      "sanatç": 6649,
      "eleştiri": 6650,
      "edeceğini": 6651,
      "lisesi": 6652,
      "spons": 6653,
      "miktarda": 6654,
      "sebze": 6655,
      "sponsor": 6656,
      "iken": 6657,
      "şam": 6658,
      "##eyt": 6659,
      "indi": 6660,
      "yarıda": 6661,
      "united": 6662,
      "abdül": 6663,
      "üyelerinin": 6664,
      "##cell": 6665,
      "sakarya": 6666,
      "yürüten": 6667,
      "akşamı": 6668,
      "yaptırım": 6669,
      "bürokr": 6670,
      "peygam": 6671,
      "fırtına": 6672,
      "advocaat": 6673,
      "peygamber": 6674,
      "ece": 6675,
      "fas": 6676,
      "gri": 6677,
      "##don": 6678,
      "##eyiz": 6679,
      "i̇t": 6680,
      "konak": 6681,
      "muam": 6682,
      "konularda": 6683,
      "şirketlerin": 6684,
      "özgürlüğü": 6685,
      "çizen": 6686,
      "çalışıyoruz": 6687,
      "konuşmada": 6688,
      "çeyre": 6689,
      "cezaevine": 6690,
      "duman": 6691,
      "##saydı": 6692,
      "i̇stihbarat": 6693,
      "asayiş": 6694,
      "pap": 6695,
      "önder": 6696,
      "##evre": 6697,
      "belge": 6698,
      "güler": 6699,
      "bulunması": 6700,
      "belirledi": 6701,
      "terörün": 6702,
      "katlı": 6703,
      "hayatta": 6704,
      "babasının": 6705,
      "sabit": 6706,
      "etmeyi": 6707,
      "bozdağ": 6708,
      "kalkanı": 6709,
      "oranda": 6710,
      "brezilya": 6711,
      "çik": 6712,
      "##rü": 6713,
      "##ruz": 6714,
      "##lamıştı": 6715,
      "olunca": 6716,
      "arasına": 6717,
      "gündür": 6718,
      "##opi": 6719,
      "sürük": 6720,
      "çekerek": 6721,
      "yenilik": 6722,
      "sorunlar": 6723,
      "öğrencileri": 6724,
      "##yucu": 6725,
      "modeli": 6726,
      "roma": 6727,
      "gezi": 6728,
      "gazetecilerin": 6729,
      "pasa": 6730,
      "82": 6731,
      "biy": 6732,
      "dım": 6733,
      "tit": 6734,
      "##lılığı": 6735,
      "##ıştı": 6736,
      "almıştı": 6737,
      "anlar": 6738,
      "gördüm": 6739,
      "sağlanması": 6740,
      "bölün": 6741,
      "düzelt": 6742,
      "i̇nter": 6743,
      "sabır": 6744,
      "teklifi": 6745,
      "edilmiştir": 6746,
      "buluşan": 6747,
      "fiziksel": 6748,
      "turkcell": 6749,
      "örgüte": 6750,
      "avusturya": 6751,
      "haş": 6752,
      "netic": 6753,
      "pınar": 6754,
      "##fen": 6755,
      "##cil": 6756,
      "##asi": 6757,
      "2000": 6758,
      "kaydı": 6759,
      "sahasında": 6760,
      "kullanma": 6761,
      "burası": 6762,
      "##malarını": 6763,
      "konuya": 6764,
      "ulaştırma": 6765,
      "yorumu": 6766,
      "değişikliği": 6767,
      "fuarı": 6768,
      "yansıt": 6769,
      "numaralı": 6770,
      "şiir": 6771,
      "800": 6772,
      "##ydı": 6773,
      "oraya": 6774,
      "parça": 6775,
      "kullanmak": 6776,
      "##lemesi": 6777,
      "##elek": 6778,
      "yazarı": 6779,
      "vurgulan": 6780,
      "kaçtı": 6781,
      "sendik": 6782,
      "yönetiminin": 6783,
      "##ilmiştir": 6784,
      "diliyorum": 6785,
      "diyorlar": 6786,
      "yumur": 6787,
      "şarj": 6788,
      "görüşmede": 6789,
      "bylock": 6790,
      "73": 6791,
      "diler": 6792,
      "glo": 6793,
      "kaş": 6794,
      "##ılmıştı": 6795,
      "##lığının": 6796,
      "oldum": 6797,
      "verdik": 6798,
      "uyum": 6799,
      "elinden": 6800,
      "yapılanması": 6801,
      "195": 6802,
      "taşım": 6803,
      "konuyu": 6804,
      "suçlu": 6805,
      "edilir": 6806,
      "başladığını": 6807,
      "girişimine": 6808,
      "medy": 6809,
      "vakit": 6810,
      "olabileceğini": 6811,
      "mühim": 6812,
      "04": 6813,
      "pal": 6814,
      "##varı": 6815,
      "##sever": 6816,
      "##yarak": 6817,
      "##lağı": 6818,
      "demişti": 6819,
      "##imin": 6820,
      "##aban": 6821,
      "##lanarak": 6822,
      "gündüz": 6823,
      "kalacak": 6824,
      "kaldığını": 6825,
      "karşıy": 6826,
      "kadına": 6827,
      "mutluluk": 6828,
      "hepimiz": 6829,
      "sarayı": 6830,
      "kahve": 6831,
      "görüntüleri": 6832,
      "yakalanan": 6833,
      "kutlu": 6834,
      "enfeksiyon": 6835,
      "rakibi": 6836,
      "imkanı": 6837,
      "ayakkabı": 6838,
      "ailenin": 6839,
      "ja": 6840,
      "##gat": 6841,
      "##elli": 6842,
      "karara": 6843,
      "##usundaki": 6844,
      "erdi": 6845,
      "general": 6846,
      "kobi̇": 6847,
      "gala": 6848,
      "saldırılar": 6849,
      "berat": 6850,
      "forvet": 6851,
      "cerablus": 6852,
      "baraj": 6853,
      "malatya": 6854,
      "üzüntü": 6855,
      "muğla": 6856,
      "##alığı": 6857,
      "bekir": 6858,
      "insanlık": 6859,
      "haftanın": 6860,
      "çocuklara": 6861,
      "dünyadaki": 6862,
      "mücadelenin": 6863,
      "sistemine": 6864,
      "mutabak": 6865,
      "kitab": 6866,
      "otomobilin": 6867,
      "adımlar": 6868,
      "kuruluşu": 6869,
      "bakımından": 6870,
      "medipol": 6871,
      "analiz": 6872,
      "değinen": 6873,
      "83": 6874,
      "bine": 6875,
      "##fez": 6876,
      "çıkarı": 6877,
      "açıkça": 6878,
      "haksız": 6879,
      "kule": 6880,
      "hakkını": 6881,
      "mücadelesi": 6882,
      "kast": 6883,
      "araçlar": 6884,
      "cenevre": 6885,
      "katılımı": 6886,
      "sınırlı": 6887,
      "sof": 6888,
      "töreni": 6889,
      "##müştü": 6890,
      "vücud": 6891,
      "zek": 6892,
      "##dağı": 6893,
      "##emek": 6894,
      "kuran": 6895,
      "ertu": 6896,
      "kov": 6897,
      "katk": 6898,
      "katar": 6899,
      "gözler": 6900,
      "##meniz": 6901,
      "olmaması": 6902,
      "mücadeleyi": 6903,
      "çaykur": 6904,
      "takdirde": 6905,
      "kump": 6906,
      "pakistan": 6907,
      "tev": 6908,
      "##tah": 6909,
      "çıkmak": 6910,
      "kullanımı": 6911,
      "maçının": 6912,
      "ifadesinde": 6913,
      "ayrılan": 6914,
      "çıkarılan": 6915,
      "gelişmiş": 6916,
      "ülkelerde": 6917,
      "acaba": 6918,
      "oynadı": 6919,
      "karşılıklı": 6920,
      "sgk": 6921,
      "tey": 6922,
      "ömür": 6923,
      "##kal": 6924,
      "##ğum": 6925,
      "kala": 6926,
      "sorusuna": 6927,
      "binanın": 6928,
      "doç": 6929,
      "altındaki": 6930,
      "sevin": 6931,
      "ekiplerince": 6932,
      "tamamlandı": 6933,
      "askerlerin": 6934,
      "tüketic": 6935,
      "puanla": 6936,
      "noktası": 6937,
      "yöneticisi": 6938,
      "katılımcı": 6939,
      "söyleyerek": 6940,
      "fiş": 6941,
      "fit": 6942,
      "zeki": 6943,
      "zemin": 6944,
      "##yet": 6945,
      "##göl": 6946,
      "##ares": 6947,
      "müsa": 6948,
      "##ilmesini": 6949,
      "böbr": 6950,
      "harika": 6951,
      "mizde": 6952,
      "dairesi": 6953,
      "ilişkileri": 6954,
      "##malıdır": 6955,
      "çevresinde": 6956,
      "imzalan": 6957,
      "olabileceği": 6958,
      "karayolu": 6959,
      "yağışlı": 6960,
      "vadeli": 6961,
      "somut": 6962,
      "garanti": 6963,
      "ayşe": 6964,
      "suikast": 6965,
      "lezzet": 6966,
      "çel": 6967,
      "##lov": 6968,
      "##mon": 6969,
      "alçak": 6970,
      "##anıp": 6971,
      "kalmış": 6972,
      "denk": 6973,
      "tekin": 6974,
      "eline": 6975,
      "takımda": 6976,
      "eşlik": 6977,
      "ediyorlar": 6978,
      "mide": 6979,
      "karaca": 6980,
      "ailesine": 6981,
      "koltu": 6982,
      "##aladığı": 6983,
      "kanseri": 6984,
      "duygusal": 6985,
      "şoför": 6986,
      "ertuğrul": 6987,
      "71": 6988,
      "gas": 6989,
      "##eyn": 6990,
      "kurduğu": 6991,
      "##bileceğini": 6992,
      "ki̇": 6993,
      "katı": 6994,
      "i̇şlet": 6995,
      "yönetimindeki": 6996,
      "vatandaşın": 6997,
      "toplamda": 6998,
      "çağrısı": 6999,
      "açıklamaları": 7000,
      "tesisleri": 7001,
      "mütte": 7002,
      "böbrek": 7003,
      "bra": 7004,
      "jet": 7005,
      "##aspor": 7006,
      "bilmesi": 7007,
      "##rama": 7008,
      "müf": 7009,
      "##ısındaki": 7010,
      "evden": 7011,
      "alanına": 7012,
      "serkan": 7013,
      "çekmek": 7014,
      "saatte": 7015,
      "hakkındaki": 7016,
      "hazırladığı": 7017,
      "sistemin": 7018,
      "sisteminin": 7019,
      "faaliyetleri": 7020,
      "suriyel": 7021,
      "tüfeği": 7022,
      "işadamı": 7023,
      "müsteş": 7024,
      "blok": 7025,
      "zeynep": 7026,
      "müttefik": 7027,
      "hur": 7028,
      "za": 7029,
      "##vel": 7030,
      "##line": 7031,
      "##tor": 7032,
      "##etiyle": 7033,
      "##ünüz": 7034,
      "görsel": 7035,
      "edir": 7036,
      "##ros": 7037,
      "siber": 7038,
      "fazlası": 7039,
      "diyal": 7040,
      "mahkum": 7041,
      "masum": 7042,
      "fikri": 7043,
      "renkli": 7044,
      "cerrahi": 7045,
      "deri": 7046,
      "rab": 7047,
      "##sağ": 7048,
      "##tıcı": 7049,
      "gününde": 7050,
      "ilde": 7051,
      "orgeneral": 7052,
      "haberleşme": 7053,
      "sağlar": 7054,
      "yetersiz": 7055,
      "baskın": 7056,
      "ulaşan": 7057,
      "harekâ": 7058,
      "oğlum": 7059,
      "işlemlerinin": 7060,
      "afgan": 7061,
      "fatma": 7062,
      "ücreti": 7063,
      "dizinin": 7064,
      "sözleşmesi": 7065,
      "rande": 7066,
      "çadır": 7067,
      "loj": 7068,
      "rü": 7069,
      "rektör": 7070,
      "yel": 7071,
      "ısı": 7072,
      "##meyecek": 7073,
      "yaşat": 7074,
      "müte": 7075,
      "özür": 7076,
      "yolunu": 7077,
      "saldırısında": 7078,
      "basına": 7079,
      "eşliğinde": 7080,
      "cezaevi": 7081,
      "şirketleri": 7082,
      "müzesi": 7083,
      "değerlendirmeler": 7084,
      "rahatsızlık": 7085,
      "doku": 7086,
      "istediklerini": 7087,
      "şikây": 7088,
      "edilmişti": 7089,
      "büyükelçisi": 7090,
      "##eron": 7091,
      "inşallah": 7092,
      "günleri": 7093,
      "##laştı": 7094,
      "aky": 7095,
      "katil": 7096,
      "gözden": 7097,
      "kadını": 7098,
      "şehri": 7099,
      "okuma": 7100,
      "bütç": 7101,
      "kontrolü": 7102,
      "fırsatı": 7103,
      "apart": 7104,
      "ceph": 7105,
      "birleşik": 7106,
      "karayol": 7107,
      "levent": 7108,
      "aleyh": 7109,
      "klasik": 7110,
      "bos": 7111,
      "leh": 7112,
      "##kiler": 7113,
      "karn": 7114,
      "belirli": 7115,
      "atma": 7116,
      "gere": 7117,
      "##içi": 7118,
      "dönemine": 7119,
      "leri̇": 7120,
      "kapsamlı": 7121,
      "yürüttüğü": 7122,
      "hissed": 7123,
      "ederim": 7124,
      "darbeci": 7125,
      "bilimsel": 7126,
      "hikây": 7127,
      "demektir": 7128,
      "büyükelç": 7129,
      "ke": 7130,
      "##mit": 7131,
      "##ani": 7132,
      "anket": 7133,
      "konuldu": 7134,
      "yaşanıyor": 7135,
      "sürece": 7136,
      "istasyon": 7137,
      "kapısı": 7138,
      "##masından": 7139,
      "karşıtı": 7140,
      "bölgelerde": 7141,
      "örgütleri": 7142,
      "hazine": 7143,
      "hayatına": 7144,
      "eşy": 7145,
      "şeyin": 7146,
      "kaldırılan": 7147,
      "müze": 7148,
      "transferi": 7149,
      "kriter": 7150,
      "##ladıkları": 7151,
      "referan": 7152,
      "zırhlı": 7153,
      "i̇hracat": 7154,
      "fın": 7155,
      "geb": 7156,
      "zehir": 7157,
      "##kon": 7158,
      "etmedi": 7159,
      "##lamaları": 7160,
      "##i̇ş": 7161,
      "otor": 7162,
      "davanın": 7163,
      "sıv": 7164,
      "saldırıya": 7165,
      "ortağı": 7166,
      "bölümde": 7167,
      "dakikalarda": 7168,
      "hakemler": 7169,
      "stady": 7170,
      "89": 7171,
      "ric": 7172,
      "satı": 7173,
      "##ser": 7174,
      "##ilerinden": 7175,
      "kalmadı": 7176,
      "zamanla": 7177,
      "eğil": 7178,
      "i̇nce": 7179,
      "muhar": 7180,
      "kıdem": 7181,
      "geçirmek": 7182,
      "görünüm": 7183,
      "çalışmalarına": 7184,
      "market": 7185,
      "artışla": 7186,
      "törende": 7187,
      "istikamet": 7188,
      "kamuoyu": 7189,
      "egemen": 7190,
      "incelen": 7191,
      "ley": 7192,
      "lab": 7193,
      "toz": 7194,
      "##ende": 7195,
      "başsağ": 7196,
      "aksine": 7197,
      "bizden": 7198,
      "belirtiyor": 7199,
      "##otik": 7200,
      "boyun": 7201,
      "planlanan": 7202,
      "filmde": 7203,
      "sitesinde": 7204,
      "restoran": 7205,
      "radyo": 7206,
      "şebek": 7207,
      "başsağlığı": 7208,
      "kâ": 7209,
      "çu": 7210,
      "##diniz": 7211,
      "##gut": 7212,
      "##ırsa": 7213,
      "##lığında": 7214,
      "gidiş": 7215,
      "adliye": 7216,
      "getirilmesi": 7217,
      "tutum": 7218,
      "çekilen": 7219,
      "bekleme": 7220,
      "geldiğinde": 7221,
      "oynuyor": 7222,
      "lıyız": 7223,
      "seviyesinde": 7224,
      "hayırlı": 7225,
      "şehrin": 7226,
      "meteor": 7227,
      "edirne": 7228,
      "idam": 7229,
      "ktadır": 7230,
      "piyade": 7231,
      "##ök": 7232,
      "##ınç": 7233,
      "dediler": 7234,
      "ente": 7235,
      "geçerek": 7236,
      "artvin": 7237,
      "hemş": 7238,
      "konuşmasında": 7239,
      "ulaştır": 7240,
      "yiğit": 7241,
      "##ğimizi": 7242,
      "sezonu": 7243,
      "büro": 7244,
      "parlamento": 7245,
      "günümüzde": 7246,
      "700": 7247,
      "aler": 7248,
      "dom": 7249,
      "hip": 7250,
      "nce": 7251,
      "tansiyon": 7252,
      "##ud": 7253,
      "##wa": 7254,
      "gelince": 7255,
      "çalışmaya": 7256,
      "doğa": 7257,
      "avro": 7258,
      "kararlı": 7259,
      "keskin": 7260,
      "sistemini": 7261,
      "lanet": 7262,
      "yönetmeni": 7263,
      "cevabı": 7264,
      "kapattı": 7265,
      "belgesi": 7266,
      "tehlike": 7267,
      "zirve": 7268,
      "hırsız": 7269,
      "mayacak": 7270,
      "portekizli": 7271,
      "yürürlüğe": 7272,
      "yumurta": 7273,
      "74": 7274,
      "cir": 7275,
      "##cin": 7276,
      "tebr": 7277,
      "buluştur": 7278,
      "##ülme": 7279,
      "##roid": 7280,
      "duruyor": 7281,
      "atarak": 7282,
      "##ıldığında": 7283,
      "kararının": 7284,
      "sokakları": 7285,
      "hücum": 7286,
      "quares": 7287,
      "quaresma": 7288,
      "gemi": 7289,
      "sir": 7290,
      "##tt": 7291,
      "##bah": 7292,
      "görmez": 7293,
      "vermedi": 7294,
      "ters": 7295,
      "kole": 7296,
      "atm": 7297,
      "zamanında": 7298,
      "trt": 7299,
      "ağbal": 7300,
      "sportif": 7301,
      "sisteme": 7302,
      "gönderdiği": 7303,
      "güzellik": 7304,
      "musunuz": 7305,
      "onlarca": 7306,
      "düştüğü": 7307,
      "fernan": 7308,
      "yitirdi": 7309,
      "körfez": 7310,
      "vitamini": 7311,
      "gerçeği": 7312,
      "global": 7313,
      "61": 7314,
      "ib": 7315,
      "raf": 7316,
      "tc": 7317,
      "##ıntılı": 7318,
      "kadir": 7319,
      "kurmak": 7320,
      "sordu": 7321,
      "##elidir": 7322,
      "##dikal": 7323,
      "kazandığı": 7324,
      "siyasal": 7325,
      "görünce": 7326,
      "ülkeden": 7327,
      "soruları": 7328,
      "cevab": 7329,
      "ismini": 7330,
      "ci̇han": 7331,
      "99": 7332,
      "ohal": 7333,
      "şan": 7334,
      "##ebilecek": 7335,
      "##atistik": 7336,
      "kağıt": 7337,
      "etik": 7338,
      "kalması": 7339,
      "devir": 7340,
      "derg": 7341,
      "ayrıntı": 7342,
      "yetenek": 7343,
      "192": 7344,
      "tarihli": 7345,
      "lığa": 7346,
      "kendileri": 7347,
      "araçların": 7348,
      "camii": 7349,
      "nöbetçi": 7350,
      "eman": 7351,
      "##ettin": 7352,
      "##stik": 7353,
      "##işti": 7354,
      "biliyorum": 7355,
      "yılları": 7356,
      "yılına": 7357,
      "uyruk": 7358,
      "mert": 7359,
      "yolun": 7360,
      "izleyi": 7361,
      "köken": 7362,
      "yorlar": 7363,
      "projeler": 7364,
      "araçları": 7365,
      "isimleri": 7366,
      "değerlendiren": 7367,
      "masaya": 7368,
      "gazetecilere": 7369,
      "savcısı": 7370,
      "eğlence": 7371,
      "i̇stiklal": 7372,
      "!\"": 7373,
      "86": 7374,
      "ju": 7375,
      "lav": 7376,
      "rıza": 7377,
      "##iti": 7378,
      "##hk": 7379,
      "aldıklarını": 7380,
      "##azi": 7381,
      "##okulu": 7382,
      "lardır": 7383,
      "ayına": 7384,
      "erişim": 7385,
      "herkesi": 7386,
      "##api": 7387,
      "avm": 7388,
      "elini": 7389,
      "tanesi": 7390,
      "kazanmak": 7391,
      "manz": 7392,
      "plana": 7393,
      "şimdiye": 7394,
      "cumhuriyetçi": 7395,
      "kalkış": 7396,
      "piyasaya": 7397,
      "kiralık": 7398,
      "edeceği": 7399,
      "ayağa": 7400,
      "önlemleri": 7401,
      "kızılay": 7402,
      "öksüz": 7403,
      "efsane": 7404,
      "rize": 7405,
      "ufak": 7406,
      "##ras": 7407,
      "##bis": 7408,
      "başlaması": 7409,
      "aylarında": 7410,
      "topar": 7411,
      "çalışmak": 7412,
      "ellerinde": 7413,
      "alınmış": 7414,
      "alındığını": 7415,
      "yolsuzluk": 7416,
      "##tüel": 7417,
      "patlat": 7418,
      "heyk": 7419,
      "##siyonu": 7420,
      "çizg": 7421,
      "##stagram": 7422,
      "istenen": 7423,
      "arzu": 7424,
      "teşkilat": 7425,
      "başlıklı": 7426,
      "##ulacak": 7427,
      "##diy": 7428,
      "yönetici": 7429,
      "yakıt": 7430,
      "bizzat": 7431,
      "alanlarda": 7432,
      "izni": 7433,
      "cezasına": 7434,
      "yorgun": 7435,
      "hastanın": 7436,
      "ahlak": 7437,
      "emniyetteki": 7438,
      "bors": 7439,
      "engin": 7440,
      "şahit": 7441,
      "şahsın": 7442,
      "yaşamak": 7443,
      "kentte": 7444,
      "geliştirme": 7445,
      "tartışmalar": 7446,
      "temsilcileri": 7447,
      "biden": 7448,
      "grubun": 7449,
      "aranan": 7450,
      "android": 7451,
      "##tekin": 7452,
      "tosun": 7453,
      "dans": 7454,
      "##ris": 7455,
      "##tc": 7456,
      "##ğunun": 7457,
      "##göz": 7458,
      "artıyor": 7459,
      "içinden": 7460,
      "kenti": 7461,
      "çalıştığını": 7462,
      "geriledi": 7463,
      "çektiği": 7464,
      "finale": 7465,
      "askerler": 7466,
      "savundu": 7467,
      "larımıza": 7468,
      "istemiyor": 7469,
      "finansman": 7470,
      "##zığ": 7471,
      "vuruşunda": 7472,
      "elazığ": 7473,
      "enstit": 7474,
      "i̇nternet": 7475,
      "tebrik": 7476,
      "şem": 7477,
      "##ğeri": 7478,
      "##yken": 7479,
      "##by": 7480,
      "##immet": 7481,
      "yapmayı": 7482,
      "bildiği": 7483,
      "##dırdı": 7484,
      "geçtiği": 7485,
      "olduğundan": 7486,
      "##lüt": 7487,
      "bot": 7488,
      "ayrım": 7489,
      "kasab": 7490,
      "gerçekleştiren": 7491,
      "pazarı": 7492,
      "landı": 7493,
      "kitabı": 7494,
      "söylen": 7495,
      "nereye": 7496,
      "batman": 7497,
      "hastalığın": 7498,
      "nar": 7499,
      "sanı": 7500,
      "##emmel": 7501,
      "vergisi": 7502,
      "bulmak": 7503,
      "açıklan": 7504,
      "kolek": 7505,
      "ört": 7506,
      "adnan": 7507,
      "güvenliğini": 7508,
      "bölgeler": 7509,
      "durumunun": 7510,
      "kıyas": 7511,
      "harekatı": 7512,
      "tabut": 7513,
      "sınırı": 7514,
      "karşılaşmada": 7515,
      "politikası": 7516,
      "sürecinin": 7517,
      "rejimi": 7518,
      "muhammet": 7519,
      "##cılığın": 7520,
      "husus": 7521,
      "uyruklu": 7522,
      "zul": 7523,
      "zem": 7524,
      "##sul": 7525,
      "##öğr": 7526,
      "##unç": 7527,
      "anında": 7528,
      "##lığın": 7529,
      "kayd": 7530,
      "istendi": 7531,
      "##ısal": 7532,
      "kullanıldı": 7533,
      "gerekse": 7534,
      "subay": 7535,
      "artışı": 7536,
      "genelde": 7537,
      "sahipliği": 7538,
      "2003": 7539,
      "ilçesine": 7540,
      "yaşadıkları": 7541,
      "taziye": 7542,
      "kurtuluş": 7543,
      "i̇ngilizce": 7544,
      "protok": 7545,
      "i̇spanyol": 7546,
      "büyükelçi": 7547,
      "çatışmada": 7548,
      "mükemmel": 7549,
      "##öğretim": 7550,
      "bons": 7551,
      "mol": 7552,
      "sho": 7553,
      "vas": 7554,
      "veli": 7555,
      "öp": 7556,
      "öso": 7557,
      "##ole": 7558,
      "##ayeti": 7559,
      "neh": 7560,
      "büyüt": 7561,
      "kullanıla": 7562,
      "##imizde": 7563,
      "gözü": 7564,
      "durumlarda": 7565,
      "turnu": 7566,
      "milletimiz": 7567,
      "iddiaları": 7568,
      "2006": 7569,
      "borc": 7570,
      "partinin": 7571,
      "giderken": 7572,
      "sekiz": 7573,
      "##ebilirsiniz": 7574,
      "rezerv": 7575,
      "şükür": 7576,
      "koordinasyon": 7577,
      "kanaat": 7578,
      "münih": 7579,
      "kurtarılama": 7580,
      "randevu": 7581,
      "bonserv": 7582,
      "bi̇": 7583,
      "lıyor": 7584,
      "lama": 7585,
      "pist": 7586,
      "##beti": 7587,
      "##hiş": 7588,
      "##kif": 7589,
      "vermişti": 7590,
      "buluyor": 7591,
      "kurdu": 7592,
      "bingöl": 7593,
      "söylemek": 7594,
      "azından": 7595,
      "kimyas": 7596,
      "suçlarla": 7597,
      "gerçekleştirilecek": 7598,
      "tamamı": 7599,
      "yayınlandı": 7600,
      "mevlüt": 7601,
      "oluşturduğu": 7602,
      "karşılaşmanın": 7603,
      "oluşuyor": 7604,
      "korkut": 7605,
      "ürünler": 7606,
      "istemiyle": 7607,
      "kerry": 7608,
      "ayağı": 7609,
      "yolculuk": 7610,
      "metrekare": 7611,
      "tunceli": 7612,
      "bilmiyorum": 7613,
      "ikin": 7614,
      "kaşı": 7615,
      "lin": 7616,
      "##bc": 7617,
      "kenar": 7618,
      "taraftarı": 7619,
      "adlandır": 7620,
      "sıralama": 7621,
      "tarihe": 7622,
      "diyanet": 7623,
      "maliyeti": 7624,
      "hizmete": 7625,
      "oluşturuyor": 7626,
      "kaynakları": 7627,
      "onunla": 7628,
      "şüphelinin": 7629,
      "yararlan": 7630,
      "tokat": 7631,
      "imamı": 7632,
      "potansiyel": 7633,
      "pi": 7634,
      "##ess": 7635,
      "##diven": 7636,
      "##ılmaya": 7637,
      "lerdir": 7638,
      "verilerine": 7639,
      "geçmek": 7640,
      "kaygı": 7641,
      "ercan": 7642,
      "kentin": 7643,
      "##ağında": 7644,
      "terörü": 7645,
      "kişilere": 7646,
      "değiliz": 7647,
      "ihbarı": 7648,
      "düzenleyen": 7649,
      "komitesi": 7650,
      "futbolcunun": 7651,
      "gelişen": 7652,
      "tabur": 7653,
      "edilirken": 7654,
      "marmar": 7655,
      "düşünüyoruz": 7656,
      "nefret": 7657,
      "redde": 7658,
      "cumhurbaşkanımız": 7659,
      "avustr": 7660,
      "kusur": 7661,
      "muharrem": 7662,
      "duk": 7663,
      "eti": 7664,
      "rey": 7665,
      "##yiz": 7666,
      "##jen": 7667,
      "##emeyecek": 7668,
      "araba": 7669,
      "evinin": 7670,
      "yoluna": 7671,
      "artması": 7672,
      "##emedi": 7673,
      "kazanç": 7674,
      "hazırlanıyor": 7675,
      "hani": 7676,
      "öldürdü": 7677,
      "valilik": 7678,
      "obez": 7679,
      "moral": 7680,
      "dışarıda": 7681,
      "korunması": 7682,
      "müthiş": 7683,
      "teşkilatı": 7684,
      "dokunulmazlık": 7685,
      "yenikapı": 7686,
      "bini": 7687,
      "çir": 7688,
      "##rin": 7689,
      "aldım": 7690,
      "başlandı": 7691,
      "karma": 7692,
      "instagram": 7693,
      "etap": 7694,
      "polat": 7695,
      "ünü": 7696,
      "çektir": 7697,
      "saati": 7698,
      "\"...": 7699,
      "motiv": 7700,
      "gönderilen": 7701,
      "sars": 7702,
      "kurumsal": 7703,
      "etmektedir": 7704,
      "lens": 7705,
      "sokakta": 7706,
      "uygulamaya": 7707,
      "birbirinden": 7708,
      "kurucu": 7709,
      "personeli": 7710,
      "mensupları": 7711,
      "platformu": 7712,
      "jam": 7713,
      "nap": 7714,
      "tüz": 7715,
      "yse": 7716,
      "##olog": 7717,
      "karbon": 7718,
      "intik": 7719,
      "lerdi": 7720,
      "yakaladı": 7721,
      "haberde": 7722,
      "sağladığı": 7723,
      "gerekçe": 7724,
      "çekildi": 7725,
      "oyunları": 7726,
      "havuz": 7727,
      "dışındaki": 7728,
      "2004": 7729,
      "oyuncuları": 7730,
      "öldürülen": 7731,
      "kuvvetler": 7732,
      "trafiğe": 7733,
      "genişlet": 7734,
      "çekiliş": 7735,
      "seviyede": 7736,
      "pasaport": 7737,
      "kimyasal": 7738,
      "şa": 7739,
      "##akende": 7740,
      "##uncu": 7741,
      "sürecek": 7742,
      "sağlaya": 7743,
      "girmek": 7744,
      "trak": 7745,
      "kazı": 7746,
      "##abilmek": 7747,
      "perakende": 7748,
      "sunulan": 7749,
      "patr": 7750,
      "anlaşmaya": 7751,
      "etmiyor": 7752,
      "sektörünün": 7753,
      "ülkelere": 7754,
      "sürdüren": 7755,
      "kentsel": 7756,
      "partili": 7757,
      "vekili": 7758,
      "dünyasının": 7759,
      "küfür": 7760,
      "falan": 7761,
      "lak": 7762,
      "rev": 7763,
      "olmasının": 7764,
      "olanların": 7765,
      "uydu": 7766,
      "dönük": 7767,
      "evren": 7768,
      "doğumlu": 7769,
      "gerekmektedir": 7770,
      "getirerek": 7771,
      "zorla": 7772,
      "##oyu": 7773,
      "##üldüğü": 7774,
      "oradaki": 7775,
      "seviyesine": 7776,
      "şartları": 7777,
      "kayıtlı": 7778,
      "kilogram": 7779,
      "sürücüsü": 7780,
      "ağrısı": 7781,
      "hücre": 7782,
      "fonu": 7783,
      "reddet": 7784,
      "estetik": 7785,
      "neticesinde": 7786,
      "##dılar": 7787,
      "göğü": 7788,
      "macar": 7789,
      "özcan": 7790,
      "parkı": 7791,
      "uyu": 7792,
      "değilim": 7793,
      "emlak": 7794,
      "yeten": 7795,
      "izleyen": 7796,
      "milletimizin": 7797,
      "eskiden": 7798,
      "fatur": 7799,
      "eylemi": 7800,
      "politikalar": 7801,
      "yakalanması": 7802,
      "off": 7803,
      "dalga": 7804,
      "twe": 7805,
      "federasyon": 7806,
      "muhaliflerin": 7807,
      "seyirci": 7808,
      "sigortası": 7809,
      "senaryo": 7810,
      "kahvaltı": 7811,
      "ebru": 7812,
      "söndür": 7813,
      "bünyesinde": 7814,
      "pahalı": 7815,
      "protokol": 7816,
      "meb": 7817,
      "##ularak": 7818,
      "arayan": 7819,
      "verdikleri": 7820,
      "yıllarında": 7821,
      "açılması": 7822,
      "olduğum": 7823,
      "çekici": 7824,
      "kanalı": 7825,
      "kuy": 7826,
      "dönemlerde": 7827,
      "yakınlarında": 7828,
      "golle": 7829,
      "çevik": 7830,
      "araçla": 7831,
      "borcu": 7832,
      "adamın": 7833,
      "masa": 7834,
      "ziyareti": 7835,
      "mağaz": 7836,
      "temizlik": 7837,
      "sahneye": 7838,
      "yüce": 7839,
      "irtibat": 7840,
      "uşak": 7841,
      "vası": 7842,
      "yiy": 7843,
      "çıl": 7844,
      "##veni": 7845,
      "##muştur": 7846,
      "##xy": 7847,
      "##und": 7848,
      "inde": 7849,
      "ettiğimiz": 7850,
      "çıkarmak": 7851,
      "eleman": 7852,
      "vatandaşları": 7853,
      "tamamlan": 7854,
      "oyuncuların": 7855,
      "memlek": 7856,
      "seyre": 7857,
      "dünyası": 7858,
      "mikro": 7859,
      "alex": 7860,
      "şikâyet": 7861,
      "84": 7862,
      "pe": 7863,
      "##aat": 7864,
      "##çay": 7865,
      "##ator": 7866,
      "ant": 7867,
      "durdu": 7868,
      "dönüm": 7869,
      "alanları": 7870,
      "emr": 7871,
      "çalışmalarının": 7872,
      "masraf": 7873,
      "piyasada": 7874,
      "stres": 7875,
      "şikayetçi": 7876,
      "mi̇l": 7877,
      "kıymet": 7878,
      "tabanca": 7879,
      "iftir": 7880,
      "müzakere": 7881,
      "aramız": 7882,
      "##tip": 7883,
      "##lıca": 7884,
      "aydır": 7885,
      "denize": 7886,
      "##uştuk": 7887,
      "saatlerde": 7888,
      "turgut": 7889,
      "i̇lgi̇": 7890,
      "golcü": 7891,
      "hızlandır": 7892,
      "##ulduğunu": 7893,
      "duruşma": 7894,
      "yanıtladı": 7895,
      "başlamış": 7896,
      "##atörü": 7897,
      "görevlileri": 7898,
      "oğlunun": 7899,
      "show": 7900,
      "muk": 7901,
      "##çiler": 7902,
      "##sam": 7903,
      "##ota": 7904,
      "##ganı": 7905,
      "##ileceği": 7906,
      "yarısında": 7907,
      "sayısını": 7908,
      "esra": 7909,
      "tutun": 7910,
      "ihmal": 7911,
      "davada": 7912,
      "kararına": 7913,
      "muhat": 7914,
      "yüksekova": 7915,
      "sinyal": 7916,
      "askerin": 7917,
      "oluşturdu": 7918,
      "cins": 7919,
      "erkekler": 7920,
      "tıpkı": 7921,
      "yöneticileri": 7922,
      "detaylı": 7923,
      "con": 7924,
      "##mece": 7925,
      "konv": 7926,
      "endü": 7927,
      "kurma": 7928,
      "erdal": 7929,
      "topa": 7930,
      "karşılığı": 7931,
      "bulunmak": 7932,
      "bakalım": 7933,
      "194": 7934,
      "messi": 7935,
      "iyice": 7936,
      "sabri": 7937,
      "ofis": 7938,
      "bürosu": 7939,
      "gücünü": 7940,
      "dayalı": 7941,
      "yurtdışında": 7942,
      "tuğgeneral": 7943,
      "boşanma": 7944,
      "labor": 7945,
      "endüst": 7946,
      "himmet": 7947,
      "##pa": 7948,
      "##pp": 7949,
      "olsaydı": 7950,
      "##ımın": 7951,
      "kura": 7952,
      "eriş": 7953,
      "terzi": 7954,
      "podol": 7955,
      "kaptan": 7956,
      "sayg": 7957,
      "maçlarda": 7958,
      "##ımızda": 7959,
      "tarihine": 7960,
      "eşim": 7961,
      "muhtar": 7962,
      "çıkarken": 7963,
      "yordu": 7964,
      "kurumları": 7965,
      "güzer": 7966,
      "koltuk": 7967,
      "ilerleyen": 7968,
      "hayvancılık": 7969,
      "çapında": 7970,
      "ertelen": 7971,
      "harcam": 7972,
      "zincir": 7973,
      "galaxy": 7974,
      "kökenli": 7975,
      "çirkin": 7976,
      "fı": 7977,
      "sının": 7978,
      "şeye": 7979,
      "##irt": 7980,
      "##önü": 7981,
      "çalışırken": 7982,
      "belirsiz": 7983,
      "tarafı": 7984,
      "##oter": 7985,
      "maçını": 7986,
      "maçtan": 7987,
      "olaydan": 7988,
      "takımının": 7989,
      "çıkarma": 7990,
      "diyabet": 7991,
      "yaptım": 7992,
      "projeleri": 7993,
      "arkadaşlarımız": 7994,
      "sürecin": 7995,
      "numara": 7996,
      "ülkedeki": 7997,
      "##ülebilir": 7998,
      "tezah": 7999,
      "layık": 8000,
      "muayene": 8001,
      "karşıyaka": 8002,
      "meteoroloji": 8003,
      "melek": 8004,
      "ray": 8005,
      "ste": 8006,
      "##cir": 8007,
      "##mamış": 8008,
      "##ayarak": 8009,
      "yapama": 8010,
      "##oks": 8011,
      "varlığı": 8012,
      "baktığımız": 8013,
      "habere": 8014,
      "katılacak": 8015,
      "doların": 8016,
      "ilgisi": 8017,
      "faci": 8018,
      "menaj": 8019,
      "sarf": 8020,
      "mecbur": 8021,
      "özgü": 8022,
      "görüntüler": 8023,
      "darbeye": 8024,
      "faydalı": 8025,
      "isterim": 8026,
      "kaliteli": 8027,
      "gözyaşı": 8028,
      "celal": 8029,
      "bisiklet": 8030,
      "podolski": 8031,
      "tezahür": 8032,
      "best": 8033,
      "kedi": 8034,
      "ram": 8035,
      "##bb": 8036,
      "##pat": 8037,
      "##abi": 8038,
      "##tion": 8039,
      "ilti": 8040,
      "milleti": 8041,
      "milliyet": 8042,
      "posta": 8043,
      "tarafında": 8044,
      "uncu": 8045,
      "getirecek": 8046,
      "göstermek": 8047,
      "kararlılık": 8048,
      "vatandaşlara": 8049,
      "ekiplerine": 8050,
      "mizle": 8051,
      "düşünen": 8052,
      "adıyla": 8053,
      "fabrika": 8054,
      "bakırköy": 8055,
      "fındık": 8056,
      "sıvı": 8057,
      "alar": 8058,
      "akif": 8059,
      "gıd": 8060,
      "war": 8061,
      "yın": 8062,
      "şık": 8063,
      "##kus": 8064,
      "##illa": 8065,
      "##aket": 8066,
      "##unt": 8067,
      "##lera": 8068,
      "aym": 8069,
      "##luğa": 8070,
      "çıktık": 8071,
      "madığı": 8072,
      "açıklanan": 8073,
      "sorg": 8074,
      "bakıyor": 8075,
      "döner": 8076,
      "ülkesi": 8077,
      "##latma": 8078,
      "oyunun": 8079,
      "başkanları": 8080,
      "değerlendirdi": 8081,
      "landır": 8082,
      "mahkemece": 8083,
      "camisi": 8084,
      "##tifak": 8085,
      "musa": 8086,
      "muslera": 8087,
      "inanç": 8088,
      "##duklarını": 8089,
      "ordus": 8090,
      "çiftçi": 8091,
      "uyarısı": 8092,
      "mekaniz": 8093,
      "bebeğin": 8094,
      "ikramiye": 8095,
      "92": 8096,
      "cün": 8097,
      "elem": 8098,
      "win": 8099,
      "çil": 8100,
      "şii": 8101,
      "##ned": 8102,
      "##dinde": 8103,
      "veriliyor": 8104,
      "işsizlik": 8105,
      "açıklayan": 8106,
      "giriyor": 8107,
      "##dere": 8108,
      "yazıcı": 8109,
      "suretiyle": 8110,
      "kanada": 8111,
      "kararları": 8112,
      "adası": 8113,
      "kıv": 8114,
      "satır": 8115,
      "yapılır": 8116,
      "savaşın": 8117,
      "biliniyor": 8118,
      "##abilirsiniz": 8119,
      "kolaylaştır": 8120,
      "uygulanacak": 8121,
      "geleceğini": 8122,
      "seferber": 8123,
      "kongr": 8124,
      "ajans": 8125,
      "mağlubiyet": 8126,
      "peyn": 8127,
      "adem": 8128,
      "idi": 8129,
      "yoğ": 8130,
      "##çü": 8131,
      "##çileri": 8132,
      "##iyesi": 8133,
      "##dışı": 8134,
      "##eyeceğini": 8135,
      "eto": 8136,
      "veriyoruz": 8137,
      "##ceği": 8138,
      "##ilerde": 8139,
      "özlem": 8140,
      "dünkü": 8141,
      "sağlama": 8142,
      "yüküm": 8143,
      "kandil": 8144,
      "açıklamasını": 8145,
      "duyduğu": 8146,
      "değişen": 8147,
      "i̇lhan": 8148,
      "geliri": 8149,
      "dokuz": 8150,
      "şidde": 8151,
      "dondur": 8152,
      "listesinde": 8153,
      "mıştı": 8154,
      "keşke": 8155,
      "seyirc": 8156,
      "köşe": 8157,
      "hatırlattı": 8158,
      "göğüs": 8159,
      "alay": 8160,
      "iğ": 8161,
      "##ydu": 8162,
      "dele": 8163,
      "##ıklı": 8164,
      "kars": 8165,
      "bilece": 8166,
      "deney": 8167,
      "denilen": 8168,
      "yakında": 8169,
      "taksim": 8170,
      "hariç": 8171,
      "ürünü": 8172,
      "iddiası": 8173,
      "ikisi": 8174,
      "##liğiyle": 8175,
      "beraberinde": 8176,
      "şampiyonası": 8177,
      "yaralılar": 8178,
      "liman": 8179,
      "kongresi": 8180,
      "aşamasında": 8181,
      "mülteciler": 8182,
      "kısım": 8183,
      "edilebilir": 8184,
      "yuvarlak": 8185,
      "otopsi": 8186,
      "87": 8187,
      "kele": 8188,
      "tik": 8189,
      "wil": 8190,
      "ysa": 8191,
      "öm": 8192,
      "##hum": 8193,
      "görür": 8194,
      "##alarca": 8195,
      "kalmak": 8196,
      "işleri": 8197,
      "millete": 8198,
      "müezz": 8199,
      "büyüklüğ": 8200,
      "suy": 8201,
      "düzeni": 8202,
      "maçına": 8203,
      "ifadeler": 8204,
      "beklediği": 8205,
      "tanın": 8206,
      "yasağ": 8207,
      "cennet": 8208,
      "berabere": 8209,
      "verildiği": 8210,
      "ödülleri": 8211,
      "yargılama": 8212,
      "pank": 8213,
      "desteğiyle": 8214,
      "ekrana": 8215,
      "robot": 8216,
      "i̇dman": 8217,
      "jür": 8218,
      "##ja": 8219,
      "olmaları": 8220,
      "##ülük": 8221,
      "binası": 8222,
      "yüzünü": 8223,
      "sözler": 8224,
      "aradan": 8225,
      "oynamak": 8226,
      "##vanya": 8227,
      "radikal": 8228,
      "adamları": 8229,
      "aldığımız": 8230,
      "söyler": 8231,
      "oturum": 8232,
      "artırmak": 8233,
      "duruşmada": 8234,
      "olmuyor": 8235,
      "sakatlık": 8236,
      "tüfek": 8237,
      "diplomatik": 8238,
      "##parator": 8239,
      "dolandırı": 8240,
      "hitap": 8241,
      "santral": 8242,
      "cağını": 8243,
      "iyor": 8244,
      "kd": 8245,
      "ps": 8246,
      "##üme": 8247,
      "kader": 8248,
      "etmez": 8249,
      "işten": 8250,
      "akciğer": 8251,
      "durak": 8252,
      "sanal": 8253,
      "hayatın": 8254,
      "##inize": 8255,
      "suçlarından": 8256,
      "silopi": 8257,
      "kızın": 8258,
      "sunan": 8259,
      "hastalar": 8260,
      "##bert": 8261,
      "seyr": 8262,
      "haftalık": 8263,
      "sürecini": 8264,
      "söylüyorum": 8265,
      "tedbirler": 8266,
      "##ladıklarını": 8267,
      "uygulamaları": 8268,
      "lacivertliler": 8269,
      "olmasın": 8270,
      "ağırlıklı": 8271,
      "faydalan": 8272,
      "müjde": 8273,
      "i̇lgi̇li̇": 8274,
      "çınar": 8275,
      "##iner": 8276,
      "birine": 8277,
      "arjan": 8278,
      "tela": 8279,
      "özkan": 8280,
      "asit": 8281,
      "sayede": 8282,
      "abdul": 8283,
      "kararlar": 8284,
      "mesut": 8285,
      "suçlar": 8286,
      "müziği": 8287,
      "oluşum": 8288,
      "lirayı": 8289,
      "tuv": 8290,
      "soyun": 8291,
      "##gazi": 8292,
      "vitamin": 8293,
      "avustralya": 8294,
      "memleketi": 8295,
      "arjantin": 8296,
      "ag": 8297,
      "hz": 8298,
      "şaf": 8299,
      "##sem": 8300,
      "##sey": 8301,
      "##atu": 8302,
      "deh": 8303,
      "içecek": 8304,
      "bulgar": 8305,
      "oylama": 8306,
      "aslı": 8307,
      "evlat": 8308,
      "olabilecek": 8309,
      "benden": 8310,
      "yazan": 8311,
      "aşı": 8312,
      "farklılık": 8313,
      "görüşmeleri": 8314,
      "avrupalı": 8315,
      "hedefimiz": 8316,
      "savunan": 8317,
      "premi": 8318,
      "martin": 8319,
      "okudu": 8320,
      "karışık": 8321,
      "şifr": 8322,
      "miting": 8323,
      "skandal": 8324,
      "referandum": 8325,
      "enstitüsü": 8326,
      "tweet": 8327,
      "aut": 8328,
      "bolu": 8329,
      "gam": 8330,
      "kli": 8331,
      "yör": 8332,
      "##elle": 8333,
      "##atay": 8334,
      "##ırım": 8335,
      "arsa": 8336,
      "yapacağını": 8337,
      "başlığı": 8338,
      "##laşması": 8339,
      "topçu": 8340,
      "seçilmiş": 8341,
      "verdim": 8342,
      "meyecek": 8343,
      "oğul": 8344,
      "perde": 8345,
      "planlıyor": 8346,
      "resmen": 8347,
      "karşılaştı": 8348,
      "öğrencilere": 8349,
      "uzaklık": 8350,
      "ölümü": 8351,
      "üretilen": 8352,
      "sitesinden": 8353,
      "kuruluşları": 8354,
      "donan": 8355,
      "i̇nsanlar": 8356,
      "çabuk": 8357,
      "##seniz": 8358,
      "i̇ddiaya": 8359,
      "uçağın": 8360,
      "müezzin": 8361,
      "ga": 8362,
      "uf": 8363,
      "##ice": 8364,
      "##itif": 8365,
      "##ahmet": 8366,
      "karaman": 8367,
      "lari": 8368,
      "konusundaki": 8369,
      "verg": 8370,
      "devlete": 8371,
      "bulunma": 8372,
      "açıklamıştı": 8373,
      "düşüyor": 8374,
      "eksi": 8375,
      "kullanılması": 8376,
      "söyleye": 8377,
      "gözük": 8378,
      "çoban": 8379,
      "david": 8380,
      "yardımıyla": 8381,
      "seçilen": 8382,
      "çıkardığı": 8383,
      "beyoğlu": 8384,
      "manevi": 8385,
      "hastaların": 8386,
      "isimlerin": 8387,
      "anlaşıldı": 8388,
      "sınırları": 8389,
      "programında": 8390,
      "yaşadıklarını": 8391,
      "##vekili": 8392,
      "başaran": 8393,
      "töreninde": 8394,
      "semt": 8395,
      "kaybed": 8396,
      "sıcaklık": 8397,
      "ambulansla": 8398,
      "malzeme": 8399,
      "i̇ddianam": 8400,
      "konferans": 8401,
      "cor": 8402,
      "diyorum": 8403,
      "eme": 8404,
      "mc": 8405,
      "toy": 8406,
      "##yolu": 8407,
      "##biy": 8408,
      "ersoy": 8409,
      "##rov": 8410,
      "uyumlu": 8411,
      "burs": 8412,
      "sevdi": 8413,
      "saatlik": 8414,
      "öldüğü": 8415,
      "çocuklarımız": 8416,
      "kırk": 8417,
      "beraat": 8418,
      "sabancı": 8419,
      "havacılık": 8420,
      "edilemez": 8421,
      "çalışmaların": 8422,
      "madalya": 8423,
      "kendisinden": 8424,
      "paylaştığı": 8425,
      "##ting": 8426,
      "hamil": 8427,
      "kardeşim": 8428,
      "ilişkisi": 8429,
      "bilinmeyen": 8430,
      "şeklindeki": 8431,
      "sakatlığı": 8432,
      "akıncı": 8433,
      "arazi": 8434,
      "alakalı": 8435,
      "mavili": 8436,
      "sipar": 8437,
      "96": 8438,
      "web": 8439,
      "artı": 8440,
      "i̇mam": 8441,
      "##iter": 8442,
      "çıkmaya": 8443,
      "sürüldü": 8444,
      "teker": 8445,
      "girmesi": 8446,
      "sayısında": 8447,
      "zamanlar": 8448,
      "elbis": 8449,
      "kimdir": 8450,
      "hedefleri": 8451,
      "kuzu": 8452,
      "büyüyen": 8453,
      "üzeri": 8454,
      "fidan": 8455,
      "fifa": 8456,
      "pozitif": 8457,
      "peşinde": 8458,
      "boğaziçi": 8459,
      "nihat": 8460,
      "pişman": 8461,
      "helal": 8462,
      "kumpas": 8463,
      "şener": 8464,
      "##sis": 8465,
      "##tma": 8466,
      "##gur": 8467,
      "##ell": 8468,
      "birileri": 8469,
      "yaşta": 8470,
      "akk": 8471,
      "ını": 8472,
      "yanal": 8473,
      "taksit": 8474,
      "elindeki": 8475,
      "altından": 8476,
      "##ife": 8477,
      "##ilebilir": 8478,
      "aşık": 8479,
      "etkisini": 8480,
      "değişti": 8481,
      "testi": 8482,
      "gittiğini": 8483,
      "2005": 8484,
      "char": 8485,
      "katılma": 8486,
      "soruya": 8487,
      "fatura": 8488,
      "isteyenler": 8489,
      "torun": 8490,
      "özellikleri": 8491,
      "ağabey": 8492,
      "özetle": 8493,
      "napoli": 8494,
      "):": 8495,
      "pir": 8496,
      "west": 8497,
      "zev": 8498,
      "##ig": 8499,
      "##ğünde": 8500,
      "##ılmak": 8501,
      "arı": 8502,
      "##okul": 8503,
      "##luğun": 8504,
      "##dıran": 8505,
      "bulduğu": 8506,
      "yandaş": 8507,
      "dert": 8508,
      "ayrılık": 8509,
      "yetmez": 8510,
      "polislerin": 8511,
      "güçlerine": 8512,
      "çıkaran": 8513,
      "konuşuyor": 8514,
      "mizden": 8515,
      "girişiminde": 8516,
      "ilçede": 8517,
      "oluşturulan": 8518,
      "anlamı": 8519,
      "adaylar": 8520,
      "zararlı": 8521,
      "törene": 8522,
      "##memek": 8523,
      "torku": 8524,
      "hikmet": 8525,
      "etmiştir": 8526,
      "idman": 8527,
      "oynayacağı": 8528,
      "cüneyt": 8529,
      "hele": 8530,
      "what": 8531,
      "##no": 8532,
      "##ike": 8533,
      "##denin": 8534,
      "karın": 8535,
      "geçmesi": 8536,
      "gi̇": 8537,
      "atleti": 8538,
      "doğuş": 8539,
      "olas": 8540,
      "bağdat": 8541,
      "bırakma": 8542,
      "nızın": 8543,
      "kesintisi": 8544,
      "belgesel": 8545,
      "efes": 8546,
      "nitelendir": 8547,
      "cemal": 8548,
      "metrekar": 8549,
      "miras": 8550,
      "ırk": 8551,
      "piyango": 8552,
      "cans": 8553,
      "dili": 8554,
      "fah": 8555,
      "mayan": 8556,
      "ph": 8557,
      "##los": 8558,
      "##ody": 8559,
      "##ood": 8560,
      "yapısı": 8561,
      "yapmıştı": 8562,
      "etken": 8563,
      "##ezya": 8564,
      "kayyım": 8565,
      "##istler": 8566,
      "evleri": 8567,
      "##i̇h": 8568,
      "dergisi": 8569,
      "diğeri": 8570,
      "göstererek": 8571,
      "ağz": 8572,
      "yardımı": 8573,
      "seçimi": 8574,
      "kadınlara": 8575,
      "projede": 8576,
      "yatırımları": 8577,
      "alabilir": 8578,
      "bahsed": 8579,
      "geçtiğini": 8580,
      "ülkelerine": 8581,
      "dönüştü": 8582,
      "beslen": 8583,
      "duyuru": 8584,
      "talebinde": 8585,
      "çatışmaların": 8586,
      "dolandırıcı": 8587,
      "etrafında": 8588,
      "iddianamede": 8589,
      "kaçakçılık": 8590,
      "laboratu": 8591,
      "gb": 8592,
      "kten": 8593,
      "çür": 8594,
      "şov": 8595,
      "##uel": 8596,
      "##ates": 8597,
      "##isinden": 8598,
      "gelmişti": 8599,
      "çıkmaz": 8600,
      "bakıldığında": 8601,
      "prov": 8602,
      "##lemiş": 8603,
      "doğur": 8604,
      "eseri": 8605,
      "izlen": 8606,
      "yönetiminde": 8607,
      "i̇lç": 8608,
      "sunduğu": 8609,
      "gönderme": 8610,
      "toplantıya": 8611,
      "gruplar": 8612,
      "hükümetinin": 8613,
      "köylü": 8614,
      "seçimleri": 8615,
      "samimi": 8616,
      "biliyorsunuz": 8617,
      "benzin": 8618,
      "çerçevede": 8619,
      "hırsızlık": 8620,
      "fonk": 8621,
      "arayış": 8622,
      "cezaevinde": 8623,
      "tüneli": 8624,
      "zihin": 8625,
      "hama": 8626,
      "##uyla": 8627,
      "##yaman": 8628,
      "##yacağı": 8629,
      "başa": 8630,
      "##hai": 8631,
      "isyan": 8632,
      "ekibinin": 8633,
      "tarihinden": 8634,
      "imal": 8635,
      "gerçekleştirildi": 8636,
      "2001": 8637,
      "aileler": 8638,
      "çiftin": 8639,
      "annem": 8640,
      "kolları": 8641,
      "sınavı": 8642,
      "taze": 8643,
      "ceset": 8644,
      "##liyesi": 8645,
      "olmazsa": 8646,
      "ameliyatı": 8647,
      "biber": 8648,
      "kampanyası": 8649,
      "kimseye": 8650,
      "nazlı": 8651,
      "çapraz": 8652,
      "albümü": 8653,
      "derecede": 8654,
      "japon": 8655,
      "protein": 8656,
      "muhtemel": 8657,
      "lehine": 8658,
      "kaşığı": 8659,
      "air": 8660,
      "liler": 8661,
      "nil": 8662,
      "##bili": 8663,
      "##hep": 8664,
      "##we": 8665,
      "##emiyor": 8666,
      "yapının": 8667,
      "görmüş": 8668,
      "veriler": 8669,
      "işveren": 8670,
      "maması": 8671,
      "olanak": 8672,
      "paranın": 8673,
      "denizi": 8674,
      "herhal": 8675,
      "göze": 8676,
      "ayrılma": 8677,
      "milyona": 8678,
      "dünyaca": 8679,
      "bilgisini": 8680,
      "ekonomisi": 8681,
      "bırakan": 8682,
      "programda": 8683,
      "fiyatlarının": 8684,
      "firari": 8685,
      "mezhep": 8686,
      "kred": 8687,
      "girişi": 8688,
      "yeterince": 8689,
      "kamuoyuna": 8690,
      "bayraktar": 8691,
      "yurtdışına": 8692,
      "tüketimi": 8693,
      "ihtiyacımız": 8694,
      "nişan": 8695,
      "şartıyla": 8696,
      "enteg": 8697,
      "cevabını": 8698,
      "emanet": 8699,
      "herhalde": 8700,
      "bru": 8701,
      "mesi": 8702,
      "sili": 8703,
      "çol": 8704,
      "##dün": 8705,
      "##ladi": 8706,
      "arıyor": 8707,
      "ine": 8708,
      "kalec": 8709,
      "kayak": 8710,
      "varil": 8711,
      "ekme": 8712,
      "boya": 8713,
      "ilgilendir": 8714,
      "çekin": 8715,
      "gösterilen": 8716,
      "laik": 8717,
      "konular": 8718,
      "ikamet": 8719,
      "teşhis": 8720,
      "pazarlama": 8721,
      "taşıdı": 8722,
      "ederiz": 8723,
      "çarptır": 8724,
      "yöntemi": 8725,
      "yıllarca": 8726,
      "coşkun": 8727,
      "mülk": 8728,
      "flor": 8729,
      "izleyic": 8730,
      "afa": 8731,
      "caz": 8732,
      "hek": 8733,
      "##alayan": 8734,
      "##esun": 8735,
      "##esince": 8736,
      "deş": 8737,
      "vey": 8738,
      "##taç": 8739,
      "ayhan": 8740,
      "##uza": 8741,
      "kalır": 8742,
      "kalkan": 8743,
      "istek": 8744,
      "genetik": 8745,
      "##eles": 8746,
      "##çekmece": 8747,
      "bölgelerinde": 8748,
      "ihale": 8749,
      "aşan": 8750,
      "sport": 8751,
      "i̇şbirliği": 8752,
      "sürdürülebilir": 8753,
      "başlattığı": 8754,
      "vurgulayarak": 8755,
      "üzül": 8756,
      "dünyayı": 8757,
      "kanattan": 8758,
      "plastik": 8759,
      "ülkemize": 8760,
      "hsy": 8761,
      "kabil": 8762,
      "vo": 8763,
      "ödü": 8764,
      "##yü": 8765,
      "##ble": 8766,
      "##pt": 8767,
      "##enter": 8768,
      "i̇c": 8769,
      "bilal": 8770,
      "yaratı": 8771,
      "liber": 8772,
      "kaplan": 8773,
      "yeğ": 8774,
      "örneği": 8775,
      "düzel": 8776,
      "diğini": 8777,
      "harun": 8778,
      "örgütlerinin": 8779,
      "kömür": 8780,
      "sundu": 8781,
      "hane": 8782,
      "nızda": 8783,
      "koyduğu": 8784,
      "kaynaklı": 8785,
      "korkunç": 8786,
      "törenine": 8787,
      "partiler": 8788,
      "çant": 8789,
      "gemisi": 8790,
      "parlamentosu": 8791,
      "tabanc": 8792,
      "mezarlığı": 8793,
      "prensi": 8794,
      "katkısı": 8795,
      "hsyk": 8796,
      "eleme": 8797,
      "graf": 8798,
      "kep": 8799,
      "pam": 8800,
      "ıl": 8801,
      "##larken": 8802,
      "##uldak": 8803,
      "geleni": 8804,
      "akrab": 8805,
      "haklarında": 8806,
      "##deres": 8807,
      "olmasa": 8808,
      "diği": 8809,
      "harp": 8810,
      "taahh": 8811,
      "görevine": 8812,
      "azez": 8813,
      "selah": 8814,
      "şeyleri": 8815,
      "ulaşmak": 8816,
      "kaldırıldığı": 8817,
      "okullar": 8818,
      "lirası": 8819,
      "tugay": 8820,
      "##ograf": 8821,
      "panik": 8822,
      "cesed": 8823,
      "zeybek": 8824,
      "avukatları": 8825,
      "uyarınca": 8826,
      "ithalat": 8827,
      "efendim": 8828,
      "expo": 8829,
      "94": 8830,
      "dor": 8831,
      "gran": 8832,
      "zong": 8833,
      "##tının": 8834,
      "##fiye": 8835,
      "##jer": 8836,
      "##alay": 8837,
      "##lit": 8838,
      "##ulur": 8839,
      "arındır": 8840,
      "antik": 8841,
      "konulan": 8842,
      "madı": 8843,
      "özal": 8844,
      "düşünü": 8845,
      "girerek": 8846,
      "aradı": 8847,
      "##sızın": 8848,
      "oynat": 8849,
      "barındır": 8850,
      "manşet": 8851,
      "menderes": 8852,
      "şüphe": 8853,
      "çalışanların": 8854,
      "ceğiz": 8855,
      "ilişkilerin": 8856,
      "kısmet": 8857,
      "ürünlerin": 8858,
      "kuzeyinde": 8859,
      "riba": 8860,
      "unutma": 8861,
      "gole": 8862,
      "ilçesindeki": 8863,
      "cesaret": 8864,
      "edici": 8865,
      "defalarca": 8866,
      "geçişi": 8867,
      "gerekirse": 8868,
      "çöp": 8869,
      "xxx": 8870,
      "arayarak": 8871,
      "brezilyalı": 8872,
      "çığ": 8873,
      "ideal": 8874,
      "kütüp": 8875,
      "edebiyat": 8876,
      "mutabakat": 8877,
      "zonguldak": 8878,
      "fur": 8879,
      "kin": 8880,
      "kolu": 8881,
      "los": 8882,
      "süs": 8883,
      "ti̇": 8884,
      "##ço": 8885,
      "##bel": 8886,
      "yapay": 8887,
      "aksi": 8888,
      "aksu": 8889,
      "yönlü": 8890,
      "çalışanı": 8891,
      "gazetesinin": 8892,
      "kucak": 8893,
      "değerler": 8894,
      "turiz": 8895,
      "güçlük": 8896,
      "hazırlan": 8897,
      "yönetimin": 8898,
      "##kanın": 8899,
      "etmesini": 8900,
      "sow": 8901,
      "edecektir": 8902,
      "adıyaman": 8903,
      "inanılmaz": 8904,
      "öğretmeni": 8905,
      "kurucusu": 8906,
      "zorundayız": 8907,
      "istiyorlar": 8908,
      "rio": 8909,
      "direkt": 8910,
      "mühimmat": 8911,
      "peynir": 8912,
      "cav": 8913,
      "flaş": 8914,
      "tom": 8915,
      "tms": 8916,
      "##veç": 8917,
      "##les": 8918,
      "almayı": 8919,
      "bilmiyor": 8920,
      "##luğunu": 8921,
      "akım": 8922,
      "yüzüne": 8923,
      "evlerinde": 8924,
      "girmiş": 8925,
      "##ladığını": 8926,
      "duyan": 8927,
      "vuran": 8928,
      "operasyonun": 8929,
      "gelişmeleri": 8930,
      "bırakın": 8931,
      "askerlik": 8932,
      "halkına": 8933,
      "oluşturan": 8934,
      "gerçekleşecek": 8935,
      "ihrac": 8936,
      "gündemde": 8937,
      "çizgi": 8938,
      "350": 8939,
      "nitekim": 8940,
      "otobüsü": 8941,
      "##lamayacak": 8942,
      "yumuş": 8943,
      "olabiliyor": 8944,
      "vitor": 8945,
      "namazı": 8946,
      "yapılacağı": 8947,
      "vadede": 8948,
      "nihayet": 8949,
      "katılımıyla": 8950,
      "rot": 8951,
      "##yurt": 8952,
      "##ando": 8953,
      "birleştir": 8954,
      "##imark": 8955,
      "i̇let": 8956,
      "görecek": 8957,
      "türkler": 8958,
      "günah": 8959,
      "kalbi": 8960,
      "işini": 8961,
      "iştah": 8962,
      "olduğunda": 8963,
      "termin": 8964,
      "##tirme": 8965,
      "##sapp": 8966,
      "liğin": 8967,
      "kullanıldığı": 8968,
      "altun": 8969,
      "yollar": 8970,
      "danimark": 8971,
      "bağlam": 8972,
      "yetki": 8973,
      "kararname": 8974,
      "##leyip": 8975,
      "moody": 8976,
      "hastası": 8977,
      "tutuksuz": 8978,
      "girişimini": 8979,
      "dinleme": 8980,
      "sonuçta": 8981,
      "otomobili": 8982,
      "sesleri": 8983,
      "mesajlar": 8984,
      "çizdi": 8985,
      "1999": 8986,
      "ağabeyi": 8987,
      "verimli": 8988,
      "whatsapp": 8989,
      ").": 8990,
      "?.": 8991,
      "gre": 8992,
      "nem": 8993,
      "##batı": 8994,
      "##ekon": 8995,
      "olmanın": 8996,
      "etnik": 8997,
      "verirken": 8998,
      "sevinç": 8999,
      "ifadelerine": 9000,
      "olayların": 9001,
      "##ick": 9002,
      "eyüp": 9003,
      "nijer": 9004,
      "hastanesine": 9005,
      "meyv": 9006,
      "##küdar": 9007,
      "planlama": 9008,
      "mutfak": 9009,
      "bankaların": 9010,
      "dilim": 9011,
      "çifte": 9012,
      "boşalt": 9013,
      "istedikleri": 9014,
      "üsküdar": 9015,
      "işletme": 9016,
      "parlamenter": 9017,
      "içeride": 9018,
      "diyalog": 9019,
      "atletico": 9020,
      "selahattin": 9021,
      "fev": 9022,
      "kesi": 9023,
      "kef": 9024,
      "saman": 9025,
      "yıp": 9026,
      "şö": 9027,
      "##bilmesi": 9028,
      "##jı": 9029,
      "##dao": 9030,
      "vermeden": 9031,
      "yılbaşı": 9032,
      "açar": 9033,
      "akış": 9034,
      "tekst": 9035,
      "yanındaki": 9036,
      "atmak": 9037,
      "atöl": 9038,
      "kapatı": 9039,
      "onlarla": 9040,
      "merm": 9041,
      "emine": 9042,
      "saatlerinden": 9043,
      "eğitime": 9044,
      "gençlerin": 9045,
      "sezonda": 9046,
      "anlaşmanın": 9047,
      "çağdaş": 9048,
      "okulda": 9049,
      "mahkemenin": 9050,
      "şimdiden": 9051,
      "öldürül": 9052,
      "anlamında": 9053,
      "oranının": 9054,
      "üreten": 9055,
      "gördüğünü": 9056,
      "keşif": 9057,
      "minibüs": 9058,
      "nitelikli": 9059,
      "bahset": 9060,
      "ergenekon": 9061,
      "dolandırıcılık": 9062,
      "kdv": 9063,
      "ode": 9064,
      "ret": 9065,
      "şak": 9066,
      "##sch": 9067,
      "##yat": 9068,
      "##bbi": 9069,
      "##inal": 9070,
      "##ahç": 9071,
      "konunun": 9072,
      "öncü": 9073,
      "bilme": 9074,
      "kurmay": 9075,
      "kayın": 9076,
      "isteği": 9077,
      "##amayan": 9078,
      "sandal": 9079,
      "i̇smet": 9080,
      "güçler": 9081,
      "başkanvekili": 9082,
      "havadan": 9083,
      "hepimizin": 9084,
      "mevdu": 9085,
      "afyon": 9086,
      "profes": 9087,
      "duyurusunda": 9088,
      "morg": 9089,
      "balıkçı": 9090,
      "felaket": 9091,
      "afganistan": 9092,
      "baktığımızda": 9093,
      "93": 9094,
      "bon": 9095,
      "feri": 9096,
      "iv": 9097,
      "mam": 9098,
      "mid": 9099,
      "sy": 9100,
      "satan": 9101,
      "##dını": 9102,
      "##jek": 9103,
      "olgun": 9104,
      "##landa": 9105,
      "aktüel": 9106,
      "müeb": 9107,
      "özk": 9108,
      "deneme": 9109,
      "halis": 9110,
      "##masyon": 9111,
      "giresun": 9112,
      "dere": 9113,
      "kurultay": 9114,
      "etkileri": 9115,
      "yüre": 9116,
      "görünen": 9117,
      "sindir": 9118,
      "130": 9119,
      "katılmak": 9120,
      "çalışanlar": 9121,
      "ülkelerinin": 9122,
      "yaralandığı": 9123,
      "götürdü": 9124,
      "çocuğa": 9125,
      "uçaklarının": 9126,
      "miktarı": 9127,
      "minik": 9128,
      "ortamı": 9129,
      "i̇ktidar": 9130,
      "yurtdışı": 9131,
      "kısmını": 9132,
      "yücel": 9133,
      "ehliyet": 9134,
      "gasp": 9135,
      "atmos": 9136,
      "bonservis": 9137,
      "müebbet": 9138,
      "deli": 9139,
      "fre": 9140,
      "keç": 9141,
      "##ktan": 9142,
      "##şen": 9143,
      "türü": 9144,
      "maaşı": 9145,
      "yerlere": 9146,
      "yaşıyoruz": 9147,
      "çalışacak": 9148,
      "lib": 9149,
      "merce": 9150,
      "##tikleri": 9151,
      "izi": 9152,
      "seçen": 9153,
      "suçlaması": 9154,
      "fenerbahç": 9155,
      "çalışmalara": 9156,
      "düşünmüyor": 9157,
      "sakın": 9158,
      "çağlar": 9159,
      "sorunların": 9160,
      "puanı": 9161,
      "talih": 9162,
      "fotoğrafları": 9163,
      "mağaza": 9164,
      "yıldızlı": 9165,
      "çevredeki": 9166,
      "kirli": 9167,
      "kapatılan": 9168,
      "koşu": 9169,
      "okuyan": 9170,
      "bombası": 9171,
      "yarattı": 9172,
      "atama": 9173,
      "verip": 9174,
      "işletmeler": 9175,
      "anlayışı": 9176,
      "tutuklanarak": 9177,
      "koku": 9178,
      "takvim": 9179,
      "medeniyet": 9180,
      "heykel": 9181,
      "afad": 9182,
      "98": 9183,
      "cari": 9184,
      "sında": 9185,
      "ısın": 9186,
      "##lali": 9187,
      "##gon": 9188,
      "##enn": 9189,
      "##lary": 9190,
      "arasından": 9191,
      "açılacak": 9192,
      "post": 9193,
      "merdiven": 9194,
      "ihlali": 9195,
      "havaya": 9196,
      "oktay": 9197,
      "çocuklarının": 9198,
      "bırakıp": 9199,
      "dolardan": 9200,
      "tahsil": 9201,
      "kendinizi": 9202,
      "araçta": 9203,
      "forması": 9204,
      "umarım": 9205,
      "firmanın": 9206,
      "çeşme": 9207,
      "uçakları": 9208,
      "aramada": 9209,
      "hırvat": 9210,
      "nakli": 9211,
      "sergilen": 9212,
      "vaat": 9213,
      "sigortalı": 9214,
      "hillary": 9215,
      "2023": 9216,
      "bilgilendirme": 9217,
      "fernandao": 9218,
      "cn": 9219,
      "suna": 9220,
      "öc": 9221,
      "##ws": 9222,
      "##aleti": 9223,
      "##led": 9224,
      "##lardır": 9225,
      "artacak": 9226,
      "türki̇": 9227,
      "akla": 9228,
      "##hael": 9229,
      "atv": 9230,
      "ülker": 9231,
      "havay": 9232,
      "tanrı": 9233,
      "ekibin": 9234,
      "merkezleri": 9235,
      "operatör": 9236,
      "seçildi": 9237,
      "destekleyen": 9238,
      "gittim": 9239,
      "silahla": 9240,
      "patlamanın": 9241,
      "mario": 9242,
[...]
