<unk>	0
<s>	0
</s>	0
▁a	-0
▁i	-1
▁l	-2
▁d	-3
▁e	-4
▁n	-5
▁s	-6
▁y	-7
ar	-8
▁k	-9
er	-10
▁b	-11
▁t	-12
▁m	-13
▁.	-14
an	-15
▁o	-16
▁ı	-17
▁,	-18
▁g	-19
en	-20
▁r	-21
▁u	-22
▁'	-23
in	-24
ir	-25
▁v	-26
ak	-27
il	-28
▁lar	-29
le	-30
▁ler	-31
ın	-32
▁h	-33
▁ü	-34
▁de	-35
▁an	-36
▁in	-37
▁B	-38
▁nd	-39
la	-40
ek	-41
▁A	-42
▁ya	-43
or	-44
al	-45
▁ç	-46
▁ve	-47
▁ar	-48
▁da	-49
el	-50
ma	-51
▁ol	-52
▁"	-53
et	-54
▁T	-55
▁ma	-56
di	-57
un	-58
▁ın	-59
▁bir	-60
▁S	-61
▁K	-62
▁ö	-63
ık	-64
▁p	-65
de	-66
da	-67
aş	-68
▁li	-69
ıl	-70
▁al	-71
▁en	-72
ğı	-73
▁ka	-74
▁ş	-75
ya	-76
dı	-77
st	-78
▁1	-79
▁M	-80
ği	-81
yor	-82
▁f	-83
iz	-84
▁il	-85
on	-86
ur	-87
▁et	-88
▁z	-89
▁c	-90
▁bu	-91
ki	-92
▁er	-93
ür	-94
es	-95
▁di	-96
ır	-97
▁D	-98
ün	-99
sı	-100
▁ne	-101
at	-102
ış	-103
▁gö	-104
▁2	-105
me	-106
▁E	-107
▁G	-108
li	-109
▁H	-110
▁nı	-111
▁si	-112
▁un	-113
▁İ	-114
ti	-115
▁0	-116
▁ye	-117
▁ay	-118
▁iç	-119
▁yap	-120
iş	-121
▁ed	-122
▁te	-123
▁leri	-124
am	-125
▁on	-126
▁nin	-127
lar	-128
▁Y	-129
▁na	-130
▁nda	-131
ığı	-132
▁sı	-133
▁ni	-134
ta	-135
▁ir	-136
▁sa	-137
du	-138
▁nın	-139
im	-140
ka	-141
▁-	-142
▁ac	-143
ra	-144
▁la	-145
ce	-146
▁ta	-147
▁at	-148
▁için	-149
▁P	-150
▁im	-151
▁ha	-152
▁C	-153
em	-154
eri	-155
ok	-156
▁nde	-157
▁F	-158
re	-159
ul	-160
▁O	-161
▁ğ	-162
▁ları	-163
um	-164
▁ab	-165
▁ile	-166
tı	-167
▁kar	-168
ye	-169
▁me	-170
▁ist	-171
▁baş	-172
▁lik	-173
▁or	-174
esi	-175
▁ama	-176
▁le	-177
ol	-178
yle	-179
▁ak	-180
ara	-181
▁ra	-182
üz	-183
ke	-184
▁oldu	-185
▁Tür	-186
▁gel	-187
uş	-188
▁3	-189
it	-190
▁ün	-191
▁ver	-192
ız	-193
ım	-194
▁ul	-195
▁is	-196
▁ara	-197
▁ek	-198
▁ur	-199
ük	-200
▁aç	-201
▁den	-202
ik	-203
▁dı	-204
▁du	-205
▁5	-206
▁iyor	-207
▁sin	-208
▁ev	-209
▁iş	-210
ön	-211
sa	-212
ha	-213
▁lı	-214
▁ıl	-215
▁R	-216
şı	-217
▁çık	-218
az	-219
ut	-220
▁ması	-221
▁iz	-222
▁:	-223
▁bul	-224
üş	-225
uk	-226
▁az	-227
▁ti	-228
▁dan	-229
▁N	-230
▁4	-231
▁6	-232
▁se	-233
▁sın	-234
▁ec	-235
▁Türki	-236
oğ	-237
▁Bu	-238
ör	-239
lu	-240
te	-241
▁ge	-242
▁ndan	-243
▁Ş	-244
▁el	-245
▁lan	-246
lı	-247
▁es	-248
▁ki	-249
▁Ç	-250
▁uz	-251
endi	-252
▁L	-253
ah	-254
▁lık	-255
▁iy	-256
▁üz	-257
▁Ö	-258
▁olduğ	-259
▁acak	-260
ler	-261
cı	-262
▁bil	-263
dan	-264
üm	-265
▁aş	-266
▁ko	-267
▁kal	-268
▁tı	-269
▁ön	-270
▁yer	-271
aki	-272
▁sö	-273
▁ger	-274
▁ik	-275
▁as	-276
iy	-277
bi	-278
▁yıl	-279
▁to	-280
▁gi	-281
▁bel	-282
▁etti	-283
▁larak	-284
▁(	-285
ca	-286
▁ter	-287
is	-288
onu	-289
▁re	-290
▁kad	-291
▁edil	-292
▁su	-293
ül	-294
▁um	-295
▁yan	-296
den	-297
▁9	-298
▁ecek	-299
gi	-300
ey	-301
▁)	-302
▁çok	-303
▁bulun	-304
▁ği	-305
ro	-306
▁olan	-307
▁çal	-308
▁ül	-309
▁em	-310
cu	-311
▁ıyor	-312
▁ele	-313
▁onra	-314
eni	-315
▁geç	-316
▁ır	-317
▁mak	-318
▁7	-319
▁mil	-320
▁var	-321
lan	-322
▁dığı	-323
▁diği	-324
▁bü	-325
▁tan	-326
▁mü	-327
▁ise	-328
▁dur	-329
▁karşı	-330
▁çalış	-331
dü	-332
▁gün	-333
▁gör	-334
▁am	-335
▁değ	-336
▁ey	-337
▁kur	-338
▁tır	-339
▁unu	-340
cak	-341
▁ine	-342
▁daha	-343
▁Baş	-344
▁av	-345
ci	-346
▁uy	-347
ağı	-348
▁V	-349
por	-350
▁ım	-351
ay	-352
ları	-353
▁bin	-354
▁8	-355
▁yapıl	-356
▁göre	-357
ru	-358
▁kay	-359
bil	-360
▁U	-361
▁top	-362
▁belir	-363
▁bö	-364
▁yar	-365
be	-366
▁laş	-367
ge	-368
▁yüz	-369
▁yaş	-370
işi	-371
▁liği	-372
▁nden	-373
▁mesi	-374
▁ağ	-375
▁açık	-376
çe	-377
▁yla	-378
yon	-379
kı	-380
▁inin	-381
▁tir	-382
▁ür	-383
▁ah	-384
▁kişi	-385
▁yi	-386
▁acağı	-387
uz	-388
▁ece	-389
ken	-390
▁mış	-391
us	-392
▁yak	-393
ste	-394
▁yle	-395
va	-396
aman	-397
▁yön	-398
yük	-399
▁ğı	-400
▁if	-401
▁oy	-402
lay	-403
▁ba	-404
▁tara	-405
man	-406
▁tar	-407
▁düş	-408
▁taraf	-409
▁oğ	-410
za	-411
▁abil	-412
▁do	-413
▁po	-414
▁mek	-415
let	-416
si	-417
▁bo	-418
▁dır	-419
▁kadar	-420
yo	-421
▁başla	-422
▁gibi	-423
na	-424
se	-425
▁sun	-426
▁lu	-427
▁konu	-428
▁mal	-429
▁üzeri	-430
era	-431
▁ör	-432
▁sor	-433
▁dön	-434
▁arası	-435
üt	-436
sta	-437
▁dev	-438
▁yı	-439
▁lığı	-440
▁ce	-441
▁dedi	-442
▁öz	-443
▁miş	-444
ba	-445
▁söyle	-446
▁yeni	-447
▁ad	-448
▁Z	-449
▁gü	-450
▁kendi	-451
yat	-452
▁mi	-453
▁ında	-454
eş	-455
▁anla	-456
▁Ü	-457
bul	-458
▁şe	-459
▁arak	-460
▁eceği	-461
▁son	-462
▁ülke	-463
▁terör	-464
▁bak	-465
gil	-466
▁ından	-467
▁böl	-468
▁sür	-469
▁açıkl	-470
▁tığı	-471
▁art	-472
▁miz	-473
▁it	-474
▁gerek	-475
▁yol	-476
▁ardı	-477
▁erek	-478
▁alın	-479
pa	-480
▁fa	-481
▁onuş	-482
▁taş	-483
ih	-484
▁?	-485
ünya	-486
▁her	-487
▁dir	-488
lis	-489
▁ının	-490
▁inde	-491
ade	-492
▁larda	-493
▁nun	-494
▁düz	-495
▁pro	-496
▁büyük	-497
▁alan	-498
eki	-499
▁doğ	-500
lık	-501
san	-502
▁ot	-503
▁ih	-504
▁AB	-505
▁hak	-506
▁ük	-507
▁sal	-508
▁eş	-509
▁karar	-510
hu	-511
▁ri	-512
▁sağ	-513
▁get	-514
▁kları	-515
ekil	-516
▁getir	-517
▁ilk	-518
▁zaman	-519
▁ifade	-520
▁yor	-521
▁eme	-522
▁ların	-523
▁syon	-524
▁mu	-525
▁ok	-526
▁tur	-527
▁neden	-528
▁ını	-529
▁eki	-530
▁ini	-531
▁ğın	-532
▁mız	-533
▁uyor	-534
met	-535
ali	-536
▁aber	-537
leş	-538
▁dar	-539
▁lendi	-540
▁id	-541
▁lü	-542
▁man	-543
▁ap	-544
▁yüzde	-545
▁ril	-546
▁ayr	-547
▁tut	-548
▁Türk	-549
▁değil	-550
▁maç	-551
▁kat	-552
▁Ka	-553
▁tak	-554
▁Cum	-555
▁I	-556
▁Cumhu	-557
mak	-558
▁İst	-559
▁may	-560
▁eç	-561
güt	-562
▁iki	-563
▁iste	-564
▁şeh	-565
▁ten	-566
ven	-567
▁diye	-568
▁tu	-569
▁devam	-570
ere	-571
▁öl	-572
▁ağı	-573
▁Başka	-574
▁Bak	-575
▁ndaki	-576
ren	-577
▁nt	-578
▁len	-579
▁kt	-580
▁kap	-581
ne	-582
▁eden	-583
▁deki	-584
ile	-585
▁anbul	-586
ğü	-587
cü	-588
▁oğlu	-589
▁ci	-590
▁gen	-591
leri	-592
▁ebil	-593
▁şu	-594
▁ada	-595
▁ren	-596
▁mo	-597
▁durum	-598
▁önce	-599
iler	-600
▁kö	-601
▁olay	-602
tü	-603
▁bek	-604
▁Ko	-605
laş	-606
▁ilgil	-607
▁men	-608
iye	-609
▁imi	-610
▁!	-611
▁düzen	-612
ğer	-613
▁yaşa	-614
▁altı	-615
▁siz	-616
▁sev	-617
▁ulla	-618
mek	-619
▁kı	-620
▁yun	-621
▁üre	-622
▁nl	-623
▁ken	-624
▁Mü	-625
▁milyo	-626
▁rı	-627
▁imiz	-628
▁ullan	-629
▁saat	-630
▁insan	-631
▁nem	-632
▁op	-633
bir	-634
▁lara	-635
▁;	-636
▁ip	-637
▁biz	-638
▁iyi	-639
▁ço	-640
▁duğ	-641
▁kr	-642
▁örgüt	-643
▁lerde	-644
▁vur	-645
▁etme	-646
▁söz	-647
▁adı	-648
▁Öz	-649
▁iyet	-650
▁ayı	-651
▁evlet	-652
▁yaz	-653
▁nemli	-654
▁gir	-655
▁iya	-656
▁Bir	-657
▁ban	-658
▁bölge	-659
▁Al	-660
▁olma	-661
▁sında	-662
▁par	-663
▁dış	-664
▁maya	-665
▁özel	-666
▁mey	-667
▁göste	-668
▁spor	-669
▁saldı	-670
▁os	-671
▁yok	-672
kan	-673
▁üç	-674
▁bilgi	-675
▁daki	-676
▁anı	-677
▁aldı	-678
▁unda	-679
▁Gaz	-680
ran	-681
▁st	-682
tu	-683
▁J	-684
▁yönet	-685
ip	-686
▁lerin	-687
▁hem	-688
ini	-689
▁Gen	-690
▁dünya	-691
▁değer	-692
▁uriye	-693
▁eli	-694
ira	-695
▁gerç	-696
gu	-697
▁rd	-698
öz	-699
▁haf	-700
▁yet	-701
▁gid	-702
▁ABD	-703
lü	-704
▁rdi	-705
▁kleri	-706
cuk	-707
▁güven	-708
▁ğını	-709
ılar	-710
▁içind	-711
▁10	-712
▁sine	-713
▁polis	-714
▁öğ	-715
▁duy	-716
ber	-717
▁edi	-718
ve	-719
▁şey	-720
▁ala	-721
▁ke	-722
▁ımız	-723
▁Ha	-724
▁ut	-725
▁çıkar	-726
▁nlığı	-727
▁iyle	-728
ji	-729
▁gelen	-730
▁met	-731
▁üst	-732
▁tarih	-733
▁tem	-734
▁kim	-735
▁ran	-736
▁ekleş	-737
▁mı	-738
▁tür	-739
▁sır	-740
▁tek	-741
ad	-742
▁han	-743
▁cı	-744
▁kes	-745
yla	-746
▁landı	-747
▁takım	-748
gı	-749
▁iliş	-750
▁dönem	-751
▁rb	-752
▁başka	-753
nı	-754
dir	-755
▁bun	-756
▁sinde	-757
▁İs	-758
mi	-759
▁ız	-760
▁sah	-761
▁üks	-762
▁ale	-763
▁ort	-764
miş	-765
▁ıp	-766
▁luk	-767
ılı	-768
▁hasta	-769
▁vru	-770
▁Baka	-771
▁rbaş	-772
▁ede	-773
cad	-774
▁Mu	-775
▁haber	-776
▁ilişk	-777
▁una	-778
▁rdoğ	-779
▁Rus	-780
lem	-781
ET	-782
▁ına	-783
▁sonu	-784
▁zor	-785
▁opera	-786
▁şekil	-787
▁rbaşk	-788
▁lüğü	-789
ine	-790
▁İl	-791
▁ade	-792
atan	-793
▁ıldı	-794
▁rül	-795
▁uş	-796
▁can	-797
▁kaz	-798
▁rme	-799
▁uyg	-800
▁Mah	-801
▁likte	-802
▁sil	-803
▁ro	-804
▁res	-805
▁leş	-806
▁istem	-807
▁nün	-808
▁kayb	-809
▁FET	-810
arı	-811
▁sini	-812
▁vrupa	-813
▁ral	-814
▁FETÖ	-815
hmet	-816
▁hayat	-817
he	-818
▁üyor	-819
▁sağla	-820
gün	-821
▁ça	-822
▁bağ	-823
▁lo	-824
▁uç	-825
▁hafta	-826
▁tüm	-827
▁nız	-828
▁net	-829
▁lere	-830
▁ici	-831
dür	-832
▁azla	-833
▁esi	-834
ri	-835
▁ru	-836
▁çocuk	-837
▁isti	-838
▁lira	-839
▁15	-840
▁malar	-841
▁ünde	-842
▁kazan	-843
▁soru	-844
▁har	-845
▁yanı	-846
▁biri	-847
je	-848
▁vatan	-849
▁tü	-850
▁san	-851
dia	-852
▁ceza	-853
▁hakkı	-854
▁yuncu	-855
▁dü	-856
▁kam	-857
▁Da	-858
▁arı	-859
▁niz	-860
ker	-861
▁görev	-862
▁ndeki	-863
▁lama	-864
if	-865
ğiş	-866
▁sav	-867
▁iriş	-868
öyle	-869
▁geldi	-870
cel	-871
▁yakın	-872
▁git	-873
▁daş	-874
▁Li	-875
▁topla	-876
▁geliş	-877
▁dolar	-878
ono	-879
▁katıl	-880
▁likle	-881
▁kan	-882
▁Genel	-883
▁us	-884
▁mes	-885
▁fi	-886
▁rah	-887
▁Müdür	-888
▁Ak	-889
▁doğru	-890
▁kadın	-891
▁ulaş	-892
erke	-893
▁rta	-894
▁değiş	-895
▁bas	-896
ret	-897
çi	-898
▁verdi	-899
▁mücad	-900
▁madı	-901
▁oto	-902
▁süre	-903
rı	-904
▁bah	-905
▁aynı	-906
▁ark	-907
▁yaşı	-908
iyet	-909
▁ben	-910
▁nk	-911
▁sinin	-912
▁zal	-913
▁haz	-914
▁kor	-915
▁Gazet	-916
ına	-917
▁adece	-918
▁bakan	-919
▁ekip	-920
▁olmak	-921
▁erk	-922
▁hazır	-923
▁An	-924
aray	-925
▁anlat	-926
rol	-927
kü	-928
▁zi	-929
▁til	-930
▁­	-931
▁asker	-932
▁kü	-933
rada	-934
▁etk	-935
▁anan	-936
▁iler	-937
▁lay	-938
▁Şu	-939
▁darbe	-940
▁af	-941
▁mut	-942
▁iddia	-943
▁nü	-944
▁say	-945
▁sahip	-946
▁ku	-947
▁Bü	-948
▁mez	-949
KK	-950
▁riyet	-951
▁orta	-952
▁bır	-953
▁bırak	-954
uştu	-955
▁sız	-956
▁nc	-957
art	-958
▁harek	-959
▁unlar	-960
▁nma	-961
ram	-962
▁üksek	-963
▁ikk	-964
ni	-965
▁kayd	-966
▁sel	-967
▁Fen	-968
▁inden	-969
▁Beş	-970
mam	-971
▁üret	-972
▁baz	-973
▁ikkat	-974
▁nkara	-975
▁düşü	-976
▁diğer	-977
▁kaç	-978
▁PKK	-979
▁yay	-980
ot	-981
▁şir	-982
▁edef	-983
▁TL	-984
▁Biz	-985
▁veya	-986
üp	-987
▁Ay	-988
▁para	-989
▁yür	-990
▁ış	-991
▁çıktı	-992
ap	-993
▁Fener	-994
▁bahçe	-995
▁kır	-996
▁ca	-997
▁Gö	-998
▁/	-999
▁sunda	-1000
▁tiği	-1001
▁rtaya	-1002
▁ladı	-1003
▁suç	-1004
▁yapan	-1005
▁enler	-1006
▁üm	-1007
▁tıl	-1008
▁hava	-1009
ete	-1010
▁inan	-1011
▁üzere	-1012
▁azete	-1013
▁görüş	-1014
▁raf	-1015
yas	-1016
▁ans	-1017
▁rt	-1018
▁dem	-1019
▁aşkan	-1020
▁arka	-1021
▁deste	-1022
▁kez	-1023
▁larla	-1024
atış	-1025
▁yöne	-1026
▁mah	-1027
▁rs	-1028
▁Er	-1029
▁W	-1030
▁ayın	-1031
▁bekle	-1032
▁kapsa	-1033
▁yen	-1034
▁Beşik	-1035
▁öğren	-1036
▁Par	-1037
▁Spor	-1038
inc	-1039
ev	-1040
▁İn	-1041
▁gram	-1042
tar	-1043
▁mel	-1044
▁sına	-1045
▁ez	-1046
▁istan	-1047
00	-1048
▁tele	-1049
▁alata	-1050
▁şehir	-1051
iyar	-1052
▁maz	-1053
▁nce	-1054
▁andı	-1055
▁lanan	-1056
▁uygul	-1057
▁aha	-1058
▁Rusya	-1059
▁bazı	-1060
▁şirke	-1061
▁isim	-1062
▁tep	-1063
▁Dünya	-1064
▁sık	-1065
▁amada	-1066
▁ndı	-1067
▁nu	-1068
▁çı	-1069
▁hat	-1070
▁Söz	-1071
▁Ancak	-1072
▁saray	-1073
▁fil	-1074
▁mille	-1075
▁lerle	-1076
▁aile	-1077
▁sorun	-1078
▁sü	-1079
▁ks	-1080
▁araç	-1081
▁geçen	-1082
▁bugün	-1083
▁muh	-1084
▁etki	-1085
▁tiril	-1086
tün	-1087
▁luğ	-1088
▁içeri	-1089
▁fiyat	-1090
▁gol	-1091
▁açıl	-1092
▁der	-1093
▁nıl	-1094
▁sıra	-1095
▁zaltı	-1096
▁taşı	-1097
▁lt	-1098
▁ayrı	-1099
▁sürdü	-1100
▁ns	-1101
▁yapı	-1102
lik	-1103
▁per	-1104
▁seç	-1105
▁rak	-1106
▁tamam	-1107
▁proje	-1108
yal	-1109
▁gru	-1110
şa	-1111
▁rek	-1112
▁eği	-1113
▁günü	-1114
▁nas	-1115
▁Su	-1116
▁osyal	-1117
▁onun	-1118
▁ağlık	-1119
▁liler	-1120
▁Son	-1121
▁ihti	-1122
▁tör	-1123
▁be	-1124
üs	-1125
azar	-1126
▁arklı	-1127
▁tah	-1128
▁şek	-1129
▁adam	-1130
▁miyor	-1131
▁leme	-1132
▁silah	-1133
▁bile	-1134
ite	-1135
▁olo	-1136
▁Ama	-1137
▁kurul	-1138
▁oyna	-1139
▁ağır	-1140
▁tanı	-1141
▁ğim	-1142
▁oruş	-1143
▁Kara	-1144
▁rü	-1145
▁turma	-1146
mış	-1147
▁Bun	-1148
▁ng	-1149
▁ic	-1150
▁taki	-1151
niy	-1152
▁üs	-1153
nde	-1154
▁gönde	-1155
dav	-1156
▁kon	-1157
lah	-1158
▁yu	-1159
▁hali	-1160
▁yayın	-1161
▁nasıl	-1162
▁milya	-1163
▁rsite	-1164
▁İş	-1165
▁iti	-1166
▁müş	-1167
lam	-1168
▁bildi	-1169
▁erken	-1170
▁izmet	-1171
▁şöyle	-1172
bo	-1173
▁uv	-1174
▁sez	-1175
▁tırma	-1176
id	-1177
▁ıra	-1178
▁öldü	-1179
▁urada	-1180
imdi	-1181
▁ancak	-1182
▁Gül	-1183
muz	-1184
▁sezon	-1185
▁ntrol	-1186
▁anlaş	-1187
alı	-1188
▁maçı	-1189
▁güç	-1190
▁mad	-1191
▁eçti	-1192
▁geçir	-1193
▁kul	-1194
▁kli	-1195
▁mik	-1196
bu	-1197
▁yaral	-1198
▁his	-1199
▁rab	-1200
▁plan	-1201
▁arkad	-1202
▁ğren	-1203
▁mar	-1204
▁nok	-1205
▁kız	-1206
▁tam	-1207
▁ğini	-1208
▁ıyla	-1209
▁ing	-1210
▁emmuz	-1211
▁üc	-1212
▁oyun	-1213
nik	-1214
▁ep	-1215
▁dik	-1216
▁ıcı	-1217
ında	-1218
▁işlem	-1219
▁ık	-1220
▁üp	-1221
mba	-1222
▁laşık	-1223
▁böyle	-1224
iç	-1225
▁hal	-1226
▁he	-1227
▁ildi	-1228
▁ğrenc	-1229
▁De	-1230
▁metre	-1231
▁nokta	-1232
▁sını	-1233
▁ehmet	-1234
yü	-1235
▁mcı	-1236
▁eğit	-1237
▁Parti	-1238
▁yasa	-1239
▁tedav	-1240
▁acı	-1241
▁öde	-1242
▁rdü	-1243
▁duğu	-1244
▁lenen	-1245
▁Gü	-1246
▁göz	-1247
▁kabul	-1248
▁edya	-1249
▁tutuk	-1250
▁aşa	-1251
▁lanma	-1252
▁kil	-1253
▁nel	-1254
▁To	-1255
▁aba	-1256
▁kent	-1257
▁ekono	-1258
ga	-1259
▁siniz	-1260
gan	-1261
▁geri	-1262
fa	-1263
▁yük	-1264
▁genel	-1265
▁alt	-1266
bol	-1267
▁eled	-1268
▁sonuc	-1269
▁medi	-1270
▁unun	-1271
▁luştu	-1272
▁sen	-1273
▁Büyük	-1274
▁düşün	-1275
▁eski	-1276
▁aki	-1277
▁lük	-1278
ça	-1279
▁uğ	-1280
▁bomba	-1281
▁ilçe	-1282
▁oloji	-1283
▁ntı	-1284
▁gece	-1285
▁ğimiz	-1286
dın	-1287
▁bölüm	-1288
▁mında	-1289
▁eng	-1290
▁â	-1291
▁Re	-1292
▁ardım	-1293
mız	-1294
▁şehit	-1295
▁bütün	-1296
▁itiba	-1297
der	-1298
▁okul	-1299
▁tale	-1300
▁Ter	-1301
▁çi	-1302
▁dün	-1303
▁film	-1304
▁uzun	-1305
▁j	-1306
▁ekt	-1307
AR	-1308
▁gu	-1309
▁merke	-1310
▁ana	-1311
▁lma	-1312
▁mıyor	-1313
▁telef	-1314
▁Ben	-1315
▁oran	-1316
▁dava	-1317
▁şüp	-1318
▁şüphe	-1319
▁Yeni	-1320
▁ğin	-1321
▁sınır	-1322
▁etkil	-1323
dır	-1324
▁içbir	-1325
▁yağ	-1326
▁aka	-1327
▁ayısı	-1328
▁ırken	-1329
şe	-1330
▁sının	-1331
▁so	-1332
▁önün	-1333
▁ait	-1334
▁orm	-1335
mı	-1336
HP	-1337
▁erkes	-1338
▁Terör	-1339
▁for	-1340
▁köy	-1341
ğın	-1342
▁tti	-1343
▁rağ	-1344
▁far	-1345
▁yakal	-1346
▁ilgi	-1347
tür	-1348
▁om	-1349
▁12	-1350
▁rağme	-1351
▁meye	-1352
▁koy	-1353
▁Ne	-1354
utbo	-1355
▁lcu	-1356
▁güz	-1357
as	-1358
▁etmek	-1359
▁kilo	-1360
▁ikinc	-1361
▁ika	-1362
▁üye	-1363
▁kika	-1364
çok	-1365
▁çıkan	-1366
pit	-1367
▁yetki	-1368
▁pu	-1369
▁Yıl	-1370
▁vurgu	-1371
▁diy	-1372
▁olayı	-1373
▁ündem	-1374
▁yat	-1375
▁olur	-1376
▁bekl	-1377
▁irçok	-1378
ulu	-1379
▁genç	-1380
▁amay	-1381
▁aya	-1382
▁kaldı	-1383
▁AK	-1384
▁Mahal	-1385
▁espit	-1386
▁ıs	-1387
▁anda	-1388
▁ze	-1389
oğu	-1390
▁20	-1391
▁rma	-1392
▁11	-1393
▁kra	-1394
su	-1395
▁min	-1396
▁ner	-1397
▁öne	-1398
▁çöz	-1399
▁Ali	-1400
▁Em	-1401
▁tırım	-1402
▁lesi	-1403
▁laşma	-1404
▁Po	-1405
rans	-1406
▁Her	-1407
▁w	-1408
▁ste	-1409
are	-1410
▁bunu	-1411
▁savaş	-1412
▁rün	-1413
▁amadı	-1414
▁anlam	-1415
▁bağlı	-1416
▁ize	-1417
▁dile	-1418
▁din	-1419
▁mod	-1420
▁elim	-1421
▁Gün	-1422
▁mev	-1423
▁bera	-1424
▁türk	-1425
cek	-1426
▁mayı	-1427
▁futbo	-1428
deş	-1429
▁onlar	-1430
▁ardeş	-1431
▁tane	-1432
▁ğü	-1433
▁Zaman	-1434
▁sürec	-1435
▁toplu	-1436
▁rım	-1437
▁sonuç	-1438
▁veren	-1439
▁Ana	-1440
▁kayna	-1441
▁satış	-1442
▁vekil	-1443
▁urulu	-1444
▁Hasta	-1445
▁lider	-1446
▁oluş	-1447
▁parti	-1448
▁atan	-1449
▁oca	-1450
▁akat	-1451
▁ris	-1452
▁güzel	-1453
▁ihtiy	-1454
▁izin	-1455
fi	-1456
▁incel	-1457
▁elir	-1458
AN	-1459
zo	-1460
▁ndi	-1461
▁yö	-1462
▁leşme	-1463
▁uk	-1464
▁Yıldı	-1465
▁dırıl	-1466
▁fir	-1467
▁erke	-1468
▁kamu	-1469
▁atl	-1470
▁atıl	-1471
▁puan	-1472
▁utbol	-1473
aj	-1474
▁fer	-1475
▁muş	-1476
▁lç	-1477
▁ilen	-1478
▁Özel	-1479
▁iye	-1480
ER	-1481
▁avcı	-1482
▁Sözcü	-1483
▁kol	-1484
▁deniz	-1485
▁ahi	-1486
▁ant	-1487
▁engel	-1488
▁yenid	-1489
▁İngil	-1490
▁imza	-1491
ını	-1492
▁mizin	-1493
▁hiç	-1494
▁pek	-1495
▁kıs	-1496
▁teki	-1497
▁mem	-1498
▁ateş	-1499
ylem	-1500
▁mobil	-1501
▁çev	-1502
▁tık	-1503
▁ullah	-1504
aka	-1505
▁kten	-1506
▁ayrıl	-1507
▁Musta	-1508
▁Üni	-1509
▁ziyar	-1510
▁Ban	-1511
▁attı	-1512
▁ciler	-1513
▁meler	-1514
▁alanı	-1515
▁tedir	-1516
▁şekli	-1517
▁Am	-1518
▁ton	-1519
▁aylaş	-1520
▁berab	-1521
▁kurum	-1522
▁yine	-1523
▁dil	-1524
▁madan	-1525
▁ati	-1526
▁grup	-1527
▁yacak	-1528
▁Ünive	-1529
▁piy	-1530
▁krar	-1531
▁bizim	-1532
▁Pro	-1533
▁ünü	-1534
▁lat	-1535
▁lman	-1536
unm	-1537
▁piyon	-1538
▁malı	-1539
▁pazar	-1540
▁nması	-1541
▁Den	-1542
▁Mil	-1543
▁önem	-1544
▁rabzo	-1545
▁üçler	-1546
▁aday	-1547
▁Dem	-1548
şam	-1549
ter	-1550
izi	-1551
▁amaz	-1552
▁artık	-1553
▁yükse	-1554
▁nayas	-1555
▁gitti	-1556
▁yürü	-1557
yaz	-1558
▁Dr	-1559
▁ırası	-1560
▁oku	-1561
▁çağ	-1562
urt	-1563
▁görü	-1564
▁meyda	-1565
▁öğret	-1566
▁viz	-1567
▁erkez	-1568
▁seçim	-1569
▁has	-1570
▁ıldız	-1571
▁rne	-1572
▁Yön	-1573
▁ince	-1574
▁fot	-1575
▁ydı	-1576
▁sürü	-1577
▁diyor	-1578
▁Emniy	-1579
▁gelir	-1580
▁rci	-1581
▁CHP	-1582
▁ölüm	-1583
▁ürün	-1584
▁eğ	-1585
▁erç	-1586
▁ıllar	-1587
▁est	-1588
▁hale	-1589
vil	-1590
▁Ata	-1591
▁ydi	-1592
▁dere	-1593
▁kısa	-1594
▁rken	-1595
▁undan	-1596
ekl	-1597
▁ürü	-1598
▁rol	-1599
▁mis	-1600
▁ser	-1601
▁Yönet	-1602
▁Ameri	-1603
▁Bo	-1604
▁tra	-1605
uma	-1606
▁Deniz	-1607
▁`	-1608
▁lıyor	-1609
ımı	-1610
▁rüntü	-1611
▁avunm	-1612
▁dönüş	-1613
▁yurt	-1614
▁Ahmet	-1615
▁cil	-1616
▁Ar	-1617
▁Kur	-1618
sun	-1619
▁İz	-1620
▁ledi	-1621
▁ulus	-1622
▁adım	-1623
▁eşi	-1624
▁otur	-1625
▁ağa	-1626
▁Bakan	-1627
▁uzak	-1628
▁rmek	-1629
len	-1630
▁artır	-1631
▁DA	-1632
▁Demir	-1633
▁lmany	-1634
▁yazı	-1635
▁tildi	-1636
▁atı	-1637
▁zar	-1638
▁üne	-1639
▁za	-1640
▁tük	-1641
▁ers	-1642
▁fotoğ	-1643
▁rdiği	-1644
▁nen	-1645
▁mıştı	-1646
▁Lig	-1647
▁bi	-1648
▁mağ	-1649
▁ahibi	-1650
▁hep	-1651
rak	-1652
▁cü	-1653
▁çar	-1654
▁Ya	-1655
▁iyasi	-1656
▁onu	-1657
▁banka	-1658
▁elirl	-1659
▁lek	-1660
▁iyasa	-1661
▁azı	-1662
▁elek	-1663
▁Bunun	-1664
ic	-1665
bat	-1666
▁30	-1667
▁nacak	-1668
▁ışı	-1669
▁sok	-1670
▁Milli	-1671
▁ültür	-1672
▁end	-1673
▁tepki	-1674
▁yargı	-1675
▁Os	-1676
▁Daha	-1677
▁faal	-1678
▁25	-1679
▁eclis	-1680
▁istey	-1681
▁Mahke	-1682
▁basın	-1683
▁adet	-1684
cuğ	-1685
▁knik	-1686
▁akşam	-1687
▁liğ	-1688
▁lantı	-1689
▁terek	-1690
▁Yap	-1691
▁olu	-1692
▁tal	-1693
üb	-1694
▁tin	-1695
▁14	-1696
▁Osman	-1697
▁ılma	-1698
▁tekn	-1699
▁çevre	-1700
▁kara	-1701
▁nak	-1702
▁bina	-1703
▁ndığı	-1704
▁mama	-1705
▁DE	-1706
▁gar	-1707
▁ıntı	-1708
▁tartı	-1709
▁açı	-1710
▁mahke	-1711
▁niyor	-1712
▁elin	-1713
vet	-1714
▁ilet	-1715
▁uldu	-1716
iyo	-1717
▁Mart	-1718
▁demo	-1719
▁kriz	-1720
▁ralık	-1721
▁up	-1722
▁yo	-1723
▁olsun	-1724
▁kalan	-1725
▁bit	-1726
▁hız	-1727
▁ktan	-1728
mir	-1729
▁müda	-1730
▁mesaj	-1731
▁erv	-1732
▁ncesi	-1733
fer	-1734
▁ener	-1735
▁trans	-1736
▁bet	-1737
▁rman	-1738
▁kin	-1739
▁yürüt	-1740
▁illet	-1741
▁kapat	-1742
▁bunun	-1743
▁uvvet	-1744
▁üncel	-1745
▁eylem	-1746
▁dah	-1747
▁doğu	-1748
▁ayınd	-1749
▁ektör	-1750
▁tüket	-1751
▁İzmir	-1752
▁boz	-1753
▁Şubat	-1754
▁Sa	-1755
▁koru	-1756
▁bancı	-1757
▁küç	-1758
▁sebe	-1759
▁liye	-1760
▁erçek	-1761
▁boy	-1762
▁Ce	-1763
▁alk	-1764
▁dak	-1765
▁eti	-1766
▁poli	-1767
▁müdah	-1768
▁sanat	-1769
▁isi	-1770
▁lıklı	-1771
▁13	-1772
▁and	-1773
▁nceki	-1774
▁yum	-1775
▁izle	-1776
▁aktar	-1777
▁krasi	-1778
▁rdı	-1779
▁tas	-1780
gür	-1781
▁cid	-1782
▁şar	-1783
▁lil	-1784
▁indir	-1785
▁öyle	-1786
▁let	-1787
▁Dav	-1788
▁ntal	-1789
▁ınca	-1790
▁artış	-1791
▁layan	-1792
▁apı	-1793
▁ari	-1794
▁ortak	-1795
▁En	-1796
▁manı	-1797
▁Merke	-1798
▁sevk	-1799
▁yanda	-1800
▁yoğ	-1801
▁amacı	-1802
▁tt	-1803
▁baba	-1804
▁bağla	-1805
▁yaşam	-1806
▁yoğun	-1807
▁nüm	-1808
▁oyn	-1809
van	-1810
▁tif	-1811
▁ırs	-1812
▁rneği	-1813
▁takip	-1814
▁mas	-1815
▁rüldü	-1816
▁yorum	-1817
▁ğa	-1818
▁dim	-1819
▁zan	-1820
▁Ab	-1821
▁rim	-1822
muş	-1823
▁Ek	-1824
▁kre	-1825
▁kın	-1826
▁riyor	-1827
▁ıllık	-1828
▁rev	-1829
▁rüş	-1830
▁mayan	-1831
▁Muh	-1832
▁Ocak	-1833
▁yana	-1834
eh	-1835
▁nış	-1836
▁umuz	-1837
▁aracı	-1838
▁ntaly	-1839
do	-1840
▁iv	-1841
▁Ulu	-1842
▁İlk	-1843
▁sab	-1844
▁pay	-1845
▁derec	-1846
▁tay	-1847
uro	-1848
▁arış	-1849
▁sırad	-1850
▁inşa	-1851
▁sunuz	-1852
▁işe	-1853
▁ret	-1854
▁sayı	-1855
lim	-1856
▁El	-1857
▁şart	-1858
▁ona	-1859
▁huk	-1860
▁ktör	-1861
▁ilim	-1862
▁zarar	-1863
▁araş	-1864
▁ralar	-1865
ınd	-1866
▁teşe	-1867
▁kapa	-1868
▁yız	-1869
▁16	-1870
▁mlu	-1871
▁ses	-1872
▁Ekono	-1873
▁dağ	-1874
▁alış	-1875
▁hukuk	-1876
▁siyas	-1877
▁Ad	-1878
▁ücret	-1879
▁Bur	-1880
▁çek	-1881
▁Güven	-1882
sım	-1883
▁Allah	-1884
▁laz	-1885
▁Euro	-1886
▁lenme	-1887
▁dür	-1888
▁hük	-1889
▁18	-1890
▁ıf	-1891
mesi	-1892
ift	-1893
▁rildi	-1894
▁ani	-1895
ünkü	-1896
▁Çünkü	-1897
▁şimdi	-1898
Bu	-1899
▁ita	-1900
▁mızı	-1901
▁organ	-1902
▁cu	-1903
▁kamp	-1904
▁itesi	-1905
▁ğımız	-1906
lat	-1907
▁şma	-1908
▁Irak	-1909
▁anne	-1910
▁çocuğ	-1911
▁ide	-1912
▁rılar	-1913
▁ib	-1914
▁x	-1915
▁yü	-1916
▁eri	-1917
▁şah	-1918
▁Ku	-1919
▁rul	-1920
▁rbe	-1921
▁etmiş	-1922
▁büyü	-1923
▁çift	-1924
▁tadır	-1925
ğa	-1926
▁oda	-1927
▁oranı	-1928
▁şa	-1929
▁uza	-1930
▁rka	-1931
▁suz	-1932
▁yiz	-1933
▁tab	-1934
▁rbest	-1935
▁aşlar	-1936
▁lılar	-1937
▁Dış	-1938
▁çarp	-1939
▁yolcu	-1940
▁Yar	-1941
▁şan	-1942
▁nesi	-1943
▁yarat	-1944
▁çıkla	-1945
▁Jo	-1946
▁eb	-1947
▁kav	-1948
▁klar	-1949
▁ntısı	-1950
▁tik	-1951
▁yarış	-1952
▁önünd	-1953
ku	-1954
zi	-1955
▁iyesi	-1956
▁planl	-1957
▁one	-1958
▁erleş	-1959
▁gördü	-1960
▁rdu	-1961
▁sıyla	-1962
▁forma	-1963
▁ılmaz	-1964
▁ciddi	-1965
▁ira	-1966
▁yüzü	-1967
▁cam	-1968
▁17	-1969
▁urt	-1970
▁lerce	-1971
▁madde	-1972
▁emey	-1973
▁irken	-1974
▁esa	-1975
lo	-1976
▁uçak	-1977
▁kadro	-1978
▁Gazi	-1979
yan	-1980
▁Fet	-1981
▁Genç	-1982
▁ert	-1983
▁rn	-1984
▁bilin	-1985
▁On	-1986
▁Gök	-1987
▁rıl	-1988
▁irbir	-1989
▁nları	-1990
rü	-1991
▁va	-1992
▁mcısı	-1993
▁temel	-1994
▁Or	-1995
▁Bö	-1996
atı	-1997
▁elekt	-1998
▁tören	-1999
▁arama	-2000
▁sivil	-2001
▁sek	-2002
sız	-2003
▁ök	-2004
▁kle	-2005
▁tasar	-2006
▁kötü	-2007
▁Ceza	-2008
▁müm	-2009
▁yrı	-2010
▁vuru	-2011
▁mümkü	-2012
▁öd	-2013
▁dizi	-2014
▁rcih	-2015
▁lig	-2016
▁dakik	-2017
▁inter	-2018
▁lte	-2019
▁Ül	-2020
▁ent	-2021
▁benim	-2022
▁buluş	-2023
▁hüküm	-2024
▁yrıca	-2025
▁üper	-2026
▁götü	-2027
▁nspor	-2028
▁mer	-2029
▁uğra	-2030
▁kolay	-2031
▁elçi	-2032
▁sabah	-2033
▁çiz	-2034
▁Do	-2035
▁İran	-2036
▁Ve	-2037
▁alı	-2038
▁hes	-2039
▁sene	-2040
▁fes	-2041
▁24	-2042
▁kredi	-2043
▁küçük	-2044
▁polit	-2045
▁vardı	-2046
▁ley	-2047
▁iniz	-2048
▁tepe	-2049
▁ere	-2050
▁Bursa	-2051
▁yal	-2052
▁Polis	-2053
aze	-2054
▁rik	-2055
▁AŞ	-2056
▁Can	-2057
▁ata	-2058
▁tor	-2059
▁Çok	-2060
▁model	-2061
▁fet	-2062
▁çe	-2063
▁şı	-2064
▁üni	-2065
▁rapor	-2066
▁ğlu	-2067
▁Böyle	-2068
▁risk	-2069
▁enerj	-2070
▁rüşme	-2071
▁eh	-2072
▁Mar	-2073
▁enaze	-2074
▁gramı	-2075
▁başı	-2076
▁tırıl	-2077
▁bay	-2078
▁alet	-2079
▁muta	-2080
▁üneş	-2081
▁yatır	-2082
▁arım	-2083
▁eder	-2084
▁firma	-2085
▁talep	-2086
▁So	-2087
▁kimse	-2088
ılıç	-2089
▁Kılıç	-2090
▁Kay	-2091
▁Şeh	-2092
▁Davut	-2093
▁ayıda	-2094
▁belge	-2095
▁Kö	-2096
▁ong	-2097
▁vuk	-2098
▁bakır	-2099
▁İşte	-2100
▁vukat	-2101
car	-2102
▁kış	-2103
▁faiz	-2104
▁Diyar	-2105
▁Orta	-2106
rac	-2107
▁sey	-2108
▁şid	-2109
▁Banka	-2110
▁yım	-2111
▁kalk	-2112
▁kaza	-2113
▁üncü	-2114
▁arken	-2115
▁çatış	-2116
▁tım	-2117
▁olsa	-2118
▁anal	-2119
▁hemen	-2120
▁ang	-2121
▁Abd	-2122
▁Kasım	-2123
▁inans	-2124
▁anat	-2125
▁silci	-2126
▁Şimdi	-2127
▁Vali	-2128
▁ediye	-2129
▁mensu	-2130
▁tes	-2131
▁erli	-2132
▁eyaz	-2133
▁uygun	-2134
▁ena	-2135
▁hiss	-2136
▁iyat	-2137
▁Bugün	-2138
▁ükü	-2139
▁Gülen	-2140
▁milli	-2141
▁ela	-2142
▁soy	-2143
▁mutlu	-2144
▁Olay	-2145
▁ttığı	-2146
▁aması	-2147
▁lteci	-2148
▁Hava	-2149
▁Yardı	-2150
▁elde	-2151
▁aşına	-2152
▁ef	-2153
▁nıyor	-2154
▁şidde	-2155
▁Ço	-2156
▁ayır	-2157
▁parça	-2158
▁ayet	-2159
▁Es	-2160
▁abi	-2161
▁sak	-2162
▁aklar	-2163
▁katkı	-2164
dar	-2165
▁100	-2166
▁konud	-2167
Şİ	-2168
▁hesap	-2169
▁Top	-2170
▁meden	-2171
▁geçi	-2172
▁eleş	-2173
▁hangi	-2174
▁ekim	-2175
▁teri	-2176
▁umlu	-2177
▁güçlü	-2178
▁mizi	-2179
▁eçmiş	-2180
▁İki	-2181
▁demir	-2182
▁raki	-2183
▁durdu	-2184
▁çekil	-2185
▁yeter	-2186
▁eks	-2187
▁iha	-2188
▁Böl	-2189
▁dep	-2190
▁darma	-2191
▁Ulus	-2192
▁klif	-2193
▁duyur	-2194
▁yunca	-2195
▁anık	-2196
▁atta	-2197
▁Bölge	-2198
▁misyo	-2199
▁azi	-2200
▁tav	-2201
▁laşım	-2202
▁mişti	-2203
▁Anado	-2204
▁dö	-2205
▁od	-2206
▁kale	-2207
▁evi	-2208
▁alım	-2209
ayi	-2210
▁dık	-2211
▁50	-2212
▁Kem	-2213
▁eslim	-2214
▁görme	-2215
▁üküme	-2216
▁inti	-2217
▁kaya	-2218
▁evler	-2219
▁urum	-2220
▁kart	-2221
▁adına	-2222
▁yıp	-2223
vi	-2224
▁umu	-2225
eşit	-2226
▁eyen	-2227
▁anayi	-2228
▁izler	-2229
▁trafi	-2230
▁çeşit	-2231
ıs	-2232
▁rat	-2233
▁Kendi	-2234
▁ekibi	-2235
▁ödeme	-2236
▁HD	-2237
▁yardı	-2238
tim	-2239
▁Ligi	-2240
▁dım	-2241
▁zat	-2242
▁eyin	-2243
▁ünün	-2244
▁girdi	-2245
▁nn	-2246
▁adlı	-2247
▁onund	-2248
▁revli	-2249
▁yılda	-2250
▁marka	-2251
▁temiz	-2252
▁yarak	-2253
so	-2254
ıt	-2255
▁ina	-2256
▁ilme	-2257
YD	-2258
ab	-2259
eli	-2260
▁slan	-2261
▁irek	-2262
▁etkin	-2263
▁ticar	-2264
▁fin	-2265
▁gula	-2266
▁anser	-2267
▁şam	-2268
▁etin	-2269
▁ayy	-2270
▁ahçe	-2271
▁anlar	-2272
▁ervis	-2273
▁Ör	-2274
▁dol	-2275
▁bize	-2276
▁ov	-2277
▁ayrıc	-2278
▁bana	-2279
▁sınız	-2280
▁tos	-2281
▁aray	-2282
▁güne	-2283
▁ödül	-2284
▁işler	-2285
▁İslam	-2286
▁of	-2287
▁Koç	-2288
▁muştu	-2289
▁uzman	-2290
▁nül	-2291
▁sig	-2292
▁tma	-2293
▁ğitim	-2294
cep	-2295
▁Recep	-2296
▁ayyip	-2297
▁resmi	-2298
▁ob	-2299
▁aralı	-2300
▁belli	-2301
▁çözüm	-2302
▁atil	-2303
▁hen	-2304
▁Eski	-2305
▁angi	-2306
▁atma	-2307
▁asıl	-2308
▁abası	-2309
▁enz	-2310
▁fark	-2311
▁mızın	-2312
▁Man	-2313
▁izi	-2314
▁azal	-2315
bı	-2316
▁kesin	-2317
▁rk	-2318
▁Örgüt	-2319
▁ımlar	-2320
▁air	-2321
▁çak	-2322
▁steği	-2323
izm	-2324
▁19	-2325
▁21	-2326
▁Ser	-2327
▁anl	-2328
▁halkı	-2329
▁tirdi	-2330
▁ars	-2331
▁tere	-2332
▁ünlü	-2333
AT	-2334
▁inci	-2335
▁nlık	-2336
▁geniş	-2337
▁emekl	-2338
▁kça	-2339
▁rnek	-2340
▁arılı	-2341
▁Dün	-2342
▁açısı	-2343
▁istih	-2344
▁şarkı	-2345
han	-2346
▁ttı	-2347
▁vet	-2348
▁ktor	-2349
lük	-2350
▁co	-2351
▁araya	-2352
▁irleş	-2353
▁irlik	-2354
dit	-2355
▁üy	-2356
▁ard	-2357
▁yanıt	-2358
▁22	-2359
▁seri	-2360
▁ia	-2361
▁süreç	-2362
▁arşı	-2363
▁Çin	-2364
▁alon	-2365
▁Kür	-2366
▁endi	-2367
▁ante	-2368
▁düzey	-2369
▁ail	-2370
▁uzu	-2371
▁iğer	-2372
▁ij	-2373
▁sl	-2374
▁oğu	-2375
▁anma	-2376
▁ünlük	-2377
▁erkek	-2378
▁anya	-2379
▁işçi	-2380
▁lam	-2381
▁Kemal	-2382
▁Ey	-2383
▁pi	-2384
▁Sarı	-2385
▁aşarı	-2386
▁elik	-2387
▁avali	-2388
▁sokak	-2389
▁hane	-2390
▁pan	-2391
▁lem	-2392
▁Dışiş	-2393
▁urizm	-2394
▁önemi	-2395
▁kurt	-2396
▁okun	-2397
▁pat	-2398
▁final	-2399
▁Fat	-2400
▁aşı	-2401
▁uzey	-2402
▁PYD	-2403
▁lazım	-2404
ed	-2405
▁eler	-2406
▁Kon	-2407
FA	-2408
▁HDP	-2409
fo	-2410
▁Ülke	-2411
▁dahil	-2412
▁ediği	-2413
▁rülen	-2414
▁taleb	-2415
kaç	-2416
▁aat	-2417
▁ürücü	-2418
▁alp	-2419
▁rmak	-2420
▁hli	-2421
▁eşil	-2422
vap	-2423
▁esabı	-2424
▁cevap	-2425
▁nti	-2426
▁raş	-2427
▁irkaç	-2428
▁sy	-2429
▁Mur	-2430
▁üsl	-2431
▁lin	-2432
▁Murat	-2433
▁aret	-2434
▁hlike	-2435
▁İnsan	-2436
EŞ	-2437
▁Ch	-2438
▁ald	-2439
▁kül	-2440
▁ulüp	-2441
▁çekti	-2442
▁müz	-2443
▁rısı	-2444
▁lığın	-2445
▁muz	-2446
▁irinc	-2447
▁üksel	-2448
▁Kürt	-2449
▁ilan	-2450
▁lığa	-2451
▁nmış	-2452
▁anun	-2453
tö	-2454
▁Haz	-2455
▁işi	-2456
▁ntem	-2457
▁abet	-2458
▁almak	-2459
▁canlı	-2460
▁nme	-2461
▁ileri	-2462
▁alif	-2463
▁anak	-2464
▁hatır	-2465
▁kayıt	-2466
▁Tr	-2467
▁Alman	-2468
▁ihrac	-2469
▁eceğ	-2470
▁Fatih	-2471
▁ormal	-2472
▁oş	-2473
▁Eki	-2474
▁rem	-2475
▁hdit	-2476
▁yansı	-2477
ump	-2478
▁çab	-2479
büs	-2480
▁ayvan	-2481
▁tobüs	-2482
▁yse	-2483
▁Bunu	-2484
▁aşadı	-2485
▁Trump	-2486
▁nç	-2487
isan	-2488
▁kür	-2489
▁name	-2490
▁uyla	-2491
▁Nisan	-2492
Lİ	-2493
▁lın	-2494
▁taj	-2495
▁Konya	-2496
alib	-2497
▁ord	-2498
▁rac	-2499
▁gücü	-2500
▁itir	-2501
dana	-2502
▁galib	-2503
▁şik	-2504
▁ınız	-2505
▁başta	-2506
▁sektö	-2507
▁aj	-2508
▁ons	-2509
▁rum	-2510
▁dalet	-2511
▁Şah	-2512
▁Adana	-2513
▁farkı	-2514
▁ire	-2515
▁ayram	-2516
▁siyle	-2517
▁Aydın	-2518
▁uar	-2519
▁aklı	-2520
▁epsi	-2521
▁ders	-2522
▁Bizim	-2523
▁ortam	-2524
▁perso	-2525
▁tılım	-2526
▁Şam	-2527
lül	-2528
▁duruş	-2529
▁antep	-2530
jim	-2531
▁ga	-2532
▁May	-2533
▁ilo	-2534
▁Şube	-2535
▁ışık	-2536
▁imizi	-2537
▁rahat	-2538
▁yılın	-2539
▁krat	-2540
▁Çocuk	-2541
ŞİD	-2542
▁IŞİD	-2543
▁sığın	-2544
ze	-2545
▁abı	-2546
▁las	-2547
▁üyü	-2548
▁ransa	-2549
▁beni	-2550
▁Pazar	-2551
▁slınd	-2552
▁ch	-2553
▁ern	-2554
▁rge	-2555
▁kuru	-2556
▁edera	-2557
▁mali	-2558
▁sahne	-2559
▁ğinde	-2560
▁Ma	-2561
▁neral	-2562
▁üyüme	-2563
▁vü	-2564
▁rmans	-2565
▁DAEŞ	-2566
▁akın	-2567
▁alle	-2568
▁nik	-2569
▁arın	-2570
▁ıcak	-2571
▁sert	-2572
▁siyon	-2573
▁tidar	-2574
▁ırsat	-2575
▁evin	-2576
▁arada	-2577
▁lçesi	-2578
fe	-2579
▁avaş	-2580
▁işle	-2581
▁Ro	-2582
▁isiml	-2583
▁çağrı	-2584
▁baskı	-2585
▁karış	-2586
▁alık	-2587
▁apis	-2588
▁amera	-2589
▁işare	-2590
▁sınav	-2591
▁dair	-2592
▁türlü	-2593
▁Cad	-2594
▁Jan	-2595
▁28	-2596
▁ney	-2597
▁kafa	-2598
▁Cadde	-2599
▁Mayıs	-2600
▁korku	-2601
▁mizde	-2602
▁oz	-2603
▁van	-2604
▁ras	-2605
▁özgür	-2606
▁Ob	-2607
▁ref	-2608
▁yna	-2609
▁Bar	-2610
▁eye	-2611
▁anlış	-2612
▁amaç	-2613
▁etrol	-2614
▁mp	-2615
▁yık	-2616
▁aland	-2617
▁urken	-2618
▁ismi	-2619
▁Prof	-2620
▁log	-2621
▁loji	-2622
▁üyesi	-2623
ani	-2624
▁1.	-2625
▁Cuma	-2626
▁amel	-2627
to	-2628
▁Bay	-2629
▁anlı	-2630
▁ulut	-2631
▁henüz	-2632
▁rç	-2633
▁gören	-2634
▁Tek	-2635
▁uşu	-2636
▁sorgu	-2637
▁ğün	-2638
▁Şen	-2639
▁liste	-2640
▁ğında	-2641
▁ltan	-2642
▁enzer	-2643
▁yemek	-2644
▁rahim	-2645
var	-2646
▁nümüz	-2647
▁Go	-2648
▁göç	-2649
▁ilis	-2650
▁emniy	-2651
▁memur	-2652
▁seviy	-2653
▁ami	-2654
▁sarı	-2655
▁maçta	-2656
▁perfo	-2657
▁yarın	-2658
▁konul	-2659
▁vergi	-2660
ylü	-2661
▁ekran	-2662
▁kısmı	-2663
▁nnesi	-2664
▁akika	-2665
▁rkası	-2666
▁fay	-2667
▁Güney	-2668
▁aylık	-2669
ört	-2670
▁dört	-2671
▁emedi	-2672
▁det	-2673
▁kop	-2674
▁iyah	-2675
▁tüğü	-2676
▁unut	-2677
▁talya	-2678
▁gal	-2679
▁Kupa	-2680
▁recek	-2681
▁urtar	-2682
▁boş	-2683
▁lal	-2684
▁nan	-2685
▁tel	-2686
▁sanız	-2687
▁40	-2688
▁Eğer	-2689
▁buna	-2690
▁emez	-2691
▁doğal	-2692
▁liş	-2693
▁kira	-2694
▁ağlan	-2695
▁bakım	-2696
▁hakem	-2697
▁olmuş	-2698
▁ebe	-2699
▁düşük	-2700
suz	-2701
▁Az	-2702
▁amb	-2703
▁vaz	-2704
▁çoğu	-2705
▁Alb	-2706
▁şans	-2707
▁tahmi	-2708
AK	-2709
▁aran	-2710
▁kulüb	-2711
▁vizyo	-2712
▁ıda	-2713
▁Hale	-2714
▁vücu	-2715
▁İb	-2716
▁duygu	-2717
▁işbir	-2718
▁avuş	-2719
▁ment	-2720
▁rdüğü	-2721
▁nlem	-2722
▁hızlı	-2723
▁savcı	-2724
▁syonu	-2725
mat	-2726
▁izm	-2727
▁denil	-2728
▁bey	-2729
▁Yun	-2730
▁nlar	-2731
▁500	-2732
▁aire	-2733
▁Halep	-2734
▁sebep	-2735
▁boyu	-2736
▁asyon	-2737
▁AR	-2738
arak	-2739
▁red	-2740
▁giren	-2741
▁Yunan	-2742
▁erg	-2743
▁ilerl	-2744
▁yani	-2745
▁rejim	-2746
▁evir	-2747
▁fayda	-2748
▁konut	-2749
▁Şehit	-2750
▁rda	-2751
▁İd	-2752
▁eyet	-2753
▁itap	-2754
▁poz	-2755
▁otel	-2756
▁mikta	-2757
▁yazdı	-2758
vu	-2759
▁rail	-2760
▁hakim	-2761
▁23	-2762
▁yerde	-2763
▁öre	-2764
▁tec	-2765
▁ayıcı	-2766
▁çer	-2767
▁başar	-2768
▁eg	-2769
▁tat	-2770
▁defa	-2771
▁27	-2772
▁dum	-2773
▁tirme	-2774
▁çıkış	-2775
▁sk	-2776
▁şk	-2777
▁ilm	-2778
▁ayal	-2779
▁gider	-2780
▁nışma	-2781
▁orada	-2782
▁rakam	-2783
▁ray	-2784
▁biraz	-2785
▁2.	-2786
▁civar	-2787
▁erekl	-2788
▁ımızı	-2789
▁izl	-2790
▁ucu	-2791
▁udi	-2792
▁Kadın	-2793
▁kesim	-2794
▁söylü	-2795
▁Öte	-2796
▁meli	-2797
▁ğu	-2798
▁gaz	-2799
▁ruh	-2800
▁ahat	-2801
▁meyi	-2802
▁ayata	-2803
▁uyu	-2804
▁num	-2805
▁rin	-2806
▁cami	-2807
▁Eylül	-2808
▁zer	-2809
▁ağrı	-2810
▁olup	-2811
▁başvu	-2812
▁ain	-2813
▁geçiş	-2814
▁eydan	-2815
▁nünde	-2816
▁Ekim	-2817
▁şman	-2818
▁angın	-2819
▁sol	-2820
▁letme	-2821
▁yarar	-2822
▁paş	-2823
▁dışı	-2824
▁sefer	-2825
▁umsuz	-2826
▁ho	-2827
▁resel	-2828
▁ideo	-2829
▁iklik	-2830
▁Ev	-2831
▁öp	-2832
▁adi	-2833
▁emo	-2834
▁tuğ	-2835
▁Yani	-2836
▁pera	-2837
▁önüne	-2838
▁amm	-2839
▁dam	-2840
▁Hüs	-2841
▁ünive	-2842
▁üslüm	-2843
▁Tüm	-2844
▁azılı	-2845
▁dire	-2846
▁cel	-2847
▁ces	-2848
▁rid	-2849
▁ölü	-2850
▁asa	-2851
▁usul	-2852
▁şağı	-2853
OR	-2854
os	-2855
▁inem	-2856
▁macı	-2857
▁içe	-2858
▁geril	-2859
▁görül	-2860
▁ite	-2861
▁ağım	-2862
▁kıy	-2863
▁ılan	-2864
▁mamız	-2865
▁oyu	-2866
▁vak	-2867
▁ğe	-2868
▁imize	-2869
▁ollan	-2870
▁kri	-2871
▁abaka	-2872
▁Hazi	-2873
▁amen	-2874
▁erak	-2875
▁Ri	-2876
▁inç	-2877
▁düştü	-2878
▁taşıy	-2879
▁yenil	-2880
▁mit	-2881
▁eçen	-2882
▁paşa	-2883
▁cut	-2884
▁ete	-2885
▁gın	-2886
▁tip	-2887
▁bizi	-2888
▁gil	-2889
▁abri	-2890
▁limat	-2891
▁ımı	-2892
▁cılar	-2893
▁elind	-2894
▁vesi	-2895
▁ig	-2896
▁isyon	-2897
▁cıl	-2898
▁irk	-2899
▁kuş	-2900
▁rede	-2901
▁ihaz	-2902
▁irli	-2903
▁yolu	-2904
▁manın	-2905
▁Van	-2906
▁ayak	-2907
▁lkan	-2908
▁savun	-2909
▁neler	-2910
▁not	-2911
çı	-2912
▁Onlar	-2913
▁saye	-2914
▁oru	-2915
▁rez	-2916
▁iriz	-2917
▁yabil	-2918
▁avet	-2919
▁fe	-2920
▁enim	-2921
▁elen	-2922
▁ünler	-2923
▁Sel	-2924
▁eser	-2925
▁rubu	-2926
▁eknik	-2927
▁nur	-2928
▁zik	-2929
▁dbir	-2930
▁dağı	-2931
▁istik	-2932
gü	-2933
▁elki	-2934
▁fik	-2935
▁ldu	-2936
▁rgan	-2937
▁yere	-2938
▁olmay	-2939
▁liğe	-2940
▁3.	-2941
▁ğünü	-2942
▁diyen	-2943
DE	-2944
▁ynı	-2945
▁lans	-2946
▁ngin	-2947
▁üt	-2948
▁ordu	-2949
▁ünkü	-2950
▁anlay	-2951
▁çerçe	-2952
▁evre	-2953
▁BM	-2954
▁akar	-2955
▁kere	-2956
▁kalma	-2957
▁eyn	-2958
▁mre	-2959
▁alde	-2960
▁aygı	-2961
▁raba	-2962
▁TÜ	-2963
▁ümüz	-2964
▁syond	-2965
▁üş	-2966
▁emi	-2967
LA	-2968
▁TV	-2969
▁meş	-2970
▁anet	-2971
▁uşlar	-2972
▁Mes	-2973
▁Batı	-2974
▁arbe	-2975
▁atsız	-2976
dem	-2977
▁edel	-2978
▁pları	-2979
▁cılık	-2980
▁demek	-2981
▁evine	-2982
▁ag	-2983
▁algı	-2984
▁26	-2985
▁avu	-2986
▁etkis	-2987
▁diş	-2988
▁ıllı	-2989
▁ie	-2990
▁imk	-2991
▁asla	-2992
▁beri	-2993
▁hata	-2994
HA	-2995
▁verme	-2996
▁yazar	-2997
▁kla	-2998
▁arca	-2999
▁atik	-3000
▁ğum	-3001
▁erim	-3002
▁oğan	-3003
MA	-3004
▁Doğu	-3005
▁riz	-3006
▁üren	-3007
▁29	-3008
▁asan	-3009
▁içi	-3010
▁ğus	-3011
▁bara	-3012
▁vit	-3013
▁etçi	-3014
▁pp	-3015
▁gez	-3016
▁apımı	-3017
▁anım	-3018
▁alel	-3019
▁mızda	-3020
▁LAR	-3021
▁lmaz	-3022
▁zorla	-3023
▁sh	-3024
▁ven	-3025
▁üzü	-3026
▁ysa	-3027
▁içer	-3028
▁okak	-3029
▁hay	-3030
▁raman	-3031
İN	-3032
▁zman	-3033
▁radan	-3034
▁zı	-3035
▁işim	-3036
bar	-3037
ceğ	-3038
▁Av	-3039
▁eter	-3040
▁dayan	-3041
▁zaten	-3042
▁Kır	-3043
▁şık	-3044
▁osya	-3045
LE	-3046
▁sti	-3047
▁madd	-3048
▁zya	-3049
▁anti	-3050
▁eran	-3051
▁tri	-3052
▁ıt	-3053
▁alis	-3054
▁enge	-3055
▁ktörü	-3056
▁oruma	-3057
▁mun	-3058
▁nsel	-3059
▁üney	-3060
▁ortal	-3061
▁amu	-3062
▁enek	-3063
▁altın	-3064
▁müs	-3065
▁Kim	-3066
▁mamış	-3067
▁ow	-3068
▁ükl	-3069
▁çesi	-3070
▁Se	-3071
▁mir	-3072
▁atış	-3073
▁eyec	-3074
▁dal	-3075
▁ekme	-3076
▁No	-3077
▁kadem	-3078
▁old	-3079
▁şif	-3080
▁raya	-3081
▁Dk	-3082
▁kem	-3083
▁Bey	-3084
▁bes	-3085
▁blo	-3086
▁are	-3087
▁unuz	-3088
PG	-3089
men	-3090
▁eci	-3091
▁duk	-3092
▁vic	-3093
▁akan	-3094
▁mada	-3095
▁35	-3096
▁sik	-3097
▁masa	-3098
▁mbu	-3099
▁ram	-3100
▁kana	-3101
▁ağlar	-3102
▁Per	-3103
▁yapma	-3104
▁2-	-3105
▁rer	-3106
▁esle	-3107
▁unul	-3108
▁gül	-3109
▁ört	-3110
▁tesi	-3111
▁uyarı	-3112
▁ii	-3113
▁halk	-3114
▁izli	-3115
tır	-3116
▁ayn	-3117
▁tla	-3118
▁enar	-3119
▁TB	-3120
▁açtı	-3121
▁ksiyo	-3122
▁enc	-3123
▁rad	-3124
▁tçe	-3125
▁buldu	-3126
SK	-3127
DI	-3128
▁adığı	-3129
▁birim	-3130
▁kit	-3131
▁nca	-3132
▁erte	-3133
▁aşama	-3134
▁Dur	-3135
▁nal	-3136
▁EFA	-3137
▁alma	-3138
▁atla	-3139
▁iraz	-3140
▁diler	-3141
▁La	-3142
▁iver	-3143
tal	-3144
▁rap	-3145
▁tim	-3146
▁derin	-3147
▁ahs	-3148
▁enme	-3149
▁abir	-3150
▁aris	-3151
▁inay	-3152
▁uyar	-3153
▁dılar	-3154
▁ast	-3155
▁rıcı	-3156
▁uvar	-3157
▁hu	-3158
▁pla	-3159
▁kinci	-3160
▁rerek	-3161
▁olun	-3162
▁ayrak	-3163
▁biti	-3164
▁ücad	-3165
▁rhan	-3166
▁oynan	-3167
▁nşa	-3168
▁bozu	-3169
▁indi	-3170
▁nizi	-3171
MM	-3172
▁renk	-3173
▁nuz	-3174
▁alka	-3175
▁mayın	-3176
▁esn	-3177
▁ngö	-3178
▁yon	-3179
▁ayan	-3180
▁aşır	-3181
▁itti	-3182
ck	-3183
▁kâ	-3184
▁yin	-3185
▁asar	-3186
▁ülen	-3187
▁ble	-3188
▁aldır	-3189
.,	-3190
▁Vo	-3191
▁ork	-3192
po	-3193
▁31	-3194
▁yeme	-3195
▁nite	-3196
▁rıda	-3197
▁ulan	-3198
▁tiren	-3199
▁Kal	-3200
▁kah	-3201
▁por	-3202
▁klan	-3203
TI	-3204
▁zir	-3205
şik	-3206
▁eçil	-3207
▁mize	-3208
▁kiz	-3209
▁İsm	-3210
▁kler	-3211
▁ğişik	-3212
▁aksi	-3213
▁ksik	-3214
▁onya	-3215
▁suna	-3216
▁tr	-3217
▁tiv	-3218
▁edin	-3219
▁ınar	-3220
▁YA	-3221
▁Kaz	-3222
▁Fa	-3223
▁Sü	-3224
▁şi	-3225
▁dinle	-3226
▁uru	-3227
▁atın	-3228
▁ağan	-3229
▁iğ	-3230
▁raç	-3231
▁ebek	-3232
▁ane	-3233
▁ezi	-3234
▁eğe	-3235
▁zay	-3236
▁CE	-3237
▁Tu	-3238
▁aket	-3239
▁YE	-3240
▁üyle	-3241
▁eride	-3242
▁inc	-3243
▁Na	-3244
▁kuz	-3245
▁tro	-3246
çes	-3247
▁ilçes	-3248
▁riler	-3249
▁pas	-3250
▁esti	-3251
▁onse	-3252
▁Mİ	-3253
▁iyer	-3254
▁süred	-3255
▁Mo	-3256
▁ikr	-3257
▁inanı	-3258
▁ms	-3259
▁YPG	-3260
▁kıl	-3261
▁ısı	-3262
▁akır	-3263
▁dolu	-3264
▁irse	-3265
▁ulüb	-3266
▁erel	-3267
▁mutl	-3268
▁ergil	-3269
▁ımıza	-3270
▁nay	-3271
▁ğur	-3272
▁ahil	-3273
▁ST	-3274
▁uns	-3275
▁lanı	-3276
▁park	-3277
▁arma	-3278
▁ltın	-3279
▁Sur	-3280
▁sad	-3281
▁test	-3282
▁liğin	-3283
▁stekl	-3284
▁ker	-3285
▁neye	-3286
▁özler	-3287
▁uc	-3288
▁yim	-3289
▁İlçe	-3290
▁çey	-3291
▁llah	-3292
▁layın	-3293
▁nabil	-3294
▁Sam	-3295
lak	-3296
▁xx	-3297
▁lis	-3298
▁ncü	-3299
▁iptal	-3300
▁nmesi	-3301
▁Cen	-3302
▁Aile	-3303
▁meme	-3304
▁Te	-3305
▁receğ	-3306
▁zem	-3307
▁dası	-3308
▁lıdır	-3309
▁patla	-3310
▁atar	-3311
▁grub	-3312
▁nil	-3313
▁arar	-3314
▁nes	-3315
▁aşlat	-3316
▁yazıl	-3317
▁devre	-3318
▁lıkla	-3319
▁TBMM	-3320
▁eğer	-3321
▁ımcı	-3322
▁bayra	-3323
▁kızı	-3324
▁ütün	-3325
▁fla	-3326
▁uran	-3327
▁klı	-3328
▁usu	-3329
▁Kaza	-3330
▁ursa	-3331
▁çuk	-3332
▁kurma	-3333
▁kte	-3334
▁enen	-3335
▁Sev	-3336
▁eji	-3337
▁üze	-3338
▁nf	-3339
▁Kar	-3340
▁aynak	-3341
▁cilik	-3342
▁gitme	-3343
▁lardı	-3344
▁tılan	-3345
ana	-3346
▁Di	-3347
▁Ham	-3348
▁sta	-3349
▁ıları	-3350
▁nır	-3351
▁erbi	-3352
▁zam	-3353
▁makta	-3354
▁onser	-3355
▁ins	-3356
▁rın	-3357
▁sunu	-3358
▁ırt	-3359
▁arek	-3360
▁Saray	-3361
▁atif	-3362
▁akış	-3363
▁gili	-3364
▁reye	-3365
▁ster	-3366
▁nit	-3367
▁St	-3368
▁lak	-3369
▁niy	-3370
▁onuna	-3371
▁enk	-3372
▁alkın	-3373
▁ndiği	-3374
▁Ba	-3375
▁LER	-3376
▁lası	-3377
▁ub	-3378
▁rit	-3379
▁ime	-3380
▁palı	-3381
▁şeyi	-3382
TA	-3383
▁60	-3384
▁prü	-3385
▁ilah	-3386
▁ğiniz	-3387
▁1-	-3388
▁ücre	-3389
▁htar	-3390
▁zlem	-3391
▁eller	-3392
isi	-3393
▁bal	-3394
▁kus	-3395
▁mda	-3396
▁akala	-3397
▁yed	-3398
▁emen	-3399
▁Wa	-3400
▁Bil	-3401
▁upa	-3402
▁eo	-3403
▁ham	-3404
▁ksel	-3405
▁necek	-3406
▁parla	-3407
▁nö	-3408
▁arş	-3409
▁ldi	-3410
▁alb	-3411
▁vaş	-3412
▁yıla	-3413
▁üstü	-3414
▁ila	-3415
▁roje	-3416
▁ind	-3417
▁kum	-3418
Dİ	-3419
▁Mad	-3420
▁gin	-3421
▁rmiş	-3422
▁şıyor	-3423
▁ER	-3424
▁Yo	-3425
▁ff	-3426
▁Sal	-3427
▁ende	-3428
▁apa	-3429
▁urumu	-3430
▁taz	-3431
▁bölü	-3432
▁eker	-3433
▁ekle	-3434
▁este	-3435
▁diğim	-3436
ch	-3437
▁aze	-3438
▁şul	-3439
▁no	-3440
▁imli	-3441
▁fak	-3442
▁rir	-3443
▁zun	-3444
▁gere	-3445
▁veri	-3446
▁lmadı	-3447
▁rıy	-3448
▁narak	-3449
▁sas	-3450
▁tli	-3451
▁ğle	-3452
▁lev	-3453
▁yerek	-3454
▁fon	-3455
▁ore	-3456
▁teş	-3457
▁ğaz	-3458
▁3-	-3459
▁iP	-3460
▁evgi	-3461
▁unca	-3462
▁nüf	-3463
▁ayıl	-3464
▁etro	-3465
▁obil	-3466
▁Oto	-3467
▁key	-3468
▁evind	-3469
DA	-3470
▁45	-3471
▁ldü	-3472
▁mina	-3473
▁dırdı	-3474
▁rebil	-3475
▁nlü	-3476
▁sna	-3477
▁vali	-3478
▁ğınız	-3479
▁200	-3480
▁alya	-3481
▁ırlat	-3482
▁Cem	-3483
▁%	-3484
▁mur	-3485
▁ortad	-3486
▁Pol	-3487
▁ali	-3488
▁nam	-3489
▁amet	-3490
▁asi	-3491
▁ekten	-3492
▁günde	-3493
▁nla	-3494
▁nter	-3495
▁tiri	-3496
▁nerji	-3497
▁Ed	-3498
▁rö	-3499
▁eve	-3500
yi	-3501
▁akin	-3502
▁arab	-3503
▁arla	-3504
▁işti	-3505
▁Tan	-3506
▁abah	-3507
▁inal	-3508
▁lisi	-3509
▁imha	-3510
▁ünden	-3511
▁tırdı	-3512
mo	-3513
▁imler	-3514
DY	-3515
▁ters	-3516
▁larca	-3517
▁ulübü	-3518
oke	-3519
▁ızla	-3520
▁şkil	-3521
▁cak	-3522
▁cev	-3523
▁ahte	-3524
▁irliğ	-3525
▁iza	-3526
▁ğır	-3527
▁irket	-3528
▁lilik	-3529
ari	-3530
▁Tı	-3531
▁dey	-3532
▁ikle	-3533
▁çıkl	-3534
▁ılar	-3535
▁Tak	-3536
▁ace	-3537
▁arz	-3538
▁urd	-3539
▁geçer	-3540
İR	-3541
▁yg	-3542
▁iller	-3543
▁Ol	-3544
▁go	-3545
LI	-3546
▁inen	-3547
▁mekan	-3548
▁mbe	-3549
▁nlu	-3550
▁adli	-3551
▁mıza	-3552
SA	-3553
▁şır	-3554
▁argı	-3555
▁azır	-3556
▁zılı	-3557
▁liyor	-3558
İK	-3559
▁ruk	-3560
▁alga	-3561
▁ihbar	-3562
▁TE	-3563
▁giz	-3564
▁tlı	-3565
▁aske	-3566
▁eşin	-3567
▁eşit	-3568
▁şo	-3569
▁YOR	-3570
▁koş	-3571
▁nne	-3572
▁lamak	-3573
▁urlar	-3574
ele	-3575
▁New	-3576
▁önle	-3577
▁lad	-3578
▁rip	-3579
▁Başb	-3580
▁katı	-3581
▁rp	-3582
▁soka	-3583
▁masın	-3584
▁İyi	-3585
▁akka	-3586
▁rüyor	-3587
▁ry	-3588
▁asit	-3589
▁sya	-3590
▁önde	-3591
▁üçük	-3592
af	-3593
▁PDY	-3594
▁ond	-3595
▁leyen	-3596
▁AY	-3597
▁rtık	-3598
▁iyeti	-3599
▁rtesi	-3600
▁Ci	-3601
▁ızıl	-3602
▁ild	-3603
▁deta	-3604
▁site	-3605
oku	-3606
▁beş	-3607
▁gun	-3608
▁uklu	-3609
▁ens	-3610
▁evde	-3611
▁nitel	-3612
Kİ	-3613
▁rif	-3614
▁arik	-3615
▁kare	-3616
▁ınma	-3617
▁Q	-3618
▁arp	-3619
▁ersin	-3620
▁tarıl	-3621
▁arm	-3622
▁kut	-3623
▁sma	-3624
▁beyaz	-3625
Bİ	-3626
üsü	-3627
▁cüsü	-3628
▁ekil	-3629
▁olda	-3630
▁yici	-3631
▁öprü	-3632
▁fı	-3633
▁orun	-3634
▁tilen	-3635
▁Br	-3636
▁Ok	-3637
▁io	-3638
▁cep	-3639
ME	-3640
▁orsa	-3641
▁niyet	-3642
▁&	-3643
ster	-3644
▁dül	-3645
▁lım	-3646
▁anmış	-3647
▁avaşı	-3648
▁EN	-3649
▁rcu	-3650
▁rgi	-3651
▁saya	-3652
▁bol	-3653
▁fai	-3654
▁rag	-3655
▁irad	-3656
▁kırı	-3657
▁öster	-3658
▁Si	-3659
▁ltu	-3660
▁rar	-3661
▁ista	-3662
▁sebeb	-3663
,5	-3664
▁AN	-3665
▁ano	-3666
▁rup	-3667
▁4.	-3668
▁Ta	-3669
▁aks	-3670
▁ağla	-3671
▁avan	-3672
▁ayda	-3673
▁SI	-3674
▁zalt	-3675
▁netim	-3676
▁abii	-3677
▁lidir	-3678
▁inli	-3679
▁umhu	-3680
▁dahi	-3681
▁icar	-3682
▁300	-3683
▁Tıp	-3684
▁yapar	-3685
Sİ	-3686
tur	-3687
▁ate	-3688
▁dip	-3689
▁lom	-3690
▁ıma	-3691
▁32	-3692
▁ekr	-3693
▁iPh	-3694
▁iği	-3695
▁unc	-3696
▁faz	-3697
▁fır	-3698
▁ayat	-3699
raf	-3700
▁gay	-3701
▁emiyo	-3702
lâ	-3703
▁Eş	-3704
▁Gel	-3705
▁cum	-3706
▁oşa	-3707
▁yara	-3708
▁şeker	-3709
▁katl	-3710
▁msil	-3711
▁Yak	-3712
▁nlara	-3713
▁kab	-3714
▁lent	-3715
▁aylar	-3716
▁sat	-3717
▁atır	-3718
▁aspor	-3719
▁ua	-3720
▁ili	-3721
▁niş	-3722
▁zet	-3723
▁uştur	-3724
▁34	-3725
▁Erd	-3726
▁dav	-3727
▁unlu	-3728
▁sayıl	-3729
▁steri	-3730
▁uh	-3731
▁tren	-3732
▁racın	-3733
▁örevi	-3734
▁36	-3735
▁mat	-3736
▁yas	-3737
▁arih	-3738
▁nama	-3739
▁tmak	-3740
ğün	-3741
▁dönü	-3742
▁rika	-3743
▁doğan	-3744
Tİ	-3745
▁ron	-3746
▁rse	-3747
▁aral	-3748
▁kova	-3749
▁muha	-3750
▁işte	-3751
▁rası	-3752
▁tand	-3753
▁çu	-3754
▁ıb	-3755
▁şv	-3756
▁ağd	-3757
▁mec	-3758
▁sem	-3759
▁Takım	-3760
▁Uy	-3761
▁imam	-3762
▁nına	-3763
▁As	-3764
▁ansı	-3765
▁Ğ	-3766
▁bün	-3767
▁vad	-3768
▁bank	-3769
▁esto	-3770
▁kıya	-3771
▁rduğ	-3772
▁renm	-3773
▁açlar	-3774
▁davra	-3775
▁meyen	-3776
▁rıyor	-3777
▁üstün	-3778
▁ova	-3779
▁urg	-3780
▁enin	-3781
▁ası	-3782
▁ora	-3783
▁adını	-3784
▁nımı	-3785
▁yesi	-3786
▁UR	-3787
▁tad	-3788
▁kırmı	-3789
▁rmesi	-3790
▁î	-3791
▁Üs	-3792
▁ves	-3793
▁Frans	-3794
▁panya	-3795
▁nmiş	-3796
▁meyve	-3797
▁Hem	-3798
▁erse	-3799
▁klam	-3800
▁ırıl	-3801
▁undu	-3802
AH	-3803
▁Sp	-3804
▁aten	-3805
▁X	-3806
▁pe	-3807
▁bebe	-3808
▁tadı	-3809
▁topra	-3810
▁dun	-3811
▁ksa	-3812
▁nüz	-3813
▁aşlı	-3814
▁ddia	-3815
▁jan	-3816
▁rmeye	-3817
▁venli	-3818
▁ck	-3819
▁nluğ	-3820
▁Co	-3821
▁iyo	-3822
▁kalı	-3823
▁nızı	-3824
▁tura	-3825
▁esele	-3826
▁fikir	-3827
▁Diy	-3828
▁irer	-3829
▁tuğu	-3830
▁edefi	-3831
▁racak	-3832
▁KP	-3833
▁oh	-3834
▁dalı	-3835
▁form	-3836
▁rtal	-3837
▁ılın	-3838
▁eleri	-3839
▁inizi	-3840
▁oo	-3841
▁Sağ	-3842
▁ngel	-3843
ON	-3844
▁Tekn	-3845
▁inali	-3846
▁anu	-3847
▁eyi	-3848
▁him	-3849
▁kas	-3850
▁alen	-3851
▁anta	-3852
▁AA	-3853
▁og	-3854
▁bat	-3855
▁izley	-3856
▁Kü	-3857
▁Bah	-3858
▁ank	-3859
▁lac	-3860
▁amam	-3861
▁bar	-3862
▁maka	-3863
▁isy	-3864
▁mde	-3865
▁ılır	-3866
▁mekte	-3867
▁nilen	-3868
▁ulduğ	-3869
▁zu	-3870
▁ori	-3871
▁deme	-3872
▁nv	-3873
▁Bul	-3874
▁heli	-3875
▁gerçe	-3876
▁kenti	-3877
▁NA	-3878
▁araf	-3879
▁nede	-3880
▁aden	-3881
▁arkı	-3882
▁zin	-3883
▁prot	-3884
▁asal	-3885
▁Has	-3886
▁che	-3887
▁oya	-3888
▁büs	-3889
▁ice	-3890
▁dinl	-3891
▁duğum	-3892
▁rj	-3893
▁val	-3894
▁line	-3895
▁rici	-3896
▁uluş	-3897
▁çözü	-3898
▁ıkış	-3899
▁NI	-3900
▁Sen	-3901
▁pol	-3902
▁ekir	-3903
▁mekt	-3904
▁ydın	-3905
▁erlik	-3906
▁afe	-3907
▁rur	-3908
▁ızı	-3909
▁daya	-3910
▁ikli	-3911
▁reği	-3912
▁Konu	-3913
▁enet	-3914
▁uyan	-3915
▁zgür	-3916
▁endis	-3917
▁ence	-3918
▁Sİ	-3919
▁karı	-3920
▁tanım	-3921
▁pa	-3922
▁isa	-3923
iğ	-3924
▁keş	-3925
▁canl	-3926
▁deri	-3927
▁maçın	-3928
▁tılar	-3929
▁At	-3930
▁emb	-3931
▁uro	-3932
▁rıyla	-3933
▁uyum	-3934
▁dığım	-3935
▁erler	-3936
▁ft	-3937
▁Siz	-3938
▁aga	-3939
▁ica	-3940
▁mara	-3941
▁öyley	-3942
▁70	-3943
▁mutan	-3944
▁antr	-3945
▁tbol	-3946
▁andal	-3947
▁elene	-3948
▁lları	-3949
▁TO	-3950
▁pü	-3951
▁ihan	-3952
▁amile	-3953
▁tıldı	-3954
▁sus	-3955
▁ısa	-3956
▁33	-3957
▁90	-3958
▁bis	-3959
▁ilya	-3960
▁tarz	-3961
▁riyle	-3962
▁Aç	-3963
▁ıç	-3964
▁eda	-3965
▁Kurul	-3966
▁rdığı	-3967
▁MHP	-3968
▁rom	-3969
▁urk	-3970
▁ücu	-3971
▁beli	-3972
▁yata	-3973
▁zen	-3974
▁rmay	-3975
SY	-3976
▁LE	-3977
▁mr	-3978
▁vir	-3979
▁siye	-3980
▁apısı	-3981
▁düze	-3982
▁ente	-3983
▁kült	-3984
▁lise	-3985
▁tank	-3986
▁elesi	-3987
▁vo	-3988
▁nci	-3989
▁iri	-3990
▁kçı	-3991
▁rus	-3992
▁çiş	-3993
▁akımı	-3994
▁avran	-3995
▁zleri	-3996
▁ud	-3997
▁ayb	-3998
▁lup	-3999
▁risi	-4000
▁ettik	-4001
▁rtada	-4002
▁rz	-4003
▁misi	-4004
▁stan	-4005
▁tern	-4006
▁ister	-4007
▁liliğ	-4008
▁aza	-4009
▁ill	-4010
▁lme	-4011
▁doku	-4012
▁kimi	-4013
▁ug	-4014
▁sim	-4015
▁ıy	-4016
▁Bin	-4017
▁Ken	-4018
▁uku	-4019
▁akıl	-4020
▁eriş	-4021
▁sani	-4022
▁sizi	-4023
▁urun	-4024
▁ty	-4025
▁erdi	-4026
▁işin	-4027
▁ebebi	-4028
▁AV	-4029
▁nst	-4030
▁maaş	-4031
▁ncel	-4032
▁onum	-4033
▁Pe	-4034
▁NAT	-4035
▁amp	-4036
▁yad	-4037
▁ngı	-4038
▁uğu	-4039
▁aşar	-4040
▁imde	-4041
▁azırl	-4042
▁ahar	-4043
▁amış	-4044
▁ekin	-4045
▁mini	-4046
▁elli	-4047
▁rand	-4048
▁Yu	-4049
▁avi	-4050
▁çin	-4051
▁ales	-4052
▁etiş	-4053
▁anç	-4054
▁hir	-4055
▁vize	-4056
▁ören	-4057
▁dırma	-4058
▁80	-4059
▁ink	-4060
▁lum	-4061
▁mse	-4062
▁ıza	-4063
▁NATO	-4064
▁ahve	-4065
▁arsa	-4066
▁Kom	-4067
▁ett	-4068
▁şun	-4069
▁benz	-4070
▁çalı	-4071
▁HP	-4072
▁anca	-4073
▁üzel	-4074
▁ilmiş	-4075
▁rmaya	-4076
▁lc	-4077
▁hisse	-4078
▁ME	-4079
▁tuz	-4080
▁uşa	-4081
▁Şim	-4082
▁tılı	-4083
▁ou	-4084
▁tme	-4085
▁etmey	-4086
▁sub	-4087
▁allar	-4088
İH	-4089
▁bur	-4090
▁ikaye	-4091
▁Fi	-4092
▁aşk	-4093
▁ene	-4094
▁ima	-4095
▁âlâ	-4096
▁üny	-4097
▁ğla	-4098
▁laka	-4099
▁arttı	-4100
▁oynay	-4101
▁izde	-4102
▁mezun	-4103
▁SK	-4104
▁mb	-4105
▁liz	-4106
▁erat	-4107
▁uçlar	-4108
▁üsü	-4109
▁elam	-4110
▁nder	-4111
ciz	-4112
▁oma	-4113
▁ukuk	-4114
▁şkan	-4115
▁idare	-4116
▁kme	-4117
▁tez	-4118
▁alat	-4119
UR	-4120
▁75	-4121
▁utu	-4122
▁alır	-4123
▁utlu	-4124
det	-4125
▁ea	-4126
▁İç	-4127
▁nluk	-4128
▁üphe	-4129
▁uncu	-4130
▁oğraf	-4131
▁TH	-4132
▁anıt	-4133
▁ağış	-4134
▁rama	-4135
▁yoğu	-4136
▁arıda	-4137
▁lekt	-4138
▁seyi	-4139
▁çeki	-4140
▁kel	-4141
▁rib	-4142
▁kork	-4143
▁rmen	-4144
▁varl	-4145
▁oyunu	-4146
▁Pa	-4147
▁ved	-4148
▁iyan	-4149
▁rada	-4150
▁ift	-4151
▁kası	-4152
▁def	-4153
▁ero	-4154
▁ehir	-4155
▁ürek	-4156
▁ştır	-4157
▁gor	-4158
▁müh	-4159
▁Kadı	-4160
▁klık	-4161
▁rlar	-4162
▁zih	-4163
▁apta	-4164
▁rolü	-4165
▁lınan	-4166
▁LI	-4167
▁üf	-4168
▁diz	-4169
▁manda	-4170
▁urucu	-4171
▁Lu	-4172
▁phe	-4173
▁ırk	-4174
▁rülme	-4175
RA	-4176
qu	-4177
▁Tur	-4178
▁ilin	-4179
▁meni	-4180
▁bb	-4181
▁CEO	-4182
▁duyu	-4183
şi	-4184
▁öv	-4185
▁epe	-4186
▁lga	-4187
▁ayar	-4188
▁ördü	-4189
Gİ	-4190
▁kçe	-4191
▁yip	-4192
▁neli	-4193
▁65	-4194
▁kun	-4195
▁Qu	-4196
▁hn	-4197
▁je	-4198
▁afta	-4199
▁Be	-4200
▁IR	-4201
▁ino	-4202
▁ydu	-4203
▁imin	-4204
▁ızlar	-4205
▁lus	-4206
▁nus	-4207
▁rel	-4208
▁rız	-4209
▁eşme	-4210
▁urta	-4211
▁Cam	-4212
▁çın	-4213
▁emek	-4214
▁üldü	-4215
▁ynadı	-4216
▁Dil	-4217
▁ışla	-4218
go	-4219
▁uf	-4220
▁iko	-4221
▁kemi	-4222
▁ırsa	-4223
TE	-4224
▁ai	-4225
▁all	-4226
▁ipl	-4227
▁tün	-4228
▁grubu	-4229
DK	-4230
hi	-4231
ina	-4232
▁kont	-4233
▁rafı	-4234
▁netic	-4235
▁irişi	-4236
▁çiler	-4237
▁5.	-4238
▁KO	-4239
▁Me	-4240
▁THY	-4241
▁şof	-4242
▁aydı	-4243
▁netl	-4244
▁çatı	-4245
▁imkan	-4246
▁akim	-4247
▁rf	-4248
▁aru	-4249
▁eçme	-4250
▁olar	-4251
▁evlen	-4252
▁sergi	-4253
▁rc	-4254
▁Tem	-4255
▁aman	-4256
▁esir	-4257
▁inir	-4258
▁müzi	-4259
▁usta	-4260
▁maruz	-4261
▁ırlar	-4262
▁luş	-4263
▁götür	-4264
▁izden	-4265
oz	-4266
▁nis	-4267
▁nso	-4268
▁rosu	-4269
▁tlama	-4270
▁th	-4271
▁Ant	-4272
▁evl	-4273
▁lgi	-4274
▁çıl	-4275
▁atlar	-4276
▁The	-4277
▁sed	-4278
▁ket	-4279
▁Ge	-4280
▁ancı	-4281
▁devr	-4282
▁izyon	-4283
▁turdu	-4284
▁ilg	-4285
▁latan	-4286
▁yecek	-4287
▁+	-4288
▁ON	-4289
▁rg	-4290
▁Dir	-4291
▁akta	-4292
▁beya	-4293
▁Dİ	-4294
▁KA	-4295
▁edek	-4296
▁lok	-4297
▁arıl	-4298
▁neme	-4299
YA	-4300
▁gec	-4301
▁uma	-4302
▁veda	-4303
▁sc	-4304
▁emiş	-4305
▁itle	-4306
▁Bahçe	-4307
▁erisi	-4308
▁Ker	-4309
▁ilt	-4310
▁oks	-4311
▁taba	-4312
▁emeye	-4313
▁lerdi	-4314
GK	-4315
▁örü	-4316
▁tına	-4317
▁adamı	-4318
▁laştı	-4319
▁yoktu	-4320
▁Art	-4321
▁utl	-4322
▁Açık	-4323
▁Real	-4324
▁ikas	-4325
▁nmak	-4326
▁sıkı	-4327
▁ulmuş	-4328
▁ahv	-4329
▁raz	-4330
▁Beni	-4331
▁dini	-4332
▁luşu	-4333
▁ındı	-4334
▁nşaat	-4335
kin	-4336
▁amle	-4337
▁anış	-4338
▁ilke	-4339
▁zden	-4340
▁yn	-4341
▁rıs	-4342
▁ski	-4343
▁vcı	-4344
▁ığa	-4345
▁akem	-4346
▁ural	-4347
▁hü	-4348
▁lh	-4349
▁anıl	-4350
▁layla	-4351
▁*	-4352
▁au	-4353
▁lur	-4354
▁vas	-4355
▁ygı	-4356
▁azar	-4357
▁irim	-4358
▁arayı	-4359
▁eklen	-4360
▁400	-4361
▁cer	-4362
▁dli	-4363
▁resi	-4364
▁aldık	-4365
▁cek	-4366
▁rba	-4367
▁abu	-4368
▁eza	-4369
▁orgu	-4370
▁des	-4371
▁nım	-4372
▁ğun	-4373
▁adem	-4374
▁apor	-4375
▁sanı	-4376
▁tiya	-4377
▁6.	-4378
▁nb	-4379
▁Bab	-4380
▁ava	-4381
▁tema	-4382
▁üler	-4383
▁ruyor	-4384
▁rının	-4385
▁BA	-4386
▁şer	-4387
▁eçim	-4388
▁kapı	-4389
▁MA	-4390
▁aplar	-4391
▁LA	-4392
▁ÖZ	-4393
▁rük	-4394
▁akam	-4395
▁emin	-4396
▁urgu	-4397
▁yeri	-4398
▁rafik	-4399
mu	-4400
▁150	-4401
▁kov	-4402
▁str	-4403
▁özü	-4404
▁eyim	-4405
▁üküm	-4406
▁ümle	-4407
▁düğün	-4408
SO	-4409
▁ksi	-4410
▁nir	-4411
▁urs	-4412
▁şıl	-4413
▁arlı	-4414
▁icra	-4415
▁niye	-4416
▁ıdan	-4417
▁karak	-4418
▁ğının	-4419
LU	-4420
▁Ara	-4421
▁ion	-4422
▁akal	-4423
▁port	-4424
▁rakt	-4425
▁stik	-4426
▁idari	-4427
▁Ala	-4428
▁arıs	-4429
▁ilit	-4430
▁kons	-4431
▁tler	-4432
▁laf	-4433
▁Bank	-4434
▁tres	-4435
▁yebil	-4436
▁arf	-4437
▁miye	-4438
▁rahi	-4439
▁gan	-4440
▁mon	-4441
▁osu	-4442
▁ütü	-4443
▁ğıt	-4444
▁misa	-4445
▁mpiy	-4446
▁zafer	-4447
▁öylem	-4448
▁Ra	-4449
▁Za	-4450
▁üb	-4451
▁Med	-4452
▁ndu	-4453
▁ayım	-4454
▁esin	-4455
▁ırdı	-4456
lum	-4457
▁38	-4458
▁adır	-4459
▁irve	-4460
▁llar	-4461
▁üzen	-4462
▁itika	-4463
▁37	-4464
▁TA	-4465
▁era	-4466
▁rtı	-4467
▁sakla	-4468
▁ergi	-4469
▁tein	-4470
▁lamış	-4471
rik	-4472
▁AT	-4473
▁Ege	-4474
▁ian	-4475
▁tun	-4476
▁bine	-4477
▁ınan	-4478
▁çılar	-4479
▁600	-4480
▁fat	-4481
▁fre	-4482
▁mac	-4483
▁seb	-4484
▁kanlı	-4485
▁lemek	-4486
▁add	-4487
▁ber	-4488
▁iade	-4489
▁ğret	-4490
▁Kurum	-4491
▁lim	-4492
▁bett	-4493
▁tiler	-4494
▁Pi	-4495
▁erab	-4496
▁kaçı	-4497
▁roke	-4498
▁arika	-4499
▁ağlam	-4500
▁orman	-4501
BA	-4502
EN	-4503
▁kuy	-4504
▁aliye	-4505
▁ilesi	-4506
▁liman	-4507
▁luyor	-4508
ARA	-4509
▁api	-4510
▁aye	-4511
▁yma	-4512
▁alil	-4513
▁asın	-4514
▁nadı	-4515
▁nakl	-4516
▁yönel	-4517
▁Tİ	-4518
▁suçl	-4519
▁mekli	-4520
pe	-4521
▁42	-4522
▁Ağ	-4523
▁Lİ	-4524
▁TÜR	-4525
▁dis	-4526
▁alla	-4527
▁neği	-4528
▁stih	-4529
▁tiyor	-4530
DU	-4531
FF	-4532
▁hâ	-4533
▁ave	-4534
▁med	-4535
▁sam	-4536
▁spo	-4537
▁emle	-4538
▁kley	-4539
MS	-4540
▁zg	-4541
▁tuk	-4542
▁imse	-4543
▁kend	-4544
▁boyun	-4545
▁eğil	-4546
▁tama	-4547
▁ekled	-4548
▁irini	-4549
▁hi	-4550
▁ato	-4551
▁tül	-4552
▁arac	-4553
▁hala	-4554
▁Rİ	-4555
▁apl	-4556
▁ida	-4557
▁zel	-4558
▁zgü	-4559
▁zli	-4560
▁kele	-4561
▁orum	-4562
▁otom	-4563
▁tıyor	-4564
ÜK	-4565
▁Kana	-4566
▁emih	-4567
▁nucu	-4568
▁rarak	-4569
▁şları	-4570
▁55	-4571
▁sp	-4572
▁rdo	-4573
▁rla	-4574
▁Yapı	-4575
▁dalar	-4576
▁isler	-4577
▁emem	-4578
▁rkad	-4579
▁şleri	-4580
▁41	-4581
▁üd	-4582
▁Sne	-4583
▁kom	-4584
▁mim	-4585
▁rtış	-4586
od	-4587
rul	-4588
▁yıcı	-4589
▁nüyor	-4590
▁AKP	-4591
▁TFF	-4592
▁hızl	-4593
▁rkek	-4594
▁Kİ	-4595
▁Le	-4596
▁NE	-4597
▁Üç	-4598
▁anki	-4599
▁ekçe	-4600
▁lüks	-4601
▁tabi	-4602
▁ıfır	-4603
▁inler	-4604
rem	-4605
▁44	-4606
▁km	-4607
▁eni	-4608
▁lla	-4609
▁rey	-4610
▁şef	-4611
▁ürme	-4612
ST	-4613
▁"1	-4614
▁öb	-4615
▁arc	-4616
▁akım	-4617
▁idir	-4618
▁ilik	-4619
▁48	-4620
▁Lo	-4621
▁cağı	-4622
▁doğa	-4623
▁ilde	-4624
▁irdi	-4625
▁tazi	-4626
▁turu	-4627
▁zesi	-4628
▁rabil	-4629
▁Yol	-4630
▁ikra	-4631
▁mand	-4632
▁temin	-4633
▁AL	-4634
▁250	-4635
▁ost	-4636
▁akkı	-4637
▁onla	-4638
▁ulma	-4639
▁Kenan	-4640
▁zm	-4641
▁nfe	-4642
▁rlü	-4643
▁atçı	-4644
▁ermi	-4645
▁sker	-4646
▁39	-4647
▁TR	-4648
▁bı	-4649
▁dy	-4650
▁mm	-4651
▁uva	-4652
▁eliş	-4653
▁olduk	-4654
▁Tam	-4655
▁arl	-4656
▁enf	-4657
▁onuç	-4658
▁slar	-4659
▁arita	-4660
▁46	-4661
▁tw	-4662
▁İT	-4663
▁nar	-4664
▁yın	-4665
▁şen	-4666
▁ağın	-4667
▁izni	-4668
▁47	-4669
▁YI	-4670
▁ded	-4671
▁slı	-4672
▁und	-4673
▁uri	-4674
▁ağız	-4675
▁erde	-4676
▁kula	-4677
▁rist	-4678
▁utan	-4679
▁şiir	-4680
▁Yapıl	-4681
▁girme	-4682
HK	-4683
▁İN	-4684
▁DHA	-4685
▁vat	-4686
▁ştı	-4687
▁irti	-4688
▁rafi	-4689
▁eriyo	-4690
▁yları	-4691
▁lb	-4692
▁oğal	-4693
▁rülü	-4694
▁taciz	-4695
▁Kı	-4696
▁çü	-4697
▁lez	-4698
▁eksi	-4699
▁iber	-4700
▁uydu	-4701
▁meşin	-4702
▁çakla	-4703
▁4-	-4704
▁Ke	-4705
▁Vi	-4706
▁qu	-4707
▁112	-4708
▁Kız	-4709
▁erm	-4710
▁ned	-4711
▁gesi	-4712
▁skeri	-4713
▁RA	-4714
▁eke	-4715
▁leti	-4716
▁erine	-4717
▁gelme	-4718
▁oplum	-4719
▁yaşan	-4720
▁53	-4721
▁Yaş	-4722
▁hav	-4723
▁kuv	-4724
▁şiş	-4725
▁saba	-4726
▁ıklı	-4727
▁ımda	-4728
▁arısı	-4729
▁asta	-4730
▁ikna	-4731
▁reti	-4732
▁yalı	-4733
▁ğrul	-4734
▁asına	-4735
GE	-4736
▁43	-4737
▁Ru	-4738
▁Onu	-4739
▁neri	-4740
▁rduğu	-4741
▁TC	-4742
▁ht	-4743
▁ÖN	-4744
▁lit	-4745
▁ntü	-4746
▁teh	-4747
▁vri	-4748
▁esmi	-4749
RE	-4750
▁jd	-4751
▁1.5	-4752
▁amsu	-4753
▁elem	-4754
SS	-4755
▁afi	-4756
▁şkı	-4757
▁şok	-4758
▁nize	-4759
▁Dev	-4760
▁hey	-4761
▁tap	-4762
▁vin	-4763
▁zak	-4764
▁önü	-4765
▁akma	-4766
▁akti	-4767
▁nlaş	-4768
▁aları	-4769
▁aşlay	-4770
▁timiz	-4771
▁yh	-4772
▁iman	-4773
▁omut	-4774
▁kleme	-4775
▁lişki	-4776
ep	-4777
tir	-4778
▁AZ	-4779
▁cen	-4780
▁tle	-4781
▁tıp	-4782
▁abit	-4783
▁dri	-4784
▁lah	-4785
▁amim	-4786
▁sana	-4787
las	-4788
▁AD	-4789
▁Du	-4790
▁	-4791
a	-4792
e	-4793
i	-4794
n	-4795
r	-4796
l	-4797
ı	-4798
d	-4799
k	-4800
t	-4801
m	-4802
y	-4803
u	-4804
s	-4805
o	-4806
b	-4807
ü	-4808
ş	-4809
z	-4810
.	-4811
g	-4812
ğ	-4813
v	-4814
ç	-4815
h	-4816
c	-4817
,	-4818
p	-4819
ö	-4820
'	-4821
f	-4822
A	-4823
B	-4824
T	-4825
K	-4826
"	-4827
S	-4828
1	-4829
M	-4830
0	-4831
D	-4832
E	-4833
İ	-4834
2	-4835
H	-4836
G	-4837
Y	-4838
P	-4839
-	-4840
O	-4841
C	-4842
5	-4843
F	-4844
R	-4845
3	-4846
L	-4847
N	-4848
4	-4849
6	-4850
Ş	-4851
Ö	-4852
j	-4853
:	-4854
9	-4855
Ç	-4856
7	-4857
8	-4858
)	-4859
U	-4860
I	-4861
(	-4862
V	-4863
Ü	-4864
Z	-4865
?	-4866
!	-4867
;	-4868
J	-4869
â	-4870
w	-4871
x	-4872
­	-4873
W	-4874
/	-4875
`	-4876
Ğ	-4877
î	-4878
X	-4879
%	-4880
Q	-4881
&	-4882
q	-4883
+	-4884
*	-4885
û	-4886
◊	-4887
#	-4888
′	-4889
·	-4890
̈	-4891
@	-4892
̧	-4893
•	-4894
$	-4895
Â	-4896
̇	-4897
=	-4898
_	-4899
é	-4900
[	-4901
]	-4902
>	-4903
°	-4904
а	-4905
ˆ	-4906
ə	-4907
á	-4908
е	-4909
¦	-4910
ä	-4911
̆	-4912
¥	-4913
ó	-4914
ñ	-4915
€	-4916
í	-4917
\	-4918
	-4919
¬	-4920
å	-4921
è	-4922
⁄	-4923
ê	-4924
■	-4925
×	-4926
¡	-4927
®	-4928
ï	-4929
ø	-4930
ú	-4931
ć	-4932
⭐	-4933
️	-4934
^	-4935
£	-4936
Ä	-4937
à	-4938
æ	-4939
о	-4940
●	-4941
🇷	-4942
🇹	-4943
	-4944
É	-4945
Î	-4946
ß	-4947
ã	-4948
ƒ	-4949
α	-4950
і	-4951
ا	-4952
د	-4953
س	-4954
ل	-4955
و	-4956
ي	-4957
‬	-4958
∂	-4959
☮	-4960
👍	-4961
~	-4962
	-4963
Å	-4964
Ñ	-4965
Ø	-4966
Û	-4967
ë	-4968
ù	-4969
ē	-4970
ł	-4971
μ	-4972
Л	-4973
к	-4974
н	-4975
п	-4976
с	-4977
т	-4978
у	-4979
ة	-4980
ح	-4981
ر	-4982
غ	-4983
ق	-4984
م	-4985
ن	-4986
‫	-4987
›	-4988
🏆	-4989
🏻	-4990
👑	-4991
💋	-4992
💧	-4993
💰	-4994
😁	-4995
😊	-4996
