<unk>	0
<s>	0
</s>	0
▁a	-0
▁i	-1
▁l	-2
▁d	-3
▁e	-4
▁n	-5
▁s	-6
▁y	-7
ar	-8
▁k	-9
er	-10
▁b	-11
▁t	-12
▁m	-13
▁.	-14
an	-15
▁o	-16
▁ı	-17
▁,	-18
▁g	-19
en	-20
▁r	-21
▁u	-22
▁'	-23
in	-24
ir	-25
▁v	-26
ak	-27
il	-28
▁lar	-29
le	-30
▁ler	-31
ın	-32
▁h	-33
▁ü	-34
▁de	-35
▁an	-36
▁in	-37
▁B	-38
▁nd	-39
la	-40
ek	-41
▁A	-42
▁ya	-43
or	-44
al	-45
▁ç	-46
▁ve	-47
▁ar	-48
▁da	-49
el	-50
ma	-51
▁ol	-52
▁"	-53
et	-54
▁T	-55
▁ma	-56
di	-57
un	-58
▁ın	-59
▁bir	-60
▁S	-61
▁K	-62
▁ö	-63
ık	-64
▁p	-65
de	-66
da	-67
aş	-68
▁li	-69
ıl	-70
▁al	-71
▁en	-72
ğı	-73
▁ka	-74
▁ş	-75
ya	-76
dı	-77
st	-78
▁1	-79
▁M	-80
ği	-81
yor	-82
▁f	-83
iz	-84
▁il	-85
on	-86
ur	-87
▁et	-88
▁z	-89
▁c	-90
▁bu	-91
ki	-92
▁er	-93
ür	-94
es	-95
▁di	-96
ır	-97
▁D	-98
ün	-99
sı	-100
▁ne	-101
at	-102
ış	-103
▁gö	-104
▁2	-105
me	-106
▁E	-107
▁G	-108
li	-109
▁H	-110
▁nı	-111
▁si	-112
▁un	-113
▁İ	-114
ti	-115
▁0	-116
▁ye	-117
▁ay	-118
▁iç	-119
▁yap	-120
iş	-121
▁ed	-122
▁te	-123
▁leri	-124
am	-125
▁on	-126
▁nin	-127
lar	-128
▁Y	-129
▁na	-130
▁nda	-131
ığı	-132
▁sı	-133
▁ni	-134
ta	-135
▁ir	-136
▁sa	-137
du	-138
▁nın	-139
im	-140
ka	-141
▁-	-142
▁ac	-143
ra	-144
▁la	-145
ce	-146
▁ta	-147
▁at	-148
▁için	-149
▁P	-150
▁im	-151
▁ha	-152
▁C	-153
em	-154
eri	-155
ok	-156
▁nde	-157
▁F	-158
re	-159
ul	-160
▁O	-161
▁ğ	-162
▁ları	-163
um	-164
▁ab	-165
▁ile	-166
tı	-167
▁kar	-168
ye	-169
▁me	-170
▁ist	-171
▁baş	-172
▁lik	-173
▁or	-174
esi	-175
▁ama	-176
▁le	-177
ol	-178
yle	-179
▁ak	-180
ara	-181
▁ra	-182
üz	-183
ke	-184
▁oldu	-185
▁Tür	-186
▁gel	-187
uş	-188
▁3	-189
it	-190
▁ün	-191
▁ver	-192
ız	-193
ım	-194
▁ul	-195
▁is	-196
▁ara	-197
▁ek	-198
▁ur	-199
ük	-200
▁aç	-201
▁den	-202
ik	-203
▁dı	-204
▁du	-205
▁5	-206
▁iyor	-207
▁sin	-208
▁ev	-209
▁iş	-210
ön	-211
sa	-212
ha	-213
▁lı	-214
▁ıl	-215
▁R	-216
şı	-217
▁çık	-218
az	-219
ut	-220
▁ması	-221
▁iz	-222
▁:	-223
▁bul	-224
üş	-225
uk	-226
▁az	-227
▁ti	-228
▁dan	-229
▁N	-230
▁4	-231
▁6	-232
▁se	-233
▁sın	-234
▁ec	-235
▁Türki	-236
oğ	-237
▁Bu	-238
ör	-239
lu	-240
te	-241
▁ge	-242
▁ndan	-243
▁Ş	-244
▁el	-245
▁lan	-246
lı	-247
▁es	-248
▁ki	-249
▁Ç	-250
▁uz	-251
endi	-252
▁L	-253
ah	-254
▁lık	-255
▁iy	-256
▁üz	-257
▁Ö	-258
▁olduğ	-259
▁acak	-260
ler	-261
cı	-262
▁bil	-263
dan	-264
üm	-265
▁aş	-266
▁ko	-267
▁kal	-268
▁tı	-269
▁ön	-270
▁yer	-271
aki	-272
▁sö	-273
▁ger	-274
▁ik	-275
▁as	-276
iy	-277
bi	-278
▁yıl	-279
▁to	-280
▁gi	-281
▁bel	-282
▁etti	-283
▁larak	-284
▁(	-285
ca	-286
▁ter	-287
is	-288
onu	-289
▁re	-290
▁kad	-291
▁edil	-292
▁su	-293
ül	-294
▁um	-295
▁yan	-296
den	-297
▁9	-298
▁ecek	-299
gi	-300
ey	-301
▁)	-302
▁çok	-303
▁bulun	-304
▁ği	-305
ro	-306
▁olan	-307
▁çal	-308
▁ül	-309
▁em	-310
cu	-311
▁ıyor	-312
▁ele	-313
▁onra	-314
eni	-315
▁geç	-316
▁ır	-317
▁mak	-318
▁7	-319
▁mil	-320
▁var	-321
lan	-322
▁dığı	-323
▁diği	-324
▁bü	-325
▁tan	-326
▁mü	-327
▁ise	-328
▁dur	-329
▁karşı	-330
▁çalış	-331
dü	-332
▁gün	-333
▁gör	-334
▁am	-335
▁değ	-336
▁ey	-337
▁kur	-338
▁tır	-339
▁unu	-340
cak	-341
▁ine	-342
▁daha	-343
▁Baş	-344
▁av	-345
ci	-346
▁uy	-347
ağı	-348
▁V	-349
por	-350
▁ım	-351
ay	-352
ları	-353
▁bin	-354
▁8	-355
▁yapıl	-356
▁göre	-357
ru	-358
▁kay	-359
bil	-360
▁U	-361
▁top	-362
▁belir	-363
▁bö	-364
▁yar	-365
be	-366
▁laş	-367
ge	-368
▁yüz	-369
▁yaş	-370
işi	-371
▁liği	-372
▁nden	-373
▁mesi	-374
▁ağ	-375
▁açık	-376
çe	-377
▁yla	-378
yon	-379
kı	-380
▁inin	-381
▁tir	-382
▁ür	-383
▁ah	-384
▁kişi	-385
▁yi	-386
▁acağı	-387
uz	-388
▁ece	-389
ken	-390
▁mış	-391
us	-392
▁yak	-393
ste	-394
▁yle	-395
va	-396
aman	-397
▁yön	-398
yük	-399
▁ğı	-400
▁if	-401
▁oy	-402
lay	-403
▁ba	-404
▁tara	-405
man	-406
▁tar	-407
▁düş	-408
▁taraf	-409
▁oğ	-410
za	-411
▁abil	-412
▁do	-413
▁po	-414
▁mek	-415
let	-416
si	-417
▁bo	-418
▁dır	-419
▁kadar	-420
yo	-421
▁başla	-422
▁gibi	-423
na	-424
se	-425
▁sun	-426
▁lu	-427
▁konu	-428
▁mal	-429
▁üzeri	-430
era	-431
▁ör	-432
▁sor	-433
▁dön	-434
▁arası	-435
üt	-436
sta	-437
▁dev	-438
▁yı	-439
▁lığı	-440
▁ce	-441
▁dedi	-442
▁öz	-443
▁miş	-444
ba	-445
▁söyle	-446
▁yeni	-447
▁ad	-448
▁Z	-449
▁gü	-450
▁kendi	-451
yat	-452
▁mi	-453
▁ında	-454
eş	-455
▁anla	-456
▁Ü	-457
bul	-458
▁şe	-459
▁arak	-460
▁eceği	-461
▁son	-462
▁ülke	-463
▁terör	-464
▁bak	-465
gil	-466
▁ından	-467
▁böl	-468
▁sür	-469
▁açıkl	-470
▁tığı	-471
▁art	-472
▁miz	-473
▁it	-474
▁gerek	-475
▁yol	-476
▁ardı	-477
▁erek	-478
▁alın	-479
pa	-480
▁fa	-481
▁onuş	-482
▁taş	-483
ih	-484
▁?	-485
ünya	-486
▁her	-487
▁dir	-488
lis	-489
▁ının	-490
▁inde	-491
ade	-492
▁larda	-493
▁nun	-494
▁düz	-495
▁pro	-496
▁büyük	-497
▁alan	-498
eki	-499
▁doğ	-500
lık	-501
san	-502
▁ot	-503
▁ih	-504
▁AB	-505
▁hak	-506
▁ük	-507
▁sal	-508
▁eş	-509
▁karar	-510
hu	-511
▁ri	-512
▁sağ	-513
▁get	-514
▁kları	-515
ekil	-516
▁getir	-517
▁ilk	-518
▁zaman	-519
▁ifade	-520
▁yor	-521
▁eme	-522
▁ların	-523
▁syon	-524
▁mu	-525
▁ok	-526
▁tur	-527
▁neden	-528
▁ını	-529
▁eki	-530
▁ini	-531
▁ğın	-532
▁mız	-533
▁uyor	-534
met	-535
ali	-536
▁aber	-537
leş	-538
▁dar	-539
▁lendi	-540
▁id	-541
▁lü	-542
▁man	-543
▁ap	-544
▁yüzde	-545
▁ril	-546
▁ayr	-547
▁tut	-548
▁Türk	-549
▁değil	-550
▁maç	-551
▁kat	-552
▁Ka	-553
▁tak	-554
▁Cum	-555
▁I	-556
▁Cumhu	-557
mak	-558
▁İst	-559
▁may	-560
▁eç	-561
güt	-562
▁iki	-563
▁iste	-564
▁şeh	-565
▁ten	-566
ven	-567
▁diye	-568
▁tu	-569
▁devam	-570
ere	-571
▁öl	-572
▁ağı	-573
▁Başka	-574
▁Bak	-575
▁ndaki	-576
ren	-577
▁nt	-578
▁len	-579
▁kt	-580
▁kap	-581
ne	-582
▁eden	-583
▁deki	-584
ile	-585
▁anbul	-586
ğü	-587
cü	-588
▁oğlu	-589
▁ci	-590
▁gen	-591
leri	-592
▁ebil	-593
▁şu	-594
▁ada	-595
▁ren	-596
▁mo	-597
▁durum	-598
▁önce	-599
iler	-600
▁kö	-601
▁olay	-602
tü	-603
▁bek	-604
▁Ko	-605
laş	-606
▁ilgil	-607
▁men	-608
iye	-609
▁imi	-610
▁!	-611
▁düzen	-612
ğer	-613
▁yaşa	-614
▁altı	-615
▁siz	-616
▁sev	-617
▁ulla	-618
mek	-619
▁kı	-620
▁yun	-621
▁üre	-622
▁nl	-623
▁ken	-624
▁Mü	-625
▁milyo	-626
▁rı	-627
▁imiz	-628
▁ullan	-629
▁saat	-630
▁insan	-631
▁nem	-632
▁op	-633
bir	-634
▁lara	-635
▁;	-636
▁ip	-637
▁biz	-638
▁iyi	-639
▁ço	-640
▁duğ	-641
▁kr	-642
▁örgüt	-643
▁lerde	-644
▁vur	-645
▁etme	-646
▁söz	-647
▁adı	-648
▁Öz	-649
▁iyet	-650
▁ayı	-651
▁evlet	-652
▁yaz	-653
▁nemli	-654
▁gir	-655
▁iya	-656
▁Bir	-657
▁ban	-658
▁bölge	-659
▁Al	-660
▁olma	-661
▁sında	-662
▁par	-663
▁dış	-664
▁maya	-665
▁özel	-666
▁mey	-667
▁göste	-668
▁spor	-669
▁saldı	-670
▁os	-671
▁yok	-672
kan	-673
▁üç	-674
▁bilgi	-675
▁daki	-676
▁anı	-677
▁aldı	-678
▁unda	-679
▁Gaz	-680
ran	-681
▁st	-682
tu	-683
▁J	-684
▁yönet	-685
ip	-686
▁lerin	-687
▁hem	-688
ini	-689
▁Gen	-690
▁dünya	-691
▁değer	-692
▁uriye	-693
▁eli	-694
ira	-695
▁gerç	-696
gu	-697
▁rd	-698
öz	-699
▁haf	-700
▁yet	-701
▁gid	-702
▁ABD	-703
lü	-704
▁rdi	-705
▁kleri	-706
cuk	-707
▁güven	-708
▁ğını	-709
ılar	-710
▁içind	-711
▁10	-712
▁sine	-713
▁polis	-714
▁öğ	-715
▁duy	-716
ber	-717
▁edi	-718
ve	-719
▁şey	-720
▁ala	-721
▁ke	-722
▁ımız	-723
▁Ha	-724
▁ut	-725
▁çıkar	-726
▁nlığı	-727
▁iyle	-728
ji	-729
▁gelen	-730
▁met	-731
▁üst	-732
▁tarih	-733
▁tem	-734
▁kim	-735
▁ran	-736
▁ekleş	-737
▁mı	-738
▁tür	-739
▁sır	-740
▁tek	-741
ad	-742
▁han	-743
▁cı	-744
▁kes	-745
yla	-746
▁landı	-747
▁takım	-748
gı	-749
▁iliş	-750
▁dönem	-751
▁rb	-752
▁başka	-753
nı	-754
dir	-755
▁bun	-756
▁sinde	-757
▁İs	-758
mi	-759
▁ız	-760
▁sah	-761
▁üks	-762
▁ale	-763
▁ort	-764
miş	-765
▁ıp	-766
▁luk	-767
ılı	-768
▁hasta	-769
▁vru	-770
▁Baka	-771
▁rbaş	-772
▁ede	-773
cad	-774
▁Mu	-775
▁haber	-776
▁ilişk	-777
▁una	-778
▁rdoğ	-779
▁Rus	-780
lem	-781
ET	-782
▁ına	-783
▁sonu	-784
▁zor	-785
▁opera	-786
▁şekil	-787
▁rbaşk	-788
▁lüğü	-789
ine	-790
▁İl	-791
▁ade	-792
atan	-793
▁ıldı	-794
▁rül	-795
▁uş	-796
▁can	-797
▁kaz	-798
▁rme	-799
▁uyg	-800
▁Mah	-801
▁likte	-802
▁sil	-803
▁ro	-804
▁res	-805
▁leş	-806
▁istem	-807
▁nün	-808
▁kayb	-809
▁FET	-810
arı	-811
▁sini	-812
▁vrupa	-813
▁ral	-814
▁FETÖ	-815
hmet	-816
▁hayat	-817
he	-818
▁üyor	-819
▁sağla	-820
gün	-821
▁ça	-822
▁bağ	-823
▁lo	-824
▁uç	-825
▁hafta	-826
▁tüm	-827
▁nız	-828
▁net	-829
▁lere	-830
▁ici	-831
dür	-832
▁azla	-833
▁esi	-834
ri	-835
▁ru	-836
▁çocuk	-837
▁isti	-838
▁lira	-839
▁15	-840
▁malar	-841
▁ünde	-842
▁kazan	-843
▁soru	-844
▁har	-845
▁yanı	-846
▁biri	-847
je	-848
▁vatan	-849
▁tü	-850
▁san	-851
dia	-852
▁ceza	-853
▁hakkı	-854
▁yuncu	-855
▁dü	-856
▁kam	-857
▁Da	-858
▁arı	-859
▁niz	-860
ker	-861
▁görev	-862
▁ndeki	-863
▁lama	-864
if	-865
ğiş	-866
▁sav	-867
▁iriş	-868
öyle	-869
▁geldi	-870
cel	-871
▁yakın	-872
▁git	-873
▁daş	-874
▁Li	-875
▁topla	-876
▁geliş	-877
▁dolar	-878
ono	-879
▁katıl	-880
▁likle	-881
▁kan	-882
▁Genel	-883
▁us	-884
▁mes	-885
▁fi	-886
▁rah	-887
▁Müdür	-888
▁Ak	-889
▁doğru	-890
▁kadın	-891
▁ulaş	-892
erke	-893
▁rta	-894
▁değiş	-895
▁bas	-896
ret	-897
çi	-898
▁verdi	-899
▁mücad	-900
▁madı	-901
▁oto	-902
▁süre	-903
rı	-904
▁bah	-905
▁aynı	-906
▁ark	-907
▁yaşı	-908
iyet	-909
▁ben	-910
▁nk	-911
▁sinin	-912
▁zal	-913
▁haz	-914
▁kor	-915
▁Gazet	-916
ına	-917
▁adece	-918
▁bakan	-919
▁ekip	-920
▁olmak	-921
▁erk	-922
▁hazır	-923
▁An	-924
aray	-925
▁anlat	-926
rol	-927
kü	-928
▁zi	-929
▁til	-930
▁­	-931
▁asker	-932
▁kü	-933
rada	-934
▁etk	-935
▁anan	-936
▁iler	-937
▁lay	-938
▁Şu	-939
▁darbe	-940
▁af	-941
▁mut	-942
▁iddia	-943
▁nü	-944
▁say	-945
▁sahip	-946
▁ku	-947
▁Bü	-948
▁mez	-949
KK	-950
▁riyet	-951
▁orta	-952
▁bır	-953
▁bırak	-954
uştu	-955
▁sız	-956
▁nc	-957
art	-958
▁harek	-959
▁unlar	-960
▁nma	-961
ram	-962
▁üksek	-963
▁ikk	-964
ni	-965
▁kayd	-966
▁sel	-967
▁Fen	-968
▁inden	-969
▁Beş	-970
mam	-971
▁üret	-972
▁baz	-973
▁ikkat	-974
▁nkara	-975
▁düşü	-976
▁diğer	-977
▁kaç	-978
▁PKK	-979
▁yay	-980
ot	-981
▁şir	-982
▁edef	-983
▁TL	-984
▁Biz	-985
▁veya	-986
üp	-987
▁Ay	-988
▁para	-989
▁yür	-990
▁ış	-991
▁çıktı	-992
ap	-993
▁Fener	-994
▁bahçe	-995
▁kır	-996
▁ca	-997
▁Gö	-998
▁/	-999
▁sunda	-1000
▁tiği	-1001
▁rtaya	-1002
▁ladı	-1003
▁suç	-1004
▁yapan	-1005
▁enler	-1006
▁üm	-1007
▁tıl	-1008
▁hava	-1009
ete	-1010
▁inan	-1011
▁üzere	-1012
▁azete	-1013
▁görüş	-1014
▁raf	-1015
yas	-1016
▁ans	-1017
▁rt	-1018
▁dem	-1019
▁aşkan	-1020
▁arka	-1021
▁deste	-1022
▁kez	-1023
▁larla	-1024
atış	-1025
▁yöne	-1026
▁mah	-1027
▁rs	-1028
▁Er	-1029
▁W	-1030
▁ayın	-1031
▁bekle	-1032
▁kapsa	-1033
▁yen	-1034
▁Beşik	-1035
▁öğren	-1036
▁Par	-1037
▁Spor	-1038
inc	-1039
ev	-1040
▁İn	-1041
▁gram	-1042
tar	-1043
▁mel	-1044
▁sına	-1045
▁ez	-1046
▁istan	-1047
00	-1048
▁tele	-1049
▁alata	-1050
▁şehir	-1051
iyar	-1052
▁maz	-1053
▁nce	-1054
▁andı	-1055
▁lanan	-1056
▁uygul	-1057
▁aha	-1058
▁Rusya	-1059
▁bazı	-1060
▁şirke	-1061
▁isim	-1062
▁tep	-1063
▁Dünya	-1064
▁sık	-1065
▁amada	-1066
▁ndı	-1067
▁nu	-1068
▁çı	-1069
▁hat	-1070
▁Söz	-1071
▁Ancak	-1072
▁saray	-1073
▁fil	-1074
▁mille	-1075
▁lerle	-1076
▁aile	-1077
▁sorun	-1078
▁sü	-1079
▁ks	-1080
▁araç	-1081
▁geçen	-1082
▁bugün	-1083
▁muh	-1084
▁etki	-1085
▁tiril	-1086
tün	-1087
▁luğ	-1088
▁içeri	-1089
▁fiyat	-1090
▁gol	-1091
▁açıl	-1092
▁der	-1093
▁nıl	-1094
▁sıra	-1095
▁zaltı	-1096
▁taşı	-1097
▁lt	-1098
▁ayrı	-1099
▁sürdü	-1100
▁ns	-1101
▁yapı	-1102
lik	-1103
▁per	-1104
▁seç	-1105
▁rak	-1106
▁tamam	-1107
▁proje	-1108
yal	-1109
▁gru	-1110
şa	-1111
▁rek	-1112
▁eği	-1113
▁günü	-1114
▁nas	-1115
▁Su	-1116
▁osyal	-1117
▁onun	-1118
▁ağlık	-1119
▁liler	-1120
▁Son	-1121
▁ihti	-1122
▁tör	-1123
▁be	-1124
üs	-1125
azar	-1126
▁arklı	-1127
▁tah	-1128
▁şek	-1129
▁adam	-1130
▁miyor	-1131
▁leme	-1132
▁silah	-1133
▁bile	-1134
ite	-1135
▁olo	-1136
▁Ama	-1137
▁kurul	-1138
▁oyna	-1139
▁ağır	-1140
▁tanı	-1141
▁ğim	-1142
▁oruş	-1143
▁Kara	-1144
▁rü	-1145
▁turma	-1146
mış	-1147
▁Bun	-1148
▁ng	-1149
▁ic	-1150
▁taki	-1151
niy	-1152
▁üs	-1153
nde	-1154
▁gönde	-1155
dav	-1156
▁kon	-1157
lah	-1158
▁yu	-1159
▁hali	-1160
▁yayın	-1161
▁nasıl	-1162
▁milya	-1163
▁rsite	-1164
▁İş	-1165
▁iti	-1166
▁müş	-1167
lam	-1168
▁bildi	-1169
▁erken	-1170
▁izmet	-1171
▁şöyle	-1172
bo	-1173
▁uv	-1174
▁sez	-1175
▁tırma	-1176
id	-1177
▁ıra	-1178
▁öldü	-1179
▁urada	-1180
imdi	-1181
▁ancak	-1182
▁Gül	-1183
muz	-1184
▁sezon	-1185
▁ntrol	-1186
▁anlaş	-1187
alı	-1188
▁maçı	-1189
▁güç	-1190
▁mad	-1191
▁eçti	-1192
▁geçir	-1193
▁kul	-1194
▁kli	-1195
▁mik	-1196
bu	-1197
▁yaral	-1198
▁his	-1199
▁rab	-1200
▁plan	-1201
▁arkad	-1202
▁ğren	-1203
▁mar	-1204
▁nok	-1205
▁kız	-1206
▁tam	-1207
▁ğini	-1208
▁ıyla	-1209
▁ing	-1210
▁emmuz	-1211
▁üc	-1212
▁oyun	-1213
nik	-1214
▁ep	-1215
▁dik	-1216
▁ıcı	-1217
ında	-1218
▁işlem	-1219
▁ık	-1220
▁üp	-1221
mba	-1222
▁laşık	-1223
▁böyle	-1224
iç	-1225
▁hal	-1226
▁he	-1227
▁ildi	-1228
▁ğrenc	-1229
▁De	-1230
▁metre	-1231
▁nokta	-1232
▁sını	-1233
▁ehmet	-1234
yü	-1235
▁mcı	-1236
▁eğit	-1237
▁Parti	-1238
▁yasa	-1239
▁tedav	-1240
▁acı	-1241
▁öde	-1242
▁rdü	-1243
▁duğu	-1244
▁lenen	-1245
▁Gü	-1246
▁göz	-1247
▁kabul	-1248
▁edya	-1249
▁tutuk	-1250
▁aşa	-1251
▁lanma	-1252
▁kil	-1253
▁nel	-1254
▁To	-1255
▁aba	-1256
▁kent	-1257
▁ekono	-1258
ga	-1259
▁siniz	-1260
gan	-1261
▁geri	-1262
fa	-1263
▁yük	-1264
▁genel	-1265
▁alt	-1266
bol	-1267
▁eled	-1268
▁sonuc	-1269
▁medi	-1270
▁unun	-1271
▁luştu	-1272
▁sen	-1273
▁Büyük	-1274
▁düşün	-1275
▁eski	-1276
▁aki	-1277
▁lük	-1278
ça	-1279
▁uğ	-1280
▁bomba	-1281
▁ilçe	-1282
▁oloji	-1283
▁ntı	-1284
▁gece	-1285
▁ğimiz	-1286
dın	-1287
▁bölüm	-1288
▁mında	-1289
▁eng	-1290
▁â	-1291
▁Re	-1292
▁ardım	-1293
mız	-1294
▁şehit	-1295
▁bütün	-1296
▁itiba	-1297
der	-1298
▁okul	-1299
▁tale	-1300
▁Ter	-1301
▁çi	-1302
▁dün	-1303
▁film	-1304
▁uzun	-1305
▁j	-1306
▁ekt	-1307
AR	-1308
▁gu	-1309
▁merke	-1310
▁ana	-1311
▁lma	-1312
▁mıyor	-1313
▁telef	-1314
▁Ben	-1315
▁oran	-1316
▁dava	-1317
▁şüp	-1318
▁şüphe	-1319
▁Yeni	-1320
▁ğin	-1321
▁sınır	-1322
▁etkil	-1323
dır	-1324
▁içbir	-1325
▁yağ	-1326
▁aka	-1327
▁ayısı	-1328
▁ırken	-1329
şe	-1330
▁sının	-1331
▁so	-1332
▁önün	-1333
▁ait	-1334
▁orm	-1335
mı	-1336
HP	-1337
▁erkes	-1338
▁Terör	-1339
▁for	-1340
▁köy	-1341
ğın	-1342
▁tti	-1343
▁rağ	-1344
▁far	-1345
▁yakal	-1346
▁ilgi	-1347
tür	-1348
▁om	-1349
▁12	-1350
▁rağme	-1351
▁meye	-1352
▁koy	-1353
▁Ne	-1354
utbo	-1355
▁lcu	-1356
▁güz	-1357
as	-1358
▁etmek	-1359
▁kilo	-1360
▁ikinc	-1361
▁ika	-1362
▁üye	-1363
▁kika	-1364
çok	-1365
▁çıkan	-1366
pit	-1367
▁yetki	-1368
▁pu	-1369
▁Yıl	-1370
▁vurgu	-1371
▁diy	-1372
▁olayı	-1373
▁ündem	-1374
▁yat	-1375
▁olur	-1376
▁bekl	-1377
▁irçok	-1378
ulu	-1379
▁genç	-1380
▁amay	-1381
▁aya	-1382
▁kaldı	-1383
▁AK	-1384
▁Mahal	-1385
▁espit	-1386
▁ıs	-1387
▁anda	-1388
▁ze	-1389
oğu	-1390
▁20	-1391
▁rma	-1392
▁11	-1393
▁kra	-1394
su	-1395
▁min	-1396
▁ner	-1397
▁öne	-1398
▁çöz	-1399
▁Ali	-1400
▁Em	-1401
▁tırım	-1402
▁lesi	-1403
▁laşma	-1404
▁Po	-1405
rans	-1406
▁Her	-1407
▁w	-1408
▁ste	-1409
are	-1410
▁bunu	-1411
▁savaş	-1412
▁rün	-1413
▁amadı	-1414
▁anlam	-1415
▁bağlı	-1416
▁ize	-1417
▁dile	-1418
▁din	-1419
▁mod	-1420
▁elim	-1421
▁Gün	-1422
▁mev	-1423
▁bera	-1424
▁türk	-1425
cek	-1426
▁mayı	-1427
▁futbo	-1428
deş	-1429
▁onlar	-1430
▁ardeş	-1431
▁tane	-1432
▁ğü	-1433
▁Zaman	-1434
▁sürec	-1435
▁toplu	-1436
▁rım	-1437
▁sonuç	-1438
▁veren	-1439
▁Ana	-1440
▁kayna	-1441
▁satış	-1442
▁vekil	-1443
▁urulu	-1444
▁Hasta	-1445
▁lider	-1446
▁oluş	-1447
▁parti	-1448
▁atan	-1449
▁oca	-1450
▁akat	-1451
▁ris	-1452
▁güzel	-1453
▁ihtiy	-1454
▁izin	-1455
fi	-1456
▁incel	-1457
▁elir	-1458
AN	-1459
zo	-1460
▁ndi	-1461
▁yö	-1462
▁leşme	-1463
▁uk	-1464
▁Yıldı	-1465
▁dırıl	-1466
▁fir	-1467
▁erke	-1468
▁kamu	-1469
▁atl	-1470
▁atıl	-1471
▁puan	-1472
▁utbol	-1473
aj	-1474
▁fer	-1475
▁muş	-1476
▁lç	-1477
▁ilen	-1478
▁Özel	-1479
▁iye	-1480
ER	-1481
▁avcı	-1482
▁Sözcü	-1483
▁kol	-1484
▁deniz	-1485
▁ahi	-1486
▁ant	-1487
▁engel	-1488
▁yenid	-1489
▁İngil	-1490
▁imza	-1491
ını	-1492
▁mizin	-1493
▁hiç	-1494
▁pek	-1495
▁kıs	-1496
▁teki	-1497
▁mem	-1498
▁ateş	-1499
ylem	-1500
▁mobil	-1501
▁çev	-1502
▁tık	-1503
▁ullah	-1504
aka	-1505
▁kten	-1506
▁ayrıl	-1507
▁Musta	-1508
▁Üni	-1509
▁ziyar	-1510
▁Ban	-1511
▁attı	-1512
▁ciler	-1513
▁meler	-1514
▁alanı	-1515
▁tedir	-1516
▁şekli	-1517
▁Am	-1518
▁ton	-1519
▁aylaş	-1520
▁berab	-1521
▁kurum	-1522
▁yine	-1523
▁dil	-1524
▁madan	-1525
▁ati	-1526
▁grup	-1527
▁yacak	-1528
▁Ünive	-1529
▁piy	-1530
▁krar	-1531
▁bizim	-1532
▁Pro	-1533
▁ünü	-1534
▁lat	-1535
▁lman	-1536
unm	-1537
▁piyon	-1538
▁malı	-1539
▁pazar	-1540
▁nması	-1541
▁Den	-1542
▁Mil	-1543
▁önem	-1544
▁rabzo	-1545
▁üçler	-1546
▁aday	-1547
▁Dem	-1548
şam	-1549
ter	-1550
izi	-1551
▁amaz	-1552
▁artık	-1553
▁yükse	-1554
▁nayas	-1555
▁gitti	-1556
▁yürü	-1557
yaz	-1558
▁Dr	-1559
▁ırası	-1560
▁oku	-1561
▁çağ	-1562
urt	-1563
▁görü	-1564
▁meyda	-1565
▁öğret	-1566
▁viz	-1567
▁erkez	-1568
▁seçim	-1569
▁has	-1570
▁ıldız	-1571
▁rne	-1572
▁Yön	-1573
▁ince	-1574
▁fot	-1575
▁ydı	-1576
▁sürü	-1577
▁diyor	-1578
▁Emniy	-1579
▁gelir	-1580
▁rci	-1581
▁CHP	-1582
▁ölüm	-1583
▁ürün	-1584
▁eğ	-1585
▁erç	-1586
▁ıllar	-1587
▁est	-1588
▁hale	-1589
vil	-1590
▁Ata	-1591
▁ydi	-1592
▁dere	-1593
▁kısa	-1594
▁rken	-1595
▁undan	-1596
ekl	-1597
▁ürü	-1598
▁rol	-1599
▁mis	-1600
▁ser	-1601
▁Yönet	-1602
▁Ameri	-1603
▁Bo	-1604
▁tra	-1605
uma	-1606
▁Deniz	-1607
▁`	-1608
▁lıyor	-1609
ımı	-1610
▁rüntü	-1611
▁avunm	-1612
▁dönüş	-1613
▁yurt	-1614
▁Ahmet	-1615
▁cil	-1616
▁Ar	-1617
▁Kur	-1618
sun	-1619
▁İz	-1620
▁ledi	-1621
▁ulus	-1622
▁adım	-1623
▁eşi	-1624
▁otur	-1625
▁ağa	-1626
▁Bakan	-1627
▁uzak	-1628
▁rmek	-1629
len	-1630
▁artır	-1631
▁DA	-1632
▁Demir	-1633
▁lmany	-1634
▁yazı	-1635
▁tildi	-1636
▁atı	-1637
▁zar	-1638
▁üne	-1639
▁za	-1640
▁tük	-1641
▁ers	-1642
▁fotoğ	-1643
▁rdiği	-1644
▁nen	-1645
▁mıştı	-1646
▁Lig	-1647
▁bi	-1648
▁mağ	-1649
▁ahibi	-1650
▁hep	-1651
rak	-1652
▁cü	-1653
▁çar	-1654
▁Ya	-1655
▁iyasi	-1656
▁onu	-1657
▁banka	-1658
▁elirl	-1659
▁lek	-1660
▁iyasa	-1661
▁azı	-1662
▁elek	-1663
▁Bunun	-1664
ic	-1665
bat	-1666
▁30	-1667
▁nacak	-1668
▁ışı	-1669
▁sok	-1670
▁Milli	-1671
▁ültür	-1672
▁end	-1673
▁tepki	-1674
▁yargı	-1675
▁Os	-1676
▁Daha	-1677
▁faal	-1678
▁25	-1679
▁eclis	-1680
▁istey	-1681
▁Mahke	-1682
▁basın	-1683
▁adet	-1684
cuğ	-1685
▁knik	-1686
▁akşam	-1687
▁liğ	-1688
▁lantı	-1689
▁terek	-1690
▁Yap	-1691
▁olu	-1692
▁tal	-1693
üb	-1694
▁tin	-1695
▁14	-1696
▁Osman	-1697
▁ılma	-1698
▁tekn	-1699
▁çevre	-1700
▁kara	-1701
▁nak	-1702
▁bina	-1703
▁ndığı	-1704
▁mama	-1705
▁DE	-1706
▁gar	-1707
▁ıntı	-1708
▁tartı	-1709
▁açı	-1710
▁mahke	-1711
▁niyor	-1712
▁elin	-1713
vet	-1714
▁ilet	-1715
▁uldu	-1716
iyo	-1717
▁Mart	-1718
▁demo	-1719
▁kriz	-1720
▁ralık	-1721
▁up	-1722
▁yo	-1723
▁olsun	-1724
▁kalan	-1725
▁bit	-1726
▁hız	-1727
▁ktan	-1728
mir	-1729
▁müda	-1730
▁mesaj	-1731
▁erv	-1732
▁ncesi	-1733
fer	-1734
▁ener	-1735
▁trans	-1736
▁bet	-1737
▁rman	-1738
▁kin	-1739
▁yürüt	-1740
▁illet	-1741
▁kapat	-1742
▁bunun	-1743
▁uvvet	-1744
▁üncel	-1745
▁eylem	-1746
▁dah	-1747
▁doğu	-1748
▁ayınd	-1749
▁ektör	-1750
▁tüket	-1751
▁İzmir	-1752
▁boz	-1753
▁Şubat	-1754
▁Sa	-1755
▁koru	-1756
▁bancı	-1757
▁küç	-1758
▁sebe	-1759
▁liye	-1760
▁erçek	-1761
▁boy	-1762
▁Ce	-1763
▁alk	-1764
▁dak	-1765
▁eti	-1766
▁poli	-1767
▁müdah	-1768
▁sanat	-1769
▁isi	-1770
▁lıklı	-1771
▁13	-1772
▁and	-1773
▁nceki	-1774
▁yum	-1775
▁izle	-1776
▁aktar	-1777
▁krasi	-1778
▁rdı	-1779
▁tas	-1780
gür	-1781
▁cid	-1782
▁şar	-1783
▁lil	-1784
▁indir	-1785
▁öyle	-1786
▁let	-1787
▁Dav	-1788
▁ntal	-1789
▁ınca	-1790
▁artış	-1791
▁layan	-1792
▁apı	-1793
▁ari	-1794
▁ortak	-1795
▁En	-1796
▁manı	-1797
▁Merke	-1798
▁sevk	-1799
▁yanda	-1800
▁yoğ	-1801
▁amacı	-1802
▁tt	-1803
▁baba	-1804
▁bağla	-1805
▁yaşam	-1806
▁yoğun	-1807
▁nüm	-1808
▁oyn	-1809
van	-1810
▁tif	-1811
▁ırs	-1812
▁rneği	-1813
▁takip	-1814
▁mas	-1815
▁rüldü	-1816
▁yorum	-1817
▁ğa	-1818
▁dim	-1819
▁zan	-1820
▁Ab	-1821
▁rim	-1822
muş	-1823
▁Ek	-1824
▁kre	-1825
▁kın	-1826
▁riyor	-1827
▁ıllık	-1828
▁rev	-1829
▁rüş	-1830
▁mayan	-1831
▁Muh	-1832
▁Ocak	-1833
▁yana	-1834
eh	-1835
▁nış	-1836
▁umuz	-1837
▁aracı	-1838
▁ntaly	-1839
do	-1840
▁iv	-1841
▁Ulu	-1842
▁İlk	-1843
▁sab	-1844
▁pay	-1845
▁derec	-1846
▁tay	-1847
uro	-1848
▁arış	-1849
▁sırad	-1850
▁inşa	-1851
▁sunuz	-1852
▁işe	-1853
▁ret	-1854
▁sayı	-1855
lim	-1856
▁El	-1857
▁şart	-1858
▁ona	-1859
▁huk	-1860
▁ktör	-1861
▁ilim	-1862
▁zarar	-1863
▁araş	-1864
▁ralar	-1865
ınd	-1866
▁teşe	-1867
▁kapa	-1868
▁yız	-1869
▁16	-1870
▁mlu	-1871
▁ses	-1872
▁Ekono	-1873
▁dağ	-1874
▁alış	-1875
▁hukuk	-1876
▁siyas	-1877
▁Ad	-1878
▁ücret	-1879
▁Bur	-1880
▁çek	-1881
▁Güven	-1882
sım	-1883
▁Allah	-1884
▁laz	-1885
▁Euro	-1886
▁lenme	-1887
▁dür	-1888
▁hük	-1889
▁18	-1890
▁ıf	-1891
mesi	-1892
ift	-1893
▁rildi	-1894
▁ani	-1895
ünkü	-1896
▁Çünkü	-1897
▁şimdi	-1898
Bu	-1899
▁ita	-1900
▁mızı	-1901
▁organ	-1902
▁cu	-1903
▁kamp	-1904
▁itesi	-1905
▁ğımız	-1906
lat	-1907
▁şma	-1908
▁Irak	-1909
▁anne	-1910
▁çocuğ	-1911
▁ide	-1912
▁rılar	-1913
▁ib	-1914
▁x	-1915
▁yü	-1916
▁eri	-1917
▁şah	-1918
▁Ku	-1919
▁rul	-1920
▁rbe	-1921
▁etmiş	-1922
▁büyü	-1923
▁çift	-1924
▁tadır	-1925
ğa	-1926
▁oda	-1927
▁oranı	-1928
▁şa	-1929
▁uza	-1930
▁rka	-1931
▁suz	-1932
▁yiz	-1933
▁tab	-1934
▁rbest	-1935
▁aşlar	-1936
▁lılar	-1937
▁Dış	-1938
▁çarp	-1939
▁yolcu	-1940
▁Yar	-1941
▁şan	-1942
▁nesi	-1943
▁yarat	-1944
▁çıkla	-1945
▁Jo	-1946
▁eb	-1947
▁kav	-1948
▁klar	-1949
▁ntısı	-1950
▁tik	-1951
▁yarış	-1952
▁önünd	-1953
ku	-1954
zi	-1955
▁iyesi	-1956
▁planl	-1957
▁one	-1958
▁erleş	-1959
▁gördü	-1960
▁rdu	-1961
▁sıyla	-1962
▁forma	-1963
▁ılmaz	-1964
▁ciddi	-1965
▁ira	-1966
▁yüzü	-1967
▁cam	-1968
▁17	-1969
▁urt	-1970
▁lerce	-1971
▁madde	-1972
▁emey	-1973
▁irken	-1974
▁esa	-1975
lo	-1976
▁uçak	-1977
▁kadro	-1978
▁Gazi	-1979
yan	-1980
▁Fet	-1981
▁Genç	-1982
▁ert	-1983
▁rn	-1984
▁bilin	-1985
▁On	-1986
▁Gök	-1987
▁rıl	-1988
▁irbir	-1989
▁nları	-1990
rü	-1991
▁va	-1992
▁mcısı	-1993
▁temel	-1994
▁Or	-1995
▁Bö	-1996
atı	-1997
▁elekt	-1998
▁tören	-1999
▁arama	-2000
▁sivil	-2001
▁sek	-2002
sız	-2003
▁ök	-2004
▁kle	-2005
▁tasar	-2006
▁kötü	-2007
▁Ceza	-2008
▁müm	-2009
▁yrı	-2010
▁vuru	-2011
▁mümkü	-2012
▁öd	-2013
▁dizi	-2014
▁rcih	-2015
▁lig	-2016
▁dakik	-2017
▁inter	-2018
▁lte	-2019
▁Ül	-2020
▁ent	-2021
▁benim	-2022
▁buluş	-2023
▁hüküm	-2024
▁yrıca	-2025
▁üper	-2026
▁götü	-2027
▁nspor	-2028
▁mer	-2029
▁uğra	-2030
▁kolay	-2031
▁elçi	-2032
▁sabah	-2033
▁çiz	-2034
▁Do	-2035
▁İran	-2036
▁Ve	-2037
▁alı	-2038
▁hes	-2039
▁sene	-2040
▁fes	-2041
▁24	-2042
▁kredi	-2043
▁küçük	-2044
▁polit	-2045
▁vardı	-2046
▁ley	-2047
▁iniz	-2048
▁tepe	-2049
▁ere	-2050
▁Bursa	-2051
▁yal	-2052
▁Polis	-2053
aze	-2054
▁rik	-2055
▁AŞ	-2056
▁Can	-2057
▁ata	-2058
▁tor	-2059
▁Çok	-2060
▁model	-2061
▁fet	-2062
▁çe	-2063
▁şı	-2064
▁üni	-2065
▁rapor	-2066
▁ğlu	-2067
▁Böyle	-2068
▁risk	-2069
▁enerj	-2070
▁rüşme	-2071
▁eh	-2072
▁Mar	-2073
▁enaze	-2074
▁gramı	-2075
▁başı	-2076
▁tırıl	-2077
▁bay	-2078
▁alet	-2079
▁muta	-2080
▁üneş	-2081
▁yatır	-2082
▁arım	-2083
▁eder	-2084
▁firma	-2085
▁talep	-2086
▁So	-2087
▁kimse	-2088
ılıç	-2089
▁Kılıç	-2090
▁Kay	-2091
▁Şeh	-2092
▁Davut	-2093
▁ayıda	-2094
▁belge	-2095
▁Kö	-2096
▁ong	-2097
▁vuk	-2098
▁bakır	-2099
▁İşte	-2100
▁vukat	-2101
car	-2102
▁kış	-2103
▁faiz	-2104
▁Diyar	-2105
▁Orta	-2106
rac	-2107
▁sey	-2108
▁şid	-2109
▁Banka	-2110
▁yım	-2111
▁kalk	-2112
▁kaza	-2113
▁üncü	-2114
▁arken	-2115
▁çatış	-2116
▁tım	-2117
▁olsa	-2118
▁anal	-2119
▁hemen	-2120
▁ang	-2121
▁Abd	-2122
▁Kasım	-2123
▁inans	-2124
▁anat	-2125
▁silci	-2126
▁Şimdi	-2127
▁Vali	-2128
▁ediye	-2129
▁mensu	-2130
▁tes	-2131
▁erli	-2132
▁eyaz	-2133
▁uygun	-2134
▁ena	-2135
▁hiss	-2136
▁iyat	-2137
▁Bugün	-2138
▁ükü	-2139
▁Gülen	-2140
▁milli	-2141
▁ela	-2142
▁soy	-2143
▁mutlu	-2144
▁Olay	-2145
▁ttığı	-2146
▁aması	-2147
▁lteci	-2148
▁Hava	-2149
▁Yardı	-2150
▁elde	-2151
▁aşına	-2152
▁ef	-2153
▁nıyor	-2154
▁şidde	-2155
▁Ço	-2156
▁ayır	-2157
▁parça	-2158
▁ayet	-2159
▁Es	-2160
▁abi	-2161
▁sak	-2162
▁aklar	-2163
▁katkı	-2164
dar	-2165
▁100	-2166
▁konud	-2167
Şİ	-2168
▁hesap	-2169
▁Top	-2170
▁meden	-2171
▁geçi	-2172
▁eleş	-2173
▁hangi	-2174
▁ekim	-2175
▁teri	-2176
▁umlu	-2177
▁güçlü	-2178
▁mizi	-2179
▁eçmiş	-2180
▁İki	-2181
▁demir	-2182
▁raki	-2183
▁durdu	-2184
▁çekil	-2185
▁yeter	-2186
▁eks	-2187
▁iha	-2188
▁Böl	-2189
▁dep	-2190
▁darma	-2191
▁Ulus	-2192
▁klif	-2193
▁duyur	-2194
▁yunca	-2195
▁anık	-2196
▁atta	-2197
▁Bölge	-2198
▁misyo	-2199
▁azi	-2200
▁tav	-2201
▁laşım	-2202
▁mişti	-2203
▁Anado	-2204
▁dö	-2205
▁od	-2206
▁kale	-2207
▁evi	-2208
▁alım	-2209
ayi	-2210
▁dık	-2211
▁50	-2212
▁Kem	-2213
▁eslim	-2214
▁görme	-2215
▁üküme	-2216
▁inti	-2217
▁kaya	-2218
▁evler	-2219
▁urum	-2220
▁kart	-2221
▁adına	-2222
▁yıp	-2223
vi	-2224
▁umu	-2225
eşit	-2226
▁eyen	-2227
▁anayi	-2228
▁izler	-2229
▁trafi	-2230
▁çeşit	-2231
ıs	-2232
▁rat	-2233
▁Kendi	-2234
▁ekibi	-2235
▁ödeme	-2236
▁HD	-2237
▁yardı	-2238
tim	-2239
▁Ligi	-2240
▁dım	-2241
▁zat	-2242
▁eyin	-2243
▁ünün	-2244
▁girdi	-2245
▁nn	-2246
▁adlı	-2247
▁onund	-2248
▁revli	-2249
▁yılda	-2250
▁marka	-2251
▁temiz	-2252
▁yarak	-2253
so	-2254
ıt	-2255
▁ina	-2256
▁ilme	-2257
YD	-2258
ab	-2259
eli	-2260
▁slan	-2261
▁irek	-2262
▁etkin	-2263
▁ticar	-2264
▁fin	-2265
▁gula	-2266
▁anser	-2267
▁şam	-2268
▁etin	-2269
▁ayy	-2270
▁ahçe	-2271
▁anlar	-2272
▁ervis	-2273
▁Ör	-2274
▁dol	-2275
▁bize	-2276
▁ov	-2277
▁ayrıc	-2278
▁bana	-2279
▁sınız	-2280
▁tos	-2281
▁aray	-2282
▁güne	-2283
▁ödül	-2284
▁işler	-2285
▁İslam	-2286
▁of	-2287
▁Koç	-2288
▁muştu	-2289
▁uzman	-2290
▁nül	-2291
▁sig	-2292
▁tma	-2293
▁ğitim	-2294
cep	-2295
▁Recep	-2296
▁ayyip	-2297
▁resmi	-2298
▁ob	-2299
▁aralı	-2300
▁belli	-2301
▁çözüm	-2302
▁atil	-2303
▁hen	-2304
▁Eski	-2305
▁angi	-2306
▁atma	-2307
▁asıl	-2308
▁abası	-2309
▁enz	-2310
▁fark	-2311
▁mızın	-2312
▁Man	-2313
▁izi	-2314
▁azal	-2315
bı	-2316
▁kesin	-2317
▁rk	-2318
▁Örgüt	-2319
▁ımlar	-2320
▁air	-2321
▁çak	-2322
▁steği	-2323
izm	-2324
▁19	-2325
▁21	-2326
▁Ser	-2327
▁anl	-2328
▁halkı	-2329
▁tirdi	-2330
▁ars	-2331
▁tere	-2332
▁ünlü	-2333
AT	-2334
▁inci	-2335
▁nlık	-2336
▁geniş	-2337
▁emekl	-2338
▁kça	-2339
▁rnek	-2340
▁arılı	-2341
▁Dün	-2342
▁açısı	-2343
▁istih	-2344
▁şarkı	-2345
han	-2346
▁ttı	-2347
▁vet	-2348
▁ktor	-2349
lük	-2350
▁co	-2351
▁araya	-2352
▁irleş	-2353
▁irlik	-2354
dit	-2355
▁üy	-2356
▁ard	-2357
▁yanıt	-2358
▁22	-2359
▁seri	-2360
▁ia	-2361
▁süreç	-2362
▁arşı	-2363
▁Çin	-2364
▁alon	-2365
▁Kür	-2366
▁endi	-2367
▁ante	-2368
▁düzey	-2369
▁ail	-2370
▁uzu	-2371
▁iğer	-2372
▁ij	-2373
▁sl	-2374
▁oğu	-2375
▁anma	-2376
▁ünlük	-2377
▁erkek	-2378
▁anya	-2379
▁işçi	-2380
▁lam	-2381
▁Kemal	-2382
▁Ey	-2383
▁pi	-2384
▁Sarı	-2385
▁aşarı	-2386
▁elik	-2387
▁avali	-2388
▁sokak	-2389
▁hane	-2390
▁pan	-2391
▁lem	-2392
▁Dışiş	-2393
▁urizm	-2394
▁önemi	-2395
▁kurt	-2396
▁okun	-2397
▁pat	-2398
▁final	-2399
▁Fat	-2400
▁aşı	-2401
▁uzey	-2402
▁PYD	-2403
▁lazım	-2404
ed	-2405
▁eler	-2406
▁Kon	-2407
FA	-2408
▁HDP	-2409
fo	-2410
▁Ülke	-2411
▁dahil	-2412
▁ediği	-2413
▁rülen	-2414
▁taleb	-2415
kaç	-2416
▁aat	-2417
▁ürücü	-2418
▁alp	-2419
▁rmak	-2420
▁hli	-2421
▁eşil	-2422
vap	-2423
▁esabı	-2424
▁cevap	-2425
▁nti	-2426
▁raş	-2427
▁irkaç	-2428
▁sy	-2429
▁Mur	-2430
▁üsl	-2431
▁lin	-2432
▁Murat	-2433
▁aret	-2434
▁hlike	-2435
▁İnsan	-2436
EŞ	-2437
▁Ch	-2438
▁ald	-2439
▁kül	-2440
▁ulüp	-2441
▁çekti	-2442
▁müz	-2443
▁rısı	-2444
▁lığın	-2445
▁muz	-2446
▁irinc	-2447
▁üksel	-2448
▁Kürt	-2449
▁ilan	-2450
▁lığa	-2451
▁nmış	-2452
▁anun	-2453
tö	-2454
▁Haz	-2455
▁işi	-2456
▁ntem	-2457
▁abet	-2458
▁almak	-2459
▁canlı	-2460
▁nme	-2461
▁ileri	-2462
▁alif	-2463
▁anak	-2464
▁hatır	-2465
▁kayıt	-2466
▁Tr	-2467
▁Alman	-2468
▁ihrac	-2469
▁eceğ	-2470
▁Fatih	-2471
▁ormal	-2472
▁oş	-2473
▁Eki	-2474
▁rem	-2475
▁hdit	-2476
▁yansı	-2477
ump	-2478
▁çab	-2479
büs	-2480
▁ayvan	-2481
▁tobüs	-2482
▁yse	-2483
▁Bunu	-2484
▁aşadı	-2485
▁Trump	-2486
▁nç	-2487
isan	-2488
▁kür	-2489
▁name	-2490
▁uyla	-2491
▁Nisan	-2492
Lİ	-2493
▁lın	-2494
▁taj	-2495
▁Konya	-2496
alib	-2497
▁ord	-2498
▁rac	-2499
▁gücü	-2500
▁itir	-2501
dana	-2502
▁galib	-2503
▁şik	-2504
▁ınız	-2505
▁başta	-2506
▁sektö	-2507
▁aj	-2508
▁ons	-2509
▁rum	-2510
▁dalet	-2511
▁Şah	-2512
▁Adana	-2513
▁farkı	-2514
▁ire	-2515
▁ayram	-2516
▁siyle	-2517
▁Aydın	-2518
▁uar	-2519
▁aklı	-2520
▁epsi	-2521
▁ders	-2522
▁Bizim	-2523
▁ortam	-2524
▁perso	-2525
▁tılım	-2526
▁Şam	-2527
lül	-2528
▁duruş	-2529
▁antep	-2530
jim	-2531
▁ga	-2532
▁May	-2533
▁ilo	-2534
▁Şube	-2535
▁ışık	-2536
▁imizi	-2537
▁rahat	-2538
▁yılın	-2539
▁krat	-2540
▁Çocuk	-2541
ŞİD	-2542
▁IŞİD	-2543
▁sığın	-2544
ze	-2545
▁abı	-2546
▁las	-2547
▁üyü	-2548
▁ransa	-2549
▁beni	-2550
▁Pazar	-2551
▁slınd	-2552
▁ch	-2553
▁ern	-2554
▁rge	-2555
▁kuru	-2556
▁edera	-2557
▁mali	-2558
▁sahne	-2559
▁ğinde	-2560
▁Ma	-2561
▁neral	-2562
▁üyüme	-2563
▁vü	-2564
▁rmans	-2565
▁DAEŞ	-2566
▁akın	-2567
▁alle	-2568
▁nik	-2569
▁arın	-2570
▁ıcak	-2571
▁sert	-2572
▁siyon	-2573
▁tidar	-2574
▁ırsat	-2575
▁evin	-2576
▁arada	-2577
▁lçesi	-2578
fe	-2579
▁avaş	-2580
▁işle	-2581
▁Ro	-2582
▁isiml	-2583
▁çağrı	-2584
▁baskı	-2585
▁karış	-2586
▁alık	-2587
▁apis	-2588
▁amera	-2589
▁işare	-2590
▁sınav	-2591
▁dair	-2592
▁türlü	-2593
▁Cad	-2594
▁Jan	-2595
▁28	-2596
▁ney	-2597
▁kafa	-2598
▁Cadde	-2599
▁Mayıs	-2600
▁korku	-2601
▁mizde	-2602
▁oz	-2603
▁van	-2604
▁ras	-2605
▁özgür	-2606
▁Ob	-2607
▁ref	-2608
▁yna	-2609
▁Bar	-2610
▁eye	-2611
▁anlış	-2612
▁amaç	-2613
▁etrol	-2614
▁mp	-2615
▁yık	-2616
▁aland	-2617
▁urken	-2618
▁ismi	-2619
▁Prof	-2620
▁log	-2621
▁loji	-2622
▁üyesi	-2623
ani	-2624
▁1.	-2625
▁Cuma	-2626
▁amel	-2627
to	-2628
▁Bay	-2629
▁anlı	-2630
▁ulut	-2631
▁henüz	-2632
▁rç	-2633
▁gören	-2634
▁Tek	-2635
▁uşu	-2636
▁sorgu	-2637
▁ğün	-2638
▁Şen	-2639
▁liste	-2640
▁ğında	-2641
▁ltan	-2642
▁enzer	-2643
▁yemek	-2644
▁rahim	-2645
var	-2646
▁nümüz	-2647
▁Go	-2648
▁göç	-2649
▁ilis	-2650
▁emniy	-2651
▁memur	-2652
▁seviy	-2653
▁ami	-2654
▁sarı	-2655
▁maçta	-2656
▁perfo	-2657
▁yarın	-2658
▁konul	-2659
▁vergi	-2660
ylü	-2661
▁ekran	-2662
▁kısmı	-2663
▁nnesi	-2664
▁akika	-2665
▁rkası	-2666
▁fay	-2667
▁Güney	-2668
▁aylık	-2669
ört	-2670
▁dört	-2671
▁emedi	-2672
▁det	-2673
▁kop	-2674
▁iyah	-2675
▁tüğü	-2676
▁unut	-2677
▁talya	-2678
▁gal	-2679
▁Kupa	-2680
▁recek	-2681
▁urtar	-2682
▁boş	-2683
▁lal	-2684
▁nan	-2685
▁tel	-2686
▁sanız	-2687
▁40	-2688
▁Eğer	-2689
▁buna	-2690
▁emez	-2691
▁doğal	-2692
▁liş	-2693
▁kira	-2694
▁ağlan	-2695
▁bakım	-2696
▁hakem	-2697
▁olmuş	-2698
▁ebe	-2699
▁düşük	-2700
suz	-2701
▁Az	-2702
▁amb	-2703
▁vaz	-2704
▁çoğu	-2705
▁Alb	-2706
▁şans	-2707
▁tahmi	-2708
AK	-2709
▁aran	-2710
▁kulüb	-2711
▁vizyo	-2712
▁ıda	-2713
▁Hale	-2714
▁vücu	-2715
▁İb	-2716
▁duygu	-2717
▁işbir	-2718
▁avuş	-2719
▁ment	-2720
▁rdüğü	-2721
▁nlem	-2722
▁hızlı	-2723
▁savcı	-2724
▁syonu	-2725
mat	-2726
▁izm	-2727
▁denil	-2728
▁bey	-2729
▁Yun	-2730
▁nlar	-2731
▁500	-2732
▁aire	-2733
▁Halep	-2734
▁sebep	-2735
▁boyu	-2736
▁asyon	-2737
▁AR	-2738
arak	-2739
▁red	-2740
▁giren	-2741
▁Yunan	-2742
▁erg	-2743
▁ilerl	-2744
▁yani	-2745
▁rejim	-2746
▁evir	-2747
▁fayda	-2748
▁konut	-2749
▁Şehit	-2750
▁rda	-2751
▁İd	-2752
▁eyet	-2753
▁itap	-2754
▁poz	-2755
▁otel	-2756
▁mikta	-2757
▁yazdı	-2758
vu	-2759
▁rail	-2760
▁hakim	-2761
▁23	-2762
▁yerde	-2763
▁öre	-2764
▁tec	-2765
▁ayıcı	-2766
▁çer	-2767
▁başar	-2768
▁eg	-2769
▁tat	-2770
▁defa	-2771
▁27	-2772
▁dum	-2773
▁tirme	-2774
▁çıkış	-2775
▁sk	-2776
▁şk	-2777
▁ilm	-2778
▁ayal	-2779
▁gider	-2780
▁nışma	-2781
▁orada	-2782
▁rakam	-2783
▁ray	-2784
▁biraz	-2785
▁2.	-2786
▁civar	-2787
▁erekl	-2788
▁ımızı	-2789
▁izl	-2790
▁ucu	-2791
▁udi	-2792
▁Kadın	-2793
▁kesim	-2794
▁söylü	-2795
▁Öte	-2796
▁meli	-2797
▁ğu	-2798
▁gaz	-2799
▁ruh	-2800
▁ahat	-2801
▁meyi	-2802
▁ayata	-2803
▁uyu	-2804
▁num	-2805
▁rin	-2806
▁cami	-2807
▁Eylül	-2808
▁zer	-2809
▁ağrı	-2810
▁olup	-2811
▁başvu	-2812
▁ain	-2813
▁geçiş	-2814
▁eydan	-2815
▁nünde	-2816
▁Ekim	-2817
▁şman	-2818
▁angın	-2819
▁sol	-2820
▁letme	-2821
▁yarar	-2822
▁paş	-2823
▁dışı	-2824
▁sefer	-2825
▁umsuz	-2826
▁ho	-2827
▁resel	-2828
▁ideo	-2829
▁iklik	-2830
▁Ev	-2831
▁öp	-2832
▁adi	-2833
▁emo	-2834
▁tuğ	-2835
▁Yani	-2836
▁pera	-2837
▁önüne	-2838
▁amm	-2839
▁dam	-2840
▁Hüs	-2841
▁ünive	-2842
▁üslüm	-2843
▁Tüm	-2844
▁azılı	-2845
▁dire	-2846
▁cel	-2847
▁ces	-2848
▁rid	-2849
▁ölü	-2850
▁asa	-2851
▁usul	-2852
▁şağı	-2853
OR	-2854
os	-2855
▁inem	-2856
▁macı	-2857
▁içe	-2858
▁geril	-2859
▁görül	-2860
▁ite	-2861
▁ağım	-2862
▁kıy	-2863
▁ılan	-2864
▁mamız	-2865
▁oyu	-2866
▁vak	-2867
▁ğe	-2868
▁imize	-2869
▁ollan	-2870
▁kri	-2871
▁abaka	-2872
▁Hazi	-2873
▁amen	-2874
▁erak	-2875
▁Ri	-2876
▁inç	-2877
▁düştü	-2878
▁taşıy	-2879
▁yenil	-2880
▁mit	-2881
▁eçen	-2882
▁paşa	-2883
▁cut	-2884
▁ete	-2885
▁gın	-2886
▁tip	-2887
▁bizi	-2888
▁gil	-2889
▁abri	-2890
▁limat	-2891
▁ımı	-2892
▁cılar	-2893
▁elind	-2894
▁vesi	-2895
▁ig	-2896
▁isyon	-2897
▁cıl	-2898
▁irk	-2899
▁kuş	-2900
▁rede	-2901
▁ihaz	-2902
▁irli	-2903
▁yolu	-2904
▁manın	-2905
▁Van	-2906
▁ayak	-2907
▁lkan	-2908
▁savun	-2909
▁neler	-2910
▁not	-2911
çı	-2912
▁Onlar	-2913
▁saye	-2914
▁oru	-2915
▁rez	-2916
▁iriz	-2917
▁yabil	-2918
▁avet	-2919
▁fe	-2920
▁enim	-2921
▁elen	-2922
▁ünler	-2923
▁Sel	-2924
▁eser	-2925
▁rubu	-2926
▁eknik	-2927
▁nur	-2928
▁zik	-2929
▁dbir	-2930
▁dağı	-2931
▁istik	-2932
gü	-2933
▁elki	-2934
▁fik	-2935
▁ldu	-2936
▁rgan	-2937
▁yere	-2938
▁olmay	-2939
▁liğe	-2940
▁3.	-2941
▁ğünü	-2942
▁diyen	-2943
DE	-2944
▁ynı	-2945
▁lans	-2946
▁ngin	-2947
▁üt	-2948
▁ordu	-2949
▁ünkü	-2950
▁anlay	-2951
▁çerçe	-2952
▁evre	-2953
▁BM	-2954
▁akar	-2955
▁kere	-2956
▁kalma	-2957
▁eyn	-2958
▁mre	-2959
▁alde	-2960
▁aygı	-2961
▁raba	-2962
▁TÜ	-2963
▁ümüz	-2964
▁syond	-2965
▁üş	-2966
▁emi	-2967
LA	-2968
▁TV	-2969
▁meş	-2970
▁anet	-2971
▁uşlar	-2972
▁Mes	-2973
▁Batı	-2974
▁arbe	-2975
▁atsız	-2976
dem	-2977
▁edel	-2978
▁pları	-2979
▁cılık	-2980
▁demek	-2981
▁evine	-2982
▁ag	-2983
▁algı	-2984
▁26	-2985
▁avu	-2986
▁etkis	-2987
▁diş	-2988
▁ıllı	-2989
▁ie	-2990
▁imk	-2991
▁asla	-2992
▁beri	-2993
▁hata	-2994
HA	-2995
▁verme	-2996
▁yazar	-2997
▁kla	-2998
▁arca	-2999
▁atik	-3000
▁ğum	-3001
▁erim	-3002
▁oğan	-3003
MA	-3004
▁Doğu	-3005
▁riz	-3006
▁üren	-3007
▁29	-3008
▁asan	-3009
▁içi	-3010
▁ğus	-3011
▁bara	-3012
▁vit	-3013
▁etçi	-3014
▁pp	-3015
▁gez	-3016
▁apımı	-3017
▁anım	-3018
▁alel	-3019
▁mızda	-3020
▁LAR	-3021
▁lmaz	-3022
▁zorla	-3023
▁sh	-3024
▁ven	-3025
▁üzü	-3026
▁ysa	-3027
▁içer	-3028
▁okak	-3029
▁hay	-3030
▁raman	-3031
İN	-3032
▁zman	-3033
▁radan	-3034
▁zı	-3035
▁işim	-3036
bar	-3037
ceğ	-3038
▁Av	-3039
▁eter	-3040
▁dayan	-3041
▁zaten	-3042
▁Kır	-3043
▁şık	-3044
▁osya	-3045
LE	-3046
▁sti	-3047
▁madd	-3048
▁zya	-3049
▁anti	-3050
▁eran	-3051
▁tri	-3052
▁ıt	-3053
▁alis	-3054
▁enge	-3055
▁ktörü	-3056
▁oruma	-3057
▁mun	-3058
▁nsel	-3059
▁üney	-3060
▁ortal	-3061
▁amu	-3062
▁enek	-3063
▁altın	-3064
▁müs	-3065
▁Kim	-3066
▁mamış	-3067
▁ow	-3068
▁ükl	-3069
▁çesi	-3070
▁Se	-3071
▁mir	-3072
▁atış	-3073
▁eyec	-3074
▁dal	-3075
▁ekme	-3076
▁No	-3077
▁kadem	-3078
▁old	-3079
▁şif	-3080
▁raya	-3081
▁Dk	-3082
▁kem	-3083
▁Bey	-3084
▁bes	-3085
▁blo	-3086
▁are	-3087
▁unuz	-3088
PG	-3089
men	-3090
▁eci	-3091
▁duk	-3092
▁vic	-3093
▁akan	-3094
▁mada	-3095
▁35	-3096
▁sik	-3097
▁masa	-3098
▁mbu	-3099
▁ram	-3100
▁kana	-3101
▁ağlar	-3102
▁Per	-3103
▁yapma	-3104
▁2-	-3105
▁rer	-3106
▁esle	-3107
▁unul	-3108
▁gül	-3109
▁ört	-3110
▁tesi	-3111
▁uyarı	-3112
▁ii	-3113
▁halk	-3114
▁izli	-3115
tır	-3116
▁ayn	-3117
▁tla	-3118
▁enar	-3119
▁TB	-3120
▁açtı	-3121
▁ksiyo	-3122
▁enc	-3123
▁rad	-3124
▁tçe	-3125
▁buldu	-3126
SK	-3127
DI	-3128
▁adığı	-3129
▁birim	-3130
▁kit	-3131
▁nca	-3132
▁erte	-3133
▁aşama	-3134
▁Dur	-3135
▁nal	-3136
▁EFA	-3137
▁alma	-3138
▁atla	-3139
▁iraz	-3140
▁diler	-3141
▁La	-3142
▁iver	-3143
tal	-3144
▁rap	-3145
▁tim	-3146
▁derin	-3147
▁ahs	-3148
▁enme	-3149
▁abir	-3150
▁aris	-3151
▁inay	-3152
▁uyar	-3153
▁dılar	-3154
▁ast	-3155
▁rıcı	-3156
▁uvar	-3157
▁hu	-3158
▁pla	-3159
▁kinci	-3160
▁rerek	-3161
▁olun	-3162
▁ayrak	-3163
▁biti	-3164
▁ücad	-3165
▁rhan	-3166
▁oynan	-3167
▁nşa	-3168
▁bozu	-3169
▁indi	-3170
▁nizi	-3171
MM	-3172
▁renk	-3173
▁nuz	-3174
▁alka	-3175
▁mayın	-3176
▁esn	-3177
▁ngö	-3178
▁yon	-3179
▁ayan	-3180
▁aşır	-3181
▁itti	-3182
ck	-3183
▁kâ	-3184
▁yin	-3185
▁asar	-3186
▁ülen	-3187
▁ble	-3188
▁aldır	-3189
.,	-3190
▁Vo	-3191
▁ork	-3192
po	-3193
▁31	-3194
▁yeme	-3195
▁nite	-3196
▁rıda	-3197
▁ulan	-3198
▁tiren	-3199
▁Kal	-3200
▁kah	-3201
▁por	-3202
▁klan	-3203
TI	-3204
▁zir	-3205
şik	-3206
▁eçil	-3207
▁mize	-3208
▁kiz	-3209
▁İsm	-3210
▁kler	-3211
▁ğişik	-3212
▁aksi	-3213
▁ksik	-3214
▁onya	-3215
▁suna	-3216
▁tr	-3217
▁tiv	-3218
▁edin	-3219
▁ınar	-3220
▁YA	-3221
▁Kaz	-3222
▁Fa	-3223
▁Sü	-3224
▁şi	-3225
▁dinle	-3226
▁uru	-3227
▁atın	-3228
▁ağan	-3229
▁iğ	-3230
▁raç	-3231
▁ebek	-3232
▁ane	-3233
▁ezi	-3234
▁eğe	-3235
▁zay	-3236
▁CE	-3237
▁Tu	-3238
▁aket	-3239
▁YE	-3240
▁üyle	-3241
▁eride	-3242
▁inc	-3243
▁Na	-3244
▁kuz	-3245
▁tro	-3246
çes	-3247
▁ilçes	-3248
▁riler	-3249
▁pas	-3250
▁esti	-3251
▁onse	-3252
▁Mİ	-3253
▁iyer	-3254
▁süred	-3255
▁Mo	-3256
▁ikr	-3257
▁inanı	-3258
▁ms	-3259
▁YPG	-3260
▁kıl	-3261
▁ısı	-3262
▁akır	-3263
▁dolu	-3264
▁irse	-3265
▁ulüb	-3266
▁erel	-3267
▁mutl	-3268
▁ergil	-3269
▁ımıza	-3270
▁nay	-3271
▁ğur	-3272
▁ahil	-3273
▁ST	-3274
▁uns	-3275
▁lanı	-3276
▁park	-3277
▁arma	-3278
▁ltın	-3279
▁Sur	-3280
▁sad	-3281
▁test	-3282
▁liğin	-3283
▁stekl	-3284
▁ker	-3285
▁neye	-3286
▁özler	-3287
▁uc	-3288
▁yim	-3289
▁İlçe	-3290
▁çey	-3291
▁llah	-3292
▁layın	-3293
▁nabil	-3294
▁Sam	-3295
lak	-3296
▁xx	-3297
▁lis	-3298
▁ncü	-3299
▁iptal	-3300
▁nmesi	-3301
▁Cen	-3302
▁Aile	-3303
▁meme	-3304
▁Te	-3305
▁receğ	-3306
▁zem	-3307
▁dası	-3308
▁lıdır	-3309
▁patla	-3310
▁atar	-3311
▁grub	-3312
▁nil	-3313
▁arar	-3314
▁nes	-3315
▁aşlat	-3316
▁yazıl	-3317
▁devre	-3318
▁lıkla	-3319
▁TBMM	-3320
▁eğer	-3321
▁ımcı	-3322
▁bayra	-3323
▁kızı	-3324
▁ütün	-3325
▁fla	-3326
▁uran	-3327
▁klı	-3328
▁usu	-3329
▁Kaza	-3330
▁ursa	-3331
▁çuk	-3332
▁kurma	-3333
▁kte	-3334
▁enen	-3335
▁Sev	-3336
▁eji	-3337
▁üze	-3338
▁nf	-3339
▁Kar	-3340
▁aynak	-3341
▁cilik	-3342
▁gitme	-3343
▁lardı	-3344
▁tılan	-3345
ana	-3346
▁Di	-3347
▁Ham	-3348
▁sta	-3349
▁ıları	-3350
▁nır	-3351
▁erbi	-3352
▁zam	-3353
▁makta	-3354
▁onser	-3355
▁ins	-3356
▁rın	-3357
▁sunu	-3358
▁ırt	-3359
▁arek	-3360
▁Saray	-3361
▁atif	-3362
▁akış	-3363
▁gili	-3364
▁reye	-3365
▁ster	-3366
▁nit	-3367
▁St	-3368
▁lak	-3369
▁niy	-3370
▁onuna	-3371
▁enk	-3372
▁alkın	-3373
▁ndiği	-3374
▁Ba	-3375
▁LER	-3376
▁lası	-3377
▁ub	-3378
▁rit	-3379
▁ime	-3380
▁palı	-3381
▁şeyi	-3382
TA	-3383
▁60	-3384
▁prü	-3385
▁ilah	-3386
▁ğiniz	-3387
▁1-	-3388
▁ücre	-3389
▁htar	-3390
▁zlem	-3391
▁eller	-3392
isi	-3393
▁bal	-3394
▁kus	-3395
▁mda	-3396
▁akala	-3397
▁yed	-3398
▁emen	-3399
▁Wa	-3400
▁Bil	-3401
▁upa	-3402
▁eo	-3403
▁ham	-3404
▁ksel	-3405
▁necek	-3406
▁parla	-3407
▁nö	-3408
▁arş	-3409
▁ldi	-3410
▁alb	-3411
▁vaş	-3412
▁yıla	-3413
▁üstü	-3414
▁ila	-3415
▁roje	-3416
▁ind	-3417
▁kum	-3418
Dİ	-3419
▁Mad	-3420
▁gin	-3421
▁rmiş	-3422
▁şıyor	-3423
▁ER	-3424
▁Yo	-3425
▁ff	-3426
▁Sal	-3427
▁ende	-3428
▁apa	-3429
▁urumu	-3430
▁taz	-3431
▁bölü	-3432
▁eker	-3433
▁ekle	-3434
▁este	-3435
▁diğim	-3436
ch	-3437
▁aze	-3438
▁şul	-3439
▁no	-3440
▁imli	-3441
▁fak	-3442
▁rir	-3443
▁zun	-3444
▁gere	-3445
▁veri	-3446
▁lmadı	-3447
▁rıy	-3448
▁narak	-3449
▁sas	-3450
▁tli	-3451
▁ğle	-3452
▁lev	-3453
▁yerek	-3454
▁fon	-3455
▁ore	-3456
▁teş	-3457
▁ğaz	-3458
▁3-	-3459
▁iP	-3460
▁evgi	-3461
▁unca	-3462
▁nüf	-3463
▁ayıl	-3464
▁etro	-3465
▁obil	-3466
▁Oto	-3467
▁key	-3468
▁evind	-3469
DA	-3470
▁45	-3471
▁ldü	-3472
▁mina	-3473
▁dırdı	-3474
▁rebil	-3475
▁nlü	-3476
▁sna	-3477
▁vali	-3478
▁ğınız	-3479
▁200	-3480
▁alya	-3481
▁ırlat	-3482
▁Cem	-3483
▁%	-3484
▁mur	-3485
▁ortad	-3486
▁Pol	-3487
▁ali	-3488
▁nam	-3489
▁amet	-3490
▁asi	-3491
▁ekten	-3492
▁günde	-3493
▁nla	-3494
▁nter	-3495
▁tiri	-3496
▁nerji	-3497
▁Ed	-3498
▁rö	-3499
▁eve	-3500
yi	-3501
▁akin	-3502
▁arab	-3503
▁arla	-3504
▁işti	-3505
▁Tan	-3506
▁abah	-3507
▁inal	-3508
▁lisi	-3509
▁imha	-3510
▁ünden	-3511
▁tırdı	-3512
mo	-3513
▁imler	-3514
DY	-3515
▁ters	-3516
▁larca	-3517
▁ulübü	-3518
oke	-3519
▁ızla	-3520
▁şkil	-3521
▁cak	-3522
▁cev	-3523
▁ahte	-3524
▁irliğ	-3525
▁iza	-3526
▁ğır	-3527
▁irket	-3528
▁lilik	-3529
ari	-3530
▁Tı	-3531
▁dey	-3532
▁ikle	-3533
▁çıkl	-3534
▁ılar	-3535
▁Tak	-3536
▁ace	-3537
▁arz	-3538
▁urd	-3539
▁geçer	-3540
İR	-3541
▁yg	-3542
▁iller	-3543
▁Ol	-3544
▁go	-3545
LI	-3546
▁inen	-3547
▁mekan	-3548
▁mbe	-3549
▁nlu	-3550
▁adli	-3551
▁mıza	-3552
SA	-3553
▁şır	-3554
▁argı	-3555
▁azır	-3556
▁zılı	-3557
▁liyor	-3558
İK	-3559
▁ruk	-3560
▁alga	-3561
▁ihbar	-3562
▁TE	-3563
▁giz	-3564
▁tlı	-3565
▁aske	-3566
▁eşin	-3567
▁eşit	-3568
▁şo	-3569
▁YOR	-3570
▁koş	-3571
▁nne	-3572
▁lamak	-3573
▁urlar	-3574
ele	-3575
▁New	-3576
▁önle	-3577
▁lad	-3578
▁rip	-3579
▁Başb	-3580
▁katı	-3581
▁rp	-3582
▁soka	-3583
▁masın	-3584
▁İyi	-3585
▁akka	-3586
▁rüyor	-3587
▁ry	-3588
▁asit	-3589
▁sya	-3590
▁önde	-3591
▁üçük	-3592
af	-3593
▁PDY	-3594
▁ond	-3595
▁leyen	-3596
▁AY	-3597
▁rtık	-3598
▁iyeti	-3599
▁rtesi	-3600
▁Ci	-3601
▁ızıl	-3602
▁ild	-3603
▁deta	-3604
▁site	-3605
oku	-3606
▁beş	-3607
▁gun	-3608
▁uklu	-3609
▁ens	-3610
▁evde	-3611
▁nitel	-3612
Kİ	-3613
▁rif	-3614
▁arik	-3615
▁kare	-3616
▁ınma	-3617
▁Q	-3618
▁arp	-3619
▁ersin	-3620
▁tarıl	-3621
▁arm	-3622
▁kut	-3623
▁sma	-3624
▁beyaz	-3625
Bİ	-3626
üsü	-3627
▁cüsü	-3628
▁ekil	-3629
▁olda	-3630
▁yici	-3631
▁öprü	-3632
▁fı	-3633
▁orun	-3634
▁tilen	-3635
▁Br	-3636
▁Ok	-3637
▁io	-3638
▁cep	-3639
ME	-3640
▁orsa	-3641
▁niyet	-3642
▁&	-3643
ster	-3644
▁dül	-3645
▁lım	-3646
▁anmış	-3647
▁avaşı	-3648
▁EN	-3649
▁rcu	-3650
▁rgi	-3651
▁saya	-3652
▁bol	-3653
▁fai	-3654
▁rag	-3655
▁irad	-3656
▁kırı	-3657
▁öster	-3658
▁Si	-3659
▁ltu	-3660
▁rar	-3661
▁ista	-3662
▁sebeb	-3663
,5	-3664
▁AN	-3665
▁ano	-3666
▁rup	-3667
▁4.	-3668
▁Ta	-3669
▁aks	-3670
▁ağla	-3671
▁avan	-3672
▁ayda	-3673
▁SI	-3674
▁zalt	-3675
▁netim	-3676
▁abii	-3677
▁lidir	-3678
▁inli	-3679
▁umhu	-3680
▁dahi	-3681
▁icar	-3682
▁300	-3683
▁Tıp	-3684
▁yapar	-3685
Sİ	-3686
tur	-3687
▁ate	-3688
▁dip	-3689
▁lom	-3690
▁ıma	-3691
▁32	-3692
▁ekr	-3693
▁iPh	-3694
▁iği	-3695
▁unc	-3696
▁faz	-3697
▁fır	-3698
▁ayat	-3699
raf	-3700
▁gay	-3701
▁emiyo	-3702
lâ	-3703
▁Eş	-3704
▁Gel	-3705
▁cum	-3706
▁oşa	-3707
▁yara	-3708
▁şeker	-3709
▁katl	-3710
▁msil	-3711
▁Yak	-3712
▁nlara	-3713
▁kab	-3714
▁lent	-3715
▁aylar	-3716
▁sat	-3717
▁atır	-3718
▁aspor	-3719
▁ua	-3720
▁ili	-3721
▁niş	-3722
▁zet	-3723
▁uştur	-3724
▁34	-3725
▁Erd	-3726
▁dav	-3727
▁unlu	-3728
▁sayıl	-3729
▁steri	-3730
▁uh	-3731
▁tren	-3732
▁racın	-3733
▁örevi	-3734
▁36	-3735
▁mat	-3736
▁yas	-3737
▁arih	-3738
▁nama	-3739
▁tmak	-3740
ğün	-3741
▁dönü	-3742
▁rika	-3743
▁doğan	-3744
Tİ	-3745
▁ron	-3746
▁rse	-3747
▁aral	-3748
▁kova	-3749
▁muha	-3750
▁işte	-3751
▁rası	-3752
▁tand	-3753
▁çu	-3754
▁ıb	-3755
▁şv	-3756
▁ağd	-3757
▁mec	-3758
▁sem	-3759
▁Takım	-3760
▁Uy	-3761
▁imam	-3762
▁nına	-3763
▁As	-3764
▁ansı	-3765
▁Ğ	-3766
▁bün	-3767
▁vad	-3768
▁bank	-3769
▁esto	-3770
▁kıya	-3771
▁rduğ	-3772
▁renm	-3773
▁açlar	-3774
▁davra	-3775
▁meyen	-3776
▁rıyor	-3777
▁üstün	-3778
▁ova	-3779
▁urg	-3780
▁enin	-3781
▁ası	-3782
▁ora	-3783
▁adını	-3784
▁nımı	-3785
▁yesi	-3786
▁UR	-3787
▁tad	-3788
▁kırmı	-3789
▁rmesi	-3790
▁î	-3791
▁Üs	-3792
▁ves	-3793
▁Frans	-3794
▁panya	-3795
▁nmiş	-3796
▁meyve	-3797
▁Hem	-3798
▁erse	-3799
▁klam	-3800
▁ırıl	-3801
▁undu	-3802
AH	-3803
▁Sp	-3804
▁aten	-3805
▁X	-3806
▁pe	-3807
▁bebe	-3808
▁tadı	-3809
▁topra	-3810
▁dun	-3811
▁ksa	-3812
▁nüz	-3813
▁aşlı	-3814
▁ddia	-3815
▁jan	-3816
▁rmeye	-3817
▁venli	-3818
▁ck	-3819
▁nluğ	-3820
▁Co	-3821
▁iyo	-3822
▁kalı	-3823
▁nızı	-3824
▁tura	-3825
▁esele	-3826
▁fikir	-3827
▁Diy	-3828
▁irer	-3829
▁tuğu	-3830
▁edefi	-3831
▁racak	-3832
▁KP	-3833
▁oh	-3834
▁dalı	-3835
▁form	-3836
▁rtal	-3837
▁ılın	-3838
▁eleri	-3839
▁inizi	-3840
▁oo	-3841
▁Sağ	-3842
▁ngel	-3843
ON	-3844
▁Tekn	-3845
▁inali	-3846
▁anu	-3847
▁eyi	-3848
▁him	-3849
▁kas	-3850
▁alen	-3851
▁anta	-3852
▁AA	-3853
▁og	-3854
▁bat	-3855
▁izley	-3856
▁Kü	-3857
▁Bah	-3858
▁ank	-3859
▁lac	-3860
▁amam	-3861
▁bar	-3862
▁maka	-3863
▁isy	-3864
▁mde	-3865
▁ılır	-3866
▁mekte	-3867
▁nilen	-3868
▁ulduğ	-3869
▁zu	-3870
▁ori	-3871
▁deme	-3872
▁nv	-3873
▁Bul	-3874
▁heli	-3875
▁gerçe	-3876
▁kenti	-3877
▁NA	-3878
▁araf	-3879
▁nede	-3880
▁aden	-3881
▁arkı	-3882
▁zin	-3883
▁prot	-3884
▁asal	-3885
▁Has	-3886
▁che	-3887
▁oya	-3888
▁büs	-3889
▁ice	-3890
▁dinl	-3891
▁duğum	-3892
▁rj	-3893
▁val	-3894
▁line	-3895
▁rici	-3896
▁uluş	-3897
▁çözü	-3898
▁ıkış	-3899
▁NI	-3900
▁Sen	-3901
▁pol	-3902
▁ekir	-3903
▁mekt	-3904
▁ydın	-3905
▁erlik	-3906
▁afe	-3907
▁rur	-3908
▁ızı	-3909
▁daya	-3910
▁ikli	-3911
▁reği	-3912
▁Konu	-3913
▁enet	-3914
▁uyan	-3915
▁zgür	-3916
▁endis	-3917
▁ence	-3918
▁Sİ	-3919
▁karı	-3920
▁tanım	-3921
▁pa	-3922
▁isa	-3923
iğ	-3924
▁keş	-3925
▁canl	-3926
▁deri	-3927
▁maçın	-3928
▁tılar	-3929
▁At	-3930
▁emb	-3931
▁uro	-3932
▁rıyla	-3933
▁uyum	-3934
▁dığım	-3935
▁erler	-3936
▁ft	-3937
▁Siz	-3938
▁aga	-3939
▁ica	-3940
▁mara	-3941
▁öyley	-3942
▁70	-3943
▁mutan	-3944
▁antr	-3945
▁tbol	-3946
▁andal	-3947
▁elene	-3948
▁lları	-3949
▁TO	-3950
▁pü	-3951
▁ihan	-3952
▁amile	-3953
▁tıldı	-3954
▁sus	-3955
▁ısa	-3956
▁33	-3957
▁90	-3958
▁bis	-3959
▁ilya	-3960
▁tarz	-3961
▁riyle	-3962
▁Aç	-3963
▁ıç	-3964
▁eda	-3965
▁Kurul	-3966
▁rdığı	-3967
▁MHP	-3968
▁rom	-3969
▁urk	-3970
▁ücu	-3971
▁beli	-3972
▁yata	-3973
▁zen	-3974
▁rmay	-3975
SY	-3976
▁LE	-3977
▁mr	-3978
▁vir	-3979
▁siye	-3980
▁apısı	-3981
▁düze	-3982
▁ente	-3983
▁kült	-3984
▁lise	-3985
▁tank	-3986
▁elesi	-3987
▁vo	-3988
▁nci	-3989
▁iri	-3990
▁kçı	-3991
▁rus	-3992
▁çiş	-3993
▁akımı	-3994
▁avran	-3995
▁zleri	-3996
▁ud	-3997
▁ayb	-3998
▁lup	-3999
▁risi	-4000
▁ettik	-4001
▁rtada	-4002
▁rz	-4003
▁misi	-4004
▁stan	-4005
▁tern	-4006
▁ister	-4007
▁liliğ	-4008
▁aza	-4009
▁ill	-4010
▁lme	-4011
▁doku	-4012
▁kimi	-4013
▁ug	-4014
▁sim	-4015
▁ıy	-4016
▁Bin	-4017
▁Ken	-4018
▁uku	-4019
▁akıl	-4020
▁eriş	-4021
▁sani	-4022
▁sizi	-4023
▁urun	-4024
▁ty	-4025
▁erdi	-4026
▁işin	-4027
▁ebebi	-4028
▁AV	-4029
▁nst	-4030
▁maaş	-4031
▁ncel	-4032
▁onum	-4033
▁Pe	-4034
▁NAT	-4035
▁amp	-4036
▁yad	-4037
▁ngı	-4038
▁uğu	-4039
▁aşar	-4040
▁imde	-4041
▁azırl	-4042
▁ahar	-4043
▁amış	-4044
▁ekin	-4045
▁mini	-4046
▁elli	-4047
▁rand	-4048
▁Yu	-4049
▁avi	-4050
▁çin	-4051
▁ales	-4052
▁etiş	-4053
▁anç	-4054
▁hir	-4055
▁vize	-4056
▁ören	-4057
▁dırma	-4058
▁80	-4059
▁ink	-4060
▁lum	-4061
▁mse	-4062
▁ıza	-4063
▁NATO	-4064
▁ahve	-4065
▁arsa	-4066
▁Kom	-4067
▁ett	-4068
▁şun	-4069
▁benz	-4070
▁çalı	-4071
▁HP	-4072
▁anca	-4073
▁üzel	-4074
▁ilmiş	-4075
▁rmaya	-4076
▁lc	-4077
▁hisse	-4078
▁ME	-4079
▁tuz	-4080
▁uşa	-4081
▁Şim	-4082
▁tılı	-4083
▁ou	-4084
▁tme	-4085
▁etmey	-4086
▁sub	-4087
▁allar	-4088
İH	-4089
▁bur	-4090
▁ikaye	-4091
▁Fi	-4092
▁aşk	-4093
▁ene	-4094
▁ima	-4095
▁âlâ	-4096
▁üny	-4097
▁ğla	-4098
▁laka	-4099
▁arttı	-4100
▁oynay	-4101
▁izde	-4102
▁mezun	-4103
▁SK	-4104
▁mb	-4105
▁liz	-4106
▁erat	-4107
▁uçlar	-4108
▁üsü	-4109
▁elam	-4110
▁nder	-4111
ciz	-4112
▁oma	-4113
▁ukuk	-4114
▁şkan	-4115
▁idare	-4116
▁kme	-4117
▁tez	-4118
▁alat	-4119
UR	-4120
▁75	-4121
▁utu	-4122
▁alır	-4123
▁utlu	-4124
det	-4125
▁ea	-4126
▁İç	-4127
▁nluk	-4128
▁üphe	-4129
▁uncu	-4130
▁oğraf	-4131
▁TH	-4132
▁anıt	-4133
▁ağış	-4134
▁rama	-4135
▁yoğu	-4136
▁arıda	-4137
▁lekt	-4138
▁seyi	-4139
▁çeki	-4140
▁kel	-4141
▁rib	-4142
▁kork	-4143
▁rmen	-4144
▁varl	-4145
▁oyunu	-4146
▁Pa	-4147
▁ved	-4148
▁iyan	-4149
▁rada	-4150
▁ift	-4151
▁kası	-4152
▁def	-4153
▁ero	-4154
▁ehir	-4155
▁ürek	-4156
▁ştır	-4157
▁gor	-4158
▁müh	-4159
▁Kadı	-4160
▁klık	-4161
▁rlar	-4162
▁zih	-4163
▁apta	-4164
▁rolü	-4165
▁lınan	-4166
▁LI	-4167
▁üf	-4168
▁diz	-4169
▁manda	-4170
▁urucu	-4171
▁Lu	-4172
▁phe	-4173
▁ırk	-4174
▁rülme	-4175
RA	-4176
qu	-4177
▁Tur	-4178
▁ilin	-4179
▁meni	-4180
▁bb	-4181
▁CEO	-4182
▁duyu	-4183
şi	-4184
▁öv	-4185
▁epe	-4186
▁lga	-4187
▁ayar	-4188
▁ördü	-4189
Gİ	-4190
▁kçe	-4191
▁yip	-4192
▁neli	-4193
▁65	-4194
▁kun	-4195
▁Qu	-4196
▁hn	-4197
▁je	-4198
▁afta	-4199
▁Be	-4200
▁IR	-4201
▁ino	-4202
▁ydu	-4203
▁imin	-4204
▁ızlar	-4205
▁lus	-4206
▁nus	-4207
▁rel	-4208
▁rız	-4209
▁eşme	-4210
▁urta	-4211
▁Cam	-4212
▁çın	-4213
▁emek	-4214
▁üldü	-4215
▁ynadı	-4216
▁Dil	-4217
▁ışla	-4218
go	-4219
▁uf	-4220
▁iko	-4221
▁kemi	-4222
▁ırsa	-4223
TE	-4224
▁ai	-4225
▁all	-4226
▁ipl	-4227
▁tün	-4228
▁grubu	-4229
DK	-4230
hi	-4231
ina	-4232
▁kont	-4233
▁rafı	-4234
▁netic	-4235
▁irişi	-4236
▁çiler	-4237
▁5.	-4238
▁KO	-4239
▁Me	-4240
▁THY	-4241
▁şof	-4242
▁aydı	-4243
▁netl	-4244
▁çatı	-4245
▁imkan	-4246
▁akim	-4247
▁rf	-4248
▁aru	-4249
▁eçme	-4250
▁olar	-4251
▁evlen	-4252
▁sergi	-4253
▁rc	-4254
▁Tem	-4255
▁aman	-4256
▁esir	-4257
▁inir	-4258
▁müzi	-4259
▁usta	-4260
▁maruz	-4261
▁ırlar	-4262
▁luş	-4263
▁götür	-4264
▁izden	-4265
oz	-4266
▁nis	-4267
▁nso	-4268
▁rosu	-4269
▁tlama	-4270
▁th	-4271
▁Ant	-4272
▁evl	-4273
▁lgi	-4274
▁çıl	-4275
▁atlar	-4276
▁The	-4277
▁sed	-4278
▁ket	-4279
▁Ge	-4280
▁ancı	-4281
▁devr	-4282
▁izyon	-4283
▁turdu	-4284
▁ilg	-4285
▁latan	-4286
▁yecek	-4287
▁+	-4288
▁ON	-4289
▁rg	-4290
▁Dir	-4291
▁akta	-4292
▁beya	-4293
▁Dİ	-4294
▁KA	-4295
▁edek	-4296
▁lok	-4297
▁arıl	-4298
▁neme	-4299
YA	-4300
▁gec	-4301
▁uma	-4302
▁veda	-4303
▁sc	-4304
▁emiş	-4305
▁itle	-4306
▁Bahçe	-4307
▁erisi	-4308
▁Ker	-4309
▁ilt	-4310
▁oks	-4311
▁taba	-4312
▁emeye	-4313
▁lerdi	-4314
GK	-4315
▁örü	-4316
▁tına	-4317
▁adamı	-4318
▁laştı	-4319
▁yoktu	-4320
▁Art	-4321
▁utl	-4322
▁Açık	-4323
▁Real	-4324
▁ikas	-4325
▁nmak	-4326
▁sıkı	-4327
▁ulmuş	-4328
▁ahv	-4329
▁raz	-4330
▁Beni	-4331
▁dini	-4332
▁luşu	-4333
▁ındı	-4334
▁nşaat	-4335
kin	-4336
▁amle	-4337
▁anış	-4338
▁ilke	-4339
▁zden	-4340
▁yn	-4341
▁rıs	-4342
▁ski	-4343
▁vcı	-4344
▁ığa	-4345
▁akem	-4346
▁ural	-4347
▁hü	-4348
▁lh	-4349
▁anıl	-4350
▁layla	-4351
▁*	-4352
▁au	-4353
▁lur	-4354
▁vas	-4355
▁ygı	-4356
▁azar	-4357
▁irim	-4358
▁arayı	-4359
▁eklen	-4360
▁400	-4361
▁cer	-4362
▁dli	-4363
▁resi	-4364
▁aldık	-4365
▁cek	-4366
▁rba	-4367
▁abu	-4368
▁eza	-4369
▁orgu	-4370
▁des	-4371
▁nım	-4372
▁ğun	-4373
▁adem	-4374
▁apor	-4375
▁sanı	-4376
▁tiya	-4377
▁6.	-4378
▁nb	-4379
▁Bab	-4380
▁ava	-4381
▁tema	-4382
▁üler	-4383
▁ruyor	-4384
▁rının	-4385
▁BA	-4386
▁şer	-4387
▁eçim	-4388
▁kapı	-4389
▁MA	-4390
▁aplar	-4391
▁LA	-4392
▁ÖZ	-4393
▁rük	-4394
▁akam	-4395
▁emin	-4396
▁urgu	-4397
▁yeri	-4398
▁rafik	-4399
mu	-4400
▁150	-4401
▁kov	-4402
▁str	-4403
▁özü	-4404
▁eyim	-4405
▁üküm	-4406
▁ümle	-4407
▁düğün	-4408
SO	-4409
▁ksi	-4410
▁nir	-4411
▁urs	-4412
▁şıl	-4413
▁arlı	-4414
▁icra	-4415
▁niye	-4416
▁ıdan	-4417
▁karak	-4418
▁ğının	-4419
LU	-4420
▁Ara	-4421
▁ion	-4422
▁akal	-4423
▁port	-4424
▁rakt	-4425
▁stik	-4426
▁idari	-4427
▁Ala	-4428
▁arıs	-4429
▁ilit	-4430
▁kons	-4431
▁tler	-4432
▁laf	-4433
▁Bank	-4434
▁tres	-4435
▁yebil	-4436
▁arf	-4437
▁miye	-4438
▁rahi	-4439
▁gan	-4440
▁mon	-4441
▁osu	-4442
▁ütü	-4443
▁ğıt	-4444
▁misa	-4445
▁mpiy	-4446
▁zafer	-4447
▁öylem	-4448
▁Ra	-4449
▁Za	-4450
▁üb	-4451
▁Med	-4452
▁ndu	-4453
▁ayım	-4454
▁esin	-4455
▁ırdı	-4456
lum	-4457
▁38	-4458
▁adır	-4459
▁irve	-4460
▁llar	-4461
▁üzen	-4462
▁itika	-4463
▁37	-4464
▁TA	-4465
▁era	-4466
▁rtı	-4467
▁sakla	-4468
▁ergi	-4469
▁tein	-4470
▁lamış	-4471
rik	-4472
▁AT	-4473
▁Ege	-4474
▁ian	-4475
▁tun	-4476
▁bine	-4477
▁ınan	-4478
▁çılar	-4479
▁600	-4480
▁fat	-4481
▁fre	-4482
▁mac	-4483
▁seb	-4484
▁kanlı	-4485
▁lemek	-4486
▁add	-4487
▁ber	-4488
▁iade	-4489
▁ğret	-4490
▁Kurum	-4491
▁lim	-4492
▁bett	-4493
▁tiler	-4494
▁Pi	-4495
▁erab	-4496
▁kaçı	-4497
▁roke	-4498
▁arika	-4499
▁ağlam	-4500
▁orman	-4501
BA	-4502
EN	-4503
▁kuy	-4504
▁aliye	-4505
▁ilesi	-4506
▁liman	-4507
▁luyor	-4508
ARA	-4509
▁api	-4510
▁aye	-4511
▁yma	-4512
▁alil	-4513
▁asın	-4514
▁nadı	-4515
▁nakl	-4516
▁yönel	-4517
▁Tİ	-4518
▁suçl	-4519
▁mekli	-4520
pe	-4521
▁42	-4522
▁Ağ	-4523
▁Lİ	-4524
▁TÜR	-4525
▁dis	-4526
▁alla	-4527
▁neği	-4528
▁stih	-4529
▁tiyor	-4530
DU	-4531
FF	-4532
▁hâ	-4533
▁ave	-4534
▁med	-4535
▁sam	-4536
▁spo	-4537
▁emle	-4538
▁kley	-4539
MS	-4540
▁zg	-4541
▁tuk	-4542
▁imse	-4543
▁kend	-4544
▁boyun	-4545
▁eğil	-4546
▁tama	-4547
▁ekled	-4548
▁irini	-4549
▁hi	-4550
▁ato	-4551
▁tül	-4552
▁arac	-4553
▁hala	-4554
▁Rİ	-4555
▁apl	-4556
▁ida	-4557
▁zel	-4558
▁zgü	-4559
▁zli	-4560
▁kele	-4561
▁orum	-4562
▁otom	-4563
▁tıyor	-4564
ÜK	-4565
▁Kana	-4566
▁emih	-4567
▁nucu	-4568
▁rarak	-4569
▁şları	-4570
▁55	-4571
▁sp	-4572
▁rdo	-4573
▁rla	-4574
▁Yapı	-4575
▁dalar	-4576
▁isler	-4577
▁emem	-4578
▁rkad	-4579
▁şleri	-4580
▁41	-4581
▁üd	-4582
▁Sne	-4583
▁kom	-4584
▁mim	-4585
▁rtış	-4586
od	-4587
rul	-4588
▁yıcı	-4589
▁nüyor	-4590
▁AKP	-4591
▁TFF	-4592
▁hızl	-4593
▁rkek	-4594
▁Kİ	-4595
▁Le	-4596
▁NE	-4597
▁Üç	-4598
▁anki	-4599
▁ekçe	-4600
▁lüks	-4601
▁tabi	-4602
▁ıfır	-4603
▁inler	-4604
rem	-4605
▁44	-4606
▁km	-4607
▁eni	-4608
▁lla	-4609
▁rey	-4610
▁şef	-4611
▁ürme	-4612
ST	-4613
▁"1	-4614
▁öb	-4615
▁arc	-4616
▁akım	-4617
▁idir	-4618
▁ilik	-4619
▁48	-4620
▁Lo	-4621
▁cağı	-4622
▁doğa	-4623
▁ilde	-4624
▁irdi	-4625
▁tazi	-4626
▁turu	-4627
▁zesi	-4628
▁rabil	-4629
▁Yol	-4630
▁ikra	-4631
▁mand	-4632
▁temin	-4633
▁AL	-4634
▁250	-4635
▁ost	-4636
▁akkı	-4637
▁onla	-4638
▁ulma	-4639
▁Kenan	-4640
▁zm	-4641
▁nfe	-4642
▁rlü	-4643
▁atçı	-4644
▁ermi	-4645
▁sker	-4646
▁39	-4647
▁TR	-4648
▁bı	-4649
▁dy	-4650
▁mm	-4651
▁uva	-4652
▁eliş	-4653
▁olduk	-4654
▁Tam	-4655
▁arl	-4656
▁enf	-4657
▁onuç	-4658
▁slar	-4659
▁arita	-4660
▁46	-4661
▁tw	-4662
▁İT	-4663
▁nar	-4664
▁yın	-4665
▁şen	-4666
▁ağın	-4667
▁izni	-4668
▁47	-4669
▁YI	-4670
▁ded	-4671
▁slı	-4672
▁und	-4673
▁uri	-4674
▁ağız	-4675
▁erde	-4676
▁kula	-4677
▁rist	-4678
▁utan	-4679
▁şiir	-4680
▁Yapıl	-4681
▁girme	-4682
HK	-4683
▁İN	-4684
▁DHA	-4685
▁vat	-4686
▁ştı	-4687
▁irti	-4688
▁rafi	-4689
▁eriyo	-4690
▁yları	-4691
▁lb	-4692
▁oğal	-4693
▁rülü	-4694
▁taciz	-4695
▁Kı	-4696
▁çü	-4697
▁lez	-4698
▁eksi	-4699
▁iber	-4700
▁uydu	-4701
▁meşin	-4702
▁çakla	-4703
▁4-	-4704
▁Ke	-4705
▁Vi	-4706
▁qu	-4707
▁112	-4708
▁Kız	-4709
▁erm	-4710
▁ned	-4711
▁gesi	-4712
▁skeri	-4713
▁RA	-4714
▁eke	-4715
▁leti	-4716
▁erine	-4717
▁gelme	-4718
▁oplum	-4719
▁yaşan	-4720
▁53	-4721
▁Yaş	-4722
▁hav	-4723
▁kuv	-4724
▁şiş	-4725
▁saba	-4726
▁ıklı	-4727
▁ımda	-4728
▁arısı	-4729
▁asta	-4730
▁ikna	-4731
▁reti	-4732
▁yalı	-4733
▁ğrul	-4734
▁asına	-4735
GE	-4736
▁43	-4737
▁Ru	-4738
▁Onu	-4739
▁neri	-4740
▁rduğu	-4741
▁TC	-4742
▁ht	-4743
▁ÖN	-4744
▁lit	-4745
▁ntü	-4746
▁teh	-4747
▁vri	-4748
▁esmi	-4749
RE	-4750
▁jd	-4751
▁1.5	-4752
▁amsu	-4753
▁elem	-4754
SS	-4755
▁afi	-4756
▁şkı	-4757
▁şok	-4758
▁nize	-4759
▁Dev	-4760
▁hey	-4761
▁tap	-4762
▁vin	-4763
▁zak	-4764
▁önü	-4765
▁akma	-4766
▁akti	-4767
▁nlaş	-4768
▁aları	-4769
▁aşlay	-4770
▁timiz	-4771
▁yh	-4772
▁iman	-4773
▁omut	-4774
▁kleme	-4775
▁lişki	-4776
ep	-4777
tir	-4778
▁AZ	-4779
▁cen	-4780
▁tle	-4781
▁tıp	-4782
▁abit	-4783
▁dri	-4784
▁lah	-4785
▁amim	-4786
▁sana	-4787
las	-4788
▁AD	-4789
▁Du	-4790
▁ary	-4791
▁fen	-4792
▁mün	-4793
▁zır	-4794
▁ırak	-4795
▁Kol	-4796
▁esl	-4797
▁şak	-4798
▁LARI	-4799
▁ırlı	-4800
▁Ho	-4801
▁1-0	-4802
▁tte	-4803
▁eral	-4804
▁etli	-4805
▁kuvv	-4806
▁◊	-4807
▁Mal	-4808
▁ier	-4809
▁Para	-4810
▁ağıt	-4811
▁redi	-4812
▁alana	-4813
▁mimar	-4814
IR	-4815
OK	-4816
▁orc	-4817
▁pra	-4818
▁elal	-4819
▁ette	-4820
▁mür	-4821
▁syo	-4822
▁lattı	-4823
▁120	-4824
▁kâr	-4825
▁rüz	-4826
▁tey	-4827
▁etik	-4828
▁ndil	-4829
▁beden	-4830
▁sla	-4831
▁arzu	-4832
▁atlı	-4833
▁inme	-4834
▁türü	-4835
▁gizl	-4836
▁kusu	-4837
▁suçu	-4838
▁entin	-4839
▁FI	-4840
▁yel	-4841
▁cell	-4842
▁rucu	-4843
▁Şi	-4844
▁aca	-4845
▁set	-4846
▁ula	-4847
▁erha	-4848
▁ilir	-4849
▁keşf	-4850
▁reme	-4851
▁tisi	-4852
▁ansız	-4853
iro	-4854
▁aram	-4855
▁land	-4856
▁orcu	-4857
▁ınır	-4858
▁lmesi	-4859
▁Ja	-4860
▁adl	-4861
▁rtu	-4862
▁süt	-4863
▁zey	-4864
▁şlı	-4865
▁Altı	-4866
▁KOBİ	-4867
▁apar	-4868
▁ares	-4869
▁edav	-4870
▁eşim	-4871
▁küçü	-4872
▁osun	-4873
▁ly	-4874
▁İL	-4875
▁Doğ	-4876
▁sar	-4877
▁esis	-4878
▁lıkta	-4879
▁tığım	-4880
▁52	-4881
▁72	-4882
▁sko	-4883
▁ABAH	-4884
▁adir	-4885
▁ezon	-4886
▁imar	-4887
▁kod	-4888
▁küf	-4889
▁dird	-4890
▁urma	-4891
▁uştu	-4892
▁BU	-4893
▁edd	-4894
▁sul	-4895
▁usa	-4896
▁eren	-4897
▁rusu	-4898
▁çağr	-4899
▁Et	-4900
eref	-4901
▁idam	-4902
▁inat	-4903
▁lezze	-4904
▁Ni	-4905
▁OR	-4906
▁RI	-4907
land	-4908
▁Oli	-4909
▁TSK	-4910
▁lif	-4911
▁vuş	-4912
▁ğdu	-4913
▁Bayra	-4914
▁oç	-4915
▁ebi	-4916
▁vel	-4917
▁arda	-4918
▁öndü	-4919
▁esine	-4920
▁günün	-4921
hal	-4922
▁7.	-4923
▁81	-4924
▁rm	-4925
▁kçi	-4926
▁our	-4927
▁erce	-4928
▁kala	-4929
▁sesi	-4930
▁izlen	-4931
no	-4932
▁1,	-4933
▁aça	-4934
▁rna	-4935
▁illi	-4936
▁tüne	-4937
▁vakit	-4938
▁Hiç	-4939
▁SGK	-4940
▁aps	-4941
▁dua	-4942
▁ell	-4943
▁ibe	-4944
▁lab	-4945
▁ıyı	-4946
▁arke	-4947
▁esini	-4948
alan	-4949
▁int	-4950
▁psi	-4951
▁sit	-4952
▁açma	-4953
▁esli	-4954
▁işlet	-4955
▁2,	-4956
▁LY	-4957
▁Mer	-4958
▁ayk	-4959
▁tit	-4960
▁ıta	-4961
▁akla	-4962
▁azlı	-4963
▁emir	-4964
▁uçla	-4965
▁dirne	-4966
▁tta	-4967
▁ümü	-4968
▁mart	-4969
▁vaka	-4970
▁ğunu	-4971
▁cular	-4972
▁eviye	-4973
▁leşti	-4974
▁yolla	-4975
▁öm	-4976
▁MİT	-4977
▁San	-4978
▁ksu	-4979
▁rav	-4980
▁sap	-4981
▁rlüğ	-4982
▁örgü	-4983
▁yalar	-4984
▁yoruz	-4985
▁85	-4986
▁lib	-4987
▁mlı	-4988
▁nta	-4989
▁ildir	-4990
▁kültü	-4991
eb	-4992
▁gı	-4993
▁Res	-4994
▁hlı	-4995
▁ola	-4996
▁sün	-4997
▁dele	-4998
▁iden	-4999
▁ille	-5000
▁viye	-5001
▁isyan	-5002
▁mezar	-5003
▁idi	-5004
▁rüt	-5005
▁vek	-5006
▁lüyor	-5007
âh	-5008
▁56	-5009
▁nş	-5010
▁ıd	-5011
▁rga	-5012
▁keti	-5013
▁oruy	-5014
▁astro	-5015
▁ınızı	-5016
▁abır	-5017
▁ktar	-5018
▁ocuğ	-5019
▁zara	-5020
▁By	-5021
▁nm	-5022
▁azan	-5023
▁ikal	-5024
▁mler	-5025
▁pany	-5026
▁CAK	-5027
▁Say	-5028
▁rya	-5029
▁oğru	-5030
▁irekt	-5031
▁VE	-5032
▁ked	-5033
▁iyas	-5034
▁kına	-5035
▁onut	-5036
▁zeri	-5037
▁oplam	-5038
▁ılmış	-5039
En	-5040
ig	-5041
▁Fil	-5042
▁Tar	-5043
▁ayd	-5044
▁ncı	-5045
▁amak	-5046
▁arbo	-5047
▁orlu	-5048
▁rsan	-5049
▁ülme	-5050
▁ınav	-5051
UZ	-5052
▁riş	-5053
▁mden	-5054
▁tlar	-5055
▁ölümü	-5056
UN	-5057
HAL	-5058
▁(2	-5059
▁51	-5060
▁BE	-5061
▁vi	-5062
İHAN	-5063
▁kka	-5064
▁sto	-5065
▁CİHAN	-5066
▁54	-5067
▁OS	-5068
▁ao	-5069
▁TRT	-5070
▁run	-5071
▁vde	-5072
▁vil	-5073
▁etle	-5074
▁üçlü	-5075
▁şeri	-5076
▁kulak	-5077
▁lp	-5078
▁ahm	-5079
▁nat	-5080
▁iyes	-5081
▁arihi	-5082
▁pt	-5083
▁evli	-5084
▁ilal	-5085
▁kaça	-5086
▁kulu	-5087
ver	-5088
▁Fed	-5089
▁Var	-5090
▁aro	-5091
▁leh	-5092
▁anel	-5093
▁hrac	-5094
▁lazı	-5095
▁işini	-5096
▁mavil	-5097
▁hb	-5098
▁alo	-5099
▁efa	-5100
▁ism	-5101
▁lüm	-5102
▁OHAL	-5103
▁ndır	-5104
▁niha	-5105
▁rumu	-5106
GS	-5107
KA	-5108
rar	-5109
▁AP	-5110
▁AS	-5111
▁vı	-5112
▁Ön	-5113
oğlu	-5114
▁apo	-5115
▁bür	-5116
▁saf	-5117
▁çay	-5118
▁emel	-5119
▁elini	-5120
▁roğlu	-5121
▁tehdi	-5122
▁#	-5123
tik	-5124
▁MI	-5125
▁SE	-5126
▁Alt	-5127
▁rke	-5128
▁ekon	-5129
▁DI	-5130
▁EM	-5131
▁SA	-5132
▁Din	-5133
▁akv	-5134
▁arta	-5135
▁Zafer	-5136
▁mikro	-5137
eet	-5138
▁AM	-5139
▁ps	-5140
▁AVM	-5141
▁derdi	-5142
▁vu	-5143
▁Kul	-5144
▁ÖSO	-5145
▁brik	-5146
▁erji	-5147
▁lany	-5148
▁idman	-5149
▁şahit	-5150
▁öy	-5151
▁lon	-5152
▁ruz	-5153
▁pler	-5154
▁tımı	-5155
▁utuk	-5156
▁rılan	-5157
BC	-5158
ko	-5159
▁ej	-5160
ükür	-5161
▁şeb	-5162
▁akvim	-5163
KE	-5164
▁ets	-5165
▁lex	-5166
▁mam	-5167
▁udu	-5168
▁İsta	-5169
▁arrem	-5170
▁49	-5171
▁Gar	-5172
▁day	-5173
▁neg	-5174
▁vah	-5175
▁adil	-5176
▁anik	-5177
▁olcu	-5178
▁ygul	-5179
▁2-1	-5180
▁fan	-5181
▁lıc	-5182
▁rür	-5183
▁sra	-5184
▁acar	-5185
▁ızlık	-5186
lal	-5187
▁yk	-5188
▁eşe	-5189
▁nek	-5190
▁ota	-5191
▁siy	-5192
▁eyir	-5193
▁yasal	-5194
▁58	-5195
▁ky	-5196
▁üh	-5197
▁Dic	-5198
▁asp	-5199
▁rku	-5200
▁ülü	-5201
▁evik	-5202
▁mine	-5203
▁tira	-5204
▁aller	-5205
▁arlık	-5206
▁ollar	-5207
▁ET	-5208
▁Bel	-5209
▁Kav	-5210
▁kup	-5211
▁nte	-5212
▁aylı	-5213
▁erin	-5214
▁evet	-5215
▁kafe	-5216
▁rkan	-5217
▁seni	-5218
▁çısı	-5219
▁ilgis	-5220
▁otomo	-5221
Ğİ	-5222
una	-5223
▁CI	-5224
▁şçi	-5225
▁antı	-5226
▁ayla	-5227
▁ekib	-5228
▁ımla	-5229
▁·	-5230
▁2-0	-5231
▁err	-5232
▁koç	-5233
▁sis	-5234
▁zon	-5235
▁elge	-5236
▁irde	-5237
▁rend	-5238
▁rens	-5239
▁çevr	-5240
▁Şeri	-5241
▁biyet	-5242
▁Nİ	-5243
▁Hat	-5244
▁hap	-5245
▁tom	-5246
▁dili	-5247
▁elef	-5248
▁fiil	-5249
▁pası	-5250
▁atılı	-5251
▁enmiş	-5252
▁menin	-5253
▁munda	-5254
▁zirve	-5255
NA	-5256
xy	-5257
▁rob	-5258
▁sur	-5259
▁acmi	-5260
▁emri	-5261
▁rmış	-5262
▁urdu	-5263
▁zlen	-5264
▁eyler	-5265
▁nakli	-5266
▁rilme	-5267
▁rinde	-5268
▁evd	-5269
▁krem	-5270
▁aksim	-5271
▁anını	-5272
▁arlar	-5273
▁67	-5274
▁SP	-5275
▁eu	-5276
▁ont	-5277
▁inik	-5278
▁luğu	-5279
▁tıkla	-5280
▁unduğ	-5281
BB	-5282
▁59	-5283
▁78	-5284
▁FA	-5285
▁nıt	-5286
▁şin	-5287
▁kısm	-5288
▁layı	-5289
▁eleme	-5290
▁rtlar	-5291
TC	-5292
▁ifi	-5293
▁nut	-5294
▁taç	-5295
▁erzi	-5296
▁kran	-5297
▁sler	-5298
▁alaxy	-5299
▁anınd	-5300
▁arşıy	-5301
▁masum	-5302
LAR	-5303
▁66	-5304
▁ew	-5305
▁yr	-5306
▁ÜN	-5307
▁DAN	-5308
▁YAP	-5309
▁ngi	-5310
▁zla	-5311
▁ğrı	-5312
▁alay	-5313
▁iydi	-5314
▁tatü	-5315
▁özgü	-5316
▁̈	-5317
▁69	-5318
▁RE	-5319
▁AYM	-5320
▁LGİ	-5321
▁züm	-5322
▁ABER	-5323
▁törü	-5324
▁unma	-5325
▁çlar	-5326
▁andır	-5327
▁ideal	-5328
▁iteli	-5329
▁tezah	-5330
CE	-5331
şk	-5332
▁5-	-5333
▁62	-5334
▁Nur	-5335
▁TAK	-5336
▁amer	-5337
▁çıka	-5338
▁ei	-5339
▁çö	-5340
▁eyr	-5341
▁vey	-5342
▁arını	-5343
▁63	-5344
▁İŞ	-5345
▁Han	-5346
▁NDA	-5347
▁ema	-5348
▁üşü	-5349
▁başa	-5350
▁eynir	-5351
▁ormon	-5352
ami	-5353
▁İk	-5354
▁ted	-5355
▁şke	-5356
▁ariç	-5357
▁iral	-5358
▁nere	-5359
▁andaş	-5360
▁erede	-5361
Mİ	-5362
▁ES	-5363
▁kb	-5364
▁Aşk	-5365
▁ahr	-5366
▁eçe	-5367
▁kaş	-5368
▁les	-5369
▁çün	-5370
▁ayıp	-5371
▁pozi	-5372
▁eyhan	-5373
▁rulan	-5374
▁Kap	-5375
▁hur	-5376
▁obi	-5377
▁emal	-5378
▁mdan	-5379
▁nmek	-5380
▁nümü	-5381
▁üzey	-5382
▁işkin	-5383
▁nmadı	-5384
▁82	-5385
▁800	-5386
▁Rum	-5387
▁akk	-5388
▁lüğ	-5389
▁essi	-5390
▁imle	-5391
▁nedi	-5392
▁rtak	-5393
▁çeri	-5394
▁üket	-5395
▁endir	-5396
▁litik	-5397
▁ts	-5398
▁üml	-5399
▁LERİ	-5400
▁alta	-5401
▁ilem	-5402
▁ivil	-5403
▁yağı	-5404
▁ültü	-5405
▁LGİLİ	-5406
▁amlar	-5407
ou	-5408
LER	-5409
▁3,	-5410
▁8.	-5411
▁MÜ	-5412
▁reh	-5413
▁ubu	-5414
▁baka	-5415
▁desi	-5416
▁ısın	-5417
▁latma	-5418
ĞI	-5419
▁′	-5420
▁Hz	-5421
▁BİR	-5422
▁Lok	-5423
▁aiz	-5424
▁aziz	-5425
▁imal	-5426
▁rans	-5427
▁adesi	-5428
▁engin	-5429
▁68	-5430
▁Hak	-5431
▁bru	-5432
▁utla	-5433
▁ığın	-5434
▁ÖR	-5435
▁Hay	-5436
▁eka	-5437
▁ipa	-5438
▁olmu	-5439
▁iyeli	-5440
▁mesin	-5441
▁nılan	-5442
▁rumlu	-5443
rat	-5444
▁KD	-5445
▁rv	-5446
▁yy	-5447
▁ahı	-5448
▁küm	-5449
▁uçu	-5450
▁çel	-5451
▁anır	-5452
▁emil	-5453
▁sası	-5454
▁tomo	-5455
▁akalı	-5456
▁5,	-5457
▁Men	-5458
▁kaf	-5459
▁ult	-5460
▁FIFA	-5461
▁Fran	-5462
▁atör	-5463
▁açın	-5464
▁aşım	-5465
▁bula	-5466
▁kşam	-5467
DO	-5468
▁nav	-5469
▁ndü	-5470
▁rgu	-5471
▁askı	-5472
▁edeb	-5473
▁nanı	-5474
▁imine	-5475
▁imini	-5476
▁manşe	-5477
▁tweet	-5478
BE	-5479
ag	-5480
up	-5481
▁64	-5482
▁EK	-5483
▁GB	-5484
▁lg	-5485
▁700	-5486
▁eyt	-5487
▁fed	-5488
▁isk	-5489
▁ario	-5490
▁arun	-5491
▁ikti	-5492
▁çekm	-5493
▁örev	-5494
▁özüm	-5495
▁ğumuz	-5496
▁Don	-5497
▁dek	-5498
▁loj	-5499
▁zek	-5500
▁ksız	-5501
▁mizle	-5502
▁57	-5503
▁hit	-5504
▁asım	-5505
▁list	-5506
▁ıfat	-5507
▁ibare	-5508
▁uzakl	-5509
▁ırala	-5510
▁nler	-5511
▁plak	-5512
▁ımın	-5513
vo	-5514
▁79	-5515
▁Hü	-5516
▁öç	-5517
▁İR	-5518
▁Jam	-5519
▁car	-5520
▁oşu	-5521
▁amil	-5522
▁avuk	-5523
▁güze	-5524
▁kole	-5525
▁levi	-5526
▁yede	-5527
▁edavi	-5528
▁eslen	-5529
TV	-5530
net	-5531
▁9.	-5532
▁GE	-5533
▁Mi	-5534
▁dk	-5535
▁İt	-5536
▁ığ	-5537
▁Mor	-5538
▁dük	-5539
▁ess	-5540
▁işl	-5541
▁şim	-5542
▁Jose	-5543
▁fter	-5544
▁lişi	-5545
▁nmey	-5546
▁rese	-5547
▁iklim	-5548
▁uları	-5549
ub	-5550
▁Je	-5551
▁ann	-5552
▁ekl	-5553
▁elle	-5554
▁ısını	-5555
▁PS	-5556
▁ıya	-5557
▁imge	-5558
▁şbir	-5559
▁adise	-5560
SYK	-5561
▁61	-5562
▁Ah	-5563
▁aw	-5564
▁İZ	-5565
▁dro	-5566
▁güc	-5567
▁kip	-5568
▁HSYK	-5569
▁akip	-5570
▁dikt	-5571
▁erya	-5572
▁uruş	-5573
▁nelin	-5574
▁oprak	-5575
OS	-5576
SE	-5577
▁4,	-5578
▁71	-5579
▁İÇ	-5580
▁ifl	-5581
▁pre	-5582
▁Şey	-5583
▁dura	-5584
▁hats	-5585
▁iniş	-5586
▁orku	-5587
▁andan	-5588
▁çüncü	-5589
Ne	-5590
dim	-5591
▁2.5	-5592
▁Hal	-5593
▁kii	-5594
▁klü	-5595
▁köp	-5596
▁yem	-5597
▁STAN	-5598
▁otoğ	-5599
▁zlar	-5600
▁83	-5601
▁zü	-5602
▁Sol	-5603
▁erc	-5604
▁gra	-5605
▁ura	-5606
▁xxx	-5607
▁Bizi	-5608
▁siyo	-5609
▁nmaya	-5610
▁urmay	-5611
Şu	-5612
▁6-	-5613
lığı	-5614
▁1,5	-5615
▁TMS	-5616
▁Tel	-5617
▁don	-5618
▁ehl	-5619
▁erh	-5620
▁Şek	-5621
▁ayna	-5622
▁irme	-5623
▁many	-5624
▁müsa	-5625
▁omba	-5626
▁ziya	-5627
▁Çalı	-5628
▁edeni	-5629
▁ırakı	-5630
▁IK	-5631
▁Mek	-5632
▁Pek	-5633
▁Ron	-5634
▁lış	-5635
▁oka	-5636
▁ric	-5637
▁ırp	-5638
▁eğiş	-5639
▁idan	-5640
▁akdir	-5641
▁eklem	-5642
▁Şeker	-5643
▁Net	-5644
▁Ver	-5645
▁fiy	-5646
▁Kale	-5647
▁ciro	-5648
▁rota	-5649
▁umar	-5650
▁ünni	-5651
▁üzde	-5652
▁vakti	-5653
▁ıştır	-5654
CA	-5655
▁@	-5656
▁lih	-5657
▁tok	-5658
▁vor	-5659
▁atür	-5660
vir	-5661
üri	-5662
▁6,	-5663
▁EV	-5664
▁Op	-5665
▁KDV	-5666
▁Nit	-5667
▁atm	-5668
▁anar	-5669
CK	-5670
ise	-5671
▁att	-5672
▁iev	-5673
▁irt	-5674
▁ısm	-5675
▁şta	-5676
▁enni	-5677
▁rimi	-5678
▁calan	-5679
▁idrar	-5680
▁yapım	-5681
▁şeref	-5682
▁CA	-5683
▁CN	-5684
▁FB	-5685
▁ue	-5686
▁deh	-5687
▁kro	-5688
▁flaş	-5689
▁menf	-5690
▁yası	-5691
▁ardak	-5692
DÜ	-5693
▁Ac	-5694
▁arg	-5695
▁ibi	-5696
▁oğa	-5697
▁itme	-5698
▁ecekt	-5699
bbi	-5700
▁EY	-5701
▁fit	-5702
▁naz	-5703
▁ome	-5704
▁opu	-5705
▁vni	-5706
▁çen	-5707
▁duat	-5708
▁veli	-5709
▁TÜRKİ	-5710
▁dırım	-5711
UK	-5712
sip	-5713
▁73	-5714
▁CEK	-5715
▁Kaf	-5716
▁Val	-5717
▁tfa	-5718
▁uld	-5719
▁şov	-5720
▁TMSF	-5721
▁adde	-5722
▁aşan	-5723
▁baha	-5724
▁kule	-5725
▁rını	-5726
▁takı	-5727
▁ldüğü	-5728
▁merdi	-5729
▁nisan	-5730
TÜ	-5731
zet	-5732
▁Tü	-5733
▁ss	-5734
▁ALI	-5735
▁Geç	-5736
▁NDE	-5737
▁STE	-5738
▁enn	-5739
▁lki	-5740
▁ğüs	-5741
▁amir	-5742
▁aşta	-5743
▁eton	-5744
▁iyel	-5745
▁pist	-5746
▁rüya	-5747
▁sları	-5748
▁OĞ	-5749
▁POR	-5750
▁Zar	-5751
▁bra	-5752
▁zis	-5753
▁ehri	-5754
▁fade	-5755
▁hmet	-5756
▁rdım	-5757
▁rünü	-5758
▁taah	-5759
▁ğmen	-5760
▁ekili	-5761
▁ladık	-5762
▁menaj	-5763
▁rland	-5764
İŞ	-5765
▁ÜR	-5766
▁Gol	-5767
▁lüt	-5768
▁müf	-5769
▁pil	-5770
▁Üst	-5771
▁Şii	-5772
▁şın	-5773
▁detti	-5774
▁rlığı	-5775
▁76	-5776
▁my	-5777
▁uça	-5778
▁üme	-5779
▁ılı	-5780
▁azın	-5781
▁ekli	-5782
▁ller	-5783
▁lımı	-5784
▁benze	-5785
▁ranla	-5786
▁RT	-5787
▁pç	-5788
▁vk	-5789
▁cas	-5790
▁cra	-5791
▁lya	-5792
▁mle	-5793
▁omu	-5794
▁reç	-5795
▁danı	-5796
▁ddet	-5797
▁hbar	-5798
▁iner	-5799
▁lyon	-5800
▁taze	-5801
▁tmiş	-5802
▁yete	-5803
▁ylem	-5804
▁şaka	-5805
▁aflar	-5806
▁ahram	-5807
▁88	-5808
▁EZ	-5809
▁PA	-5810
▁10.	-5811
▁Hol	-5812
▁Los	-5813
▁Mak	-5814
▁fel	-5815
▁olf	-5816
▁ors	-5817
▁yev	-5818
▁aşıl	-5819
▁bini	-5820
▁infi	-5821
▁satı	-5822
▁ırım	-5823
▁ışın	-5824
▁James	-5825
▁arlan	-5826
▁dikka	-5827
▁dirim	-5828
▁helal	-5829
PO	-5830
ân	-5831
▁BI	-5832
▁İY	-5833
▁ENİ	-5834
▁Gör	-5835
▁Yok	-5836
▁hti	-5837
▁ldı	-5838
▁tev	-5839
▁üll	-5840
▁ahim	-5841
▁diyo	-5842
▁else	-5843
▁eyre	-5844
▁hael	-5845
▁nday	-5846
▁röva	-5847
▁sten	-5848
▁yakı	-5849
▁estek	-5850
▁irlen	-5851
▁keşif	-5852
▁ruldu	-5853
▁ışlar	-5854
UT	-5855
ood	-5856
▁77	-5857
▁84	-5858
▁Ğİ	-5859
▁2-3	-5860
▁hel	-5861
▁oyd	-5862
▁ahri	-5863
▁rsun	-5864
▁ekley	-5865
▁iflas	-5866
▁plant	-5867
▁74	-5868
▁KK	-5869
▁YÖ	-5870
▁BBC	-5871
▁aci	-5872
▁emd	-5873
▁erb	-5874
▁KPSS	-5875
▁azıl	-5876
▁Gazze	-5877
▁andık	-5878
▁katla	-5879
YK	-5880
şet	-5881
▁KCK	-5882
▁saç	-5883
▁ibya	-5884
▁lata	-5885
▁oplu	-5886
▁tıka	-5887
▁üman	-5888
▁Futbo	-5889
▁etler	-5890
▁lması	-5891
▁EL	-5892
▁ass	-5893
▁irb	-5894
▁rvi	-5895
▁uta	-5896
▁Sosa	-5897
▁aban	-5898
▁alim	-5899
▁inek	-5900
▁çağı	-5901
▁ıtla	-5902
▁landa	-5903
▁3'	-5904
▁86	-5905
▁Şa	-5906
▁350	-5907
▁Kan	-5908
▁hta	-5909
▁riy	-5910
▁unv	-5911
▁emur	-5912
▁herh	-5913
▁kisi	-5914
▁nara	-5915
▁nist	-5916
▁raca	-5917
▁rücü	-5918
▁hapse	-5919
tah	-5920
▁89	-5921
▁bez	-5922
▁oni	-5923
▁ozu	-5924
▁sıl	-5925
▁sığ	-5926
▁Paul	-5927
▁acağ	-5928
▁arat	-5929
▁aşam	-5930
▁eyni	-5931
▁ider	-5932
▁areti	-5933
▁eylan	-5934
▁yaşay	-5935
▁Bİ	-5936
▁DEN	-5937
▁Mis	-5938
▁avr	-5939
▁tlu	-5940
▁amca	-5941
▁tkin	-5942
▁yada	-5943
▁apsam	-5944
▁ilmes	-5945
▁manya	-5946
▁okrat	-5947
▁EC	-5948
▁OL	-5949
▁SU	-5950
▁şö	-5951
▁BUL	-5952
▁Gal	-5953
▁mpa	-5954
▁ote	-5955
▁tre	-5956
▁uka	-5957
▁ÖSY	-5958
▁zisy	-5959
▁şika	-5960
▁tmaya	-5961
CI	-5962
ly	-5963
har	-5964
▁şt	-5965
▁FAD	-5966
▁Kıv	-5967
▁LMA	-5968
▁işk	-5969
▁mül	-5970
▁nse	-5971
▁oli	-5972
▁TÜRK	-5973
▁varı	-5974
▁dehşe	-5975
UM	-5976
ATA	-5977
mür	-5978
İKA	-5979
▁Der	-5980
▁Kos	-5981
▁VER	-5982
▁lav	-5983
▁mus	-5984
▁üzi	-5985
▁İHA	-5986
▁ansu	-5987
▁nmay	-5988
▁ıştı	-5989
▁biliy	-5990
▁ithal	-5991
▁Ki	-5992
▁zdi	-5993
▁anın	-5994
▁arıy	-5995
▁ayli	-5996
▁evda	-5997
▁imaj	-5998
▁imes	-5999
▁lumu	-6000
▁nika	-6001
▁tali	-6002
▁inlik	-6003
NE	-6004
▁Ga	-6005
▁11.	-6006
▁enüz	-6007
▁muaf	-6008
▁zını	-6009
▁ğine	-6010
▁mates	-6011
▁7,	-6012
▁AF	-6013
▁LG	-6014
▁aa	-6015
▁Hep	-6016
▁Ses	-6017
▁omo	-6018
▁rca	-6019
▁zde	-6020
▁aşla	-6021
▁rank	-6022
▁rdik	-6023
▁aklan	-6024
▁dında	-6025
▁makul	-6026
▁tarak	-6027
▁AÇ	-6028
▁ŞI	-6029
▁Kaç	-6030
▁lda	-6031
▁rsa	-6032
▁çan	-6033
▁arko	-6034
▁bağı	-6035
▁omis	-6036
▁ruma	-6037
▁tikl	-6038
▁üğün	-6039
▁kömür	-6040
▁nikah	-6041
▁Şerif	-6042
her	-6043
▁Nö	-6044
▁NDI	-6045
▁jüri	-6046
▁part	-6047
▁raga	-6048
▁tüke	-6049
▁üdür	-6050
▁ağınd	-6051
▁münde	-6052
▁örler	-6053
ing	-6054
▁5'	-6055
▁EP	-6056
▁II	-6057
▁KI	-6058
▁130	-6059
▁ems	-6060
▁evk	-6061
▁nto	-6062
▁rık	-6063
▁amlı	-6064
▁cısı	-6065
▁irma	-6066
▁kanı	-6067
▁aklık	-6068
▁lerek	-6069
yoz	-6070
▁AĞ	-6071
▁TT	-6072
▁ls	-6073
▁"15	-6074
▁ARA	-6075
▁VAR	-6076
▁ipo	-6077
▁zge	-6078
▁Şaf	-6079
▁emli	-6080
▁inle	-6081
▁ramı	-6082
▁uyur	-6083
▁ekler	-6084
▁iddet	-6085
▁rehin	-6086
▁titiz	-6087
▁92	-6088
▁95	-6089
▁CIA	-6090
▁ple	-6091
▁uan	-6092
▁ülk	-6093
▁Kaan	-6094
▁adık	-6095
▁aştı	-6096
▁dene	-6097
▁esim	-6098
▁yaya	-6099
▁ötür	-6100
▁eştir	-6101
▁iştir	-6102
▁kiler	-6103
▁lanla	-6104
ÖR	-6105
▁1'	-6106
▁Hu	-6107
▁PF	-6108
▁atö	-6109
▁eçi	-6110
▁lıç	-6111
▁zmi	-6112
▁TOKİ	-6113
▁aşık	-6114
▁eyle	-6115
▁rasy	-6116
▁tmek	-6117
▁ırın	-6118
▁aşını	-6119
▁tarla	-6120
▁urkan	-6121
TT	-6122
▁ja	-6123
▁vg	-6124
▁Maç	-6125
▁Ref	-6126
▁anc	-6127
▁hid	-6128
▁jet	-6129
▁kta	-6130
▁lip	-6131
▁lli	-6132
▁toz	-6133
▁ürk	-6134
▁ıca	-6135
▁besi	-6136
▁dürü	-6137
▁iper	-6138
▁iyar	-6139
▁karm	-6140
▁rdek	-6141
▁rneğ	-6142
▁özcü	-6143
▁Divan	-6144
▁asını	-6145
▁̧	-6146
▁ln	-6147
▁LDI	-6148
▁XPO	-6149
▁buz	-6150
▁hil	-6151
▁toh	-6152
▁ust	-6153
▁amat	-6154
▁cisi	-6155
▁eviz	-6156
▁kabi	-6157
▁mega	-6158
▁oğum	-6159
▁ynen	-6160
▁ensil	-6161
▁luğun	-6162
▁ötürü	-6163
▁şükür	-6164
val	-6165
▁(1	-6166
▁Uz	-6167
▁ph	-6168
▁Şe	-6169
▁FBI	-6170
▁Haf	-6171
▁Kış	-6172
▁ous	-6173
▁rde	-6174
▁ros	-6175
▁ulu	-6176
▁uğr	-6177
▁ylü	-6178
▁Ahme	-6179
▁erik	-6180
▁erçe	-6181
▁hsan	-6182
▁term	-6183
▁tini	-6184
▁şare	-6185
▁ahlak	-6186
▁ilyon	-6187
▁Dü	-6188
▁UT	-6189
ükrü	-6190
▁3-4	-6191
▁MEB	-6192
▁Sab	-6193
▁cis	-6194
▁enj	-6195
▁adyo	-6196
▁elfi	-6197
▁enil	-6198
▁kola	-6199
▁rsin	-6200
▁zade	-6201
▁ıdır	-6202
▁Şeyh	-6203
▁madık	-6204
▁yanlı	-6205
▁87	-6206
▁OP	-6207
▁ayi	-6208
▁azm	-6209
▁evr	-6210
▁zlu	-6211
▁alit	-6212
▁ekte	-6213
▁kısı	-6214
▁mpar	-6215
▁riye	-6216
▁teah	-6217
▁ÖSYM	-6218
▁limit	-6219
▁ştığı	-6220
HKP	-6221
▁91	-6222
▁Yİ	-6223
▁Har	-6224
▁ase	-6225
▁emt	-6226
▁jen	-6227
▁pri	-6228
▁reğ	-6229
▁DAİŞ	-6230
▁DHKP	-6231
▁artı	-6232
▁azım	-6233
▁ezer	-6234
▁faul	-6235
▁leks	-6236
▁rayı	-6237
▁tarı	-6238
▁meliy	-6239
▁tamir	-6240
VE	-6241
▁"2	-6242
▁lâ	-6243
▁Def	-6244
▁Mit	-6245
▁hoş	-6246
▁şut	-6247
▁PFDK	-6248
▁Soka	-6249
▁ahir	-6250
▁argo	-6251
▁atip	-6252
▁evzi	-6253
▁lulu	-6254
▁rmuş	-6255
▁ırrı	-6256
▁şler	-6257
▁lecek	-6258
▁ravma	-6259
▁yetin	-6260
MI	-6261
th	-6262
lit	-6263
▁8,	-6264
▁IM	-6265
▁12.	-6266
▁Bas	-6267
▁Rio	-6268
▁Tah	-6269
▁ows	-6270
▁tih	-6271
▁abak	-6272
▁ahla	-6273
▁ahne	-6274
▁ezen	-6275
▁mlak	-6276
▁rant	-6277
▁sefe	-6278
▁Fidan	-6279
▁istiy	-6280
▁teyit	-6281
▁Şafak	-6282
iv	-6283
ÜN	-6284
▁NK	-6285
▁ld	-6286
▁NIN	-6287
▁deş	-6288
▁mid	-6289
▁yda	-6290
▁ürd	-6291
▁ğlı	-6292
▁Holl	-6293
▁ande	-6294
▁apan	-6295
▁dına	-6296
▁ktaş	-6297
▁nnes	-6298
▁Şükrü	-6299
TAŞ	-6300
▁750	-6301
▁BİN	-6302
▁Ebu	-6303
▁irs	-6304
▁nli	-6305
▁sef	-6306
▁the	-6307
▁tın	-6308
▁ull	-6309
▁ücü	-6310
▁TÜİK	-6311
▁aksa	-6312
▁lmas	-6313
▁pers	-6314
▁şlem	-6315
▁elfie	-6316
▁elirt	-6317
▁yerin	-6318
),	-6319
gâ	-6320
les	-6321
▁0-	-6322
▁oc	-6323
▁tv	-6324
▁zo	-6325
▁LAN	-6326
▁dın	-6327
▁ike	-6328
▁kşe	-6329
▁mum	-6330
▁zle	-6331
▁çim	-6332
▁TÜBİ	-6333
▁amad	-6334
▁oğun	-6335
▁etini	-6336
▁metin	-6337
▁nakil	-6338
▁nihay	-6339
CÜ	-6340
ize	-6341
▁EÇ	-6342
▁(2)	-6343
▁2,5	-6344
▁arç	-6345
▁elç	-6346
▁kök	-6347
▁orl	-6348
▁row	-6349
▁sım	-6350
▁yıs	-6351
▁Mill	-6352
▁edat	-6353
▁enid	-6354
▁ezle	-6355
▁izem	-6356
▁ston	-6357
▁uygu	-6358
▁zlık	-6359
▁minin	-6360
▁tayin	-6361
▁öldür	-6362
AP	-6363
SI	-6364
▁ıv	-6365
▁1-1	-6366
▁Ada	-6367
▁Meh	-6368
▁sip	-6369
▁vut	-6370
▁web	-6371
▁Plan	-6372
▁bare	-6373
▁dını	-6374
▁ilek	-6375
▁ölge	-6376
▁nadir	-6377
▁yeler	-6378
MB	-6379
ban	-6380
▁ex	-6381
▁vs	-6382
▁şü	-6383
▁900	-6384
▁LDU	-6385
▁PTT	-6386
▁aff	-6387
▁kst	-6388
▁opa	-6389
▁teb	-6390
▁zil	-6391
▁Çek	-6392
▁ebir	-6393
▁enci	-6394
▁pool	-6395
▁rati	-6396
▁ylül	-6397
▁fakir	-6398
▁kledi	-6399
▁türül	-6400
▁tıbbi	-6401
OL	-6402
▁7-	-6403
▁IN	-6404
▁kû	-6405
▁yw	-6406
▁ÜY	-6407
▁ğd	-6408
▁Diş	-6409
▁Kam	-6410
▁Ona	-6411
▁Pla	-6412
▁TIR	-6413
▁Tra	-6414
▁eon	-6415
▁kef	-6416
▁lçi	-6417
▁ndo	-6418
▁tiğ	-6419
▁eyla	-6420
▁izah	-6421
▁ıran	-6422
▁Dilek	-6423
▁ansel	-6424
▁nında	-6425
▁ranın	-6426
▁rilen	-6427
▁şavir	-6428
AL	-6429
EL	-6430
▁4'	-6431
▁AH	-6432
▁ED	-6433
▁ui	-6434
▁110	-6435
▁3-1	-6436
▁eat	-6437
▁elg	-6438
▁hed	-6439
▁iva	-6440
▁ood	-6441
▁efer	-6442
▁file	-6443
▁icro	-6444
▁tezi	-6445
▁üzün	-6446
▁ılım	-6447
▁asınd	-6448
▁kstil	-6449
▁nceli	-6450
LÜ	-6451
ho	-6452
GEB	-6453
▁mc	-6454
▁ÇE	-6455
▁Fır	-6456
▁STK	-6457
▁aid	-6458
▁eyl	-6459
▁fav	-6460
▁ily	-6461
▁işa	-6462
▁ole	-6463
▁pın	-6464
▁vis	-6465
▁ötü	-6466
▁ğüt	-6467
▁Lise	-6468
▁diri	-6469
▁edik	-6470
▁erit	-6471
▁gene	-6472
▁ikte	-6473
▁kabu	-6474
▁şair	-6475
▁Kerem	-6476
▁OSGEB	-6477
▁atent	-6478
▁bilme	-6479
▁dedil	-6480
▁imanı	-6481
▁metni	-6482
▁reler	-6483
▁tilla	-6484
▁tleri	-6485
▁0,	-6486
▁fo	-6487
▁mz	-6488
▁ny	-6489
▁20.	-6490
▁Dik	-6491
▁Jet	-6492
▁afa	-6493
▁ajı	-6494
▁lul	-6495
▁ony	-6496
▁zım	-6497
▁Doğa	-6498
▁Sana	-6499
▁arif	-6500
▁iliz	-6501
▁iran	-6502
▁rett	-6503
▁İÇİN	-6504
▁elere	-6505
BP	-6506
FE	-6507
PA	-6508
TO	-6509
dat	-6510
mer	-6511
sti	-6512
▁ÇI	-6513
▁TEM	-6514
▁Tay	-6515
▁gre	-6516
▁kis	-6517
▁rle	-6518
▁rlu	-6519
▁ube	-6520
▁İLE	-6521
▁aciz	-6522
▁ağlı	-6523
▁elih	-6524
▁elis	-6525
▁görm	-6526
▁imdi	-6527
▁iğne	-6528
▁reak	-6529
▁rkeo	-6530
▁ahran	-6531
▁ywood	-6532
▁çinde	-6533
▁ND	-6534
▁1-2	-6535
▁CNN	-6536
▁EDE	-6537
▁Tab	-6538
▁YÖK	-6539
▁oro	-6540
▁vli	-6541
▁Çal	-6542
▁Beck	-6543
▁Jack	-6544
▁alar	-6545
▁alib	-6546
▁boub	-6547
▁işme	-6548
▁kını	-6549
▁mese	-6550
▁ğına	-6551
▁tavrı	-6552
mü	-6553
üf	-6554
dyo	-6555
mar	-6556
▁fu	-6557
▁yl	-6558
▁14.	-6559
▁One	-6560
▁pir	-6561
▁hall	-6562
▁kura	-6563
▁mant	-6564
▁uard	-6565
▁usun	-6566
▁önüş	-6567
▁Dicle	-6568
▁anlık	-6569
▁aptır	-6570
▁poşet	-6571
▁ulunm	-6572
ŞI	-6573
▁•	-6574
uke	-6575
▁BD	-6576
▁KE	-6577
▁ŞE	-6578
▁TSİ	-6579
▁YGS	-6580
▁YOK	-6581
▁fyo	-6582
▁isl	-6583
▁ope	-6584
▁TCMB	-6585
▁küme	-6586
▁reel	-6587
▁rica	-6588
▁zeka	-6589
▁şoku	-6590
▁ayatı	-6591
▁luluk	-6592
▁nleri	-6593
▁tüdyo	-6594
bet	-6595
ham	-6596
▁In	-6597
▁TK	-6598
▁sr	-6599
▁360	-6600
▁ARI	-6601
▁Oda	-6602
▁YIL	-6603
▁elt	-6604
▁jou	-6605
▁ono	-6606
▁tiş	-6607
▁uya	-6608
▁zim	-6609
▁ŞTI	-6610
▁KKTC	-6611
▁Koza	-6612
▁Kuru	-6613
▁Sami	-6614
▁ankı	-6615
▁ella	-6616
▁ilmi	-6617
▁metl	-6618
▁olla	-6619
▁racı	-6620
▁rfan	-6621
▁metal	-6622
▁tabir	-6623
wa	-6624
ÜR	-6625
▁$	-6626
bai	-6627
▁LU	-6628
▁İK	-6629
▁140	-6630
▁nez	-6631
▁tis	-6632
▁üdü	-6633
▁ıtı	-6634
▁lant	-6635
▁rkes	-6636
▁şeff	-6637
▁aksad	-6638
▁andığ	-6639
▁elsea	-6640
▁ettiğ	-6641
▁mekân	-6642
▁muciz	-6643
▁nunun	-6644
▁önder	-6645
SC	-6646
ks	-6647
ley	-6648
rio	-6649
▁94	-6650
▁Yü	-6651
▁15.	-6652
▁3.5	-6653
▁Bat	-6654
▁alm	-6655
▁kik	-6656
▁org	-6657
▁üel	-6658
▁Dick	-6659
▁aide	-6660
▁biye	-6661
▁diko	-6662
▁ivme	-6663
▁ktır	-6664
▁leke	-6665
▁orno	-6666
▁ring	-6667
▁vala	-6668
▁zdan	-6669
▁keyif	-6670
▁lanın	-6671
▁müzde	-6672
▁nakit	-6673
▁nihai	-6674
Cİ	-6675
ez	-6676
zan	-6677
utin	-6678
▁Göç	-6679
▁cza	-6680
▁deb	-6681
▁mın	-6682
▁pis	-6683
▁zme	-6684
▁İBB	-6685
▁Kule	-6686
▁ekta	-6687
▁eron	-6688
▁icil	-6689
▁reyt	-6690
▁vren	-6691
▁ızlı	-6692
▁gözle	-6693
▁rları	-6694
dy	-6695
▁Fo	-6696
▁lk	-6697
▁vb	-6698
▁16.	-6699
▁IMF	-6700
▁caz	-6701
▁lde	-6702
▁zab	-6703
▁abbi	-6704
▁buki	-6705
▁erid	-6706
▁faka	-6707
▁imya	-6708
▁iyen	-6709
▁keli	-6710
▁rent	-6711
▁siya	-6712
▁ütah	-6713
▁ıkma	-6714
▁vahşi	-6715
▁şerid	-6716
▁ax	-6717
▁ee	-6718
▁İH	-6719
▁Fas	-6720
▁Not	-6721
▁bam	-6722
▁küs	-6723
▁lef	-6724
▁LYON	-6725
▁alkı	-6726
▁amur	-6727
▁inov	-6728
▁muka	-6729
▁omik	-6730
▁orma	-6731
▁savu	-6732
▁tart	-6733
▁ğımı	-6734
▁durma	-6735
▁erson	-6736
▁latıl	-6737
▁retim	-6738
SU	-6739
ÜZ	-6740
ris	-6741
ğit	-6742
▁Sö	-6743
▁Tip	-6744
▁Vah	-6745
▁akı	-6746
▁cuk	-6747
▁iOS	-6748
▁kok	-6749
▁rti	-6750
▁tet	-6751
▁GATA	-6752
▁anyo	-6753
▁asyo	-6754
▁eniz	-6755
▁gisi	-6756
▁laik	-6757
▁lemi	-6758
▁lmuş	-6759
▁mmuz	-6760
▁alyoz	-6761
▁beyli	-6762
▁enter	-6763
▁merha	-6764
▁olisi	-6765
▁tatmi	-6766
▁kç	-6767
▁zy	-6768
▁İS	-6769
▁Yaz	-6770
▁eyk	-6771
▁mor	-6772
▁Jean	-6773
▁Luis	-6774
▁ayıt	-6775
▁deli	-6776
▁ensu	-6777
▁hang	-6778
▁irmi	-6779
▁nton	-6780
▁resm	-6781
▁vard	-6782
▁alina	-6783
▁atler	-6784
▁ileti	-6785
▁lazer	-6786
▁limon	-6787
▁nasip	-6788
▁rarlı	-6789
▁tatbi	-6790
▁taviz	-6791
▁umlar	-6792
▁dd	-6793
▁Dar	-6794
▁Ger	-6795
▁OLA	-6796
▁ear	-6797
▁gov	-6798
▁PARA	-6799
▁Tuna	-6800
▁YAPI	-6801
▁aluk	-6802
▁anto	-6803
▁lini	-6804
▁lite	-6805
▁neyi	-6806
▁piya	-6807
▁ralı	-6808
▁tina	-6809
▁yoru	-6810
▁zzet	-6811
▁enera	-6812
▁terli	-6813
OG	-6814
RU	-6815
▁̇	-6816
▁9,	-6817
▁96	-6818
▁OM	-6819
▁EDİ	-6820
▁OLU	-6821
▁dos	-6822
▁fiş	-6823
▁gök	-6824
▁igi	-6825
▁imp	-6826
▁rij	-6827
▁ceği	-6828
▁eldi	-6829
▁maks	-6830
▁zani	-6831
▁ülte	-6832
▁arter	-6833
▁talar	-6834
düs	-6835
▁99	-6836
▁Eve	-6837
▁KHK	-6838
▁LTI	-6839
▁TİM	-6840
▁gey	-6841
▁olü	-6842
▁zul	-6843
▁Donk	-6844
▁başk	-6845
▁fesh	-6846
▁ilüf	-6847
▁naat	-6848
▁reen	-6849
▁tica	-6850
▁tiro	-6851
▁ular	-6852
▁vade	-6853
▁ğlık	-6854
▁arici	-6855
▁arşiv	-6856
▁sayıs	-6857
▁uplar	-6858
▁şandı	-6859
VA	-6860
ec	-6861
▁93	-6862
▁BT	-6863
▁FE	-6864
▁cm	-6865
▁180	-6866
▁4-5	-6867
▁EZA	-6868
▁Gam	-6869
▁LİR	-6870
▁Tri	-6871
▁ien	-6872
▁itt	-6873
▁nık	-6874
▁urb	-6875
▁zdı	-6876
▁ampa	-6877
▁anam	-6878
▁arri	-6879
▁edir	-6880
▁slim	-6881
▁stro	-6882
▁terl	-6883
▁üzer	-6884
▁emlak	-6885
▁eyeno	-6886
▁eykoz	-6887
▁rarla	-6888
IN	-6889
KAN	-6890
MAN	-6891
fak	-6892
iri	-6893
ure	-6894
▁Cİ	-6895
▁HA	-6896
▁SD	-6897
▁13.	-6898
▁5-6	-6899
▁EĞİ	-6900
▁tac	-6901
▁foto	-6902
▁illa	-6903
▁kesi	-6904
▁tiba	-6905
▁yapa	-6906
▁öner	-6907
▁Kudüs	-6908
▁NKARA	-6909
▁etici	-6910
▁ngell	-6911
▁urdur	-6912
ŞA	-6913
▁MH	-6914
▁Kut	-6915
▁LDİ	-6916
▁LIK	-6917
▁Pir	-6918
▁düğ	-6919
▁eld	-6920
▁gah	-6921
▁hiz	-6922
▁anka	-6923
▁arin	-6924
▁kili	-6925
▁obüs	-6926
▁sade	-6927
▁tası	-6928
▁terc	-6929
▁zler	-6930
▁klama	-6931
▁sonel	-6932
▁undak	-6933
▁yeceğ	-6934
▁ğinin	-6935
▁Nu	-6936
▁3-0	-6937
▁NİN	-6938
▁mot	-6939
▁rki	-6940
▁ÖNE	-6941
▁Hami	-6942
▁ejim	-6943
▁kiye	-6944
▁mana	-6945
▁plaj	-6946
▁reas	-6947
▁rmal	-6948
▁zgat	-6949
▁zmit	-6950
▁Kemer	-6951
▁ipler	-6952
▁irler	-6953
ZE	-6954
İM	-6955
ble	-6956
del	-6957
▁MP	-6958
▁OD	-6959
▁lv	-6960
▁pı	-6961
▁ATI	-6962
▁AİH	-6963
▁Kuv	-6964
▁Met	-6965
▁Mid	-6966
▁Wes	-6967
▁ams	-6968
▁arn	-6969
▁dok	-6970
▁emp	-6971
▁fık	-6972
▁ias	-6973
▁mli	-6974
▁uda	-6975
▁uli	-6976
▁çöp	-6977
▁öte	-6978
▁üfe	-6979
▁Şef	-6980
▁BDDK	-6981
▁BIST	-6982
▁abla	-6983
▁ayış	-6984
▁emiz	-6985
▁enta	-6986
▁lduk	-6987
▁logo	-6988
▁mede	-6989
▁mith	-6990
▁mına	-6991
▁stat	-6992
▁ulun	-6993
▁ılıç	-6994
▁akale	-6995
▁alığı	-6996
▁entus	-6997
▁kerle	-6998
▁kucak	-6999
▁orlar	-7000
▁ttiği	-7001
▁üleri	-7002
▁şerit	-7003
+1	-7004
UL	-7005
of	-7006
ras	-7007
▁98	-7008
▁Gu	-7009
▁lm	-7010
▁yt	-7011
▁Fit	-7012
▁Fre	-7013
▁Mez	-7014
▁TAN	-7015
▁akt	-7016
▁beğ	-7017
▁gul	-7018
▁mag	-7019
▁nef	-7020
▁oll	-7021
▁oun	-7022
▁tüp	-7023
▁Büyü	-7024
▁adın	-7025
▁afer	-7026
▁ahmi	-7027
▁akib	-7028
▁ciha	-7029
▁etim	-7030
▁htiy	-7031
▁idro	-7032
▁irin	-7033
▁ital	-7034
▁vaat	-7035
▁yrıl	-7036
▁endim	-7037
▁geçme	-7038
▁kemer	-7039
▁umara	-7040
▁Şeref	-7041
▁Şükür	-7042
▁(3	-7043
▁vv	-7044
▁zl	-7045
▁160	-7046
▁450	-7047
▁Kas	-7048
▁LYS	-7049
▁ORU	-7050
▁TTİ	-7051
▁ask	-7052
▁cti	-7053
▁ekç	-7054
▁kûm	-7055
▁tic	-7056
▁çoğ	-7057
▁ırb	-7058
▁EPDK	-7059
▁Kaba	-7060
▁Lale	-7061
▁Luka	-7062
▁amdi	-7063
▁ekar	-7064
▁rone	-7065
▁şifa	-7066
▁arkan	-7067
▁figür	-7068
▁hesab	-7069
▁ikram	-7070
▁lleri	-7071
EC	-7072
▁Gi	-7073
▁ct	-7074
▁dl	-7075
▁19.	-7076
▁DNA	-7077
▁ahş	-7078
▁lsa	-7079
▁mai	-7080
▁pet	-7081
▁tef	-7082
▁tçı	-7083
▁RTÜK	-7084
▁alab	-7085
▁aset	-7086
▁enje	-7087
▁erme	-7088
▁esap	-7089
▁rida	-7090
▁roup	-7091
▁ensup	-7092
vad	-7093
heim	-7094
▁Kla	-7095
▁YÜZ	-7096
▁bom	-7097
▁elo	-7098
▁lgı	-7099
▁que	-7100
▁yva	-7101
▁şit	-7102
▁şle	-7103
▁eniş	-7104
▁igen	-7105
▁imti	-7106
▁naaş	-7107
▁odel	-7108
▁ranc	-7109
▁ışma	-7110
▁arlığ	-7111
▁deler	-7112
▁güçle	-7113
▁irsin	-7114
▁minde	-7115
▁rüzgâ	-7116
om	-7117
▁=	-7118
▁UM	-7119
▁kk	-7120
▁ys	-7121
▁17.	-7122
▁18.	-7123
▁21.	-7124
▁3-2	-7125
▁ONU	-7126
▁SSK	-7127
▁Zor	-7128
▁agi	-7129
▁eta	-7130
▁lap	-7131
▁sos	-7132
▁utt	-7133
▁bari	-7134
▁tmen	-7135
▁atmak	-7136
▁dildi	-7137
▁enjan	-7138
▁ereke	-7139
▁evdet	-7140
▁mater	-7141
▁stler	-7142
▁talip	-7143
▁tanın	-7144
▁ünnet	-7145
maş	-7146
▁oj	-7147
▁we	-7148
âhil	-7149
▁Pas	-7150
▁iğe	-7151
▁lun	-7152
▁ÇOK	-7153
▁Ayrı	-7154
▁Liga	-7155
▁atem	-7156
▁cele	-7157
▁daim	-7158
▁eyda	-7159
▁tıra	-7160
▁eymar	-7161
▁lacak	-7162
▁rutin	-7163
SM	-7164
all	-7165
▁Göz	-7166
▁Kıs	-7167
▁abr	-7168
▁any	-7169
▁cik	-7170
▁del	-7171
▁had	-7172
▁iel	-7173
▁ült	-7174
▁ırf	-7175
▁NASA	-7176
▁engi	-7177
▁gıla	-7178
▁stal	-7179
▁tant	-7180
▁zihi	-7181
▁ÖZCÜ	-7182
▁özle	-7183
▁Demet	-7184
▁Vedat	-7185
▁YORUZ	-7186
▁dâhil	-7187
▁erini	-7188
▁erçev	-7189
▁inare	-7190
▁itler	-7191
▁masal	-7192
▁niden	-7193
▁onunu	-7194
▁ılmak	-7195
▁ısına	-7196
▁şehre	-7197
CU	-7198
âr	-7199
ATI	-7200
DAŞ	-7201
LİK	-7202
rin	-7203
▁97	-7204
▁IP	-7205
▁Çe	-7206
apka	-7207
▁HTC	-7208
▁Joe	-7209
▁Lab	-7210
▁Lit	-7211
▁SMS	-7212
▁aal	-7213
▁cül	-7214
▁ygu	-7215
▁ğme	-7216
▁Buca	-7217
▁TOBB	-7218
▁amit	-7219
▁emti	-7220
▁eşya	-7221
▁maky	-7222
▁tırm	-7223
▁Dubai	-7224
▁diren	-7225
▁ekrar	-7226
▁ervan	-7227
▁filan	-7228
▁olayl	-7229
▁zihni	-7230
▁_	-7231
▁û	-7232
▁kg	-7233
▁nj	-7234
▁yd	-7235
▁Kum	-7236
▁Müs	-7237
▁MİZ	-7238
▁arb	-7239
▁eyy	-7240
▁gat	-7241
▁iss	-7242
▁tij	-7243
▁İLK	-7244
▁aria	-7245
▁elan	-7246
▁ldan	-7247
▁rmey	-7248
▁vası	-7249
▁akdim	-7250
▁arman	-7251
▁ction	-7252
▁erkük	-7253
▁indar	-7254
▁irdik	-7255
▁kulis	-7256
TU	-7257
▁TI	-7258
▁Acı	-7259
▁DER	-7260
▁abl	-7261
▁anj	-7262
▁ive	-7263
▁mpi	-7264
▁nom	-7265
▁üte	-7266
▁İsa	-7267
▁AİHM	-7268
▁Viet	-7269
▁ines	-7270
▁klik	-7271
▁mund	-7272
▁uşma	-7273
▁aprio	-7274
▁ertan	-7275
▁nland	-7276
KI	-7277
sü	-7278
DER	-7279
one	-7280
▁Hâ	-7281
▁Ot	-7282
▁US	-7283
▁gr	-7284
▁nz	-7285
▁İM	-7286
▁4.5	-7287
▁Alp	-7288
▁DBP	-7289
▁OTO	-7290
▁cın	-7291
▁eyd	-7292
▁lec	-7293
▁uzl	-7294
▁zaf	-7295
▁Tipi	-7296
▁diki	-7297
▁eket	-7298
▁erci	-7299
▁ervi	-7300
▁evam	-7301
▁işki	-7302
▁kans	-7303
▁loto	-7304
▁munu	-7305
▁nomi	-7306
▁onak	-7307
▁zaaf	-7308
▁şoke	-7309
▁abili	-7310
▁başlı	-7311
▁etesi	-7312
▁ilmen	-7313
▁itham	-7314
▁ntern	-7315
▁rması	-7316
▁terfi	-7317
▁zheim	-7318
co	-7319
sb	-7320
▁Hiz	-7321
▁Las	-7322
▁Mus	-7323
▁NMA	-7324
▁Nas	-7325
▁SPD	-7326
▁Sin	-7327
▁amd	-7328
▁ayf	-7329
▁bri	-7330
▁lle	-7331
▁Vize	-7332
▁ebev	-7333
▁eyit	-7334
▁eşar	-7335
▁hele	-7336
▁ibar	-7337
▁kast	-7338
▁kreş	-7339
▁mann	-7340
▁neşe	-7341
▁rock	-7342
▁rook	-7343
▁ygun	-7344
▁Dikil	-7345
▁Merve	-7346
▁ammül	-7347
▁anken	-7348
▁kıldı	-7349
▁Ca	-7350
▁Of	-7351
▁Wi	-7352
▁0-0	-7353
▁cun	-7354
▁kma	-7355
▁yut	-7356
▁Moda	-7357
▁TÜSİ	-7358
▁cret	-7359
▁ecza	-7360
▁enat	-7361
▁evşe	-7362
▁gele	-7363
▁tasi	-7364
▁ÜYÜK	-7365
▁şire	-7366
▁damla	-7367
▁lgesi	-7368
▁tinde	-7369
▁ulama	-7370
▁yaban	-7371
▁yorsa	-7372
bül	-7373
oko	-7374
▁"3	-7375
▁8'	-7376
▁MS	-7377
▁NT	-7378
▁10,	-7379
▁24.	-7380
▁Lat	-7381
▁NDİ	-7382
▁PAR	-7383
▁faş	-7384
▁ico	-7385
▁yek	-7386
▁yir	-7387
▁ÖRÜ	-7388
▁Hizb	-7389
▁TEOG	-7390
▁akya	-7391
▁arlo	-7392
▁irke	-7393
▁ryan	-7394
▁stün	-7395
▁teli	-7396
▁zira	-7397
▁ğdır	-7398
▁şike	-7399
▁Palan	-7400
▁mahal	-7401
▁rakya	-7402
▁yonun	-7403
RI	-7404
SKİ	-7405
hre	-7406
nel	-7407
şat	-7408
▁PK	-7409
▁RU	-7410
▁ĞI	-7411
▁Eşi	-7412
▁Fox	-7413
▁atu	-7414
▁kün	-7415
▁ırd	-7416
▁ŞEH	-7417
▁KARA	-7418
▁acet	-7419
▁azim	-7420
▁aşma	-7421
▁emik	-7422
▁epey	-7423
▁eçiş	-7424
▁item	-7425
▁nını	-7426
▁olks	-7427
▁roth	-7428
▁tasa	-7429
▁ömür	-7430
▁üreş	-7431
▁ırmı	-7432
▁arsus	-7433
▁eklif	-7434
▁mizah	-7435
▁orunu	-7436
▁zihin	-7437
▁ıldır	-7438
GA	-7439
bap	-7440
▁YO	-7441
▁KAP	-7442
▁Tes	-7443
▁mza	-7444
▁nor	-7445
▁pal	-7446
▁rgü	-7447
▁rte	-7448
▁yam	-7449
▁şün	-7450
▁Ryan	-7451
▁alin	-7452
▁aliç	-7453
▁asay	-7454
▁ayıs	-7455
▁daşı	-7456
▁ekşi	-7457
▁feri	-7458
▁ifle	-7459
▁imum	-7460
▁ranı	-7461
▁tion	-7462
▁übre	-7463
▁ükle	-7464
▁Defne	-7465
▁aklit	-7466
▁ayesi	-7467
▁firar	-7468
▁hamid	-7469
▁insül	-7470
▁kalar	-7471
▁kanın	-7472
▁salar	-7473
▁üstri	-7474
GI	-7475
ai	-7476
İB	-7477
İT	-7478
SCO	-7479
fya	-7480
ron	-7481
▁HE	-7482
▁ÖL	-7483
▁ÜZ	-7484
agen	-7485
apur	-7486
izza	-7487
▁Adı	-7488
▁Keş	-7489
▁RAN	-7490
▁Süt	-7491
▁ncu	-7492
▁yde	-7493
▁Ülk	-7494
▁ŞTİ	-7495
▁Dink	-7496
▁abul	-7497
▁dayı	-7498
▁derl	-7499
▁eras	-7500
▁kaps	-7501
▁lebi	-7502
▁likl	-7503
▁ofya	-7504
▁rlık	-7505
▁traj	-7506
▁alama	-7507
▁eczan	-7508
▁fıkra	-7509
▁matem	-7510
▁wagen	-7511
▁zalim	-7512
ud	-7513
▁OY	-7514
▁Va	-7515
▁ÜŞ	-7516
▁125	-7517
▁23.	-7518
▁Del	-7519
▁IST	-7520
▁KAR	-7521
▁Rab	-7522
▁apt	-7523
▁evh	-7524
▁nab	-7525
▁nlı	-7526
▁oul	-7527
▁paz	-7528
▁pli	-7529
▁sia	-7530
▁ylı	-7531
▁üzd	-7532
▁ğra	-7533
▁ahit	-7534
▁iray	-7535
▁ronz	-7536
▁rtan	-7537
▁rıca	-7538
▁sted	-7539
▁ürül	-7540
▁ıkar	-7541
▁NESCO	-7542
▁ahşap	-7543
▁düşer	-7544
▁fitne	-7545
▁impar	-7546
▁sterd	-7547
▁zedel	-7548
▁ğunda	-7549
IM	-7550
ia	-7551
ire	-7552
▁OK	-7553
▁PE	-7554
▁Sı	-7555
▁YD	-7556
▁sb	-7557
▁ym	-7558
▁170	-7559
▁ANI	-7560
▁Wil	-7561
▁YON	-7562
▁ceh	-7563
▁ehm	-7564
▁enü	-7565
▁erd	-7566
▁ifa	-7567
▁ior	-7568
▁ivi	-7569
▁kşi	-7570
▁lse	-7571
▁üle	-7572
▁Şeb	-7573
▁EĞİL	-7574
▁Muha	-7575
▁TİKA	-7576
▁adis	-7577
▁afiş	-7578
▁atle	-7579
▁avra	-7580
▁cakl	-7581
▁eşik	-7582
▁gara	-7583
▁karg	-7584
▁ntaj	-7585
▁onet	-7586
▁titr	-7587
▁Lukas	-7588
▁entag	-7589
▁ideri	-7590
▁peder	-7591
▁ramva	-7592
▁rasyo	-7593
▁retme	-7594
▁şahsi	-7595
▁Â	-7596
LIK	-7597
▁PO	-7598
▁SÜ	-7599
▁ZM	-7600
▁Ze	-7601
▁lö	-7602
▁Dip	-7603
▁EYP	-7604
▁Kaş	-7605
▁URU	-7606
▁ame	-7607
▁ash	-7608
▁kör	-7609
▁lie	-7610
▁miy	-7611
▁pes	-7612
▁sıt	-7613
▁ŞMA	-7614
▁ANLI	-7615
▁ERÖR	-7616
▁MLER	-7617
▁MÜSİ	-7618
▁abar	-7619
▁akik	-7620
▁amız	-7621
▁anoz	-7622
▁anus	-7623
▁apma	-7624
▁damı	-7625
▁dman	-7626
▁epet	-7627
▁ites	-7628
▁kımı	-7629
▁loke	-7630
▁marj	-7631
▁quot	-7632
▁turd	-7633
▁aksat	-7634
▁cazip	-7635
▁emsal	-7636
▁ezonu	-7637
▁lanet	-7638
▁nikâh	-7639
▁olmam	-7640
▁rmedi	-7641
▁telif	-7642
▁vleri	-7643
▁yerle	-7644
Rİ	-7645
sh	-7646
olo	-7647
▁0.	-7648
▁hl	-7649
▁AFP	-7650
▁ELE	-7651
▁Vaz	-7652
▁dge	-7653
▁hib	-7654
▁kti	-7655
▁zma	-7656
▁ıka	-7657
▁OPEC	-7658
▁Suat	-7659
▁acim	-7660
▁dest	-7661
▁emzi	-7662
▁enzi	-7663
▁lack	-7664
▁leag	-7665
▁ping	-7666
▁reng	-7667
▁ödem	-7668
▁Mekke	-7669
▁Sayan	-7670
▁annes	-7671
▁ardan	-7672
▁mafya	-7673
▁retle	-7674
▁stina	-7675
▁vahşe	-7676
▁3,5	-7677
▁Ank	-7678
▁CDU	-7679
▁Dim	-7680
▁LİK	-7681
▁cin	-7682
▁eko	-7683
▁fal	-7684
▁iat	-7685
▁low	-7686
▁otu	-7687
▁üçü	-7688
▁KİŞİ	-7689
▁abın	-7690
▁acın	-7691
▁aşdi	-7692
▁ehli	-7693
▁elit	-7694
▁eriç	-7695
▁kaba	-7696
▁lima	-7697
▁lsun	-7698
▁nbul	-7699
▁ofaş	-7700
▁okyo	-7701
▁onda	-7702
▁onel	-7703
▁üven	-7704
▁YÜZDE	-7705
▁aaliy	-7706
▁arina	-7707
▁fidan	-7708
▁igren	-7709
▁lotof	-7710
▁resan	-7711
▁şapka	-7712
OM	-7713
pp	-7714
DIN	-7715
fik	-7716
lin	-7717
▁Tv	-7718
▁VI	-7719
▁ŞA	-7720
▁11,	-7721
▁6-7	-7722
▁Pes	-7723
▁Sow	-7724
▁TKİ	-7725
▁bla	-7726
▁tul	-7727
▁Jere	-7728
▁afın	-7729
▁apsi	-7730
▁ehdi	-7731
▁furt	-7732
▁iami	-7733
▁ilav	-7734
▁isle	-7735
▁köle	-7736
▁nlat	-7737
▁rast	-7738
▁urad	-7739
▁addes	-7740
▁ahsin	-7741
▁ferib	-7742
▁görün	-7743
▁hamit	-7744
20	-7745
BY	-7746
nie	-7747
que	-7748
▁Af	-7749
▁HI	-7750
▁MO	-7751
▁cc	-7752
▁Oya	-7753
▁RDI	-7754
▁SUV	-7755
▁aur	-7756
▁smi	-7757
▁ğan	-7758
▁şla	-7759
▁Mini	-7760
▁Reis	-7761
▁amid	-7762
▁enya	-7763
▁metr	-7764
▁nsar	-7765
▁omet	-7766
▁pota	-7767
▁tala	-7768
▁arles	-7769
▁arsel	-7770
▁izlik	-7771
▁lebil	-7772
İS	-7773
KUR	-7774
vik	-7775
▁UN	-7776
▁cC	-7777
▁ix	-7778
▁Air	-7779
▁Big	-7780
▁Ece	-7781
▁iro	-7782
▁isp	-7783
▁ium	-7784
▁lâm	-7785
▁nim	-7786
▁rmu	-7787
▁uba	-7788
▁ulz	-7789
▁wor	-7790
▁üda	-7791
▁Şan	-7792
▁ZMİR	-7793
▁agaj	-7794
▁ahra	-7795
▁inop	-7796
▁lduğ	-7797
▁lenf	-7798
▁müşt	-7799
▁reli	-7800
▁reni	-7801
▁rtes	-7802
▁sedi	-7803
▁zarf	-7804
▁acılı	-7805
▁artma	-7806
▁dilme	-7807
▁erman	-7808
▁etiri	-7809
▁itnel	-7810
▁lesin	-7811
▁linin	-7812
▁ülkem	-7813
▁ılara	-7814
VP	-7815
ÇE	-7816
▁GA	-7817
▁MR	-7818
▁TS	-7819
▁VR	-7820
▁rr	-7821
▁yc	-7822
ENER	-7823
▁AKE	-7824
▁ATM	-7825
▁Dia	-7826
▁HGS	-7827
▁MHK	-7828
▁MYK	-7829
▁PSG	-7830
▁Rad	-7831
▁TME	-7832
▁Tim	-7833
▁ake	-7834
▁asl	-7835
▁ese	-7836
▁gea	-7837
▁lçe	-7838
▁urn	-7839
▁ÖTV	-7840
▁şağ	-7841
▁IKBY	-7842
▁STEK	-7843
▁eşid	-7844
▁gide	-7845
▁imur	-7846
▁lken	-7847
▁lobi	-7848
▁orya	-7849
▁ress	-7850
▁rkas	-7851
▁rown	-7852
▁veto	-7853
▁örüş	-7854
▁şmak	-7855
▁şısı	-7856
▁adila	-7857
▁ahall	-7858
▁aluke	-7859
▁asarı	-7860
▁manlı	-7861
▁ometr	-7862
▁riyel	-7863
AB	-7864
MU	-7865
ov	-7866
dik	-7867
▁UL	-7868
▁BAH	-7869
▁LYA	-7870
▁MLİ	-7871
▁RTI	-7872
▁Seb	-7873
▁Tom	-7874
▁etr	-7875
▁faa	-7876
▁ish	-7877
▁lov	-7878
▁peş	-7879
▁rsu	-7880
▁Buse	-7881
▁LARA	-7882
▁ehra	-7883
▁enko	-7884
▁exus	-7885
▁lerl	-7886
▁lmiş	-7887
▁ütle	-7888
▁Kulak	-7889
▁atırl	-7890
▁evher	-7891
▁lexis	-7892
▁ndıra	-7893
▁niyle	-7894
▁nımız	-7895
▁ourin	-7896
▁refah	-7897
▁risti	-7898
▁talan	-7899
▁teyze	-7900
▁yiğit	-7901
▁şinin	-7902
Vİ	-7903
Ya	-7904
uf	-7905
ole	-7906
▁Ju	-7907
▁Rö	-7908
▁Sn	-7909
▁UV	-7910
▁32.	-7911
▁Cup	-7912
▁DiC	-7913
▁Eda	-7914
▁NBA	-7915
▁PSV	-7916
▁RTA	-7917
▁TOP	-7918
▁Taş	-7919
▁dez	-7920
▁reb	-7921
▁ğız	-7922
▁Kele	-7923
▁adro	-7924
▁arni	-7925
▁arça	-7926
▁eher	-7927
▁elma	-7928
▁eydi	-7929
▁inko	-7930
▁lass	-7931
▁mati	-7932
▁nasi	-7933
▁nlen	-7934
▁ritm	-7935
▁taar	-7936
▁yala	-7937
▁zekâ	-7938
▁çile	-7939
▁üşük	-7940
▁Sudan	-7941
▁akses	-7942
▁cisim	-7943
▁etind	-7944
▁şunla	-7945
OJ	-7946
gh	-7947
ğin	-7948
▁AÖ	-7949
▁CD	-7950
▁wa	-7951
▁ÜÇ	-7952
▁Gir	-7953
▁Sna	-7954
▁Yüz	-7955
▁fıs	-7956
▁hai	-7957
▁lir	-7958
▁lıp	-7959
▁pop	-7960
▁teç	-7961
▁ulü	-7962
▁çat	-7963
▁Fiat	-7964
▁Frei	-7965
▁ango	-7966
▁eyza	-7967
▁illo	-7968
▁inip	-7969
▁iola	-7970
▁mala	-7971
▁mert	-7972
▁muaz	-7973
▁nıtı	-7974
▁rdon	-7975
▁traf	-7976
▁zmet	-7977
▁ülüş	-7978
▁şefi	-7979
▁alife	-7980
▁arlos	-7981
▁ispat	-7982
▁iynet	-7983
▁linde	-7984
▁renci	-7985
RO	-7986
pi	-7987
▁[	-7988
des	-7989
pil	-7990
▁1)	-7991
▁fl	-7992
▁pl	-7993
▁wi	-7994
▁Ün	-7995
LARI	-7996
▁AVA	-7997
▁Kri	-7998
▁MIZ	-7999
▁NTA	-8000
▁Nam	-8001
▁Red	-8002
▁SAT	-8003
▁TRA	-8004
▁iam	-8005
▁ick	-8006
▁pma	-8007
▁reg	-8008
▁ssa	-8009
▁sse	-8010
▁stü	-8011
▁tha	-8012
▁ırı	-8013
▁şli	-8014
▁ALDI	-8015
▁arba	-8016
▁dale	-8017
▁egan	-8018
▁ekos	-8019
▁eman	-8020
▁laşa	-8021
▁lter	-8022
▁mele	-8023
▁vler	-8024
▁FENER	-8025
▁dikil	-8026
▁ileme	-8027
▁ldığı	-8028
▁reddi	-8029
▁valid	-8030
▁yanus	-8031
▁zafiy	-8032
▁şöhre	-8033
!)	-8034
ARI	-8035
SKA	-8036
azi	-8037
gua	-8038
▁ZA	-8039
▁sn	-8040
▁tö	-8041
▁Şİ	-8042
▁(!)	-8043
▁25.	-8044
▁Cep	-8045
▁Dan	-8046
▁Diz	-8047
▁Fik	-8048
▁GSY	-8049
▁LED	-8050
▁Oly	-8051
▁Sav	-8052
▁Tez	-8053
▁Tus	-8054
▁USK	-8055
▁YAŞ	-8056
▁afı	-8057
▁cıb	-8058
▁sid	-8059
▁taf	-8060
▁vaa	-8061
▁BMGK	-8062
▁Hamb	-8063
▁Pala	-8064
▁Rume	-8065
▁anes	-8066
▁apte	-8067
▁atıf	-8068
▁idar	-8069
▁ihay	-8070
▁ikos	-8071
▁kmek	-8072
▁luna	-8073
▁nazi	-8074
▁nemi	-8075
▁nevi	-8076
▁nsız	-8077
▁ouch	-8078
▁ÜNYA	-8079
▁Gamze	-8080
▁azibe	-8081
▁diğin	-8082
▁eryat	-8083
▁estel	-8084
▁hassa	-8085
▁kader	-8086
▁larım	-8087
▁pizza	-8088
▁rladı	-8089
▁stedi	-8090
Zİ	-8091
nia	-8092
zai	-8093
▁VA	-8094
▁sf	-8095
▁zk	-8096
▁zs	-8097
▁102	-8098
▁12,	-8099
▁240	-8100
▁4,5	-8101
▁ERE	-8102
▁Fir	-8103
▁Jes	-8104
▁Ram	-8105
▁Suç	-8106
▁UMH	-8107
▁You	-8108
▁eut	-8109
▁fta	-8110
▁ikt	-8111
▁ims	-8112
▁inf	-8113
▁okt	-8114
▁ığı	-8115
▁ARŞI	-8116
▁Krem	-8117
▁NDAN	-8118
▁Tusk	-8119
▁ader	-8120
▁arem	-8121
▁enli	-8122
▁etih	-8123
▁geld	-8124
▁hlak	-8125
▁iddi	-8126
▁iren	-8127
▁itha	-8128
▁kvad	-8129
▁lina	-8130
▁rdan	-8131
▁toch	-8132
▁yama	-8133
▁İYAR	-8134
▁aldun	-8135
▁ansür	-8136
▁aylan	-8137
▁dilen	-8138
▁elver	-8139
▁emper	-8140
▁eyner	-8141
▁ipras	-8142
▁kumaş	-8143
▁lukla	-8144
▁makro	-8145
▁maske	-8146
▁mecra	-8147
▁reviz	-8148
▁rince	-8149
▁sleri	-8150
▁vaadi	-8151
▁voley	-8152
▁zanne	-8153
▁ğlama	-8154
dad	-8155
ife	-8156
▁HR	-8157
▁Kâ	-8158
▁22.	-8159
▁65.	-8160
▁650	-8161
▁AGİ	-8162
▁ALİ	-8163
▁Kad	-8164
▁Mas	-8165
▁RDİ	-8166
▁Rey	-8167
▁Ves	-8168
▁asy	-8169
▁ays	-8170
▁con	-8171
▁ech	-8172
▁hac	-8173
▁hme	-8174
▁hri	-8175
▁meb	-8176
▁mei	-8177
▁olm	-8178
▁oot	-8179
▁pik	-8180
▁tuş	-8181
▁LYAR	-8182
▁ahis	-8183
▁atkı	-8184
▁bulm	-8185
▁esaj	-8186
▁ezan	-8187
▁iPad	-8188
▁ikay	-8189
▁izim	-8190
▁jest	-8191
▁kanç	-8192
▁lens	-8193
▁mony	-8194
▁sila	-8195
▁urat	-8196
▁yaka	-8197
▁zyon	-8198
▁Karan	-8199
▁debil	-8200
▁evfik	-8201
▁fında	-8202
▁keler	-8203
▁merhu	-8204
▁nafak	-8205
▁remit	-8206
▁vapur	-8207
▁şimin	-8208
PS	-8209
ja	-8210
▁EG	-8211
▁1.6	-8212
▁135	-8213
▁50.	-8214
▁550	-8215
▁7-8	-8216
▁AYI	-8217
▁ETT	-8218
▁Evi	-8219
▁GSS	-8220
▁Key	-8221
▁Kül	-8222
▁Reş	-8223
▁TCK	-8224
▁Zay	-8225
▁ack	-8226
▁omb	-8227
▁rzu	-8228
▁spa	-8229
▁uth	-8230
▁ürt	-8231
▁CAĞI	-8232
▁abia	-8233
▁aleb	-8234
▁asim	-8235
▁aşim	-8236
▁edim	-8237
▁emre	-8238
▁erfo	-8239
▁esta	-8240
▁etic	-8241
▁hals	-8242
▁ihir	-8243
▁imit	-8244
▁kati	-8245
▁kbal	-8246
▁ldür	-8247
▁medy	-8248
▁ntep	-8249
▁onca	-8250
▁rden	-8251
▁ride	-8252
▁runo	-8253
▁zami	-8254
▁örme	-8255
▁örün	-8256
▁öylü	-8257
▁ürih	-8258
▁ılda	-8259
▁Hazal	-8260
▁dikiş	-8261
▁ellen	-8262
▁esinl	-8263
▁ilano	-8264
▁nişan	-8265
▁tekno	-8266
▁ırlık	-8267
BS	-8268
BU	-8269
RS	-8270
ie	-8271
▁]	-8272
ERE	-8273
STE	-8274
ane	-8275
ent	-8276
onk	-8277
▁Fİ	-8278
▁Vİ	-8279
▁15,	-8280
▁35.	-8281
▁KAN	-8282
▁MAH	-8283
▁Meş	-8284
▁NCİ	-8285
▁OSB	-8286
▁RMA	-8287
▁Ray	-8288
▁Sil	-8289
▁TTI	-8290
▁Vir	-8291
▁bid	-8292
▁dia	-8293
▁efi	-8294
▁fas	-8295
▁gas	-8296
▁lut	-8297
▁ndr	-8298
▁sli	-8299
▁sül	-8300
▁İDO	-8301
▁Şak	-8302
▁DİSK	-8303
▁EDEF	-8304
▁Gana	-8305
▁amas	-8306
▁avis	-8307
▁evap	-8308
▁llen	-8309
▁lunu	-8310
▁meno	-8311
▁ouse	-8312
▁sman	-8313
▁ylan	-8314
▁ylık	-8315
▁şini	-8316
▁Fikir	-8317
▁USKON	-8318
▁arnes	-8319
▁enfur	-8320
▁geler	-8321
▁istle	-8322
▁oları	-8323
▁zulmü	-8324
▁ülbül	-8325
▁Şeria	-8326
GB	-8327
SYA	-8328
▁2)	-8329
▁GÖ	-8330
▁OC	-8331
▁ZI	-8332
▁âh	-8333
▁115	-8334
▁26.	-8335
▁28.	-8336
▁30.	-8337
▁Buz	-8338
▁Cla	-8339
▁Dat	-8340
▁Saç	-8341
▁Yer	-8342
▁cup	-8343
▁ial	-8344
▁iba	-8345
▁kia	-8346
▁kir	-8347
▁lub	-8348
▁own	-8349
▁rex	-8350
▁tış	-8351
▁yni	-8352
▁İYİ	-8353
▁Şaş	-8354
▁Şık	-8355
▁şaş	-8356
▁DAHA	-8357
▁Rabb	-8358
▁VERİ	-8359
▁abur	-8360
▁adel	-8361
▁eyiz	-8362
▁fonu	-8363
▁iana	-8364
▁ksin	-8365
▁libi	-8366
▁loka	-8367
▁msuz	-8368
▁timi	-8369
▁tiyo	-8370
▁tone	-8371
▁tran	-8372
▁amanı	-8373
▁azarı	-8374
▁buhar	-8375
▁bunda	-8376
▁enlik	-8377
▁evhid	-8378
▁ishal	-8379
▁issan	-8380
▁kabus	-8381
▁lakap	-8382
▁lanıl	-8383
▁lavye	-8384
▁resep	-8385
ces	-8386
dra	-8387
gas	-8388
kid	-8389
▁MK	-8390
▁Ph	-8391
▁tf	-8392
▁İF	-8393
iraj	-8394
▁1.2	-8395
▁53.	-8396
▁ALA	-8397
▁ESA	-8398
▁Git	-8399
▁Hip	-8400
▁Kat	-8401
▁Kro	-8402
▁Lag	-8403
▁Reh	-8404
▁Rol	-8405
▁Ted	-8406
▁hop	-8407
▁hor	-8408
▁hou	-8409
▁leb	-8410
▁lün	-8411
▁çük	-8412
▁CSKA	-8413
▁LERE	-8414
▁OTAŞ	-8415
▁alnı	-8416
▁amba	-8417
▁atit	-8418
▁ekno	-8419
▁evat	-8420
▁frin	-8421
▁fyon	-8422
▁ifşa	-8423
▁inel	-8424
▁izyo	-8425
▁kota	-8426
▁mani	-8427
▁uhal	-8428
▁vlen	-8429
▁çent	-8430
▁Didim	-8431
▁UMHUR	-8432
▁emtia	-8433
▁israf	-8434
▁lasti	-8435
▁lokal	-8436
▁mazer	-8437
▁zkere	-8438
▁üccar	-8439
AM	-8440
GÜ	-8441
cc	-8442
yl	-8443
Çİ	-8444
amb	-8445
ela	-8446
mal	-8447
▁(4	-8448
▁9'	-8449
▁Bi	-8450
▁NG	-8451
▁NU	-8452
gili	-8453
▁1.3	-8454
▁13,	-8455
▁27.	-8456
▁AZI	-8457
▁AZİ	-8458
▁Kus	-8459
▁Let	-8460
▁Ren	-8461
▁SON	-8462
▁aht	-8463
▁doh	-8464
▁meç	-8465
▁pya	-8466
▁rew	-8467
▁çiğ	-8468
▁önl	-8469
▁üpe	-8470
▁İKİ	-8471
▁ıla	-8472
▁BEŞİ	-8473
▁MHRS	-8474
▁YouT	-8475
▁ardo	-8476
▁enaj	-8477
▁enti	-8478
▁eyse	-8479
▁hlas	-8480
▁ilec	-8481
▁imen	-8482
▁koli	-8483
▁marş	-8484
▁mbal	-8485
▁rduk	-8486
▁teve	-8487
▁ubat	-8488
▁zırh	-8489
▁üşme	-8490
▁ıkan	-8491
▁akina	-8492
▁arara	-8493
▁berle	-8494
▁didik	-8495
▁egane	-8496
▁eşvik	-8497
▁ingle	-8498
▁lgili	-8499
▁likid	-8500
▁maymu	-8501
▁njonk	-8502
▁ouble	-8503
▁zikre	-8504
âl	-8505
emi	-8506
▁Bh	-8507
▁Gİ	-8508
▁sm	-8509
▁uo	-8510
▁103	-8511
▁2-2	-8512
▁40.	-8513
▁ECB	-8514
▁ELİ	-8515
▁Hua	-8516
▁KIR	-8517
▁MAN	-8518
▁Mey	-8519
▁eyf	-8520
▁iga	-8521
▁izd	-8522
▁neğ	-8523
▁ool	-8524
▁pul	-8525
▁rej	-8526
▁vra	-8527
▁üya	-8528
▁ASAK	-8529
▁TÜFE	-8530
▁irol	-8531
▁klem	-8532
▁kred	-8533
▁kılı	-8534
▁lanl	-8535
▁link	-8536
▁mast	-8537
▁olsu	-8538
▁rler	-8539
▁slam	-8540
▁taya	-8541
▁yaza	-8542
▁zeki	-8543
▁üreç	-8544
▁ıktı	-8545
▁ıraç	-8546
▁Haber	-8547
▁amamı	-8548
▁ercih	-8549
▁eylik	-8550
▁fitil	-8551
▁incar	-8552
▁masaj	-8553
▁nsari	-8554
▁nüfuz	-8555
▁nılma	-8556
▁treet	-8557
▁urnal	-8558
▁valiz	-8559
▁yordu	-8560
NG	-8561
NI	-8562
OB	-8563
ZA	-8564
op	-8565
DEM	-8566
bbe	-8567
zir	-8568
▁(5	-8569
▁AE	-8570
▁Aİ	-8571
▁MU	-8572
▁PC	-8573
▁114	-8574
▁33.	-8575
▁ECD	-8576
▁LES	-8577
▁Muş	-8578
▁NTE	-8579
▁RIM	-8580
▁SAN	-8581
▁SUR	-8582
▁Sık	-8583
▁ado	-8584
▁eşt	-8585
▁nev	-8586
▁oji	-8587
▁rub	-8588
▁utb	-8589
▁xpo	-8590
▁yra	-8591
▁âli	-8592
▁ARAR	-8593
▁OLAR	-8594
▁TOMA	-8595
▁acıy	-8596
▁alep	-8597
▁anıy	-8598
▁dana	-8599
▁epil	-8600
▁frik	-8601
▁ling	-8602
▁lipo	-8603
▁mark	-8604
▁meti	-8605
▁mola	-8606
▁norm	-8607
▁ross	-8608
▁teye	-8609
▁umru	-8610
▁yakl	-8611
▁ÖNCE	-8612
▁ÖZEL	-8613
▁ıkın	-8614
▁ılık	-8615
▁Hamil	-8616
▁afran	-8617
▁ayfun	-8618
▁dirme	-8619
▁fasul	-8620
▁idans	-8621
▁inson	-8622
▁kemot	-8623
▁koçya	-8624
▁kılıf	-8625
▁ndent	-8626
▁selam	-8627
▁tevaz	-8628
▁tları	-8629
▁tolik	-8630
▁veril	-8631
▁üreci	-8632
YO	-8633
daş	-8634
lig	-8635
oro	-8636
şan	-8637
▁"4	-8638
▁xp	-8639
▁104	-8640
▁190	-8641
▁330	-8642
▁52.	-8643
▁AÖF	-8644
▁Gay	-8645
▁KOM	-8646
▁Teb	-8647
▁Tüp	-8648
▁ach	-8649
▁bab	-8650
▁dai	-8651
▁enç	-8652
▁eva	-8653
▁eyh	-8654
▁kot	-8655
▁lyo	-8656
▁oth	-8657
▁ria	-8658
▁ruç	-8659
▁umd	-8660
▁şad	-8661
▁Huaw	-8662
▁akli	-8663
▁apne	-8664
▁asma	-8665
▁euts	-8666
▁ezil	-8667
▁güve	-8668
▁idon	-8669
▁inic	-8670
▁ipül	-8671
▁isca	-8672
▁kuaf	-8673
▁rang	-8674
▁rnia	-8675
▁urel	-8676
▁vago	-8677
▁yele	-8678
▁üşra	-8679
▁İLGİ	-8680
▁Luces	-8681
▁anımı	-8682
▁aslak	-8683
▁aşımı	-8684
▁birli	-8685
▁incan	-8686
▁kabir	-8687
▁kinli	-8688
▁meier	-8689
▁sapla	-8690
▁İŞKUR	-8691
▁şanti	-8692
ct	-8693
DEN	-8694
ERİ	-8695
SİN	-8696
cas	-8697
dye	-8698
itu	-8699
ner	-8700
ros	-8701
▁IC	-8702
▁RÜ	-8703
▁We	-8704
▁vr	-8705
▁ÖY	-8706
▁ân	-8707
▁ıh	-8708
okal	-8709
▁116	-8710
▁14,	-8711
▁850	-8712
▁AĞI	-8713
▁CNR	-8714
▁Dab	-8715
▁GSM	-8716
▁LME	-8717
▁Nad	-8718
▁Yan	-8719
▁YÜK	-8720
▁Zab	-8721
▁aşl	-8722
▁dre	-8723
▁duş	-8724
▁eth	-8725
▁laj	-8726
▁pta	-8727
▁pus	-8728
▁riğ	-8729
▁ruy	-8730
▁sıy	-8731
▁uto	-8732
▁Dini	-8733
▁KTAŞ	-8734
▁MKYK	-8735
▁ODTÜ	-8736
▁URSA	-8737
▁addi	-8738
▁akto	-8739
▁amac	-8740
▁araj	-8741
▁arfi	-8742
▁asum	-8743
▁bira	-8744
▁cial	-8745
▁erap	-8746
▁etül	-8747
▁ilci	-8748
▁iles	-8749
▁leni	-8750
▁ndaj	-8751
▁rson	-8752
▁tate	-8753
▁tlas	-8754
▁toka	-8755
▁ukla	-8756
▁umun	-8757
▁ürüy	-8758
▁Reşat	-8759
▁ahmin	-8760
▁edbir	-8761
▁eytan	-8762
▁fidye	-8763
▁ikmal	-8764
▁ineko	-8765
▁liyat	-8766
▁nizam	-8767
▁zuela	-8768
▁ünika	-8769
10	-8770
AŞ	-8771
uc	-8772
▁>	-8773
TİM	-8774
▁hı	-8775
▁18,	-8776
▁220	-8777
▁270	-8778
▁AMK	-8779
▁BTK	-8780
▁ERİ	-8781
▁KUR	-8782
▁LNG	-8783
▁Mud	-8784
▁Ova	-8785
▁OĞU	-8786
▁Raf	-8787
▁Ven	-8788
▁YAK	-8789
▁aik	-8790
▁eys	-8791
▁gio	-8792
▁idd	-8793
▁ius	-8794
▁muk	-8795
▁neb	-8796
▁owa	-8797
▁rig	-8798
▁rıc	-8799
▁tki	-8800
▁unk	-8801
▁ÇED	-8802
▁ÖNÜ	-8803
▁örd	-8804
▁ıkı	-8805
▁Daim	-8806
▁ERKE	-8807
▁GSYH	-8808
▁abip	-8809
▁akir	-8810
▁alid	-8811
▁arco	-8812
▁açka	-8813
▁blig	-8814
▁dede	-8815
▁etra	-8816
▁eyzi	-8817
▁habe	-8818
▁iret	-8819
▁ndir	-8820
▁rtun	-8821
▁usla	-8822
▁ydan	-8823
▁Didem	-8824
▁Mekan	-8825
▁Tıbbi	-8826
▁Vasip	-8827
▁alifo	-8828
▁arraf	-8829
▁cehen	-8830
▁dediğ	-8831
▁erazi	-8832
▁ernie	-8833
▁iliği	-8834
▁nasib	-8835
▁olfsb	-8836
▁ordro	-8837
▁ortum	-8838
▁rexit	-8839
▁rhang	-8840
12	-8841
KU	-8842
MK	-8843
fü	-8844
ps	-8845
ua	-8846
ûn	-8847
any	-8848
ila	-8849
ito	-8850
nez	-8851
ore	-8852
▁3)	-8853
▁DK	-8854
▁DS	-8855
▁DT	-8856
▁155	-8857
▁17,	-8858
▁31.	-8859
▁34.	-8860
▁5.5	-8861
▁All	-8862
▁AÇI	-8863
▁Inf	-8864
▁MGK	-8865
▁NSU	-8866
▁RDO	-8867
▁SIM	-8868
▁YIZ	-8869
▁cah	-8870
▁dız	-8871
▁efe	-8872
▁igu	-8873
▁kım	-8874
▁ocu	-8875
▁zıt	-8876
▁ÇIK	-8877
▁çta	-8878
▁ürl	-8879
▁ütl	-8880
▁ĞAN	-8881
▁İLİ	-8882
▁ŞTU	-8883
▁AFTA	-8884
▁DEİK	-8885
▁GELİ	-8886
▁YATI	-8887
▁arah	-8888
▁arap	-8889
▁arıt	-8890
▁atak	-8891
▁atio	-8892
▁azab	-8893
▁dild	-8894
▁enva	-8895
▁ezai	-8896
▁geni	-8897
▁guez	-8898
▁ifat	-8899
▁ilay	-8900
▁izan	-8901
▁mayd	-8902
▁nlam	-8903
▁oroz	-8904
▁rakı	-8905
▁rağb	-8906
▁reis	-8907
▁sava	-8908
▁stra	-8909
▁ümer	-8910
▁Meyve	-8911
▁ardar	-8912
▁arfüm	-8913
▁divan	-8914
▁elenk	-8915
▁errak	-8916
▁levha	-8917
▁pleri	-8918
▁rugua	-8919
▁Şakir	-8920
ib	-8921
İP	-8922
cks	-8923
ora	-8924
▁FT	-8925
▁NS	-8926
▁nr	-8927
eraf	-8928
▁280	-8929
▁3-5	-8930
▁4-0	-8931
▁6.5	-8932
▁ARD	-8933
▁ARE	-8934
▁ATA	-8935
▁BMW	-8936
▁GÜN	-8937
▁HER	-8938
▁Kıl	-8939
▁OYU	-8940
▁Pen	-8941
▁Rai	-8942
▁SEL	-8943
▁Sta	-8944
▁VIP	-8945
▁YLE	-8946
▁aar	-8947
▁abe	-8948
▁atb	-8949
▁dra	-8950
▁els	-8951
▁elâ	-8952
▁eze	-8953
▁iet	-8954
▁kıt	-8955
▁lly	-8956
▁lüp	-8957
▁meg	-8958
▁nna	-8959
▁pıh	-8960
▁rra	-8961
▁vam	-8962
▁war	-8963
▁Çay	-8964
▁önt	-8965
▁ĞLU	-8966
▁şal	-8967
▁şte	-8968
▁Dona	-8969
▁Tren	-8970
▁UTUK	-8971
▁ahec	-8972
▁akil	-8973
▁amda	-8974
▁amla	-8975
▁atun	-8976
▁aylo	-8977
▁balı	-8978
▁dola	-8979
▁drar	-8980
▁edri	-8981
▁eken	-8982
▁etva	-8983
▁eşir	-8984
▁gede	-8985
▁hina	-8986
▁icab	-8987
▁imay	-8988
▁iple	-8989
▁irya	-8990
▁itel	-8991
▁iyon	-8992
▁klim	-8993
▁oler	-8994
▁rian	-8995
▁rner	-8996
▁rımı	-8997
▁soba	-8998
▁tava	-8999
▁usse	-9000
▁ümün	-9001
▁üpür	-9002
▁şara	-9003
▁AKİKA	-9004
▁Kenya	-9005
▁TANAP	-9006
▁YILDI	-9007
▁endil	-9008
▁eynin	-9009
▁iftar	-9010
▁kadim	-9011
▁linke	-9012
▁metle	-9013
▁mirza	-9014
▁mpany	-9015
▁nezar	-9016
▁ridge	-9017
▁rkiye	-9018
▁rtivo	-9019
▁viraj	-9020
▁zaval	-9021
▁zulme	-9022
BO	-9023
Pİ	-9024
ant	-9025
ins	-9026
▁DP	-9027
▁FD	-9028
▁NO	-9029
▁PP	-9030
▁PR	-9031
▁cG	-9032
▁md	-9033
▁zh	-9034
übra	-9035
▁113	-9036
▁16,	-9037
▁301	-9038
▁ATO	-9039
▁Köy	-9040
▁LTE	-9041
▁Niz	-9042
▁RLİ	-9043
▁Rev	-9044
▁STA	-9045
▁ULU	-9046
▁ZON	-9047
▁cus	-9048
▁doz	-9049
▁gri	-9050
▁hab	-9051
▁küp	-9052
▁nad	-9053
▁riv	-9054
▁rüs	-9055
▁ylo	-9056
▁ÜVE	-9057
▁ğil	-9058
▁Şer	-9059
▁Şof	-9060
▁AŞBA	-9061
▁Eğit	-9062
▁IKTI	-9063
▁Mine	-9064
▁ONRA	-9065
▁SÜRE	-9066
▁TRAB	-9067
▁ahad	-9068
▁ahşi	-9069
▁alak	-9070
▁apla	-9071
▁apur	-9072
▁atra	-9073
▁ello	-9074
▁eril	-9075
▁erun	-9076
▁eğri	-9077
▁ihya	-9078
▁ilas	-9079
▁insa	-9080
▁iril	-9081
▁isse	-9082
▁kted	-9083
▁mezh	-9084
▁müna	-9085
▁ulti	-9086
▁zgâh	-9087
▁öste	-9088
▁İSTİ	-9089
▁Dabık	-9090
▁Kübra	-9091
▁YAPTI	-9092
▁anına	-9093
▁avşan	-9094
▁ağına	-9095
▁ağını	-9096
▁ersey	-9097
▁eyran	-9098
▁ferdi	-9099
▁mukav	-9100
▁oussa	-9101
▁ranan	-9102
▁runda	-9103
▁zenle	-9104
▁ırada	-9105
og	-9106
LİS	-9107
ake	-9108
bus	-9109
hua	-9110
lie	-9111
▁"5	-9112
▁BJ	-9113
▁IF	-9114
▁KU	-9115
▁LT	-9116
▁MB	-9117
▁fD	-9118
▁ll	-9119
▁1,3	-9120
▁1.1	-9121
▁182	-9122
▁39.	-9123
▁60.	-9124
▁ALE	-9125
▁ATV	-9126
▁Det	-9127
▁FAR	-9128
▁Mec	-9129
▁Mim	-9130
▁Rot	-9131
▁USB	-9132
▁alf	-9133
▁bor	-9134
▁cha	-9135
▁cit	-9136
▁koz	-9137
▁loğ	-9138
▁tya	-9139
▁İTO	-9140
▁CEĞİ	-9141
▁Dena	-9142
▁Kobe	-9143
▁ONYA	-9144
▁Roda	-9145
▁abat	-9146
▁aham	-9147
▁aidi	-9148
▁amsi	-9149
▁aren	-9150
▁eğim	-9151
▁farz	-9152
▁feth	-9153
▁ffet	-9154
▁icik	-9155
▁loko	-9156
▁luet	-9157
▁okta	-9158
▁oros	-9159
▁ouis	-9160
▁plum	-9161
▁pody	-9162
▁raft	-9163
▁rece	-9164
▁rini	-9165
▁rton	-9166
▁them	-9167
▁uphi	-9168
▁utma	-9169
▁ürat	-9170
▁üşün	-9171
▁Metal	-9172
▁Nadir	-9173
▁Refah	-9174
▁Resul	-9175
▁agnez	-9176
▁amayı	-9177
▁bucak	-9178
▁eliha	-9179
▁ennif	-9180
▁eşitl	-9181
▁lmalı	-9182
▁meçhu	-9183
▁mpole	-9184
▁nefis	-9185
▁nezak	-9186
▁nimet	-9187
▁tanda	-9188
▁vokal	-9189
▁zerre	-9190
▁üğünü	-9191
▁şahsı	-9192
PE	-9193
BİS	-9194
ino	-9195
zer	-9196
▁"7	-9197
▁BK	-9198
▁DJ	-9199
▁DO	-9200
▁EF	-9201
▁TM	-9202
eler	-9203
▁36.	-9204
▁7.5	-9205
▁AVU	-9206
▁AZA	-9207
▁Dun	-9208
▁ESK	-9209
▁MAK	-9210
▁MEN	-9211
▁Pal	-9212
▁RAM	-9213
▁SDG	-9214
▁Vur	-9215
▁YAN	-9216
▁ael	-9217
▁bın	-9218
▁imm	-9219
▁irl	-9220
▁lid	-9221
▁nağ	-9222
▁nle	-9223
▁sue	-9224
▁uni	-9225
▁von	-9226
▁AKUT	-9227
▁ARDI	-9228
▁Diya	-9229
▁Kına	-9230
▁Myan	-9231
▁OĞLU	-9232
▁SURİ	-9233
▁Sara	-9234
▁Sare	-9235
▁ahya	-9236
▁aksı	-9237
▁alez	-9238
▁anaş	-9239
▁apım	-9240
▁aras	-9241
▁arbi	-9242
▁ariz	-9243
▁bolc	-9244
▁durm	-9245
▁ebay	-9246
▁ediy	-9247
▁hası	-9248
▁ilel	-9249
▁ilki	-9250
▁ions	-9251
▁iğre	-9252
▁kora	-9253
▁laca	-9254
▁mbel	-9255
▁mest	-9256
▁mite	-9257
▁nano	-9258
▁onna	-9259
▁orla	-9260
▁rass	-9261
▁reko	-9262
▁riay	-9263
▁söyl	-9264
▁sıca	-9265
▁tock	-9266
▁trol	-9267
▁tsız	-9268
▁tıkl	-9269
▁ulaf	-9270
▁weet	-9271
▁ymes	-9272
▁çlan	-9273
▁çler	-9274
▁üntü	-9275
▁ŞKAN	-9276
▁şefk	-9277
▁CAĞIZ	-9278
▁Lucas	-9279
▁Nizam	-9280
▁Tesla	-9281
▁YÜKSE	-9282
▁aidiy	-9283
▁eyyid	-9284
▁houhe	-9285
▁labil	-9286
▁misal	-9287
▁ogher	-9288
▁oyunc	-9289
▁rmann	-9290
▁ŞEHİR	-9291
▁Şeraf	-9292
TS	-9293
gir	-9294
igh	-9295
iko	-9296
âne	-9297
şaf	-9298
▁8-	-9299
▁EB	-9300
▁Hİ	-9301
▁bg	-9302
▁105	-9303
▁29.	-9304
▁ANA	-9305
▁Bol	-9306
▁Efe	-9307
▁Nav	-9308
▁RAY	-9309
▁Tru	-9310
▁Yen	-9311
▁arh	-9312
▁biy	-9313
▁fle	-9314
▁hev	-9315
▁hla	-9316
▁ird	-9317
▁keb	-9318
▁lgo	-9319
▁rep	-9320
▁rşi	-9321
▁zah	-9322
▁ŞME	-9323
▁Dimi	-9324
▁Gene	-9325
▁Kafe	-9326
▁Plaj	-9327
▁Poke	-9328
▁ahip	-9329
▁akos	-9330
▁apsa	-9331
▁avai	-9332
▁avva	-9333
▁bilg	-9334
▁bomb	-9335
▁ense	-9336
▁epki	-9337
▁etve	-9338
▁ezik	-9339
▁eşer	-9340
▁hiza	-9341
▁icat	-9342
▁ikon	-9343
▁ilva	-9344
▁maha	-9345
▁nane	-9346
▁revi	-9347
▁seve	-9348
▁tlan	-9349
▁ukas	-9350
▁unar	-9351
▁yten	-9352
▁ÖSTE	-9353
▁ükmü	-9354
▁ürdü	-9355
▁BEDAŞ	-9356
▁LANDI	-9357
▁Vesel	-9358
▁anlan	-9359
▁arşaf	-9360
▁azhar	-9361
▁derle	-9362
▁erhan	-9363
▁errin	-9364
▁idane	-9365
▁ketin	-9366
▁lakab	-9367
▁leler	-9368
▁malul	-9369
▁nunda	-9370
▁ustin	-9371
▁zları	-9372
▁ılığı	-9373
▁ındığ	-9374
DF	-9375
El	-9376
ac	-9377
fu	-9378
Üç	-9379
LAN	-9380
bic	-9381
ink	-9382
itz	-9383
ola	-9384
çay	-9385
▁Fe	-9386
▁GS	-9387
▁HS	-9388
▁PM	-9389
▁dw	-9390
▁gn	-9391
▁tç	-9392
EREF	-9393
▁(3)	-9394
▁1.4	-9395
▁107	-9396
▁128	-9397
▁260	-9398
▁38.	-9399
▁AMA	-9400
▁EME	-9401
▁GAP	-9402
▁Gat	-9403
▁Jas	-9404
▁Kuş	-9405
▁OVP	-9406
▁RME	-9407
▁Rud	-9408
▁bed	-9409
▁cad	-9410
▁hür	-9411
▁ksp	-9412
▁kıp	-9413
▁lağ	-9414
▁lix	-9415
▁luy	-9416
▁mic	-9417
▁mih	-9418
▁owl	-9419
▁uge	-9420
▁ute	-9421
▁ĞUZ	-9422
▁ğım	-9423
▁Bale	-9424
▁LİRA	-9425
▁Rami	-9426
▁STAT	-9427
▁ULLA	-9428
▁USYA	-9429
▁afha	-9430
▁azil	-9431
▁açta	-9432
▁erba	-9433
▁erem	-9434
▁erle	-9435
▁eçer	-9436
▁faşi	-9437
▁gdan	-9438
▁hatt	-9439
▁ibra	-9440
▁ihal	-9441
▁iter	-9442
▁izbo	-9443
▁keyf	-9444
▁liya	-9445
▁olle	-9446
▁olvo	-9447
▁onde	-9448
▁oray	-9449
▁otob	-9450
▁rafa	-9451
▁raha	-9452
▁rgun	-9453
▁rina	-9454
▁rşiv	-9455
▁taht	-9456
▁vran	-9457
▁üşen	-9458
▁ğlan	-9459
▁Şiir	-9460
▁şlar	-9461
▁Mehme	-9462
▁VERDİ	-9463
▁amaya	-9464
▁arçın	-9465
▁erpil	-9466
▁erton	-9467
▁ferah	-9468
▁gasus	-9469
▁iyazi	-9470
▁llega	-9471
▁lmeye	-9472
▁mazot	-9473
▁nakdi	-9474
▁ramaz	-9475
▁ırmak	-9476
▁ŞEREF	-9477
▁şenko	-9478
GM	-9479
KÜ	-9480
LO	-9481
La	-9482
uh	-9483
CAN	-9484
azz	-9485
▁"6	-9486
▁(6	-9487
▁01	-9488
▁06	-9489
▁RK	-9490
▁TG	-9491
▁by	-9492
▁kd	-9493
▁tk	-9494
▁zc	-9495
▁Şü	-9496
erie	-9497
▁101	-9498
▁165	-9499
▁20,	-9500
▁230	-9501
▁320	-9502
▁45.	-9503
▁6,5	-9504
▁AKK	-9505
▁BJK	-9506
▁Boz	-9507
▁DİN	-9508
▁Emr	-9509
▁EÇİ	-9510
▁Jer	-9511
▁Jon	-9512
▁Kab	-9513
▁LPG	-9514
▁Lib	-9515
▁Lov	-9516
▁NTI	-9517
▁RAK	-9518
▁Sad	-9519
▁TEK	-9520
▁VRU	-9521
▁VUR	-9522
▁Vuk	-9523
▁atr	-9524
▁cal	-9525
▁erj	-9526
▁ilb	-9527
▁lke	-9528
▁mca	-9529
▁mme	-9530
▁rix	-9531
▁ung	-9532
▁xim	-9533
▁ÖZÜ	-9534
▁İYA	-9535
▁ARİH	-9536
▁AĞLI	-9537
▁DANA	-9538
▁Doye	-9539
▁KALE	-9540
▁Ovac	-9541
▁Part	-9542
▁Rubi	-9543
▁SPOR	-9544
▁Sisi	-9545
▁Veya	-9546
▁andi	-9547
▁angu	-9548
▁anju	-9549
▁back	-9550
▁elva	-9551
▁ilve	-9552
▁imül	-9553
▁insk	-9554
▁lmak	-9555
▁matb	-9556
▁mond	-9557
▁ning	-9558
▁oldo	-9559
▁rade	-9560
▁rome	-9561
▁sale	-9562
▁zarı	-9563
▁zenf	-9564
▁ÖLGE	-9565
▁üslü	-9566
▁üzit	-9567
▁Beden	-9568
▁Damat	-9569
▁YORUM	-9570
▁afari	-9571
▁akçay	-9572
▁antim	-9573
▁antos	-9574
▁aştır	-9575
▁insaf	-9576
▁lahom	-9577
▁metan	-9578
▁nmeye	-9579
▁ryant	-9580
▁tilki	-9581
▁utnik	-9582
▁yetle	-9583
▁ürşat	-9584
▁ırlan	-9585
▁ŞKANI	-9586
LC	-9587
ss	-9588
xi	-9589
GUL	-9590
ato	-9591
bao	-9592
hut	-9593
ick	-9594
iny	-9595
mad	-9596
rao	-9597
▁LK	-9598
▁ZE	-9599
▁bs	-9600
▁yp	-9601
▁Ça	-9602
▁ÜL	-9603
▁ıc	-9604
▁106	-9605
▁185	-9606
▁22,	-9607
▁66.	-9608
▁ANİ	-9609
▁AŞI	-9610
▁Blu	-9611
▁Dağ	-9612
▁DİR	-9613
▁Jüp	-9614
▁Kef	-9615
▁TAR	-9616
▁YİN	-9617
▁Zır	-9618
▁arr	-9619
▁aym	-9620
▁gür	-9621
▁hew	-9622
▁lür	-9623
▁rre	-9624
▁uer	-9625
▁yün	-9626
▁ÜYÜ	-9627
▁ûre	-9628
▁ğsü	-9629
▁İşi	-9630
▁AKAN	-9631
▁Boko	-9632
▁GALA	-9633
▁Hipo	-9634
▁YÖNE	-9635
▁adar	-9636
▁alad	-9637
▁celi	-9638
▁ecik	-9639
▁eyik	-9640
▁ibet	-9641
▁ikro	-9642
▁klin	-9643
▁lyoz	-9644
▁mino	-9645
▁ngaj	-9646
▁ntin	-9647
▁orre	-9648
▁rady	-9649
▁radı	-9650
▁real	-9651
▁renc	-9652
▁ried	-9653
▁riyo	-9654
▁sara	-9655
▁tada	-9656
▁ulya	-9657
▁unde	-9658
▁Şart	-9659
▁aarif	-9660
▁ahver	-9661
▁arebe	-9662
▁arlie	-9663
▁arışı	-9664
▁cahit	-9665
▁dınla	-9666
▁elbet	-9667
▁eyyar	-9668
▁eğini	-9669
▁idrak	-9670
▁idyat	-9671
▁iflis	-9672
▁inkâr	-9673
▁isten	-9674
▁lanse	-9675
▁mları	-9676
▁mukab	-9677
▁tefan	-9678
▁tekli	-9679
▁terya	-9680
▁tıkır	-9681
▁çıvan	-9682
▁ördüğ	-9683
▁şacak	-9684
HT	-9685
SD	-9686
by	-9687
▁°	-9688
bed	-9689
ubi	-9690
▁(8	-9691
▁09	-9692
▁EĞ	-9693
▁ID	-9694
▁SY	-9695
▁br	-9696
▁gh	-9697
▁ŞU	-9698
drag	-9699
▁(1)	-9700
▁1.8	-9701
▁145	-9702
▁210	-9703
▁215	-9704
▁225	-9705
▁25,	-9706
▁365	-9707
▁Ari	-9708
▁BKM	-9709
▁Hac	-9710
▁Jim	-9711
▁KLİ	-9712
▁LUK	-9713
▁RKA	-9714
▁Ruh	-9715
▁TİB	-9716
▁Vak	-9717
▁Wik	-9718
▁YDG	-9719
▁Zah	-9720
▁bev	-9721
▁bot	-9722
▁dig	-9723
▁eno	-9724
▁ieb	-9725
▁iks	-9726
▁imb	-9727
▁lta	-9728
▁ssi	-9729
▁çil	-9730
▁çığ	-9731
▁ümb	-9732
▁üçe	-9733
▁İTÜ	-9734
▁ARAF	-9735
▁AİLE	-9736
▁AŞKA	-9737
▁KART	-9738
▁Kası	-9739
▁Kura	-9740
▁MOBE	-9741
▁NADO	-9742
▁Nail	-9743
▁OMBA	-9744
▁Poro	-9745
▁acer	-9746
▁aron	-9747
▁aşer	-9748
▁ebap	-9749
▁eiro	-9750
▁emsi	-9751
▁eriz	-9752
▁erna	-9753
▁eyan	-9754
▁hans	-9755
▁ibol	-9756
▁iley	-9757
▁ixon	-9758
▁leve	-9759
▁mans	-9760
▁mole	-9761
▁nsan	-9762
▁onuc	-9763
▁otaj	-9764
▁parl	-9765
▁perd	-9766
▁rtis	-9767
▁rtod	-9768
▁uang	-9769
▁vaaz	-9770
▁vari	-9771
▁yera	-9772
▁yeti	-9773
▁zama	-9774
▁ümen	-9775
▁ürre	-9776
▁üştü	-9777
▁ışan	-9778
▁Şaka	-9779
▁KADEM	-9780
▁Rubio	-9781
▁arris	-9782
▁atvan	-9783
▁elike	-9784
▁entez	-9785
▁ermiş	-9786
▁ettah	-9787
▁heves	-9788
▁ilyar	-9789
▁inkar	-9790
▁	-9791
a	-9792
e	-9793
i	-9794
n	-9795
r	-9796
l	-9797
ı	-9798
d	-9799
k	-9800
t	-9801
m	-9802
y	-9803
u	-9804
s	-9805
o	-9806
b	-9807
ü	-9808
ş	-9809
z	-9810
.	-9811
g	-9812
ğ	-9813
v	-9814
ç	-9815
h	-9816
c	-9817
,	-9818
p	-9819
ö	-9820
'	-9821
f	-9822
A	-9823
B	-9824
T	-9825
K	-9826
"	-9827
S	-9828
1	-9829
M	-9830
0	-9831
D	-9832
E	-9833
İ	-9834
2	-9835
H	-9836
G	-9837
Y	-9838
P	-9839
-	-9840
O	-9841
C	-9842
5	-9843
F	-9844
R	-9845
3	-9846
L	-9847
N	-9848
4	-9849
6	-9850
Ş	-9851
Ö	-9852
j	-9853
:	-9854
9	-9855
Ç	-9856
7	-9857
8	-9858
)	-9859
U	-9860
I	-9861
(	-9862
V	-9863
Ü	-9864
Z	-9865
?	-9866
!	-9867
;	-9868
J	-9869
â	-9870
w	-9871
x	-9872
­	-9873
W	-9874
/	-9875
`	-9876
Ğ	-9877
î	-9878
X	-9879
%	-9880
Q	-9881
&	-9882
q	-9883
+	-9884
*	-9885
û	-9886
◊	-9887
#	-9888
′	-9889
·	-9890
̈	-9891
@	-9892
̧	-9893
•	-9894
$	-9895
Â	-9896
̇	-9897
=	-9898
_	-9899
é	-9900
[	-9901
]	-9902
>	-9903
°	-9904
а	-9905
ˆ	-9906
ə	-9907
á	-9908
е	-9909
¦	-9910
ä	-9911
̆	-9912
¥	-9913
ó	-9914
ñ	-9915
€	-9916
í	-9917
\	-9918
	-9919
¬	-9920
å	-9921
è	-9922
⁄	-9923
ê	-9924
■	-9925
×	-9926
¡	-9927
®	-9928
ï	-9929
ø	-9930
ú	-9931
ć	-9932
⭐	-9933
️	-9934
^	-9935
£	-9936
Ä	-9937
à	-9938
æ	-9939
о	-9940
●	-9941
🇷	-9942
🇹	-9943
	-9944
É	-9945
Î	-9946
ß	-9947
ã	-9948
ƒ	-9949
α	-9950
і	-9951
ا	-9952
د	-9953
س	-9954
ل	-9955
و	-9956
ي	-9957
‬	-9958
∂	-9959
☮	-9960
👍	-9961
~	-9962
	-9963
Å	-9964
Ñ	-9965
Ø	-9966
Û	-9967
ë	-9968
ù	-9969
ē	-9970
ł	-9971
μ	-9972
Л	-9973
к	-9974
н	-9975
п	-9976
с	-9977
т	-9978
у	-9979
ة	-9980
ح	-9981
ر	-9982
غ	-9983
ق	-9984
م	-9985
ن	-9986
‫	-9987
›	-9988
🏆	-9989
🏻	-9990
👑	-9991
💋	-9992
💧	-9993
💰	-9994
😁	-9995
😊	-9996
