[UNK]	0
[CLS]	1
[SEP]	2
[PAD]	3
[MASK]	4
!	5
"	6
#	7
$	8
%	9
&	10
'	11
(	12
)	13
*	14
+	15
,	16
-	17
.	18
/	19
0	20
1	21
2	22
3	23
4	24
5	25
6	26
7	27
8	28
9	29
:	30
;	31
=	32
>	33
?	34
@	35
[	36
\	37
]	38
^	39
_	40
`	41
a	42
b	43
c	44
d	45
e	46
f	47
g	48
h	49
i	50
j	51
k	52
l	53
m	54
n	55
o	56
p	57
q	58
r	59
s	60
t	61
u	62
v	63
w	64
x	65
y	66
z	67
~	68
	69
	70
	71
	72
¡	73
£	74
¥	75
¦	76
¬	77
­	78
®	79
°	80
·	81
×	82
ß	83
à	84
á	85
â	86
ã	87
ä	88
å	89
æ	90
ç	91
è	92
é	93
ê	94
ë	95
í	96
î	97
ï	98
ñ	99
ó	100
ö	101
ø	102
ù	103
ú	104
û	105
ü	106
ć	107
ē	108
ğ	109
ı	110
ł	111
ş	112
ƒ	113
ə	114
ˆ	115
̆	116
̇	117
̈	118
̧	119
α	120
μ	121
а	122
е	123
к	124
л	125
н	126
о	127
п	128
с	129
т	130
у	131
і	132
ا	133
ة	134
ح	135
د	136
ر	137
س	138
غ	139
ق	140
ل	141
م	142
ن	143
و	144
ي	145
‎	146
‏	147
•	148
‫	149
‬	150
′	151
›	152
⁄	153
€	154
∂	155
■	156
◊	157
●	158
☮	159
⭐	160
️	161
�	162
🇷	163
🇹	164
🏆	165
🏻	166
👍	167
👑	168
💋	169
💧	170
💰	171
😁	172
😊	173
🙏	174
##d	175
##e	176
##l	177
##f	178
##i	179
##p	180
##k	181
##s	182
##c	183
##t	184
##o	185
##u	186
##h	187
##a	188
##r	189
##y	190
##n	191
##m	192
##â	193
##-	194
##ı	195
##4	196
##3	197
##w	198
##ç	199
##g	200
##b	201
##z	202
##7	203
##8	204
##6	205
##1	206
##ş	207
##j	208
##̇	209
##v	210
##2	211
##ö	212
##5	213
##9	214
##0	215
##ü	216
##q	217
##ğ	218
##x	219
##ˆ	220
##/	221
##о	222
##î	223
##?	224
##é	225
##û	226
##å	227
##а	228
##,	229
##!	230
##ä	231
##ə	232
##е	233
##'	234
##+	235
##د	236
##س	237
##ي	238
##ة	239
##.	240
##í	241
##á	242
##è	243
##ó	244
##"	245
##)	246
##🏻	247
##*	248
##ú	249
##>	250
##п	251
##с	252
##′	253
##ł	254
##%	255
##:	256
##ن	257
##к	258
##у	259
##т	260
##ã	261
##і	262
##ø	263
##و	264
##غ	265
##ل	266
##ح	267
##ر	268
##م	269
##ß	270
##ē	271
##ar	272
##er	273
##an	274
##en	275
##in	276
##ir	277
##ak	278
##le	279
lar	280
##il	281
ler	282
##ın	283
de	284
an	285
in	286
nd	287
ya	288
##la	289
##ek	290
##or	291
##al	292
da	293
ar	294
ve	295
##el	296
##ma	297
ol	298
##et	299
ma	300
bu	301
bir	302
##di	303
ın	304
al	305
ka	306
li	307
##ık	308
##de	309
##da	310
##un	311
en	312
##aş	313
##ıl	314
##ya	315
##dı	316
##st	317
##yor	318
di	319
il	320
##iz	321
er	322
##on	323
##ğı	324
et	325
##ur	326
##ki	327
ne	328
##ür	329
##ır	330
##si	331
gö	332
##ün	333
##sı	334
##at	335
##me	336
##ış	337
##ği	338
si	339
ay	340
##li	341
nı	342
##ti	343
un	344
i̇	345
te	346
me	347
ye	348
yap	349
iç	350
##iş	351
ed	352
on	353
na	354
leri	355
nin	356
##lar	357
##am	358
baş	359
nda	360
ni	361
##ığı	362
sı	363
ir	364
ab	365
ha	366
##ta	367
sa	368
##du	369
##ce	370
nın	371
ak	372
la	373
ta	374
at	375
##ra	376
ac	377
##im	378
için	379
##ka	380
kar	381
im	382
##eri	383
##re	384
le	385
##ok	386
tür	387
##ye	388
nde	389
ama	390
##ul	391
##um	392
ları	393
or	394
ile	395
##ke	396
##tı	397
ist	398
lik	399
ün	400
ra	401
##ol	402
##yle	403
gel	404
##ım	405
##üz	406
ul	407
oldu	408
##uş	409
##em	410
##sa	411
ver	412
ek	413
##ız	414
den	415
ara	416
##se	417
ur	418
##ara	419
##ük	420
##te	421
aç	422
mü	423
ev	424
ko	425
re	426
iş	427
du	428
dı	429
se	430
iyor	431
##ik	432
sin	433
##it	434
##ha	435
##ön	436
ba	437
lı	438
ıl	439
##şı	440
az	441
do	442
bul	443
##ut	444
çık	445
ması	446
el	447
iz	448
##uk	449
ti	450
dan	451
ge	452
sö	453
ec	454
türki	455
sın	456
to	457
ki	458
##ör	459
ndan	460
lan	461
##lı	462
su	463
aş	464
yıl	465
ter	466
uz	467
##endi	468
üz	469
lık	470
olduğ	471
acak	472
##ler	473
kal	474
##lu	475
##üş	476
##cı	477
##dan	478
tı	479
ön	480
bü	481
em	482
##bi	483
son	484
yer	485
kad	486
##aki	487
ik	488
ger	489
çok	490
bel	491
gi	492
yan	493
şe	494
##ca	495
iy	496
etti	497
ül	498
larak	499
bak	500
##gi	501
##üm	502
öz	503
mil	504
as	505
edil	506
gü	507
um	508
##den	509
am	510
gün	511
ecek	512
##az	513
yen	514
bil	515
ri	516
bulun	517
çal	518
##ro	519
kur	520
es	521
olan	522
daha	523
bö	524
##cu	525
##dü	526
ele	527
ıyor	528
geç	529
onra	530
ey	531
##yon	532
mak	533
kon	534
var	535
tan	536
ır	537
dur	538
av	539
##lan	540
mu	541
dığı	542
diği	543
kay	544
ise	545
top	546
ah	547
gör	548
karşı	549
çalış	550
uy	551
##çe	552
yar	553
değ	554
##ci	555
tır	556
unu	557
ine	558
##cak	559
bin	560
ce	561
mi	562
yapıl	563
yön	564
po	565
##por	566
##ağı	567
ım	568
##ru	569
##ları	570
göre	571
büy	572
##bil	573
dün	574
gen	575
bo	576
##ge	577
ağ	578
yaş	579
yeni	580
belir	581
##yo	582
##be	583
açık	584
ke	585
##fa	586
##us	587
yüz	588
başka	589
laş	590
##işi	591
nden	592
liği	593
terör	594
##za	595
mesi	596
ği	597
ür	598
yi	599
tir	600
yla	601
##ba	602
yak	603
##kı	604
ad	605
inin	606
ör	607
kişi	608
acağı	609
ece	610
##va	611
fa	612
##ken	613
##ste	614
tar	615
oy	616
yle	617
mış	618
her	619
büyük	620
##aman	621
##man	622
##lay	623
oğ	624
##ül	625
kendi	626
tara	627
düş	628
taraf	629
mek	630
şu	631
abil	632
lu	633
ülke	634
böl	635
be	636
konu	637
##let	638
pro	639
dır	640
kadar	641
mal	642
başla	643
##uz	644
gibi	645
dev	646
sun	647
##era	648
zaman	649
##oğ	650
üzeri	651
sor	652
dön	653
arası	654
##sta	655
##üt	656
yı	657
lığı	658
dedi	659
miş	660
biz	661
türk	662
söyle	663
##is	664
##yat	665
ında	666
anla	667
art	668
##na	669
##bul	670
arak	671
eceği	672
doğ	673
yol	674
##san	675
par	676
sür	677
ından	678
##gil	679
açıkl	680
söz	681
miz	682
tığı	683
##pa	684
spor	685
gerek	686
dir	687
ardı	688
erek	689
ot	690
alın	691
iste	692
eki	693
taş	694
onuş	695
syon	696
man	697
##ih	698
dünya	699
sal	700
##lis	701
eş	702
ının	703
inde	704
ğı	705
şeh	706
larda	707
sağ	708
yor	709
ok	710
nun	711
düz	712
alan	713
may	714
##eki	715
hak	716
tur	717
##lık	718
ih	719
##ne	720
ük	721
tak	722
ci	723
karar	724
get	725
mah	726
##hu	727
kları	728
ifa	729
##ekil	730
getir	731
ilk	732
kö	733
eme	734
ifade	735
olay	736
ların	737
özel	738
aber	739
cum	740
ban	741
ini	742
neden	743
##ali	744
##met	745
ap	746
ını	747
tu	748
ğın	749
mız	750
ben	751
dar	752
uyor	753
os	754
##leş	755
ayr	756
id	757
##ile	758
##ah	759
it	760
yüzde	761
lü	762
lendi	763
ril	764
örg	765
maç	766
tut	767
yönet	768
mo	769
ço	770
kat	771
değil	772
i̇st	773
##mak	774
eç	775
yun	776
cumhu	777
dış	778
fet	779
iki	780
##iy	781
örgüt	782
ten	783
kap	784
bölge	785
öl	786
##ven	787
men	788
##ere	789
diye	790
sev	791
##tü	792
devam	793
eden	794
ağı	795
len	796
kt	797
ndaki	798
##ren	799
##cü	800
güven	801
siz	802
deki	803
hasta	804
st	805
ip	806
##ğü	807
oğlu	808
ada	809
anbul	810
ren	811
bun	812
abd	813
ken	814
nt	815
kı	816
is	817
##mek	818
##leri	819
önce	820
ebil	821
altı	822
polis	823
durum	824
genel	825
##iler	826
yaşa	827
gaz	828
bek	829
op	830
##laş	831
ilgil	832
##iye	833
imi	834
##ğer	835
düzen	836
ulla	837
üre	838
nl	839
##zı	840
çe	841
milyo	842
rı	843
imiz	844
lara	845
ullan	846
insan	847
nem	848
saat	849
##bir	850
iyi	851
vur	852
adı	853
üç	854
duğ	855
hem	856
lerde	857
etme	858
tek	859
ayı	860
gir	861
iyet	862
evlet	863
mar	864
nemli	865
can	866
ancak	867
yok	868
iya	869
kr	870
olma	871
kim	872
mey	873
sında	874
maya	875
göste	876
ana	877
##kan	878
ut	879
saldı	880
ro	881
anı	882
bilgi	883
daki	884
mer	885
bakan	886
aldı	887
##ran	888
unda	889
ceza	890
ala	891
haf	892
eli	893
lerin	894
##ini	895
tem	896
rdi	897
rd	898
##ira	899
değer	900
uriye	901
##gu	902
gerç	903
##ip	904
yet	905
##lü	906
takım	907
gid	908
şey	909
##cuk	910
kleri	911
##mi	912
10	913
ğını	914
##ılar	915
çocuk	916
edi	917
içind	918
tüm	919
sine	920
öğ	921
##ve	922
üst	923
##ber	924
dem	925
duy	926
##tu	927
ku	928
met	929
han	930
ımız	931
çıkar	932
nlığı	933
iyle	934
##ji	935
ran	936
rus	937
rme	938
gelen	939
tarih	940
ekleş	941
mı	942
orta	943
sır	944
cı	945
nce	946
haz	947
kadın	948
##yla	949
##ey	950
landı	951
baka	952
i̇s	953
tü	954
lo	955
##dir	956
##gı	957
iliş	958
i̇l	959
isi	960
ca	961
dönem	962
fi	963
##nı	964
ale	965
rb	966
sinde	967
ede	968
sah	969
ort	970
luk	971
üks	972
esi	973
##miş	974
ça	975
vru	976
ıp	977
zor	978
##ılı	979
hava	980
##i̇	981
haber	982
rbaş	983
##cad	984
una	985
parti	986
ilişk	987
ru	988
kara	989
rdoğ	990
muh	991
##lem	992
ına	993
sonu	994
san	995
opera	996
şekil	997
##ine	998
sıra	999
rbaşk	1000
lüğü	1001
kaz	1002
ade	1003
oto	1004
##atan	1005
sil	1006
ıldı	1007
rül	1008
kan	1009
uş	1010
net	1011
uyg	1012
likte	1013
sel	1014
leş	1015
nün	1016
istem	1017
kayb	1018
ch	1019
##arı	1020
res	1021
##eş	1022
15	1023
ral	1024
sini	1025
bah	1026
vrupa	1027
fetö	1028
hayat	1029
##gün	1030
üyor	1031
sağla	1032
har	1033
lere	1034
uç	1035
bugün	1036
bağ	1037
hafta	1038
erke	1039
ici	1040
##dür	1041
dü	1042
azla	1043
ız	1044
kır	1045
kam	1046
kü	1047
ünde	1048
yaz	1049
isti	1050
lira	1051
ekon	1052
malar	1053
##ri	1054
kazan	1055
soru	1056
yanı	1057
biri	1058
he	1059
us	1060
##yet	1061
vatan	1062
niz	1063
beş	1064
##dia	1065
hakkı	1066
yuncu	1067
sav	1068
##ker	1069
arı	1070
görev	1071
git	1072
ndeki	1073
lama	1074
##ğiş	1075
iriş	1076
geldi	1077
##cel	1078
topla	1079
yakın	1080
daş	1081
ali	1082
geliş	1083
dolar	1084
bas	1085
katıl	1086
rah	1087
likle	1088
ekono	1089
kes	1090
diy	1091
rta	1092
müdür	1093
doğru	1094
eh	1095
nk	1096
ulaş	1097
##ay	1098
verdi	1099
böyle	1100
merke	1101
değiş	1102
##he	1103
##çi	1104
fen	1105
##ret	1106
süre	1107
çi	1108
say	1109
para	1110
mücad	1111
madı	1112
ark	1113
aynı	1114
yaşı	1115
bahçe	1116
zal	1117
##je	1118
sara	1119
nız	1120
kor	1121
sü	1122
sinin	1123
gazet	1124
zi	1125
##ına	1126
adece	1127
aile	1128
ekip	1129
olmak	1130
hazır	1131
af	1132
per	1133
deniz	1134
##kü	1135
saray	1136
anlat	1137
mez	1138
##rol	1139
##rı	1140
til	1141
asker	1142
##rada	1143
anan	1144
etk	1145
lay	1146
iler	1147
kaç	1148
mut	1149
darbe	1150
nü	1151
##dde	1152
nma	1153
iddia	1154
so	1155
sahip	1156
nkara	1157
eski	1158
pk	1159
riyet	1160
bır	1161
##uştu	1162
bırak	1163
iye	1164
sız	1165
##ram	1166
unlar	1167
##kat	1168
harek	1169
edef	1170
üksek	1171
i̇n	1172
genç	1173
kayd	1174
yay	1175
inden	1176
##mam	1177
##zi	1178
pkk	1179
üret	1180
ikkat	1181
veya	1182
düşü	1183
diğer	1184
fener	1185
şir	1186
yür	1187
##ot	1188
gül	1189
tl	1190
suç	1191
ış	1192
çıktı	1193
##üp	1194
sunda	1195
tiği	1196
rtaya	1197
üm	1198
ladı	1199
yapan	1200
raf	1201
enler	1202
tıl	1203
##ete	1204
inan	1205
üzere	1206
azete	1207
ans	1208
görüş	1209
aşkan	1210
##yas	1211
yöne	1212
arka	1213
kez	1214
pi	1215
mahke	1216
hat	1217
deste	1218
larla	1219
şim	1220
bunun	1221
##atış	1222
fil	1223
üs	1224
şehit	1225
kurul	1226
yapı	1227
ayın	1228
bekle	1229
kapsa	1230
öğren	1231
beşik	1232
##inc	1233
mel	1234
gram	1235
oyna	1236
##tar	1237
şar	1238
nu	1239
der	1240
yu	1241
sına	1242
maz	1243
üni	1244
istan	1245
gol	1246
##00	1247
tele	1248
şehir	1249
alata	1250
üye	1251
andı	1252
lanan	1253
aha	1254
rusya	1255
uygul	1256
sık	1257
bazı	1258
tep	1259
şi	1260
lig	1261
şirke	1262
ata	1263
isim	1264
sen	1265
çı	1266
bunu	1267
amada	1268
ndı	1269
ilçe	1270
ayrı	1271
mille	1272
eği	1273
lerle	1274
araç	1275
##şa	1276
sorun	1277
lt	1278
şek	1279
##lik	1280
geçen	1281
mayı	1282
##tün	1283
ns	1284
etki	1285
##zon	1286
tiril	1287
mes	1288
luğ	1289
içeri	1290
fiyat	1291
açıl	1292
nıl	1293
zaltı	1294
nas	1295
tah	1296
taşı	1297
rak	1298
i̇ş	1299
banka	1300
sürdü	1301
paz	1302
seç	1303
##yal	1304
tamam	1305
ulus	1306
proje	1307
demir	1308
milli	1309
rek	1310
gru	1311
osyal	1312
günü	1313
tam	1314
rü	1315
onun	1316
kul	1317
ağlık	1318
ser	1319
liler	1320
kız	1321
tör	1322
bizim	1323
bile	1324
onlar	1325
pazar	1326
şö	1327
rt	1328
ihti	1329
adam	1330
arklı	1331
miyor	1332
leme	1333
silah	1334
ng	1335
olo	1336
ağır	1337
if	1338
ğim	1339
tanı	1340
oruş	1341
ic	1342
##üs	1343
taki	1344
turma	1345
##mış	1346
##lah	1347
hi	1348
##niy	1349
##dav	1350
##nde	1351
gönde	1352
rsi	1353
hali	1354
##bo	1355
uv	1356
yayın	1357
emniy	1358
##lam	1359
nasıl	1360
ünive	1361
milya	1362
rsite	1363
müş	1364
hal	1365
iti	1366
erken	1367
bildi	1368
plan	1369
izmet	1370
hale	1371
öldü	1372
şöyle	1373
ep	1374
fe	1375
##muz	1376
tırma	1377
ıra	1378
urada	1379
şimdi	1380
güç	1381
rab	1382
kli	1383
dik	1384
sezon	1385
eçti	1386
alt	1387
ntrol	1388
anlaş	1389
maçı	1390
geçir	1391
mik	1392
yaral	1393
arkad	1394
nok	1395
emmuz	1396
ğren	1397
his	1398
ing	1399
ğini	1400
üc	1401
##mba	1402
ıyla	1403
oyun	1404
göz	1405
##nik	1406
acı	1407
ıcı	1408
##ında	1409
işlem	1410
ık	1411
üp	1412
eğit	1413
laşık	1414
nokta	1415
ildi	1416
ğrenc	1417
metre	1418
va	1419
ze	1420
sını	1421
ehmet	1422
##bu	1423
yasa	1424
aki	1425
mcı	1426
kil	1427
tedav	1428
edya	1429
aba	1430
rdü	1431
öde	1432
yük	1433
lenen	1434
duğu	1435
kabul	1436
##alı	1437
tutuk	1438
lanma	1439
nel	1440
aşa	1441
cu	1442
##gan	1443
##su	1444
kent	1445
##der	1446
lma	1447
siniz	1448
##ga	1449
şah	1450
geri	1451
##bol	1452
unun	1453
medi	1454
eled	1455
sonuc	1456
ilgi	1457
##yi	1458
luştu	1459
uğ	1460
gu	1461
##ça	1462
düşün	1463
yardı	1464
lük	1465
doğu	1466
bomba	1467
oloji	1468
tti	1469
ntı	1470
gece	1471
ğimiz	1472
bölüm	1473
mında	1474
eng	1475
ite	1476
ardım	1477
tale	1478
bütün	1479
itiba	1480
okul	1481
ekt	1482
za	1483
film	1484
uzun	1485
dava	1486
çö	1487
şüp	1488
şüphe	1489
mıyor	1490
telef	1491
yağ	1492
oran	1493
##şe	1494
aka	1495
ğin	1496
ant	1497
sınır	1498
etkil	1499
##dır	1500
içbir	1501
köy	1502
has	1503
din	1504
far	1505
yo	1506
ayısı	1507
ırken	1508
om	1509
orm	1510
sının	1511
ait	1512
önün	1513
bay	1514
erkes	1515
eri	1516
for	1517
öne	1518
##ğın	1519
rağ	1520
12	1521
##tür	1522
dile	1523
yakal	1524
mahal	1525
kol	1526
ez	1527
##üme	1528
fut	1529
kurum	1530
lcu	1531
pu	1532
rağme	1533
meye	1534
koy	1535
futbo	1536
aya	1537
güz	1538
etmek	1539
kilo	1540
rma	1541
##çok	1542
ikinc	1543
ika	1544
yat	1545
kika	1546
çıkan	1547
hiç	1548
##pit	1549
yetki	1550
vurgu	1551
20	1552
ste	1553
şam	1554
##mı	1555
olayı	1556
ündem	1557
olur	1558
11	1559
bekl	1560
irçok	1561
##ulu	1562
amay	1563
anda	1564
min	1565
kaldı	1566
espit	1567
kür	1568
ıs	1569
kra	1570
ner	1571
tekn	1572
dil	1573
ob	1574
çöz	1575
ndi	1576
tırım	1577
ekim	1578
lesi	1579
pek	1580
laşma	1581
##rans	1582
yö	1583
rün	1584
##cek	1585
dav	1586
savaş	1587
amadı	1588
anlam	1589
bağlı	1590
ize	1591
bera	1592
onu	1593
elim	1594
mev	1595
mod	1596
##deş	1597
ardeş	1598
veren	1599
toplu	1600
sarı	1601
tane	1602
ğü	1603
sürec	1604
rım	1605
sonuç	1606
oca	1607
atan	1608
fir	1609
satış	1610
kayna	1611
vekil	1612
urulu	1613
ari	1614
lider	1615
oluş	1616
kıs	1617
akat	1618
uk	1619
muş	1620
bi	1621
güzel	1622
ihtiy	1623
izin	1624
incel	1625
##zo	1626
ati	1627
##fi	1628
ahi	1629
elir	1630
yıldı	1631
kamu	1632
leşme	1633
puan	1634
##are	1635
dırıl	1636
kem	1637
atl	1638
atıl	1639
utbol	1640
lat	1641
ilen	1642
tra	1643
##aka	1644
avcı	1645
sözcü	1646
fer	1647
nc	1648
##sun	1649
engel	1650
yenid	1651
i̇ngil	1652
imza	1653
##ını	1654
mizin	1655
teki	1656
mem	1657
kaza	1658
yoğ	1659
ateş	1660
##ylem	1661
dr	1662
mobil	1663
ira	1664
tık	1665
ziy	1666
çev	1667
ullah	1668
viz	1669
zar	1670
mad	1671
ayrıl	1672
kten	1673
musta	1674
ton	1675
i̇z	1676
ziyar	1677
şa	1678
yükse	1679
ciler	1680
attı	1681
meler	1682
alanı	1683
lman	1684
gar	1685
şekli	1686
tedir	1687
aylaş	1688
berab	1689
ünü	1690
yine	1691
madan	1692
grup	1693
yacak	1694
krar	1695
hep	1696
eşi	1697
mart	1698
##unm	1699
piyon	1700
önem	1701
##ımı	1702
malı	1703
nması	1704
vali	1705
##ter	1706
üçler	1707
rabzo	1708
aday	1709
##şam	1710
çağ	1711
erkez	1712
yürü	1713
oku	1714
van	1715
amaz	1716
##yaz	1717
artık	1718
nayas	1719
rol	1720
gitti	1721
ydi	1722
ırası	1723
##urt	1724
rece	1725
görü	1726
meyda	1727
öğret	1728
rne	1729
##sk	1730
bur	1731
seçim	1732
rci	1733
sürü	1734
ıldız	1735
eğ	1736
est	1737
fot	1738
ince	1739
chp	1740
ydı	1741
ölüm	1742
diyor	1743
gelir	1744
rken	1745
ürün	1746
erç	1747
yani	1748
ıllar	1749
dere	1750
##vil	1751
iniz	1752
ürü	1753
kısa	1754
ksi	1755
undan	1756
##ekl	1757
kre	1758
ameri	1759
cam	1760
lıyor	1761
rüntü	1762
pa	1763
avunm	1764
ağa	1765
ahmet	1766
dönüş	1767
yurt	1768
olu	1769
cil	1770
ledi	1771
##saj	1772
adım	1773
rmek	1774
otur	1775
nme	1776
uzak	1777
üne	1778
##len	1779
artır	1780
atı	1781
lmany	1782
tük	1783
cü	1784
yazı	1785
tildi	1786
nen	1787
rdiği	1788
fotoğ	1789
mıştı	1790
30	1791
mağ	1792
ahibi	1793
lek	1794
çar	1795
25	1796
azı	1797
iyasi	1798
oru	1799
##bat	1800
##do	1801
elek	1802
tepki	1803
elirl	1804
sok	1805
iyasa	1806
ers	1807
nacak	1808
ültür	1809
ışı	1810
kası	1811
tr	1812
bey	1813
14	1814
tal	1815
faal	1816
yargı	1817
eclis	1818
istey	1819
end	1820
##cuğ	1821
basın	1822
adet	1823
liğ	1824
knik	1825
akşam	1826
##ni	1827
tin	1828
lantı	1829
terek	1830
osman	1831
nak	1832
ılma	1833
çevre	1834
mur	1835
açı	1836
tt	1837
mama	1838
nne	1839
ndığı	1840
bina	1841
çün	1842
ıntı	1843
eti	1844
tartı	1845
niyor	1846
hız	1847
elin	1848
##vet	1849
uldu	1850
ilet	1851
up	1852
tay	1853
ona	1854
müda	1855
kriz	1856
demo	1857
ralık	1858
rman	1859
##mir	1860
boz	1861
bit	1862
co	1863
##fer	1864
##van	1865
##üb	1866
saba	1867
ses	1868
ktan	1869
kin	1870
olsun	1871
ener	1872
kalan	1873
mesaj	1874
ncesi	1875
eğer	1876
bet	1877
trans	1878
kav	1879
yürüt	1880
illet	1881
kapat	1882
ektör	1883
let	1884
dah	1885
üncel	1886
şubat	1887
uvvet	1888
eylem	1889
ayınd	1890
dak	1891
tüket	1892
mas	1893
zan	1894
i̇zmir	1895
çek	1896
poli	1897
boy	1898
13	1899
bancı	1900
i̇lk	1901
koru	1902
alk	1903
tas	1904
küç	1905
sebe	1906
öyle	1907
müdah	1908
liye	1909
erçek	1910
rim	1911
and	1912
sanat	1913
yum	1914
lıklı	1915
go	1916
##gür	1917
nceki	1918
aktar	1919
izle	1920
krasi	1921
lil	1922
rdı	1923
cid	1924
indir	1925
dim	1926
baba	1927
ia	1928
yorum	1929
ntal	1930
ınca	1931
rev	1932
artış	1933
bar	1934
layan	1935
ğa	1936
apı	1937
oda	1938
ani	1939
##ft	1940
ortak	1941
şart	1942
erv	1943
manı	1944
yü	1945
sevk	1946
alb	1947
yanda	1948
nüm	1949
tif	1950
amacı	1951
tab	1952
yaşam	1953
bağla	1954
yoğun	1955
pay	1956
rneği	1957
kın	1958
ırs	1959
iv	1960
büyü	1961
takip	1962
rüldü	1963
ret	1964
yana	1965
dağ	1966
çin	1967
one	1968
jo	1969
##muş	1970
anne	1971
sayı	1972
ıllık	1973
riyor	1974
ocak	1975
rüş	1976
mayan	1977
nış	1978
umuz	1979
aracı	1980
ntaly	1981
şma	1982
derec	1983
mlu	1984
arış	1985
##uro	1986
sırad	1987
inşa	1988
16	1989
kapa	1990
mis	1991
işe	1992
sunuz	1993
ktör	1994
18	1995
##lim	1996
erk	1997
huk	1998
##dın	1999
şan	2000
ilim	2001
zarar	2002
araş	2003
ralar	2004
##ınd	2005
jan	2006
teşe	2007
yız	2008
gök	2009
ğım	2010
##so	2011
alış	2012
siyas	2013
hukuk	2014
ücret	2015
lenme	2016
dür	2017
euro	2018
allah	2019
hük	2020
yiz	2021
ıf	2022
rbe	2023
rildi	2024
rka	2025
ib	2026
çünkü	2027
ita	2028
##lat	2029
organ	2030
irak	2031
mızı	2032
kamp	2033
itesi	2034
ğımız	2035
ide	2036
çocuğ	2037
rılar	2038
eb	2039
no	2040
rul	2041
etmiş	2042
tadır	2043
çift	2044
oranı	2045
suz	2046
##ku	2047
uza	2048
rdu	2049
aşlar	2050
kış	2051
##ğa	2052
rbest	2053
lılar	2054
çarp	2055
##lo	2056
yolcu	2057
nesi	2058
urt	2059
çıkla	2060
yarat	2061
17	2062
kale	2063
bat	2064
fat	2065
klar	2066
tik	2067
##yan	2068
ntısı	2069
yarış	2070
önünd	2071
yüzü	2072
iyesi	2073
planl	2074
erleş	2075
gördü	2076
madde	2077
kadro	2078
ere	2079
ert	2080
sıyla	2081
forma	2082
ılmaz	2083
ciddi	2084
lte	2085
lerce	2086
ök	2087
sek	2088
irken	2089
emey	2090
kle	2091
gazi	2092
uçak	2093
rn	2094
##rü	2095
bilin	2096
vuru	2097
rıl	2098
nları	2099
irbir	2100
emi	2101
temel	2102
mcısı	2103
ent	2104
ks	2105
tören	2106
elekt	2107
esa	2108
arama	2109
koç	2110
##han	2111
sivil	2112
beni	2113
##sız	2114
tasar	2115
kötü	2116
yrı	2117
müm	2118
mümkü	2119
dizi	2120
rcih	2121
inter	2122
dakik	2123
benim	2124
ga	2125
buluş	2126
hüküm	2127
yrıca	2128
24	2129
ğlu	2130
tes	2131
üper	2132
kılı	2133
götü	2134
nspor	2135
kolay	2136
uğra	2137
çiz	2138
elçi	2139
sabah	2140
sene	2141
i̇ran	2142
tepe	2143
alı	2144
tor	2145
hesa	2146
fes	2147
##car	2148
vuk	2149
ley	2150
vardı	2151
kredi	2152
polit	2153
küçük	2154
ena	2155
şı	2156
bursa	2157
ef	2158
yal	2159
rik	2160
##aze	2161
ong	2162
od	2163
vi	2164
üneş	2165
model	2166
i̇şte	2167
ilme	2168
rapor	2169
risk	2170
enerj	2171
rüşme	2172
enaze	2173
gramı	2174
başı	2175
muta	2176
tırıl	2177
alet	2178
belge	2179
yatır	2180
arım	2181
eder	2182
talep	2183
firma	2184
sk	2185
kimse	2186
davut	2187
kılıç	2188
ayıda	2189
bakır	2190
vukat	2191
anal	2192
faiz	2193
diyar	2194
ela	2195
ham	2196
olsa	2197
##rac	2198
üncü	2199
yım	2200
çatış	2201
arken	2202
kalk	2203
sp	2204
tım	2205
ang	2206
anat	2207
erli	2208
hemen	2209
i̇ki	2210
kasım	2211
inans	2212
silci	2213
şen	2214
abi	2215
azi	2216
eyaz	2217
soy	2218
ediye	2219
mensu	2220
asi	2221
üy	2222
uygun	2223
iyat	2224
hiss	2225
gülen	2226
mutlu	2227
evi	2228
parça	2229
ttığı	2230
aması	2231
elde	2232
lteci	2233
##dar	2234
sak	2235
aşına	2236
nıyor	2237
laz	2238
şidde	2239
ayet	2240
ayır	2241
tav	2242
mizi	2243
aklar	2244
rum	2245
katkı	2246
dep	2247
100	2248
konud	2249
hesap	2250
meden	2251
geçi	2252
50	2253
of	2254
##eli	2255
eleş	2256
hangi	2257
ov	2258
raki	2259
teri	2260
umlu	2261
güçlü	2262
eçmiş	2263
kart	2264
urum	2265
çekil	2266
##fe	2267
durdu	2268
iha	2269
yeter	2270
eks	2271
dö	2272
darma	2273
kaya	2274
atta	2275
yunca	2276
duyur	2277
klif	2278
anık	2279
misyo	2280
##şit	2281
laşım	2282
mişti	2283
anado	2284
üküme	2285
ina	2286
hd	2287
alım	2288
dık	2289
evler	2290
eslim	2291
görme	2292
nisan	2293
inti	2294
umu	2295
adına	2296
rat	2297
zat	2298
##sim	2299
yıp	2300
eyen	2301
izler	2302
çeşit	2303
anayi	2304
trafi	2305
air	2306
ünün	2307
ekibi	2308
ödeme	2309
ligi	2310
##tim	2311
dım	2312
dol	2313
eyin	2314
ho	2315
girdi	2316
slan	2317
adlı	2318
yılda	2319
onund	2320
revli	2321
pe	2322
vo	2323
yarak	2324
marka	2325
temiz	2326
##dül	2327
ahçe	2328
anser	2329
fin	2330
ayy	2331
##ıt	2332
irek	2333
etkin	2334
gula	2335
ticar	2336
tos	2337
resmi	2338
etin	2339
tma	2340
anlar	2341
ödül	2342
aray	2343
ervis	2344
lam	2345
güne	2346
bize	2347
bana	2348
ayrıc	2349
alp	2350
sınız	2351
ard	2352
sig	2353
işler	2354
i̇slam	2355
muştu	2356
##fo	2357
uzman	2358
nül	2359
ğitim	2360
19	2361
angi	2362
vet	2363
atma	2364
recep	2365
ayyip	2366
fark	2367
21	2368
aralı	2369
oğu	2370
hen	2371
atil	2372
belli	2373
çözüm	2374
seri	2375
##yd	2376
##bı	2377
enz	2378
pat	2379
asıl	2380
çak	2381
abası	2382
##vi	2383
tob	2384
mızın	2385
endi	2386
oyn	2387
22	2388
azal	2389
izi	2390
kesin	2391
nti	2392
anl	2393
ımlar	2394
kül	2395
##lük	2396
steği	2397
tere	2398
inci	2399
ars	2400
ünlü	2401
kuru	2402
tirdi	2403
halkı	2404
nlık	2405
geniş	2406
sl	2407
mam	2408
emekl	2409
kça	2410
arılı	2411
rnek	2412
alon	2413
##izm	2414
istih	2415
ktor	2416
şarkı	2417
açısı	2418
ttı	2419
irleş	2420
irlik	2421
araya	2422
##tep	2423
pan	2424
##dit	2425
yanıt	2426
süreç	2427
arşı	2428
ünlük	2429
uzu	2430
kemal	2431
aat	2432
düzey	2433
iğer	2434
ail	2435
gal	2436
ij	2437
anma	2438
hane	2439
erkek	2440
anya	2441
las	2442
aşı	2443
lin	2444
##ck	2445
işçi	2446
aşarı	2447
avali	2448
elik	2449
sokak	2450
okun	2451
pyd	2452
urizm	2453
uzey	2454
kurt	2455
dışiş	2456
önemi	2457
hdp	2458
##tö	2459
eler	2460
final	2461
muz	2462
lazım	2463
müz	2464
kürt	2465
ürücü	2466
pol	2467
mp	2468
##ze	2469
kana	2470
rmak	2471
##kaç	2472
ediği	2473
rülen	2474
taleb	2475
dahil	2476
raş	2477
göç	2478
sol	2479
hli	2480
ceva	2481
eşil	2482
tv	2483
esabı	2484
cevap	2485
anak	2486
irkaç	2487
çab	2488
i̇nsan	2489
oş	2490
aret	2491
ulüp	2492
üsl	2493
lçe	2494
işi	2495
murat	2496
hlike	2497
are	2498
ald	2499
çekti	2500
nur	2501
anun	2502
lığın	2503
rısı	2504
rem	2505
şik	2506
alman	2507
irinc	2508
üksel	2509
nmış	2510
tel	2511
ilan	2512
lığa	2513
adan	2514
ntem	2515
almak	2516
abet	2517
canlı	2518
ileri	2519
ayvan	2520
kayıt	2521
hatır	2522
ihrac	2523
fatih	2524
eceğ	2525
ormal	2526
i̇b	2527
hdit	2528
ons	2529
yansı	2530
yse	2531
tobüs	2532
##ump	2533
gali	2534
ire	2535
nç	2536
uar	2537
ord	2538
aşadı	2539
name	2540
trump	2541
uyla	2542
aj	2543
rk	2544
taj	2545
lın	2546
rge	2547
konya	2548
bizi	2549
gücü	2550
itir	2551
##i̇d	2552
galib	2553
ınız	2554
başta	2555
sektö	2556
adana	2557
çoğ	2558
ayram	2559
dalet	2560
ker	2561
epsi	2562
farkı	2563
ie	2564
siyle	2565
aydın	2566
ami	2567
eyl	2568
ransa	2569
yna	2570
aklı	2571
rac	2572
oz	2573
ilo	2574
ders	2575
şube	2576
ortam	2577
perso	2578
tılım	2579
duruş	2580
üyüme	2581
antep	2582
nik	2583
ref	2584
28	2585
##jim	2586
rahat	2587
imizi	2588
ışık	2589
yılın	2590
krat	2591
sığın	2592
işi̇d	2593
vaz	2594
abı	2595
ern	2596
slınd	2597
vü	2598
edera	2599
mali	2600
sahne	2601
ğinde	2602
eye	2603
daeş	2604
neral	2605
mit	2606
avaş	2607
rmans	2608
alle	2609
akın	2610
amera	2611
ıcak	2612
arın	2613
arada	2614
öte	2615
siyon	2616
tidar	2617
sert	2618
ırsat	2619
evin	2620
lçesi	2621
işle	2622
isiml	2623
çağrı	2624
karış	2625
baskı	2626
alık	2627
ras	2628
işare	2629
apis	2630
sınav	2631
det	2632
dair	2633
türlü	2634
sam	2635
kafa	2636
dk	2637
log	2638
mayıs	2639
özgür	2640
mizde	2641
cadde	2642
korku	2643
ray	2644
red	2645
anlış	2646
yık	2647
etrol	2648
amaç	2649
hay	2650
urken	2651
aland	2652
ismi	2653
boş	2654
prof	2655
cuma	2656
nlar	2657
loji	2658
üyesi	2659
not	2660
ulut	2661
amel	2662
anlı	2663
henüz	2664
rç	2665
gören	2666
vergi	2667
sorgu	2668
uşu	2669
lç	2670
ğün	2671
yemek	2672
efa	2673
liste	2674
ğında	2675
kupa	2676
ltan	2677
tip	2678
enzer	2679
40	2680
##var	2681
rahim	2682
cen	2683
nan	2684
nümüz	2685
ilis	2686
nnesi	2687
eg	2688
seviy	2689
memur	2690
##ylü	2691
yarın	2692
maçta	2693
perfo	2694
konul	2695
ekran	2696
kısmı	2697
akika	2698
rkası	2699
ldu	2700
kop	2701
güney	2702
fay	2703
dör	2704
ebe	2705
aylık	2706
##mat	2707
emedi	2708
dört	2709
lal	2710
##suz	2711
iyah	2712
tüğü	2713
unut	2714
talya	2715
ete	2716
diş	2717
urtar	2718
recek	2719
kira	2720
sanız	2721
aran	2722
buna	2723
liş	2724
doğal	2725
emez	2726
öre	2727
bakım	2728
amb	2729
ağlan	2730
ment	2731
şans	2732
nar	2733
olmuş	2734
hakem	2735
düşük	2736
vücu	2737
avuş	2738
alif	2739
tahmi	2740
çoğu	2741
tat	2742
ruh	2743
kulüb	2744
vizyo	2745
ıda	2746
i̇d	2747
syonu	2748
işbir	2749
duygu	2750
sur	2751
rdüğü	2752
23	2753
nlem	2754
savcı	2755
hızlı	2756
denil	2757
izm	2758
rda	2759
500	2760
halep	2761
sebep	2762
aire	2763
asyon	2764
poz	2765
otel	2766
kri	2767
boyu	2768
dam	2769
giren	2770
yunan	2771
ilerl	2772
rejim	2773
eyet	2774
##vu	2775
evir	2776
konut	2777
fayda	2778
ğu	2779
rail	2780
itap	2781
27	2782
yazdı	2783
mikta	2784
zer	2785
hakim	2786
defa	2787
yerde	2788
bayra	2789
dum	2790
ney	2791
oyu	2792
ölü	2793
çer	2794
tec	2795
ayıcı	2796
rin	2797
erg	2798
ayal	2799
başar	2800
uyu	2801
şk	2802
por	2803
çıkış	2804
tirme	2805
kla	2806
orada	2807
gider	2808
rakam	2809
nışma	2810
biraz	2811
emo	2812
ayata	2813
adi	2814
ucu	2815
öp	2816
erekl	2817
civar	2818
ımızı	2819
udi	2820
izl	2821
söylü	2822
eydan	2823
ahat	2824
kesim	2825
vak	2826
meli	2827
meyi	2828
ain	2829
ces	2830
num	2831
paş	2832
başvu	2833
cami	2834
eylül	2835
ağrı	2836
olup	2837
geçiş	2838
şman	2839
fik	2840
nünde	2841
angın	2842
pera	2843
yarar	2844
letme	2845
kuş	2846
sefer	2847
umsuz	2848
dışı	2849
üş	2850
resel	2851
ram	2852
iklik	2853
tuğ	2854
ideo	2855
hüs	2856
sey	2857
amm	2858
önüne	2859
ii	2860
tri	2861
eçen	2862
üslüm	2863
azılı	2864
dire	2865
cel	2866
rid	2867
usul	2868
asa	2869
hu	2870
şağı	2871
ğe	2872
inem	2873
macı	2874
içe	2875
geril	2876
görül	2877
ağım	2878
kıy	2879
paşa	2880
ılan	2881
mamız	2882
meş	2883
ollan	2884
imize	2885
hazi	2886
abaka	2887
erak	2888
amen	2889
inç	2890
yenil	2891
düştü	2892
taşıy	2893
gil	2894
pla	2895
cut	2896
##dem	2897
gın	2898
ig	2899
limat	2900
abri	2901
cılar	2902
irk	2903
müs	2904
ımı	2905
elind	2906
vesi	2907
##men	2908
isyon	2909
cıl	2910
ayak	2911
rede	2912
rubu	2913
ag	2914
irli	2915
yolu	2916
manın	2917
ihaz	2918
lkan	2919
savun	2920
evre	2921
elen	2922
neler	2923
akar	2924
rez	2925
saye	2926
ünler	2927
avet	2928
rgan	2929
yabil	2930
iriz	2931
arbe	2932
ldi	2933
enim	2934
avu	2935
elki	2936
eser	2937
pp	2938
eknik	2939
dbir	2940
rar	2941
zik	2942
abah	2943
bm	2944
dağı	2945
istik	2946
ven	2947
kere	2948
yere	2949
olmay	2950
liğe	2951
şık	2952
üt	2953
riz	2954
##çı	2955
diyen	2956
ğünü	2957
mre	2958
ynı	2959
alde	2960
ordu	2961
ünkü	2962
lans	2963
bank	2964
ngin	2965
anlay	2966
çerçe	2967
raba	2968
26	2969
kalma	2970
aygı	2971
gez	2972
29	2973
cak	2974
syond	2975
ümüz	2976
sh	2977
sti	2978
anet	2979
verme	2980
uşlar	2981
hata	2982
atsız	2983
eyn	2984
batı	2985
edel	2986
pları	2987
lmaz	2988
demek	2989
evine	2990
oğan	2991
cılık	2992
algı	2993
arca	2994
etkis	2995
ıllı	2996
beri	2997
imk	2998
asla	2999
yazar	3000
##dy	3001
asan	3002
ğum	3003
atik	3004
erim	3005
nit	3006
wa	3007
ğus	3008
vit	3009
üren	3010
içi	3011
bara	3012
kadem	3013
br	3014
##bar	3015
etçi	3016
zorla	3017
apımı	3018
zı	3019
anım	3020
üzü	3021
tıp	3022
mızda	3023
alel	3024
akan	3025
okak	3026
ysa	3027
tim	3028
zman	3029
içer	3030
osya	3031
raman	3032
radan	3033
bes	3034
yon	3035
##os	3036
enge	3037
eter	3038
üney	3039
zaten	3040
işim	3041
ow	3042
dayan	3043
kâ	3044
anti	3045
mun	3046
old	3047
ane	3048
madd	3049
dal	3050
mir	3051
zya	3052
mada	3053
eran	3054
alis	3055
amu	3056
pas	3057
ktörü	3058
ıt	3059
era	3060
oruma	3061
ortal	3062
nsel	3063
eyec	3064
enek	3065
altın	3066
rad	3067
ekme	3068
ime	3069
mamış	3070
35	3071
ükl	3072
çesi	3073
alma	3074
atış	3075
ms	3076
yp	3077
kom	3078
yapma	3079
nca	3080
raya	3081
nö	3082
ört	3083
blo	3084
sik	3085
uru	3086
duk	3087
ağlar	3088
nal	3089
ayn	3090
eci	3091
unuz	3092
th	3093
esle	3094
vic	3095
enar	3096
mbu	3097
oh	3098
zay	3099
halk	3100
ast	3101
tla	3102
unul	3103
rer	3104
tesi	3105
tb	3106
nes	3107
rap	3108
uyarı	3109
izli	3110
kit	3111
##tır	3112
enc	3113
açtı	3114
ksiyo	3115
tçe	3116
buldu	3117
##tal	3118
erte	3119
yin	3120
birim	3121
adığı	3122
lme	3123
aşama	3124
atla	3125
ülen	3126
diler	3127
iraz	3128
iver	3129
abir	3130
uyar	3131
##şi	3132
alka	3133
onya	3134
ahs	3135
derin	3136
nuz	3137
olun	3138
enme	3139
uvar	3140
dılar	3141
inay	3142
aris	3143
ayrak	3144
ezi	3145
rıcı	3146
sta	3147
asar	3148
suna	3149
kinci	3150
rerek	3151
rhan	3152
kıl	3153
ücad	3154
sad	3155
biti	3156
kiz	3157
ork	3158
renk	3159
oynan	3160
.,	3161
ble	3162
nşa	3163
indi	3164
nizi	3165
bozu	3166
tro	3167
##li̇	3168
mayın	3169
31	3170
ayan	3171
ngö	3172
yeme	3173
aşır	3174
esn	3175
itti	3176
sat	3177
aldır	3178
masa	3179
kah	3180
nite	3181
aksi	3182
ulan	3183
klan	3184
rıda	3185
tiren	3186
zir	3187
i̇sm	3188
arar	3189
ğiş	3190
eçil	3191
şif	3192
kler	3193
mize	3194
ğişik	3195
ksik	3196
iğ	3197
tiv	3198
kum	3199
ınar	3200
edin	3201
ebek	3202
yg	3203
mi̇	3204
dinle	3205
##mm	3206
atın	3207
ağan	3208
rte	3209
raç	3210
ursa	3211
eğe	3212
kuz	3213
ısı	3214
aket	3215
inc	3216
test	3217
park	3218
üyle	3219
ğur	3220
eride	3221
onse	3222
nay	3223
ron	3224
riler	3225
ilçes	3226
erel	3227
eve	3228
esti	3229
iyer	3230
süred	3231
ypg	3232
uc	3233
zam	3234
ikr	3235
soka	3236
inanı	3237
dolu	3238
akır	3239
i̇lçe	3240
llah	3241
irse	3242
ulüb	3243
yim	3244
arma	3245
ilm	3246
ergil	3247
ımıza	3248
mutl	3249
şeker	3250
özler	3251
ahil	3252
fon	3253
nat	3254
uns	3255
lanı	3256
ltın	3257
neye	3258
stekl	3259
liğin	3260
nil	3261
qu	3262
ası	3263
kte	3264
patla	3265
ncü	3266
lis	3267
nabil	3268
çey	3269
layın	3270
kus	3271
xx	3272
meme	3273
iptal	3274
nmesi	3275
atar	3276
nf	3277
zem	3278
receğ	3279
veri	3280
ütün	3281
##lak	3282
dası	3283
lıdır	3284
grub	3285
aşlat	3286
yazıl	3287
uran	3288
lıkla	3289
devre	3290
eji	3291
ımcı	3292
tbmm	3293
fla	3294
kızı	3295
arek	3296
yed	3297
üze	3298
lem	3299
usu	3300
sna	3301
çuk	3302
klı	3303
##id	3304
enen	3305
erbi	3306
bal	3307
kurma	3308
rö	3309
aynak	3310
lardı	3311
gitme	3312
tılan	3313
cilik	3314
ıları	3315
nır	3316
taz	3317
enk	3318
ster	3319
60	3320
je	3321
nam	3322
mda	3323
ub	3324
makta	3325
roje	3326
onser	3327
rın	3328
sunu	3329
##ch	3330
ırt	3331
akala	3332
atif	3333
aa	3334
akış	3335
reye	3336
gili	3337
kut	3338
ins	3339
onuna	3340
aze	3341
rit	3342
şeyi	3343
ndiği	3344
alkın	3345
lası	3346
htar	3347
emen	3348
fır	3349
palı	3350
cem	3351
ilah	3352
prü	3353
teş	3354
parla	3355
ücre	3356
ğiniz	3357
gere	3358
zlem	3359
ekle	3360
eller	3361
eo	3362
ff	3363
şo	3364
upa	3365
mh	3366
vaş	3367
fı	3368
ldü	3369
val	3370
necek	3371
üstü	3372
ksel	3373
apa	3374
ila	3375
lok	3376
zg	3377
med	3378
yıla	3379
gin	3380
zun	3381
ende	3382
sas	3383
rmiş	3384
şıyor	3385
lak	3386
##mo	3387
urumu	3388
ja	3389
ind	3390
eker	3391
bölü	3392
este	3393
rir	3394
diğim	3395
şul	3396
aşk	3397
mekan	3398
fak	3399
tli	3400
imli	3401
lmadı	3402
nla	3403
stan	3404
nlü	3405
rıy	3406
ore	3407
etro	3408
lev	3409
evgi	3410
narak	3411
ğle	3412
unca	3413
yerek	3414
ğaz	3415
akin	3416
obil	3417
nüf	3418
45	3419
alya	3420
ayıl	3421
evind	3422
rebil	3423
dırdı	3424
mina	3425
cep	3426
ğınız	3427
nter	3428
200	3429
ırlat	3430
bb	3431
dip	3432
iza	3433
ortad	3434
rp	3435
amet	3436
çalı	3437
ekten	3438
arla	3439
günde	3440
tiri	3441
nerji	3442
arab	3443
işti	3444
bol	3445
inal	3446
lisi	3447
new	3448
i̇ç	3449
imha	3450
ünden	3451
koş	3452
cev	3453
ace	3454
tırdı	3455
arz	3456
imler	3457
ters	3458
larca	3459
erd	3460
ahte	3461
ulübü	3462
ızla	3463
şkil	3464
önde	3465
irliğ	3466
üçük	3467
lgi	3468
sma	3469
ğır	3470
dey	3471
muha	3472
lilik	3473
irket	3474
nlu	3475
ılar	3476
çıkl	3477
önle	3478
ikle	3479
urd	3480
geçer	3481
iller	3482
mbe	3483
kas	3484
kare	3485
inen	3486
alga	3487
giz	3488
şır	3489
aske	3490
adli	3491
mıza	3492
zılı	3493
argı	3494
liyor	3495
azır	3496
ruk	3497
rip	3498
ihbar	3499
sya	3500
tlı	3501
ond	3502
eşin	3503
eşit	3504
urlar	3505
lamak	3506
başb	3507
katı	3508
arm	3509
akka	3510
masın	3511
i̇yi	3512
rüyor	3513
evde	3514
zafer	3515
asit	3516
ry	3517
arp	3518
pdy	3519
orun	3520
leyen	3521
öprü	3522
gay	3523
io	3524
##bi̇	3525
ağla	3526
iyeti	3527
rtık	3528
rtesi	3529
lise	3530
site	3531
lad	3532
ızıl	3533
gun	3534
deta	3535
kab	3536
ild	3537
##oku	3538
uklu	3539
ens	3540
rif	3541
nitel	3542
rgi	3543
ank	3544
arik	3545
olda	3546
ınma	3547
orsa	3548
tren	3549
rse	3550
tarıl	3551
ersin	3552
ves	3553
dül	3554
ese	3555
beyaz	3556
cüs	3557
ekil	3558
yici	3559
cüsü	3560
key	3561
ova	3562
tilen	3563
##ster	3564
ayda	3565
mec	3566
rag	3567
niyet	3568
lım	3569
rcu	3570
ua	3571
anmış	3572
avaşı	3573
sem	3574
saya	3575
ate	3576
rup	3577
eda	3578
##ari	3579
fai	3580
##raf	3581
irad	3582
ltu	3583
öster	3584
ista	3585
kova	3586
iph	3587
meyve	3588
kırı	3589
sebeb	3590
fikir	3591
hü	3592
avan	3593
ano	3594
aza	3595
oya	3596
erse	3597
ayat	3598
iği	3599
32	3600
dun	3601
nci	3602
##po	3603
netim	3604
zalt	3605
uh	3606
lidir	3607
abii	3608
##tur	3609
inli	3610
umhu	3611
dahi	3612
yapar	3613
oşa	3614
def	3615
lom	3616
icar	3617
300	3618
##lâ	3619
faz	3620
ıma	3621
unc	3622
ekr	3623
##oke	3624
emiyo	3625
nlara	3626
yara	3627
ili	3628
vad	3629
36	3630
zet	3631
katl	3632
msil	3633
##ğün	3634
maka	3635
34	3636
og	3637
çu	3638
oli	3639
aylar	3640
lent	3641
##si̇	3642
atır	3643
aspor	3644
niş	3645
yas	3646
uştur	3647
tmak	3648
unlu	3649
steri	3650
sayıl	3651
mr	3652
nama	3653
tre	3654
arş	3655
racın	3656
örevi	3657
cek	3658
arih	3659
ora	3660
rika	3661
ağd	3662
dönü	3663
doğan	3664
tme	3665
aral	3666
esto	3667
kp	3668
##ic	3669
rası	3670
işte	3671
tand	3672
ıb	3673
şv	3674
bün	3675
imam	3676
nına	3677
araf	3678
ansı	3679
aten	3680
vize	3681
ck	3682
açlar	3683
renm	3684
kıya	3685
rıyor	3686
meyen	3687
üstün	3688
davra	3689
rduğ	3690
enin	3691
urg	3692
adını	3693
oo	3694
the	3695
nımı	3696
yesi	3697
frans	3698
tad	3699
rmesi	3700
kırmı	3701
vir	3702
panya	3703
nmiş	3704
klam	3705
ırıl	3706
topra	3707
mini	3708
##ff	3709
li̇	3710
amam	3711
bebe	3712
ft	3713
undu	3714
line	3715
ngel	3716
tadı	3717
ddia	3718
ksa	3719
nüz	3720
aşlı	3721
zu	3722
rmeye	3723
venli	3724
deme	3725
anta	3726
si̇	3727
tura	3728
nluğ	3729
him	3730
anu	3731
nızı	3732
kalı	3733
iyo	3734
form	3735
esele	3736
mde	3737
irer	3738
ori	3739
racak	3740
edefi	3741
tuğu	3742
dalı	3743
ılın	3744
eleri	3745
che	3746
rtal	3747
inizi	3748
ou	3749
inali	3750
sim	3751
alen	3752
eyi	3753
ett	3754
lac	3755
afe	3756
izley	3757
nv	3758
ılır	3759
mekte	3760
isy	3761
ulduğ	3762
nilen	3763
aden	3764
heli	3765
veda	3766
nede	3767
gerçe	3768
kenti	3769
ica	3770
rici	3771
prot	3772
ice	3773
zin	3774
arkı	3775
asal	3776
ulu	3777
büs	3778
ea	3779
duğum	3780
dinl	3781
laka	3782
rj	3783
ence	3784
uluş	3785
mekt	3786
ıkış	3787
çözü	3788
ydın	3789
daya	3790
erlik	3791
ekir	3792
70	3793
rur	3794
zen	3795
ızı	3796
maaş	3797
enet	3798
reği	3799
ikli	3800
uyan	3801
kült	3802
zgür	3803
endis	3804
bi̇	3805
isa	3806
karı	3807
tanım	3808
tun	3809
deri	3810
pü	3811
tılar	3812
erler	3813
uro	3814
maçın	3815
canl	3816
aga	3817
mara	3818
amp	3819
uyum	3820
rıyla	3821
33	3822
iri	3823
sus	3824
dığım	3825
90	3826
lc	3827
emb	3828
antr	3829
öyley	3830
bis	3831
diz	3832
mutan	3833
lları	3834
tbol	3835
urk	3836
andal	3837
elene	3838
amile	3839
ihan	3840
tıldı	3841
mhp	3842
ısa	3843
hir	3844
yata	3845
ilya	3846
riyle	3847
tank	3848
tarz	3849
mb	3850
ıç	3851
şkan	3852
risi	3853
rom	3854
rdığı	3855
tuz	3856
ücu	3857
i̇t	3858
beli	3859
rmay	3860
urun	3861
lup	3862
uku	3863
eza	3864
şeri	3865
##iğ	3866
di̇	3867
siye	3868
misi	3869
apısı	3870
rz	3871
zleri	3872
çat	3873
ente	3874
elesi	3875
düze	3876
fed	3877
ty	3878
kçı	3879
rg	3880
ud	3881
ug	3882
çiş	3883
arsa	3884
ayb	3885
akımı	3886
avran	3887
kimi	3888
erdi	3889
ettik	3890
rtada	3891
lum	3892
ene	3893
ister	3894
tern	3895
liliğ	3896
80	3897
doku	3898
ill	3899
ti̇	3900
üzel	3901
nst	3902
ıy	3903
eriş	3904
akıl	3905
sizi	3906
sani	3907
mezun	3908
onum	3909
işin	3910
ebebi	3911
gan	3912
ncel	3913
yad	3914
avi	3915
imde	3916
ahar	3917
ales	3918
ngı	3919
elli	3920
aşar	3921
ahve	3922
uğu	3923
nato	3924
azırl	3925
ekin	3926
amış	3927
ören	3928
afta	3929
hp	3930
mse	3931
ink	3932
rand	3933
anca	3934
etiş	3935
anç	3936
örü	3937
dırma	3938
uşa	3939
ıza	3940
all	3941
ğla	3942
şun	3943
benz	3944
ilmiş	3945
utlu	3946
rmaya	3947
hisse	3948
ai	3949
tılı	3950
nder	3951
ved	3952
olar	3953
kadı	3954
utu	3955
liz	3956
erat	3957
etmey	3958
ukuk	3959
ima	3960
oma	3961
âlâ	3962
öv	3963
allar	3964
sub	3965
fre	3966
ikaye	3967
şof	3968
elam	3969
rada	3970
üny	3971
arttı	3972
alat	3973
oynay	3974
75	3975
izde	3976
doğa	3977
kel	3978
kme	3979
we	3980
ava	3981
uçlar	3982
üsü	3983
lus	3984
##ciz	3985
idare	3986
gor	3987
rama	3988
alır	3989
nluk	3990
ht	3991
##sy	3992
aye	3993
uncu	3994
kork	3995
üphe	3996
nım	3997
oğraf	3998
ly	3999
ero	4000
ağış	4001
anıt	4002
arıda	4003
yoğu	4004
çeki	4005
seyi	4006
lekt	4007
rmen	4008
üf	4009
rib	4010
varl	4011
oyunu	4012
müh	4013
iyan	4014
ördü	4015
ian	4016
ift	4017
dini	4018
kun	4019
rlar	4020
ştır	4021
ürek	4022
ehir	4023
klık	4024
urta	4025
apta	4026
rolü	4027
zih	4028
epe	4029
lınan	4030
65	4031
hâ	4032
ps	4033
phe	4034
bab	4035
manda	4036
urucu	4037
ydu	4038
aman	4039
ırk	4040
meni	4041
rülme	4042
kçe	4043
ilin	4044
hn	4045
ayar	4046
ceo	4047
duyu	4048
lga	4049
şük	4050
yip	4051
tün	4052
çıl	4053
mat	4054
sana	4055
neli	4056
rel	4057
real	4058
##mu	4059
kont	4060
seb	4061
üldü	4062
nus	4063
şer	4064
##go	4065
ino	4066
imin	4067
eşme	4068
ızlar	4069
akim	4070
rız	4071
çın	4072
##det	4073
emek	4074
ynadı	4075
sc	4076
ışla	4077
rf	4078
rc	4079
iko	4080
ırsa	4081
kemi	4082
ipl	4083
grubu	4084
netic	4085
rafı	4086
thy	4087
usta	4088
çiler	4089
irişi	4090
kuv	4091
nb	4092
uf	4093
aydı	4094
imkan	4095
eçme	4096
netl	4097
çatı	4098
##dk	4099
##ss	4100
aru	4101
evlen	4102
sergi	4103
inir	4104
esir	4105
ırlar	4106
maruz	4107
müzi	4108
luş	4109
##oz	4110
götür	4111
abu	4112
izden	4113
kele	4114
vas	4115
lit	4116
atlar	4117
sed	4118
rosu	4119
nso	4120
tlama	4121
neme	4122
nis	4123
evl	4124
akem	4125
ket	4126
lur	4127
ski	4128
au	4129
pt	4130
ancı	4131
izyon	4132
devr	4133
turdu	4134
latan	4135
yecek	4136
taba	4137
beya	4138
edek	4139
akta	4140
uma	4141
özü	4142
don	4143
lerdi	4144
arıl	4145
cer	4146
kov	4147
gec	4148
ilt	4149
raz	4150
emiş	4151
itle	4152
erisi	4153
##gk	4154
emeye	4155
ege	4156
tına	4157
##ina	4158
ahv	4159
laştı	4160
oks	4161
yoktu	4162
adamı	4163
nmak	4164
ilke	4165
ulmuş	4166
utl	4167
sıkı	4168
ikas	4169
ber	4170
ındı	4171
tema	4172
ato	4173
ural	4174
üzen	4175
nşaat	4176
luşu	4177
rba	4178
zden	4179
anış	4180
azar	4181
amle	4182
lh	4183
vcı	4184
ığa	4185
##kin	4186
ergi	4187
keş	4188
rıs	4189
apor	4190
anıl	4191
layla	4192
karak	4193
resi	4194
baz	4195
rdo	4196
ion	4197
mon	4198
ygı	4199
irim	4200
orgu	4201
eklen	4202
arayı	4203
400	4204
dli	4205
ğun	4206
mac	4207
aldık	4208
des	4209
rey	4210
mim	4211
üler	4212
ndu	4213
akam	4214
ci̇	4215
adem	4216
rük	4217
##to	4218
lim	4219
tiya	4220
str	4221
sanı	4222
laf	4223
ruyor	4224
rının	4225
süt	4226
eçim	4227
kapı	4228
tül	4229
urgu	4230
üküm	4231
aplar	4232
spo	4233
port	4234
nir	4235
yeri	4236
emin	4237
rafik	4238
tler	4239
şak	4240
eyim	4241
kend	4242
150	4243
düğün	4244
ümle	4245
rakt	4246
ıdan	4247
şıl	4248
arlı	4249
niye	4250
ğının	4251
icra	4252
ezon	4253
rke	4254
üb	4255
ütü	4256
akal	4257
lab	4258
idari	4259
stik	4260
arf	4261
ilit	4262
kons	4263
arıs	4264
yn	4265
yebil	4266
urs	4267
osu	4268
##lum	4269
miye	4270
rahi	4271
misa	4272
ğıt	4273
mpiy	4274
37	4275
öylem	4276
##af	4277
38	4278
ayım	4279
esin	4280
ırdı	4281
add	4282
tres	4283
llar	4284
irve	4285
ki̇	4286
yoruz	4287
adır	4288
itika	4289
km	4290
rtı	4291
##pe	4292
şiir	4293
sakla	4294
roke	4295
tein	4296
kuy	4297
lamış	4298
çılar	4299
##hi	4300
ınan	4301
bine	4302
otom	4303
erab	4304
600	4305
ola	4306
dis	4307
lemek	4308
api	4309
kanlı	4310
ğret	4311
kaf	4312
iade	4313
42	4314
tiler	4315
vah	4316
yma	4317
bett	4318
orman	4319
ri̇	4320
ağlam	4321
kaçı	4322
arika	4323
vat	4324
alla	4325
aliye	4326
liman	4327
ni̇	4328
ilesi	4329
luyor	4330
alil	4331
nadı	4332
orum	4333
asın	4334
yönel	4335
rafi	4336
nakl	4337
sker	4338
akp	4339
emle	4340
mekli	4341
suçl	4342
neği	4343
tiyor	4344
stih	4345
dy	4346
zel	4347
hala	4348
ave	4349
kula	4350
kley	4351
rla	4352
tuk	4353
şleri	4354
imse	4355
boyun	4356
41	4357
55	4358
zli	4359
##ki̇	4360
irini	4361
tama	4362
eğil	4363
rkek	4364
ekled	4365
i̇k	4366
arac	4367
ida	4368
sne	4369
tıyor	4370
önü	4371
apl	4372
zgü	4373
asta	4374
eke	4375
şları	4376
emih	4377
nucu	4378
rarak	4379
##rul	4380
isler	4381
lüks	4382
dalar	4383
48	4384
zır	4385
üd	4386
emem	4387
rkad	4388
mler	4389
rtış	4390
44	4391
irti	4392
yıcı	4393
nüyor	4394
39	4395
lla	4396
tff	4397
hızl	4398
tw	4399
anki	4400
inler	4401
eni	4402
tabi	4403
ekçe	4404
ıfır	4405
nta	4406
yh	4407
öb	4408
arc	4409
teh	4410
akım	4411
ürme	4412
beden	4413
rs	4414
rlü	4415
uva	4416
şok	4417
ilik	4418
irdi	4419
idir	4420
cağı	4421
ilde	4422
lah	4423
tazi	4424
rabil	4425
turu	4426
zesi	4427
mm	4428
ost	4429
##od	4430
onla	4431
ulma	4432
uri	4433
ikra	4434
mand	4435
temin	4436
dri	4437
zm	4438
erde	4439
ermi	4440
ned	4441
akkı	4442
kenan	4443
250	4444
46	4445
nfe	4446
slar	4447
çü	4448
atçı	4449
bı	4450
enf	4451
olduk	4452
oğal	4453
utan	4454
eliş	4455
dha	4456
ntü	4457
arl	4458
onuç	4459
arita	4460
lb	4461
yın	4462
izni	4463
ağın	4464
kulak	4465
47	4466
slı	4467
şere	4468
ded	4469
rist	4470
ağız	4471
girme	4472
yları	4473
ştı	4474
sab	4475
eriyo	4476
şeref	4477
hav	4478
tap	4479
taciz	4480
şeb	4481
uydu	4482
rülü	4483
hey	4484
iber	4485
tle	4486
şiş	4487
lez	4488
eksi	4489
çakla	4490
meşin	4491
53	4492
und	4493
gesi	4494
112	4495
skeri	4496
zak	4497
erine	4498
gelme	4499
yaşan	4500
oplum	4501
leti	4502
43	4503
set	4504
##no	4505
ımda	4506
arısı	4507
ıklı	4508
omut	4509
mün	4510
ğrul	4511
##ms	4512
yalı	4513
ikna	4514
asına	4515
reti	4516
by	4517
neri	4518
tte	4519
vin	4520
vri	4521
akti	4522
iman	4523
kod	4524
rduğu	4525
akma	4526
esmi	4527
jd	4528
mor	4529
##rak	4530
aks	4531
amsu	4532
elem	4533
lp	4534
ula	4535
şkı	4536
vel	4537
lib	4538
nize	4539
afi	4540
kâr	4541
nlaş	4542
pra	4543
aları	4544
kafe	4545
aşlay	4546
timiz	4547
kleme	4548
lişki	4549
keşf	4550
##tir	4551
abit	4552
elal	4553
sla	4554
amim	4555
kına	4556
nm	4557
ary	4558
eral	4559
orc	4560
tom	4561
ırak	4562
lari	4563
erm	4564
esl	4565
ırlı	4566
rüz	4567
etli	4568
dua	4569
tisi	4570
örgü	4571
kuvv	4572
ky	4573
ette	4574
##ti̇	4575
redi	4576
alana	4577
ağıt	4578
çay	4579
mimar	4580
edav	4581
ier	4582
türü	4583
mür	4584
syo	4585
yel	4586
lattı	4587
sar	4588
ndil	4589
etik	4590
120	4591
zara	4592
inme	4593
kaş	4594
atlı	4595
şef	4596
kule	4597
arzu	4598
kala	4599
##mes	4600
urma	4601
rucu	4602
suçu	4603
entin	4604
kusu	4605
gizl	4606
ibe	4607
ts	4608
usa	4609
aram	4610
alo	4611
tez	4612
aca	4613
orcu	4614
krem	4615
cell	4616
72	4617
ansız	4618
ilir	4619
erha	4620
reme	4621
küçü	4622
rtu	4623
ınır	4624
land	4625
adl	4626
adir	4627
utuk	4628
vakit	4629
lmesi	4630
52	4631
oç	4632
sul	4633
zey	4634
şlı	4635
kobi̇	4636
ris	4637
eşim	4638
apar	4639
osun	4640
our	4641
zeri	4642
ayk	4643
ell	4644
lıkta	4645
oğru	4646
tığım	4647
esis	4648
küf	4649
sko	4650
ares	4651
ebi	4652
fo	4653
lyon	4654
rm	4655
zon	4656
arda	4657
lif	4658
eren	4659
imar	4660
öndü	4661
81	4662
ğdu	4663
tey	4664
akla	4665
dird	4666
uştu	4667
psi	4668
tta	4669
rese	4670
rusu	4671
çağr	4672
rna	4673
inat	4674
aça	4675
idam	4676
lezze	4677
mine	4678
tsk	4679
vuş	4680
öm	4681
dele	4682
int	4683
arre	4684
emir	4685
##land	4686
kçi	4687
##las	4688
erce	4689
ted	4690
onut	4691
sap	4692
günün	4693
esine	4694
uçla	4695
tüne	4696
fit	4697
sit	4698
sesi	4699
izlen	4700
aps	4701
biy	4702
hb	4703
sgk	4704
##hal	4705
arke	4706
illi	4707
açma	4708
tit	4709
vaka	4710
##es	4711
mavil	4712
##tik	4713
esini	4714
ıyı	4715
85	4716
vek	4717
işlet	4718
esli	4719
jet	4720
ıta	4721
azlı	4722
dirne	4723
ipa	4724
run	4725
eviye	4726
reh	4727
yolla	4728
oplam	4729
leşti	4730
ümü	4731
cular	4732
ğunu	4733
rlüğ	4734
gı	4735
ksu	4736
yalar	4737
rav	4738
üçlü	4739
mi̇t	4740
mlı	4741
rga	4742
sün	4743
ildir	4744
kültü	4745
hlı	4746
iden	4747
nş	4748
ocuğ	4749
viye	4750
yk	4751
öy	4752
ille	4753
edd	4754
isyan	4755
mezar	4756
56	4757
idi	4758
rüt	4759
##âh	4760
azan	4761
lüyor	4762
my	4763
rya	4764
ıd	4765
##ad	4766
##alan	4767
ayd	4768
orlu	4769
oruy	4770
ınızı	4771
astro	4772
keti	4773
lg	4774
abır	4775
ktar	4776
ei	4777
ikal	4778
ked	4779
pany	4780
51	4781
mden	4782
rsan	4783
##ver	4784
tira	4785
sto	4786
##i̇k	4787
ölümü	4788
irekt	4789
ruz	4790
##as	4791
aym	4792
ılmış	4793
ülme	4794
amak	4795
apo	4796
iyas	4797
ncı	4798
arbo	4799
ınav	4800
riş	4801
tlar	4802
hap	4803
kulu	4804
trt	4805
tehdi	4806
kka	4807
ngi	4808
erji	4809
les	4810
ygul	4811
ci̇han	4812
54	4813
ao	4814
fan	4815
lüm	4816
vu	4817
vil	4818
vde	4819
olcu	4820
etle	4821
saf	4822
emel	4823
ohal	4824
anel	4825
leh	4826
ahm	4827
kaça	4828
iyes	4829
arihi	4830
vı	4831
##iro	4832
akv	4833
evli	4834
özg	4835
elef	4836
ism	4837
ilal	4838
bür	4839
ej	4840
hrac	4841
kd	4842
kk	4843
yl	4844
##hk	4845
anik	4846
day	4847
aro	4848
lazı	4849
atm	4850
işini	4851
##oğlu	4852
roğlu	4853
ndır	4854
neg	4855
nav	4856
niha	4857
şahit	4858
rumu	4859
eu	4860
tc	4861
urdu	4862
elini	4863
pler	4864
arta	4865
ayla	4866
nut	4867
##ko	4868
avm	4869
fiil	4870
mikro	4871
lon	4872
ota	4873
##lal	4874
ikti	4875
##mi̇	4876
derdi	4877
öso	4878
lany	4879
idman	4880
brik	4881
şükür	4882
49	4883
tımı	4884
##fak	4885
ets	4886
lex	4887
rılan	4888
i̇sta	4889
acar	4890
akvim	4891
gat	4892
rür	4893
udu	4894
##di̇	4895
arrem	4896
lya	4897
nere	4898
adil	4899
eşe	4900
rob	4901
üşü	4902
kro	4903
nek	4904
rkan	4905
sra	4906
ollar	4907
aller	4908
lıc	4909
ülü	4910
ızlık	4911
58	4912
siy	4913
ont	4914
özcü	4915
eyir	4916
kup	4917
##i̇n	4918
yasal	4919
kb	4920
rku	4921
üh	4922
arlık	4923
sis	4924
başa	4925
evik	4926
asp	4927
öd	4928
şçi	4929
erin	4930
aylı	4931
evet	4932
mid	4933
otomo	4934
seni	4935
çısı	4936
törü	4937
ilgis	4938
antı	4939
err	4940
ımla	4941
ekib	4942
irde	4943
akk	4944
elge	4945
rend	4946
rens	4947
rans	4948
çevr	4949
biyet	4950
78	4951
enmiş	4952
atılı	4953
menin	4954
rtak	4955
dili	4956
pası	4957
munda	4958
zirve	4959
özgü	4960
67	4961
ew	4962
rmış	4963
sler	4964
yy	4965
zla	4966
zlen	4967
##xy	4968
taç	4969
acmi	4970
emri	4971
eyler	4972
rilme	4973
luğu	4974
nakli	4975
rinde	4976
pir	4977
##̇li̇	4978
anını	4979
arlar	4980
aksim	4981
evd	4982
kole	4983
ahr	4984
eçe	4985
şke	4986
inik	4987
mus	4988
##zah	4989
kran	4990
tıkla	4991
unduğ	4992
59	4993
alay	4994
nıt	4995
eleme	4996
layı	4997
rtlar	4998
kısm	4999
