<unk>	0
<s>	0
</s>	0
ar	-0
an	-1
er	-2
in	-3
▁b	-4
ın	-5
de	-6
▁k	-7
il	-8
▁y	-9
en	-10
▁s	-11
da	-12
ir	-13
al	-14
▁g	-15
ma	-16
lar	-17
ak	-18
▁o	-19
la	-20
et	-21
el	-22
▁t	-23
ek	-24
▁v	-25
▁i	-26
di	-27
un	-28
or	-29
ler	-30
▁,	-31
at	-32
dı	-33
iy	-34
ay	-35
on	-36
es	-37
▁h	-38
▁B	-39
▁m	-40
ur	-41
▁d	-42
as	-43
▁A	-44
le	-45
▁ve	-46
li	-47
▁de	-48
aş	-49
ün	-50
ıl	-51
▁bir	-52
▁n	-53
ür	-54
▁ç	-55
ık	-56
▁T	-57
im	-58
ul	-59
iz	-60
▁ol	-61
▁S	-62
▁K	-63
em	-64
▁a	-65
ap	-66
st	-67
ır	-68
▁"	-69
ör	-70
▁da	-71
▁M	-72
ik	-73
am	-74
ında	-75
▁e	-76
▁il	-77
inde	-78
ey	-79
▁p	-80
ğı	-81
▁ö	-82
iş	-83
az	-84
dan	-85
ış	-86
ya	-87
▁'	-88
▁D	-89
ını	-90
du	-91
ab	-92
▁al	-93
um	-94
ah	-95
▁G	-96
ini	-97
▁H	-98
▁1	-99
üz	-100
▁ş	-101
ti	-102
ki	-103
lı	-104
▁E	-105
esi	-106
▁yap	-107
▁İ	-108
yor	-109
▁ar	-110
tı	-111
den	-112
sı	-113
ları	-114
it	-115
ce	-116
▁2	-117
lan	-118
▁f	-119
ol	-120
ok	-121
▁iç	-122
ine	-123
▁Y	-124
leri	-125
ği	-126
▁bu	-127
ük	-128
is	-129
ına	-130
ım	-131
iye	-132
uz	-133
ül	-134
ağ	-135
▁gör	-136
ız	-137
uş	-138
▁baş	-139
▁et	-140
▁P	-141
cak	-142
▁kar	-143
ut	-144
▁.	-145
af	-146
ev	-147
▁C	-148
▁r	-149
me	-150
ta	-151
ön	-152
▁F	-153
oğ	-154
ürk	-155
inin	-156
anı	-157
te	-158
ların	-159
▁son	-160
▁için	-161
eri	-162
ca	-163
▁O	-164
▁ile	-165
▁gel	-166
▁oldu	-167
us	-168
▁ön	-169
ec	-170
▁z	-171
dır	-172
eç	-173
av	-174
uk	-175
iyor	-176
▁kon	-177
▁an	-178
▁Türk	-179
▁ma	-180
▁ler	-181
▁di	-182
▁ver	-183
üm	-184
lik	-185
▁bil	-186
alar	-187
ması	-188
ad	-189
üş	-190
len	-191
iler	-192
▁aç	-193
se	-194
unu	-195
ez	-196
yon	-197
mak	-198
▁u	-199
öy	-200
▁ay	-201
lu	-202
ra	-203
ından	-204
cı	-205
laş	-206
erek	-207
▁lar	-208
▁bul	-209
▁ne	-210
öz	-211
▁yıl	-212
▁-	-213
ye	-214
▁20	-215
▁3	-216
▁ed	-217
ci	-218
lık	-219
om	-220
lay	-221
▁en	-222
▁in	-223
▁R	-224
▁tar	-225
op	-226
eş	-227
▁çık	-228
ası	-229
▁kal	-230
dığı	-231
▁Türkiye	-232
ib	-233
dir	-234
üy	-235
ildi	-236
▁bel	-237
▁olduğ	-238
▁yer	-239
▁değ	-240
ip	-241
▁Ç	-242
ının	-243
▁iş	-244
larak	-245
▁sür	-246
▁yaş	-247
▁Ş	-248
▁Bu	-249
nin	-250
man	-251
▁gün	-252
▁geç	-253
▁Ö	-254
eler	-255
ıyor	-256
▁N	-257
üt	-258
tan	-259
▁yar	-260
▁(	-261
▁olarak	-262
▁ist	-263
mek	-264
öyle	-265
tir	-266
ade	-267
eh	-268
▁kad	-269
▁or	-270
▁L	-271
▁Baş	-272
eni	-273
ken	-274
ro	-275
lama	-276
▁çok	-277
ıs	-278
ılan	-279
let	-280
ama	-281
▁olan	-282
▁c	-283
ha	-284
ili	-285
▁üz	-286
ada	-287
lü	-288
▁An	-289
▁çal	-290
▁kay	-291
ecek	-292
asında	-293
ğini	-294
eye	-295
ede	-296
ru	-297
▁mil	-298
iyet	-299
cu	-300
▁kur	-301
aya	-302
▁bulun	-303
aber	-304
▁belir	-305
edi	-306
yla	-307
▁4	-308
ist	-309
▁ise	-310
▁çalış	-311
▁karş	-312
arı	-313
▁var	-314
▁üzer	-315
▁dev	-316
ilm	-317
▁ken	-318
ilen	-319
▁el	-320
mış	-321
▁açık	-322
▁daha	-323
▁5	-324
ibi	-325
alı	-326
iyle	-327
tır	-328
uşt	-329
▁ter	-330
si	-331
▁yön	-332
▁kul	-333
▁at	-334
aç	-335
▁ek	-336
▁oy	-337
▁V	-338
▁201	-339
▁sor	-340
unda	-341
▁top	-342
ece	-343
▁dur	-344
eb	-345
aman	-346
leş	-347
▁gü	-348
öl	-349
▁yak	-350
inden	-351
por	-352
▁yüz	-353
▁Er	-354
▁bin	-355
ara	-356
nın	-357
ih	-358
mas	-359
kan	-360
▁düş	-361
▁kiş	-362
os	-363
ğını	-364
▁yan	-365
üyük	-366
▁U	-367
ep	-368
▁gö	-369
ğr	-370
▁ki	-371
▁dön	-372
▁taraf	-373
..	-374
ıldı	-375
kanı	-376
imiz	-377
▁uy	-378
▁kullan	-379
eli	-380
lam	-381
▁her	-382
diği	-383
00	-384
dür	-385
▁sonra	-386
arak	-387
tığı	-388
▁gir	-389
▁etti	-390
▁sağ	-391
yi	-392
▁kadar	-393
▁gibi	-394
▁sah	-395
▁ü	-396
ark	-397
miş	-398
sa	-399
ılı	-400
▁kap	-401
▁gerek	-402
▁tek	-403
▁hal	-404
oy	-405
▁kat	-406
▁belirt	-407
▁ger	-408
dü	-409
unun	-410
▁Al	-411
▁mü	-412
▁tak	-413
ladı	-414
met	-415
▁ül	-416
lerin	-417
▁ola	-418
larını	-419
der	-420
▁Ar	-421
san	-422
▁söyle	-423
oli	-424
▁ak	-425
isi	-426
▁li	-427
▁hak	-428
maya	-429
▁6	-430
▁karşı	-431
lem	-432
▁dedi	-433
▁terör	-434
acak	-435
ayı	-436
ğu	-437
▁yeni	-438
akan	-439
▁Z	-440
ran	-441
esinde	-442
gi	-443
▁ev	-444
▁öz	-445
eti	-446
aat	-447
asyon	-448
bil	-449
▁böl	-450
kin	-451
lığı	-452
▁göre	-453
lerini	-454
▁Ü	-455
▁büyük	-456
ne	-457
re	-458
▁if	-459
ot	-460
yan	-461
▁7	-462
art	-463
▁as	-464
▁ülk	-465
çek	-466
mesi	-467
▁ce	-468
men	-469
▁l	-470
dım	-471
▁düz	-472
▁alın	-473
erk	-474
▁do	-475
▁ilk	-476
lara	-477
▁hay	-478
etir	-479
if	-480
cağı	-481
▁dün	-482
una	-483
▁getir	-484
hur	-485
ter	-486
ven	-487
stan	-488
▁on	-489
▁olduğunu	-490
ef	-491
▁ifade	-492
tr	-493
cü	-494
etim	-495
▁olduğu	-496
▁uz	-497
umhur	-498
bul	-499
▁neden	-500
çe	-501
elik	-502
mız	-503
▁ör	-504
▁ilg	-505
▁pro	-506
▁doğ	-507
▁ort	-508
▁yol	-509
▁Bir	-510
▁alan	-511
▁olma	-512
▁zaman	-513
uy	-514
▁Haber	-515
▁göz	-516
yı	-517
▁sal	-518
▁ama	-519
per	-520
▁tut	-521
▁yüzde	-522
larının	-523
▁sır	-524
▁den	-525
▁öğr	-526
▁maç	-527
azet	-528
gu	-529
ers	-530
▁Cumhur	-531
▁AB	-532
üks	-533
▁çek	-534
▁ya	-535
oc	-536
▁şek	-537
▁önem	-538
▁:	-539
malar	-540
tü	-541
uh	-542
▁8	-543
▁has	-544
ed	-545
tar	-546
▁değil	-547
▁devam	-548
ünü	-549
▁dı	-550
▁Öz	-551
lat	-552
uç	-553
▁ları	-554
▁sev	-555
▁gerçek	-556
▁tarafından	-557
rup	-558
▁Mü	-559
▁ih	-560
▁ot	-561
güt	-562
▁biz	-563
▁alt	-564
ünde	-565
▁arasında	-566
uştur	-567
stanbul	-568
▁göst	-569
▁I	-570
nde	-571
▁poli	-572
dından	-573
▁yaz	-574
▁gen	-575
iç	-576
erb	-577
alan	-578
tık	-579
▁yapılan	-580
be	-581
tik	-582
ac	-583
▁İstanbul	-584
ğü	-585
uyor	-586
▁kendi	-587
▁diye	-588
ten	-589
atı	-590
liği	-591
ans	-592
▁Ak	-593
▁iki	-594
▁göster	-595
doğ	-596
▁Ay	-597
bir	-598
▁Sur	-599
▁durum	-600
iv	-601
eyi	-602
▁ardından	-603
▁milyon	-604
dar	-605
▁Av	-606
na	-607
ğer	-608
▁düzen	-609
▁söz	-610
▁ilgili	-611
▁kaz	-612
▁saat	-613
▁önce	-614
baş	-615
gün	-616
ddi	-617
larda	-618
▁10	-619
alık	-620
diyor	-621
▁saldır	-622
usu	-623
▁bek	-624
▁es	-625
▁eden	-626
▁...	-627
▁Gen	-628
▁insan	-629
▁iz	-630
▁har	-631
▁sav	-632
▁bölg	-633
uştu	-634
▁görev	-635
▁san	-636
▁örgüt	-637
▁Başkanı	-638
▁bulundu	-639
▁özel	-640
ındaki	-641
oz	-642
atır	-643
▁önemli	-644
eleri	-645
atan	-646
▁19	-647
▁15	-648
▁öğren	-649
▁Kur	-650
▁öl	-651
nı	-652
ıp	-653
ıla	-654
▁yok	-655
▁is	-656
han	-657
▁gelen	-658
id	-659
dık	-660
▁par	-661
ileri	-662
ka	-663
▁güven	-664
▁ad	-665
▁ür	-666
up	-667
sız	-668
▁hem	-669
▁söyledi	-670
▁karar	-671
üp	-672
▁9	-673
ram	-674
▁İn	-675
ic	-676
▁dönem	-677
oğlu	-678
▁yet	-679
erkez	-680
▁J	-681
▁oyun	-682
ET	-683
▁dir	-684
ocuk	-685
▁iyi	-686
▁Haberleri	-687
▁geldi	-688
yen	-689
▁ABD	-690
▁haf	-691
bol	-692
rı	-693
iyas	-694
ika	-695
▁İl	-696
leştir	-697
dığını	-698
▁dest	-699
tör	-700
▁açıklama	-701
▁ada	-702
iniz	-703
▁te	-704
işim	-705
azı	-706
▁birlik	-707
nun	-708
▁bağ	-709
▁say	-710
doğan	-711
▁değer	-712
▁içinde	-713
▁2016	-714
▁ko	-715
raf	-716
▁la	-717
ağı	-718
▁ben	-719
▁der	-720
▁yüks	-721
▁yaptığı	-722
ulu	-723
rak	-724
▁tarih	-725
▁fark	-726
cel	-727
▁kam	-728
▁im	-729
aret	-730
▁ede	-731
▁hayat	-732
cek	-733
▁kor	-734
perasyon	-735
üs	-736
▁tem	-737
▁ediyor	-738
▁bas	-739
ilir	-740
▁dış	-741
daki	-742
deki	-743
meye	-744
▁ok	-745
▁duy	-746
▁verdi	-747
lendir	-748
▁İs	-749
ile	-750
▁şeh	-751
▁vur	-752
ub	-753
▁dik	-754
▁az	-755
▁Mah	-756
▁olay	-757
▁bak	-758
▁)	-759
ali	-760
det	-761
▁iliş	-762
layan	-763
daş	-764
lah	-765
▁yay	-766
cade	-767
▁Erdoğan	-768
taş	-769
iyat	-770
eme	-771
▁kişi	-772
▁edildi	-773
▁ağ	-774
sun	-775
▁şekil	-776
▁zor	-777
tür	-778
esini	-779
üyor	-780
▁gi	-781
▁görüş	-782
▁Kar	-783
ig	-784
ısı	-785
▁tes	-786
▁aş	-787
▁kim	-788
▁miz	-789
▁Gazet	-790
▁güç	-791
enin	-792
▁haz	-793
▁çıkar	-794
▁takım	-795
▁ların	-796
lere	-797
▁bulunan	-798
asar	-799
ank	-800
esine	-801
▁;	-802
larına	-803
▁Rus	-804
▁eş	-805
ETÖ	-806
▁dar	-807
▁taş	-808
▁tüm	-809
▁kan	-810
yal	-811
▁mes	-812
lerinin	-813
siz	-814
▁konuş	-815
▁şey	-816
▁Avrup	-817
ılma	-818
▁üzerine	-819
▁polis	-820
▁lir	-821
▁sı	-822
bet	-823
azla	-824
lerde	-825
▁operasyon	-826
▁çocuk	-827
▁Suriye	-828
▁birlikte	-829
▁sat	-830
▁Gün	-831
ülen	-832
za	-833
▁!	-834
▁hav	-835
▁Cumhurbaş	-836
ılması	-837
▁şekilde	-838
▁Or	-839
ılık	-840
▁kes	-841
utbol	-842
eyen	-843
▁bilg	-844
▁fazla	-845
▁kazan	-846
onom	-847
▁hakk	-848
▁dav	-849
ket	-850
▁kr	-851
▁üst	-852
uv	-853
▁seç	-854
▁haber	-855
▁ser	-856
dur	-857
▁Avrupa	-858
ilmesi	-859
▁Bel	-860
▁em	-861
▁hazır	-862
▁0	-863
▁Son	-864
▁Par	-865
▁vatan	-866
larında	-867
▁değiş	-868
ektör	-869
ğit	-870
▁git	-871
▁Bakan	-872
▁Genel	-873
dik	-874
▁hiç	-875
▁Bur	-876
▁leri	-877
▁Müdür	-878
▁FETÖ	-879
ilerin	-880
▁geçir	-881
▁konuştu	-882
▁Dün	-883
▁ulaş	-884
▁yür	-885
lerine	-886
▁destek	-887
▁olacak	-888
ulan	-889
mir	-890
kat	-891
▁Kon	-892
landı	-893
▁olmak	-894
▁Mil	-895
bar	-896
▁kaç	-897
ıcı	-898
iyon	-899
nda	-900
alat	-901
istem	-902
▁yaptı	-903
▁mücade	-904
▁ask	-905
lanan	-906
▁kö	-907
▁konu	-908
▁tama	-909
▁Gazetesi	-910
sel	-911
ahçe	-912
oj	-913
▁sayı	-914
▁aynı	-915
adece	-916
lerinde	-917
lenen	-918
▁ekip	-919
▁art	-920
ımız	-921
▁11	-922
▁bır	-923
üne	-924
usunda	-925
▁İş	-926
▁geliş	-927
ov	-928
ilik	-929
▁mız	-930
▁er	-931
▁yaşan	-932
▁ark	-933
KK	-934
▁suç	-935
▁ci	-936
▁saldırı	-937
▁na	-938
eceği	-939
▁Beş	-940
▁iddi	-941
tal	-942
▁Em	-943
▁sahip	-944
çi	-945
mi	-946
▁kab	-947
▁dikkat	-948
▁En	-949
▁tel	-950
▁nin	-951
▁fa	-952
ğitim	-953
iliyor	-954
▁harek	-955
▁bugün	-956
▁bur	-957
likle	-958
▁bırak	-959
gan	-960
aları	-961
▁muh	-962
▁sık	-963
▁le	-964
▁dak	-965
edef	-966
ilah	-967
alt	-968
▁Fen	-969
▁gön	-970
bilir	-971
▁veya	-972
acağı	-973
kara	-974
▁vatandaş	-975
olu	-976
▁şu	-977
est	-978
luk	-979
▁oyn	-980
▁tan	-981
▁12	-982
ize	-983
▁nedeniyle	-984
▁yapan	-985
▁PKK	-986
kü	-987
▁kaps	-988
lantı	-989
ret	-990
leme	-991
▁ortaya	-992
▁mah	-993
▁sistem	-994
esinin	-995
▁diğer	-996
ımı	-997
▁kıs	-998
▁yakın	-999
▁üzere	-1000
▁Bak	-1001
ri	-1002
▁çıktı	-1003
▁kez	-1004
▁yardım	-1005
▁Tem	-1006
▁lı	-1007
oloj	-1008
▁üzerinde	-1009
▁yor	-1010
▁TL	-1011
kil	-1012
▁uç	-1013
▁Has	-1014
ağını	-1015
AR	-1016
▁As	-1017
▁mi	-1018
iktaş	-1019
▁tekn	-1020
ilecek	-1021
▁devlet	-1022
▁Tr	-1023
▁hedef	-1024
mer	-1025
▁Ankara	-1026
▁şir	-1027
▁başladı	-1028
▁Fenerb	-1029
▁edilen	-1030
▁istedi	-1031
ob	-1032
gı	-1033
masını	-1034
▁Beşiktaş	-1035
ğimiz	-1036
▁Cumhurbaşkanı	-1037
▁Biz	-1038
▁doğru	-1039
ütün	-1040
muz	-1041
▁isim	-1042
▁futbol	-1043
asıl	-1044
▁merkez	-1045
▁gerçekleştir	-1046
ge	-1047
lüğü	-1048
▁yaklaş	-1049
▁geçen	-1050
▁Spor	-1051
▁W	-1052
▁Yar	-1053
▁yatır	-1054
▁olur	-1055
ök	-1056
▁içer	-1057
▁yas	-1058
▁sadece	-1059
▁Söz	-1060
üküm	-1061
▁millet	-1062
▁kapsam	-1063
larla	-1064
▁bazı	-1065
▁mey	-1066
▁Fenerbahçe	-1067
▁?	-1068
▁Ben	-1069
▁aldı	-1070
▁sun	-1071
mıştı	-1072
▁yönelik	-1073
▁Galat	-1074
asaray	-1075
ezon	-1076
▁200	-1077
izi	-1078
▁siyas	-1079
▁sın	-1080
masına	-1081
imi	-1082
çı	-1083
▁Rusya	-1084
▁kadın	-1085
all	-1086
▁nın	-1087
anlı	-1088
ilmiş	-1089
▁pay	-1090
kı	-1091
▁bun	-1092
▁dolar	-1093
yar	-1094
▁Ter	-1095
▁Ancak	-1096
lak	-1097
▁tutuk	-1098
▁sonu	-1099
▁kaldır	-1100
▁Galatasaray	-1101
▁Ek	-1102
▁kend	-1103
▁Ün	-1104
▁Başb	-1105
▁Hal	-1106
▁günü	-1107
isinde	-1108
▁tamam	-1109
▁proj	-1110
niyet	-1111
▁ni	-1112
laya	-1113
▁ik	-1114
▁araç	-1115
oş	-1116
▁üç	-1117
▁sen	-1118
▁mücadele	-1119
▁hafta	-1120
▁nı	-1121
okt	-1122
▁çalışmalar	-1123
van	-1124
▁hast	-1125
AN	-1126
osyal	-1127
gil	-1128
▁düşün	-1129
▁tab	-1130
▁plan	-1131
ing	-1132
ayan	-1133
▁boy	-1134
▁gol	-1135
▁gönder	-1136
▁bildir	-1137
▁Cumhuriyet	-1138
lük	-1139
urt	-1140
▁Başkan	-1141
▁sonr	-1142
▁yle	-1143
▁yla	-1144
▁Dev	-1145
nak	-1146
▁dan	-1147
▁görün	-1148
adaş	-1149
omb	-1150
▁süre	-1151
▁yerine	-1152
dav	-1153
▁iht	-1154
▁uygu	-1155
ehir	-1156
▁lerin	-1157
▁girişim	-1158
kem	-1159
▁bit	-1160
ivers	-1161
vet	-1162
▁silah	-1163
▁uyg	-1164
ıldığı	-1165
▁güvenlik	-1166
▁tur	-1167
spor	-1168
▁oyuncu	-1169
iversit	-1170
▁Dem	-1171
▁mo	-1172
▁lira	-1173
▁terörist	-1174
▁nasıl	-1175
▁ayr	-1176
ust	-1177
▁tah	-1178
▁mı	-1179
▁değerlendir	-1180
eğ	-1181
endi	-1182
ğlu	-1183
▁kır	-1184
▁Alman	-1185
izmet	-1186
▁yönetim	-1187
▁şöyle	-1188
▁yılında	-1189
liğ	-1190
gram	-1191
okr	-1192
▁pat	-1193
▁hareket	-1194
üph	-1195
▁milyar	-1196
▁kız	-1197
ana	-1198
▁Meh	-1199
▁hakkında	-1200
anın	-1201
▁ilç	-1202
▁şirket	-1203
▁sezon	-1204
▁hat	-1205
▁gazet	-1206
muş	-1207
▁bile	-1208
▁Yıl	-1209
pr	-1210
▁Ama	-1211
▁yanı	-1212
trol	-1213
▁anlaş	-1214
▁dünya	-1215
mez	-1216
▁kil	-1217
▁yüksek	-1218
uma	-1219
kinci	-1220
tiği	-1221
ılacak	-1222
▁üy	-1223
ışma	-1224
ER	-1225
▁tal	-1226
iyoruz	-1227
orm	-1228
dana	-1229
▁çev	-1230
▁Es	-1231
▁14	-1232
duğu	-1233
▁biri	-1234
▁dır	-1235
▁mut	-1236
HP	-1237
▁Temmuz	-1238
▁konusunda	-1239
manın	-1240
▁lere	-1241
ahat	-1242
▁su	-1243
rar	-1244
▁darbe	-1245
▁işlem	-1246
".	-1247
▁kurul	-1248
isyon	-1249
eki	-1250
▁met	-1251
▁farklı	-1252
ğın	-1253
▁ancak	-1254
▁Kom	-1255
aştır	-1256
gel	-1257
▁yatırım	-1258
ğa	-1259
amp	-1260
asına	-1261
las	-1262
▁tedav	-1263
▁lara	-1264
▁yayın	-1265
▁Mehmet	-1266
sini	-1267
▁etm	-1268
▁açıklamada	-1269
▁Tek	-1270
▁kontrol	-1271
▁18	-1272
indeki	-1273
▁arkadaş	-1274
afa	-1275
▁kabul	-1276
▁olması	-1277
ale	-1278
▁hız	-1279
▁yaşındaki	-1280
üç	-1281
lendi	-1282
aliyet	-1283
üb	-1284
▁paylaş	-1285
imdi	-1286
▁larını	-1287
▁13	-1288
▁Ko	-1289
▁soruştur	-1290
üldü	-1291
azar	-1292
▁ün	-1293
▁başkan	-1294
efon	-1295
▁2015	-1296
ısında	-1297
rıca	-1298
ça	-1299
üzel	-1300
istan	-1301
▁geri	-1302
▁nız	-1303
▁ekonom	-1304
▁Beledi	-1305
▁San	-1306
▁iti	-1307
ğunu	-1308
▁At	-1309
▁Pro	-1310
.00	-1311
ünün	-1312
altına	-1313
▁sağlık	-1314
▁tür	-1315
▁Mar	-1316
▁böyle	-1317
aj	-1318
▁başka	-1319
▁uzun	-1320
▁16	-1321
▁hizmet	-1322
▁etmek	-1323
dem	-1324
▁genel	-1325
▁Başbakan	-1326
▁bab	-1327
▁önc	-1328
▁eski	-1329
▁eğitim	-1330
tu	-1331
▁ağır	-1332
mayı	-1333
▁Büyük	-1334
ciler	-1335
▁17	-1336
lum	-1337
▁şehit	-1338
▁oluştur	-1339
▁El	-1340
▁lan	-1341
▁25	-1342
▁rak	-1343
▁ilişkin	-1344
▁bölüm	-1345
fer	-1346
▁yaşa	-1347
▁Bakanı	-1348
omo	-1349
▁hes	-1350
▁30	-1351
▁asker	-1352
▁un	-1353
▁bütün	-1354
eci	-1355
▁Devlet	-1356
lardan	-1357
▁savaş	-1358
▁Tur	-1359
▁ber	-1360
▁film	-1361
▁sınır	-1362
▁mem	-1363
▁şüph	-1364
▁bomb	-1365
oğun	-1366
▁Sözcü	-1367
▁olduk	-1368
oğraf	-1369
▁teh	-1370
▁teş	-1371
▁kapsamında	-1372
▁med	-1373
▁toplantı	-1374
ledi	-1375
şam	-1376
mişti	-1377
▁Parti	-1378
▁telefon	-1379
▁men	-1380
min	-1381
▁hep	-1382
▁yüksel	-1383
gin	-1384
▁Doğ	-1385
▁Den	-1386
▁rağ	-1387
suz	-1388
azi	-1389
medi	-1390
▁Kan	-1391
eği	-1392
▁büy	-1393
▁bulunduğu	-1394
▁Top	-1395
▁taşı	-1396
▁Dünya	-1397
▁ara	-1398
etin	-1399
alarında	-1400
maz	-1401
arası	-1402
▁etki	-1403
▁sak	-1404
▁çalışan	-1405
tin	-1406
çok	-1407
▁gözaltına	-1408
▁rağmen	-1409
▁ülkeler	-1410
▁orta	-1411
▁belirten	-1412
▁Ah	-1413
meler	-1414
▁AK	-1415
▁müz	-1416
ırken	-1417
▁seb	-1418
tiğini	-1419
ley	-1420
▁..	-1421
▁bilir	-1422
ani	-1423
▁çıkan	-1424
▁alınan	-1425
▁kaybet	-1426
deş	-1427
▁siz	-1428
▁hastan	-1429
▁ettiği	-1430
▁sok	-1431
iyorum	-1432
▁kararı	-1433
▁kişinin	-1434
▁Müdürlüğü	-1435
uru	-1436
umu	-1437
▁koy	-1438
▁Mahall	-1439
aha	-1440
▁ait	-1441
▁örgütü	-1442
ver	-1443
▁Ne	-1444
▁çöz	-1445
ladığı	-1446
▁İz	-1447
vek	-1448
▁tesp	-1449
lim	-1450
▁bar	-1451
▁genç	-1452
unları	-1453
▁tep	-1454
mı	-1455
▁sürdür	-1456
▁ülke	-1457
kın	-1458
▁tır	-1459
ümüz	-1460
fa	-1461
ala	-1462
▁Hav	-1463
▁fin	-1464
▁dakik	-1465
▁yapıl	-1466
▁lerini	-1467
▁hüküm	-1468
▁ail	-1469
▁ziy	-1470
▁fiyat	-1471
▁Terör	-1472
ınız	-1473
▁yen	-1474
ekli	-1475
▁mev	-1476
sil	-1477
erj	-1478
lo	-1479
net	-1480
▁cez	-1481
▁yaklaşık	-1482
▁oğlu	-1483
▁Kay	-1484
-1	-1485
▁Merkez	-1486
▁hava	-1487
▁gelir	-1488
ünkü	-1489
kes	-1490
▁çağ	-1491
▁Sav	-1492
▁etk	-1493
can	-1494
din	-1495
ılığı	-1496
▁sektör	-1497
tep	-1498
▁karşılaş	-1499
▁Ali	-1500
dırım	-1501
▁oluş	-1502
cısı	-1503
▁bağlı	-1504
▁sonuç	-1505
▁öldür	-1506
ışı	-1507
▁Mahallesi	-1508
▁Ser	-1509
▁ceza	-1510
▁konusu	-1511
ıt	-1512
▁aldığı	-1513
▁sab	-1514
dül	-1515
yas	-1516
▁para	-1517
▁kom	-1518
▁başlat	-1519
▁ikinci	-1520
laması	-1521
▁Ab	-1522
▁beklen	-1523
uslar	-1524
sine	-1525
▁başar	-1526
▁hiçbir	-1527
▁On	-1528
▁sosyal	-1529
▁altında	-1530
sal	-1531
▁Os	-1532
dde	-1533
ayet	-1534
ari	-1535
▁Zaman	-1536
▁anlat	-1537
▁am	-1538
▁yaralan	-1539
eceğini	-1540
▁anla	-1541
▁tanı	-1542
▁pu	-1543
umlu	-1544
▁tespit	-1545
▁Bil	-1546
▁Hak	-1547
▁başv	-1548
▁program	-1549
▁incel	-1550
▁Kurulu	-1551
▁bunu	-1552
▁ey	-1553
▁Gü	-1554
▁av	-1555
▁güzel	-1556
▁Yıldırım	-1557
▁din	-1558
▁ihtiy	-1559
▁yeniden	-1560
zon	-1561
▁alındı	-1562
uslararası	-1563
ılmaz	-1564
▁Bay	-1565
▁Her	-1566
unuyor	-1567
ültür	-1568
▁Bakanlığı	-1569
▁Yeni	-1570
▁İngil	-1571
▁ele	-1572
▁ateş	-1573
apor	-1574
leyen	-1575
▁Dav	-1576
rub	-1577
▁dem	-1578
▁yürüt	-1579
otoğraf	-1580
▁beraber	-1581
▁Must	-1582
▁birçok	-1583
enk	-1584
▁grup	-1585
▁Üniversit	-1586
üçük	-1587
▁çar	-1588
üf	-1589
▁bizim	-1590
▁Mustafa	-1591
ince	-1592
ampiyon	-1593
asını	-1594
▁50	-1595
▁Fran	-1596
▁itibar	-1597
ch	-1598
ni	-1599
ent	-1600
▁eder	-1601
▁savun	-1602
▁yine	-1603
▁Dr	-1604
abzon	-1605
▁Yön	-1606
...	-1607
ayas	-1608
▁dile	-1609
▁Özel	-1610
▁artık	-1611
ullah	-1612
▁Bunun	-1613
ere	-1614
ancı	-1615
▁res	-1616
▁Şub	-1617
▁okul	-1618
▁engel	-1619
▁per	-1620
▁kamu	-1621
▁anlam	-1622
▁du	-1623
▁Emniyet	-1624
▁diyor	-1625
▁veren	-1626
-0	-1627
lin	-1628
alarda	-1629
cağını	-1630
▁kullandı	-1631
ga	-1632
ğında	-1633
▁lerden	-1634
▁can	-1635
▁soru	-1636
uvvet	-1637
▁Lig	-1638
masının	-1639
▁söy	-1640
▁bor	-1641
▁Trabzon	-1642
şı	-1643
pan	-1644
▁sey	-1645
ocu	-1646
▁his	-1647
▁kı	-1648
inci	-1649
larından	-1650
unca	-1651
rans	-1652
yanın	-1653
lerinden	-1654
▁100	-1655
▁tart	-1656
▁içerisinde	-1657
▁toplam	-1658
▁geçti	-1659
▁Kal	-1660
▁hale	-1661
▁istem	-1662
▁ul	-1663
▁mak	-1664
▁üzerinden	-1665
▁1.	-1666
▁tük	-1667
od	-1668
▁belirtildi	-1669
▁vurgu	-1670
ğiz	-1671
▁dönüş	-1672
▁diz	-1673
talya	-1674
▁kısa	-1675
▁ses	-1676
▁yoğun	-1677
tay	-1678
▁şekl	-1679
▁sonrası	-1680
▁rahat	-1681
▁kardeş	-1682
ej	-1683
▁tam	-1684
▁Ahmet	-1685
ğünü	-1686
sü	-1687
nün	-1688
▁CHP	-1689
mekte	-1690
▁anda	-1691
tif	-1692
AŞ	-1693
▁yapıyor	-1694
▁mer	-1695
omobil	-1696
cisi	-1697
▁Uz	-1698
▁kayde	-1699
▁oran	-1700
▁for	-1701
▁Yap	-1702
▁spor	-1703
▁Sü	-1704
▁bey	-1705
▁hey	-1706
▁kav	-1707
▁Tar	-1708
-2	-1709
undan	-1710
▁meydana	-1711
▁Ön	-1712
▁Demir	-1713
▁dolay	-1714
ğe	-1715
ide	-1716
▁Poli	-1717
abilir	-1718
▁fotoğraf	-1719
laştır	-1720
▁Şu	-1721
▁artır	-1722
▁Amer	-1723
ilere	-1724
▁larının	-1725
işleri	-1726
▁satış	-1727
▁adım	-1728
tiv	-1729
mızı	-1730
iyi	-1731
▁kurum	-1732
▁sıra	-1733
▁Almanya	-1734
▁ziyaret	-1735
▁ortak	-1736
▁edil	-1737
▁kaynak	-1738
▁belirtti	-1739
siniz	-1740
uro	-1741
▁medya	-1742
▁öde	-1743
▁Hastan	-1744
▁Ad	-1745
amaz	-1746
▁götür	-1747
▁adam	-1748
lıyor	-1749
▁bunun	-1750
▁22	-1751
▁mu	-1752
▁edecek	-1753
sin	-1754
▁zar	-1755
▁24	-1756
▁man	-1757
▁yaşam	-1758
▁gerçekleş	-1759
▁Der	-1760
▁DE	-1761
ort	-1762
▁Bey	-1763
▁21	-1764
ecli	-1765
▁burada	-1766
br	-1767
▁Kas	-1768
▁verdiği	-1769
▁Bar	-1770
▁sorun	-1771
uldu	-1772
▁Muh	-1773
▁bilin	-1774
▁han	-1775
▁Kara	-1776
▁Diy	-1777
▁faaliyet	-1778
esel	-1779
yle	-1780
▁madde	-1781
tem	-1782
lek	-1783
▁lardan	-1784
▁yaşanan	-1785
Bu	-1786
üncü	-1787
aba	-1788
▁Geç	-1789
malı	-1790
ıntı	-1791
▁seçim	-1792
ağa	-1793
▁akşam	-1794
▁lerle	-1795
ektr	-1796
▁tir	-1797
▁araştır	-1798
▁futbolcu	-1799
▁Osman	-1800
landır	-1801
▁belirterek	-1802
▁Ör	-1803
esiyle	-1804
akır	-1805
▁Hol	-1806
▁otur	-1807
▁nda	-1808
▁cev	-1809
elim	-1810
▁DA	-1811
▁verildi	-1812
alama	-1813
▁kent	-1814
▁müda	-1815
▁İlk	-1816
arb	-1817
▁lerinin	-1818
üc	-1819
▁Az	-1820
▁sırasında	-1821
dın	-1822
▁nokt	-1823
▁yakalan	-1824
▁mesaj	-1825
▁teknik	-1826
▁ekipleri	-1827
▁Sağ	-1828
▁kit	-1829
▁larına	-1830
▁ndan	-1831
▁hatır	-1832
lerle	-1833
▁fır	-1834
anıyor	-1835
▁kol	-1836
▁Mart	-1837
▁ye	-1838
▁Can	-1839
▁dil	-1840
▁Deniz	-1841
▁kalan	-1842
▁trans	-1843
▁Li	-1844
▁hayatını	-1845
▁basın	-1846
▁sin	-1847
▁dah	-1848
ılıyor	-1849
▁çalışma	-1850
ukuk	-1851
▁boz	-1852
▁Millet	-1853
▁".	-1854
etmen	-1855
▁puan	-1856
abancı	-1857
▁Milli	-1858
▁düzenlenen	-1859
of	-1860
▁kaydet	-1861
▁niz	-1862
oloji	-1863
▁Şubat	-1864
▁bah	-1865
▁gelecek	-1866
▁çevr	-1867
▁toplum	-1868
▁fir	-1869
gen	-1870
▁Do	-1871
▁oluyor	-1872
▁müdah	-1873
▁Böl	-1874
▁ilişk	-1875
ceki	-1876
▁sonucu	-1877
▁Hay	-1878
▁uzak	-1879
▁pr	-1880
▁demokr	-1881
▁larla	-1882
sında	-1883
ören	-1884
▁Üniversitesi	-1885
▁eylem	-1886
ılmış	-1887
▁nden	-1888
akat	-1889
▁soruşturma	-1890
erji	-1891
şehir	-1892
▁ayında	-1893
▁özellikle	-1894
emek	-1895
▁Ev	-1896
▁İzmir	-1897
▁Daha	-1898
siyon	-1899
ivil	-1900
▁alıyor	-1901
ami	-1902
ıda	-1903
▁indir	-1904
▁oda	-1905
▁rek	-1906
▁olsun	-1907
▁herkes	-1908
▁ürün	-1909
▁Sal	-1910
▁takip	-1911
ebilir	-1912
▁dönemde	-1913
▁sevk	-1914
▁yapmak	-1915
▁Su	-1916
▁gerekiyor	-1917
▁Ocak	-1918
▁üretim	-1919
▁yapılacak	-1920
tak	-1921
su	-1922
düğü	-1923
mar	-1924
▁Gök	-1925
gın	-1926
▁siyasi	-1927
▁sırada	-1928
▁diy	-1929
▁inş	-1930
▁kapat	-1931
ku	-1932
▁yurt	-1933
▁bay	-1934
▁sanat	-1935
▁boş	-1936
▁40	-1937
▁yaptık	-1938
▁um	-1939
▁yapıldı	-1940
▁otomobil	-1941
▁öğrenildi	-1942
uluk	-1943
▁mal	-1944
ğinde	-1945
▁Güven	-1946
og	-1947
▁üc	-1948
▁Kor	-1949
sik	-1950
abı	-1951
▁bağı	-1952
ternet	-1953
▁kas	-1954
ünden	-1955
▁benim	-1956
▁gece	-1957
gür	-1958
etr	-1959
lerden	-1960
▁kaydetti	-1961
▁Olay	-1962
▁çat	-1963
▁yandan	-1964
▁23	-1965
▁olabilir	-1966
▁pazar	-1967
▁şeklinde	-1968
layacak	-1969
▁geliyor	-1970
ova	-1971
▁Gül	-1972
▁benz	-1973
ğim	-1974
▁ihra	-1975
AK	-1976
yesi	-1977
▁Har	-1978
▁piyas	-1979
▁Fet	-1980
▁mek	-1981
▁gal	-1982
▁aktar	-1983
AT	-1984
▁yana	-1985
▁ederek	-1986
kün	-1987
▁halk	-1988
ici	-1989
altı	-1990
▁yıllık	-1991
▁tat	-1992
▁üret	-1993
▁başarı	-1994
lif	-1995
▁dair	-1996
▁cin	-1997
▁çocu	-1998
▁kesin	-1999
▁Ey	-2000
▁ta	-2001
▁Bank	-2002
for	-2003
▁Irak	-2004
umuz	-2005
▁çif	-2006
▁altına	-2007
▁Tay	-2008
eza	-2009
ünüyor	-2010
▁temsil	-2011
▁mez	-2012
▁değişik	-2013
anan	-2014
▁aday	-2015
müş	-2016
▁giy	-2017
▁isteyen	-2018
▁Ada	-2019
▁Yardım	-2020
▁sahibi	-2021
▁Ot	-2022
dıkları	-2023
aşa	-2024
▁Çünkü	-2025
madı	-2026
lamak	-2027
▁bilgi	-2028
ücü	-2029
ola	-2030
▁Kür	-2031
▁değiştir	-2032
cih	-2033
▁seviy	-2034
▁önünde	-2035
▁yağ	-2036
ğin	-2037
▁günde	-2038
▁bulunuyor	-2039
▁Dış	-2040
yip	-2041
▁kir	-2042
▁/	-2043
▁devr	-2044
▁ettik	-2045
▁Man	-2046
▁ciddi	-2047
▁görüntü	-2048
▁iddia	-2049
▁Fat	-2050
aların	-2051
ılıç	-2052
▁müm	-2053
sinin	-2054
▁Di	-2055
▁mül	-2056
eştir	-2057
▁uçak	-2058
▁dakika	-2059
▁Kad	-2060
▁Tak	-2061
▁yetkil	-2062
ğına	-2063
▁Allah	-2064
▁çiz	-2065
▁lider	-2066
▁dok	-2067
▁tekrar	-2068
▁Br	-2069
▁sar	-2070
▁köy	-2071
ılım	-2072
may	-2073
ayın	-2074
▁Kul	-2075
ser	-2076
emiz	-2077
▁önceki	-2078
üsü	-2079
▁biliyor	-2080
manı	-2081
▁tav	-2082
▁ann	-2083
uzey	-2084
duk	-2085
acı	-2086
▁cen	-2087
▁ölüm	-2088
elerin	-2089
▁tepki	-2090
▁mümkün	-2091
▁arac	-2092
▁Bugün	-2093
▁tercih	-2094
▁dakikada	-2095
▁mens	-2096
erbest	-2097
▁askeri	-2098
▁bölgede	-2099
ınca	-2100
▁Tekn	-2101
▁sivil	-2102
▁Ayrıca	-2103
▁politik	-2104
▁it	-2105
ton	-2106
▁izin	-2107
uyu	-2108
▁şunları	-2109
eşit	-2110
▁bes	-2111
▁kolay	-2112
eg	-2113
tığını	-2114
▁artış	-2115
▁sit	-2116
▁Genç	-2117
▁adet	-2118
vekili	-2119
▁Yılmaz	-2120
izm	-2121
▁hap	-2122
▁küçük	-2123
▁uygulan	-2124
▁ris	-2125
▁çarp	-2126
▁Aralık	-2127
▁Gazi	-2128
makta	-2129
▁Mecli	-2130
jan	-2131
sat	-2132
ceği	-2133
▁İran	-2134
▁28	-2135
ump	-2136
▁2.	-2137
▁muhal	-2138
AL	-2139
maları	-2140
▁kaldı	-2141
▁elektr	-2142
▁larımız	-2143
▁mode	-2144
▁giriş	-2145
▁dışında	-2146
liyor	-2147
▁halinde	-2148
▁zamanda	-2149
▁tedavi	-2150
▁kadro	-2151
▁rapor	-2152
do	-2153
one	-2154
osu	-2155
▁Per	-2156
▁Euro	-2157
mesini	-2158
▁Trabzonspor	-2159
▁İç	-2160
ii	-2161
▁transfer	-2162
erli	-2163
izyon	-2164
ula	-2165
ört	-2166
▁Kılıç	-2167
▁zarar	-2168
▁sayıda	-2169
▁organ	-2170
alim	-2171
meyi	-2172
çesi	-2173
▁Davut	-2174
▁talep	-2175
ete	-2176
emal	-2177
▁Yönetim	-2178
▁açıklam	-2179
▁koş	-2180
▁şimdi	-2181
▁düny	-2182
▁Diyarb	-2183
ırı	-2184
▁Ekonom	-2185
▁kuruluş	-2186
▁mas	-2187
tım	-2188
▁olmaya	-2189
▁şah	-2190
lediği	-2191
30	-2192
ba	-2193
ayasa	-2194
diğini	-2195
▁tr	-2196
▁Diyarbakır	-2197
utlu	-2198
▁hemen	-2199
iyatı	-2200
sta	-2201
lerce	-2202
imizin	-2203
▁`	-2204
▁olmadığını	-2205
iliği	-2206
▁duyur	-2207
▁sına	-2208
▁tartış	-2209
meden	-2210
▁geliştir	-2211
▁Ül	-2212
▁gereken	-2213
▁Kasım	-2214
▁başlayan	-2215
▁Ul	-2216
nek	-2217
▁len	-2218
▁uygun	-2219
▁İşte	-2220
asının	-2221
Şİ	-2222
diler	-2223
▁Ceza	-2224
▁amacı	-2225
aşı	-2226
▁yapı	-2227
▁tehdi	-2228
▁internet	-2229
▁yorum	-2230
abil	-2231
eyin	-2232
▁kah	-2233
▁öne	-2234
▁şid	-2235
▁kötü	-2236
lanması	-2237
▁Mahkem	-2238
▁yaşayan	-2239
▁sayısı	-2240
YD	-2241
▁nde	-2242
▁başına	-2243
▁Komut	-2244
▁ücret	-2245
▁Af	-2246
▁Aç	-2247
▁Bun	-2248
kenin	-2249
▁vardı	-2250
elere	-2251
İN	-2252
▁durumda	-2253
larımız	-2254
▁İst	-2255
▁Gülen	-2256
elen	-2257
▁açıkladı	-2258
▁Şeh	-2259
hangi	-2260
▁hesap	-2261
▁adı	-2262
▁),	-2263
▁3.	-2264
▁yanında	-2265
▁gerektiğini	-2266
▁Oy	-2267
▁gec	-2268
▁Davutoğlu	-2269
aten	-2270
▁Çin	-2271
eral	-2272
▁Sar	-2273
▁Ok	-2274
▁hen	-2275
▁larından	-2276
▁uygulama	-2277
▁Mur	-2278
▁sa	-2279
▁Ber	-2280
▁Dur	-2281
▁Gör	-2282
adolu	-2283
▁si	-2284
▁Haz	-2285
▁traf	-2286
▁hukuk	-2287
▁inan	-2288
▁eleştir	-2289
▁kalk	-2290
▁itibaren	-2291
▁teklif	-2292
mat	-2293
isan	-2294
rek	-2295
▁boyunca	-2296
EN	-2297
▁27	-2298
eden	-2299
ğine	-2300
▁birbir	-2301
▁Anadolu	-2302
▁bank	-2303
▁kendiler	-2304
▁taraftar	-2305
dük	-2306
leşme	-2307
▁adına	-2308
▁ayak	-2309
▁dolayı	-2310
rubu	-2311
▁sabah	-2312
▁olmayan	-2313
▁ten	-2314
▁Orta	-2315
lül	-2316
▁Yun	-2317
▁Hat	-2318
▁yük	-2319
teki	-2320
FA	-2321
bay	-2322
▁oyna	-2323
▁500	-2324
▁ifadelerini	-2325
▁şart	-2326
▁çeşit	-2327
luğu	-2328
▁ana	-2329
▁laz	-2330
▁kayb	-2331
▁söyleyen	-2332
▁sürec	-2333
▁Ligi	-2334
he	-2335
▁serbest	-2336
▁faiz	-2337
isinin	-2338
ısından	-2339
▁2014	-2340
desi	-2341
▁erk	-2342
▁ora	-2343
▁adlı	-2344
▁mik	-2345
▁elde	-2346
▁Süper	-2347
▁yabancı	-2348
▁Kö	-2349
▁Hastanesi	-2350
▁etkin	-2351
▁uluslararası	-2352
▁HD	-2353
▁Kaz	-2354
▁yat	-2355
▁199	-2356
▁eşi	-2357
erson	-2358
▁lerinden	-2359
arken	-2360
▁Eğitim	-2361
▁derece	-2362
▁Antalya	-2363
▁şehir	-2364
▁başında	-2365
İL	-2366
▁bana	-2367
),	-2368
▁Çok	-2369
▁onun	-2370
▁Koç	-2371
▁çalışıyor	-2372
EŞ	-2373
▁Prof	-2374
▁tasar	-2375
▁yönet	-2376
▁Kır	-2377
isini	-2378
▁düştü	-2379
▁gider	-2380
▁zorunda	-2381
▁ayrı	-2382
elç	-2383
▁Belediye	-2384
▁arasındaki	-2385
▁görül	-2386
emi	-2387
▁Ağ	-2388
▁getirdi	-2389
SK	-2390
▁26	-2391
▁ha	-2392
▁mark	-2393
▁cenaz	-2394
▁Rece	-2395
▁Sağlık	-2396
▁Mes	-2397
▁araya	-2398
larıyla	-2399
▁başvur	-2400
cat	-2401
AB	-2402
oh	-2403
▁Recep	-2404
▁Tayyip	-2405
▁mağ	-2406
esinden	-2407
▁Müdürü	-2408
üman	-2409
miyor	-2410
ildiği	-2411
▁koru	-2412
▁verilen	-2413
darma	-2414
▁milli	-2415
taj	-2416
ısıyla	-2417
lanma	-2418
▁bize	-2419
▁karış	-2420
OR	-2421
▁düşünüyor	-2422
tim	-2423
▁sig	-2424
▁istiyor	-2425
▁29	-2426
▁şark	-2427
▁güçlü	-2428
▁parti	-2429
efer	-2430
lında	-2431
▁Mus	-2432
zı	-2433
tere	-2434
▁tic	-2435
mektedir	-2436
▁darb	-2437
sas	-2438
▁Ma	-2439
▁Val	-2440
▁Güvenlik	-2441
▁ayrıca	-2442
▁Ol	-2443
▁se	-2444
cılık	-2445
leriyle	-2446
▁konuda	-2447
▁tarihi	-2448
ahim	-2449
▁pek	-2450
mada	-2451
acağız	-2452
▁belli	-2453
▁resmi	-2454
▁Şimdi	-2455
▁herhangi	-2456
▁kut	-2457
▁Şen	-2458
▁Polis	-2459
▁istih	-2460
▁ip	-2461
▁Yardımcısı	-2462
eder	-2463
ısına	-2464
elerde	-2465
▁yıldı	-2466
▁kurtar	-2467
kaç	-2468
▁durumu	-2469
▁ir	-2470
oktor	-2471
▁ünlü	-2472
▁süreç	-2473
▁sonunda	-2474
cil	-2475
liye	-2476
▁kayded	-2477
asi	-2478
yız	-2479
▁Örgüt	-2480
▁geniş	-2481
emesi	-2482
dal	-2483
▁İslam	-2484
cağız	-2485
▁Sarı	-2486
▁mülte	-2487
▁dünyanın	-2488
▁dep	-2489
▁iler	-2490
▁Alt	-2491
ısını	-2492
▁kurt	-2493
▁teslim	-2494
▁karşısında	-2495
▁ödül	-2496
▁Böyle	-2497
üst	-2498
▁şik	-2499
▁Kemal	-2500
▁saatlerinde	-2501
▁sokak	-2502
lemek	-2503
lilik	-2504
▁ileri	-2505
▁Dışişleri	-2506
▁temiz	-2507
▁ner	-2508
▁edilm	-2509
▁hastalık	-2510
▁lazım	-2511
▁yı	-2512
▁dışı	-2513
▁tören	-2514
▁katıldı	-2515
▁Kap	-2516
▁alma	-2517
▁şiddet	-2518
▁yarat	-2519
▁35	-2520
▁yi	-2521
▁ülkenin	-2522
▁kredi	-2523
▁alacak	-2524
ber	-2525
▁avuk	-2526
▁taleb	-2527
▁Kr	-2528
▁sol	-2529
▁Yüks	-2530
diş	-2531
▁Ch	-2532
▁HDP	-2533
▁May	-2534
▁Birliği	-2535
▁ettiğini	-2536
▁şampiyon	-2537
▁Murat	-2538
▁cevap	-2539
birliği	-2540
▁erkek	-2541
▁olabil	-2542
▁yaralı	-2543
▁ı	-2544
keme	-2545
▁nedenle	-2546
▁Yak	-2547
▁parç	-2548
▁poz	-2549
▁alış	-2550
▁haft	-2551
▁bakan	-2552
▁İki	-2553
▁büyü	-2554
▁kayıt	-2555
▁ilçesinde	-2556
▁dahil	-2557
ke	-2558
imize	-2559
▁çözüm	-2560
atürk	-2561
▁belg	-2562
▁yılda	-2563
▁Bah	-2564
▁Kam	-2565
▁taz	-2566
ast	-2567
▁onu	-2568
imizi	-2569
sın	-2570
▁İngiltere	-2571
▁çift	-2572
▁Nisan	-2573
▁Trump	-2574
lüyor	-2575
▁maçında	-2576
eşil	-2577
▁Bin	-2578
artesi	-2579
▁düşür	-2580
▁temel	-2581
▁tehdit	-2582
▁Sul	-2583
▁sonrasında	-2584
▁rol	-2585
▁Atatürk	-2586
ebek	-2587
mıştır	-2588
▁yöntem	-2589
▁hükümet	-2590
ulması	-2591
▁tehlik	-2592
liy	-2593
neği	-2594
▁imza	-2595
▁Şah	-2596
asyonu	-2597
▁Ve	-2598
antep	-2599
▁maçı	-2600
▁Suriy	-2601
▁almak	-2602
▁duruş	-2603
ŞİD	-2604
▁mahkem	-2605
▁person	-2606
▁yapacak	-2607
,5	-2608
▁PYD	-2609
▁yılı	-2610
▁sını	-2611
▁Mo	-2612
▁Fatih	-2613
▁Zir	-2614
▁göç	-2615
▁ham	-2616
yacak	-2617
Türk	-2618
▁kilo	-2619
▁Aydın	-2620
lenmesi	-2621
▁ilet	-2622
▁canlı	-2623
▁yöneti	-2624
▁Hava	-2625
▁ediliyor	-2626
cusu	-2627
▁Sam	-2628
▁Kürt	-2629
▁kans	-2630
lış	-2631
taki	-2632
▁Sor	-2633
▁galib	-2634
▁Müs	-2635
forman	-2636
▁başarılı	-2637
▁arada	-2638
▁gördü	-2639
▁işaret	-2640
adan	-2641
▁giden	-2642
▁bilgiye	-2643
macı	-2644
▁yansı	-2645
▁acı	-2646
▁lik	-2647
▁IŞİD	-2648
▁açıl	-2649
▁kriz	-2650
▁sarı	-2651
▁yolu	-2652
▁Dir	-2653
▁Mer	-2654
dam	-2655
tur	-2656
azlı	-2657
▁lık	-2658
▁net	-2659
▁DAEŞ	-2660
▁yarış	-2661
▁ülkede	-2662
lenme	-2663
▁kart	-2664
▁amacıyla	-2665
▁Gaziantep	-2666
▁ban	-2667
▁yapma	-2668
▁durdur	-2669
İR	-2670
evizyon	-2671
▁Cad	-2672
▁edece	-2673
evi	-2674
▁türlü	-2675
▁bomba	-2676
▁katkı	-2677
▁sınav	-2678
▁Merkezi	-2679
.,	-2680
eyecek	-2681
ısının	-2682
ve	-2683
▁uğr	-2684
▁İnsan	-2685
▁tarihinde	-2686
▁yık	-2687
▁part	-2688
liğini	-2689
▁yanıt	-2690
▁edilmiş	-2691
▁Cumhurbaşkan	-2692
dek	-2693
dum	-2694
▁Mayıs	-2695
▁getiren	-2696
▁Sin	-2697
▁gez	-2698
▁özgür	-2699
0'	-2700
var	-2701
▁4.	-2702
▁açı	-2703
▁yağı	-2704
▁kültür	-2705
kur	-2706
▁Jan	-2707
▁arama	-2708
▁Fransa	-2709
▁hızlı	-2710
▁görüyor	-2711
▁sistemi	-2712
unma	-2713
cileri	-2714
▁Futbol	-2715
▁bildirildi	-2716
▁ted	-2717
alım	-2718
▁henüz	-2719
▁model	-2720
etrol	-2721
iyeti	-2722
layıcı	-2723
masında	-2724
▁Ekonomi	-2725
▁ekonomik	-2726
IR	-2727
▁atan	-2728
▁risk	-2729
▁yemek	-2730
▁İlçesi	-2731
▁düzey	-2732
▁Kim	-2733
▁list	-2734
adem	-2735
uvar	-2736
▁giz	-2737
▁ortam	-2738
ğun	-2739
▁St	-2740
▁fay	-2741
▁Cen	-2742
ilerek	-2743
▁maçta	-2744
layarak	-2745
▁ihtiyaç	-2746
▁st	-2747
▁üyesi	-2748
sav	-2749
▁Sab	-2750
▁isimli	-2751
▁dol	-2752
▁emniyet	-2753
▁açısından	-2754
▁ab	-2755
▁nok	-2756
▁elektrik	-2757
▁kendisine	-2758
UR	-2759
▁Çocuk	-2760
▁Kuvvet	-2761
uml	-2762
▁çeken	-2763
▁kişiler	-2764
dim	-2765
▁Gel	-2766
▁yılın	-2767
▁performan	-2768
pek	-2769
çak	-2770
▁kaf	-2771
ormal	-2772
▁lerine	-2773
01	-2774
▁mış	-2775
landa	-2776
meyen	-2777
▁mızı	-2778
▁anlattı	-2779
▁rej	-2780
▁öner	-2781
▁Osmanlı	-2782
▁düşük	-2783
▁aylık	-2784
▁gitti	-2785
fes	-2786
üle	-2787
▁Kup	-2788
▁unut	-2789
▁Güney	-2790
▁olmadığı	-2791
ST	-2792
umsuz	-2793
▁kilom	-2794
oca	-2795
▁enerji	-2796
deniz	-2797
▁doğal	-2798
▁kamer	-2799
▁sebeb	-2800
▁sığın	-2801
iyah	-2802
▁amaç	-2803
▁kork	-2804
▁diyen	-2805
▁gazetec	-2806
fi	-2807
▁Mahkemesi	-2808
▁istik	-2809
▁vak	-2810
▁akıl	-2811
▁hiss	-2812
▁gören	-2813
▁veriyor	-2814
ena	-2815
avuş	-2816
▁Ob	-2817
▁sız	-2818
lanıyor	-2819
ucu	-2820
▁Sok	-2821
▁kür	-2822
▁sıkıntı	-2823
▁sene	-2824
▁yaptır	-2825
▁çeşitli	-2826
onu	-2827
▁sebep	-2828
inç	-2829
isine	-2830
▁dört	-2831
doğu	-2832
▁Kız	-2833
▁gide	-2834
asıyla	-2835
▁sıcak	-2836
▁fiyatı	-2837
ite	-2838
▁45	-2839
▁giren	-2840
▁Burada	-2841
dağ	-2842
▁Ham	-2843
▁siyaset	-2844
gun	-2845
meni	-2846
▁Açık	-2847
▁anlatan	-2848
lüğ	-2849
▁konut	-2850
▁31	-2851
▁imz	-2852
mıyor	-2853
çev	-2854
usal	-2855
▁diyerek	-2856
ele	-2857
udi	-2858
▁mizi	-2859
▁çer	-2860
sunuz	-2861
▁yani	-2862
▁öncesi	-2863
daroğlu	-2864
▁Sosyal	-2865
▁konuşan	-2866
▁Kılıçdaroğlu	-2867
▁olsa	-2868
▁yerde	-2869
İT	-2870
rail	-2871
▁gid	-2872
▁ikti	-2873
ğının	-2874
▁finans	-2875
▁olm	-2876
▁fayda	-2877
dip	-2878
▁nit	-2879
meleri	-2880
▁ister	-2881
▁görevli	-2882
▁Halep	-2883
▁önlem	-2884
▁yıldır	-2885
yum	-2886
sına	-2887
▁Öte	-2888
▁biraz	-2889
▁geçmiş	-2890
alara	-2891
yaspor	-2892
▁Bas	-2893
▁çerçev	-2894
▁söylüyor	-2895
atik	-2896
▁Bor	-2897
IN	-2898
acağını	-2899
▁aralarında	-2900
ekk	-2901
▁beni	-2902
▁başta	-2903
▁Amerika	-2904
▁müş	-2905
▁olup	-2906
▁Eylül	-2907
EM	-2908
gaz	-2909
▁Kat	-2910
▁buna	-2911
▁dayan	-2912
▁hapis	-2913
▁mutlu	-2914
▁çekti	-2915
▁gerekir	-2916
▁sürekli	-2917
sını	-2918
▁Dak	-2919
▁yarın	-2920
dıklarını	-2921
▁Sen	-2922
▁otob	-2923
▁görüşmeler	-2924
anak	-2925
başı	-2926
▁Yunan	-2927
▁mensup	-2928
emin	-2929
▁yal	-2930
sızlık	-2931
gü	-2932
▁Sev	-2933
▁Ekim	-2934
▁uzman	-2935
işi	-2936
dikleri	-2937
▁Meclis	-2938
▁İngiliz	-2939
▁Fa	-2940
▁ekran	-2941
▁num	-2942
▁Çal	-2943
▁Yani	-2944
▁etkili	-2945
▁önüne	-2946
▁iy	-2947
▁Hüs	-2948
▁leştir	-2949
▁yaşadığı	-2950
▁Yüksek	-2951
elerinde	-2952
▁hangi	-2953
▁Başsav	-2954
▁Van	-2955
▁Müsl	-2956
▁öğretmen	-2957
▁hakim	-2958
▁birkaç	-2959
▁yönünde	-2960
lanacak	-2961
cut	-2962
▁2017	-2963
▁larıyla	-2964
▁üniversit	-2965
xx	-2966
▁edilmesi	-2967
▁tutuklandı	-2968
▁Tu	-2969
▁girdi	-2970
▁tahmin	-2971
▁yanlış	-2972
▁azal	-2973
▁eğ	-2974
▁Adana	-2975
▁doktor	-2976
▁hayata	-2977
▁gerekli	-2978
▁Bal	-2979
▁Tab	-2980
▁ces	-2981
▁günlerde	-2982
uar	-2983
▁tı	-2984
▁anne	-2985
▁nokta	-2986
▁rakam	-2987
▁Fetullah	-2988
▁bekleniyor	-2989
iran	-2990
▁Yaş	-2991
▁yazılı	-2992
▁soruml	-2993
▁şüphel	-2994
ayi	-2995
bey	-2996
▁Eş	-2997
▁ydi	-2998
kleri	-2999
brahim	-3000
▁meş	-3001
▁öyle	-3002
▁kuvvet	-3003
▁Araştır	-3004
▁bizi	-3005
▁Güncel	-3006
▁gösterdi	-3007
▁vaz	-3008
▁alanda	-3009
▁değildir	-3010
nız	-3011
sak	-3012
▁dö	-3013
lacak	-3014
laşma	-3015
▁Göz	-3016
▁işlet	-3017
▁Bizim	-3018
EK	-3019
▁Kendi	-3020
▁Tüm	-3021
ladık	-3022
▁attı	-3023
ümüzdeki	-3024
raman	-3025
ğur	-3026
▁60	-3027
▁cih	-3028
▁sert	-3029
▁yarar	-3030
▁döneminde	-3031
▁Han	-3032
▁Dakika	-3033
▁şüpheli	-3034
abet	-3035
▁Bul	-3036
duğunu	-3037
▁kitap	-3038
▁Se	-3039
▁Caddesi	-3040
tepe	-3041
▁oku	-3042
ilerinin	-3043
▁Özellikle	-3044
har	-3045
▁ilan	-3046
▁Ömer	-3047
▁yerinde	-3048
err	-3049
▁Nur	-3050
▁sürücü	-3051
elerinin	-3052
▁sayesinde	-3053
bo	-3054
▁Ken	-3055
▁İsrail	-3056
▁olumsuz	-3057
▁Müslüman	-3058
yo	-3059
▁bö	-3060
▁str	-3061
▁Teknik	-3062
▁karşılık	-3063
AS	-3064
▁Bölg	-3065
▁DEAŞ	-3066
▁davran	-3067
▁tedbir	-3068
zi	-3069
ümü	-3070
▁cep	-3071
▁haline	-3072
▁ihracat	-3073
▁lig	-3074
ediye	-3075
▁yardımcı	-3076
larca	-3077
tıyor	-3078
▁etmiş	-3079
oma	-3080
vis	-3081
ınan	-3082
▁yere	-3083
▁vardır	-3084
▁bildirdi	-3085
rik	-3086
▁kuş	-3087
▁kesim	-3088
med	-3089
▁yargı	-3090
yu	-3091
▁esn	-3092
▁Tel	-3093
▁Eğer	-3094
▁oluşan	-3095
▁galibiyet	-3096
▁itir	-3097
örü	-3098
▁Şehit	-3099
ow	-3100
şem	-3101
▁Kı	-3102
▁kapı	-3103
olojik	-3104
▁başvuru	-3105
▁amel	-3106
▁Güneş	-3107
▁Amerik	-3108
▁kendisini	-3109
hal	-3110
▁Go	-3111
▁hastalı	-3112
▁j	-3113
▁(2	-3114
cılığı	-3115
ektörü	-3116
▁altın	-3117
kır	-3118
▁aile	-3119
▁dü	-3120
▁hüc	-3121
▁ydı	-3122
▁sona	-3123
▁olmaz	-3124
aka	-3125
ON	-3126
dak	-3127
▁ruh	-3128
▁buluş	-3129
▁yetiş	-3130
▁kampan	-3131
▁İbrahim	-3132
sen	-3133
▁beri	-3134
▁ders	-3135
▁yarg	-3136
▁etmeye	-3137
▁günlük	-3138
▁tamamen	-3139
▁Belediyesi	-3140
▁etkil	-3141
▁etkisiz	-3142
▁kalp	-3143
▁bakım	-3144
▁Et	-3145
▁Obama	-3146
▁Haberler	-3147
ela	-3148
ıyla	-3149
ğiniz	-3150
▁yaşında	-3151
▁Şampiyon	-3152
▁kaydedildi	-3153
▁yav	-3154
▁demek	-3155
ıma	-3156
lal	-3157
▁Kadın	-3158
▁yolcu	-3159
▁ediyorum	-3160
ğust	-3161
▁Buna	-3162
▁Grubu	-3163
▁kulüb	-3164
▁cezası	-3165
▁dava	-3166
▁ölü	-3167
▁Aynı	-3168
▁Kültür	-3169
atif	-3170
▁yıldız	-3171
▁Derneği	-3172
eyn	-3173
▁plak	-3174
▁Batı	-3175
▁kaybe	-3176
▁Bankası	-3177
ona	-3178
▁kulüp	-3179
▁Mal	-3180
▁yarı	-3181
▁deniz	-3182
▁süren	-3183
▁mot	-3184
alel	-3185
▁beş	-3186
▁def	-3187
▁dağı	-3188
▁başla	-3189
leye	-3190
ndan	-3191
▁sonuc	-3192
▁Hüseyin	-3193
apı	-3194
▁İh	-3195
▁ıs	-3196
▁uyar	-3197
▁karak	-3198
▁kaybetti	-3199
ğan	-3200
▁Da	-3201
▁zaten	-3202
oğu	-3203
▁Aş	-3204
leyi	-3205
BM	-3206
▁Uy	-3207
▁Çelik	-3208
▁kendini	-3209
üyle	-3210
mesine	-3211
▁yayım	-3212
▁babası	-3213
▁zir	-3214
▁etme	-3215
▁personel	-3216
▁kullandığı	-3217
ülü	-3218
▁Re	-3219
▁mar	-3220
ekkür	-3221
etik	-3222
▁dost	-3223
▁2015'	-3224
▁civar	-3225
alimanı	-3226
▁gerekç	-3227
▁of	-3228
etre	-3229
▁Gür	-3230
ğustos	-3231
▁MHP	-3232
▁zam	-3233
▁bede	-3234
▁veri	-3235
ıyoruz	-3236
▁Sokak	-3237
▁merak	-3238
ze	-3239
▁final	-3240
▁dışarı	-3241
▁tali	-3242
▁yapıla	-3243
▁silahlı	-3244
▁Boz	-3245
▁leş	-3246
sinde	-3247
▁tesi	-3248
▁Kupası	-3249
AD	-3250
İK	-3251
▁ona	-3252
▁toprak	-3253
▁Suriyeli	-3254
ij	-3255
▁yum	-3256
ire	-3257
▁çıkma	-3258
▁Demokr	-3259
▁müdahale	-3260
ren	-3261
▁ağr	-3262
demir	-3263
▁Yas	-3264
▁Çağ	-3265
engin	-3266
▁davet	-3267
▁olduğuna	-3268
▁lu	-3269
▁bağım	-3270
elerini	-3271
▁Yapılan	-3272
▁durumunda	-3273
▁televizyon	-3274
fı	-3275
▁Geçen	-3276
▁forma	-3277
▁belirlendi	-3278
wit	-3279
abir	-3280
▁baz	-3281
ıldığını	-3282
▁Hasan	-3283
abilecek	-3284
▁LAR	-3285
▁edin	-3286
lasyon	-3287
EL	-3288
PG	-3289
▁bundan	-3290
▁yüzden	-3291
▁yaralandı	-3292
▁geril	-3293
▁çıkış	-3294
emiş	-3295
gar	-3296
▁Bunu	-3297
▁Emre	-3298
oto	-3299
▁orada	-3300
▁gösteren	-3301
mail	-3302
▁Kurt	-3303
▁borç	-3304
▁getirildi	-3305
ime	-3306
▁TÜ	-3307
▁çağrı	-3308
Türkiye	-3309
▁oldukça	-3310
fet	-3311
▁çatış	-3312
▁avukat	-3313
▁petrol	-3314
▁Hollanda	-3315
▁Büyükşehir	-3316
tren	-3317
▁Hem	-3318
▁idar	-3319
▁hesab	-3320
▁alarak	-3321
▁fik	-3322
▁hik	-3323
▁Şube	-3324
▁Jandarma	-3325
sının	-3326
▁doğr	-3327
▁ettir	-3328
▁miktar	-3329
EFA	-3330
▁çab	-3331
▁Bursa	-3332
▁derin	-3333
▁ekibi	-3334
▁mevcut	-3335
▁normal	-3336
maktadır	-3337
▁dünyada	-3338
▁edildiği	-3339
bi	-3340
▁ca	-3341
▁hâ	-3342
▁Yor	-3343
▁gay	-3344
▁Feder	-3345
▁güncel	-3346
son	-3347
uzu	-3348
▁Yan	-3349
▁erken	-3350
▁başkanlık	-3351
Ben	-3352
mut	-3353
▁diş	-3354
▁enf	-3355
lığını	-3356
▁Sultan	-3357
▁gündem	-3358
tesi	-3359
▁çey	-3360
alarının	-3361
▁teşekkür	-3362
İY	-3363
ant	-3364
▁BM	-3365
▁Tan	-3366
▁Hüküm	-3367
▁pozisyon	-3368
▁öğrenciler	-3369
▁Ara	-3370
landığı	-3371
▁Uluslararası	-3372
▁Ka	-3373
▁Vol	-3374
▁UEFA	-3375
cilerin	-3376
▁yalnız	-3377
ılır	-3378
▁yapılması	-3379
.'	-3380
▁In	-3381
▁po	-3382
▁ilgi	-3383
▁90	-3384
▁Sah	-3385
▁dal	-3386
▁krit	-3387
▁sanık	-3388
gisi	-3389
▁Vak	-3390
▁sine	-3391
▁barış	-3392
▁örnek	-3393
▁Albay	-3394
▁bölge	-3395
barı	-3396
barat	-3397
▁fırsat	-3398
▁Başkanlığı	-3399
oda	-3400
ayla	-3401
▁Mücade	-3402
▁girişimi	-3403
▁hazırlık	-3404
▁Bab	-3405
▁Mad	-3406
▁pas	-3407
▁muhalif	-3408
▁TV	-3409
espor	-3410
menin	-3411
ES	-3412
▁etmesi	-3413
▁Anayasa	-3414
▁Ağustos	-3415
▁değişiklik	-3416
AM	-3417
▁kims	-3418
▁öden	-3419
eceğiz	-3420
witter	-3421
alarını	-3422
eksiyon	-3423
▁başken	-3424
▁dos	-3425
▁tip	-3426
ıldız	-3427
▁Sayın	-3428
▁hatta	-3429
▁olumlu	-3430
▁insanlar	-3431
▁çalışmaları	-3432
▁geçiş	-3433
▁mağdur	-3434
▁not	-3435
erken	-3436
madan	-3437
▁gündeme	-3438
▁metre	-3439
▁geldiği	-3440
▁müdahal	-3441
▁trafik	-3442
▁insanların	-3443
▁isten	-3444
▁ediyoruz	-3445
▁Milletvekili	-3446
ecr	-3447
▁36	-3448
▁bilen	-3449
▁heyec	-3450
▁müdür	-3451
▁çıkıyor	-3452
▁vermek	-3453
▁ülkemiz	-3454
▁Ap	-3455
cunun	-3456
▁Çavuş	-3457
▁32	-3458
meli	-3459
▁Kah	-3460
▁renk	-3461
▁hakem	-3462
▁namaz	-3463
▁ölç	-3464
▁yola	-3465
▁bitir	-3466
▁Örgütü	-3467
▁ton	-3468
▁Samsun	-3469
geç	-3470
▁Müz	-3471
▁2013	-3472
gr	-3473
car	-3474
sur	-3475
nden	-3476
▁ilaç	-3477
▁olmadı	-3478
paşa	-3479
▁ordu	-3480
şık	-3481
deri	-3482
irken	-3483
▁ihtim	-3484
▁nerede	-3485
AY	-3486
ham	-3487
▁34	-3488
eyim	-3489
▁Hakan	-3490
▁kuzey	-3491
▁bölgesinde	-3492
ED	-3493
▁prot	-3494
▁içeri	-3495
▁min	-3496
▁bilim	-3497
▁detay	-3498
dat	-3499
çeli	-3500
ışık	-3501
▁Abd	-3502
lamaya	-3503
▁ti	-3504
▁ima	-3505
▁İnş	-3506
▁defa	-3507
▁yasak	-3508
▁Fer	-3509
▁Tun	-3510
süz	-3511
▁Mev	-3512
▁müs	-3513
allah	-3514
ulmuş	-3515
▁kırmızı	-3516
▁şikayet	-3517
▁şar	-3518
▁Fakat	-3519
▁patlayıcı	-3520
ker	-3521
türk	-3522
▁sürede	-3523
▁İsmail	-3524
▁yapmaya	-3525
▁geçtiğimiz	-3526
tiler	-3527
▁cihaz	-3528
▁Şahin	-3529
onya	-3530
uzur	-3531
ınar	-3532
▁tas	-3533
PD	-3534
blem	-3535
ding	-3536
esin	-3537
▁mis	-3538
▁hain	-3539
▁mutlak	-3540
▁üçüncü	-3541
.30	-3542
▁De	-3543
▁Mücadele	-3544
go	-3545
iği	-3546
▁New	-3547
lasman	-3548
▁gidiyor	-3549
▁Cumhuriyeti	-3550
siy	-3551
▁300	-3552
▁Doğan	-3553
▁Şir	-3554
▁sakat	-3555
▁verecek	-3556
kor	-3557
yalı	-3558
▁adr	-3559
▁bilgiler	-3560
his	-3561
lılık	-3562
mediği	-3563
▁Dar	-3564
▁kara	-3565
▁Haziran	-3566
bur	-3567
▁70	-3568
▁peş	-3569
▁Bazı	-3570
▁Doğu	-3571
lamada	-3572
▁hayal	-3573
▁proje	-3574
ücu	-3575
▁mesel	-3576
▁katılım	-3577
▁vurgulayan	-3578
rika	-3579
▁işç	-3580
ağına	-3581
▁kamp	-3582
▁Oğ	-3583
▁rejim	-3584
▁uyarı	-3585
itir	-3586
▁Film	-3587
▁İspan	-3588
▁kanser	-3589
diklerini	-3590
▁öğ	-3591
ahmet	-3592
liler	-3593
vekil	-3594
▁Komisyon	-3595
▁Peki	-3596
▁maliyet	-3597
▁yıllarda	-3598
▁kullanıcı	-3599
büs	-3600
▁3'	-3601
▁198	-3602
▁ambul	-3603
▁aşama	-3604
▁müzik	-3605
▁neler	-3606
▁sürüyor	-3607
▁yaparak	-3608
▁teknoloj	-3609
▁Fır	-3610
▁incelem	-3611
BMM	-3612
cilik	-3613
▁emekli	-3614
▁merkezi	-3615
▁Vatan	-3616
▁aşağı	-3617
▁aslında	-3618
ban	-3619
bek	-3620
▁sem	-3621
urken	-3622
▁varsa	-3623
▁baba	-3624
▁Kulüb	-3625
▁düşen	-3626
▁endiş	-3627
▁Bayram	-3628
▁karşıya	-3629
▁düşüş	-3630
▁oranı	-3631
▁altını	-3632
▁küresel	-3633
▁don	-3634
▁kup	-3635
▁laş	-3636
▁soy	-3637
ediği	-3638
▁katıl	-3639
▁kayıp	-3640
▁sefer	-3641
▁bilecek	-3642
ndeki	-3643
▁kanal	-3644
▁düzenlen	-3645
▁istiyorum	-3646
▁kullanılan	-3647
▁yerleş	-3648
▁kişilik	-3649
▁nak	-3650
▁park	-3651
▁rakip	-3652
AH	-3653
uncu	-3654
▁eser	-3655
▁eksik	-3656
▁yitir	-3657
nu	-3658
▁Gö	-3659
▁Yal	-3660
kurmay	-3661
▁kilometre	-3662
▁75	-3663
anet	-3664
atej	-3665
▁LER	-3666
▁kaybeden	-3667
▁­	-3668
▁biç	-3669
▁miş	-3670
sizlik	-3671
▁Sanat	-3672
▁yazı	-3673
▁lideri	-3674
▁dünyaya	-3675
slan	-3676
▁müh	-3677
▁grub	-3678
lanmış	-3679
▁kaçır	-3680
▁ulaştı	-3681
▁taşıyan	-3682
eyle	-3683
▁Fin	-3684
▁Twitter	-3685
ekiz	-3686
▁tık	-3687
▁TBMM	-3688
▁ekib	-3689
▁katılan	-3690
▁çıkacak	-3691
▁ilişkiler	-3692
▁olacağını	-3693
unuz	-3694
▁Tıp	-3695
▁halde	-3696
▁problem	-3697
▁Havalimanı	-3698
▁Genelkurmay	-3699
▁Kıs	-3700
cılar	-3701
▁Altın	-3702
▁içine	-3703
▁ilişki	-3704
adi	-3705
utin	-3706
üstü	-3707
▁Ban	-3708
▁Siz	-3709
▁Öğr	-3710
▁alına	-3711
▁yürüy	-3712
elerine	-3713
▁savunma	-3714
▁Cem	-3715
▁İsv	-3716
▁Gökhan	-3717
▁larında	-3718
▁kişilerin	-3719
par	-3720
▁80	-3721
▁güc	-3722
uluyor	-3723
▁Diğer	-3724
▁civarında	-3725
▁nizi	-3726
▁başkanı	-3727
▁muhabir	-3728
cılı	-3729
hane	-3730
▁Üst	-3731
▁Benim	-3732
▁tatil	-3733
▁vergi	-3734
▁yıllar	-3735
▁Am	-3736
seri	-3737
mur	-3738
nan	-3739
▁Eski	-3740
▁otel	-3741
mayan	-3742
▁Kuzey	-3743
▁birim	-3744
▁çünkü	-3745
▁bağlantı	-3746
▁Pazar	-3747
▁oğ	-3748
▁Sür	-3749
▁depr	-3750
▁2016'	-3751
▁demokrasi	-3752
Biz	-3753
anam	-3754
▁Bağ	-3755
▁cam	-3756
▁leriyle	-3757
▁ameliyat	-3758
▁gıda	-3759
▁baskı	-3760
▁Yunanistan	-3761
▁Bat	-3762
▁Ger	-3763
▁pil	-3764
▁Hakk	-3765
▁ayır	-3766
▁larda	-3767
▁yakalandı	-3768
▁operasyonda	-3769
AP	-3770
rem	-3771
ult	-3772
iber	-3773
ital	-3774
▁Port	-3775
▁Muham	-3776
▁Komutan	-3777
▁büt	-3778
▁çap	-3779
▁şarkı	-3780
▁YPG	-3781
iyatro	-3782
▁attığı	-3783
▁Hep	-3784
▁Kaya	-3785
▁Harek	-3786
▁gerekçesiyle	-3787
kr	-3788
estiv	-3789
▁çevir	-3790
▁mahkeme	-3791
âr	-3792
▁2'	-3793
▁Konya	-3794
▁inşaat	-3795
▁istiyoruz	-3796
sim	-3797
▁Taş	-3798
▁Yüz	-3799
▁dık	-3800
▁vuruş	-3801
▁görüldü	-3802
▁Yol	-3803
sanız	-3804
▁Arab	-3805
▁yoktur	-3806
▁Kuvvetleri	-3807
mit	-3808
keti	-3809
itesi	-3810
▁Arena	-3811
▁olmas	-3812
▁Kurumu	-3813
▁hayvan	-3814
▁iktidar	-3815
▁yıla	-3816
▁Başak	-3817
▁hafif	-3818
▁annesi	-3819
▁dolarlık	-3820
▁yürütülen	-3821
▁sıralarında	-3822
hi	-3823
ou	-3824
teri	-3825
ündem	-3826
▁yeri	-3827
liğinde	-3828
▁yaptıkları	-3829
va	-3830
▁Yen	-3831
▁ade	-3832
▁Cuma	-3833
▁yavaş	-3834
▁turist	-3835
▁uygulam	-3836
▁ortalama	-3837
▁deplasman	-3838
▁buldu	-3839
▁sonuna	-3840
▁gelişmeler	-3841
onal	-3842
▁İyi	-3843
▁asıl	-3844
▁Sadece	-3845
ati	-3846
ina	-3847
▁dağ	-3848
▁satın	-3849
▁saygı	-3850
▁yapımı	-3851
▁döv	-3852
▁gaz	-3853
▁olama	-3854
alarına	-3855
▁kamuoy	-3856
▁yargılan	-3857
▁sığınmacı	-3858
▁vatandaşlar	-3859
▁çerçevesinde	-3860
▁sorgu	-3861
▁Adalet	-3862
ko	-3863
lâ	-3864
▁soğ	-3865
ester	-3866
▁emek	-3867
▁topu	-3868
▁mutlaka	-3869
▁Le	-3870
▁Dan	-3871
▁köpr	-3872
ilirken	-3873
▁kazandı	-3874
▁düzenlem	-3875
iyer	-3876
tarı	-3877
▁altı	-3878
▁hastaneye	-3879
▁alk	-3880
▁bal	-3881
▁boğ	-3882
▁Proj	-3883
▁Karşı	-3884
▁güçleri	-3885
▁özellik	-3886
▁Operasyon	-3887
▁red	-3888
ersiz	-3889
general	-3890
ıf	-3891
aket	-3892
tılı	-3893
▁dök	-3894
▁nüf	-3895
▁pen	-3896
▁ref	-3897
isyen	-3898
▁öldü	-3899
▁zengin	-3900
▁iP	-3901
▁otobüs	-3902
▁Mu	-3903
eker	-3904
▁oynan	-3905
ulma	-3906
▁iptal	-3907
▁yönetimi	-3908
ond	-3909
▁şif	-3910
▁Suudi	-3911
▁alanı	-3912
▁onların	-3913
▁kaldırıldı	-3914
ons	-3915
▁sahn	-3916
▁lerde	-3917
▁görüşme	-3918
▁sonucunda	-3919
▁ayı	-3920
▁şeyi	-3921
▁Volkan	-3922
▁İtalya	-3923
▁hatırlat	-3924
İM	-3925
osk	-3926
ubay	-3927
▁sorumlu	-3928
▁geldiğini	-3929
▁açıklaması	-3930
▁yapar	-3931
▁ortadan	-3932
▁Araştırma	-3933
▁gar	-3934
ırnak	-3935
▁siniz	-3936
▁açıldı	-3937
▁yaşama	-3938
▁Kil	-3939
▁huzur	-3940
▁mağlu	-3941
▁mücadel	-3942
▁sağlıklı	-3943
yası	-3944
▁AKP	-3945
▁yasa	-3946
▁Yeşil	-3947
▁ederken	-3948
▁muhalef	-3949
▁edilecek	-3950
hat	-3951
▁0,	-3952
ikat	-3953
ilme	-3954
▁direktör	-3955
▁sunuz	-3956
▁Savunma	-3957
▁gösteriyor	-3958
▁Sh	-3959
▁İd	-3960
ansı	-3961
▁şans	-3962
▁kaydeden	-3963
▁vide	-3964
▁yerli	-3965
▁sorunu	-3966
ene	-3967
gör	-3968
etici	-3969
▁aracı	-3970
▁sözleş	-3971
vert	-3972
▁terk	-3973
▁hisse	-3974
▁kimse	-3975
▁antren	-3976
▁süreci	-3977
▁Holding	-3978
▁09	-3979
▁ah	-3980
siyle	-3981
▁seyir	-3982
▁İkinci	-3983
lament	-3984
▁numar	-3985
▁bunlar	-3986
▁milletvekil	-3987
▁şaş	-3988
▁memur	-3989
▁yaptığını	-3990
▁tuz	-3991
▁anlay	-3992
▁olmuş	-3993
asından	-3994
▁malz	-3995
▁sınıf	-3996
▁müt	-3997
elikle	-3998
▁söyley	-3999
▁istediği	-4000
▁Jo	-4001
▁Üç	-4002
tern	-4003
yalet	-4004
▁Ağır	-4005
▁asla	-4006
civert	-4007
▁2016,	-4008
▁sınız	-4009
▁evinde	-4010
şe	-4011
akar	-4012
▁maz	-4013
▁ödeme	-4014
rim	-4015
▁Çar	-4016
ersin	-4017
▁daki	-4018
▁olursa	-4019
▁önümüzdeki	-4020
muştu	-4021
▁Silah	-4022
▁unsur	-4023
▁desteği	-4024
DI	-4025
▁Car	-4026
▁bilinen	-4027
▁başlayacak	-4028
tel	-4029
▁KO	-4030
▁gizli	-4031
▁açılış	-4032
▁kaldığı	-4033
▁65	-4034
uluğu	-4035
▁büyüm	-4036
▁Çetin	-4037
▁%	-4038
▁ez	-4039
amız	-4040
enek	-4041
üler	-4042
iklet	-4043
tadır	-4044
▁benzer	-4045
▁büyüme	-4046
▁belirlen	-4047
vik	-4048
▁3,	-4049
raki	-4050
▁Yet	-4051
mızılı	-4052
▁doğum	-4053
▁sürdü	-4054
▁yeterli	-4055
▁operasyonu	-4056
▁dolu	-4057
▁size	-4058
▁bebek	-4059
mesinin	-4060
▁cinsel	-4061
▁Şırnak	-4062
▁genelinde	-4063
▁Güm	-4064
akanı	-4065
▁alıp	-4066
▁derb	-4067
tıkları	-4068
▁şeyler	-4069
▁takımın	-4070
izik	-4071
▁bat	-4072
▁işi	-4073
▁imha	-4074
ira	-4075
▁App	-4076
▁Arap	-4077
▁müsab	-4078
▁ambulans	-4079
▁diren	-4080
▁krizi	-4081
ilendir	-4082
▁Bütün	-4083
▁rekor	-4084
▁bugüne	-4085
▁verilm	-4086
▁bulutlu	-4087
▁denildi	-4088
▁yerleştir	-4089
vi	-4090
▁Ker	-4091
▁Ver	-4092
▁Ordu	-4093
▁Uzun	-4094
▁kimlik	-4095
▁stratej	-4096
▁iletişim	-4097
▁saç	-4098
estor	-4099
▁tecr	-4100
▁memnun	-4101
▁alanında	-4102
▁olduklarını	-4103
:00	-4104
bette	-4105
▁Arda	-4106
▁açtı	-4107
▁cami	-4108
▁vade	-4109
▁dokun	-4110
▁görülen	-4111
▁olacağı	-4112
▁rahatsız	-4113
▁Gir	-4114
▁Sta	-4115
▁Musul	-4116
▁imkan	-4117
▁yaralanan	-4118
▁kendilerine	-4119
imde	-4120
orta	-4121
▁Mel	-4122
▁başı	-4123
▁Sonra	-4124
▁2016-0	-4125
hone	-4126
▁fak	-4127
▁laştır	-4128
umartesi	-4129
▁birinci	-4130
▁vurguladı	-4131
▁düşünüyorum	-4132
▁Ef	-4133
▁evde	-4134
▁olmalı	-4135
are	-4136
rid	-4137
▁Sa	-4138
▁ın	-4139
▁kısm	-4140
▁evine	-4141
▁taban	-4142
▁vazgeç	-4143
▁yaşandı	-4144
▁binlerce	-4145
▁bunların	-4146
HA	-4147
rag	-4148
emez	-4149
▁inşa	-4150
▁skor	-4151
ülüyor	-4152
▁siyah	-4153
▁açılan	-4154
▁Böylece	-4155
zu	-4156
mür	-4157
oman	-4158
▁Mey	-4159
▁yağış	-4160
▁yerel	-4161
▁harekete	-4162
▁Direktörü	-4163
iri	-4164
▁muz	-4165
▁kaçak	-4166
▁yenil	-4167
▁tazmin	-4168
▁işbirliği	-4169
▁bulunduğunu	-4170
yse	-4171
ekim	-4172
▁Ege	-4173
▁Sinan	-4174
▁aşırı	-4175
▁Kulübü	-4176
İZ	-4177
▁vit	-4178
▁Putin	-4179
▁takımı	-4180
▁Komutanlığı	-4181
dası	-4182
▁Tic	-4183
▁sizin	-4184
▁anlamda	-4185
▁yapacağı	-4186
gal	-4187
▁bı	-4188
▁ku	-4189
▁nö	-4190
▁Erz	-4191
▁Kons	-4192
▁ismi	-4193
liyoruz	-4194
▁gördük	-4195
▁Un	-4196
▁Bek	-4197
areti	-4198
▁kuru	-4199
▁Dolay	-4200
▁belki	-4201
klerini	-4202
▁yurtdı	-4203
▁sanatçı	-4204
▁arkasında	-4205
▁Ri	-4206
▁çi	-4207
amet	-4208
▁Çev	-4209
▁Halk	-4210
▁Köpr	-4211
▁konum	-4212
▁tüket	-4213
▁veril	-4214
aladı	-4215
▁Belç	-4216
▁kuruş	-4217
▁alınması	-4218
▁33	-4219
onik	-4220
tisi	-4221
▁Hiç	-4222
▁fil	-4223
▁Yıldız	-4224
▁Kayseri	-4225
▁hakaret	-4226
▁toplantısında	-4227
isay	-4228
▁arka	-4229
▁Bunlar	-4230
soy	-4231
utan	-4232
▁Tor	-4233
▁salon	-4234
▁liraya	-4235
▁yapmış	-4236
▁devletin	-4237
▁2,	-4238
elçuk	-4239
ceğini	-4240
▁(1	-4241
▁55	-4242
▁Nec	-4243
▁Asya	-4244
▁Kart	-4245
▁döndü	-4246
▁almaya	-4247
▁1,	-4248
▁Düz	-4249
▁odak	-4250
▁vücu	-4251
▁gelin	-4252
▁Arabistan	-4253
▁belirtilen	-4254
▁Yav	-4255
▁maaş	-4256
▁meslek	-4257
▁Bo	-4258
▁mor	-4259
▁Küçük	-4260
▁yazar	-4261
maların	-4262
▁kendisi	-4263
▁sağlamak	-4264
▁Tah	-4265
▁2012	-4266
▁alty	-4267
▁İlçe	-4268
madığı	-4269
▁Apple	-4270
▁alama	-4271
▁endek	-4272
▁kapas	-4273
▁onlar	-4274
▁etkilen	-4275
▁lerinde	-4276
▁mülteci	-4277
▁üye	-4278
▁Ödül	-4279
▁güney	-4280
▁anayasa	-4281
▁sonraki	-4282
▁ifadesini	-4283
▁öncesinde	-4284
DE	-4285
ck	-4286
▁AL	-4287
▁Uzman	-4288
▁yalan	-4289
▁ticaret	-4290
▁rö	-4291
atör	-4292
kray	-4293
▁kop	-4294
▁2011	-4295
▁dahi	-4296
▁istis	-4297
▁seyahat	-4298
▁yaşamını	-4299
▁Başakşehir	-4300
düm	-4301
iyan	-4302
reti	-4303
▁Paris	-4304
▁işada	-4305
▁Mersin	-4306
▁çatışma	-4307
ori	-4308
ubu	-4309
▁bür	-4310
▁eve	-4311
▁Grup	-4312
acılık	-4313
beyazlı	-4314
bilecek	-4315
▁Selçuk	-4316
▁anlaşma	-4317
▁oynanan	-4318
▁tutuklan	-4319
IK	-4320
▁Q	-4321
danı	-4322
emen	-4323
▁Aziz	-4324
▁önde	-4325
▁hakkı	-4326
▁cumhur	-4327
▁değişim	-4328
▁çıkardı	-4329
ese	-4330
▁sunu	-4331
▁koşul	-4332
▁giderek	-4333
▁Amerikan	-4334
▁edeceğiz	-4335
ımda	-4336
▁And	-4337
▁adli	-4338
▁Enerji	-4339
▁iPhone	-4340
▁katıldığı	-4341
ruk	-4342
▁5'	-4343
▁gur	-4344
ülmesi	-4345
▁Yargı	-4346
ğanüstü	-4347
rum	-4348
▁CE	-4349
▁keş	-4350
esiz	-4351
matı	-4352
▁mizin	-4353
▁dikkati	-4354
▁teknoloji	-4355
▁Dolayısıyla	-4356
plo	-4357
▁süt	-4358
▁Şim	-4359
▁psik	-4360
▁alb	-4361
▁del	-4362
ıyorum	-4363
▁Orman	-4364
▁gelmiş	-4365
▁yetkililer	-4366
ezil	-4367
kale	-4368
▁tez	-4369
neğin	-4370
▁tane	-4371
▁verm	-4372
▁Karab	-4373
▁haberine	-4374
▁4'	-4375
▁AN	-4376
ayıf	-4377
▁Jap	-4378
▁fon	-4379
▁yolc	-4380
elikop	-4381
▁kurulan	-4382
▁doldur	-4383
▁bölgeye	-4384
▁inti	-4385
▁Ukray	-4386
▁hasta	-4387
▁kişiyi	-4388
▁medyada	-4389
▁süredir	-4390
▁çocukları	-4391
▁Suç	-4392
▁gem	-4393
▁içi	-4394
▁alım	-4395
▁iade	-4396
▁stan	-4397
▁test	-4398
▁kapalı	-4399
▁metrek	-4400
▁hır	-4401
▁edip	-4402
▁banka	-4403
▁akıllı	-4404
▁başlan	-4405
laşık	-4406
ülent	-4407
▁beyaz	-4408
▁korun	-4409
▁cezaev	-4410
▁dolara	-4411
▁onları	-4412
▁me	-4413
▁sap	-4414
usunu	-4415
▁Turan	-4416
▁konuk	-4417
▁tesis	-4418
▁eyalet	-4419
▁başlıyor	-4420
-3	-4421
▁197	-4422
usuna	-4423
▁Toto	-4424
amazan	-4425
▁Tabii	-4426
▁yapım	-4427
▁sokağa	-4428
▁indirim	-4429
▁yapılıyor	-4430
▁Bülent	-4431
▁Saldır	-4432
▁sahada	-4433
▁bunları	-4434
▁Ortadoğu	-4435
▁belediye	-4436
▁tartışma	-4437
▁çalışması	-4438
gulan	-4439
▁ktan	-4440
▁kızı	-4441
▁Madrid	-4442
▁halkın	-4443
▁çıkart	-4444
▁örgütün	-4445
po	-4446
lana	-4447
▁Men	-4448
▁Sey	-4449
luluk	-4450
▁istif	-4451
▁takdir	-4452
▁Albayrak	-4453
▁kullanan	-4454
▁5.	-4455
▁beğ	-4456
▁düğ	-4457
leniyor	-4458
▁Denizli	-4459
▁bekliyor	-4460
▁Başbakanı	-4461
ürr	-4462
▁37	-4463
▁Haf	-4464
▁gül	-4465
▁hab	-4466
▁Herk	-4467
▁Koca	-4468
▁sayf	-4469
▁kurulu	-4470
nik	-4471
liğe	-4472
▁Maç	-4473
▁tüf	-4474
ımıza	-4475
▁nızı	-4476
▁uçuş	-4477
▁adeta	-4478
▁lardı	-4479
▁çıktığı	-4480
▁açıklandı	-4481
▁hac	-4482
erbay	-4483
veriş	-4484
ımızın	-4485
▁çağır	-4486
▁inanıyor	-4487
PDY	-4488
lemeye	-4489
saspor	-4490
alisyon	-4491
▁Birleş	-4492
▁itibarı	-4493
▁başlattı	-4494
▁olmasına	-4495
gül	-4496
book	-4497
▁yiz	-4498
▁yeme	-4499
▁zirv	-4500
▁Avust	-4501
▁hazırlanan	-4502
Bir	-4503
yet	-4504
lerimiz	-4505
▁saldırıda	-4506
▁Res	-4507
▁Siv	-4508
▁çağr	-4509
▁motor	-4510
▁taşın	-4511
▁teşvik	-4512
▁üzerindeki	-4513
ash	-4514
ock	-4515
▁eg	-4516
▁Boğ	-4517
▁olun	-4518
cebook	-4519
▁Tarih	-4520
▁kalma	-4521
▁Öztürk	-4522
▁patlama	-4523
▁tutuklu	-4524
▁ac	-4525
illi	-4526
▁kıy	-4527
faiye	-4528
şembe	-4529
▁Oğuz	-4530
▁kanı	-4531
işehir	-4532
▁boyut	-4533
▁üstün	-4534
▁servis	-4535
▁çalıştı	-4536
▁içindeki	-4537
▁insanları	-4538
▁yapıldığı	-4539
▁Köy	-4540
edeki	-4541
▁Uğur	-4542
ılarak	-4543
▁terörle	-4544
▁öğrenci	-4545
▁Abdullah	-4546
dıktan	-4547
▁Hayat	-4548
▁kapan	-4549
▁noktada	-4550
▁kazandır	-4551
ıza	-4552
kili	-4553
lığa	-4554
uman	-4555
▁cil	-4556
lığına	-4557
▁hisset	-4558
▁istihdam	-4559
inc	-4560
▁AR	-4561
afer	-4562
▁Fak	-4563
▁deki	-4564
▁mize	-4565
▁balık	-4566
▁Azerbay	-4567
▁konuşma	-4568
▁çocukların	-4569
ink	-4570
maat	-4571
eysel	-4572
Gündem	-4573
▁tanım	-4574
▁programı	-4575
▁ef	-4576
▁Pat	-4577
▁işe	-4578
▁şok	-4579
▁Akın	-4580
▁kısı	-4581
▁hayır	-4582
▁güvenli	-4583
▁oynadığı	-4584
▁vatandaşların	-4585
zan	-4586
▁İL	-4587
idin	-4588
▁Tat	-4589
▁ödem	-4590
ağında	-4591
▁Kurul	-4592
azartesi	-4593
▁Komutanı	-4594
▁Başsavcılığı	-4595
şi	-4596
▁38	-4597
▁Ale	-4598
inizi	-4599
ordin	-4600
▁toplu	-4601
▁düşünc	-4602
▁restor	-4603
▁ihtiyacı	-4604
▁araştırma	-4605
▁sayısının	-4606
▁bilirsiniz	-4607
▁1'	-4608
edik	-4609
▁Yer	-4610
▁kem	-4611
▁Fransız	-4612
▁götürüldü	-4613
▁Mosk	-4614
▁acil	-4615
▁adını	-4616
▁değin	-4617
▁duygu	-4618
▁cenaze	-4619
▁yerini	-4620
▁olacaktır	-4621
nam	-4622
▁İddi	-4623
▁Fırat	-4624
▁Binali	-4625
▁göçmen	-4626
▁Bahçeli	-4627
▁herkesin	-4628
▁Karadeniz	-4629
▁gönderildi	-4630
cra	-4631
yer	-4632
▁47	-4633
alle	-4634
▁Nus	-4635
▁Onun	-4636
▁onay	-4637
▁mekan	-4638
tiğimiz	-4639
▁ticari	-4640
▁Belediy	-4641
▁Moskova	-4642
▁plakalı	-4643
gre	-4644
▁ağrı	-4645
omotiv	-4646
▁Sabah	-4647
▁temas	-4648
▁haberi	-4649
▁kaleci	-4650
▁çocuğu	-4651
▁ayrıldı	-4652
▁suçundan	-4653
OK	-4654
dun	-4655
▁id	-4656
▁vir	-4657
▁arası	-4658
▁kişiye	-4659
▁başkenti	-4660
▁bilgisay	-4661
▁Komisyonu	-4662
▁gerçekten	-4663
▁oldukları	-4664
kiler	-4665
ulmaz	-4666
liğine	-4667
▁güneş	-4668
▁koruma	-4669
▁lerimiz	-4670
▁çocuğun	-4671
▁çalıştır	-4672
▁gerçekleşti	-4673
ura	-4674
usuf	-4675
▁Say	-4676
▁avan	-4677
▁hala	-4678
▁etkisi	-4679
▁ilçesi	-4680
▁Belçika	-4681
▁üyeleri	-4682
OL	-4683
▁6.	-4684
▁Pr	-4685
gesi	-4686
ücut	-4687
▁400	-4688
▁jan	-4689
▁Ünlü	-4690
▁inceleme	-4691
▁yaparken	-4692
isa	-4693
▁hızla	-4694
▁sahte	-4695
▁savcı	-4696
▁sürpr	-4697
▁organiz	-4698
MA	-4699
▁TSK	-4700
▁kritik	-4701
▁helikop	-4702
▁aldığını	-4703
▁Bursaspor	-4704
▁ihlal	-4705
▁Ramazan	-4706
ündeki	-4707
▁duyurdu	-4708
▁protest	-4709
▁süreçte	-4710
ag	-4711
▁yız	-4712
▁Artık	-4713
▁Vakfı	-4714
▁kalit	-4715
▁ihtiyac	-4716
▁Facebook	-4717
▁Vatandaş	-4718
▁üs	-4719
form	-4720
▁prim	-4721
▁Mardin	-4722
▁olmasını	-4723
▁örgütünün	-4724
▁Fetullahçı	-4725
kâ	-4726
latan	-4727
▁gözy	-4728
▁İpek	-4729
▁Salih	-4730
▁Yusuf	-4731
▁bedel	-4732
▁Dündar	-4733
▁yükseldi	-4734
▁39	-4735
lücü	-4736
▁anı	-4737
▁Şanlı	-4738
▁geçici	-4739
▁kamyon	-4740
▁avantaj	-4741
▁tahliye	-4742
▁beklenen	-4743
▁oyuncusu	-4744
▁enflasyon	-4745
▁Ür	-4746
▁Sel	-4747
▁lay	-4748
tacak	-4749
▁komş	-4750
▁görevi	-4751
mediğini	-4752
▁istediğini	-4753
▁uğ	-4754
▁pan	-4755
▁düşman	-4756
▁denetim	-4757
▁değerli	-4758
▁şirketi	-4759
▁Azerbaycan	-4760
kim	-4761
ıştı	-4762
▁Far	-4763
▁Pen	-4764
▁Takım	-4765
alandır	-4766
▁dönemi	-4767
▁Ticaret	-4768
▁paylaşım	-4769
▁çocuklar	-4770
▁istihbarat	-4771
şek	-4772
▁bıçak	-4773
▁Özgür	-4774
latform	-4775
▁arkadaşları	-4776
▁kaza	-4777
leyman	-4778
▁kanat	-4779
▁yönel	-4780
▁turizm	-4781
▁karakter	-4782
▁sağlayan	-4783
İH	-4784
▁48	-4785
▁Mic	-4786
▁aşk	-4787
muyor	-4788
ukarı	-4789
▁Yine	-4790
▁oyunu	-4791
▁gecesi	-4792
▁Ukrayna	-4793
▁doğrudan	-4794
▁düzenlediği	-4795
SY	-4796
çu	-4797
▁Var	-4798
▁York	-4799
▁lığı	-4800
▁zanlı	-4801
▁zayıf	-4802
▁Konseyi	-4803
say	-4804
ihan	-4805
ısır	-4806
▁beb	-4807
▁malı	-4808
leyici	-4809
▁kural	-4810
▁maçın	-4811
▁Turizm	-4812
▁kadının	-4813
▁gr	-4814
▁Üs	-4815
▁Lis	-4816
jital	-4817
▁saha	-4818
▁Burak	-4819
▁Karak	-4820
▁gönül	-4821
▁Afrika	-4822
▁sebebiyle	-4823
▁yatırımcı	-4824
▁Po	-4825
hisar	-4826
▁tutar	-4827
mesinde	-4828
▁doğrult	-4829
▁tüketim	-4830
▁bilgileri	-4831
▁46	-4832
▁Fik	-4833
▁dür	-4834
▁key	-4835
▁Arslan	-4836
uşturucu	-4837
▁belirlenen	-4838
▁itibarıyla	-4839
ong	-4840
dern	-4841
▁dedim	-4842
▁fikir	-4843
▁fizik	-4844
▁bölümü	-4845
▁Akdeniz	-4846
▁çalıştığı	-4847
TI	-4848
▁kış	-4849
▁sek	-4850
şamba	-4851
▁Lond	-4852
masıyla	-4853
▁elinde	-4854
▁kazanan	-4855
▁İspanya	-4856
▁yüzünden	-4857
▁Açıklamada	-4858
▁yayınlanan	-4859
▁hatt	-4860
▁makam	-4861
▁Barcel	-4862
▁görmek	-4863
▁Süleyman	-4864
▁geçirildi	-4865
▁öldürüldü	-4866
ole	-4867
▁ism	-4868
▁kıl	-4869
▁alır	-4870
▁maya	-4871
▁demir	-4872
▁yoruz	-4873
▁sergil	-4874
oya	-4875
▁7'	-4876
▁Sır	-4877
▁ağı	-4878
▁pop	-4879
▁şehr	-4880
ağının	-4881
▁diplo	-4882
▁birinin	-4883
▁etkinlik	-4884
▁istikrar	-4885
▁güçlendir	-4886
▁AA	-4887
▁cı	-4888
▁İm	-4889
kırı	-4890
▁Beyaz	-4891
▁yasal	-4892
▁Kartal	-4893
▁çeyrek	-4894
▁geçirdi	-4895
▁heyecan	-4896
▁bölümünde	-4897
▁verdiğini	-4898
▁itibariyle	-4899
▁performans	-4900
▁Ala	-4901
▁Kaç	-4902
▁kok	-4903
▁Merk	-4904
▁umut	-4905
▁mesaf	-4906
▁soğuk	-4907
lendiği	-4908
▁veriler	-4909
▁getirilen	-4910
-201	-4911
▁aray	-4912
▁İdar	-4913
ültesi	-4914
▁yanına	-4915
▁sizi	-4916
ketbol	-4917
▁düzel	-4918
▁hassas	-4919
▁milletin	-4920
fak	-4921
▁fab	-4922
cının	-4923
istik	-4924
üksel	-4925
▁tank	-4926
▁Kilis	-4927
▁Şirket	-4928
▁liralık	-4929
▁açıklamalarda	-4930
ılıp	-4931
▁Esk	-4932
▁mekt	-4933
▁kanun	-4934
▁tabii	-4935
▁mahall	-4936
▁liradan	-4937
2.	-4938
▁Dön	-4939
▁işte	-4940
liyeye	-4941
▁Hatta	-4942
▁Brezil	-4943
▁aralık	-4944
▁oynaya	-4945
▁vermeye	-4946
▁iddianam	-4947
yıl	-4948
▁Soy	-4949
▁topr	-4950
▁halkı	-4951
▁vurdu	-4952
▁akadem	-4953
▁bağlan	-4954
▁Mahkeme	-4955
▁bombalı	-4956
▁Yaklaşık	-4957
▁bağımsız	-4958
▁demokras	-4959
▁Federasyonu	-4960
▁sp	-4961
ebil	-4962
▁Sek	-4963
lıklı	-4964
ürken	-4965
▁Balık	-4966
▁heyet	-4967
▁İçişleri	-4968
▁başlatılan	-4969
▁&	-4970
iya	-4971
itan	-4972
▁Cer	-4973
▁Ciz	-4974
▁may	-4975
matik	-4976
▁Aile	-4977
▁eşit	-4978
▁Bilim	-4979
▁azalt	-4980
▁aracın	-4981
▁meydan	-4982
▁yasağı	-4983
ebilecek	-4984
tıklarını	-4985
▁milletvekili	-4986
DA	-4987
üme	-4988
elime	-4989
▁şahıs	-4990
leyecek	-4991
ürriyet	-4992
▁arkadaşı	-4993
▁sürdürdü	-4994
▁güncelleme	-4995
▁girişiminin	-4996
▁w	-4997
▁44	-4998
▁nes	-4999
ğunda	-5000
▁vitam	-5001
▁anlamına	-5002
ATO	-5003
ity	-5004
▁(3	-5005
▁La	-5006
urum	-5007
tedir	-5008
▁Metin	-5009
▁birisi	-5010
bin	-5011
uyla	-5012
▁Park	-5013
▁almış	-5014
▁geride	-5015
▁ülkeye	-5016
▁kahraman	-5017
▁komisyon	-5018
▁Şampiyonlar	-5019
liliği	-5020
▁sakin	-5021
ternatif	-5022
▁Brüksel	-5023
▁Eskişehir	-5024
▁Çavuşoğlu	-5025
▁us	-5026
eğin	-5027
▁Sch	-5028
▁Clin	-5029
▁pilot	-5030
▁verir	-5031
▁öngör	-5032
▁Londra	-5033
▁cinayet	-5034
▁Kahraman	-5035
yak	-5036
▁Boy	-5037
▁işin	-5038
▁mobil	-5039
▁insani	-5040
▁sahaya	-5041
TÜ	-5042
fone	-5043
▁sel	-5044
errah	-5045
▁Sivas	-5046
▁adamı	-5047
▁nöbet	-5048
▁yeşil	-5049
▁Clinton	-5050
▁isimler	-5051
▁müsabak	-5052
▁yetiştir	-5053
▁uğra	-5054
▁Cizre	-5055
▁Erdem	-5056
▁konser	-5057
▁kardeşi	-5058
▁dolandır	-5059
▁sözleşme	-5060
▁tazminat	-5061
▁Barcelona	-5062
▁aracılığı	-5063
▁edildiğini	-5064
▁Cam	-5065
▁hus	-5066
▁NATO	-5067
▁kısmı	-5068
▁onlara	-5069
▁rahmet	-5070
▁196	-5071
▁vek	-5072
▁Edin	-5073
▁trib	-5074
emeyen	-5075
▁Sanayi	-5076
▁aykırı	-5077
▁doğrultusunda	-5078
Dİ	-5079
elal	-5080
▁Sem	-5081
▁işçi	-5082
▁farkı	-5083
▁müzak	-5084
▁örgütüne	-5085
▁sağlayacak	-5086
iir	-5087
▁ince	-5088
▁adalet	-5089
▁gösteri	-5090
▁intihar	-5091
▁oranında	-5092
▁Fakültesi	-5093
▁Cami	-5094
▁kafa	-5095
▁temin	-5096
lığının	-5097
▁Sistem	-5098
▁nedeni	-5099
▁Terörle	-5100
ai	-5101
▁ışık	-5102
ington	-5103
▁Merkel	-5104
▁yangın	-5105
▁Şanlıur	-5106
▁kullanım	-5107
▁tedavisi	-5108
Dk	-5109
opa	-5110
rol	-5111
etic	-5112
gari	-5113
▁Tam	-5114
▁The	-5115
sınız	-5116
▁Tunc	-5117
▁dilek	-5118
▁etraf	-5119
▁reklam	-5120
▁Dünyanın	-5121
isel	-5122
ğuna	-5123
▁150	-5124
▁hoc	-5125
ğumuz	-5126
ındır	-5127
▁çoğu	-5128
▁Darbe	-5129
▁köprü	-5130
▁mızın	-5131
▁olayı	-5132
▁paket	-5133
▁yazdı	-5134
▁zorun	-5135
▁Şimşek	-5136
▁paylaştı	-5137
▁muhalefet	-5138
▁yetkilileri	-5139
UL	-5140
ho	-5141
ales	-5142
▁Mor	-5143
▁bol	-5144
▁Voda	-5145
▁Karar	-5146
▁bağır	-5147
▁irade	-5148
▁sahne	-5149
▁ilginç	-5150
▁memlek	-5151
▁Silahlı	-5152
▁karşısına	-5153
▁Geçtiğimiz	-5154
bu	-5155
sie	-5156
▁AT	-5157
FETÖ	-5158
▁teb	-5159
müyor	-5160
▁Esad	-5161
▁Aslan	-5162
▁video	-5163
▁arttır	-5164
▁Partisi	-5165
EC	-5166
IL	-5167
▁OL	-5168
▁ins	-5169
amadı	-5170
▁dizi	-5171
▁liği	-5172
▁Çanak	-5173
▁11'	-5174
ahtar	-5175
lıkla	-5176
lığın	-5177
▁ihraç	-5178
▁maden	-5179
▁gözaltı	-5180
mara	-5181
▁Dil	-5182
▁Alan	-5183
▁hücr	-5184
▁Ziraat	-5185
▁vermiş	-5186
▁yurtdış	-5187
▁Vodafone	-5188
▁biliyoruz	-5189
ens	-5190
▁İk	-5191
aray	-5192
▁Med	-5193
ımızı	-5194
▁bilm	-5195
▁Yavuz	-5196
▁arttı	-5197
▁uğraş	-5198
▁gelece	-5199
▁Portekiz	-5200
▁verilecek	-5201
▁açıklamaya	-5202
nağı	-5203
▁Yurt	-5204
▁uzat	-5205
▁öğle	-5206
▁şaşır	-5207
▁tecrüb	-5208
▁bıraktı	-5209
▁talimat	-5210
▁hastanede	-5211
▁bilgisayar	-5212
eyh	-5213
▁xx	-5214
▁Kol	-5215
▁Tol	-5216
▁Kamu	-5217
▁2014'	-5218
▁itiraz	-5219
▁Hükümet	-5220
▁alınarak	-5221
lus	-5222
▁Te	-5223
▁Seç	-5224
▁esas	-5225
▁takv	-5226
▁delil	-5227
▁Çalış	-5228
lığında	-5229
esindeki	-5230
▁demokratik	-5231
▁dolayısıyla	-5232
▁kendilerini	-5233
▁teröristlerin	-5234
mal	-5235
nci	-5236
▁41	-5237
▁Gaz	-5238
▁Medi	-5239
▁Persie	-5240
▁müşter	-5241
▁satışa	-5242
abileceği	-5243
▁yönetmen	-5244
▁başladığı	-5245
UN	-5246
köy	-5247
çın	-5248
▁4,	-5249
ağın	-5250
▁Emek	-5251
▁Wash	-5252
▁açan	-5253
▁duyg	-5254
▁korku	-5255
▁nüfus	-5256
ılmasına	-5257
▁dönüşüm	-5258
▁yapması	-5259
▁protesto	-5260
tib	-5261
.00'	-5262
▁Mek	-5263
▁hoş	-5264
▁Turk	-5265
▁deng	-5266
▁Şüph	-5267
▁Orhan	-5268
▁bağış	-5269
▁kendine	-5270
▁Ardından	-5271
▁haftasında	-5272
üntü	-5273
▁Hin	-5274
▁Mak	-5275
▁Tuğ	-5276
▁piş	-5277
jansı	-5278
▁mali	-5279
▁hasar	-5280
▁Takımı	-5281
▁düzenlendi	-5282
▁Fu	-5283
▁çı	-5284
tüğü	-5285
eytin	-5286
▁anal	-5287
▁aktif	-5288
▁makin	-5289
▁polise	-5290
▁Joh	-5291
▁Sig	-5292
▁fakat	-5293
▁yuvar	-5294
▁yürüyüş	-5295
▁Washington	-5296
▁üniversite	-5297
fik	-5298
▁(4	-5299
urdu	-5300
▁For	-5301
▁ide	-5302
▁vücut	-5303
dukları	-5304
▁bölücü	-5305
▁lendir	-5306
▁mağlup	-5307
▁hakları	-5308
▁sürpriz	-5309
fan	-5310
ükle	-5311
▁bilet	-5312
▁bozuk	-5313
▁sinir	-5314
▁gitmek	-5315
▁yaygın	-5316
▁alışveriş	-5317
▁Belediyespor	-5318
▁No	-5319
▁Pak	-5320
▁TIR	-5321
▁Feth	-5322
▁dolaş	-5323
▁grubu	-5324
▁marka	-5325
▁adliyeye	-5326
▁saatleri	-5327
▁fiyatları	-5328
▁Çanakkale	-5329
?"	-5330
▁43	-5331
ever	-5332
ezer	-5333
▁Pere	-5334
▁insanın	-5335
▁sorunun	-5336
▁Muhammed	-5337
▁farkında	-5338
▁neredeyse	-5339
An	-5340
eyt	-5341
▁cek	-5342
▁tor	-5343
▁uyan	-5344
alesef	-5345
▁çekiyor	-5346
▁helikopter	-5347
sk	-5348
gah	-5349
▁sıf	-5350
▁zih	-5351
▁Çay	-5352
ulduğu	-5353
▁Mısır	-5354
▁polisi	-5355
▁Pereira	-5356
▁Konyaspor	-5357
AZ	-5358
ÜN	-5359
▁çök	-5360
makam	-5361
▁gücü	-5362
▁Alınan	-5363
▁Gençler	-5364
▁ekonomi	-5365
▁etmişti	-5366
▁bırakıldı	-5367
▁ettikleri	-5368
▁Çi	-5369
▁10.	-5370
▁600	-5371
▁mus	-5372
▁slo	-5373
gazin	-5374
▁2008	-5375
▁Mark	-5376
▁ilçe	-5377
▁direk	-5378
▁Valisi	-5379
laştırma	-5380
▁yaşıyor	-5381
kırmızılı	-5382
▁yiye	-5383
▁filmi	-5384
▁olanlar	-5385
▁Toplantı	-5386
▁davranış	-5387
▁antrenman	-5388
▁olduğumuz	-5389
▁mücadelede	-5390
ron	-5391
iyiz	-5392
▁Gön	-5393
eğini	-5394
ildiğini	-5395
▁devreye	-5396
▁işlemleri	-5397
▁bayrak	-5398
abiliyor	-5399
▁deneyim	-5400
▁kararını	-5401
▁re	-5402
itap	-5403
▁saf	-5404
▁2010	-5405
▁eğer	-5406
▁gurur	-5407
▁ikram	-5408
▁işbir	-5409
▁Berlin	-5410
▁sağlan	-5411
▁yaşadı	-5412
▁karşılı	-5413
▁hesabından	-5414
▁kullanarak	-5415
ia	-5416
yol	-5417
yım	-5418
▁stat	-5419
distan	-5420
▁Güzel	-5421
▁halen	-5422
▁buraya	-5423
▁ateşkes	-5424
▁olmadan	-5425
▁Büyükelç	-5426
▁jandarma	-5427
▁ettiklerini	-5428
▁soruşturması	-5429
ukur	-5430
▁Kav	-5431
tanın	-5432
▁gram	-5433
▁mıza	-5434
▁aydın	-5435
▁tanık	-5436
▁tarım	-5437
tığımız	-5438
▁memuru	-5439
▁itfaiye	-5440
▁vermesi	-5441
▁yakından	-5442
stin	-5443
▁Işık	-5444
▁hikay	-5445
▁kaybı	-5446
▁şeker	-5447
▁parçası	-5448
▁Edinilen	-5449
▁alındığı	-5450
▁güvenliği	-5451
▁sözlerini	-5452
▁soh	-5453
▁ves	-5454
▁arab	-5455
▁ayda	-5456
elerle	-5457
▁Onlar	-5458
▁geldik	-5459
▁cenazesi	-5460
kaya	-5461
▁tac	-5462
▁şut	-5463
▁Barış	-5464
▁Stadı	-5465
▁Yayın	-5466
▁oynama	-5467
▁profes	-5468
▁penaltı	-5469
▁alternatif	-5470
RK	-5471
rağı	-5472
▁1-0	-5473
▁Mac	-5474
▁kıya	-5475
▁bazen	-5476
▁eğlen	-5477
▁gördüğü	-5478
▁mensubu	-5479
▁kimsenin	-5480
▁42	-5481
▁Sp	-5482
lüğe	-5483
▁Tal	-5484
▁bask	-5485
▁Saray	-5486
▁nedir	-5487
▁aktardı	-5488
▁toprağa	-5489
Sİ	-5490
yonel	-5491
▁John	-5492
▁yedi	-5493
sinden	-5494
▁mevki	-5495
▁stand	-5496
lerince	-5497
▁aktaran	-5498
▁oynanacak	-5499
▁deplasmanda	-5500
we	-5501
tek	-5502
▁af	-5503
▁sur	-5504
ğinin	-5505
▁rast	-5506
▁adayı	-5507
▁gerçe	-5508
▁Şenol	-5509
▁Serdar	-5510
▁ortada	-5511
▁sayılı	-5512
▁Meclisi	-5513
▁diliyor	-5514
▁açıklamasında	-5515
▁Bür	-5516
▁Hır	-5517
▁Mas	-5518
▁Yaz	-5519
▁arz	-5520
▁fat	-5521
▁çay	-5522
▁Hukuk	-5523
ilmişti	-5524
▁Akhisar	-5525
▁dikkate	-5526
▁koalisyon	-5527
▁ülkelerin	-5528
EB	-5529
HY	-5530
▁şof	-5531
ınıyor	-5532
▁teşkil	-5533
▁polisin	-5534
▁olağanüstü	-5535
▁Bit	-5536
▁Erk	-5537
▁Yok	-5538
odrum	-5539
▁form	-5540
▁imkâ	-5541
atırım	-5542
▁hepsi	-5543
▁cemaat	-5544
▁Yatırım	-5545
Dün	-5546
fil	-5547
▁85	-5548
▁Ark	-5549
▁Ast	-5550
▁yetki	-5551
▁çoğun	-5552
▁dediği	-5553
▁isabet	-5554
▁yolunda	-5555
▁uygulaması	-5556
her	-5557
▁maruz	-5558
▁tuttu	-5559
▁Bundan	-5560
▁kaynağı	-5561
▁alınacak	-5562
▁saldırgan	-5563
ogle	-5564
▁Gar	-5565
▁Kir	-5566
▁Rob	-5567
▁Onur	-5568
▁maça	-5569
▁olayın	-5570
▁haftada	-5571
▁Bunların	-5572
▁bekleyen	-5573
▁olmayacak	-5574
▁sözlerine	-5575
▁53	-5576
▁AY	-5577
ceğiz	-5578
eliği	-5579
liyet	-5580
▁frag	-5581
▁anayas	-5582
▁biçimde	-5583
▁ilgilen	-5584
▁bölgedeki	-5585
▁teröristler	-5586
▁202	-5587
▁MİT	-5588
▁Ora	-5589
▁Tut	-5590
▁rad	-5591
▁birik	-5592
▁bulan	-5593
▁Özbek	-5594
liğinin	-5595
▁Sekret	-5596
▁deprem	-5597
▁olurken	-5598
AC	-5599
şun	-5600
▁4.5	-5601
▁dam	-5602
endis	-5603
▁döviz	-5604
mayacak	-5605
ılırken	-5606
▁bayram	-5607
▁itiraf	-5608
▁sanayi	-5609
▁Köprüsü	-5610
▁şirketin	-5611
▁olduğunun	-5612
▁saldırısı	-5613
qu	-5614
zet	-5615
▁TR	-5616
▁Mem	-5617
▁ini	-5618
▁reh	-5619
manız	-5620
▁devre	-5621
▁yolda	-5622
lıkları	-5623
▁coğraf	-5624
▁Marmara	-5625
▁üretimi	-5626
▁49	-5627
▁!..	-5628
▁Naz	-5629
▁euro	-5630
▁Savaş	-5631
▁nefes	-5632
▁talebi	-5633
▁katılma	-5634
▁yapılma	-5635
▁Örneğin	-5636
▁tamamladı	-5637
▁sorumluluk	-5638
▁toplantısı	-5639
bal	-5640
cav	-5641
▁sta	-5642
▁besin	-5643
▁esnaf	-5644
▁Google	-5645
▁sigorta	-5646
▁tasarım	-5647
▁Müdürlüğ	-5648
▁verilmesi	-5649
▁uyuşturucu	-5650
▁Lu	-5651
▁ap	-5652
subay	-5653
▁iyil	-5654
▁medi	-5655
▁aldık	-5656
▁danış	-5657
▁enerj	-5658
ilistin	-5659
▁görevl	-5660
▁kariyer	-5661
▁paralel	-5662
▁gönderdi	-5663
▁merkezinde	-5664
▁3-	-5665
▁7.	-5666
▁11.	-5667
▁CEO	-5668
▁elem	-5669
▁Siyas	-5670
▁mecli	-5671
▁Ülkem	-5672
▁oturan	-5673
▁Filistin	-5674
▁düzenledi	-5675
▁düzenleme	-5676
com	-5677
lis	-5678
▁Bi	-5679
lamanın	-5680
▁gazeteci	-5681
▁hükümeti	-5682
▁Cumartesi	-5683
▁güçlerinin	-5684
GK	-5685
▁Zor	-5686
▁yim	-5687
▁şef	-5688
▁okun	-5689
aliman	-5690
▁ligde	-5691
▁rakib	-5692
▁kentinde	-5693
▁aracılığıyla	-5694
raz	-5695
▁yım	-5696
dıköy	-5697
▁yeter	-5698
chester	-5699
lacivert	-5700
▁sağlaya	-5701
▁belirtiliyor	-5702
▁Ya	-5703
▁Üz	-5704
kesi	-5705
▁Rak	-5706
▁Kanun	-5707
▁komşu	-5708
▁gereği	-5709
▁başlama	-5710
▁oynayan	-5711
▁dönüştür	-5712
▁sonuçları	-5713
Bİ	-5714
aza	-5715
ert	-5716
edek	-5717
▁kök	-5718
▁vic	-5719
▁şer	-5720
▁Hast	-5721
▁Kore	-5722
▁Vali	-5723
▁asist	-5724
▁gelip	-5725
▁trafi	-5726
▁desteğ	-5727
▁mesajı	-5728
▁bulunma	-5729
▁endeksi	-5730
▁Çarşamba	-5731
▁görülüyor	-5732
▁Hollandalı	-5733
▁Manchester	-5734
co	-5735
▁54	-5736
limp	-5737
▁Düş	-5738
▁Kısa	-5739
▁ölçü	-5740
▁bildi	-5741
▁yoktu	-5742
▁Şehir	-5743
▁alması	-5744
▁kurban	-5745
▁verici	-5746
▁yapabilir	-5747
▁Şanlıurfa	-5748
▁Dk	-5749
▁Çif	-5750
▁serg	-5751
▁maddi	-5752
▁verme	-5753
▁yaşlı	-5754
uşturma	-5755
▁Ermeni	-5756
▁Türkmen	-5757
▁hastalığı	-5758
ano	-5759
kar	-5760
ski	-5761
▁uc	-5762
maye	-5763
▁ölen	-5764
ulacak	-5765
▁saniye	-5766
▁konuyla	-5767
▁Perşembe	-5768
▁sağlıyor	-5769
▁görüyoruz	-5770
▁sorunları	-5771
gay	-5772
rab	-5773
sed	-5774
▁08	-5775
▁56	-5776
▁gidip	-5777
▁kaçan	-5778
▁Manisa	-5779
▁İnşaat	-5780
▁Sözcüsü	-5781
▁dijital	-5782
▁gidecek	-5783
▁bileceği	-5784
▁doğalgaz	-5785
▁edebilir	-5786
▁karşılan	-5787
▁kesinlikle	-5788
alet	-5789
▁Tim	-5790
▁Tarım	-5791
▁derec	-5792
▁kalab	-5793
▁Festiv	-5794
▁kadros	-5795
▁yerden	-5796
▁yukarı	-5797
▁harekat	-5798
▁olmuştur	-5799
▁talimatı	-5800
kun	-5801
▁ır	-5802
brıs	-5803
▁Eki	-5804
▁hâlâ	-5805
▁Bölge	-5806
▁ihbar	-5807
▁mıyor	-5808
▁senar	-5809
▁topla	-5810
▁Kaynak	-5811
▁ailesi	-5812
▁yağmur	-5813
▁Erzurum	-5814
▁çıkması	-5815
▁Teknoloji	-5816
▁çatışmalar	-5817
ly	-5818
▁GÖ	-5819
▁ib	-5820
opagan	-5821
▁koydu	-5822
▁teşeb	-5823
▁sigort	-5824
▁vererek	-5825
ane	-5826
giz	-5827
rük	-5828
teş	-5829
▁59	-5830
▁nef	-5831
▁Oysa	-5832
▁Kıbrıs	-5833
▁hayatı	-5834
▁bilgilere	-5835
▁yakınları	-5836
▁Öl	-5837
afir	-5838
iliş	-5839
▁buz	-5840
kınma	-5841
▁uğur	-5842
▁içeren	-5843
▁oluştu	-5844
▁Kadıköy	-5845
▁çıkarıldı	-5846
âh	-5847
idi	-5848
kal	-5849
▁78	-5850
eşme	-5851
gili	-5852
ovic	-5853
▁Nev	-5854
rafik	-5855
▁Eren	-5856
▁payı	-5857
tansiy	-5858
▁Selim	-5859
▁albüm	-5860
▁işler	-5861
▁projesi	-5862
▁sağladı	-5863
▁anlatıyor	-5864
üny	-5865
▁Din	-5866
▁Mete	-5867
ükleer	-5868
▁sanız	-5869
▁yakal	-5870
▁anlayış	-5871
▁devleti	-5872
imar	-5873
▁250	-5874
liğin	-5875
▁otop	-5876
omatik	-5877
▁verim	-5878
▁şansı	-5879
▁açtığı	-5880
▁geçerli	-5881
▁olmuştu	-5882
▁Demirtaş	-5883
▁Yargıtay	-5884
▁yapacağız	-5885
illa	-5886
stik	-5887
▁1.5	-5888
▁Mün	-5889
▁hük	-5890
▁Adli	-5891
▁mini	-5892
▁sıkı	-5893
▁Gümüş	-5894
▁Rapor	-5895
▁niyet	-5896
▁gelişme	-5897
▁gelmesi	-5898
▁geçiyor	-5899
▁organizasyon	-5900
▁Art	-5901
▁2009	-5902
▁atış	-5903
▁Antal	-5904
▁Zaten	-5905
▁birer	-5906
▁damar	-5907
▁ikili	-5908
▁ihtimal	-5909
▁kişisel	-5910
▁başladık	-5911
▁kadınlar	-5912
▁propagan	-5913
▁cumhurbaş	-5914
▁mahkemeye	-5915
▁sürecinde	-5916
201	-5917
▁6'	-5918
▁Ha	-5919
Bahçe	-5920
ayolu	-5921
erber	-5922
lenin	-5923
▁Okul	-5924
▁dini	-5925
▁İtal	-5926
▁Kerim	-5927
▁başlar	-5928
▁sebebi	-5929
▁söylem	-5930
▁yükseliş	-5931
▁kadınların	-5932
des	-5933
dev	-5934
siye	-5935
▁algı	-5936
▁bahs	-5937
▁basit	-5938
▁idari	-5939
▁Dursun	-5940
▁süresi	-5941
▁gerektiği	-5942
ruf	-5943
etle	-5944
▁112	-5945
▁Mez	-5946
▁Mon	-5947
▁THY	-5948
▁şub	-5949
üzgar	-5950
▁City	-5951
▁Çakır	-5952
ılacağı	-5953
▁duruma	-5954
▁gelişim	-5955
▁geçiren	-5956
▁İtalyan	-5957
▁Hürriyet	-5958
düz	-5959
▁Sat	-5960
▁Tok	-5961
▁fel	-5962
▁gür	-5963
▁Günü	-5964
▁Real	-5965
▁güne	-5966
lenmiş	-5967
▁dağıt	-5968
▁İsveç	-5969
▁yapıyoruz	-5970
cer	-5971
gam	-5972
ediy	-5973
▁Ann	-5974
▁cüm	-5975
▁boşan	-5976
▁Mahmut	-5977
▁potansiy	-5978
▁telefonu	-5979
▁07	-5980
▁66	-5981
ünel	-5982
▁Usta	-5983
▁boyu	-5984
imizde	-5985
lerken	-5986
▁evlilik	-5987
▁gelenek	-5988
▁sözleri	-5989
▁yapılmış	-5990
▁larımızın	-5991
▁değerlendirme	-5992
İŞ	-5993
▁x	-5994
▁Ku	-5995
▁Lev	-5996
▁tablo	-5997
▁yoksa	-5998
▁Yaralı	-5999
▁kamera	-6000
▁Meydanı	-6001
▁altyapı	-6002
▁beklent	-6003
▁maddesi	-6004
▁performansı	-6005
gıç	-6006
ota	-6007
▁Gol	-6008
▁sam	-6009
▁emin	-6010
memesi	-6011
▁Taraf	-6012
▁beden	-6013
▁ertel	-6014
▁Çalışma	-6015
▁getirdiği	-6016
▁oğl	-6017
▁rok	-6018
mayın	-6019
▁harc	-6020
▁yken	-6021
▁artan	-6022
▁kanıt	-6023
▁yarım	-6024
▁ayakta	-6025
▁dünyas	-6026
▁ülkeyi	-6027
▁sunuyor	-6028
▁yükselt	-6029
▁birbirine	-6030
▁yöneticiler	-6031
▁X	-6032
▁51	-6033
2016	-6034
▁ağaç	-6035
▁Ünal	-6036
elikli	-6037
▁Nusay	-6038
▁istifa	-6039
limpiyat	-6040
▁biliriz	-6041
▁İnşallah	-6042
▁açıklamalar	-6043
ral	-6044
ris	-6045
▁fi	-6046
▁Cin	-6047
layıp	-6048
▁tabi	-6049
▁Faruk	-6050
▁Hakim	-6051
▁görme	-6052
▁karan	-6053
▁Aslında	-6054
▁standart	-6055
▁özelliği	-6056
▁gerçekleşen	-6057
ezi	-6058
mel	-6059
▁İN	-6060
▁Ana	-6061
▁Mat	-6062
ciğer	-6063
▁Terim	-6064
▁tiyatro	-6065
▁iddiasıyla	-6066
▁düzenlenecek	-6067
dırma	-6068
enkul	-6069
▁yang	-6070
ğinden	-6071
▁açığa	-6072
▁Üyesi	-6073
▁reform	-6074
▁yönlendir	-6075
▁noktasında	-6076
▁temsilcisi	-6077
dy	-6078
▁Umut	-6079
▁hikâ	-6080
suzluk	-6081
▁Hizmet	-6082
▁açıdan	-6083
▁ekledi	-6084
▁sohbet	-6085
▁ekiplerinin	-6086
dil	-6087
öyl	-6088
▁ob	-6089
cavüz	-6090
teşem	-6091
▁bahç	-6092
▁başk	-6093
▁icra	-6094
▁uyku	-6095
uyoruz	-6096
▁Burcu	-6097
▁Türkçe	-6098
▁gittik	-6099
▁ettiler	-6100
▁gerekti	-6101
▁taraftan	-6102
▁Antalyaspor	-6103
ner	-6104
▁So	-6105
imin	-6106
▁KAR	-6107
portaj	-6108
▁Sezon	-6109
▁Siyah	-6110
▁Nusaybin	-6111
▁Valiliği	-6112
▁şampiyonluk	-6113
FF	-6114
HK	-6115
ayol	-6116
▁Bana	-6117
▁kateg	-6118
▁çevre	-6119
▁hayran	-6120
▁avukatı	-6121
▁korumak	-6122
▁getirmek	-6123
▁özgürlük	-6124
▁ortasında	-6125
IM	-6126
▁72	-6127
ınma	-6128
▁Teş	-6129
▁kod	-6130
▁şiş	-6131
▁Salı	-6132
▁duvar	-6133
▁giyen	-6134
▁halka	-6135
▁harca	-6136
▁Elektr	-6137
▁gözlem	-6138
▁elbette	-6139
▁gittiği	-6140
▁taşıyor	-6141
larımızın	-6142
▁beraberlik	-6143
▁yaptığımız	-6144
tuk	-6145
▁67	-6146
▁9.	-6147
▁ka	-6148
ayıp	-6149
▁Fil	-6150
▁Tep	-6151
▁alg	-6152
▁tıp	-6153
▁tren	-6154
▁kavuş	-6155
▁mezar	-6156
▁Özdemir	-6157
▁geçirdiği	-6158
▁5,	-6159
tına	-6160
▁Aşk	-6161
▁tör	-6162
▁Çek	-6163
▁Boğaz	-6164
▁refer	-6165
▁tanış	-6166
lanarak	-6167
osiklet	-6168
▁karşın	-6169
▁olmayı	-6170
▁sahası	-6171
▁sigara	-6172
ılmasını	-6173
▁Program	-6174
▁girdiği	-6175
▁olacağız	-6176
ger	-6177
zat	-6178
▁120	-6179
▁Dair	-6180
▁kahv	-6181
▁mahk	-6182
▁Gomez	-6183
▁Hakem	-6184
ansiyon	-6185
▁göreve	-6186
▁Magazin	-6187
▁durumun	-6188
▁gelerek	-6189
▁esnasında	-6190
▁başlatıldı	-6191
▁akademisyen	-6192
▁Uç	-6193
▁ız	-6194
▁alkol	-6195
▁tutan	-6196
▁yüklü	-6197
▁atılan	-6198
▁günden	-6199
▁yağışı	-6200
▁sorularını	-6201
ahh	-6202
▁69	-6203
▁12.	-6204
▁Kaza	-6205
▁izle	-6206
amıyor	-6207
liyesi	-6208
lüğünü	-6209
▁Organ	-6210
▁kartı	-6211
▁Öğren	-6212
▁İstih	-6213
▁Hakkari	-6214
▁düzenli	-6215
SO	-6216
▁58	-6217
▁AŞ	-6218
▁mük	-6219
▁zan	-6220
▁dığı	-6221
etmeni	-6222
usunun	-6223
▁Topal	-6224
▁ettim	-6225
▁kilit	-6226
▁Kanunu	-6227
▁görüle	-6228
▁lerimizi	-6229
▁hatırlatan	-6230
araj	-6231
▁Pan	-6232
▁Yah	-6233
▁ağab	-6234
▁dalg	-6235
▁ihal	-6236
▁beyan	-6237
▁bilmek	-6238
▁hedefi	-6239
▁girecek	-6240
▁yoluyla	-6241
▁Demokrat	-6242
▁başından	-6243
▁yaklaşım	-6244
▁Pazartesi	-6245
▁parlament	-6246
▁tehlikeli	-6247
▁önemlidir	-6248
▁gösterdiği	-6249
▁toplantıda	-6250
▁operasyonlar	-6251
io	-6252
nes	-6253
▁Kör	-6254
▁Sil	-6255
▁usul	-6256
▁Kurum	-6257
▁izledi	-6258
▁kurşun	-6259
▁ulusal	-6260
▁militan	-6261
▁beslenme	-6262
▁canlandır	-6263
▁ifadeleri	-6264
ick	-6265
uku	-6266
▁81	-6267
▁AV	-6268
ited	-6269
lamış	-6270
▁Anne	-6271
▁Evet	-6272
manlık	-6273
▁dönemin	-6274
▁eğitimi	-6275
▁öğretim	-6276
▁edilerek	-6277
▁karıştır	-6278
▁Güneydoğu	-6279
▁yapıldığını	-6280
▁Ro	-6281
▁2007	-6282
▁kere	-6283
▁suik	-6284
▁çaba	-6285
▁günler	-6286
▁vicdan	-6287
▁geleceği	-6288
▁yerinden	-6289
▁bağlantılı	-6290
▁Ulu	-6291
ispor	-6292
onald	-6293
▁Esen	-6294
▁bina	-6295
▁dosy	-6296
▁Cihan	-6297
▁Malat	-6298
▁İsviç	-6299
▁modern	-6300
▁bulundur	-6301
▁Kasımpaşa	-6302
▁Fi	-6303
▁Hil	-6304
▁Sne	-6305
▁Yür	-6306
bakan	-6307
ılmak	-6308
▁metr	-6309
▁onur	-6310
▁beyin	-6311
▁dönen	-6312
▁birini	-6313
▁sinema	-6314
▁yılının	-6315
▁çıkarak	-6316
▁gerektir	-6317
▁yerlerde	-6318
▁tutuklama	-6319
▁öğrencisi	-6320
▁bileceğini	-6321
ard	-6322
▁Ail	-6323
▁kus	-6324
▁nam	-6325
▁Ateş	-6326
▁alak	-6327
▁liğe	-6328
▁asgari	-6329
▁edebil	-6330
▁buradan	-6331
▁hastane	-6332
▁merkezli	-6333
▁Kurtulmuş	-6334
▁Osmanlıspor	-6335
amış	-6336
▁Erol	-6337
▁TÜRK	-6338
lamadı	-6339
▁2017'	-6340
▁duyar	-6341
▁kenar	-6342
▁ülkem	-6343
▁birden	-6344
▁davası	-6345
▁değeri	-6346
▁zorluk	-6347
▁sektörü	-6348
▁firmalar	-6349
▁gazetesi	-6350
▁görevini	-6351
▁Amerikalı	-6352
▁etkisiyle	-6353
▁yaşandığı	-6354
▁*	-6355
▁çoğ	-6356
ijder	-6357
▁Saat	-6358
▁cilt	-6359
lıklar	-6360
ğından	-6361
▁tanıt	-6362
▁yürür	-6363
▁kurtul	-6364
▁sessiz	-6365
▁kapasit	-6366
▁Sneijder	-6367
▁finansal	-6368
▁görevlisi	-6369
▁hükümetin	-6370
to	-6371
YOR	-6372
sam	-6373
tük	-6374
▁dua	-6375
▁nun	-6376
▁Çık	-6377
▁lüks	-6378
▁ması	-6379
▁Gerçek	-6380
▁Savaşı	-6381
▁sporcu	-6382
▁İşleri	-6383
▁sağlığı	-6384
ladıkları	-6385
▁platform	-6386
▁yılından	-6387
▁sürdürüyor	-6388
übe	-6389
▁niş	-6390
▁ran	-6391
memiş	-6392
▁büny	-6393
▁meye	-6394
▁suyu	-6395
ümüzde	-6396
▁bitti	-6397
▁tavır	-6398
▁şartı	-6399
▁yüzyıl	-6400
▁yalnızca	-6401
▁ücretsiz	-6402
▁oyuncular	-6403
YA	-6404
sh	-6405
aca	-6406
şen	-6407
adir	-6408
iydi	-6409
▁köş	-6410
▁vef	-6411
▁İli	-6412
▁Gıda	-6413
▁Paşa	-6414
▁nıza	-6415
▁tipi	-6416
dikten	-6417
▁işgal	-6418
▁sıkış	-6419
▁Kayser	-6420
▁süreli	-6421
▁verdik	-6422
▁buluştu	-6423
▁yenilen	-6424
▁cezalandır	-6425
▁genellikle	-6426
▁yaptıklarını	-6427
▁Gençlerbirliği	-6428
uta	-6429
satı	-6430
▁Don	-6431
▁egz	-6432
▁Esed	-6433
▁ilav	-6434
▁Basın	-6435
▁aşkın	-6436
▁Tiyatro	-6437
▁çalışmalarını	-6438
rist	-6439
▁2002	-6440
▁Acil	-6441
▁Yapı	-6442
▁Önce	-6443
▁Halil	-6444
▁Semih	-6445
laşması	-6446
▁sağlam	-6447
IZ	-6448
sit	-6449
▁ren	-6450
▁işle	-6451
▁ocak	-6452
▁İnan	-6453
uyorum	-6454
▁Kenan	-6455
▁beğen	-6456
▁meyve	-6457
▁Herkes	-6458
▁geçecek	-6459
▁misafir	-6460
▁Fethullah	-6461
▁muhabirine	-6462
ras	-6463
vin	-6464
ırh	-6465
şet	-6466
▁2-1	-6467
▁Adı	-6468
▁Kab	-6469
▁Kül	-6470
cinin	-6471
emedi	-6472
▁aran	-6473
▁Nasıl	-6474
▁Yasin	-6475
▁ekmek	-6476
▁satışı	-6477
▁benzeri	-6478
▁koordin	-6479
▁önceden	-6480
▁dikkatli	-6481
▁ülkeleri	-6482
▁fotoğrafı	-6483
▁sektöründe	-6484
▁batı	-6485
alanan	-6486
▁tarif	-6487
▁Finans	-6488
▁mektup	-6489
rimenkul	-6490
▁ifadesi	-6491
▁kalıyor	-6492
▁kıyafet	-6493
▁yiyecek	-6494
elerinden	-6495
larındaki	-6496
▁kilometr	-6497
▁kaybettiği	-6498
▁kullanıyor	-6499
▁ça	-6500
etro	-6501
ette	-6502
▁Zeyn	-6503
▁evin	-6504
▁fuar	-6505
▁Öyle	-6506
▁gecik	-6507
▁üreti	-6508
▁Temsil	-6509
▁Ulusal	-6510
▁dığını	-6511
▁hediye	-6512
▁üstünde	-6513
▁kaldırılması	-6514
abi	-6515
kel	-6516
▁0.	-6517
▁8.	-6518
▁2-0	-6519
▁kre	-6520
▁cuma	-6521
▁doğu	-6522
▁sini	-6523
▁tuzak	-6524
▁çıkıp	-6525
mesiyle	-6526
▁Hayvan	-6527
▁düzeyde	-6528
landığını	-6529
▁kendisinin	-6530
avi	-6531
örd	-6532
▁Riz	-6533
▁bon	-6534
▁Gönül	-6535
▁bütçe	-6536
▁yatak	-6537
▁cerrah	-6538
▁seviye	-6539
▁alacağı	-6540
▁larımızı	-6541
▁yakalama	-6542
▁yönündeki	-6543
UT	-6544
▁muş	-6545
ablus	-6546
iplin	-6547
▁kavg	-6548
▁örgü	-6549
eyerek	-6550
▁efsan	-6551
▁nesil	-6552
▁taciz	-6553
▁tedir	-6554
▁bedeli	-6555
▁fabrik	-6556
▁Gençlik	-6557
▁görüştü	-6558
▁ihtimali	-6559
▁meselesi	-6560
▁toplumun	-6561
▁teröristin	-6562
▁şüpheliler	-6563
▁bilgilendir	-6564
▁dis	-6565
▁evi	-6566
azarı	-6567
alarak	-6568
▁roket	-6569
▁zorlu	-6570
▁Bodrum	-6571
▁endişe	-6572
▁malzem	-6573
▁takıma	-6574
▁kategor	-6575
▁sağanak	-6576
▁ulaştır	-6577
▁52	-6578
▁57	-6579
▁6,	-6580
▁79	-6581
▁10'	-6582
▁ani	-6583
▁dim	-6584
▁Part	-6585
▁sözü	-6586
▁Bakır	-6587
▁kısıt	-6588
▁mezun	-6589
▁yacak	-6590
elendir	-6591
▁Kelime	-6592
▁atıldı	-6593
▁kavram	-6594
▁kendim	-6595
▁yıldan	-6596
malarını	-6597
▁ekipler	-6598
▁tecavüz	-6599
▁röportaj	-6600
▁merkezine	-6601
iyot	-6602
ınır	-6603
▁Ask	-6604
▁Cev	-6605
▁Baba	-6606
▁kulak	-6607
▁Yalçın	-6608
▁faktör	-6609
▁aldıkları	-6610
▁dokunulmaz	-6611
lor	-6612
▁7,	-6613
eyiz	-6614
lili	-6615
Dünya	-6616
▁Avcı	-6617
▁Hacı	-6618
▁Jose	-6619
▁kimi	-6620
▁yara	-6621
alarla	-6622
▁Bilgi	-6623
▁aktör	-6624
meyecek	-6625
ılmıştı	-6626
▁dışına	-6627
▁yakala	-6628
▁sürülen	-6629
▁ürünleri	-6630
▁Başbakanlık	-6631
▁76	-6632
▁üm	-6633
idor	-6634
▁Plan	-6635
▁edeb	-6636
▁kına	-6637
▁Caner	-6638
▁Sakar	-6639
▁kemik	-6640
▁Cengiz	-6641
▁Toplum	-6642
▁olamaz	-6643
▁kampany	-6644
▁havaliman	-6645
MS	-6646
▁8'	-6647
▁Of	-6648
▁lez	-6649
alığı	-6650
ukuki	-6651
▁Akar	-6652
▁Ozan	-6653
▁tarz	-6654
▁Tolga	-6655
▁meşin	-6656
▁yönde	-6657
▁Mesela	-6658
▁halkının	-6659
▁zamanlarda	-6660
IŞ	-6661
nü	-6662
bon	-6663
iti	-6664
pol	-6665
▁77	-6666
▁TE	-6667
esir	-6668
ğrul	-6669
▁Dik	-6670
kları	-6671
▁Kanal	-6672
▁haklı	-6673
▁prote	-6674
▁sanay	-6675
▁insanı	-6676
▁Anahtar	-6677
▁Avustur	-6678
▁hizmeti	-6679
▁seçenek	-6680
▁getiriyor	-6681
▁görünüyor	-6682
▁görevlendir	-6683
Lİ	-6684
ibe	-6685
str	-6686
ydı	-6687
▁8,	-6688
▁Be	-6689
▁Ki	-6690
eniz	-6691
▁Kral	-6692
▁ikna	-6693
▁sana	-6694
▁şifr	-6695
lemesi	-6696
▁Gerek	-6697
▁bakış	-6698
▁işyer	-6699
▁selam	-6700
▁sever	-6701
▁Donald	-6702
▁Günlük	-6703
▁Rieker	-6704
▁işlemi	-6705
▁üstüne	-6706
▁Politik	-6707
▁değildi	-6708
▁kapsamda	-6709
▁stratejik	-6710
▁vatandaşı	-6711
▁Kayserispor	-6712
cık	-6713
oyu	-6714
▁Değ	-6715
▁SAB	-6716
▁dey	-6717
▁sim	-6718
▁2018	-6719
▁Emin	-6720
▁masa	-6721
▁omuz	-6722
▁yürü	-6723
▁Ümit	-6724
▁kavga	-6725
▁lıyor	-6726
▁zamanı	-6727
▁Bölgesi	-6728
▁Japonya	-6729
▁yıldızı	-6730
▁organize	-6731
▁bekliyoruz	-6732
▁saldırıları	-6733
▁gerçekleştirdi	-6734
ata	-6735
ike	-6736
▁Co	-6737
ekom	-6738
▁Dağ	-6739
▁sef	-6740
veren	-6741
▁Emir	-6742
▁Resmi	-6743
▁aktiv	-6744
▁Birlik	-6745
▁kurtarı	-6746
▁Ülkemiz	-6747
▁kullanma	-6748
UM	-6749
▁06	-6750
lant	-6751
liam	-6752
▁anım	-6753
▁golü	-6754
▁Erkek	-6755
▁Yunus	-6756
▁kırık	-6757
▁metro	-6758
▁sözde	-6759
▁gördüğ	-6760
▁teröre	-6761
▁çıkmış	-6762
▁ölçüde	-6763
▁Samsung	-6764
▁olayları	-6765
▁Başkanlık	-6766
▁Hindistan	-6767
▁profesyonel	-6768
ste	-6769
vat	-6770
▁Ök	-6771
oper	-6772
▁Adv	-6773
▁val	-6774
▁Kent	-6775
▁nize	-6776
▁seyr	-6777
▁Hamza	-6778
▁Yaşar	-6779
▁lisan	-6780
▁meşru	-6781
▁yapıp	-6782
▁ısrar	-6783
▁hesabı	-6784
▁kalıcı	-6785
▁çarptı	-6786
▁Bayramı	-6787
▁alırken	-6788
▁sürdüğü	-6789
▁İdaresi	-6790
▁otomatik	-6791
▁Riekerink	-6792
▁belirledi	-6793
▁sezonunda	-6794
▁inanıyorum	-6795
DK	-6796
mam	-6797
İYE	-6798
▁Fo	-6799
burg	-6800
▁Kuş	-6801
▁ışı	-6802
▁bula	-6803
▁niye	-6804
▁olası	-6805
▁senin	-6806
▁tatlı	-6807
▁Fikret	-6808
▁işadam	-6809
▁artarak	-6810
▁noktaya	-6811
▁rekabet	-6812
▁yazdığı	-6813
▁zamanlı	-6814
▁istismar	-6815
▁Balıkesir	-6816
▁lerimizin	-6817
ebi	-6818
▁00	-6819
▁68	-6820
▁km	-6821
feri	-6822
▁20'	-6823
▁Hey	-6824
▁tok	-6825
▁ağız	-6826
▁çatı	-6827
imleri	-6828
▁Oscar	-6829
▁alana	-6830
▁festiv	-6831
▁geçtik	-6832
▁gözyaş	-6833
▁Demirel	-6834
▁Rizespor	-6835
▁Birleşmiş	-6836
▁yıllardır	-6837
▁be	-6838
anti	-6839
ikli	-6840
▁BİR	-6841
▁Güç	-6842
▁Nih	-6843
cağına	-6844
▁büyüy	-6845
▁sahib	-6846
▁uçağı	-6847
ördüncü	-6848
▁taşıma	-6849
▁Arkadaş	-6850
▁Kocaeli	-6851
▁başardı	-6852
▁işletme	-6853
▁olmaktan	-6854
▁tasarruf	-6855
▁çıktığını	-6856
▁karşılaşma	-6857
▁motosiklet	-6858
▁karşılığında	-6859
▁mensuplarının	-6860
DU	-6861
ore	-6862
▁öf	-6863
adet	-6864
bank	-6865
▁pah	-6866
gresi	-6867
▁Sulh	-6868
▁İliş	-6869
▁Odası	-6870
▁adres	-6871
▁ilave	-6872
▁Oyuncu	-6873
▁gergin	-6874
▁insanlara	-6875
▁sahasında	-6876
▁tarihinin	-6877
▁operasyonlarda	-6878
▁â	-6879
▁sü	-6880
erry	-6881
name	-6882
varı	-6883
▁Tos	-6884
▁kuy	-6885
▁İST	-6886
▁aklı	-6887
▁imam	-6888
▁kıyı	-6889
▁üste	-6890
düğünü	-6891
▁Sonuç	-6892
▁demiş	-6893
▁sözcü	-6894
▁virüs	-6895
▁anlama	-6896
▁cesedi	-6897
▁barikat	-6898
▁kişiden	-6899
▁ortamda	-6900
▁tavsiye	-6901
▁zorunlu	-6902
▁çağrısı	-6903
▁uygulanan	-6904
▁ülkemizde	-6905
▁yayımlanan	-6906
AV	-6907
vı	-6908
▁◊	-6909
ise	-6910
▁bl	-6911
odol	-6912
çisi	-6913
▁Alp	-6914
▁mür	-6915
▁Zira	-6916
▁depo	-6917
▁üstü	-6918
gamber	-6919
▁Görüş	-6920
▁irtib	-6921
▁Ödülü	-6922
▁İstik	-6923
▁Şubesi	-6924
▁kulübün	-6925
▁nükleer	-6926
▁İsviçre	-6927
▁kuvvetli	-6928
▁miktarda	-6929
▁toplanan	-6930
▁Milletler	-6931
▁edeceğini	-6932
▁geçirilen	-6933
▁toplumsal	-6934
BA	-6935
TC	-6936
yüz	-6937
▁Kış	-6938
▁Pek	-6939
▁TFF	-6940
▁nez	-6941
diniz	-6942
▁Kızı	-6943
▁hata	-6944
▁iken	-6945
▁Abdül	-6946
▁planı	-6947
▁santr	-6948
iyetini	-6949
▁akşamı	-6950
▁yarıda	-6951
eygamber	-6952
▁Oğuzhan	-6953
▁yarışma	-6954
▁yürüten	-6955
▁Bakanlar	-6956
▁üyelerinin	-6957
▁futbolcular	-6958
rah	-6959
tre	-6960
▁64	-6961
▁TO	-6962
ayiş	-6963
▁pla	-6964
ocaat	-6965
onsor	-6966
saydı	-6967
▁vize	-6968
▁yüzü	-6969
▁alkış	-6970
▁riski	-6971
▁çizen	-6972
ilerini	-6973
▁Askeri	-6974
▁Bayrak	-6975
▁mahalle	-6976
▁Advocaat	-6977
▁sonuçlar	-6978
▁Parlament	-6979
▁konularda	-6980
▁konuşmada	-6981
▁söylediği	-6982
▁İstihbarat	-6983
▁çalışıyoruz	-6984
▁Gaziantepspor	-6985
ült	-6986
ğla	-6987
▁?"	-6988
▁Ni	-6989
evre	-6990
tıcı	-6991
vesi	-6992
▁Sol	-6993
▁lok	-6994
▁Amir	-6995
▁Cenk	-6996
▁Dağı	-6997
▁Köyü	-6998
miştir	-6999
▁köpek	-7000
▁madal	-7001
▁miyor	-7002
▁mutab	-7003
▁oyuna	-7004
▁Bozdağ	-7005
▁etmeyi	-7006
▁oranda	-7007
▁yerleşim	-7008
▁bulunması	-7009
opi	-7010
sek	-7011
▁Eb	-7012
▁Ge	-7013
▁Sİ	-7014
▁Yü	-7015
obal	-7016
ünüz	-7017
▁mit	-7018
▁sil	-7019
▁Yazı	-7020
▁medy	-7021
▁Belki	-7022
▁Kızıl	-7023
▁Soylu	-7024
▁sahil	-7025
▁vekil	-7026
lamıştı	-7027
▁amaçlı	-7028
▁gündür	-7029
▁heyeti	-7030
▁muhtem	-7031
▁olunca	-7032
▁arasına	-7033
▁çekerek	-7034
▁savcılık	-7035
▁sorunlar	-7036
▁uzaklaştır	-7037
rü	-7038
ruz	-7039
öğr	-7040
▁Na	-7041
▁dım	-7042
Saray	-7043
▁hoca	-7044
etiyle	-7045
istler	-7046
lardır	-7047
lılığı	-7048
▁cadde	-7049
▁kalın	-7050
▁çeyre	-7051
▁Maliye	-7052
▁slogan	-7053
lediğini	-7054
▁almıştı	-7055
▁buluşan	-7056
▁Brezilya	-7057
▁maalesef	-7058
▁telefonla	-7059
▁ülkemizin	-7060
▁edilmiştir	-7061
▁sağlanması	-7062
▁9'	-7063
▁edi	-7064
▁göm	-7065
uyucu	-7066
▁Danış	-7067
▁Kulüp	-7068
▁keyif	-7069
▁muhaf	-7070
▁sıfır	-7071
▁yansıt	-7072
▁yarısı	-7073
▁tanıtım	-7074
▁numaralı	-7075
don	-7076
dağı	-7077
stit	-7078
▁est	-7079
ettin	-7080
▁Kork	-7081
▁Roma	-7082
cilere	-7083
▁Alper	-7084
▁ayakk	-7085
▁katlı	-7086
▁kaçın	-7087
▁seven	-7088
öğretim	-7089
▁Hiçbir	-7090
▁sevgil	-7091
ilmiştir	-7092
▁Paralel	-7093
▁birliği	-7094
▁teşebbüs	-7095
▁vurgulan	-7096
▁yükselen	-7097
▁diliyorum	-7098
▁kullanmak	-7099
▁oyuncunun	-7100
▁yönetiminin	-7101
lüt	-7102
cell	-7103
▁195	-7104
▁Ner	-7105
▁küf	-7106
▁yur	-7107
▁Ülk	-7108
▁skan	-7109
▁Hatay	-7110
▁kaçtı	-7111
▁netic	-7112
▁Ajansı	-7113
▁başrol	-7114
▁edilir	-7115
▁hukuki	-7116
▁bölgesi	-7117
▁kimliği	-7118
▁müzaker	-7119
▁popüler	-7120
▁tarihleri	-7121
▁girişimine	-7122
▁başladığını	-7123
▁olabileceğini	-7124
Spor	-7125
▁Cey	-7126
▁cak	-7127
sever	-7128
▁aram	-7129
ilenin	-7130
▁Başka	-7131
▁Kredi	-7132
▁Roman	-7133
▁derken	-7134
▁imkanı	-7135
▁olayda	-7136
▁demişti	-7137
▁kalacak	-7138
▁Sekreteri	-7139
▁kaldığını	-7140
▁kardeşler	-7141
Tİ	-7142
ry	-7143
ug	-7144
▁88	-7145
▁EN	-7146
▁Hen	-7147
▁Kaf	-7148
▁dük	-7149
▁ayar	-7150
▁uzan	-7151
▁zırh	-7152
▁İhra	-7153
▁sinde	-7154
malıdır	-7155
▁Kardeş	-7156
▁kampanya	-7157
▁şiddetli	-7158
▁Avusturya	-7159
▁Soruşturma	-7160
ud	-7161
adı	-7162
ico	-7163
sul	-7164
çılık	-7165
▁Erkan	-7166
▁oldum	-7167
leyerek	-7168
▁varlık	-7169
▁adımlar	-7170
▁bilgisi	-7171
▁değinen	-7172
▁yazılım	-7173
▁Turkcell	-7174
▁insanlık	-7175
▁tüketici	-7176
▁bakımından	-7177
ÜR	-7178
▁63	-7179
▁95	-7180
▁Aki	-7181
müştü	-7182
▁sırt	-7183
ılmaya	-7184
▁SABAH	-7185
▁bölün	-7186
▁vefat	-7187
▁düzelt	-7188
▁gayret	-7189
▁ihanet	-7190
▁modeli	-7191
▁çıkarı	-7192
▁Cenevre	-7193
▁Sakarya	-7194
▁sınırlı	-7195
▁görevden	-7196
▁katılımı	-7197
▁yüzlerce	-7198
▁Basketbol	-7199
▁mücadelesi	-7200
SS	-7201
▁Is	-7202
▁Ela	-7203
▁Koz	-7204
▁kâr	-7205
▁küç	-7206
▁KOBİ	-7207
▁sist	-7208
maması	-7209
▁Asker	-7210
▁Bekir	-7211
▁mevzu	-7212
▁yedek	-7213
▁Birçok	-7214
▁vizyon	-7215
▁yetkili	-7216
▁Kaymakam	-7217
▁Otomobil	-7218
▁olmaması	-7219
▁takdirde	-7220
fen	-7221
ğum	-7222
şak	-7223
anda	-7224
▁Pas	-7225
dırdı	-7226
emeye	-7227
▁Tesi	-7228
▁dosya	-7229
▁harit	-7230
▁United	-7231
▁gördüm	-7232
▁oynadı	-7233
▁çıkmak	-7234
▁ayrılan	-7235
▁herkese	-7236
▁istendi	-7237
▁maçının	-7238
▁Pakistan	-7239
▁diyorlar	-7240
▁kullanımı	-7241
▁ülkelerde	-7242
▁ifadesinde	-7243
TV	-7244
▁Gu	-7245
▁Sı	-7246
ster	-7247
▁lim	-7248
laştı	-7249
▁bine	-7250
▁Çift	-7251
eciler	-7252
▁Düzen	-7253
▁Piyas	-7254
▁hekim	-7255
▁oyunc	-7256
▁parayı	-7257
▁parmak	-7258
▁puanla	-7259
▁savaşı	-7260
▁Kalkanı	-7261
▁noktası	-7262
▁sorusuna	-7263
▁altındaki	-7264
▁saldırının	-7265
▁söyleyerek	-7266
▁ekiplerince	-7267
cin	-7268
rat	-7269
▁Ac	-7270
▁İr	-7271
amik	-7272
elli	-7273
eter	-7274
▁Koc	-7275
▁Rum	-7276
▁gök	-7277
▁sip	-7278
▁Şam	-7279
aması	-7280
▁Ayşe	-7281
eliler	-7282
▁Orada	-7283
▁bekle	-7284
▁mizde	-7285
ilmesini	-7286
▁Kırmızı	-7287
▁bugünkü	-7288
▁elinden	-7289
▁fragmanı	-7290
▁elektronik	-7291
▁ilişkileri	-7292
▁olabileceği	-7293
En	-7294
tah	-7295
▁Pa	-7296
▁Ses	-7297
▁göl	-7298
▁sön	-7299
▁Şük	-7300
▁2000	-7301
▁ucuz	-7302
▁ahlak	-7303
▁alıcı	-7304
▁burun	-7305
▁eşlik	-7306
▁bilinç	-7307
▁kalmış	-7308
▁kırsal	-7309
▁mevsim	-7310
▁hakkını	-7311
▁ailesine	-7312
▁yaptırım	-7313
▁ailesinin	-7314
▁başarısız	-7315
▁ediyorlar	-7316
▁özgürlüğü	-7317
AĞ	-7318
lov	-7319
brek	-7320
omut	-7321
▁füz	-7322
▁nik	-7323
▁Beni	-7324
▁Bulut	-7325
▁kaydı	-7326
▁vakit	-7327
▁oradan	-7328
▁sermaye	-7329
▁çıkarılan	-7330
▁tamamlandı	-7331
▁yardımcısı	-7332
▁açıklamaları	-7333
▁öğrencilerin	-7334
▁yönetimindeki	-7335
TK	-7336
▁62	-7337
lası	-7338
lulu	-7339
steş	-7340
tefik	-7341
▁şarj	-7342
▁şunu	-7343
▁düğün	-7344
▁mühim	-7345
isiklet	-7346
▁bürokr	-7347
▁hamile	-7348
ısındaki	-7349
▁Malatya	-7350
▁alanına	-7351
▁bilmesi	-7352
▁engelli	-7353
▁işadamı	-7354
▁katliam	-7355
▁mühendis	-7356
▁Festivali	-7357
▁sorgulama	-7358
▁sorumlusu	-7359
▁sisteminin	-7360
sağ	-7361
▁800	-7362
▁Vit	-7363
aspor	-7364
meniz	-7365
onomi	-7366
▁zinc	-7367
▁firma	-7368
▁hâkim	-7369
▁koltu	-7370
▁olayla	-7371
larımıza	-7372
▁fazlası	-7373
▁teklifi	-7374
▁politika	-7375
▁kalabalık	-7376
▁sistemine	-7377
▁öğrencileri	-7378
ors	-7379
▁01	-7380
kanın	-7381
▁Edir	-7382
▁erdi	-7383
▁ilde	-7384
▁katk	-7385
▁kayn	-7386
▁suçu	-7387
tuğrul	-7388
▁kanlı	-7389
▁tünel	-7390
▁dernek	-7391
▁ulaşan	-7392
▁gününde	-7393
▁yağışlı	-7394
▁şarkıcı	-7395
▁Bakanlık	-7396
▁karanlık	-7397
▁alanlarda	-7398
▁cezaevine	-7399
▁tecrübeli	-7400
▁değişikliği	-7401
▁işlemlerinin	-7402
-16	-7403
rin	-7404
land	-7405
lasik	-7406
abilmek	-7407
▁Karaca	-7408
▁Serkan	-7409
▁Zeynep	-7410
▁yolunu	-7411
▁başkent	-7412
▁sponsor	-7413
▁söyleye	-7414
▁Cerablus	-7415
▁geriledi	-7416
▁edilmişti	-7417
▁eşliğinde	-7418
▁saldırılar	-7419
▁rahatsızlık	-7420
▁saldırısında	-7421
▁istediklerini	-7422
▁Bro	-7423
▁Diz	-7424
▁ısı	-7425
▁kalb	-7426
▁muay	-7427
▁Fatma	-7428
▁Sarayı	-7429
▁geriye	-7430
▁gözden	-7431
▁fırsatı	-7432
▁saldırıyı	-7433
▁şirketlerin	-7434
ess	-7435
içi	-7436
line	-7437
çalı	-7438
▁Eli	-7439
▁Sınır	-7440
▁aleyh	-7441
▁yazık	-7442
▁konfer	-7443
▁bayrağı	-7444
▁belediy	-7445
▁demektir	-7446
▁dönemine	-7447
▁yürüttüğü	-7448
15	-7449
OS	-7450
kent	-7451
rama	-7452
ülme	-7453
▁50'	-7454
▁akl	-7455
▁eşy	-7456
▁fiş	-7457
▁ila	-7458
▁Çat	-7459
▁Hoca	-7460
▁Sına	-7461
▁serv	-7462
ğimizi	-7463
▁doğan	-7464
▁eline	-7465
▁sevgi	-7466
▁şeyin	-7467
▁doları	-7468
▁piyasa	-7469
▁sağlar	-7470
▁sürece	-7471
▁tribün	-7472
▁tüfeği	-7473
▁örgüte	-7474
masından	-7475
▁konuldu	-7476
▁inşallah	-7477
▁istasyon	-7478
▁yaşanıyor	-7479
▁örgütleri	-7480
▁bölgelerde	-7481
▁kaldırılan	-7482
▁mücadeleyi	-7483
▁hazırladığı	-7484
Dev	-7485
ell	-7486
▁tu	-7487
▁ım	-7488
▁Göç	-7489
▁TEM	-7490
abını	-7491
▁alev	-7492
▁Afgan	-7493
▁birey	-7494
▁kalem	-7495
▁kimin	-7496
▁zemin	-7497
▁Lisesi	-7498
lamaları	-7499
▁bölümde	-7500
▁böylece	-7501
▁koridor	-7502
▁kurduğu	-7503
▁bireysel	-7504
▁enfeksiyon	-7505
▁çevresinde	-7506
▁dakikalarda	-7507
-5	-7508
45	-7509
-25	-7510
ARA	-7511
ebe	-7512
▁fe	-7513
▁kov	-7514
▁cağı	-7515
▁Berat	-7516
▁Savcı	-7517
▁İşlet	-7518
▁analiz	-7519
▁haksız	-7520
▁zeytin	-7521
▁artışla	-7522
▁kalmadı	-7523
▁bölgenin	-7524
▁geçirmek	-7525
▁psikolojik	-7526
▁çalışmalarına	-7527
▁ov	-7528
▁ra	-7529
▁öv	-7530
▁İt	-7531
▁kala	-7532
▁Çocu	-7533
▁Ergen	-7534
▁yürek	-7535
▁Çevre	-7536
sağlığı	-7537
▁Tarihi	-7538
▁açıkça	-7539
▁ederim	-7540
▁karara	-7541
▁kaybol	-7542
▁konuyu	-7543
▁Parçalı	-7544
▁yılları	-7545
▁planlanan	-7546
▁başsağlığı	-7547
▁belirtiyor	-7548
▁görüntüleri	-7549
EY	-7550
▁Me	-7551
arım	-7552
▁Çam	-7553
▁katı	-7554
▁Ortak	-7555
▁lıyız	-7556
▁meden	-7557
▁rezer	-7558
▁sabit	-7559
▁tutum	-7560
▁kanaat	-7561
▁karşıtı	-7562
▁oynuyor	-7563
▁yolculu	-7564
▁başbakan	-7565
▁geldiğinde	-7566
▁getirilmesi	-7567
▁seviyesinde	-7568
BB	-7569
ht	-7570
api	-7571
ınç	-7572
▁05	-7573
ünce	-7574
▁Gal	-7575
▁dek	-7576
iyade	-7577
▁Araç	-7578
▁eğil	-7579
▁idam	-7580
▁Dolar	-7581
▁anlar	-7582
▁resim	-7583
▁tetik	-7584
▁Artvin	-7585
▁Edirne	-7586
▁Efendi	-7587
▁Gazete	-7588
▁hendek	-7589
▁ktadır	-7590
▁rakibi	-7591
▁geçerek	-7592
▁Ertuğrul	-7593
▁eleştiri	-7594
HAL	-7595
urta	-7596
▁700	-7597
▁Dal	-7598
▁Dep	-7599
▁Lim	-7600
▁Rab	-7601
▁Str	-7602
▁güz	-7603
▁tepe	-7604
▁09.00	-7605
▁duran	-7606
▁sabır	-7607
▁mahkum	-7608
▁söylen	-7609
▁Yabancı	-7610
▁gelince	-7611
▁kapattı	-7612
▁kararlı	-7613
▁komutan	-7614
▁mayacak	-7615
▁olaylar	-7616
▁Orgeneral	-7617
▁başlangıç	-7618
▁sistemini	-7619
▁çalışmaya	-7620
▁Portekizli	-7621
▁şirketleri	-7622
▁faaliyetleri	-7623
ord	-7624
▁73	-7625
▁çö	-7626
roid	-7627
usuz	-7628
▁1,5	-7629
▁BAŞ	-7630
▁Kes	-7631
latma	-7632
▁Dest	-7633
▁denk	-7634
▁hali	-7635
arlığı	-7636
▁diler	-7637
▁sevin	-7638
dığımız	-7639
▁atarak	-7640
▁sitesi	-7641
▁yazarı	-7642
▁duruyor	-7643
▁kanseri	-7644
ıldığında	-7645
▁soruları	-7646
▁yetersiz	-7647
▁kararının	-7648
▁taraftarlar	-7649
ÜK	-7650
ife	-7651
▁TC	-7652
ağıt	-7653
▁Fir	-7654
▁Sun	-7655
▁Zar	-7656
▁Çor	-7657
lobal	-7658
▁Ağbal	-7659
▁Muhar	-7660
▁evlen	-7661
▁zafer	-7662
▁ücreti	-7663
▁Medipol	-7664
▁Telekom	-7665
▁musunuz	-7666
▁yitirdi	-7667
▁bölgesel	-7668
▁kapsamlı	-7669
▁kontrolü	-7670
▁mutluluk	-7671
▁vitamini	-7672
▁sitesinde	-7673
▁gönderdiği	-7674
▁gazetecilerin	-7675
GS	-7676
gat	-7677
vel	-7678
öre	-7679
▁yu	-7680
▁öt	-7681
esma	-7682
İHAN	-7683
▁Zey	-7684
▁dum	-7685
▁mec	-7686
tekin	-7687
▁oper	-7688
▁uyum	-7689
ayacak	-7690
elidir	-7691
ıntılı	-7692
▁Geliş	-7693
▁sordu	-7694
▁suçlu	-7695
▁Çiçek	-7696
▁Fernan	-7697
▁ismini	-7698
▁kurmak	-7699
▁vadeli	-7700
▁alışkan	-7701
▁düşünce	-7702
▁görünce	-7703
▁ülkeden	-7704
▁hayatına	-7705
▁hakkındaki	-7706
iba	-7707
▁kâ	-7708
eron	-7709
▁192	-7710
▁TRT	-7711
▁fer	-7712
▁şük	-7713
▁Adam	-7714
▁lığa	-7715
▁şiir	-7716
▁Muğla	-7717
▁Tören	-7718
▁arazi	-7719
▁sürük	-7720
▁taksi	-7721
▁yaşat	-7722
atistik	-7723
▁saatte	-7724
▁araçlar	-7725
▁kalması	-7726
▁tarihli	-7727
▁çekilen	-7728
▁egzersiz	-7729
▁polisler	-7730
▁transferi	-7731
İLİ	-7732
▁Mir	-7733
▁Pol	-7734
▁ert	-7735
ruklu	-7736
▁Katar	-7737
▁Yenik	-7738
▁geçer	-7739
▁gidiş	-7740
▁köken	-7741
▁roman	-7742
uaresma	-7743
▁izleyi	-7744
▁kriter	-7745
▁yılına	-7746
▁yapmayı	-7747
▁Astsubay	-7748
▁bazıları	-7749
▁fiziksel	-7750
▁haberler	-7751
▁isimleri	-7752
▁kuruluşu	-7753
▁kültürel	-7754
▁İstiklal	-7755
▁istikamet	-7756
▁Önümüzdeki	-7757
▁gazetecilere	-7758
▁değerlendiren	-7759
UZ	-7760
ood	-7761
▁71	-7762
▁74	-7763
devu	-7764
▁Min	-7765
▁mir	-7766
okulu	-7767
▁Bing	-7768
▁Darb	-7769
▁hadi	-7770
▁ayına	-7771
▁Toplam	-7772
▁Uzmanı	-7773
▁atıyor	-7774
▁lardır	-7775
layacağı	-7776
▁Dairesi	-7777
▁Sistemi	-7778
▁dediler	-7779
▁düştüğü	-7780
▁edeceği	-7781
▁kararın	-7782
▁gelişmiş	-7783
▁yürürlüğe	-7784
▁öncelikle	-7785
▁önlemleri	-7786
▁tutuklanan	-7787
▁aldıklarını	-7788
▁89	-7789
tüel	-7790
▁20.	-7791
▁Kut	-7792
▁Mut	-7793
▁Mül	-7794
▁Sak	-7795
▁Kamp	-7796
▁Rize	-7797
▁sesi	-7798
▁şikâ	-7799
etleme	-7800
▁Kadir	-7801
▁Neden	-7802
▁Tesis	-7803
▁alçak	-7804
▁bahar	-7805
▁okula	-7806
▁etmedi	-7807
▁hayati	-7808
▁kayyum	-7809
▁sanatç	-7810
▁ulaşım	-7811
▁Kızılay	-7812
▁alınmış	-7813
▁istenen	-7814
▁pasapor	-7815
▁sezonun	-7816
▁vermedi	-7817
▁başlıklı	-7818
▁çalışmak	-7819
▁Demokrasi	-7820
▁aylarında	-7821
▁başlaması	-7822
▁saldırıya	-7823
▁alındığını	-7824
▁mücadelenin	-7825
▁araştırmalar	-7826
▁vatandaşları	-7827
▁milletvekilleri	-7828
yl	-7829
ezz	-7830
▁!"	-7831
ende	-7832
▁SGK	-7833
▁Tuz	-7834
▁güm	-7835
▁Önc	-7836
▁izni	-7837
▁ödey	-7838
▁özen	-7839
luluğu	-7840
▁Biden	-7841
▁Medya	-7842
▁Muhal	-7843
▁Tosun	-7844
▁imkân	-7845
▁zehir	-7846
▁Doktor	-7847
▁uzmanı	-7848
▁Çaykur	-7849
▁görünüm	-7850
▁incelen	-7851
▁Quaresma	-7852
▁cezasına	-7853
▁müttefik	-7854
ladıklarını	-7855
▁askerlerin	-7856
▁temsilcileri	-7857
bor	-7858
zığ	-7859
▁VE	-7860
emli	-7861
▁Bos	-7862
▁aya	-7863
▁Şiş	-7864
tirme	-7865
ğunun	-7866
▁araz	-7867
▁blok	-7868
▁kons	-7869
▁okuma	-7870
▁plana	-7871
stagram	-7872
▁Bugüne	-7873
▁Elazığ	-7874
▁gazete	-7875
▁oyunun	-7876
▁artıyor	-7877
▁belirli	-7878
▁binanın	-7879
▁içinden	-7880
▁savundu	-7881
▁yapılır	-7882
▁larımıza	-7883
▁istemiyor	-7884
▁vuruşunda	-7885
▁karşılıklı	-7886
▁çalıştığını	-7887
ros	-7888
yken	-7889
immet	-7890
▁türk	-7891
▁özür	-7892
▁ithal	-7893
▁kalır	-7894
▁landı	-7895
▁somut	-7896
▁Kanada	-7897
▁Levent	-7898
▁görsel	-7899
▁lezzet	-7900
▁tanesi	-7901
emeyecek	-7902
▁Projesi	-7903
▁bekleme	-7904
▁bildiği	-7905
▁geçtiği	-7906
▁müşteri	-7907
▁yenilik	-7908
▁ayakkabı	-7909
▁yakalanan	-7910
▁olduğundan	-7911
▁oyuncuları	-7912
▁gerçekleştiren	-7913
DHA	-7914
osa	-7915
▁83	-7916
▁9,	-7917
ğeri	-7918
▁Dis	-7919
▁Göl	-7920
▁Hız	-7921
▁Müş	-7922
dıran	-7923
▁Bize	-7924
▁amir	-7925
▁kale	-7926
▁müte	-7927
Devlet	-7928
▁Konut	-7929
▁günün	-7930
▁topar	-7931
▁Bölümü	-7932
▁bulmak	-7933
▁eşinin	-7934
▁Muhammet	-7935
▁muhteşem	-7936
▁durumunun	-7937
▁sürecinin	-7938
▁Büyükelçisi	-7939
▁güvenliğini	-7940
▁FI	-7941
elçi	-7942
ısal	-7943
▁Ruh	-7944
▁fen	-7945
▁çel	-7946
emmel	-7947
▁lise	-7948
▁Hedef	-7949
▁devir	-7950
▁vücud	-7951
▁yeten	-7952
▁çekim	-7953
▁Petrol	-7954
▁artışı	-7955
▁erişim	-7956
▁gözler	-7957
▁açıklan	-7958
▁gerekse	-7959
▁ilçesine	-7960
▁kurtarma	-7961
▁İspanyol	-7962
▁sahipliği	-7963
▁İngilizce	-7964
▁kullanıldı	-7965
OĞ	-7966
nuv	-7967
obi	-7968
ody	-7969
beti	-7970
onun	-7971
▁leh	-7972
ayeti	-7973
▁amac	-7974
▁anti	-7975
▁kump	-7976
▁meme	-7977
▁seri	-7978
üldüğü	-7979
▁Adnan	-7980
▁Hanım	-7981
▁Münih	-7982
▁Sahil	-7983
▁elini	-7984
▁şahit	-7985
▁cağını	-7986
▁görünt	-7987
▁ailenin	-7988
▁gerçeği	-7989
▁uyruklu	-7990
▁Birleşik	-7991
▁babasının	-7992
▁iddiaları	-7993
▁kullanıla	-7994
▁durumlarda	-7995
BC	-7996
hiş	-7997
tın	-7998
yat	-7999
▁Sez	-8000
▁Sim	-8001
▁ley	-8002
▁tit	-8003
▁Adil	-8004
▁Avuk	-8005
▁otor	-8006
▁Camii	-8007
▁evden	-8008
▁parça	-8009
▁cevabı	-8010
▁kadını	-8011
▁2016-03	-8012
▁Android	-8013
▁Tunceli	-8014
▁azından	-8015
▁buluyor	-8016
▁bunlara	-8017
▁dağıtım	-8018
▁hayatta	-8019
▁kesinti	-8020
▁partisi	-8021
▁İhracat	-8022
▁dördüncü	-8023
▁oluşuyor	-8024
▁vermişti	-8025
▁araçların	-8026
▁istemiyle	-8027
▁geleneksel	-8028
▁yayınlandı	-8029
bah	-8030
jen	-8031
▁LI	-8032
▁To	-8033
dışı	-8034
▁14.	-8035
▁AVM	-8036
▁Fed	-8037
▁Yağ	-8038
▁ört	-8039
▁Gala	-8040
▁ikin	-8041
▁kayd	-8042
▁Kaçak	-8043
▁Kerry	-8044
▁imamı	-8045
▁sebze	-8046
▁Öksüz	-8047
▁çadır	-8048
▁masaya	-8049
▁gönüllü	-8050
▁tehlike	-8051
▁adlandır	-8052
▁yararlan	-8053
▁taraftarı	-8054
▁çocuklara	-8055
▁otomobilin	-8056
▁milyonlarca	-8057
▁oluşturuyor	-8058
omp	-8059
▁ER	-8060
▁Som	-8061
diven	-8062
çiler	-8063
▁Mert	-8064
▁emir	-8065
▁iktid	-8066
▁kıyas	-8067
▁redde	-8068
▁Mevlüt	-8069
▁baskın	-8070
▁geçmek	-8071
▁ihbarı	-8072
▁lerdir	-8073
▁raporu	-8074
▁çıkara	-8075
▁ayrıntı	-8076
▁değiliz	-8077
▁onlarca	-8078
▁kişilere	-8079
▁piyasaya	-8080
▁edilirken	-8081
▁şirketler	-8082
▁düzenleyen	-8083
▁verilerine	-8084
▁düşünüyoruz	-8085
▁Cumhuriyetçi	-8086
▁MÜ	-8087
oter	-8088
▁inf	-8089
▁Star	-8090
▁evli	-8091
▁Özer	-8092
▁Ercan	-8093
▁galip	-8094
▁ondan	-8095
▁şebek	-8096
▁bizzat	-8097
▁forvet	-8098
▁renkli	-8099
▁yoluna	-8100
▁artması	-8101
▁suikast	-8102
▁öldürdü	-8103
▁projenin	-8104
▁Gözaltına	-8105
▁oluşturduğu	-8106
▁hazırlanıyor	-8107
SA	-8108
ks	-8109
xy	-8110
yiz	-8111
berg	-8112
▁ine	-8113
▁kaşı	-8114
▁manz	-8115
▁çizg	-8116
▁Celal	-8117
▁Konuş	-8118
▁ayrım	-8119
▁bahse	-8120
▁Kapalı	-8121
▁dizisi	-8122
▁yorlar	-8123
▁Taraftar	-8124
▁başlandı	-8125
▁festival	-8126
▁hareketi	-8127
▁söylemek	-8128
▁etmektedir	-8129
▁mensupları	-8130
▁uygulamaya	-8131
uza	-8132
▁Mit	-8133
▁coş	-8134
▁tey	-8135
▁vah	-8136
yasal	-8137
▁derg	-8138
▁kira	-8139
▁seni	-8140
▁intik	-8141
▁kaygı	-8142
▁lerdi	-8143
▁Kazada	-8144
▁Marmar	-8145
▁zamanla	-8146
▁çekildi	-8147
▁araçları	-8148
▁projeler	-8149
▁sektörün	-8150
▁seviyede	-8151
▁yakaladı	-8152
▁dışındaki	-8153
▁katılımcı	-8154
▁sağladığı	-8155
Her	-8156
▁82	-8157
.000	-8158
▁müj	-8159
halat	-8160
akende	-8161
▁Vakıf	-8162
▁kurdu	-8163
▁konuya	-8164
▁rejimi	-8165
▁etmiyor	-8166
▁referan	-8167
▁çektiği	-8168
▁Muharrem	-8169
▁giderken	-8170
▁sürdüren	-8171
▁ülkelere	-8172
▁dünyasının	-8173
▁sektörünün	-8174
NA	-8175
TE	-8176
▁(5	-8177
▁5-	-8178
▁Yi	-8179
olog	-8180
▁Coş	-8181
▁Hik	-8182
▁Mot	-8183
▁yem	-8184
▁2006	-8185
▁Akıl	-8186
▁Körf	-8187
▁diyal	-8188
▁dönük	-8189
cılığın	-8190
▁Akadem	-8191
▁Müsteş	-8192
▁kazanç	-8193
▁reddet	-8194
▁Zirvesi	-8195
▁doğumlu	-8196
▁hizmete	-8197
▁kilogram	-8198
▁sürücüsü	-8199
▁Olimpiyat	-8200
▁getirerek	-8201
▁olanların	-8202
▁olmasının	-8203
▁seviyesine	-8204
▁neticesinde	-8205
▁gerekmektedir	-8206
göz	-8207
▁Ba	-8208
okol	-8209
yaka	-8210
▁15'	-8211
▁2.5	-8212
lamaz	-8213
▁bütç	-8214
▁horm	-8215
▁indi	-8216
▁menf	-8217
▁utan	-8218
▁Tekin	-8219
▁Tutuk	-8220
▁boyun	-8221
▁fatur	-8222
▁ndaki	-8223
▁Özcan	-8224
▁anında	-8225
▁finale	-8226
▁girmek	-8227
▁kadına	-8228
▁kalkış	-8229
▁müdürü	-8230
▁ortağı	-8231
▁tebrik	-8232
▁değilim	-8233
▁izleyen	-8234
▁takımda	-8235
▁Avustral	-8236
▁bankalar	-8237
▁duygusal	-8238
▁konumunda	-8239
▁yakalanması	-8240
dr	-8241
▁61	-8242
▁1-1	-8243
attin	-8244
inema	-8245
▁Gece	-8246
▁Turg	-8247
▁kaya	-8248
▁satı	-8249
▁ufak	-8250
▁İkti	-8251
▁ayağa	-8252
▁belge	-8253
▁falan	-8254
▁golle	-8255
▁hattı	-8256
▁mağaz	-8257
▁Bingöl	-8258
▁araçla	-8259
▁basına	-8260
▁bonser	-8261
▁rezerv	-8262
▁töreni	-8263
▁zırhlı	-8264
▁olduğum	-8265
▁sunulan	-8266
▁açılması	-8267
▁haftanın	-8268
▁kazanmak	-8269
▁sistemin	-8270
▁emeklilik	-8271
▁haberleri	-8272
▁dönemlerde	-8273
▁potansiyel	-8274
▁yıllarında	-8275
▁yakınlarında	-8276
und	-8277
▁Hu	-8278
▁İŞ	-8279
mece	-8280
▁2,9	-8281
▁Ola	-8282
▁duk	-8283
▁yse	-8284
▁İLG	-8285
▁2003	-8286
▁Oyun	-8287
▁bini	-8288
▁doku	-8289
muştur	-8290
▁Pınar	-8291
▁aldım	-8292
▁komut	-8293
▁Batman	-8294
▁Geçmiş	-8295
▁şahsın	-8296
▁kendimi	-8297
▁ürünler	-8298
▁şehidin	-8299
▁tamamlan	-8300
▁tansiyon	-8301
▁çıkarmak	-8302
▁Ulaştırma	-8303
▁ettiğimiz	-8304
▁gönderilen	-8305
▁vatandaşın	-8306
fe	-8307
çay	-8308
▁84	-8309
▁86	-8310
ABER	-8311
▁Dok	-8312
▁biy	-8313
▁laf	-8314
▁yiy	-8315
ndaki	-8316
▁hükm	-8317
▁Çank	-8318
gulama	-8319
yacağı	-8320
▁Kamer	-8321
▁Polat	-8322
▁büyüt	-8323
▁kasab	-8324
▁ligin	-8325
▁Asayiş	-8326
▁harika	-8327
▁söndür	-8328
▁sınırı	-8329
▁günleri	-8330
▁Direktör	-8331
▁askerler	-8332
▁bilimsel	-8333
▁buluştur	-8334
▁otomotiv	-8335
▁bilmiyorum	-8336
▁futbolcunun	-8337
▁yaşadıkları	-8338
▁çalışmalarının	-8339
Bur	-8340
▁Ec	-8341
▁SU	-8342
ator	-8343
isar	-8344
lıca	-8345
▁1.2	-8346
▁13.	-8347
atörü	-8348
uştuk	-8349
▁Para	-8350
▁akın	-8351
▁sars	-8352
▁Başar	-8353
▁aydır	-8354
▁oraya	-8355
▁Gümrük	-8356
▁tarihe	-8357
▁üzüntü	-8358
ulduğunu	-8359
▁Birinci	-8360
▁Hakları	-8361
▁ayrılma	-8362
▁Üstelik	-8363
▁Yönetimi	-8364
▁başlamış	-8365
▁yolculuk	-8366
▁İnternet	-8367
▁hızlandır	-8368
▁metrekare	-8369
▁saatlerde	-8370
▁yanıtladı	-8371
▁kaynakları	-8372
▁görevlileri	-8373
Al	-8374
çü	-8375
pat	-8376
sem	-8377
▁Gi	-8378
▁Lİ	-8379
▁eh	-8380
ganı	-8381
vili	-8382
▁Nap	-8383
▁Net	-8384
▁Onu	-8385
▁küt	-8386
▁2004	-8387
▁Alex	-8388
▁sanı	-8389
▁Güler	-8390
▁apart	-8391
▁iftir	-8392
▁yakıt	-8393
▁çiçek	-8394
▁arayan	-8395
▁böbrek	-8396
▁pahalı	-8397
▁patlat	-8398
▁tasarı	-8399
▁Dünyada	-8400
▁Elektrik	-8401
▁Yenikapı	-8402
▁genişlet	-8403
▁istemedi	-8404
▁kararına	-8405
▁partinin	-8406
▁piyasada	-8407
▁sayısını	-8408
▁şartları	-8409
▁Yüksekova	-8410
▁dünyadaki	-8411
▁oluşturdu	-8412
▁yarısında	-8413
▁zamanında	-8414
abilirsiniz	-8415
▁bünyesinde	-8416
▁verdikleri	-8417
UK	-8418
:30	-8419
diy	-8420
gur	-8421
kon	-8422
▁öp	-8423
▁Def	-8424
▁Jam	-8425
▁MİL	-8426
▁Saf	-8427
▁bot	-8428
▁eli	-8429
irkin	-8430
▁OHAL	-8431
▁Zeki	-8432
▁Daire	-8433
▁Sabri	-8434
▁hücum	-8435
▁ihmal	-8436
▁iyice	-8437
▁Teşkil	-8438
▁eleman	-8439
▁Harekat	-8440
▁sisteme	-8441
▁bulunmak	-8442
▁bölgeler	-8443
▁maliyeti	-8444
▁Peygamber	-8445
▁kendileri	-8446
▁temsilciler	-8447
OM	-8448
TL	-8449
anta	-8450
iter	-8451
▁Acı	-8452
▁Del	-8453
▁Kem	-8454
▁Nor	-8455
▁Tük	-8456
lıkta	-8457
▁Esra	-8458
etleri	-8459
ımızda	-8460
▁Messi	-8461
▁Satış	-8462
▁Tatlı	-8463
▁masum	-8464
▁sanki	-8465
▁yordu	-8466
ileceği	-8467
likleri	-8468
▁Galaxy	-8469
▁eylemi	-8470
▁harcam	-8471
▁lisans	-8472
▁çekici	-8473
▁Diyanet	-8474
▁herkesi	-8475
▁kökenli	-8476
▁sürecek	-8477
▁çapında	-8478
▁maçlarda	-8479
▁tarihine	-8480
▁dayanışma	-8481
▁ilerleyen	-8482
ses	-8483
önü	-8484
ekon	-8485
iyim	-8486
▁Ağr	-8487
▁bet	-8488
▁van	-8489
▁konv	-8490
▁şeye	-8491
▁Atlet	-8492
▁Görev	-8493
▁HABER	-8494
▁kahve	-8495
▁layık	-8496
oroloji	-8497
▁evinin	-8498
▁masraf	-8499
▁maçını	-8500
▁tamamı	-8501
ülebilir	-8502
▁hayırlı	-8503
▁yetenek	-8504
▁belirsiz	-8505
▁sıralama	-8506
▁toplamda	-8507
▁biliyorum	-8508
▁takımının	-8509
▁çalışırken	-8510
TA	-8511
vil	-8512
▁SP	-8513
ahür	-8514
veni	-8515
dikal	-8516
ayarak	-8517
ediyor	-8518
▁Angel	-8519
▁kelim	-8520
▁kurma	-8521
▁zorla	-8522
▁şehri	-8523
ilerine	-8524
▁Trafik	-8525
▁ağrısı	-8526
▁filmin	-8527
▁ilgisi	-8528
▁davanın	-8529
▁isterim	-8530
▁kayıtlı	-8531
▁yönetici	-8532
▁Karşıyaka	-8533
▁katılacak	-8534
▁konuşmasında	-8535
Ak	-8536
cir	-8537
▁Ra	-8538
dini	-8539
▁Nit	-8540
▁mon	-8541
ındık	-8542
▁"...	-8543
▁ilti	-8544
▁pank	-8545
▁vası	-8546
▁Şeri	-8547
▁Macar	-8548
▁Podol	-8549
▁bakın	-8550
▁mesle	-8551
▁mizle	-8552
▁adıyla	-8553
▁aksine	-8554
▁dayalı	-8555
▁tezahür	-8556
▁Bakırköy	-8557
▁Kalkınma	-8558
▁çıkarken	-8559
▁getirecek	-8560
▁göstermek	-8561
▁tarafında	-8562
▁ekiplerine	-8563
pe	-8564
Rus	-8565
iro	-8566
unt	-8567
luğa	-8568
▁15.	-8569
▁bec	-8570
▁koc	-8571
▁loj	-8572
▁yın	-8573
eride	-8574
tifak	-8575
▁Akif	-8576
▁eriş	-8577
▁kitl	-8578
▁okur	-8579
▁sorg	-8580
▁usta	-8581
▁ordus	-8582
▁şoför	-8583
leşmesi	-8584
▁Kongre	-8585
▁gücünü	-8586
▁landır	-8587
▁müthiş	-8588
▁nefret	-8589
▁taziye	-8590
▁yaptım	-8591
▁çıktık	-8592
madığını	-8593
▁Saldırı	-8594
▁altının	-8595
▁düşünen	-8596
▁olsaydı	-8597
▁tabanca	-8598
▁uyarısı	-8599
▁yolları	-8600
duklarını	-8601
▁Podolski	-8602
▁alanları	-8603
▁ikramiye	-8604
▁mahkemece	-8605
▁gayrimenkul	-8606
▁hastalıkları	-8607
▁değerlendirdi	-8608
CE	-8609
ja	-8610
ica	-8611
▁eb	-8612
jans	-8613
▁Doç	-8614
dinde	-8615
▁Musa	-8616
▁bors	-8617
▁mart	-8618
▁sarf	-8619
amayan	-8620
▁Engin	-8621
▁Erdal	-8622
▁Selah	-8623
▁borcu	-8624
▁dedik	-8625
▁dönüm	-8626
▁feder	-8627
▁inanç	-8628
▁motiv	-8629
▁Çukur	-8630
▁ödülü	-8631
▁Enstit	-8632
▁çekmek	-8633
▁faydalı	-8634
▁giriyor	-8635
▁işsizlik	-8636
▁kimyasal	-8637
▁açıklayan	-8638
▁biliniyor	-8639
▁kararları	-8640
▁suretiyle	-8641
▁veriliyor	-8642
▁geleceğini	-8643
▁uygulanacak	-8644
yL	-8645
oks	-8646
ğüs	-8647
▁Op	-8648
asus	-8649
▁Duy	-8650
▁Küb	-8651
▁War	-8652
▁ayn	-8653
▁idi	-8654
▁lis	-8655
▁tüp	-8656
▁hemş	-8657
ilerde	-8658
çileri	-8659
▁mıştı	-8660
▁saati	-8661
▁İlhan	-8662
luğunda	-8663
▁yorgun	-8664
▁sahneye	-8665
▁sağlama	-8666
▁trafiğe	-8667
▁kazandığı	-8668
▁korunması	-8669
▁veriyoruz	-8670
▁hatırlattı	-8671
▁listesinde	-8672
▁açıklamasını	-8673
▁karşılaşmada	-8674
SG	-8675
unç	-8676
üyü	-8677
▁Bö	-8678
atay	-8679
okul	-8680
▁Pal	-8681
▁kül	-8682
▁unu	-8683
yLock	-8684
▁Ağrı	-8685
▁borc	-8686
▁moda	-8687
alandı	-8688
▁hariç	-8689
▁ikisi	-8690
liğiyle	-8691
▁Müzesi	-8692
▁altyap	-8693
▁bilece	-8694
▁hırsız	-8695
▁sinyal	-8696
▁Bölgede	-8697
▁denilen	-8698
▁iddiası	-8699
▁terörün	-8700
▁çıkarma	-8701
bilirsiniz	-8702
ebilirsiniz	-8703
▁aşamasında	-8704
▁edilebilir	-8705
LU	-8706
▁99	-8707
▁op	-8708
▁16.	-8709
▁21.	-8710
▁zek	-8711
▁zul	-8712
▁Otel	-8713
▁etik	-8714
▁mezh	-8715
▁müsa	-8716
▁Şark	-8717
alarca	-8718
▁Fuarı	-8719
▁moral	-8720
▁grubun	-8721
▁işleri	-8722
▁kalmak	-8723
▁maçına	-8724
▁tarafı	-8725
▁bakıyor	-8726
▁detaylı	-8727
▁yumurta	-8728
▁berabere	-8729
▁büyüklüğ	-8730
▁ifadeler	-8731
▁ziyareti	-8732
▁beklediği	-8733
▁finansman	-8734
▁karşılığı	-8735
▁personeli	-8736
▁verildiği	-8737
▁bankacılık	-8738
▁desteğiyle	-8739
▁oyuncuların	-8740
Ek	-8741
ww	-8742
kol	-8743
▁Du	-8744
▁Ju	-8745
ülük	-8746
▁19.	-8747
▁Lok	-8748
▁toz	-8749
▁Fark	-8750
▁tahr	-8751
▁Ülke	-8752
▁ömür	-8753
▁Değer	-8754
▁Proje	-8755
▁aradı	-8756
▁ayağı	-8757
▁durdu	-8758
▁hitap	-8759
▁kenti	-8760
▁küfür	-8761
parator	-8762
▁Camisi	-8763
▁Destek	-8764
▁Bununla	-8765
▁gelişen	-8766
▁siyasal	-8767
▁Kadınlar	-8768
▁artırmak	-8769
▁olmaları	-8770
▁yuvarlak	-8771
▁görüşmede	-8772
oni	-8773
▁17.	-8774
▁18.	-8775
▁Şii	-8776
unlar	-8777
▁avro	-8778
▁turu	-8779
▁bitki	-8780
▁işten	-8781
▁sunan	-8782
▁yüküm	-8783
Ekonomi	-8784
▁Silopi	-8785
▁mağlub	-8786
▁İLGİLİ	-8787
▁Onların	-8788
▁olmasın	-8789
▁Ekonomik	-8790
▁Organize	-8791
▁sürecini	-8792
▁Tesisleri	-8793
▁anlaşmaya	-8794
▁cumartesi	-8795
▁Tuğgeneral	-8796
▁kararlılık	-8797
▁söylüyorum	-8798
▁Meteoroloji	-8799
▁birbirinden	-8800
▁suçlarından	-8801
▁uygulamaları	-8802
Ne	-8803
hu	-8804
tip	-8805
▁ec	-8806
ACAK	-8807
amam	-8808
lera	-8809
obot	-8810
▁Cün	-8811
▁luk	-8812
▁ysa	-8813
▁zem	-8814
.2016	-8815
▁Kars	-8816
▁etap	-8817
▁madı	-8818
jantin	-8819
▁Abdul	-8820
▁adamın	-8821
▁davada	-8822
▁ekrana	-8823
▁filmde	-8824
▁lirayı	-8825
▁oluşum	-8826
▁sayede	-8827
▁Önceki	-8828
▁Muslera	-8829
▁randevu	-8830
▁şikâyet	-8831
▁Arjantin	-8832
▁Komitesi	-8833
▁anlaşması	-8834
▁öldürülen	-8835
▁şikayetçi	-8836
▁propaganda	-8837
▁şüphelilerin	-8838
+1	-8839
▁Hz	-8840
İYOR	-8841
▁Kiş	-8842
▁kuz	-8843
▁kör	-8844
vanya	-8845
▁Adem	-8846
▁Yolu	-8847
▁port	-8848
iminde	-8849
▁görür	-8850
▁muhat	-8851
▁okudu	-8852
▁Özkan	-8853
▁Avukat	-8854
▁Martin	-8855
▁denize	-8856
▁askerin	-8857
▁eğlence	-8858
▁mekaniz	-8859
▁savunan	-8860
▁sözcüsü	-8861
▁Avrupalı	-8862
▁Suçlarla	-8863
▁teşkilat	-8864
▁açıklanan	-8865
▁projeleri	-8866
▁görüntüler	-8867
▁yöneticisi	-8868
ÜZ	-8869
enn	-8870
eydi	-8871
keli	-8872
▁çor	-8873
ezzin	-8874
seniz	-8875
▁Dört	-8876
▁alar	-8877
▁mide	-8878
▁2015"	-8879
▁etmez	-8880
▁golcü	-8881
▁husus	-8882
lilerin	-8883
▁duyuru	-8884
▁kitabı	-8885
▁verdim	-8886
▁gözyaşı	-8887
▁meyecek	-8888
▁İddiaya	-8889
▁planlıyor	-8890
▁karşılaştı	-8891
▁sitesinden	-8892
▁yapacağını	-8893
▁beraberinde	-8894
▁tartışmalar	-8895
▁muhaliflerin	-8896
aban	-8897
▁Ata	-8898
▁Giz	-8899
imini	-8900
▁ters	-8901
▁David	-8902
▁Kimse	-8903
▁Kitap	-8904
▁Mutlu	-8905
▁gözük	-8906
▁kısım	-8907
▁sekiz	-8908
▁bizden	-8909
▁koltuk	-8910
▁sözler	-8911
▁çektir	-8912
▁Beyoğlu	-8913
▁Elbette	-8914
▁duyduğu	-8915
▁düşüyor	-8916
▁varlığı	-8917
▁restoran	-8918
▁İddianam	-8919
▁anlaşıldı	-8920
▁isimlerin	-8921
▁töreninde	-8922
▁çıkardığı	-8923
▁Temsilcisi	-8924
▁baktığımız	-8925
▁yardımıyla	-8926
▁açıklamıştı	-8927
▁konusundaki	-8928
▁programında	-8929
▁kullanılması	-8930
▁vatandaşlara	-8931
ang	-8932
tiy	-8933
▁Je	-8934
▁Eto	-8935
▁Kel	-8936
▁Lib	-8937
▁Mis	-8938
▁yel	-8939
▁dans	-8940
▁özgü	-8941
▁hücre	-8942
▁liman	-8943
▁satır	-8944
▁yolun	-8945
▁Kurban	-8946
▁karbon	-8947
▁mesele	-8948
▁taşıdı	-8949
▁öldüğü	-8950
▁Sabancı	-8951
▁alakalı	-8952
▁ithalat	-8953
▁saatlik	-8954
▁çekiliş	-8955
▁edilemez	-8956
▁ilişkisi	-8957
▁Instagram	-8958
▁paylaştığı	-8959
▁şeklindeki	-8960
▁87	-8961
itif	-8962
weet	-8963
▁Con	-8964
▁Diş	-8965
▁Win	-8966
▁YAP	-8967
▁kum	-8968
▁nas	-8969
▁uyu	-8970
Bugün	-8971
▁Mavi	-8972
▁Tepe	-8973
▁komp	-8974
▁Ersoy	-8975
▁Mesut	-8976
▁Nihat	-8977
▁Yiğit	-8978
▁İdman	-8979
▁Bulgar	-8980
▁Ordusu	-8981
▁aranan	-8982
▁içecek	-8983
▁mecbur	-8984
▁ülkesi	-8985
amayacak	-8986
▁ertelen	-8987
▁girmesi	-8988
▁karışık	-8989
▁peşinde	-8990
▁sürecin	-8991
▁sürüldü	-8992
▁çıkmaya	-8993
▁Şehidin	-8994
▁dışarıda	-8995
▁mükemmel	-8996
▁sayısında	-8997
▁gazeteciler	-8998
OT	-8999
ASI	-9000
uel	-9001
▁Mc	-9002
lağı	-9003
ırım	-9004
▁por	-9005
▁tap	-9006
tırma	-9007
▁2005	-9008
▁FIFA	-9009
▁ceph	-9010
▁karn	-9011
▁kazı	-9012
▁kupa	-9013
▁uydu	-9014
▁Cemal	-9015
▁Müzik	-9016
▁Piyan	-9017
▁anket	-9018
▁lanet	-9019
▁sergi	-9020
▁yaşta	-9021
▁Napoli	-9022
▁kentin	-9023
▁kentte	-9024
▁soruya	-9025
▁yüzünü	-9026
▁gençler	-9027
▁olmuyor	-9028
▁oynamak	-9029
▁oğlunun	-9030
▁Hastalık	-9031
▁altından	-9032
▁etkisini	-9033
▁pasaport	-9034
▁Enstitüsü	-9035
▁ellerinde	-9036
▁gittiğini	-9037
▁Avustralya	-9038
▁isteyenler	-9039
▁olabilecek	-9040
dün	-9041
mos	-9042
▁30'	-9043
▁tad	-9044
▁Şer	-9045
▁verg	-9046
▁Borsa	-9047
▁Terzi	-9048
▁idman	-9049
▁robot	-9050
▁ilçede	-9051
▁kanalı	-9052
▁mizden	-9053
▁söyler	-9054
▁Sigorta	-9055
▁bulduğu	-9056
▁değişti	-9057
▁yaşamak	-9058
▁çıkaran	-9059
▁Boğaziçi	-9060
▁etmiştir	-9061
▁şehitler	-9062
▁bunlardan	-9063
▁güçlerine	-9064
▁oynayacağı	-9065
▁girişiminde	-9066
▁Şampiyonası	-9067
ack	-9068
sis	-9069
▁03	-9070
▁He	-9071
ates	-9072
gazi	-9073
ifor	-9074
▁Aky	-9075
▁Gay	-9076
▁Keş	-9077
▁Seb	-9078
▁Sün	-9079
▁Tes	-9080
▁Wil	-9081
denin	-9082
lamen	-9083
▁Ebru	-9084
▁Rıza	-9085
▁olas	-9086
▁İmam	-9087
▁Gelen	-9088
▁Yerli	-9089
▁Zafer	-9090
▁kızın	-9091
▁nızın	-9092
▁stres	-9093
▁subay	-9094
▁yakış	-9095
▁yazan	-9096
▁Hazine	-9097
▁birine	-9098
▁efsane	-9099
▁geliri	-9100
▁nereye	-9101
▁otopsi	-9102
▁uyumlu	-9103
elilerin	-9104
▁Koordin	-9105
▁doların	-9106
▁geçmesi	-9107
▁madalya	-9108
▁muayene	-9109
▁kaliteli	-9110
▁metrekar	-9111
▁protokol	-9112
▁üretilen	-9113
▁basketbol	-9114
▁kesintisi	-9115
▁bilinmeyen	-9116
▁nitelendir	-9117
▁CI	-9118
▁KD	-9119
▁bi	-9120
ezya	-9121
ilip	-9122
rafi	-9123
▁90'	-9124
▁Rek	-9125
▁ırk	-9126
ilmez	-9127
ksiyon	-9128
▁Bayer	-9129
▁etken	-9130
▁siber	-9131
▁tanın	-9132
▁Şener	-9133
▁Akıncı	-9134
▁Cüneyt	-9135
▁beslen	-9136
▁şehrin	-9137
asındaki	-9138
İstanbul	-9139
▁Federal	-9140
▁dönüştü	-9141
▁dünyası	-9142
▁gerekçe	-9143
▁kararlar	-9144
▁yapmıştı	-9145
▁etrafında	-9146
▁geçtiğini	-9147
▁konuşuyor	-9148
▁talebinde	-9149
▁yolsuzluk	-9150
▁göstererek	-9151
▁ülkelerine	-9152
▁görüşmeleri	-9153
▁iddianamede	-9154
▁yöneticileri	-9155
eck	-9156
▁kli	-9157
▁İlç	-9158
üneli	-9159
▁Cans	-9160
▁Efes	-9161
▁kten	-9162
▁sıvı	-9163
▁Üssü	-9164
ereden	-9165
▁Tedav	-9166
▁Yanal	-9167
▁kitab	-9168
▁ürünü	-9169
▁ordusu	-9170
▁Telefon	-9171
▁değişen	-9172
▁diyorum	-9173
▁seçilen	-9174
▁gelmişti	-9175
lacivertli	-9176
▁çatışmada	-9177
▁çerçevede	-9178
▁hükümetinin	-9179
▁yönetiminde	-9180
▁bakıldığında	-9181
hai	-9182
elle	-9183
oban	-9184
▁tay	-9185
dildi	-9186
pınar	-9187
yaman	-9188
▁2001	-9189
▁salı	-9190
▁semt	-9191
▁sevg	-9192
amızda	-9193
▁17-25	-9194
▁atama	-9195
▁dalga	-9196
▁katil	-9197
▁çukur	-9198
▁Bağdat	-9199
▁Rüzgar	-9200
▁bulama	-9201
▁düzeni	-9202
▁kaşığı	-9203
▁kıymet	-9204
▁lehine	-9205
▁başlığı	-9206
▁gelmeye	-9207
▁nitelik	-9208
▁raporda	-9209
▁derecede	-9210
▁ekibinin	-9211
▁temizlik	-9212
▁farklılık	-9213
▁tarihinden	-9214
▁şüphelinin	-9215
▁kolaylaştır	-9216
ME	-9217
▁SE	-9218
ifre	-9219
▁Ağa	-9220
▁Pap	-9221
▁ast	-9222
▁mel	-9223
halde	-9224
sızın	-9225
▁Uşak	-9226
emiyor	-9227
▁2013'	-9228
▁Doğru	-9229
▁Yoksa	-9230
▁güzer	-9231
▁Olayın	-9232
▁Sektör	-9233
▁Taksim	-9234
▁Toprak	-9235
▁arayış	-9236
▁gündüz	-9237
▁maması	-9238
▁oturum	-9239
▁resmen	-9240
bileceği	-9241
▁bırakan	-9242
▁işveren	-9243
▁milyona	-9244
▁cevabını	-9245
▁tüketimi	-9246
▁şartıyla	-9247
▁bilgisini	-9248
▁memleketi	-9249
▁tedbirler	-9250
▁ihtiyacımız	-9251
▁fiyatlarının	-9252
wa	-9253
ÖR	-9254
los	-9255
rov	-9256
▁Gr	-9257
▁Vi	-9258
▁br	-9259
isti	-9260
▁70'	-9261
▁Nak	-9262
▁Vek	-9263
▁suy	-9264
▁LARI	-9265
▁Otob	-9266
▁faci	-9267
▁kesi	-9268
▁Akşam	-9269
▁eseri	-9270
▁isyan	-9271
▁mayan	-9272
▁mikro	-9273
▁perde	-9274
▁varil	-9275
▁çekin	-9276
▁Anayas	-9277
▁Bürosu	-9278
▁arıyor	-9279
▁ederiz	-9280
▁ikamet	-9281
▁klasik	-9282
▁Karaman	-9283
▁pozitif	-9284
▁santral	-9285
▁sokakta	-9286
▁yöntemi	-9287
▁çarptır	-9288
▁Terörist	-9289
▁fonksiyon	-9290
▁sınırları	-9291
▁ilgilendir	-9292
▁yaşadıklarını	-9293
Ter	-9294
taç	-9295
▁5"	-9296
▁ED	-9297
▁Th	-9298
▁Gec	-9299
▁Kök	-9300
▁gas	-9301
▁çıl	-9302
esyon	-9303
▁asit	-9304
▁köyü	-9305
▁lama	-9306
alayan	-9307
esince	-9308
▁Okulu	-9309
▁araba	-9310
▁evlat	-9311
▁ihale	-9312
▁sipar	-9313
imizden	-9314
▁Kurtul	-9315
▁dondur	-9316
▁meclis	-9317
▁olanak	-9318
▁çirkin	-9319
▁Başkent	-9320
▁darbeci	-9321
▁savaşın	-9322
▁bisiklet	-9323
▁hastanın	-9324
▁kanattan	-9325
▁ağırlıklı	-9326
▁İşbirliği	-9327
▁başlattığı	-9328
▁hizmetleri	-9329
▁bölgelerinde	-9330
▁vurgulayarak	-9331
6)	-9332
SYK	-9333
▁1-	-9334
dere	-9335
umcu	-9336
▁Nil	-9337
▁umu	-9338
▁Şem	-9339
ülmüş	-9340
▁Mali	-9341
▁atma	-9342
▁mevz	-9343
ularak	-9344
▁Bilal	-9345
▁Harun	-9346
▁Sivil	-9347
▁istek	-9348
▁nızda	-9349
▁seçen	-9350
▁sundu	-9351
▁süper	-9352
aladığı	-9353
▁almayı	-9354
▁anlamı	-9355
▁diğini	-9356
▁manevi	-9357
▁tabanc	-9358
▁yapısı	-9359
▁büyüyen	-9360
▁bırakma	-9361
▁koyduğu	-9362
▁millete	-9363
▁sunduğu	-9364
▁zararlı	-9365
▁bakanlık	-9366
▁geçmişte	-9367
▁kaynaklı	-9368
▁seferber	-9369
▁törenine	-9370
▁dolandırı	-9371
▁oluşturulan	-9372
▁örgütlerinin	-9373
jı	-9374
DAN	-9375
veç	-9376
▁2"	-9377
afak	-9378
esun	-9379
▁Baz	-9380
▁Toy	-9381
▁Ven	-9382
▁eti	-9383
▁set	-9384
Benim	-9385
deres	-9386
leşti	-9387
▁Olur	-9388
▁cüml	-9389
▁diği	-9390
▁gemi	-9391
▁göze	-9392
▁köşe	-9393
larken	-9394
▁Final	-9395
▁Mimar	-9396
▁Mobil	-9397
▁Nazlı	-9398
▁izlen	-9399
▁sevdi	-9400
▁Balkan	-9401
▁Coşkun	-9402
▁geleni	-9403
▁terörü	-9404
▁Üçüncü	-9405
▁başlaya	-9406
▁cerrahi	-9407
▁karayol	-9408
▁ulaşmak	-9409
▁şeyleri	-9410
▁adamları	-9411
▁görevine	-9412
▁muhtemel	-9413
▁uyarınca	-9414
▁avukatları	-9415
▁hastalığın	-9416
▁Üniversite	-9417
▁kuruluşları	-9418
▁öğrencilere	-9419
▁kaldırıldığı	-9420
▁cumhurbaşkanı	-9421
ji	-9422
ach	-9423
▁ÖN	-9424
▁Üm	-9425
ulur	-9426
▁Bru	-9427
▁Nij	-9428
▁Vla	-9429
▁bez	-9430
▁deş	-9431
▁köp	-9432
▁şim	-9433
yarak	-9434
▁Sili	-9435
▁Tanı	-9436
▁arzu	-9437
▁dele	-9438
▁gole	-9439
▁gözü	-9440
▁riba	-9441
▁Özal	-9442
▁Hafta	-9443
▁Japon	-9444
▁Yakın	-9445
▁akrab	-9446
▁ceğiz	-9447
▁deney	-9448
▁edici	-9449
▁tüfek	-9450
▁vakıf	-9451
çekmece	-9452
▁Körfez	-9453
▁habere	-9454
▁miting	-9455
▁çapraz	-9456
▁boşanma	-9457
▁girerek	-9458
▁irtibat	-9459
▁konulan	-9460
▁malzeme	-9461
▁senaryo	-9462
▁yardımı	-9463
▁arayarak	-9464
▁barındır	-9465
▁zamanlar	-9466
▁kuzeyinde	-9467
▁Brezilyalı	-9468
▁sözleşmesi	-9469
▁ilişkilerin	-9470
▁ilçesindeki	-9471
▁kendisinden	-9472
▁özellikleri	-9473
▁çalışmaların	-9474
tma	-9475
fiye	-9476
tion	-9477
▁AYM	-9478
▁Bes	-9479
▁Cor	-9480
▁Ece	-9481
▁Ste	-9482
▁muk	-9483
▁sos	-9484
▁ödü	-9485
CİHAN	-9486
eynir	-9487
▁Aksu	-9488
▁Show	-9489
▁What	-9490
▁topa	-9491
▁Ayhan	-9492
▁Premi	-9493
▁Trans	-9494
▁baraj	-9495
▁ideal	-9496
▁orman	-9497
▁yönlü	-9498
▁çabuk	-9499
▁Yetkil	-9500
▁görmüş	-9501
▁bebeğin	-9502
▁belgesi	-9503
▁garanti	-9504
▁yapının	-9505
▁Adıyaman	-9506
▁elindeki	-9507
▁etmesini	-9508
▁gönderme	-9509
▁haftalık	-9510
▁çalışanı	-9511
▁aldığımız	-9512
▁edecektir	-9513
▁yeterince	-9514
▁Televizyon	-9515
▁gösterilen	-9516
▁zorundayız	-9517
▁gazetesinin	-9518
eğe	-9519
lit	-9520
Çok	-9521
▁SI	-9522
▁öy	-9523
anya	-9524
▁2-3	-9525
▁350	-9526
▁Air	-9527
▁Tas	-9528
▁elb	-9529
▁öte	-9530
▁Bağı	-9531
▁Ekip	-9532
▁İlet	-9533
luğunu	-9534
▁derbi	-9535
▁ihrac	-9536
▁vuran	-9537
▁girmiş	-9538
▁vadede	-9539
▁yetmez	-9540
ladığını	-9541
▁Cezaevi	-9542
▁Müezzin	-9543
▁gruplar	-9544
▁olmazsa	-9545
▁vitamin	-9546
▁gündemde	-9547
▁kahvaltı	-9548
▁saldırdı	-9549
▁evlerinde	-9550
▁oluşturan	-9551
▁istiyorlar	-9552
▁koleksiyon	-9553
▁olabiliyor	-9554
▁yapılacağı	-9555
▁katılımıyla	-9556
▁milletimizin	-9557
▁gerçekleşecek	-9558
AÇ	-9559
usi	-9560
▁2-	-9561
▁6-	-9562
omob	-9563
▁40'	-9564
▁Eur	-9565
▁Küt	-9566
▁Liv	-9567
▁ağz	-9568
▁nuz	-9569
▁zev	-9570
ikola	-9571
imark	-9572
▁Adan	-9573
▁Psik	-9574
▁Stat	-9575
▁aşan	-9576
▁müze	-9577
▁Doğal	-9578
▁Hemen	-9579
▁Seçim	-9580
▁babam	-9581
▁işini	-9582
▁liğin	-9583
▁çizdi	-9584
▁şidde	-9585
omobili	-9586
▁Yorumu	-9587
▁Zeybek	-9588
▁beraat	-9589
▁dizinin	-9590
▁hastası	-9591
▁konular	-9592
▁seyirci	-9593
lendiğini	-9594
▁Menderes	-9595
▁ülkedeki	-9596
▁birleştir	-9597
▁inanılmaz	-9598
▁mutabakat	-9599
▁olduğunda	-9600
▁kullanıldığı	-9601
ANI	-9602
ben	-9603
▁Ex	-9604
▁Pi	-9605
ando	-9606
arya	-9607
ciye	-9608
yolu	-9609
yurt	-9610
ımın	-9611
▁Tüf	-9612
▁Tür	-9613
▁emr	-9614
▁ÖSO	-9615
inize	-9616
▁Azez	-9617
▁haml	-9618
▁Duruş	-9619
▁Nijer	-9620
▁iştah	-9621
▁karma	-9622
▁tutun	-9623
▁Turgut	-9624
▁binası	-9625
▁kulübü	-9626
▁örneği	-9627
▁fırtına	-9628
▁içeride	-9629
▁olmanın	-9630
▁Fotoğraf	-9631
▁kurumsal	-9632
▁verirken	-9633
▁Selahattin	-9634
▁ifadelerine	-9635
▁istedikleri	-9636
BI	-9637
ân	-9638
İB	-9639
şa	-9640
Sen	-9641
aco	-9642
dao	-9643
ürt	-9644
▁96	-9645
▁cu	-9646
▁194	-9647
ümüze	-9648
ınızı	-9649
▁Bolu	-9650
▁Eyüp	-9651
▁West	-9652
▁başa	-9653
▁böyl	-9654
▁müzi	-9655
▁Üzer	-9656
ükspor	-9657
▁Emine	-9658
▁Torku	-9659
▁atmak	-9660
▁prens	-9661
▁Servis	-9662
▁bağlam	-9663
▁girişi	-9664
▁kapatı	-9665
▁sezonu	-9666
▁üreten	-9667
▁Yaşanan	-9668
▁genelde	-9669
▁sezonda	-9670
▁Atletico	-9671
▁Danimark	-9672
▁oranının	-9673
▁vermeden	-9674
▁anlamında	-9675
▁gördüğünü	-9676
▁pazartesi	-9677
▁diplomatik	-9678
▁saatlerinden	-9679
ff	-9680
ço	-9681
MSF	-9682
▁04	-9683
▁ET	-9684
▁fı	-9685
▁2,5	-9686
▁KDV	-9687
▁Müh	-9688
▁Ney	-9689
▁Ton	-9690
▁hip	-9691
▁koz	-9692
dında	-9693
ğünde	-9694
▁Lens	-9695
incisi	-9696
▁Moody	-9697
▁Yarış	-9698
▁duyan	-9699
▁kusur	-9700
▁tabut	-9701
melerde	-9702
▁Birkaç	-9703
▁bizler	-9704
▁devrim	-9705
▁isteği	-9706
▁olmasa	-9707
▁taksit	-9708
lamenter	-9709
ılmıştır	-9710
▁Serbest	-9711
▁arındır	-9712
▁havadan	-9713
▁katkısı	-9714
▁skandal	-9715
▁buradaki	-9716
▁hazırlan	-9717
▁uzmanlar	-9718
▁Bayraktar	-9719
▁duyurusunda	-9720
▁emniyetteki	-9721
LA	-9722
LE	-9723
pt	-9724
aze	-9725
▁sö	-9726
ktan	-9727
ranı	-9728
▁Cav	-9729
▁Lav	-9730
▁Sow	-9731
▁VAR	-9732
▁çet	-9733
▁Bara	-9734
▁eksi	-9735
▁eleb	-9736
▁prov	-9737
masyon	-9738
▁ndeki	-9739
▁satan	-9740
▁ölümü	-9741
▁İsmet	-9742
▁şeref	-9743
▁güçlük	-9744
▁kongre	-9745
▁ortamı	-9746
lendirme	-9747
▁2016-02	-9748
▁götürdü	-9749
▁hepimiz	-9750
▁kısmını	-9751
▁miktarı	-9752
▁verimli	-9753
▁Kongresi	-9754
▁bilmiyor	-9755
▁etkileri	-9756
▁katılmak	-9757
▁mühimmat	-9758
▁İnsanlar	-9759
▁Teşkilatı	-9760
▁ameliyatı	-9761
▁bonservis	-9762
▁seçimleri	-9763
▁Afganistan	-9764
▁kampanyası	-9765
▁uçaklarının	-9766
▁yaralandığı	-9767
▁yatırımları	-9768
▁ülkelerinin	-9769
▁cumhurbaşkan	-9770
CK	-9771
-15	-9772
FAD	-9773
kas	-9774
▁CN	-9775
▁GE	-9776
▁İÇ	-9777
yağı	-9778
▁Ode	-9779
▁Ric	-9780
▁izi	-9781
küdar	-9782
terör	-9783
▁Alış	-9784
▁diya	-9785
▁Adası	-9786
▁Tasar	-9787
▁döner	-9788
▁karın	-9789
▁	-9790
a	-9791
e	-9792
i	-9793
n	-9794
r	-9795
l	-9796
ı	-9797
d	-9798
k	-9799
t	-9800
m	-9801
y	-9802
u	-9803
s	-9804
o	-9805
b	-9806
ü	-9807
ş	-9808
z	-9809
.	-9810
g	-9811
ğ	-9812
v	-9813
ç	-9814
h	-9815
c	-9816
,	-9817
p	-9818
ö	-9819
'	-9820
f	-9821
A	-9822
B	-9823
T	-9824
K	-9825
"	-9826
S	-9827
1	-9828
M	-9829
0	-9830
D	-9831
E	-9832
İ	-9833
2	-9834
H	-9835
G	-9836
Y	-9837
P	-9838
-	-9839
O	-9840
C	-9841
5	-9842
F	-9843
R	-9844
3	-9845
L	-9846
N	-9847
4	-9848
6	-9849
Ş	-9850
Ö	-9851
j	-9852
:	-9853
9	-9854
Ç	-9855
7	-9856
8	-9857
)	-9858
U	-9859
I	-9860
(	-9861
V	-9862
Ü	-9863
Z	-9864
?	-9865
!	-9866
;	-9867
J	-9868
â	-9869
w	-9870
x	-9871
­	-9872
W	-9873
/	-9874
`	-9875
Ğ	-9876
î	-9877
X	-9878
%	-9879
Q	-9880
&	-9881
q	-9882
+	-9883
*	-9884
û	-9885
◊	-9886
#	-9887
′	-9888
·	-9889
@	-9890
̈	-9891
•	-9892
$	-9893
Â	-9894
̇	-9895
=	-9896
_	-9897
é	-9898
̧	-9899
[	-9900
]	-9901
>	-9902
°	-9903
а	-9904
ˆ	-9905
ə	-9906
á	-9907
е	-9908
¦	-9909
ä	-9910
¥	-9911
ó	-9912
ñ	-9913
€	-9914
í	-9915
\	-9916
	-9917
¬	-9918
å	-9919
è	-9920
⁄	-9921
ê	-9922
■	-9923
×	-9924
¡	-9925
®	-9926
ï	-9927
ø	-9928
ú	-9929
ć	-9930
⭐	-9931
️	-9932
^	-9933
£	-9934
Ä	-9935
à	-9936
æ	-9937
о	-9938
●	-9939
🇷	-9940
🇹	-9941
	-9942
É	-9943
Î	-9944
ß	-9945
ã	-9946
ƒ	-9947
α	-9948
і	-9949
ا	-9950
د	-9951
س	-9952
ل	-9953
و	-9954
ي	-9955
‬	-9956
∂	-9957
☮	-9958
👍	-9959
~	-9960
	-9961
Å	-9962
Ñ	-9963
Ø	-9964
Û	-9965
ë	-9966
ù	-9967
ē	-9968
ł	-9969
̆	-9970
μ	-9971
Л	-9972
к	-9973
н	-9974
п	-9975
с	-9976
т	-9977
у	-9978
ة	-9979
ح	-9980
ر	-9981
غ	-9982
ق	-9983
م	-9984
ن	-9985
‫	-9986
›	-9987
🏆	-9988
🏻	-9989
👑	-9990
💋	-9991
💧	-9992
💰	-9993
😁	-9994
😊	-9995
🙏	-9996
