[UNK]	0
[CLS]	1
[SEP]	2
[PAD]	3
[MASK]	4
!	5
"	6
#	7
$	8
%	9
&	10
'	11
(	12
)	13
*	14
+	15
,	16
-	17
.	18
/	19
0	20
1	21
2	22
3	23
4	24
5	25
6	26
7	27
8	28
9	29
:	30
;	31
=	32
>	33
?	34
@	35
[	36
\	37
]	38
^	39
_	40
`	41
a	42
b	43
c	44
d	45
e	46
f	47
g	48
h	49
i	50
j	51
k	52
l	53
m	54
n	55
o	56
p	57
q	58
r	59
s	60
t	61
u	62
v	63
w	64
x	65
y	66
z	67
~	68
	69
	70
	71
	72
¡	73
£	74
¥	75
¦	76
¬	77
­	78
®	79
°	80
·	81
×	82
ß	83
à	84
á	85
â	86
ã	87
ä	88
å	89
æ	90
ç	91
è	92
é	93
ê	94
ë	95
í	96
î	97
ï	98
ñ	99
ó	100
ö	101
ø	102
ù	103
ú	104
û	105
ü	106
ć	107
ē	108
ğ	109
ı	110
ł	111
ş	112
ƒ	113
ə	114
ˆ	115
̆	116
̇	117
̈	118
̧	119
α	120
μ	121
а	122
е	123
к	124
л	125
н	126
о	127
п	128
с	129
т	130
у	131
і	132
ا	133
ة	134
ح	135
د	136
ر	137
س	138
غ	139
ق	140
ل	141
م	142
ن	143
و	144
ي	145
‎	146
‏	147
•	148
‫	149
‬	150
′	151
›	152
⁄	153
€	154
∂	155
■	156
◊	157
●	158
☮	159
⭐	160
️	161
�	162
🇷	163
🇹	164
🏆	165
🏻	166
👍	167
👑	168
💋	169
💧	170
💰	171
😁	172
😊	173
🙏	174
##i	175
##p	176
##l	177
##e	178
##r	179
##n	180
##o	181
##s	182
##a	183
##c	184
##t	185
##k	186
##z	187
##m	188
##y	189
##ı	190
##d	191
##h	192
##î	193
##v	194
##u	195
##ş	196
##f	197
##ö	198
##ü	199
##g	200
##ç	201
##̇	202
##b	203
##ğ	204
##1	205
##2	206
##"	207
##â	208
##û	209
##0	210
##4	211
##3	212
##j	213
##5	214
##7	215
##w	216
##\	217
##ú	218
##x	219
##ó	220
##9	221
##ø	222
##q	223
##é	224
##8	225
##ä	226
##_	227
##ˆ	228
##а	229
##ł	230
##6	231
##>	232
##.	233
##á	234
##)	235
##💰	236
##о	237
##е	238
##?	239
##+	240
##'	241
##ə	242
##!	243
##,	244
##ï	245
##п	246
##с	247
##]	248
##ê	249
##-	250
##å	251
##í	252
##ã	253
##*	254
##@	255
##è	256
##ć	257
##:	258
##′	259
###	260
##&	261
##/	262
##ë	263
##�	264
##;	265
##ē	266
##к	267
##у	268
##т	269
##æ	270
##%	271
##و	272
##غ	273
##ل	274
##ي	275
##د	276
##ن	277
##س	278
##ق	279
##ة	280
##ا	281
##ح	282
##ر	283
##م	284
##🏻	285
##(	286
##ñ	287
##🇷	288
##🇹	289
##‫	290
##👍	291
##­	292
##à	293
##ß	294
##ù	295
##ar	296
##er	297
##an	298
##in	299
##ın	300
##en	301
##ir	302
##il	303
##ak	304
##al	305
##de	306
##le	307
##la	308
##lar	309
##ma	310
##da	311
##ek	312
##iy	313
##or	314
##el	315
##un	316
##et	317
##on	318
##at	319
##es	320
##di	321
##dı	322
##ur	323
##ler	324
de	325
##as	326
##ay	327
ve	328
bir	329
##aş	330
##li	331
##ıl	332
##ün	333
##ık	334
da	335
##ür	336
##iz	337
##im	338
ol	339
##ul	340
ya	341
##ik	342
##ır	343
##em	344
##am	345
##st	346
##ış	347
gö	348
##ey	349
ar	350
##ğı	351
al	352
bu	353
##ında	354
##iş	355
##den	356
##dan	357
##az	358
##du	359
##ah	360
##ını	361
##ab	362
##ti	363
##ya	364
##ini	365
yap	366
##um	367
i̇	368
baş	369
##inde	370
##tı	371
##it	372
##sı	373
##ol	374
##esi	375
##iye	376
##ok	377
iç	378
an	379
##is	380
##lı	381
##ine	382
##lan	383
##ec	384
##ım	385
kar	386
ka	387
##yor	388
##ği	389
##ük	390
##ları	391
##ına	392
lar	393
##leri	394
sa	395
in	396
##iyor	397
gör	398
##üz	399
son	400
et	401
##ki	402
##uş	403
##ız	404
##me	405
##eri	406
##cak	407
##ut	408
kon	409
##ca	410
##oğ	411
tür	412
##af	413
ön	414
##inin	415
için	416
##anı	417
##ev	418
ile	419
##ta	420
bil	421
ay	422
##lu	423
oldu	424
##te	425
türk	426
ne	427
ler	428
##ön	429
##eç	430
##uz	431
##ez	432
ver	433
##ce	434
gel	435
##len	436
ed	437
##üm	438
##alar	439
##ının	440
yıl	441
##ör	442
##ması	443
##ından	444
##lik	445
en	446
##dır	447
aç	448
##üş	449
te	450
##uk	451
##us	452
gün	453
##iler	454
il	455
##ra	456
##se	457
##yon	458
##unu	459
bul	460
##öy	461
tar	462
20	463
nin	464
##erek	465
kal	466
##cı	467
or	468
##ül	469
##mak	470
##aki	471
kur	472
yar	473
##om	474
##laş	475
türkiye	476
##op	477
çık	478
iş	479
##ası	480
##lay	481
ma	482
bel	483
geç	484
yer	485
##dir	486
yaş	487
değ	488
ak	489
##larak	490
##ildi	491
sür	492
##dığı	493
mil	494
##lık	495
olduğ	496
bü	497
##man	498
##mek	499
kay	500
##dar	501
##ha	502
mü	503
er	504
##tan	505
##bi	506
çok	507
##ıyor	508
dev	509
##öyle	510
ın	511
ter	512
ist	513
başk	514
olarak	515
gi	516
##eler	517
öz	518
##eni	519
##tir	520
##eş	521
##lama	522
##ro	523
çal	524
gü	525
##ci	526
ken	527
##ların	528
##zer	529
##si	530
##ili	531
##ılan	532
##ken	533
##ağ	534
olan	535
par	536
yön	537
daha	538
top	539
##sa	540
##iyet	541
nın	542
##ede	543
##aya	544
##lü	545
##ğini	546
çalış	547
karş	548
##ru	549
##cu	550
kul	551
##aber	552
var	553
##ama	554
oy	555
den	556
bulun	557
açık	558
belir	559
##ğını	560
li	561
##alı	562
##por	563
dur	564
ise	565
sor	566
##eh	567
büy	568
##ada	569
üzer	570
bak	571
##yla	572
##arı	573
201	574
##eye	575
her	576
##ilm	577
##ilen	578
hal	579
tek	580
##iyle	581
bin	582
##uşt	583
##tır	584
yak	585
yan	586
##fa	587
##mış	588
##asında	589
##let	590
gen	591
##ecek	592
##ist	593
dün	594
ko	595
##ece	596
yüz	597
hak	598
##öz	599
##ih	600
haber	601
po	602
sağ	603
##ip	604
##ıs	605
##üt	606
##aman	607
düş	608
terör	609
##unda	610
##diği	611
##bil	612
bö	613
##lk	614
ki	615
uy	616
##av	617
kiş	618
yeni	619
##leş	620
##lerin	621
dön	622
##daki	623
at	624
kap	625
##mas	626
as	627
biz	628
büyük	629
taraf	630
ev	631
sah	632
on	633
sonra	634
ek	635
gir	636
##os	637
kat	638
##isi	639
##ğr	640
kullan	641
##ap	642
bun	643
##eli	644
has	645
ger	646
say	647
ab	648
##lam	649
ama	650
böl	651
pro	652
##lem	653
##dür	654
kadar	655
##tığı	656
etti	657
##re	658
doğ	659
gerek	660
..	661
##be	662
su	663
##imiz	664
gibi	665
gaz	666
mu	667
hay	668
##der	669
ola	670
##dü	671
karşı	672
##ılı	673
##ıldı	674
ye	675
##met	676
belirt	677
##miş	678
zaman	679
do	680
söyle	681
uz	682
ülk	683
##larını	684
ör	685
söz	686
mer	687
##ele	688
bo	689
##ladı	690
##maya	691
##inden	692
##i̇	693
##san	694
sal	695
dedi	696
tak	697
av	698
el	699
ben	700
##arak	701
##ark	702
##ğu	703
##anlı	704
##est	705
ad	706
düz	707
tr	708
un	709
##gi	710
alt	711
##asyon	712
göre	713
##ans	714
alın	715
##eti	716
poli	717
tem	718
##stan	719
##lerini	720
der	721
yol	722
san	723
##esinde	724
göz	725
cum	726
##çek	727
ot	728
mah	729
##mesi	730
##men	731
10	732
##kin	733
ilk	734
ort	735
es	736
##etir	737
dan	738
ün	739
##lara	740
neden	741
sav	742
öğr	743
getir	744
##hur	745
olma	746
##fade	747
alan	748
nde	749
du	750
##dım	751
bur	752
##ot	753
##ven	754
sev	755
##bul	756
##acak	757
maç	758
olduğunu	759
tut	760
ifade	761
##çe	762
ser	763
sır	764
olduğu	765
cumhur	766
özel	767
ilg	768
##etim	769
di	770
şu	771
yüzde	772
##elik	773
##cağı	774
##ep	775
çek	776
yük	777
...	778
yaz	779
har	780
##cü	781
##per	782
##if	783
kendi	784
##tü	785
kaz	786
##yi	787
yapılan	788
##yan	789
##tar	790
ara	791
şek	792
ço	793
gazet	794
önem	795
gerçek	796
##gu	797
##tr	798
örg	799
güven	800
na	801
bölg	802
devam	803
##malar	804
değil	805
##ara	806
ih	807
##ındaki	808
##rup	809
##lat	810
örgüt	811
tarafından	812
göst	813
i̇stan	814
i̇stanbul	815
##iv	816
##ımız	817
##cek	818
sur	819
ard	820
##dik	821
art	822
##uştur	823
##sel	824
##ran	825
##ed	826
##alan	827
##ter	828
kad	829
em	830
ayr	831
oyun	832
diye	833
ardından	834
bek	835
dir	836
kor	837
kan	838
##ğü	839
şeh	840
##uyor	841
##ünü	842
genel	843
saldır	844
saat	845
önce	846
abd	847
##iç	848
##atı	849
hav	850
bağ	851
düzen	852
ok	853
durum	854
##liği	855
ta	856
##tik	857
başkanı	858
##ile	859
##bir	860
kam	861
hem	862
göster	863
##doğ	864
##baş	865
dış	866
milyon	867
olay	868
kurul	869
ür	870
##eyi	871
##ısı	872
dav	873
eğ	874
yok	875
##id	876
ilgili	877
fet	878
##gün	879
görev	880
tan	881
##una	882
i̇n	883
öl	884
ağ	885
yet	886
##alık	887
15	888
az	889
##ünde	890
ban	891
eden	892
##han	893
iki	894
karar	895
is	896
öğren	897
##ali	898
bas	899
önemli	900
iz	901
19	902
insan	903
##ıp	904
se	905
haz	906
##uştu	907
merk	908
gelen	909
hat	910
haf	911
bulundu	912
##larda	913
##dık	914
cez	915
ancak	916
açıklama	917
aş	918
##ley	919
##art	920
kim	921
##atan	922
##usu	923
arasında	924
mes	925
##ıla	926
##dem	927
ku	928
eki	929
##ileri	930
polis	931
dönem	932
##larının	933
##leştir	934
nda	935
##yı	936
hayat	937
haberleri	938
tarih	939
2016	940
dar	941
##üp	942
sonu	943
##oğlu	944
kö	945
##cuk	946
birlik	947
yay	948
##unun	949
##bol	950
##eleri	951
##ten	952
##ram	953
takım	954
##dece	955
##tür	956
eş	957
merkez	958
##sız	959
tüm	960
muh	961
çocuk	962
değer	963
iyi	964
spor	965
ada	966
dünya	967
la	968
tur	969
söyledi	970
ları	971
oper	972
devlet	973
##dığını	974
##iyas	975
am	976
##ika	977
dem	978
fark	979
bugün	980
##tör	981
im	982
##ers	983
taş	984
yaptığı	985
##iniz	986
dik	987
##doğan	988
kı	989
ayn	990
##işim	991
i̇s	992
duy	993
##liş	994
##ne	995
içinde	996
##ic	997
##bilir	998
zor	999
hakk	1000
##det	1001
##aret	1002
vur	1003
etk	1004
operasyon	1005
##bak	1006
sat	1007
##üs	1008
yat	1009
ediyor	1010
sı	1011
kom	1012
üst	1013
görüş	1014
baz	1015
ark	1016
vatan	1017
##ad	1018
güç	1019
yardım	1020
##başk	1021
##eki	1022
##daş	1023
geldi	1024
oyn	1025
##lah	1026
##ayı	1027
erdoğan	1028
kişi	1029
müdür	1030
##ener	1031
iliş	1032
rus	1033
tekn	1034
müca	1035
mücade	1036
##00	1037
##iyat	1038
##sun	1039
##taş	1040
aynı	1041
kes	1042
##enin	1043
fa	1044
edildi	1045
hiç	1046
##mız	1047
cumhurbaşk	1048
##ddi	1049
şey	1050
seç	1051
beş	1052
çıkar	1053
şekil	1054
##izi	1055
##ğer	1056
##ira	1057
##üyor	1058
##layan	1059
konuş	1060
bilg	1061
ask	1062
##leme	1063
##eme	1064
dak	1065
kazan	1066
bulunan	1067
".	1068
faz	1069
##ket	1070
avrup	1071
kır	1072
konu	1073
fetö	1074
si	1075
lı	1076
##lendir	1077
kaç	1078
##asar	1079
suriye	1080
##lere	1081
##ale	1082
##larına	1083
##lerinin	1084
üzerine	1085
birlikte	1086
mo	1087
dest	1088
millet	1089
leri	1090
##esini	1091
ey	1092
nun	1093
yür	1094
##meye	1095
ulaş	1096
fazla	1097
##bet	1098
fut	1099
##anlığı	1100
hazır	1101
harek	1102
##lerde	1103
diy	1104
değiş	1105
suç	1106
avrupa	1107
tes	1108
verdi	1109
##ılması	1110
şekilde	1111
destek	1112
futbol	1113
sil	1114
yor	1115
##onom	1116
##rak	1117
##ağı	1118
##esine	1119
##maz	1120
ele	1121
git	1122
sen	1123
##ılık	1124
bey	1125
mücadele	1126
##abil	1127
gazetesi	1128
##ilmesi	1129
i̇ş	1130
başkan	1131
sist	1132
ni	1133
gal	1134
##ektör	1135
yönetim	1136
##tal	1137
##ayan	1138
##eyen	1139
##eceği	1140
##larında	1141
yi	1142
##tık	1143
diğer	1144
saldırı	1145
##ıcı	1146
##kan	1147
tama	1148
##bar	1149
geçen	1150
ekonom	1151
olacak	1152
##sek	1153
geçir	1154
##lerine	1155
şir	1156
geliş	1157
konuştu	1158
##dur	1159
##ilerin	1160
vatandaş	1161
güvenlik	1162
bar	1163
böyle	1164
olmak	1165
tele	1166
yas	1167
ekip	1168
gön	1169
hastan	1170
kr	1171
##ba	1172
ber	1173
mey	1174
##ırak	1175
yaptı	1176
yaşan	1177
11	1178
kadın	1179
le	1180
##iyon	1181
##ahçe	1182
tab	1183
kab	1184
##lerinde	1185
##kat	1186
bırak	1187
##aları	1188
##oj	1189
sistem	1190
sadece	1191
i̇l	1192
##üne	1193
bazı	1194
##edi	1195
uç	1196
##ka	1197
##itim	1198
büt	1199
##siz	1200
met	1201
##up	1202
##lığı	1203
##fer	1204
mız	1205
kız	1206
##ize	1207
sık	1208
##ri	1209
dikkat	1210
mahk	1211
toplan	1212
can	1213
##lenen	1214
##oy	1215
yaklaş	1216
##ilik	1217
12	1218
mi	1219
üy	1220
ayrı	1221
oğ	1222
üç	1223
iddi	1224
sahip	1225
bunun	1226
bab	1227
##likle	1228
proj	1229
nı	1230
per	1231
##çi	1232
##ov	1233
re	1234
##lus	1235
##kk	1236
##gan	1237
sağlık	1238
yüksek	1239
sonr	1240
##raf	1241
ank	1242
eğitim	1243
##edef	1244
genç	1245
nas	1246
ik	1247
sab	1248
pkk	1249
hedef	1250
fener	1251
##osy	1252
veya	1253
##landı	1254
silah	1255
ede	1256
yatır	1257
tl	1258
bay	1259
ankara	1260
yakın	1261
orta	1262
sez	1263
##alt	1264
parti	1265
ortaya	1266
yapan	1267
kaps	1268
30	1269
kez	1270
##kü	1271
siyas	1272
##usunda	1273
nedeniyle	1274
mal	1275
doğru	1276
dolar	1277
##mi	1278
tah	1279
man	1280
##ret	1281
fenerb	1282
cumhurbaşkanı	1283
çıktı	1284
bele	1285
üzerinde	1286
##lanan	1287
boy	1288
üzere	1289
hük	1290
hava	1291
ceza	1292
##ulan	1293
günü	1294
sun	1295
##oloj	1296
ların	1297
##olu	1298
sın	1299
gol	1300
şehit	1301
kend	1302
olur	1303
beşik	1304
hast	1305
edil	1306
beled	1307
kil	1308
gele	1309
başbak	1310
tutuk	1311
pat	1312
kas	1313
beşiktaş	1314
sok	1315
##muz	1316
##ban	1317
başladı	1318
edilen	1319
mar	1320
rusya	1321
plan	1322
##esinin	1323
##masını	1324
mahal	1325
çev	1326
fenerbahçe	1327
araç	1328
##ğimiz	1329
şim	1330
##luk	1331
gerçekleştir	1332
yle	1333
isim	1334
##cel	1335
200	1336
pay	1337
yla	1338
şirket	1339
##isinde	1340
hafta	1341
galat	1342
kapsam	1343
##iyoruz	1344
##gı	1345
00	1346
miz	1347
##yar	1348
##lüğü	1349
##kı	1350
tamam	1351
içer	1352
nasıl	1353
ch	1354
##aştır	1355
mut	1356
sosy	1357
kaldır	1358
##asaray	1359
galatasaray	1360
oyuncu	1361
##ımı	1362
darbe	1363
görün	1364
aldı	1365
yapıl	1366
yönelik	1367
cumhuriyet	1368
uygu	1369
bit	1370
sezon	1371
uzun	1372
terörist	1373
##eci	1374
##fon	1375
be	1376
savaş	1377
##çı	1378
##masına	1379
##ğa	1380
eski	1381
##ilmiş	1382
çalışmalar	1383
film	1384
siz	1385
##spor	1386
lerin	1387
##mıştı	1388
uyg	1389
düşün	1390
açıklamada	1391
daki	1392
girişim	1393
##larla	1394
ağır	1395
mahalle	1396
##ge	1397
##niyet	1398
##iya	1399
##acağı	1400
anlaş	1401
##imi	1402
gönder	1403
##lak	1404
örgütü	1405
hep	1406
men	1407
bütün	1408
alman	1409
bildir	1410
müz	1411
paz	1412
sosyal	1413
hiz	1414
yıldır	1415
yayın	1416
yatırım	1417
bizim	1418
sak	1419
ah	1420
##urt	1421
çağ	1422
hüküm	1423
hareket	1424
süre	1425
##nak	1426
kü	1427
##dav	1428
ala	1429
lig	1430
hakkında	1431
arkada	1432
yerine	1433
##anın	1434
##iyorum	1435
ha	1436
soruştur	1437
##pr	1438
iht	1439
mev	1440
##okt	1441
han	1442
sar	1443
##lim	1444
arkadaş	1445
lira	1446
değerlendir	1447
emniyet	1448
bor	1449
ulus	1450
milli	1451
##ivers	1452
şöyle	1453
##gil	1454
sin	1455
bunu	1456
kontr	1457
mı	1458
14	1459
fin	1460
##iversit	1461
mem	1462
mad	1463
bah	1464
meh	1465
25	1466
kurum	1467
üniversit	1468
yen	1469
lere	1470
milyar	1471
##lük	1472
##gram	1473
hizmet	1474
mak	1475
biri	1476
16	1477
##üph	1478
deki	1479
med	1480
##liğ	1481
##okr	1482
şüph	1483
yılında	1484
bile	1485
##cağını	1486
hız	1487
temmuz	1488
dır	1489
##tiği	1490
başka	1491
tedav	1492
##mez	1493
##laya	1494
bölüm	1495
yanı	1496
ilç	1497
meydan	1498
bom	1499
lan	1500
##muş	1501
##lo	1502
for	1503
lara	1504
toplantı	1505
kendis	1506
farklı	1507
cen	1508
18	1509
etm	1510
geri	1511
##tu	1512
rah	1513
kontrol	1514
güz	1515
##ğın	1516
sözcü	1517
önc	1518
##teş	1519
##ıda	1520
##kinci	1521
asker	1522
13	1523
teş	1524
halk	1525
##diğini	1526
kara	1527
##din	1528
işlem	1529
##duğu	1530
gözalt	1531
yı	1532
kabul	1533
##rar	1534
başbakan	1535
##ılacak	1536
katıl	1537
bakan	1538
yaklaşık	1539
sınır	1540
alınan	1541
##isyon	1542
mehmet	1543
okul	1544
##asına	1545
din	1546
yağ	1547
##van	1548
##uma	1549
paylaş	1550
hes	1551
##ber	1552
2015	1553
##omo	1554
##ça	1555
##manın	1556
17	1557
##kes	1558
araştır	1559
##ye	1560
olması	1561
ra	1562
##las	1563
yaşındaki	1564
kür	1565
##indeki	1566
##üldü	1567
tep	1568
telefon	1569
larını	1570
##mayı	1571
kurulu	1572
çar	1573
kül	1574
savun	1575
teknik	1576
ayrıca	1577
##za	1578
##vet	1579
nız	1580
özellikle	1581
iti	1582
##ehir	1583
##yen	1584
ail	1585
gözaltına	1586
ndan	1587
burada	1588
etmek	1589
bakanı	1590
konusunda	1591
geçti	1592
##ğunu	1593
grup	1594
res	1595
artık	1596
demokr	1597
deniz	1598
adam	1599
teh	1600
##tin	1601
oluştur	1602
yüksel	1603
çalışan	1604
boz	1605
yine	1606
ülke	1607
güzel	1608
##aj	1609
ilişkin	1610
##akip	1611
),	1612
kamu	1613
i̇z	1614
para	1615
olduk	1616
ten	1617
##bay	1618
sonuç	1619
##lum	1620
##deki	1621
eng	1622
um	1623
##ısında	1624
fır	1625
sey	1626
şah	1627
##amp	1628
##oğun	1629
##ünün	1630
##oğraf	1631
##for	1632
kapsamında	1633
##can	1634
hiçbir	1635
##şam	1636
##lardan	1637
##kil	1638
otomo	1639
yardımcı	1640
##bu	1641
##bat	1642
program	1643
##lendi	1644
benim	1645
sektör	1646
dolay	1647
ülkeler	1648
çöz	1649
karşılaş	1650
##alarında	1651
##üb	1652
ateş	1653
mahkem	1654
bulunduğu	1655
rağ	1656
nden	1657
pr	1658
yaşa	1659
##mişti	1660
##sin	1661
bank	1662
##suz	1663
çıkan	1664
##ışma	1665
##deş	1666
kısa	1667
şimdi	1668
##ıt	1669
dakika	1670
satış	1671
##arası	1672
tam	1673
bilir	1674
birç	1675
müdürlüğü	1676
dil	1677
##ch	1678
rağmen	1679
sorun	1680
fiyat	1681
kararı	1682
belirten	1683
gelir	1684
tır	1685
##ver	1686
kişinin	1687
##vur	1688
len	1689
küç	1690
ce	1691
kaybet	1692
tir	1693
##ilere	1694
demir	1695
tesp	1696
##yle	1697
##meler	1698
##su	1699
oğlu	1700
os	1701
ettiği	1702
##ırken	1703
sürdür	1704
birçok	1705
sanat	1706
ait	1707
mas	1708
sabah	1709
##min	1710
##ladığı	1711
##eceğini	1712
##vek	1713
ziy	1714
##ledi	1715
öldür	1716
beklen	1717
siv	1718
pazar	1719
fak	1720
lerini	1721
dakik	1722
##net	1723
##ümüz	1724
##ülen	1725
ham	1726
sarı	1727
tanı	1728
##tep	1729
ali	1730
kalk	1731
st	1732
pu	1733
fot	1734
aldığı	1735
başar	1736
konusu	1737
##sil	1738
istedi	1739
başvur	1740
mahallesi	1741
gül	1742
çün	1743
oluş	1744
çünkü	1745
soru	1746
bağlı	1747
##yas	1748
##ınız	1749
yaşam	1750
koy	1751
##br	1752
##laması	1753
kav	1754
eur	1755
##ulu	1756
ses	1757
kardeş	1758
##ılığı	1759
kaynak	1760
yeniden	1761
##leyen	1762
##alet	1763
mec	1764
##ayet	1765
sü	1766
50	1767
cam	1768
dile	1769
başlat	1770
dr	1771
##ğında	1772
toplam	1773
altında	1774
hey	1775
taşı	1776
ikinci	1777
##afa	1778
yaralan	1779
##umlu	1780
anlat	1781
yürüt	1782
kah	1783
herkes	1784
##hal	1785
tük	1786
bakanlığı	1787
anla	1788
##tiğini	1789
hükümet	1790
uluslar	1791
tespit	1792
engel	1793
##ob	1794
kuv	1795
##zon	1796
yönet	1797
ortak	1798
yıldırım	1799
##ari	1800
ince	1801
ho	1802
öğrenc	1803
tart	1804
##pan	1805
lik	1806
tat	1807
cev	1808
dair	1809
beraber	1810
medya	1811
zar	1812
##ğin	1813
his	1814
yurt	1815
##ga	1816
i̇ngil	1817
##ji	1818
alındı	1819
kültür	1820
uluslararası	1821
##unuyor	1822
##sal	1823
##ent	1824
##ült	1825
çalışma	1826
gru	1827
ihtiya	1828
sebe	1829
trab	1830
kit	1831
kent	1832
so	1833
##lek	1834
fran	1835
tal	1836
##ğe	1837
şamp	1838
must	1839
##istan	1840
fotoğraf	1841
dönüş	1842
küçük	1843
trabzon	1844
yoğun	1845
ener	1846
basın	1847
ilişk	1848
mustafa	1849
huk	1850
##asını	1851
toplum	1852
mağ	1853
mek	1854
nün	1855
##lin	1856
eder	1857
itibar	1858
##alarda	1859
fir	1860
kem	1861
şampiyon	1862
##ayas	1863
bilin	1864
köy	1865
sokak	1866
anayas	1867
seçim	1868
anlam	1869
veren	1870
tör	1871
##mir	1872
lerden	1873
##etic	1874
akşam	1875
sıra	1876
i̇lk	1877
rahat	1878
##ullah	1879
yaşanan	1880
##medi	1881
##masının	1882
kullandı	1883
euro	1884
hale	1885
kuvvet	1886
söy	1887
##talya	1888
24	1889
##ışı	1890
chp	1891
ocak	1892
sel	1893
ac	1894
mart	1895
##ğına	1896
trans	1897
22	1898
leş	1899
soruşturma	1900
yani	1901
af	1902
##şa	1903
##ğiz	1904
özg	1905
##lerinden	1906
##yanın	1907
üzerinden	1908
oran	1909
sonrası	1910
içerisinde	1911
ziyaret	1912
cin	1913
##eb	1914
##sü	1915
21	1916
milletvek	1917
##aliyet	1918
##larından	1919
##gin	1920
fat	1921
##dül	1922
futbolcu	1923
vurgu	1924
ahmet	1925
ip	1926
puan	1927
çif	1928
belirtildi	1929
mez	1930
kuz	1931
##ıldığı	1932
şekl	1933
dı	1934
anda	1935
100	1936
##tif	1937
teknoloj	1938
kurt	1939
gök	1940
kıs	1941
madde	1942
##emiz	1943
komut	1944
##unca	1945
beyaz	1946
aralık	1947
sahi	1948
şubat	1949
##iyi	1950
##lerle	1951
hol	1952
##mekte	1953
##abilir	1954
rek	1955
##işleri	1956
yapıyor	1957
almanya	1958
otomobil	1959
meydana	1960
adım	1961
kayde	1962
##ğünü	1963
ann	1964
çat	1965
amer	1966
faaliyet	1967
yem	1968
##yu	1969
##dız	1970
larının	1971
gelecek	1972
kork	1973
otur	1974
artır	1975
öde	1976
##ck	1977
##malı	1978
##tiv	1979
götür	1980
hatır	1981
temsil	1982
görüntü	1983
yıldız	1984
belirtti	1985
##siniz	1986
eylem	1987
edecek	1988
piyas	1989
##ince	1990
##na	1991
verdiği	1992
tic	1993
dah	1994
##lıyor	1995
buna	1996
mecli	1997
mesaj	1998
başarı	1999
kol	2000
bilgi	2001
##cılık	2002
lerle	2003
osman	2004
emek	2005
gerçekleş	2006
elek	2007
çevr	2008
politik	2009
niz	2010
##alama	2011
çocu	2012
dol	2013
vak	2014
lardan	2015
kalan	2016
müda	2017
müs	2018
yakalan	2019
onun	2020
##sında	2021
##ıntı	2022
ekonomi	2023
##uldu	2024
hayatını	2025
prof	2026
ürün	2027
siyasi	2028
rapor	2029
may	2030
merkezi	2031
kre	2032
belediye	2033
belirterek	2034
askeri	2035
##anıyor	2036
uzak	2037
yal	2038
##ef	2039
##esiyle	2040
bölgede	2041
ekipleri	2042
elektr	2043
##madı	2044
verildi	2045
dö	2046
##isini	2047
tay	2048
ödül	2049
lerinin	2050
nokt	2051
larına	2052
kup	2053
##amaz	2054
belediy	2055
erk	2056
##dın	2057
##ort	2058
40	2059
organ	2060
düzenlenen	2061
mark	2062
kut	2063
üretim	2064
güncel	2065
gece	2066
23	2067
br	2068
sırasında	2069
hukuk	2070
larımız	2071
lir	2072
oluyor	2073
i̇zmir	2074
##üc	2075
larla	2076
dok	2077
##enk	2078
##tem	2079
kesin	2080
yorum	2081
kaydet	2082
bal	2083
üniversitesi	2084
ünlü	2085
kir	2086
sonucu	2087
bes	2088
##siyon	2089
üc	2090
##ii	2091
ora	2092
devr	2093
olsun	2094
öncek	2095
önceki	2096
##esel	2097
kapat	2098
##dikleri	2099
takip	2100
ana	2101
bana	2102
dünyanın	2103
yapılacak	2104
aktar	2105
yetkil	2106
aday	2107
yapı	2108
##endi	2109
##may	2110
çeş	2111
inter	2112
sevk	2113
ner	2114
##şehir	2115
ayında	2116
sig	2117
##mı	2118
yapmak	2119
yaptık	2120
##ing	2121
mus	2122
boş	2123
##ğinde	2124
uçak	2125
alıyor	2126
indir	2127
tav	2128
değişik	2129
diyor	2130
sivil	2131
tu	2132
adı	2133
dönemde	2134
açıl	2135
##mer	2136
##asındaki	2137
yıllık	2138
gerekiyor	2139
kırmız	2140
yaban	2141
sına	2142
##ala	2143
##düğü	2144
gec	2145
##oz	2146
istem	2147
şehir	2148
allah	2149
##kün	2150
gid	2151
şun	2152
taraftar	2153
me	2154
altın	2155
##bek	2156
des	2157
##iliyor	2158
dör	2159
direktör	2160
yapıldı	2161
öğrenildi	2162
hen	2163
enerji	2164
ölüm	2165
##uluk	2166
##gın	2167
üret	2168
cid	2169
diz	2170
güney	2171
sam	2172
##sik	2173
laz	2174
##og	2175
kulüb	2176
##abı	2177
lider	2178
i̇ç	2179
kılı	2180
##ğim	2181
traf	2182
olabilir	2183
lu	2184
##üf	2185
##lerden	2186
kaydetti	2187
duyur	2188
jan	2189
yandan	2190
##ücü	2191
##ünden	2192
geliyor	2193
##dıkları	2194
sit	2195
giy	2196
şeklinde	2197
val	2198
yana	2199
##layacak	2200
sırada	2201
ihra	2202
gündem	2203
tekrar	2204
##eği	2205
##do	2206
özgür	2207
ederek	2208
hemen	2209
irak	2210
##lif	2211
müm	2212
ül	2213
ris	2214
büyü	2215
##ici	2216
##altı	2217
##ade	2218
##ilecek	2219
sahibi	2220
altına	2221
##larımız	2222
##etr	2223
demokras	2224
hap	2225
gazi	2226
transfer	2227
serb	2228
##umuz	2229
##aların	2230
it	2231
ob	2232
değiştir	2233
##ünüyor	2234
kasım	2235
biliyor	2236
üz	2237
##müş	2238
önünde	2239
uzman	2240
günde	2241
isteyen	2242
kons	2243
mode	2244
tedavi	2245
##dy	2246
düny	2247
##ova	2248
çiz	2249
pek	2250
##dak	2251
##cih	2252
aydın	2253
##mal	2254
##lamak	2255
seviy	2256
yabancı	2257
yu	2258
çarp	2259
bulunuyor	2260
kolay	2261
giriş	2262
tercih	2263
28	2264
##ve	2265
ru	2266
geliştir	2267
th	2268
sol	2269
yaralı	2270
##ılma	2271
ettik	2272
##ılıyor	2273
i̇st	2274
kötü	2275
iddia	2276
resmi	2277
bize	2278
arac	2279
##isinin	2280
kuruluş	2281
uygulama	2282
erkek	2283
ker	2284
kadro	2285
aile	2286
darb	2287
##viz	2288
kaldı	2289
araştırma	2290
inan	2291
mümkün	2292
koş	2293
şid	2294
ayak	2295
##fet	2296
ila	2297
##üsü	2298
kuzey	2299
serbest	2300
adet	2301
tartış	2302
##irken	2303
##ılmış	2304
trabzonspor	2305
yardımcısı	2306
zarar	2307
öğret	2308
yav	2309
tarihi	2310
müdürü	2311
dakikada	2312
süper	2313
##yip	2314
##aşa	2315
##ton	2316
talep	2317
savunma	2318
##ide	2319
##ğine	2320
##mar	2321
yargı	2322
uygulan	2323
şunları	2324
birliği	2325
artış	2326
izin	2327
çağr	2328
uygun	2329
kılıç	2330
hesap	2331
##sat	2332
eğer	2333
nis	2334
yılmaz	2335
##ekli	2336
##ilerine	2337
##ump	2338
rak	2339
##manı	2340
##duk	2341
##tığını	2342
şark	2343
##liyor	2344
diyar	2345
birbir	2346
sayısı	2347
tören	2348
i̇şte	2349
##elerin	2350
dışında	2351
cenaz	2352
##sta	2353
güneş	2354
gülen	2355
##izm	2356
halinde	2357
zamanda	2358
ücret	2359
##tadır	2360
##osu	2361
acı	2362
etkin	2363
kredi	2364
oku	2365
don	2366
uğ	2367
davut	2368
silahlı	2369
tehdi	2370
cih	2371
##undan	2372
belg	2373
##mesini	2374
ordu	2375
bağlan	2376
faiz	2377
ap	2378
##ınca	2379
##lediği	2380
çin	2381
sayıda	2382
avuk	2383
anayasa	2384
##meyi	2385
##çesi	2386
ro	2387
açıklam	2388
##maları	2389
üyesi	2390
internet	2391
mur	2392
kurtar	2393
##bakır	2394
çift	2395
##alim	2396
iste	2397
mik	2398
hakem	2399
teklif	2400
parç	2401
diyarbakır	2402
siyaset	2403
27	2404
gereken	2405
nor	2406
##mat	2407
gez	2408
##adde	2409
##lerce	2410
26	2411
##iyatı	2412
##asının	2413
##eyin	2414
ligi	2415
ciddi	2416
onu	2417
eleştir	2418
öne	2419
amacı	2420
olmadığını	2421
##nek	2422
##iliği	2423
çeşit	2424
ef	2425
fi	2426
##ırı	2427
part	2428
başına	2429
##meden	2430
bat	2431
lık	2432
hastalık	2433
başlayan	2434
haft	2435
##imizin	2436
göç	2437
yaşayan	2438
tasar	2439
anad	2440
mült	2441
yanında	2442
güçlü	2443
şart	2444
##ola	2445
şüphel	2446
##biyet	2447
anadolu	2448
cadde	2449
net	2450
eşi	2451
bölge	2452
öyle	2453
##tım	2454
karak	2455
yun	2456
alış	2457
##kenin	2458
vardı	2459
##lacak	2460
olmaya	2461
davutoğlu	2462
beni	2463
2014	2464
##sk	2465
i̇ran	2466
anne	2467
edece	2468
zat	2469
##dük	2470
##aba	2471
açıkladı	2472
pan	2473
##hangi	2474
koç	2475
lis	2476
pers	2477
gerektiğini	2478
##mem	2479
larından	2480
herhangi	2481
sem	2482
oda	2483
dep	2484
##cat	2485
jandar	2486
asl	2487
sınav	2488
##sini	2489
##ilerinin	2490
elde	2491
durumda	2492
ülkenin	2493
gür	2494
500	2495
olmayan	2496
##of	2497
##var	2498
boyunca	2499
itibaren	2500
belli	2501
durumu	2502
grubu	2503
adına	2504
##elim	2505
antalya	2506
sürec	2507
sistemi	2508
hakim	2509
##bilecek	2510
finans	2511
bomb	2512
##rek	2513
yolu	2514
temsilc	2515
şik	2516
fik	2517
29	2518
duruş	2519
etkis	2520
dolayı	2521
##lül	2522
hastanesi	2523
nisan	2524
onlar	2525
sanay	2526
##atür	2527
çözüm	2528
ifadelerini	2529
gider	2530
söyleyen	2531
199	2532
##elere	2533
##yd	2534
kaf	2535
elektrik	2536
deste	2537
edin	2538
kans	2539
bunlar	2540
of	2541
temel	2542
hd	2543
kuru	2544
45	2545
sp	2546
giz	2547
başında	2548
adlı	2549
##diklerini	2550
##üncü	2551
konut	2552
##ilerini	2553
geniş	2554
aşk	2555
ekonomik	2556
baba	2557
yarış	2558
bomba	2559
inşa	2560
verilen	2561
##ısından	2562
düştü	2563
karış	2564
yılın	2565
gazetec	2566
şiddet	2567
35	2568
temiz	2569
##dek	2570
bundan	2571
num	2572
sonunda	2573
lerinden	2574
kamer	2575
taz	2576
boğ	2577
fe	2578
##ni	2579
görül	2580
akıl	2581
köpr	2582
##larıyla	2583
dört	2584
sul	2585
##landır	2586
rece	2587
sözleş	2588
dışişleri	2589
hatta	2590
çalışıyor	2591
araya	2592
##ısıyla	2593
tepki	2594
kayded	2595
alma	2596
geçmiş	2597
süreç	2598
##sın	2599
arasındaki	2600
zaten	2601
atan	2602
kayıt	2603
milletvekili	2604
person	2605
##taj	2606
getirdi	2607
bilim	2608
adan	2609
i̇ki	2610
oynan	2611
müş	2612
##arken	2613
havalim	2614
##lanması	2615
teslim	2616
barış	2617
tayyip	2618
jandarma	2619
recep	2620
##ildiği	2621
ülkede	2622
i̇slam	2623
pen	2624
tale	2625
yeş	2626
almak	2627
zorunda	2628
nit	2629
sını	2630
düşünüyor	2631
yarat	2632
##ısına	2633
##tim	2634
##diler	2635
canlı	2636
sek	2637
istiyor	2638
rol	2639
soy	2640
van	2641
##inci	2642
##esinden	2643
##tıyor	2644
kart	2645
doğal	2646
kuş	2647
ri	2648
##tere	2649
dal	2650
##leriyle	2651
##üman	2652
henüz	2653
koru	2654
alacak	2655
##mektedir	2656
cevap	2657
mutlu	2658
poz	2659
sonrasında	2660
konuda	2661
batı	2662
fu	2663
##sas	2664
unut	2665
##lemek	2666
başarılı	2667
istih	2668
yemek	2669
go	2670
tec	2671
##kur	2672
##oktor	2673
doktor	2674
günlük	2675
##eg	2676
geçtiğimiz	2677
memur	2678
yeter	2679
karşısında	2680
komisyon	2681
##dim	2682
yılda	2683
kilo	2684
ekim	2685
##cağız	2686
fakat	2687
str	2688
dışı	2689
mayıs	2690
##ıyla	2691
risk	2692
list	2693
murat	2694
##sine	2695
saatlerinde	2696
hızlı	2697
pas	2698
öte	2699
hdp	2700
ileri	2701
pyd	2702
##miyor	2703
##diş	2704
lazım	2705
edilm	2706
i̇nsan	2707
kemal	2708
katıldı	2709
kriz	2710
##abet	2711
yılı	2712
arama	2713
yöntem	2714
mahkeme	2715
##lilik	2716
##elerde	2717
##i̇d	2718
kürt	2719
##ku	2720
##gaz	2721
kendisine	2722
meclis	2723
kulüp	2724
##kaç	2725
60	2726
##iyeti	2727
ettiğini	2728
##birliği	2729
banka	2730
gali	2731
yarın	2732
oyunc	2733
tehdit	2734
nok	2735
tehlik	2736
dağı	2737
otob	2738
nedenle	2739
savcı	2740
doğu	2741
fay	2742
yık	2743
##üst	2744
i̇ngiltere	2745
zir	2746
##antep	2747
dahil	2748
yapma	2749
gördü	2750
##leti	2751
model	2752
##atürk	2753
ülkemiz	2754
başkanlık	2755
rej	2756
ilçesinde	2757
şen	2758
##fi	2759
biraz	2760
trump	2761
ata	2762
##luğu	2763
hangi	2764
##ağa	2765
atatürk	2766
##mıştır	2767
jo	2768
haberler	2769
sığın	2770
kitap	2771
##eyecek	2772
yapacak	2773
başta	2774
##lenmesi	2775
##artesi	2776
oyna	2777
##yız	2778
##lanma	2779
düşür	2780
yürü	2781
orada	2782
öğretmen	2783
##şı	2784
bizi	2785
##ate	2786
aralarında	2787
gelece	2788
maçında	2789
tesi	2790
sürekli	2791
yeşil	2792
fer	2793
birkaç	2794
öner	2795
##neği	2796
##ansı	2797
##başı	2798
bayram	2799
ces	2800
ticaret	2801
sine	2802
fatih	2803
çan	2804
##imize	2805
##asyonu	2806
imza	2807
mot	2808
giden	2809
yıllar	2810
suriy	2811
tw	2812
durdur	2813
kaybe	2814
sorum	2815
##imizi	2816
eylül	2817
##ulması	2818
maçı	2819
amaç	2820
perfor	2821
##ğının	2822
ton	2823
arada	2824
##ahim	2825
işi̇d	2826
ediliyor	2827
uğr	2828
##dam	2829
tarihinde	2830
gaziantep	2831
performan	2832
dayan	2833
petr	2834
##lüyor	2835
yansı	2836
aslında	2837
düşük	2838
çeşitli	2839
cep	2840
##adan	2841
açı	2842
katkı	2843
arab	2844
işaret	2845
benz	2846
sıcak	2847
daeş	2848
aylık	2849
##lenme	2850
bilgiye	2851
sürücü	2852
fransa	2853
çer	2854
##isine	2855
##tay	2856
dü	2857
##tidar	2858
görüyor	2859
bağı	2860
##ğun	2861
##liğini	2862
adalet	2863
amacıyla	2864
edi	2865
##ebilir	2866
##va	2867
maçta	2868
serv	2869
##ast	2870
türlü	2871
sert	2872
civ	2873
düzey	2874
derece	2875
yanıt	2876
yanl	2877
dünyada	2878
.,	2879
dk	2880
sayı	2881
def	2882
edilmiş	2883
##liy	2884
getiren	2885
kişiler	2886
mahkemesi	2887
##ke	2888
şüpheli	2889
##dum	2890
ağr	2891
ilet	2892
salon	2893
90	2894
min	2895
##ısını	2896
petrol	2897
yanlış	2898
31	2899
sene	2900
bildirildi	2901
başvuru	2902
tor	2903
dava	2904
demokrat	2905
##masında	2906
galibiyet	2907
sız	2908
i̇lçesi	2909
gitti	2910
ortam	2911
kırmızı	2912
mor	2913
tali	2914
##ilerek	2915
##laştır	2916
2017	2917
osmanlı	2918
##ena	2919
ted	2920
olmaz	2921
ihtiyaç	2922
hik	2923
çi	2924
##tur	2925
tabii	2926
tas	2927
önümüz	2928
isimli	2929
tıp	2930
açısından	2931
gören	2932
kalp	2933
kanal	2934
##acağız	2935
aya	2936
yaptır	2937
toprak	2938
mh	2939
tı	2940
##bo	2941
çeken	2942
sebep	2943
mış	2944
meş	2945
iler	2946
lerine	2947
esn	2948
takımı	2949
fiyatı	2950
##sını	2951
##üle	2952
mızı	2953
anlattı	2954
##liye	2955
final	2956
zey	2957
##dağ	2958
amel	2959
sıkıntı	2960
çet	2961
dost	2962
olmadığı	2963
görüşmeler	2964
gar	2965
geçiş	2966
feder	2967
siy	2968
kilom	2969
nur	2970
avukat	2971
##deniz	2972
##avuş	2973
görevli	2974
kayb	2975
yaşadığı	2976
##vizyon	2977
gay	2978
bunların	2979
diyen	2980
cer	2981
sta	2982
vaz	2983
istik	2984
##doğu	2985
olsa	2986
ekran	2987
gerekli	2988
zen	2989
veriyor	2990
##asıyla	2991
yerde	2992
yolcu	2993
televizyon	2994
kahr	2995
ruh	2996
##dr	2997
diş	2998
doğan	2999
ydi	3000
##çev	3001
önlem	3002
##sav	3003
terörle	3004
##yum	3005
##alara	3006
halep	3007
kapı	3008
giren	3009
bahç	3010
hüs	3011
##dıklarını	3012
hapis	3013
i̇h	3014
##ısının	3015
mizi	3016
balık	3017
##meni	3018
##daroğlu	3019
öncesi	3020
anlatan	3021
##sup	3022
konuşan	3023
co	3024
##layıcı	3025
siyah	3026
##mıyor	3027
imz	3028
bi	3029
diyerek	3030
tahmin	3031
dolayısıyla	3032
yunan	3033
olm	3034
demokrasi	3035
sefer	3036
##sunuz	3037
70	3038
adana	3039
##alım	3040
ona	3041
sayın	3042
kılıçdaroğlu	3043
##umsuz	3044
##rail	3045
trafik	3046
kanser	3047
çerçev	3048
##meyen	3049
yarı	3050
yönetic	3051
##eceğiz	3052
##yaspor	3053
müsl	3054
nokta	3055
##meleri	3056
demek	3057
başsav	3058
ister	3059
turizm	3060
proje	3061
cuma	3062
hayata	3063
kurtul	3064
ilan	3065
çelik	3066
kendisini	3067
hâ	3068
önüne	3069
çekti	3070
kampan	3071
hastalı	3072
rakam	3073
üs	3074
iy	3075
dağ	3076
##ite	3077
etkili	3078
söylüyor	3079
##alif	3080
olup	3081
##one	3082
yazılı	3083
mensup	3084
amerika	3085
normal	3086
##ekk	3087
bür	3088
##dal	3089
##vi	3090
yarar	3091
##gen	3092
hır	3093
##lamaya	3094
konuşma	3095
müdah	3096
tv	3097
zam	3098
ti	3099
##luluk	3100
##abak	3101
günlerde	3102
erken	3103
i̇ngiliz	3104
cem	3105
##elen	3106
##udi	3107
şube	3108
azal	3109
hiss	3110
leştir	3111
det	3112
##arında	3113
girdi	3114
tedbir	3115
hüc	3116
gerekir	3117
caddesi	3118
mis	3119
enf	3120
sanık	3121
personel	3122
yum	3123
##cılığı	3124
##cut	3125
yere	3126
yönünde	3127
veri	3128
edilmesi	3129
buluş	3130
alanda	3131
babası	3132
larıyla	3133
tutuklandı	3134
etme	3135
karşılık	3136
hollan	3137
bulut	3138
hayvan	3139
olabil	3140
##brahim	3141
fon	3142
ömer	3143
##sına	3144
yetiş	3145
olumsuz	3146
kays	3147
fetullah	3148
bekleniyor	3149
##pek	3150
##iran	3151
##adem	3152
tamamen	3153
ölü	3154
bankası	3155
kahraman	3156
yaln	3157
işlet	3158
bakım	3159
mesele	3160
i̇srail	3161
bağım	3162
gösterdi	3163
üçüncü	3164
sk	3165
tip	3166
merak	3167
adli	3168
değildir	3169
##tepe	3170
teknoloji	3171
davran	3172
mevcut	3173
lim	3174
soğ	3175
##gun	3176
kong	3177
müslüman	3178
##iri	3179
##evi	3180
attı	3181
tuz	3182
başkanlığı	3183
deaş	3184
dışarı	3185
aj	3186
##sinin	3187
##emi	3188
##lanıyor	3189
döneminde	3190
umut	3191
cihaz	3192
yalnız	3193
##zi	3194
##umu	3195
##duğunu	3196
uyarı	3197
muhalif	3198
müzik	3199
yarg	3200
kaya	3201
kesim	3202
yerinde	3203
sayesinde	3204
derneği	3205
bm	3206
önümüzdeki	3207
not	3208
##ğiniz	3209
küresel	3210
##har	3211
otel	3212
uğur	3213
##ia	3214
çavuş	3215
haline	3216
kanun	3217
kendini	3218
oluşan	3219
belediyesi	3220
nerede	3221
ihracat	3222
çey	3223
vardır	3224
##sızlık	3225
borç	3226
##form	3227
amerik	3228
ydı	3229
etmiş	3230
çatış	3231
port	3232
plak	3233
çoğ	3234
##sak	3235
iktidar	3236
bildirdi	3237
beri	3238
##layarak	3239
emekli	3240
80	3241
##elerinin	3242
çıkış	3243
ale	3244
##med	3245
belki	3246
itir	3247
##car	3248
##gör	3249
ndeki	3250
öğ	3251
##çak	3252
nef	3253
kims	3254
peş	3255
bede	3256
##co	3257
bursa	3258
etkisiz	3259
çö	3260
müh	3261
kamp	3262
ağa	3263
ders	3264
katılım	3265
çay	3266
sona	3267
nak	3268
##lüğ	3269
i̇brahim	3270
paral	3271
cezası	3272
operasyonda	3273
ge	3274
obama	3275
hasan	3276
fil	3277
##lal	3278
##sinde	3279
##atif	3280
yaşında	3281
##ğust	3282
haziran	3283
bugüne	3284
ast	3285
ağust	3286
##ıma	3287
##ona	3288
##elerinde	3289
kaydedildi	3290
##ons	3291
teşekk	3292
paralel	3293
ediyorum	3294
kupası	3295
##madan	3296
başla	3297
yönetimi	3298
vit	3299
davet	3300
güm	3301
süren	3302
emre	3303
müdahale	3304
##matik	3305
kullandığı	3306
albay	3307
orman	3308
derin	3309
##bin	3310
vol	3311
saray	3312
kaybetti	3313
sığınma	3314
hüseyin	3315
değişiklik	3316
yerli	3317
sonuc	3318
yayım	3319
rejim	3320
örnek	3321
##etici	3322
forma	3323
##i̇n	3324
mağdur	3325
mhp	3326
doğr	3327
oldukça	3328
onların	3329
böylece	3330
fes	3331
gerekç	3332
taki	3333
büyükşehir	3334
kaçak	3335
sanayi	3336
##deri	3337
ağustos	3338
renk	3339
##ze	3340
##mesine	3341
kimse	3342
hain	3343
##sur	3344
ir	3345
##go	3346
prot	3347
heyec	3348
eser	3349
havalimanı	3350
##teki	3351
kaza	3352
acil	3353
teşekkür	3354
namaz	3355
##yo	3356
yapıla	3357
##demir	3358
##türk	3359
krit	3360
kızı	3361
sakat	3362
to	3363
##etre	3364
hayır	3365
suriyeli	3366
muz	3367
alk	3368
adr	3369
##kın	3370
##zı	3371
##etik	3372
pozisyon	3373
olduğuna	3374
##menin	3375
pil	3376
##ğan	3377
sultan	3378
naz	3379
huz	3380
akadem	3381
medi	3382
tok	3383
##ülü	3384
##lasyon	3385
huzur	3386
##leyi	3387
##lanacak	3388
girişimi	3389
çab	3390
ekibi	3391
şar	3392
##ho	3393
yapılması	3394
hazırlık	3395
zengin	3396
##pg	3397
yüzden	3398
fırsat	3399
yaralandı	3400
miktar	3401
##inç	3402
hesab	3403
birinci	3404
##alarının	3405
çıkıyor	3406
ölç	3407
##efa	3408
depr	3409
##alarını	3410
sınıf	3411
34	3412
parlam	3413
gösteren	3414
##ham	3415
lerde	3416
36	3417
getirildi	3418
ambul	3419
zira	3420
öden	3421
olumlu	3422
asıl	3423
##dalı	3424
yasak	3425
dünyaya	3426
alarak	3427
idar	3428
tb	3429
##aşı	3430
##tren	3431
durumunda	3432
gönül	3433
şikayet	3434
üm	3435
dokun	3436
32	3437
ettir	3438
çap	3439
##ina	3440
görüşme	3441
##son	3442
##sının	3443
##bur	3444
altı	3445
isten	3446
muhab	3447
edildiği	3448
uefa	3449
vergi	3450
mutlak	3451
##inc	3452
##unuz	3453
del	3454
ameliyat	3455
maya	3456
sorumlu	3457
aşağı	3458
kulübü	3459
twit	3460
keş	3461
##gar	3462
larda	3463
##ıldığını	3464
kurumu	3465
maz	3466
geldiği	3467
.'	3468
##mayan	3469
ba	3470
ez	3471
kullanıcı	3472
hayal	3473
##barat	3474
patlama	3475
bitir	3476
çalışmaları	3477
kış	3478
##..	3479
2013	3480
kapalı	3481
detay	3482
##lulu	3483
##atör	3484
ilgi	3485
##sed	3486
tesis	3487
yola	3488
tarım	3489
##elerini	3490
belirlendi	3491
gıda	3492
çak	3493
##sen	3494
##espor	3495
bilen	3496
süt	3497
##barı	3498
##mail	3499
etmesi	3500
kayn	3501
samsun	3502
300	3503
miş	3504
yazı	3505
metre	3506
zirv	3507
peki	3508
rakip	3509
neler	3510
birleş	3511
lideri	3512
patlayıcı	3513
bölümü	3514
tun	3515
şans	3516
kayıp	3517
##oloji	3518
laş	3519
##rah	3520
##amak	3521
çocuklar	3522
twitter	3523
##ust	3524
vatandaşlar	3525
gündeme	3526
şarkı	3527
bölgesinde	3528
devletin	3529
i̇span	3530
insanlar	3531
bebek	3532
kamuoy	3533
pak	3534
sizin	3535
yeri	3536
biç	3537
ima	3538
müdahal	3539
tüf	3540
##ene	3541
hakan	3542
##ladık	3543
insanların	3544
75	3545
yerleş	3546
sorgu	3547
ediyoruz	3548
otobüs	3549
##ati	3550
büyükel	3551
defa	3552
vermek	3553
##ıyoruz	3554
onur	3555
cumhuriyeti	3556
##oda	3557
##meli	3558
##bal	3559
şahin	3560
##madığı	3561
geçer	3562
eksik	3563
olmadı	3564
raki	3565
##paşa	3566
##mm	3567
yazar	3568
direktörü	3569
ade	3570
serg	3571
ilaç	3572
akp	3573
red	3574
şer	3575
##âr	3576
##eyim	3577
prob	3578
yasa	3579
ihtim	3580
09	3581
yetk	3582
sağlıklı	3583
nüf	3584
vide	3585
new	3586
uyar	3587
açılış	3588
##ucu	3589
içeri	3590
etmeye	3591
doğum	3592
##abilecek	3593
us	3594
tatil	3595
kuvvetleri	3596
##li̇	3597
yapmaya	3598
park	3599
düşen	3600
sürede	3601
##süz	3602
##mediği	3603
endiş	3604
i̇smail	3605
##ib	3606
antren	3607
evde	3608
psik	3609
ypg	3610
##ere	3611
verecek	3612
akın	3613
topu	3614
i̇k	3615
muhale	3616
annesi	3617
car	3618
far	3619
##dat	3620
varsa	3621
güçleri	3622
##ınar	3623
düzenlen	3624
##geç	3625
mi̇	3626
sığınmacı	3627
##lılık	3628
##ana	3629
yerel	3630
##lasman	3631
tık	3632
operasyonu	3633
öncelik	3634
bunları	3635
yavaş	3636
##ücu	3637
koca	3638
sürüyor	3639
##leye	3640
size	3641
198	3642
aşama	3643
turist	3644
beyazlı	3645
##iği	3646
##mur	3647
gide	3648
hafif	3649
vurgulayan	3650
##rika	3651
##his	3652
işç	3653
asla	3654
fab	3655
##acağını	3656
##onya	3657
yit	3658
##laşma	3659
kullanılan	3660
xx	3661
i̇yi	3662
gelin	3663
kendisi	3664
##olojik	3665
tecr	3666
eg	3667
tü	3668
inci	3669
gizli	3670
##allah	3671
yaparak	3672
kişilik	3673
sahn	3674
problem	3675
lük	3676
rom	3677
birim	3678
##ılır	3679
##emesi	3680
düşüş	3681
kişilerin	3682
kaçır	3683
yurtdı	3684
konya	3685
altını	3686
##ding	3687
ağrı	3688
oranı	3689
aşırı	3690
hastaneye	3691
bağlantı	3692
tbmm	3693
##biyle	3694
olağan	3695
aracı	3696
baskı	3697
yitir	3698
##siy	3699
karşıya	3700
benzer	3701
meslek	3702
?"	3703
##alarına	3704
genelkur	3705
bayrak	3706
genelkurmay	3707
bilecek	3708
hasta	3709
kaybeden	3710
##çuk	3711
endek	3712
istiyorum	3713
##oto	3714
strate	3715
servis	3716
##aka	3717
arda	3718
saç	3719
ortalama	3720
i̇sv	3721
ca	3722
##ân	3723
##landığı	3724
milletvekil	3725
yaptıkları	3726
şaş	3727
satın	3728
akıllı	3729
mutlaka	3730
##urken	3731
attığı	3732
kimlik	3733
seyir	3734
kilometre	3735
the	3736
nö	3737
nizi	3738
unsur	3739
çıkma	3740
33	3741
##andır	3742
alanı	3743
sanatçı	3744
gökhan	3745
mültec	3746
##ern	3747
alına	3748
halde	3749
ulaştı	3750
taşıyan	3751
tez	3752
karay	3753
aziz	3754
etkil	3755
gur	3756
##eyle	3757
çıkacak	3758
katılan	3759
olacağını	3760
düzenlem	3761
cami	3762
deplasman	3763
hür	3764
hab	3765
kelim	3766
tiyat	3767
sonuna	3768
##yap	3769
içine	3770
##utin	3771
39	3772
motor	3773
yapımı	3774
larında	3775
yolc	3776
çevir	3777
muham	3778
hakkı	3779
civarında	3780
nu	3781
alb	3782
başak	3783
##sizlik	3784
yıllarda	3785
##hane	3786
yunanistan	3787
##üler	3788
ayı	3789
eve	3790
söyley	3791
köş	3792
stan	3793
##slan	3794
esk	3795
##üstü	3796
gerçekleştirilen	3797
programı	3798
cinsel	3799
##oli	3800
ambulans	3801
binlerce	3802
imk	3803
kıy	3804
partisi	3805
arena	3806
koruma	3807
yürütülen	3808
müsabak	3809
vücu	3810
##anam	3811
görüldü	3812
ayır	3813
leriyle	3814
veril	3815
süreci	3816
##i̇r	3817
danış	3818
tüket	3819
örgütün	3820
takımın	3821
saldırıda	3822
##ime	3823
buldu	3824
gelişmeler	3825
yakalandı	3826
lay	3827
##uluyor	3828
büyüme	3829
##mada	3830
##ital	3831
öldü	3832
dizi	3833
gençler	3834
holding	3835
yetkililer	3836
muhalefet	3837
zaf	3838
onları	3839
emin	3840
gerekçesiyle	3841
tiyatro	3842
##bi̇	3843
vuruş	3844
yatırımcı	3845
cinayet	3846
festiv	3847
bı	3848
dık	3849
ayk	3850
istiyoruz	3851
volkan	3852
gem	3853
##teri	3854
##zan	3855
##ahat	3856
konuk	3857
##liğinde	3858
yağış	3859
##sim	3860
arz	3861
anlay	3862
##sanız	3863
adliy	3864
yoktur	3865
yürüy	3866
yıla	3867
i̇talya	3868
sıralarında	3869
dolarlık	3870
herkesin	3871
ödeme	3872
mali	3873
##nan	3874
özellik	3875
inceleme	3876
desteği	3877
##tiler	3878
##elerine	3879
uygulam	3880
##lığını	3881
öğrenci	3882
tutuklan	3883
ıs	3884
##maktadır	3885
yargılan	3886
mıs	3887
##ko	3888
cumhurbaşkan	3889
çetin	3890
çerçevesinde	3891
cil	3892
rö	3893
vek	3894
##gener	3895
##ınma	3896
korun	3897
##işi	3898
yaşama	3899
sorunu	3900
boyut	3901
komutanı	3902
##ela	3903
i̇kinci	3904
güc	3905
evet	3906
kazandı	3907
incelem	3908
çocuğun	3909
65	3910
##nun	3911
##tılı	3912
##iyer	3913
malz	3914
mülteci	3915
kop	3916
yalan	3917
##rik	3918
##şallah	3919
yapar	3920
mobil	3921
ulusal	3922
şirk	3923
##lâ	3924
boğaz	3925
##general	3926
##antaj	3927
##ıyorum	3928
suudi	3929
dolu	3930
##amız	3931
##ümü	3932
belirlen	3933
maçın	3934
ortadan	3935
kalit	3936
bağış	3937
mağlu	3938
rekor	3939
va	3940
şeyi	3941
##tarı	3942
##emin	3943
diren	3944
hac	3945
iptal	3946
düğ	3947
fiz	3948
saha	3949
kendilerine	3950
halkın	3951
tepk	3952
yeterli	3953
müt	3954
terk	3955
kaldırıldı	3956
##od	3957
eyalet	3958
çevre	3959
yaralanan	3960
sonucunda	3961
saygı	3962
üniversite	3963
hatırlat	3964
şirketi	3965
açıklaması	3966
hakları	3967
altyap	3968
şeker	3969
çocukların	3970
geldiğini	3971
##gisi	3972
##are	3973
siniz	3974
birey	3975
açıldı	3976
evinde	3977
çatışma	3978
##ikat	3979
sunuz	3980
##cılı	3981
yaptığını	3982
edilecek	3983
anlaşma	3984
ederken	3985
uk	3986
##ond	3987
öngör	3988
hakaret	3989
oto	3990
gerçekten	3991
bol	3992
vade	3993
gösteriyor	3994
bilinen	3995
skor	3996
olmuş	3997
aray	3998
açılan	3999
kaydeden	4000
dip	4001
##isyen	4002
yerleştir	4003
erz	4004
cenaze	4005
köprü	4006
##büs	4007
##ult	4008
direk	4009
##vert	4010
rest	4011
büyüm	4012
cumhurbaşkanlığı	4013
parlament	4014
toplu	4015
kilis	4016
numar	4017
dis	4018
şır	4019
üye	4020
heyet	4021
tim	4022
test	4023
yapım	4024
teşkil	4025
vazgeç	4026
##hat	4027
##fı	4028
##erken	4029
##ato	4030
##asından	4031
işi	4032
laci	4033
tazmin	4034
nes	4035
ödem	4036
##amet	4037
başı	4038
istediği	4039
sınız	4040
karab	4041
krizi	4042
projesi	4043
tutuklu	4044
rahatsız	4045
lacivert	4046
##rem	4047
kurban	4048
grub	4049
komutanlığı	4050
soğuk	4051
atı	4052
zanlı	4053
##şık	4054
arap	4055
sürdü	4056
taban	4057
cezaev	4058
olursa	4059
ege	4060
##muştu	4061
##amış	4062
evine	4063
bölgeye	4064
şeyler	4065
göçmen	4066
demokratik	4067
##ray	4068
başlayacak	4069
maaş	4070
üstün	4071
##ou	4072
##embe	4073
sap	4074
saf	4075
kaldığı	4076
basket	4077
55	4078
olama	4079
duygu	4080
bilgiler	4081
cü	4082
dum	4083
alıp	4084
değişim	4085
dilek	4086
app	4087
şırnak	4088
sim	4089
alanında	4090
memnun	4091
kayseri	4092
##mesinin	4093
##öl	4094
olmalı	4095
2011	4096
2012	4097
genelinde	4098
başlan	4099
komş	4100
başbakanı	4101
enflasyon	4102
çatışmalar	4103
yeme	4104
kapan	4105
elbet	4106
imha	4107
sokağa	4108
tartışma	4109
konser	4110
sunu	4111
sigor	4112
eli	4113
fel	4114
pop	4115
##ilendir	4116
hala	4117
döndü	4118
taşın	4119
mos	4120
verilm	4121
denildi	4122
iletişim	4123
bulutlu	4124
ci	4125
if	4126
gördük	4127
musul	4128
pdy	4129
##hi	4130
##gal	4131
açtı	4132
vatandaşların	4133
olduklarını	4134
##vik	4135
##ayla	4136
maden	4137
düşünüyorum	4138
restor	4139
görülen	4140
olacağı	4141
cumartesi	4142
savaşı	4143
cı	4144
##hone	4145
bölgesi	4146
imkan	4147
harekat	4148
sonraki	4149
cema	4150
stat	4151
dök	4152
inşaat	4153
plat	4154
##dil	4155
##esyon	4156
yapacağı	4157
kapas	4158
laştır	4159
##lent	4160
vurguladı	4161
hi	4162
konum	4163
belç	4164
alınması	4165
kısm	4166
##mür	4167
##rag	4168
yaşandı	4169
sinan	4170
luk	4171
##enek	4172
kuruş	4173
kırmızılı	4174
muhabir	4175
odak	4176
şiş	4177
##kaya	4178
olayın	4179
harekete	4180
kör	4181
usta	4182
işbirliği	4183
deng	4184
asya	4185
derec	4186
bulunduğunu	4187
arka	4188
sigorta	4189
putin	4190
##po	4191
##leşme	4192
örne	4193
belirtilen	4194
şif	4195
##he	4196
##iyan	4197
başkanlı	4198
yenil	4199
anlamda	4200
tsk	4201
yü	4202
##liyoruz	4203
yapmış	4204
ismi	4205
kök	4206
day	4207
tel	4208
##areti	4209
i̇m	4210
kamyon	4211
beğ	4212
sözcüsü	4213
teşvik	4214
hoc	4215
ağı	4216
aran	4217
aslan	4218
selçuk	4219
##ry	4220
##ılmaz	4221
almaya	4222
uçuş	4223
##aladı	4224
nüfus	4225
##ren	4226
##taki	4227
##tisi	4228
önde	4229
i̇lçe	4230
toplantısında	4231
organiz	4232
komisyonu	4233
fizik	4234
ec	4235
##liler	4236
anal	4237
##isay	4238
bazen	4239
bilgisay	4240
öncesinde	4241
arabistan	4242
37	4243
nec	4244
##enti	4245
mersin	4246
paylaşım	4247
liraya	4248
koşul	4249
dür	4250
##anet	4251
and	4252
mekan	4253
giderek	4254
amerikan	4255
üncü	4256
değerli	4257
kadınlar	4258
bebe	4259
çağır	4260
edip	4261
##lanmış	4262
yaşamını	4263
apple	4264
rez	4265
hepsi	4266
ukray	4267
##rid	4268
denetim	4269
sağlamak	4270
milletin	4271
mizin	4272
##ilir	4273
##onik	4274
lerinde	4275
kaleci	4276
oğuz	4277
iphone	4278
ticari	4279
tün	4280
yur	4281
şi	4282
alım	4283
ifadesini	4284
çocuğu	4285
adeta	4286
jap	4287
##rı	4288
##akk	4289
kural	4290
kurulan	4291
tanım	4292
etkinlik	4293
roman	4294
bahçe	4295
key	4296
geçici	4297
istis	4298
etkilen	4299
katıldığı	4300
seyahat	4301
dahi	4302
oynanan	4303
başakşehir	4304
47	4305
vir	4306
yiz	4307
işada	4308
paris	4309
onlara	4310
gidiyor	4311
elbette	4312
38	4313
kıl	4314
çalışması	4315
metin	4316
fırat	4317
medyada	4318
çeyrek	4319
sizi	4320
##düm	4321
##tırma	4322
bölü	4323
çıkardı	4324
hazırlanan	4325
metrek	4326
prim	4327
sinema	4328
nöbet	4329
ran	4330
güvenli	4331
edeceğiz	4332
pilot	4333
video	4334
mel	4335
##soy	4336
gelmiş	4337
mezar	4338
şanlı	4339
##binin	4340
##ülmesi	4341
turan	4342
olağanüstü	4343
kok	4344
kişiyi	4345
görevi	4346
##tıkları	4347
doldur	4348
##esiz	4349
koor	4350
tane	4351
dikkati	4352
ligde	4353
azer	4354
##çisi	4355
##ulma	4356
hoca	4357
alışver	4358
pey	4359
şok	4360
##yse	4361
bülent	4362
##si̇	4363
##book	4364
kanı	4365
ini	4366
2010	4367
haberine	4368
düzenleme	4369
yoksa	4370
temsilcisi	4371
çoğu	4372
helik	4373
##ff	4374
##ğinin	4375
dolara	4376
face	4377
filmi	4378
helikop	4379
46	4380
inti	4381
teki	4382
onay	4383
sayf	4384
ortadoğu	4385
toplantısı	4386
biçim	4387
no	4388
ramaz	4389
takdir	4390
kanat	4391
süredir	4392
bahçeli	4393
stratej	4394
iade	4395
##cının	4396
içi	4397
##ezz	4398
topra	4399
madrid	4400
diplo	4401
ic	4402
slo	4403
##matı	4404
olun	4405
gözy	4406
pa	4407
zayı	4408
##ekim	4409
i̇ddi	4410
avust	4411
şehr	4412
197	4413
zayıf	4414
toto	4415
##ruk	4416
##ây	4417
##yacak	4418
başlıyor	4419
ert	4420
bursas	4421
bekliyor	4422
oynadığı	4423
bursaspor	4424
gr	4425
##cusu	4426
çıkart	4427
düşman	4428
yapılıyor	4429
denizli	4430
yönetmen	4431
güncelleme	4432
indirim	4433
ramazan	4434
lü	4435
som	4436
adını	4437
yağmur	4438
elim	4439
ktan	4440
##undaki	4441
##emez	4442
##isel	4443
çıktığı	4444
geril	4445
kadının	4446
üyeleri	4447
öğrenciler	4448
kısı	4449
kullanan	4450
trib	4451
fikir	4452
albayrak	4453
kritik	4454
yurtdış	4455
ira	4456
##leniyor	4457
oyunu	4458
aracın	4459
400	4460
salı	4461
kalma	4462
sürpr	4463
koal	4464
dönemi	4465
bıçak	4466
mit	4467
lardı	4468
##usunu	4469
açıklandı	4470
gösteri	4471
polisin	4472
tahliye	4473
##liğe	4474
nızı	4475
protest	4476
i̇spanya	4477
tecrüb	4478
est	4479
##par	4480
##nik	4481
inanıyor	4482
##ayacak	4483
olayı	4484
ailesi	4485
haberi	4486
azerbay	4487
olmasına	4488
sahil	4489
itibarı	4490
başlattı	4491
hürr	4492
koalisyon	4493
02	4494
başkenti	4495
abdullah	4496
müzak	4497
bağımsız	4498
heyecan	4499
facebook	4500
mim	4501
qu	4502
##gül	4503
##ıza	4504
devleti	4505
gücü	4506
konuyla	4507
şahıs	4508
01	4509
hus	4510
kartal	4511
yangın	4512
kazandır	4513
üzerindeki	4514
nus	4515
##gulan	4516
öztürk	4517
perş	4518
bakanlık	4519
reklam	4520
dolandır	4521
##bine	4522
arası	4523
##işehir	4524
çalıştı	4525
##faiye	4526
içindeki	4527
yapıldığı	4528
sinir	4529
hu	4530
mat	4531
şük	4532
##inizi	4533
tatlı	4534
korku	4535
perşembe	4536
48	4537
mic	4538
buraya	4539
##ımıza	4540
##dıktan	4541
noktada	4542
##kova	4543
##şi	4544
arslan	4545
i̇pek	4546
polisi	4547
##ımızın	4548
hastanede	4549
pazartesi	4550
hızla	4551
fakült	4552
karakter	4553
istihdam	4554
hisset	4555
mize	4556
şirketin	4557
##iklet	4558
araz	4559
elinde	4560
öğretim	4561
maliyet	4562
gecesi	4563
##dun	4564
işe	4565
avantaj	4566
konseyi	4567
malı	4568
göl	4569
vakfı	4570
başsavcılığı	4571
paket	4572
##fak	4573
##ura	4574
kişiye	4575
sayısının	4576
esas	4577
etkisi	4578
düşünc	4579
bilirsiniz	4580
ihtiyacı	4581
çağrı	4582
bedel	4583
yusu	4584
##ester	4585
yasal	4586
rahmet	4587
fransız	4588
götürüldü	4589
esnaf	4590
aa	4591
##yası	4592
yerini	4593
değin	4594
olacaktır	4595
öğle	4596
belçika	4597
##yer	4598
##şet	4599
##ash	4600
binali	4601
yakal	4602
gönderildi	4603
geride	4604
karadeniz	4605
hoş	4606
performans	4607
moskova	4608
koordin	4609
03	4610
id	4611
ren	4612
sini	4613
dedim	4614
örgütünün	4615
teröristlerin	4616
sözleşme	4617
plakalı	4618
ukrayna	4619
asi	4620
com	4621
##ilme	4622
##ulmaz	4623
aldığını	4624
ayrıldı	4625
moder	4626
suçundan	4627
ilişkiler	4628
##nam	4629
##lerimiz	4630
emir	4631
bölümünde	4632
oldukları	4633
hatırla	4634
44	4635
gu	4636
op	4637
##yalı	4638
lerimiz	4639
sahada	4640
beklenen	4641
kana	4642
çocukları	4643
makam	4644
##liğine	4645
tüketim	4646
gerçekleşti	4647
ödülü	4648
##ücut	4649
protesto	4650
yusuf	4651
yuk	4652
sahte	4653
tank	4654
bilgileri	4655
ilçesi	4656
firmalar	4657
organize	4658
edinilen	4659
süreçte	4660
gram	4661
rüz	4662
yaparken	4663
dij	4664
gazeteci	4665
tabi	4666
hükümeti	4667
azerbaycan	4668
fili	4669
lok	4670
mün	4671
##ij	4672
##ata	4673
halkı	4674
yükseldi	4675
oyuncusu	4676
kullanım	4677
takv	4678
insanları	4679
mardin	4680
yayınlanan	4681
##cilik	4682
birisi	4683
##tacak	4684
devre	4685
sahne	4686
salih	4687
ihlal	4688
eşit	4689
verm	4690
halen	4691
dündar	4692
gazete	4693
zorun	4694
barcel	4695
doğrudan	4696
dönüşüm	4697
duyurdu	4698
yız	4699
##ıf	4700
bilet	4701
çalıştığı	4702
sevg	4703
tuğ	4704
yürüyüş	4705
olmasını	4706
kafa	4707
belirlenen	4708
uyuştur	4709
tepe	4710
fetullahçı	4711
dijital	4712
vücut	4713
anah	4714
york	4715
bombalı	4716
itiraz	4717
bölücü	4718
sh	4719
##makta	4720
hassas	4721
##lemeye	4722
uçağ	4723
örneğin	4724
43	4725
nih	4726
##ese	4727
çalıştır	4728
öldürüldü	4729
istediğini	4730
marka	4731
gurur	4732
viz	4733
##ong	4734
liği	4735
platform	4736
muş	4737
öt	4738
##ılarak	4739
erdem	4740
##sad	4741
burak	4742
##alandır	4743
kardeşi	4744
istihbarat	4745
mühendi	4746
##reti	4747
dam	4748
kazanan	4749
yoruz	4750
ateşkes	4751
lond	4752
##umak	4753
##örü	4754
sağlayan	4755
tac	4756
##leyman	4757
mensu	4758
arkadaşı	4759
form	4760
##to	4761
##anak	4762
##alya	4763
##elt	4764
birinin	4765
##isa	4766
günümüz	4767
uzmanı	4768
düzenlediği	4769
hastane	4770
yukarı	4771
şef	4772
görmek	4773
etraf	4774
hatt	4775
lığı	4776
afrika	4777
neredeyse	4778
standar	4779
bilgisayar	4780
mevz	4781
##leyici	4782
alama	4783
hin	4784
##şek	4785
olmas	4786
##itesi	4787
edile	4788
nedeni	4789
arkasında	4790
sebebiyle	4791
vitam	4792
vic	4793
##say	4794
##mesinde	4795
yanına	4796
şub	4797
mesaf	4798
çarşam	4799
doğrult	4800
##hisar	4801
alışveriş	4802
hed	4803
##erv	4804
##cılar	4805
yüzy	4806
sakin	4807
mısır	4808
itibarıyla	4809
uyuşturucu	4810
çarşamba	4811
##resi	4812
alır	4813
##lendiği	4814
akdeniz	4815
getirilen	4816
saldırgan	4817
feth	4818
süleyman	4819
sö	4820
vali	4821
yüzünden	4822
sahaya	4823
polise	4824
##leyecek	4825
vurdu	4826
güçlendir	4827
kendilerini	4828
antrenman	4829
bara	4830
##ülüyor	4831
ülkeye	4832
##dikten	4833
ism	4834
geçirildi	4835
tedavisi	4836
42	4837
##mut	4838
##lete	4839
##usuna	4840
deneyim	4841
endeksi	4842
hor	4843
mir	4844
başlık	4845
##ündeki	4846
başlatılan	4847
köyü	4848
penaltı	4849
federasyonu	4850
istikrar	4851
sch	4852
##kim	4853
i̇dar	4854
temas	4855
verdiğini	4856
geçirdi	4857
bayra	4858
itibariyle	4859
sekret	4860
barcelona	4861
ciz	4862
piş	4863
##üksel	4864
yasağı	4865
brez	4866
basketbol	4867
reh	4868
##masıyla	4869
buradan	4870
gümüş	4871
41	4872
##arya	4873
bölgedeki	4874
fakültesi	4875
buz	4876
##itan	4877
##ever	4878
aktif	4879
uzat	4880
liralık	4881
açıklamalarda	4882
ümit	4883
brezil	4884
zih	4885
kariyer	4886
akar	4887
kaymak	4888
bakanlı	4889
tanış	4890
azalt	4891
liradan	4892
adamı	4893
çiçek	4894
fed	4895
işte	4896
örgütüne	4897
mesela	4898
sıf	4899
metro	4900
iddianam	4901
meclisi	4902
doğalgaz	4903
cerrah	4904
adliyeye	4905
fo	4906
##sy	4907
almış	4908
altern	4909
gözaltı	4910
turk	4911
yetiştir	4912
cemaat	4913
helikopter	4914
londra	4915
##ürken	4916
yedi	4917
kendine	4918
##fone	4919
politika	4920
i̇çişleri	4921
müşter	4922
stadı	4923
mini	4924
paşa	4925
##ity	4926
güvenliği	4927
tanık	4928
##tıklarını	4929
teröristler	4930
yavuz	4931
çavuşoğlu	4932
kimsenin	4933
eskişehir	4934
tazminat	4935
modern	4936
çor	4937
##nu	4938
nedir	4939
sağlan	4940
ortada	4941
girişiminin	4942
sürdürdü	4943
brüksel	4944
kelime	4945
hürriyet	4946
##hn	4947
##ori	4948
sağlığı	4949
temin	4950
bağır	4951
anlamına	4952
coş	4953
clin	4954
##fik	4955
##çu	4956
##tedir	4957
farkı	4958
bütçe	4959
fayda	4960
deprem	4961
cizre	4962
##urum	4963
işin	4964
seb	4965
şampiyonlar	4966
tasarım	4967
talimatı	4968
delil	4969
şaşır	4970
komşu	4971
nato	4972
##liliği	4973
##larca	4974
sayılı	4975
150	4976
kadınların	4977
alternatif	4978
clinton	4979
ndaki	4980
##ındır	4981
verir	4982
başkent	4983
varlık	4984
açıklamaya	4985
sivas	4986
##iledi	4987
196	4988
insani	4989
ziraat	4990
cel	4991
nci	4992
çı	4993
##muyor	4994
##üyle	4995
##bini	4996
biliyoruz	4997
görevl	4998
isimler	4999
