<unk>	0
<s>	0
</s>	0
ar	-0
an	-1
er	-2
in	-3
ın	-4
▁b	-5
de	-6
il	-7
▁k	-8
en	-9
al	-10
▁y	-11
da	-12
▁s	-13
ir	-14
▁g	-15
ak	-16
lar	-17
el	-18
ma	-19
et	-20
la	-21
▁o	-22
ek	-23
▁v	-24
iy	-25
▁t	-26
un	-27
▁i	-28
or	-29
▁d	-30
ler	-31
at	-32
ay	-33
es	-34
on	-35
dı	-36
▁h	-37
di	-38
▁B	-39
as	-40
ur	-41
▁A	-42
le	-43
▁ve	-44
aş	-45
li	-46
ün	-47
ıl	-48
▁de	-49
▁bir	-50
ür	-51
▁m	-52
im	-53
▁ç	-54
ık	-55
iz	-56
ul	-57
em	-58
▁T	-59
▁ol	-60
▁S	-61
▁K	-62
ap	-63
▁a	-64
ik	-65
ır	-66
st	-67
am	-68
ör	-69
ında	-70
ey	-71
▁M	-72
inde	-73
dan	-74
ış	-75
▁il	-76
iş	-77
▁da	-78
az	-79
▁ö	-80
▁p	-81
ını	-82
ab	-83
▁e	-84
ya	-85
ğı	-86
du	-87
ki	-88
▁D	-89
um	-90
ini	-91
ah	-92
▁al	-93
üz	-94
den	-95
▁G	-96
▁H	-97
ti	-98
▁ş	-99
▁yap	-100
ine	-101
tı	-102
▁ar	-103
it	-104
▁E	-105
ol	-106
ec	-107
▁1	-108
▁İ	-109
lı	-110
sı	-111
▁"	-112
esi	-113
▁f	-114
lan	-115
ok	-116
ım	-117
iye	-118
▁iç	-119
yor	-120
▁2	-121
ına	-122
is	-123
ları	-124
▁Y	-125
ük	-126
▁bu	-127
ağ	-128
▁n	-129
iyor	-130
ül	-131
uz	-132
leri	-133
ev	-134
inin	-135
iler	-136
ği	-137
▁gör	-138
uş	-139
cak	-140
af	-141
ut	-142
oğ	-143
▁baş	-144
▁kar	-145
alar	-146
ön	-147
▁P	-148
anı	-149
▁et	-150
ta	-151
▁C	-152
ez	-153
ürk	-154
▁F	-155
▁için	-156
▁son	-157
ların	-158
ız	-159
eler	-160
▁ile	-161
üm	-162
us	-163
▁gel	-164
dır	-165
▁oldu	-166
▁O	-167
▁ön	-168
te	-169
av	-170
eç	-171
ca	-172
uk	-173
▁ver	-174
▁kon	-175
▁r	-176
▁Türk	-177
lik	-178
▁an	-179
ad	-180
▁z	-181
ce	-182
▁ed	-183
üş	-184
ından	-185
len	-186
ması	-187
se	-188
▁aç	-189
dir	-190
yon	-191
▁ger	-192
uy	-193
▁c	-194
unu	-195
öy	-196
mak	-197
me	-198
ının	-199
▁ay	-200
öz	-201
..	-202
▁bul	-203
laş	-204
ra	-205
lu	-206
cı	-207
lay	-208
om	-209
▁yıl	-210
üy	-211
▁ma	-212
eş	-213
ildi	-214
op	-215
▁tar	-216
lık	-217
ib	-218
ip	-219
▁çık	-220
▁en	-221
▁yer	-222
ası	-223
▁kal	-224
▁R	-225
▁bel	-226
▁bil	-227
▁Türkiye	-228
▁olduğ	-229
▁değ	-230
man	-231
▁in	-232
▁20	-233
tir	-234
larak	-235
tan	-236
▁sür	-237
▁yaş	-238
nin	-239
▁3	-240
▁Ç	-241
▁iş	-242
ıyor	-243
▁Bu	-244
dığı	-245
▁gün	-246
▁geç	-247
▁Ş	-248
mas	-249
ken	-250
mek	-251
üt	-252
▁Ö	-253
▁(	-254
▁olarak	-255
▁yar	-256
öyle	-257
eh	-258
ade	-259
▁ist	-260
▁kad	-261
ıs	-262
▁or	-263
ro	-264
▁Baş	-265
ılan	-266
tır	-267
▁N	-268
ede	-269
iyle	-270
ecek	-271
▁çok	-272
ama	-273
▁ne	-274
eni	-275
eb	-276
alı	-277
ilm	-278
▁olan	-279
ada	-280
ha	-281
ili	-282
ğini	-283
iyet	-284
▁üz	-285
▁çal	-286
asında	-287
aya	-288
aber	-289
yla	-290
let	-291
▁An	-292
▁kay	-293
ist	-294
▁mil	-295
lü	-296
imiz	-297
ru	-298
ece	-299
▁kur	-300
inden	-301
▁bulun	-302
ih	-303
mış	-304
ed	-305
▁belir	-306
ilen	-307
cu	-308
▁ise	-309
▁üzer	-310
▁çalış	-311
▁karş	-312
▁var	-313
lama	-314
eye	-315
uşt	-316
▁dev	-317
▁açık	-318
▁daha	-319
unda	-320
arı	-321
aç	-322
▁yön	-323
▁kul	-324
ibi	-325
▁el	-326
▁ter	-327
▁-	-328
▁L	-329
▁sor	-330
ci	-331
▁ek	-332
▁oy	-333
si	-334
▁ken	-335
▁top	-336
▁V	-337
lerin	-338
larını	-339
ğını	-340
aman	-341
öl	-342
malar	-343
kan	-344
▁yak	-345
por	-346
▁gü	-347
eri	-348
nın	-349
▁4	-350
leş	-351
os	-352
▁yüz	-353
▁bin	-354
▁at	-355
▁Er	-356
▁düş	-357
▁dur	-358
▁kiş	-359
▁5	-360
ara	-361
üyük	-362
▁201	-363
ıldı	-364
ğr	-365
▁gö	-366
▁yan	-367
ep	-368
▁dön	-369
dür	-370
eli	-371
▁taraf	-372
erek	-373
00	-374
lem	-375
arak	-376
ilir	-377
▁kullan	-378
▁uy	-379
uç	-380
sa	-381
kanı	-382
unun	-383
lara	-384
ılı	-385
▁sonra	-386
▁her	-387
▁gir	-388
▁U	-389
diği	-390
oy	-391
▁kadar	-392
maya	-393
ark	-394
▁sağ	-395
ten	-396
▁sah	-397
▁gibi	-398
lerini	-399
miş	-400
ladı	-401
tığı	-402
▁gerek	-403
▁kap	-404
▁etti	-405
men	-406
met	-407
▁hal	-408
▁kat	-409
id	-410
▁tek	-411
▁ola	-412
▁tak	-413
dü	-414
oli	-415
▁söyle	-416
▁mü	-417
▁ül	-418
▁Al	-419
ayı	-420
▁hak	-421
▁Ar	-422
esinde	-423
▁ü	-424
▁ak	-425
san	-426
▁karşı	-427
▁dedi	-428
akan	-429
▁terör	-430
isi	-431
acak	-432
ran	-433
re	-434
▁yeni	-435
asyon	-436
aat	-437
▁böl	-438
may	-439
ter	-440
ımız	-441
▁Z	-442
...	-443
▁öz	-444
art	-445
dım	-446
una	-447
▁ilg	-448
▁büyük	-449
▁if	-450
çek	-451
▁ev	-452
ot	-453
ic	-454
ne	-455
▁göre	-456
kin	-457
▁ülk	-458
erk	-459
▁düz	-460
▁as	-461
etir	-462
if	-463
ğu	-464
▁ilk	-465
ye	-466
▁alın	-467
▁hay	-468
▁Ü	-469
deki	-470
ven	-471
hur	-472
▁getir	-473
▁dün	-474
tr	-475
ef	-476
etim	-477
ers	-478
stan	-479
▁olduğunu	-480
elik	-481
▁'	-482
▁ifade	-483
bul	-484
▁6	-485
▁olduğu	-486
umhur	-487
▁neden	-488
lığı	-489
▁ort	-490
▁pro	-491
üs	-492
▁ör	-493
▁doğ	-494
▁do	-495
▁Haber	-496
▁zaman	-497
▁on	-498
gi	-499
dik	-500
▁belirt	-501
larda	-502
▁yol	-503
▁alan	-504
▁Bir	-505
▁sal	-506
▁göz	-507
per	-508
▁tut	-509
▁yüzde	-510
larının	-511
oc	-512
alan	-513
lat	-514
▁sır	-515
çe	-516
azet	-517
cağı	-518
ac	-519
▁öğr	-520
iv	-521
▁maç	-522
üks	-523
iyi	-524
▁çek	-525
tar	-526
▁ama	-527
gu	-528
▁şek	-529
uh	-530
▁AB	-531
▁önem	-532
▁Cumhur	-533
uştur	-534
▁u	-535
▁değil	-536
▁devam	-537
▁has	-538
rup	-539
oğlu	-540
▁tarafından	-541
▁7	-542
tık	-543
der	-544
güt	-545
▁gerçek	-546
lam	-547
▁Öz	-548
▁ih	-549
iç	-550
ster	-551
tik	-552
▁arasında	-553
▁ot	-554
uyor	-555
iniz	-556
▁uz	-557
▁alt	-558
▁biz	-559
▁sev	-560
stanbul	-561
mesi	-562
ünü	-563
dından	-564
▁poli	-565
erb	-566
▁yaz	-567
cü	-568
bir	-569
▁yapılan	-570
dık	-571
enel	-572
eyi	-573
ındaki	-574
ans	-575
baş	-576
▁göster	-577
ley	-578
▁kendi	-579
doğ	-580
▁İstanbul	-581
daki	-582
tü	-583
arb	-584
▁diye	-585
lere	-586
▁Ay	-587
gün	-588
▁durum	-589
alık	-590
▁ardından	-591
▁iki	-592
dar	-593
mız	-594
▁milyon	-595
▁Ak	-596
ğer	-597
▁düzen	-598
▁Sur	-599
▁saat	-600
▁l	-601
▁kaz	-602
▁ad	-603
▁söz	-604
▁ilgili	-605
atı	-606
▁önce	-607
▁Av	-608
▁li	-609
▁saldır	-610
ünde	-611
na	-612
▁bek	-613
larına	-614
ub	-615
sız	-616
liği	-617
ob	-618
▁olma	-619
anın	-620
dığını	-621
lerinin	-622
▁I	-623
▁Mü	-624
▁insan	-625
▁eden	-626
han	-627
eleri	-628
▁sav	-629
▁bölg	-630
atır	-631
▁8	-632
▁har	-633
▁görev	-634
oz	-635
▁es	-636
▁örgüt	-637
▁bulundu	-638
▁öl	-639
ğü	-640
eti	-641
uştu	-642
edi	-643
usu	-644
esine	-645
▁bağ	-646
▁önemli	-647
atan	-648
▁özel	-649
▁Başkanı	-650
▁öğren	-651
ıp	-652
sun	-653
▁par	-654
▁yok	-655
▁gelen	-656
up	-657
▁güven	-658
ileri	-659
nı	-660
▁is	-661
ıla	-662
▁Kur	-663
nde	-664
▁karar	-665
▁ür	-666
üp	-667
▁hem	-668
▁10	-669
ram	-670
enin	-671
ET	-672
▁dönem	-673
▁yet	-674
▁oyun	-675
erkez	-676
bol	-677
ocuk	-678
▁Haberleri	-679
▁söyledi	-680
lerine	-681
▁J	-682
▁İn	-683
iyas	-684
▁haf	-685
▁san	-686
ank	-687
▁15	-688
ekt	-689
▁dest	-690
nun	-691
▁den	-692
▁19	-693
▁iz	-694
▁ABD	-695
▁İl	-696
leştir	-697
işim	-698
doğan	-699
dur	-700
iliyor	-701
▁değer	-702
▁ayr	-703
azı	-704
▁birlik	-705
raf	-706
".	-707
▁duy	-708
lerde	-709
aret	-710
▁içinde	-711
cel	-712
rak	-713
esini	-714
▁yüks	-715
▁iyi	-716
lendir	-717
ika	-718
ulu	-719
▁yaptığı	-720
▁fark	-721
▁say	-722
▁ben	-723
▁tarih	-724
siz	-725
▁kam	-726
perasyon	-727
▁hayat	-728
maz	-729
▁kor	-730
▁der	-731
▁tem	-732
▁dış	-733
▁bas	-734
▁ko	-735
det	-736
ısı	-737
tür	-738
larında	-739
▁ediyor	-740
▁olay	-741
▁geldi	-742
daş	-743
▁şeh	-744
ilecek	-745
▁ok	-746
iyat	-747
layan	-748
▁vur	-749
üyor	-750
ilerin	-751
▁Mah	-752
▁iliş	-753
▁yay	-754
▁az	-755
▁ede	-756
▁bak	-757
▁İs	-758
cade	-759
lerinde	-760
▁haber	-761
▁şekil	-762
▁Erdoğan	-763
ig	-764
▁kişi	-765
taş	-766
ddi	-767
eki	-768
▁zor	-769
▁görüş	-770
▁Kar	-771
▁edildi	-772
lah	-773
▁çıkar	-774
yı	-775
▁tes	-776
▁Gazet	-777
▁güç	-778
ka	-779
asar	-780
▁ada	-781
▁haz	-782
larla	-783
▁bulunan	-784
▁im	-785
eyen	-786
ılık	-787
▁kim	-788
▁ağ	-789
ali	-790
▁takım	-791
ETÖ	-792
▁ki	-793
esinin	-794
ile	-795
eme	-796
▁9	-797
▁aş	-798
▁konuş	-799
▁eş	-800
▁Rus	-801
ülen	-802
▁açıklama	-803
▁tüm	-804
▁üzerine	-805
iştir	-806
▁mes	-807
▁polis	-808
▁dik	-809
bet	-810
▁operasyon	-811
▁şey	-812
▁bilg	-813
▁sat	-814
▁Avrup	-815
▁lir	-816
azla	-817
▁çocuk	-818
▁taş	-819
ağı	-820
ket	-821
▁şekilde	-822
anan	-823
▁hav	-824
ğimiz	-825
masına	-826
masını	-827
uv	-828
▁birlikte	-829
meye	-830
▁cez	-831
onom	-832
▁kes	-833
utbol	-834
lardan	-835
▁kan	-836
▁hakk	-837
üne	-838
▁ser	-839
▁Suriye	-840
▁dav	-841
iğer	-842
▁Gün	-843
▁seç	-844
▁verdi	-845
▁Or	-846
▁fazla	-847
▁hazır	-848
▁Cumhurbaş	-849
ov	-850
▁Bel	-851
ektör	-852
ğit	-853
▁Avrupa	-854
▁üst	-855
▁Son	-856
▁gen	-857
▁vatan	-858
ilik	-859
▁Bakan	-860
sel	-861
▁Par	-862
▁git	-863
▁Yıl	-864
▁Müdür	-865
▁hiç	-866
▁em	-867
kat	-868
▁Genel	-869
▁geçir	-870
▁2016	-871
▁ulaş	-872
▁destek	-873
mir	-874
alat	-875
iyon	-876
▁olacak	-877
▁konuştu	-878
▁olmak	-879
▁yür	-880
▁Bur	-881
▁Dün	-882
istem	-883
▁FETÖ	-884
▁mücade	-885
bar	-886
▁yaptı	-887
▁önc	-888
▁Kon	-889
▁kaç	-890
olo	-891
▁Mil	-892
liğ	-893
▁ask	-894
▁tel	-895
▁Gazetesi	-896
▁tama	-897
▁aynı	-898
adece	-899
lanan	-900
▁yapıl	-901
▁ekip	-902
20	-903
▁sayı	-904
ıcı	-905
▁bır	-906
lenen	-907
ide	-908
yan	-909
ret	-910
ahçe	-911
usunda	-912
ilmesi	-913
▁art	-914
alt	-915
▁kö	-916
KK	-917
▁ark	-918
ağını	-919
ulan	-920
▁darb	-921
tal	-922
landı	-923
est	-924
indeki	-925
▁iddi	-926
▁suç	-927
osy	-928
luk	-929
▁İş	-930
▁sahip	-931
▁oyn	-932
▁saldırı	-933
▁ya	-934
▁kazan	-935
likle	-936
▁dikkat	-937
sam	-938
ğitim	-939
▁Em	-940
▁harek	-941
▁kab	-942
▁bugün	-943
yi	-944
▁bırak	-945
▁te	-946
mıştı	-947
lığ	-948
▁bur	-949
▁fa	-950
▁sık	-951
edef	-952
ilah	-953
▁Beş	-954
▁muh	-955
▁dak	-956
ımı	-957
▁En	-958
gan	-959
ilece	-960
kara	-961
▁gön	-962
aları	-963
▁11	-964
▁vatandaş	-965
▁veya	-966
nda	-967
▁konu	-968
▁nedeniyle	-969
AR	-970
hal	-971
kü	-972
▁yapan	-973
▁Fen	-974
oloj	-975
),	-976
▁ortaya	-977
olu	-978
lantı	-979
ize	-980
mi	-981
▁diğer	-982
▁sistem	-983
▁yakın	-984
▁üzere	-985
▁kıs	-986
▁kez	-987
▁PKK	-988
▁çıktı	-989
kil	-990
▁kr	-991
▁yardım	-992
acağı	-993
iyoruz	-994
▁Bak	-995
▁Tem	-996
mer	-997
iktaş	-998
▁uç	-999
maları	-1000
izi	-1001
▁açıkla	-1002
▁hedef	-1003
larımız	-1004
▁TL	-1005
▁şu	-1006
▁tekn	-1007
▁şir	-1008
▁Has	-1009
▁başladı	-1010
muz	-1011
meler	-1012
asıl	-1013
ınız	-1014
ütün	-1015
AN	-1016
▁gerçekleştir	-1017
▁üy	-1018
▁devlet	-1019
imi	-1020
manın	-1021
▁edilen	-1022
bilir	-1023
▁As	-1024
▁futbol	-1025
▁isim	-1026
▁merkez	-1027
▁yaklaş	-1028
▁Tr	-1029
erbahçe	-1030
▁geçen	-1031
▁Ankara	-1032
mayı	-1033
▁içer	-1034
▁yatır	-1035
ök	-1036
larından	-1037
gı	-1038
▁Beşiktaş	-1039
ing	-1040
ri	-1041
▁olur	-1042
▁kapsam	-1043
yar	-1044
üküm	-1045
▁yas	-1046
eğ	-1047
▁sadece	-1048
▁Söz	-1049
▁Spor	-1050
▁0	-1051
▁millet	-1052
▁yönelik	-1053
çı	-1054
asaray	-1055
▁bazı	-1056
alatasaray	-1057
▁er	-1058
▁Cumhurbaşkanı	-1059
ezon	-1060
lak	-1061
▁sı	-1062
▁doğru	-1063
▁pay	-1064
▁aldı	-1065
undan	-1066
▁kend	-1067
▁W	-1068
▁Biz	-1069
▁Ben	-1070
▁kaldır	-1071
▁Ancak	-1072
▁kadın	-1073
▁siyas	-1074
çi	-1075
▁tutuk	-1076
gil	-1077
▁hast	-1078
okt	-1079
▁Yar	-1080
lüğü	-1081
ayan	-1082
niyet	-1083
▁proj	-1084
oş	-1085
▁sonu	-1086
▁düşün	-1087
spor	-1088
lük	-1089
▁Fenerbahçe	-1090
▁tamam	-1091
urt	-1092
▁Rusya	-1093
▁Ün	-1094
▁araç	-1095
▁Başkan	-1096
▁Başb	-1097
▁üç	-1098
osyal	-1099
anlı	-1100
▁Hal	-1101
▁günü	-1102
ılması	-1103
ehir	-1104
kı	-1105
medi	-1106
▁Ek	-1107
▁Ter	-1108
▁sonr	-1109
▁tab	-1110
▁plan	-1111
▁gönder	-1112
gel	-1113
kem	-1114
-1	-1115
ana	-1116
▁hafta	-1117
▁boy	-1118
eden	-1119
▁Galatasaray	-1120
mem	-1121
▁bildir	-1122
▁gol	-1123
abilir	-1124
▁görün	-1125
nak	-1126
omb	-1127
masının	-1128
▁200	-1129
vet	-1130
lerden	-1131
dav	-1132
lerinden	-1133
▁12	-1134
adaş	-1135
▁Cumhuriyet	-1136
isinde	-1137
üb	-1138
▁ik	-1139
▁yerine	-1140
ünün	-1141
van	-1142
▁uygu	-1143
eci	-1144
▁iht	-1145
asına	-1146
▁girişim	-1147
ivers	-1148
▁üzerinde	-1149
ust	-1150
▁değerlendir	-1151
▁Dev	-1152
▁dolar	-1153
iyorum	-1154
▁bit	-1155
ER	-1156
iversit	-1157
ahat	-1158
▁uyg	-1159
▁güvenlik	-1160
▁silah	-1161
cek	-1162
muş	-1163
endi	-1164
▁terörist	-1165
▁düny	-1166
gram	-1167
okr	-1168
izmet	-1169
▁nasıl	-1170
▁tah	-1171
▁gid	-1172
lerle	-1173
▁mey	-1174
▁yılında	-1175
▁lira	-1176
▁hareket	-1177
▁diy	-1178
▁yönetim	-1179
▁şöyle	-1180
üph	-1181
▁Dem	-1182
▁ilç	-1183
▁milyar	-1184
▁hakkında	-1185
▁şirket	-1186
▁pat	-1187
▁sezon	-1188
▁Alman	-1189
pr	-1190
▁süre	-1191
▁kız	-1192
▁hat	-1193
▁gazet	-1194
ınır	-1195
trol	-1196
ilere	-1197
▁anlaş	-1198
▁Meh	-1199
▁kil	-1200
▁sen	-1201
▁kır	-1202
dana	-1203
▁yüksek	-1204
orm	-1205
▁tal	-1206
las	-1207
▁işlem	-1208
eceğ	-1209
ılacak	-1210
▁çev	-1211
▁yanı	-1212
HP	-1213
aştır	-1214
▁kurul	-1215
▁değiş	-1216
rar	-1217
malı	-1218
sini	-1219
▁mut	-1220
istan	-1221
▁konusunda	-1222
▁Temmuz	-1223
▁Şub	-1224
▁Ama	-1225
kinci	-1226
leme	-1227
unları	-1228
▁dünya	-1229
▁oyuncu	-1230
▁bile	-1231
isyon	-1232
lesi	-1233
mayan	-1234
▁mücadele	-1235
amp	-1236
▁Es	-1237
ge	-1238
▁ancak	-1239
▁biri	-1240
▁yatırım	-1241
▁farklı	-1242
üç	-1243
ebilir	-1244
▁tedav	-1245
ilmiş	-1246
laya	-1247
▁yayın	-1248
▁açıklamada	-1249
.00	-1250
eniz	-1251
▁kontrol	-1252
▁met	-1253
aliyet	-1254
▁yaşındaki	-1255
uma	-1256
▁hız	-1257
▁olması	-1258
▁paylaş	-1259
▁arkadaş	-1260
▁Kom	-1261
▁kabul	-1262
▁soruştur	-1263
azar	-1264
▁mah	-1265
▁Mehmet	-1266
aj	-1267
üldü	-1268
ısında	-1269
▁tan	-1270
efon	-1271
ledi	-1272
ıca	-1273
üzel	-1274
▁darbe	-1275
▁ey	-1276
ümüz	-1277
▁tur	-1278
▁yönet	-1279
▁Tek	-1280
altına	-1281
▁başkan	-1282
▁Beled	-1283
▁iti	-1284
▁sağlık	-1285
afa	-1286
▁14	-1287
▁ekonom	-1288
▁böyle	-1289
▁geliş	-1290
▁genel	-1291
▁hizmet	-1292
etin	-1293
▁Başbakan	-1294
tin	-1295
▁katıl	-1296
tiği	-1297
mekte	-1298
lum	-1299
▁başka	-1300
▁oluştur	-1301
▁eğitim	-1302
▁bölüm	-1303
lerimiz	-1304
lendi	-1305
mey	-1306
▁Mar	-1307
▁ağır	-1308
min	-1309
duğu	-1310
▁Pro	-1311
▁Büyük	-1312
▁şehit	-1313
fer	-1314
▁ilişkin	-1315
mez	-1316
▁San	-1317
suz	-1318
▁asker	-1319
mişti	-1320
ğunu	-1321
▁2015	-1322
ça	-1323
▁bütün	-1324
ver	-1325
▁hes	-1326
üsü	-1327
▁Ko	-1328
▁uzun	-1329
▁Mahal	-1330
▁eski	-1331
▁Ad	-1332
tu	-1333
▁bab	-1334
▁Bakanı	-1335
çok	-1336
▁film	-1337
oğun	-1338
▁mo	-1339
▁13	-1340
oğraf	-1341
▁sınır	-1342
▁şüph	-1343
▁At	-1344
▁El	-1345
▁mi	-1346
gin	-1347
şam	-1348
▁bomb	-1349
▁Devlet	-1350
▁teş	-1351
▁olduk	-1352
▁toplantı	-1353
alarında	-1354
▁kapsamında	-1355
▁telefon	-1356
0'	-1357
▁savaş	-1358
▁tür	-1359
imdi	-1360
▁ün	-1361
arası	-1362
▁teh	-1363
tiğini	-1364
201	-1365
▁18	-1366
▁ber	-1367
ırken	-1368
akat	-1369
▁hep	-1370
▁med	-1371
▁Parti	-1372
obil	-1373
▁rağ	-1374
▁Tur	-1375
esiyle	-1376
ğın	-1377
uyla	-1378
▁yağ	-1379
▁büy	-1380
▁çalışan	-1381
acı	-1382
can	-1383
dem	-1384
▁ülkeler	-1385
▁bulunduğu	-1386
▁yüksel	-1387
▁kaybet	-1388
▁rağmen	-1389
▁gözaltına	-1390
▁rak	-1391
ışma	-1392
▁belirten	-1393
din	-1394
▁dir	-1395
▁koy	-1396
ışı	-1397
ıt	-1398
▁yen	-1399
▁men	-1400
▁Kan	-1401
▁Doğ	-1402
lim	-1403
asını	-1404
▁etki	-1405
▁seb	-1406
▁çalışmalar	-1407
▁Dünya	-1408
tep	-1409
▁17	-1410
deş	-1411
cağını	-1412
net	-1413
vek	-1414
▁Ah	-1415
sine	-1416
▁su	-1417
▁çıkan	-1418
tak	-1419
vur	-1420
▁hastan	-1421
ala	-1422
▁sok	-1423
▁yaşa	-1424
▁alınan	-1425
▁kişinin	-1426
▁Top	-1427
▁16	-1428
▁sürdür	-1429
▁Müdürlüğü	-1430
▁ait	-1431
▁tesp	-1432
▁örgütü	-1433
üc	-1434
kes	-1435
▁çöz	-1436
▁ail	-1437
▁dakik	-1438
▁kararı	-1439
siniz	-1440
▁la	-1441
▁genç	-1442
kın	-1443
anız	-1444
▁orta	-1445
lo	-1446
ani	-1447
larıyla	-1448
aha	-1449
▁25	-1450
mı	-1451
▁fiyat	-1452
sal	-1453
sil	-1454
▁etk	-1455
▁ziy	-1456
▁İz	-1457
erj	-1458
▁karşılaş	-1459
▁hüküm	-1460
azi	-1461
▁AK	-1462
▁fin	-1463
▁mev	-1464
▁istedi	-1465
▁yaklaşık	-1466
umu	-1467
ünkü	-1468
yen	-1469
ült	-1470
▁başar	-1471
▁sun	-1472
sin	-1473
▁gelir	-1474
ekli	-1475
▁mı	-1476
▁çağ	-1477
▁sektör	-1478
▁Merkez	-1479
▁başlat	-1480
▁ettiği	-1481
dırım	-1482
fa	-1483
▁Hav	-1484
uslar	-1485
▁Kay	-1486
▁sonuç	-1487
▁oluş	-1488
▁mad	-1489
▁öldür	-1490
ayet	-1491
▁bar	-1492
▁anla	-1493
▁bağlı	-1494
umuz	-1495
dül	-1496
▁Terör	-1497
▁beklen	-1498
▁Mahallesi	-1499
▁Sav	-1500
▁sab	-1501
▁Ab	-1502
▁konusu	-1503
ince	-1504
▁Ali	-1505
▁anlat	-1506
ici	-1507
▁hiçbir	-1508
▁etmek	-1509
madı	-1510
▁yaşan	-1511
▁tep	-1512
▁aldığı	-1513
▁altında	-1514
▁Ser	-1515
cısı	-1516
leyen	-1517
▁yaralan	-1518
tay	-1519
▁başvur	-1520
esel	-1521
▁ceza	-1522
▁mem	-1523
▁tespit	-1524
alet	-1525
eği	-1526
▁kom	-1527
▁incel	-1528
▁30	-1529
ari	-1530
▁ikinci	-1531
ılığı	-1532
▁hava	-1533
▁pu	-1534
▁sosyal	-1535
▁yürüt	-1536
▁program	-1537
masında	-1538
▁am	-1539
▁geri	-1540
amaz	-1541
▁bunu	-1542
unuyor	-1543
▁Sözcü	-1544
▁ihtiy	-1545
▁Yıldırım	-1546
▁Zaman	-1547
▁On	-1548
uslararası	-1549
▁güzel	-1550
▁imz	-1551
ültür	-1552
▁yeniden	-1553
ıyoruz	-1554
▁Kurulu	-1555
▁yaşam	-1556
lıyor	-1557
ladığı	-1558
▁taşı	-1559
apor	-1560
▁alındı	-1561
▁Os	-1562
asının	-1563
umlu	-1564
abz	-1565
enk	-1566
▁Bakanlığı	-1567
rub	-1568
▁para	-1569
otoğraf	-1570
▁Hak	-1571
üf	-1572
▁ateş	-1573
▁beraber	-1574
▁Gü	-1575
▁av	-1576
unca	-1577
▁din	-1578
▁birçok	-1579
▁İngil	-1580
▁un	-1581
▁Her	-1582
arp	-1583
ch	-1584
▁Dav	-1585
▁grup	-1586
▁dem	-1587
ustafa	-1588
▁itibar	-1589
▁Bay	-1590
▁Bil	-1591
▁savun	-1592
ampiyon	-1593
▁Üniversit	-1594
▁tanı	-1595
▁bizim	-1596
abzon	-1597
▁Kal	-1598
ayas	-1599
makta	-1600
▁müz	-1601
▁öde	-1602
od	-1603
ullah	-1604
▁engel	-1605
▁üret	-1606
▁Dr	-1607
üçük	-1608
▁Bunun	-1609
▁otom	-1610
▁öğrenc	-1611
▁anlam	-1612
▁Mustafa	-1613
▁Özel	-1614
▁artık	-1615
ej	-1616
▁Yön	-1617
▁ele	-1618
uvvet	-1619
▁Fran	-1620
lin	-1621
aban	-1622
leriyle	-1623
▁söy	-1624
▁Yeni	-1625
▁kayde	-1626
▁kamu	-1627
▁yine	-1628
▁veren	-1629
elim	-1630
ğa	-1631
▁kayb	-1632
▁per	-1633
▁res	-1634
▁Emniyet	-1635
▁mak	-1636
▁ülke	-1637
▁kullandı	-1638
ocu	-1639
erken	-1640
.5	-1641
duk	-1642
rans	-1643
▁dile	-1644
Bu	-1645
▁okul	-1646
▁bor	-1647
▁Lig	-1648
▁geçti	-1649
▁tart	-1650
nün	-1651
▁toplam	-1652
ni	-1653
▁üzerinden	-1654
laştır	-1655
▁hale	-1656
tif	-1657
▁belirtildi	-1658
AŞ	-1659
▁soru	-1660
▁şekl	-1661
▁dönüş	-1662
talya	-1663
▁yoğun	-1664
▁kı	-1665
▁rahat	-1666
işleri	-1667
mıştır	-1668
▁his	-1669
▁tük	-1670
▁sonrası	-1671
esinden	-1672
dın	-1673
▁Ne	-1674
▁Trabzon	-1675
▁oran	-1676
▁vurgu	-1677
▁Ahmet	-1678
lüğ	-1679
▁kardeş	-1680
inci	-1681
▁artır	-1682
▁hey	-1683
▁Gen	-1684
▁meydana	-1685
▁dolay	-1686
tiv	-1687
▁ses	-1688
ünden	-1689
▁tam	-1690
▁CHP	-1691
▁satış	-1692
▁ziyaret	-1693
▁anda	-1694
▁sorun	-1695
▁fotoğraf	-1696
br	-1697
▁Uz	-1698
-0	-1699
▁100	-1700
anıyor	-1701
▁Demir	-1702
▁sey	-1703
eyaz	-1704
pan	-1705
gen	-1706
▁kav	-1707
▁kurum	-1708
▁kısa	-1709
▁Per	-1710
▁istem	-1711
tem	-1712
▁bun	-1713
▁mağ	-1714
▁kaynak	-1715
uldu	-1716
▁for	-1717
▁mer	-1718
▁götür	-1719
▁belirtti	-1720
▁Sü	-1721
elerin	-1722
▁adım	-1723
▁ortak	-1724
▁Hastan	-1725
▁adam	-1726
uro	-1727
▁Der	-1728
▁Poli	-1729
▁bunun	-1730
ecli	-1731
▁içerisinde	-1732
▁zar	-1733
▁gerçekleş	-1734
▁araştır	-1735
▁medya	-1736
▁Ön	-1737
▁Yap	-1738
aspor	-1739
▁faaliyet	-1740
▁burada	-1741
akır	-1742
ektr	-1743
▁Almanya	-1744
of	-1745
ağa	-1746
izin	-1747
▁Amer	-1748
▁yaşanan	-1749
AL	-1750
AK	-1751
▁bank	-1752
▁bilin	-1753
▁Tar	-1754
ğında	-1755
▁madde	-1756
▁verdiği	-1757
▁ul	-1758
▁akşam	-1759
▁çevr	-1760
▁seçim	-1761
▁can	-1762
madan	-1763
ıntı	-1764
▁belirterek	-1765
▁Diy	-1766
eceği	-1767
▁otur	-1768
▁nokt	-1769
▁sıra	-1770
▁Muh	-1771
aların	-1772
▁müda	-1773
▁Kas	-1774
▁kaydet	-1775
▁edecek	-1776
▁cev	-1777
mektedir	-1778
▁Hol	-1779
elere	-1780
▁yakalan	-1781
▁verildi	-1782
▁sırasında	-1783
▁mesaj	-1784
▁21	-1785
▁dah	-1786
▁Geç	-1787
▁ekipleri	-1788
▁kit	-1789
▁hatır	-1790
meyi	-1791
▁ilişk	-1792
▁teknik	-1793
uyu	-1794
▁gi	-1795
▁İlk	-1796
▁puan	-1797
▁dil	-1798
▁trans	-1799
ukuk	-1800
▁fır	-1801
AT	-1802
mada	-1803
ören	-1804
▁kol	-1805
▁hayatını	-1806
▁Ör	-1807
▁basın	-1808
ga	-1809
▁kalan	-1810
ğinde	-1811
▁düzenlenen	-1812
▁Sağ	-1813
▁Osman	-1814
landır	-1815
ılıyor	-1816
ort	-1817
▁Mart	-1818
▁boz	-1819
etr	-1820
şehir	-1821
▁gelecek	-1822
▁futbolcu	-1823
▁Şubat	-1824
ğine	-1825
▁bah	-1826
▁fir	-1827
abancı	-1828
ale	-1829
ıldığı	-1830
▁Az	-1831
mesini	-1832
okras	-1833
▁toplum	-1834
▁Deniz	-1835
▁uzak	-1836
ilerine	-1837
▁kent	-1838
▁sonucu	-1839
.,	-1840
İN	-1841
mızı	-1842
▁pr	-1843
siyon	-1844
▁Milli	-1845
eştir	-1846
▁oluyor	-1847
▁mu	-1848
uluk	-1849
▁Bar	-1850
sinin	-1851
▁Millet	-1852
▁eylem	-1853
yle	-1854
-2	-1855
mar	-1856
layacak	-1857
▁ayında	-1858
eral	-1859
▁man	-1860
lek	-1861
▁Üniversitesi	-1862
▁özellikle	-1863
alarda	-1864
üncü	-1865
ton	-1866
▁22	-1867
▁24	-1868
▁Ey	-1869
▁dönemde	-1870
▁Böl	-1871
▁takip	-1872
▁gerekiyor	-1873
▁dol	-1874
▁ürün	-1875
▁sevk	-1876
gın	-1877
▁Daha	-1878
▁olsun	-1879
▁herkes	-1880
2016	-1881
teki	-1882
▁giy	-1883
meden	-1884
▁Bank	-1885
▁yapılacak	-1886
ova	-1887
▁üretim	-1888
▁Ocak	-1889
▁İzmir	-1890
ii	-1891
▁Can	-1892
▁kapat	-1893
ivil	-1894
dak	-1895
▁inş	-1896
Türk	-1897
▁Sal	-1898
▁yaptık	-1899
▁sırada	-1900
▁yapıldı	-1901
sunuz	-1902
▁öğrenildi	-1903
sik	-1904
▁ce	-1905
▁sanat	-1906
su	-1907
▁çat	-1908
gür	-1909
ğim	-1910
▁üc	-1911
tığını	-1912
▁diyor	-1913
▁boş	-1914
müş	-1915
▁müdahal	-1916
ternet	-1917
▁yor	-1918
diler	-1919
▁Hay	-1920
tım	-1921
▁Kara	-1922
▁aktar	-1923
▁kaydetti	-1924
▁Gök	-1925
▁indir	-1926
ilerinin	-1927
ınca	-1928
▁yandan	-1929
EN	-1930
▁devr	-1931
sın	-1932
▁halk	-1933
▁duyur	-1934
▁olabilir	-1935
for	-1936
kün	-1937
iyesi	-1938
▁Kor	-1939
▁uygula	-1940
ıda	-1941
▁mal	-1942
▁benz	-1943
▁ihra	-1944
▁yurt	-1945
▁Li	-1946
▁yem	-1947
▁benim	-1948
▁spor	-1949
▁piyas	-1950
▁geliyor	-1951
İL	-1952
do	-1953
▁pazar	-1954
▁ara	-1955
▁ölüm	-1956
▁şeklinde	-1957
elen	-1958
▁gal	-1959
▁siyasi	-1960
▁Güven	-1961
erji	-1962
▁yıllık	-1963
lif	-1964
▁Olay	-1965
▁dair	-1966
▁Ev	-1967
▁Ayr	-1968
ünüyor	-1969
▁tat	-1970
▁bay	-1971
ser	-1972
▁rek	-1973
aba	-1974
▁aday	-1975
▁temsil	-1976
▁yapmak	-1977
▁Su	-1978
▁kas	-1979
sat	-1980
▁değişik	-1981
▁terc	-1982
▁çocu	-1983
▁yapıyor	-1984
▁altına	-1985
▁çalışma	-1986
▁otomobil	-1987
▁çarp	-1988
▁değiştir	-1989
eyin	-1990
taki	-1991
düğ	-1992
▁kesin	-1993
▁isteyen	-1994
▁cid	-1995
ğin	-1996
.'	-1997
▁Çünkü	-1998
▁Yardım	-1999
▁çif	-2000
▁günde	-2001
yız	-2002
▁han	-2003
eza	-2004
▁Tay	-2005
eg	-2006
miyor	-2007
▁bulunuyor	-2008
▁cin	-2009
▁diz	-2010
▁ederek	-2011
altı	-2012
unuz	-2013
▁lider	-2014
▁çiz	-2015
lamak	-2016
ayın	-2017
▁Do	-2018
şı	-2019
oloji	-2020
▁yana	-2021
▁Fet	-2022
▁başarı	-2023
alama	-2024
ılıç	-2025
▁Irak	-2026
▁ann	-2027
▁müm	-2028
▁yetkil	-2029
▁DE	-2030
isinin	-2031
▁uçak	-2032
▁sahibi	-2033
▁cen	-2034
▁arac	-2035
▁Dış	-2036
▁tekrar	-2037
▁sar	-2038
ört	-2039
▁50	-2040
▁dok	-2041
▁kir	-2042
nik	-2043
▁edil	-2044
dikleri	-2045
dıkları	-2046
ilerini	-2047
uzey	-2048
▁Kür	-2049
▁Br	-2050
▁23	-2051
izm	-2052
▁DA	-2053
düğü	-2054
erli	-2055
kır	-2056
▁gec	-2057
▁alıyor	-2058
▁Fat	-2059
▁mümkün	-2060
▁tercih	-2061
liyor	-2062
▁mens	-2063
erbest	-2064
ola	-2065
yip	-2066
▁bölgede	-2067
▁tartış	-2068
eşit	-2069
utan	-2070
▁Tak	-2071
▁tav	-2072
▁Ot	-2073
▁Kul	-2074
▁kork	-2075
eceğiz	-2076
▁gece	-2077
ent	-2078
▁Man	-2079
AB	-2080
▁iddia	-2081
▁şunları	-2082
▁önceki	-2083
jan	-2084
▁dakika	-2085
▁adet	-2086
▁artış	-2087
eceğini	-2088
aşa	-2089
ula	-2090
▁kolay	-2091
▁Bugün	-2092
diklerini	-2093
▁hap	-2094
▁dışında	-2095
▁Yılmaz	-2096
▁politik	-2097
▁dakikada	-2098
▁kaldı	-2099
og	-2100
alim	-2101
▁bilgi	-2102
▁edilm	-2103
▁Ayrıca	-2104
▁sit	-2105
ileceği	-2106
ump	-2107
redi	-2108
▁1.	-2109
▁Aralık	-2110
▁giriş	-2111
▁sivil	-2112
▁soruşturma	-2113
esin	-2114
▁Gül	-2115
▁seviy	-2116
lerce	-2117
dük	-2118
▁Mecli	-2119
▁rapor	-2120
▁zamanda	-2121
▁ris	-2122
▁mode	-2123
tim	-2124
▁Kad	-2125
YD	-2126
▁Allah	-2127
one	-2128
▁inan	-2129
▁kadro	-2130
▁küçük	-2131
▁elektr	-2132
izyon	-2133
▁muhal	-2134
▁transfer	-2135
abı	-2136
meyen	-2137
imizin	-2138
▁tepki	-2139
▁zarar	-2140
▁askeri	-2141
▁halinde	-2142
ileceğini	-2143
elerde	-2144
alım	-2145
acağız	-2146
▁talep	-2147
▁sayıda	-2148
30	-2149
▁Genç	-2150
mesine	-2151
arbakır	-2152
mat	-2153
▁koş	-2154
▁Har	-2155
▁Davut	-2156
▁Kılıç	-2157
▁it	-2158
▁sak	-2159
▁geliştir	-2160
▁net	-2161
▁organ	-2162
▁Ok	-2163
▁kuruluş	-2164
dam	-2165
▁Euro	-2166
vekili	-2167
dum	-2168
▁Dur	-2169
▁olmadığını	-2170
emal	-2171
isini	-2172
▁hemen	-2173
▁getirdi	-2174
etmen	-2175
▁Mahkem	-2176
▁Yönetim	-2177
çesi	-2178
▁İç	-2179
utlu	-2180
nek	-2181
▁Sel	-2182
▁başlayan	-2183
osu	-2184
▁açıl	-2185
▁gereken	-2186
▁İran	-2187
ami	-2188
▁Gazi	-2189
üst	-2190
▁şah	-2191
kenin	-2192
erson	-2193
▁ücret	-2194
▁internet	-2195
EŞ	-2196
manı	-2197
▁çağr	-2198
▁amacı	-2199
▁uygun	-2200
▁Trabzonspor	-2201
ğına	-2202
▁Ekonom	-2203
cılık	-2204
▁Diyarbakır	-2205
▁İşte	-2206
▁açıkladı	-2207
▁kalk	-2208
▁tehdi	-2209
▁birbir	-2210
▁tedavi	-2211
▁köy	-2212
▁yanında	-2213
ij	-2214
▁sayısı	-2215
▁yaşayan	-2216
▁tr	-2217
▁ettik	-2218
▁vardı	-2219
▁önünde	-2220
▁Ul	-2221
▁Kasım	-2222
ısından	-2223
",	-2224
hangi	-2225
▁eleştir	-2226
aten	-2227
ınav	-2228
aşı	-2229
lül	-2230
▁Bun	-2231
İD	-2232
rek	-2233
▁oğ	-2234
▁öne	-2235
▁gerektiğini	-2236
▁şid	-2237
adan	-2238
iyatı	-2239
▁taraftar	-2240
▁hesap	-2241
▁Davutoğlu	-2242
▁başına	-2243
maktadır	-2244
▁kah	-2245
isan	-2246
▁hen	-2247
▁yapı	-2248
▁ciddi	-2249
masıyla	-2250
▁eder	-2251
▁olab	-2252
▁durumda	-2253
▁itibaren	-2254
IN	-2255
arken	-2256
▁Ceza	-2257
▁Gülen	-2258
▁teklif	-2259
▁Aç	-2260
▁traf	-2261
▁boyunca	-2262
dim	-2263
▁Ül	-2264
adolu	-2265
ayasa	-2266
tur	-2267
▁sürec	-2268
▁izin	-2269
▁Af	-2270
FA	-2271
▁Mur	-2272
▁Çin	-2273
zı	-2274
▁Ber	-2275
▁dolayı	-2276
▁görüntü	-2277
▁sabah	-2278
▁hukuk	-2279
▁Haz	-2280
▁Sar	-2281
lamaya	-2282
▁adına	-2283
▁Şeh	-2284
▁olmaya	-2285
▁kayded	-2286
▁ifadelerini	-2287
cağız	-2288
▁şart	-2289
▁çeşit	-2290
▁olmayan	-2291
▁edece	-2292
elerinin	-2293
▁söyleyen	-2294
▁ayak	-2295
ildiği	-2296
▁iste	-2297
lediği	-2298
ısıyla	-2299
▁Val	-2300
▁Ligi	-2301
▁Hat	-2302
▁laz	-2303
▁ner	-2304
▁yük	-2305
▁erk	-2306
emiz	-2307
▁elde	-2308
▁serbest	-2309
ete	-2310
AS	-2311
▁adlı	-2312
OR	-2313
kaç	-2314
ğiniz	-2315
efer	-2316
▁mik	-2317
▁oyunc	-2318
▁Hastanesi	-2319
rubu	-2320
▁Anadolu	-2321
oh	-2322
ba	-2323
▁Kö	-2324
▁ora	-2325
▁adı	-2326
▁faiz	-2327
▁etkin	-2328
cat	-2329
▁Oy	-2330
ber	-2331
▁Bey	-2332
▁uluslararası	-2333
bay	-2334
▁28	-2335
▁Yun	-2336
▁başla	-2337
▁mas	-2338
DP	-2339
▁Çok	-2340
okrat	-2341
ısına	-2342
▁Süper	-2343
▁büyüm	-2344
▁başında	-2345
desi	-2346
sak	-2347
▁düştü	-2348
,5	-2349
lemek	-2350
ast	-2351
▁ayrı	-2352
▁Gör	-2353
▁cenaz	-2354
▁tasar	-2355
ecep	-2356
▁arasındaki	-2357
▁karış	-2358
ısını	-2359
▁yabancı	-2360
sta	-2361
▁Prof	-2362
▁2014	-2363
▁Antalya	-2364
taj	-2365
▁yat	-2366
▁eşi	-2367
▁Kaz	-2368
▁zorunda	-2369
▁düşünüyor	-2370
▁Eğitim	-2371
▁verilen	-2372
▁şark	-2373
▁Ağ	-2374
tere	-2375
▁bana	-2376
▁istiyor	-2377
dıklarını	-2378
▁mark	-2379
▁araya	-2380
▁çözüm	-2381
▁Koç	-2382
ılmış	-2383
▁Orta	-2384
▁Recep	-2385
asıyla	-2386
▁bize	-2387
SK	-2388
alara	-2389
▁şimdi	-2390
▁kurtar	-2391
▁sig	-2392
lilik	-2393
▁Sağlık	-2394
▁Tayyip	-2395
▁İst	-2396
▁şehir	-2397
mıyor	-2398
▁Müdürü	-2399
ahim	-2400
üman	-2401
isine	-2402
▁parç	-2403
▁ilet	-2404
▁geniş	-2405
▁görül	-2406
acağını	-2407
he	-2408
▁tic	-2409
▁ayrıca	-2410
▁herhangi	-2411
cil	-2412
Türkiye	-2413
▁belli	-2414
▁Yardımcısı	-2415
oktor	-2416
▁istih	-2417
abilecek	-2418
▁süreç	-2419
▁Kır	-2420
▁konuda	-2421
▁onun	-2422
▁pek	-2423
darma	-2424
▁Belediye	-2425
▁karşısında	-2426
▁dep	-2427
ilerek	-2428
liğini	-2429
▁ha	-2430
▁haft	-2431
meleri	-2432
▁yarat	-2433
▁sonunda	-2434
▁kötü	-2435
▁katıldı	-2436
▁Güvenlik	-2437
▁500	-2438
▁40	-2439
▁ünlü	-2440
▁güçlü	-2441
▁sin	-2442
▁saatlerinde	-2443
iğ	-2444
dek	-2445
diş	-2446
▁27	-2447
▁iler	-2448
▁ödül	-2449
iliği	-2450
▁tören	-2451
▁yıldı	-2452
▁tarihi	-2453
▁teslim	-2454
İR	-2455
▁kut	-2456
▁şik	-2457
▁mült	-2458
▁Mus	-2459
▁Örgüt	-2460
▁sokak	-2461
▁milli	-2462
▁hastalık	-2463
▁lazım	-2464
▁sağlan	-2465
▁Polis	-2466
▁parti	-2467
▁taleb	-2468
▁ülkenin	-2469
▁mez	-2470
▁Şen	-2471
▁dünyanın	-2472
ant	-2473
ere	-2474
lüyor	-2475
▁Dışişleri	-2476
▁avuk	-2477
▁temiz	-2478
ucu	-2479
▁Böyle	-2480
▁Alt	-2481
amaya	-2482
▁resmi	-2483
ısının	-2484
kur	-2485
▁Ol	-2486
▁May	-2487
▁cevap	-2488
har	-2489
▁199	-2490
diğini	-2491
▁Kemal	-2492
▁mahkem	-2493
▁şampiyon	-2494
▁alış	-2495
▁şiddet	-2496
▁nedenle	-2497
▁İslam	-2498
▁uygulan	-2499
▁erkek	-2500
▁Ma	-2501
▁düşür	-2502
▁hükümet	-2503
▁belg	-2504
▁sol	-2505
atürk	-2506
▁durumu	-2507
▁açıklamalar	-2508
▁yaralı	-2509
▁ilçesinde	-2510
cisi	-2511
eşil	-2512
▁poz	-2513
▁kayıt	-2514
▁alacak	-2515
IR	-2516
birliği	-2517
▁yılda	-2518
macı	-2519
▁dahil	-2520
tör	-2521
lında	-2522
▁bakan	-2523
▁yarış	-2524
menin	-2525
▁Sarı	-2526
liy	-2527
▁kurt	-2528
▁Murat	-2529
ilmek	-2530
▁Kap	-2531
sav	-2532
▁ileri	-2533
▁maçında	-2534
▁Bah	-2535
antep	-2536
▁ip	-2537
liye	-2538
▁ana	-2539
▁oyna	-2540
▁durdur	-2541
ebek	-2542
▁temel	-2543
▁sonrasında	-2544
▁taz	-2545
▁Yüks	-2546
▁yöntem	-2547
nden	-2548
meli	-2549
▁demokras	-2550
ŞİD	-2551
▁Birliği	-2552
üyle	-2553
▁Nisan	-2554
▁part	-2555
▁çift	-2556
ündeki	-2557
▁işaret	-2558
▁26	-2559
▁yapacak	-2560
uml	-2561
▁risk	-2562
▁Yak	-2563
▁rol	-2564
▁İki	-2565
▁tehdit	-2566
▁dışı	-2567
▁Şimdi	-2568
▁person	-2569
50	-2570
emi	-2571
▁duruş	-2572
EM	-2573
artesi	-2574
elerinde	-2575
gü	-2576
▁uğr	-2577
▁Sul	-2578
▁kaf	-2579
▁tehlik	-2580
▁HDP	-2581
▁öner	-2582
forman	-2583
▁galib	-2584
▁İngiltere	-2585
UR	-2586
▁Şah	-2587
▁maçı	-2588
▁yansı	-2589
mesinin	-2590
▁ettiğini	-2591
▁almak	-2592
▁Kam	-2593
▁Suriy	-2594
▁mesel	-2595
▁bilgiye	-2596
▁başarılı	-2597
imize	-2598
▁kans	-2599
▁Cumhurbaşkan	-2600
üğ	-2601
▁Bin	-2602
▁Zir	-2603
▁Trump	-2604
▁sözleş	-2605
ime	-2606
abet	-2607
▁göç	-2608
▁yılı	-2609
evizyon	-2610
▁kilo	-2611
▁amacıyla	-2612
keme	-2613
▁olm	-2614
▁giden	-2615
▁Sam	-2616
▁yanıt	-2617
▁Cad	-2618
▁ülkede	-2619
lış	-2620
ndan	-2621
ES	-2622
▁2.	-2623
▁arada	-2624
▁türlü	-2625
▁açı	-2626
amız	-2627
▁ham	-2628
▁siz	-2629
▁Aydın	-2630
▁tarihinde	-2631
eyle	-2632
▁onu	-2633
▁sınav	-2634
deniz	-2635
▁Atatürk	-2636
sanız	-2637
▁Fatih	-2638
▁getiren	-2639
▁bildirildi	-2640
▁Dir	-2641
▁gez	-2642
▁Kürt	-2643
▁kredi	-2644
▁Merkezi	-2645
▁yorum	-2646
▁iy	-2647
uvar	-2648
▁kart	-2649
sızlık	-2650
imizi	-2651
▁canlı	-2652
▁hızlı	-2653
▁yaptır	-2654
▁yık	-2655
ekk	-2656
▁Mayıs	-2657
▁düzey	-2658
▁katkı	-2659
dağ	-2660
▁29	-2661
▁ted	-2662
▁henüz	-2663
▁gazetec	-2664
fes	-2665
▁gitti	-2666
▁görüyor	-2667
çak	-2668
neği	-2669
etrol	-2670
▁IŞİD	-2671
▁model	-2672
▁ortam	-2673
▁özgür	-2674
▁İlçesi	-2675
▁DAEŞ	-2676
▁Mer	-2677
▁fay	-2678
▁list	-2679
▁PYD	-2680
▁gide	-2681
▁yemek	-2682
▁kişiler	-2683
EL	-2684
ve	-2685
▁giz	-2686
▁isimli	-2687
▁kültür	-2688
▁ihtiyaç	-2689
▁Gaziantep	-2690
▁açısından	-2691
pek	-2692
madığı	-2693
▁Fransa	-2694
▁kendisine	-2695
▁galibiyet	-2696
inç	-2697
▁sarı	-2698
layıcı	-2699
▁Müs	-2700
▁Sin	-2701
▁Sor	-2702
ayla	-2703
ormal	-2704
▁maçta	-2705
▁ediliyor	-2706
elerini	-2707
▁sistemi	-2708
▁performan	-2709
İT	-2710
▁ir	-2711
▁diyen	-2712
elerine	-2713
▁3.	-2714
iyah	-2715
tepe	-2716
umsuz	-2717
▁aylık	-2718
▁kilom	-2719
▁memur	-2720
▁Kuvvet	-2721
▁emniyet	-2722
▁ekonomik	-2723
5'	-2724
▁Jan	-2725
başı	-2726
▁çeken	-2727
layarak	-2728
▁anlattı	-2729
▁elektrik	-2730
▁rej	-2731
▁amaç	-2732
rik	-2733
üle	-2734
lığını	-2735
▁düşük	-2736
▁sebeb	-2737
▁yılın	-2738
to	-2739
▁Fed	-2740
▁kamer	-2741
med	-2742
▁Kup	-2743
EK	-2744
▁nok	-2745
▁Ham	-2746
ladık	-2747
liler	-2748
İY	-2749
evi	-2750
avuş	-2751
▁Cen	-2752
▁üyesi	-2753
daroğlu	-2754
lanıyor	-2755
▁Mahkemesi	-2756
▁atan	-2757
▁kulüb	-2758
▁Şu	-2759
▁vak	-2760
▁unut	-2761
▁doğal	-2762
▁Ekonomi	-2763
ydı	-2764
▁Sab	-2765
▁sığın	-2766
▁derece	-2767
AD	-2768
adem	-2769
▁azal	-2770
asyonu	-2771
çev	-2772
ıyla	-2773
▁İnsan	-2774
luğu	-2775
▁sıkıntı	-2776
gun	-2777
▁gören	-2778
▁sebep	-2779
lacak	-2780
doğu	-2781
▁Güney	-2782
▁siyaset	-2783
▁olmadığı	-2784
ena	-2785
▁Sok	-2786
▁giren	-2787
▁anlatan	-2788
▁çeşitli	-2789
usal	-2790
asından	-2791
alarının	-2792
▁imza	-2793
▁istik	-2794
.2016	-2795
▁önlem	-2796
▁St	-2797
▁ab	-2798
▁çer	-2799
▁sıcak	-2800
ücü	-2801
rail	-2802
miştir	-2803
▁fiyatı	-2804
▁veriyor	-2805
be	-2806
set	-2807
▁Ve	-2808
▁acı	-2809
▁civ	-2810
▁dört	-2811
▁diyerek	-2812
gaz	-2813
▁Futbol	-2814
▁konuşan	-2815
dal	-2816
▁nit	-2817
▁konut	-2818
▁görüşmeler	-2819
onu	-2820
▁kür	-2821
▁olsa	-2822
▁yerde	-2823
▁öğretmen	-2824
▁Ob	-2825
ağım	-2826
▁akıl	-2827
dip	-2828
▁Kim	-2829
yaspor	-2830
▁yıldır	-2831
▁Burada	-2832
▁öncesi	-2833
▁Osmanlı	-2834
▁bes	-2835
▁çerçev	-2836
▁söylüyor	-2837
▁Kılıçdaroğlu	-2838
İK	-2839
masından	-2840
▁biraz	-2841
▁uzman	-2842
▁Hava	-2843
▁Gel	-2844
▁ikti	-2845
▁gerekir	-2846
ağına	-2847
▁finans	-2848
▁otob	-2849
▁yani	-2850
▁gider	-2851
▁Çocuk	-2852
▁birkaç	-2853
sed	-2854
▁Ch	-2855
▁Açık	-2856
▁başta	-2857
▁hapis	-2858
▁Dak	-2859
▁mensup	-2860
▁şüphel	-2861
ıldığını	-2862
?"	-2863
LAR	-2864
fet	-2865
▁st	-2866
▁Meclis	-2867
gör	-2868
uar	-2869
▁Bas	-2870
▁olup	-2871
anak	-2872
▁tec	-2873
▁ekran	-2874
▁çekti	-2875
▁soruml	-2876
larca	-2877
▁yarın	-2878
▁aralarında	-2879
tıyor	-2880
▁beni	-2881
▁Başsav	-2882
eyn	-2883
▁num	-2884
▁enerji	-2885
▁sürekli	-2886
▁çalışıyor	-2887
▁Kız	-2888
▁Öte	-2889
lardır	-2890
▁Eylül	-2891
ndeki	-2892
sınız	-2893
▁kriz	-2894
▁buna	-2895
▁eğ	-2896
▁Bor	-2897
▁doğr	-2898
xx	-2899
ışık	-2900
raman	-2901
▁sene	-2902
▁önüne	-2903
alarını	-2904
iran	-2905
pany	-2906
nız	-2907
▁yal	-2908
▁Sosyal	-2909
▁üniversit	-2910
▁cih	-2911
▁Halep	-2912
▁İngiliz	-2913
▁yaşadığı	-2914
cut	-2915
şem	-2916
▁31	-2917
▁Ekim	-2918
▁arama	-2919
▁girdi	-2920
▁gösterdi	-2921
▁günlerde	-2922
▁tahmin	-2923
▁bekleniyor	-2924
▁Kat	-2925
▁ces	-2926
▁rakam	-2927
▁etkili	-2928
▁yarg	-2929
▁doktor	-2930
oca	-2931
udi	-2932
▁hayata	-2933
▁kuvvet	-2934
▁işlet	-2935
son	-2936
▁Hüs	-2937
▁dal	-2938
ümüzdeki	-2939
ST	-2940
▁yanlış	-2941
▁tutuklandı	-2942
▁Yaş	-2943
olojik	-2944
▁mahal	-2945
brahim	-2946
▁Yunan	-2947
▁Güncel	-2948
▁geçmiş	-2949
▁gerekli	-2950
▁değildir	-2951
vis	-2952
▁Tu	-2953
▁Yani	-2954
▁alanda	-2955
▁Araştır	-2956
ON	-2957
▁Bul	-2958
▁Çal	-2959
arında	-2960
mam	-2961
▁Bal	-2962
▁Van	-2963
▁görevli	-2964
andır	-2965
▁yazılı	-2966
AY	-2967
▁Fa	-2968
▁Sev	-2969
▁Tel	-2970
lüman	-2971
▁hangi	-2972
▁Amerika	-2973
bo	-2974
ğur	-2975
▁yarar	-2976
.1	-2977
AM	-2978
err	-2979
▁hakim	-2980
▁döneminde	-2981
▁dö	-2982
▁Sen	-2983
▁um	-2984
▁Yüksek	-2985
▁Bölg	-2986
▁bizi	-2987
▁uyar	-2988
mel	-2989
eyim	-2990
▁bomba	-2991
▁Hollan	-2992
▁dayan	-2993
▁tüket	-2994
▁Adana	-2995
▁sayesinde	-2996
ıma	-2997
▁Caddesi	-2998
▁yerinde	-2999
ku	-3000
geç	-3001
▁meş	-3002
▁ihracat	-3003
▁kitap	-3004
▁gerekç	-3005
meni	-3006
▁vaz	-3007
▁ilan	-3008
lenmesi	-3009
▁2017	-3010
▁sert	-3011
▁tedbir	-3012
abiliyor	-3013
▁Özellikle	-3014
ED	-3015
▁Tüm	-3016
ulması	-3017
▁nokta	-3018
▁vardır	-3019
▁karşılık	-3020
▁öyle	-3021
▁geçiş	-3022
▁davran	-3023
▁Fetullah	-3024
oda	-3025
▁Ken	-3026
▁Nur	-3027
▁haline	-3028
▁Göz	-3029
demir	-3030
▁Teknik	-3031
▁olumsuz	-3032
▁cep	-3033
▁müş	-3034
▁bildirdi	-3035
▁yardımcı	-3036
luğ	-3037
▁yönetic	-3038
lal	-3039
▁Tab	-3040
▁yere	-3041
▁Bizim	-3042
▁edilmesi	-3043
▁oluşan	-3044
ona	-3045
matik	-3046
▁Ömer	-3047
ayi	-3048
▁lig	-3049
▁Dakika	-3050
▁şüpheli	-3051
▁personel	-3052
▁Mes	-3053
▁str	-3054
▁incelem	-3055
atif	-3056
▁amel	-3057
▁itir	-3058
maması	-3059
▁esn	-3060
emin	-3061
▁DEAŞ	-3062
▁kendisini	-3063
▁beled	-3064
ümü	-3065
lanacak	-3066
▁söyley	-3067
▁hastalı	-3068
▁Han	-3069
▁sona	-3070
sen	-3071
cılı	-3072
▁yıldız	-3073
▁Eğer	-3074
▁buluş	-3075
▁Eş	-3076
duğunu	-3077
▁altın	-3078
fi	-3079
▁olmaz	-3080
▁hüc	-3081
▁bakım	-3082
ildiğini	-3083
▁tamamen	-3084
▁Kr	-3085
▁ıs	-3086
sinde	-3087
esindeki	-3088
▁yaşında	-3089
alarına	-3090
▁beri	-3091
▁günlük	-3092
▁etkisiz	-3093
▁İbrahim	-3094
▁demek	-3095
▁Amerik	-3096
▁Belediyesi	-3097
▁ders	-3098
ren	-3099
cılığı	-3100
anış	-3101
▁Kendi	-3102
ow	-3103
emey	-3104
erim	-3105
ğust	-3106
BM	-3107
alel	-3108
▁ruh	-3109
▁çab	-3110
irken	-3111
▁kalp	-3112
▁karak	-3113
Ben	-3114
▁Haberler	-3115
dası	-3116
▁Mal	-3117
▁def	-3118
▁etkil	-3119
▁kesim	-3120
▁kaydedildi	-3121
▁Güneş	-3122
▁Şehit	-3123
▁İsrail	-3124
▁(2	-3125
▁Kı	-3126
▁Uy	-3127
etik	-3128
▁baz	-3129
▁kuş	-3130
▁yav	-3131
▁kulüp	-3132
▁sonuc	-3133
▁süren	-3134
▁cezası	-3135
3'	-3136
za	-3137
ırı	-3138
sında	-3139
ğının	-3140
mayacak	-3141
▁plak	-3142
▁Grubu	-3143
ke	-3144
gar	-3145
sur	-3146
▁Bankası	-3147
▁Kültür	-3148
lamen	-3149
▁attı	-3150
ğan	-3151
▁mot	-3152
▁Aynı	-3153
▁kaybetti	-3154
ekkür	-3155
ektörü	-3156
▁Müslüman	-3157
▁yarı	-3158
▁final	-3159
▁zaten	-3160
lanması	-3161
▁bö	-3162
▁Çelik	-3163
ışmalar	-3164
uc	-3165
▁Buna	-3166
▁ediyorum	-3167
▁bede	-3168
▁yayım	-3169
dalı	-3170
▁zir	-3171
▁Obama	-3172
unma	-3173
▁Şampiyon	-3174
▁anne	-3175
▁merak	-3176
▁çocuğ	-3177
▁silahlı	-3178
apı	-3179
engin	-3180
lasyon	-3181
▁yolcu	-3182
▁babası	-3183
▁dağı	-3184
▁tesi	-3185
▁Kupası	-3186
abir	-3187
▁kıy	-3188
ğustos	-3189
▁Yapılan	-3190
▁kendini	-3191
türk	-3192
▁belirlendi	-3193
▁davet	-3194
▁Hüseyin	-3195
▁olduğuna	-3196
▁Boz	-3197
▁Gür	-3198
▁2015'	-3199
▁yapıla	-3200
air	-3201
▁ağr	-3202
▁beş	-3203
▁kapı	-3204
▁yargı	-3205
▁Derneği	-3206
▁televizyon	-3207
PG	-3208
wit	-3209
tiler	-3210
sizlik	-3211
▁Sokak	-3212
▁hesab	-3213
▁durumunda	-3214
▁dost	-3215
alimanı	-3216
▁dışarı	-3217
▁Aş	-3218
uzur	-3219
▁tali	-3220
ımızın	-3221
▁avukat	-3222
▁toprak	-3223
yum	-3224
▁çıkış	-3225
▁mar	-3226
▁yüzden	-3227
paşa	-3228
▁Geçen	-3229
▁Kadın	-3230
▁bağım	-3231
▁kullandığı	-3232
emez	-3233
▁Çağ	-3234
vekil	-3235
▁prot	-3236
▁MHP	-3237
▁,	-3238
oto	-3239
▁Batı	-3240
mail	-3241
espor	-3242
▁yaralandı	-3243
mut	-3244
tren	-3245
ınıf	-3246
▁zam	-3247
▁orada	-3248
▁bundan	-3249
▁oldukça	-3250
▁gösteren	-3251
ımızı	-3252
▁Yas	-3253
amak	-3254
etre	-3255
ılır	-3256
ıldız	-3257
▁Bunu	-3258
▁borç	-3259
▁dava	-3260
▁miktar	-3261
▁petrol	-3262
madığını	-3263
▁çalışmaları	-3264
▁aile	-3265
EFA	-3266
yalı	-3267
▁hik	-3268
atör	-3269
▁Bab	-3270
▁Büyükşehir	-3271
düğünü	-3272
▁dünyada	-3273
▁Hasan	-3274
İM	-3275
▁fik	-3276
ciler	-3277
▁Yor	-3278
▁idar	-3279
▁güncel	-3280
▁teşekkür	-3281
barat	-3282
▁edin	-3283
▁kims	-3284
lamada	-3285
▁fırsat	-3286
oğu	-3287
▁otel	-3288
▁mevcut	-3289
▁35	-3290
▁Şube	-3291
bur	-3292
süz	-3293
▁çey	-3294
▁Emre	-3295
▁geril	-3296
ker	-3297
▁Vak	-3298
lılık	-3299
▁normal	-3300
▁pozisyon	-3301
.0	-3302
▁Mad	-3303
▁gay	-3304
▁alarak	-3305
gr	-3306
▁enf	-3307
▁bitir	-3308
dat	-3309
ite	-3310
▁Mo	-3311
▁Hem	-3312
▁krit	-3313
▁du	-3314
▁of	-3315
▁sanık	-3316
ilmişti	-3317
▁gündem	-3318
▁j	-3319
▁Kurt	-3320
▁yalnız	-3321
▁Suriyeli	-3322
▁Albay	-3323
ebilecek	-3324
▁Komutan	-3325
▁başvuru	-3326
▁Jandarma	-3327
▁Başkanlığı	-3328
▁BM	-3329
▁hâ	-3330
▁edeb	-3331
eksiyon	-3332
▁hazırlık	-3333
▁Uluslararası	-3334
duğ	-3335
ham	-3336
▁Vol	-3337
▁örnek	-3338
An	-3339
▁UEFA	-3340
▁Mücade	-3341
▁Sultan	-3342
▁muhalif	-3343
▁değişiklik	-3344
ÜR	-3345
▁60	-3346
▁ona	-3347
▁başken	-3348
yo	-3349
siy	-3350
ınan	-3351
witter	-3352
▁derin	-3353
▁yapılması	-3354
▁öden	-3355
lığına	-3356
allah	-3357
▁hakem	-3358
▁oda	-3359
▁gündeme	-3360
▁In	-3361
▁Yan	-3362
▁mek	-3363
iyeti	-3364
eyazlı	-3365
▁olmadı	-3366
▁verilm	-3367
▁edildiği	-3368
▁girişimi	-3369
inc	-3370
kor	-3371
barı	-3372
▁ölç	-3373
panya	-3374
▁heyec	-3375
▁çıkıyor	-3376
▁Bursa	-3377
▁insanların	-3378
pp	-3379
uluyor	-3380
▁Çavuş	-3381
▁müdahale	-3382
▁teknoloj	-3383
▁trafik	-3384
his	-3385
imde	-3386
▁Sah	-3387
▁ekibi	-3388
▁Ağustos	-3389
▁yum	-3390
▁barış	-3391
▁mağdur	-3392
▁olumlu	-3393
▁vermek	-3394
PD	-3395
▁Re	-3396
ding	-3397
▁Sayın	-3398
▁müdür	-3399
▁yasak	-3400
▁Örgütü	-3401
▁şikayet	-3402
▁başkanlık	-3403
▁Fer	-3404
▁Hüküm	-3405
▁detay	-3406
▁hatta	-3407
res	-3408
inizi	-3409
▁deniz	-3410
▁ihtim	-3411
▁kuzey	-3412
elç	-3413
▁yerleş	-3414
▁insanlar	-3415
▁Milletvekili	-3416
▁po	-3417
▁İh	-3418
urken	-3419
▁forma	-3420
anet	-3421
onya	-3422
larım	-3423
car	-3424
yanın	-3425
▁nerede	-3426
▁işç	-3427
cılar	-3428
▁renk	-3429
▁cihaz	-3430
▁isten	-3431
▁yola	-3432
▁ilaç	-3433
mediği	-3434
▁mutlu	-3435
▁Samsun	-3436
liğe	-3437
ımıza	-3438
▁yürüy	-3439
bek	-3440
itir	-3441
iydi	-3442
lasman	-3443
çeli	-3444
âr	-3445
▁patlayıcı	-3446
ze	-3447
üstü	-3448
▁erken	-3449
▁namaz	-3450
▁sürede	-3451
▁geldiği	-3452
▁geçtiğimiz	-3453
▁Tan	-3454
▁diş	-3455
▁tip	-3456
▁ordu	-3457
aka	-3458
▁Oğ	-3459
ınar	-3460
▁sakat	-3461
▁müs	-3462
▁İnş	-3463
siyle	-3464
ğinin	-3465
▁ekib	-3466
go	-3467
▁defa	-3468
▁etmesi	-3469
Biz	-3470
gisi	-3471
lığa	-3472
▁Bağ	-3473
▁Tun	-3474
▁mutlak	-3475
▁Müz	-3476
▁pas	-3477
ğiz	-3478
blem	-3479
▁Mev	-3480
ırnak	-3481
mur	-3482
▁sefer	-3483
▁Ka	-3484
▁hain	-3485
▁Şahin	-3486
▁verecek	-3487
AH	-3488
ahmet	-3489
▁Hakan	-3490
▁içeri	-3491
▁metre	-3492
▁katılım	-3493
▁düzenlem	-3494
▁düzenlen	-3495
ücu	-3496
▁bölge	-3497
▁TV	-3498
▁Kulüb	-3499
büs	-3500
malıdır	-3501
▁İsmail	-3502
▁ediyoruz	-3503
▁tutuklan	-3504
▁getirildi	-3505
▁vurgulayan	-3506
ban	-3507
▁le	-3508
▁öğ	-3509
▁grub	-3510
▁Fakat	-3511
cüsü	-3512
▁peş	-3513
▁tas	-3514
▁şar	-3515
▁yapma	-3516
▁sürüyor	-3517
▁kanser	-3518
▁Anayasa	-3519
▁Abd	-3520
▁ilgi	-3521
▁kamp	-3522
▁sınıf	-3523
▁çevir	-3524
▁Kah	-3525
▁kaçır	-3526
▁rejim	-3527
▁yitir	-3528
▁yıllarda	-3529
▁kullanıcı	-3530
▁Ara	-3531
▁New	-3532
▁mis	-3533
▁Şir	-3534
etici	-3535
masın	-3536
▁maliyet	-3537
▁yaparak	-3538
larımızın	-3539
▁Mücadele	-3540
2'	-3541
BMM	-3542
ons	-3543
▁Haziran	-3544
ia	-3545
edeki	-3546
▁Doğan	-3547
▁ambul	-3548
▁kanal	-3549
▁hayal	-3550
▁müzik	-3551
nan	-3552
▁not	-3553
▁sahn	-3554
▁düşen	-3555
▁neler	-3556
kr	-3557
▁bey	-3558
▁biç	-3559
ulmuş	-3560
▁Bazı	-3561
▁anlay	-3562
▁aslında	-3563
▁Komisyon	-3564
-3	-3565
▁ert	-3566
▁kup	-3567
▁eser	-3568
▁düşüş	-3569
▁ettir	-3570
ilendir	-3571
▁istiyorum	-3572
▁kullanılan	-3573
slan	-3574
muştu	-3575
▁bilim	-3576
▁huzur	-3577
par	-3578
▁(1	-3579
▁olacağını	-3580
AP	-3581
ılım	-3582
▁endiş	-3583
▁Cumhuriyeti	-3584
zi	-3585
▁nak	-3586
▁varsa	-3587
atej	-3588
▁Cam	-3589
▁Peki	-3590
▁rakip	-3591
ilirken	-3592
liğinde	-3593
▁kişilik	-3594
▁kaybeden	-3595
▁ölü	-3596
▁yolu	-3597
▁eksik	-3598
▁karşıya	-3599
uncu	-3600
▁oranı	-3601
▁Yal	-3602
▁unsur	-3603
▁altını	-3604
▁taşıyan	-3605
▁Film	-3606
kurmay	-3607
▁kayıp	-3608
▁merkezi	-3609
ene	-3610
deri	-3611
▁birim	-3612
▁dünyaya	-3613
▁katılan	-3614
▁kırmızı	-3615
▁çıkacak	-3616
8'	-3617
rem	-3618
ult	-3619
çuk	-3620
▁Fır	-3621
▁don	-3622
lenme	-3623
▁Doğu	-3624
▁aşağı	-3625
▁içine	-3626
▁tatil	-3627
okratik	-3628
ekiz	-3629
▁güc	-3630
▁küresel	-3631
ğe	-3632
rüb	-3633
▁ayır	-3634
▁kişilerin	-3635
anam	-3636
▁300	-3637
▁Bat	-3638
▁ameliyat	-3639
abilirsiniz	-3640
▁36	-3641
utin	-3642
anlar	-3643
▁emek	-3644
▁yolc	-3645
▁Sanat	-3646
▁Bayram	-3647
▁Tıp	-3648
▁müh	-3649
▁dokun	-3650
▁halde	-3651
sına	-3652
▁alma	-3653
▁ulaştı	-3654
▁muhabir	-3655
▁problem	-3656
▁milletvekil	-3657
▁gaz	-3658
▁çap	-3659
▁Benim	-3660
ko	-3661
▁Twitter	-3662
ati	-3663
mit	-3664
seri	-3665
ilerden	-3666
▁etmeye	-3667
▁civarında	-3668
sas	-3669
▁cam	-3670
elerle	-3671
▁2016'	-3672
▁Altın	-3673
Bir	-3674
sim	-3675
ital	-3676
▁Cem	-3677
lardı	-3678
▁TBMM	-3679
▁çünkü	-3680
▁gelişmeler	-3681
mediğini	-3682
▁bağlantı	-3683
▁yapmaya	-3684
yım	-3685
▁İsv	-3686
▁yargılan	-3687
▁kilometre	-3688
▁Havalimanı	-3689
▁De	-3690
▁Gö	-3691
aket	-3692
▁pil	-3693
▁Üst	-3694
ıyorum	-3695
▁operasyonda	-3696
lamaz	-3697
▁depr	-3698
▁üçüncü	-3699
▁Genelkurmay	-3700
▁gerekçesiyle	-3701
mede	-3702
ester	-3703
▁Hakk	-3704
liğine	-3705
▁inşaat	-3706
iber	-3707
▁sem	-3708
ersin	-3709
▁proje	-3710
▁istiyoruz	-3711
▁yerleştir	-3712
lâ	-3713
tılı	-3714
estiv	-3715
▁Arab	-3716
▁Pazar	-3717
▁Gökhan	-3718
▁Fin	-3719
▁Kıs	-3720
lanma	-3721
iyatro	-3722
▁deplasman	-3723
▁Muham	-3724
▁alına	-3725
▁vuruş	-3726
▁lideri	-3727
▁yoktur	-3728
▁198	-3729
▁Yen	-3730
▁oğlu	-3731
▁Diğer	-3732
▁uyarı	-3733
▁şarkı	-3734
▁emekli	-3735
▁iktidar	-3736
▁dolarlık	-3737
▁yürütülen	-3738
▁Den	-3739
ersiz	-3740
ılmaz	-3741
▁yakalandı	-3742
,1	-3743
gül	-3744
ağının	-3745
▁vazgeç	-3746
▁hatırlat	-3747
onal	-3748
▁ade	-3749
▁turist	-3750
▁büt	-3751
ündem	-3752
▁Eski	-3753
▁Harek	-3754
▁hafif	-3755
▁kamuoy	-3756
ou	-3757
rim	-3758
▁soğ	-3759
▁Kuzey	-3760
▁öngör	-3761
general	-3762
▁başlan	-3763
hat	-3764
▁34	-3765
▁Ger	-3766
▁baskı	-3767
iyer	-3768
▁Taş	-3769
▁yıla	-3770
▁başkanı	-3771
▁sıralarında	-3772
▁90	-3773
▁Darb	-3774
▁görüldü	-3775
▁döv	-3776
▁soy	-3777
▁park	-3778
▁yavaş	-3779
▁Sadece	-3780
▁mutlaka	-3781
kiş	-3782
üler	-3783
▁Başak	-3784
▁oynan	-3785
▁satın	-3786
▁Kurumu	-3787
▁yapımı	-3788
▁Yunanistan	-3789
ikat	-3790
▁Arena	-3791
▁numar	-3792
▁sonuna	-3793
▁hastaneye	-3794
▁sığınmacı	-3795
osk	-3796
▁45	-3797
▁Öğr	-3798
▁otobüs	-3799
▁özellik	-3800
▁direktör	-3801
▁vatandaşlar	-3802
eker	-3803
laşma	-3804
dıktan	-3805
▁annesi	-3806
▁kaldırıldı	-3807
ond	-3808
akar	-3809
▁Yüz	-3810
▁alk	-3811
▁tuz	-3812
▁Vatan	-3813
mesiyle	-3814
meyecek	-3815
▁belirlen	-3816
ıf	-3817
▁sorgu	-3818
▁Car	-3819
▁Sür	-3820
▁dök	-3821
laması	-3822
▁ilişki	-3823
▁uygulama	-3824
▁çerçevesinde	-3825
▁iptal	-3826
▁nüf	-3827
▁Konya	-3828
LI	-3829
▁zengin	-3830
▁kampany	-3831
,2	-3832
LER	-3833
▁red	-3834
cilik	-3835
lığın	-3836
▁etme	-3837
▁açıldı	-3838
▁Yol	-3839
▁ref	-3840
▁topu	-3841
▁savunma	-3842
▁Sh	-3843
enek	-3844
▁pen	-3845
▁onların	-3846
lığının	-3847
▁ortadan	-3848
▁sonucunda	-3849
ansı	-3850
▁Hep	-3851
▁Proj	-3852
▁güçleri	-3853
▁yönünde	-3854
İZ	-3855
ubay	-3856
▁yapar	-3857
liyoruz	-3858
mesinde	-3859
▁32	-3860
▁asıl	-3861
elikle	-3862
▁mağlu	-3863
.00'	-3864
rika	-3865
▁şaş	-3866
▁şans	-3867
▁saygı	-3868
nu	-3869
say	-3870
vert	-3871
▁şif	-3872
usuna	-3873
,9	-3874
.4	-3875
1'	-3876
▁iP	-3877
sını	-3878
▁Cuma	-3879
▁kalit	-3880
▁kaydeden	-3881
▁sağlıklı	-3882
▁boğ	-3883
▁Kaya	-3884
▁kazandı	-3885
▁mahkeme	-3886
▁Kuvvetleri	-3887
▁gösteriyor	-3888
soy	-3889
mayın	-3890
▁köpr	-3891
▁yeri	-3892
▁vide	-3893
▁Volkan	-3894
▁İtalya	-3895
▁yaptığını	-3896
bi	-3897
▁YPG	-3898
▁izley	-3899
▁Holding	-3900
düm	-3901
ımda	-3902
▁antren	-3903
▁Araştırma	-3904
▁Operasyon	-3905
▁müt	-3906
▁saç	-3907
▁Şim	-3908
▁yazı	-3909
▁vergi	-3910
ılmasına	-3911
▁geldiğini	-3912
▁yaptıkları	-3913
cının	-3914
tern	-3915
▁AKP	-3916
▁Le	-3917
keti	-3918
▁malz	-3919
alandır	-3920
▁açılış	-3921
▁vade	-3922
▁alanı	-3923
▁seyir	-3924
▁muhalef	-3925
fı	-3926
yu	-3927
▁Kil	-3928
utanı	-3929
civert	-3930
▁2016,	-3931
larımızı	-3932
▁şeyi	-3933
▁Yeşil	-3934
▁hayvan	-3935
larındaki	-3936
rı	-3937
ây	-3938
▁dağ	-3939
▁oku	-3940
lanmış	-3941
▁ülkem	-3942
▁attığı	-3943
malarını	-3944
▁gar	-3945
iklet	-3946
isyen	-3947
▁aracı	-3948
▁buldu	-3949
▁derec	-3950
▁etmiş	-3951
▁benzer	-3952
▁ederken	-3953
▁istediği	-3954
▁başlayacak	-3955
▁önümüzdeki	-3956
▁İd	-3957
▁İyi	-3958
▁doğum	-3959
▁mültec	-3960
▁yönetimi	-3961
▁Sa	-3962
▁asla	-3963
▁bilgiler	-3964
iği	-3965
amadı	-3966
▁sorumlu	-3967
gal	-3968
vik	-3969
▁And	-3970
▁fil	-3971
▁Ağır	-3972
mızılı	-3973
esiz	-3974
oman	-3975
▁Çetin	-3976
▁evinde	-3977
▁bilinen	-3978
▁ambulans	-3979
abak	-3980
izik	-3981
▁bal	-3982
▁derb	-3983
▁Karşı	-3984
▁olmuş	-3985
▁sorunu	-3986
onik	-3987
▁Suudi	-3988
▁korun	-3989
landığı	-3990
▁takımın	-3991
▁Naz	-3992
▁diren	-3993
▁bat	-3994
▁altı	-3995
▁kısm	-3996
ülüyor	-3997
maların	-3998
▁olursa	-3999
▁süreci	-4000
▁edilecek	-4001
bu	-4002
yer	-4003
ülü	-4004
estor	-4005
▁Feder	-4006
▁bebek	-4007
▁ister	-4008
▁olduklarını	-4009
:00	-4010
▁Et	-4011
ğünü	-4012
▁sel	-4013
veriş	-4014
▁imkan	-4015
▁krizi	-4016
▁rekor	-4017
▁yağış	-4018
▁İkinci	-4019
▁bulutlu	-4020
▁demokrasi	-4021
mal	-4022
tarı	-4023
▁terk	-4024
▁memnun	-4025
▁Şırnak	-4026
▁alanında	-4027
amet	-4028
raki	-4029
aladı	-4030
▁Port	-4031
▁baba	-4032
▁mutl	-4033
▁bugüne	-4034
▁kaldığı	-4035
rag	-4036
yse	-4037
leniyor	-4038
▁genelinde	-4039
▁Üç	-4040
ekim	-4041
▁yaşandı	-4042
▁kendilerine	-4043
▁Jo	-4044
hone	-4045
▁Sta	-4046
▁Yet	-4047
▁yiy	-4048
emesi	-4049
▁alıp	-4050
tiğimiz	-4051
▁iletişim	-4052
▁rahatsız	-4053
▁ton	-4054
bette	-4055
manız	-4056
▁Uzun	-4057
▁imha	-4058
▁kara	-4059
▁yerli	-4060
▁Adalet	-4061
▁görülen	-4062
▁vurguladı	-4063
▁düşünüyorum	-4064
ina	-4065
▁koşul	-4066
mür	-4067
emen	-4068
illi	-4069
▁size	-4070
▁konum	-4071
▁şeyler	-4072
DA	-4073
DI	-4074
ira	-4075
rid	-4076
kiler	-4077
▁skor	-4078
▁yasa	-4079
acılık	-4080
▁gördü	-4081
▁açılan	-4082
▁bunlar	-4083
▁denildi	-4084
▁Güm	-4085
▁Mel	-4086
▁Bütün	-4087
▁ayrıl	-4088
▁tanım	-4089
▁cinsel	-4090
▁yeterli	-4091
▁harekete	-4092
.30	-4093
şık	-4094
▁kimse	-4095
▁kimlik	-4096
▁bölgesinde	-4097
▁Di	-4098
▁fak	-4099
▁Ordu	-4100
▁evde	-4101
tıkları	-4102
▁hisset	-4103
▁desteği	-4104
▁stratej	-4105
are	-4106
ele	-4107
zan	-4108
▁Mey	-4109
▁arz	-4110
▁Silah	-4111
▁taban	-4112
beyazlı	-4113
▁etkilen	-4114
▁Ro	-4115
indi	-4116
iyan	-4117
▁Arap	-4118
▁açtı	-4119
▁yazar	-4120
▁yerel	-4121
▁operasyonu	-4122
▁inşa	-4123
▁gizli	-4124
▁tazmin	-4125
▁biliyor	-4126
▁bunların	-4127
DE	-4128
▁Gir	-4129
▁Direktörü	-4130
▁açıklaması	-4131
▁70	-4132
▁nö	-4133
▁App	-4134
▁dolu	-4135
umartesi	-4136
kim	-4137
iyiz	-4138
▁gördük	-4139
▁Komutanlığı	-4140
HA	-4141
isay	-4142
▁olacağı	-4143
po	-4144
▁belki	-4145
▁yapmış	-4146
▁hakaret	-4147
▁binlerce	-4148
▁yaralanan	-4149
9'	-4150
▁%	-4151
▁Ver	-4152
▁alty	-4153
▁maaş	-4154
dikten	-4155
▁Sonra	-4156
▁kuruş	-4157
▁salon	-4158
▁yurtdı	-4159
▁Belediy	-4160
▁Böylece	-4161
▁ticaret	-4162
liğin	-4163
▁Kons	-4164
▁odak	-4165
▁çıkart	-4166
▁ortalama	-4167
▁arkasında	-4168
▁Mu	-4169
▁kaçak	-4170
▁siyah	-4171
▁liraya	-4172
▁sanatçı	-4173
▁bulunduğunu	-4174
kar	-4175
▁min	-4176
▁vit	-4177
▁tecrüb	-4178
▁anlamda	-4179
▁işbirliği	-4180
▁belirtilen	-4181
nam	-4182
▁Ha	-4183
▁ah	-4184
▁Nec	-4185
▁Belç	-4186
▁Karab	-4187
tığımız	-4188
▁80	-4189
▁bı	-4190
kale	-4191
▁Köpr	-4192
▁kapas	-4193
▁takımı	-4194
▁Hiç	-4195
▁Tic	-4196
▁işi	-4197
▁cami	-4198
▁vücu	-4199
▁endek	-4200
▁yapacağı	-4201
▁tık	-4202
usunu	-4203
▁Uzman	-4204
▁kazandır	-4205
▁toplantısında	-4206
▁KO	-4207
ever	-4208
emedi	-4209
▁Savunma	-4210
▁ifadesini	-4211
ash	-4212
kray	-4213
orta	-4214
neğin	-4215
▁Dolay	-4216
▁birinci	-4217
▁oynanan	-4218
▁seyahat	-4219
▁yaşamını	-4220
▁Ege	-4221
▁Çev	-4222
imizde	-4223
▁güney	-4224
▁istis	-4225
▁gidiyor	-4226
▁gem	-4227
▁Putin	-4228
ruk	-4229
leşme	-4230
muyor	-4231
▁Kart	-4232
▁sayf	-4233
▁önde	-4234
▁Sinan	-4235
▁evine	-4236
▁işada	-4237
▁çıkma	-4238
UN	-4239
▁Ef	-4240
▁rö	-4241
▁ayı	-4242
▁Arda	-4243
▁cezaev	-4244
▁doldur	-4245
▁kendisi	-4246
▁Arabistan	-4247
afer	-4248
▁Halk	-4249
▁aşırı	-4250
▁Yıldız	-4251
▁giderek	-4252
▁sonraki	-4253
UL	-4254
dun	-4255
▁gur	-4256
▁kop	-4257
▁Asya	-4258
▁dahi	-4259
▁Ödül	-4260
▁hakkı	-4261
7'	-4262
io	-4263
akanı	-4264
▁Dair	-4265
▁Musul	-4266
liğinin	-4267
▁büyüme	-4268
▁yenil	-4269
▁çağır	-4270
▁çıkardı	-4271
▁Un	-4272
▁alb	-4273
▁bür	-4274
▁düğ	-4275
▁Burs	-4276
▁Grup	-4277
▁sine	-4278
emeyen	-4279
▁Bunlar	-4280
▁Selçuk	-4281
lev	-4282
▁koru	-4283
▁Kulübü	-4284
▁Kayseri	-4285
▁değişim	-4286
▁Başakşehir	-4287
uluğ	-4288
▁Düz	-4289
▁eyalet	-4290
iya	-4291
rum	-4292
▁Erz	-4293
▁Yav	-4294
laşık	-4295
ulmaz	-4296
▁ismi	-4297
▁olun	-4298
elikop	-4299
ayıf	-4300
ezil	-4301
lili	-4302
▁keş	-4303
▁tesis	-4304
▁kurulan	-4305
▁haberine	-4306
▁eve	-4307
▁sap	-4308
▁süt	-4309
ıştır	-4310
ğinden	-4311
▁Paris	-4312
▁yalan	-4313
▁bölgeye	-4314
▁indirim	-4315
▁medyada	-4316
▁mülteci	-4317
▁süredir	-4318
PDY	-4319
FETÖ	-4320
▁mor	-4321
▁adli	-4322
▁Apple	-4323
ğanüstü	-4324
▁metrek	-4325
ebiliyor	-4326
lil	-4327
▁zirv	-4328
ürr	-4329
▁Tor	-4330
ülent	-4331
▁dolara	-4332
▁iPhone	-4333
▁alınması	-4334
▁edeceğiz	-4335
▁açıklandı	-4336
▁çatışmalar	-4337
▁tez	-4338
▁psik	-4339
undaki	-4340
▁konuk	-4341
▁servis	-4342
▁başlıyor	-4343
▁katıldığı	-4344
▁fon	-4345
▁Aziz	-4346
▁Toto	-4347
▁iade	-4348
▁onlar	-4349
▁sürücü	-4350
▁yapılıyor	-4351
▁Q	-4352
▁Orman	-4353
▁cumhur	-4354
▁bunları	-4355
▁Amerikan	-4356
▁İlçe	-4357
▁kapalı	-4358
▁kişiyi	-4359
▁sahada	-4360
▁sokağa	-4361
ink	-4362
▁Tah	-4363
▁dip	-4364
▁Küçük	-4365
▁yapım	-4366
▁düşünc	-4367
▁Albayrak	-4368
-4	-4369
idin	-4370
▁Tabii	-4371
▁sizin	-4372
▁yakal	-4373
▁bekliyor	-4374
▁çalıştır	-4375
▁öncesinde	-4376
▁Dolayısıyla	-4377
▁Jap	-4378
▁hır	-4379
▁istif	-4380
▁Mersin	-4381
▁takdir	-4382
,8	-4383
▁Se	-4384
▁Suç	-4385
▁cil	-4386
▁adeta	-4387
▁Bülent	-4388
▁dikkati	-4389
▁örgütün	-4390
AC	-4391
yıl	-4392
book	-4393
maat	-4394
urum	-4395
▁tüf	-4396
erbay	-4397
▁stan	-4398
▁test	-4399
amazan	-4400
▁inanıyor	-4401
alisyon	-4402
▁başlattı	-4403
▁devletin	-4404
tek	-4405
ihan	-4406
▁Madrid	-4407
larımıza	-4408
lerimizi	-4409
▁çatışma	-4410
▁hazırlanan	-4411
▁Bo	-4412
▁Sey	-4413
▁Turan	-4414
▁Ukray	-4415
▁Men	-4416
▁Kurul	-4417
▁bağlan	-4418
▁teşvik	-4419
▁olmasına	-4420
▁sağlamak	-4421
ağın	-4422
tisi	-4423
▁beğ	-4424
▁hac	-4425
▁kem	-4426
enler	-4427
lıkla	-4428
sının	-4429
ıyorlar	-4430
▁Birleş	-4431
▁Öztürk	-4432
6'	-4433
ag	-4434
▁kıl	-4435
tacak	-4436
▁inti	-4437
▁uçuş	-4438
ılarak	-4439
▁boyut	-4440
▁akıllı	-4441
▁halkın	-4442
▁ihtiyac	-4443
▁saldırıda	-4444
TI	-4445
eysel	-4446
cebook	-4447
▁ödeme	-4448
▁onları	-4449
EC	-4450
▁CE	-4451
abil	-4452
memiş	-4453
Gündem	-4454
▁itibarı	-4455
▁temsilc	-4456
▁Bek	-4457
latan	-4458
ilerle	-4459
▁üstün	-4460
▁noktada	-4461
elerinden	-4462
tıklarını	-4463
▁güçlendir	-4464
▁üzerindeki	-4465
elt	-4466
ubu	-4467
şembe	-4468
▁motor	-4469
▁istihdam	-4470
▁yapıldığı	-4471
OK	-4472
▁09	-4473
matı	-4474
▁Fak	-4475
ordin	-4476
▁kısı	-4477
▁tane	-4478
lemeye	-4479
izasyon	-4480
▁anayasa	-4481
▁karakter	-4482
teri	-4483
▁üye	-4484
▁Tekn	-4485
isayar	-4486
▁futbolc	-4487
,4	-4488
ss	-4489
iir	-4490
▁eg	-4491
imin	-4492
▁Res	-4493
▁Saldır	-4494
otiv	-4495
▁arka	-4496
▁duyg	-4497
▁Denizli	-4498
bin	-4499
isa	-4500
▁4.	-4501
▁ez	-4502
▁Herk	-4503
▁Takım	-4504
▁ayrıldı	-4505
ock	-4506
▁sız	-4507
▁Oğuz	-4508
▁Avust	-4509
▁ilişkiler	-4510
▁sayısının	-4511
▁İk	-4512
kaya	-4513
▁Tat	-4514
▁Yargı	-4515
lığında	-4516
▁Ortadoğu	-4517
İŞ	-4518
dev	-4519
▁2013	-4520
▁Akın	-4521
▁Uğur	-4522
▁yerini	-4523
▁Fransız	-4524
▁plakalı	-4525
şe	-4526
danı	-4527
▁Haf	-4528
ürken	-4529
▁dosy	-4530
▁temas	-4531
▁suçundan	-4532
ân	-4533
▁şub	-4534
oskova	-4535
▁Enerji	-4536
▁restor	-4537
azartesi	-4538
▁götürüldü	-4539
▁olacaktır	-4540
form	-4541
▁Maç	-4542
▁Çar	-4543
▁edip	-4544
▁mekan	-4545
▁toplu	-4546
elerden	-4547
▁kişiye	-4548
▁terörle	-4549
▁herkesin	-4550
▁kullanan	-4551
▁vatandaşların	-4552
cer	-4553
ong	-4554
usuf	-4555
▁Say	-4556
▁Siv	-4557
▁Onun	-4558
▁aray	-4559
▁deng	-4560
▁Karak	-4561
▁ihlal	-4562
▁Binali	-4563
▁kurulu	-4564
▁Abdullah	-4565
▁Başbakanı	-4566
OL	-4567
hi	-4568
▁197	-4569
▁Köy	-4570
itesi	-4571
▁kanı	-4572
▁prim	-4573
▁güneş	-4574
▁almaya	-4575
▁yaparken	-4576
örü	-4577
▁Go	-4578
umak	-4579
▁Boğ	-4580
▁ism	-4581
istik	-4582
▁acil	-4583
▁avan	-4584
▁İddi	-4585
▁anlaşma	-4586
▁yükseldi	-4587
▁gerçekten	-4588
▁çocukların	-4589
rin	-4590
şek	-4591
▁Am	-4592
▁şok	-4593
▁Fırat	-4594
▁hayır	-4595
▁etkisi	-4596
▁göçmen	-4597
▁çalışması	-4598
▁Başsavcılığı	-4599
ÜN	-4600
▁33	-4601
ücut	-4602
▁Siz	-4603
▁aşk	-4604
▁yeme	-4605
ğimizi	-4606
▁beyaz	-4607
▁ilçesi	-4608
▁kritik	-4609
▁Bahçeli	-4610
▁çocuklar	-4611
▁Karadeniz	-4612
▁insanları	-4613
AZ	-4614
köy	-4615
▁jan	-4616
ağında	-4617
▁bedel	-4618
▁sürpr	-4619
▁Belçika	-4620
▁helikop	-4621
▁içindeki	-4622
İH	-4623
▁onay	-4624
▁doğrult	-4625
▁güvenli	-4626
▁Komutanı	-4627
▁istihbarat	-4628
yak	-4629
▁(3	-4630
▁dar	-4631
▁işe	-4632
erbaycan	-4633
▁patlama	-4634
▁protest	-4635
▁olmasını	-4636
▁örgütünün	-4637
▁gözy	-4638
▁Sabah	-4639
▁balık	-4640
▁düşman	-4641
▁oynadığı	-4642
▁paylaşım	-4643
,3	-4644
▁serg	-4645
▁Tarih	-4646
▁adını	-4647
▁haberi	-4648
▁çalıştı	-4649
▁beklenen	-4650
.3	-4651
SY	-4652
-201	-4653
▁Nus	-4654
▁Pat	-4655
hisar	-4656
▁Artık	-4657
▁belediye	-4658
çu	-4659
hane	-4660
sinden	-4661
▁savcı	-4662
▁taşın	-4663
▁kamyon	-4664
▁ticari	-4665
▁Moskova	-4666
▁duyurdu	-4667
▁oldukları	-4668
▁"1	-4669
inen	-4670
ısır	-4671
faiye	-4672
▁kızı	-4673
leyman	-4674
▁Hayat	-4675
▁hızla	-4676
▁Dündar	-4677
▁çıktığı	-4678
▁Facebook	-4679
▁aldığını	-4680
▁ihtiyacı	-4681
▁Komisyonu	-4682
cra	-4683
▁TSK	-4684
▁komş	-4685
▁avantaj	-4686
▁enflasyon	-4687
▁id	-4688
lücü	-4689
▁vir	-4690
ijital	-4691
lamadı	-4692
▁azalt	-4693
latform	-4694
▁süreçte	-4695
▁sağlayan	-4696
▁alışveriş	-4697
▁teknoloji	-4698
ron	-4699
▁Far	-4700
müyor	-4701
▁Yusuf	-4702
▁maçın	-4703
▁denetim	-4704
▁Bursaspor	-4705
▁yatırımcı	-4706
ebilirsiniz	-4707
▁ac	-4708
lıklı	-4709
▁umut	-4710
▁Ünlü	-4711
▁Ramazan	-4712
▁müsabak	-4713
lab	-4714
▁ef	-4715
uman	-4716
▁beb	-4717
▁York	-4718
▁aykır	-4719
▁turizm	-4720
▁tutuklu	-4721
▁doğrudan	-4722
▁gerçekleşti	-4723
gre	-4724
▁hoc	-4725
ukarı	-4726
▁İpek	-4727
▁bıçak	-4728
▁kural	-4729
▁yasal	-4730
▁zanlı	-4731
▁görmek	-4732
▁değerli	-4733
▁sebebiyle	-4734
yal	-4735
▁hala	-4736
usunun	-4737
▁gecesi	-4738
▁Ticaret	-4739
▁kazanan	-4740
▁üyeleri	-4741
ılıp	-4742
▁hatt	-4743
▁duygu	-4744
▁Arslan	-4745
ilerinden	-4746
▁belirlenen	-4747
▁itibarıyla	-4748
,7	-4749
yken	-4750
ndaki	-4751
ındır	-4752
▁Vakfı	-4753
▁tüketim	-4754
▁başkenti	-4755
▁istediğini	-4756
▁3'	-4757
▁gr	-4758
dern	-4759
▁Lis	-4760
uluğu	-4761
▁uzat	-4762
▁dedim	-4763
▁zayıf	-4764
ecektir	-4765
▁Mardin	-4766
▁geçici	-4767
▁kadının	-4768
▁ülkemiz	-4769
▁yayınlanan	-4770
ho	-4771
▁Mic	-4772
mamız	-4773
▁Koca	-4774
▁medy	-4775
▁mevz	-4776
ayacak	-4777
▁akadem	-4778
▁heyecan	-4779
▁istikrar	-4780
fak	-4781
areti	-4782
▁Yine	-4783
alarla	-4784
▁fikir	-4785
▁kanat	-4786
▁konser	-4787
▁yüzünden	-4788
▁düzenlediği	-4789
her	-4790
▁	-4791
a	-4792
e	-4793
i	-4794
n	-4795
r	-4796
l	-4797
ı	-4798
d	-4799
k	-4800
t	-4801
m	-4802
y	-4803
u	-4804
s	-4805
o	-4806
b	-4807
ü	-4808
ş	-4809
z	-4810
.	-4811
g	-4812
ğ	-4813
v	-4814
ç	-4815
h	-4816
c	-4817
,	-4818
p	-4819
ö	-4820
'	-4821
f	-4822
A	-4823
B	-4824
T	-4825
K	-4826
"	-4827
S	-4828
1	-4829
M	-4830
0	-4831
D	-4832
E	-4833
İ	-4834
2	-4835
H	-4836
G	-4837
Y	-4838
P	-4839
-	-4840
O	-4841
C	-4842
5	-4843
F	-4844
R	-4845
3	-4846
L	-4847
N	-4848
4	-4849
6	-4850
Ş	-4851
Ö	-4852
j	-4853
:	-4854
9	-4855
Ç	-4856
7	-4857
8	-4858
)	-4859
U	-4860
I	-4861
(	-4862
V	-4863
Ü	-4864
Z	-4865
?	-4866
!	-4867
;	-4868
J	-4869
â	-4870
w	-4871
x	-4872
­	-4873
W	-4874
/	-4875
`	-4876
Ğ	-4877
î	-4878
X	-4879
%	-4880
Q	-4881
&	-4882
q	-4883
+	-4884
*	-4885
û	-4886
◊	-4887
#	-4888
′	-4889
·	-4890
@	-4891
̈	-4892
•	-4893
$	-4894
Â	-4895
̇	-4896
=	-4897
_	-4898
é	-4899
̧	-4900
[	-4901
]	-4902
>	-4903
°	-4904
а	-4905
ˆ	-4906
ə	-4907
á	-4908
е	-4909
¦	-4910
ä	-4911
¥	-4912
ó	-4913
ñ	-4914
€	-4915
í	-4916
\	-4917
	-4918
¬	-4919
å	-4920
è	-4921
⁄	-4922
ê	-4923
■	-4924
×	-4925
¡	-4926
®	-4927
ï	-4928
ø	-4929
ú	-4930
ć	-4931
⭐	-4932
️	-4933
^	-4934
£	-4935
Ä	-4936
à	-4937
æ	-4938
о	-4939
●	-4940
🇷	-4941
🇹	-4942
	-4943
É	-4944
Î	-4945
ß	-4946
ã	-4947
ƒ	-4948
α	-4949
і	-4950
ا	-4951
د	-4952
س	-4953
ل	-4954
و	-4955
ي	-4956
‬	-4957
∂	-4958
☮	-4959
👍	-4960
~	-4961
	-4962
Å	-4963
Ñ	-4964
Ø	-4965
Û	-4966
ë	-4967
ù	-4968
ē	-4969
ł	-4970
μ	-4971
Л	-4972
к	-4973
н	-4974
п	-4975
с	-4976
т	-4977
у	-4978
ة	-4979
ح	-4980
ر	-4981
غ	-4982
ق	-4983
م	-4984
ن	-4985
‫	-4986
›	-4987
🏆	-4988
🏻	-4989
👑	-4990
💋	-4991
💧	-4992
💰	-4993
😁	-4994
😊	-4995
🙏	-4996
