<unk>	0
<s>	0
</s>	0
▁.	-3.62942
▁,	-3.92938
▁'	-4.17538
n	-4.22189
l	-4.30504
▁i	-4.3628
▁s	-4.42793
▁a	-4.46662
▁k	-4.62868
i	-4.78272
▁ve	-4.8003
▁de	-4.85248
r	-4.89483
▁ı	-4.91179
▁e	-4.95009
▁"	-4.95961
t	-4.9744
▁lar	-4.97992
a	-5.00135
e	-5.00636
▁ler	-5.01538
▁da	-5.10076
▁bir	-5.11319
▁b	-5.16131
▁A	-5.18875
▁o	-5.21494
k	-5.24047
▁an	-5.24439
▁t	-5.26744
▁B	-5.3358
▁y	-5.43594
▁S	-5.45049
▁h	-5.45076
▁m	-5.47418
▁in	-5.5174
▁en	-5.5457
▁n	-5.54804
▁1	-5.59861
▁nda	-5.60212
▁leri	-5.61987
▁0	-5.62456
▁ye	-5.65666
▁si	-5.66238
▁K	-5.67129
ş	-5.67328
▁nı	-5.68134
d	-5.71656
▁M	-5.72587
▁g	-5.75356
▁nin	-5.75512
▁H	-5.76007
▁T	-5.76219
▁u	-5.79403
▁2	-5.80293
▁ne	-5.81399
▁ın	-5.81547
▁ları	-5.85721
▁sı	-5.85816
▁ya	-5.86257
▁nde	-5.8997
▁na	-5.90217
▁bu	-5.90742
▁ni	-5.92292
▁nın	-5.9232
▁-	-5.93303
m	-5.95735
▁için	-5.97431
▁E	-6.01099
▁d	-6.0214
▁r	-6.05535
▁yap	-6.08476
▁lik	-6.13797
▁ile	-6.15004
▁te	-6.16863
ki	-6.20085
▁Y	-6.20352
▁Türk	-6.21303
▁G	-6.22738
▁ü	-6.23007
▁D	-6.23064
u	-6.23494
▁ol	-6.23731
▁f	-6.25573
▁dı	-6.29994
▁di	-6.31407
▁iyor	-6.36278
▁li	-6.37158
▁ma	-6.37927
s	-6.38547
▁ö	-6.3882
▁	-6.41072
▁P	-6.41165
▁ç	-6.41741
y	-6.43664
▁O	-6.44464
▁ması	-6.44964
▁p	-6.45444
▁den	-6.45727
ı	-6.4656
▁:	-6.46777
▁3	-6.49393
▁ama	-6.50647
▁al	-6.51455
▁F	-6.51539
▁5	-6.51585
▁ver	-6.51865
▁İ	-6.52384
▁gö	-6.53371
▁et	-6.55167
la	-6.5608
▁dan	-6.57603
▁edi	-6.57758
▁la	-6.57906
▁ndan	-6.58672
▁Bu	-6.60074
▁lı	-6.60875
▁acak	-6.61445
▁ir	-6.6238
▁tı	-6.64466
▁unu	-6.65002
an	-6.65148
▁le	-6.65348
▁6	-6.65577
lduğ	-6.67822
▁bulu	-6.68657
▁C	-6.69484
▁lık	-6.70482
▁ed	-6.71336
▁larak	-6.71412
ma	-6.71855
▁etti	-6.72956
▁gel	-6.73485
▁yıl	-6.73641
▁ki	-6.7384
▁(	-6.74131
▁yapı	-6.74936
▁4	-6.75499
▁ecek	-6.7648
▁)	-6.76758
▁çok	-6.7698
▁Ç	-6.77145
da	-6.784
▁ta	-6.79594
▁ği	-6.79662
▁er	-6.80219
▁il	-6.8036
▁olan	-6.80378
▁baş	-6.81274
▁ıyor	-6.82185
▁onra	-6.82677
▁kal	-6.83713
▁yer	-6.84189
▁9	-6.85387
▁ine	-6.85726
▁çalı	-6.87178
le	-6.87272
▁im	-6.87536
▁diği	-6.87901
▁dığı	-6.88146
▁mak	-6.88961
▁ise	-6.89523
▁karşı	-6.90115
öyle	-6.92133
▁daha	-6.9377
▁var	-6.96544
▁beli	-6.98077
▁un	-6.98345
▁liği	-6.98941
▁ay	-6.99252
▁7	-7.01517
▁mesi	-7.03618
o	-7.03884
▁ele	-7.04452
▁açık	-7.05379
▁yla	-7.06303
▁du	-7.06474
▁ğı	-7.07377
▁kişi	-7.07864
▁inin	-7.0792
cağı	-7.08099
▁ko	-7.0886
▁nden	-7.09302
▁um	-7.0965
▁konu	-7.10117
▁iş	-7.10653
▁z	-7.10754
▁N	-7.10825
▁lığı	-7.11469
▁bin	-7.11972
▁yle	-7.12075
z	-7.13623
▁ulla	-7.14348
▁8	-7.14601
▁yeni	-7.14861
▁su	-7.14979
araf	-7.15269
▁abil	-7.15498
▁at	-7.16337
ya	-7.16668
ları	-7.16811
▁ıl	-7.16969
▁ş	-7.16985
▁oldu	-7.17224
▁kadar	-7.17404
▁gibi	-7.18019
▁yi	-7.18647
▁üzer	-7.18973
▁son	-7.19562
▁Ö	-7.21184
▁arası	-7.21319
er	-7.21334
▁dedi	-7.21674
▁ti	-7.22118
▁mek	-7.2336
▁ında	-7.24037
te	-7.2566
▁uz	-7.25728
▁ülke	-7.26142
▁eceği	-7.26383
▁arak	-7.26385
ta	-7.26701
▁c	-7.26893
▁terör	-7.2714
▁yöne	-7.28052
▁tığı	-7.28685
▁mış	-7.28922
ğ	-7.29313
▁ından	-7.29384
▁gerek	-7.30085
▁erek	-7.30572
▁me	-7.30666
▁R	-7.3067
▁ilgi	-7.30773
▁U	-7.30796
▁alın	-7.30905
▁iste	-7.31321
▁çık	-7.31895
▁onuş	-7.32254
c	-7.33255
▁?	-7.33303
▁Ş	-7.33822
▁inde	-7.34308
▁gün	-7.34318
▁her	-7.34405
▁ının	-7.36408
▁larda	-7.36975
▁miş	-7.37129
▁göre	-7.37403
▁anla	-7.37426
▁yaşa	-7.38203
▁büyük	-7.38222
me	-7.38419
▁nun	-7.38449
ge	-7.39213
▁sini	-7.39597
▁mü	-7.39768
▁yı	-7.40797
▁ını	-7.41308
▁v	-7.42052
▁karar	-7.42212
▁geti	-7.42803
▁zaman	-7.4332
▁ilk	-7.43376
▁düze	-7.43413
endi	-7.43668
▁ifad	-7.4377
▁diye	-7.43863
▁syon	-7.44336
▁neden	-7.45262
▁uyor	-7.46599
▁aber	-7.46958
▁ini	-7.47124
bil	-7.47526
▁lan	-7.47699
▁yol	-7.47909
üzde	-7.47927
▁lendi	-7.47931
▁unda	-7.48373
▁ek	-7.49002
▁laş	-7.49574
▁İst	-7.4966
▁anı	-7.49817
▁tut	-7.49954
▁dir	-7.50079
▁L	-7.50617
yle	-7.50682
▁değil	-7.50744
▁sını	-7.50827
▁iç	-7.51168
▁Cumh	-7.52002
▁maya	-7.52238
▁kur	-7.52396
iş	-7.52491
▁top	-7.52911
b	-7.54163
,	-7.54621
▁üre	-7.54913
▁devam	-7.55469
im	-7.55855
▁eden	-7.56051
▁şu	-7.56279
▁tan	-7.5698
aşka	-7.57072
▁dır	-7.57297
▁daki	-7.57647
.	-7.57955
▁iki	-7.58304
▁anbul	-7.58936
▁başl	-7.59253
▁oğlu	-7.59554
▁ara	-7.59842
▁ten	-7.60383
▁ağı	-7.60403
▁önce	-7.61502
▁durum	-7.61578
▁ardı	-7.6159
▁ak	-7.61637
▁yan	-7.61741
en	-7.618
ler	-7.6188
▁nce	-7.61894
▁yara	-7.62042
▁etki	-7.62314
asta	-7.62477
▁ev	-7.62768
▁imi	-7.62768
▁Baka	-7.6298
▁V	-7.63726
▁olay	-7.63834
▁altı	-7.63839
▁do	-7.64029
▁!	-7.64342
▁Z	-7.64716
▁geç	-7.64832
▁isti	-7.65758
▁ğını	-7.66062
▁lu	-7.66072
▁örgü	-7.66268
▁fa	-7.66477
▁siz	-7.66725
▁tu	-7.66771
▁saat	-7.67538
▁insan	-7.67802
▁imiz	-7.68058
bir	-7.68227
▁;	-7.68522
▁böl	-7.6874
ste	-7.69213
▁düşü	-7.69223
▁alan	-7.69265
▁iyi	-7.69498
▁tır	-7.69941
▁etme	-7.70431
▁söz	-7.7072
▁lerde	-7.70874
▁yor	-7.71687
▁nemli	-7.71757
▁gerç	-7.72408
▁Bir	-7.72756
▁ekle	-7.73399
▁öze	-7.74584
▁mi	-7.74711
▁sında	-7.74716
▁evle	-7.74903
▁olma	-7.75014
aldı	-7.7535
▁miz	-7.75602
▁dış	-7.75777
▁spor	-7.76549
▁taş	-7.76743
▁ren	-7.77021
▁bilgi	-7.77106
h	-7.77762
p	-7.78025
▁lara	-7.78159
▁Baş	-7.78545
ağla	-7.78562
▁aç	-7.78791
lar	-7.7883
▁ik	-7.79007
▁orta	-7.79029
▁hem	-7.79116
rken	-7.79304
▁dünya	-7.79511
▁bekl	-7.79683
▁uriye	-7.79765
▁değer	-7.7985
yla	-7.79865
▁erke	-7.79872
▁iyet	-7.80905
▁ABD	-7.81085
▁el	-7.81187
▁sev	-7.81347
▁güve	-7.81438
▁l	-7.81483
ilyo	-7.81762
▁kleri	-7.82323
et	-7.8327
▁yok	-7.83331
▁ril	-7.8396
▁polis	-7.84113
▁ün	-7.84204
▁öğre	-7.84444
▁şey	-7.85296
▁nlığı	-7.86307
▁tir	-7.86428
▁çıkar	-7.86485
▁gelen	-7.87349
▁mız	-7.87696
▁cı	-7.87895
▁ist	-7.88408
▁topl	-7.88445
arih	-7.88456
▁ey	-7.88569
▁üç	-7.89839
▁aldı	-7.9051
▁landı	-7.90744
▁İs	-7.90776
▁takım	-7.91037
▁kuru	-7.91183
▁pro	-7.91381
▁dönem	-7.9207
▁bil	-7.92125
▁esi	-7.92419
▁ır	-7.92426
▁sinde	-7.93055
▁başka	-7.93125
▁re	-7.93132
▁luk	-7.94853
▁ıp	-7.9489
▁lama	-7.94977
▁rbaş	-7.95035
▁haber	-7.95476
▁geçi	-7.95879
▁una	-7.9609
▁Rus	-7.96106
▁oper	-7.96151
▁Ko	-7.96291
▁lüğü	-7.96367
▁zor	-7.96515
▁sıra	-7.96643
▁dü	-7.97027
▁ra	-7.97124
▁şeki	-7.97584
▁sun	-7.97622
▁ip	-7.98303
00	-7.98669
cı	-7.98734
▁gid	-7.98818
doğ	-7.9899
lişk	-7.99253
▁Ü	-7.99268
▁istem	-8.00139
ep	-8.00542
▁vrupa	-8.00782
▁ım	-8.00901
▁FETÖ	-8.00985
▁ici	-8.01054
▁hayat	-8.01139
ayb	-8.01252
ü	-8.01269
▁üyor	-8.01544
▁bo	-8.02103
▁hafta	-8.02304
▁oku	-8.02366
▁ına	-8.02549
ynı	-8.02649
▁soru	-8.02654
ç	-8.02701
▁tüm	-8.02719
▁mill	-8.02828
uk	-8.02897
▁rme	-8.03127
▁dur	-8.03253
▁nız	-8.03331
▁iz	-8.03478
▁azla	-8.03696
▁ci	-8.03889
▁ale	-8.0415
▁çocuk	-8.04291
▁lira	-8.04465
▁malar	-8.04793
▁kazan	-8.05049
▁ımız	-8.05626
▁ayı	-8.06185
▁hakkı	-8.06202
▁ceza	-8.06214
▁yuncu	-8.06271
▁iler	-8.06357
▁vata	-8.06361
▁arı	-8.06909
▁görev	-8.07198
▁iriş	-8.07329
▁geldi	-8.07971
▁yakın	-8.08276
▁dolar	-8.08865
▁niz	-8.08929
▁maç	-8.09034
▁Gene	-8.0907
▁yak	-8.09099
cü	-8.09128
▁katı	-8.09264
ğiş	-8.09448
▁ayrı	-8.09548
▁nu	-8.09615
▁oyna	-8.09699
▁ce	-8.10074
▁İl	-8.10299
üdür	-8.10633
▁ulaş	-8.11097
▁doğru	-8.11166
▁kadın	-8.11174
▁gir	-8.11753
▁Öz	-8.11756
▁verdi	-8.12686
▁az	-8.12711
▁madı	-8.12792
▁sağ	-8.12793
▁tek	-8.12803
▁eme	-8.12959
erke	-8.13286
▁mey	-8.13355
▁üst	-8.134
▁daş	-8.13578
▁lere	-8.13804
▁sa	-8.13947
▁yaşı	-8.14237
ke	-8.14269
▁içer	-8.1487
lı	-8.15051
▁müca	-8.15496
dece	-8.15748
▁ekip	-8.15843
▁bakan	-8.15909
▁eşi	-8.1597
▁hazır	-8.15996
▁osya	-8.1661
▁olmak	-8.1673
▁bunu	-8.16942
▁ürü	-8.1707
­	-8.17148
de	-8.1742
▁zi	-8.17669
▁Gö	-8.17693
▁biri	-8.17723
▁Gaze	-8.17782
▁man	-8.18253
▁nün	-8.18385
▁darbe	-8.18588
▁10	-8.19027
▁iddia	-8.1916
▁ar	-8.1916
▁sahip	-8.19316
▁iyas	-8.19505
▁mily	-8.19707
▁adı	-8.19766
ırak	-8.19864
▁riyet	-8.19909
▁ul	-8.19918
▁oto	-8.20104
KK	-8.20739
▁15	-8.20908
▁men	-8.20994
▁üksek	-8.21035
▁Ak	-8.21101
▁hare	-8.2114
▁unlar	-8.21262
▁kayd	-8.21354
▁sız	-8.21402
▁tur	-8.21405
▁Fen	-8.2184
nde	-8.21997
▁ikkat	-8.22
▁nkara	-8.22002
▁anan	-8.22021
▁tü	-8.22102
▁diğer	-8.22175
▁tiri	-8.22294
▁kim	-8.22338
▁sel	-8.22529
▁Al	-8.2284
▁ca	-8.22919
▁üret	-8.23307
▁em	-8.2333
▁I	-8.23473
▁para	-8.23672
▁yürü	-8.23699
▁çıktı	-8.23737
▁TL	-8.23761
▁uy	-8.23785
▁bahçe	-8.24201
▁rdi	-8.24332
diği	-8.24361
▁ladı	-8.2445
▁/	-8.24471
▁tiği	-8.24599
▁inden	-8.24976
cak	-8.25034
▁uzu	-8.25227
▁hava	-8.25718
▁Ka	-8.25742
▁kes	-8.25897
▁arka	-8.26044
▁azete	-8.26098
▁enler	-8.26124
▁biz	-8.26238
▁gör	-8.26258
▁tanı	-8.2632
▁görüş	-8.26395
ine	-8.2655
▁rtay	-8.26735
▁uygu	-8.26887
▁aşkan	-8.26925
▁aha	-8.27064
▁kaps	-8.27111
▁geri	-8.27308
▁kez	-8.27835
▁üzere	-8.2797
▁mah	-8.2833
eşik	-8.28787
▁Spor	-8.29376
▁nü	-8.29592
▁geçe	-8.29681
▁art	-8.30074
unda	-8.30583
▁şehir	-8.31303
▁istan	-8.31338
▁ayın	-8.31339
▁alata	-8.3141
▁mez	-8.31705
▁kaç	-8.31761
▁ndı	-8.3196
▁günü	-8.32277
▁sü	-8.32379
▁yaş	-8.32534
▁andı	-8.32565
▁şirk	-8.32731
▁isim	-8.32895
▁as	-8.32993
▁suç	-8.33051
▁olu	-8.33374
▁Dünya	-8.33546
▁maçı	-8.33681
▁maz	-8.33871
öste	-8.34051
▁sin	-8.34414
▁yanı	-8.34552
▁Söz	-8.34651
▁kra	-8.34772
▁it	-8.34846
▁kend	-8.35046
▁mizi	-8.3543
▁saray	-8.35433
ugün	-8.35777
▁muh	-8.35911
▁ğini	-8.36039
▁aile	-8.3606
azı	-8.36103
▁net	-8.36128
▁edef	-8.36409
▁es	-8.36561
▁Anca	-8.3662
▁fiya	-8.368
▁açıl	-8.37012
▁ünü	-8.37051
▁gol	-8.37151
▁zaltı	-8.37372
si	-8.37631
▁sorun	-8.37877
▁taşı	-8.37899
▁ur	-8.37969
▁çı	-8.3807
▁sürdü	-8.38269
▁duğu	-8.3886
▁ağlı	-8.38916
▁tamam	-8.38972
▁proje	-8.39176
ski	-8.39491
raç	-8.39738
ün	-8.39893
▁can	-8.40039
▁duğ	-8.40082
▁ka	-8.4055
▁ih	-8.4105
▁yüz	-8.41051
dığı	-8.41237
▁Kara	-8.41306
▁liler	-8.41322
▁sık	-8.41345
▁bak	-8.41347
▁ince	-8.41423
▁onun	-8.41571
▁arklı	-8.41786
▁Son	-8.41807
▁bile	-8.41825
▁miyor	-8.419
▁Su	-8.41919
iz	-8.41956
▁leme	-8.41958
▁adam	-8.41987
▁silah	-8.42072
▁rek	-8.42494
▁rak	-8.42721
▁vur	-8.43084
▁öldü	-8.43276
▁ec	-8.43426
il	-8.43558
▁aya	-8.43584
▁izle	-8.43799
▁ana	-8.43831
oğu	-8.43878
▁turma	-8.44028
esi	-8.44265
▁hali	-8.44433
ar	-8.44493
▁ken	-8.44524
▁may	-8.44736
▁ildi	-8.44796
▁görü	-8.4518
▁yayın	-8.45348
▁nası	-8.45598
▁rsit	-8.45922
▁hak	-8.46279
▁yu	-8.46366
▁rab	-8.46641
▁izmet	-8.46645
▁yet	-8.4674
▁yasa	-8.4682
▁Bunu	-8.46871
üs	-8.46948
▁aş	-8.47086
▁müş	-8.4719
▁gec	-8.4725
▁on	-8.47258
▁urada	-8.47717
▁tırma	-8.47752
▁ilçe	-8.47757
▁duy	-8.47777
nik	-8.47955
ezon	-8.4798
ildi	-8.48069
▁luğ	-8.48216
▁kıs	-8.48239
▁İş	-8.48417
▁ntrol	-8.48966
▁rü	-8.49054
▁eçti	-8.49131
imdi	-8.49301
▁kar	-8.49523
▁raf	-8.49654
▁ıldı	-8.49731
yas	-8.49776
▁meye	-8.49933
▁düş	-8.49995
▁oy	-8.5031
▁Ben	-8.50493
▁erken	-8.50656
▁rı	-8.51124
▁ğren	-8.5122
▁bul	-8.51235
▁plan	-8.51285
▁kız	-8.51525
▁dön	-8.51549
leş	-8.51656
▁ran	-8.51693
▁emmuz	-8.51749
▁ing	-8.5193
▁acı	-8.51987
ında	-8.52058
▁işlem	-8.52461
ter	-8.52523
▁tam	-8.52566
▁ünde	-8.52605
sker	-8.52704
▁mı	-8.52713
▁is	-8.52727
▁mu	-8.52998
▁laşı	-8.53006
▁ıcı	-8.53033
man	-8.53208
▁metre	-8.53292
▁nokta	-8.53318
▁Er	-8.53668
▁mızı	-8.53671
ca	-8.53675
▁gene	-8.53731
▁ehmet	-8.5382
▁Parti	-8.54489
▁ebi	-8.54517
▁ğu	-8.54685
▁çi	-8.54696
▁lü	-8.55126
ncel	-8.55203
miz	-8.5546
▁kö	-8.55462
edav	-8.5548
▁kabul	-8.55651
▁böyle	-8.55724
▁üne	-8.56027
▁edya	-8.56122
▁göz	-8.56123
▁kent	-8.5653
▁dik	-8.57129
lef	-8.57282
▁siniz	-8.57459
▁say	-8.57882
▁medi	-8.57981
▁luştu	-8.58405
▁tar	-8.58772
▁dar	-8.59011
▁lene	-8.59139
▁eş	-8.59155
▁kan	-8.59208
▁De	-8.59456
▁mik	-8.59462
▁kır	-8.5955
▁bomba	-8.59637
▁oloji	-8.59809
▁eği	-8.60022
▁ız	-8.60058
▁Biz	-8.60465
▁bölüm	-8.60526
el	-8.606
ardı	-8.60691
▁manı	-8.60702
▁yazı	-8.60744
▁mal	-8.60873
▁han	-8.60958
tiba	-8.61135
▁şehit	-8.6122
iç	-8.61358
▁mo	-8.61524
▁evi	-8.61543
▁ardım	-8.61695
▁film	-8.61913
▁mıyor	-8.62727
▁ku	-8.62897
▁dava	-8.63057
▁şma	-8.63334
▁şüphe	-8.63352
arış	-8.634
mız	-8.63413
▁Yeni	-8.63439
▁nıl	-8.63804
▁azı	-8.64035
▁ayısı	-8.64358
▁Mah	-8.64449
▁lana	-8.6448
▁ro	-8.64602
▁eder	-8.64615
▁ait	-8.64655
▁par	-8.64697
▁sor	-8.647
▁dün	-8.64776
▁tem	-8.64803
▁yağ	-8.65148
erör	-8.65264
▁ekon	-8.65294
▁önün	-8.6565
▁sına	-8.65823
izim	-8.65894
▁yaka	-8.65966
▁köy	-8.66247
▁Ay	-8.6637
▁rağ	-8.66403
▁ğü	-8.66538
▁ter	-8.66777
rgı	-8.66883
▁ad	-8.66985
▁büt	-8.67014
ren	-8.67115
▁öne	-8.67127
ce	-8.67997
ne	-8.68158
utbo	-8.68378
▁sal	-8.6854
▁W	-8.68755
▁ünlü	-8.68779
▁oyun	-8.68922
▁koy	-8.68941
▁tti	-8.68975
▁bank	-8.6899
ilo	-8.69085
kinc	-8.69105
▁aka	-8.69143
çok	-8.69151
▁üye	-8.69231
▁kika	-8.69437
▁ille	-8.6987
▁aşı	-8.69987
▁mes	-8.70152
▁etmek	-8.70257
▁ündem	-8.70441
▁espi	-8.70441
▁tür	-8.7091
▁madd	-8.70945
?	-8.71264
▁amay	-8.71282
▁Maha	-8.71324
▁olur	-8.71348
▁af	-8.71408
f	-8.71456
▁us	-8.71592
▁lesi	-8.71605
▁dile	-8.71792
▁leş	-8.71919
kil	-8.72038
▁atıl	-8.72332
▁oru	-8.72535
▁iye	-8.72738
▁tırım	-8.72747
▁has	-8.7281
▁ğa	-8.73246
▁lük	-8.73281
enç	-8.73397
▁kaldı	-8.73425
▁ücre	-8.73454
▁ze	-8.73543
▁res	-8.7361
▁onu	-8.7367
▁dırı	-8.73702
▁Mü	-8.74008
▁mayı	-8.74052
▁bağlı	-8.74278
avaş	-8.74312
▁amadı	-8.74329
lam	-8.74528
▁ziya	-8.74579
nkü	-8.74617
▁len	-8.74649
▁ize	-8.74782
▁mev	-8.75019
▁tak	-8.75274
▁elim	-8.7534
▁türk	-8.75351
▁AB	-8.75559
▁indi	-8.75765
rans	-8.75925
▁ardeş	-8.7597
▁cu	-8.7625
▁Zaman	-8.76617
▁eyi	-8.76655
▁sonuç	-8.76807
zo	-8.76901
▁satış	-8.76964
▁atl	-8.76997
▁kayn	-8.7717
▁lider	-8.77275
ıldı	-8.77288
▁parti	-8.77376
▁yö	-8.77416
▁urul	-8.77527
▁oca	-8.78028
▁güzel	-8.78202
▁sayı	-8.78477
▁inan	-8.78496
atır	-8.78502
▁mod	-8.78503
▁akat	-8.78786
lay	-8.7882
▁tane	-8.78862
ürü	-8.78882
▁teş	-8.78907
▁po	-8.78948
▁uç	-8.79015
▁atan	-8.79115
▁izin	-8.79234
▁fer	-8.79592
▁leşme	-8.79642
▁elir	-8.79649
▁avu	-8.79842
▁puan	-8.80201
▁utbol	-8.80258
▁rım	-8.80331
▁20	-8.80341
▁Özel	-8.8058
▁muş	-8.80703
▁gram	-8.80781
▁avcı	-8.8081
▁tere	-8.8095
▁İngi	-8.8103
▁imza	-8.81205
mo	-8.8125
▁kol	-8.81312
▁lç	-8.81363
▁tah	-8.81519
▁pek	-8.81534
▁rül	-8.8165
▁engel	-8.81693
▁anda	-8.8173
▁ateş	-8.81804
▁mobil	-8.81952
yet	-8.82254
▁akta	-8.82538
▁ans	-8.82605
ürec	-8.82651
▁fir	-8.8285
▁ullah	-8.83037
▁rah	-8.8305
▁şekl	-8.83126
▁attı	-8.8321
lis	-8.83296
in	-8.83302
▁kten	-8.83314
▁ciler	-8.8336
▁ağ	-8.83448
▁ıs	-8.83502
▁meler	-8.83533
erek	-8.83536
▁tedir	-8.83607
▁asa	-8.83694
▁alanı	-8.83826
▁bera	-8.83899
▁grup	-8.84065
usta	-8.84125
▁süre	-8.84456
▁madan	-8.84621
▁yacak	-8.84652
htiy	-8.84653
▁tes	-8.84751
▁piyon	-8.84769
▁ışı	-8.84835
▁yine	-8.84849
▁pazar	-8.84883
▁nması	-8.85025
▁eki	-8.85026
▁ton	-8.85041
▁çevr	-8.85078
ükse	-8.85209
▁kara	-8.85261
▁lman	-8.85371
▁aday	-8.85448
▁malı	-8.85475
lık	-8.8554
▁üm	-8.85546
▁Ya	-8.85947
▁gitti	-8.86125
▁öyle	-8.8613
iy	-8.86227
▁ydı	-8.86385
▁artık	-8.86396
▁Lig	-8.86536
▁Üniv	-8.86583
▁amaz	-8.86677
▁met	-8.8668
▁artı	-8.86838
▁ben	-8.86902
rası	-8.86909
▁seçim	-8.87049
▁elin	-8.87296
▁ıldız	-8.87311
▁cü	-8.87606
▁foto	-8.87616
▁diyor	-8.8792
▁ası	-8.87963
▁gelir	-8.88019
▁sonu	-8.88039
▁CHP	-8.8807
▁Mill	-8.88128
▁atı	-8.88249
▁ölüm	-8.8825
▁rik	-8.88321
▁Yöne	-8.8834
▁ydi	-8.88756
▁eti	-8.88839
▁hale	-8.88955
cu	-8.89023
amu	-8.89052
meri	-8.89723
▁ika	-8.8976
▁â	-8.89846
▁ön	-8.89887
▁ça	-8.90121
▁Deniz	-8.9026
▁lıyor	-8.90304
▁`	-8.90304
▁J	-8.90319
▁Büyü	-8.90331
nda	-8.90412
▁rüntü	-8.90491
vil	-8.90732
▁ağla	-8.90762
▁yurt	-8.90891
▁dönüş	-8.90896
▁ağa	-8.91197
▁avun	-8.91213
▁iniz	-8.91453
ruş	-8.91497
▁ulus	-8.91583
▁ledi	-8.91651
nlar	-8.9173
▁eli	-8.91907
▁se	-8.91949
▁adım	-8.92138
▁Demir	-8.92372
▁uzak	-8.92533
li	-8.92545
▁yen	-8.92554
▁dev	-8.9258
▁mıştı	-8.92943
▁tüke	-8.93043
▁ahib	-8.93087
▁gar	-8.93139
▁Bo	-8.932
▁tildi	-8.93296
▁rmek	-8.93447
üz	-8.93458
niz	-8.93684
▁muta	-8.93991
no	-8.9434
▁götü	-8.94408
▁ültür	-8.94946
▁bası	-8.95079
gu	-8.95087
▁nacak	-8.951
▁emey	-8.95174
▁tepki	-8.95266
▁Daha	-8.95318
▁faal	-8.9535
▁şe	-8.95391
▁ğ	-8.95405
▁va	-8.95777
kşam	-8.95921
▁kü	-8.96162
▁hiss	-8.96197
▁yaz	-8.96207
▁lantı	-8.96506
▁anlı	-8.96804
▁Dr	-8.9683
▁adın	-8.96849
▁Os	-8.97139
▁evin	-8.97177
▁diz	-8.97416
▁çatı	-8.97508
▁ıntı	-8.97715
urgu	-8.97827
▁aske	-8.97872
▁elek	-8.97953
lan	-8.98071
▁niyor	-8.98092
▁tık	-8.98185
▁ndi	-8.98402
▁bit	-8.98516
▁iy	-8.98717
▁kriz	-8.98749
▁ralık	-8.98772
▁soka	-8.9887
▁if	-8.98971
▁olsun	-8.99146
▁mama	-8.99165
▁Mart	-8.99179
▁aşla	-8.99217
vlet	-8.99279
▁mesaj	-8.99309
▁ktan	-8.99542
▁yo	-8.9962
▁Gaz	-8.99685
▁ür	-8.99736
por	-8.99758
▁Bank	-9.00019
▁rke	-9.00208
▁uvv	-9.00291
▁eylem	-9.0042
ab	-9.0048
▁kapat	-9.0055
▁or	-9.00717
▁İzmir	-9.0087
▁ada	-9.01138
▁Şubat	-9.01153
▁söyl	-9.01154
▁çeki	-9.01172
çe	-9.01177
▁boz	-9.01211
ktör	-9.01246
▁tekn	-9.01265
▁bancı	-9.01369
▁12	-9.01419
▁rdü	-9.0156
rec	-9.01567
artı	-9.01574
▁küçü	-9.01699
▁bina	-9.01767
▁30	-9.01828
▁erçek	-9.01924
▁bet	-9.01932
▁Ne	-9.01934
▁liye	-9.01936
▁duyu	-9.01945
▁etro	-9.01968
▁ayla	-9.02169
▁apı	-9.02256
▁Dav	-9.02297
▁poli	-9.02437
▁to	-9.02619
▁AK	-9.02683
▁lıklı	-9.02698
▁yön	-9.02713
▁ah	-9.02754
▁isi	-9.02792
▁Ahme	-9.02919
▁Emn	-9.0307
▁av	-9.0324
▁yum	-9.03475
▁kın	-9.03753
ut	-9.03776
▁ona	-9.03917
▁artış	-9.03983
▁ilen	-9.04099
▁ilet	-9.04676
▁ses	-9.04851
▁klar	-9.04893
▁baba	-9.05034
▁Ab	-9.05053
▁tif	-9.05168
▁alt	-9.05215
▁Ço	-9.05324
▁yoğun	-9.05392
▁rneği	-9.05445
laş	-9.05493
▁takip	-9.05558
▁rüldü	-9.0559
▁yorum	-9.05618
▁aray	-9.0563
▁git	-9.05678
▁üküm	-9.05687
▁Muh	-9.05785
▁aba	-9.05928
▁üz	-9.05952
▁riyor	-9.05966
▁yeme	-9.06017
▁ortak	-9.06146
▁ıllık	-9.06347
▁tör	-9.06373
▁umuz	-9.06432
▁Ocak	-9.0653
▁pay	-9.06715
▁tay	-9.07104
▁ez	-9.0715
▁Ar	-9.0716
▁sunuz	-9.07375
▁çıka	-9.07542
▁Ulu	-9.07619
▁zan	-9.07912
▁one	-9.07943
▁Güve	-9.07979
▁erli	-9.08004
▁şart	-9.08047
▁zarar	-9.08121
▁arış	-9.08178
▁end	-9.08246
▁kapa	-9.08467
taly	-9.0862
▁kras	-9.08643
▁mlu	-9.08978
▁ede	-9.09033
▁yız	-9.09126
▁yana	-9.09285
▁emek	-9.09408
▁alış	-9.09413
▁huk	-9.09424
▁tin	-9.09533
▁uyu	-9.09589
▁Euro	-9.09712
▁lenme	-9.09815
▁uğr	-9.10004
▁dim	-9.10006
▁uş	-9.10195
▁tım	-9.10254
▁up	-9.10277
▁ant	-9.1044
Bu	-9.10531
akım	-9.10535
▁rildi	-9.10629
▁yü	-9.10694
▁çocu	-9.10861
▁organ	-9.10936
▁Gül	-9.10936
▁ık	-9.10982
▁lay	-9.11041
▁kç	-9.11143
▁ney	-9.11175
▁Irak	-9.11242
llah	-9.11262
oru	-9.11263
▁lt	-9.11267
▁itesi	-9.11267
▁büyü	-9.11549
▁rılar	-9.11572
▁kli	-9.11602
ahçe	-9.1168
mış	-9.11855
▁işe	-9.11892
▁ri	-9.12031
▁çift	-9.1207
▁etmiş	-9.12133
▁güç	-9.12133
▁Eko	-9.12169
▁Val	-9.12311
▁tadır	-9.1232
▁öz	-9.12323
▁oranı	-9.12329
▁tab	-9.12389
▁anne	-9.12422
▁tasa	-9.12481
▁dağ	-9.12634
▁DE	-9.12643
▁gu	-9.12663
▁cidd	-9.12959
amp	-9.12974
▁rbest	-9.13088
▁Dış	-9.13241
▁kap	-9.1333
▁yolcu	-9.13394
▁bel	-9.13474
▁urt	-9.13539
▁suz	-9.13589
nşa	-9.13706
▁lılar	-9.13754
▁w	-9.13773
▁kav	-9.13992
▁ntısı	-9.14098
▁yiz	-9.14303
▁iyesi	-9.1453
eza	-9.14563
▁gördü	-9.14564
▁rma	-9.14641
▁bili	-9.1469
şlar	-9.14789
▁öde	-9.14808
▁yüzü	-9.15027
▁forma	-9.15065
▁ılmaz	-9.15112
▁rol	-9.15261
▁kul	-9.1528
▁kork	-9.15484
▁ilme	-9.15506
▁kadro	-9.15521
▁uçak	-9.15587
az	-9.15801
▁bü	-9.15918
▁Genç	-9.16056
ümkü	-9.16335
▁mcısı	-9.16403
▁temel	-9.16461
▁uza	-9.16505
▁sın	-9.16541
▁tören	-9.1671
ötü	-9.16979
▁arama	-9.17426
▁lek	-9.17496
▁vuru	-9.17757
▁til	-9.17798
▁oda	-9.1784
▁lig	-9.1788
üküm	-9.17994
▁tıl	-9.18114
▁şı	-9.18156
▁rim	-9.18172
rıca	-9.18184
▁benim	-9.18199
▁eler	-9.18317
▁nspor	-9.18509
▁azi	-9.18563
det	-9.18573
▁elçi	-9.18661
▁oğu	-9.18835
▁kıy	-9.18933
▁İran	-9.19017
▁çiz	-9.19372
▁ic	-9.19433
abah	-9.19449
▁ira	-9.19485
▁kredi	-9.19609
▁vardı	-9.19698
▁abı	-9.19709
▁tepe	-9.1972
▁çe	-9.19741
ursa	-9.19776
lci	-9.19778
▁şeh	-9.19867
▁sene	-9.20009
▁11	-9.20683
▁lat	-9.20724
▁hang	-9.20805
▁Do	-9.20862
▁ong	-9.20878
▁ayat	-9.20885
▁dür	-9.20902
▁diy	-9.20982
▁Diya	-9.21028
▁rüşme	-9.21093
▁kat	-9.21101
cih	-9.21149
▁risk	-9.21185
nerj	-9.21193
▁Kay	-9.21276
▁alı	-9.21294
▁gramı	-9.21493
▁kaza	-9.21666
▁enaz	-9.21714
▁rıl	-9.21777
▁min	-9.21784
miş	-9.21794
▁Mar	-9.21858
▁tor	-9.21894
▁Kılıç	-9.2203
▁üneş	-9.22079
▁ami	-9.22126
▁arım	-9.22132
▁belge	-9.22167
▁bakır	-9.22192
▁ör	-9.22243
ukat	-9.22368
▁tırı	-9.22585
İ	-9.22591
▁Orta	-9.22631
are	-9.2266
▁kış	-9.22663
▁ort	-9.22892
▁abi	-9.2294
racı	-9.23023
▁üncü	-9.23111
▁başı	-9.23166
▁iyat	-9.23193
▁urta	-9.23252
▁olsa	-9.23325
▁Kasım	-9.23561
lcu	-9.23739
▁laya	-9.23925
▁mut	-9.23949
▁inans	-9.24002
▁taki	-9.24022
arp	-9.24048
▁alet	-9.24119
▁ediye	-9.2424
▁üs	-9.24408
▁Kö	-9.24469
▁yım	-9.2447
▁14	-9.24689
▁ru	-9.24703
▁nd	-9.24711
▁eyaz	-9.24727
▁ut	-9.24937
▁Ad	-9.24963
▁Gülen	-9.25084
▁soy	-9.25085
▁doğa	-9.25118
▁Hav	-9.25231
▁mutlu	-9.25232
▁ere	-9.25237
▁ök	-9.25354
▁ttığı	-9.25435
▁lteci	-9.25473
▁las	-9.25535
▁elde	-9.25687
▁dö	-9.25692
▁aması	-9.2571
▁Bugün	-9.25861
▁aşına	-9.25934
▁etin	-9.25937
▁nıyor	-9.26004
▁şidd	-9.2601
▁hat	-9.26021
▁parça	-9.26091
▁işle	-9.26094
▁anat	-9.26099
▁rul	-9.2617
▁traf	-9.26242
▁fes	-9.2629
▁25	-9.26344
▁boyu	-9.26361
▁katkı	-9.26447
▁eks	-9.26487
▁nite	-9.26505
▁üpe	-9.26564
▁anal	-9.26683
▁tica	-9.26746
▁kims	-9.26764
▁şan	-9.26778
▁bas	-9.26832
▁aklar	-9.26838
ğlu	-9.26842
▁hesap	-9.26991
▁Top	-9.27115
▁tik	-9.27133
▁ert	-9.27242
▁meden	-9.27297
▁Poli	-9.27439
▁güçlü	-9.27468
▁eçmiş	-9.27537
niy	-9.27586
isyo	-9.27593
▁To	-9.27603
▁umlu	-9.2764
▁demir	-9.27714
▁durdu	-9.27879
▁Jo	-9.27975
▁fet	-9.282
▁atta	-9.28253
nado	-9.28364
▁uygun	-9.28441
▁Böl	-9.28499
▁ayır	-9.28545
▁umu	-9.286
▁klif	-9.28603
▁eçi	-9.28613
▁teri	-9.28747
▁şa	-9.28905
▁mişti	-9.28912
5	-9.29118
eşit	-9.2912
▁lo	-9.29174
anat	-9.29292
▁atma	-9.29383
▁laşım	-9.29417
ensu	-9.29536
tim	-9.2965
▁alım	-9.29806
▁Ve	-9.29834
▁alma	-9.299
▁ata	-9.30097
▁doğ	-9.3012
▁inti	-9.30336
▁rtı	-9.30405
▁yunc	-9.30484
▁urum	-9.30537
50	-9.30625
▁özgü	-9.30632
▁anayi	-9.30715
▁dil	-9.30884
▁kaya	-9.30935
▁yıp	-9.30968
▁om	-9.31129
ra	-9.31185
▁ekibi	-9.31233
▁rans	-9.3139
▁hızl	-9.31579
▁eyen	-9.31747
▁girdi	-9.31767
▁uldu	-9.31832
▁nma	-9.31857
▁kart	-9.31935
▁onla	-9.32015
▁AŞ	-9.32183
▁adlı	-9.32189
olay	-9.323
▁marka	-9.32332
urum	-9.32349
▁otu	-9.32548
▁am	-9.32553
▁Ligi	-9.32587
▁mcı	-9.3259
nav	-9.32676
▁temiz	-9.32772
prü	-9.32805
yip	-9.32811
sı	-9.32845
▁revl	-9.32873
▁bizi	-9.33008
▁za	-9.33148
▁nen	-9.33295
▁ıda	-9.33378
lep	-9.33474
▁alo	-9.33831
▁orma	-9.33902
▁irek	-9.33903
▁ödül	-9.34303
▁muştu	-9.34396
▁Koç	-9.34526
▁uzman	-9.34581
▁tos	-9.34637
▁şam	-9.34673
▁sınız	-9.34707
▁bana	-9.34718
▁ervi	-9.34719
▁Rec	-9.3483
▁sig	-9.3496
▁seç	-9.34996
▁pers	-9.35071
▁ov	-9.35131
▁aklı	-9.35132
▁resmi	-9.35174
▁16	-9.35186
▁arın	-9.35268
▁belli	-9.35297
▁id	-9.35335
▁çözüm	-9.3537
▁izi	-9.35381
▁aralı	-9.354
▁Ülk	-9.35409
▁slan	-9.35593
▁işler	-9.3562
▁atil	-9.35723
▁rada	-9.35723
YD	-9.35772
▁Örgü	-9.35847
▁fark	-9.35905
▁ödem	-9.35966
▁ral	-9.36098
▁şah	-9.36201
▁lma	-9.36233
▁azal	-9.36321
▁co	-9.36399
▁rdı	-9.36429
▁steği	-9.36639
▁dım	-9.36702
▁kale	-9.36729
▁deri	-9.36813
▁os	-9.36942
▁50	-9.36944
▁tirdi	-9.3697
▁poz	-9.37016
▁halkı	-9.37036
▁kesin	-9.37085
▁inci	-9.37143
▁geniş	-9.37173
▁ire	-9.37251
zer	-9.37294
bası	-9.37296
▁13	-9.37304
▁ob	-9.3738
▁ef	-9.37434
▁imk	-9.37465
▁endi	-9.37481
lü	-9.37534
▁ac	-9.37574
▁şik	-9.37613
▁şarkı	-9.37621
▁açısı	-9.37625
▁ttı	-9.37786
▁arşı	-9.37898
▁Gün	-9.37935
▁Kema	-9.38025
▁Dün	-9.38151
▁tav	-9.38153
▁En	-9.38172
dah	-9.38347
▁nül	-9.38419
▁El	-9.38521
▁elik	-9.38589
▁Çin	-9.38839
▁Ser	-9.38969
▁anu	-9.39068
▁ij	-9.39081
▁uriz	-9.39111
▁Kür	-9.39181
▁kay	-9.39209
▁güne	-9.39288
düğü	-9.39419
şçi	-9.39457
▁seri	-9.39555
▁aşarı	-9.39714
▁ab	-9.39783
▁17	-9.39832
zey	-9.39846
▁yanıt	-9.39862
▁hen	-9.39901
▁iğer	-9.39932
▁Sarı	-9.40042
▁Ce	-9.40053
▁Bü	-9.40077
▁final	-9.40238
▁ahi	-9.40418
▁lazım	-9.40495
▁nti	-9.40502
▁alle	-9.4058
▁önemi	-9.4065
am	-9.40667
▁dık	-9.40721
▁Yap	-9.40788
▁zer	-9.40792
▁24	-9.40839
▁HDP	-9.40868
kaç	-9.40947
aleb	-9.40963
▁ars	-9.40986
nsan	-9.41016
vali	-9.41024
▁pat	-9.41117
▁hane	-9.41279
▁ımla	-9.41434
▁esabı	-9.41468
▁cevap	-9.41574
▁dahil	-9.41615
tir	-9.4171
▁alp	-9.41868
▁Murat	-9.41885
▁rmak	-9.41978
▁hlike	-9.41989
lik	-9.42107
▁Ch	-9.42167
▁ulüp	-9.42196
▁çekti	-9.42197
▁ap	-9.42241
▁rese	-9.42342
▁ış	-9.42346
▁rısı	-9.42404
▁üksel	-9.42409
▁dinl	-9.42436
▁eçe	-9.42624
▁aret	-9.42685
▁aat	-9.42687
▁eceğ	-9.4269
▁cil	-9.42728
▁Man	-9.42762
▁ntem	-9.4278
▁muz	-9.42804
▁rne	-9.42812
▁canlı	-9.42992
▁abet	-9.42992
▁nmış	-9.43041
▁Pro	-9.43072
▁kayıt	-9.43137
rinc	-9.43142
▁nnes	-9.4316
▁alif	-9.43184
▁Gü	-9.43372
▁raş	-9.43416
▁çak	-9.4353
▁lığ	-9.43543
▁hdit	-9.43558
arı	-9.43692
▁emi	-9.43783
▁anlar	-9.43849
▁ail	-9.4387
▁ül	-9.43882
▁of	-9.44045
▁aşadı	-9.44085
▁Trump	-9.4419
▁yse	-9.44198
▁lc	-9.4421
▁lis	-9.44247
▁inal	-9.44379
gı	-9.44416
▁Nisan	-9.44421
▁anya	-9.44453
▁haf	-9.44458
▁Konya	-9.44514
▁gücü	-9.44627
ektö	-9.44636
▁Mu	-9.44689
alib	-9.44708
▁taj	-9.44782
▁18	-9.44824
▁anma	-9.44906
▁ord	-9.45082
▁meli	-9.45094
▁iya	-9.45142
▁dalet	-9.45145
▁Adana	-9.45153
▁Şah	-9.45218
▁ers	-9.4523
▁ayram	-9.45265
▁farkı	-9.45326
▁Aydın	-9.45364
▁ınız	-9.45551
ocuk	-9.4573
▁ayva	-9.45787
▁tılım	-9.45791
▁okun	-9.45935
▁nç	-9.45945
▁Şam	-9.4597
▁ızı	-9.45972
▁nme	-9.46019
▁duruş	-9.46052
▁orm	-9.46145
▁Şub	-9.46219
▁ihti	-9.46221
▁rahat	-9.46265
▁nes	-9.46267
▁IŞİD	-9.46552
▁Şu	-9.46605
▁eri	-9.46711
▁Pazar	-9.46769
▁name	-9.46839
▁vü	-9.4693
▁görm	-9.4697
▁sahne	-9.47098
▁ergi	-9.47104
▁slın	-9.47137
▁ntı	-9.47143
smi	-9.47144
slim	-9.47155
▁ışık	-9.47195
▁üyüme	-9.47315
▁neral	-9.47326
▁eps	-9.47346
▁rge	-9.47432
▁rahi	-9.47502
▁ğinde	-9.47524
▁rmans	-9.47527
▁DAEŞ	-9.47534
▁ilan	-9.47873
▁ena	-9.47943
▁zı	-9.47981
▁ırsat	-9.48016
▁sen	-9.48038
▁siyon	-9.48063
▁beni	-9.48081
▁ilo	-9.4818
▁çağrı	-9.48236
▁taz	-9.48299
▁baskı	-9.48308
▁kafa	-9.48324
▁Alma	-9.48325
▁kür	-9.48343
▁apis	-9.48475
▁işi	-9.48532
▁amera	-9.48551
▁rat	-9.48568
▁arıl	-9.48666
▁mali	-9.48726
▁ep	-9.48788
▁anca	-9.48931
▁arada	-9.48978
▁yılı	-9.49037
▁Cadde	-9.49082
▁Mayıs	-9.49082
ğit	-9.4909
▁sak	-9.49115
▁liğ	-9.49158
▁Jan	-9.49203
▁ch	-9.49428
tor	-9.49484
▁dair	-9.49489
▁Fati	-9.49515
▁ref	-9.49519
▁Haz	-9.49755
▁Ob	-9.49781
▁rç	-9.49806
▁tida	-9.49864
▁ütü	-9.50007
▁Ev	-9.50164
▁uva	-9.50177
▁üyesi	-9.50263
ak	-9.50275
▁Cuma	-9.50339
▁loji	-9.5036
▁mem	-9.5045
▁amb	-9.50473
▁amel	-9.50489
▁ulut	-9.5057
▁yere	-9.50602
üğü	-9.5061
▁tma	-9.50668
▁bek	-9.50696
ğer	-9.50755
▁ıf	-9.50827
▁üze	-9.50844
▁mer	-9.5088
▁ib	-9.51023
▁uşu	-9.51088
▁Tek	-9.51103
▁Go	-9.51107
ev	-9.5137
▁his	-9.51418
▁Şen	-9.51458
▁alık	-9.51534
etki	-9.5158
▁perf	-9.51583
▁urken	-9.51604
▁fai	-9.51694
▁yarın	-9.51914
tep	-9.51953
▁rem	-9.51994
▁kısmı	-9.52171
▁savu	-9.52193
▁ekran	-9.5221
▁liste	-9.5223
▁rkası	-9.52269
▁göç	-9.52327
ahmi	-9.52457
▁emedi	-9.52636
▁çal	-9.52668
▁ard	-9.52714
▁iyah	-9.52781
▁Güne	-9.52826
▁talya	-9.52898
▁van	-9.53012
▁Kupa	-9.5306
▁recek	-9.53089
rlik	-9.53114
▁ret	-9.53192
▁sanız	-9.53207
▁kop	-9.53223
suz	-9.53227
▁nlem	-9.53296
emur	-9.53301
▁buna	-9.5331
▁daya	-9.53323
▁kira	-9.53327
▁fay	-9.53469
▁hakem	-9.53532
▁nlar	-9.53559
▁emez	-9.53626
▁olmuş	-9.53794
ulüb	-9.53919
▁gal	-9.53954
▁oka	-9.54128
▁yık	-9.54205
▁ilis	-9.54462
▁vaz	-9.5449
▁izm	-9.54598
avcı	-9.54725
▁rala	-9.54873
▁nümü	-9.54886
▁çıkl	-9.55087
ört	-9.55119
▁aire	-9.55291
▁İb	-9.553
▁Yuna	-9.55377
▁müz	-9.55441
to	-9.55712
yrıc	-9.55722
▁rejim	-9.55765
izyo	-9.55772
▁esle	-9.55807
▁kam	-9.5592
nive	-9.56061
▁erg	-9.5608
▁ihra	-9.56134
▁itap	-9.5615
ünde	-9.56159
▁ang	-9.56198
▁ment	-9.56236
▁syonu	-9.56286
lim	-9.56335
▁öl	-9.56351
▁yazdı	-9.56361
▁atla	-9.56493
▁asyon	-9.56511
▁ucu	-9.56522
▁otel	-9.56602
▁gul	-9.56737
▁üslü	-9.56926
▁ırla	-9.56931
▁düşük	-9.56979
▁aksi	-9.57003
▁uar	-9.57092
▁yerde	-9.57106
ah	-9.57147
aşvu	-9.57176
▁ala	-9.57291
▁tele	-9.57327
▁od	-9.57333
▁j	-9.57402
▁Li	-9.57466
▁rakam	-9.57477
▁tec	-9.57483
▁nışma	-9.57527
▁udi	-9.57565
▁üzü	-9.57599
gi	-9.57672
▁tirme	-9.57682
▁Po	-9.5769
▁civa	-9.57828
▁gider	-9.57863
▁rda	-9.57966
ayra	-9.58051
▁ölü	-9.58143
▁izl	-9.58143
▁So	-9.58266
▁yal	-9.58275
▁Eylül	-9.58418
▁ımızı	-9.58431
▁Kadın	-9.58437
▁ağrı	-9.58543
▁ızla	-9.58589
▁kor	-9.58603
eviy	-9.58625
▁gaz	-9.58663
▁oran	-9.5873
▁cami	-9.58877
▁eydan	-9.58933
▁aj	-9.59042
▁angın	-9.59056
▁Ekim	-9.59314
ehit	-9.59315
▁sefer	-9.5939
▁ideo	-9.5956
▁ina	-9.59637
▁enc	-9.59642
▁sol	-9.59662
▁ork	-9.59719
▁emo	-9.59729
▁Az	-9.59766
▁num	-9.59788
▁log	-9.59805
▁dire	-9.59846
▁iklik	-9.59936
▁Yani	-9.59958
▁ıra	-9.60005
▁ani	-9.60032
▁pera	-9.60113
▁sey	-9.60189
v	-9.6019
▁oğ	-9.6025
▁st	-9.60353
▁oyu	-9.60442
▁per	-9.60456
ansı	-9.60545
▁ahat	-9.60782
▁layı	-9.60813
▁rid	-9.60834
▁meyi	-9.6099
▁çıkı	-9.6107
▁ray	-9.61258
▁akal	-9.61541
len	-9.61633
▁ımı	-9.61672
▁amm	-9.61785
▁usul	-9.6184
▁kri	-9.6191
▁düştü	-9.62043
▁yani	-9.62098
▁arla	-9.62116
▁dum	-9.62141
▁paşa	-9.62176
▁ste	-9.62281
un	-9.62305
▁asla	-9.62451
▁ğe	-9.625
▁aylı	-9.62653
liğ	-9.62686
▁abri	-9.62756
syon	-9.62759
▁gın	-9.6278
▁ela	-9.62787
▁arik	-9.62897
▁limat	-9.62919
▁red	-9.62939
▁tip	-9.62949
▁İd	-9.62957
▁lka	-9.63072
▁22	-9.63116
▁rdu	-9.63153
▁cılar	-9.63201
▁Kur	-9.63225
men	-9.63408
▁40	-9.63576
▁bey	-9.63628
▁ain	-9.63723
▁rıy	-9.6374
leri	-9.63791
▁gören	-9.63804
▁utl	-9.63887
▁2.	-9.63894
▁alk	-9.63909
▁lans	-9.6397
▁21	-9.63997
▁inç	-9.6402
erçe	-9.64049
▁pas	-9.64088
▁rede	-9.64161
▁konut	-9.64168
▁not	-9.64297
▁kuş	-9.64325
▁rez	-9.644
▁Van	-9.64654
▁ber	-9.64731
▁avet	-9.64828
▁uku	-9.64862
▁iriz	-9.64907
▁No	-9.64916
▁19	-9.64928
rof	-9.64992
atı	-9.6507
▁ünler	-9.65088
▁Ro	-9.65183
▁aran	-9.65219
▁eser	-9.65224
▁üp	-9.65329
▁riz	-9.65461
▁ayak	-9.65504
▁dağı	-9.65523
▁mre	-9.65682
us	-9.65732
▁rgan	-9.65871
▁aşa	-9.65966
▁ili	-9.66049
▁ng	-9.66391
▁ordu	-9.66413
▁ngin	-9.66423
▁evre	-9.66435
haz	-9.66577
▁Yo	-9.66578
▁aygı	-9.66818
▁vesi	-9.66819
▁şağ	-9.66828
▁elki	-9.66882
rma	-9.66896
rs	-9.66929
▁Sel	-9.66932
▁kere	-9.67012
▁hal	-9.67099
▁anım	-9.67101
▁lanı	-9.67199
▁alde	-9.67224
▁TV	-9.67449
nı	-9.67597
▁atsız	-9.67691
▁nik	-9.67713
▁1.	-9.6772
▁Ana	-9.67733
▁Mes	-9.67972
▁akar	-9.68025
▁atik	-9.68092
▁oş	-9.68209
▁ıllı	-9.68331
▁içe	-9.68483
▁pla	-9.68513
▁sebe	-9.6854
kika	-9.68692
▁demek	-9.68704
▁lta	-9.68729
▁yun	-9.68873
▁irke	-9.6894
▁raba	-9.68943
▁arca	-9.68953
▁yazar	-9.68966
uygu	-9.69067
▁amu	-9.6917
▁def	-9.69601
▁hata	-9.69704
▁bağ	-9.69854
▁pları	-9.69872
▁vit	-9.69891
▁etçi	-9.70088
▁oğan	-9.70092
uh	-9.70103
▁bara	-9.70135
ğünü	-9.70152
▁izli	-9.70169
▁apımı	-9.70227
▁28	-9.70255
▁gez	-9.70352
▁erim	-9.70508
▁ysa	-9.7058
ülen	-9.70593
▁masa	-9.70603
▁hay	-9.71188
rak	-9.71192
▁önem	-9.71216
▁ga	-9.71223
▁Av	-9.71239
▁ern	-9.7134
▁oz	-9.71402
▁ley	-9.7147
▁anet	-9.71622
▁raman	-9.72032
▁mit	-9.72054
▁zik	-9.72075
▁3.	-9.72089
▁Kır	-9.72244
▁idar	-9.72504
▁işim	-9.72582
▁ras	-9.7259
▁bes	-9.72599
▁pp	-9.72685
▁eci	-9.72732
▁ktörü	-9.72757
▁lın	-9.72771
▁şık	-9.72808
nser	-9.72836
▁eg	-9.72852
▁nsel	-9.73129
▁ükl	-9.73151
▁ser	-9.73179
eceğ	-9.73203
▁enek	-9.73264
▁oruma	-9.73326
▁zya	-9.73349
▁izde	-9.73401
▁anti	-9.73424
▁mamış	-9.73628
▁zate	-9.74172
▁enge	-9.74182
▁rap	-9.7423
▁ekme	-9.74371
▁atış	-9.74376
ağ	-9.74382
▁Kal	-9.74393
▁ezi	-9.74406
▁zgü	-9.74424
▁mbu	-9.7443
M	-9.74456
▁vic	-9.7446
▁blo	-9.74485
PG	-9.74516
▁Bey	-9.74525
▁raya	-9.74525
fa	-9.74624
üyük	-9.74666
▁are	-9.74666
▁rmay	-9.74762
▁tri	-9.74927
▁rad	-9.74984
▁ge	-9.75154
▁mda	-9.75386
▁asar	-9.75512
▁alis	-9.75613
▁uştu	-9.75698
▁mar	-9.75736
raf	-9.75834
▁müs	-9.75836
▁erte	-9.75927
▁adl	-9.76009
▁içi	-9.76047
▁eran	-9.76157
▁BM	-9.76201
▁erid	-9.76328
▁ahs	-9.76332
kim	-9.76367
adem	-9.76422
▁ite	-9.76619
▁gül	-9.76631
▁uyarı	-9.76662
▁eter	-9.76667
siyo	-9.76839
▁açtı	-9.76915
▁mada	-9.76973
▁halk	-9.77023
▁buldu	-9.77057
▁kana	-9.77176
▁ağlar	-9.77292
müz	-9.77393
▁ört	-9.77429
tur	-9.77538
şik	-9.77617
▁EFA	-9.77664
▁aşama	-9.77768
▁Dur	-9.77968
rubu	-9.78173
▁ark	-9.78296
yec	-9.783
lu	-9.78304
▁nca	-9.78356
▁eji	-9.78358
▁and	-9.78365
▁Per	-9.78515
▁tesi	-9.78549
▁iraz	-9.78576
tme	-9.78652
▁tro	-9.78662
▁iver	-9.78708
▁aris	-9.78874
▁inay	-9.78943
▁uyar	-9.79056
▁arma	-9.79112
uc	-9.79115
▁fe	-9.79148
▁rıcı	-9.79268
▁nak	-9.79309
▁ayrak	-9.79562
inci	-9.79619
▁rhan	-9.79786
▁Vo	-9.79821
▁enar	-9.79851
▁Bay	-9.79877
▁meş	-9.79895
▁asın	-9.80048
▁san	-9.8049
▁akan	-9.80506
▁dılar	-9.80584
▁itti	-9.80618
▁gire	-9.80691
▁nuz	-9.8076
▁lem	-9.80906
gö	-9.8091
▁alka	-9.81017
▁27	-9.81022
▁azıl	-9.81056
▁diş	-9.81085
▁Par	-9.81107
▁old	-9.81291
▁lal	-9.81352
▁biti	-9.81394
▁ilm	-9.81508
▁eğe	-9.81793
▁irli	-9.81835
K	-9.81927
▁diler	-9.82129
▁kala	-9.82417
▁tiv	-9.82478
▁arb	-9.82546
▁ktör	-9.82625
▁eç	-9.82639
▁23	-9.82874
▁gen	-9.82882
▁ulan	-9.82909
▁ksik	-9.82948
▁ekte	-9.83032
▁onya	-9.83198
▁cılı	-9.83214
▁zay	-9.83279
▁ltın	-9.83335
▁pany	-9.83448
▁ısı	-9.83669
▁işti	-9.83763
iyas	-9.8377
▁ors	-9.83895
▁sh	-9.83915
▁ebek	-9.83961
▁stek	-9.84025
▁duk	-9.84137
▁esin	-9.84179
▁renk	-9.84244
▁din	-9.84316
▁mayın	-9.84398
▁aket	-9.84446
tob	-9.84463
▁onse	-9.84525
▁raç	-9.84636
▁mir	-9.84676
▁ldu	-9.84875
▁örev	-9.8493
▁esti	-9.84982
▁ari	-9.85006
▁ete	-9.8503
▁fil	-9.85037
▁altın	-9.85149
▁Hale	-9.85257
▁Sam	-9.85327
▁riler	-9.85441
▁irse	-9.85468
▁dolu	-9.85537
▁kuz	-9.85593
▁ho	-9.85599
rar	-9.85638
▁şif	-9.8566
▁kah	-9.85663
▁aldır	-9.85813
▁ade	-9.85953
▁yat	-9.85954
▁olun	-9.85958
▁yay	-9.86021
▁akır	-9.86027
▁ald	-9.8604
▁liş	-9.86092
▁atın	-9.86329
▁alkı	-9.86533
▁Tü	-9.86561
▁esn	-9.86619
▁inc	-9.86725
▁dam	-9.86813
▁amad	-9.86814
▁ılı	-9.86897
at	-9.86961
yan	-9.87028
▁klan	-9.87123
▁çey	-9.87311
▁akı	-9.87362
▁llah	-9.87427
▁iptal	-9.87458
▁ağan	-9.87523
▁iyer	-9.87554
▁ştı	-9.87606
▁mde	-9.87658
es	-9.87755
▁sad	-9.87787
▁ban	-9.87945
▁Sü	-9.88004
▁mutl	-9.88021
▁eğ	-9.88055
▁grub	-9.88081
▁usu	-9.88094
▁lıdır	-9.88108
▁Ri	-9.88179
▁kı	-9.88267
ka	-9.88301
mesi	-9.88418
▁uns	-9.88442
▁özle	-9.88607
▁zem	-9.88627
▁erel	-9.88628
▁olla	-9.88664
▁kiz	-9.88854
BMM	-9.88864
▁devre	-9.89133
▁ımcı	-9.89164
baka	-9.89269
▁ınar	-9.89295
▁mas	-9.89301
▁dası	-9.89377
▁meme	-9.89453
▁ğum	-9.89471
▁bal	-9.89769
▁Kaza	-9.89817
▁ava	-9.89921
▁ursa	-9.89933
▁Sur	-9.89962
▁atar	-9.9003
▁nla	-9.90114
▁önde	-9.90118
▁bay	-9.90138
▁arar	-9.90148
▁kle	-9.9016
▁abir	-9.90315
▁Fa	-9.90373
▁nf	-9.90433
▁ikr	-9.90681
▁uran	-9.90835
▁eğer	-9.90868
▁aynak	-9.90917
▁gitme	-9.90928
ile	-9.9099
▁erle	-9.9099
▁lardı	-9.91009
▁lım	-9.91106
▁tarı	-9.91211
▁29	-9.91324
▁Sa	-9.9146
▁erbi	-9.91491
lmak	-9.91503
▁ram	-9.917
▁çuk	-9.9174
▁zam	-9.91759
met	-9.91862
▁Ma	-9.91972
▁Saray	-9.91977
▁sana	-9.92029
▁Üs	-9.92085
▁atif	-9.92219
▁Wa	-9.92267
▁reye	-9.92481
▁kler	-9.92486
▁gili	-9.92614
▁Tu	-9.92647
▁eb	-9.92675
▁ot	-9.92754
▁Kuru	-9.92958
▁arek	-9.92994
▁onser	-9.93089
▁sunu	-9.93113
▁hu	-9.93185
▁nel	-9.93329
▁üstü	-9.93362
▁Dk	-9.93394
▁işin	-9.93426
▁Mad	-9.93431
▁kit	-9.93438
▁26	-9.93484
▁La	-9.93511
hu	-9.93625
▁akış	-9.93631
▁palı	-9.93762
tik	-9.93808
▁ace	-9.93852
▁mil	-9.9389
▁der	-9.94057
▁ldi	-9.94086
▁sas	-9.94154
▁sta	-9.94195
▁fon	-9.94205
▁yna	-9.94234
▁htar	-9.94297
▁kin	-9.94339
▁zlem	-9.94516
ıp	-9.94594
▁este	-9.94668
▁apa	-9.94753
atıl	-9.94776
▁sok	-9.94847
▁necek	-9.95101
▁ksel	-9.95134
▁yim	-9.95336
▁klı	-9.95352
▁üçü	-9.95521
▁ig	-9.95533
▁rum	-9.95535
▁ster	-9.95591
▁yon	-9.95833
▁evde	-9.9584
g	-9.95958
▁şıyor	-9.95983
▁zma	-9.96106
▁ff	-9.96115
▁adi	-9.96151
▁rmiş	-9.965
▁upa	-9.965
▁utu	-9.96554
▁Sal	-9.96738
▁bölü	-9.96756
▁nö	-9.96879
ve	-9.96887
▁tuğ	-9.96907
▁gere	-9.97086
▁kum	-9.97126
▁lev	-9.97129
▁har	-9.97174
▁ok	-9.97254
▁cel	-9.97406
▁lmadı	-9.97418
▁ore	-9.97507
▁racı	-9.97515
▁pi	-9.97596
▁imli	-9.97849
▁nay	-9.97906
▁ırt	-9.98025
▁eker	-9.98053
▁YE	-9.98171
▁kıl	-9.98188
▁fi	-9.98198
▁yük	-9.98295
▁unca	-9.98313
▁arab	-9.98361
▁Bil	-9.98389
▁tal	-9.98397
▁seb	-9.98534
▁ha	-9.9855
▁iza	-9.9858
▁zun	-9.98584
▁gin	-9.98675
▁aze	-9.98808
▁narak	-9.9881
▁katl	-9.98936
▁rci	-9.98991
▁nüf	-9.99092
▁vu	-9.99212
▁dırdı	-9.99246
▁Pol	-9.99305
▁çağ	-9.99335
▁ent	-9.99408
▁ikli	-9.99479
▁alya	-9.99621
ici	-9.99705
▁Yapı	-9.99715
▁rir	-9.99752
)	-9.99915
▁ag	-9.99966
▁asi	-10
▁mina	-10.0001
▁nlü	-10.0019
▁ende	-10.0019
▁rk	-10.0027
▁vali	-10.0027
▁alb	-10.0038
eri	-10.0071
▁%	-10.0076
▁rman	-10.0082
▁nerji	-10.0091
▁rt	-10.0098
▁Da	-10.0108
▁tli	-10.0115
&	-10.0128
▁rka	-10.0151
▁lisi	-10.0154
▁imha	-10.017
▁sna	-10.0174
▁uc	-10.0174
▁abah	-10.0185
▁mbe	-10.0201
▁tırdı	-10.0204
▁mekt	-10.0229
▁ulübü	-10.0242
▁ece	-10.0252
▁şar	-10.0275
▁nter	-10.0281
lah	-10.0301
▁uçla	-10.0309
▁iv	-10.0316
▁ikle	-10.0323
▁benz	-10.0335
▁ıları	-10.0336
▁ters	-10.0343
▁mur	-10.0364
▁yin	-10.0365
▁sker	-10.0374
▁akin	-10.0376
▁cili	-10.0384
▁aru	-10.0387
▁cev	-10.0391
▁ora	-10.0402
▁müda	-10.0409
▁Mo	-10.0416
ert	-10.0424
di	-10.0425
▁orad	-10.0435
▁kte	-10.0437
▁nne	-10.0455
▁ayr	-10.0456
DY	-10.047
▁liyor	-10.0472
▁rit	-10.0477
▁ond	-10.0479
▁ihbar	-10.0492
▁Kar	-10.0496
▁60	-10.0509
▁alga	-10.0509
▁niye	-10.052
▁rip	-10.0521
▁emen	-10.0523
▁rin	-10.0534
▁New	-10.0551
▁rta	-10.0552
▁urlar	-10.0559
▁x	-10.056
▁sığı	-10.0562
▁urk	-10.0587
▁elle	-10.0588
▁rüyor	-10.0609
▁İyi	-10.0614
▁be	-10.0617
▁Başb	-10.0623
▁akka	-10.0636
▁fla	-10.0636
▁rse	-10.0655
▁öste	-10.0657
20	-10.0666
üm	-10.0668
▁imin	-10.0674
▁asit	-10.0692
▁giz	-10.0696
▁rtesi	-10.0701
▁erse	-10.0745
▁uklu	-10.0749
▁ow	-10.0749
▁üc	-10.0751
▁rgi	-10.0753
A	-10.0754
▁Na	-10.0759
▁azır	-10.0773
▁ruk	-10.0778
▁31	-10.078
▁rp	-10.0785
van	-10.079
▁fı	-10.0811
▁beş	-10.0816
▁ğim	-10.0821
▁rif	-10.0834
▁tlı	-10.0865
▁evg	-10.0866
7	-10.0877
▁eo	-10.0901
▁başa	-10.0909
▁açı	-10.0916
▁arm	-10.0928
▁kas	-10.0932
▁DA	-10.094
▁ub	-10.0945
▁neli	-10.0955
kın	-10.0965
▁üt	-10.0987
▁avaşı	-10.1005
▁eşit	-10.1022
▁cep	-10.1039
▁rac	-10.1046
▁çöz	-10.1051
▁kla	-10.107
▁rcu	-10.108
▁rup	-10.1096
▁ltu	-10.1134
ebe	-10.1136
üsü	-10.1136
Ph	-10.1143
▁dahi	-10.1144
▁kırı	-10.1147
▁irad	-10.1153
▁mini	-10.1159
af	-10.1173
▁arş	-10.1179
▁zalt	-10.1188
▁ansı	-10.1199
▁lidir	-10.1217
▁klam	-10.1223
▁iği	-10.125
▁ılar	-10.1256
▁sik	-10.1279
▁netim	-10.1281
,5	-10.1283
▁şul	-10.1296
▁tel	-10.1297
▁lom	-10.1297
▁ild	-10.1305
▁YOR	-10.1307
▁ker	-10.1319
▁era	-10.1324
▁elen	-10.1333
▁icar	-10.1336
▁saya	-10.1339
▁gun	-10.1342
▁evl	-10.1363
▁kare	-10.1363
▁gay	-10.1374
▁leye	-10.138
▁rag	-10.1391
▁ırs	-10.1395
▁rası	-10.1397
▁ayda	-10.1401
▁epe	-10.1404
▁şeker	-10.1416
miyo	-10.1423
▁Ba	-10.1424
▁eve	-10.1443
▁Kü	-10.1446
▁inli	-10.1448
▁yapar	-10.1452
▁karı	-10.1453
▁ry	-10.1455
arak	-10.147
▁dip	-10.1475
▁arp	-10.1484
▁ros	-10.1488
▁fır	-10.1489
vra	-10.1491
▁ime	-10.1494
▁özü	-10.1497
▁aspor	-10.1504
▁faz	-10.1508
▁arda	-10.1508
▁orun	-10.1512
▁aki	-10.1517
▁cum	-10.1517
▁unc	-10.1521
ikir	-10.1521
▁kut	-10.1522
▁oşa	-10.1525
▁iyeti	-10.1527
ono	-10.1544
ını	-10.1551
▁olda	-10.1571
▁kova	-10.1595
▁dönü	-10.1608
▁Erd	-10.1616
▁vad	-10.1617
▁ista	-10.1634
▁ğın	-10.1645
▁steri	-10.165
lup	-10.1651
▁Ham	-10.167
▁Yak	-10.1685
▁nam	-10.169
▁Ed	-10.1696
▁tmak	-10.1712
▁Has	-10.1717
▁rını	-10.1727
sız	-10.173
▁ins	-10.1731
▁uğ	-10.1756
▁rıyor	-10.1757
▁ero	-10.1759
▁lin	-10.176
▁esto	-10.1768
▁Re	-10.177
▁nımı	-10.1775
▁lent	-10.1781
▁kula	-10.1789
▁Diy	-10.1792
▁xx	-10.1799
▁öre	-10.1799
▁aylar	-10.1805
▁arih	-10.1805
▁açlar	-10.181
▁ova	-10.1815
kış	-10.1816
▁viz	-10.1828
▁sem	-10.1846
ırmı	-10.1847
tih	-10.1865
▁î	-10.1872
ebeb	-10.1878
▁che	-10.1886
▁Hem	-10.1886
▁urg	-10.1889
▁rmesi	-10.1903
▁zet	-10.1903
▁LAR	-10.1912
▁ldü	-10.1913
▁tand	-10.1937
▁iyo	-10.1942
▁tadı	-10.1948
▁baz	-10.1954
▁üstün	-10.1958
▁atır	-10.1963
sa	-10.1964
▁Uy	-10.1979
▁lak	-10.1983
▁ekil	-10.1988
T	-10.1995
▁On	-10.1997
▁jan	-10.2001
▁tme	-10.2004
▁avra	-10.2014
▁muha	-10.2018
▁doğan	-10.2021
▁Ol	-10.2022
ur	-10.2025
▁ırıl	-10.2038
▁cak	-10.204
▁bol	-10.2045
▁cam	-10.2053
▁venli	-10.2056
▁rmey	-10.2067
▁aten	-10.2074
▁ism	-10.2085
ir	-10.2085
▁yed	-10.2091
▁form	-10.2095
▁Pe	-10.2098
ddia	-10.211
▁arkı	-10.2125
▁LER	-10.2135
▁ori	-10.2137
▁ğin	-10.214
▁35	-10.2149
▁enin	-10.2157
▁racak	-10.2161
3	-10.2165
▁zde	-10.2175
▁ngel	-10.2176
▁zir	-10.2193
▁ind	-10.2195
▁lac	-10.2214
▁ksa	-10.222
▁4.	-10.2233
▁yesi	-10.2245
▁urd	-10.225
▁isy	-10.2276
▁üf	-10.2297
▁ebe	-10.2302
onu	-10.2304
▁X	-10.2334
ığın	-10.2336
eyaz	-10.234
▁ham	-10.2348
▁heli	-10.2349
▁Em	-10.236
luğ	-10.2366
▁Sp	-10.237
▁amam	-10.2374
▁fak	-10.2379
▁sat	-10.239
▁rdo	-10.2394
▁esel	-10.2398
▁ılır	-10.2405
▁afe	-10.2417
▁verg	-10.2431
▁veri	-10.2437
▁vir	-10.2447
land	-10.2452
▁ilya	-10.2462
▁val	-10.2474
▁bat	-10.2478
▁aht	-10.2486
▁çözü	-10.2492
▁şek	-10.2492
▁Co	-10.2504
▁nede	-10.2504
▁rj	-10.2508
dir	-10.2509
▁uluş	-10.2523
▁isa	-10.2533
▁eyn	-10.2534
▁edin	-10.2538
▁nv	-10.254
▁nış	-10.2548
R	-10.2559
▁reği	-10.256
▁rici	-10.2576
▁tura	-10.2579
on	-10.2581
▁pol	-10.2586
▁çu	-10.2593
▁nama	-10.2597
▁key	-10.2613
▁emb	-10.2615
▁bar	-10.2625
▁mun	-10.2626
▁ikay	-10.2627
▁let	-10.2642
▁line	-10.2655
▁avaş	-10.2658
▁edefi	-10.266
▁uro	-10.2664
HP	-10.2668
lmaz	-10.2681
▁Alt	-10.2691
▁laka	-10.2711
▁aza	-10.2724
▁kült	-10.2728
▁rom	-10.273
▁tad	-10.2743
▁oğa	-10.2748
▁aden	-10.2751
▁nci	-10.2757
▁uyan	-10.2763
▁ahve	-10.2786
▁ıb	-10.2786
▁şk	-10.279
▁ck	-10.279
▁AA	-10.2796
▁kenti	-10.2804
▁ks	-10.2805
▁rur	-10.2806
▁him	-10.2807
san	-10.2807
duğ	-10.283
▁hız	-10.2832
▁çar	-10.2832
▁sya	-10.2848
▁mec	-10.2851
▁Şim	-10.2861
▁tılar	-10.2874
▁amile	-10.2887
▁tarz	-10.29
tbol	-10.2905
▁lları	-10.2916
▁araf	-10.2921
▁erdi	-10.2943
▁bis	-10.2944
▁kab	-10.2946
aj	-10.2946
▁ümü	-10.2954
▁mara	-10.2982
▁nst	-10.2984
▁avi	-10.3029
▁ihan	-10.3044
▁tıldı	-10.3066
▁risi	-10.3067
▁Ok	-10.3088
▁pü	-10.3088
▁rtada	-10.3093
▁zler	-10.3093
▁elesi	-10.3101
▁ydın	-10.3124
▁siye	-10.3128
▁oplu	-10.313
▁go	-10.313
▁prot	-10.3143
▁oh	-10.3146
O	-10.315
N	-10.3164
▁misi	-10.3168
▁lup	-10.3169
▁ice	-10.3176
▁Ci	-10.32
▁sed	-10.3201
▁ebebi	-10.3205
▁Bak	-10.3212
▁anta	-10.3235
▁uğu	-10.3241
▁önü	-10.3253
▁maaş	-10.3254
▁rduğ	-10.3272
▁45	-10.3292
▁akıl	-10.3305
ro	-10.3314
▁urun	-10.3316
▁elli	-10.3334
▁arsa	-10.3339
▁ğla	-10.3374
▁abu	-10.3375
▁SI	-10.3376
▁mse	-10.3389
▁olo	-10.3394
▁KP	-10.3398
▁nc	-10.3407
▁vize	-10.3416
▁andal	-10.3427
▁stan	-10.3438
ATO	-10.3446
▁üca	-10.345
▁deme	-10.3451
▁aşar	-10.3457
çı	-10.3459
▁nüm	-10.3463
▁ayb	-10.3468
▁uşa	-10.3472
▁sus	-10.35
▁İç	-10.3508
▁aral	-10.3516
▁Sen	-10.3533
4	-10.3535
▁uh	-10.3544
▁rand	-10.3547
▁çek	-10.3552
▁Ta	-10.3567
▁canl	-10.3581
▁ük	-10.3582
▁değ	-10.36
▁ersi	-10.3619
▁Eş	-10.3631
▁ente	-10.3642
▁zu	-10.3648
▁dırma	-10.3652
▁lgi	-10.3653
▁beya	-10.3655
▁arttı	-10.3676
▁âlâ	-10.3676
▁ner	-10.3678
▁tılı	-10.3689
▁tuz	-10.369
▁vak	-10.37
▁ışla	-10.371
▁örü	-10.3717
▁Kom	-10.3719
▁apta	-10.3734
▁tra	-10.3737
▁ug	-10.3749
▁rö	-10.3758
▁ekr	-10.3767
▁üsü	-10.3768
▁maka	-10.377
▁msi	-10.3781
▁og	-10.3787
▁kesi	-10.3803
▁ıza	-10.3808
▁izyo	-10.3812
▁üzel	-10.3812
▁aga	-10.3838
▁Şeh	-10.3839
▁ahar	-10.3844
▁üny	-10.3862
▁rolü	-10.3869
▁nluk	-10.3883
▁tank	-10.3886
cad	-10.3909
▁amp	-10.391
▁rib	-10.3919
▁ırk	-10.3922
▁tern	-10.3932
▁düz	-10.3933
▁şki	-10.394
▁erat	-10.3946
▁uncu	-10.3959
▁alat	-10.3964
▁Kadı	-10.3974
▁aşk	-10.3977
▁irle	-10.3998
▁ita	-10.4003
▁90	-10.4023
▁anç	-10.4024
▁rama	-10.4027
▁uv	-10.403
▁itle	-10.4034
▁ift	-10.4047
▁seyi	-10.405
▁zin	-10.406
▁70	-10.4066
▁ağın	-10.4074
▁iko	-10.4076
üphe	-10.4079
▁oyunu	-10.4081
▁yoğu	-10.4083
▁liz	-10.4088
▁ekin	-10.409
▁ehir	-10.4093
▁alır	-10.4103
▁for	-10.4103
2	-10.4108
"	-10.4109
▁zat	-10.4125
▁eza	-10.4126
▁ano	-10.4131
lçes	-10.4151
▁kası	-10.4164
▁alen	-10.4172
ergi	-10.4177
▁lme	-10.4179
▁arıs	-10.4181
▁oya	-10.4188
▁elam	-10.419
▁müh	-10.4191
▁kâ	-10.4196
▁phe	-10.4202
▁gor	-10.4221
▁lata	-10.4222
E	-10.4223
▁hir	-10.4223
▁lga	-10.423
▁otom	-10.4239
▁ica	-10.4245
▁CEO	-10.4254
▁HP	-10.4261
▁ördü	-10.4283
▁rar	-10.4288
▁öv	-10.4297
rac	-10.4298
▁meyv	-10.4302
▁mezu	-10.4308
▁uru	-10.4313
kımı	-10.432
roje	-10.4331
▁yete	-10.4342
▁ıç	-10.436
▁Sİ	-10.4369
▁esli	-10.4386
▁dol	-10.4391
▁kont	-10.4431
▁ydu	-10.4435
▁mand	-10.444
▁ons	-10.4449
▁est	-10.4451
▁Tur	-10.4454
▁üler	-10.4458
▁şok	-10.4461
▁rlar	-10.4466
▁zıl	-10.447
▁80	-10.4477
▁Ken	-10.4478
▁ağış	-10.4481
▁mac	-10.4482
▁As	-10.4482
▁ikra	-10.4482
▁üldü	-10.4483
▁ynadı	-10.4483
▁eşme	-10.45
▁yip	-10.4504
▁SK	-10.4508
I	-10.4516
▁rız	-10.4534
▁azar	-10.4554
▁lok	-10.4573
▁ırsa	-10.4573
▁kemi	-10.4578
▁fik	-10.4578
um	-10.458
mam	-10.4586
▁Hal	-10.4606
▁vo	-10.4609
HY	-10.461
▁alla	-10.4614
▁zen	-10.4617
▁nşa	-10.4628
▁tile	-10.4633
▁Rea	-10.4634
as	-10.4644
▁Se	-10.465
▁şof	-10.466
▁aydı	-10.4671
▁grubu	-10.4672
▁ilin	-10.4673
▁çiler	-10.4679
▁klık	-10.4721
▁erin	-10.4725
▁ener	-10.4737
▁ate	-10.474
▁lus	-10.4742
▁sma	-10.4742
▁türü	-10.4746
▁nso	-10.4749
S	-10.4789
▁ibe	-10.4798
▁ister	-10.48
▁niş	-10.4807
▁misa	-10.4809
▁ygu	-10.4816
▁Tem	-10.4839
▁tlama	-10.484
▁iyan	-10.4841
▁oyn	-10.4871
▁usta	-10.4873
▁nis	-10.4873
▁üni	-10.4881
▁meni	-10.49
ons	-10.4916
▁tat	-10.4929
ruz	-10.4931
▁ast	-10.4948
▁bb	-10.4949
▁aye	-10.4949
▁Yu	-10.4952
▁kme	-10.4956
▁turdu	-10.4963
▁ırı	-10.4974
▁ürek	-10.4983
▁yecek	-10.4991
▁iliş	-10.5051
▁rz	-10.5064
anlı	-10.5065
▁Ge	-10.5067
▁34	-10.5082
▁ındı	-10.5088
▁+	-10.509
▁şler	-10.5091
▁Dir	-10.5106
▁rebi	-10.5111
▁edek	-10.5114
▁uf	-10.5119
▁arac	-10.5133
▁ettik	-10.5143
rgu	-10.5146
▁erisi	-10.5158
lmuş	-10.5164
lış	-10.5167
▁kus	-10.5179
▁ksi	-10.5181
▁kül	-10.5182
GK	-10.5187
▁raz	-10.519
▁Te	-10.5197
▁yoktu	-10.5207
▁laştı	-10.5208
▁şef	-10.5211
▁urs	-10.522
▁oks	-10.5228
▁eye	-10.5235
▁anıt	-10.5239
▁devr	-10.5248
▁üml	-10.5256
▁anse	-10.5264
▁ural	-10.5289
▁amle	-10.5291
kem	-10.5304
▁rba	-10.5306
▁bah	-10.5309
▁düğü	-10.5312
▁ığa	-10.5313
▁nşaa	-10.5346
▁kele	-10.5347
F	-10.5354
▁akım	-10.5357
▁luş	-10.5362
▁ens	-10.5364
▁pan	-10.5394
▁vcı	-10.5406
▁lerdi	-10.541
▁vas	-10.542
▁rıs	-10.5422
▁nmak	-10.5422
▁taba	-10.5429
▁por	-10.5436
▁arayı	-10.5468
ız	-10.5475
▁Doğ	-10.5479
▁lh	-10.548
▁je	-10.5482
▁uruc	-10.5499
▁ipl	-10.55
hmet	-10.5502
▁urgu	-10.5503
aç	-10.5523
▁ygı	-10.5527
▁dini	-10.5536
▁lad	-10.5536
▁ruyor	-10.5555
▁inen	-10.5564
▁sanı	-10.5573
▁sür	-10.5579
▁irişi	-10.5585
▁iri	-10.5587
▁şir	-10.56
▁5.	-10.5602
ye	-10.5616
▁adem	-10.5625
▁icra	-10.5631
▁tiya	-10.5631
▁*	-10.5637
▁kapı	-10.5655
▁dli	-10.5663
▁akla	-10.5669
▁kun	-10.5685
▁nır	-10.5688
▁emin	-10.5698
▁rafik	-10.5698
▁çın	-10.5706
C	-10.5718
▁arlı	-10.572
▁boy	-10.5721
▁irim	-10.5723
▁kov	-10.5724
▁YA	-10.5727
▁çü	-10.5735
▁hü	-10.5735
▁öp	-10.5736
▁esir	-10.5741
rem	-10.5749
▁arf	-10.5759
▁tim	-10.5793
▁port	-10.5795
▁add	-10.5805
▁osu	-10.5811
▁undu	-10.5813
lçe	-10.5813
▁tres	-10.583
60	-10.583
▁Med	-10.5831
zi	-10.5836
tika	-10.5846
▁afi	-10.5848
▁arke	-10.5854
▁mad	-10.588
▁zafer	-10.5885
▁ırdı	-10.5887
▁miye	-10.5891
▁tein	-10.5897
▁ty	-10.59
▁olar	-10.5917
▁üş	-10.5917
▁IR	-10.5924
ER	-10.5937
▁mp	-10.5941
▁oma	-10.5949
▁dem	-10.5971
▁dun	-10.5993
▁api	-10.6001
▁çıl	-10.6017
tır	-10.6035
▁ğre	-10.604
▁roke	-10.6042
▁reti	-10.6046
▁şun	-10.6056
▁luğu	-10.6061
▁cek	-10.6064
▁32	-10.6071
▁lamış	-10.6114
▁akk	-10.6115
▁llar	-10.6119
▁irt	-10.6127
▁erv	-10.6131
▁çılar	-10.6135
▁resi	-10.6135
zah	-10.6141
▁rük	-10.6142
▁ahv	-10.6151
▁spo	-10.6164
▁iade	-10.6166
▁fre	-10.6172
▁tabi	-10.6178
▁aldık	-10.618
▁ves	-10.6196
bu	-10.6208
▁şıl	-10.6246
▁kel	-10.625
▁luyor	-10.6257
▁arz	-10.6271
FF	-10.6272
▁ayım	-10.6275
▁enti	-10.6286
▁neği	-10.63
▁nadı	-10.6301
▁enk	-10.6301
ARI	-10.6302
▁abak	-10.6303
▁dere	-10.6313
▁ermi	-10.6325
▁yad	-10.6339
▁iha	-10.6343
▁ncel	-10.6348
▁izni	-10.6351
▁kaçı	-10.6357
▁sek	-10.6357
ing	-10.6365
▁tiyor	-10.6374
▁laf	-10.6382
▁ezon	-10.6384
10	-10.6386
▁NI	-10.639
▁imle	-10.6402
▁üle	-10.6404
▁rc	-10.6433
▁6.	-10.6452
se	-10.6454
çık	-10.6454
▁tiler	-10.6458
▁ave	-10.6472
▁irin	-10.6494
▁uk	-10.6526
▁cer	-10.6533
▁tıyor	-10.654
SO	-10.6541
▁inir	-10.6547
▁zli	-10.6565
▁erde	-10.6573
▁iğ	-10.6576
▁Kana	-10.6578
▁nakl	-10.6587
▁ilesi	-10.6602
▁uta	-10.661
▁lemek	-10.6614
▁nucu	-10.6618
mse	-10.6623
▁Mİ	-10.6631
▁ıştı	-10.664
▁ısın	-10.6648
▁alil	-10.6649
▁orum	-10.6652
ko	-10.6658
ul	-10.6661
ber	-10.6664
▁ndu	-10.6674
▁TÜRK	-10.6682
▁ırlı	-10.6692
▁apl	-10.6695
30	-10.6698
▁Ege	-10.6716
▁nüyor	-10.6718
▁nb	-10.6736
İT	-10.6741
▁arc	-10.676
▁AKP	-10.678
▁lur	-10.6785
etic	-10.6792
▁ürme	-10.6801
▁rde	-10.6805
▁orman	-10.6816
▁Üç	-10.6842
▁eçm	-10.6846
▁urdu	-10.6852
▁ato	-10.6875
▁ilke	-10.6883
fır	-10.6883
▁tler	-10.6888
▁ülü	-10.69
lığı	-10.6905
▁iyel	-10.6909
▁lüks	-10.691
D	-10.6931
▁rey	-10.6933
▁oo	-10.694
▁vr	-10.6953
▁erha	-10.697
▁emem	-10.6981
rgi	-10.6983
▁dua	-10.699
▁lb	-10.6994
▁zesi	-10.6997
▁vat	-10.7001
▁üşü	-10.701
▁Dev	-10.7012
▁NA	-10.7016
▁zle	-10.7033
▁şer	-10.7046
▁lla	-10.7054
▁saba	-10.7064
▁rev	-10.7104
▁onuç	-10.7112
▁çin	-10.7116
▁ulma	-10.7118
▁LA	-10.7123
▁tema	-10.7126
▁nfe	-10.7137
▁turu	-10.7137
▁kem	-10.7138
▁şiir	-10.7165
▁elem	-10.7167
▁idir	-10.717
:	-10.717
▁leti	-10.7175
▁hâ	-10.7196
▁ilik	-10.72
▁rist	-10.7201
riyo	-10.7204
▁DHA	-10.7205
▁ilde	-10.7207
▁ion	-10.7208
▁hav	-10.7219
rada	-10.7219
mek	-10.7235
▁Ağ	-10.7237
▁ide	-10.7264
▁Tam	-10.7267
▁öb	-10.7269
▁uydu	-10.7279
liye	-10.7282
▁mb	-10.7292
▁rf	-10.7295
▁no	-10.7314
akla	-10.7317
L	-10.7317
▁dis	-10.7326
▁112	-10.7333
ır	-10.7353
▁sam	-10.7361
▁masın	-10.737
▁Para	-10.7371
▁redi	-10.7375
▁jd	-10.7377
DK	-10.7389
▁keşf	-10.7394
▁ğru	-10.7396
▁Qu	-10.7411
ür	-10.7417
▁ekç	-10.7424
▁lil	-10.743
oku	-10.7441
▁yeri	-10.745
is	-10.7451
ley	-10.7454
▁str	-10.7455
▁ett	-10.7461
rat	-10.7461
▁zel	-10.7491
▁vru	-10.7495
▁ost	-10.751
▁op	-10.752
▁ikna	-10.753
▁rtu	-10.7539
▁şka	-10.754
▁rın	-10.7551
▁ço	-10.7558
tçı	-10.7571
x	-10.7587
▁cağı	-10.7592
▁tap	-10.7612
▁lib	-10.7615
▁şkı	-10.7632
40	-10.7635
▁gesi	-10.7635
▁ill	-10.7636
▁kom	-10.7639
▁omut	-10.7639
▁36	-10.7644
▁akti	-10.7644
▁ft	-10.7645
▁reme	-10.7647
▁hey	-10.7651
▁idam	-10.7656
uğu	-10.766
▁ılma	-10.7668
▁ocu	-10.7671
▁ary	-10.7678
▁yg	-10.7702
▁rafi	-10.7716
▁eksi	-10.7719
aciz	-10.7752
zze	-10.7754
▁pe	-10.7759
▁fat	-10.7764
OBİ	-10.7766
▁keti	-10.777
▁neri	-10.7787
▁itha	-10.7789
▁tama	-10.7805
ton	-10.7808
▁inler	-10.7821
▁dri	-10.7821
▁vin	-10.7824
▁LE	-10.7829
uvv	-10.7838
▁Le	-10.7846
▁engi	-10.786
▁şi	-10.7865
eden	-10.7873
▁tıp	-10.7874
▁1-0	-10.7875
▁ns	-10.7885
▁aro	-10.7887
▁Kul	-10.7895
▁elal	-10.7904
▁pra	-10.7908
▁abit	-10.791
▁◊	-10.7912
▁rg	-10.7923
▁asta	-10.7925
piy	-10.7925
▁zak	-10.7927
▁akma	-10.793
▁syo	-10.7973
▁dalar	-10.7974
▁lattı	-10.7996
▁lum	-10.7996
▁ron	-10.7999
▁tisi	-10.8015
▁arzu	-10.8019
▁kaz	-10.8047
▁etli	-10.805
▁önl	-10.8064
▁ask	-10.8075
▁zır	-10.8078
rlü	-10.8091
▁tül	-10.8095
▁kâr	-10.8103
▁şak	-10.8106
ası	-10.8117
▁ıyı	-10.8129
▁kusu	-10.8146
▁orc	-10.8146
▁eral	-10.8158
msu	-10.8178
▁cell	-10.8179
▁ali	-10.8192
▁erc	-10.8197
ö	-10.8212
▁esl	-10.8245
ig	-10.8258
▁ğımı	-10.8273
▁orcu	-10.8276
▁ette	-10.8306
▁tuk	-10.8307
RT	-10.831
1	-10.8319
▁pis	-10.8321
▁yma	-10.8342
kü	-10.8349
▁ares	-10.8349
dro	-10.8351
▁suçu	-10.8352
▁ilt	-10.8363
▁VE	-10.8363
▁ABAH	-10.8373
▁Mal	-10.839
▁akdi	-10.8391
▁lif	-10.8404
YK	-10.8417
imar	-10.8419
▁Beş	-10.8424
stro	-10.8424
▁land	-10.8427
▁33	-10.843
▁apar	-10.8434
▁ahla	-10.8453
▁rusu	-10.8473
▁apo	-10.848
▁ris	-10.8482
ına	-10.8485
▁osun	-10.8488
▁sko	-10.8495
▁zey	-10.85
▁oğru	-10.8502
▁rlüğ	-10.8515
▁ilir	-10.8521
▁arit	-10.8523
▁rga	-10.8536
▁ğdu	-10.8555
▁TSK	-10.8564
;	-10.857
▁öndü	-10.8589
9	-10.8602
▁ğun	-10.8602
▁umar	-10.8603
▁çağr	-10.8615
▁imar	-10.8616
▁ud	-10.8633
▁yh	-10.864
▁tla	-10.8644
▁slı	-10.8647
▁Dil	-10.8648
▁rna	-10.8667
▁Lo	-10.8686
▁tte	-10.8695
▁ırak	-10.8698
▁Din	-10.8719
▁Rİ	-10.872
▁adis	-10.8721
rnek	-10.873
▁psi	-10.8732
os	-10.8744
▁vaka	-10.8763
▁ibar	-10.8785
▁lab	-10.8797
▁ly	-10.8803
▁fen	-10.8823
▁adir	-10.8826
80	-10.884
▁AR	-10.8855
▁yları	-10.8859
▁leşti	-10.886
▁vaki	-10.8864
▁aram	-10.8865
▁gan	-10.8866
▁Fed	-10.8866
G	-10.8867
▁urma	-10.8875
▁arl	-10.8892
▁cular	-10.8896
▁yoruz	-10.8909
▁küf	-10.8912
▁küm	-10.8915
▁Fran	-10.8917
▁usa	-10.892
▁zar	-10.8923
j	-10.8927
▁ksu	-10.893
▁emir	-10.8932
▁Bul	-10.8942
▁illi	-10.8957
▁dy	-10.8959
15	-10.8964
▁tün	-10.8976
▁viye	-10.8996
▁arbo	-10.9013
▁roj	-10.9015
▁sap	-10.9028
▁isyan	-10.903
▁th	-10.903
son	-10.903
▁inat	-10.9035
▁lüyor	-10.9036
▁açma	-10.9041
▁LI	-10.9053
▁kçi	-10.9066
▁ked	-10.9075
▁erç	-10.9082
▁ylü	-10.9084
▁olduk	-10.9092
▁mart	-10.9093
▁mon	-10.91
▁opla	-10.9133
▁eke	-10.9141
▁San	-10.9143
▁lah	-10.9151
▁Lİ	-10.9159
▁eviy	-10.9166
▁süt	-10.9172
rab	-10.9185
mih	-10.919
▁ehl	-10.921
▁CAK	-10.9234
▁kafe	-10.9238
▁kup	-10.9248
yo	-10.9251
▁enf	-10.9253
▁erm	-10.9261
▁ayd	-10.9267
▁uri	-10.9272
ARA	-10.9274
▁veda	-10.9282
▁sim	-10.9297
▁Th	-10.9299
▁ülme	-10.9307
▁orlu	-10.933
▁kulu	-10.9337
▁ğme	-10.9357
▁rülm	-10.9358
▁CİHAN	-10.9409
▁AD	-10.9423
leme	-10.9424
▁pler	-10.9437
▁rsan	-10.9452
▁zara	-10.9462
▁nım	-10.9468
▁Zaf	-10.9477
▁üb	-10.9486
▁şen	-10.9502
TAN	-10.9504
▁rumu	-10.9511
▁tre	-10.9528
▁lulu	-10.9535
▁niha	-10.9543
En	-10.9544
▁kka	-10.9565
ültü	-10.9578
▁lmas	-10.9579
kı	-10.958
▁lyo	-10.9581
▁iyes	-10.9581
▁obi	-10.9589
▁Fil	-10.961
▁kad	-10.9632
▁lazı	-10.9639
şv	-10.9644
▁OHAL	-10.965
▁hlı	-10.9657
tü	-10.9668
▁aşım	-10.9703
▁azan	-10.9708
▁roğlu	-10.9708
▁aça	-10.9714
ehdi	-10.9722
▁med	-10.9722
▁ilal	-10.9725
▁ormo	-10.9733
▁atö	-10.974
▁Kol	-10.9745
▁zmi	-10.9746
▁#	-10.9748
▁Gar	-10.9753
▁yas	-10.9757
▁kına	-10.9761
▁Dİ	-10.9766
▁ller	-10.9772
▁brik	-10.9773
▁kod	-10.9777
fat	-10.9794
▁Var	-10.9806
▁sto	-10.981
▁iden	-10.9821
▁sc	-10.9825
▁üd	-10.983
▁so	-10.9841
▁Res	-10.9845
▁çay	-10.9857
▁nmay	-10.9857
▁erji	-10.9861
Ü	-10.9863
▁vil	-10.9864
▁derdi	-10.9869
AVM	-10.9871
▁Tar	-10.9884
▁oç	-10.9891
▁şeb	-10.9892
▁uma	-10.9893
▁aksa	-10.9906
▁sar	-10.9907
▁eng	-10.9912
▁eşe	-10.9924
▁leh	-10.9928
av	-10.993
▁şeri	-10.9937
▁7.	-10.9963
▁erya	-10.9965
▁udu	-10.9993
▁ej	-10.9995
▁akvim	-10.9996
▁46	-11.0003
▁efa	-11.0011
▁alg	-11.0011
▁irde	-11.0014
'	-11.0024
▁rku	-11.003
▁rgu	-11.0036
▁BA	-11.0036
▁65	-11.0046
▁ruz	-11.0049
▁şle	-11.0055
muz	-11.0056
mür	-11.0064
▁tun	-11.0071
▁48	-11.0073
▁saf	-11.0074
▁irdi	-11.0075
▁lüm	-11.0078
▁gil	-11.0085
▁şahi	-11.0103
▁2,	-11.0115
▁vı	-11.0129
▁riş	-11.0152
▁2-1	-11.0157
rrem	-11.016
▁75	-11.0161
İK	-11.0164
▁aca	-11.0166
▁ahra	-11.0185
▁ızlık	-11.0192
sil	-11.0199
▁cen	-11.0214
70	-11.0232
▁slar	-11.0253
▁bür	-11.0265
▁emri	-11.0266
▁uşla	-11.0266
▁Çal	-11.0273
ON	-11.0274
▁Hü	-11.0297
▁irk	-11.0299
▁enni	-11.0307
▁TÜ	-11.031
B	-11.0312
▁rya	-11.0312
▁çısı	-11.0317
▁idi	-11.0323
▁nto	-11.0324
▁ekib	-11.0327
aş	-11.0331
▁zm	-11.0341
▁neg	-11.0346
po	-11.035
▁tta	-11.0357
▁arlık	-11.0371
GS	-11.0374
▁etle	-11.0376
▁lp	-11.0385
▁eren	-11.0398
▁Dic	-11.0403
▁·	-11.0408
▁Yıl	-11.0409
▁2-0	-11.0412
▁1,	-11.0427
▁ahm	-11.0433
▁81	-11.0446
▁biyet	-11.0447
▁ider	-11.0456
▁şçi	-11.0456
▁zirve	-11.0462
▁dok	-11.0467
▁many	-11.0469
▁HS	-11.0471
▁Kav	-11.0483
xy	-11.0489
▁kta	-11.0495
▁antı	-11.0506
▁edd	-11.0519
▁MA	-11.0525
TK	-11.0526
ov	-11.0546
▁lda	-11.0559
▁asp	-11.0561
▁aci	-11.0574
▁tom	-11.0594
▁acm	-11.0596
▁55	-11.0598
ag	-11.0603
▁NE	-11.0609
rsin	-11.0613
▁edeb	-11.0614
▁evet	-11.062
▁bı	-11.0635
▁nakli	-11.065
▁UR	-11.0652
▁seni	-11.0654
TC	-11.0655
▁Hat	-11.0678
▁olcu	-11.0682
▁erzi	-11.0703
plar	-11.0706
▁akik	-11.072
sını	-11.0727
▁rüş	-11.0729
▁kanı	-11.0735
▁menin	-11.0769
6	-11.0773
▁opra	-11.0778
▁Say	-11.0779
▁ğrı	-11.0783
▁NDA	-11.0785
▁iydi	-11.0791
ikro	-11.0799
▁tatü	-11.08
▁tle	-11.0804
tün	-11.0807
▁AYM	-11.0811
azi	-11.0831
̈	-11.0837
▁evd	-11.0853
deal	-11.0856
▁iteli	-11.0861
▁gü	-11.0861
▁züm	-11.0883
▁arta	-11.089
▁ilmi	-11.0897
be	-11.0914
▁isle	-11.0921
▁zon	-11.093
▁hb	-11.0935
8	-11.0938
▁ngi	-11.096
ayı	-11.096
▁38	-11.0967
▁şim	-11.0973
▁ubu	-11.0979
▁tlar	-11.0984
▁amer	-11.0985
▁Ala	-11.0985
▁TC	-11.0985
▁nmey	-11.0986
▁kısm	-11.1002
▁öy	-11.1014
▁rla	-11.1021
▁37	-11.1022
▁idma	-11.1025
▁Bizi	-11.1028
he	-11.103
▁Ban	-11.1031
▁Kaf	-11.1032
▁eyha	-11.1046
▁ABER	-11.1048
▁ulun	-11.1057
▁Ker	-11.1061
▁44	-11.107
▁taç	-11.1072
▁eynir	-11.1073
▁aid	-11.1086
H	-11.1088
▁ğlı	-11.1095
▁mür	-11.1109
▁ariç	-11.1117
▁rür	-11.1127
▁rel	-11.114
▁lon	-11.1156
▁nmadı	-11.1171
▁şke	-11.1178
▁Aşk	-11.118
▁rasy	-11.1183
üf	-11.12
▁ifi	-11.1204
▁Bel	-11.1205
▁yatı	-11.1208
Z	-11.1231
▁Kap	-11.1233
▁işkin	-11.1233
▁ültü	-11.1237
▁Ho	-11.1239
25	-11.1249
bo	-11.1258
▁LGİL	-11.1266
▁essi	-11.128
▁dili	-11.1283
▁ndır	-11.1292
▁idra	-11.1294
▁Lok	-11.1295
ub	-11.1298
▁sra	-11.1311
▁lüğ	-11.1318
▁ahri	-11.132
▁Şii	-11.1321
▁eyr	-11.1329
▁çlar	-11.1335
▁Jos	-11.134
▁42	-11.1344
▁imal	-11.1344
▁rtak	-11.1358
▁üzey	-11.1359
▁olmu	-11.1384
▁zal	-11.1389
▁′	-11.1402
ucu	-11.1407
▁andaş	-11.1416
▁lmes	-11.1458
▁üh	-11.1459
▁BİR	-11.146
TV	-11.1501
▁nedi	-11.1506
▁ığın	-11.1514
▁bru	-11.1521
▁tok	-11.1526
▁rmu	-11.1531
▁tomo	-11.1539
▁yağı	-11.1546
ver	-11.1549
▁eyla	-11.1551
▁ahı	-11.1556
▁ets	-11.1556
▁ont	-11.1559
▁İT	-11.1568
▁zla	-11.1577
▁Hay	-11.1577
▁EN	-11.1579
▁tas	-11.1581
▁riye	-11.1582
▁ndü	-11.1604
▁erk	-11.1607
IFA	-11.1618
▁ell	-11.1624
▁ls	-11.1633
▁zg	-11.1677
▁çer	-11.1681
Ş	-11.1689
per	-11.169
▁tweet	-11.1694
▁rus	-11.1717
▁loj	-11.1732
▁nler	-11.1734
▁we	-11.1736
▁ario	-11.1747
▁uçu	-11.1751
▁eyni	-11.1772
▁ranı	-11.1776
▁TAK	-11.1798
rısı	-11.1801
▁cisi	-11.1803
▁ps	-11.1809
▁kşam	-11.1816
▁İk	-11.1817
▁desi	-11.1819
▁ayk	-11.182
▁hur	-11.1833
▁Nİ	-11.1839
DV	-11.184
▁adil	-11.184
▁tira	-11.1856
▁güze	-11.187
▁alay	-11.1877
uz	-11.1879
▁rv	-11.1894
▁kto	-11.192
▁fed	-11.1933
▁alta	-11.1934
▁omba	-11.196
▁Zar	-11.196
▁47	-11.1962
▁nav	-11.1979
▁lg	-11.1991
ağı	-11.2007
▁esa	-11.2007
▁isk	-11.2028
▁edavi	-11.2034
IA	-11.2043
▁andır	-11.2053
▁hit	-11.2055
▁lçe	-11.2059
▁list	-11.206
up	-11.2067
▁kaş	-11.2068
▁açın	-11.207
▁anik	-11.2071
▁pre	-11.2072
▁iral	-11.2076
▁apsa	-11.2081
▁zü	-11.2102
▁ımın	-11.2106
▁yın	-11.2119
▁tez	-11.2127
▁emil	-11.2131
eç	-11.2146
▁mizle	-11.2173
▁3,	-11.219
▁güc	-11.219
▁Ni	-11.2193
▁rtla	-11.2205
va	-11.2213
▁ipa	-11.2218
▁ıta	-11.2228
▁levi	-11.2234
▁ric	-11.2242
▁AP	-11.2265
▁dest	-11.2266
HK	-11.2268
arbe	-11.227
▁akip	-11.2273
▁rüz	-11.2289
-	-11.2304
Ne	-11.2305
▁Rum	-11.2317
▁baka	-11.2325
▁mel	-11.2337
▁emel	-11.2346
▁acağ	-11.2353
ül	-11.2356
ık	-11.2358
▁lişi	-11.2394
▁menf	-11.2413
▁baha	-11.244
▁Nu	-11.2441
▁ned	-11.2454
▁siyo	-11.2458
iye	-11.2458
▁vi	-11.2458
▁öç	-11.2465
▁ayna	-11.2465
▁köp	-11.2469
▁72	-11.2475
SS	-11.2476
▁des	-11.2483
▁our	-11.2488
Şu	-11.2505
▁xxx	-11.2509
▁8.	-11.2514
-5	-11.2517
▁Şek	-11.2528
▁TMS	-11.2529
▁41	-11.2529
▁opu	-11.2557
▁39	-11.2567
üncü	-11.2578
▁üke	-11.2603
▁ünni	-11.2607
erdi	-11.2629
▁vakt	-11.2637
▁DAN	-11.2639
▁vahş	-11.2646
▁ciro	-11.2646
▁sti	-11.2661
▁und	-11.2669
-4	-11.2676
▁kip	-11.2686
▁çel	-11.2693
▁kro	-11.2694
▁@	-11.2698
▁Kı	-11.2719
▁atür	-11.2736
▁zlar	-11.275
yon	-11.2753
umlu	-11.2769
▁müsa	-11.2776
▁Nit	-11.2817
▁üsl	-11.2836
▁ahr	-11.2838
ha	-11.2841
▁şov	-11.2841
▁9.	-11.2843
▁fiy	-11.2845
▁hela	-11.2852
▁sp	-11.286
P	-11.2869
▁üzi	-11.2869
▁5,	-11.287
▁arko	-11.2881
▁vni	-11.2885
▁vor	-11.2887
▁idan	-11.2888
▁üme	-11.2893
IN	-11.29
▁mın	-11.2901
üri	-11.2905
▁gra	-11.2905
▁aştı	-11.2908
IR	-11.291
▁aks	-11.2911
CK	-11.2947
▁Sol	-11.2955
▁Mak	-11.2955
▁ult	-11.2958
▁riy	-11.2958
▁leks	-11.2962
anşe	-11.2989
▁85	-11.2992
▁klü	-11.3018
▁kre	-11.3037
▁air	-11.3051
▁amil	-11.3053
▁RI	-11.3054
90	-11.3056
▁aları	-11.3062
AŞ	-11.3067
▁Kİ	-11.3068
▁sün	-11.3073
▁yede	-11.3078
▁43	-11.3083
ERİ	-11.3091
▁CEK	-11.3107
▁koç	-11.3115
▁Mor	-11.3118
▁irme	-11.3126
▁Ül	-11.3151
or	-11.3156
▁Don	-11.3159
▁kabu	-11.3168
▁ifl	-11.3185
▁pu	-11.3188
▁avr	-11.3209
▁yası	-11.3231
▁anın	-11.3243
▁elg	-11.3251
▁flaş	-11.3252
▁lih	-11.3259
▁ER	-11.3271
▁4,	-11.3295
▁rüya	-11.3305
▁alin	-11.331
▁takı	-11.3311
▁detti	-11.3313
▁ibi	-11.3316
▁cas	-11.3317
ay	-11.3325
▁aşta	-11.3326
▁Hz	-11.3327
▁OS	-11.3333
▁Ron	-11.3334
▁lex	-11.3335
▁ALI	-11.3338
hşe	-11.3357
▁bra	-11.3377
▁Jame	-11.3394
▁eyre	-11.3396
▁cra	-11.3401
▁unv	-11.3407
▁POR	-11.3412
▁sab	-11.3416
▁DI	-11.3418
▁GB	-11.3423
meye	-11.3442
▁olf	-11.3452
kas	-11.3453
▁hbar	-11.3457
▁lya	-11.3461
▁6,	-11.3475
▁wa	-11.3476
▁amir	-11.3479
▁hmet	-11.3482
▁Los	-11.349
▁Men	-11.349
▁Bö	-11.3496
▁53	-11.3508
▁röv	-11.351
ch	-11.3524
▁zihi	-11.353
▁ew	-11.3532
▁Tel	-11.3533
vis	-11.354
▁rimi	-11.355
▁infi	-11.3556
▁ilg	-11.3559
▁Jac	-11.3564
eşif	-11.3572
▁şaka	-11.3576
cro	-11.3577
▁zih	-11.359
▁ruldu	-11.3596
▁omu	-11.3614
ize	-11.3618
▁Net	-11.3619
▁iev	-11.3625
▁aiz	-11.3631
▁diyo	-11.3637
oz	-11.3645
▁10.	-11.3647
▁adde	-11.3654
▁Q	-11.3667
▁zis	-11.3669
▁tart	-11.3676
▁2-3	-11.3677
▁rehi	-11.368
▁aluk	-11.3696
▁rvi	-11.3717
▁Tİ	-11.3721
▁rd	-11.3722
▁ess	-11.3727
ÖK	-11.3727
▁rsun	-11.3735
▁çö	-11.374
▁Gal	-11.3745
▁the	-11.3748
▁TA	-11.3764
▁Bat	-11.377
▁BBC	-11.377
ınd	-11.3781
▁Hol	-11.3781
flas	-11.3791
inde	-11.3792
▁fyo	-11.3792
▁dirim	-11.3794
▁TE	-11.3796
tar	-11.3799
▁yev	-11.3806
ünü	-11.3807
▁estek	-11.3828
▁ahim	-11.3835
laj	-11.3864
▁yakı	-11.3869
oka	-11.3882
▁uld	-11.3882
▁Paul	-11.3889
▁car	-11.3891
▁ırp	-11.3892
PO	-11.3893
DE	-11.3893
▁Sosa	-11.3897
▁tmiş	-11.3917
▁Gazz	-11.3918
▁elih	-11.3932
▁lki	-11.395
▁Mis	-11.3955
▁lini	-11.396
▁şü	-11.3965
▁Yok	-11.3969
▁ecza	-11.3973
▁arg	-11.3976
▁çağı	-11.398
▁3'	-11.3986
▁ıca	-11.4007
▁ES	-11.402
!	-11.403
eck	-11.406
▁dura	-11.4073
▁Tür	-11.4092
▁nist	-11.4108
▁Gol	-11.4109
▁enz	-11.4111
▁aşam	-11.4141
▁emur	-11.4146
▁ozu	-11.4151
▁erh	-11.4167
▁EM	-11.4167
BA	-11.4176
▁Ver	-11.4178
▁saç	-11.4179
▁bez	-11.4183
▁ÖSY	-11.4191
▁alim	-11.4197
▁oni	-11.4199
▁BUL	-11.4202
▁satı	-11.4203
OS	-11.4203
▁ansu	-11.4217
▁Vi	-11.4218
▁rca	-11.4223
▁mam	-11.4223
▁ME	-11.4226
▁uça	-11.4226
▁raca	-11.4228
▁andan	-11.4232
▁ENİ	-11.4235
▁Kos	-11.4235
▁TOK	-11.4238
▁emli	-11.4246
▁merh	-11.4255
▁kabi	-11.4256
▁nse	-11.4262
▁FAD	-11.4268
▁Kıv	-11.4269
▁okra	-11.4269
▁İHA	-11.4272
▁54	-11.4273
▁nara	-11.4282
▁çoğ	-11.4282
BI	-11.4289
İŞ	-11.4313
ini	-11.4347
16	-11.4349
▁lit	-11.4352
İKA	-11.4367
▁ase	-11.4396
▁Mer	-11.4406
sum	-11.4421
▁öd	-11.4433
▁eyle	-11.4434
▁ladık	-11.4439
▁Ey	-11.444
mis	-11.4451
▁imaj	-11.4457
14	-11.4463
▁lumu	-11.4472
▁erb	-11.448
▁rub	-11.4496
▁mates	-11.4505
▁ota	-11.4512
▁tlu	-11.452
▁52	-11.4521
▁irb	-11.4527
▁lima	-11.4534
▁emd	-11.4546
mik	-11.4548
▁11.	-11.4551
▁ino	-11.4551
▁LG	-11.4551
▁evda	-11.4567
alı	-11.4571
▁atm	-11.4573
▁NDE	-11.4586
imiz	-11.4591
ATA	-11.4612
▁ger	-11.4614
▁org	-11.4616
▁rsa	-11.4629
▁kaf	-11.4636
▁etler	-11.4644
▁ürd	-11.4645
▁toz	-11.4655
pse	-11.4655
▁şika	-11.4658
▁nm	-11.4661
del	-11.4688
▁Han	-11.4721
▁ED	-11.4727
▁tıka	-11.4728
▁51	-11.4729
▁mpa	-11.4745
▁ruma	-11.4749
▁Meh	-11.4754
▁inik	-11.4756
▁cid	-11.4759
▁şin	-11.476
▁üll	-11.4763
▁limi	-11.4767
▁İz	-11.4773
▁terl	-11.4775
SE	-11.4781
▁amla	-11.4783
▁tıbb	-11.4786
▁amlı	-11.48
▁Ref	-11.4823
▁amak	-11.4823
▁5'	-11.4847
▁teyi	-11.4851
▁siy	-11.4856
▁Şafa	-11.4859
▁cısı	-11.4859
▁Pala	-11.4872
▁KK	-11.4874
TT	-11.4902
▁veli	-11.4907
▁Diva	-11.491
▁enci	-11.4928
▁iddet	-11.493
rıl	-11.493
▁İN	-11.4944
▁raga	-11.4946
▁56	-11.4951
▁VAR	-11.4953
▁inlik	-11.4966
sip	-11.4968
▁arri	-11.4993
▁rün	-11.4994
SK	-11.4997
▁vey	-11.5027
AH	-11.5036
car	-11.5047
▁49	-11.5047
▁mpi	-11.505
▁ipo	-11.5059
▁Dile	-11.5065
▁sis	-11.5073
▁argo	-11.5086
TÜ	-11.5089
▁mus	-11.5101
IK	-11.5109
▁rneğ	-11.5111
itiz	-11.5119
▁63	-11.5125
og	-11.5128
▁1'	-11.5133
▁rsin	-11.5136
maya	-11.5153
▁Şeyh	-11.5156
▁Sab	-11.5178
▁vg	-11.5186
▁PF	-11.5188
▁ja	-11.519
▁zme	-11.5208
▁Hami	-11.5223
̧	-11.524
▁LDI	-11.5244
▁elfi	-11.5246
▁omo	-11.5251
▁mega	-11.5252
▁Yar	-11.5252
▁iman	-11.5277
▁lli	-11.5281
RA	-11.5298
▁nlı	-11.531
▁DEN	-11.5311
▁7,	-11.5313
28	-11.5313
▁79	-11.5339
▁ahmi	-11.5348
▁hid	-11.5368
▁Haf	-11.5373
UZ	-11.538
▁Kış	-11.5385
▁ass	-11.5388
eyve	-11.5396
▁üdür	-11.5397
▁78	-11.5404
▁ıdır	-11.5413
▁aptı	-11.5415
▁ırrı	-11.5417
▁RA	-11.5419
▁LMA	-11.5425
▁MEB	-11.5437
▁term	-11.5441
▁ezer	-11.5445
▁zade	-11.5449
▁jet	-11.5458
lama	-11.5462
▁rank	-11.5467
▁Dü	-11.5476
▁ravm	-11.548
▁82	-11.5481
▁lip	-11.5483
▁zlu	-11.5486
kah	-11.5486
▁ğün	-11.5491
▁Op	-11.5506
▁atip	-11.5509
şiv	-11.5519
▁alib	-11.5519
▁58	-11.5522
▁adyo	-11.5523
▁zge	-11.5523
las	-11.5523
▁eyt	-11.5526
▁pri	-11.5535
▁Şeri	-11.5547
▁Şükr	-11.555
ASA	-11.5561
Lİ	-11.5575
▁DHKP	-11.5586
â	-11.5588
▁aban	-11.5602
▁amac	-11.5603
▁mpar	-11.5603
▁ilem	-11.5623
▁Ğİ	-11.5641
rin	-11.5651
▁lecek	-11.5676
11	-11.5678
▁oro	-11.5678
▁AS	-11.5681
▁karm	-11.5687
▁alit	-11.569
▁meti	-11.5725
▁59	-11.5727
▁Fid	-11.5731
▁Rio	-11.5736
▁part	-11.5736
▁sefe	-11.5756
▁sur	-11.5762
tör	-11.5766
BB	-11.5777
▁reğ	-11.5787
▁iyar	-11.5799
▁anar	-11.5816
▁mlak	-11.5819
MB	-11.5823
▁12.	-11.5831
▁anto	-11.5834
▁tikl	-11.5839
▁ows	-11.584
lon	-11.5847
î	-11.5852
▁83	-11.5878
tığı	-11.5879
▁Uz	-11.589
▁ikt	-11.5892
▁tezi	-11.5892
▁şük	-11.5895
▁Mit	-11.5906
âh	-11.5915
▁Lui	-11.5916
▁ndo	-11.5934
▁kola	-11.5939
▁zeka	-11.5964
0	-11.5973
▁rdik	-11.5975
▁ph	-11.5979
▁bula	-11.5985
▁pil	-11.6
▁ürk	-11.6013
▁rık	-11.6022
mes	-11.6024
stil	-11.6032
TAŞ	-11.6034
▁jen	-11.6043
koz	-11.6046
▁Tah	-11.6046
▁cza	-11.6052
ot	-11.606
▁sığ	-11.6076
▁Kere	-11.6087
▁RE	-11.6093
▁rica	-11.6118
▁aff	-11.6119
▁kili	-11.6128
▁(2)	-11.6129
-6	-11.6134
▁ulu	-11.6137
dyo	-11.6166
▁TÜB	-11.6176
▁tih	-11.6179
▁sef	-11.6181
NN	-11.6185
▁enid	-11.6193
▁Lis	-11.6197
▁Bas	-11.62
▁opa	-11.6224
▁afı	-11.6242
▁1-1	-11.6242
▁ğd	-11.626
▁ome	-11.6263
▁zlık	-11.6274
▁8,	-11.6277
▁Es	-11.628
AN	-11.6283
▁ŞI	-11.6302
U	-11.6306
▁cala	-11.6312
▁orno	-11.6316
▁pool	-11.6319
kos	-11.632
▁LDU	-11.6323
▁kledi	-11.6324
MI	-11.6326
▁ahir	-11.6328
API	-11.6329
▁Ac	-11.6329
▁İLE	-11.6335
ÇİN	-11.6336
17	-11.6342
CI	-11.6344
▁akli	-11.6344
türü	-11.6348
kti	-11.6356
12	-11.6358
▁Çek	-11.6362
▁ücü	-11.6365
▁hük	-11.6374
▁62	-11.6377
MF	-11.6382
ana	-11.6387
▁By	-11.6389
vir	-11.6398
▁hami	-11.6405
▁elç	-11.6423
▁tv	-11.6429
isi	-11.6433
▁MI	-11.6448
▁fav	-11.6454
▁azm	-11.6492
▁apla	-11.6494
▁Du	-11.6495
▁gre	-11.6496
▁Bah	-11.6508
▁3-1	-11.6517
▁meta	-11.6527
▁4'	-11.6531
▁efer	-11.6543
▁vk	-11.6549
GEB	-11.6552
▁elis	-11.6553
▁ötü	-11.6574
do	-11.6579
▁inov	-11.659
▁izem	-11.6596
▁Har	-11.6607
▁TEM	-11.6608
▁tük	-11.661
.6	-11.6612
har	-11.6613
▁hed	-11.6618
▁şair	-11.6619
▁fel	-11.6628
▁uard	-11.6629
▁ood	-11.6651
▁66	-11.6667
▁nakil	-11.6681
▁mum	-11.6693
▁Şere	-11.6696
▁Fas	-11.6699
▁ston	-11.6706
MAN	-11.6707
▁iğne	-11.6715
ekân	-11.676
▁vis	-11.6763
▁apan	-11.6763
▁zda	-11.6772
▁arif	-11.6784
BP	-11.6786
▁20.	-11.6795
NDI	-11.6806
▁ekt	-11.681
▁ywood	-11.6812
▁nsar	-11.6814
▁ted	-11.6821
▁57	-11.6822
▁Jet	-11.6829
▁ajı	-11.6835
21	-11.6836
▁bö	-11.6856
▁reler	-11.6857
▁erso	-11.6868
▁file	-11.6883
▁alyo	-11.6884
▁rett	-11.689
tah	-11.689
▁rati	-11.6896
bal	-11.6901
▁1-2	-11.6908
▁Tun	-11.6921
▁tavr	-11.6929
şin	-11.6938
▁rarl	-11.694
▁zım	-11.6941
▁aciz	-11.6942
▁poşe	-11.6944
X	-11.6952
▁hap	-11.6957
▁BİN	-11.6963
▁ope	-11.6968
▁üdü	-11.697
13	-11.697
zgâ	-11.6985
▁que	-11.6993
▁ple	-11.7004
▁ehr	-11.7015
ntü	-11.7046
▁1-	-11.7056
▁ube	-11.7058
▁69	-11.7061
▁bare	-11.7063
▁14.	-11.7064
▁SA	-11.707
▁nte	-11.708
▁aps	-11.7096
▁•	-11.7106
▁YOK	-11.7109
▁rant	-11.7112
▁iva	-11.7114
▁68	-11.7114
▁ahran	-11.7116
▁TSİ	-11.7117
▁madık	-11.7123
▁eşti	-11.7128
▁enil	-11.7132
▁ony	-11.715
sül	-11.7155
DO	-11.7158
65	-11.7181
▁eko	-11.7194
▁şoku	-11.7197
▁jou	-11.7211
▁ŞTI	-11.7213
▁Koza	-11.7213
▁anyo	-11.7217
▁evk	-11.7231
▁htiy	-11.7242
▁3-	-11.7259
▁kök	-11.7265
▁nli	-11.7275
▁eze	-11.7285
▁erit	-11.7291
▁emt	-11.7306
▁zze	-11.7318
▁ella	-11.7326
▁elsea	-11.7345
▁ivme	-11.7348
▁tleri	-11.7351
▁yıs	-11.7354
▁masu	-11.736
▁ıtı	-11.7362
▁Veda	-11.7366
▁Tab	-11.7369
▁hel	-11.7379
▁tiğ	-11.738
▁ulüb	-11.7381
vad	-11.7392
▁şini	-11.7395
▁İŞ	-11.7404
▁imdi	-11.7405
▁rkes	-11.7415
▁keyif	-11.7422
▁fan	-11.7424
▁67	-11.7431
▁Der	-11.7433
▁uba	-11.7435
▁stro	-11.7436
▁erkü	-11.7443
▁tiba	-11.7455
▁abbi	-11.746
▁biye	-11.7463
▁BU	-11.7465
▁nomi	-11.7477
▁hall	-11.7491
01	-11.7501
▁76	-11.7516
▁SE	-11.7531
▁ORU	-11.7533
DI	-11.7535
hi	-11.7543
▁ızlı	-11.7543
▁Wi	-11.7547
▁vs	-11.7561
Y	-11.7562
▁evr	-11.7564
ref	-11.7572
oub	-11.7574
utin	-11.7576
▁II	-11.7581
▁amc	-11.7588
▁kon	-11.759
▁15.	-11.7597
41	-11.7606
▁ams	-11.7616
▁ONU	-11.7646
▁teb	-11.7663
ec	-11.7682
35	-11.7685
▁16.	-11.769
DA	-11.7692
▁piya	-11.7701
▁rone	-11.7702
▁apri	-11.771
▁asyo	-11.7719
▁irma	-11.7725
den	-11.773
▁lte	-11.7731
▁eon	-11.7739
▁aric	-11.7741
▁LYON	-11.7741
▁leke	-11.7761
ip	-11.7769
▁lam	-11.779
▁şö	-11.7791
▁Mus	-11.7793
▁etk	-11.7811
var	-11.7826
▁Kud	-11.783
▁keli	-11.7833
▁IK	-11.7839
ang	-11.7844
75	-11.7845
▁eh	-11.7847
▁laik	-11.785
▁zab	-11.7853
▁nlu	-11.7859
▁tatm	-11.7862
rek	-11.7864
▁rij	-11.7867
▁fit	-11.7873
▁beyli	-11.7874
▁lde	-11.7874
▁2-	-11.7876
MS	-11.7881
rj	-11.7881
▁olisi	-11.7891
▁Tip	-11.7899
▁rfa	-11.7901
saj	-11.7913
▁One	-11.7914
▁enja	-11.7924
PD	-11.7925
▁lmuş	-11.793
her	-11.7931
▁afa	-11.7937
▁faka	-11.7942
▁erme	-11.7947
▁ktır	-11.7952
▁Sö	-11.7956
▁üğün	-11.7962
▁usun	-11.7965
▁limon	-11.7967
▁terc	-11.7972
▁tw	-11.7975
▁Jean	-11.7976
▁ekta	-11.7979
▁irmi	-11.7992
99	-11.802
IZ	-11.8029
▁buz	-11.8029
▁şahs	-11.8055
atbi	-11.8058
▁Yü	-11.8059
▁vb	-11.8067
erif	-11.808
raş	-11.808
taj	-11.8101
go	-11.8101
mer	-11.8105
▁mede	-11.8108
▁lav	-11.8108
▁lke	-11.814
ıklı	-11.8178
ST	-11.8179
▁muci	-11.8188
̇	-11.8188
▁kûm	-11.8188
▁uka	-11.8189
▁ceği	-11.8206
▁TİM	-11.8234
▁arat	-11.8235
▁ull	-11.8236
▁OLU	-11.8238
▁iti	-11.8242
▁traj	-11.8243
▁ülte	-11.8243
▁EZA	-11.8244
ci	-11.8251
▁lef	-11.8253
▁akib	-11.8259
SV	-11.8262
▁urb	-11.8266
▁fesh	-11.8274
▁$	-11.8303
▁şandı	-11.8304
w	-11.8307
▁LTI	-11.8308
▁zdı	-11.8309
▁üy	-11.8315
▁eldi	-11.8321
▁İK	-11.8344
▁64	-11.835
▁73	-11.836
▁ono	-11.8365
▁BD	-11.8366
36	-11.8368
▁faki	-11.8369
▁71	-11.8392
▁yva	-11.8396
▁klem	-11.8407
▁ralı	-11.8413
etme	-11.8416
▁lüt	-11.842
▁Yaz	-11.8426
▁resm	-11.8439
26	-11.8445
▁emsa	-11.8447
NCE	-11.8448
▁uplar	-11.8449
▁zulm	-11.8451
▁amur	-11.8461
▁etic	-11.8469
▁MÜS	-11.847
▁EDİ	-11.8507
▁Ger	-11.8511
lav	-11.8516
▁61	-11.8518
▁TK	-11.8527
▁Jer	-11.8529
rini	-11.853
▁NKARA	-11.8538
ix	-11.8554
▁Mid	-11.8557
ES	-11.858
▁Tra	-11.859
▁13.	-11.8599
▁Kam	-11.8601
▁üel	-11.8602
▁ÖNE	-11.862
▁TT	-11.8634
▁Kaba	-11.8637
▁orl	-11.8637
AK	-11.8641
▁Tri	-11.8652
22	-11.8654
▁Pir	-11.8656
▁LU	-11.8659
▁reen	-11.8667
akkı	-11.8682
IP	-11.8686
▁şere	-11.8687
▁AY	-11.8689
▁sip	-11.8691
▁evşe	-11.8694
▁ehdi	-11.8704
▁metl	-11.8714
▁LDİ	-11.8722
▁vade	-11.8723
▁nta	-11.8726
hal	-11.8734
▁Seb	-11.8736
▁ğüt	-11.8742
▁ırb	-11.8747
▁Kem	-11.8749
▁ria	-11.876
ox	-11.8764
▁ampa	-11.8766
ros	-11.8773
▁NİN	-11.8781
▁3-0	-11.8781
SG	-11.8785
▁tiro	-11.8786
+1	-11.8788
▁ote	-11.8793
▁evz	-11.8804
▁tev	-11.8805
76	-11.8806
-8	-11.8808
▁mid	-11.8818
▁Bİ	-11.8823
IM	-11.8825
▁naat	-11.883
▁anc	-11.8832
▁mens	-11.8839
sup	-11.8843
▁düğ	-11.885
▁abla	-11.8858
▁ex	-11.8861
▁logo	-11.8881
YP	-11.8887
▁tası	-11.8906
▁AİH	-11.8906
▁entus	-11.8906
▁ciha	-11.891
▁tina	-11.8912
mlak	-11.8919
▁Wes	-11.8919
▁Dar	-11.8934
▁gah	-11.8941
▁Mez	-11.8948
▁tic	-11.8954
▁vler	-11.896
▁mis	-11.8969
BC	-11.8972
▁Kuv	-11.8972
▁iro	-11.8975
▁ms	-11.8979
▁ON	-11.8987
inin	-11.8987
▁vv	-11.8988
▁LYS	-11.9022
▁95	-11.9026
RE	-11.903
tic	-11.9031
▁Eki	-11.9042
▁zga	-11.9051
duğu	-11.9072
▁Diki	-11.9081
esab	-11.9091
▁BIS	-11.9092
▁dos	-11.9094
manı	-11.91
mur	-11.9103
▁Pla	-11.9108
▁beğ	-11.9111
-7	-11.9112
fe	-11.9112
LE	-11.912
▁pal	-11.9125
87	-11.9127
TÜK	-11.9131
▁lsa	-11.9147
▁dâhi	-11.9148
▁roup	-11.9152
les	-11.9153
▁Pas	-11.9159
igür	-11.916
tiği	-11.9167
68	-11.9174
▁ATI	-11.9176
18	-11.9178
19	-11.9181
▁ld	-11.9192
▁Şük	-11.9192
▁Kut	-11.9215
AB	-11.923
▁amdi	-11.9237
vo	-11.9239
29	-11.924
▁sade	-11.9266
▁DNA	-11.9271
▁ĞI	-11.9273
je	-11.928
▁lduk	-11.9312
▁Ru	-11.9321
▁19.	-11.9324
▁cuk	-11.9325
vi	-11.9327
Ç	-11.9327
▁84	-11.9341
▁74	-11.9349
▁atu	-11.9351
▁enter	-11.9355
49	-11.9383
▁zede	-11.9384
42	-11.9398
▁neyi	-11.9398
▁nas	-11.94
▁tara	-11.9406
iro	-11.9408
▁ekl	-11.9413
MK	-11.9424
▁mund	-11.9425
▁lite	-11.9442
tina	-11.9452
▁endim	-11.9455
▁ranc	-11.9474
▁Je	-11.9496
08	-11.951
▁att	-11.9513
▁=	-11.9531
▁Luc	-11.9531
▁GE	-11.9532
▁alab	-11.9532
▁3-2	-11.9535
▁talip	-11.9535
ody	-11.9539
raj	-11.9551
ola	-11.9558
▁ARI	-11.9561
▁Zor	-11.9563
▁tep	-11.9566
▁Luka	-11.9568
ze	-11.9571
▁had	-11.9578
▁21.	-11.9584
ÜN	-11.9589
▁sos	-11.9593
▁18.	-11.9595
▁17.	-11.9598
▁ışma	-11.9605
kar	-11.9607
▁9,	-11.9608
▁zihn	-11.9609
▁zy	-11.9616
▁AL	-11.9622
▁zhe	-11.964
▁88	-11.9644
bet	-11.9644
▁siya	-11.9645
▁arç	-11.9651
▁renc	-11.9658
▁öm	-11.9661
▁ico	-11.967
▁afer	-11.9679
▁kis	-11.9681
▁şifa	-11.9685
▁işk	-11.9689
▁naz	-11.9699
bi	-11.9701
▁STE	-11.9705
ması	-11.9713
▁gey	-11.9718
▁ntal	-11.9741
▁titr	-11.9753
▁nazi	-11.9765
▁AM	-11.9765
▁YI	-11.9769
▁ÇOK	-11.977
▁İLK	-11.977
EV	-11.9775
▁keme	-11.9791
▁rb	-11.9801
▁Şa	-11.9802
.8	-11.9804
▁olü	-11.9819
▁bari	-11.9827
▁eyya	-11.9827
▁igi	-11.9838
▁neşe	-11.9841
▁loka	-11.9847
▁Duba	-11.9861
▁ital	-11.9873
▁abr	-11.9888
▁ekli	-11.989
04	-11.9894
▁mag	-11.9897
urt	-11.9903
OBB	-11.9916
▁AT	-11.9918
▁iğe	-11.9925
82	-11.9938
▁run	-11.9939
▁TTİ	-11.994
▁aria	-11.994
▁Lit	-11.9948
▁oj	-11.9959
▁tij	-11.9979
▁isl	-12.0003
▁eyma	-12.0005
▁yoru	-12.0013
▁slim	-12.0019
▁77	-12.0019
▁Kum	-12.0022
so	-12.0044
▁ırf	-12.0055
▁_	-12.0068
▁ction	-12.0069
▁emti	-12.007
val	-12.0075
▁Lab	-12.0078
apka	-12.0078
▁OLA	-12.0085
ivo	-12.0091
▁Yİ	-12.0092
V	-12.0098
▁iss	-12.0101
▁Kas	-12.0103
▁rida	-12.0104
▁Buca	-12.0112
▁üks	-12.0115
▁hele	-12.0123
▁kulis	-12.0123
▁ıkı	-12.0126
▁MH	-12.0126
yrı	-12.0136
▁ax	-12.0146
▁tis	-12.0156
FP	-12.0172
38	-12.0175
▁pir	-12.0179
▁EPD	-12.0181
AP	-12.0181
▁vası	-12.0183
34	-12.0209
▁URU	-12.0209
▁rock	-12.0213
▁atem	-12.0214
▁ifle	-12.0221
▁irdik	-12.0222
▁Cİ	-12.0229
ap	-12.0239
▁ldı	-12.025
▁abl	-12.0267
bül	-12.0282
▁urna	-12.0284
▁lacak	-12.0295
▁hiz	-12.0305
▁eyda	-12.031
UK	-12.0339
üçlü	-12.0342
LİK	-12.0344
▁ÖZC	-12.0348
▁terfi	-12.0349
23	-12.0356
▁ÖRÜ	-12.0356
▁eld	-12.0369
▁fık	-12.0387
▁loto	-12.0387
▁dildi	-12.0394
SB	-12.0395
▁Rai	-12.0397
▁4-	-12.0398
▁Hâ	-12.042
İŞİ	-12.0445
lif	-12.0454
▁Nas	-12.0462
ibe	-12.0465
▁übre	-12.0493
DU	-12.0494
▁link	-12.0494
NYA	-12.0504
▁zaf	-12.0505
▁lebi	-12.0507
▁Merv	-12.0512
▁rook	-12.0517
▁Fit	-12.0541
DG	-12.0543
TO	-12.0554
▁tac	-12.0555
▁ahşa	-12.0556
.2	-12.0563
▁lv	-12.0564
▁86	-12.0593
,1	-12.0609
▁üve	-12.0612
▁aw	-12.0623
▁ÜYÜK	-12.0636
▁0-0	-12.0649
▁rgü	-12.0655
27	-12.0657
▁İR	-12.0661
MİR	-12.0663
▁uha	-12.0668
▁ült	-12.0674
81	-12.0676
▁OD	-12.069
▁maks	-12.0692
▁sse	-12.0701
95	-12.0704
▁YÜZ	-12.0706
J	-12.0711
▁ular	-12.0711
▁edav	-12.0725
▁mc	-12.0725
▁enzi	-12.0727
ban	-12.0743
▁Rume	-12.0762
▁amd	-12.0767
▁efi	-12.0779
▁NMA	-12.0779
▁ğdır	-12.0784
ALA	-12.0802
▁mli	-12.0805
▁8'	-12.0806
▁kans	-12.0808
▁teve	-12.0821
93	-12.0824
▁RTA	-12.0837
▁kg	-12.084
▁öte	-12.0845
▁Ra	-12.0852
▁24.	-12.0858
▁Kula	-12.0874
▁PK	-12.0878
▁ERÖR	-12.088
▁stal	-12.0881
▁ırmı	-12.0889
▁0,	-12.0897
▁agi	-12.0898
▁bri	-12.0911
▁ükü	-12.0911
▁etesi	-12.0916
▁EĞİL	-12.0932
▁roth	-12.0945
▁sav	-12.0956
▁87	-12.096
UV	-12.0967
▁ekşi	-12.0967
▁utt	-12.0976
▁TEO	-12.0979
LU	-12.0996
izb	-12.1005
37	-12.1012
▁stü	-12.1017
▁arne	-12.1019
▁ehm	-12.1037
▁TÜS	-12.1038
▁tha	-12.1058
▁ŞTİ	-12.1065
45	-12.1077
▁eket	-12.1079
▁kade	-12.109
▁ivi	-12.1099
▁eys	-12.1102
▁emzi	-12.1104
▁lges	-12.1105
▁afra	-12.1122
DS	-12.1127
▁ayıt	-12.1131
67	-12.1133
AT	-12.114
▁tasi	-12.1148
▁pet	-12.1157
▁mza	-12.1158
▁KA	-12.1172
▁yeti	-12.1176
ga	-12.1179
▁teye	-12.1187
▁fu	-12.119
31	-12.1192
61	-12.1205
▁arlo	-12.1207
▁les	-12.1229
ıs	-12.1242
▁Şeb	-12.1263
▁küs	-12.1265
▁karg	-12.1267
▁ronz	-12.1273
▁tion	-12.1275
▁arin	-12.1279
▁kef	-12.1282
▁92	-12.1283
bay	-12.1286
▁ofya	-12.13
▁zira	-12.1301
44	-12.1312
▁eras	-12.1322
itne	-12.1332
▁üzd	-12.1349
▁Şef	-12.1356
afya	-12.1357
▁Rei	-12.136
▁SU	-12.1364
▁item	-12.1373
▁teli	-12.138
ntag	-12.1391
▁kımı	-12.1393
▁NESCO	-12.1394
mpar	-12.1396
quo	-12.1397
▁nev	-12.1421
ET	-12.1445
▁23.	-12.1446
▁rto	-12.1451
ekke	-12.1463
24	-12.1464
▁itt	-12.1466
erre	-12.1471
▁eyd	-12.148
▁Dia	-12.1488
33	-12.1495
▁Lat	-12.1498
erle	-12.1511
fis	-12.1514
▁ülk	-12.153
74	-12.1541
▁fo	-12.1543
▁MİZ	-12.1543
▁Tes	-12.1544
▁89	-12.1547
▁AN	-12.1551
▁ŞEHİ	-12.1553
▁ütle	-12.1562
▁Rami	-12.1569
06	-12.1576
▁cm	-12.1576
▁NDİ	-12.1577
ğı	-12.1582
▁Adı	-12.1589
TI	-12.1617
AHA	-12.1625
DEN	-12.1632
ED	-12.1638
▁hib	-12.1671
▁ango	-12.1672
▁ryan	-12.1677
EB	-12.1679
apur	-12.1684
▁Ank	-12.1704
▁ŞMA	-12.1711
▁Aç	-12.1715
▁OPE	-12.1717
▁ANLI	-12.172
▁MLER	-12.1722
▁paz	-12.1731
83	-12.1736
71	-12.1742
▁cis	-12.1747
LA	-12.1762
▁rmedi	-12.1773
ATI	-12.1777
emo	-12.178
▁sted	-12.1781
▁vra	-12.1789
▁Deme	-12.1792
▁okt	-12.1793
▁ükle	-12.1804
▁revi	-12.1805
56	-12.1807
▁apma	-12.1825
EF	-12.1844
▁aşma	-12.1846
▁ifa	-12.185
88	-12.1855
▁şün	-12.1861
ib	-12.1863
▁Rad	-12.1863
▁Wil	-12.1871
▁feth	-12.1875
▁emik	-12.1881
▁OĞU	-12.1883
▁ese	-12.1883
▁low	-12.1886
efne	-12.1887
▁reng	-12.1888
▁ites	-12.1888
OL	-12.1893
▁Vie	-12.1895
▁anoz	-12.1895
▁lec	-12.1895
▁rıca	-12.1898
72	-12.19
▁Süt	-12.1926
▁damı	-12.1931
78	-12.1933
▁sö	-12.1935
idye	-12.1945
▁tırm	-12.1977
▁TI	-12.1982
▁tef	-12.1984
▁OTO	-12.1984
▁pes	-12.1994
amva	-12.1997
▁Vaz	-12.2002
ELİ	-12.2015
aliy	-12.2024
▁kşi	-12.2027
▁fidan	-12.2047
▁lsun	-12.2051
AM	-12.2059
▁acim	-12.2061
▁nbul	-12.2062
▁ayıs	-12.2065
▁igren	-12.2071
KUR	-12.2072
▁lö	-12.2076
▁Dip	-12.209
sul	-12.2094
▁Ova	-12.21
▁ouri	-12.2101
▁cakl	-12.2114
dar	-12.2118
63	-12.2122
ziz	-12.2123
▁arina	-12.2133
net	-12.2142
▁çen	-12.2151
çev	-12.2155
▁tç	-12.2158
▁LİK	-12.2158
51	-12.2163
▁şehr	-12.2164
▁ress	-12.2165
tem	-12.2171
▁iran	-12.2174
▁rent	-12.2177
klif	-12.2177
of	-12.2178
▁urad	-12.2188
amb	-12.2192
▁eyne	-12.2197
enko	-12.2199
▁kaba	-12.2208
▁apsi	-12.2234
▁iami	-12.2236
▁şav	-12.2237
▁zil	-12.2242
▁Sow	-12.2247
ret	-12.2251
vat	-12.2254
▁ÖZE	-12.2258
▁ceh	-12.2265
UR	-12.2266
▁lack	-12.2271
ach	-12.2275
▁mot	-12.2288
▁medy	-12.2292
▁lanet	-12.2293
▁cre	-12.2307
▁annes	-12.2307
ho	-12.2328
ken	-12.233
▁rav	-12.2333
ih	-12.2337
▁rown	-12.2343
▁LYA	-12.2347
▁ish	-12.2351
47	-12.2354
vaz	-12.2388
▁IN	-12.239
MC	-12.2413
▁ncu	-12.2433
▁vole	-12.2436
Mİ	-12.2437
▁arni	-12.2439
AC	-12.245
▁ruc	-12.2458
▁eyit	-12.2465
▁EL	-12.2488
▁ÇE	-12.2494
ba	-12.2496
▁elo	-12.2498
▁Kab	-12.25
oba	-12.25
▁rtes	-12.2501
▁ATM	-12.251
▁evhe	-12.2522
▁OL	-12.2542
BY	-12.2543
Ö	-12.2551
▁smi	-12.2559
▁kura	-12.2562
▁Pes	-12.2565
▁agaj	-12.2567
▁eyl	-12.2569
DAN	-12.2572
▁inop	-12.2577
▁Ter	-12.258
▁lâm	-12.2585
lig	-12.2588
▁pop	-12.2602
▁AVU	-12.2616
▁RDI	-12.2636
▁ardo	-12.2653
▁ims	-12.2653
▁Tv	-12.266
DEF	-12.2661
▁LİR	-12.2666
▁enko	-12.2681
32	-12.2685
▁tran	-12.2692
▁reb	-12.2716
▁lov	-12.2723
TEK	-12.2733
▁reli	-12.2737
VP	-12.2739
▁orya	-12.2741
▁riva	-12.2743
▁lavy	-12.2744
▁ukla	-12.275
▁itne	-12.2755
hri	-12.2755
▁şısı	-12.2762
▁lobi	-12.2779
▁rsu	-12.2784
▁rkas	-12.2797
▁û	-12.2811
▁pli	-12.2827
ANI	-12.2843
52	-12.2845
▁akse	-12.2846
▁rtan	-12.2855
▁ias	-12.2856
43	-12.2861
▁MYK	-12.2882
▁ehra	-12.2894
▁sava	-12.2899
EŞİ	-12.2904
▁Def	-12.292
eyze	-12.2921
▁lexis	-12.2923
▁ick	-12.2929
▁illo	-12.2935
▁Muha	-12.294
▁TME	-12.2943
ago	-12.2945
▁YO	-12.2955
▁evhi	-12.2962
▁örüş	-12.297
39	-12.2971
▁HD	-12.2974
▁94	-12.2974
▁VR	-12.2989
vik	-12.2996
-1	-12.301
46	-12.3023
▁vard	-12.3028
▁Qua	-12.3029
ADE	-12.3035
AR	-12.3038
▁RTI	-12.3046
▁NT	-12.305
Ya	-12.3056
▁Yard	-12.3082
▁Açı	-12.3086
▁ash	-12.3093
▁derl	-12.31
▁eydi	-12.3105
▁cik	-12.3105
▁zekâ	-12.3107
▁ispa	-12.3112
▁ive	-12.3119
▁Frei	-12.312
▁AZI	-12.3123
▁amid	-12.3127
▁32.	-12.3136
▁peş	-12.3157
mül	-12.316
IRA	-12.3169
▁PA	-12.317
RS	-12.3171
DP	-12.3172
▁Cup	-12.3172
▁runo	-12.3173
▁ritm	-12.3173
dis	-12.3195
ME	-12.3199
NDİ	-12.3201
▁reh	-12.3206
▁muka	-12.3226
▁91	-12.323
▁last	-12.3235
▁arça	-12.3248
RI	-12.3258
rles	-12.3261
sü	-12.3265
▁âli	-12.3271
▁Fiat	-12.3299
▁iynet	-12.3301
▁hta	-12.3309
▁lass	-12.3317
MA	-12.3324
77	-12.3329
▁ily	-12.3333
▁cazi	-12.3334
BS	-12.3337
▁orla	-12.334
▁CI	-12.334
▁YON	-12.3345
▁üreş	-12.3348
ART	-12.3352
59	-12.3358
ez	-12.3375
▁bid	-12.339
03	-12.3395
zar	-12.3405
▁mati	-12.3408
▁spa	-12.3416
MU	-12.3418
▁Vah	-12.3433
▁Kri	-12.3438
YAR	-12.3444
▁luna	-12.3449
öp	-12.3459
SAK	-12.346
▁AVA	-12.3463
IĞI	-12.3463
ves	-12.348
öhre	-12.348
▁elt	-12.3482
bra	-12.3483
▁işa	-12.3486
İRA	-12.3486
▁işki	-12.3489
▁Gamz	-12.3493
▁NCİ	-12.3495
▁kuma	-12.3497
▁ALDI	-12.3501
SKA	-12.3508
▁ouch	-12.351
▁kıldı	-12.3514
▁Red	-12.3524
▁reddi	-12.3531
▁üte	-12.3533
▁ARA	-12.3535
89	-12.3536
54	-12.3538
arif	-12.3538
dik	-12.3547
▁MR	-12.3548
▁rzu	-12.355
▁enü	-12.3561
▁ST	-12.3563
▁uth	-12.3577
▁99	-12.3582
▁emre	-12.359
▁turd	-12.359
▁Meka	-12.3596
▁AV	-12.3599
▁Tez	-12.3622
▁arba	-12.3623
▁NTA	-12.3629
▁LED	-12.3642
sun	-12.3653
▁UV	-12.366
▁ylı	-12.3669
▁Taş	-12.367
izza	-12.3674
▁(!)	-12.3684
▁1)	-12.3687
▁rladı	-12.3689
UN	-12.3691
▁MP	-12.3702
▁apte	-12.3703
▁ium	-12.3707
▁KPS	-12.3727
▁lâ	-12.3731
69	-12.3731
▁ırd	-12.3742
▁cc	-12.3745
▁tö	-12.3754
▁hac	-12.3758
▁tala	-12.377
▁çile	-12.377
▁egan	-12.3773
66	-12.3781
wa	-12.3791
▁ihay	-12.3792
▁25.	-12.3801
▁meto	-12.3801
▁stedi	-12.3805
▁rdon	-12.3809
▁ayfu	-12.3812
▁nemi	-12.3829
Sİ	-12.3832
ith	-12.3848
▁uya	-12.3849
EK	-12.3849
PS	-12.3861
▁SAT	-12.3864
▁ARŞI	-12.3884
▁ipras	-12.3886
▁Ja	-12.3886
▁Rabb	-12.3887
oga	-12.3892
▁ETT	-12.3896
▁mecra	-12.3897
if	-12.3899
▁toch	-12.39
▁iddi	-12.3902
▁vaadi	-12.3902
1,	-12.3908
q	-12.3917
metr	-12.3924
fur	-12.3932
▁Yüz	-12.3941
▁AYI	-12.3943
▁jest	-12.3947
TE	-12.3949
▁enj	-12.3955
▁row	-12.3973
rfo	-12.3979
▁agne	-12.3983
İLE	-12.3986
▁96	-12.3987
▁fıs	-12.4001
▁sah	-12.4007
▁YIL	-12.4012
▁ELE	-12.4012
02	-12.4017
▁You	-12.402
▁Dimi	-12.4025
TA	-12.4027
ALE	-12.405
▁ems	-12.4056
▁RO	-12.4058
▁ech	-12.4061
▁omb	-12.4062
▁Fir	-12.4071
48	-12.4074
▁Nam	-12.408
ylo	-12.4085
98	-12.4085
▁iPad	-12.4089
▁USK	-12.409
may	-12.4094
▁KAP	-12.4096
▁UTU	-12.41
▁elit	-12.4101
▁ido	-12.4107
▁Vir	-12.4108
▁FEN	-12.4108
▁65.	-12.411
▁ipül	-12.4114
▁PE	-12.4118
57	-12.412
▁AĞ	-12.412
▁Zay	-12.4121
▁ulü	-12.4138
85	-12.4145
mü	-12.4149
▁lant	-12.4149
▁veto	-12.4155
▁pide	-12.4164
▁22.	-12.4172
▁nom	-12.4178
▁İYAR	-12.4193
▁evfi	-12.42
▁YAŞ	-12.4208
▁rni	-12.4212
▁ihir	-12.4219
▁Rey	-12.4234
▁metr	-12.4252
▁olmam	-12.4255
▁Rau	-12.4256
▁faş	-12.4257
ax	-12.4271
▁hop	-12.4284
▁elma	-12.4295
▁Ju	-12.4296
▁ürih	-12.4301
▁CAĞI	-12.4302
▁VERİ	-12.4313
▁lap	-12.4336
▁onca	-12.4339
▁lens	-12.434
NG	-12.4361
▁93	-12.4361
▁akya	-12.4362
▁Las	-12.4373
▁TO	-12.4373
▁inf	-12.4376
▁TCK	-12.4376
uts	-12.4391
73	-12.4401
▁avşa	-12.4406
▁50.	-12.4408
▁İYİ	-12.4423
▁urat	-12.4424
▁Tak	-12.4428
▁DİSK	-12.443
oko	-12.4434
▁Tus	-12.4464
▁LAN	-12.4469
▁Sna	-12.4475
▁Kend	-12.4478
▁RMA	-12.4487
é	-12.449
▁]	-12.4511
ehre	-12.4517
▁fin	-12.4533
▁OSB	-12.4534
▁eyz	-12.4542
▁rece	-12.4542
▁Ray	-12.4544
▁frik	-12.4554
▁35.	-12.4558
▁ouse	-12.4562
▁reg	-12.4569
▁elve	-12.4577
▁aleb	-12.4582
ANA	-12.4584
▁Didi	-12.459
▁mavi	-12.4593
afak	-12.4611
▁ado	-12.462
▁pede	-12.4628
▁98	-12.4631
▁çent	-12.4636
▁timi	-12.4641
▁anes	-12.4646
▁aşim	-12.4648
▁asy	-12.465
▁gio	-12.4655
kala	-12.4657
EN	-12.4663
▁RIM	-12.4678
▁atit	-12.4689
▁asvi	-12.4692
GB	-12.4694
sür	-12.4699
▁Meş	-12.4699
▁ader	-12.4712
▁amba	-12.4717
▁tiyo	-12.4717
▁ouis	-12.4728
TS	-12.4734
▁ishal	-12.4734
▁zo	-12.4735
▁İZ	-12.4738
▁zker	-12.4749
▁remi	-12.475
▁esta	-12.4753
▁else	-12.4762
VE	-12.4774
09	-12.4776
▁hri	-12.4784
▁RDİ	-12.479
▁26.	-12.4793
▁Şık	-12.4799
▁gat	-12.4802
▁Şan	-12.4808
▁28.	-12.481
▁tf	-12.4818
▁icil	-12.4821
▁ırma	-12.4846
▁UMHU	-12.4855
▁Şaş	-12.4861
▁zuel	-12.4863
▁ÜR	-12.4864
▁2)	-12.487
▁oth	-12.4875
▁YILD	-12.4888
▁Zan	-12.4889
▁ücca	-12.4891
▁30.	-12.4894
LI	-12.4896
▁CD	-12.4901
▁15,	-12.4906
▁Reh	-12.4906
bat	-12.4921
▁lub	-12.4924
▁115	-12.4935
▁njon	-12.4949
▁Inf	-12.4951
▁wi	-12.4961
▁53.	-12.4966
▁Af	-12.4967
▁yut	-12.499
▁Lag	-12.4995
▁eyza	-12.5007
▁1.2	-12.5012
▁şla	-12.5014
▁çev	-12.5019
▁dge	-12.5056
eder	-12.5063
ILI	-12.5074
ow	-12.5081
▁atle	-12.5093
▁Git	-12.51
▁eyiz	-12.5118
sap	-12.5124
94	-12.5131
des	-12.5138
▁OLAR	-12.5138
▁marş	-12.5155
OMA	-12.5171
▁tali	-12.5171
EM	-12.5183
taş	-12.5184
▁İKİ	-12.5184
▁EDE	-12.519
▁rew	-12.5201
▁ET	-12.5203
▁rex	-12.5205
▁ECB	-12.5205
▁Lima	-12.5215
▁rang	-12.5215
▁umru	-12.5216
91	-12.5221
▁9'	-12.5225
ılıf	-12.523
▁IP	-12.5239
▁ümbü	-12.5251
▁27.	-12.5255
▁üşe	-12.5257
RBE	-12.5271
▁KOM	-12.5279
▁olsu	-12.5284
SA	-12.5287
▁laz	-12.5287
onun	-12.5294
kez	-12.5297
▁amanı	-12.5307
DR	-12.531
▁stle	-12.5312
▁erri	-12.5316
▁erpi	-12.5325
▁Vas	-12.5346
▁oc	-12.5376
▁Kus	-12.5379
▁Tıbb	-12.541
▁ÜVE	-12.5413
▁TÜFE	-12.5413
▁ıktı	-12.5414
▁2-2	-12.542
▁xpo	-12.5422
EA	-12.543
ÜRE	-12.5439
▁hou	-12.5446
▁ECD	-12.5449
nes	-12.545
▁ride	-12.546
▁rej	-12.5472
▁nab	-12.5476
▁kred	-12.5478
▁abur	-12.5482
▁Kro	-12.5485
▁40.	-12.5505
▁ürt	-12.5505
62	-12.5511
fşa	-12.5512
▁ARAR	-12.5514
NR	-12.5517
ELE	-12.5528
▁cun	-12.5532
▁zikr	-12.5537
▁valiz	-12.5538
▁tıkl	-12.5539
▁Teb	-12.5551
92	-12.5556
▁örün	-12.5556
CE	-12.5558
▁GSM	-12.5565
▁anga	-12.557
ALİ	-12.5572
▁Nadi	-12.5582
▁ling	-12.5584
▁şid	-12.5591
▁utb	-12.5594
▁çiğ	-12.5596
▁apt	-12.5603
▁erçe	-12.562
▁AÇ	-12.562
ÖF	-12.5647
▁loo	-12.565
za	-12.5659
▁alm	-12.5663
▁TS	-12.5664
▁ji	-12.5672
▁şaş	-12.5674
▁33.	-12.5676
▁ıvı	-12.5679
▁NSU	-12.5693
▁koçya	-12.5713
▁usti	-12.5716
▁AZİ	-12.5718
DÜ	-12.5726
uble	-12.5733
LLA	-12.5754
3,	-12.5761
▁mele	-12.5765
▁ALA	-12.5765
ERE	-12.5769
▁doh	-12.5774
▁ust	-12.5783
YO	-12.5784
▁ERİ	-12.5784
▁eğim	-12.5789
▁Kül	-12.5803
▁ıkan	-12.5819
/	-12.582
▁pul	-12.582
▁fta	-12.5831
▁rass	-12.5841
53	-12.5844
▁oji	-12.5851
▁ANI	-12.5854
aber	-12.5859
▁akto	-12.5862
uaw	-12.5871
▁Ros	-12.5875
▁alid	-12.5882
▁urel	-12.5885
▁İLGİ	-12.5891
▁moza	-12.5899
▁52.	-12.5907
▁şanti	-12.5907
FA	-12.5912
hem	-12.5914
▁iple	-12.5936
▁amda	-12.5944
▁amsi	-12.5957
96	-12.5964
LGE	-12.5966
▁ouss	-12.5966
▁assa	-12.5975
▁gis	-12.5979
▁yni	-12.5997
▁akir	-12.5999
▁AKE	-12.6016
▁kıt	-12.6018
▁isca	-12.602
RAB	-12.6023
▁AĞI	-12.6039
▁OYU	-12.604
ylü	-12.6041
▁RÜ	-12.6044
55	-12.6049
pp	-12.6054
▁Evi	-12.6054
Çİ	-12.6057
▁Zab	-12.606
▁Hop	-12.6071
orm	-12.6072
▁stra	-12.6082
▁âh	-12.6087
PK	-12.6087
▁rini	-12.609
-3	-12.6112
FTA	-12.6121
▁Pal	-12.6125
ji	-12.6129
sch	-12.6133
ham	-12.6133
▁meç	-12.6143
▁Raf	-12.6152
▁Rö	-12.6163
▁ixo	-12.6165
▁miy	-12.6173
▁rig	-12.6179
▁rduk	-12.6183
▁zgâ	-12.6185
▁TTI	-12.6188
▁Did	-12.6201
▁Mud	-12.6207
▁meb	-12.6218
▁erap	-12.6221
▁atio	-12.6222
RDİ	-12.6234
▁usla	-12.6249
URİ	-12.6251
RAF	-12.6252
han	-12.6252
▁Rud	-12.6259
▁çat	-12.629
▁mark	-12.6296
▁iyaz	-12.6297
▁AZ	-12.63
▁Jü	-12.6314
hor	-12.6315
▁war	-12.6323
▁aylo	-12.6326
İB	-12.6332
▁pus	-12.6332
▁ello	-12.6338
SU	-12.6344
▁arfi	-12.6346
▁etva	-12.6346
▁ndaj	-12.6364
▁ool	-12.6367
▁empe	-12.6383
▁ERE	-12.639
▁owa	-12.639
Dİ	-12.639
▁isse	-12.6394
▁GSY	-12.6396
▁habe	-12.6398
▁>	-12.6399
▁ortum	-12.6409
▁zeki	-12.6411
▁leb	-12.6414
▁URSA	-12.6414
▁eyyi	-12.6415
▁Dab	-12.6418
▁NU	-12.6418
▁iliği	-12.642
▁riğ	-12.6424
▁flas	-12.6425
mos	-12.6426
ick	-12.643
▁tlas	-12.6433
▁icab	-12.6435
▁arkan	-12.6438
YA	-12.6442
sal	-12.645
▁TKİ	-12.6451
▁Kad	-12.6463
▁Şaki	-12.647
LAN	-12.6473
▁KAN	-12.6481
▁xp	-12.6483
▁doz	-12.6486
ej	-12.6492
▁mast	-12.6497
▁"1	-12.6506
ubbe	-12.6507
▁ylo	-12.6509
▁Meta	-12.651
▁ERKE	-12.6514
▁iba	-12.6519
▁asma	-12.6523
GE	-12.6531
▁iğre	-12.6534
▁18,	-12.6537
ciz	-12.6538
▁ıv	-12.6539
DAR	-12.655
▁own	-12.6557
▁MK	-12.6559
84	-12.6569
▁Dat	-12.6577
AMA	-12.6578
▁Reş	-12.6579
akit	-12.6582
▁dre	-12.6583
▁3)	-12.6614
▁ŞTU	-12.6615
▁CE	-12.6639
▁YÜK	-12.6644
POR	-12.6645
▁ruy	-12.6648
▁reko	-12.6654
rük	-12.6657
▁ĞAN	-12.6661
▁guez	-12.6669
▁kör	-12.6674
▁AÇI	-12.6681
▁RDO	-12.6682
▁iga	-12.669
viz	-12.6692
▁lm	-12.6699
▁oroz	-12.6701
▁34.	-12.6706
86	-12.6708
▁kati	-12.6724
▁5-	-12.6726
▁31.	-12.673
▁rıc	-12.6736
▁lly	-12.6739
▁oung	-12.6741
▁reis	-12.6745
▁ach	-12.6748
▁mba	-12.6751
▁Key	-12.6754
▁MAN	-12.6759
▁Sad	-12.676
▁Die	-12.6761
▁ehi	-12.678
▁nos	-12.6782
▁FE	-12.6788
OB	-12.6802
▁zava	-12.6815
HA	-12.6818
▁ped	-12.682
▁ack	-12.6823
pik	-12.6824
UT	-12.6825
tif	-12.6835
▁teh	-12.6842
▁enva	-12.6843
MAZ	-12.6847
UL	-12.6851
hec	-12.6856
SI	-12.686
▁Tim	-12.6866
▁uto	-12.6869
▁addi	-12.6875
TB	-12.6884
ÇE	-12.6901
▁Rot	-12.692
▁erni	-12.692
▁taf	-12.6926
û	-12.6927
SD	-12.6929
LDİ	-12.6931
▁ĞLU	-12.6931
▁pıht	-12.6931
▁BMW	-12.6931
▁mpany	-12.6932
▁üpür	-12.6936
▁4-0	-12.6939
▁elvi	-12.694
▁ahşi	-12.6942
▁usse	-12.6953
▁Mil	-12.6955
asib	-12.6957
▁SEL	-12.696
▁enli	-12.6962
BT	-12.6963
▁iftar	-12.6969
SUN	-12.6974
▁mpol	-12.6979
▁hina	-12.6988
▁Çay	-12.7035
▁awk	-12.7036
çka	-12.7041
▁pta	-12.7044
▁meg	-12.705
itz	-12.7053
▁pur	-12.7072
▁PO	-12.7072
▁lmed	-12.7073
min	-12.7076
ugh	-12.7082
▁nok	-12.7089
▁Of	-12.7098
▁RLİ	-12.7129
DF	-12.7137
▁plu	-12.7142
EL	-12.7147
zak	-12.7149
▁arap	-12.7154
▁AZA	-12.7161
▁LME	-12.7177
▁abe	-12.7181
one	-12.7184
APTI	-12.7196
▁ibre	-12.7202
▁hti	-12.721
▁IKTI	-12.721
ĞLI	-12.7217
▁KE	-12.7224
▁anju	-12.7234
▁İSTİ	-12.7237
▁voka	-12.7238
▁arh	-12.7243
igh	-12.7247
▁edri	-12.725
▁cG	-12.7253
Cİ	-12.7261
▁ÖZÜ	-12.7263
▁efe	-12.7267
rag	-12.7267
▁BEDA	-12.7275
▁ULU	-12.7278
▁HR	-12.7278
▁rımı	-12.728
97	-12.7291
que	-12.7292
▁ŞA	-12.7309
▁Rev	-12.731
▁arra	-12.7319
▁ihya	-12.732
▁apur	-12.7321
▁KIR	-12.7324
▁RAM	-12.7325
İP	-12.733
▁KADE	-12.733
gan	-12.7349
▁BE	-12.7353
▁bed	-12.7355
fer	-12.7357
irza	-12.7359
sha	-12.7378
KM	-12.7393
▁Kova	-12.7398
▁rdan	-12.7409
▁arre	-12.7415
İM	-12.7421
▁Kına	-12.7422
▁Kâ	-12.7452
NAP	-12.7457
▁uph	-12.746
cha	-12.7462
▁STA	-12.7464
ife	-12.7472
DD	-12.7474
ukav	-12.7477
iko	-12.7485
▁Rol	-12.7487
▁ümrü	-12.7496
▁bom	-12.7501
STE	-12.7503
▁CEĞİ	-12.7503
▁SD	-12.7514
▁stem	-12.7515
▁39.	-12.7518
▁ruis	-12.7518
▁Niza	-12.7525
▁MS	-12.7526
▁ATO	-12.7526
▁ONYA	-12.7528
İS	-12.7529
▁ilva	-12.7529
▁keb	-12.7543
▁hor	-12.7558
▁kti	-12.7568
▁60.	-12.7572
▁matb	-12.7575
CÜ	-12.7578
BİS	-12.7579
▁Lov	-12.7582
64	-12.7583
▁FED	-12.7584
KUT	-12.7595
SYA	-12.7602
▁örd	-12.7605
▁rian	-12.761
▁LTE	-12.7612
▁oghe	-12.7614
ef	-12.7624
DT	-12.763
ven	-12.7643
▁afar	-12.7655
rit	-12.7676
▁Lu	-12.7697
▁Ph	-12.7703
▁loğ	-12.7711
co	-12.7713
KI	-12.7721
▁PC	-12.7722
▁Kıl	-12.7728
SM	-12.7742
▁Köy	-12.7745
▁ense	-12.7755
▁Nav	-12.776
oth	-12.777
US	-12.7773
▁ubli	-12.7775
▁ATV	-12.778
▁OĞLU	-12.7789
▁ÖNDE	-12.7795
▁Şaka	-12.78
▁gri	-12.7809
▁tock	-12.7811
Po	-12.7812
▁weet	-12.7813
▁arga	-12.7817
▁Rubi	-12.7823
▁üşr	-12.7823
▁36.	-12.7828
▁Dama	-12.783
▁ulaf	-12.7839
▁Sara	-12.784
▁"3	-12.7842
▁ARDI	-12.7849
▁fri	-12.785
▁cCa	-12.785
▁dild	-12.7857
mum	-12.786
▁hab	-12.7865
▁MEN	-12.7868
▁bab	-12.7871
ESK	-12.7872
▁ŞER	-12.7883
RU	-12.789
▁ŞKAN	-12.789
▁emsi	-12.7891
▁ÖNÜ	-12.7926
▁üğünü	-12.7938
▁laho	-12.7952
▁ymes	-12.7958
Ğİ	-12.796
▁97	-12.7961
▁rra	-12.7964
▁RU	-12.7966
▁adel	-12.8009
▁utma	-12.8021
NAK	-12.8027
Kİ	-12.8028
ipo	-12.803
▁bomb	-12.8032
umuz	-12.8034
pro	-12.8038
▁ANA	-12.8052
▁ariz	-12.8052
▁Kaz	-12.8052
▁eth	-12.8054
▁vah	-12.8057
▁aksı	-12.8062
▁MIZ	-12.8064
GİN	-12.8066
JK	-12.8072
▁NLAR	-12.8073
▁bilg	-12.8077
▁erba	-12.8081
▁ŞME	-12.8085
▁kım	-12.809
▁issa	-12.8097
▁akça	-12.8103
▁rtis	-12.8106
58	-12.8115
▁work	-12.8116
MO	-12.8117
ugo	-12.8117
▁keyf	-12.8119
▁geni	-12.812
TER	-12.8128
ABA	-12.8141
▁ZI	-12.8143
▁ĞU	-12.8145
ılıç	-12.8174
▁yaza	-12.8175
▁29.	-12.8186
RO	-12.8193
▁ÖZ	-12.82
▁TAN	-12.8223
▁idd	-12.823
▁ürşa	-12.825
▁Tru	-12.8256
Hz	-12.8264
▁ukas	-12.8279
▁Nail	-12.8292
▁ERSİ	-12.8297
sh	-12.8307
▁ürre	-12.8317
CA	-12.8325
AV	-12.8325
LC	-12.8334
gua	-12.8356
▁anj	-12.8363
▁cus	-12.8367
TÖ	-12.8392
▁mond	-12.8393
▁(3)	-12.8404
▁ĞUZ	-12.8404
▁gasus	-12.8405
▁arçın	-12.8405
TTI	-12.8406
Üç	-12.8407
▁llega	-12.8412
▁KI	-12.8426
TİH	-12.8428
assa	-12.8431
▁38.	-12.8434
▁ALİ	-12.8443
▁RAY	-12.8445
GI	-12.8446
VRU	-12.8449
▁pya	-12.8467
▁lamb	-12.8468
▁Kuş	-12.849
▁EY	-12.8491
▁erna	-12.8492
▁zıt	-12.8496
TAT	-12.8505
▁VA	-12.8508
▁ibra	-12.8512
▁CA	-12.8512
▁Mek	-12.8516
▁YORU	-12.8519
BE	-12.8535
gg	-12.8541
▁Zah	-12.8552
▁tree	-12.8567
▁EVA	-12.8571
▁cahi	-12.8574
▁arbi	-12.8578
idiy	-12.8583
TP	-12.8585
▁ksp	-12.859
▁Del	-12.8591
ör	-12.8592
▁MB	-12.8593
▁xim	-12.8597
▁yrı	-12.8598
▁nod	-12.8602
▁izd	-12.8602
▁pik	-12.8612
▁onne	-12.8624
▁Gay	-12.8634
▁ESKİ	-12.8637
EI	-12.8641
▁rre	-12.8648
▁tras	-12.8662
sus	-12.8667
▁şükr	-12.8691
▁zah	-12.8702
▁rlü	-12.8704
▁âle	-12.8707
▁Bale	-12.8719
▁ARİH	-12.8727
▁abib	-12.8731
hua	-12.8731
▁RME	-12.8731
▁ÜYÜ	-12.8732
▁ngaj	-12.8735
▁Win	-12.8737
▁arli	-12.8743
▁rakı	-12.8748
CAN	-12.8749
▁üj	-12.8752
▁rtun	-12.8755
▁NTI	-12.8758
ast	-12.8762
▁avv	-12.8782
▁back	-12.8789
▁45.	-12.8793
▁ÜC	-12.8799
▁azha	-12.8805
▁MÜ	-12.8817
fak	-12.8824
▁meru	-12.8826
lus	-12.8832
▁Sof	-12.8838
▁Dun	-12.8854
obe	-12.8869
▁Cla	-12.8875
▁Şü	-12.8884
▁ASTA	-12.8885
▁Kef	-12.8888
NAT	-12.8892
▁Hac	-12.8896
hou	-12.8898
▁eşer	-12.8899
▁orre	-12.89
▁İM	-12.8901
▁ıhh	-12.8919
▁ÜRK	-12.892
▁apım	-12.894
▁hila	-12.894
▁EK	-12.8942
▁YAPA	-12.8957
▁lesin	-12.896
▁US	-12.8961
▁küp	-12.8962
▁FB	-12.8966
▁MU	-12.8966
▁mamı	-12.8971
▁URUM	-12.8981
▁mih	-12.8984
İZ	-12.8985
şat	-12.899
▁iyon	-12.8996
▁raso	-12.9003
▁Gir	-12.9017
▁qua	-12.9032
HH	-12.9035
▁ütl	-12.9036
▁Lif	-12.9039
▁rte	-12.904
ÖNE	-12.9041
▁arto	-12.9051
ˆ	-12.906
▁ÜŞÜ	-12.9061
▁ALE	-12.9065
▁Jess	-12.9068
▁Lam	-12.9069
▁LKE	-12.9071
▁66.	-12.9078
MBA	-12.9081
▁OCU	-12.9084
▁rafo	-12.9088
▁hew	-12.9089
BF	-12.909
▁şte	-12.9102
▁kâbu	-12.9104
▁AH	-12.9107
▁ikro	-12.9111
▁Beden	-12.9125
▁MAH	-12.9134
▁DP	-12.9134
▁Vuk	-12.914
▁TİB	-12.9147
▁185	-12.9151
▁gide	-12.9156
▁OP	-12.9159
▁less	-12.916
▁şacak	-12.9165
▁TAV	-12.9165
uck	-12.917
▁feri	-12.9179
ray	-12.918
▁ŞLAR	-12.9181
▁icat	-12.9192
▁bura	-12.9199
La	-12.9212
▁ĞİTİ	-12.9213
ong	-12.9217
▁uric	-12.9222
▁vakf	-12.9224
GM	-12.9228
▁riyo	-12.9234
FC	-12.9253
RÜ	-12.9254
▁ieb	-12.9256
▁Diz	-12.9266
▁nlam	-12.927
TAL	-12.9274
ARC	-12.9279
▁4)	-12.9279
ense	-12.9287
▁pma	-12.9293
▁ecde	-12.9297
EZ	-12.9303
▁DJ	-12.9309
▁ezik	-12.9315
▁KUR	-12.9321
âne	-12.9336
OBE	-12.9338
▁AŞKA	-12.9345
▁rady	-12.9351
HRA	-12.9356
APA	-12.936
▁ATA	-12.9362
ug	-12.9373
▁EV	-12.9386
▁HA	-12.939
2,	-12.939
▁NL	-12.9392
▁Boz	-12.94
▁AŞI	-12.9403
▁(1)	-12.9405
▁°	-12.9411
▁NTEP	-12.9414
▁RANS	-12.9418
NDE	-12.9418
▁ebap	-12.9424
gba	-12.9427
AŞI	-12.9432
▁GS	-12.9439
▁Seda	-12.9449
-9	-12.9452
▁ND	-12.9459
▁ÜNE	-12.9472
RAT	-12.9473
▁radı	-12.9481
▁Şİ	-12.9485
▁uang	-12.9502
▁YAŞA	-12.9514
▁von	-12.9519
▁erj	-12.9522
▁ilba	-12.9523
▁EP	-12.9529
RKE	-12.9537
NT	-12.9539
▁rrit	-12.9542
▁TEK	-12.9549
miny	-12.956
MD	-12.9568
79	-12.9584
▁rch	-12.9584
▁ğan	-12.9594
BU	-12.9594
▁elip	-12.9603
▁Zam	-12.9609
ja	-12.9614
▁rep	-12.9615
bor	-12.9627
▁İL	-12.9638
▁6-	-12.9639
▁ettü	-12.9641
▁İLİ	-12.9653
▁oul	-12.9655
▁qui	-12.9663
▁tuş	-12.9666
▁ÖZA	-12.9669
lâl	-12.9699
▁AŞLA	-12.9708
▁ESK	-12.9709
ux	-12.971
▁Jim	-12.9727
nkâr	-12.9749
▁haz	-12.9752
▁zc	-12.9758
▁ĞA	-12.9762
▁YDIN	-12.9762
▁ENÇ	-12.9763
▁III	-12.9764
▁ous	-12.9768
▁ETD	-12.977
▁89.	-12.9774
▁durm	-12.9776
▁ilec	-12.9778
tro	-12.9785
▁43.	-12.979
▁41.	-12.9791
zof	-12.9794
▁kefe	-12.9798
▁ADIN	-12.9801
▁Kura	-12.9812
LEN	-12.9818
▁Ves	-12.9835
▁EÇİ	-12.9836
▁YLA	-12.9838
▁Meg	-12.9852
ANDI	-12.9856
▁way	-12.9866
▁sıca	-12.9869
▁aktu	-12.9871
▁ülit	-12.9883
▁lmu	-12.9885
▁Kası	-12.989
hio	-12.9891
İBİ	-12.9912
▁ikmen	-12.9915
▁cip	-12.992
▁pos	-12.9925
BM	-12.9955
▁pika	-12.996
▁arpu	-12.9961
▁3"	-12.9964
▁ikon	-12.9968
▁OK	-12.9973
▁7-	-12.9977
▁ulia	-12.9985
▁iege	-12.9994
▁roin	-13.0006
ung	-13.0009
▁eba	-13.001
▁Cum	-13.0016
▁fahi	-13.0021
klo	-13.0033
KY	-13.0053
▁ihal	-13.0055
mit	-13.0055
▁tate	-13.0056
LİS	-13.0067
▁06	-13.0068
Rİ	-13.0068
W	-13.0073
▁mbel	-13.0077
ugge	-13.0079
El	-13.008
▁laca	-13.0092
▁ktri	-13.0102
pit	-13.0104
▁akul	-13.0106
ÜRÜ	-13.0108
▁We	-13.0109
Q	-13.011
▁sald	-13.0116
▁vaaz	-13.0117
rhan	-13.0124
▁neml	-13.0134
▁HPV	-13.0136
▁nohu	-13.0139
▁YNA	-13.0141
▁Opel	-13.0146
▁oulma	-13.0147
▁ith	-13.0149
▁irya	-13.0164
▁rien	-13.0168
▁37.	-13.0168
▁Mine	-13.0173
▁rade	-13.018
▁Buz	-13.0188
▁ntez	-13.0191
▁sara	-13.0193
▁zof	-13.0197
▁CAN	-13.0199
▁SMA	-13.0199
▁ravi	-13.0201
▁ura	-13.0202
▁more	-13.0204
IZI	-13.021
IBA	-13.0213
▁los	-13.0213
▁nick	-13.0232
▁uaz	-13.0237
ack	-13.0247
▁Part	-13.025
▁pac	-13.0251
▁nsu	-13.0251
bur	-13.0258
ADO	-13.0258
▁bach	-13.0265
▁hür	-13.0267
▁gdan	-13.0287
▁hip	-13.0306
▁alad	-13.0311
VA	-13.0325
▁rtt	-13.0329
▁artu	-13.033
▁İS	-13.0347
▁mran	-13.0365
MV	-13.0371
lâ	-13.0378
▁Mod	-13.0378
▁RAN	-13.0382
▁bütö	-13.0391
▁6)	-13.0403
▁unkt	-13.0415
▁MAK	-13.043
▁şlar	-13.0432
▁ezir	-13.0437
▁erci	-13.0447
▁NG	-13.0452
▁mito	-13.0453
▁ZA	-13.0453
asse	-13.0459
bit	-13.0467
▁lej	-13.0468
TEM	-13.047
amid	-13.0472
▁maru	-13.0483
▁dola	-13.0484
üştü	-13.0486
▁caz	-13.0495
▁ago	-13.0497
Bİ	-13.0505
FO	-13.0507
▁ius	-13.0509
▁ÖRGÜ	-13.0517
TİB	-13.0519
▁VW	-13.0522
▁scap	-13.0523
▁ebru	-13.0533
▁ruj	-13.0534
▁Şif	-13.0534
▁71.	-13.0535
▁56.	-13.0542
▁YDI	-13.0542
▁rüs	-13.0544
▁akra	-13.0551
bolu	-13.0551
▁INI	-13.0555
▁zenc	-13.0557
▁itel	-13.0557
est	-13.0561
▁rtiz	-13.0566
▁abba	-13.0566
RP	-13.0573
▁ıçra	-13.0582
▁184	-13.0585
▁FC	-13.0591
▁ount	-13.0592
▁acca	-13.0604
▁adab	-13.0607
NE	-13.0612
▁şerh	-13.0614
▁Col	-13.0617
iv	-13.0619
▁erva	-13.0625
▁İŞLE	-13.0638
tapo	-13.0639
▁eyfi	-13.0642
▁celi	-13.0652
▁eyhu	-13.0654
▁Rafi	-13.0658
▁ezz	-13.0662
▁jel	-13.0673
▁koli	-13.0675
AL	-13.0682
kûn	-13.069
ÖRE	-13.0692
▁FT	-13.0697
▁TİK	-13.07
ENE	-13.0701
▁FI	-13.0705
▁ezid	-13.0731
▁lash	-13.0736
▁Blu	-13.074
▁AKAN	-13.0741
▁DC	-13.0741
▁vaha	-13.0748
▁NLI	-13.075
▁aron	-13.0751
MEZ	-13.077
▁4/	-13.0772
▁TAR	-13.0786
het	-13.08
rio	-13.0811
▁leve	-13.0816
İNE	-13.0827
▁Vahi	-13.0828
tris	-13.083
▁ntag	-13.0834
▁yang	-13.0843
▁ego	-13.0855
-0	-13.0859
ng	-13.0862
LLE	-13.0871
▁AGİ	-13.0878
▁zama	-13.088
ff	-13.0881
▁igo	-13.0887
▁miyo	-13.0909
▁Lass	-13.091
▁AE	-13.0913
▁ZE	-13.0915
▁AYSE	-13.0919
▁hro	-13.0919
▁klo	-13.0921
▁Road	-13.0924
AG	-13.0934
▁78.	-13.0942
▁51.	-13.0943
▁AÇIN	-13.0945
▁alaz	-13.0953
▁01	-13.0954
▁PM	-13.0956
▁PAR	-13.0956
▁iron	-13.0959
▁EÇE	-13.0962
▁Keşa	-13.0964
▁güçl	-13.0965
▁erza	-13.0965
▁ütf	-13.0967
IV	-13.0969
SAN	-13.0972
NER	-13.0973
▁zları	-13.0977
▁Tuz	-13.098
▁TOF	-13.098
▁70.	-13.0994
▁90.	-13.0994
▁ırçı	-13.0996
▁rnea	-13.0999
▁muva	-13.1
zip	-13.1003
▁hire	-13.101
AŞA	-13.1016
PT	-13.102
evap	-13.103
VD	-13.1034
EĞİ	-13.1037
▁eriz	-13.1042
▁Rose	-13.1043
▁plik	-13.1045
▁eram	-13.1046
▁Naim	-13.1047
JE	-13.105
▁üngü	-13.1054
ETİ	-13.1059
ps	-13.1062
▁immü	-13.1074
▁sch	-13.1076
İRE	-13.1082
▁etre	-13.1094
▁els	-13.1107
▁AC	-13.1113
▁iksi	-13.1132
NAR	-13.1135
Ey	-13.1143
▁eşt	-13.1144
▁Fide	-13.1149
▁isna	-13.1153
▁niko	-13.1186
▁KTA	-13.119
▁fos	-13.1196
▁kefi	-13.1198
▁eygi	-13.1202
▁tmesi	-13.1206
▁ulti	-13.1208
▁Liv	-13.1219
▁elbe	-13.1228
edi	-13.1229
▁mazo	-13.123
▁NCA	-13.1234
ÜK	-13.124
sanı	-13.124
cho	-13.1241
▁ndis	-13.1242
▁unga	-13.1244
▁angu	-13.1252
KÜ	-13.1253
▁Hama	-13.126
▁cıv	-13.1263
▁ayg	-13.1266
awa	-13.1266
▁afet	-13.1279
▁rbes	-13.1293
esel	-13.1299
▁ŞÜ	-13.131
▁09	-13.1311
▁umbu	-13.1314
а	-13.1314
▁laje	-13.1315
LDÜ	-13.1317
▁ğind	-13.132
▁atra	-13.1329
ĞRU	-13.1334
▁Gates	-13.1334
▁kubic	-13.1334
▁hift	-13.1334
▁ğladı	-13.1335
▁4-2	-13.1342
TAR	-13.1356
▁PSM	-13.1358
▁sist	-13.1362
▁rres	-13.1363
▁ÜN	-13.1364
LAH	-13.1365
▁ntar	-13.1368
▁YED	-13.1376
▁cemi	-13.1377
GİT	-13.1382
▁rego	-13.1383
▁roze	-13.1388
▁Laf	-13.1389
▁fast	-13.1392
▁May	-13.1392
ico	-13.1402
rip	-13.1405
umb	-13.1406
▁158	-13.1408
KA	-13.1412
▁ahp	-13.1416
▁şor	-13.1424
▁armo	-13.1426
▁gani	-13.1429
▁keç	-13.1435
▁132	-13.1437
▁YU	-13.144
we	-13.1444
▁eire	-13.1445
▁EG	-13.1457
▁Live	-13.1471
▁Giri	-13.1477
İSİ	-13.1477
▁RDU	-13.148
▁bev	-13.1481
▁atv	-13.1484
▁alf	-13.1484
▁irfa	-13.1484
▁1"	-13.1488
▁PS	-13.1499
▁mca	-13.1501
▁aras	-13.1503
ato	-13.1512
▁Yay	-13.1517
SİN	-13.1522
▁EKN	-13.1526
TTİ	-13.1528
olo	-13.1532
▁Reha	-13.1537
▁erhu	-13.155
▁RKA	-13.1552
TİK	-13.156
▁apş	-13.1565
▁5"	-13.1566
▁ntin	-13.1567
▁üşte	-13.1591
bro	-13.1592
essü	-13.1595
▁atri	-13.1604
▁rafa	-13.1614
▁pit	-13.1626
▁ltra	-13.1633
KAN	-13.1633
▁LDÜ	-13.1637
▁umun	-13.1644
▁leg	-13.1647
▁vos	-13.1657
▁şeyh	-13.1666
▁raha	-13.1672
▁ALO	-13.1675
▁KLİ	-13.1678
LÜ	-13.1681
NAN	-13.1682
▁5)	-13.1687
▁ung	-13.1688
▁ürm	-13.169
tük	-13.1699
▁ramp	-13.1721
▁UN	-13.1726
İZİ	-13.1728
▁amı	-13.1748
▁aybe	-13.1759
MÜ	-13.1765
ASI	-13.1766
▁yyub	-13.1769
▁alaga	-13.1772
▁NCU	-13.1775
▁ULÜ	-13.1775
▁avza	-13.1777
▁ânâ	-13.1778
▁eyfe	-13.1778
▁loz	-13.178
▁ÖYLE	-13.1782
▁luy	-13.179
CEF	-13.1797
▁vadi	-13.1797
dav	-13.1804
▁EVLE	-13.1805
▁KİM	-13.1828
▁MAZ	-13.1829
▁EKİN	-13.1842
▁RAK	-13.1848
▁Buck	-13.1866
▁rten	-13.1869
SİM	-13.1872
▁ÇIKA	-13.1876
▁Moh	-13.1878
▁assi	-13.1878
▁koz	-13.1882
SP	-13.1883
▁aolo	-13.1884
tez	-13.1903
OPLA	-13.1906
kür	-13.1909
▁118	-13.1911
▁ntas	-13.1911
▁TOP	-13.192
▁BES	-13.1929
MG	-13.1932
fen	-13.1935
▁DH	-13.1942
▁MER	-13.195
▁AG	-13.1951
▁EVR	-13.1961
▁elda	-13.1963
▁reya	-13.1967
RTI	-13.1979
lüm	-13.1989
TİN	-13.1992
ŞKAN	-13.1994
▁FO	-13.2
▁nane	-13.2002
▁IPI	-13.2014
LLİ	-13.2015
ntem	-13.2018
▁psal	-13.202
▁avc	-13.2024
▁meşa	-13.2027
▁hamd	-13.2027
▁enant	-13.2029
▁rund	-13.2031
▁afiz	-13.2033
İN	-13.2057
▁İYA	-13.2065
▁elic	-13.2067
▁rud	-13.2089
MAK	-13.2089
our	-13.2114
▁slo	-13.2125
AX	-13.2128
▁Ort	-13.2131
▁ilbe	-13.2134
▁paş	-13.2144
jit	-13.2153
NUN	-13.2164
▁TEP	-13.2165
CO	-13.2171
▁eyid	-13.2177
▁İZLE	-13.2181
▁zıp	-13.2185
EC	-13.2186
RNE	-13.2186
▁Rod	-13.2191
▁oot	-13.2194
▁soro	-13.2195
▁AĞLA	-13.2202
art	-13.2209
▁sco	-13.2211
▁nör	-13.2214
ONO	-13.2218
NA	-13.2223
▁ülfü	-13.2223
▁hoven	-13.2224
▁Venüs	-13.2225
▁kibi	-13.2225
▁ÜRG	-13.2225
▁ülfi	-13.2229
gas	-13.2232
▁zne	-13.2244
▁64.	-13.2244
▁Vİ	-13.2254
▁YGU	-13.2255
▁Spo	-13.2258
ETO	-13.2259
▁47.	-13.2263
▁é	-13.2265
ENİ	-13.2268
ERA	-13.2271
▁75.	-13.2271
▁endil	-13.2274
▁YAN	-13.2276
▁elta	-13.2283
▁felc	-13.2291
AYA	-13.2293
▁ESİ	-13.2295
▁erem	-13.2297
▁udd	-13.2299
▁TÖ	-13.2306
İL	-13.2307
ina	-13.2317
▁ÜZEN	-13.2346
▁Lav	-13.2356
▁ÜÇ	-13.2358
▁ftar	-13.2358
▁uall	-13.2359
▁Suna	-13.2359
▁çip	-13.237
aw	-13.2374
▁YIN	-13.238
▁izan	-13.2389
▁foli	-13.2395
▁Fly	-13.2402
▁TBB	-13.2404
ika	-13.241
ENA	-13.2418
▁İŞTE	-13.2418
▁aktı	-13.2427
▁och	-13.2434
▁Pop	-13.2435
▁cL	-13.2445
İST	-13.2452
AKİ	-13.2457
▁reat	-13.2458
▁7)	-13.246
▁Vez	-13.2461
▁Ras	-13.2472
▁meth	-13.2481
▁Jam	-13.2484
▁DAM	-13.2484
▁mira	-13.2486
▁ESA	-13.2491
▁Ren	-13.2501
▁raft	-13.2529
etin	-13.2561
▁rest	-13.2562
jet	-13.257
▁"2	-13.258
▁SÜ	-13.2622
▁Nar	-13.2629
▁elâ	-13.2629
wood	-13.2634
▁hia	-13.2638
▁zra	-13.2644
RAN	-13.2652
▁hell	-13.2654
▁SPA	-13.2663
▁iğin	-13.2666
▁fro	-13.2666
▁YİN	-13.2667
▁Şeym	-13.267
▁kase	-13.2673
▁ARE	-13.2682
▁DSÖ	-13.2699
▁YHT	-13.2699
▁higan	-13.27
▁udret	-13.2701
▁ahlâ	-13.2701
▁eyze	-13.2701
▁NME	-13.271
SC	-13.2711
▁86.	-13.2717
▁YNI	-13.2721
▁69.	-13.2724
▁kıv	-13.2726
AS	-13.2726
▁ölg	-13.2729
▁OSD	-13.273
▁AKAR	-13.2736
▁Zap	-13.2736
▁72.	-13.2739
NKA	-13.2744
▁awai	-13.2745
rik	-13.2762
Vİ	-13.2763
mir	-13.2765
ebap	-13.2766
▁ekti	-13.2768
▁anno	-13.277
▁urbo	-13.2771
▁IKI	-13.2772
ZLA	-13.2774
güm	-13.2779
NİSA	-13.2793
URU	-13.2794
HD	-13.2797
PE	-13.2816
▁cez	-13.2816
▁AYA	-13.2817
▁kadı	-13.282
▁kada	-13.282
şit	-13.2821
▁xf	-13.2834
▁wen	-13.2835
LAY	-13.2839
▁Fat	-13.2839
▁orne	-13.2845
▁İÇ	-13.2846
▁icr	-13.2851
ÜR	-13.2851
ath	-13.2853
▁lfa	-13.286
▁rön	-13.2863
cabi	-13.2864
▁orpi	-13.2865
▁GM	-13.2882
KAT	-13.2894
▁ezze	-13.2899
▁URT	-13.2902
İLİ	-13.2904
ood	-13.2905
▁4"	-13.2909
▁otti	-13.291
▁eyik	-13.291
fil	-13.2911
AZ	-13.2944
pur	-13.2948
ZE	-13.2952
▁yfe	-13.2954
▁IF	-13.2965
′	-13.298
▁adio	-13.2989
gat	-13.2991
pho	-13.2992
▁Bac	-13.3005
▁Bos	-13.3009
PA	-13.3027
▁DİN	-13.3047
uch	-13.3048
lvi	-13.3053
▁eriy	-13.3057
PER	-13.3058
▁dw	-13.3072
▁tug	-13.3078
▁NOT	-13.3081
UM	-13.3099
▁enit	-13.3112
▁ÜZE	-13.3113
▁zind	-13.313
rig	-13.313
▁tava	-13.3139
▁ALS	-13.314
▁MAÇ	-13.3154
7,	-13.3176
▁rkun	-13.3186
eng	-13.3187
ved	-13.3191
▁Rah	-13.3198
ÇTİ	-13.3199
ÖH	-13.3199
kül	-13.32
▁Demb	-13.3203
▁Cafe	-13.3207
▁POL	-13.3209
▁asto	-13.3215
▁İZİ	-13.3221
▁(2	-13.3221
▁Jas	-13.3227
OC	-13.3228
CAR	-13.3229
▁58.	-13.323
▁usko	-13.323
▁Fon	-13.3231
▁54.	-13.3234
▁nefs	-13.3235
▁42.	-13.3246
▁44.	-13.3247
▁egzo	-13.3261
▁idal	-13.3264
▁KTE	-13.328
▁NİZ	-13.3294
▁mper	-13.3297
▁EB	-13.3319
MUR	-13.3325
zker	-13.3336
GA	-13.3337
▁Jak	-13.3337
KLA	-13.3338
isve	-13.3341
▁alip	-13.3381
uf	-13.3388
mph	-13.3392
▁YABA	-13.3399
▁TEŞ	-13.3406
▁Kava	-13.3417
▁kıb	-13.3426
▁lmay	-13.3445
tbik	-13.346
adı	-13.3462
▁EŞ	-13.3465
▁Nef	-13.3469
▁TEN	-13.3493
▁Zİ	-13.3495
▁elod	-13.3515
▁Cas	-13.3528
wis	-13.3569
▁eyf	-13.3569
▁erif	-13.3584
LO	-13.3585
vu	-13.3585
▁tho	-13.3595
▁Dike	-13.3598
▁ahır	-13.3606
▁NSA	-13.3611
▁POS	-13.3621
▁GT	-13.3627
▁ezba	-13.3632
TİM	-13.3642
▁idde	-13.3649
ESİ	-13.3674
▁URA	-13.3677
▁şb	-13.369
+	-13.3693
5,	-13.37
FAD	-13.3709
▁ipno	-13.3714
MUZ	-13.3716
Bro	-13.3717
¦	-13.3725
âlâ	-13.3726
▁itrA	-13.3726
▁İHT	-13.3726
▁ahşe	-13.3732
▁İSKİ	-13.3736
▁ravel	-13.3736
ew	-13.3743
ido	-13.375
▁68.	-13.3753
▁Vega	-13.3755
▁62.	-13.3755
▁Free	-13.3762
▁ERZ	-13.3767
▁MEZ	-13.3768
CU	-13.3769
▁nza	-13.3774
▁4.2	-13.3777
ZIR	-13.3777
▁sbih	-13.378
▁ekke	-13.3784
ESA	-13.3787
▁Hip	-13.3797
ARK	-13.3803
▁164	-13.3814
▁rlı	-13.3816
▁Joa	-13.3819
▁246	-13.3824
▁Vahş	-13.3832
▁şevk	-13.3832
▁Gaye	-13.3833
▁0-1	-13.3834
▁Pur	-13.3839
▁ancar	-13.3839
▁rato	-13.3851
▁abas	-13.3855
▁kşa	-13.3855
▁223	-13.386
İV	-13.3863
▁Zav	-13.3863
PP	-13.3881
LİM	-13.3886
▁odo	-13.3891
▁RKE	-13.3892
▁irza	-13.3895
▁İD	-13.3915
▁Üni	-13.3918
▁okr	-13.3926
▁htag	-13.3927
▁FA	-13.3931
▁laj	-13.3944
▁HEP	-13.3947
▁urp	-13.3986
▁KAT	-13.3988
▁eid	-13.3991
▁ezo	-13.4001
SF	-13.4013
▁hio	-13.4014
▁ONG	-13.4015
▁COM	-13.4017
▁Naz	-13.4017
▁hez	-13.402
▁elev	-13.4026
CAK	-13.4032
▁TZ	-13.4051
▁LIM	-13.4075
▁evec	-13.4079
▁evro	-13.4081
▁ness	-13.4085
▁foku	-13.4098
AKA	-13.41
jo	-13.4109
▁Geze	-13.4112
▁Dian	-13.4122
ora	-13.4137
▁GO	-13.4139
bul	-13.4146
▁arşi	-13.4146
▁oron	-13.4158
ĞLA	-13.4203
ADA	-13.4228
ÇA	-13.4233
▁cop	-13.4236
▁llo	-13.4238
▁MİR	-13.4252
AĞI	-13.4254
е	-13.426
NGİ	-13.4267
IĞ	-13.4268
AA	-13.4271
TU	-13.4273
AÇ	-13.428
̆	-13.4281
▁lett	-13.4288
▁özg	-13.4291
HO	-13.4295
▁BI	-13.4297
▁Jav	-13.4301
DÜL	-13.4302
▁wort	-13.4304
▁88.	-13.4304
▁Şok	-13.4306
▁DR	-13.4307
▁aggi	-13.4308
▁eşhi	-13.4308
▁badi	-13.4309
▁67.	-13.431
ffu	-13.4315
AVA	-13.4323
▁Şefik	-13.4329
▁cade	-13.433
▁(1	-13.433
hag	-13.433
▁EME	-13.4334
▁NSAN	-13.4336
▁NÜ	-13.434
▁ktiv	-13.4344
▁ucat	-13.4344
▁auna	-13.4344
▁TÜM	-13.4348
▁Fur	-13.4352
▁Saka	-13.4356
▁lase	-13.4358
▁Şey	-13.436
▁jö	-13.437
▁livy	-13.4372
▁Vay	-13.4373
▁196	-13.4376
▁Neş	-13.4381
▁ĞRA	-13.4385
red	-13.4391
▁aliz	-13.4394
fo	-13.4395
▁mayo	-13.4396
▁zapt	-13.4396
▁148	-13.4397
▁ARS	-13.4397
▁efor	-13.4398
ÖRÜ	-13.44
oroz	-13.4403
▁quar	-13.4408
▁ırpa	-13.4415
▁eau	-13.4419
▁IC	-13.4433
▁ZOR	-13.4434
KLI	-13.4434
▁orse	-13.4448
▁ulum	-13.4448
NAL	-13.4449
hav	-13.4453
▁eeh	-13.446
▁Süh	-13.4468
▁ekâr	-13.4486
Nİ	-13.4489
▁İFT	-13.4494
cdad	-13.4502
GO	-13.4519
▁ayfur	-13.4525
ulti	-13.4536
▁eyon	-13.4547
▁haw	-13.455
▁lind	-13.4552
▁igue	-13.4556
▁neuv	-13.4559
▁rema	-13.4563
▁redd	-13.4565
▁ikol	-13.4565
▁con	-13.4581
eks	-13.4583
▁nef	-13.4584
▁YAK	-13.4606
▁EC	-13.4616
AY	-13.4623
▁İÇİ	-13.4629
4,	-13.4637
▁esse	-13.4638
▁pey	-13.464
▁hâl	-13.4644
hat	-13.4646
gos	-13.4646
▁NLER	-13.465
▁yran	-13.4656
tuf	-13.4669
▁eres	-13.4673
▁Jun	-13.4676
▁latt	-13.4687
Su	-13.4693
▁EMO	-13.4703
▁rko	-13.4711
OK	-13.4727
âl	-13.4728
▁cien	-13.4731
▁alac	-13.4736
▁EZ	-13.474
▁ampo	-13.4744
▁yuka	-13.4745
tch	-13.476
▁DAK	-13.4763
▁OCA	-13.4766
▁ux	-13.4771
▁trik	-13.4772
ars	-13.4773
HME	-13.4774
rah	-13.4788
▁MKE	-13.479
▁tero	-13.4793
▁RD	-13.4797
TF	-13.48
▁DİR	-13.4806
▁CAS	-13.4807
▁İRLİ	-13.4812
▁"4	-13.4817
▁DK	-13.482
rad	-13.482
▁gos	-13.4825
▁ront	-13.4827
AYI	-13.4829
zum	-13.4837
▁AKI	-13.4839
▁Pedr	-13.4842
▁LC	-13.4847
▁dig	-13.4857
▁eger	-13.4859
MPİ	-13.486
İş	-13.4863
á	-13.4867
▁ÜÇÜK	-13.4869
▁Jazz	-13.4869
▁EĞİŞ	-13.4869
▁(4)	-13.487
▁ARGI	-13.487
▁Drive	-13.487
▁ATKI	-13.4874
▁oupe	-13.4874
▁OR	-13.4877
▁monti	-13.4878
▁Web	-13.4882
▁ANS	-13.4882
▁BAŞ	-13.4892
▁miny	-13.4892
▁EĞER	-13.4893
▁zid	-13.4898
ADI	-13.4899
▁57.	-13.4902
EKA	-13.4906
▁49.	-13.4908
▁YRI	-13.4908
▁erfi	-13.491
▁Jale	-13.4911
▁eag	-13.4917
▁ORKU	-13.4926
LAR	-13.4928
▁essü	-13.4929
▁ries	-13.493
▁AMA	-13.4931
▁ıras	-13.4943
▁rque	-13.4944
▁ürse	-13.4952
▁Kama	-13.4969
▁IRT	-13.4972
▁MAHK	-13.4976
▁lide	-13.4985
ÜZ	-13.4985
▁İRİŞ	-13.4986
ZME	-13.4993
CG	-13.4996
VAS	-13.4998
▁Kati	-13.5003
▁İGA	-13.5005
OLİ	-13.5025
▁ahid	-13.503
▁Dua	-13.5033
KP	-13.5039
▁CÜ	-13.5056
▁NK	-13.5061
▁PART	-13.5065
▁pris	-13.5067
NEL	-13.5075
▁allo	-13.5078
trik	-13.508
KİP	-13.5088
eag	-13.5091
▁Dio	-13.5103
gar	-13.5104
UPA	-13.5105
▁ezb	-13.5108
▁oco	-13.5111
▁Pul	-13.5114
NS	-13.5114
puc	-13.5115
▁AYAT	-13.5117
aid	-13.5117
▁MUZ	-13.512
RUM	-13.5129
▁Sky	-13.5136
eg	-13.5154
▁ogo	-13.5156
▁Dik	-13.5166
▁Vik	-13.5166
▁AF	-13.5167
▁lüto	-13.5191
▁ngo	-13.5191
▁onus	-13.5194
▁ÇIKL	-13.5198
▁adri	-13.5204
HAN	-13.5206
uric	-13.5208
ij	-13.5208
▁AMG	-13.5219
▁cci	-13.5223
SMİ	-13.5227
▁civ	-13.5252
▁lava	-13.5252
▁Nov	-13.5259
fir	-13.5268
▁Luci	-13.5274
▁Fİ	-13.5276
KİN	-13.528
▁EBA	-13.5286
kun	-13.5289
▁ilve	-13.5324
İA	-13.5325
▁07	-13.5327
▁ŞE	-13.5331
röm	-13.5342
AZİ	-13.5352
▁röt	-13.5363
▁osh	-13.5372
▁REN	-13.5374
▁ŞU	-13.5387
ürdü	-13.5394
▁KAD	-13.5409
oçya	-13.5416
▁Pis	-13.5424
dırı	-13.5424
▁BP	-13.5426
▁afsa	-13.5431
vay	-13.5433
KİB	-13.5438
OP	-13.544
YE	-13.5469
▁nasi	-13.5473
▁Tre	-13.5473
▁elka	-13.5473
ĞER	-13.5474
▁iban	-13.5476
▁rbe	-13.5478
▁ipp	-13.548
▁Gür	-13.5482
▁atü	-13.5483
▁OM	-13.5488
¥	-13.5494
▁(5)	-13.5495
▁cCo	-13.5498
▁eitu	-13.5502
▁küvi	-13.5502
▁TAT	-13.5503
▁URDU	-13.5506
▁Vad	-13.5507
▁Seza	-13.5508
▁fire	-13.5511
ARDE	-13.5513
▁UTB	-13.552
▁SYON	-13.5522
▁61.	-13.5523
▁fem	-13.553
▁79.	-13.5534
▁zka	-13.5538
YBE	-13.5541
▁Röv	-13.5541
▁elâm	-13.5544
▁Gri	-13.5545
▁asya	-13.5549
wo	-13.5549
▁LDE	-13.5554
▁ando	-13.5558
▁Nay	-13.5559
▁355	-13.556
▁umbai	-13.557
ore	-13.5573
ÜZE	-13.5578
▁ONE	-13.5582
▁sez	-13.5583
▁güde	-13.5588
SAP	-13.5599
▁BT	-13.5605
AKI	-13.5608
▁192	-13.5613
▁ATTI	-13.5617
▁VERE	-13.5617
▁üv	-13.5622
▁mous	-13.5629
PR	-13.5636
▁kede	-13.564
LİR	-13.5653
▁DIŞ	-13.5656
▁akro	-13.566
▁LEVE	-13.5682
▁CC	-13.5697
nî	-13.57
▁mort	-13.5706
CS	-13.5716
▁şina	-13.5717
NLA	-13.5719
▁IL	-13.5724
▁ODEL	-13.5727
urna	-13.5743
FM	-13.5745
▁TRA	-13.5755
İNA	-13.5762
BÜ	-13.5769
▁ODT	-13.5772
ecc	-13.5774
▁lph	-13.579
▁roo	-13.5793
▁utsi	-13.5798
▁Şefi	-13.5799
*	-13.5801
▁ARD	-13.5805
RLİ	-13.5809
▁YAPM	-13.5817
▁İF	-13.583
▁kahya	-13.5831
▁ûl	-13.5836
NI	-13.5838
wie	-13.5861
▁ERT	-13.5864
▁ory	-13.5875
OT	-13.5881
KİM	-13.5885
▁MW	-13.5888
aq	-13.5902
fik	-13.5902
▁ulie	-13.5904
▁üreşi	-13.5915
wart	-13.5919
veg	-13.5922
TEN	-13.5939
▁BB	-13.5941
▁TLİ	-13.5942
▁OSYA	-13.5945
OJ	-13.5963
▁burn	-13.5966
▁çün	-13.597
▁pişe	-13.5971
▁nica	-13.5972
DC	-13.5977
RTA	-13.598
BO	-13.5981
AI	-13.5996
▁feshi	-13.5996
afra	-13.6006
EY	-13.602
▁Huma	-13.6029
▁SADE	-13.6031
▁ONA	-13.6054
CR	-13.6074
▁rsi	-13.608
LER	-13.608
KON	-13.6086
RAH	-13.6091
▁NTİ	-13.61
▁asti	-13.6125
▁İY	-13.6129
▁Rü	-13.6137
▁KUL	-13.6138
EKLİ	-13.6144
▁Rab	-13.6151
MSA	-13.6153
▁aos	-13.6156
▁akyaj	-13.6162
▁RK	-13.6162
▁ÖVÜ	-13.6162
KB	-13.6163
▁taci	-13.6164
▁spih	-13.6165
▁LOJ	-13.6167
NTE	-13.6174
âb	-13.6174
AZAR	-13.6176
GD	-13.6181
▁Yön	-13.6182
▁ORMA	-13.6184
▁eyru	-13.6187
▁77.	-13.6188
▁ENE	-13.6189
▁84.	-13.619
▁RES	-13.6191
▁CO	-13.6191
▁nnis	-13.6192
ram	-13.6197
▁usto	-13.6199
▁59.	-13.6202
▁63.	-13.6205
▁mmün	-13.6205
▁Ross	-13.6211
▁UNU	-13.6211
▁nowb	-13.6213
▁YUN	-13.6213
▁Quee	-13.6217
▁Hız	-13.6218
▁48.	-13.6233
▁urch	-13.6241
zic	-13.6255
MAM	-13.6259
▁ÜRS	-13.6262
EVİ	-13.6268
2-	-13.627
hâ	-13.6278
▁iffe	-13.6281
▁isal	-13.6282
▁TR	-13.6282
▁jok	-13.6285
▁nolo	-13.6293
▁ÖRT	-13.6294
ras	-13.6294
▁idye	-13.6295
▁orj	-13.6298
ML	-13.6308
▁AYNA	-13.6309
▁adur	-13.6318
▁Vet	-13.6329
▁UL	-13.6332
▁KLI	-13.6332
▁ush	-13.6333
▁ecur	-13.6334
▁Fua	-13.6337
▁KO	-13.6338
▁HAK	-13.6348
▁NDU	-13.6354
▁Div	-13.6363
OR	-13.6367
▁İNİ	-13.6374
unc	-13.6396
▁İv	-13.64
DL	-13.6402
▁tris	-13.6412
-2	-13.6415
TOM	-13.6417
▁zom	-13.6419
▁netm	-13.642
▁TMM	-13.6433
EKİ	-13.6436
▁izy	-13.6444
▁PR	-13.6445
▁avda	-13.645
ich	-13.6455
▁TB	-13.6455
▁8)	-13.6469
YIN	-13.647
âd	-13.6471
▁alfe	-13.648
▁ODA	-13.6483
▁"6	-13.6493
▁uinn	-13.6495
▁"5	-13.6507
esap	-13.6521
gut	-13.6526
▁ÖZLE	-13.6536
▁eşter	-13.6542
▁Nez	-13.6549
▁ürç	-13.656
▁umba	-13.6573
▁İSTE	-13.6591
▁oub	-13.6592
▁Rep	-13.6595
▁yabi	-13.66
SAR	-13.6602
▁İŞB	-13.6612
EME	-13.6621
▁Zaz	-13.6647
ovo	-13.6651
▁eib	-13.6653
ASS	-13.6675
▁ÜÇL	-13.6694
▁ENT	-13.6702
▁pole	-13.6709
▁Zo	-13.6718
ock	-13.6736
▁emp	-13.6748
MER	-13.675
▁TRO	-13.6759
▁kafi	-13.6765
▁TAŞ	-13.6768
▁LÜ	-13.6782
EMA	-13.6782
▁uant	-13.679
BUL	-13.6802
▁urne	-13.6804
▁eliz	-13.6805
HS	-13.6818
PHE	-13.6819
▁izol	-13.6825
PU	-13.6834
Jİ	-13.684
KEM	-13.6842
lük	-13.6848
EDİ	-13.6851
hur	-13.6852
ŞTÜ	-13.6856
▁İSİ	-13.6857
▁RS	-13.686
▁hus	-13.6866
▁divaç	-13.6875
▁Ved	-13.6878
▁udor	-13.6885
obb	-13.6885
tre	-13.6889
▁ssel	-13.6889
▁azga	-13.6891
▁ŞLER	-13.6893
▁YDİ	-13.6896
▁5-0	-13.6903
GAN	-13.6906
▁73.	-13.6909
▁CAT	-13.6914
way	-13.6921
▁Pisti	-13.6923
▁örg	-13.6923
▁ECLİ	-13.6926
▁EKLE	-13.6928
▁lob	-13.6937
▁455	-13.6937
▁Kuma	-13.6939
▁AZE	-13.6943
▁Nâ	-13.6944
▁Dow	-13.6947
▁55.	-13.695
▁LAH	-13.695
▁üznü	-13.695
▁ürnek	-13.6951
▁evî	-13.6964
▁Pizza	-13.6967
3-	-13.6974
ILLI	-13.6978
yaz	-13.6979
▁titü	-13.6984
AD	-13.6986
▁vola	-13.6987
▁urme	-13.699
Bo	-13.6991
udra	-13.6992
▁Dize	-13.6993
▁ibut	-13.6994
▁OÇ	-13.6996
EP	-13.6998
▁Takı	-13.6999
LDE	-13.7003
▁257	-13.7023
▁LLER	-13.7024
▁spi	-13.7043
▁iguel	-13.7055
▁IT	-13.7071
ât	-13.7074
▁MOL	-13.7087
▁Qui	-13.7091
IS	-13.7095
CD	-13.7097
▁ÜZ	-13.71
▁(5	-13.7114
LK	-13.7116
▁EDA	-13.7127
▁OLLA	-13.7142
etro	-13.7144
▁UZ	-13.715
▁KÜ	-13.715
Pİ	-13.7154
İDİ	-13.7163
▁vaj	-13.7164
▁arnı	-13.7195
LAM	-13.7203
▁fibr	-13.7217
▁ART	-13.7232
YAT	-13.7235
▁ahre	-13.7245
▁SİT	-13.7269
▁AREK	-13.7274
ŞB	-13.7274
▁ALMA	-13.728
▁pha	-13.7325
▁GİB	-13.7335
▁UTL	-13.7343
ZLİ	-13.7346
▁Mol	-13.7347
▁MUT	-13.7349
▁asb	-13.7353
▁Kov	-13.7356
▁ranj	-13.7362
KEK	-13.7363
AF	-13.7375
KIN	-13.7381
▁TAY	-13.7416
▁"7	-13.7422
KKI	-13.7444
▁RT	-13.7451
▁mott	-13.7452
TEL	-13.7461
▁lüy	-13.747
ZİN	-13.7474
▁nzer	-13.7482
▁ampu	-13.75
ARE	-13.75
▁rop	-13.75
▁Dada	-13.7501
ÖL	-13.7506
▁ucc	-13.7508
▁agan	-13.7533
▁ikor	-13.7533
iva	-13.7537
▁Cor	-13.7551
▁zad	-13.7573
▁ackl	-13.7576
kâr	-13.758
▁gue	-13.7584
GF	-13.7604
eva	-13.7605
▁PİYA	-13.7614
rif	-13.7619
EO	-13.7622
OĞU	-13.7625
▁ALKA	-13.7626
YAP	-13.7629
▁eyh	-13.7636
AGİ	-13.7637
dorf	-13.764
Tİ	-13.7641
ÂL	-13.7644
ñ	-13.7644
▁ÖRDÜ	-13.7644
▁Keşf	-13.7645
▁rnold	-13.7645
▁(6)	-13.7645
Ev	-13.7646
▁ŞİD	-13.765
▁LİDE	-13.7651
▁leck	-13.7651
▁OLCU	-13.7653
ər	-13.7654
ACI	-13.7655
▁yyü	-13.7664
ûn	-13.7673
▁а	-13.7682
▁ELİ	-13.7687
▁ŞLI	-13.769
▁358	-13.769
IF	-13.7691
▁rmon	-13.7696
▁nlığ	-13.7697
İR	-13.77
▁LİMA	-13.7703
▁tric	-13.7703
▁fıtr	-13.7704
▁hie	-13.7707
▁igua	-13.7709
▁MPİ	-13.7711
▁...	-13.7713
rus	-13.7721
▁ippe	-13.7722
▁now	-13.7727
▁DSİ	-13.7734
▁iuli	-13.7736
▁BİZ	-13.774
▁Dami	-13.7744
▁evmi	-13.7748
▁Vak	-13.7749
▁KY	-13.7751
▁9-	-13.7763
▁iham	-13.7769
▁535	-13.7769
▁mist	-13.7772
▁hett	-13.7779
▁raw	-13.7781
BAN	-13.7783
▁HES	-13.7784
AE	-13.7792
vas	-13.7793
▁80.	-13.7793
▁orch	-13.7815
▁enga	-13.7816
▁AÜ	-13.7817
oks	-13.7818
İSTE	-13.7826
▁Swa	-13.7831
▁lou	-13.7831
▁oure	-13.7835
▁Game	-13.7835
▁Kâb	-13.7838
▁mha	-13.7839
▁iylan	-13.7849
▁aud	-13.7851
ERME	-13.7854
▁KİLİ	-13.786
Zİ	-13.7864
▁sour	-13.7866
▁ANNE	-13.7872
▁irpo	-13.7877
ixel	-13.788
PJ	-13.7881
▁nkar	-13.7885
▁vira	-13.7886
▁EÇİM	-13.7889
nja	-13.789
▁ÇI	-13.7896
dü	-13.7897
RLE	-13.79
▁UG	-13.7902
▁YDA	-13.7915
▁onf	-13.7924
tür	-13.7924
▁Lum	-13.7928
▁xc	-13.7928
▁YAP	-13.7933
KAR	-13.7939
TM	-13.7943
İç	-13.7954
▁AYLA	-13.7957
wi	-13.7958
RAK	-13.7967
▁ANDI	-13.7972
▁Vis	-13.7991
▁NLİ	-13.7997
ŞE	-13.8
▁Daw	-13.8012
▁jo	-13.8012
▁AYRA	-13.8018
▁bruk	-13.8019
zole	-13.8028
▁RİZE	-13.8029
▁nog	-13.8029
HAT	-13.8037
llâh	-13.8039
▁vol	-13.8043
▁Keşif	-13.8051
▁ajo	-13.8054
▁pati	-13.8058
MP	-13.8061
▁akva	-13.8068
rwo	-13.8076
▁ix	-13.8078
▁ANIT	-13.8081
▁uck	-13.8087
lju	-13.8088
UA	-13.8089
▁ÖZDE	-13.8099
NP	-13.8101
UBU	-13.8105
▁TOR	-13.8111
LS	-13.8134
AJ	-13.8135
▁sahi	-13.8143
GÜ	-13.8159
▁DAR	-13.8161
mus	-13.8182
ÖY	-13.8194
vok	-13.82
▁MİK	-13.8201
PLA	-13.8202
EHLİ	-13.8207
KS	-13.8209
▁usz	-13.821
▁ulf	-13.8211
▁EBR	-13.8225
▁ETA	-13.8229
▁ülal	-13.8232
▁ÜRÜ	-13.8233
LKP	-13.8245
▁ULA	-13.8253
▁ZLİ	-13.8253
xx	-13.8279
İF	-13.8283
traj	-13.8289
▁pila	-13.8294
bed	-13.8295
ugos	-13.8298
▁Log	-13.8309
▁orp	-13.8324
▁NAP	-13.8324
▁DT	-13.8344
▁Nisa	-13.8348
▁Rese	-13.835
▁ÖLÜ	-13.8357
▁KAR	-13.8366
▁over	-13.8388
DB	-13.8397
İÇ	-13.8398
▁ETİ	-13.8398
▁IV	-13.84
▁dont	-13.8412
▁JP	-13.8416
▁LEL	-13.8417
foz	-13.8418
▁LEN	-13.842
ist	-13.8432
▁jim	-13.8444
▁CV	-13.8448
▁NUR	-13.8455
▁şafa	-13.847
CB	-13.8478
▁RDEM	-13.8478
▁AYGI	-13.8478
▁€	-13.8479
▁ÜKÜM	-13.8481
▁ÖRME	-13.8481
▁GSYİ	-13.8481
CM	-13.8481
PI	-13.8482
och	-13.8483
▁affe	-13.8485
dafi	-13.8487
▁ŞAK	-13.849
örpü	-13.8492
▁lütf	-13.8495
▁weat	-13.8495
▁GİDE	-13.8504
oulo	-13.8506
▁EKLİ	-13.8515
▁ÜST	-13.8515
▁ÖP	-13.8521
▁ahba	-13.8522
▁4-3	-13.8522
▁EŞİ	-13.8522
nas	-13.8525
▁pami	-13.8527
▁ESTİ	-13.8531
EMİ	-13.8531
▁ARK	-13.8539
▁elec	-13.8546
TH	-13.8548
▁kâti	-13.8552
▁kuv	-13.8552
FS	-13.8558
▁jor	-13.857
▁TGC	-13.8572
▁iety	-13.8578
▁şap	-13.8579
▁evaz	-13.8582
▁zrü	-13.8583
▁öhre	-13.8586
bas	-13.8594
SH	-13.8599
▁eytü	-13.8599
kân	-13.8601
vah	-13.8607
▁shi	-13.8608
▁ibri	-13.8609
last	-13.8612
▁1-3	-13.8615
▁toke	-13.8619
▁lapt	-13.8623
▁FK	-13.8625
ANE	-13.8635
had	-13.8642
▁urri	-13.8645
▁arro	-13.865
▁akas	-13.8654
▁She	-13.866
▁dist	-13.866
ust	-13.8664
ATLA	-13.8665
WC	-13.8665
qui	-13.8671
▁Jama	-13.8672
▁azap	-13.8677
▁ETRE	-13.8688
▁tow	-13.8692
▁uras	-13.8692
▁Zen	-13.8696
İLO	-13.8702
VC	-13.8706
▁FİNA	-13.8723
▁AHRA	-13.8727
▁AHİ	-13.8731
oj	-13.8733
TLA	-13.8738
▁EGM	-13.8743
▁ğri	-13.8747
CT	-13.8753
OG	-13.8753
▁NNE	-13.8755
▁ical	-13.8763
▁BOL	-13.8763
▁ING	-13.8765
▁TARA	-13.8765
AÜ	-13.8774
▁esar	-13.8777
▁mbar	-13.8785
▁hous	-13.8785
▁EA	-13.8789
fest	-13.8799
▁AYDA	-13.8802
iti	-13.8805
zlo	-13.8808
▁Nat	-13.8824
vet	-13.8831
▁vaiz	-13.8838
▁İP	-13.8855
▁(4	-13.8858
▁TP	-13.8859
▁Jesu	-13.8866
amad	-13.8866
ünha	-13.8868
▁uble	-13.8873
▁FER	-13.8874
NİZ	-13.8878
▁(3	-13.8881
▁coin	-13.8881
NGE	-13.8881
bes	-13.8881
▁RİM	-13.8893
▁ream	-13.8899
CC	-13.8902
İĞİ	-13.8908
İNİ	-13.8919
▁ashi	-13.892
OÇ	-13.8923
▁mos	-13.8958
▁exa	-13.8967
▁SAD	-13.8968
▁rgo	-13.8981
▁xo	-13.8985
ço	-13.8999
REK	-13.9001
▁RADA	-13.9018
YLE	-13.9027
RF	-13.9029
▁ANDA	-13.9039
▁üllü	-13.9043
urbo	-13.9045
▁onc	-13.905
▁amül	-13.905
▁emm	-13.9061
allo	-13.9067
hşa	-13.9077
▁cha	-13.9092
ous	-13.9094
▁ahta	-13.9094
▁adra	-13.9098
▁heo	-13.91
iyo	-13.9108
▁evez	-13.911
İD	-13.9114
▁ÖY	-13.9115
▁öld	-13.9117
▁EF	-13.9122
▁ÜNÜ	-13.913
▁ourn	-13.913
▁rint	-13.914
▁alâ	-13.9154
▁ŞAN	-13.9162
şev	-13.9164
▁HT	-13.9171
▁tto	-13.9172
▁zur	-13.9184
▁reva	-13.9184
his	-13.9185
▁adap	-13.9191
▁OT	-13.9194
▁kalfa	-13.9204
opp	-13.9208
▁kW	-13.9224
▁ERİN	-13.924
1-	-13.9254
IB	-13.9255
▁08	-13.926
TÜN	-13.9262
odo	-13.9262
▁ANİ	-13.9262
RIN	-13.9274
oli	-13.9275
▁PI	-13.929
▁Poo	-13.9295
▁güz	-13.9297
▁8-	-13.9297
▁CEV	-13.9299
▁REF	-13.93
bad	-13.9309
▁aure	-13.9309
AHRE	-13.9311
▁HIZL	-13.9311
▁Dö	-13.9319
▁Yed	-13.9322
KMA	-13.9322
HI	-13.9324
▁AKS	-13.9325
SAS	-13.9339
▁OLSA	-13.9343
▁omon	-13.9348
TUN	-13.936
ERGİ	-13.9367
▁DAĞ	-13.9378
▁urf	-13.9382
OKTA	-13.9385
ânâ	-13.9386
▁EÇMİ	-13.9387
▁Âl	-13.9387
▁Keşir	-13.9387
▁(%)	-13.9387
▁utxa	-13.9387
▁(8)	-13.9387
▁Nepal	-13.9387
▁Rhei	-13.9389
▁fkoş	-13.9389
▁ə	-13.939
▁4.0	-13.9392
GC	-13.9395
▁IBE	-13.9396
▁anko	-13.9405
zih	-13.9409
▁93.	-13.9411
▁ddie	-13.9412
ÜLE	-13.9413
▁efo	-13.9414
▁vaad	-13.9416
UTU	-13.9419
▁ĞLA	-13.9428
▁SEK	-13.9429
▁astr	-13.9429
▁RLI	-13.9431
▁mAh	-13.9431
▁vekâ	-13.9436
YL	-13.9438
▁nötr	-13.944
▁upla	-13.9445
▁warz	-13.9455
▁UU	-13.9458
▁TER	-13.9459
▁Horn	-13.9464
▁UKUK	-13.9468
BRİ	-13.9472
▁ŞTÜ	-13.9474
▁reig	-13.9475
UŞ	-13.9478
▁emnu	-13.9479
▁279	-13.9484
İYA	-13.949
▁Wul	-13.9491
▁ühre	-13.9494
▁CU	-13.9506
LİN	-13.9506
▁TMA	-13.9509
▁İRDİ	-13.951
▁PRO	-13.9514
▁SİZ	-13.9515
api	-13.9523
▁KD	-13.953
▁MIT	-13.9533
▁MLAR	-13.9536
Ah	-13.9541
▁İMA	-13.9541
▁EYDA	-13.9545
OKA	-13.9548
▁vşa	-13.955
▁ques	-13.9552
▁afram	-13.9559
▁SEN	-13.9559
▁agon	-13.9568
OME	-13.9583
▁830	-13.9606
▁ükûn	-13.9609
rüf	-13.9613
▁kubu	-13.9618
▁SKİ	-13.9625
ISI	-13.9632
▁NLA	-13.9633
▁önc	-13.9642
▁dwi	-13.9652
RN	-13.9655
EPE	-13.9656
▁ich	-13.9657
▁İLO	-13.966
▁Amy	-13.966
▁KTI	-13.9661
ukoz	-13.9674
UP	-13.9684
▁UK	-13.9684
▁uts	-13.9688
▁nje	-13.9689
sco	-13.9697
▁SPAR	-13.9704
KİR	-13.9708
▁ngol	-13.9724
▁Bach	-13.9725
WA	-13.9726
▁İZE	-13.973
ZA	-13.9732
▁oje	-13.974
uth	-13.9743
▁ruck	-13.9755
▁Sha	-13.9762
▁eris	-13.9766
xim	-13.9779
SL	-13.9779
ÜZÜ	-13.9791
Az	-13.9797
▁"8	-13.9799
▁amf	-13.98
▁orb	-13.9817
▁awa	-13.982
▁ehc	-13.9824
▁RUS	-13.9832
igma	-13.9843
RBİ	-13.9846
▁ident	-13.9852
▁wad	-13.988
apo	-13.9881
▁teva	-13.9888
▁vid	-13.9889
▁NO	-13.989
WE	-13.9894
▁EKİ	-13.9896
RLA	-13.9917
▁raun	-13.9925
▁WD	-13.9932
rib	-13.9942
ladı	-13.9959
▁hrar	-13.9961
VER	-13.9974
▁ext	-13.9978
bî	-13.9981
ixi	-13.9982
▁Güv	-13.9991
LVA	-14.0006
▁ÖZB	-14.001
▁RET	-14.0028
▁ezih	-14.0028
EHDİ	-14.0033
▁LİG	-14.0038
ONU	-14.0038
▁BC	-14.0039
▁ÇIK	-14.0039
▁orto	-14.0046
▁auri	-14.005
BİL	-14.0062
▁UYU	-14.0071
▁elif	-14.0103
▁Demi	-14.011
▁gatt	-14.0116
▁Rui	-14.0118
▁tape	-14.012
▁zza	-14.0137
▁akri	-14.0146
▁03	-14.0157
▁SES	-14.0181
▁aws	-14.0184
▁Wen	-14.02
jar	-14.0203
UH	-14.0206
▁ERA	-14.0208
▁TDK	-14.0215
AMU	-14.0225
▁pso	-14.0226
KIR	-14.0231
LD	-14.0232
ûr	-14.026
▁ACI	-14.0263
▁Vat	-14.0266
▁gâ	-14.0269
▁rago	-14.0272
ambo	-14.0273
RAM	-14.0277
ZAR	-14.0279
▁OĞA	-14.0282
▁ÖNLE	-14.0284
▁SUN	-14.0302
▁Şaf	-14.0318
isb	-14.0319
▁OKU	-14.0322
EX	-14.0323
▁bram	-14.0325
ûl	-14.0328
OCA	-14.033
9)	-14.0355
▁YEN	-14.0364
KTÖR	-14.0366
°	-14.0367
▁İŞİ	-14.0371
azza	-14.0384
▁söy	-14.0385
\	-14.0387
	-14.0387
▁ÖZGÜ	-14.0387
▁news	-14.0387
▁ALKI	-14.0389
▁Jaze	-14.0389
▁ünle	-14.0391
▁İYAS	-14.0392
▁ÖREV	-14.0393
▁SİVİ	-14.0393
BL	-14.0394
▁cDo	-14.0398
şap	-14.0404
PM	-14.0409
AİZ	-14.041
▁atsı	-14.0419
OV	-14.042
for	-14.042
▁mân	-14.0421
▁ŞİM	-14.0423
▁urci	-14.0435
▁ozai	-14.0436
▁NKA	-14.0438
▁aşha	-14.0439
/2	-14.044
▁PP	-14.0443
▁Talu	-14.0444
▁Gam	-14.045
aghi	-14.0451
▁OZU	-14.0456
fık	-14.046
▁kâm	-14.0462
▁7.8	-14.0464
▁Eİ	-14.0474
NC	-14.0475
HİM	-14.0475
▁riot	-14.0477
▁OW	-14.0482
▁mork	-14.0483
▁eens	-14.0491
pto	-14.0495
dot	-14.0499
▁zeva	-14.0499
▁(9	-14.0499
bih	-14.0501
▁ANE	-14.0501
NSI	-14.0502
▁ORSA	-14.0502
▁TES	-14.0504
eyik	-14.0509
▁Vade	-14.0515
SAD	-14.052
LL	-14.052
▁ORAL	-14.052
▁Wal	-14.0526
UMA	-14.053
▁2"	-14.0532
7-	-14.0533
▁ynay	-14.0534
▁keşi	-14.0535
▁joke	-14.0536
▁alto	-14.0539
▁Mora	-14.0548
▁ZÜ	-14.0548
▁talo	-14.0556
▁186	-14.0557
▁Rama	-14.0562
LDU	-14.0563
▁KÜR	-14.0572
▁İLGE	-14.0574
▁vasi	-14.0582
PF	-14.0584
▁LAYI	-14.0586
▁itro	-14.0589
▁Neg	-14.0607
▁(6	-14.061
▁tures	-14.062
▁afya	-14.0637
▁MAT	-14.0639
▁SP	-14.0639
▁orri	-14.0645
▁FİR	-14.0662
▁usik	-14.0664
OM	-14.0664
jan	-14.0674
▁Kâr	-14.0675
▁PUT	-14.068
AO	-14.0683
MEN	-14.0685
▁iroz	-14.0695
▁eppe	-14.0695
▁TLE	-14.0698
▁KAL	-14.07
▁8"	-14.0704
▁avaz	-14.071
▁KIS	-14.071
RGE	-14.0722
IG	-14.0723
VI	-14.0724
▁YP	-14.0727
▁vâd	-14.073
▁EJİ	-14.0734
▁USA	-14.0737
▁uft	-14.0752
▁kuba	-14.0753
▁Zoe	-14.0759
▁LIN	-14.0772
dolu	-14.0774
▁itre	-14.0774
TG	-14.0786
EFA	-14.0801
İZE	-14.0808
▁ELL	-14.0824
▁dorf	-14.0828
UMP	-14.084
yev	-14.0852
▁nahi	-14.087
▁İNE	-14.0892
▁IRSA	-14.0895
dw	-14.0896
▁ensu	-14.0898
▁IS	-14.0918
▁hier	-14.0923
IZLA	-14.0926
▁STÜ	-14.0928
oud	-14.0931
ello	-14.0947
NTA	-14.0949
RD	-14.097
▁ZL	-14.0975
▁love	-14.0982
▁FEM	-14.0992
born	-14.0994
NIK	-14.0997
▁WI	-14.1018
▁omur	-14.102
▁02	-14.1021
ŞKE	-14.1029
▁steğ	-14.1039
▁aq	-14.1044
RİB	-14.1046
▁ORM	-14.105
▁NGEL	-14.106
hit	-14.1063
FE	-14.1081
şâ	-14.1083
▁04	-14.1106
▁ISS	-14.1116
DİK	-14.1117
ehir	-14.1118
▁EZO	-14.1129
▁GD	-14.1135
TUR	-14.1142
OD	-14.1146
▁GEL	-14.1158
jja	-14.116
▁igar	-14.1162
▁ALÇ	-14.117
▁Sos	-14.118
ŞAM	-14.1193
▁q	-14.1212
Wh	-14.122
AST	-14.1238
▁küfr	-14.1247
▁Kadi	-14.1248
▁Lâ	-14.1258
▁EMUR	-14.1261
▁ARDİ	-14.1269
▁zav	-14.1278
▁TMİ	-14.1293
▁"9	-14.1311
âre	-14.1311
▁ahva	-14.1329
▁EVİ	-14.133
ALK	-14.1334
Fİ	-14.1335
▁Moz	-14.1341
usso	-14.1344
▁piri	-14.1362
ush	-14.1367
ŞLI	-14.137
▁ELÇ	-14.1391
exi	-14.1392
▁Ria	-14.1398
▁ALT	-14.1406
vit	-14.1408
ady	-14.1411
vî	-14.1411
ELA	-14.1412
`	-14.1421
▁Koh	-14.1434
▁angı	-14.1438
jy	-14.1441
GH	-14.1444
▁rio	-14.1445
zur	-14.1456
evbe	-14.1457
▁HİS	-14.1464
ó	-14.1477
▁stas	-14.1485
▁born	-14.1489
▁eff	-14.1489
▁Lud	-14.1493
EĞE	-14.1498
¬	-14.1498
å	-14.1498
▁aipei	-14.1498
▁riv	-14.1499
▁ESLE	-14.1499
▁$'	-14.15
UNU	-14.15
▁pija	-14.1501
▁(7)	-14.1504
▁rghe	-14.1504
▁NÖ	-14.1508
▁NRW	-14.1509
▁TU	-14.1511
SİZ	-14.1517
ZDI	-14.1517
▁MZA	-14.1518
▁RTE	-14.1523
▁7-0	-14.1526
▁RLIĞ	-14.1526
▁bego	-14.1526
URDU	-14.1527
IKMA	-14.1529
DDİ	-14.1531
▁ubbl	-14.1531
▁ires	-14.1532
KC	-14.1533
ZER	-14.1536
▁Ian	-14.1537
hop	-14.1538
▁SOM	-14.1538
RIM	-14.1543
▁ibol	-14.1544
▁74.	-14.1548
▁SAL	-14.1556
▁ZAN	-14.1558
▁vahy	-14.1586
▁ZLI	-14.1595
▁406	-14.1596
▁SAS	-14.1599
▁FP	-14.1606
YT	-14.1609
▁Rap	-14.162
▁elf	-14.1633
▁YEŞİ	-14.1637
İMİ	-14.1641
▁tuna	-14.1647
▁EGO	-14.1649
▁MOK	-14.1658
▁DAP	-14.1663
▁lüz	-14.1675
▁Deb	-14.1677
▁tkis	-14.168
▁agli	-14.168
TAY	-14.1682
▁xel	-14.1682
NLER	-14.169
▁alât	-14.169
▁TTA	-14.1698
▁roko	-14.1701
▁orbi	-14.1711
▁chai	-14.1714
▁ADD	-14.1718
ÜRT	-14.1725
▁mmar	-14.1735
MT	-14.1735
SAB	-14.1749
▁YAR	-14.176
ORU	-14.1764
▁KLA	-14.1773
▁Doç	-14.1778
8,	-14.1788
ofi	-14.1798
ssa	-14.1817
UÇ	-14.1818
▁YDU	-14.1823
▁GP	-14.1831
▁MÜD	-14.1833
▁ropi	-14.1834
▁wic	-14.184
▁igür	-14.1841
mâ	-14.1859
▁EVİR	-14.1864
▁KIYA	-14.1877
▁şasi	-14.1892
▁NLÜ	-14.1893
akti	-14.1897
▁FG	-14.1902
▁aux	-14.1906
▁AHİL	-14.1906
▁emru	-14.1921
▁Jen	-14.1931
▁Wit	-14.1933
PAN	-14.1934
▁Lut	-14.1936
▁ID	-14.1938
ARDI	-14.1973
snif	-14.1982
bû	-14.199
▁zzi	-14.1996
TRO	-14.2009
ixe	-14.2031
▁TG	-14.2033
ANS	-14.2039
▁aou	-14.2045
▁Wel	-14.2064
▁ANT	-14.2068
▁ADA	-14.207
bus	-14.208
▁İTME	-14.2086
hî	-14.2092
▁ox	-14.2098
▁roni	-14.2098
▁AKIM	-14.2098
KTI	-14.2101
cci	-14.2104
▁AİB	-14.2107
PAR	-14.2107
▁Lei	-14.2109
EST	-14.2111
▁FS	-14.2113
IZA	-14.212
▁maj	-14.2122
THE	-14.2122
▁ğne	-14.213
▁IRI	-14.2132
▁ltı	-14.2138
▁MDE	-14.214
ICE	-14.215
LAT	-14.2155
▁gru	-14.2167
SMA	-14.2167
ALI	-14.2171
▁ebb	-14.2176
▁Şark	-14.218
▁ABA	-14.2185
▁OND	-14.2192
▁arza	-14.2199
▁zone	-14.22
▁öw	-14.2201
▁lug	-14.2207
hran	-14.2213
▁YDE	-14.2214
TD	-14.2228
uss	-14.2234
▁ERGİ	-14.2235
▁soga	-14.2252
▁çup	-14.2261
Gİ	-14.2274
Le	-14.2285
▁AYAL	-14.2287
▁FİK	-14.2291
▁WA	-14.2293
▁romb	-14.2303
▁izme	-14.2303
▁ilâ	-14.2312
▁SLA	-14.2316
LP	-14.2317
▁orf	-14.2318
YON	-14.232
▁ARİ	-14.2325
▁atib	-14.2363
RAR	-14.2373
▁VI	-14.2374
▁TOS	-14.238
TAH	-14.2382
▁evab	-14.24
▁rw	-14.2449
TR	-14.2451
hai	-14.2452
▁niyo	-14.2462
mic	-14.2465
▁endo	-14.2471
▁vato	-14.2474
war	-14.2487
▁LANA	-14.2489
ERS	-14.2496
▁ERS	-14.2504
▁ükû	-14.2526
SÜ	-14.2531
NİN	-14.2536
▁Hila	-14.2548
▁ming	-14.2554
▁IM	-14.2555
DM	-14.2559
▁ajim	-14.256
elj	-14.2576
ERN	-14.2576
▁ots	-14.2591
▁EJ	-14.2591
BER	-14.2593
▁REK	-14.2596
▁RİSK	-14.2606
ILA	-14.261
▁HAM	-14.2614
ä	-14.2617
dwi	-14.2618
▁Raa	-14.2628
▁pedi	-14.2644
öz	-14.2648
BG	-14.2651
▁RÜN	-14.2651
SKİ	-14.2666
sas	-14.2666
publ	-14.2669
twar	-14.2677
▁AI	-14.2677
▁RDA	-14.2684
▁NY	-14.2685
ĞDU	-14.2687
▁URMA	-14.2698
▁OŞA	-14.2716
HL	-14.2716
bic	-14.2717
JA	-14.2735
▁misk	-14.2745
IDA	-14.2747
vv	-14.2748
▁İLÇE	-14.2748
▁güero	-14.2748
▁OĞAN	-14.2748
▁tudio	-14.2749
▁xtra	-14.2749
▁Happ	-14.2749
▁İHLA	-14.2749
▁ŞKİ	-14.275
▁1⁄	-14.2751
▁PUAN	-14.2751
▁AYVA	-14.2752
▁ál	-14.2752
▁ompe	-14.2753
▁GÖZ	-14.2753
▁ŞUBA	-14.2754
▁(3.	-14.2756
▁PAKE	-14.2758
DEŞ	-14.2759
▁İNA	-14.2765
▁Jes	-14.2768
▁Nemes	-14.2771
▁jub	-14.2771
RW	-14.2774
ĞDI	-14.2779
▁ibal	-14.278
▁urco	-14.2783
EHB	-14.2783
▁UHA	-14.2783
AAF	-14.2786
YAN	-14.2787
▁ehve	-14.2791
▁zni	-14.2792
▁eptu	-14.2792
▁idge	-14.2798
▁OY	-14.2798
MET	-14.2798
ALT	-14.2805
ype	-14.2808
▁zhan	-14.2813
MUT	-14.2815
▁PRİM	-14.2817
afti	-14.2819
▁KTÖR	-14.2824
▁ION	-14.2825
▁MİN	-14.2826
▁ICA	-14.2845
AW	-14.2847
ĞÜ	-14.2849
▁agno	-14.2852
LME	-14.2861
▁EYEC	-14.287
▁APSA	-14.2872
▁563	-14.2878
▁445	-14.2879
▁igno	-14.2881
İNLE	-14.2883
▁arx	-14.2884
▁ews	-14.2885
slo	-14.2887
▁pire	-14.2888
▁CRE	-14.2894
▁tkisi	-14.2898
▁ippo	-14.2903
RAÇ	-14.2908
▁ÖKH	-14.291
DAL	-14.2911
▁UBA	-14.2912
PN	-14.2919
▁ÜNLÜ	-14.2923
İYE	-14.2932
▁ulaç	-14.2934
▁Rug	-14.2938
îf	-14.2945
IMA	-14.2947
▁TFA	-14.2948
▁0-3	-14.2953
▁ASI	-14.2958
▁alha	-14.2963
▁DÜN	-14.2963
▁igli	-14.2968
▁JK	-14.2974
lwa	-14.2974
▁ifoz	-14.2975
IKI	-14.2982
▁Şav	-14.2992
▁erran	-14.2992
▁CB	-14.301
▁fide	-14.301
VDE	-14.3012
▁qa	-14.3016
▁PAS	-14.302
▁Bliz	-14.3023
▁(8	-14.3035
▁how	-14.3037
▁MADD	-14.304
▁poke	-14.3041
▁KC	-14.3042
ESTİ	-14.3042
▁Pist	-14.3044
▁OKTU	-14.3044
▁Kez	-14.3058
▁DU	-14.3059
▁cont	-14.3063
▁riff	-14.3065
▁PSO	-14.3066
ÖR	-14.3073
▁ATP	-14.3081
▁ruga	-14.3089
▁GA	-14.3094
▁eleg	-14.3096
▁körü	-14.3097
▁şev	-14.3101
▁RAS	-14.3101
ZİR	-14.3103
▁IA	-14.3106
▁BÜ	-14.311
▁onom	-14.3111
▁eyli	-14.3115
▁Şazi	-14.3117
▁NDR	-14.3127
▁utie	-14.3128
▁minu	-14.3133
▁AKM	-14.3134
▁igne	-14.3143
▁cK	-14.3157
▁chae	-14.3161
▁lja	-14.3168
▁ÇA	-14.3169
▁Jar	-14.3179
üv	-14.3187
▁AÇTA	-14.319
öw	-14.3199
HİS	-14.3206
▁ENGİ	-14.3209
▁Lap	-14.3209
▁gade	-14.3209
RC	-14.321
▁EKTİ	-14.3213
▁Jud	-14.3216
▁İÇE	-14.3223
ZBE	-14.3232
▁Lub	-14.3238
▁VİD	-14.3241
▁Şia	-14.3247
▁nitz	-14.3249
▁ulsa	-14.3261
MSİ	-14.3262
ÜV	-14.3267
ŞI	-14.3286
▁amon	-14.3288
▁urio	-14.3292
▁bac	-14.3295
ESS	-14.3296
▁DGS	-14.3298
▁MASK	-14.3305
▁rtro	-14.3312
▁Quin	-14.3313
▁UA	-14.3318
▁zâ	-14.3325
▁egon	-14.333
hhh	-14.3334
▁NAN	-14.3348
MYK	-14.3349
▁ÜL	-14.3356
▁sque	-14.336
▁ldo	-14.3366
▁AMER	-14.3372
▁RLE	-14.3379
▁Ovi	-14.3386
URA	-14.3396
DİN	-14.3398
HR	-14.34
NAV	-14.3411
▁Fre	-14.3426
▁ÇAK	-14.3427
RCA	-14.3435
▁**	-14.3437
STO	-14.345
▁emim	-14.3456
▁ÖZY	-14.3463
▁ÇO	-14.348
▁fıkh	-14.3482
▁OF	-14.3487
uppe	-14.3504
GV	-14.3509
▁teba	-14.3523
GT	-14.3528
ÇU	-14.3529
▁wri	-14.3538
▁ock	-14.3558
ZEN	-14.3561
âz	-14.3562
ABI	-14.3564
▁şamp	-14.357
▁SİN	-14.3628
▁Veh	-14.3644
MAR	-14.3662
▁Jeb	-14.3677
▁stab	-14.3697
oot	-14.3699
MOB	-14.37
NB	-14.3718
▁EVD	-14.372
▁ouli	-14.3722
TİP	-14.3727
▁HB	-14.3735
▁enâ	-14.3741
▁feda	-14.3741
Ve	-14.3745
▁TOPA	-14.3759
iss	-14.3768
İRİ	-14.3775
AÇA	-14.3777
▁OLO	-14.3781
▁ARMA	-14.3798
▁UÇL	-14.3807
▁OZ	-14.3807
▁azot	-14.3816
▁orna	-14.3823
KES	-14.3826
▁SUR	-14.3862
KG	-14.3874
▁ĞR	-14.3902
▁Hum	-14.3903
BV	-14.3905
SAL	-14.3915
▁romo	-14.3919
▁TEST	-14.3921
▁RIN	-14.3925
▁Kron	-14.393
▁VİN	-14.3931
▁tâ	-14.3951
GAR	-14.3973
blo	-14.3975
▁EFE	-14.3978
▁aşem	-14.3984
OZ	-14.3987
IC	-14.3996
▁ANK	-14.4006
▁fok	-14.4012
GG	-14.4024
▁ZU	-14.4028
zır	-14.4042
▁LLE	-14.4043
▁IFA	-14.4044
▁ARAT	-14.4047
▁PAO	-14.4048
org	-14.4055
▁Nami	-14.4057
▁NV	-14.4087
KRA	-14.4087
▁1/	-14.4095
II	-14.4114
▁ŞAM	-14.4127
yâ	-14.4127
▁HC	-14.4142
▁DİK	-14.4155
ÜYÜ	-14.4158
ÜÇ	-14.4159
qua	-14.4159
▁ype	-14.4159
▁laug	-14.4159
FLA	-14.4161
▁egal	-14.4162
vâ	-14.4164
She	-14.4168
yang	-14.4171
VV	-14.4173
CİH	-14.4176
■	-14.4176
▁CRR	-14.4177
▁ORÇ	-14.4177
▁ÖNDÜ	-14.4177
▁vâri	-14.4177
▁ÜĞÜN	-14.4177
▁VİC	-14.4178
▁cimri	-14.4178
İLM	-14.4181
▁SIL	-14.4182
▁Leg	-14.4182
▁LTAY	-14.4184
▁onve	-14.4186
▁IQ	-14.4188
ASTA	-14.4189
▁ouv	-14.419
▁MÜŞ	-14.4191
▁EKME	-14.4195
▁wrig	-14.4196
▁ÖNME	-14.4201
▁DEV	-14.4205
▁jud	-14.4207
▁ilsen	-14.4215
▁QN	-14.4217
▁aghi	-14.4217
▁ENK	-14.4218
▁YKB	-14.4224
ODA	-14.4224
▁ESH	-14.4226
▁YEME	-14.4234
▁Rif	-14.4235
KAD	-14.4235
VT	-14.4242
▁Mov	-14.4246
SLER	-14.4249
▁OYDU	-14.4251
▁AKA	-14.4252
▁rigo	-14.4256
▁lî	-14.4256
▁ramit	-14.4258
▁jur	-14.4259
▁lağv	-14.4259
▁0-2	-14.4261
RÜK	-14.4266
igne	-14.4266
▁amçı	-14.427
▁ARAK	-14.4276
▁5-3	-14.4276
▁nglo	-14.4276
UBA	-14.4278
▁awra	-14.4278
▁EYRE	-14.4281
▁Jaho	-14.4283
▁cdad	-14.4288
gür	-14.4296
▁nore	-14.4297
▁ÜF	-14.4297
İÖ	-14.4308
▁HKP	-14.4312
▁CAR	-14.4315
ieg	-14.4317
▁walk	-14.4319
▁RMİ	-14.4322
▁ürsü	-14.4324
▁YEK	-14.4325
▁UMAR	-14.433
WT	-14.4333
EKE	-14.4335
▁MAM	-14.4348
▁kûr	-14.4359
▁Jİ	-14.4364
▁179	-14.4382
▁riso	-14.4393
TRE	-14.4393
▁IKIŞ	-14.4396
▁İTA	-14.4396
▁STİ	-14.4402
CL	-14.4402
▁DOS	-14.4404
▁axx	-14.4407
▁Peak	-14.4407
ĞLAR	-14.4411
▁İYOR	-14.4412
▁dafi	-14.4415
▁SYA	-14.4417
▁gnia	-14.4424
AYİ	-14.4429
▁ofia	-14.4433
▁appa	-14.4439
▁IPS	-14.4443
▁ultz	-14.4455
OO	-14.4464
▁was	-14.4474
▁SLER	-14.4478
▁phi	-14.4483
▁icha	-14.4497
▁erpe	-14.4499
▁MAR	-14.4502
▁AYYU	-14.4502
▁eaut	-14.4505
▁zö	-14.4509
▁AAŞI	-14.4513
▁AMPA	-14.4517
▁ARM	-14.452
▁rion	-14.4525
RİM	-14.4529
▁cing	-14.453
▁ARAY	-14.4531
İRO	-14.4532
▁spin	-14.4535
▁224	-14.4539
▁HAT	-14.4544
pid	-14.4547
▁zoo	-14.4549
▁MÜZE	-14.4555
▁ugh	-14.456
▁USC	-14.456
▁ÇÜ	-14.4567
eiw	-14.4574
▁UÇ	-14.4582
tion	-14.459
▁volt	-14.4593
ORDU	-14.4597
aff	-14.4612
▁ZLER	-14.4613
▁KSİ	-14.4623
vli	-14.4626
▁ipho	-14.4641
▁piro	-14.4657
▁TAP	-14.4658
▁NN	-14.466
Eİ	-14.4671
▁âfi	-14.4682
▁OTU	-14.4706
ŞME	-14.4715
▁oach	-14.4718
▁RDÜ	-14.4751
▁NSI	-14.4756
▁Diet	-14.4758
▁EZİ	-14.4768
▁rwi	-14.4772
uff	-14.4773
▁RLA	-14.4776
OY	-14.4785
▁ilvi	-14.4785
VEL	-14.4788
▁accı	-14.479
RES	-14.4793
▁lady	-14.4804
pus	-14.4811
low	-14.4822
▁CHE	-14.4822
▁zap	-14.483
▁KİTA	-14.484
▁arth	-14.4857
▁AJ	-14.4861
▁iant	-14.4865
?)	-14.4866
KOD	-14.4878
▁augh	-14.4882
jav	-14.4882
▁Vec	-14.4884
ANK	-14.4894
vin	-14.4917
▁orra	-14.4956
row	-14.4969
▁HİSS	-14.4977
▁TABA	-14.4986
hre	-14.4997
TAP	-14.4998
▁WW	-14.5002
▁fly	-14.5008
LATI	-14.5025
▁achi	-14.5026
uzul	-14.5042
▁ZLAR	-14.5047
▁goda	-14.5052
NİK	-14.5055
▁Diza	-14.5066
▁Via	-14.5074
▁okel	-14.5078
▁nâ	-14.5078
▁ELAL	-14.5078
zmo	-14.509
▁quie	-14.5095
▁NIC	-14.5103
▁avli	-14.5114
▁Hub	-14.5117
ŞEK	-14.5148
PC	-14.5181
▁JA	-14.5199
VU	-14.5212
▁opm	-14.5213
ND	-14.5216
▁iano	-14.5219
hov	-14.522
▁NF	-14.5228
▁app	-14.5234
▁uff	-14.525
▁ESP	-14.5255
▁ŞEN	-14.5291
▁ZMİ	-14.5305
▁LİN	-14.5312
▁KH	-14.5313
MM	-14.5314
▁ENDE	-14.5316
âde	-14.532
▁TKİS	-14.5342
tav	-14.5357
▁LINA	-14.5359
▁ARKA	-14.5365
tö	-14.5386
▁Zac	-14.54
▁LİGİ	-14.5405
AMİ	-14.5405
▁eğre	-14.5432
▁MBA	-14.5438
HTE	-14.5448
▁İME	-14.5449
▁ISI	-14.5449
▁NTE	-14.5468
▁ORK	-14.5479
▁ŞKA	-14.548
ûb	-14.5495
VR	-14.5503
ÖG	-14.5507
▁TGS	-14.5508
EU	-14.5511
▁CH	-14.5513
PAL	-14.5521
▁BRA	-14.5526
▁MAL	-14.5526
▁AND	-14.5536
fre	-14.5545
▁ahha	-14.5547
▁ORC	-14.5558
FED	-14.5561
▁assu	-14.5573
KOL	-14.5576
OST	-14.5579
▁earn	-14.5593
▁üyü	-14.5595
▁NIM	-14.5597
yük	-14.56
▁Jai	-14.5656
ıyor	-14.566
▁NS	-14.5664
▁şarb	-14.5664
▁NAT	-14.5665
GU	-14.5667
▁nej	-14.567
RDA	-14.568
▁wor	-14.5684
CN	-14.5686
▁icaz	-14.5691
▁MED	-14.5691
hli	-14.5692
▁ERO	-14.5722
STİ	-14.5723
FES	-14.5729
GRA	-14.5734
▁jak	-14.5757
civ	-14.5771
âfi	-14.5784
▁neşr	-14.579
▁Pizz	-14.5799
FK	-14.5803
▁TÜK	-14.5805
PÜ	-14.5806
ĞU	-14.5807
▁RSA	-14.581
í	-14.582
ÇOK	-14.5824
YAZ	-14.5826
TFA	-14.5828
kâf	-14.5829
▁ŞTE	-14.5835
▁UKU	-14.5836
▁ÜŞE	-14.5839
LR	-14.584
▁ARB	-14.584
ASSA	-14.5842
×	-14.5843
▁ÜLTÜ	-14.5843
▁ORLU	-14.5843
▁İNCİ	-14.5844
▁idney	-14.5845
▁EYG	-14.5845
▁eyfus	-14.5846
▁mwen	-14.5846
▁ERCE	-14.5847
▁ıfzı	-14.5849
KOR	-14.5849
▁İNGÖ	-14.5849
▁Zere	-14.585
▁ÖÇME	-14.585
▁ARLI	-14.585
▁ÖRF	-14.5859
▁peed	-14.5859
▁rumbo	-14.586
▁EFT	-14.5861
▁"2.	-14.5866
▁EÇİŞ	-14.5867
▁ECH	-14.5868
▁ROK	-14.587
FIR	-14.587
▁JLAR	-14.5872
▁auro	-14.5873
▁Luna	-14.5875
▁ó	-14.5875
PEK	-14.5876
▁VEDA	-14.5876
▁ÖKÜ	-14.5877
▁ZMA	-14.588
▁UTMA	-14.5881
▁Keyf	-14.5881
▁Jako	-14.5881
RPA	-14.5883
▁şata	-14.5885
▁OTA	-14.5886
▁hoop	-14.5887
▁örpü	-14.5887
▁DEŞ	-14.589
▁KTİ	-14.589
▁xxon	-14.5895
▁Jade	-14.5898
UE	-14.5898
▁YUM	-14.5899
▁rozn	-14.59
▁ZDİ	-14.5909
▁shaf	-14.5909
▁gnac	-14.5914
▁ZDA	-14.5917
▁vaci	-14.5919
▁PLER	-14.5925
▁AĞDU	-14.5928
▁ÜRDÜ	-14.593
▁ÜLTE	-14.5931
▁RF	-14.5932
▁übha	-14.5936
ZDİ	-14.5937
▁İNDE	-14.5939
▁çıpa	-14.594
▁Lukac	-14.5943
▁YAT	-14.5944
▁ealt	-14.5945
▁MAY	-14.5951
ENT	-14.5957
âti	-14.5962
▁ÖZLÜ	-14.5964
▁ZALT	-14.5977
▁hoto	-14.5981
▁oeth	-14.5992
JO	-14.5994
▁Cac	-14.5995
▁lyuk	-14.6002
▁üvet	-14.6003
REM	-14.6005
▁8.6	-14.6008
RV	-14.6009
▁Gac	-14.6011
▁nju	-14.6012
▁LMİ	-14.6013
KAS	-14.6014
▁elfo	-14.6018
▁ylvi	-14.6022
▁lcon	-14.6025
▁SİLİ	-14.6027
▁mpac	-14.6035
▁DIĞI	-14.6046
▁ürşad	-14.6052
ŞMA	-14.6055
▁üsse	-14.6056
REN	-14.6058
gül	-14.6061
▁nâm	-14.6062
▁AVGA	-14.6065
▁Gamb	-14.6079
▁lley	-14.6083
▁DİŞ	-14.6084
▁iğde	-14.6086
▁Cap	-14.6088
ubli	-14.6098
▁KÜL	-14.6103
▁AHA	-14.6118
▁AMC	-14.6123
▁YLI	-14.613
FÖ	-14.613
▁toj	-14.6132
▁EKİM	-14.6134
▁611	-14.6135
▁lish	-14.6145
TOB	-14.6146
LCU	-14.6149
LV	-14.6154
▁PEN	-14.6159
▁NİK	-14.6163
▁OMA	-14.6164
▁rho	-14.6167
▁bact	-14.6168
▁öhn	-14.6172
▁Viv	-14.6176
NCA	-14.6177
▁TUN	-14.6181
▁KOR	-14.6182
▁OLDA	-14.6182
▁ADAM	-14.6195
▁elyu	-14.6199
MEL	-14.6204
▁TİF	-14.6219
▁ritü	-14.6223
sig	-14.6224
▁TED	-14.6233
▁Jir	-14.6236
▁Vig	-14.6238
LKE	-14.6249
EVE	-14.6252
▁İÇBİ	-14.6255
▁ause	-14.6262
PY	-14.6271
▁EKSİ	-14.6288
engâ	-14.629
USA	-14.6304
¡	-15.0343
®	-15.0343
ï	-15.0343
ø	-15.0343
ú	-15.0343
ć	-15.0343
⭐	-15.0343
️	-15.0343
>	-15.3657
]	-15.3657
^	-15.3676
£	-15.3676
Ä	-15.3676
à	-15.3676
о	-15.3676
●	-15.3676
🇷	-15.3676
🇹	-15.3676
ə	-15.858
%	-15.8644
	-15.8676
É	-15.8676
ß	-15.8676
ã	-15.8676
ƒ	-15.8676
α	-15.8676
і	-15.8676
د	-15.8676
س	-15.8676
ل	-15.8676
و	-15.8676
ي	-15.8676
‬	-15.8676
∂	-15.8676
☮	-15.8676
👍	-15.8676
⁄	-16.864
€	-16.8658
Л	-16.8676
п	-16.8676
μ	-16.8676
~	-16.8676
	-16.8676
Å	-16.8676
Ñ	-16.8676
Ø	-16.8676
Û	-16.8676
ë	-16.8676
ē	-16.8676
к	-16.8676
н	-16.8676
с	-16.8676
т	-16.8676
у	-16.8676
ة	-16.8676
ح	-16.8676
ر	-16.8676
غ	-16.8676
ق	-16.8676
م	-16.8676
ن	-16.8676
‫	-16.8676
›	-16.8676
🏆	-16.8676
🏻	-16.8676
👑	-16.8676
💋	-16.8676
💧	-16.8676
💰	-16.8676
😁	-16.8676
😊	-16.8676
ù	-16.8677
ł	-16.8677
ا	-17.0439
Î	-17.044
æ	-17.0441
ê	-17.0442
è	-17.0443
[	-17.0444
_	-17.0445
=	-17.0446
Â	-17.0447
$	-17.0448
•	-17.0449
@	-17.045
·	-17.0451
#	-17.0452
◊	-17.0453
Ğ	-17.0454
(	-17.0455
