<unk>	0
<s>	0
</s>	0
▁a	-0
▁i	-1
▁l	-2
▁d	-3
▁e	-4
▁n	-5
▁s	-6
▁y	-7
ar	-8
▁k	-9
er	-10
▁b	-11
▁t	-12
▁m	-13
▁.	-14
an	-15
▁o	-16
▁ı	-17
▁,	-18
▁g	-19
en	-20
▁r	-21
▁u	-22
▁'	-23
in	-24
ir	-25
▁v	-26
ak	-27
il	-28
▁lar	-29
le	-30
▁ler	-31
ın	-32
▁h	-33
▁ü	-34
▁de	-35
▁an	-36
▁in	-37
▁B	-38
▁nd	-39
la	-40
ek	-41
▁A	-42
▁ya	-43
or	-44
al	-45
▁ç	-46
▁ve	-47
▁ar	-48
▁da	-49
el	-50
ma	-51
▁ol	-52
▁"	-53
et	-54
▁T	-55
▁ma	-56
di	-57
un	-58
▁ın	-59
▁bir	-60
▁S	-61
▁K	-62
▁ö	-63
ık	-64
▁p	-65
de	-66
da	-67
aş	-68
▁li	-69
ıl	-70
▁al	-71
▁en	-72
ğı	-73
▁ka	-74
▁ş	-75
ya	-76
dı	-77
st	-78
▁1	-79
▁M	-80
ği	-81
yor	-82
▁f	-83
iz	-84
▁il	-85
on	-86
ur	-87
▁et	-88
▁z	-89
▁c	-90
▁bu	-91
ki	-92
▁er	-93
ür	-94
es	-95
▁di	-96
ır	-97
▁D	-98
ün	-99
sı	-100
▁ne	-101
at	-102
ış	-103
▁gö	-104
▁2	-105
me	-106
▁E	-107
▁G	-108
li	-109
▁H	-110
▁nı	-111
▁si	-112
▁un	-113
▁İ	-114
ti	-115
▁0	-116
▁ye	-117
▁ay	-118
▁iç	-119
▁yap	-120
iş	-121
▁ed	-122
▁te	-123
▁leri	-124
am	-125
▁on	-126
▁nin	-127
lar	-128
▁Y	-129
▁na	-130
▁nda	-131
ığı	-132
▁sı	-133
▁ni	-134
ta	-135
▁ir	-136
▁sa	-137
du	-138
▁nın	-139
im	-140
ka	-141
▁-	-142
▁ac	-143
ra	-144
▁la	-145
ce	-146
▁ta	-147
▁at	-148
▁için	-149
▁P	-150
▁im	-151
▁ha	-152
▁C	-153
em	-154
eri	-155
ok	-156
▁nde	-157
▁F	-158
re	-159
ul	-160
▁O	-161
▁ğ	-162
▁ları	-163
um	-164
▁ab	-165
▁ile	-166
tı	-167
▁kar	-168
ye	-169
▁me	-170
▁ist	-171
▁baş	-172
▁lik	-173
▁or	-174
esi	-175
▁ama	-176
▁le	-177
ol	-178
yle	-179
▁ak	-180
ara	-181
▁ra	-182
üz	-183
ke	-184
▁oldu	-185
▁Tür	-186
▁gel	-187
uş	-188
▁3	-189
it	-190
▁ün	-191
▁ver	-192
ız	-193
ım	-194
▁ul	-195
▁is	-196
▁ara	-197
▁ek	-198
▁ur	-199
ük	-200
▁aç	-201
▁den	-202
ik	-203
▁dı	-204
▁du	-205
▁5	-206
▁iyor	-207
▁sin	-208
▁ev	-209
▁iş	-210
ön	-211
sa	-212
ha	-213
▁lı	-214
▁ıl	-215
▁R	-216
şı	-217
▁çık	-218
az	-219
ut	-220
▁ması	-221
▁iz	-222
▁:	-223
▁bul	-224
üş	-225
uk	-226
▁az	-227
▁ti	-228
▁dan	-229
▁N	-230
▁4	-231
▁6	-232
▁se	-233
▁sın	-234
▁ec	-235
▁Türki	-236
oğ	-237
▁Bu	-238
ör	-239
lu	-240
te	-241
▁ge	-242
▁ndan	-243
▁Ş	-244
▁el	-245
▁lan	-246
lı	-247
▁es	-248
▁ki	-249
▁Ç	-250
▁uz	-251
endi	-252
▁L	-253
ah	-254
▁lık	-255
▁iy	-256
▁üz	-257
▁Ö	-258
▁olduğ	-259
▁acak	-260
ler	-261
cı	-262
▁bil	-263
dan	-264
üm	-265
▁aş	-266
▁ko	-267
▁kal	-268
▁tı	-269
▁ön	-270
▁yer	-271
aki	-272
▁sö	-273
▁ger	-274
▁ik	-275
▁as	-276
iy	-277
bi	-278
▁yıl	-279
▁to	-280
▁gi	-281
▁bel	-282
▁etti	-283
▁larak	-284
▁(	-285
ca	-286
▁ter	-287
is	-288
onu	-289
▁re	-290
▁kad	-291
▁edil	-292
▁su	-293
ül	-294
▁um	-295
▁yan	-296
den	-297
▁9	-298
▁ecek	-299
gi	-300
ey	-301
▁)	-302
▁çok	-303
▁bulun	-304
▁ği	-305
ro	-306
▁olan	-307
▁çal	-308
▁ül	-309
▁em	-310
cu	-311
▁ıyor	-312
▁ele	-313
▁onra	-314
eni	-315
▁geç	-316
▁ır	-317
▁mak	-318
▁7	-319
▁mil	-320
▁var	-321
lan	-322
▁dığı	-323
▁diği	-324
▁bü	-325
▁tan	-326
▁mü	-327
▁ise	-328
▁dur	-329
▁karşı	-330
▁çalış	-331
dü	-332
▁gün	-333
▁gör	-334
▁am	-335
▁değ	-336
▁ey	-337
▁kur	-338
▁tır	-339
▁unu	-340
cak	-341
▁ine	-342
▁daha	-343
▁Baş	-344
▁av	-345
ci	-346
▁uy	-347
ağı	-348
▁V	-349
por	-350
▁ım	-351
ay	-352
ları	-353
▁bin	-354
▁8	-355
▁yapıl	-356
▁göre	-357
ru	-358
▁kay	-359
bil	-360
▁U	-361
▁top	-362
▁belir	-363
▁bö	-364
▁yar	-365
be	-366
▁laş	-367
ge	-368
▁yüz	-369
▁yaş	-370
işi	-371
▁liği	-372
▁nden	-373
▁mesi	-374
▁ağ	-375
▁açık	-376
çe	-377
▁yla	-378
yon	-379
kı	-380
▁inin	-381
▁tir	-382
▁ür	-383
▁ah	-384
▁kişi	-385
▁yi	-386
▁acağı	-387
uz	-388
▁ece	-389
ken	-390
▁mış	-391
us	-392
▁yak	-393
ste	-394
▁yle	-395
va	-396
aman	-397
▁yön	-398
yük	-399
▁ğı	-400
▁if	-401
▁oy	-402
lay	-403
▁ba	-404
▁tara	-405
man	-406
▁tar	-407
▁düş	-408
▁taraf	-409
▁oğ	-410
za	-411
▁abil	-412
▁do	-413
▁po	-414
▁mek	-415
let	-416
si	-417
▁bo	-418
▁dır	-419
▁kadar	-420
yo	-421
▁başla	-422
▁gibi	-423
na	-424
se	-425
▁sun	-426
▁lu	-427
▁konu	-428
▁mal	-429
▁üzeri	-430
era	-431
▁ör	-432
▁sor	-433
▁dön	-434
▁arası	-435
üt	-436
sta	-437
▁dev	-438
▁yı	-439
▁lığı	-440
▁ce	-441
▁dedi	-442
▁öz	-443
▁miş	-444
ba	-445
▁söyle	-446
▁yeni	-447
▁ad	-448
▁Z	-449
▁gü	-450
▁kendi	-451
yat	-452
▁mi	-453
▁ında	-454
eş	-455
▁anla	-456
▁Ü	-457
bul	-458
▁şe	-459
▁arak	-460
▁eceği	-461
▁son	-462
▁ülke	-463
▁terör	-464
▁bak	-465
gil	-466
▁ından	-467
▁böl	-468
▁sür	-469
▁açıkl	-470
▁tığı	-471
▁art	-472
▁miz	-473
▁it	-474
▁gerek	-475
▁yol	-476
▁ardı	-477
▁erek	-478
▁alın	-479
pa	-480
▁fa	-481
▁onuş	-482
▁taş	-483
ih	-484
▁?	-485
ünya	-486
▁her	-487
▁dir	-488
lis	-489
▁ının	-490
▁inde	-491
ade	-492
▁larda	-493
▁nun	-494
▁düz	-495
▁pro	-496
▁büyük	-497
▁alan	-498
eki	-499
▁doğ	-500
lık	-501
san	-502
▁ot	-503
▁ih	-504
▁AB	-505
▁hak	-506
▁ük	-507
▁sal	-508
▁eş	-509
▁karar	-510
hu	-511
▁ri	-512
▁sağ	-513
▁get	-514
▁kları	-515
ekil	-516
▁getir	-517
▁ilk	-518
▁zaman	-519
▁ifade	-520
▁yor	-521
▁eme	-522
▁ların	-523
▁syon	-524
▁mu	-525
▁ok	-526
▁tur	-527
▁neden	-528
▁ını	-529
▁eki	-530
▁ini	-531
▁ğın	-532
▁mız	-533
▁uyor	-534
met	-535
ali	-536
▁aber	-537
leş	-538
▁dar	-539
▁lendi	-540
▁id	-541
▁lü	-542
▁man	-543
▁ap	-544
▁yüzde	-545
▁ril	-546
▁ayr	-547
▁tut	-548
▁Türk	-549
▁değil	-550
▁maç	-551
▁kat	-552
▁Ka	-553
▁tak	-554
▁Cum	-555
▁I	-556
▁Cumhu	-557
mak	-558
▁İst	-559
▁may	-560
▁eç	-561
güt	-562
▁iki	-563
▁iste	-564
▁şeh	-565
▁ten	-566
ven	-567
▁diye	-568
▁tu	-569
▁devam	-570
ere	-571
▁öl	-572
▁ağı	-573
▁Başka	-574
▁Bak	-575
▁ndaki	-576
ren	-577
▁nt	-578
▁len	-579
▁kt	-580
▁kap	-581
ne	-582
▁eden	-583
▁deki	-584
ile	-585
▁anbul	-586
ğü	-587
cü	-588
▁oğlu	-589
▁ci	-590
▁gen	-591
leri	-592
▁ebil	-593
▁şu	-594
▁ada	-595
▁ren	-596
▁mo	-597
▁durum	-598
▁önce	-599
iler	-600
▁kö	-601
▁olay	-602
tü	-603
▁bek	-604
▁Ko	-605
laş	-606
▁ilgil	-607
▁men	-608
iye	-609
▁imi	-610
▁!	-611
▁düzen	-612
ğer	-613
▁yaşa	-614
▁altı	-615
▁siz	-616
▁sev	-617
▁ulla	-618
mek	-619
▁kı	-620
▁yun	-621
▁üre	-622
▁nl	-623
▁ken	-624
▁Mü	-625
▁milyo	-626
▁rı	-627
▁imiz	-628
▁ullan	-629
▁saat	-630
▁insan	-631
▁nem	-632
▁op	-633
bir	-634
▁lara	-635
▁;	-636
▁ip	-637
▁biz	-638
▁iyi	-639
▁ço	-640
▁duğ	-641
▁kr	-642
▁örgüt	-643
▁lerde	-644
▁vur	-645
▁etme	-646
▁söz	-647
▁adı	-648
▁Öz	-649
▁iyet	-650
▁ayı	-651
▁evlet	-652
▁yaz	-653
▁nemli	-654
▁gir	-655
▁iya	-656
▁Bir	-657
▁ban	-658
▁bölge	-659
▁Al	-660
▁olma	-661
▁sında	-662
▁par	-663
▁dış	-664
▁maya	-665
▁özel	-666
▁mey	-667
▁göste	-668
▁spor	-669
▁saldı	-670
▁os	-671
▁yok	-672
kan	-673
▁üç	-674
▁bilgi	-675
▁daki	-676
▁anı	-677
▁aldı	-678
▁unda	-679
▁Gaz	-680
ran	-681
▁st	-682
tu	-683
▁J	-684
▁yönet	-685
ip	-686
▁lerin	-687
▁hem	-688
ini	-689
▁Gen	-690
▁dünya	-691
▁değer	-692
▁uriye	-693
▁eli	-694
ira	-695
▁gerç	-696
gu	-697
▁rd	-698
öz	-699
▁haf	-700
▁yet	-701
▁gid	-702
▁ABD	-703
lü	-704
▁rdi	-705
▁kleri	-706
cuk	-707
▁güven	-708
▁ğını	-709
ılar	-710
▁içind	-711
▁10	-712
▁sine	-713
▁polis	-714
▁öğ	-715
▁duy	-716
ber	-717
▁edi	-718
ve	-719
▁şey	-720
▁ala	-721
▁ke	-722
▁ımız	-723
▁Ha	-724
▁ut	-725
▁çıkar	-726
▁nlığı	-727
▁iyle	-728
ji	-729
▁gelen	-730
▁met	-731
▁üst	-732
▁tarih	-733
▁tem	-734
▁kim	-735
▁ran	-736
▁ekleş	-737
▁mı	-738
▁tür	-739
▁sır	-740
▁tek	-741
ad	-742
▁han	-743
▁cı	-744
▁kes	-745
yla	-746
▁landı	-747
▁takım	-748
gı	-749
▁iliş	-750
▁dönem	-751
▁rb	-752
▁başka	-753
nı	-754
dir	-755
▁bun	-756
▁sinde	-757
▁İs	-758
mi	-759
▁ız	-760
▁sah	-761
▁üks	-762
▁ale	-763
▁ort	-764
miş	-765
▁ıp	-766
▁luk	-767
ılı	-768
▁hasta	-769
▁vru	-770
▁Baka	-771
▁rbaş	-772
▁ede	-773
cad	-774
▁Mu	-775
▁haber	-776
▁ilişk	-777
▁una	-778
▁rdoğ	-779
▁Rus	-780
lem	-781
ET	-782
▁ına	-783
▁sonu	-784
▁zor	-785
▁opera	-786
▁şekil	-787
▁rbaşk	-788
▁lüğü	-789
ine	-790
▁İl	-791
▁ade	-792
atan	-793
▁ıldı	-794
▁rül	-795
▁uş	-796
▁can	-797
▁kaz	-798
▁rme	-799
▁uyg	-800
▁Mah	-801
▁likte	-802
▁sil	-803
▁ro	-804
▁res	-805
▁leş	-806
▁istem	-807
▁nün	-808
▁kayb	-809
▁FET	-810
arı	-811
▁sini	-812
▁vrupa	-813
▁ral	-814
▁FETÖ	-815
hmet	-816
▁hayat	-817
he	-818
▁üyor	-819
▁sağla	-820
gün	-821
▁ça	-822
▁bağ	-823
▁lo	-824
▁uç	-825
▁hafta	-826
▁tüm	-827
▁nız	-828
▁net	-829
▁lere	-830
▁ici	-831
dür	-832
▁azla	-833
▁esi	-834
ri	-835
▁ru	-836
▁çocuk	-837
▁isti	-838
▁lira	-839
▁15	-840
▁malar	-841
▁ünde	-842
▁kazan	-843
▁soru	-844
▁har	-845
▁yanı	-846
▁biri	-847
je	-848
▁vatan	-849
▁tü	-850
▁san	-851
dia	-852
▁ceza	-853
▁hakkı	-854
▁yuncu	-855
▁dü	-856
▁kam	-857
▁Da	-858
▁arı	-859
▁niz	-860
ker	-861
▁görev	-862
▁ndeki	-863
▁lama	-864
if	-865
ğiş	-866
▁sav	-867
▁iriş	-868
öyle	-869
▁geldi	-870
cel	-871
▁yakın	-872
▁git	-873
▁daş	-874
▁Li	-875
▁topla	-876
▁geliş	-877
▁dolar	-878
ono	-879
▁katıl	-880
▁likle	-881
▁kan	-882
▁Genel	-883
▁us	-884
▁mes	-885
▁fi	-886
▁rah	-887
▁Müdür	-888
▁Ak	-889
▁doğru	-890
▁kadın	-891
▁ulaş	-892
erke	-893
▁rta	-894
▁değiş	-895
▁bas	-896
ret	-897
çi	-898
▁verdi	-899
▁mücad	-900
▁madı	-901
▁oto	-902
▁süre	-903
rı	-904
▁bah	-905
▁aynı	-906
▁ark	-907
▁yaşı	-908
iyet	-909
▁ben	-910
▁nk	-911
▁sinin	-912
▁zal	-913
▁haz	-914
▁kor	-915
▁Gazet	-916
ına	-917
▁adece	-918
▁bakan	-919
▁ekip	-920
▁olmak	-921
▁erk	-922
▁hazır	-923
▁An	-924
aray	-925
▁anlat	-926
rol	-927
kü	-928
▁zi	-929
▁til	-930
▁­	-931
▁asker	-932
▁kü	-933
rada	-934
▁etk	-935
▁anan	-936
▁iler	-937
▁lay	-938
▁Şu	-939
▁darbe	-940
▁af	-941
▁mut	-942
▁iddia	-943
▁nü	-944
▁say	-945
▁sahip	-946
▁ku	-947
▁Bü	-948
▁mez	-949
KK	-950
▁riyet	-951
▁orta	-952
▁bır	-953
▁bırak	-954
uştu	-955
▁sız	-956
▁nc	-957
art	-958
▁harek	-959
▁unlar	-960
▁nma	-961
ram	-962
▁üksek	-963
▁ikk	-964
ni	-965
▁kayd	-966
▁sel	-967
▁Fen	-968
▁inden	-969
▁Beş	-970
mam	-971
▁üret	-972
▁baz	-973
▁ikkat	-974
▁nkara	-975
▁düşü	-976
▁diğer	-977
▁kaç	-978
▁PKK	-979
▁yay	-980
ot	-981
▁şir	-982
▁edef	-983
▁TL	-984
▁Biz	-985
▁veya	-986
üp	-987
▁Ay	-988
▁para	-989
▁yür	-990
▁ış	-991
▁çıktı	-992
ap	-993
▁Fener	-994
▁bahçe	-995
▁kır	-996
▁ca	-997
▁Gö	-998
▁/	-999
▁sunda	-1000
▁tiği	-1001
▁rtaya	-1002
▁ladı	-1003
▁suç	-1004
▁yapan	-1005
▁enler	-1006
▁üm	-1007
▁tıl	-1008
▁hava	-1009
ete	-1010
▁inan	-1011
▁üzere	-1012
▁azete	-1013
▁görüş	-1014
▁raf	-1015
yas	-1016
▁ans	-1017
▁rt	-1018
▁dem	-1019
▁aşkan	-1020
▁arka	-1021
▁deste	-1022
▁kez	-1023
▁larla	-1024
atış	-1025
▁yöne	-1026
▁mah	-1027
▁rs	-1028
▁Er	-1029
▁W	-1030
▁ayın	-1031
▁bekle	-1032
▁kapsa	-1033
▁yen	-1034
▁Beşik	-1035
▁öğren	-1036
▁Par	-1037
▁Spor	-1038
inc	-1039
ev	-1040
▁İn	-1041
▁gram	-1042
tar	-1043
▁mel	-1044
▁sına	-1045
▁ez	-1046
▁istan	-1047
00	-1048
▁tele	-1049
▁alata	-1050
▁şehir	-1051
iyar	-1052
▁maz	-1053
▁nce	-1054
▁andı	-1055
▁lanan	-1056
▁uygul	-1057
▁aha	-1058
▁Rusya	-1059
▁bazı	-1060
▁şirke	-1061
▁isim	-1062
▁tep	-1063
▁Dünya	-1064
▁sık	-1065
▁amada	-1066
▁ndı	-1067
▁nu	-1068
▁çı	-1069
▁hat	-1070
▁Söz	-1071
▁Ancak	-1072
▁saray	-1073
▁fil	-1074
▁mille	-1075
▁lerle	-1076
▁aile	-1077
▁sorun	-1078
▁sü	-1079
▁ks	-1080
▁araç	-1081
▁geçen	-1082
▁bugün	-1083
▁muh	-1084
▁etki	-1085
▁tiril	-1086
tün	-1087
▁luğ	-1088
▁içeri	-1089
▁fiyat	-1090
▁gol	-1091
▁açıl	-1092
▁der	-1093
▁nıl	-1094
▁sıra	-1095
▁zaltı	-1096
▁taşı	-1097
▁lt	-1098
▁ayrı	-1099
▁sürdü	-1100
▁ns	-1101
▁yapı	-1102
lik	-1103
▁per	-1104
▁seç	-1105
▁rak	-1106
▁tamam	-1107
▁proje	-1108
yal	-1109
▁gru	-1110
şa	-1111
▁rek	-1112
▁eği	-1113
▁günü	-1114
▁nas	-1115
▁Su	-1116
▁osyal	-1117
▁onun	-1118
▁ağlık	-1119
▁liler	-1120
▁Son	-1121
▁ihti	-1122
▁tör	-1123
▁be	-1124
üs	-1125
azar	-1126
▁arklı	-1127
▁tah	-1128
▁şek	-1129
▁adam	-1130
▁miyor	-1131
▁leme	-1132
▁silah	-1133
▁bile	-1134
ite	-1135
▁olo	-1136
▁Ama	-1137
▁kurul	-1138
▁oyna	-1139
▁ağır	-1140
▁tanı	-1141
▁ğim	-1142
▁oruş	-1143
▁Kara	-1144
▁rü	-1145
▁turma	-1146
mış	-1147
▁Bun	-1148
▁ng	-1149
▁ic	-1150
▁taki	-1151
niy	-1152
▁üs	-1153
nde	-1154
▁gönde	-1155
dav	-1156
▁kon	-1157
lah	-1158
▁yu	-1159
▁hali	-1160
▁yayın	-1161
▁nasıl	-1162
▁milya	-1163
▁rsite	-1164
▁İş	-1165
▁iti	-1166
▁müş	-1167
lam	-1168
▁bildi	-1169
▁erken	-1170
▁izmet	-1171
▁şöyle	-1172
bo	-1173
▁uv	-1174
▁sez	-1175
▁tırma	-1176
id	-1177
▁ıra	-1178
▁öldü	-1179
▁urada	-1180
imdi	-1181
▁ancak	-1182
▁Gül	-1183
muz	-1184
▁sezon	-1185
▁ntrol	-1186
▁anlaş	-1187
alı	-1188
▁maçı	-1189
▁güç	-1190
▁mad	-1191
▁eçti	-1192
▁geçir	-1193
▁kul	-1194
▁kli	-1195
▁mik	-1196
bu	-1197
▁yaral	-1198
▁his	-1199
▁rab	-1200
▁plan	-1201
▁arkad	-1202
▁ğren	-1203
▁mar	-1204
▁nok	-1205
▁kız	-1206
▁tam	-1207
▁ğini	-1208
▁ıyla	-1209
▁ing	-1210
▁emmuz	-1211
▁üc	-1212
▁oyun	-1213
nik	-1214
▁ep	-1215
▁dik	-1216
▁ıcı	-1217
ında	-1218
▁işlem	-1219
▁ık	-1220
▁üp	-1221
mba	-1222
▁laşık	-1223
▁böyle	-1224
iç	-1225
▁hal	-1226
▁he	-1227
▁ildi	-1228
▁ğrenc	-1229
▁De	-1230
▁metre	-1231
▁nokta	-1232
▁sını	-1233
▁ehmet	-1234
yü	-1235
▁mcı	-1236
▁eğit	-1237
▁Parti	-1238
▁yasa	-1239
▁tedav	-1240
▁acı	-1241
▁öde	-1242
▁rdü	-1243
▁duğu	-1244
▁lenen	-1245
▁Gü	-1246
▁göz	-1247
▁kabul	-1248
▁edya	-1249
▁tutuk	-1250
▁aşa	-1251
▁lanma	-1252
▁kil	-1253
▁nel	-1254
▁To	-1255
▁aba	-1256
▁kent	-1257
▁ekono	-1258
ga	-1259
▁siniz	-1260
gan	-1261
▁geri	-1262
fa	-1263
▁yük	-1264
▁genel	-1265
▁alt	-1266
bol	-1267
▁eled	-1268
▁sonuc	-1269
▁medi	-1270
▁unun	-1271
▁luştu	-1272
▁sen	-1273
▁Büyük	-1274
▁düşün	-1275
▁eski	-1276
▁aki	-1277
▁lük	-1278
ça	-1279
▁uğ	-1280
▁bomba	-1281
▁ilçe	-1282
▁oloji	-1283
▁ntı	-1284
▁gece	-1285
▁ğimiz	-1286
dın	-1287
▁bölüm	-1288
▁mında	-1289
▁eng	-1290
▁â	-1291
▁Re	-1292
▁ardım	-1293
mız	-1294
▁şehit	-1295
▁bütün	-1296
▁itiba	-1297
der	-1298
▁okul	-1299
▁tale	-1300
▁Ter	-1301
▁çi	-1302
▁dün	-1303
▁film	-1304
▁uzun	-1305
▁j	-1306
▁ekt	-1307
AR	-1308
▁gu	-1309
▁merke	-1310
▁ana	-1311
▁lma	-1312
▁mıyor	-1313
▁telef	-1314
▁Ben	-1315
▁oran	-1316
▁dava	-1317
▁şüp	-1318
▁şüphe	-1319
▁Yeni	-1320
▁ğin	-1321
▁sınır	-1322
▁etkil	-1323
dır	-1324
▁içbir	-1325
▁yağ	-1326
▁aka	-1327
▁ayısı	-1328
▁ırken	-1329
şe	-1330
▁sının	-1331
▁so	-1332
▁önün	-1333
▁ait	-1334
▁orm	-1335
mı	-1336
HP	-1337
▁erkes	-1338
▁Terör	-1339
▁for	-1340
▁köy	-1341
ğın	-1342
▁tti	-1343
▁rağ	-1344
▁far	-1345
▁yakal	-1346
▁ilgi	-1347
tür	-1348
▁om	-1349
▁12	-1350
▁rağme	-1351
▁meye	-1352
▁koy	-1353
▁Ne	-1354
utbo	-1355
▁lcu	-1356
▁güz	-1357
as	-1358
▁etmek	-1359
▁kilo	-1360
▁ikinc	-1361
▁ika	-1362
▁üye	-1363
▁kika	-1364
çok	-1365
▁çıkan	-1366
pit	-1367
▁yetki	-1368
▁pu	-1369
▁Yıl	-1370
▁vurgu	-1371
▁diy	-1372
▁olayı	-1373
▁ündem	-1374
▁yat	-1375
▁olur	-1376
▁bekl	-1377
▁irçok	-1378
ulu	-1379
▁genç	-1380
▁amay	-1381
▁aya	-1382
▁kaldı	-1383
▁AK	-1384
▁Mahal	-1385
▁espit	-1386
▁ıs	-1387
▁anda	-1388
▁ze	-1389
oğu	-1390
▁20	-1391
▁rma	-1392
▁11	-1393
▁kra	-1394
su	-1395
▁min	-1396
▁ner	-1397
▁öne	-1398
▁çöz	-1399
▁Ali	-1400
▁Em	-1401
▁tırım	-1402
▁lesi	-1403
▁laşma	-1404
▁Po	-1405
rans	-1406
▁Her	-1407
▁w	-1408
▁ste	-1409
are	-1410
▁bunu	-1411
▁savaş	-1412
▁rün	-1413
▁amadı	-1414
▁anlam	-1415
▁bağlı	-1416
▁ize	-1417
▁dile	-1418
▁din	-1419
▁mod	-1420
▁elim	-1421
▁Gün	-1422
▁mev	-1423
▁bera	-1424
▁türk	-1425
cek	-1426
▁mayı	-1427
▁futbo	-1428
deş	-1429
▁onlar	-1430
▁ardeş	-1431
▁tane	-1432
▁ğü	-1433
▁Zaman	-1434
▁sürec	-1435
▁toplu	-1436
▁rım	-1437
▁sonuç	-1438
▁veren	-1439
▁Ana	-1440
▁kayna	-1441
▁satış	-1442
▁vekil	-1443
▁urulu	-1444
▁Hasta	-1445
▁lider	-1446
▁oluş	-1447
▁parti	-1448
▁atan	-1449
▁oca	-1450
▁akat	-1451
▁ris	-1452
▁güzel	-1453
▁ihtiy	-1454
▁izin	-1455
fi	-1456
▁incel	-1457
▁elir	-1458
AN	-1459
zo	-1460
▁ndi	-1461
▁yö	-1462
▁leşme	-1463
▁uk	-1464
▁Yıldı	-1465
▁dırıl	-1466
▁fir	-1467
▁erke	-1468
▁kamu	-1469
▁atl	-1470
▁atıl	-1471
▁puan	-1472
▁utbol	-1473
aj	-1474
▁fer	-1475
▁muş	-1476
▁lç	-1477
▁ilen	-1478
▁Özel	-1479
▁iye	-1480
ER	-1481
▁avcı	-1482
▁Sözcü	-1483
▁kol	-1484
▁deniz	-1485
▁ahi	-1486
▁ant	-1487
▁engel	-1488
▁yenid	-1489
▁İngil	-1490
▁imza	-1491
ını	-1492
▁mizin	-1493
▁hiç	-1494
▁pek	-1495
▁kıs	-1496
▁teki	-1497
▁mem	-1498
▁ateş	-1499
ylem	-1500
▁mobil	-1501
▁çev	-1502
▁tık	-1503
▁ullah	-1504
aka	-1505
▁kten	-1506
▁ayrıl	-1507
▁Musta	-1508
▁Üni	-1509
▁ziyar	-1510
▁Ban	-1511
▁attı	-1512
▁ciler	-1513
▁meler	-1514
▁alanı	-1515
▁tedir	-1516
▁şekli	-1517
▁Am	-1518
▁ton	-1519
▁aylaş	-1520
▁berab	-1521
▁kurum	-1522
▁yine	-1523
▁dil	-1524
▁madan	-1525
▁ati	-1526
▁grup	-1527
▁yacak	-1528
▁Ünive	-1529
▁piy	-1530
▁krar	-1531
▁bizim	-1532
▁Pro	-1533
▁ünü	-1534
▁lat	-1535
▁lman	-1536
unm	-1537
▁piyon	-1538
▁malı	-1539
▁pazar	-1540
▁nması	-1541
▁Den	-1542
▁Mil	-1543
▁önem	-1544
▁rabzo	-1545
▁üçler	-1546
▁aday	-1547
▁Dem	-1548
şam	-1549
ter	-1550
izi	-1551
▁amaz	-1552
▁artık	-1553
▁yükse	-1554
▁nayas	-1555
▁gitti	-1556
▁yürü	-1557
yaz	-1558
▁Dr	-1559
▁ırası	-1560
▁oku	-1561
▁çağ	-1562
urt	-1563
▁görü	-1564
▁meyda	-1565
▁öğret	-1566
▁viz	-1567
▁erkez	-1568
▁seçim	-1569
▁has	-1570
▁ıldız	-1571
▁rne	-1572
▁Yön	-1573
▁ince	-1574
▁fot	-1575
▁ydı	-1576
▁sürü	-1577
▁diyor	-1578
▁Emniy	-1579
▁gelir	-1580
▁rci	-1581
▁CHP	-1582
▁ölüm	-1583
▁ürün	-1584
▁eğ	-1585
▁erç	-1586
▁ıllar	-1587
▁est	-1588
▁hale	-1589
vil	-1590
▁Ata	-1591
▁ydi	-1592
▁dere	-1593
▁kısa	-1594
▁rken	-1595
▁undan	-1596
ekl	-1597
▁ürü	-1598
▁rol	-1599
▁mis	-1600
▁ser	-1601
▁Yönet	-1602
▁Ameri	-1603
▁Bo	-1604
▁tra	-1605
uma	-1606
▁Deniz	-1607
▁`	-1608
▁lıyor	-1609
ımı	-1610
▁rüntü	-1611
▁avunm	-1612
▁dönüş	-1613
▁yurt	-1614
▁Ahmet	-1615
▁cil	-1616
▁Ar	-1617
▁Kur	-1618
sun	-1619
▁İz	-1620
▁ledi	-1621
▁ulus	-1622
▁adım	-1623
▁eşi	-1624
▁otur	-1625
▁ağa	-1626
▁Bakan	-1627
▁uzak	-1628
▁rmek	-1629
len	-1630
▁artır	-1631
▁DA	-1632
▁Demir	-1633
▁lmany	-1634
▁yazı	-1635
▁tildi	-1636
▁atı	-1637
▁zar	-1638
▁üne	-1639
▁za	-1640
▁tük	-1641
▁ers	-1642
▁fotoğ	-1643
▁rdiği	-1644
▁nen	-1645
▁mıştı	-1646
▁Lig	-1647
▁bi	-1648
▁mağ	-1649
▁ahibi	-1650
▁hep	-1651
rak	-1652
▁cü	-1653
▁çar	-1654
▁Ya	-1655
▁iyasi	-1656
▁onu	-1657
▁banka	-1658
▁elirl	-1659
▁lek	-1660
▁iyasa	-1661
▁azı	-1662
▁elek	-1663
▁Bunun	-1664
ic	-1665
bat	-1666
▁30	-1667
▁nacak	-1668
▁ışı	-1669
▁sok	-1670
▁Milli	-1671
▁ültür	-1672
▁end	-1673
▁tepki	-1674
▁yargı	-1675
▁Os	-1676
▁Daha	-1677
▁faal	-1678
▁25	-1679
▁eclis	-1680
▁istey	-1681
▁Mahke	-1682
▁basın	-1683
▁adet	-1684
cuğ	-1685
▁knik	-1686
▁akşam	-1687
▁liğ	-1688
▁lantı	-1689
▁terek	-1690
▁Yap	-1691
▁olu	-1692
▁tal	-1693
üb	-1694
▁tin	-1695
▁14	-1696
▁Osman	-1697
▁ılma	-1698
▁tekn	-1699
▁çevre	-1700
▁kara	-1701
▁nak	-1702
▁bina	-1703
▁ndığı	-1704
▁mama	-1705
▁DE	-1706
▁gar	-1707
▁ıntı	-1708
▁tartı	-1709
▁açı	-1710
▁mahke	-1711
▁niyor	-1712
▁elin	-1713
vet	-1714
▁ilet	-1715
▁uldu	-1716
iyo	-1717
▁Mart	-1718
▁demo	-1719
▁kriz	-1720
▁ralık	-1721
▁up	-1722
▁yo	-1723
▁olsun	-1724
▁kalan	-1725
▁bit	-1726
▁hız	-1727
▁ktan	-1728
mir	-1729
▁müda	-1730
▁mesaj	-1731
▁erv	-1732
▁ncesi	-1733
fer	-1734
▁ener	-1735
▁trans	-1736
▁bet	-1737
▁rman	-1738
▁kin	-1739
▁yürüt	-1740
▁illet	-1741
▁kapat	-1742
▁bunun	-1743
▁uvvet	-1744
▁üncel	-1745
▁eylem	-1746
▁dah	-1747
▁doğu	-1748
▁ayınd	-1749
▁ektör	-1750
▁tüket	-1751
▁İzmir	-1752
▁boz	-1753
▁Şubat	-1754
▁Sa	-1755
▁koru	-1756
▁bancı	-1757
▁küç	-1758
▁sebe	-1759
▁liye	-1760
▁erçek	-1761
▁boy	-1762
▁Ce	-1763
▁alk	-1764
▁dak	-1765
▁eti	-1766
▁poli	-1767
▁müdah	-1768
▁sanat	-1769
▁isi	-1770
▁lıklı	-1771
▁13	-1772
▁and	-1773
▁nceki	-1774
▁yum	-1775
▁izle	-1776
▁aktar	-1777
▁krasi	-1778
▁rdı	-1779
▁tas	-1780
gür	-1781
▁cid	-1782
▁şar	-1783
▁lil	-1784
▁indir	-1785
▁öyle	-1786
▁let	-1787
▁Dav	-1788
▁ntal	-1789
▁ınca	-1790
▁artış	-1791
▁layan	-1792
▁apı	-1793
▁ari	-1794
▁ortak	-1795
▁En	-1796
▁manı	-1797
▁Merke	-1798
▁sevk	-1799
▁yanda	-1800
▁yoğ	-1801
▁amacı	-1802
▁tt	-1803
▁baba	-1804
▁bağla	-1805
▁yaşam	-1806
▁yoğun	-1807
▁nüm	-1808
▁oyn	-1809
van	-1810
▁tif	-1811
▁ırs	-1812
▁rneği	-1813
▁takip	-1814
▁mas	-1815
▁rüldü	-1816
▁yorum	-1817
▁ğa	-1818
▁dim	-1819
▁zan	-1820
▁Ab	-1821
▁rim	-1822
muş	-1823
▁Ek	-1824
▁kre	-1825
▁kın	-1826
▁riyor	-1827
▁ıllık	-1828
▁rev	-1829
▁rüş	-1830
▁mayan	-1831
▁Muh	-1832
▁Ocak	-1833
▁yana	-1834
eh	-1835
▁nış	-1836
▁umuz	-1837
▁aracı	-1838
▁ntaly	-1839
do	-1840
▁iv	-1841
▁Ulu	-1842
▁İlk	-1843
▁sab	-1844
▁pay	-1845
▁derec	-1846
▁tay	-1847
uro	-1848
▁arış	-1849
▁sırad	-1850
▁inşa	-1851
▁sunuz	-1852
▁işe	-1853
▁ret	-1854
▁sayı	-1855
lim	-1856
▁El	-1857
▁şart	-1858
▁ona	-1859
▁huk	-1860
▁ktör	-1861
▁ilim	-1862
▁zarar	-1863
▁araş	-1864
▁ralar	-1865
ınd	-1866
▁teşe	-1867
▁kapa	-1868
▁yız	-1869
▁16	-1870
▁mlu	-1871
▁ses	-1872
▁Ekono	-1873
▁dağ	-1874
▁alış	-1875
▁hukuk	-1876
▁siyas	-1877
▁Ad	-1878
▁ücret	-1879
▁Bur	-1880
▁çek	-1881
▁Güven	-1882
sım	-1883
▁Allah	-1884
▁laz	-1885
▁Euro	-1886
▁lenme	-1887
▁dür	-1888
▁hük	-1889
▁18	-1890
▁ıf	-1891
mesi	-1892
ift	-1893
▁rildi	-1894
▁ani	-1895
ünkü	-1896
▁Çünkü	-1897
▁şimdi	-1898
Bu	-1899
▁ita	-1900
▁mızı	-1901
▁organ	-1902
▁cu	-1903
▁kamp	-1904
▁itesi	-1905
▁ğımız	-1906
lat	-1907
▁şma	-1908
▁Irak	-1909
▁anne	-1910
▁çocuğ	-1911
▁ide	-1912
▁rılar	-1913
▁ib	-1914
▁x	-1915
▁yü	-1916
▁eri	-1917
▁şah	-1918
▁Ku	-1919
▁rul	-1920
▁rbe	-1921
▁etmiş	-1922
▁büyü	-1923
▁çift	-1924
▁tadır	-1925
ğa	-1926
▁oda	-1927
▁oranı	-1928
▁şa	-1929
▁uza	-1930
▁rka	-1931
▁suz	-1932
▁yiz	-1933
▁tab	-1934
▁rbest	-1935
▁aşlar	-1936
▁lılar	-1937
▁Dış	-1938
▁çarp	-1939
▁yolcu	-1940
▁Yar	-1941
▁şan	-1942
▁nesi	-1943
▁yarat	-1944
▁çıkla	-1945
▁Jo	-1946
▁eb	-1947
▁kav	-1948
▁klar	-1949
▁ntısı	-1950
▁tik	-1951
▁yarış	-1952
▁önünd	-1953
ku	-1954
zi	-1955
▁iyesi	-1956
▁planl	-1957
▁one	-1958
▁erleş	-1959
▁gördü	-1960
▁rdu	-1961
▁sıyla	-1962
▁forma	-1963
▁ılmaz	-1964
▁ciddi	-1965
▁ira	-1966
▁yüzü	-1967
▁cam	-1968
▁17	-1969
▁urt	-1970
▁lerce	-1971
▁madde	-1972
▁emey	-1973
▁irken	-1974
▁esa	-1975
lo	-1976
▁uçak	-1977
▁kadro	-1978
▁Gazi	-1979
yan	-1980
▁Fet	-1981
▁Genç	-1982
▁ert	-1983
▁rn	-1984
▁bilin	-1985
▁On	-1986
▁Gök	-1987
▁rıl	-1988
▁irbir	-1989
▁nları	-1990
rü	-1991
▁va	-1992
▁mcısı	-1993
▁temel	-1994
▁Or	-1995
▁Bö	-1996
atı	-1997
▁elekt	-1998
▁tören	-1999
▁arama	-2000
▁sivil	-2001
▁sek	-2002
sız	-2003
▁ök	-2004
▁kle	-2005
▁tasar	-2006
▁kötü	-2007
▁Ceza	-2008
▁müm	-2009
▁yrı	-2010
▁vuru	-2011
▁mümkü	-2012
▁öd	-2013
▁dizi	-2014
▁rcih	-2015
▁lig	-2016
▁dakik	-2017
▁inter	-2018
▁lte	-2019
▁Ül	-2020
▁ent	-2021
▁benim	-2022
▁buluş	-2023
▁hüküm	-2024
▁yrıca	-2025
▁üper	-2026
▁götü	-2027
▁nspor	-2028
▁mer	-2029
▁uğra	-2030
▁kolay	-2031
▁elçi	-2032
▁sabah	-2033
▁çiz	-2034
▁Do	-2035
▁İran	-2036
▁Ve	-2037
▁alı	-2038
▁hes	-2039
▁sene	-2040
▁fes	-2041
▁24	-2042
▁kredi	-2043
▁küçük	-2044
▁polit	-2045
▁vardı	-2046
▁ley	-2047
▁iniz	-2048
▁tepe	-2049
▁ere	-2050
▁Bursa	-2051
▁yal	-2052
▁Polis	-2053
aze	-2054
▁rik	-2055
▁AŞ	-2056
▁Can	-2057
▁ata	-2058
▁tor	-2059
▁Çok	-2060
▁model	-2061
▁fet	-2062
▁çe	-2063
▁şı	-2064
▁üni	-2065
▁rapor	-2066
▁ğlu	-2067
▁Böyle	-2068
▁risk	-2069
▁enerj	-2070
▁rüşme	-2071
▁eh	-2072
▁Mar	-2073
▁enaze	-2074
▁gramı	-2075
▁başı	-2076
▁tırıl	-2077
▁bay	-2078
▁alet	-2079
▁muta	-2080
▁üneş	-2081
▁yatır	-2082
▁arım	-2083
▁eder	-2084
▁firma	-2085
▁talep	-2086
▁So	-2087
▁kimse	-2088
ılıç	-2089
▁Kılıç	-2090
▁Kay	-2091
▁Şeh	-2092
▁Davut	-2093
▁ayıda	-2094
▁belge	-2095
▁Kö	-2096
▁ong	-2097
▁vuk	-2098
▁bakır	-2099
▁İşte	-2100
▁vukat	-2101
car	-2102
▁kış	-2103
▁faiz	-2104
▁Diyar	-2105
▁Orta	-2106
rac	-2107
▁sey	-2108
▁şid	-2109
▁Banka	-2110
▁yım	-2111
▁kalk	-2112
▁kaza	-2113
▁üncü	-2114
▁arken	-2115
▁çatış	-2116
▁tım	-2117
▁olsa	-2118
▁anal	-2119
▁hemen	-2120
▁ang	-2121
▁Abd	-2122
▁Kasım	-2123
▁inans	-2124
▁anat	-2125
▁silci	-2126
▁Şimdi	-2127
▁Vali	-2128
▁ediye	-2129
▁mensu	-2130
▁tes	-2131
▁erli	-2132
▁eyaz	-2133
▁uygun	-2134
▁ena	-2135
▁hiss	-2136
▁iyat	-2137
▁Bugün	-2138
▁ükü	-2139
▁Gülen	-2140
▁milli	-2141
▁ela	-2142
▁soy	-2143
▁mutlu	-2144
▁Olay	-2145
▁ttığı	-2146
▁aması	-2147
▁lteci	-2148
▁Hava	-2149
▁Yardı	-2150
▁elde	-2151
▁aşına	-2152
▁ef	-2153
▁nıyor	-2154
▁şidde	-2155
▁Ço	-2156
▁ayır	-2157
▁parça	-2158
▁ayet	-2159
▁Es	-2160
▁abi	-2161
▁sak	-2162
▁aklar	-2163
▁katkı	-2164
dar	-2165
▁100	-2166
▁konud	-2167
Şİ	-2168
▁hesap	-2169
▁Top	-2170
▁meden	-2171
▁geçi	-2172
▁eleş	-2173
▁hangi	-2174
▁ekim	-2175
▁teri	-2176
▁umlu	-2177
▁güçlü	-2178
▁mizi	-2179
▁eçmiş	-2180
▁İki	-2181
▁demir	-2182
▁raki	-2183
▁durdu	-2184
▁çekil	-2185
▁yeter	-2186
▁eks	-2187
▁iha	-2188
▁Böl	-2189
▁dep	-2190
▁darma	-2191
▁Ulus	-2192
▁klif	-2193
▁duyur	-2194
▁yunca	-2195
▁anık	-2196
▁atta	-2197
▁Bölge	-2198
▁misyo	-2199
▁azi	-2200
▁tav	-2201
▁laşım	-2202
▁mişti	-2203
▁Anado	-2204
▁dö	-2205
▁od	-2206
▁kale	-2207
▁evi	-2208
▁alım	-2209
ayi	-2210
▁dık	-2211
▁50	-2212
▁Kem	-2213
▁eslim	-2214
▁görme	-2215
▁üküme	-2216
▁inti	-2217
▁kaya	-2218
▁evler	-2219
▁urum	-2220
▁kart	-2221
▁adına	-2222
▁yıp	-2223
vi	-2224
▁umu	-2225
eşit	-2226
▁eyen	-2227
▁anayi	-2228
▁izler	-2229
▁trafi	-2230
▁çeşit	-2231
ıs	-2232
▁rat	-2233
▁Kendi	-2234
▁ekibi	-2235
▁ödeme	-2236
▁HD	-2237
▁yardı	-2238
tim	-2239
▁Ligi	-2240
▁dım	-2241
▁zat	-2242
▁eyin	-2243
▁ünün	-2244
▁girdi	-2245
▁nn	-2246
▁adlı	-2247
▁onund	-2248
▁revli	-2249
▁yılda	-2250
▁marka	-2251
▁temiz	-2252
▁yarak	-2253
so	-2254
ıt	-2255
▁ina	-2256
▁ilme	-2257
YD	-2258
ab	-2259
eli	-2260
▁slan	-2261
▁irek	-2262
▁etkin	-2263
▁ticar	-2264
▁fin	-2265
▁gula	-2266
▁anser	-2267
▁şam	-2268
▁etin	-2269
▁ayy	-2270
▁ahçe	-2271
▁anlar	-2272
▁ervis	-2273
▁Ör	-2274
▁dol	-2275
▁bize	-2276
▁ov	-2277
▁ayrıc	-2278
▁bana	-2279
▁sınız	-2280
▁tos	-2281
▁aray	-2282
▁güne	-2283
▁ödül	-2284
▁işler	-2285
▁İslam	-2286
▁of	-2287
▁Koç	-2288
▁muştu	-2289
▁uzman	-2290
▁nül	-2291
▁sig	-2292
▁tma	-2293
▁ğitim	-2294
cep	-2295
▁Recep	-2296
▁ayyip	-2297
▁resmi	-2298
▁ob	-2299
▁aralı	-2300
▁belli	-2301
▁çözüm	-2302
▁atil	-2303
▁hen	-2304
▁Eski	-2305
▁angi	-2306
▁atma	-2307
▁asıl	-2308
▁abası	-2309
▁enz	-2310
▁fark	-2311
▁mızın	-2312
▁Man	-2313
▁izi	-2314
▁azal	-2315
bı	-2316
▁kesin	-2317
▁rk	-2318
▁Örgüt	-2319
▁ımlar	-2320
▁air	-2321
▁çak	-2322
▁steği	-2323
izm	-2324
▁19	-2325
▁21	-2326
▁Ser	-2327
▁anl	-2328
▁halkı	-2329
▁tirdi	-2330
▁ars	-2331
▁tere	-2332
▁ünlü	-2333
AT	-2334
▁inci	-2335
▁nlık	-2336
▁geniş	-2337
▁emekl	-2338
▁kça	-2339
▁rnek	-2340
▁arılı	-2341
▁Dün	-2342
▁açısı	-2343
▁istih	-2344
▁şarkı	-2345
han	-2346
▁ttı	-2347
▁vet	-2348
▁ktor	-2349
lük	-2350
▁co	-2351
▁araya	-2352
▁irleş	-2353
▁irlik	-2354
dit	-2355
▁üy	-2356
▁ard	-2357
▁yanıt	-2358
▁22	-2359
▁seri	-2360
▁ia	-2361
▁süreç	-2362
▁arşı	-2363
▁Çin	-2364
▁alon	-2365
▁Kür	-2366
▁endi	-2367
▁ante	-2368
▁düzey	-2369
▁ail	-2370
▁uzu	-2371
▁iğer	-2372
▁ij	-2373
▁sl	-2374
▁oğu	-2375
▁anma	-2376
▁ünlük	-2377
▁erkek	-2378
▁anya	-2379
▁işçi	-2380
▁lam	-2381
▁Kemal	-2382
▁Ey	-2383
▁pi	-2384
▁Sarı	-2385
▁aşarı	-2386
▁elik	-2387
▁avali	-2388
▁sokak	-2389
▁hane	-2390
▁pan	-2391
▁lem	-2392
▁Dışiş	-2393
▁urizm	-2394
▁önemi	-2395
▁kurt	-2396
▁okun	-2397
▁pat	-2398
▁final	-2399
▁Fat	-2400
▁aşı	-2401
▁uzey	-2402
▁PYD	-2403
▁lazım	-2404
ed	-2405
▁eler	-2406
▁Kon	-2407
FA	-2408
▁HDP	-2409
fo	-2410
▁Ülke	-2411
▁dahil	-2412
▁ediği	-2413
▁rülen	-2414
▁taleb	-2415
kaç	-2416
▁aat	-2417
▁ürücü	-2418
▁alp	-2419
▁rmak	-2420
▁hli	-2421
▁eşil	-2422
vap	-2423
▁esabı	-2424
▁cevap	-2425
▁nti	-2426
▁raş	-2427
▁irkaç	-2428
▁sy	-2429
▁Mur	-2430
▁üsl	-2431
▁lin	-2432
▁Murat	-2433
▁aret	-2434
▁hlike	-2435
▁İnsan	-2436
EŞ	-2437
▁Ch	-2438
▁ald	-2439
▁kül	-2440
▁ulüp	-2441
▁çekti	-2442
▁müz	-2443
▁rısı	-2444
▁lığın	-2445
▁muz	-2446
▁irinc	-2447
▁üksel	-2448
▁Kürt	-2449
▁ilan	-2450
▁lığa	-2451
▁nmış	-2452
▁anun	-2453
tö	-2454
▁Haz	-2455
▁işi	-2456
▁ntem	-2457
▁abet	-2458
▁almak	-2459
▁canlı	-2460
▁nme	-2461
▁ileri	-2462
▁alif	-2463
▁anak	-2464
▁hatır	-2465
▁kayıt	-2466
▁Tr	-2467
▁Alman	-2468
▁ihrac	-2469
▁eceğ	-2470
▁Fatih	-2471
▁ormal	-2472
▁oş	-2473
▁Eki	-2474
▁rem	-2475
▁hdit	-2476
▁yansı	-2477
ump	-2478
▁çab	-2479
büs	-2480
▁ayvan	-2481
▁tobüs	-2482
▁yse	-2483
▁Bunu	-2484
▁aşadı	-2485
▁Trump	-2486
▁nç	-2487
isan	-2488
▁kür	-2489
▁name	-2490
▁uyla	-2491
▁Nisan	-2492
Lİ	-2493
▁lın	-2494
▁taj	-2495
▁Konya	-2496
alib	-2497
▁ord	-2498
▁rac	-2499
▁gücü	-2500
▁itir	-2501
dana	-2502
▁galib	-2503
▁şik	-2504
▁ınız	-2505
▁başta	-2506
▁sektö	-2507
▁aj	-2508
▁ons	-2509
▁rum	-2510
▁dalet	-2511
▁Şah	-2512
▁Adana	-2513
▁farkı	-2514
▁ire	-2515
▁ayram	-2516
▁siyle	-2517
▁Aydın	-2518
▁uar	-2519
▁aklı	-2520
▁epsi	-2521
▁ders	-2522
▁Bizim	-2523
▁ortam	-2524
▁perso	-2525
▁tılım	-2526
▁Şam	-2527
lül	-2528
▁duruş	-2529
▁antep	-2530
jim	-2531
▁ga	-2532
▁May	-2533
▁ilo	-2534
▁Şube	-2535
▁ışık	-2536
▁imizi	-2537
▁rahat	-2538
▁yılın	-2539
▁krat	-2540
▁Çocuk	-2541
ŞİD	-2542
▁IŞİD	-2543
▁sığın	-2544
ze	-2545
▁abı	-2546
▁las	-2547
▁üyü	-2548
▁ransa	-2549
▁beni	-2550
▁Pazar	-2551
▁slınd	-2552
▁ch	-2553
▁ern	-2554
▁rge	-2555
▁kuru	-2556
▁edera	-2557
▁mali	-2558
▁sahne	-2559
▁ğinde	-2560
▁Ma	-2561
▁neral	-2562
▁üyüme	-2563
▁vü	-2564
▁rmans	-2565
▁DAEŞ	-2566
▁akın	-2567
▁alle	-2568
▁nik	-2569
▁arın	-2570
▁ıcak	-2571
▁sert	-2572
▁siyon	-2573
▁tidar	-2574
▁ırsat	-2575
▁evin	-2576
▁arada	-2577
▁lçesi	-2578
fe	-2579
▁avaş	-2580
▁işle	-2581
▁Ro	-2582
▁isiml	-2583
▁çağrı	-2584
▁baskı	-2585
▁karış	-2586
▁alık	-2587
▁apis	-2588
▁amera	-2589
▁işare	-2590
▁sınav	-2591
▁dair	-2592
▁türlü	-2593
▁Cad	-2594
▁Jan	-2595
▁28	-2596
▁ney	-2597
▁kafa	-2598
▁Cadde	-2599
▁Mayıs	-2600
▁korku	-2601
▁mizde	-2602
▁oz	-2603
▁van	-2604
▁ras	-2605
▁özgür	-2606
▁Ob	-2607
▁ref	-2608
▁yna	-2609
▁Bar	-2610
▁eye	-2611
▁anlış	-2612
▁amaç	-2613
▁etrol	-2614
▁mp	-2615
▁yık	-2616
▁aland	-2617
▁urken	-2618
▁ismi	-2619
▁Prof	-2620
▁log	-2621
▁loji	-2622
▁üyesi	-2623
ani	-2624
▁1.	-2625
▁Cuma	-2626
▁amel	-2627
to	-2628
▁Bay	-2629
▁anlı	-2630
▁ulut	-2631
▁henüz	-2632
▁rç	-2633
▁gören	-2634
▁Tek	-2635
▁uşu	-2636
▁sorgu	-2637
▁ğün	-2638
▁Şen	-2639
▁liste	-2640
▁ğında	-2641
▁ltan	-2642
▁enzer	-2643
▁yemek	-2644
▁rahim	-2645
var	-2646
▁nümüz	-2647
▁Go	-2648
▁göç	-2649
▁ilis	-2650
▁emniy	-2651
▁memur	-2652
▁seviy	-2653
▁ami	-2654
▁sarı	-2655
▁maçta	-2656
▁perfo	-2657
▁yarın	-2658
▁konul	-2659
▁vergi	-2660
ylü	-2661
▁ekran	-2662
▁kısmı	-2663
▁nnesi	-2664
▁akika	-2665
▁rkası	-2666
▁fay	-2667
▁Güney	-2668
▁aylık	-2669
ört	-2670
▁dört	-2671
▁emedi	-2672
▁det	-2673
▁kop	-2674
▁iyah	-2675
▁tüğü	-2676
▁unut	-2677
▁talya	-2678
▁gal	-2679
▁Kupa	-2680
▁recek	-2681
▁urtar	-2682
▁boş	-2683
▁lal	-2684
▁nan	-2685
▁tel	-2686
▁sanız	-2687
▁40	-2688
▁Eğer	-2689
▁buna	-2690
▁emez	-2691
▁doğal	-2692
▁liş	-2693
▁kira	-2694
▁ağlan	-2695
▁bakım	-2696
▁hakem	-2697
▁olmuş	-2698
▁ebe	-2699
▁düşük	-2700
suz	-2701
▁Az	-2702
▁amb	-2703
▁vaz	-2704
▁çoğu	-2705
▁Alb	-2706
▁şans	-2707
▁tahmi	-2708
AK	-2709
▁aran	-2710
▁kulüb	-2711
▁vizyo	-2712
▁ıda	-2713
▁Hale	-2714
▁vücu	-2715
▁İb	-2716
▁duygu	-2717
▁işbir	-2718
▁avuş	-2719
▁ment	-2720
▁rdüğü	-2721
▁nlem	-2722
▁hızlı	-2723
▁savcı	-2724
▁syonu	-2725
mat	-2726
▁izm	-2727
▁denil	-2728
▁bey	-2729
▁Yun	-2730
▁nlar	-2731
▁500	-2732
▁aire	-2733
▁Halep	-2734
▁sebep	-2735
▁boyu	-2736
▁asyon	-2737
▁AR	-2738
arak	-2739
▁red	-2740
▁giren	-2741
▁Yunan	-2742
▁erg	-2743
▁ilerl	-2744
▁yani	-2745
▁rejim	-2746
▁evir	-2747
▁fayda	-2748
▁konut	-2749
▁Şehit	-2750
▁rda	-2751
▁İd	-2752
▁eyet	-2753
▁itap	-2754
▁poz	-2755
▁otel	-2756
▁mikta	-2757
▁yazdı	-2758
vu	-2759
▁rail	-2760
▁hakim	-2761
▁23	-2762
▁yerde	-2763
▁öre	-2764
▁tec	-2765
▁ayıcı	-2766
▁çer	-2767
▁başar	-2768
▁eg	-2769
▁tat	-2770
▁defa	-2771
▁27	-2772
▁dum	-2773
▁tirme	-2774
▁çıkış	-2775
▁sk	-2776
▁şk	-2777
▁ilm	-2778
▁ayal	-2779
▁gider	-2780
▁nışma	-2781
▁orada	-2782
▁rakam	-2783
▁ray	-2784
▁biraz	-2785
▁2.	-2786
▁civar	-2787
▁erekl	-2788
▁ımızı	-2789
▁izl	-2790
▁ucu	-2791
▁udi	-2792
▁Kadın	-2793
▁kesim	-2794
▁söylü	-2795
▁Öte	-2796
▁meli	-2797
▁ğu	-2798
▁gaz	-2799
▁ruh	-2800
▁ahat	-2801
▁meyi	-2802
▁ayata	-2803
▁uyu	-2804
▁num	-2805
▁rin	-2806
▁cami	-2807
▁Eylül	-2808
▁zer	-2809
▁ağrı	-2810
▁olup	-2811
▁başvu	-2812
▁ain	-2813
▁geçiş	-2814
▁eydan	-2815
▁nünde	-2816
▁Ekim	-2817
▁şman	-2818
▁angın	-2819
▁sol	-2820
▁letme	-2821
▁yarar	-2822
▁paş	-2823
▁dışı	-2824
▁sefer	-2825
▁umsuz	-2826
▁ho	-2827
▁resel	-2828
▁ideo	-2829
▁iklik	-2830
▁Ev	-2831
▁öp	-2832
▁adi	-2833
▁emo	-2834
▁tuğ	-2835
▁Yani	-2836
▁pera	-2837
▁önüne	-2838
▁amm	-2839
▁dam	-2840
▁Hüs	-2841
▁ünive	-2842
▁üslüm	-2843
▁Tüm	-2844
▁azılı	-2845
▁dire	-2846
▁cel	-2847
▁ces	-2848
▁rid	-2849
▁ölü	-2850
▁asa	-2851
▁usul	-2852
▁şağı	-2853
OR	-2854
os	-2855
▁inem	-2856
▁macı	-2857
▁içe	-2858
▁geril	-2859
▁görül	-2860
▁ite	-2861
▁ağım	-2862
▁kıy	-2863
▁ılan	-2864
▁mamız	-2865
▁oyu	-2866
▁vak	-2867
▁ğe	-2868
▁imize	-2869
▁ollan	-2870
▁kri	-2871
▁abaka	-2872
▁Hazi	-2873
▁amen	-2874
▁erak	-2875
▁Ri	-2876
▁inç	-2877
▁düştü	-2878
▁taşıy	-2879
▁yenil	-2880
▁mit	-2881
▁eçen	-2882
▁paşa	-2883
▁cut	-2884
▁ete	-2885
▁gın	-2886
▁tip	-2887
▁bizi	-2888
▁gil	-2889
▁abri	-2890
▁limat	-2891
▁ımı	-2892
▁cılar	-2893
▁elind	-2894
▁vesi	-2895
▁ig	-2896
▁isyon	-2897
▁cıl	-2898
▁irk	-2899
▁kuş	-2900
▁rede	-2901
▁ihaz	-2902
▁irli	-2903
▁yolu	-2904
▁manın	-2905
▁Van	-2906
▁ayak	-2907
▁lkan	-2908
▁savun	-2909
▁neler	-2910
▁not	-2911
çı	-2912
▁Onlar	-2913
▁saye	-2914
▁oru	-2915
▁rez	-2916
▁iriz	-2917
▁yabil	-2918
▁avet	-2919
▁fe	-2920
▁enim	-2921
▁elen	-2922
▁ünler	-2923
▁Sel	-2924
▁eser	-2925
▁rubu	-2926
▁eknik	-2927
▁nur	-2928
▁zik	-2929
▁dbir	-2930
▁dağı	-2931
▁istik	-2932
gü	-2933
▁elki	-2934
▁fik	-2935
▁ldu	-2936
▁rgan	-2937
▁yere	-2938
▁olmay	-2939
▁liğe	-2940
▁3.	-2941
▁ğünü	-2942
▁diyen	-2943
DE	-2944
▁ynı	-2945
▁lans	-2946
▁ngin	-2947
▁üt	-2948
▁ordu	-2949
▁ünkü	-2950
▁anlay	-2951
▁çerçe	-2952
▁evre	-2953
▁BM	-2954
▁akar	-2955
▁kere	-2956
▁kalma	-2957
▁eyn	-2958
▁mre	-2959
▁alde	-2960
▁aygı	-2961
▁raba	-2962
▁TÜ	-2963
▁ümüz	-2964
▁syond	-2965
▁üş	-2966
▁emi	-2967
LA	-2968
▁TV	-2969
▁meş	-2970
▁anet	-2971
▁uşlar	-2972
▁Mes	-2973
▁Batı	-2974
▁arbe	-2975
▁atsız	-2976
dem	-2977
▁edel	-2978
▁pları	-2979
▁cılık	-2980
▁demek	-2981
▁evine	-2982
▁ag	-2983
▁algı	-2984
▁26	-2985
▁avu	-2986
▁etkis	-2987
▁diş	-2988
▁ıllı	-2989
▁ie	-2990
▁imk	-2991
▁asla	-2992
▁beri	-2993
▁hata	-2994
HA	-2995
▁verme	-2996
▁yazar	-2997
▁kla	-2998
▁arca	-2999
▁atik	-3000
▁ğum	-3001
▁erim	-3002
▁oğan	-3003
MA	-3004
▁Doğu	-3005
▁riz	-3006
▁üren	-3007
▁29	-3008
▁asan	-3009
▁içi	-3010
▁ğus	-3011
▁bara	-3012
▁vit	-3013
▁etçi	-3014
▁pp	-3015
▁gez	-3016
▁apımı	-3017
▁anım	-3018
▁alel	-3019
▁mızda	-3020
▁LAR	-3021
▁lmaz	-3022
▁zorla	-3023
▁sh	-3024
▁ven	-3025
▁üzü	-3026
▁ysa	-3027
▁içer	-3028
▁okak	-3029
▁hay	-3030
▁raman	-3031
İN	-3032
▁zman	-3033
▁radan	-3034
▁zı	-3035
▁işim	-3036
bar	-3037
ceğ	-3038
▁Av	-3039
▁eter	-3040
▁dayan	-3041
▁zaten	-3042
▁Kır	-3043
▁şık	-3044
▁osya	-3045
LE	-3046
▁sti	-3047
▁madd	-3048
▁zya	-3049
▁anti	-3050
▁eran	-3051
▁tri	-3052
▁ıt	-3053
▁alis	-3054
▁enge	-3055
▁ktörü	-3056
▁oruma	-3057
▁mun	-3058
▁nsel	-3059
▁üney	-3060
▁ortal	-3061
▁amu	-3062
▁enek	-3063
▁altın	-3064
▁müs	-3065
▁Kim	-3066
▁mamış	-3067
▁ow	-3068
▁ükl	-3069
▁çesi	-3070
▁Se	-3071
▁mir	-3072
▁atış	-3073
▁eyec	-3074
▁dal	-3075
▁ekme	-3076
▁No	-3077
▁kadem	-3078
▁old	-3079
▁şif	-3080
▁raya	-3081
▁Dk	-3082
▁kem	-3083
▁Bey	-3084
▁bes	-3085
▁blo	-3086
▁are	-3087
▁unuz	-3088
PG	-3089
men	-3090
▁eci	-3091
▁duk	-3092
▁vic	-3093
▁akan	-3094
▁mada	-3095
▁35	-3096
▁sik	-3097
▁masa	-3098
▁mbu	-3099
▁ram	-3100
▁kana	-3101
▁ağlar	-3102
▁Per	-3103
▁yapma	-3104
▁2-	-3105
▁rer	-3106
▁esle	-3107
▁unul	-3108
▁gül	-3109
▁ört	-3110
▁tesi	-3111
▁uyarı	-3112
▁ii	-3113
▁halk	-3114
▁izli	-3115
tır	-3116
▁ayn	-3117
▁tla	-3118
▁enar	-3119
▁TB	-3120
▁açtı	-3121
▁ksiyo	-3122
▁enc	-3123
▁rad	-3124
▁tçe	-3125
▁buldu	-3126
SK	-3127
DI	-3128
▁adığı	-3129
▁birim	-3130
▁kit	-3131
▁nca	-3132
▁erte	-3133
▁aşama	-3134
▁Dur	-3135
▁nal	-3136
▁EFA	-3137
▁alma	-3138
▁atla	-3139
▁iraz	-3140
▁diler	-3141
▁La	-3142
▁iver	-3143
tal	-3144
▁rap	-3145
▁tim	-3146
▁derin	-3147
▁ahs	-3148
▁enme	-3149
▁abir	-3150
▁aris	-3151
▁inay	-3152
▁uyar	-3153
▁dılar	-3154
▁ast	-3155
▁rıcı	-3156
▁uvar	-3157
▁hu	-3158
▁pla	-3159
▁kinci	-3160
▁rerek	-3161
▁olun	-3162
▁ayrak	-3163
▁biti	-3164
▁ücad	-3165
▁rhan	-3166
▁oynan	-3167
▁nşa	-3168
▁bozu	-3169
▁indi	-3170
▁nizi	-3171
MM	-3172
▁renk	-3173
▁nuz	-3174
▁alka	-3175
▁mayın	-3176
▁esn	-3177
▁ngö	-3178
▁yon	-3179
▁ayan	-3180
▁aşır	-3181
▁itti	-3182
ck	-3183
▁kâ	-3184
▁yin	-3185
▁asar	-3186
▁ülen	-3187
▁ble	-3188
▁aldır	-3189
.,	-3190
▁Vo	-3191
▁ork	-3192
po	-3193
▁31	-3194
▁yeme	-3195
▁nite	-3196
▁rıda	-3197
▁ulan	-3198
▁tiren	-3199
▁Kal	-3200
▁kah	-3201
▁por	-3202
▁klan	-3203
TI	-3204
▁zir	-3205
şik	-3206
▁eçil	-3207
▁mize	-3208
▁kiz	-3209
▁İsm	-3210
▁kler	-3211
▁ğişik	-3212
▁aksi	-3213
▁ksik	-3214
▁onya	-3215
▁suna	-3216
▁tr	-3217
▁tiv	-3218
▁edin	-3219
▁ınar	-3220
▁YA	-3221
▁Kaz	-3222
▁Fa	-3223
▁Sü	-3224
▁şi	-3225
▁dinle	-3226
▁uru	-3227
▁atın	-3228
▁ağan	-3229
▁iğ	-3230
▁raç	-3231
▁ebek	-3232
▁ane	-3233
▁ezi	-3234
▁eğe	-3235
▁zay	-3236
▁CE	-3237
▁Tu	-3238
▁aket	-3239
▁YE	-3240
▁üyle	-3241
▁eride	-3242
▁inc	-3243
▁Na	-3244
▁kuz	-3245
▁tro	-3246
çes	-3247
▁ilçes	-3248
▁riler	-3249
▁pas	-3250
▁esti	-3251
▁onse	-3252
▁Mİ	-3253
▁iyer	-3254
▁süred	-3255
▁Mo	-3256
▁ikr	-3257
▁inanı	-3258
▁ms	-3259
▁YPG	-3260
▁kıl	-3261
▁ısı	-3262
▁akır	-3263
▁dolu	-3264
▁irse	-3265
▁ulüb	-3266
▁erel	-3267
▁mutl	-3268
▁ergil	-3269
▁ımıza	-3270
▁nay	-3271
▁ğur	-3272
▁ahil	-3273
▁ST	-3274
▁uns	-3275
▁lanı	-3276
▁park	-3277
▁arma	-3278
▁ltın	-3279
▁Sur	-3280
▁sad	-3281
▁test	-3282
▁liğin	-3283
▁stekl	-3284
▁ker	-3285
▁neye	-3286
▁özler	-3287
▁uc	-3288
▁yim	-3289
▁İlçe	-3290
▁çey	-3291
▁llah	-3292
▁layın	-3293
▁nabil	-3294
▁Sam	-3295
lak	-3296
▁xx	-3297
▁lis	-3298
▁ncü	-3299
▁iptal	-3300
▁nmesi	-3301
▁Cen	-3302
▁Aile	-3303
▁meme	-3304
▁Te	-3305
▁receğ	-3306
▁zem	-3307
▁dası	-3308
▁lıdır	-3309
▁patla	-3310
▁atar	-3311
▁grub	-3312
▁nil	-3313
▁arar	-3314
▁nes	-3315
▁aşlat	-3316
▁yazıl	-3317
▁devre	-3318
▁lıkla	-3319
▁TBMM	-3320
▁eğer	-3321
▁ımcı	-3322
▁bayra	-3323
▁kızı	-3324
▁ütün	-3325
▁fla	-3326
▁uran	-3327
▁klı	-3328
▁usu	-3329
▁Kaza	-3330
▁ursa	-3331
▁çuk	-3332
▁kurma	-3333
▁kte	-3334
▁enen	-3335
▁Sev	-3336
▁eji	-3337
▁üze	-3338
▁nf	-3339
▁Kar	-3340
▁aynak	-3341
▁cilik	-3342
▁gitme	-3343
▁lardı	-3344
▁tılan	-3345
ana	-3346
▁Di	-3347
▁Ham	-3348
▁sta	-3349
▁ıları	-3350
▁nır	-3351
▁erbi	-3352
▁zam	-3353
▁makta	-3354
▁onser	-3355
▁ins	-3356
▁rın	-3357
▁sunu	-3358
▁ırt	-3359
▁arek	-3360
▁Saray	-3361
▁atif	-3362
▁akış	-3363
▁gili	-3364
▁reye	-3365
▁ster	-3366
▁nit	-3367
▁St	-3368
▁lak	-3369
▁niy	-3370
▁onuna	-3371
▁enk	-3372
▁alkın	-3373
▁ndiği	-3374
▁Ba	-3375
▁LER	-3376
▁lası	-3377
▁ub	-3378
▁rit	-3379
▁ime	-3380
▁palı	-3381
▁şeyi	-3382
TA	-3383
▁60	-3384
▁prü	-3385
▁ilah	-3386
▁ğiniz	-3387
▁1-	-3388
▁ücre	-3389
▁htar	-3390
▁zlem	-3391
▁eller	-3392
isi	-3393
▁bal	-3394
▁kus	-3395
▁mda	-3396
▁akala	-3397
▁yed	-3398
▁emen	-3399
▁Wa	-3400
▁Bil	-3401
▁upa	-3402
▁eo	-3403
▁ham	-3404
▁ksel	-3405
▁necek	-3406
▁parla	-3407
▁nö	-3408
▁arş	-3409
▁ldi	-3410
▁alb	-3411
▁vaş	-3412
▁yıla	-3413
▁üstü	-3414
▁ila	-3415
▁roje	-3416
▁ind	-3417
▁kum	-3418
Dİ	-3419
▁Mad	-3420
▁gin	-3421
▁rmiş	-3422
▁şıyor	-3423
▁ER	-3424
▁Yo	-3425
▁ff	-3426
▁Sal	-3427
▁ende	-3428
▁apa	-3429
▁urumu	-3430
▁taz	-3431
▁bölü	-3432
▁eker	-3433
▁ekle	-3434
▁este	-3435
▁diğim	-3436
ch	-3437
▁aze	-3438
▁şul	-3439
▁no	-3440
▁imli	-3441
▁fak	-3442
▁rir	-3443
▁zun	-3444
▁gere	-3445
▁veri	-3446
▁lmadı	-3447
▁rıy	-3448
▁narak	-3449
▁sas	-3450
▁tli	-3451
▁ğle	-3452
▁lev	-3453
▁yerek	-3454
▁fon	-3455
▁ore	-3456
▁teş	-3457
▁ğaz	-3458
▁3-	-3459
▁iP	-3460
▁evgi	-3461
▁unca	-3462
▁nüf	-3463
▁ayıl	-3464
▁etro	-3465
▁obil	-3466
▁Oto	-3467
▁key	-3468
▁evind	-3469
DA	-3470
▁45	-3471
▁ldü	-3472
▁mina	-3473
▁dırdı	-3474
▁rebil	-3475
▁nlü	-3476
▁sna	-3477
▁vali	-3478
▁ğınız	-3479
▁200	-3480
▁alya	-3481
▁ırlat	-3482
▁Cem	-3483
▁%	-3484
▁mur	-3485
▁ortad	-3486
▁Pol	-3487
▁ali	-3488
▁nam	-3489
▁amet	-3490
▁asi	-3491
▁ekten	-3492
▁günde	-3493
▁nla	-3494
▁nter	-3495
▁tiri	-3496
▁nerji	-3497
▁Ed	-3498
▁rö	-3499
▁eve	-3500
yi	-3501
▁akin	-3502
▁arab	-3503
▁arla	-3504
▁işti	-3505
▁Tan	-3506
▁abah	-3507
▁inal	-3508
▁lisi	-3509
▁imha	-3510
▁ünden	-3511
▁tırdı	-3512
mo	-3513
▁imler	-3514
DY	-3515
▁ters	-3516
▁larca	-3517
▁ulübü	-3518
oke	-3519
▁ızla	-3520
▁şkil	-3521
▁cak	-3522
▁cev	-3523
▁ahte	-3524
▁irliğ	-3525
▁iza	-3526
▁ğır	-3527
▁irket	-3528
▁lilik	-3529
ari	-3530
▁Tı	-3531
▁dey	-3532
▁ikle	-3533
▁çıkl	-3534
▁ılar	-3535
▁Tak	-3536
▁ace	-3537
▁arz	-3538
▁urd	-3539
▁geçer	-3540
İR	-3541
▁yg	-3542
▁iller	-3543
▁Ol	-3544
▁go	-3545
LI	-3546
▁inen	-3547
▁mekan	-3548
▁mbe	-3549
▁nlu	-3550
▁adli	-3551
▁mıza	-3552
SA	-3553
▁şır	-3554
▁argı	-3555
▁azır	-3556
▁zılı	-3557
▁liyor	-3558
İK	-3559
▁ruk	-3560
▁alga	-3561
▁ihbar	-3562
▁TE	-3563
▁giz	-3564
▁tlı	-3565
▁aske	-3566
▁eşin	-3567
▁eşit	-3568
▁şo	-3569
▁YOR	-3570
▁koş	-3571
▁nne	-3572
▁lamak	-3573
▁urlar	-3574
ele	-3575
▁New	-3576
▁önle	-3577
▁lad	-3578
▁rip	-3579
▁Başb	-3580
▁katı	-3581
▁rp	-3582
▁soka	-3583
▁masın	-3584
▁İyi	-3585
▁akka	-3586
▁rüyor	-3587
▁ry	-3588
▁asit	-3589
▁sya	-3590
▁önde	-3591
▁üçük	-3592
af	-3593
▁PDY	-3594
▁ond	-3595
▁leyen	-3596
▁AY	-3597
▁rtık	-3598
▁iyeti	-3599
▁rtesi	-3600
▁Ci	-3601
▁ızıl	-3602
▁ild	-3603
▁deta	-3604
▁site	-3605
oku	-3606
▁beş	-3607
▁gun	-3608
▁uklu	-3609
▁ens	-3610
▁evde	-3611
▁nitel	-3612
Kİ	-3613
▁rif	-3614
▁arik	-3615
▁kare	-3616
▁ınma	-3617
▁Q	-3618
▁arp	-3619
▁ersin	-3620
▁tarıl	-3621
▁arm	-3622
▁kut	-3623
▁sma	-3624
▁beyaz	-3625
Bİ	-3626
üsü	-3627
▁cüsü	-3628
▁ekil	-3629
▁olda	-3630
▁yici	-3631
▁öprü	-3632
▁fı	-3633
▁orun	-3634
▁tilen	-3635
▁Br	-3636
▁Ok	-3637
▁io	-3638
▁cep	-3639
ME	-3640
▁orsa	-3641
▁niyet	-3642
▁&	-3643
ster	-3644
▁dül	-3645
▁lım	-3646
▁anmış	-3647
▁avaşı	-3648
▁EN	-3649
▁rcu	-3650
▁rgi	-3651
▁saya	-3652
▁bol	-3653
▁fai	-3654
▁rag	-3655
▁irad	-3656
▁kırı	-3657
▁öster	-3658
▁Si	-3659
▁ltu	-3660
▁rar	-3661
▁ista	-3662
▁sebeb	-3663
,5	-3664
▁AN	-3665
▁ano	-3666
▁rup	-3667
▁4.	-3668
▁Ta	-3669
▁aks	-3670
▁ağla	-3671
▁avan	-3672
▁ayda	-3673
▁SI	-3674
▁zalt	-3675
▁netim	-3676
▁abii	-3677
▁lidir	-3678
▁inli	-3679
▁umhu	-3680
▁dahi	-3681
▁icar	-3682
▁300	-3683
▁Tıp	-3684
▁yapar	-3685
Sİ	-3686
tur	-3687
▁ate	-3688
▁dip	-3689
▁lom	-3690
▁ıma	-3691
▁32	-3692
▁ekr	-3693
▁iPh	-3694
▁iği	-3695
▁unc	-3696
▁faz	-3697
▁fır	-3698
▁ayat	-3699
raf	-3700
▁gay	-3701
▁emiyo	-3702
lâ	-3703
▁Eş	-3704
▁Gel	-3705
▁cum	-3706
▁oşa	-3707
▁yara	-3708
▁şeker	-3709
▁katl	-3710
▁msil	-3711
▁Yak	-3712
▁nlara	-3713
▁kab	-3714
▁lent	-3715
▁aylar	-3716
▁sat	-3717
▁atır	-3718
▁aspor	-3719
▁ua	-3720
▁ili	-3721
▁niş	-3722
▁zet	-3723
▁uştur	-3724
▁34	-3725
▁Erd	-3726
▁dav	-3727
▁unlu	-3728
▁sayıl	-3729
▁steri	-3730
▁uh	-3731
▁tren	-3732
▁racın	-3733
▁örevi	-3734
▁36	-3735
▁mat	-3736
▁yas	-3737
▁arih	-3738
▁nama	-3739
▁tmak	-3740
ğün	-3741
▁dönü	-3742
▁rika	-3743
▁doğan	-3744
Tİ	-3745
▁ron	-3746
▁rse	-3747
▁aral	-3748
▁kova	-3749
▁muha	-3750
▁işte	-3751
▁rası	-3752
▁tand	-3753
▁çu	-3754
▁ıb	-3755
▁şv	-3756
▁ağd	-3757
▁mec	-3758
▁sem	-3759
▁Takım	-3760
▁Uy	-3761
▁imam	-3762
▁nına	-3763
▁As	-3764
▁ansı	-3765
▁Ğ	-3766
▁bün	-3767
▁vad	-3768
▁bank	-3769
▁esto	-3770
▁kıya	-3771
▁rduğ	-3772
▁renm	-3773
▁açlar	-3774
▁davra	-3775
▁meyen	-3776
▁rıyor	-3777
▁üstün	-3778
▁ova	-3779
▁urg	-3780
▁enin	-3781
▁ası	-3782
▁ora	-3783
▁adını	-3784
▁nımı	-3785
▁yesi	-3786
▁UR	-3787
▁tad	-3788
▁kırmı	-3789
▁rmesi	-3790
▁î	-3791
▁Üs	-3792
▁ves	-3793
▁Frans	-3794
▁panya	-3795
▁nmiş	-3796
▁meyve	-3797
▁Hem	-3798
▁erse	-3799
▁klam	-3800
▁ırıl	-3801
▁undu	-3802
AH	-3803
▁Sp	-3804
▁aten	-3805
▁X	-3806
▁pe	-3807
▁bebe	-3808
▁tadı	-3809
▁topra	-3810
▁dun	-3811
▁ksa	-3812
▁nüz	-3813
▁aşlı	-3814
▁ddia	-3815
▁jan	-3816
▁rmeye	-3817
▁venli	-3818
▁ck	-3819
▁nluğ	-3820
▁Co	-3821
▁iyo	-3822
▁kalı	-3823
▁nızı	-3824
▁tura	-3825
▁esele	-3826
▁fikir	-3827
▁Diy	-3828
▁irer	-3829
▁tuğu	-3830
▁edefi	-3831
▁racak	-3832
▁KP	-3833
▁oh	-3834
▁dalı	-3835
▁form	-3836
▁rtal	-3837
▁ılın	-3838
▁eleri	-3839
▁inizi	-3840
▁oo	-3841
▁Sağ	-3842
▁ngel	-3843
ON	-3844
▁Tekn	-3845
▁inali	-3846
▁anu	-3847
▁eyi	-3848
▁him	-3849
▁kas	-3850
▁alen	-3851
▁anta	-3852
▁AA	-3853
▁og	-3854
▁bat	-3855
▁izley	-3856
▁Kü	-3857
▁Bah	-3858
▁ank	-3859
▁lac	-3860
▁amam	-3861
▁bar	-3862
▁maka	-3863
▁isy	-3864
▁mde	-3865
▁ılır	-3866
▁mekte	-3867
▁nilen	-3868
▁ulduğ	-3869
▁zu	-3870
▁ori	-3871
▁deme	-3872
▁nv	-3873
▁Bul	-3874
▁heli	-3875
▁gerçe	-3876
▁kenti	-3877
▁NA	-3878
▁araf	-3879
▁nede	-3880
▁aden	-3881
▁arkı	-3882
▁zin	-3883
▁prot	-3884
▁asal	-3885
▁Has	-3886
▁che	-3887
▁oya	-3888
▁büs	-3889
▁ice	-3890
▁dinl	-3891
▁duğum	-3892
▁rj	-3893
▁val	-3894
▁line	-3895
▁rici	-3896
▁uluş	-3897
▁çözü	-3898
▁ıkış	-3899
▁NI	-3900
▁Sen	-3901
▁pol	-3902
▁ekir	-3903
▁mekt	-3904
▁ydın	-3905
▁erlik	-3906
▁afe	-3907
▁rur	-3908
▁ızı	-3909
▁daya	-3910
▁ikli	-3911
▁reği	-3912
▁Konu	-3913
▁enet	-3914
▁uyan	-3915
▁zgür	-3916
▁endis	-3917
▁ence	-3918
▁Sİ	-3919
▁karı	-3920
▁tanım	-3921
▁pa	-3922
▁isa	-3923
iğ	-3924
▁keş	-3925
▁canl	-3926
▁deri	-3927
▁maçın	-3928
▁tılar	-3929
▁At	-3930
▁emb	-3931
▁uro	-3932
▁rıyla	-3933
▁uyum	-3934
▁dığım	-3935
▁erler	-3936
▁ft	-3937
▁Siz	-3938
▁aga	-3939
▁ica	-3940
▁mara	-3941
▁öyley	-3942
▁70	-3943
▁mutan	-3944
▁antr	-3945
▁tbol	-3946
▁andal	-3947
▁elene	-3948
▁lları	-3949
▁TO	-3950
▁pü	-3951
▁ihan	-3952
▁amile	-3953
▁tıldı	-3954
▁sus	-3955
▁ısa	-3956
▁33	-3957
▁90	-3958
▁bis	-3959
▁ilya	-3960
▁tarz	-3961
▁riyle	-3962
▁Aç	-3963
▁ıç	-3964
▁eda	-3965
▁Kurul	-3966
▁rdığı	-3967
▁MHP	-3968
▁rom	-3969
▁urk	-3970
▁ücu	-3971
▁beli	-3972
▁yata	-3973
▁zen	-3974
▁rmay	-3975
SY	-3976
▁LE	-3977
▁mr	-3978
▁vir	-3979
▁siye	-3980
▁apısı	-3981
▁düze	-3982
▁ente	-3983
▁kült	-3984
▁lise	-3985
▁tank	-3986
▁elesi	-3987
▁vo	-3988
▁nci	-3989
▁iri	-3990
▁kçı	-3991
▁rus	-3992
▁çiş	-3993
▁akımı	-3994
▁avran	-3995
▁zleri	-3996
▁ud	-3997
▁ayb	-3998
▁lup	-3999
▁risi	-4000
▁ettik	-4001
▁rtada	-4002
▁rz	-4003
▁misi	-4004
▁stan	-4005
▁tern	-4006
▁ister	-4007
▁liliğ	-4008
▁aza	-4009
▁ill	-4010
▁lme	-4011
▁doku	-4012
▁kimi	-4013
▁ug	-4014
▁sim	-4015
▁ıy	-4016
▁Bin	-4017
▁Ken	-4018
▁uku	-4019
▁akıl	-4020
▁eriş	-4021
▁sani	-4022
▁sizi	-4023
▁urun	-4024
▁ty	-4025
▁erdi	-4026
▁işin	-4027
▁ebebi	-4028
▁AV	-4029
▁nst	-4030
▁maaş	-4031
▁ncel	-4032
▁onum	-4033
▁Pe	-4034
▁NAT	-4035
▁amp	-4036
▁yad	-4037
▁ngı	-4038
▁uğu	-4039
▁aşar	-4040
▁imde	-4041
▁azırl	-4042
▁ahar	-4043
▁amış	-4044
▁ekin	-4045
▁mini	-4046
▁elli	-4047
▁rand	-4048
▁Yu	-4049
▁avi	-4050
▁çin	-4051
▁ales	-4052
▁etiş	-4053
▁anç	-4054
▁hir	-4055
▁vize	-4056
▁ören	-4057
▁dırma	-4058
▁80	-4059
▁ink	-4060
▁lum	-4061
▁mse	-4062
▁ıza	-4063
▁NATO	-4064
▁ahve	-4065
▁arsa	-4066
▁Kom	-4067
▁ett	-4068
▁şun	-4069
▁benz	-4070
▁çalı	-4071
▁HP	-4072
▁anca	-4073
▁üzel	-4074
▁ilmiş	-4075
▁rmaya	-4076
▁lc	-4077
▁hisse	-4078
▁ME	-4079
▁tuz	-4080
▁uşa	-4081
▁Şim	-4082
▁tılı	-4083
▁ou	-4084
▁tme	-4085
▁etmey	-4086
▁sub	-4087
▁allar	-4088
İH	-4089
▁bur	-4090
▁ikaye	-4091
▁Fi	-4092
▁aşk	-4093
▁ene	-4094
▁ima	-4095
▁âlâ	-4096
▁üny	-4097
▁ğla	-4098
▁laka	-4099
▁arttı	-4100
▁oynay	-4101
▁izde	-4102
▁mezun	-4103
▁SK	-4104
▁mb	-4105
▁liz	-4106
▁erat	-4107
▁uçlar	-4108
▁üsü	-4109
▁elam	-4110
▁nder	-4111
ciz	-4112
▁oma	-4113
▁ukuk	-4114
▁şkan	-4115
▁idare	-4116
▁kme	-4117
▁tez	-4118
▁alat	-4119
UR	-4120
▁75	-4121
▁utu	-4122
▁alır	-4123
▁utlu	-4124
det	-4125
▁ea	-4126
▁İç	-4127
▁nluk	-4128
▁üphe	-4129
▁uncu	-4130
▁oğraf	-4131
▁TH	-4132
▁anıt	-4133
▁ağış	-4134
▁rama	-4135
▁yoğu	-4136
▁arıda	-4137
▁lekt	-4138
▁seyi	-4139
▁çeki	-4140
▁kel	-4141
▁rib	-4142
▁kork	-4143
▁rmen	-4144
▁varl	-4145
▁oyunu	-4146
▁Pa	-4147
▁ved	-4148
▁iyan	-4149
▁rada	-4150
▁ift	-4151
▁kası	-4152
▁def	-4153
▁ero	-4154
▁ehir	-4155
▁ürek	-4156
▁ştır	-4157
▁gor	-4158
▁müh	-4159
▁Kadı	-4160
▁klık	-4161
▁rlar	-4162
▁zih	-4163
▁apta	-4164
▁rolü	-4165
▁lınan	-4166
▁LI	-4167
▁üf	-4168
▁diz	-4169
▁manda	-4170
▁urucu	-4171
▁Lu	-4172
▁phe	-4173
▁ırk	-4174
▁rülme	-4175
RA	-4176
qu	-4177
▁Tur	-4178
▁ilin	-4179
▁meni	-4180
▁bb	-4181
▁CEO	-4182
▁duyu	-4183
şi	-4184
▁öv	-4185
▁epe	-4186
▁lga	-4187
▁ayar	-4188
▁ördü	-4189
Gİ	-4190
▁kçe	-4191
▁yip	-4192
▁neli	-4193
▁65	-4194
▁kun	-4195
▁Qu	-4196
▁hn	-4197
▁je	-4198
▁afta	-4199
▁Be	-4200
▁IR	-4201
▁ino	-4202
▁ydu	-4203
▁imin	-4204
▁ızlar	-4205
▁lus	-4206
▁nus	-4207
▁rel	-4208
▁rız	-4209
▁eşme	-4210
▁urta	-4211
▁Cam	-4212
▁çın	-4213
▁emek	-4214
▁üldü	-4215
▁ynadı	-4216
▁Dil	-4217
▁ışla	-4218
go	-4219
▁uf	-4220
▁iko	-4221
▁kemi	-4222
▁ırsa	-4223
TE	-4224
▁ai	-4225
▁all	-4226
▁ipl	-4227
▁tün	-4228
▁grubu	-4229
DK	-4230
hi	-4231
ina	-4232
▁kont	-4233
▁rafı	-4234
▁netic	-4235
▁irişi	-4236
▁çiler	-4237
▁5.	-4238
▁KO	-4239
▁Me	-4240
▁THY	-4241
▁şof	-4242
▁aydı	-4243
▁netl	-4244
▁çatı	-4245
▁imkan	-4246
▁akim	-4247
▁rf	-4248
▁aru	-4249
▁eçme	-4250
▁olar	-4251
▁evlen	-4252
▁sergi	-4253
▁rc	-4254
▁Tem	-4255
▁aman	-4256
▁esir	-4257
▁inir	-4258
▁müzi	-4259
▁usta	-4260
▁maruz	-4261
▁ırlar	-4262
▁luş	-4263
▁götür	-4264
▁izden	-4265
oz	-4266
▁nis	-4267
▁nso	-4268
▁rosu	-4269
▁tlama	-4270
▁th	-4271
▁Ant	-4272
▁evl	-4273
▁lgi	-4274
▁çıl	-4275
▁atlar	-4276
▁The	-4277
▁sed	-4278
▁ket	-4279
▁Ge	-4280
▁ancı	-4281
▁devr	-4282
▁izyon	-4283
▁turdu	-4284
▁ilg	-4285
▁latan	-4286
▁yecek	-4287
▁+	-4288
▁ON	-4289
▁rg	-4290
▁Dir	-4291
▁akta	-4292
▁beya	-4293
▁Dİ	-4294
▁KA	-4295
▁edek	-4296
▁lok	-4297
▁arıl	-4298
▁neme	-4299
YA	-4300
▁gec	-4301
▁uma	-4302
▁veda	-4303
▁sc	-4304
▁emiş	-4305
▁itle	-4306
▁Bahçe	-4307
▁erisi	-4308
▁Ker	-4309
▁ilt	-4310
▁oks	-4311
▁taba	-4312
▁emeye	-4313
▁lerdi	-4314
GK	-4315
▁örü	-4316
▁tına	-4317
▁adamı	-4318
▁laştı	-4319
▁yoktu	-4320
▁Art	-4321
▁utl	-4322
▁Açık	-4323
▁Real	-4324
▁ikas	-4325
▁nmak	-4326
▁sıkı	-4327
▁ulmuş	-4328
▁ahv	-4329
▁raz	-4330
▁Beni	-4331
▁dini	-4332
▁luşu	-4333
▁ındı	-4334
▁nşaat	-4335
kin	-4336
▁amle	-4337
▁anış	-4338
▁ilke	-4339
▁zden	-4340
▁yn	-4341
▁rıs	-4342
▁ski	-4343
▁vcı	-4344
▁ığa	-4345
▁akem	-4346
▁ural	-4347
▁hü	-4348
▁lh	-4349
▁anıl	-4350
▁layla	-4351
▁*	-4352
▁au	-4353
▁lur	-4354
▁vas	-4355
▁ygı	-4356
▁azar	-4357
▁irim	-4358
▁arayı	-4359
▁eklen	-4360
▁400	-4361
▁cer	-4362
▁dli	-4363
▁resi	-4364
▁aldık	-4365
▁cek	-4366
▁rba	-4367
▁abu	-4368
▁eza	-4369
▁orgu	-4370
▁des	-4371
▁nım	-4372
▁ğun	-4373
▁adem	-4374
▁apor	-4375
▁sanı	-4376
▁tiya	-4377
▁6.	-4378
▁nb	-4379
▁Bab	-4380
▁ava	-4381
▁tema	-4382
▁üler	-4383
▁ruyor	-4384
▁rının	-4385
▁BA	-4386
▁şer	-4387
▁eçim	-4388
▁kapı	-4389
▁MA	-4390
▁aplar	-4391
▁LA	-4392
▁ÖZ	-4393
▁rük	-4394
▁akam	-4395
▁emin	-4396
▁urgu	-4397
▁yeri	-4398
▁rafik	-4399
mu	-4400
▁150	-4401
▁kov	-4402
▁str	-4403
▁özü	-4404
▁eyim	-4405
▁üküm	-4406
▁ümle	-4407
▁düğün	-4408
SO	-4409
▁ksi	-4410
▁nir	-4411
▁urs	-4412
▁şıl	-4413
▁arlı	-4414
▁icra	-4415
▁niye	-4416
▁ıdan	-4417
▁karak	-4418
▁ğının	-4419
LU	-4420
▁Ara	-4421
▁ion	-4422
▁akal	-4423
▁port	-4424
▁rakt	-4425
▁stik	-4426
▁idari	-4427
▁Ala	-4428
▁arıs	-4429
▁ilit	-4430
▁kons	-4431
▁tler	-4432
▁laf	-4433
▁Bank	-4434
▁tres	-4435
▁yebil	-4436
▁arf	-4437
▁miye	-4438
▁rahi	-4439
▁gan	-4440
▁mon	-4441
▁osu	-4442
▁ütü	-4443
▁ğıt	-4444
▁misa	-4445
▁mpiy	-4446
▁zafer	-4447
▁öylem	-4448
▁Ra	-4449
▁Za	-4450
▁üb	-4451
▁Med	-4452
▁ndu	-4453
▁ayım	-4454
▁esin	-4455
▁ırdı	-4456
lum	-4457
▁38	-4458
▁adır	-4459
▁irve	-4460
▁llar	-4461
▁üzen	-4462
▁itika	-4463
▁37	-4464
▁TA	-4465
▁era	-4466
▁rtı	-4467
▁sakla	-4468
▁ergi	-4469
▁tein	-4470
▁lamış	-4471
rik	-4472
▁AT	-4473
▁Ege	-4474
▁ian	-4475
▁tun	-4476
▁bine	-4477
▁ınan	-4478
▁çılar	-4479
▁600	-4480
▁fat	-4481
▁fre	-4482
▁mac	-4483
▁seb	-4484
▁kanlı	-4485
▁lemek	-4486
▁add	-4487
▁ber	-4488
▁iade	-4489
▁ğret	-4490
▁Kurum	-4491
▁lim	-4492
▁bett	-4493
▁tiler	-4494
▁Pi	-4495
▁erab	-4496
▁kaçı	-4497
▁roke	-4498
▁arika	-4499
▁ağlam	-4500
▁orman	-4501
BA	-4502
EN	-4503
▁kuy	-4504
▁aliye	-4505
▁ilesi	-4506
▁liman	-4507
▁luyor	-4508
ARA	-4509
▁api	-4510
▁aye	-4511
▁yma	-4512
▁alil	-4513
▁asın	-4514
▁nadı	-4515
▁nakl	-4516
▁yönel	-4517
▁Tİ	-4518
▁suçl	-4519
▁mekli	-4520
pe	-4521
▁42	-4522
▁Ağ	-4523
▁Lİ	-4524
▁TÜR	-4525
▁dis	-4526
▁alla	-4527
▁neği	-4528
▁stih	-4529
▁tiyor	-4530
DU	-4531
FF	-4532
▁hâ	-4533
▁ave	-4534
▁med	-4535
▁sam	-4536
▁spo	-4537
▁emle	-4538
▁kley	-4539
MS	-4540
▁zg	-4541
▁tuk	-4542
▁imse	-4543
▁kend	-4544
▁boyun	-4545
▁eğil	-4546
▁tama	-4547
▁ekled	-4548
▁irini	-4549
▁hi	-4550
▁ato	-4551
▁tül	-4552
▁arac	-4553
▁hala	-4554
▁Rİ	-4555
▁apl	-4556
▁ida	-4557
▁zel	-4558
▁zgü	-4559
▁zli	-4560
▁kele	-4561
▁orum	-4562
▁otom	-4563
▁tıyor	-4564
ÜK	-4565
▁Kana	-4566
▁emih	-4567
▁nucu	-4568
▁rarak	-4569
▁şları	-4570
▁55	-4571
▁sp	-4572
▁rdo	-4573
▁rla	-4574
▁Yapı	-4575
▁dalar	-4576
▁isler	-4577
▁emem	-4578
▁rkad	-4579
▁şleri	-4580
▁41	-4581
▁üd	-4582
▁Sne	-4583
▁kom	-4584
▁mim	-4585
▁rtış	-4586
od	-4587
rul	-4588
▁yıcı	-4589
▁nüyor	-4590
▁AKP	-4591
▁TFF	-4592
▁hızl	-4593
▁rkek	-4594
▁Kİ	-4595
▁Le	-4596
▁NE	-4597
▁Üç	-4598
▁anki	-4599
▁ekçe	-4600
▁lüks	-4601
▁tabi	-4602
▁ıfır	-4603
▁inler	-4604
rem	-4605
▁44	-4606
▁km	-4607
▁eni	-4608
▁lla	-4609
▁rey	-4610
▁şef	-4611
▁ürme	-4612
ST	-4613
▁"1	-4614
▁öb	-4615
▁arc	-4616
▁akım	-4617
▁idir	-4618
▁ilik	-4619
▁48	-4620
▁Lo	-4621
▁cağı	-4622
▁doğa	-4623
▁ilde	-4624
▁irdi	-4625
▁tazi	-4626
▁turu	-4627
▁zesi	-4628
▁rabil	-4629
▁Yol	-4630
▁ikra	-4631
▁mand	-4632
▁temin	-4633
▁AL	-4634
▁250	-4635
▁ost	-4636
▁akkı	-4637
▁onla	-4638
▁ulma	-4639
▁Kenan	-4640
▁zm	-4641
▁nfe	-4642
▁rlü	-4643
▁atçı	-4644
▁ermi	-4645
▁sker	-4646
▁39	-4647
▁TR	-4648
▁bı	-4649
▁dy	-4650
▁mm	-4651
▁uva	-4652
▁eliş	-4653
▁olduk	-4654
▁Tam	-4655
▁arl	-4656
▁enf	-4657
▁onuç	-4658
▁slar	-4659
▁arita	-4660
▁46	-4661
▁tw	-4662
▁İT	-4663
▁nar	-4664
▁yın	-4665
▁şen	-4666
▁ağın	-4667
▁izni	-4668
▁47	-4669
▁YI	-4670
▁ded	-4671
▁slı	-4672
▁und	-4673
▁uri	-4674
▁ağız	-4675
▁erde	-4676
▁kula	-4677
▁rist	-4678
▁utan	-4679
▁şiir	-4680
▁Yapıl	-4681
▁girme	-4682
HK	-4683
▁İN	-4684
▁DHA	-4685
▁vat	-4686
▁ştı	-4687
▁irti	-4688
▁rafi	-4689
▁eriyo	-4690
▁yları	-4691
▁lb	-4692
▁oğal	-4693
▁rülü	-4694
▁taciz	-4695
▁Kı	-4696
▁çü	-4697
▁lez	-4698
▁eksi	-4699
▁iber	-4700
▁uydu	-4701
▁meşin	-4702
▁çakla	-4703
▁4-	-4704
▁Ke	-4705
▁Vi	-4706
▁qu	-4707
▁112	-4708
▁Kız	-4709
▁erm	-4710
▁ned	-4711
▁gesi	-4712
▁skeri	-4713
▁RA	-4714
▁eke	-4715
▁leti	-4716
▁erine	-4717
▁gelme	-4718
▁oplum	-4719
▁yaşan	-4720
▁53	-4721
▁Yaş	-4722
▁hav	-4723
▁kuv	-4724
▁şiş	-4725
▁saba	-4726
▁ıklı	-4727
▁ımda	-4728
▁arısı	-4729
▁asta	-4730
▁ikna	-4731
▁reti	-4732
▁yalı	-4733
▁ğrul	-4734
▁asına	-4735
GE	-4736
▁43	-4737
▁Ru	-4738
▁Onu	-4739
▁neri	-4740
▁rduğu	-4741
▁TC	-4742
▁ht	-4743
▁ÖN	-4744
▁lit	-4745
▁ntü	-4746
▁teh	-4747
▁vri	-4748
▁esmi	-4749
RE	-4750
▁jd	-4751
▁1.5	-4752
▁amsu	-4753
▁elem	-4754
SS	-4755
▁afi	-4756
▁şkı	-4757
▁şok	-4758
▁nize	-4759
▁Dev	-4760
▁hey	-4761
▁tap	-4762
▁vin	-4763
▁zak	-4764
▁önü	-4765
▁akma	-4766
▁akti	-4767
▁nlaş	-4768
▁aları	-4769
▁aşlay	-4770
▁timiz	-4771
▁yh	-4772
▁iman	-4773
▁omut	-4774
▁kleme	-4775
▁lişki	-4776
ep	-4777
tir	-4778
▁AZ	-4779
▁cen	-4780
▁tle	-4781
▁tıp	-4782
▁abit	-4783
▁dri	-4784
▁lah	-4785
▁amim	-4786
▁sana	-4787
las	-4788
▁AD	-4789
▁Du	-4790
▁ary	-4791
▁fen	-4792
▁mün	-4793
▁zır	-4794
▁ırak	-4795
▁Kol	-4796
▁esl	-4797
▁şak	-4798
▁LARI	-4799
▁ırlı	-4800
▁Ho	-4801
▁1-0	-4802
▁tte	-4803
▁eral	-4804
▁etli	-4805
▁kuvv	-4806
▁◊	-4807
▁Mal	-4808
▁ier	-4809
▁Para	-4810
▁ağıt	-4811
▁redi	-4812
▁alana	-4813
▁mimar	-4814
IR	-4815
OK	-4816
▁orc	-4817
▁pra	-4818
▁elal	-4819
▁ette	-4820
▁mür	-4821
▁syo	-4822
▁lattı	-4823
▁120	-4824
▁kâr	-4825
▁rüz	-4826
▁tey	-4827
▁etik	-4828
▁ndil	-4829
▁beden	-4830
▁sla	-4831
▁arzu	-4832
▁atlı	-4833
▁inme	-4834
▁türü	-4835
▁gizl	-4836
▁kusu	-4837
▁suçu	-4838
▁entin	-4839
▁FI	-4840
▁yel	-4841
▁cell	-4842
▁rucu	-4843
▁Şi	-4844
▁aca	-4845
▁set	-4846
▁ula	-4847
▁erha	-4848
▁ilir	-4849
▁keşf	-4850
▁reme	-4851
▁tisi	-4852
▁ansız	-4853
iro	-4854
▁aram	-4855
▁land	-4856
▁orcu	-4857
▁ınır	-4858
▁lmesi	-4859
▁Ja	-4860
▁adl	-4861
▁rtu	-4862
▁süt	-4863
▁zey	-4864
▁şlı	-4865
▁Altı	-4866
▁KOBİ	-4867
▁apar	-4868
▁ares	-4869
▁edav	-4870
▁eşim	-4871
▁küçü	-4872
▁osun	-4873
▁ly	-4874
▁İL	-4875
▁Doğ	-4876
▁sar	-4877
▁esis	-4878
▁lıkta	-4879
▁tığım	-4880
▁52	-4881
▁72	-4882
▁sko	-4883
▁ABAH	-4884
▁adir	-4885
▁ezon	-4886
▁imar	-4887
▁kod	-4888
▁küf	-4889
▁dird	-4890
▁urma	-4891
▁uştu	-4892
▁BU	-4893
▁edd	-4894
▁sul	-4895
▁usa	-4896
▁eren	-4897
▁rusu	-4898
▁çağr	-4899
▁Et	-4900
eref	-4901
▁idam	-4902
▁inat	-4903
▁lezze	-4904
▁Ni	-4905
▁OR	-4906
▁RI	-4907
land	-4908
▁Oli	-4909
▁TSK	-4910
▁lif	-4911
▁vuş	-4912
▁ğdu	-4913
▁Bayra	-4914
▁oç	-4915
▁ebi	-4916
▁vel	-4917
▁arda	-4918
▁öndü	-4919
▁esine	-4920
▁günün	-4921
hal	-4922
▁7.	-4923
▁81	-4924
▁rm	-4925
▁kçi	-4926
▁our	-4927
▁erce	-4928
▁kala	-4929
▁sesi	-4930
▁izlen	-4931
no	-4932
▁1,	-4933
▁aça	-4934
▁rna	-4935
▁illi	-4936
▁tüne	-4937
▁vakit	-4938
▁Hiç	-4939
▁SGK	-4940
▁aps	-4941
▁dua	-4942
▁ell	-4943
▁ibe	-4944
▁lab	-4945
▁ıyı	-4946
▁arke	-4947
▁esini	-4948
alan	-4949
▁int	-4950
▁psi	-4951
▁sit	-4952
▁açma	-4953
▁esli	-4954
▁işlet	-4955
▁2,	-4956
▁LY	-4957
▁Mer	-4958
▁ayk	-4959
▁tit	-4960
▁ıta	-4961
▁akla	-4962
▁azlı	-4963
▁emir	-4964
▁uçla	-4965
▁dirne	-4966
▁tta	-4967
▁ümü	-4968
▁mart	-4969
▁vaka	-4970
▁ğunu	-4971
▁cular	-4972
▁eviye	-4973
▁leşti	-4974
▁yolla	-4975
▁öm	-4976
▁MİT	-4977
▁San	-4978
▁ksu	-4979
▁rav	-4980
▁sap	-4981
▁rlüğ	-4982
▁örgü	-4983
▁yalar	-4984
▁yoruz	-4985
▁85	-4986
▁lib	-4987
▁mlı	-4988
▁nta	-4989
▁ildir	-4990
▁kültü	-4991
eb	-4992
▁gı	-4993
▁Res	-4994
▁hlı	-4995
▁ola	-4996
▁sün	-4997
▁dele	-4998
▁iden	-4999
▁ille	-5000
▁viye	-5001
▁isyan	-5002
▁mezar	-5003
▁idi	-5004
▁rüt	-5005
▁vek	-5006
▁lüyor	-5007
âh	-5008
▁56	-5009
▁nş	-5010
▁ıd	-5011
▁rga	-5012
▁keti	-5013
▁oruy	-5014
▁astro	-5015
▁ınızı	-5016
▁abır	-5017
▁ktar	-5018
▁ocuğ	-5019
▁zara	-5020
▁By	-5021
▁nm	-5022
▁azan	-5023
▁ikal	-5024
▁mler	-5025
▁pany	-5026
▁CAK	-5027
▁Say	-5028
▁rya	-5029
▁oğru	-5030
▁irekt	-5031
▁VE	-5032
▁ked	-5033
▁iyas	-5034
▁kına	-5035
▁onut	-5036
▁zeri	-5037
▁oplam	-5038
▁ılmış	-5039
En	-5040
ig	-5041
▁Fil	-5042
▁Tar	-5043
▁ayd	-5044
▁ncı	-5045
▁amak	-5046
▁arbo	-5047
▁orlu	-5048
▁rsan	-5049
▁ülme	-5050
▁ınav	-5051
UZ	-5052
▁riş	-5053
▁mden	-5054
▁tlar	-5055
▁ölümü	-5056
UN	-5057
HAL	-5058
▁(2	-5059
▁51	-5060
▁BE	-5061
▁vi	-5062
İHAN	-5063
▁kka	-5064
▁sto	-5065
▁CİHAN	-5066
▁54	-5067
▁OS	-5068
▁ao	-5069
▁TRT	-5070
▁run	-5071
▁vde	-5072
▁vil	-5073
▁etle	-5074
▁üçlü	-5075
▁şeri	-5076
▁kulak	-5077
▁lp	-5078
▁ahm	-5079
▁nat	-5080
▁iyes	-5081
▁arihi	-5082
▁pt	-5083
▁evli	-5084
▁ilal	-5085
▁kaça	-5086
▁kulu	-5087
ver	-5088
▁Fed	-5089
▁Var	-5090
▁aro	-5091
▁leh	-5092
▁anel	-5093
▁hrac	-5094
▁lazı	-5095
▁işini	-5096
▁mavil	-5097
▁hb	-5098
▁alo	-5099
▁efa	-5100
▁ism	-5101
▁lüm	-5102
▁OHAL	-5103
▁ndır	-5104
▁niha	-5105
▁rumu	-5106
GS	-5107
KA	-5108
rar	-5109
▁AP	-5110
▁AS	-5111
▁vı	-5112
▁Ön	-5113
oğlu	-5114
▁apo	-5115
▁bür	-5116
▁saf	-5117
▁çay	-5118
▁emel	-5119
▁elini	-5120
▁roğlu	-5121
▁tehdi	-5122
▁#	-5123
tik	-5124
▁MI	-5125
▁SE	-5126
▁Alt	-5127
▁rke	-5128
▁ekon	-5129
▁DI	-5130
▁EM	-5131
▁SA	-5132
▁Din	-5133
▁akv	-5134
▁arta	-5135
▁Zafer	-5136
▁mikro	-5137
eet	-5138
▁AM	-5139
▁ps	-5140
▁AVM	-5141
▁derdi	-5142
▁vu	-5143
▁Kul	-5144
▁ÖSO	-5145
▁brik	-5146
▁erji	-5147
▁lany	-5148
▁idman	-5149
▁şahit	-5150
▁öy	-5151
▁lon	-5152
▁ruz	-5153
▁pler	-5154
▁tımı	-5155
▁utuk	-5156
▁rılan	-5157
BC	-5158
ko	-5159
▁ej	-5160
ükür	-5161
▁şeb	-5162
▁akvim	-5163
KE	-5164
▁ets	-5165
▁lex	-5166
▁mam	-5167
▁udu	-5168
▁İsta	-5169
▁arrem	-5170
▁49	-5171
▁Gar	-5172
▁day	-5173
▁neg	-5174
▁vah	-5175
▁adil	-5176
▁anik	-5177
▁olcu	-5178
▁ygul	-5179
▁2-1	-5180
▁fan	-5181
▁lıc	-5182
▁rür	-5183
▁sra	-5184
▁acar	-5185
▁ızlık	-5186
lal	-5187
▁yk	-5188
▁eşe	-5189
▁nek	-5190
▁ota	-5191
▁siy	-5192
▁eyir	-5193
▁yasal	-5194
▁58	-5195
▁ky	-5196
▁üh	-5197
▁Dic	-5198
▁asp	-5199
▁rku	-5200
▁ülü	-5201
▁evik	-5202
▁mine	-5203
▁tira	-5204
▁aller	-5205
▁arlık	-5206
▁ollar	-5207
▁ET	-5208
▁Bel	-5209
▁Kav	-5210
▁kup	-5211
▁nte	-5212
▁aylı	-5213
▁erin	-5214
▁evet	-5215
▁kafe	-5216
▁rkan	-5217
▁seni	-5218
▁çısı	-5219
▁ilgis	-5220
▁otomo	-5221
Ğİ	-5222
una	-5223
▁CI	-5224
▁şçi	-5225
▁antı	-5226
▁ayla	-5227
▁ekib	-5228
▁ımla	-5229
▁·	-5230
▁2-0	-5231
▁err	-5232
▁koç	-5233
▁sis	-5234
▁zon	-5235
▁elge	-5236
▁irde	-5237
▁rend	-5238
▁rens	-5239
▁çevr	-5240
▁Şeri	-5241
▁biyet	-5242
▁Nİ	-5243
▁Hat	-5244
▁hap	-5245
▁tom	-5246
▁dili	-5247
▁elef	-5248
▁fiil	-5249
▁pası	-5250
▁atılı	-5251
▁enmiş	-5252
▁menin	-5253
▁munda	-5254
▁zirve	-5255
NA	-5256
xy	-5257
▁rob	-5258
▁sur	-5259
▁acmi	-5260
▁emri	-5261
▁rmış	-5262
▁urdu	-5263
▁zlen	-5264
▁eyler	-5265
▁nakli	-5266
▁rilme	-5267
▁rinde	-5268
▁evd	-5269
▁krem	-5270
▁aksim	-5271
▁anını	-5272
▁arlar	-5273
▁67	-5274
▁SP	-5275
▁eu	-5276
▁ont	-5277
▁inik	-5278
▁luğu	-5279
▁tıkla	-5280
▁unduğ	-5281
BB	-5282
▁59	-5283
▁78	-5284
▁FA	-5285
▁nıt	-5286
▁şin	-5287
▁kısm	-5288
▁layı	-5289
▁eleme	-5290
▁rtlar	-5291
TC	-5292
▁ifi	-5293
▁nut	-5294
▁taç	-5295
▁erzi	-5296
▁kran	-5297
▁sler	-5298
▁alaxy	-5299
▁anınd	-5300
▁arşıy	-5301
▁masum	-5302
LAR	-5303
▁66	-5304
▁ew	-5305
▁yr	-5306
▁ÜN	-5307
▁DAN	-5308
▁YAP	-5309
▁ngi	-5310
▁zla	-5311
▁ğrı	-5312
▁alay	-5313
▁iydi	-5314
▁tatü	-5315
▁özgü	-5316
▁̈	-5317
▁69	-5318
▁RE	-5319
▁AYM	-5320
▁LGİ	-5321
▁züm	-5322
▁ABER	-5323
▁törü	-5324
▁unma	-5325
▁çlar	-5326
▁andır	-5327
▁ideal	-5328
▁iteli	-5329
▁tezah	-5330
CE	-5331
şk	-5332
▁5-	-5333
▁62	-5334
▁Nur	-5335
▁TAK	-5336
▁amer	-5337
▁çıka	-5338
▁ei	-5339
▁çö	-5340
▁eyr	-5341
▁vey	-5342
▁arını	-5343
▁63	-5344
▁İŞ	-5345
▁Han	-5346
▁NDA	-5347
▁ema	-5348
▁üşü	-5349
▁başa	-5350
▁eynir	-5351
▁ormon	-5352
ami	-5353
▁İk	-5354
▁ted	-5355
▁şke	-5356
▁ariç	-5357
▁iral	-5358
▁nere	-5359
▁andaş	-5360
▁erede	-5361
Mİ	-5362
▁ES	-5363
▁kb	-5364
▁Aşk	-5365
▁ahr	-5366
▁eçe	-5367
▁kaş	-5368
▁les	-5369
▁çün	-5370
▁ayıp	-5371
▁pozi	-5372
▁eyhan	-5373
▁rulan	-5374
▁Kap	-5375
▁hur	-5376
▁obi	-5377
▁emal	-5378
▁mdan	-5379
▁nmek	-5380
▁nümü	-5381
▁üzey	-5382
▁işkin	-5383
▁nmadı	-5384
▁82	-5385
▁800	-5386
▁Rum	-5387
▁akk	-5388
▁lüğ	-5389
▁essi	-5390
▁imle	-5391
▁nedi	-5392
▁rtak	-5393
▁çeri	-5394
▁üket	-5395
▁endir	-5396
▁litik	-5397
▁ts	-5398
▁üml	-5399
▁LERİ	-5400
▁alta	-5401
▁ilem	-5402
▁ivil	-5403
▁yağı	-5404
▁ültü	-5405
▁LGİLİ	-5406
▁amlar	-5407
ou	-5408
LER	-5409
▁3,	-5410
▁8.	-5411
▁MÜ	-5412
▁reh	-5413
▁ubu	-5414
▁baka	-5415
▁desi	-5416
▁ısın	-5417
▁latma	-5418
ĞI	-5419
▁′	-5420
▁Hz	-5421
▁BİR	-5422
▁Lok	-5423
▁aiz	-5424
▁aziz	-5425
▁imal	-5426
▁rans	-5427
▁adesi	-5428
▁engin	-5429
▁68	-5430
▁Hak	-5431
▁bru	-5432
▁utla	-5433
▁ığın	-5434
▁ÖR	-5435
▁Hay	-5436
▁eka	-5437
▁ipa	-5438
▁olmu	-5439
▁iyeli	-5440
▁mesin	-5441
▁nılan	-5442
▁rumlu	-5443
rat	-5444
▁KD	-5445
▁rv	-5446
▁yy	-5447
▁ahı	-5448
▁küm	-5449
▁uçu	-5450
▁çel	-5451
▁anır	-5452
▁emil	-5453
▁sası	-5454
▁tomo	-5455
▁akalı	-5456
▁5,	-5457
▁Men	-5458
▁kaf	-5459
▁ult	-5460
▁FIFA	-5461
▁Fran	-5462
▁atör	-5463
▁açın	-5464
▁aşım	-5465
▁bula	-5466
▁kşam	-5467
DO	-5468
▁nav	-5469
▁ndü	-5470
▁rgu	-5471
▁askı	-5472
▁edeb	-5473
▁nanı	-5474
▁imine	-5475
▁imini	-5476
▁manşe	-5477
▁tweet	-5478
BE	-5479
ag	-5480
up	-5481
▁64	-5482
▁EK	-5483
▁GB	-5484
▁lg	-5485
▁700	-5486
▁eyt	-5487
▁fed	-5488
▁isk	-5489
▁ario	-5490
▁arun	-5491
▁ikti	-5492
▁çekm	-5493
▁örev	-5494
▁özüm	-5495
▁ğumuz	-5496
▁Don	-5497
▁dek	-5498
▁loj	-5499
▁zek	-5500
▁ksız	-5501
▁mizle	-5502
▁57	-5503
▁hit	-5504
▁asım	-5505
▁list	-5506
▁ıfat	-5507
▁ibare	-5508
▁uzakl	-5509
▁ırala	-5510
▁nler	-5511
▁plak	-5512
▁ımın	-5513
vo	-5514
▁79	-5515
▁Hü	-5516
▁öç	-5517
▁İR	-5518
▁Jam	-5519
▁car	-5520
▁oşu	-5521
▁amil	-5522
▁avuk	-5523
▁güze	-5524
▁kole	-5525
▁levi	-5526
▁yede	-5527
▁edavi	-5528
▁eslen	-5529
TV	-5530
net	-5531
▁9.	-5532
▁GE	-5533
▁Mi	-5534
▁dk	-5535
▁İt	-5536
▁ığ	-5537
▁Mor	-5538
▁dük	-5539
▁ess	-5540
▁işl	-5541
▁şim	-5542
▁Jose	-5543
▁fter	-5544
▁lişi	-5545
▁nmey	-5546
▁rese	-5547
▁iklim	-5548
▁uları	-5549
ub	-5550
▁Je	-5551
▁ann	-5552
▁ekl	-5553
▁elle	-5554
▁ısını	-5555
▁PS	-5556
▁ıya	-5557
▁imge	-5558
▁şbir	-5559
▁adise	-5560
SYK	-5561
▁61	-5562
▁Ah	-5563
▁aw	-5564
▁İZ	-5565
▁dro	-5566
▁güc	-5567
▁kip	-5568
▁HSYK	-5569
▁akip	-5570
▁dikt	-5571
▁erya	-5572
▁uruş	-5573
▁nelin	-5574
▁oprak	-5575
OS	-5576
SE	-5577
▁4,	-5578
▁71	-5579
▁İÇ	-5580
▁ifl	-5581
▁pre	-5582
▁Şey	-5583
▁dura	-5584
▁hats	-5585
▁iniş	-5586
▁orku	-5587
▁andan	-5588
▁çüncü	-5589
Ne	-5590
dim	-5591
▁2.5	-5592
▁Hal	-5593
▁kii	-5594
▁klü	-5595
▁köp	-5596
▁yem	-5597
▁STAN	-5598
▁otoğ	-5599
▁zlar	-5600
▁83	-5601
▁zü	-5602
▁Sol	-5603
▁erc	-5604
▁gra	-5605
▁ura	-5606
▁xxx	-5607
▁Bizi	-5608
▁siyo	-5609
▁nmaya	-5610
▁urmay	-5611
Şu	-5612
▁6-	-5613
lığı	-5614
▁1,5	-5615
▁TMS	-5616
▁Tel	-5617
▁don	-5618
▁ehl	-5619
▁erh	-5620
▁Şek	-5621
▁ayna	-5622
▁irme	-5623
▁many	-5624
▁müsa	-5625
▁omba	-5626
▁ziya	-5627
▁Çalı	-5628
▁edeni	-5629
▁ırakı	-5630
▁IK	-5631
▁Mek	-5632
▁Pek	-5633
▁Ron	-5634
▁lış	-5635
▁oka	-5636
▁ric	-5637
▁ırp	-5638
▁eğiş	-5639
▁idan	-5640
▁akdir	-5641
▁eklem	-5642
▁Şeker	-5643
▁Net	-5644
▁Ver	-5645
▁fiy	-5646
▁Kale	-5647
▁ciro	-5648
▁rota	-5649
▁umar	-5650
▁ünni	-5651
▁üzde	-5652
▁vakti	-5653
▁ıştır	-5654
CA	-5655
▁@	-5656
▁lih	-5657
▁tok	-5658
▁vor	-5659
▁atür	-5660
vir	-5661
üri	-5662
▁6,	-5663
▁EV	-5664
▁Op	-5665
▁KDV	-5666
▁Nit	-5667
▁atm	-5668
▁anar	-5669
CK	-5670
ise	-5671
▁att	-5672
▁iev	-5673
▁irt	-5674
▁ısm	-5675
▁şta	-5676
▁enni	-5677
▁rimi	-5678
▁calan	-5679
▁idrar	-5680
▁yapım	-5681
▁şeref	-5682
▁CA	-5683
▁CN	-5684
▁FB	-5685
▁ue	-5686
▁deh	-5687
▁kro	-5688
▁flaş	-5689
▁menf	-5690
▁yası	-5691
▁ardak	-5692
DÜ	-5693
▁Ac	-5694
▁arg	-5695
▁ibi	-5696
▁oğa	-5697
▁itme	-5698
▁ecekt	-5699
bbi	-5700
▁EY	-5701
▁fit	-5702
▁naz	-5703
▁ome	-5704
▁opu	-5705
▁vni	-5706
▁çen	-5707
▁duat	-5708
▁veli	-5709
▁TÜRKİ	-5710
▁dırım	-5711
UK	-5712
sip	-5713
▁73	-5714
▁CEK	-5715
▁Kaf	-5716
▁Val	-5717
▁tfa	-5718
▁uld	-5719
▁şov	-5720
▁TMSF	-5721
▁adde	-5722
▁aşan	-5723
▁baha	-5724
▁kule	-5725
▁rını	-5726
▁takı	-5727
▁ldüğü	-5728
▁merdi	-5729
▁nisan	-5730
TÜ	-5731
zet	-5732
▁Tü	-5733
▁ss	-5734
▁ALI	-5735
▁Geç	-5736
▁NDE	-5737
▁STE	-5738
▁enn	-5739
▁lki	-5740
▁ğüs	-5741
▁amir	-5742
▁aşta	-5743
▁eton	-5744
▁iyel	-5745
▁pist	-5746
▁rüya	-5747
▁sları	-5748
▁OĞ	-5749
▁POR	-5750
▁Zar	-5751
▁bra	-5752
▁zis	-5753
▁ehri	-5754
▁fade	-5755
▁hmet	-5756
▁rdım	-5757
▁rünü	-5758
▁taah	-5759
▁ğmen	-5760
▁ekili	-5761
▁ladık	-5762
▁menaj	-5763
▁rland	-5764
İŞ	-5765
▁ÜR	-5766
▁Gol	-5767
▁lüt	-5768
▁müf	-5769
▁pil	-5770
▁Üst	-5771
▁Şii	-5772
▁şın	-5773
▁detti	-5774
▁rlığı	-5775
▁76	-5776
▁my	-5777
▁uça	-5778
▁üme	-5779
▁ılı	-5780
▁azın	-5781
▁ekli	-5782
▁ller	-5783
▁lımı	-5784
▁benze	-5785
▁ranla	-5786
▁RT	-5787
▁pç	-5788
▁vk	-5789
▁cas	-5790
▁cra	-5791
▁lya	-5792
▁mle	-5793
▁omu	-5794
▁reç	-5795
▁danı	-5796
▁ddet	-5797
▁hbar	-5798
▁iner	-5799
▁lyon	-5800
▁taze	-5801
▁tmiş	-5802
▁yete	-5803
▁ylem	-5804
▁şaka	-5805
▁aflar	-5806
▁ahram	-5807
▁88	-5808
▁EZ	-5809
▁PA	-5810
▁10.	-5811
▁Hol	-5812
▁Los	-5813
▁Mak	-5814
▁fel	-5815
▁olf	-5816
▁ors	-5817
▁yev	-5818
▁aşıl	-5819
▁bini	-5820
▁infi	-5821
▁satı	-5822
▁ırım	-5823
▁ışın	-5824
▁James	-5825
▁arlan	-5826
▁dikka	-5827
▁dirim	-5828
▁helal	-5829
PO	-5830
ân	-5831
▁BI	-5832
▁İY	-5833
▁ENİ	-5834
▁Gör	-5835
▁Yok	-5836
▁hti	-5837
▁ldı	-5838
▁tev	-5839
▁üll	-5840
▁ahim	-5841
▁diyo	-5842
▁else	-5843
▁eyre	-5844
▁hael	-5845
▁nday	-5846
▁röva	-5847
▁sten	-5848
▁yakı	-5849
▁estek	-5850
▁irlen	-5851
▁keşif	-5852
▁ruldu	-5853
▁ışlar	-5854
UT	-5855
ood	-5856
▁77	-5857
▁84	-5858
▁Ğİ	-5859
▁2-3	-5860
▁hel	-5861
▁oyd	-5862
▁ahri	-5863
▁rsun	-5864
▁ekley	-5865
▁iflas	-5866
▁plant	-5867
▁74	-5868
▁KK	-5869
▁YÖ	-5870
▁BBC	-5871
▁aci	-5872
▁emd	-5873
▁erb	-5874
▁KPSS	-5875
▁azıl	-5876
▁Gazze	-5877
▁andık	-5878
▁katla	-5879
YK	-5880
şet	-5881
▁KCK	-5882
▁saç	-5883
▁ibya	-5884
▁lata	-5885
▁oplu	-5886
▁tıka	-5887
▁üman	-5888
▁Futbo	-5889
▁etler	-5890
▁lması	-5891
▁EL	-5892
▁ass	-5893
▁irb	-5894
▁rvi	-5895
▁uta	-5896
▁Sosa	-5897
▁aban	-5898
▁alim	-5899
▁inek	-5900
▁çağı	-5901
▁ıtla	-5902
▁landa	-5903
▁3'	-5904
▁86	-5905
▁Şa	-5906
▁350	-5907
▁Kan	-5908
▁hta	-5909
▁riy	-5910
▁unv	-5911
▁emur	-5912
▁herh	-5913
▁kisi	-5914
▁nara	-5915
▁nist	-5916
▁raca	-5917
▁rücü	-5918
▁hapse	-5919
tah	-5920
▁89	-5921
▁bez	-5922
▁oni	-5923
▁ozu	-5924
▁sıl	-5925
▁sığ	-5926
▁Paul	-5927
▁acağ	-5928
▁arat	-5929
▁aşam	-5930
▁eyni	-5931
▁ider	-5932
▁areti	-5933
▁eylan	-5934
▁yaşay	-5935
▁Bİ	-5936
▁DEN	-5937
▁Mis	-5938
▁avr	-5939
▁tlu	-5940
▁amca	-5941
▁tkin	-5942
▁yada	-5943
▁apsam	-5944
▁ilmes	-5945
▁manya	-5946
▁okrat	-5947
▁EC	-5948
▁OL	-5949
▁SU	-5950
▁şö	-5951
▁BUL	-5952
▁Gal	-5953
▁mpa	-5954
▁ote	-5955
▁tre	-5956
▁uka	-5957
▁ÖSY	-5958
▁zisy	-5959
▁şika	-5960
▁tmaya	-5961
CI	-5962
ly	-5963
har	-5964
▁şt	-5965
▁FAD	-5966
▁Kıv	-5967
▁LMA	-5968
▁işk	-5969
▁mül	-5970
▁nse	-5971
▁oli	-5972
▁TÜRK	-5973
▁varı	-5974
▁dehşe	-5975
UM	-5976
ATA	-5977
mür	-5978
İKA	-5979
▁Der	-5980
▁Kos	-5981
▁VER	-5982
▁lav	-5983
▁mus	-5984
▁üzi	-5985
▁İHA	-5986
▁ansu	-5987
▁nmay	-5988
▁ıştı	-5989
▁biliy	-5990
▁ithal	-5991
▁Ki	-5992
▁zdi	-5993
▁anın	-5994
▁arıy	-5995
▁ayli	-5996
▁evda	-5997
▁imaj	-5998
▁imes	-5999
▁lumu	-6000
▁nika	-6001
▁tali	-6002
▁inlik	-6003
NE	-6004
▁Ga	-6005
▁11.	-6006
▁enüz	-6007
▁muaf	-6008
▁zını	-6009
▁ğine	-6010
▁mates	-6011
▁7,	-6012
▁AF	-6013
▁LG	-6014
▁aa	-6015
▁Hep	-6016
▁Ses	-6017
▁omo	-6018
▁rca	-6019
▁zde	-6020
▁aşla	-6021
▁rank	-6022
▁rdik	-6023
▁aklan	-6024
▁dında	-6025
▁makul	-6026
▁tarak	-6027
▁AÇ	-6028
▁ŞI	-6029
▁Kaç	-6030
▁lda	-6031
▁rsa	-6032
▁çan	-6033
▁arko	-6034
▁bağı	-6035
▁omis	-6036
▁ruma	-6037
▁tikl	-6038
▁üğün	-6039
▁kömür	-6040
▁nikah	-6041
▁Şerif	-6042
her	-6043
▁Nö	-6044
▁NDI	-6045
▁jüri	-6046
▁part	-6047
▁raga	-6048
▁tüke	-6049
▁üdür	-6050
▁ağınd	-6051
▁münde	-6052
▁örler	-6053
ing	-6054
▁5'	-6055
▁EP	-6056
▁II	-6057
▁KI	-6058
▁130	-6059
▁ems	-6060
▁evk	-6061
▁nto	-6062
▁rık	-6063
▁amlı	-6064
▁cısı	-6065
▁irma	-6066
▁kanı	-6067
▁aklık	-6068
▁lerek	-6069
yoz	-6070
▁AĞ	-6071
▁TT	-6072
▁ls	-6073
▁"15	-6074
▁ARA	-6075
▁VAR	-6076
▁ipo	-6077
▁zge	-6078
▁Şaf	-6079
▁emli	-6080
▁inle	-6081
▁ramı	-6082
▁uyur	-6083
▁ekler	-6084
▁iddet	-6085
▁rehin	-6086
▁titiz	-6087
▁92	-6088
▁95	-6089
▁CIA	-6090
▁ple	-6091
▁uan	-6092
▁ülk	-6093
▁Kaan	-6094
▁adık	-6095
▁aştı	-6096
▁dene	-6097
▁esim	-6098
▁yaya	-6099
▁ötür	-6100
▁eştir	-6101
▁iştir	-6102
▁kiler	-6103
▁lanla	-6104
ÖR	-6105
▁1'	-6106
▁Hu	-6107
▁PF	-6108
▁atö	-6109
▁eçi	-6110
▁lıç	-6111
▁zmi	-6112
▁TOKİ	-6113
▁aşık	-6114
▁eyle	-6115
▁rasy	-6116
▁tmek	-6117
▁ırın	-6118
▁aşını	-6119
▁tarla	-6120
▁urkan	-6121
TT	-6122
▁ja	-6123
▁vg	-6124
▁Maç	-6125
▁Ref	-6126
▁anc	-6127
▁hid	-6128
▁jet	-6129
▁kta	-6130
▁lip	-6131
▁lli	-6132
▁toz	-6133
▁ürk	-6134
▁ıca	-6135
▁besi	-6136
▁dürü	-6137
▁iper	-6138
▁iyar	-6139
▁karm	-6140
▁rdek	-6141
▁rneğ	-6142
▁özcü	-6143
▁Divan	-6144
▁asını	-6145
▁̧	-6146
▁ln	-6147
▁LDI	-6148
▁XPO	-6149
▁buz	-6150
▁hil	-6151
▁toh	-6152
▁ust	-6153
▁amat	-6154
▁cisi	-6155
▁eviz	-6156
▁kabi	-6157
▁mega	-6158
▁oğum	-6159
▁ynen	-6160
▁ensil	-6161
▁luğun	-6162
▁ötürü	-6163
▁şükür	-6164
val	-6165
▁(1	-6166
▁Uz	-6167
▁ph	-6168
▁Şe	-6169
▁FBI	-6170
▁Haf	-6171
▁Kış	-6172
▁ous	-6173
▁rde	-6174
▁ros	-6175
▁ulu	-6176
▁uğr	-6177
▁ylü	-6178
▁Ahme	-6179
▁erik	-6180
▁erçe	-6181
▁hsan	-6182
▁term	-6183
▁tini	-6184
▁şare	-6185
▁ahlak	-6186
▁ilyon	-6187
▁Dü	-6188
▁UT	-6189
ükrü	-6190
▁3-4	-6191
▁MEB	-6192
▁Sab	-6193
▁cis	-6194
▁enj	-6195
▁adyo	-6196
▁elfi	-6197
▁enil	-6198
▁kola	-6199
▁rsin	-6200
▁zade	-6201
▁ıdır	-6202
▁Şeyh	-6203
▁madık	-6204
▁yanlı	-6205
▁87	-6206
▁OP	-6207
▁ayi	-6208
▁azm	-6209
▁evr	-6210
▁zlu	-6211
▁alit	-6212
▁ekte	-6213
▁kısı	-6214
▁mpar	-6215
▁riye	-6216
▁teah	-6217
▁ÖSYM	-6218
▁limit	-6219
▁ştığı	-6220
HKP	-6221
▁91	-6222
▁Yİ	-6223
▁Har	-6224
▁ase	-6225
▁emt	-6226
▁jen	-6227
▁pri	-6228
▁reğ	-6229
▁DAİŞ	-6230
▁DHKP	-6231
▁artı	-6232
▁azım	-6233
▁ezer	-6234
▁faul	-6235
▁leks	-6236
▁rayı	-6237
▁tarı	-6238
▁meliy	-6239
▁tamir	-6240
VE	-6241
▁"2	-6242
▁lâ	-6243
▁Def	-6244
▁Mit	-6245
▁hoş	-6246
▁şut	-6247
▁PFDK	-6248
▁Soka	-6249
▁ahir	-6250
▁argo	-6251
▁atip	-6252
▁evzi	-6253
▁lulu	-6254
▁rmuş	-6255
▁ırrı	-6256
▁şler	-6257
▁lecek	-6258
▁ravma	-6259
▁yetin	-6260
MI	-6261
th	-6262
lit	-6263
▁8,	-6264
▁IM	-6265
▁12.	-6266
▁Bas	-6267
▁Rio	-6268
▁Tah	-6269
▁ows	-6270
▁tih	-6271
▁abak	-6272
▁ahla	-6273
▁ahne	-6274
▁ezen	-6275
▁mlak	-6276
▁rant	-6277
▁sefe	-6278
▁Fidan	-6279
▁istiy	-6280
▁teyit	-6281
▁Şafak	-6282
iv	-6283
ÜN	-6284
▁NK	-6285
▁ld	-6286
▁NIN	-6287
▁deş	-6288
▁mid	-6289
▁yda	-6290
▁ürd	-6291
▁ğlı	-6292
▁Holl	-6293
▁ande	-6294
▁apan	-6295
▁dına	-6296
▁ktaş	-6297
▁nnes	-6298
▁Şükrü	-6299
TAŞ	-6300
▁750	-6301
▁BİN	-6302
▁Ebu	-6303
▁irs	-6304
▁nli	-6305
▁sef	-6306
▁the	-6307
▁tın	-6308
▁ull	-6309
▁ücü	-6310
▁TÜİK	-6311
▁aksa	-6312
▁lmas	-6313
▁pers	-6314
▁şlem	-6315
▁elfie	-6316
▁elirt	-6317
▁yerin	-6318
),	-6319
gâ	-6320
les	-6321
▁0-	-6322
▁oc	-6323
▁tv	-6324
▁zo	-6325
▁LAN	-6326
▁dın	-6327
▁ike	-6328
▁kşe	-6329
▁mum	-6330
▁zle	-6331
▁çim	-6332
▁TÜBİ	-6333
▁amad	-6334
▁oğun	-6335
▁etini	-6336
▁metin	-6337
▁nakil	-6338
▁nihay	-6339
CÜ	-6340
ize	-6341
▁EÇ	-6342
▁(2)	-6343
▁2,5	-6344
▁arç	-6345
▁elç	-6346
▁kök	-6347
▁orl	-6348
▁row	-6349
▁sım	-6350
▁yıs	-6351
▁Mill	-6352
▁edat	-6353
▁enid	-6354
▁ezle	-6355
▁izem	-6356
▁ston	-6357
▁uygu	-6358
▁zlık	-6359
▁minin	-6360
▁tayin	-6361
▁öldür	-6362
AP	-6363
SI	-6364
▁ıv	-6365
▁1-1	-6366
▁Ada	-6367
▁Meh	-6368
▁sip	-6369
▁vut	-6370
▁web	-6371
▁Plan	-6372
▁bare	-6373
▁dını	-6374
▁ilek	-6375
▁ölge	-6376
▁nadir	-6377
▁yeler	-6378
MB	-6379
ban	-6380
▁ex	-6381
▁vs	-6382
▁şü	-6383
▁900	-6384
▁LDU	-6385
▁PTT	-6386
▁aff	-6387
▁kst	-6388
▁opa	-6389
▁teb	-6390
▁zil	-6391
▁Çek	-6392
▁ebir	-6393
▁enci	-6394
▁pool	-6395
▁rati	-6396
▁ylül	-6397
▁fakir	-6398
▁kledi	-6399
▁türül	-6400
▁tıbbi	-6401
OL	-6402
▁7-	-6403
▁IN	-6404
▁kû	-6405
▁yw	-6406
▁ÜY	-6407
▁ğd	-6408
▁Diş	-6409
▁Kam	-6410
▁Ona	-6411
▁Pla	-6412
▁TIR	-6413
▁Tra	-6414
▁eon	-6415
▁kef	-6416
▁lçi	-6417
▁ndo	-6418
▁tiğ	-6419
▁eyla	-6420
▁izah	-6421
▁ıran	-6422
▁Dilek	-6423
▁ansel	-6424
▁nında	-6425
▁ranın	-6426
▁rilen	-6427
▁şavir	-6428
AL	-6429
EL	-6430
▁4'	-6431
▁AH	-6432
▁ED	-6433
▁ui	-6434
▁110	-6435
▁3-1	-6436
▁eat	-6437
▁elg	-6438
▁hed	-6439
▁iva	-6440
▁ood	-6441
▁efer	-6442
▁file	-6443
▁icro	-6444
▁tezi	-6445
▁üzün	-6446
▁ılım	-6447
▁asınd	-6448
▁kstil	-6449
▁nceli	-6450
LÜ	-6451
ho	-6452
GEB	-6453
▁mc	-6454
▁ÇE	-6455
▁Fır	-6456
▁STK	-6457
▁aid	-6458
▁eyl	-6459
▁fav	-6460
▁ily	-6461
▁işa	-6462
▁ole	-6463
▁pın	-6464
▁vis	-6465
▁ötü	-6466
▁ğüt	-6467
▁Lise	-6468
▁diri	-6469
▁edik	-6470
▁erit	-6471
▁gene	-6472
▁ikte	-6473
▁kabu	-6474
▁şair	-6475
▁Kerem	-6476
▁OSGEB	-6477
▁atent	-6478
▁bilme	-6479
▁dedil	-6480
▁imanı	-6481
▁metni	-6482
▁reler	-6483
▁tilla	-6484
▁tleri	-6485
▁0,	-6486
▁fo	-6487
▁mz	-6488
▁ny	-6489
▁20.	-6490
▁Dik	-6491
▁Jet	-6492
▁afa	-6493
▁ajı	-6494
▁lul	-6495
▁ony	-6496
▁zım	-6497
▁Doğa	-6498
▁Sana	-6499
▁arif	-6500
▁iliz	-6501
▁iran	-6502
▁rett	-6503
▁İÇİN	-6504
▁elere	-6505
BP	-6506
FE	-6507
PA	-6508
TO	-6509
dat	-6510
mer	-6511
sti	-6512
▁ÇI	-6513
▁TEM	-6514
▁Tay	-6515
▁gre	-6516
▁kis	-6517
▁rle	-6518
▁rlu	-6519
▁ube	-6520
▁İLE	-6521
▁aciz	-6522
▁ağlı	-6523
▁elih	-6524
▁elis	-6525
▁görm	-6526
▁imdi	-6527
▁iğne	-6528
▁reak	-6529
▁rkeo	-6530
▁ahran	-6531
▁ywood	-6532
▁çinde	-6533
▁ND	-6534
▁1-2	-6535
▁CNN	-6536
▁EDE	-6537
▁Tab	-6538
▁YÖK	-6539
▁oro	-6540
▁vli	-6541
▁Çal	-6542
▁Beck	-6543
▁Jack	-6544
▁alar	-6545
▁alib	-6546
▁boub	-6547
▁işme	-6548
▁kını	-6549
▁mese	-6550
▁ğına	-6551
▁tavrı	-6552
mü	-6553
üf	-6554
dyo	-6555
mar	-6556
▁fu	-6557
▁yl	-6558
▁14.	-6559
▁One	-6560
▁pir	-6561
▁hall	-6562
▁kura	-6563
▁mant	-6564
▁uard	-6565
▁usun	-6566
▁önüş	-6567
▁Dicle	-6568
▁anlık	-6569
▁aptır	-6570
▁poşet	-6571
▁ulunm	-6572
ŞI	-6573
▁•	-6574
uke	-6575
▁BD	-6576
▁KE	-6577
▁ŞE	-6578
▁TSİ	-6579
▁YGS	-6580
▁YOK	-6581
▁fyo	-6582
▁isl	-6583
▁ope	-6584
▁TCMB	-6585
▁küme	-6586
▁reel	-6587
▁rica	-6588
▁zeka	-6589
▁şoku	-6590
▁ayatı	-6591
▁luluk	-6592
▁nleri	-6593
▁tüdyo	-6594
bet	-6595
ham	-6596
▁In	-6597
▁TK	-6598
▁sr	-6599
▁360	-6600
▁ARI	-6601
▁Oda	-6602
▁YIL	-6603
▁elt	-6604
▁jou	-6605
▁ono	-6606
▁tiş	-6607
▁uya	-6608
▁zim	-6609
▁ŞTI	-6610
▁KKTC	-6611
▁Koza	-6612
▁Kuru	-6613
▁Sami	-6614
▁ankı	-6615
▁ella	-6616
▁ilmi	-6617
▁metl	-6618
▁olla	-6619
▁racı	-6620
▁rfan	-6621
▁metal	-6622
▁tabir	-6623
wa	-6624
ÜR	-6625
▁$	-6626
bai	-6627
▁LU	-6628
▁İK	-6629
▁140	-6630
▁nez	-6631
▁tis	-6632
▁üdü	-6633
▁ıtı	-6634
▁lant	-6635
▁rkes	-6636
▁şeff	-6637
▁aksad	-6638
▁andığ	-6639
▁elsea	-6640
▁ettiğ	-6641
▁mekân	-6642
▁muciz	-6643
▁nunun	-6644
▁önder	-6645
SC	-6646
ks	-6647
ley	-6648
rio	-6649
▁94	-6650
▁Yü	-6651
▁15.	-6652
▁3.5	-6653
▁Bat	-6654
▁alm	-6655
▁kik	-6656
▁org	-6657
▁üel	-6658
▁Dick	-6659
▁aide	-6660
▁biye	-6661
▁diko	-6662
▁ivme	-6663
▁ktır	-6664
▁leke	-6665
▁orno	-6666
▁ring	-6667
▁vala	-6668
▁zdan	-6669
▁keyif	-6670
▁lanın	-6671
▁müzde	-6672
▁nakit	-6673
▁nihai	-6674
Cİ	-6675
ez	-6676
zan	-6677
utin	-6678
▁Göç	-6679
▁cza	-6680
▁deb	-6681
▁mın	-6682
▁pis	-6683
▁zme	-6684
▁İBB	-6685
▁Kule	-6686
▁ekta	-6687
▁eron	-6688
▁icil	-6689
▁reyt	-6690
▁vren	-6691
▁ızlı	-6692
▁gözle	-6693
▁rları	-6694
dy	-6695
▁Fo	-6696
▁lk	-6697
▁vb	-6698
▁16.	-6699
▁IMF	-6700
▁caz	-6701
▁lde	-6702
▁zab	-6703
▁abbi	-6704
▁buki	-6705
▁erid	-6706
▁faka	-6707
▁imya	-6708
▁iyen	-6709
▁keli	-6710
▁rent	-6711
▁siya	-6712
▁ütah	-6713
▁ıkma	-6714
▁vahşi	-6715
▁şerid	-6716
▁ax	-6717
▁ee	-6718
▁İH	-6719
▁Fas	-6720
▁Not	-6721
▁bam	-6722
▁küs	-6723
▁lef	-6724
▁LYON	-6725
▁alkı	-6726
▁amur	-6727
▁inov	-6728
▁muka	-6729
▁omik	-6730
▁orma	-6731
▁savu	-6732
▁tart	-6733
▁ğımı	-6734
▁durma	-6735
▁erson	-6736
▁latıl	-6737
▁retim	-6738
SU	-6739
ÜZ	-6740
ris	-6741
ğit	-6742
▁Sö	-6743
▁Tip	-6744
▁Vah	-6745
▁akı	-6746
▁cuk	-6747
▁iOS	-6748
▁kok	-6749
▁rti	-6750
▁tet	-6751
▁GATA	-6752
▁anyo	-6753
▁asyo	-6754
▁eniz	-6755
▁gisi	-6756
▁laik	-6757
▁lemi	-6758
▁lmuş	-6759
▁mmuz	-6760
▁alyoz	-6761
▁beyli	-6762
▁enter	-6763
▁merha	-6764
▁olisi	-6765
▁tatmi	-6766
▁kç	-6767
▁zy	-6768
▁İS	-6769
▁Yaz	-6770
▁eyk	-6771
▁mor	-6772
▁Jean	-6773
▁Luis	-6774
▁ayıt	-6775
▁deli	-6776
▁ensu	-6777
▁hang	-6778
▁irmi	-6779
▁nton	-6780
▁resm	-6781
▁vard	-6782
▁alina	-6783
▁atler	-6784
▁ileti	-6785
▁lazer	-6786
▁limon	-6787
▁nasip	-6788
▁rarlı	-6789
▁tatbi	-6790
▁taviz	-6791
▁umlar	-6792
▁dd	-6793
▁Dar	-6794
▁Ger	-6795
▁OLA	-6796
▁ear	-6797
▁gov	-6798
▁PARA	-6799
▁Tuna	-6800
▁YAPI	-6801
▁aluk	-6802
▁anto	-6803
▁lini	-6804
▁lite	-6805
▁neyi	-6806
▁piya	-6807
▁ralı	-6808
▁tina	-6809
▁yoru	-6810
▁zzet	-6811
▁enera	-6812
▁terli	-6813
OG	-6814
RU	-6815
▁̇	-6816
▁9,	-6817
▁96	-6818
▁OM	-6819
▁EDİ	-6820
▁OLU	-6821
▁dos	-6822
▁fiş	-6823
▁gök	-6824
▁igi	-6825
▁imp	-6826
▁rij	-6827
▁ceği	-6828
▁eldi	-6829
▁maks	-6830
▁zani	-6831
▁ülte	-6832
▁arter	-6833
▁talar	-6834
düs	-6835
▁99	-6836
▁Eve	-6837
▁KHK	-6838
▁LTI	-6839
▁TİM	-6840
▁gey	-6841
▁olü	-6842
▁zul	-6843
▁Donk	-6844
▁başk	-6845
▁fesh	-6846
▁ilüf	-6847
▁naat	-6848
▁reen	-6849
▁tica	-6850
▁tiro	-6851
▁ular	-6852
▁vade	-6853
▁ğlık	-6854
▁arici	-6855
▁arşiv	-6856
▁sayıs	-6857
▁uplar	-6858
▁şandı	-6859
VA	-6860
ec	-6861
▁93	-6862
▁BT	-6863
▁FE	-6864
▁cm	-6865
▁180	-6866
▁4-5	-6867
▁EZA	-6868
▁Gam	-6869
▁LİR	-6870
▁Tri	-6871
▁ien	-6872
▁itt	-6873
▁nık	-6874
▁urb	-6875
▁zdı	-6876
▁ampa	-6877
▁anam	-6878
▁arri	-6879
▁edir	-6880
▁slim	-6881
▁stro	-6882
▁terl	-6883
▁üzer	-6884
▁emlak	-6885
▁eyeno	-6886
▁eykoz	-6887
▁rarla	-6888
IN	-6889
KAN	-6890
MAN	-6891
fak	-6892
iri	-6893
ure	-6894
▁Cİ	-6895
▁HA	-6896
▁SD	-6897
▁13.	-6898
▁5-6	-6899
▁EĞİ	-6900
▁tac	-6901
▁foto	-6902
▁illa	-6903
▁kesi	-6904
▁tiba	-6905
▁yapa	-6906
▁öner	-6907
▁Kudüs	-6908
▁NKARA	-6909
▁etici	-6910
▁ngell	-6911
▁urdur	-6912
ŞA	-6913
▁MH	-6914
▁Kut	-6915
▁LDİ	-6916
▁LIK	-6917
▁Pir	-6918
▁düğ	-6919
▁eld	-6920
▁gah	-6921
▁hiz	-6922
▁anka	-6923
▁arin	-6924
▁kili	-6925
▁obüs	-6926
▁sade	-6927
▁tası	-6928
▁terc	-6929
▁zler	-6930
▁klama	-6931
▁sonel	-6932
▁undak	-6933
▁yeceğ	-6934
▁ğinin	-6935
▁Nu	-6936
▁3-0	-6937
▁NİN	-6938
▁mot	-6939
▁rki	-6940
▁ÖNE	-6941
▁Hami	-6942
▁ejim	-6943
▁kiye	-6944
▁mana	-6945
▁plaj	-6946
▁reas	-6947
▁rmal	-6948
▁zgat	-6949
▁zmit	-6950
▁Kemer	-6951
▁ipler	-6952
▁irler	-6953
ZE	-6954
İM	-6955
ble	-6956
del	-6957
▁MP	-6958
▁OD	-6959
▁lv	-6960
▁pı	-6961
▁ATI	-6962
▁AİH	-6963
▁Kuv	-6964
▁Met	-6965
▁Mid	-6966
▁Wes	-6967
▁ams	-6968
▁arn	-6969
▁dok	-6970
▁emp	-6971
▁fık	-6972
▁ias	-6973
▁mli	-6974
▁uda	-6975
▁uli	-6976
▁çöp	-6977
▁öte	-6978
▁üfe	-6979
▁Şef	-6980
▁BDDK	-6981
▁BIST	-6982
▁abla	-6983
▁ayış	-6984
▁emiz	-6985
▁enta	-6986
▁lduk	-6987
▁logo	-6988
▁mede	-6989
▁mith	-6990
▁mına	-6991
▁stat	-6992
▁ulun	-6993
▁ılıç	-6994
▁akale	-6995
▁alığı	-6996
▁entus	-6997
▁kerle	-6998
▁kucak	-6999
▁orlar	-7000
▁ttiği	-7001
▁üleri	-7002
▁şerit	-7003
+1	-7004
UL	-7005
of	-7006
ras	-7007
▁98	-7008
▁Gu	-7009
▁lm	-7010
▁yt	-7011
▁Fit	-7012
▁Fre	-7013
▁Mez	-7014
▁TAN	-7015
▁akt	-7016
▁beğ	-7017
▁gul	-7018
▁mag	-7019
▁nef	-7020
▁oll	-7021
▁oun	-7022
▁tüp	-7023
▁Büyü	-7024
▁adın	-7025
▁afer	-7026
▁ahmi	-7027
▁akib	-7028
▁ciha	-7029
▁etim	-7030
▁htiy	-7031
▁idro	-7032
▁irin	-7033
▁ital	-7034
▁vaat	-7035
▁yrıl	-7036
▁endim	-7037
▁geçme	-7038
▁kemer	-7039
▁umara	-7040
▁Şeref	-7041
▁Şükür	-7042
▁(3	-7043
▁vv	-7044
▁zl	-7045
▁160	-7046
▁450	-7047
▁Kas	-7048
▁LYS	-7049
▁ORU	-7050
▁TTİ	-7051
▁ask	-7052
▁cti	-7053
▁ekç	-7054
▁kûm	-7055
▁tic	-7056
▁çoğ	-7057
▁ırb	-7058
▁EPDK	-7059
▁Kaba	-7060
▁Lale	-7061
▁Luka	-7062
▁amdi	-7063
▁ekar	-7064
▁rone	-7065
▁şifa	-7066
▁arkan	-7067
▁figür	-7068
▁hesab	-7069
▁ikram	-7070
▁lleri	-7071
EC	-7072
▁Gi	-7073
▁ct	-7074
▁dl	-7075
▁19.	-7076
▁DNA	-7077
▁ahş	-7078
▁lsa	-7079
▁mai	-7080
▁pet	-7081
▁tef	-7082
▁tçı	-7083
▁RTÜK	-7084
▁alab	-7085
▁aset	-7086
▁enje	-7087
▁erme	-7088
▁esap	-7089
▁rida	-7090
▁roup	-7091
▁ensup	-7092
vad	-7093
heim	-7094
▁Kla	-7095
▁YÜZ	-7096
▁bom	-7097
▁elo	-7098
▁lgı	-7099
▁que	-7100
▁yva	-7101
▁şit	-7102
▁şle	-7103
▁eniş	-7104
▁igen	-7105
▁imti	-7106
▁naaş	-7107
▁odel	-7108
▁ranc	-7109
▁ışma	-7110
▁arlığ	-7111
▁deler	-7112
▁güçle	-7113
▁irsin	-7114
▁minde	-7115
▁rüzgâ	-7116
om	-7117
▁=	-7118
▁UM	-7119
▁kk	-7120
▁ys	-7121
▁17.	-7122
▁18.	-7123
▁21.	-7124
▁3-2	-7125
▁ONU	-7126
▁SSK	-7127
▁Zor	-7128
▁agi	-7129
▁eta	-7130
▁lap	-7131
▁sos	-7132
▁utt	-7133
▁bari	-7134
▁tmen	-7135
▁atmak	-7136
▁dildi	-7137
▁enjan	-7138
▁ereke	-7139
▁evdet	-7140
▁mater	-7141
▁stler	-7142
▁talip	-7143
▁tanın	-7144
▁ünnet	-7145
maş	-7146
▁oj	-7147
▁we	-7148
âhil	-7149
▁Pas	-7150
▁iğe	-7151
▁lun	-7152
▁ÇOK	-7153
▁Ayrı	-7154
▁Liga	-7155
▁atem	-7156
▁cele	-7157
▁daim	-7158
▁eyda	-7159
▁tıra	-7160
▁eymar	-7161
▁lacak	-7162
▁rutin	-7163
SM	-7164
all	-7165
▁Göz	-7166
▁Kıs	-7167
▁abr	-7168
▁any	-7169
▁cik	-7170
▁del	-7171
▁had	-7172
▁iel	-7173
▁ült	-7174
▁ırf	-7175
▁NASA	-7176
▁engi	-7177
▁gıla	-7178
▁stal	-7179
▁tant	-7180
▁zihi	-7181
▁ÖZCÜ	-7182
▁özle	-7183
▁Demet	-7184
▁Vedat	-7185
▁YORUZ	-7186
▁dâhil	-7187
▁erini	-7188
▁erçev	-7189
▁inare	-7190
▁itler	-7191
▁masal	-7192
▁niden	-7193
▁onunu	-7194
▁ılmak	-7195
▁ısına	-7196
▁şehre	-7197
CU	-7198
âr	-7199
ATI	-7200
DAŞ	-7201
LİK	-7202
rin	-7203
▁97	-7204
▁IP	-7205
▁Çe	-7206
apka	-7207
▁HTC	-7208
▁Joe	-7209
▁Lab	-7210
▁Lit	-7211
▁SMS	-7212
▁aal	-7213
▁cül	-7214
▁ygu	-7215
▁ğme	-7216
▁Buca	-7217
▁TOBB	-7218
▁amit	-7219
▁emti	-7220
▁eşya	-7221
▁maky	-7222
▁tırm	-7223
▁Dubai	-7224
▁diren	-7225
▁ekrar	-7226
▁ervan	-7227
▁filan	-7228
▁olayl	-7229
▁zihni	-7230
▁_	-7231
▁û	-7232
▁kg	-7233
▁nj	-7234
▁yd	-7235
▁Kum	-7236
▁Müs	-7237
▁MİZ	-7238
▁arb	-7239
▁eyy	-7240
▁gat	-7241
▁iss	-7242
▁tij	-7243
▁İLK	-7244
▁aria	-7245
▁elan	-7246
▁ldan	-7247
▁rmey	-7248
▁vası	-7249
▁akdim	-7250
▁arman	-7251
▁ction	-7252
▁erkük	-7253
▁indar	-7254
▁irdik	-7255
▁kulis	-7256
TU	-7257
▁TI	-7258
▁Acı	-7259
▁DER	-7260
▁abl	-7261
▁anj	-7262
▁ive	-7263
▁mpi	-7264
▁nom	-7265
▁üte	-7266
▁İsa	-7267
▁AİHM	-7268
▁Viet	-7269
▁ines	-7270
▁klik	-7271
▁mund	-7272
▁uşma	-7273
▁aprio	-7274
▁ertan	-7275
▁nland	-7276
KI	-7277
sü	-7278
DER	-7279
one	-7280
▁Hâ	-7281
▁Ot	-7282
▁US	-7283
▁gr	-7284
▁nz	-7285
▁İM	-7286
▁4.5	-7287
▁Alp	-7288
▁DBP	-7289
▁OTO	-7290
▁cın	-7291
▁eyd	-7292
▁lec	-7293
▁uzl	-7294
▁zaf	-7295
▁Tipi	-7296
▁diki	-7297
▁eket	-7298
▁erci	-7299
▁ervi	-7300
▁evam	-7301
▁işki	-7302
▁kans	-7303
▁loto	-7304
▁munu	-7305
▁nomi	-7306
▁onak	-7307
▁zaaf	-7308
▁şoke	-7309
▁abili	-7310
▁başlı	-7311
▁etesi	-7312
▁ilmen	-7313
▁itham	-7314
▁ntern	-7315
▁rması	-7316
▁terfi	-7317
▁zheim	-7318
co	-7319
sb	-7320
▁Hiz	-7321
▁Las	-7322
▁Mus	-7323
▁NMA	-7324
▁Nas	-7325
▁SPD	-7326
▁Sin	-7327
▁amd	-7328
▁ayf	-7329
▁bri	-7330
▁lle	-7331
▁Vize	-7332
▁ebev	-7333
▁eyit	-7334
▁eşar	-7335
▁hele	-7336
▁ibar	-7337
▁kast	-7338
▁kreş	-7339
▁mann	-7340
▁neşe	-7341
▁rock	-7342
▁rook	-7343
▁ygun	-7344
▁Dikil	-7345
▁Merve	-7346
▁ammül	-7347
▁anken	-7348
▁kıldı	-7349
▁Ca	-7350
▁Of	-7351
▁Wi	-7352
▁0-0	-7353
▁cun	-7354
▁kma	-7355
▁yut	-7356
▁Moda	-7357
▁TÜSİ	-7358
▁cret	-7359
▁ecza	-7360
▁enat	-7361
▁evşe	-7362
▁gele	-7363
▁tasi	-7364
▁ÜYÜK	-7365
▁şire	-7366
▁damla	-7367
▁lgesi	-7368
▁tinde	-7369
▁ulama	-7370
▁yaban	-7371
▁yorsa	-7372
bül	-7373
oko	-7374
▁"3	-7375
▁8'	-7376
▁MS	-7377
▁NT	-7378
▁10,	-7379
▁24.	-7380
▁Lat	-7381
▁NDİ	-7382
▁PAR	-7383
▁faş	-7384
▁ico	-7385
▁yek	-7386
▁yir	-7387
▁ÖRÜ	-7388
▁Hizb	-7389
▁TEOG	-7390
▁akya	-7391
▁arlo	-7392
▁irke	-7393
▁ryan	-7394
▁stün	-7395
▁teli	-7396
▁zira	-7397
▁ğdır	-7398
▁şike	-7399
▁Palan	-7400
▁mahal	-7401
▁rakya	-7402
▁yonun	-7403
RI	-7404
SKİ	-7405
hre	-7406
nel	-7407
şat	-7408
▁PK	-7409
▁RU	-7410
▁ĞI	-7411
▁Eşi	-7412
▁Fox	-7413
▁atu	-7414
▁kün	-7415
▁ırd	-7416
▁ŞEH	-7417
▁KARA	-7418
▁acet	-7419
▁azim	-7420
▁aşma	-7421
▁emik	-7422
▁epey	-7423
▁eçiş	-7424
▁item	-7425
▁nını	-7426
▁olks	-7427
▁roth	-7428
▁tasa	-7429
▁ömür	-7430
▁üreş	-7431
▁ırmı	-7432
▁arsus	-7433
▁eklif	-7434
▁mizah	-7435
▁orunu	-7436
▁zihin	-7437
▁ıldır	-7438
GA	-7439
bap	-7440
▁YO	-7441
▁KAP	-7442
▁Tes	-7443
▁mza	-7444
▁nor	-7445
▁pal	-7446
▁rgü	-7447
▁rte	-7448
▁yam	-7449
▁şün	-7450
▁Ryan	-7451
▁alin	-7452
▁aliç	-7453
▁asay	-7454
▁ayıs	-7455
▁daşı	-7456
▁ekşi	-7457
▁feri	-7458
▁ifle	-7459
▁imum	-7460
▁ranı	-7461
▁tion	-7462
▁übre	-7463
▁ükle	-7464
▁Defne	-7465
▁aklit	-7466
▁ayesi	-7467
▁firar	-7468
▁hamid	-7469
▁insül	-7470
▁kalar	-7471
▁kanın	-7472
▁salar	-7473
▁üstri	-7474
GI	-7475
ai	-7476
İB	-7477
İT	-7478
SCO	-7479
fya	-7480
ron	-7481
▁HE	-7482
▁ÖL	-7483
▁ÜZ	-7484
agen	-7485
apur	-7486
izza	-7487
▁Adı	-7488
▁Keş	-7489
▁RAN	-7490
▁Süt	-7491
▁ncu	-7492
▁yde	-7493
▁Ülk	-7494
▁ŞTİ	-7495
▁Dink	-7496
▁abul	-7497
▁dayı	-7498
▁derl	-7499
▁eras	-7500
▁kaps	-7501
▁lebi	-7502
▁likl	-7503
▁ofya	-7504
▁rlık	-7505
▁traj	-7506
▁alama	-7507
▁eczan	-7508
▁fıkra	-7509
▁matem	-7510
▁wagen	-7511
▁zalim	-7512
ud	-7513
▁OY	-7514
▁Va	-7515
▁ÜŞ	-7516
▁125	-7517
▁23.	-7518
▁Del	-7519
▁IST	-7520
▁KAR	-7521
▁Rab	-7522
▁apt	-7523
▁evh	-7524
▁nab	-7525
▁nlı	-7526
▁oul	-7527
▁paz	-7528
▁pli	-7529
▁sia	-7530
▁ylı	-7531
▁üzd	-7532
▁ğra	-7533
▁ahit	-7534
▁iray	-7535
▁ronz	-7536
▁rtan	-7537
▁rıca	-7538
▁sted	-7539
▁ürül	-7540
▁ıkar	-7541
▁NESCO	-7542
▁ahşap	-7543
▁düşer	-7544
▁fitne	-7545
▁impar	-7546
▁sterd	-7547
▁zedel	-7548
▁ğunda	-7549
IM	-7550
ia	-7551
ire	-7552
▁OK	-7553
▁PE	-7554
▁Sı	-7555
▁YD	-7556
▁sb	-7557
▁ym	-7558
▁170	-7559
▁ANI	-7560
▁Wil	-7561
▁YON	-7562
▁ceh	-7563
▁ehm	-7564
▁enü	-7565
▁erd	-7566
▁ifa	-7567
▁ior	-7568
▁ivi	-7569
▁kşi	-7570
▁lse	-7571
▁üle	-7572
▁Şeb	-7573
▁EĞİL	-7574
▁Muha	-7575
▁TİKA	-7576
▁adis	-7577
▁afiş	-7578
▁atle	-7579
▁avra	-7580
▁cakl	-7581
▁eşik	-7582
▁gara	-7583
▁karg	-7584
▁ntaj	-7585
▁onet	-7586
▁titr	-7587
▁Lukas	-7588
▁entag	-7589
▁ideri	-7590
▁peder	-7591
▁ramva	-7592
▁rasyo	-7593
▁retme	-7594
▁şahsi	-7595
▁Â	-7596
LIK	-7597
▁PO	-7598
▁SÜ	-7599
▁ZM	-7600
▁Ze	-7601
▁lö	-7602
▁Dip	-7603
▁EYP	-7604
▁Kaş	-7605
▁URU	-7606
▁ame	-7607
▁ash	-7608
▁kör	-7609
▁lie	-7610
▁miy	-7611
▁pes	-7612
▁sıt	-7613
▁ŞMA	-7614
▁ANLI	-7615
▁ERÖR	-7616
▁MLER	-7617
▁MÜSİ	-7618
▁abar	-7619
▁akik	-7620
▁amız	-7621
▁anoz	-7622
▁anus	-7623
▁apma	-7624
▁damı	-7625
▁dman	-7626
▁epet	-7627
▁ites	-7628
▁kımı	-7629
▁loke	-7630
▁marj	-7631
▁quot	-7632
▁turd	-7633
▁aksat	-7634
▁cazip	-7635
▁emsal	-7636
▁ezonu	-7637
▁lanet	-7638
▁nikâh	-7639
▁olmam	-7640
▁rmedi	-7641
▁telif	-7642
▁vleri	-7643
▁yerle	-7644
Rİ	-7645
sh	-7646
olo	-7647
▁0.	-7648
▁hl	-7649
▁AFP	-7650
▁ELE	-7651
▁Vaz	-7652
▁dge	-7653
▁hib	-7654
▁kti	-7655
▁zma	-7656
▁ıka	-7657
▁OPEC	-7658
▁Suat	-7659
▁acim	-7660
▁dest	-7661
▁emzi	-7662
▁enzi	-7663
▁lack	-7664
▁leag	-7665
▁ping	-7666
▁reng	-7667
▁ödem	-7668
▁Mekke	-7669
▁Sayan	-7670
▁annes	-7671
▁ardan	-7672
▁mafya	-7673
▁retle	-7674
▁stina	-7675
▁vahşe	-7676
▁3,5	-7677
▁Ank	-7678
▁CDU	-7679
▁Dim	-7680
▁LİK	-7681
▁cin	-7682
▁eko	-7683
▁fal	-7684
▁iat	-7685
▁low	-7686
▁otu	-7687
▁üçü	-7688
▁KİŞİ	-7689
▁abın	-7690
▁acın	-7691
▁aşdi	-7692
▁ehli	-7693
▁elit	-7694
▁eriç	-7695
▁kaba	-7696
▁lima	-7697
▁lsun	-7698
▁nbul	-7699
▁ofaş	-7700
▁okyo	-7701
▁onda	-7702
▁onel	-7703
▁üven	-7704
▁YÜZDE	-7705
▁aaliy	-7706
▁arina	-7707
▁fidan	-7708
▁igren	-7709
▁lotof	-7710
▁resan	-7711
▁şapka	-7712
OM	-7713
pp	-7714
DIN	-7715
fik	-7716
lin	-7717
▁Tv	-7718
▁VI	-7719
▁ŞA	-7720
▁11,	-7721
▁6-7	-7722
▁Pes	-7723
▁Sow	-7724
▁TKİ	-7725
▁bla	-7726
▁tul	-7727
▁Jere	-7728
▁afın	-7729
▁apsi	-7730
▁ehdi	-7731
▁furt	-7732
▁iami	-7733
▁ilav	-7734
▁isle	-7735
▁köle	-7736
▁nlat	-7737
▁rast	-7738
▁urad	-7739
▁addes	-7740
▁ahsin	-7741
▁ferib	-7742
▁görün	-7743
▁hamit	-7744
20	-7745
BY	-7746
nie	-7747
que	-7748
▁Af	-7749
▁HI	-7750
▁MO	-7751
▁cc	-7752
▁Oya	-7753
▁RDI	-7754
▁SUV	-7755
▁aur	-7756
▁smi	-7757
▁ğan	-7758
▁şla	-7759
▁Mini	-7760
▁Reis	-7761
▁amid	-7762
▁enya	-7763
▁metr	-7764
▁nsar	-7765
▁omet	-7766
▁pota	-7767
▁tala	-7768
▁arles	-7769
▁arsel	-7770
▁izlik	-7771
▁lebil	-7772
İS	-7773
KUR	-7774
vik	-7775
▁UN	-7776
▁cC	-7777
▁ix	-7778
▁Air	-7779
▁Big	-7780
▁Ece	-7781
▁iro	-7782
▁isp	-7783
▁ium	-7784
▁lâm	-7785
▁nim	-7786
▁rmu	-7787
▁uba	-7788
▁ulz	-7789
▁wor	-7790
▁üda	-7791
▁Şan	-7792
▁ZMİR	-7793
▁agaj	-7794
▁ahra	-7795
▁inop	-7796
▁lduğ	-7797
▁lenf	-7798
▁müşt	-7799
▁reli	-7800
▁reni	-7801
▁rtes	-7802
▁sedi	-7803
▁zarf	-7804
▁acılı	-7805
▁artma	-7806
▁dilme	-7807
▁erman	-7808
▁etiri	-7809
▁itnel	-7810
▁lesin	-7811
▁linin	-7812
▁ülkem	-7813
▁ılara	-7814
VP	-7815
ÇE	-7816
▁GA	-7817
▁MR	-7818
▁TS	-7819
▁VR	-7820
▁rr	-7821
▁yc	-7822
ENER	-7823
▁AKE	-7824
▁ATM	-7825
▁Dia	-7826
▁HGS	-7827
▁MHK	-7828
▁MYK	-7829
▁PSG	-7830
▁Rad	-7831
▁TME	-7832
▁Tim	-7833
▁ake	-7834
▁asl	-7835
▁ese	-7836
▁gea	-7837
▁lçe	-7838
▁urn	-7839
▁ÖTV	-7840
▁şağ	-7841
▁IKBY	-7842
▁STEK	-7843
▁eşid	-7844
▁gide	-7845
▁imur	-7846
▁lken	-7847
▁lobi	-7848
▁orya	-7849
▁ress	-7850
▁rkas	-7851
▁rown	-7852
▁veto	-7853
▁örüş	-7854
▁şmak	-7855
▁şısı	-7856
▁adila	-7857
▁ahall	-7858
▁aluke	-7859
▁asarı	-7860
▁manlı	-7861
▁ometr	-7862
▁riyel	-7863
AB	-7864
MU	-7865
ov	-7866
dik	-7867
▁UL	-7868
▁BAH	-7869
▁LYA	-7870
▁MLİ	-7871
▁RTI	-7872
▁Seb	-7873
▁Tom	-7874
▁etr	-7875
▁faa	-7876
▁ish	-7877
▁lov	-7878
▁peş	-7879
▁rsu	-7880
▁Buse	-7881
▁LARA	-7882
▁ehra	-7883
▁enko	-7884
▁exus	-7885
▁lerl	-7886
▁lmiş	-7887
▁ütle	-7888
▁Kulak	-7889
▁atırl	-7890
▁evher	-7891
▁lexis	-7892
▁ndıra	-7893
▁niyle	-7894
▁nımız	-7895
▁ourin	-7896
▁refah	-7897
▁risti	-7898
▁talan	-7899
▁teyze	-7900
▁yiğit	-7901
▁şinin	-7902
Vİ	-7903
Ya	-7904
uf	-7905
ole	-7906
▁Ju	-7907
▁Rö	-7908
▁Sn	-7909
▁UV	-7910
▁32.	-7911
▁Cup	-7912
▁DiC	-7913
▁Eda	-7914
▁NBA	-7915
▁PSV	-7916
▁RTA	-7917
▁TOP	-7918
▁Taş	-7919
▁dez	-7920
▁reb	-7921
▁ğız	-7922
▁Kele	-7923
▁adro	-7924
▁arni	-7925
▁arça	-7926
▁eher	-7927
▁elma	-7928
▁eydi	-7929
▁inko	-7930
▁lass	-7931
▁mati	-7932
▁nasi	-7933
▁nlen	-7934
▁ritm	-7935
▁taar	-7936
▁yala	-7937
▁zekâ	-7938
▁çile	-7939
▁üşük	-7940
▁Sudan	-7941
▁akses	-7942
▁cisim	-7943
▁etind	-7944
▁şunla	-7945
OJ	-7946
gh	-7947
ğin	-7948
▁AÖ	-7949
▁CD	-7950
▁wa	-7951
▁ÜÇ	-7952
▁Gir	-7953
▁Sna	-7954
▁Yüz	-7955
▁fıs	-7956
▁hai	-7957
▁lir	-7958
▁lıp	-7959
▁pop	-7960
▁teç	-7961
▁ulü	-7962
▁çat	-7963
▁Fiat	-7964
▁Frei	-7965
▁ango	-7966
▁eyza	-7967
▁illo	-7968
▁inip	-7969
▁iola	-7970
▁mala	-7971
▁mert	-7972
▁muaz	-7973
▁nıtı	-7974
▁rdon	-7975
▁traf	-7976
▁zmet	-7977
▁ülüş	-7978
▁şefi	-7979
▁alife	-7980
▁arlos	-7981
▁ispat	-7982
▁iynet	-7983
▁linde	-7984
▁renci	-7985
RO	-7986
pi	-7987
▁[	-7988
des	-7989
pil	-7990
▁1)	-7991
▁fl	-7992
▁pl	-7993
▁wi	-7994
▁Ün	-7995
LARI	-7996
▁AVA	-7997
▁Kri	-7998
▁MIZ	-7999
▁NTA	-8000
▁Nam	-8001
▁Red	-8002
▁SAT	-8003
▁TRA	-8004
▁iam	-8005
▁ick	-8006
▁pma	-8007
▁reg	-8008
▁ssa	-8009
▁sse	-8010
▁stü	-8011
▁tha	-8012
▁ırı	-8013
▁şli	-8014
▁ALDI	-8015
▁arba	-8016
▁dale	-8017
▁egan	-8018
▁ekos	-8019
▁eman	-8020
▁laşa	-8021
▁lter	-8022
▁mele	-8023
▁vler	-8024
▁FENER	-8025
▁dikil	-8026
▁ileme	-8027
▁ldığı	-8028
▁reddi	-8029
▁valid	-8030
▁yanus	-8031
▁zafiy	-8032
▁şöhre	-8033
!)	-8034
ARI	-8035
SKA	-8036
azi	-8037
gua	-8038
▁ZA	-8039
▁sn	-8040
▁tö	-8041
▁Şİ	-8042
▁(!)	-8043
▁25.	-8044
▁Cep	-8045
▁Dan	-8046
▁Diz	-8047
▁Fik	-8048
▁GSY	-8049
▁LED	-8050
▁Oly	-8051
▁Sav	-8052
▁Tez	-8053
▁Tus	-8054
▁USK	-8055
▁YAŞ	-8056
▁afı	-8057
▁cıb	-8058
▁sid	-8059
▁taf	-8060
▁vaa	-8061
▁BMGK	-8062
▁Hamb	-8063
▁Pala	-8064
▁Rume	-8065
▁anes	-8066
▁apte	-8067
▁atıf	-8068
▁idar	-8069
▁ihay	-8070
▁ikos	-8071
▁kmek	-8072
▁luna	-8073
▁nazi	-8074
▁nemi	-8075
▁nevi	-8076
▁nsız	-8077
▁ouch	-8078
▁ÜNYA	-8079
▁Gamze	-8080
▁azibe	-8081
▁diğin	-8082
▁eryat	-8083
▁estel	-8084
▁hassa	-8085
▁kader	-8086
▁larım	-8087
▁pizza	-8088
▁rladı	-8089
▁stedi	-8090
Zİ	-8091
nia	-8092
zai	-8093
▁VA	-8094
▁sf	-8095
▁zk	-8096
▁zs	-8097
▁102	-8098
▁12,	-8099
▁240	-8100
▁4,5	-8101
▁ERE	-8102
▁Fir	-8103
▁Jes	-8104
▁Ram	-8105
▁Suç	-8106
▁UMH	-8107
▁You	-8108
▁eut	-8109
▁fta	-8110
▁ikt	-8111
▁ims	-8112
▁inf	-8113
▁okt	-8114
▁ığı	-8115
▁ARŞI	-8116
▁Krem	-8117
▁NDAN	-8118
▁Tusk	-8119
▁ader	-8120
▁arem	-8121
▁enli	-8122
▁etih	-8123
▁geld	-8124
▁hlak	-8125
▁iddi	-8126
▁iren	-8127
▁itha	-8128
▁kvad	-8129
▁lina	-8130
▁rdan	-8131
▁toch	-8132
▁yama	-8133
▁İYAR	-8134
▁aldun	-8135
▁ansür	-8136
▁aylan	-8137
▁dilen	-8138
▁elver	-8139
▁emper	-8140
▁eyner	-8141
▁ipras	-8142
▁kumaş	-8143
▁lukla	-8144
▁makro	-8145
▁maske	-8146
▁mecra	-8147
▁reviz	-8148
▁rince	-8149
▁sleri	-8150
▁vaadi	-8151
▁voley	-8152
▁zanne	-8153
▁ğlama	-8154
dad	-8155
ife	-8156
▁HR	-8157
▁Kâ	-8158
▁22.	-8159
▁65.	-8160
▁650	-8161
▁AGİ	-8162
▁ALİ	-8163
▁Kad	-8164
▁Mas	-8165
▁RDİ	-8166
▁Rey	-8167
▁Ves	-8168
▁asy	-8169
▁ays	-8170
▁con	-8171
▁ech	-8172
▁hac	-8173
▁hme	-8174
▁hri	-8175
▁meb	-8176
▁mei	-8177
▁olm	-8178
▁oot	-8179
▁pik	-8180
▁tuş	-8181
▁LYAR	-8182
▁ahis	-8183
▁atkı	-8184
▁bulm	-8185
▁esaj	-8186
▁ezan	-8187
▁iPad	-8188
▁ikay	-8189
▁izim	-8190
▁jest	-8191
▁kanç	-8192
▁lens	-8193
▁mony	-8194
▁sila	-8195
▁urat	-8196
▁yaka	-8197
▁zyon	-8198
▁Karan	-8199
▁debil	-8200
▁evfik	-8201
▁fında	-8202
▁keler	-8203
▁merhu	-8204
▁nafak	-8205
▁remit	-8206
▁vapur	-8207
▁şimin	-8208
PS	-8209
ja	-8210
▁EG	-8211
▁1.6	-8212
▁135	-8213
▁50.	-8214
▁550	-8215
▁7-8	-8216
▁AYI	-8217
▁ETT	-8218
▁Evi	-8219
▁GSS	-8220
▁Key	-8221
▁Kül	-8222
▁Reş	-8223
▁TCK	-8224
▁Zay	-8225
▁ack	-8226
▁omb	-8227
▁rzu	-8228
▁spa	-8229
▁uth	-8230
▁ürt	-8231
▁CAĞI	-8232
▁abia	-8233
▁aleb	-8234
▁asim	-8235
▁aşim	-8236
▁edim	-8237
▁emre	-8238
▁erfo	-8239
▁esta	-8240
▁etic	-8241
▁hals	-8242
▁ihir	-8243
▁imit	-8244
▁kati	-8245
▁kbal	-8246
▁ldür	-8247
▁medy	-8248
▁ntep	-8249
▁onca	-8250
▁rden	-8251
▁ride	-8252
▁runo	-8253
▁zami	-8254
▁örme	-8255
▁örün	-8256
▁öylü	-8257
▁ürih	-8258
▁ılda	-8259
▁Hazal	-8260
▁dikiş	-8261
▁ellen	-8262
▁esinl	-8263
▁ilano	-8264
▁nişan	-8265
▁tekno	-8266
▁ırlık	-8267
BS	-8268
BU	-8269
RS	-8270
ie	-8271
▁]	-8272
ERE	-8273
STE	-8274
ane	-8275
ent	-8276
onk	-8277
▁Fİ	-8278
▁Vİ	-8279
▁15,	-8280
▁35.	-8281
▁KAN	-8282
▁MAH	-8283
▁Meş	-8284
▁NCİ	-8285
▁OSB	-8286
▁RMA	-8287
▁Ray	-8288
▁Sil	-8289
▁TTI	-8290
▁Vir	-8291
▁bid	-8292
▁dia	-8293
▁efi	-8294
▁fas	-8295
▁gas	-8296
▁lut	-8297
▁ndr	-8298
▁sli	-8299
▁sül	-8300
▁İDO	-8301
▁Şak	-8302
▁DİSK	-8303
▁EDEF	-8304
▁Gana	-8305
▁amas	-8306
▁avis	-8307
▁evap	-8308
▁llen	-8309
▁lunu	-8310
▁meno	-8311
▁ouse	-8312
▁sman	-8313
▁ylan	-8314
▁ylık	-8315
▁şini	-8316
▁Fikir	-8317
▁USKON	-8318
▁arnes	-8319
▁enfur	-8320
▁geler	-8321
▁istle	-8322
▁oları	-8323
▁zulmü	-8324
▁ülbül	-8325
▁Şeria	-8326
GB	-8327
SYA	-8328
▁2)	-8329
▁GÖ	-8330
▁OC	-8331
▁ZI	-8332
▁âh	-8333
▁115	-8334
▁26.	-8335
▁28.	-8336
▁30.	-8337
▁Buz	-8338
▁Cla	-8339
▁Dat	-8340
▁Saç	-8341
▁Yer	-8342
▁cup	-8343
▁ial	-8344
▁iba	-8345
▁kia	-8346
▁kir	-8347
▁lub	-8348
▁own	-8349
▁rex	-8350
▁tış	-8351
▁yni	-8352
▁İYİ	-8353
▁Şaş	-8354
▁Şık	-8355
▁şaş	-8356
▁DAHA	-8357
▁Rabb	-8358
▁VERİ	-8359
▁abur	-8360
▁adel	-8361
▁eyiz	-8362
▁fonu	-8363
▁iana	-8364
▁ksin	-8365
▁libi	-8366
▁loka	-8367
▁msuz	-8368
▁timi	-8369
▁tiyo	-8370
▁tone	-8371
▁tran	-8372
▁amanı	-8373
▁azarı	-8374
▁buhar	-8375
▁bunda	-8376
▁enlik	-8377
▁evhid	-8378
▁ishal	-8379
▁issan	-8380
▁kabus	-8381
▁lakap	-8382
▁lanıl	-8383
▁lavye	-8384
▁resep	-8385
ces	-8386
dra	-8387
gas	-8388
kid	-8389
▁MK	-8390
▁Ph	-8391
▁tf	-8392
▁İF	-8393
iraj	-8394
▁1.2	-8395
▁53.	-8396
▁ALA	-8397
▁ESA	-8398
▁Git	-8399
▁Hip	-8400
▁Kat	-8401
▁Kro	-8402
▁Lag	-8403
▁Reh	-8404
▁Rol	-8405
▁Ted	-8406
▁hop	-8407
▁hor	-8408
▁hou	-8409
▁leb	-8410
▁lün	-8411
▁çük	-8412
▁CSKA	-8413
▁LERE	-8414
▁OTAŞ	-8415
▁alnı	-8416
▁amba	-8417
▁atit	-8418
▁ekno	-8419
▁evat	-8420
▁frin	-8421
▁fyon	-8422
▁ifşa	-8423
▁inel	-8424
▁izyo	-8425
▁kota	-8426
▁mani	-8427
▁uhal	-8428
▁vlen	-8429
▁çent	-8430
▁Didim	-8431
▁UMHUR	-8432
▁emtia	-8433
▁israf	-8434
▁lasti	-8435
▁lokal	-8436
▁mazer	-8437
▁zkere	-8438
▁üccar	-8439
AM	-8440
GÜ	-8441
cc	-8442
yl	-8443
Çİ	-8444
amb	-8445
ela	-8446
mal	-8447
▁(4	-8448
▁9'	-8449
▁Bi	-8450
▁NG	-8451
▁NU	-8452
gili	-8453
▁1.3	-8454
▁13,	-8455
▁27.	-8456
▁AZI	-8457
▁AZİ	-8458
▁Kus	-8459
▁Let	-8460
▁Ren	-8461
▁SON	-8462
▁aht	-8463
▁doh	-8464
▁meç	-8465
▁pya	-8466
▁rew	-8467
▁çiğ	-8468
▁önl	-8469
▁üpe	-8470
▁İKİ	-8471
▁ıla	-8472
▁BEŞİ	-8473
▁MHRS	-8474
▁YouT	-8475
▁ardo	-8476
▁enaj	-8477
▁enti	-8478
▁eyse	-8479
▁hlas	-8480
▁ilec	-8481
▁imen	-8482
▁koli	-8483
▁marş	-8484
▁mbal	-8485
▁rduk	-8486
▁teve	-8487
▁ubat	-8488
▁zırh	-8489
▁üşme	-8490
▁ıkan	-8491
▁akina	-8492
▁arara	-8493
▁berle	-8494
▁didik	-8495
▁egane	-8496
▁eşvik	-8497
▁ingle	-8498
▁lgili	-8499
▁likid	-8500
▁maymu	-8501
▁njonk	-8502
▁ouble	-8503
▁zikre	-8504
âl	-8505
emi	-8506
▁Bh	-8507
▁Gİ	-8508
▁sm	-8509
▁uo	-8510
▁103	-8511
▁2-2	-8512
▁40.	-8513
▁ECB	-8514
▁ELİ	-8515
▁Hua	-8516
▁KIR	-8517
▁MAN	-8518
▁Mey	-8519
▁eyf	-8520
▁iga	-8521
▁izd	-8522
▁neğ	-8523
▁ool	-8524
▁pul	-8525
▁rej	-8526
▁vra	-8527
▁üya	-8528
▁ASAK	-8529
▁TÜFE	-8530
▁irol	-8531
▁klem	-8532
▁kred	-8533
▁kılı	-8534
▁lanl	-8535
▁link	-8536
▁mast	-8537
▁olsu	-8538
▁rler	-8539
▁slam	-8540
▁taya	-8541
▁yaza	-8542
▁zeki	-8543
▁üreç	-8544
▁ıktı	-8545
▁ıraç	-8546
▁Haber	-8547
▁amamı	-8548
▁ercih	-8549
▁eylik	-8550
▁fitil	-8551
▁incar	-8552
▁masaj	-8553
▁nsari	-8554
▁nüfuz	-8555
▁nılma	-8556
▁treet	-8557
▁urnal	-8558
▁valiz	-8559
▁yordu	-8560
NG	-8561
NI	-8562
OB	-8563
ZA	-8564
op	-8565
DEM	-8566
bbe	-8567
zir	-8568
▁(5	-8569
▁AE	-8570
▁Aİ	-8571
▁MU	-8572
▁PC	-8573
▁114	-8574
▁33.	-8575
▁ECD	-8576
▁LES	-8577
▁Muş	-8578
▁NTE	-8579
▁RIM	-8580
▁SAN	-8581
▁SUR	-8582
▁Sık	-8583
▁ado	-8584
▁eşt	-8585
▁nev	-8586
▁oji	-8587
▁rub	-8588
▁utb	-8589
▁xpo	-8590
▁yra	-8591
▁âli	-8592
▁ARAR	-8593
▁OLAR	-8594
▁TOMA	-8595
▁acıy	-8596
▁alep	-8597
▁anıy	-8598
▁dana	-8599
▁epil	-8600
▁frik	-8601
▁ling	-8602
▁lipo	-8603
▁mark	-8604
▁meti	-8605
▁mola	-8606
▁norm	-8607
▁ross	-8608
▁teye	-8609
▁umru	-8610
▁yakl	-8611
▁ÖNCE	-8612
▁ÖZEL	-8613
▁ıkın	-8614
▁ılık	-8615
▁Hamil	-8616
▁afran	-8617
▁ayfun	-8618
▁dirme	-8619
▁fasul	-8620
▁idans	-8621
▁inson	-8622
▁kemot	-8623
▁koçya	-8624
▁kılıf	-8625
▁ndent	-8626
▁selam	-8627
▁tevaz	-8628
▁tları	-8629
▁tolik	-8630
▁veril	-8631
▁üreci	-8632
YO	-8633
daş	-8634
lig	-8635
oro	-8636
şan	-8637
▁"4	-8638
▁xp	-8639
▁104	-8640
▁190	-8641
▁330	-8642
▁52.	-8643
▁AÖF	-8644
▁Gay	-8645
▁KOM	-8646
▁Teb	-8647
▁Tüp	-8648
▁ach	-8649
▁bab	-8650
▁dai	-8651
▁enç	-8652
▁eva	-8653
▁eyh	-8654
▁kot	-8655
▁lyo	-8656
▁oth	-8657
▁ria	-8658
▁ruç	-8659
▁umd	-8660
▁şad	-8661
▁Huaw	-8662
▁akli	-8663
▁apne	-8664
▁asma	-8665
▁euts	-8666
▁ezil	-8667
▁güve	-8668
▁idon	-8669
▁inic	-8670
▁ipül	-8671
▁isca	-8672
▁kuaf	-8673
▁rang	-8674
▁rnia	-8675
▁urel	-8676
▁vago	-8677
▁yele	-8678
▁üşra	-8679
▁İLGİ	-8680
▁Luces	-8681
▁anımı	-8682
▁aslak	-8683
▁aşımı	-8684
▁birli	-8685
▁incan	-8686
▁kabir	-8687
▁kinli	-8688
▁meier	-8689
▁sapla	-8690
▁İŞKUR	-8691
▁şanti	-8692
ct	-8693
DEN	-8694
ERİ	-8695
SİN	-8696
cas	-8697
dye	-8698
itu	-8699
ner	-8700
ros	-8701
▁IC	-8702
▁RÜ	-8703
▁We	-8704
▁vr	-8705
▁ÖY	-8706
▁ân	-8707
▁ıh	-8708
okal	-8709
▁116	-8710
▁14,	-8711
▁850	-8712
▁AĞI	-8713
▁CNR	-8714
▁Dab	-8715
▁GSM	-8716
▁LME	-8717
▁Nad	-8718
▁Yan	-8719
▁YÜK	-8720
▁Zab	-8721
▁aşl	-8722
▁dre	-8723
▁duş	-8724
▁eth	-8725
▁laj	-8726
▁pta	-8727
▁pus	-8728
▁riğ	-8729
▁ruy	-8730
▁sıy	-8731
▁uto	-8732
▁Dini	-8733
▁KTAŞ	-8734
▁MKYK	-8735
▁ODTÜ	-8736
▁URSA	-8737
▁addi	-8738
▁akto	-8739
▁amac	-8740
▁araj	-8741
▁arfi	-8742
▁asum	-8743
▁bira	-8744
▁cial	-8745
▁erap	-8746
▁etül	-8747
▁ilci	-8748
▁iles	-8749
▁leni	-8750
▁ndaj	-8751
▁rson	-8752
▁tate	-8753
▁tlas	-8754
▁toka	-8755
▁ukla	-8756
▁umun	-8757
▁ürüy	-8758
▁Reşat	-8759
▁ahmin	-8760
▁edbir	-8761
▁eytan	-8762
▁fidye	-8763
▁ikmal	-8764
▁ineko	-8765
▁liyat	-8766
▁nizam	-8767
▁zuela	-8768
▁ünika	-8769
10	-8770
AŞ	-8771
uc	-8772
▁>	-8773
TİM	-8774
▁hı	-8775
▁18,	-8776
▁220	-8777
▁270	-8778
▁AMK	-8779
▁BTK	-8780
▁ERİ	-8781
▁KUR	-8782
▁LNG	-8783
▁Mud	-8784
▁Ova	-8785
▁OĞU	-8786
▁Raf	-8787
▁Ven	-8788
▁YAK	-8789
▁aik	-8790
▁eys	-8791
▁gio	-8792
▁idd	-8793
▁ius	-8794
▁muk	-8795
▁neb	-8796
▁owa	-8797
▁rig	-8798
▁rıc	-8799
▁tki	-8800
▁unk	-8801
▁ÇED	-8802
▁ÖNÜ	-8803
▁örd	-8804
▁ıkı	-8805
▁Daim	-8806
▁ERKE	-8807
▁GSYH	-8808
▁abip	-8809
▁akir	-8810
▁alid	-8811
▁arco	-8812
▁açka	-8813
▁blig	-8814
▁dede	-8815
▁etra	-8816
▁eyzi	-8817
▁habe	-8818
▁iret	-8819
▁ndir	-8820
▁rtun	-8821
▁usla	-8822
▁ydan	-8823
▁Didem	-8824
▁Mekan	-8825
▁Tıbbi	-8826
▁Vasip	-8827
▁alifo	-8828
▁arraf	-8829
▁cehen	-8830
▁dediğ	-8831
▁erazi	-8832
▁ernie	-8833
▁iliği	-8834
▁nasib	-8835
▁olfsb	-8836
▁ordro	-8837
▁ortum	-8838
▁rexit	-8839
▁rhang	-8840
12	-8841
KU	-8842
MK	-8843
fü	-8844
ps	-8845
ua	-8846
ûn	-8847
any	-8848
ila	-8849
ito	-8850
nez	-8851
ore	-8852
▁3)	-8853
▁DK	-8854
▁DS	-8855
▁DT	-8856
▁155	-8857
▁17,	-8858
▁31.	-8859
▁34.	-8860
▁5.5	-8861
▁All	-8862
▁AÇI	-8863
▁Inf	-8864
▁MGK	-8865
▁NSU	-8866
▁RDO	-8867
▁SIM	-8868
▁YIZ	-8869
▁cah	-8870
▁dız	-8871
▁efe	-8872
▁igu	-8873
▁kım	-8874
▁ocu	-8875
▁zıt	-8876
▁ÇIK	-8877
▁çta	-8878
▁ürl	-8879
▁ütl	-8880
▁ĞAN	-8881
▁İLİ	-8882
▁ŞTU	-8883
▁AFTA	-8884
▁DEİK	-8885
▁GELİ	-8886
▁YATI	-8887
▁arah	-8888
▁arap	-8889
▁arıt	-8890
▁atak	-8891
▁atio	-8892
▁azab	-8893
▁dild	-8894
▁enva	-8895
▁ezai	-8896
▁geni	-8897
▁guez	-8898
▁ifat	-8899
▁ilay	-8900
▁izan	-8901
▁mayd	-8902
▁nlam	-8903
▁oroz	-8904
▁rakı	-8905
▁rağb	-8906
▁reis	-8907
▁sava	-8908
▁stra	-8909
▁ümer	-8910
▁Meyve	-8911
▁ardar	-8912
▁arfüm	-8913
▁divan	-8914
▁elenk	-8915
▁errak	-8916
▁levha	-8917
▁pleri	-8918
▁rugua	-8919
▁Şakir	-8920
ib	-8921
İP	-8922
cks	-8923
ora	-8924
▁FT	-8925
▁NS	-8926
▁nr	-8927
eraf	-8928
▁280	-8929
▁3-5	-8930
▁4-0	-8931
▁6.5	-8932
▁ARD	-8933
▁ARE	-8934
▁ATA	-8935
▁BMW	-8936
▁GÜN	-8937
▁HER	-8938
▁Kıl	-8939
▁OYU	-8940
▁Pen	-8941
▁Rai	-8942
▁SEL	-8943
▁Sta	-8944
▁VIP	-8945
▁YLE	-8946
▁aar	-8947
▁abe	-8948
▁atb	-8949
▁dra	-8950
▁els	-8951
▁elâ	-8952
▁eze	-8953
▁iet	-8954
▁kıt	-8955
▁lly	-8956
▁lüp	-8957
▁meg	-8958
▁nna	-8959
▁pıh	-8960
▁rra	-8961
▁vam	-8962
▁war	-8963
▁Çay	-8964
▁önt	-8965
▁ĞLU	-8966
▁şal	-8967
▁şte	-8968
▁Dona	-8969
▁Tren	-8970
▁UTUK	-8971
▁ahec	-8972
▁akil	-8973
▁amda	-8974
▁amla	-8975
▁atun	-8976
▁aylo	-8977
▁balı	-8978
▁dola	-8979
▁drar	-8980
▁edri	-8981
▁eken	-8982
▁etva	-8983
▁eşir	-8984
▁gede	-8985
▁hina	-8986
▁icab	-8987
▁imay	-8988
▁iple	-8989
▁irya	-8990
▁itel	-8991
▁iyon	-8992
▁klim	-8993
▁oler	-8994
▁rian	-8995
▁rner	-8996
▁rımı	-8997
▁soba	-8998
▁tava	-8999
▁usse	-9000
▁ümün	-9001
▁üpür	-9002
▁şara	-9003
▁AKİKA	-9004
▁Kenya	-9005
▁TANAP	-9006
▁YILDI	-9007
▁endil	-9008
▁eynin	-9009
▁iftar	-9010
▁kadim	-9011
▁linke	-9012
▁metle	-9013
▁mirza	-9014
▁mpany	-9015
▁nezar	-9016
▁ridge	-9017
▁rkiye	-9018
▁rtivo	-9019
▁viraj	-9020
▁zaval	-9021
▁zulme	-9022
BO	-9023
Pİ	-9024
ant	-9025
ins	-9026
▁DP	-9027
▁FD	-9028
▁NO	-9029
▁PP	-9030
▁PR	-9031
▁cG	-9032
▁md	-9033
▁zh	-9034
übra	-9035
▁113	-9036
▁16,	-9037
▁301	-9038
▁ATO	-9039
▁Köy	-9040
▁LTE	-9041
▁Niz	-9042
▁RLİ	-9043
▁Rev	-9044
▁STA	-9045
▁ULU	-9046
▁ZON	-9047
▁cus	-9048
▁doz	-9049
▁gri	-9050
▁hab	-9051
▁küp	-9052
▁nad	-9053
▁riv	-9054
▁rüs	-9055
▁ylo	-9056
▁ÜVE	-9057
▁ğil	-9058
▁Şer	-9059
▁Şof	-9060
▁AŞBA	-9061
▁Eğit	-9062
▁IKTI	-9063
▁Mine	-9064
▁ONRA	-9065
▁SÜRE	-9066
▁TRAB	-9067
▁ahad	-9068
▁ahşi	-9069
▁alak	-9070
▁apla	-9071
▁apur	-9072
▁atra	-9073
▁ello	-9074
▁eril	-9075
▁erun	-9076
▁eğri	-9077
▁ihya	-9078
▁ilas	-9079
▁insa	-9080
▁iril	-9081
▁isse	-9082
▁kted	-9083
▁mezh	-9084
▁müna	-9085
▁ulti	-9086
▁zgâh	-9087
▁öste	-9088
▁İSTİ	-9089
▁Dabık	-9090
▁Kübra	-9091
▁YAPTI	-9092
▁anına	-9093
▁avşan	-9094
▁ağına	-9095
▁ağını	-9096
▁ersey	-9097
▁eyran	-9098
▁ferdi	-9099
▁mukav	-9100
▁oussa	-9101
▁ranan	-9102
▁runda	-9103
▁zenle	-9104
▁ırada	-9105
og	-9106
LİS	-9107
ake	-9108
bus	-9109
hua	-9110
lie	-9111
▁"5	-9112
▁BJ	-9113
▁IF	-9114
▁KU	-9115
▁LT	-9116
▁MB	-9117
▁fD	-9118
▁ll	-9119
▁1,3	-9120
▁1.1	-9121
▁182	-9122
▁39.	-9123
▁60.	-9124
▁ALE	-9125
▁ATV	-9126
▁Det	-9127
▁FAR	-9128
▁Mec	-9129
▁Mim	-9130
▁Rot	-9131
▁USB	-9132
▁alf	-9133
▁bor	-9134
▁cha	-9135
▁cit	-9136
▁koz	-9137
▁loğ	-9138
▁tya	-9139
▁İTO	-9140
▁CEĞİ	-9141
▁Dena	-9142
▁Kobe	-9143
▁ONYA	-9144
▁Roda	-9145
▁abat	-9146
▁aham	-9147
▁aidi	-9148
▁amsi	-9149
▁aren	-9150
▁eğim	-9151
▁farz	-9152
▁feth	-9153
▁ffet	-9154
▁icik	-9155
▁loko	-9156
▁luet	-9157
▁okta	-9158
▁oros	-9159
▁ouis	-9160
▁plum	-9161
▁pody	-9162
▁raft	-9163
▁rece	-9164
▁rini	-9165
▁rton	-9166
▁them	-9167
▁uphi	-9168
▁utma	-9169
▁ürat	-9170
▁üşün	-9171
▁Metal	-9172
▁Nadir	-9173
▁Refah	-9174
▁Resul	-9175
▁agnez	-9176
▁amayı	-9177
▁bucak	-9178
▁eliha	-9179
▁ennif	-9180
▁eşitl	-9181
▁lmalı	-9182
▁meçhu	-9183
▁mpole	-9184
▁nefis	-9185
▁nezak	-9186
▁nimet	-9187
▁tanda	-9188
▁vokal	-9189
▁zerre	-9190
▁üğünü	-9191
▁şahsı	-9192
PE	-9193
BİS	-9194
ino	-9195
zer	-9196
▁"7	-9197
▁BK	-9198
▁DJ	-9199
▁DO	-9200
▁EF	-9201
▁TM	-9202
eler	-9203
▁36.	-9204
▁7.5	-9205
▁AVU	-9206
▁AZA	-9207
▁Dun	-9208
▁ESK	-9209
▁MAK	-9210
▁MEN	-9211
▁Pal	-9212
▁RAM	-9213
▁SDG	-9214
▁Vur	-9215
▁YAN	-9216
▁ael	-9217
▁bın	-9218
▁imm	-9219
▁irl	-9220
▁lid	-9221
▁nağ	-9222
▁nle	-9223
▁sue	-9224
▁uni	-9225
▁von	-9226
▁AKUT	-9227
▁ARDI	-9228
▁Diya	-9229
▁Kına	-9230
▁Myan	-9231
▁OĞLU	-9232
▁SURİ	-9233
▁Sara	-9234
▁Sare	-9235
▁ahya	-9236
▁aksı	-9237
▁alez	-9238
▁anaş	-9239
▁apım	-9240
▁aras	-9241
▁arbi	-9242
▁ariz	-9243
▁bolc	-9244
▁durm	-9245
▁ebay	-9246
▁ediy	-9247
▁hası	-9248
▁ilel	-9249
▁ilki	-9250
▁ions	-9251
▁iğre	-9252
▁kora	-9253
▁laca	-9254
▁mbel	-9255
▁mest	-9256
▁mite	-9257
▁nano	-9258
▁onna	-9259
▁orla	-9260
▁rass	-9261
▁reko	-9262
▁riay	-9263
▁söyl	-9264
▁sıca	-9265
▁tock	-9266
▁trol	-9267
▁tsız	-9268
▁tıkl	-9269
▁ulaf	-9270
▁weet	-9271
▁ymes	-9272
▁çlan	-9273
▁çler	-9274
▁üntü	-9275
▁ŞKAN	-9276
▁şefk	-9277
▁CAĞIZ	-9278
▁Lucas	-9279
▁Nizam	-9280
▁Tesla	-9281
▁YÜKSE	-9282
▁aidiy	-9283
▁eyyid	-9284
▁houhe	-9285
▁labil	-9286
▁misal	-9287
▁ogher	-9288
▁oyunc	-9289
▁rmann	-9290
▁ŞEHİR	-9291
▁Şeraf	-9292
TS	-9293
gir	-9294
igh	-9295
iko	-9296
âne	-9297
şaf	-9298
▁8-	-9299
▁EB	-9300
▁Hİ	-9301
▁bg	-9302
▁105	-9303
▁29.	-9304
▁ANA	-9305
▁Bol	-9306
▁Efe	-9307
▁Nav	-9308
▁RAY	-9309
▁Tru	-9310
▁Yen	-9311
▁arh	-9312
▁biy	-9313
▁fle	-9314
▁hev	-9315
▁hla	-9316
▁ird	-9317
▁keb	-9318
▁lgo	-9319
▁rep	-9320
▁rşi	-9321
▁zah	-9322
▁ŞME	-9323
▁Dimi	-9324
▁Gene	-9325
▁Kafe	-9326
▁Plaj	-9327
▁Poke	-9328
▁ahip	-9329
▁akos	-9330
▁apsa	-9331
▁avai	-9332
▁avva	-9333
▁bilg	-9334
▁bomb	-9335
▁ense	-9336
▁epki	-9337
▁etve	-9338
▁ezik	-9339
▁eşer	-9340
▁hiza	-9341
▁icat	-9342
▁ikon	-9343
▁ilva	-9344
▁maha	-9345
▁nane	-9346
▁revi	-9347
▁seve	-9348
▁tlan	-9349
▁ukas	-9350
▁unar	-9351
▁yten	-9352
▁ÖSTE	-9353
▁ükmü	-9354
▁ürdü	-9355
▁BEDAŞ	-9356
▁LANDI	-9357
▁Vesel	-9358
▁anlan	-9359
▁arşaf	-9360
▁azhar	-9361
▁derle	-9362
▁erhan	-9363
▁errin	-9364
▁idane	-9365
▁ketin	-9366
▁lakab	-9367
▁leler	-9368
▁malul	-9369
▁nunda	-9370
▁ustin	-9371
▁zları	-9372
▁ılığı	-9373
▁ındığ	-9374
DF	-9375
El	-9376
ac	-9377
fu	-9378
Üç	-9379
LAN	-9380
bic	-9381
ink	-9382
itz	-9383
ola	-9384
çay	-9385
▁Fe	-9386
▁GS	-9387
▁HS	-9388
▁PM	-9389
▁dw	-9390
▁gn	-9391
▁tç	-9392
EREF	-9393
▁(3)	-9394
▁1.4	-9395
▁107	-9396
▁128	-9397
▁260	-9398
▁38.	-9399
▁AMA	-9400
▁EME	-9401
▁GAP	-9402
▁Gat	-9403
▁Jas	-9404
▁Kuş	-9405
▁OVP	-9406
▁RME	-9407
▁Rud	-9408
▁bed	-9409
▁cad	-9410
▁hür	-9411
▁ksp	-9412
▁kıp	-9413
▁lağ	-9414
▁lix	-9415
▁luy	-9416
▁mic	-9417
▁mih	-9418
▁owl	-9419
▁uge	-9420
▁ute	-9421
▁ĞUZ	-9422
▁ğım	-9423
▁Bale	-9424
▁LİRA	-9425
▁Rami	-9426
▁STAT	-9427
▁ULLA	-9428
▁USYA	-9429
▁afha	-9430
▁azil	-9431
▁açta	-9432
▁erba	-9433
▁erem	-9434
▁erle	-9435
▁eçer	-9436
▁faşi	-9437
▁gdan	-9438
▁hatt	-9439
▁ibra	-9440
▁ihal	-9441
▁iter	-9442
▁izbo	-9443
▁keyf	-9444
▁liya	-9445
▁olle	-9446
▁olvo	-9447
▁onde	-9448
▁oray	-9449
▁otob	-9450
▁rafa	-9451
▁raha	-9452
▁rgun	-9453
▁rina	-9454
▁rşiv	-9455
▁taht	-9456
▁vran	-9457
▁üşen	-9458
▁ğlan	-9459
▁Şiir	-9460
▁şlar	-9461
▁Mehme	-9462
▁VERDİ	-9463
▁amaya	-9464
▁arçın	-9465
▁erpil	-9466
▁erton	-9467
▁ferah	-9468
▁gasus	-9469
▁iyazi	-9470
▁llega	-9471
▁lmeye	-9472
▁mazot	-9473
▁nakdi	-9474
▁ramaz	-9475
▁ırmak	-9476
▁ŞEREF	-9477
▁şenko	-9478
GM	-9479
KÜ	-9480
LO	-9481
La	-9482
uh	-9483
CAN	-9484
azz	-9485
▁"6	-9486
▁(6	-9487
▁01	-9488
▁06	-9489
▁RK	-9490
▁TG	-9491
▁by	-9492
▁kd	-9493
▁tk	-9494
▁zc	-9495
▁Şü	-9496
erie	-9497
▁101	-9498
▁165	-9499
▁20,	-9500
▁230	-9501
▁320	-9502
▁45.	-9503
▁6,5	-9504
▁AKK	-9505
▁BJK	-9506
▁Boz	-9507
▁DİN	-9508
▁Emr	-9509
▁EÇİ	-9510
▁Jer	-9511
▁Jon	-9512
▁Kab	-9513
▁LPG	-9514
▁Lib	-9515
▁Lov	-9516
▁NTI	-9517
▁RAK	-9518
▁Sad	-9519
▁TEK	-9520
▁VRU	-9521
▁VUR	-9522
▁Vuk	-9523
▁atr	-9524
▁cal	-9525
▁erj	-9526
▁ilb	-9527
▁lke	-9528
▁mca	-9529
▁mme	-9530
▁rix	-9531
▁ung	-9532
▁xim	-9533
▁ÖZÜ	-9534
▁İYA	-9535
▁ARİH	-9536
▁AĞLI	-9537
▁DANA	-9538
▁Doye	-9539
▁KALE	-9540
▁Ovac	-9541
▁Part	-9542
▁Rubi	-9543
▁SPOR	-9544
▁Sisi	-9545
▁Veya	-9546
▁andi	-9547
▁angu	-9548
▁anju	-9549
▁back	-9550
▁elva	-9551
▁ilve	-9552
▁imül	-9553
▁insk	-9554
▁lmak	-9555
▁matb	-9556
▁mond	-9557
▁ning	-9558
▁oldo	-9559
▁rade	-9560
▁rome	-9561
▁sale	-9562
▁zarı	-9563
▁zenf	-9564
▁ÖLGE	-9565
▁üslü	-9566
▁üzit	-9567
▁Beden	-9568
▁Damat	-9569
▁YORUM	-9570
▁afari	-9571
▁akçay	-9572
▁antim	-9573
▁antos	-9574
▁aştır	-9575
▁insaf	-9576
▁lahom	-9577
▁metan	-9578
▁nmeye	-9579
▁ryant	-9580
▁tilki	-9581
▁utnik	-9582
▁yetle	-9583
▁ürşat	-9584
▁ırlan	-9585
▁ŞKANI	-9586
LC	-9587
ss	-9588
xi	-9589
GUL	-9590
ato	-9591
bao	-9592
hut	-9593
ick	-9594
iny	-9595
mad	-9596
rao	-9597
▁LK	-9598
▁ZE	-9599
▁bs	-9600
▁yp	-9601
▁Ça	-9602
▁ÜL	-9603
▁ıc	-9604
▁106	-9605
▁185	-9606
▁22,	-9607
▁66.	-9608
▁ANİ	-9609
▁AŞI	-9610
▁Blu	-9611
▁Dağ	-9612
▁DİR	-9613
▁Jüp	-9614
▁Kef	-9615
▁TAR	-9616
▁YİN	-9617
▁Zır	-9618
▁arr	-9619
▁aym	-9620
▁gür	-9621
▁hew	-9622
▁lür	-9623
▁rre	-9624
▁uer	-9625
▁yün	-9626
▁ÜYÜ	-9627
▁ûre	-9628
▁ğsü	-9629
▁İşi	-9630
▁AKAN	-9631
▁Boko	-9632
▁GALA	-9633
▁Hipo	-9634
▁YÖNE	-9635
▁adar	-9636
▁alad	-9637
▁celi	-9638
▁ecik	-9639
▁eyik	-9640
▁ibet	-9641
▁ikro	-9642
▁klin	-9643
▁lyoz	-9644
▁mino	-9645
▁ngaj	-9646
▁ntin	-9647
▁orre	-9648
▁rady	-9649
▁radı	-9650
▁real	-9651
▁renc	-9652
▁ried	-9653
▁riyo	-9654
▁sara	-9655
▁tada	-9656
▁ulya	-9657
▁unde	-9658
▁Şart	-9659
▁aarif	-9660
▁ahver	-9661
▁arebe	-9662
▁arlie	-9663
▁arışı	-9664
▁cahit	-9665
▁dınla	-9666
▁elbet	-9667
▁eyyar	-9668
▁eğini	-9669
▁idrak	-9670
▁idyat	-9671
▁iflis	-9672
▁inkâr	-9673
▁isten	-9674
▁lanse	-9675
▁mları	-9676
▁mukab	-9677
▁tefan	-9678
▁tekli	-9679
▁terya	-9680
▁tıkır	-9681
▁çıvan	-9682
▁ördüğ	-9683
▁şacak	-9684
HT	-9685
SD	-9686
by	-9687
▁°	-9688
bed	-9689
ubi	-9690
▁(8	-9691
▁09	-9692
▁EĞ	-9693
▁ID	-9694
▁SY	-9695
▁br	-9696
▁gh	-9697
▁ŞU	-9698
drag	-9699
▁(1)	-9700
▁1.8	-9701
▁145	-9702
▁210	-9703
▁215	-9704
▁225	-9705
▁25,	-9706
▁365	-9707
▁Ari	-9708
▁BKM	-9709
▁Hac	-9710
▁Jim	-9711
▁KLİ	-9712
▁LUK	-9713
▁RKA	-9714
▁Ruh	-9715
▁TİB	-9716
▁Vak	-9717
▁Wik	-9718
▁YDG	-9719
▁Zah	-9720
▁bev	-9721
▁bot	-9722
▁dig	-9723
▁eno	-9724
▁ieb	-9725
▁iks	-9726
▁imb	-9727
▁lta	-9728
▁ssi	-9729
▁çil	-9730
▁çığ	-9731
▁ümb	-9732
▁üçe	-9733
▁İTÜ	-9734
▁ARAF	-9735
▁AİLE	-9736
▁AŞKA	-9737
▁KART	-9738
▁Kası	-9739
▁Kura	-9740
▁MOBE	-9741
▁NADO	-9742
▁Nail	-9743
▁OMBA	-9744
▁Poro	-9745
▁acer	-9746
▁aron	-9747
▁aşer	-9748
▁ebap	-9749
▁eiro	-9750
▁emsi	-9751
▁eriz	-9752
▁erna	-9753
▁eyan	-9754
▁hans	-9755
▁ibol	-9756
▁iley	-9757
▁ixon	-9758
▁leve	-9759
▁mans	-9760
▁mole	-9761
▁nsan	-9762
▁onuc	-9763
▁otaj	-9764
▁parl	-9765
▁perd	-9766
▁rtis	-9767
▁rtod	-9768
▁uang	-9769
▁vaaz	-9770
▁vari	-9771
▁yera	-9772
▁yeti	-9773
▁zama	-9774
▁ümen	-9775
▁ürre	-9776
▁üştü	-9777
▁ışan	-9778
▁Şaka	-9779
▁KADEM	-9780
▁Rubio	-9781
▁arris	-9782
▁atvan	-9783
▁elike	-9784
▁entez	-9785
▁ermiş	-9786
▁ettah	-9787
▁heves	-9788
▁ilyar	-9789
▁inkar	-9790
▁ipote	-9791
▁lamba	-9792
▁lmedi	-9793
▁megav	-9794
▁nedar	-9795
▁pdrag	-9796
▁piker	-9797
▁renle	-9798
▁rookl	-9799
▁sorul	-9800
▁urica	-9801
▁yanın	-9802
▁öntem	-9803
▁üminy	-9804
SV	-9805
YI	-9806
İL	-9807
bih	-9808
fan	-9809
het	-9810
lus	-9811
umb	-9812
şin	-9813
şır	-9814
▁3"	-9815
▁AC	-9816
▁FC	-9817
▁LC	-9818
▁MW	-9819
▁TÖ	-9820
▁UZ	-9821
▁YU	-9822
▁hr	-9823
▁zb	-9824
ense	-9825
▁1+1	-9826
▁111	-9827
▁136	-9828
▁175	-9829
▁241	-9830
▁290	-9831
▁3-3	-9832
▁41.	-9833
▁43.	-9834
▁89.	-9835
▁CAN	-9836
▁Cim	-9837
▁EKİ	-9838
▁ENÇ	-9839
▁GYO	-9840
▁Hop	-9841
▁III	-9842
▁NCI	-9843
▁Nar	-9844
▁Ran	-9845
▁Sun	-9846
▁TEB	-9847
▁ayg	-9848
▁eba	-9849
▁fah	-9850
▁gna	-9851
▁hip	-9852
▁luç	-9853
▁naf	-9854
▁nid	-9855
▁nko	-9856
▁nos	-9857
▁now	-9858
▁rea	-9859
▁sca	-9860
▁uha	-9861
▁uil	-9862
▁way	-9863
▁ÖZA	-9864
▁İle	-9865
▁ınc	-9866
▁ırç	-9867
▁ADIN	-9868
▁AŞLA	-9869
▁BIRA	-9870
▁Dunf	-9871
▁ESKİ	-9872
▁HSBC	-9873
▁Hugo	-9874
▁NDEN	-9875
▁NTEP	-9876
▁Seba	-9877
▁URUM	-9878
▁YAPA	-9879
▁YAŞA	-9880
▁YDIN	-9881
▁Zana	-9882
▁afet	-9883
▁alaz	-9884
▁aldi	-9885
▁apec	-9886
▁arip	-9887
▁arol	-9888
▁elda	-9889
▁esur	-9890
▁evcu	-9891
▁eyid	-9892
▁eyne	-9893
▁güçl	-9894
▁laat	-9895
▁neml	-9896
▁opra	-9897
▁ormo	-9898
▁orth	-9899
▁oung	-9900
▁pide	-9901
▁rema	-9902
▁reya	-9903
▁roin	-9904
▁slüm	-9905
▁tili	-9906
▁tird	-9907
▁tkil	-9908
▁tras	-9909
▁work	-9910
▁zary	-9911
▁ÜNDE	-9912
▁önes	-9913
▁önüm	-9914
▁şanz	-9915
▁ERSİN	-9916
▁arpuz	-9917
▁asvir	-9918
▁ercan	-9919
▁ettür	-9920
▁ezire	-9921
▁ikmen	-9922
▁ilbao	-9923
▁istri	-9924
▁iyale	-9925
▁klişe	-9926
▁lahan	-9927
▁ledik	-9928
▁liter	-9929
▁lüğün	-9930
▁mezra	-9931
▁oense	-9932
▁rivay	-9933
▁rımız	-9934
▁terem	-9935
▁tmesi	-9936
▁tockh	-9937
▁weuke	-9938
MÜ	-9939
YE	-9940
ÖK	-9941
MAK	-9942
TAL	-9943
gge	-9944
hir	-9945
nat	-9946
pro	-9947
ref	-9948
▁'1	-9949
▁AG	-9950
▁DC	-9951
▁Hi	-9952
▁OZ	-9953
▁UF	-9954
▁ds	-9955
▁yb	-9956
▁ÖĞ	-9957
▁ĞA	-9958
idel	-9959
▁1,4	-9960
▁117	-9961
▁152	-9962
▁37.	-9963
▁CSU	-9964
▁ETD	-9965
▁Erk	-9966
▁Güç	-9967
▁HPV	-9968
▁Ins	-9969
▁Jac	-9970
▁MER	-9971
▁NTV	-9972
▁NUN	-9973
▁Ped	-9974
▁Pet	-9975
▁Que	-9976
▁RES	-9977
▁SMA	-9978
▁Sof	-9979
▁TAV	-9980
▁Taz	-9981
▁YDI	-9982
▁YLA	-9983
▁YNA	-9984
▁Yay	-9985
▁Zan	-9986
▁eir	-9987
▁fos	-9988
▁gâh	-9989
▁ies	-9990
▁jel	-9991
▁lej	-9992
▁nsı	-9993
▁nüs	-9994
▁rch	-9995
▁rok	-9996
▁slo	-9997
▁tıs	-9998
▁zid	-9999
▁zur	-10000
▁ÜRK	-10001
▁üma	-10002
▁İşe	-10003
▁şev	-10004
▁şük	-10005
▁ADAR	-10006
▁ELDİ	-10007
▁Juan	-10008
▁Jüri	-10009
▁Opel	-10010
▁able	-10011
▁abya	-10012
▁akdi	-10013
▁amos	-10014
▁ayri	-10015
▁bach	-10016
▁bura	-10017
▁ekai	-10018
▁eliğ	-10019
▁emer	-10020
▁ezid	-10021
▁eğin	-10022
▁gani	-10023
▁ipuc	-10024
▁iron	-10025
▁iğin	-10026
▁kokt	-10027
▁kupo	-10028
▁mira	-10029
▁mran	-10030
▁nlay	-10031
▁rafo	-10032
▁reed	-10033
▁rili	-10034
▁rino	-10035
▁rtiz	-10036
▁sald	-10037
▁stle	-10038
▁terd	-10039
▁tine	-10040
▁ubil	-10041
▁urna	-10042
▁vadi	-10043
▁zhou	-10044
▁ömer	-10045
▁üral	-10046
▁İHRA	-10047
▁ırla	-10048
▁ırma	-10049
▁Şair	-10050
▁şmiş	-10051
▁Jason	-10052
▁Kenne	-10053
▁Serie	-10054
▁arhan	-10055
▁ayınl	-10056
▁demet	-10057
▁elipe	-10058
▁etraj	-10059
▁gdano	-10060
▁halin	-10061
▁kabül	-10062
▁kubbe	-10063
▁ntezi	-10064
▁orsch	-10065
▁oulma	-10066
▁rreal	-10067
▁ruise	-10068
▁teven	-10069
DP	-10070
HE	-10071
wo	-10072
ât	-10073
FAŞ	-10074
SİM	-10075
TİB	-10076
ale	-10077
ger	-10078
hio	-10079
ors	-10080
use	-10081
vat	-10082
▁4)	-10083
▁4/	-10084
▁BO	-10085
▁GT	-10086
▁IL	-10087
▁Oy	-10088
▁UK	-10089
▁VW	-10090
▁kl	-10091
▁ml	-10092
LERİ	-10093
ehre	-10094
emer	-10095
eria	-10096
esih	-10097
▁149	-10098
▁184	-10099
▁187	-10100
▁4-1	-10101
▁56.	-10102
▁7,5	-10103
▁71.	-10104
▁AAT	-10105
▁Ani	-10106
▁Boş	-10107
▁FDT	-10108
▁GBT	-10109
▁HDR	-10110
▁IKI	-10111
▁INI	-10112
▁ODE	-10113
▁Sri	-10114
▁TBF	-10115
▁Tuz	-10116
▁TİK	-10117
▁Vet	-10118
▁ZOR	-10119
▁Zam	-10120
▁aas	-10121
▁aev	-10122
▁aşv	-10123
▁eml	-10124
▁hro	-10125
▁hçe	-10126
▁inn	-10127
▁ith	-10128
▁klo	-10129
▁küt	-10130
▁nic	-10131
▁rud	-10132
▁ruj	-10133
▁rön	-10134
▁sch	-10135
▁sir	-10136
▁tiy	-10137
▁ual	-10138
▁yey	-10139
▁çla	-10140
▁Şif	-10141
▁ASTA	-10142
▁AZİA	-10143
▁IPIM	-10144
▁Kova	-10145
▁Qual	-10146
▁RTTI	-10147
▁adab	-10148
▁asri	-10149
▁aşit	-10150
▁cidd	-10151
▁cini	-10152
▁ebru	-10153
▁ecde	-10154
▁efik	-10155
▁elep	-10156
▁elly	-10157
▁elvi	-10158
▁eram	-10159
▁erso	-10160
▁heim	-10161
▁hile	-10162
▁icas	-10163
▁izer	-10164
▁lash	-10165
▁latt	-10166
▁lmam	-10167
▁mens	-10168
▁miks	-10169
▁miyo	-10170
▁more	-10171
▁niko	-10172
▁nuna	-10173
▁olek	-10174
▁road	-10175
▁rsey	-10176
▁sell	-10177
▁sevi	-10178
▁sist	-10179
▁slen	-10180
▁smer	-10181
▁teni	-10182
▁tten	-10183
▁umus	-10184
▁unkt	-10185
▁vaha	-10186
▁yang	-10187
▁yarb	-10188
▁ÖRGÜ	-10189
▁ğind	-10190
▁şıma	-10191
▁Fidel	-10192
▁Semer	-10193
▁ancar	-10194
▁andar	-10195
▁antez	-10196
▁apşır	-10197
▁arren	-10198
▁arına	-10199
▁eynır	-10200
▁fahiş	-10201
▁fesih	-10202
▁htapo	-10203
▁ibret	-10204
▁iyatı	-10205
▁kadaş	-10206
▁kamaş	-10207
▁kilid	-10208
▁merun	-10209
▁mozai	-10210
▁naylo	-10211
▁nohut	-10212
▁nsanı	-10213
▁peare	-10214
▁remen	-10215
▁rlama	-10216
▁silya	-10217
▁takil	-10218
▁uklar	-10219
▁unvan	-10220
▁ĞİTİM	-10221
▁şükre	-10222
BM	-10223
Ey	-10224
NT	-10225
io	-10226
wn	-10227
ART	-10228
ETİ	-10229
bal	-10230
gar	-10231
iza	-10232
vas	-10233
ÜRÜ	-10234
▁-1	-10235
▁07	-10236
▁1"	-10237
▁DH	-10238
▁EŞ	-10239
▁GM	-10240
▁IT	-10241
▁RO	-10242
▁RS	-10243
▁hd	-10244
▁Çı	-10245
▁ŞÜ	-10246
CADE	-10247
▁1.7	-10248
▁138	-10249
▁142	-10250
▁188	-10251
▁367	-10252
▁51.	-10253
▁70.	-10254
▁78.	-10255
▁82.	-10256
▁90.	-10257
▁911	-10258
▁AKI	-10259
▁BAŞ	-10260
▁Dol	-10261
▁FED	-10262
▁Joa	-10263
▁Jun	-10264
▁KAT	-10265
▁KON	-10266
▁LKE	-10267
▁Lee	-10268
▁Lim	-10269
▁NBC	-10270
▁TEŞ	-10271
▁Tun	-10272
▁Tül	-10273
▁Zag	-10274
▁aim	-10275
▁alg	-10276
▁cir	-10277
▁ehi	-10278
▁hae	-10279
▁ieg	-10280
▁ipi	-10281
▁lao	-10282
▁lmu	-10283
▁mul	-10284
▁nör	-10285
▁okr	-10286
▁pit	-10287
▁psa	-10288
▁rlı	-10289
▁rçe	-10290
▁tkı	-10291
▁unt	-10292
▁vol	-10293
▁yke	-10294
▁yoz	-10295
▁zap	-10296
▁zof	-10297
▁çlü	-10298
▁ürm	-10299
▁AVUZ	-10300
▁Blue	-10301
▁Cola	-10302
▁FARC	-10303
▁FIBA	-10304
▁Kole	-10305
▁Lamb	-10306
▁Life	-10307
▁Mega	-10308
▁Naim	-10309
▁Ofis	-10310
▁Rafi	-10311
▁Road	-10312
▁Rose	-10313
▁abib	-10314
▁acik	-10315
▁afra	-10316
▁agic	-10317
▁anga	-10318
▁anpo	-10319
▁artu	-10320
▁atas	-10321
▁ayac	-10322
▁cans	-10323
▁egüm	-10324
▁emsa	-10325
▁erum	-10326
▁eten	-10327
▁etir	-10328
▁ezar	-10329
▁fire	-10330
▁fşin	-10331
▁gart	-10332
▁giye	-10333
▁heck	-10334
▁hire	-10335
▁ipek	-10336
▁iraç	-10337
▁irne	-10338
▁ived	-10339
▁kand	-10340
▁klas	-10341
▁laşı	-10342
▁lıkl	-10343
▁mamı	-10344
▁mito	-10345
▁ndis	-10346
▁nica	-10347
▁olak	-10348
▁pivo	-10349
▁rnea	-10350
▁rönt	-10351
▁sody	-10352
▁spit	-10353
▁steo	-10354
▁ylar	-10355
▁zleş	-10356
▁övbe	-10357
▁ürlü	-10358
▁İRKE	-10359
▁İŞLE	-10360
▁ınai	-10361
▁ıvıl	-10362
▁ERKEZ	-10363
▁Lassa	-10364
▁Sedan	-10365
▁ahriş	-10366
▁albay	-10367
▁anmak	-10368
▁arkot	-10369
▁bilek	-10370
▁cover	-10371
▁ehdit	-10372
▁erdan	-10373
▁eyhun	-10374
▁fethi	-10375
▁kalbe	-10376
▁kontr	-10377
▁leyna	-10378
▁mestr	-10379
▁micro	-10380
▁orais	-10381
▁rekke	-10382
▁rritu	-10383
▁scape	-10384
▁teyen	-10385
▁ulaşa	-10386
▁ÜCADE	-10387
▁üsran	-10388
▁ŞEHİT	-10389
▁şahsa	-10390
VD	-10391
ux	-10392
CEF	-10393
LAH	-10394
MEZ	-10395
SAB	-10396
bro	-10397
cal	-10398
dus	-10399
emo	-10400
lâk	-10401
orf	-10402
orn	-10403
sac	-10404
zar	-10405
▁5"	-10406
▁BB	-10407
▁DR	-10408
▁KÜ	-10409
▁OT	-10410
▁UĞ	-10411
▁eB	-10412
▁fr	-10413
▁ji	-10414
▁kş	-10415
▁pr	-10416
imet	-10417
▁108	-10418
▁129	-10419
▁132	-10420
▁141	-10421
▁158	-10422
▁4-2	-10423
▁720	-10424
▁83.	-10425
▁AKA	-10426
▁AYA	-10427
▁Ele	-10428
▁Gür	-10429
▁Ini	-10430
▁KYK	-10431
▁LDÜ	-10432
▁MAÇ	-10433
▁MLU	-10434
▁Max	-10435
▁NCA	-10436
▁PSM	-10437
▁RDU	-10438
▁RPG	-10439
▁Rog	-10440
▁SPK	-10441
▁TÜM	-10442
▁Vel	-10443
▁cıv	-10444
▁dıl	-10445
▁ezo	-10446
▁göl	-10447
▁ils	-10448
▁liy	-10449
▁loo	-10450
▁nac	-10451
▁nsu	-10452
▁rış	-10453
▁ump	-10454
▁ğar	-10455
▁İHH	-10456
▁şor	-10457
▁AGİT	-10458
▁ARBE	-10459
▁AÇIN	-10460
▁BABA	-10461
▁DEĞİ	-10462
▁EDAŞ	-10463
▁ENDİ	-10464
▁Kabe	-10465
▁Luiz	-10466
▁OCUK	-10467
▁Ohio	-10468
▁Rauf	-10469
▁Raul	-10470
▁acca	-10471
▁alas	-10472
▁alli	-10473
▁aniz	-10474
▁aric	-10475
▁arto	-10476
▁auck	-10477
▁burj	-10478
▁dime	-10479
▁each	-10480
▁ebep	-10481
▁elil	-10482
▁elta	-10483
▁eset	-10484
▁fair	-10485
▁fast	-10486
▁fera	-10487
▁heba	-10488
▁hift	-10489
▁iled	-10490
▁inar	-10491
▁ineğ	-10492
▁izip	-10493
▁işik	-10494
▁kase	-10495
▁kber	-10496
▁lede	-10497
▁lide	-10498
▁mdat	-10499
▁ntar	-10500
▁ooth	-10501
▁oper	-10502
▁orak	-10503
▁rbes	-10504
▁reyf	-10505
▁rien	-10506
▁rizm	-10507
▁rten	-10508
▁sala	-10509
▁soro	-10510
▁stem	-10511
▁syan	-10512
▁turk	-10513
▁vers	-10514
▁ÖĞRE	-10515
▁örül	-10516
▁ütfü	-10517
▁İLLE	-10518
▁ırka	-10519
▁ıvad	-10520
▁ıçra	-10521
▁ERÖRİ	-10522
▁Gates	-10523
▁NLARI	-10524
▁Nimet	-10525
▁akrao	-10526
▁arino	-10527
▁bessü	-10528
▁desin	-10529
▁edikl	-10530
▁encil	-10531
▁eygir	-10532
▁ezber	-10533
▁flash	-10534
▁ierre	-10535
▁irfan	-10536
▁keder	-10537
▁klara	-10538
▁kubic	-10539
▁küloz	-10540
▁leceğ	-10541
▁menşe	-10542
▁nazik	-10543
▁nomik	-10544
▁peria	-10545
▁rivan	-10546
▁rtune	-10547
▁thors	-10548
▁zence	-10549
▁çları	-10550
▁ğladı	-10551
âd	-10552
DEK	-10553
OJE	-10554
ell	-10555
jet	-10556
lia	-10557
lâl	-10558
rie	-10559
rüt	-10560
uşi	-10561
vab	-10562
vaf	-10563
yam	-10564
zen	-10565
▁(9	-10566
▁5)	-10567
▁GI	-10568
▁LÜ	-10569
▁Nm	-10570
▁SC	-10571
▁TP	-10572
▁Zo	-10573
▁üj	-10574
chat	-10575
▁118	-10576
▁126	-10577
▁163	-10578
▁176	-10579
▁19,	-10580
▁2+1	-10581
▁340	-10582
▁820	-10583
▁AYD	-10584
▁Abi	-10585
▁Abu	-10586
▁Ard	-10587
▁BES	-10588
▁Col	-10589
▁Dam	-10590
▁EKN	-10591
▁ESİ	-10592
▁GOL	-10593
▁HIV	-10594
▁HIZ	-10595
▁Hum	-10596
▁KTA	-10597
▁MAZ	-10598
▁MKE	-10599
▁Moh	-10600
▁NCU	-10601
▁Ney	-10602
▁Neş	-10603
▁Ort	-10604
▁Spo	-10605
▁ULÜ	-10606
▁YDS	-10607
▁ZDF	-10608
▁ahn	-10609
▁avc	-10610
▁awk	-10611
▁dej	-10612
▁eer	-10613
▁esg	-10614
▁eur	-10615
▁güt	-10616
▁hus	-10617
▁ify	-10618
▁olk	-10619
▁olt	-10620
▁ped	-10621
▁pen	-10622
▁püf	-10623
▁rtt	-10624
▁zıp	-10625
▁Üye	-10626
▁ÜŞÜ	-10627
▁ânâ	-10628
▁çip	-10629
▁çıt	-10630
▁şür	-10631
▁Bedi	-10632
▁EKİN	-10633
▁EVAM	-10634
▁LIĞI	-10635
▁Live	-10636
▁Maaş	-10637
▁NLİK	-10638
▁Oval	-10639
▁ROJE	-10640
▁Reha	-10641
▁Rosb	-10642
▁Vuko	-10643
▁abad	-10644
▁ahor	-10645
▁ainz	-10646
▁alti	-10647
▁anno	-10648
▁anos	-10649
▁aolo	-10650
▁ears	-10651
▁enit	-10652
▁ftar	-10653
▁hamd	-10654
▁iang	-10655
▁iniğ	-10656
▁ktri	-10657
▁mare	-10658
▁mill	-10659
▁olum	-10660
▁onne	-10661
▁posa	-10662
▁rest	-10663
▁rres	-10664
▁rtla	-10665
▁side	-10666
▁tazy	-10667
▁ulva	-10668
▁umre	-10669
▁ursi	-10670
▁uruy	-10671
▁yatı	-10672
▁yong	-10673
▁çıkı	-10674
▁ülil	-10675
▁üşte	-10676
▁İNDİ	-10677
▁İsra	-10678
▁şerb	-10679
▁AŞKAN	-10680
▁Feder	-10681
▁Keşan	-10682
▁Limak	-10683
▁NICEF	-10684
▁Nasuh	-10685
▁Vahit	-10686
▁adire	-10687
▁ahmak	-10688
▁alaga	-10689
▁ambur	-10690
▁angal	-10691
▁araka	-10692
▁arson	-10693
▁atika	-10694
▁atrik	-10695
▁bilen	-10696
▁dilek	-10697
▁eirel	-10698
▁enant	-10699
▁erkür	-10700
▁erten	-10701
▁evecc	-10702
▁ferag	-10703
▁fosil	-10704
▁haepe	-10705
▁ifler	-10706
▁ilmek	-10707
▁insta	-10708
▁iyech	-10709
▁kafes	-10710
▁ktris	-10711
▁kütük	-10712
▁lajen	-10713
▁laven	-10714
▁medet	-10715
▁metod	-10716
▁muvaf	-10717
▁niver	-10718
▁nlere	-10719
▁nüsha	-10720
▁pchat	-10721
▁pollo	-10722
▁rason	-10723
▁raton	-10724
▁rtizo	-10725
▁siste	-10726
▁traji	-10727
▁ullar	-10728
▁umruğ	-10729
▁unami	-10730
▁ümrüt	-10731
▁Şeren	-10732
▁Şeyma	-10733
Ah	-10734
dz	-10735
▁é	-10736
GEV	-10737
MEK	-10738
ans	-10739
can	-10740
eks	-10741
gie	-10742
had	-10743
zak	-10744
İRA	-10745
▁BN	-10746
▁BÜ	-10747
▁CO	-10748
▁Eh	-10749
▁GH	-10750
▁IA	-10751
▁KT	-10752
▁SM	-10753
▁TU	-10754
▁WA	-10755
▁YP	-10756
▁cL	-10757
▁tl	-10758
▁âl	-10759
▁çb	-10760
▁şb	-10761
▁"10	-10762
▁121	-10763
▁123	-10764
▁137	-10765
▁156	-10766
▁199	-10767
▁205	-10768
▁21,	-10769
▁214	-10770
▁30,	-10771
▁47.	-10772
▁470	-10773
▁6-8	-10774
▁64.	-10775
▁75.	-10776
▁AMS	-10777
▁AfD	-10778
▁Ayı	-10779
▁BMD	-10780
▁BTÖ	-10781
▁DAM	-10782
▁Fly	-10783
▁Liv	-10784
▁RFA	-10785
▁TEP	-10786
▁YIN	-10787
▁ais	-10788
▁bub	-10789
▁cca	-10790
▁eck	-10791
▁eil	-10792
▁fok	-10793
▁izn	-10794
▁kos	-10795
▁kto	-10796
▁led	-10797
▁liv	-10798
▁lüz	-10799
▁mri	-10800
▁pid	-10801
▁piş	-10802
▁sle	-10803
▁uaz	-10804
▁wen	-10805
▁zda	-10806
▁zne	-10807
▁zra	-10808
▁Ölü	-10809
▁öze	-10810
▁ülf	-10811
▁üşe	-10812
▁AĞLA	-10813
▁Bosi	-10814
▁High	-10815
▁KONO	-10816
▁Kend	-10817
▁Kona	-10818
▁Lima	-10819
▁MÜSA	-10820
▁Rota	-10821
▁SMAN	-10822
▁Sama	-10823
▁Suna	-10824
▁Veda	-10825
▁ahpe	-10826
▁arad	-10827
▁arga	-10828
▁arut	-10829
▁avza	-10830
▁caiz	-10831
▁edge	-10832
▁emet	-10833
▁esil	-10834
▁etre	-10835
▁eyfi	-10836
▁flaj	-10837
▁iPod	-10838
▁init	-10839
▁irec	-10840
▁irte	-10841
▁keni	-10842
▁koda	-10843
▁lanc	-10844
▁lase	-10845
▁mman	-10846
▁netm	-10847
▁otte	-10848
▁paca	-10849
▁pato	-10850
▁pper	-10851
▁reat	-10852
▁reog	-10853
▁rkun	-10854
▁role	-10855
▁rund	-10856
▁seli	-10857
▁ture	-10858
▁unes	-10859
▁zanı	-10860
▁znik	-10861
▁ÖLDÜ	-10862
▁ÖYLE	-10863
▁ÜZEN	-10864
▁üzza	-10865
▁İZLE	-10866
▁İŞTE	-10867
▁şoka	-10868
▁Bucak	-10869
▁Gezer	-10870
▁Girit	-10871
▁RLİĞİ	-10872
▁TOPLA	-10873
▁Venüs	-10874
▁aatle	-10875
▁abile	-10876
▁alara	-10877
▁amble	-10878
▁ansen	-10879
▁arrie	-10880
▁aston	-10881
▁diyan	-10882
▁edret	-10883
▁eling	-10884
▁entil	-10885
▁esgut	-10886
▁esmer	-10887
▁etruk	-10888
▁folik	-10889
▁hoven	-10890
▁ihsan	-10891
▁isnat	-10892
▁kanla	-10893
▁kâbus	-10894
▁likon	-10895
▁mukay	-10896
▁olmen	-10897
▁psala	-10898
▁rafta	-10899
▁redit	-10900
▁rmato	-10901
▁strük	-10902
▁tması	-10903
▁ugeot	-10904
▁varis	-10905
▁yekün	-10906
▁yyubi	-10907
..	-10908
DD	-10909
RÜ	-10910
ph	-10911
we	-10912
wi	-10913
zı	-10914
İş	-10915
ERA	-10916
MAZ	-10917
aşi	-10918
fen	-10919
ibe	-10920
yap	-10921
▁"8	-10922
▁(7	-10923
▁4"	-10924
▁AI	-10925
▁HB	-10926
▁NP	-10927
▁Pİ	-10928
▁UY	-10929
▁mg	-10930
▁oa	-10931
▁oi	-10932
▁ox	-10933
▁xf	-10934
▁zz	-10935
▁ÖV	-10936
▁ĞU	-10937
▁0,2	-10938
▁1,8	-10939
▁109	-10940
▁119	-10941
▁131	-10942
▁143	-10943
▁195	-10944
▁2.7	-10945
▁370	-10946
▁420	-10947
▁425	-10948
▁560	-10949
▁69.	-10950
▁72.	-10951
▁85.	-10952
▁86.	-10953
▁ABC	-10954
▁AFA	-10955
▁BBP	-10956
▁Bac	-10957
▁DAK	-10958
▁DAX	-10959
▁DSÖ	-10960
▁Fon	-10961
▁GHz	-10962
▁GPS	-10963
▁KTE	-10964
▁Kod	-10965
▁Laf	-10966
▁Naz	-10967
▁Nef	-10968
▁Pop	-10969
▁REN	-10970
▁Rah	-10971
▁SİN	-10972
▁TAT	-10973
▁TBB	-10974
▁Taf	-10975
▁Vas	-10976
▁YHT	-10977
▁Zap	-10978
▁atü	-10979
▁ean	-10980
▁eid	-10981
▁ezz	-10982
▁hia	-10983
▁hâl	-10984
▁ips	-10985
▁itr	-10986
▁izy	-10987
▁keç	-10988
▁kya	-10989
▁kıv	-10990
▁nke	-10991
▁orn	-10992
▁sco	-10993
▁unn	-10994
▁urr	-10995
▁Çam	-10996
▁şem	-10997
▁şiz	-10998
▁AKAR	-10999
▁AĞRI	-11000
▁Bylo	-11001
▁Dala	-11002
▁EVLE	-11003
▁EVRE	-11004
▁FTSE	-11005
▁Hiro	-11006
▁Lula	-11007
▁NGİN	-11008
▁ONAT	-11009
▁RDIÇ	-11010
▁Sayı	-11011
▁Sean	-11012
▁ZERİ	-11013
▁adan	-11014
▁ahur	-11015
▁ahır	-11016
▁ajla	-11017
▁akul	-11018
▁amal	-11019
▁anks	-11020
▁apri	-11021
▁awai	-11022
▁aydi	-11023
▁ayip	-11024
▁azdı	-11025
▁aşka	-11026
▁bast	-11027
▁bire	-11028
▁cemi	-11029
▁ecai	-11030
▁edes	-11031
▁ediz	-11032
▁ekti	-11033
▁elaş	-11034
▁elic	-11035
▁enri	-11036
▁eriy	-11037
▁eviy	-11038
▁hard	-11039
▁hell	-11040
▁hila	-11041
▁icho	-11042
▁idal	-11043
▁ikah	-11044
▁imda	-11045
▁isin	-11046
▁kadı	-11047
▁ledo	-11048
▁lett	-11049
▁lçok	-11050
▁makt	-11051
▁mniy	-11052
▁ndık	-11053
▁orse	-11054
▁orsu	-11055
▁ount	-11056
▁rgia	-11057
▁rtej	-11058
▁teme	-11059
▁tila	-11060
▁trik	-11061
▁urbo	-11062
▁yfer	-11063
▁ÇIKA	-11064
▁üdah	-11065
▁İKSV	-11066
▁şekl	-11067
▁şeyh	-11068
▁şort	-11069
▁AMSUN	-11070
▁ARADE	-11071
▁Neşet	-11072
▁Pedro	-11073
▁RKADA	-11074
▁TOFAŞ	-11075
▁arabe	-11076
▁elikg	-11077
▁essen	-11078
▁ezker	-11079
▁ezzet	-11080
▁giler	-11081
▁higan	-11082
▁ibolu	-11083
▁ienal	-11084
▁kavak	-11085
▁kerim	-11086
▁lavab	-11087
▁macun	-11088
▁meşal	-11089
▁nodar	-11090
▁tiraj	-11091
▁udret	-11092
▁urtul	-11093
▁vasat	-11094
▁zarif	-11095
▁ÜRGEV	-11096
▁ükhet	-11097
▁ırçın	-11098
-5	-11099
bb	-11100
ÖH	-11101
ğu	-11102
LEN	-11103
cap	-11104
ero	-11105
hat	-11106
hav	-11107
ico	-11108
izz	-11109
kap	-11110
nad	-11111
ont	-11112
sto	-11113
ulo	-11114
vip	-11115
▁05	-11116
▁7)	-11117
▁BP	-11118
▁DM	-11119
▁KY	-11120
▁Mh	-11121
▁NL	-11122
▁YK	-11123
▁Zİ	-11124
▁yv	-11125
▁ÖK	-11126
STAN	-11127
▁122	-11128
▁168	-11129
▁178	-11130
▁245	-11131
▁261	-11132
▁275	-11133
▁3.2	-11134
▁310	-11135
▁316	-11136
▁390	-11137
▁42.	-11138
▁44.	-11139
▁5,5	-11140
▁54.	-11141
▁58.	-11142
▁6-0	-11143
▁ALO	-11144
▁ARK	-11145
▁Ahi	-11146
▁Bal	-11147
▁Bül	-11148
▁CES	-11149
▁CMK	-11150
▁Caz	-11151
▁Dri	-11152
▁Ela	-11153
▁Fıs	-11154
▁Jak	-11155
▁Kle	-11156
▁KÜR	-11157
▁LEN	-11158
▁Lar	-11159
▁Lav	-11160
▁MTV	-11161
▁Mac	-11162
▁NET	-11163
▁NME	-11164
▁NSA	-11165
▁Nat	-11166
▁OAH	-11167
▁POS	-11168
▁SPA	-11169
▁TEN	-11170
▁URT	-11171
▁Win	-11172
▁YNI	-11173
▁ats	-11174
▁atv	-11175
▁cia	-11176
▁dda	-11177
▁dul	-11178
▁een	-11179
▁ego	-11180
▁eit	-11181
▁erp	-11182
▁fro	-11183
▁fın	-11184
▁het	-11185
▁ipp	-11186
▁kşa	-11187
▁lfa	-11188
▁meh	-11189
▁nmo	-11190
▁omi	-11191
▁rsi	-11192
▁usi	-11193
▁yus	-11194
▁DHMİ	-11195
▁Dana	-11196
▁EÇTİ	-11197
▁FETO	-11198
▁GELE	-11199
▁GİBİ	-11200
▁Jess	-11201
▁LMAZ	-11202
▁NLIK	-11203
▁OĞRU	-11204
▁Reel	-11205
▁Sade	-11206
▁Sina	-11207
▁Zaim	-11208
▁Zara	-11209
▁adio	-11210
▁agan	-11211
▁akne	-11212
▁alip	-11213
▁atum	-11214
▁aşin	-11215
▁bütö	-11216
▁cien	-11217
▁cılı	-11218
▁deal	-11219
▁ebat	-11220
▁edia	-11221
▁elaf	-11222
▁enny	-11223
▁enus	-11224
▁erah	-11225
▁erec	-11226
▁evki	-11227
▁ewis	-11228
▁eşek	-11229
▁isal	-11230
▁ivaç	-11231
▁kıta	-11232
▁lmay	-11233
▁ltra	-11234
▁lümü	-11235
▁mayo	-11236
▁ndex	-11237
▁ness	-11238
▁onus	-11239
▁opla	-11240
▁oron	-11241
▁orpo	-11242
▁otti	-11243
▁pole	-11244
▁ramp	-11245
▁repo	-11246
▁rlik	-11247
▁takl	-11248
▁tima	-11249
▁tlay	-11250
▁yuan	-11251
▁zind	-11252
▁ölük	-11253
▁örek	-11254
▁örük	-11255
▁ülfi	-11256
▁ülit	-11257
▁üzgâ	-11258
▁ınla	-11259
▁şlet	-11260
▁Buruk	-11261
▁Kaman	-11262
▁Mezun	-11263
▁YEDEK	-11264
▁adaki	-11265
▁ahlâk	-11266
▁aklav	-11267
▁aksam	-11268
▁aktır	-11269
▁alime	-11270
▁arner	-11271
▁arref	-11272
▁asvip	-11273
▁atlay	-11274
▁aybed	-11275
▁centa	-11276
▁edebi	-11277
▁edere	-11278
▁elale	-11279
▁elisa	-11280
▁endin	-11281
▁eşale	-11282
▁htiya	-11283
▁iasse	-11284
▁iegel	-11285
▁impik	-11286
▁işimi	-11287
▁kisve	-11288
▁laska	-11289
▁llard	-11290
▁makas	-11291
▁metot	-11292
▁nduğu	-11293
▁nipro	-11294
▁onuçl	-11295
▁onuşm	-11296
▁orrea	-11297
▁pider	-11298
▁sıral	-11299
▁teyak	-11300
▁timur	-11301
▁tmeye	-11302
▁tüber	-11303
▁ulian	-11304
▁umach	-11305
▁yekûn	-11306
▁çleri	-11307
▁şeyle	-11308
▁şizof	-11309
21	-11310
GO	-11311
YP	-11312
ao	-11313
zb	-11314
ĞU	-11315
▁¦	-11316
DİA	-11317
HAN	-11318
vaç	-11319
yev	-11320
ÖRÜ	-11321
şit	-11322
▁BC	-11323
▁CC	-11324
▁CÜ	-11325
▁GO	-11326
▁TZ	-11327
▁UÇ	-11328
▁Wü	-11329
▁iT	-11330
▁kW	-11331
▁üv	-11332
MMUZ	-11333
▁0-1	-11334
▁1,2	-11335
▁127	-11336
▁153	-11337
▁154	-11338
▁157	-11339
▁164	-11340
▁177	-11341
▁181	-11342
▁223	-11343
▁246	-11344
▁3.3	-11345
▁4.2	-11346
▁410	-11347
▁530	-11348
▁62.	-11349
▁620	-11350
▁68.	-11351
▁?),	-11352
▁Ber	-11353
▁CAC	-11354
▁COM	-11355
▁DAR	-11356
▁DVD	-11357
▁Fur	-11358
▁GDO	-11359
▁MEZ	-11360
▁NOT	-11361
▁NİZ	-11362
▁PEN	-11363
▁POL	-11364
▁Ple	-11365
▁SEN	-11366
▁TAY	-11367
▁TNT	-11368
▁URA	-11369
▁Wiz	-11370
▁YSK	-11371
▁YUN	-11372
▁Yağ	-11373
▁YİZ	-11374
▁age	-11375
▁amı	-11376
▁bud	-11377
▁eal	-11378
▁eis	-11379
▁emm	-11380
▁esk	-11381
▁hez	-11382
▁igo	-11383
▁neş	-11384
▁nsa	-11385
▁och	-11386
▁out	-11387
▁pig	-11388
▁rfa	-11389
▁süs	-11390
▁tüt	-11391
▁yeğ	-11392
▁zın	-11393
▁Çab	-11394
▁ÖTÜ	-11395
▁ÜNE	-11396
▁AFAD	-11397
▁ALIK	-11398
▁AMAN	-11399
▁AYSE	-11400
▁AZIR	-11401
▁Clas	-11402
▁DDİA	-11403
▁Güve	-11404
▁Hama	-11405
▁LMAN	-11406
▁SKER	-11407
▁Soçi	-11408
▁YABA	-11409
▁adah	-11410
▁adra	-11411
▁ahal	-11412
▁ahin	-11413
▁aiti	-11414
▁akki	-11415
▁akpo	-11416
▁akte	-11417
▁ange	-11418
▁cade	-11419
▁davi	-11420
▁deni	-11421
▁elat	-11422
▁eles	-11423
▁eley	-11424
▁enna	-11425
▁erif	-11426
▁evad	-11427
▁eval	-11428
▁evri	-11429
▁eyon	-11430
▁ikol	-11431
▁iksi	-11432
▁ikta	-11433
▁isak	-11434
▁isil	-11435
▁itrA	-11436
▁kain	-11437
▁kang	-11438
▁kvar	-11439
▁lark	-11440
▁lind	-11441
▁manu	-11442
▁miny	-11443
▁nefs	-11444
▁oday	-11445
▁oluk	-11446
▁ours	-11447
▁perv	-11448
▁pure	-11449
▁raig	-11450
▁rata	-11451
▁ssen	-11452
▁stek	-11453
▁thle	-11454
▁ubli	-11455
▁uoan	-11456
▁vida	-11457
▁wood	-11458
▁yoga	-11459
▁ÜLEN	-11460
▁âlen	-11461
▁ürec	-11462
▁üsun	-11463
▁İSKİ	-11464
▁ınam	-11465
▁Şeff	-11466
▁şeyd	-11467
▁şure	-11468
▁ANİSA	-11469
▁CEĞİZ	-11470
▁EMMUZ	-11471
▁Gazoz	-11472
▁Mavil	-11473
▁Rumen	-11474
▁Sezar	-11475
▁TEPKİ	-11476
▁Vegas	-11477
▁aflet	-11478
▁aktul	-11479
▁atbik	-11480
▁cağız	-11481
▁ccabi	-11482
▁eBron	-11483
▁ecdad	-11484
▁emile	-11485
▁enjam	-11486
▁erhum	-11487
▁ikane	-11488
▁kamil	-11489
▁kıble	-11490
▁latif	-11491
▁lekse	-11492
▁lemey	-11493
▁müşah	-11494
▁nafil	-11495
▁ntast	-11496
▁orpil	-11497
▁pıhtı	-11498
▁rahmi	-11499
▁ravel	-11500
▁renin	-11501
▁rinin	-11502
▁tesin	-11503
▁ulaşı	-11504
▁veşat	-11505
▁yekun	-11506
50	-11507
EK	-11508
FC	-11509
Su	-11510
ZI	-11511
ju	-11512
ky	-11513
ry	-11514
xe	-11515
ÇA	-11516
▁̆	-11517
NAK	-11518
ate	-11519
ert	-11520
fel	-11521
fir	-11522
hag	-11523
inn	-11524
jko	-11525
mil	-11526
nek	-11527
red	-11528
çka	-11529
İNA	-11530
İNE	-11531
▁03	-11532
▁1/	-11533
▁EA	-11534
▁EJ	-11535
▁FO	-11536
▁GÜ	-11537
▁HT	-11538
▁He	-11539
▁LS	-11540
▁NÜ	-11541
▁Rü	-11542
▁Ul	-11543
▁fs	-11544
▁rş	-11545
▁ux	-11546
▁vâ	-11547
▁ÇA	-11548
▁öh	-11549
▁İD	-11550
LIĞI	-11551
▁"28	-11552
▁1,7	-11553
▁10-	-11554
▁134	-11555
▁144	-11556
▁146	-11557
▁148	-11558
▁151	-11559
▁159	-11560
▁183	-11561
▁196	-11562
▁2.4	-11563
▁212	-11564
▁256	-11565
▁3,2	-11566
▁3.7	-11567
▁430	-11568
▁46.	-11569
▁67.	-11570
▁690	-11571
▁780	-11572
▁88.	-11573
▁9.3	-11574
▁ALS	-11575
▁Arı	-11576
▁Ayn	-11577
▁Die	-11578
▁Dua	-11579
▁ERZ	-11580
▁EŞİ	-11581
▁HEP	-11582
▁KEZ	-11583
▁Koş	-11584
▁LIM	-11585
▁Lam	-11586
▁MHz	-11587
▁Mel	-11588
▁Mol	-11589
▁MİR	-11590
▁NCE	-11591
▁NTİ	-11592
▁NYA	-11593
▁Pep	-11594
▁Rod	-11595
▁SDÜ	-11596
▁Sir	-11597
▁TEH	-11598
▁Tef	-11599
▁UFO	-11600
▁USA	-11601
▁Vay	-11602
▁Wal	-11603
▁YRI	-11604
▁cok	-11605
▁das	-11606
▁eag	-11607
▁ein	-11608
▁eul	-11609
▁fem	-11610
▁hud	-11611
▁ihr	-11612
▁ipe	-11613
▁kac	-11614
▁kiş	-11615
▁lge	-11616
▁llo	-11617
▁mya	-11618
▁neu	-11619
▁nka	-11620
▁ory	-11621
▁pey	-11622
▁rog	-11623
▁rop	-11624
▁sri	-11625
▁ude	-11626
▁uts	-11627
▁uyl	-11628
▁Çıl	-11629
▁çam	-11630
▁özg	-11631
▁ünk	-11632
▁İSO	-11633
▁İçi	-11634
▁BELE	-11635
▁Cadı	-11636
▁Cafe	-11637
▁Dile	-11638
▁ELEF	-11639
▁KAPA	-11640
▁KESK	-11641
▁Kula	-11642
▁Kült	-11643
▁LANI	-11644
▁Mada	-11645
▁Meha	-11646
▁NSAN	-11647
▁OLAY	-11648
▁PEGI	-11649
▁RANS	-11650
▁STİH	-11651
▁Saka	-11652
▁TANI	-11653
▁TSYD	-11654
▁TZOB	-11655
▁UĞLA	-11656
▁VURU	-11657
▁YARI	-11658
▁YASA	-11659
▁Yöne	-11660
▁abas	-11661
▁ahid	-11662
▁akis	-11663
▁aliz	-11664
▁alke	-11665
▁aptı	-11666
▁ardy	-11667
▁arşi	-11668
▁assi	-11669
▁atih	-11670
▁aval	-11671
▁avil	-11672
▁avun	-11673
▁ayra	-11674
▁baki	-11675
▁beek	-11676
▁burn	-11677
▁cher	-11678
▁ciat	-11679
▁eaua	-11680
▁ebei	-11681
▁elec	-11682
▁emph	-11683
▁enns	-11684
▁eray	-11685
▁fiks	-11686
▁flas	-11687
▁halt	-11688
▁iban	-11689
▁idde	-11690
▁inüs	-11691
▁irle	-11692
▁isto	-11693
▁kort	-11694
▁like	-11695
▁limi	-11696
▁mper	-11697
▁nick	-11698
▁nics	-11699
▁owie	-11700
▁pron	-11701
▁pıht	-11702
▁rabi	-11703
▁rego	-11704
▁rial	-11705
▁rmik	-11706
▁sbih	-11707
▁sion	-11708
▁tent	-11709
▁tyle	-11710
▁ucat	-11711
▁uciz	-11712
▁udio	-11713
▁umma	-11714
▁usko	-11715
▁voke	-11716
▁ymen	-11717
▁yran	-11718
▁ÖNDE	-11719
▁ülru	-11720
▁ılaş	-11721
▁ŞART	-11722
▁ŞLAR	-11723
▁DİTİB	-11724
▁EGBİS	-11725
▁Hafız	-11726
▁Keneş	-11727
▁Paral	-11728
▁RESMİ	-11729
▁Ruses	-11730
▁alyan	-11731
▁arant	-11732
▁arden	-11733
▁arenk	-11734
▁arran	-11735
▁aster	-11736
▁awaii	-11737
▁ayfur	-11738
▁bekli	-11739
▁cirit	-11740
▁digma	-11741
▁dolay	-11742
▁duman	-11743
▁eleko	-11744
▁elena	-11745
▁eljko	-11746
▁ellem	-11747
▁enner	-11748
▁ettir	-11749
▁eyrut	-11750
▁ibraz	-11751
▁ivibu	-11752
▁izami	-11753
▁iznin	-11754
▁izole	-11755
▁kefen	-11756
▁ldırı	-11757
▁leksa	-11758
▁ltınd	-11759
▁lüton	-11760
▁multi	-11761
▁netme	-11762
▁okado	-11763
▁rasın	-11764
▁ravat	-11765
▁roner	-11766
▁rulma	-11767
▁sedan	-11768
▁stane	-11769
▁teraz	-11770
▁terzi	-11771
▁turbo	-11772
▁uddus	-11773
▁uedes	-11774
▁vosti	-11775
▁ÜRSAB	-11776
▁çehre	-11777
▁çıtır	-11778
▁ümbül	-11779
▁İLGİÇ	-11780
▁ılmay	-11781
▁Şefik	-11782
1,	-11783
HO	-11784
OC	-11785
TP	-11786
ei	-11787
ue	-11788
ug	-11789
âb	-11790
öm	-11791
ıh	-11792
DDE	-11793
DÜL	-11794
HME	-11795
SAV	-11796
TEM	-11797
bbı	-11798
cus	-11799
gen	-11800
ich	-11801
ipz	-11802
küs	-11803
rig	-11804
uli	-11805
zoz	-11806
çya	-11807
▁%3	-11808
▁04	-11809
▁CP	-11810
▁CU	-11811
▁FF	-11812
▁FK	-11813
▁GP	-11814
▁NC	-11815
idro	-11816
ukar	-11817
▁(4)	-11818
▁0.5	-11819
▁1.9	-11820
▁133	-11821
▁139	-11822
▁147	-11823
▁2,4	-11824
▁2.2	-11825
▁228	-11826
▁23,	-11827
▁237	-11828
▁265	-11829
▁3.1	-11830
▁380	-11831
▁440	-11832
▁49.	-11833
▁57.	-11834
▁657	-11835
▁Ağa	-11836
▁CAS	-11837
▁DIM	-11838
▁DKY	-11839
▁EBA	-11840
▁EMO	-11841
▁IRT	-11842
▁MCI	-11843
▁MDA	-11844
▁MUZ	-11845
▁Nay	-11846
▁OCA	-11847
▁OSD	-11848
▁Qua	-11849
▁Sao	-11850
▁Sky	-11851
▁TAM	-11852
▁TER	-11853
▁TES	-11854
▁TLİ	-11855
▁Tal	-11856
▁VAN	-11857
▁Ved	-11858
▁Web	-11859
▁aos	-11860
▁asm	-11861
▁aul	-11862
▁cci	-11863
▁eeh	-11864
▁eet	-11865
▁ekâ	-11866
▁erf	-11867
▁gon	-11868
▁gua	-11869
▁haç	-11870
▁hıs	-11871
▁ibu	-11872
▁lag	-11873
▁lia	-11874
▁lot	-11875
▁lır	-11876
▁mdi	-11877
▁rec	-11878
▁ruc	-11879
▁sep	-11880
▁sum	-11881
▁use	-11882
▁zka	-11883
▁çle	-11884
▁üke	-11885
▁ünt	-11886
▁ĞRA	-11887
▁AMPİ	-11888
▁ARGI	-11889
▁ATKI	-11890
▁AZLA	-11891
▁Alma	-11892
▁DİBS	-11893
▁ETİN	-11894
▁Fury	-11895
▁GETİ	-11896
▁Gere	-11897
▁GÖRE	-11898
▁Jale	-11899
▁Jazz	-11900
▁Josh	-11901
▁KAPI	-11902
▁Kane	-11903
▁Line	-11904
▁Luci	-11905
▁Maka	-11906
▁Meno	-11907
▁Moga	-11908
▁Mola	-11909
▁RKEN	-11910
▁RTIK	-11911
▁Rain	-11912
▁Reag	-11913
▁Reyn	-11914
▁TCDD	-11915
▁Trab	-11916
▁ZLİK	-11917
▁adik	-11918
▁afir	-11919
▁akas	-11920
▁alac	-11921
▁anna	-11922
▁arie	-11923
▁arit	-11924
▁auna	-11925
▁bası	-11926
▁bele	-11927
▁bule	-11928
▁ctor	-11929
▁dter	-11930
▁düğü	-11931
▁eath	-11932
▁egas	-11933
▁eipz	-11934
▁ekes	-11935
▁ekik	-11936
▁ekke	-11937
▁erot	-11938
▁ersa	-11939
▁evro	-11940
▁fsun	-11941
▁hram	-11942
▁ical	-11943
▁igel	-11944
▁igue	-11945
▁ihni	-11946
▁ilbe	-11947
▁ilti	-11948
▁inil	-11949
▁iyye	-11950
▁jean	-11951
▁joko	-11952
▁keme	-11953
▁kibi	-11954
▁laad	-11955
▁laus	-11956
▁lene	-11957
▁lves	-11958
▁naif	-11959
▁nini	-11960
▁noks	-11961
▁ntag	-11962
▁olds	-11963
▁oupe	-11964
▁redd	-11965
▁rehi	-11966
▁ries	-11967
▁ront	-11968
▁sack	-11969
▁tanl	-11970
▁urya	-11971
▁ybet	-11972
▁zası	-11973
▁ÜÇÜK	-11974
▁ülin	-11975
▁İRVE	-11976
▁ıvır	-11977
▁ANLIU	-11978
▁Basel	-11979
▁Drive	-11980
▁Hidro	-11981
▁IRNAK	-11982
▁Katal	-11983
▁Kayap	-11984
▁MEHME	-11985
▁Vezir	-11986
▁YILDA	-11987
▁amala	-11988
▁anora	-11989
▁arife	-11990
▁arkti	-11991
▁asper	-11992
▁atrah	-11993
▁auric	-11994
▁beinn	-11995
▁enhag	-11996
▁enjit	-11997
▁enver	-11998
▁eyfet	-11999
▁eşhir	-12000
▁hasan	-12001
▁ildan	-12002
▁ilece	-12003
▁iskem	-12004
▁iyadü	-12005
▁laffu	-12006
▁lapto	-12007
▁lessa	-12008
▁livya	-12009
▁mamul	-12010
▁metne	-12011
▁monti	-12012
▁neuve	-12013
▁niyaz	-12014
▁ostes	-12015
▁poroz	-12016
▁ralan	-12017
▁reşit	-12018
▁urant	-12019
▁worth	-12020
▁yenle	-12021
▁ynana	-12022
▁ÇIKLA	-12023
▁ÜRCAN	-12024
▁üngür	-12025
▁ıhhat	-12026
▁şafak	-12027
▁şaibe	-12028
▁şeria	-12029
GU	-12030
KS	-12031
Nİ	-12032
TK	-12033
jo	-12034
pü	-12035
ço	-12036
▁q	-12037
▁¥	-12038
KLİ	-12039
TAN	-12040
VAS	-12041
ZAR	-12042
fağ	-12043
haz	-12044
ido	-12045
raş	-12046
rus	-12047
ugh	-12048
uri	-12049
▁6)	-12050
▁Fu	-12051
▁Gm	-12052
▁JA	-12053
▁Qa	-12054
vand	-12055
▁"18	-12056
▁(5)	-12057
▁1,6	-12058
▁161	-12059
▁189	-12060
▁192	-12061
▁2,2	-12062
▁2,6	-12063
▁2.3	-12064
▁216	-12065
▁299	-12066
▁345	-12067
▁355	-12068
▁4,2	-12069
▁404	-12070
▁520	-12071
▁61.	-12072
▁640	-12073
▁79.	-12074
▁860	-12075
▁87.	-12076
▁950	-12077
▁ADA	-12078
▁EGE	-12079
▁ERT	-12080
▁Gem	-12081
▁Hız	-12082
▁Kök	-12083
▁LUR	-12084
▁MEI	-12085
▁Nuh	-12086
▁ODA	-12087
▁ONE	-12088
▁SAL	-12089
▁Tre	-12090
▁Vad	-12091
▁Zav	-12092
▁Zen	-12093
▁aer	-12094
▁alü	-12095
▁açl	-12096
▁civ	-12097
▁ddi	-12098
▁deo	-12099
▁gue	-12100
▁icr	-12101
▁inî	-12102
▁irr	-12103
▁jik	-12104
▁leg	-12105
▁los	-12106
▁mba	-12107
▁osh	-12108
▁röt	-12109
▁shi	-12110
▁sup	-12111
▁ulm	-12112
▁yes	-12113
▁yyü	-12114
▁Çad	-12115
▁Çağ	-12116
▁ÖZE	-12117
▁ûlü	-12118
▁ğüş	-12119
▁ışa	-12120
▁ŞAN	-12121
▁Şik	-12122
▁ALEP	-12123
▁ATTI	-12124
▁Bila	-12125
▁Busi	-12126
▁DENİ	-12127
▁Deve	-12128
▁EDES	-12129
▁ERÇE	-12130
▁ESAP	-12131
▁LEVE	-12132
▁Lige	-12133
▁NLAR	-12134
▁ORKU	-12135
▁POAŞ	-12136
▁POLİ	-12137
▁Penn	-12138
▁SADE	-12139
▁SIRA	-12140
▁SYON	-12141
▁Süha	-12142
▁URDU	-12143
▁abor	-12144
▁akro	-12145
▁ambi	-12146
▁anye	-12147
▁apse	-12148
▁araz	-12149
▁asus	-12150
▁ater	-12151
▁atsa	-12152
▁aydu	-12153
▁ayva	-12154
▁bant	-12155
▁dişu	-12156
▁eger	-12157
▁ekiç	-12158
▁ekol	-12159
▁elet	-12160
▁emra	-12161
▁enos	-12162
▁eres	-12163
▁ersi	-12164
▁hine	-12165
▁ikor	-12166
▁imid	-12167
▁imiş	-12168
▁inas	-12169
▁inis	-12170
▁inni	-12171
▁inta	-12172
▁irpi	-12173
▁irza	-12174
▁izme	-12175
▁küvi	-12176
▁mari	-12177
▁nyas	-12178
▁nzer	-12179
▁once	-12180
▁onga	-12181
▁onte	-12182
▁orad	-12183
▁osta	-12184
▁oumb	-12185
▁ravi	-12186
▁ravo	-12187
▁reib	-12188
▁rekt	-12189
▁rizi	-12190
▁rtpo	-12191
▁rülm	-12192
▁star	-12193
▁tson	-12194
▁ttir	-12195
▁utsi	-12196
▁varo	-12197
▁ysun	-12198
▁zede	-12199
▁ÖSYS	-12200
▁Örem	-12201
▁âlim	-12202
▁ünle	-12203
▁İMUR	-12204
▁İNCE	-12205
▁İVAS	-12206
▁ızda	-12207
▁Şefi	-12208
▁Delhi	-12209
▁Demba	-12210
▁EĞİŞİ	-12211
▁Vapur	-12212
▁adren	-12213
▁alibi	-12214
▁aptal	-12215
▁ardır	-12216
▁arper	-12217
▁assac	-12218
▁aşmay	-12219
▁aşvur	-12220
▁bahir	-12221
▁bilir	-12222
▁boçya	-12223
▁cCart	-12224
▁cıvıl	-12225
▁elerd	-12226
▁elodi	-12227
▁ender	-12228
▁ennis	-12229
▁erlec	-12230
▁ermek	-12231
▁ernan	-12232
▁erver	-12233
▁etkim	-12234
▁evkif	-12235
▁eyyaz	-12236
▁ezban	-12237
▁feshi	-12238
▁fetih	-12239
▁ikola	-12240
▁ilveg	-12241
▁irvan	-12242
▁isküs	-12243
▁kafil	-12244
▁kahya	-12245
▁kürük	-12246
▁lahat	-12247
▁leriy	-12248
▁lisan	-12249
▁medya	-12250
▁meone	-12251
▁mukoz	-12252
▁mührü	-12253
▁namlu	-12254
▁nefer	-12255
▁oyrat	-12256
▁oğrul	-12257
▁riman	-12258
▁steme	-12259
▁tükür	-12260
▁umbai	-12261
▁urafe	-12262
▁urhal	-12263
▁veric	-12264
▁yenik	-12265
▁yıldı	-12266
▁zurna	-12267
▁ÖNDER	-12268
▁ümbür	-12269
▁üreşi	-12270
▁ütler	-12271
▁Şafağ	-12272
RD	-12273
ea	-12274
ff	-12275
ny	-12276
İZ	-12277
DYA	-12278
GİN	-12279
SAN	-12280
SER	-12281
aza	-12282
bur	-12283
cea	-12284
jan	-12285
kez	-12286
lek	-12287
old	-12288
ray	-12289
vit	-12290
yaf	-12291
ĞER	-12292
▁"9	-12293
▁'2	-12294
▁(%	-12295
▁9-	-12296
▁CV	-12297
▁EH	-12298
▁FX	-12299
▁Gr	-12300
▁JP	-12301
▁Ji	-12302
▁My	-12303
▁RD	-12304
▁TD	-12305
▁WD	-12306
▁WI	-12307
▁hö	-12308
▁mk	-12309
▁rw	-12310
▁zd	-12311
▁İP	-12312
▁İv	-12313
▁1,1	-12314
▁124	-12315
▁171	-12316
▁194	-12317
▁2.9	-12318
▁238	-12319
▁274	-12320
▁285	-12321
▁322	-12322
▁325	-12323
▁328	-12324
▁48.	-12325
▁480	-12326
▁59.	-12327
▁6.0	-12328
▁63.	-12329
▁77.	-12330
▁84.	-12331
▁ADI	-12332
▁ART	-12333
▁ASK	-12334
▁ATİ	-12335
▁Açı	-12336
▁BOJ	-12337
▁DYP	-12338
▁EAT	-12339
▁ECE	-12340
▁ENE	-12341
▁HAK	-12342
▁HEM	-12343
▁HTS	-12344
▁Hoş	-12345
▁Jav	-12346
▁Joy	-12347
▁LKP	-12348
▁LOJ	-12349
▁Nou	-12350
▁OGS	-12351
▁ONA	-12352
▁Pul	-12353
▁Pur	-12354
▁SSD	-12355
▁SİT	-12356
▁TAŞ	-12357
▁TMM	-12358
▁TOR	-12359
▁TRO	-12360
▁TTK	-12361
▁UNU	-12362
▁YDİ	-12363
▁ZAL	-12364
▁ahl	-12365
▁aip	-12366
▁als	-12367
▁aus	-12368
▁avı	-12369
▁azg	-12370
▁bik	-12371
▁cım	-12372
▁düs	-12373
▁ead	-12374
▁fiz	-12375
▁gog	-12376
▁ics	-12377
▁ihi	-12378
▁keh	-12379
▁klu	-12380
▁küz	-12381
▁nod	-12382
▁ogo	-12383
▁qua	-12384
▁tug	-12385
▁uin	-12386
▁ure	-12387
▁zia	-12388
▁ÖLÜ	-12389
▁öld	-12390
▁üla	-12391
▁ürç	-12392
▁İKK	-12393
▁İÇİ	-12394
▁AKEM	-12395
▁ARKI	-12396
▁Beki	-12397
▁DİLE	-12398
▁EDYA	-12399
▁EMSA	-12400
▁ERLİ	-12401
▁EÇEN	-12402
▁Faty	-12403
▁Free	-12404
▁Hone	-12405
▁KUPA	-12406
▁Kare	-12407
▁Kuma	-12408
▁MIZI	-12409
▁Meka	-12410
▁ONUT	-12411
▁ORMA	-12412
▁Ross	-12413
▁Sude	-12414
▁TAŞI	-12415
▁URAT	-12416
▁Ulvi	-12417
▁VATA	-12418
▁VERE	-12419
▁adri	-12420
▁ahta	-12421
▁aktı	-12422
▁alji	-12423
▁anem	-12424
▁arim	-12425
▁asil	-12426
▁atri	-12427
▁atur	-12428
▁avut	-12429
▁badi	-12430
▁clal	-12431
▁cope	-12432
▁czan	-12433
▁dine	-12434
▁dıra	-12435
▁eatt	-12436
▁efor	-12437
▁eitu	-12438
▁elab	-12439
▁elak	-12440
▁eliz	-12441
▁elka	-12442
▁elâm	-12443
▁enix	-12444
▁enki	-12445
▁esih	-12446
▁evah	-12447
▁eyze	-12448
▁eçir	-12449
▁fels	-12450
▁food	-12451
▁hand	-12452
▁hion	-12453
▁hise	-12454
▁icap	-12455
▁inez	-12456
▁itsa	-12457
▁jile	-12458
▁kapi	-12459
▁kyay	-12460
▁last	-12461
▁lity	-12462
▁lobe	-12463
▁lpha	-12464
▁mmün	-12465
▁nsül	-12466
▁nüne	-12467
▁pati	-12468
▁pila	-12469
▁plik	-12470
▁ranz	-12471
▁rciş	-12472
▁rkot	-12473
▁rmad	-12474
▁rnet	-12475
▁rose	-12476
▁sbit	-12477
▁shua	-12478
▁spho	-12479
▁spih	-12480
▁ssel	-12481
▁sıad	-12482
▁ting	-12483
▁urme	-12484
▁uçka	-12485
▁yans	-12486
▁zart	-12487
▁ÖRNE	-12488
▁ühtü	-12489
▁üleç	-12490
▁ürüt	-12491
▁İRLİ	-12492
▁İTTİ	-12493
▁İŞBİ	-12494
▁şevk	-12495
▁AKALA	-12496
▁ARKLI	-12497
▁ARSAV	-12498
▁ARİHİ	-12499
▁Haman	-12500
▁Human	-12501
▁KARDE	-12502
▁Kafam	-12503
▁MAHMU	-12504
▁Nugge	-12505
▁PARTİ	-12506
▁Vahşi	-12507
▁adaka	-12508
▁adife	-12509
▁ahsun	-12510
▁akyaj	-12511
▁apılı	-12512
▁ardal	-12513
▁arine	-12514
▁armon	-12515
▁arşov	-12516
▁avdar	-12517
▁ayman	-12518
▁diril	-12519
▁elsan	-12520
▁eltik	-12521
▁erzak	-12522
▁eyyan	-12523
▁eşter	-12524
▁hamad	-12525
▁immer	-12526
▁immün	-12527
▁inger	-12528
▁ircea	-12529
▁islam	-12530
▁leton	-12531
▁lokaj	-12532
▁luten	-12533
▁makbu	-12534
▁mimik	-12535
▁motto	-12536
▁nişas	-12537
▁ntina	-12538
▁olklo	-12539
▁pikap	-12540
▁rafat	-12541
▁raket	-12542
▁rehav	-12543
▁rozet	-12544
▁rtain	-12545
▁sağlı	-12546
▁sinan	-12547
▁tabil	-12548
▁tabip	-12549
▁ungan	-12550
▁vinde	-12551
▁ürnek	-12552
▁İYARE	-12553
▁ımını	-12554
▁şehve	-12555
▁şerif	-12556
*)	-12557
3,	-12558
Bo	-12559
BÜ	-12560
CS	-12561
DS	-12562
EM	-12563
HS	-12564
Jİ	-12565
LK	-12566
PT	-12567
YÜ	-12568
pt	-12569
ws	-12570
xa	-12571
BAN	-12572
GAN	-12573
GÜN	-12574
KİB	-12575
LAM	-12576
LÜK	-12577
MİŞ	-12578
PHE	-12579
ako	-12580
bie	-12581
eke	-12582
its	-12583
nas	-12584
tra	-12585
way	-12586
şiş	-12587
▁08	-12588
▁2:	-12589
▁Ai	-12590
▁AÜ	-12591
▁DU	-12592
▁DÜ	-12593
▁FS	-12594
▁NF	-12595
▁Nâ	-12596
▁cK	-12597
▁dr	-12598
▁dz	-12599
▁gs	-12600
▁mâ	-12601
▁ÖP	-12602
▁İA	-12603
▁'15	-12604
▁(*)	-12605
▁(20	-12606
▁1,9	-12607
▁169	-12608
▁2,7	-12609
▁2.0	-12610
▁202	-12611
▁208	-12612
▁222	-12613
▁229	-12614
▁257	-12615
▁26,	-12616
▁27,	-12617
▁287	-12618
▁295	-12619
▁314	-12620
▁317	-12621
▁376	-12622
▁381	-12623
▁417	-12624
▁455	-12625
▁460	-12626
▁5-0	-12627
▁5.3	-12628
▁5.4	-12629
▁5.7	-12630
▁534	-12631
▁540	-12632
▁55.	-12633
▁73.	-12634
▁8,5	-12635
▁8-9	-12636
▁AMG	-12637
▁AZE	-12638
▁App	-12639
▁BÜK	-12640
▁CAT	-12641
▁DDK	-12642
▁Dow	-12643
▁DİK	-12644
▁ENT	-12645
▁ETA	-12646
▁EYD	-12647
▁Eko	-12648
▁Eti	-12649
▁Fua	-12650
▁Gri	-12651
▁GİR	-12652
▁HAN	-12653
▁Hür	-12654
▁Ian	-12655
▁Jay	-12656
▁Jem	-12657
▁KAL	-12658
▁Kov	-12659
▁KİM	-12660
▁LAH	-12661
▁LAK	-12662
▁LMI	-12663
▁LUS	-12664
▁Leb	-12665
▁MUT	-12666
▁MVP	-12667
▁Min	-12668
▁NDU	-12669
▁NLİ	-12670
▁Nem	-12671
▁OBİ	-12672
▁OMV	-12673
▁ORA	-12674
▁Old	-12675
▁PER	-12676
▁PRP	-12677
▁Pix	-12678
▁RGE	-12679
▁SEK	-12680
▁TGB	-12681
▁Tet	-12682
▁YER	-12683
▁YOL	-12684
▁Yük	-12685
▁ago	-12686
▁app	-12687
▁cCa	-12688
▁eas	-12689
▁eus	-12690
▁evî	-12691
▁ezb	-12692
▁fıt	-12693
▁gli	-12694
▁gos	-12695
▁hie	-12696
▁ife	-12697
▁ign	-12698
▁inp	-12699
▁kek	-12700
▁kpe	-12701
▁lio	-12702
▁müy	-12703
▁pin	-12704
▁tto	-12705
▁uis	-12706
▁usz	-12707
▁uyt	-12708
▁uçl	-12709
▁zom	-12710
▁ÖRT	-12711
▁örg	-12712
▁üje	-12713
▁ürs	-12714
▁üzn	-12715
▁İFT	-12716
▁İMA	-12717
▁İSİ	-12718
▁AHİP	-12719
▁AKIN	-12720
▁AKKI	-12721
▁AMAM	-12722
▁ANAK	-12723
▁ANDI	-12724
▁ANKA	-12725
▁AYIN	-12726
▁AYNA	-12727
▁BAŞA	-12728
▁DAVA	-12729
▁Dieb	-12730
▁Doka	-12731
▁ELİR	-12732
▁Hopf	-12733
▁Jeep	-12734
▁KILI	-12735
▁Kava	-12736
▁Kone	-12737
▁LTIN	-12738
▁NLER	-12739
▁OCAR	-12740
▁Paro	-12741
▁Pico	-12742
▁RTAK	-12743
▁Rasa	-12744
▁TASS	-12745
▁TESK	-12746
▁TÜZE	-12747
▁UTBO	-12748
▁YGUL	-12749
▁YILI	-12750
▁Zaza	-12751
▁acir	-12752
▁ahih	-12753
▁allo	-12754
▁anas	-12755
▁anni	-12756
▁arnı	-12757
▁bala	-12758
▁bone	-12759
▁cezb	-12760
▁cout	-12761
▁deva	-12762
▁dist	-12763
▁ebel	-12764
▁eddi	-12765
▁edev	-12766
▁ezin	-12767
▁gang	-12768
▁hail	-12769
▁heva	-12770
▁hrar	-12771
▁icad	-12772
▁ides	-12773
▁idye	-12774
▁iham	-12775
▁inec	-12776
▁inos	-12777
▁iris	-12778
▁izne	-12779
▁işot	-12780
▁kede	-12781
▁less	-12782
▁lian	-12783
▁lles	-12784
▁lmış	-12785
▁loud	-12786
▁mera	-12787
▁moza	-12788
▁nadi	-12789
▁nolo	-12790
▁olig	-12791
▁ootb	-12792
▁orel	-12793
▁orne	-12794
▁over	-12795
▁pala	-12796
▁paro	-12797
▁rate	-12798
▁rbaa	-12799
▁resa	-12800
▁riez	-12801
▁rint	-12802
▁rtur	-12803
▁slav	-12804
▁tajy	-12805
▁teci	-12806
▁titü	-12807
▁tüyo	-12808
▁ulay	-12809
▁ulke	-12810
▁urch	-12811
▁utul	-12812
▁vana	-12813
▁zini	-12814
▁ÖVÜR	-12815
▁ÖZLE	-12816
▁ÜZEL	-12817
▁ÜŞTÜ	-12818
▁ürüç	-12819
▁ütük	-12820
▁üzar	-12821
▁İLAH	-12822
▁İZME	-12823
▁ıhhi	-12824
▁ırat	-12825
▁ıvay	-12826
▁ıyır	-12827
▁şato	-12828
▁şerh	-12829
▁şima	-12830
▁şina	-12831
▁BEKLİ	-12832
▁Doçka	-12833
▁Hammo	-12834
▁Pisti	-12835
▁Pizza	-12836
▁Queen	-12837
▁YAPMA	-12838
▁ahşer	-12839
▁alais	-12840
▁anife	-12841
▁ardon	-12842
▁argar	-12843
▁arite	-12844
▁arton	-12845
▁asyan	-12846
▁ağşiş	-12847
▁divaç	-12848
▁elano	-12849
▁encap	-12850
▁erder	-12851
▁ervin	-12852
▁ewart	-12853
▁eyzaj	-12854
▁fazil	-12855
▁fibro	-12856
▁güder	-12857
▁hamam	-12858
▁iguel	-12859
▁ihlâl	-12860
▁irdel	-12861
▁irror	-12862
▁iylan	-12863
▁izade	-12864
▁izola	-12865
▁kefil	-12866
▁kvand	-12867
▁lisin	-12868
▁lland	-12869
▁lonso	-12870
▁minik	-12871
▁mmüno	-12872
▁nabız	-12873
▁nleme	-12874
▁ornog	-12875
▁ourne	-12876
▁peres	-12877
▁quare	-12878
▁rasan	-12879
▁rogba	-12880
▁sefal	-12881
▁selim	-12882
▁siyej	-12883
▁teini	-12884
▁termo	-12885
▁tibar	-12886
▁timac	-12887
▁tökez	-12888
▁ublin	-12889
▁uinne	-12890
▁unter	-12891
▁vaskü	-12892
▁ynaya	-12893
▁zabıt	-12894
▁zirai	-12895
▁zümre	-12896
▁ülale	-12897
▁ünger	-12898
▁Şapka	-12899
▁ŞÜPHE	-12900
Ev	-12901
LM	-12902
MG	-12903
ML	-12904
WA	-12905
hh	-12906
ix	-12907
nu	-12908
oy	-12909
ÖY	-12910
ñá	-12911
ĞÜ	-12912
İç	-12913
ŞB	-12914
şu	-12915
ər	-12916
▁а	-12917
ARE	-12918
BİR	-12919
DRO	-12920
LAL	-12921
MEN	-12922
MSE	-12923
YAP	-12924
aro	-12925
buz	-12926
chi	-12927
deh	-12928
elo	-12929
ena	-12930
fet	-12931
foz	-12932
gos	-12933
mur	-12934
olu	-12935
pal	-12936
son	-12937
via	-12938
İAŞ	-12939
▁"0	-12940
▁%1	-12941
▁02	-12942
▁8)	-12943
▁CR	-12944
▁HC	-12945
▁IV	-12946
▁LP	-12947
▁ML	-12948
▁OŞ	-12949
▁PI	-12950
▁PU	-12951
▁PV	-12952
▁bl	-12953
▁cD	-12954
▁dg	-12955
▁dâ	-12956
▁gg	-12957
▁iM	-12958
▁ju	-12959
▁nâ	-12960
▁rh	-12961
▁tâ	-12962
▁xc	-12963
▁ñá	-12964
erez	-12965
oker	-12966
▁"14	-12967
▁"25	-12968
▁(6)	-12969
▁...	-12970
▁0,3	-12971
▁0,4	-12972
▁0,5	-12973
▁0,7	-12974
▁162	-12975
▁167	-12976
▁174	-12977
▁191	-12978
▁193	-12979
▁198	-12980
▁201	-12981
▁206	-12982
▁209	-12983
▁217	-12984
▁219	-12985
▁226	-12986
▁235	-12987
▁24,	-12988
▁252	-12989
▁255	-12990
▁272	-12991
▁283	-12992
▁29,	-12993
▁292	-12994
▁3.8	-12995
▁339	-12996
▁35,	-12997
▁358	-12998
▁375	-12999
▁4.4	-13000
▁432	-13001
▁5,4	-13002
▁50,	-13003
▁535	-13004
▁615	-13005
▁8.5	-13006
▁80.	-13007
▁ARM	-13008
▁Alo	-13009
▁Ağı	-13010
▁BİZ	-13011
▁CAM	-13012
▁Cas	-13013
▁DIŞ	-13014
▁DSİ	-13015
▁Düz	-13016
▁ETİ	-13017
▁FOX	-13018
▁FİK	-13019
▁GİB	-13020
▁HES	-13021
▁IDS	-13022
▁Lum	-13023
▁MPİ	-13024
▁Mab	-13025
▁Meb	-13026
▁Mik	-13027
▁MİK	-13028
▁NAN	-13029
▁NAP	-13030
▁NLA	-13031
▁NNE	-13032
▁NOK	-13033
▁NUR	-13034
▁NUT	-13035
▁PAT	-13036
▁PPK	-13037
▁RDA	-13038
▁RUM	-13039
▁Rep	-13040
▁SIZ	-13041
▁SKİ	-13042
▁Suk	-13043
▁TSE	-13044
▁TTB	-13045
▁Toz	-13046
▁Tro	-13047
▁TÇİ	-13048
▁VCI	-13049
▁Vik	-13050
▁WHO	-13051
▁Wit	-13052
▁YPS	-13053
▁Yat	-13054
▁ZIĞ	-13055
▁abb	-13056
▁agn	-13057
▁asb	-13058
▁ath	-13059
▁caa	-13060
▁cot	-13061
▁cüm	-13062
▁eek	-13063
▁eib	-13064
▁fax	-13065
▁gam	-13066
▁gaç	-13067
▁gem	-13068
▁ito	-13069
▁lor	-13070
▁loz	-13071
▁lti	-13072
▁lüy	-13073
▁mef	-13074
▁mha	-13075
▁mos	-13076
▁naç	-13077
▁neh	-13078
▁nno	-13079
▁nog	-13080
▁roz	-13081
▁taa	-13082
▁tno	-13083
▁umm	-13084
▁ush	-13085
▁zad	-13086
▁Öne	-13087
▁ÜKÜ	-13088
▁ÜNÜ	-13089
▁İLO	-13090
▁İNİ	-13091
▁İzi	-13092
▁ŞAK	-13093
▁Şok	-13094
▁Şov	-13095
▁ABUL	-13096
▁AKİP	-13097
▁ALMA	-13098
▁ANLA	-13099
▁BUDO	-13100
▁Buck	-13101
▁DOĞU	-13102
▁Dada	-13103
▁Deep	-13104
▁Dela	-13105
▁Dion	-13106
▁Dola	-13107
▁DİRE	-13108
▁EKLE	-13109
▁EKNO	-13110
▁ERBE	-13111
▁EİAŞ	-13112
▁Fiil	-13113
▁Hugh	-13114
▁IRMI	-13115
▁IRTI	-13116
▁Lite	-13117
▁NAYA	-13118
▁Nuka	-13119
▁OCAE	-13120
▁OLCU	-13121
▁OPER	-13122
▁ORUN	-13123
▁OTOM	-13124
▁PİYA	-13125
▁RMAN	-13126
▁Rumi	-13127
▁RİZE	-13128
▁Saul	-13129
▁Taah	-13130
▁UTLU	-13131
▁Visa	-13132
▁acit	-13133
▁adal	-13134
▁ahre	-13135
▁akit	-13136
▁akri	-13137
▁alah	-13138
▁alef	-13139
▁aley	-13140
▁alik	-13141
▁alüa	-13142
▁amhi	-13143
▁aneo	-13144
▁arey	-13145
▁atya	-13146
▁axim	-13147
▁aşra	-13148
▁aşın	-13149
▁bruk	-13150
▁cCol	-13151
▁devi	-13152
▁ekâr	-13153
▁emot	-13154
▁erie	-13155
▁erwo	-13156
▁esar	-13157
▁euer	-13158
▁evaz	-13159
▁evmi	-13160
▁exas	-13161
▁fred	-13162
▁haşi	-13163
▁ilia	-13164
▁ioli	-13165
▁irem	-13166
▁irpo	-13167
▁itil	-13168
▁itte	-13169
▁kard	-13170
▁kide	-13171
▁koca	-13172
▁külf	-13173
▁leck	-13174
▁lega	-13175
▁lies	-13176
▁luen	-13177
▁mist	-13178
▁mren	-13179
▁ncil	-13180
▁nike	-13181
▁nion	-13182
▁nlığ	-13183
▁nnis	-13184
▁omon	-13185
▁orna	-13186
▁patı	-13187
▁pirz	-13188
▁pris	-13189
▁ptal	-13190
▁raso	-13191
▁rked	-13192
▁rque	-13193
▁rses	-13194
▁rına	-13195
▁sele	-13196
▁sity	-13197
▁sium	-13198
▁süer	-13199
▁sığı	-13200
▁tadt	-13201
▁taşe	-13202
▁tero	-13203
▁tire	-13204
▁tory	-13205
▁tuta	-13206
▁uall	-13207
▁uant	-13208
▁ulum	-13209
▁upla	-13210
▁vlak	-13211
▁yeli	-13212
▁zika	-13213
▁znad	-13214
▁İYAT	-13215
▁İZİN	-13216
▁İĞER	-13217
▁ıras	-13218
▁ırıt	-13219
▁şamı	-13220
▁ştık	-13221
▁ASTAN	-13222
▁Dimit	-13223
▁ECLİS	-13224
▁Fitne	-13225
▁Hayme	-13226
▁Jeans	-13227
▁Kamal	-13228
▁Keşif	-13229
▁Kumaş	-13230
▁KİMSE	-13231
▁Lasme	-13232
▁MAHKE	-13233
▁ONGUL	-13234
▁SİSTE	-13235
▁Veren	-13236
▁Yükse	-13237
▁aksan	-13238
▁altal	-13239
▁ampul	-13240
▁antel	-13241
▁arras	-13242
▁askül	-13243
▁attal	-13244
▁bahar	-13245
▁burad	-13246
▁caret	-13247
▁egzoz	-13248
▁emare	-13249
▁emato	-13250
▁emlik	-13251
▁enden	-13252
▁enhua	-13253
▁ental	-13254
▁entem	-13255
▁ergis	-13256
▁erkan	-13257
▁erkin	-13258
▁ermes	-13259
▁ervas	-13260
▁henko	-13261
▁iedad	-13262
▁ikler	-13263
▁ikâne	-13264
▁ilber	-13265
▁lavan	-13266
▁lokum	-13267
▁methi	-13268
▁nakış	-13269
▁nasih	-13270
▁nifak	-13271
▁opher	-13272
▁rakla	-13273
▁reldz	-13274
▁renzo	-13275
▁rnold	-13276
▁rında	-13277
▁teran	-13278
▁ttila	-13279
▁tüler	-13280
▁tıbbı	-13281
▁ublic	-13282
▁unhar	-13283
▁urent	-13284
▁urray	-13285
▁usiki	-13286
▁usunu	-13287
▁vakfa	-13288
▁vakur	-13289
▁vebal	-13290
▁volat	-13291
▁yaver	-13292
▁zombi	-13293
▁ÜYÜME	-13294
▁üpraş	-13295
▁İKKAT	-13296
▁ırpal	-13297
CO	-13298
GD	-13299
NB	-13300
kk	-13301
pl	-13302
tr	-13303
uo	-13304
îm	-13305
üe	-13306
ĞE	-13307
▁á	-13308
▁€	-13309
DAN	-13310
Pod	-13311
TAH	-13312
VAN	-13313
bab	-13314
bli	-13315
das	-13316
dil	-13317
fra	-13318
hem	-13319
key	-13320
mai	-13321
ond	-13322
ons	-13323
oto	-13324
qui	-13325
rüf	-13326
sos	-13327
tic	-13328
ula	-13329
uzi	-13330
▁BÖ	-13331
▁FP	-13332
▁JI	-13333
▁MÖ	-13334
▁Pl	-13335
▁WW	-13336
▁cs	-13337
▁gy	-13338
▁lf	-13339
▁lş	-13340
▁pd	-13341
▁öş	-13342
▁üğ	-13343
▁İr	-13344
▁•1	-13345
▁"11	-13346
▁"17	-13347
▁"20	-13348
▁"30	-13349
▁(22	-13350
▁0,1	-13351
▁0,6	-13352
▁1-3	-13353
▁2-4	-13354
▁207	-13355
▁213	-13356
▁232	-13357
▁244	-13358
▁282	-13359
▁288	-13360
▁3+1	-13361
▁3,6	-13362
▁3,7	-13363
▁306	-13364
▁33,	-13365
▁335	-13366
▁36,	-13367
▁4-3	-13368
▁4.6	-13369
▁442	-13370
▁5-1	-13371
▁5-7	-13372
▁580	-13373
▁668	-13374
▁695	-13375
▁81.	-13376
▁ABA	-13377
▁AKİ	-13378
▁ARİ	-13379
▁Ahu	-13380
▁BAE	-13381
▁BAR	-13382
▁Bos	-13383
▁BŞB	-13384
▁DIR	-13385
▁EFE	-13386
▁ERA	-13387
▁Eli	-13388
▁FER	-13389
▁Far	-13390
▁GDP	-13391
▁Gaf	-13392
▁Gib	-13393
▁Hor	-13394
▁IRI	-13395
▁KOR	-13396
▁KUL	-13397
▁LEL	-13398
▁NIZ	-13399
▁NMI	-13400
▁Nov	-13401
▁PMI	-13402
▁Rhe	-13403
▁SSM	-13404
▁Sha	-13405
▁Shi	-13406
▁TEV	-13407
▁TGC	-13408
▁TLE	-13409
▁TMO	-13410
▁Uwe	-13411
▁War	-13412
▁Wen	-13413
▁YDA	-13414
▁YDK	-13415
▁ZLİ	-13416
▁Zim	-13417
▁act	-13418
▁aut	-13419
▁ayt	-13420
▁cim	-13421
▁dex	-13422
▁dor	-13423
▁ebo	-13424
▁efo	-13425
▁esp	-13426
▁eyş	-13427
▁eşk	-13428
▁fri	-13429
▁iec	-13430
▁iht	-13431
▁jim	-13432
▁mok	-13433
▁mân	-13434
▁nni	-13435
▁nsi	-13436
▁off	-13437
▁onc	-13438
▁orb	-13439
▁pel	-13440
▁pha	-13441
▁pur	-13442
▁pür	-13443
▁ree	-13444
▁rut	-13445
▁sha	-13446
▁ska	-13447
▁tie	-13448
▁tog	-13449
▁tıf	-13450
▁uck	-13451
▁ugs	-13452
▁ume	-13453
▁vaj	-13454
▁vez	-13455
▁vie	-13456
▁wal	-13457
▁wig	-13458
▁yri	-13459
▁zev	-13460
▁ziy	-13461
▁ÖRE	-13462
▁ÜRÜ	-13463
▁âle	-13464
▁önc	-13465
▁ümk	-13466
▁üve	-13467
▁ğri	-13468
▁İFM	-13469
▁İRİ	-13470
▁İTA	-13471
▁İli	-13472
▁İŞİ	-13473
▁AHÇE	-13474
▁ALNI	-13475
▁ANNE	-13476
▁ARTI	-13477
▁AYBE	-13478
▁AYLA	-13479
▁EKLİ	-13480
▁ENAR	-13481
▁ENİM	-13482
▁ENİZ	-13483
▁ESTİ	-13484
▁ETRE	-13485
▁Emma	-13486
▁Fast	-13487
▁Gaye	-13488
▁Holo	-13489
▁ICAK	-13490
▁Jaco	-13491
▁Jane	-13492
▁Jant	-13493
▁Kabu	-13494
▁Keşf	-13495
▁Kola	-13496
▁KİRA	-13497
▁LSUN	-13498
▁Leag	-13499
▁LİMA	-13500
▁Niko	-13501
▁Nisa	-13502
▁OLLA	-13503
▁OLİS	-13504
▁OMEZ	-13505
▁PERİ	-13506
▁Pink	-13507
▁Pisa	-13508
▁Pren	-13509
▁RDEM	-13510
▁RUBU	-13511
▁Rang	-13512
▁Rene	-13513
▁Reyt	-13514
▁STEM	-13515
▁TARA	-13516
▁TTIP	-13517
▁Turn	-13518
▁URTA	-13519
▁Vida	-13520
▁Yard	-13521
▁abes	-13522
▁acBo	-13523
▁adim	-13524
▁afiz	-13525
▁afor	-13526
▁agel	-13527
▁aher	-13528
▁ahic	-13529
▁alaç	-13530
▁alto	-13531
▁amma	-13532
▁ance	-13533
▁ando	-13534
▁andv	-13535
▁andy	-13536
▁anit	-13537
▁anko	-13538
▁apid	-13539
▁asya	-13540
▁ataç	-13541
▁atim	-13542
▁avaz	-13543
▁ayit	-13544
▁azap	-13545
▁azoz	-13546
▁baao	-13547
▁bram	-13548
▁burç	-13549
▁coni	-13550
▁dunp	-13551
▁ecur	-13552
▁ehpa	-13553
▁elev	-13554
▁emim	-13555
▁enel	-13556
▁enga	-13557
▁eris	-13558
▁erly	-13559
▁eziğ	-13560
▁ezra	-13561
▁eğet	-13562
▁flar	-13563
▁haus	-13564
▁hlat	-13565
▁ibir	-13566
▁iety	-13567
▁iklo	-13568
▁ileğ	-13569
▁illy	-13570
▁ilos	-13571
▁ippe	-13572
▁irar	-13573
▁ires	-13574
▁iros	-13575
▁iruz	-13576
▁ivan	-13577
▁ivok	-13578
▁kali	-13579
▁kefe	-13580
▁kevi	-13581
▁kims	-13582
▁kuma	-13583
▁lace	-13584
▁laed	-13585
▁lale	-13586
▁lend	-13587
▁lopp	-13588
▁lyan	-13589
▁mbar	-13590
▁müza	-13591
▁ndia	-13592
▁ngwa	-13593
▁nkar	-13594
▁nsas	-13595
▁ntes	-13596
▁ogba	-13597
▁olde	-13598
▁onaj	-13599
▁onia	-13600
▁onin	-13601
▁orde	-13602
▁play	-13603
▁raff	-13604
▁rafl	-13605
▁rano	-13606
▁ravm	-13607
▁rdin	-13608
▁ream	-13609
▁reda	-13610
▁reff	-13611
▁rick	-13612
▁ronş	-13613
▁rter	-13614
▁sahi	-13615
▁sain	-13616
▁sakl	-13617
▁slak	-13618
▁ssan	-13619
▁takb	-13620
▁tape	-13621
▁tino	-13622
▁toke	-13623
▁trüf	-13624
▁ttik	-13625
▁uble	-13626
▁udor	-13627
▁uras	-13628
▁urne	-13629
▁urri	-13630
▁vale	-13631
▁vasi	-13632
▁weat	-13633
▁xplo	-13634
▁yare	-13635
▁yfel	-13636
▁yvah	-13637
▁ÖRDÜ	-13638
▁ÖZÜM	-13639
▁ÜÇLÜ	-13640
▁çini	-13641
▁üfle	-13642
▁ülük	-13643
▁ülüs	-13644
▁ümrü	-13645
▁ünüy	-13646
▁ürüm	-13647
▁İLLİ	-13648
▁İZLİ	-13649
▁ARDİN	-13650
▁ARTAL	-13651
▁AZARI	-13652
▁Buhar	-13653
▁Dizer	-13654
▁EBBİS	-13655
▁Keman	-13656
▁Lumia	-13657
▁Nezir	-13658
▁PAZAR	-13659
▁RANSA	-13660
▁Resea	-13661
▁Resep	-13662
▁Yugos	-13663
▁afize	-13664
▁alans	-13665
▁ality	-13666
▁altif	-13667
▁anyon	-13668
▁aptör	-13669
▁ariri	-13670
▁avşat	-13671
▁azino	-13672
▁aşimi	-13673
▁bekin	-13674
▁caada	-13675
▁ddafi	-13676
▁edmur	-13677
▁egemo	-13678
▁egâne	-13679
▁ektiğ	-13680
▁ekvat	-13681
▁elato	-13682
▁enkit	-13683
▁entur	-13684
▁erdin	-13685
▁errer	-13686
▁essül	-13687
▁etine	-13688
▁evazu	-13689
▁evşet	-13690
▁ezzül	-13691
▁eğimi	-13692
▁felci	-13693
▁ibuti	-13694
▁icile	-13695
▁idama	-13696
▁ident	-13697
▁ifest	-13698
▁ikame	-13699
▁ilerd	-13700
▁inova	-13701
▁irPod	-13702
▁ironi	-13703
▁iskan	-13704
▁kalfa	-13705
▁kefir	-13706
▁lahaz	-13707
▁larke	-13708
▁lebet	-13709
▁lekel	-13710
▁lgele	-13711
▁likoz	-13712
▁lüzum	-13713
▁makal	-13714
▁malik	-13715
▁metaf	-13716
▁münha	-13717
▁ntage	-13718
▁oraks	-13719
▁outin	-13720
▁pikal	-13721
▁poulo	-13722
▁resti	-13723
▁ridye	-13724
▁rlüğü	-13725
▁rmont	-13726
▁rough	-13727
▁rugge	-13728
▁senta	-13729
▁ström	-13730
▁sülük	-13731
▁tacir	-13732
▁tavaf	-13733
▁terih	-13734
▁titre	-13735
▁tiğim	-13736
▁törpü	-13737
▁uhari	-13738
▁uilla	-13739
▁ultig	-13740
▁useum	-13741
▁vejet	-13742
▁verbo	-13743
▁viral	-13744
▁yatın	-13745
▁zinda	-13746
▁çerez	-13747
▁ülfür	-13748
▁ğlığı	-13749
▁ırıld	-13750
▁ŞLARI	-13751
▁şerhi	-13752
-4	-13753
16	-13754
Az	-13755
BI	-13756
Fİ	-13757
KO	-13758
MO	-13759
NS	-13760
OV	-13761
SP	-13762
jk	-13763
oo	-13764
ow	-13765
yn	-13766
ÂL	-13767
ÇÜ	-13768
âf	-13769
ûl	-13770
ĞA	-13771
▁ə	-13772
GAR	-13773
GEM	-13774
LED	-13775
LUK	-13776
RAH	-13777
RAM	-13778
ape	-13779
apo	-13780
aşe	-13781
bas	-13782
far	-13783
hap	-13784
hşa	-13785
igl	-13786
kee	-13787
mes	-13788
otr	-13789
pan	-13790
phy	-13791
rif	-13792
war	-13793
ÇEV	-13794
üks	-13795
▁'3	-13796
▁2"	-13797
▁Bl	-13798
▁FU	-13799
▁HK	-13800
▁Km	-13801
▁MD	-13802
▁MF	-13803
▁NR	-13804
▁OF	-13805
▁SO	-13806
▁UC	-13807
▁UH	-13808
▁UU	-13809
▁YT	-13810
▁kh	-13811
▁zâ	-13812
▁Çö	-13813
▁çt	-13814
▁Şö	-13815
AHRE	-13816
litz	-13817
lâhu	-13818
▁"19	-13819
▁(%)	-13820
▁(16	-13821
▁(29	-13822
▁(8)	-13823
▁0.1	-13824
▁166	-13825
▁197	-13826
▁2.8	-13827
▁227	-13828
▁234	-13829
▁236	-13830
▁248	-13831
▁254	-13832
▁269	-13833
▁271	-13834
▁279	-13835
▁28,	-13836
▁3,4	-13837
▁3.9	-13838
▁305	-13839
▁309	-13840
▁313	-13841
▁326	-13842
▁327	-13843
▁336	-13844
▁337	-13845
▁342	-13846
▁351	-13847
▁4+1	-13848
▁4.0	-13849
▁4.7	-13850
▁40,	-13851
▁474	-13852
▁490	-13853
▁5,1	-13854
▁5,3	-13855
▁599	-13856
▁6),	-13857
▁672	-13858
▁680	-13859
▁76.	-13860
▁830	-13861
▁9.5	-13862
▁93.	-13863
▁ACI	-13864
▁Amy	-13865
▁BEN	-13866
▁BOL	-13867
▁Bob	-13868
▁CEV	-13869
▁Cak	-13870
▁DAĞ	-13871
▁DTK	-13872
▁EBE	-13873
▁EDA	-13874
▁EGM	-13875
▁EKT	-13876
▁FCA	-13877
▁Fer	-13878
▁GEN	-13879
▁HAL	-13880
▁HAS	-13881
▁IBE	-13882
▁ING	-13883
▁KTI	-13884
▁Kir	-13885
▁Koh	-13886
▁Lut	-13887
▁LİN	-13888
▁MIB	-13889
▁MIT	-13890
▁MWC	-13891
▁Mao	-13892
▁NPD	-13893
▁NTÜ	-13894
▁Nal	-13895
▁OMC	-13896
▁OSY	-13897
▁PAK	-13898
▁PRO	-13899
▁Pat	-13900
▁RIZ	-13901
▁RKE	-13902
▁Reb	-13903
▁Rif	-13904
▁RİM	-13905
▁SAD	-13906
▁SUN	-13907
▁Set	-13908
▁She	-13909
▁SİZ	-13910
▁TCG	-13911
▁TDK	-13912
▁TMA	-13913
▁TPE	-13914
▁UTU	-13915
▁Vat	-13916
▁Wul	-13917
▁YAR	-13918
▁Yed	-13919
▁adr	-13920
▁alâ	-13921
▁cat	-13922
▁cem	-13923
▁cta	-13924
▁eaş	-13925
▁ege	-13926
▁egi	-13927
▁eps	-13928
▁ext	-13929
▁fko	-13930
▁ges	-13931
▁icy	-13932
▁iem	-13933
▁imo	-13934
▁jda	-13935
▁kna	-13936
▁koğ	-13937
▁lep	-13938
▁ltı	-13939
▁lül	-13940
▁lıs	-13941
▁mAh	-13942
▁mti	-13943
▁nej	-13944
▁nya	-13945
▁ols	-13946
▁oly	-13947
▁oxx	-13948
▁poy	-13949
▁qui	-13950
▁rei	-13951
▁saz	-13952
▁tığ	-13953
▁uad	-13954
▁uca	-13955
▁uen	-13956
▁uft	-13957
▁ulf	-13958
▁urp	-13959
▁wad	-13960
▁wat	-13961
▁zrü	-13962
▁Çiğ	-13963
▁ÜST	-13964
▁çme	-13965
▁ükû	-13966
▁üli	-13967
▁İGA	-13968
▁İMC	-13969
▁İRA	-13970
▁İZİ	-13971
▁İni	-13972
▁İİT	-13973
▁ırr	-13974
▁ıtl	-13975
▁ŞTÜ	-13976
▁şap	-13977
▁şka	-13978
▁AHRA	-13979
▁ANAL	-13980
▁AREK	-13981
▁ARIN	-13982
▁ARUK	-13983
▁ASIM	-13984
▁Buda	-13985
▁Diki	-13986
▁ESAJ	-13987
▁EVAP	-13988
▁EĞER	-13989
▁Four	-13990
▁Guta	-13991
▁GİDE	-13992
▁Hope	-13993
▁Hopk	-13994
▁KAGİ	-13995
▁LADI	-13996
▁LMAK	-13997
▁LTUN	-13998
▁Lake	-13999
▁Mora	-14000
▁Moşe	-14001
▁MİZİ	-14002
▁Pari	-14003
▁Poor	-14004
▁RADA	-14005
▁SAHA	-14006
▁SEVİ	-14007
▁SLAN	-14008
▁SPAR	-14009
▁Soba	-14010
▁SÜRÜ	-14011
▁Wins	-14012
▁YÜRÜ	-14013
▁acio	-14014
▁adaş	-14015
▁afsa	-14016
▁agon	-14017
▁airo	-14018
▁akre	-14019
▁alca	-14020
▁alju	-14021
▁amul	-14022
▁anaz	-14023
▁aril	-14024
▁arro	-14025
▁asko	-14026
▁ates	-14027
▁atsı	-14028
▁avel	-14029
▁awks	-14030
▁azam	-14031
▁ağzı	-14032
▁bbie	-14033
▁bide	-14034
▁bola	-14035
▁cips	-14036
▁coin	-14037
▁diku	-14038
▁east	-14039
▁ebdo	-14040
▁elix	-14041
▁emed	-14042
▁emnu	-14043
▁enay	-14044
▁erda	-14045
▁erib	-14046
▁erti	-14047
▁erze	-14048
▁essa	-14049
▁etil	-14050
▁eyat	-14051
▁eyer	-14052
▁eyiğ	-14053
▁ezci	-14054
▁gida	-14055
▁guen	-14056
▁hawa	-14057
▁htag	-14058
▁icri	-14059
▁inzo	-14060
▁ipik	-14061
▁irik	-14062
▁ixos	-14063
▁kayı	-14064
▁kmel	-14065
▁kron	-14066
▁ktiv	-14067
▁kâti	-14068
▁kıla	-14069
▁leas	-14070
▁lmed	-14071
▁mane	-14072
▁meto	-14073
▁meyh	-14074
▁meşe	-14075
▁mily	-14076
▁miza	-14077
▁münf	-14078
▁nana	-14079
▁ncek	-14080
▁nlış	-14081
▁nsta	-14082
▁nyan	-14083
▁nzai	-14084
▁ocuk	-14085
▁odor	-14086
▁ogan	-14087
▁olly	-14088
▁onic	-14089
▁oria	-14090
▁orto	-14091
▁otal	-14092
▁ounc	-14093
▁oure	-14094
▁owns	-14095
▁pare	-14096
▁pedo	-14097
▁quel	-14098
▁raun	-14099
▁rcan	-14100
▁reig	-14101
▁reiv	-14102
▁rgil	-14103
▁rham	-14104
▁roka	-14105
▁rono	-14106
▁rçun	-14107
▁rücu	-14108
▁spir	-14109
▁ssio	-14110
▁tani	-14111
▁tari	-14112
▁tric	-14113
▁tuna	-14114
▁ucci	-14115
▁ugat	-14116
▁uido	-14117
▁upse	-14118
▁usto	-14119
▁utka	-14120
▁utxa	-14121
▁vakf	-14122
▁vazo	-14123
▁ynes	-14124
▁yton	-14125
▁ÇILI	-14126
▁ÖPRÜ	-14127
▁ÜNEY	-14128
▁ÜNEŞ	-14129
▁ÜYAP	-14130
▁ücra	-14131
▁ülek	-14132
▁İHTİ	-14133
▁İLÂL	-14134
▁İNGİ	-14135
▁İRDİ	-14136
▁APLAN	-14137
▁Bafra	-14138
▁Dilma	-14139
▁ERİNE	-14140
▁FAHRE	-14141
▁HIZLI	-14142
▁Jesus	-14143
▁KADRO	-14144
▁Karak	-14145
▁Keşir	-14146
▁Kubbe	-14147
▁MAHRU	-14148
▁MOLED	-14149
▁NEDEN	-14150
▁NOKTA	-14151
▁Nepal	-14152
▁OSTİM	-14153
▁Ramil	-14154
▁Rehin	-14155
▁TEHLİ	-14156
▁TMMOB	-14157
▁URTDI	-14158
▁VERGİ	-14159
▁aceze	-14160
▁adapt	-14161
▁adred	-14162
▁afram	-14163
▁aktan	-14164
▁aktif	-14165
▁alfet	-14166
▁apric	-14167
▁arnıç	-14168
▁arsak	-14169
▁artus	-14170
▁ateni	-14171
▁aymun	-14172
▁azgal	-14173
▁bezel	-14174
▁budak	-14175
▁bulak	-14176
▁derek	-14177
▁edeki	-14178
▁ekber	-14179
▁elevi	-14180
▁elkit	-14181
▁endal	-14182
▁ennet	-14183
▁erlus	-14184
▁ermik	-14185
▁erzan	-14186
▁ferru	-14187
▁fesat	-14188
▁fuhşa	-14189
▁fıtra	-14190
▁geyik	-14191
▁halle	-14192
▁hilas	-14193
▁idame	-14194
▁iftah	-14195
▁ildiğ	-14196
▁ivers	-14197
▁iyarb	-14198
▁iyort	-14199
▁jimna	-14200
▁kadeh	-14201
▁kemal	-14202
▁keşfi	-14203
▁kladı	-14204
▁lamay	-14205
▁ldorf	-14206
▁lifke	-14207
▁llâhu	-14208
▁lozet	-14209
▁luşan	-14210
▁marul	-14211
▁meleğ	-14212
▁meruo	-14213
▁midye	-14214
▁nderi	-14215
▁nehre	-14216
▁oliti	-14217
▁palaz	-14218
▁plika	-14219
▁raghi	-14220
▁rgani	-14221
▁ricam	-14222
▁rolün	-14223
▁samın	-14224
▁stere	-14225
▁temur	-14226
▁teyid	-14227
▁treep	-14228
▁trist	-14229
▁tının	-14230
▁uliet	-14231
▁ummer	-14232
▁zatın	-14233
▁ümbet	-14234
▁ürrem	-14235
▁İRİŞİ	-14236
▁şelal	-14237
2,	-14238
40	-14239
60	-14240
EV	-14241
GF	-14242
HI	-14243
Le	-14244
MP	-14245
PN	-14246
WE	-14247
aa	-14248
wk	-14249
ÇI	-14250
ŞE	-14251
▁\	-14252
▁	-14253
DAR	-14254
DRA	-14255
KEA	-14256
LGE	-14257
LİM	-14258
OCA	-14259
RUM	-14260
SAS	-14261
TAP	-14262
TÜN	-14263
VİL	-14264
YON	-14265
bib	-14266
bin	-14267
cir	-14268
dio	-14269
jar	-14270
mei	-14271
min	-14272
mon	-14273
noz	-14274
per	-14275
sen	-14276
sio	-14277
tun	-14278
ute	-14279
uth	-14280
vin	-14281
vle	-14282
zlo	-14283
▁",	-14284
▁%7	-14285
▁8"	-14286
▁Dö	-14287
▁IZ	-14288
▁Jr	-14289
▁KC	-14290
▁LD	-14291
▁NV	-14292
▁NY	-14293
▁OW	-14294
▁Oh	-14295
▁UA	-14296
▁WE	-14297
▁Wu	-14298
▁YB	-14299
▁aq	-14300
▁gâ	-14301
▁tm	-14302
▁vd	-14303
amin	-14304
bile	-14305
▁%50	-14306
▁(10	-14307
▁(18	-14308
▁173	-14309
▁186	-14310
▁2,1	-14311
▁2,3	-14312
▁2,9	-14313
▁203	-14314
▁204	-14315
▁249	-14316
▁268	-14317
▁286	-14318
▁289	-14319
▁291	-14320
▁294	-14321
▁3.6	-14322
▁308	-14323
▁31,	-14324
▁341	-14325
▁347	-14326
▁349	-14327
▁385	-14328
▁399	-14329
▁4.1	-14330
▁405	-14331
▁431	-14332
▁444	-14333
▁463	-14334
▁479	-14335
▁493	-14336
▁5.2	-14337
▁5.6	-14338
▁511	-14339
▁517	-14340
▁570	-14341
▁6,6	-14342
▁610	-14343
▁674	-14344
▁675	-14345
▁676	-14346
▁7,8	-14347
▁7.8	-14348
▁710	-14349
▁740	-14350
▁760	-14351
▁777	-14352
▁8,8	-14353
▁842	-14354
▁870	-14355
▁925	-14356
▁ALK	-14357
▁ANE	-14358
▁AÖL	-14359
▁BNP	-14360
▁CTP	-14361
▁Car	-14362
▁DAŞ	-14363
▁Dis	-14364
▁ESB	-14365
▁ETO	-14366
▁EUR	-14367
▁FUK	-14368
▁FİR	-14369
▁Guy	-14370
▁Güv	-14371
▁Isı	-14372
▁Jah	-14373
▁LCD	-14374
▁LCU	-14375
▁LIN	-14376
▁Lus	-14377
▁LİG	-14378
▁MAT	-14379
▁MSB	-14380
▁Moz	-14381
▁Muk	-14382
▁NAK	-14383
▁NGE	-14384
▁NKA	-14385
▁NLÜ	-14386
▁Nes	-14387
▁Nil	-14388
▁OKU	-14389
▁OTE	-14390
▁Ole	-14391
▁Ons	-14392
▁PAC	-14393
▁PET	-14394
▁PSA	-14395
▁QNB	-14396
▁RET	-14397
▁RUS	-14398
▁Ria	-14399
▁Rui	-14400
▁Run	-14401
▁SCB	-14402
▁SES	-14403
▁STÜ	-14404
▁Swa	-14405
▁TSO	-14406
▁UHA	-14407
▁UYU	-14408
▁Von	-14409
▁YEN	-14410
▁YOT	-14411
▁YİM	-14412
▁ZAN	-14413
▁ZUN	-14414
▁did	-14415
▁ega	-14416
▁eig	-14417
▁elk	-14418
▁erl	-14419
▁eyz	-14420
▁gus	-14421
▁güm	-14422
▁hon	-14423
▁ich	-14424
▁ilâ	-14425
▁imt	-14426
▁ity	-14427
▁kak	-14428
▁loe	-14429
▁maj	-14430
▁mıy	-14431
▁niC	-14432
▁niğ	-14433
▁oal	-14434
▁oco	-14435
▁oje	-14436
▁olc	-14437
▁orj	-14438
▁ots	-14439
▁oğl	-14440
▁pos	-14441
▁rio	-14442
▁rns	-14443
▁rto	-14444
▁rıt	-14445
▁sac	-14446
▁sai	-14447
▁tot	-14448
▁tüy	-14449
▁ugh	-14450
▁via	-14451
▁yab	-14452
▁çet	-14453
▁çöl	-14454
▁ĞIR	-14455
▁ĞUR	-14456
▁İAH	-14457
▁İNE	-14458
▁İZE	-14459
▁ışm	-14460
▁Şar	-14461
▁ŞİM	-14462
▁şat	-14463
▁ALKA	-14464
▁ALKI	-14465
▁ANAP	-14466
▁ANIK	-14467
▁ANSI	-14468
▁ASKI	-14469
▁AVÖK	-14470
▁AYAT	-14471
▁AYDA	-14472
▁AYGI	-14473
▁AĞIT	-14474
▁AİHS	-14475
▁Bach	-14476
▁Bamb	-14477
▁Bixi	-14478
▁Boye	-14479
▁Cole	-14480
▁DEME	-14481
▁Depp	-14482
▁DİLİ	-14483
▁EBRD	-14484
▁EMUR	-14485
▁EMİR	-14486
▁ENEL	-14487
▁ENGE	-14488
▁EREK	-14489
▁ERJİ	-14490
▁ERSİ	-14491
▁EÇİM	-14492
▁FARK	-14493
▁FAİZ	-14494
▁Gala	-14495
▁Gara	-14496
▁IKEA	-14497
▁Jaze	-14498
▁Jons	-14499
▁Just	-14500
▁Karo	-14501
▁Kosa	-14502
▁Kâbe	-14503
▁KİLO	-14504
▁LAYI	-14505
▁Laik	-14506
▁Lami	-14507
▁Last	-14508
▁LİST	-14509
▁MESA	-14510
▁NDÜL	-14511
▁Nere	-14512
▁ODEL	-14513
▁OĞUN	-14514
▁PAYI	-14515
▁Pana	-14516
▁Quad	-14517
▁RLİK	-14518
▁Roch	-14519
▁Röva	-14520
▁Takı	-14521
▁Talu	-14522
▁TÖRÜ	-14523
▁UGÜN	-14524
▁USAŞ	-14525
▁Vade	-14526
▁Velh	-14527
▁WADA	-14528
▁Walt	-14529
▁YONU	-14530
▁abra	-14531
▁adad	-14532
▁adze	-14533
▁afya	-14534
▁aggi	-14535
▁alam	-14536
▁alyo	-14537
▁amül	-14538
▁anez	-14539
▁ardd	-14540
▁armo	-14541
▁arya	-14542
▁arza	-14543
▁ashf	-14544
▁ason	-14545
▁asra	-14546
▁assu	-14547
▁atad	-14548
▁atoş	-14549
▁avyo	-14550
▁ayer	-14551
▁bell	-14552
▁bran	-14553
▁cino	-14554
▁cons	-14555
▁cıpa	-14556
▁ddie	-14557
▁disi	-14558
▁dorf	-14559
▁düşm	-14560
▁eart	-14561
▁eens	-14562
▁efle	-14563
▁egat	-14564
▁egen	-14565
▁eiva	-14566
▁ekya	-14567
▁elez	-14568
▁emiç	-14569
▁engo	-14570
▁enne	-14571
▁enâb	-14572
▁erri	-14573
▁erve	-14574
▁gaip	-14575
▁hier	-14576
▁hmad	-14577
▁hvan	-14578
▁ibal	-14579
▁ibil	-14580
▁ibre	-14581
▁igua	-14582
▁ilat	-14583
▁illü	-14584
▁ilwa	-14585
▁immü	-14586
▁ingh	-14587
▁inna	-14588
▁ipli	-14589
▁ipno	-14590
▁irat	-14591
▁isyo	-14592
▁itec	-14593
▁itre	-14594
▁itro	-14595
▁iuli	-14596
▁iyaz	-14597
▁izar	-14598
▁jorn	-14599
▁kayn	-14600
▁kila	-14601
▁kram	-14602
▁lana	-14603
▁lasg	-14604
▁lier	-14605
▁lton	-14606
▁maar	-14607
▁mber	-14608
▁meta	-14609
▁minu	-14610
▁mobb	-14611
▁mous	-14612
▁muma	-14613
▁mânâ	-14614
▁mürs	-14615
▁müsv	-14616
▁nbin	-14617
▁neid	-14618
▁news	-14619
▁nisa	-14620
▁nost	-14621
▁nowb	-14622
▁nsea	-14623
▁nüks	-14624
▁odri	-14625
▁oita	-14626
▁omur	-14627
▁orst	-14628
▁ourt	-14629
▁ques	-14630
▁ranj	-14631
▁razi	-14632
▁rets	-14633
▁rine	-14634
▁riot	-14635
▁rsay	-14636
▁sabı	-14637
▁steğ	-14638
▁suşi	-14639
▁tech	-14640
▁uigi	-14641
▁uisb	-14642
▁ukee	-14643
▁ulia	-14644
▁urci	-14645
▁uriz	-14646
▁uzuv	-14647
▁uşla	-14648
▁ware	-14649
▁yarı	-14650
▁yler	-14651
▁yuka	-14652
▁zber	-14653
▁zone	-14654
▁ÖNLE	-14655
▁ÖNTE	-14656
▁ÖRME	-14657
▁ÖZBO	-14658
▁ÖZDE	-14659
▁çebi	-14660
▁ömel	-14661
▁öreğ	-14662
▁özer	-14663
▁ülfü	-14664
▁üner	-14665
▁üznü	-14666
▁İRLE	-14667
▁Şanv	-14668
▁AYKUR	-14669
▁AÇTAN	-14670
▁Bucks	-14671
▁Diana	-14672
▁Diken	-14673
▁Dubro	-14674
▁EKNİK	-14675
▁ENGİN	-14676
▁ESLİM	-14677
▁Grizz	-14678
▁Jamai	-14679
▁Jambo	-14680
▁Jesse	-14681
▁ODRUM	-14682
▁OSYAL	-14683
▁PARÇA	-14684
▁Pixel	-14685
▁Quest	-14686
▁Quigl	-14687
▁Quito	-14688
▁Ramiz	-14689
▁TOPLU	-14690
▁VERME	-14691
▁Vakit	-14692
▁Vakti	-14693
▁adolu	-14694
▁adraj	-14695
▁agros	-14696
▁ahbap	-14697
▁ahrir	-14698
▁almum	-14699
▁alyaç	-14700
▁ambar	-14701
▁amber	-14702
▁ammer	-14703
▁ampir	-14704
▁angoz	-14705
▁anned	-14706
▁antal	-14707
▁ançer	-14708
▁arcus	-14709
▁arkaj	-14710
▁artup	-14711
▁ascal	-14712
▁aslan	-14713
▁astel	-14714
▁astır	-14715
▁aybet	-14716
▁azanf	-14717
▁azmin	-14718
▁aşaya	-14719
▁cevaz	-14720
▁ceğiz	-14721
▁dikim	-14722
▁edter	-14723
▁ehşet	-14724
▁ekfen	-14725
▁ekfir	-14726
▁eksan	-14727
▁elcan	-14728
▁elvik	-14729
▁emine	-14730
▁emini	-14731
▁ennon	-14732
▁erfin	-14733
▁ergus	-14734
▁ersem	-14735
▁ersen	-14736
▁esibe	-14737
▁estro	-14738
▁evval	-14739
▁eynes	-14740
▁eytüş	-14741
▁ezeri	-14742
▁felce	-14743
▁fkoşa	-14744
▁house	-14745
▁ianna	-14746
▁igros	-14747
▁ilfen	-14748
▁imdat	-14749
▁inike	-14750
▁ipnoz	-14751
▁irhem	-14752
▁kalem	-14753
▁kuran	-14754
▁kürek	-14755
▁lasya	-14756
▁lavya	-14757
▁lborn	-14758
▁leziz	-14759
▁lifli	-14760
▁lınma	-14761
▁mayal	-14762
▁mento	-14763
▁meşre	-14764
▁mizan	-14765
▁nadid	-14766
▁nezih	-14767
▁noton	-14768
▁ornoz	-14769
▁ounge	-14770
▁pamin	-14771
▁pişen	-14772
▁pudra	-14773
▁ralli	-14774
▁revan	-14775
▁revir	-14776
▁slara	-14777
▁stafa	-14778
▁stron	-14779
▁tures	-14780
▁ubitz	-14781
▁uhran	-14782
▁umala	-14783
▁umbul	-14784
▁umbus	-14785
▁urgul	-14786
▁vegan	-14787
▁yiver	-14788
▁ÜKÜME	-14789
▁çenko	-14790
▁öhret	-14791
▁übile	-14792
▁ümkün	-14793
▁ürsel	-14794
▁Şahik	-14795
▁Şahsi	-14796
▁Şerid	-14797
▁şebap	-14798
▁şiler	-14799
AF	-14800
Al	-14801
GC	-14802
GH	-14803
HB	-14804
In	-14805
RT	-14806
ee	-14807
eg	-14808
gg	-14809
jy	-14810
İV	-14811
İl	-14812
▁¬	-14813
RAK	-14814
SAD	-14815
SSE	-14816
SİZ	-14817
TAY	-14818
and	-14819
ano	-14820
bad	-14821
cih	-14822
dis	-14823
eng	-14824
gai	-14825
hie	-14826
ide	-14827
lez	-14828
luz	-14829
ney	-14830
ral	-14831
roe	-14832
saj	-14833
seb	-14834
und	-14835
une	-14836
ung	-14837
ura	-14838
wig	-14839
yah	-14840
zur	-14841
âlâ	-14842
▁$'	-14843
▁**	-14844
▁-2	-14845
▁-3	-14846
▁CB	-14847
▁Dz	-14848
▁Eu	-14849
▁FG	-14850
▁Hö	-14851
▁IS	-14852
▁JE	-14853
▁KH	-14854
▁Ky	-14855
▁NÖ	-14856
▁Ti	-14857
▁Us	-14858
▁XL	-14859
▁ZÜ	-14860
▁ae	-14861
▁dt	-14862
▁mt	-14863
▁mw	-14864
▁ât	-14865
▁İB	-14866
UTİN	-14867
akav	-14868
amie	-14869
azza	-14870
rink	-14871
▁"16	-14872
▁"24	-14873
▁(30	-14874
▁(7)	-14875
▁0,8	-14876
▁12-	-14877
▁13-	-14878
▁15-	-14879
▁172	-14880
▁218	-14881
▁221	-14882
▁243	-14883
▁247	-14884
▁251	-14885
▁253	-14886
▁259	-14887
▁263	-14888
▁264	-14889
▁273	-14890
▁293	-14891
▁298	-14892
▁3,3	-14893
▁3,9	-14894
▁302	-14895
▁311	-14896
▁315	-14897
▁318	-14898
▁32,	-14899
▁321	-14900
▁323	-14901
▁331	-14902
▁332	-14903
▁333	-14904
▁334	-14905
▁346	-14906
▁359	-14907
▁378	-14908
▁384	-14909
▁391	-14910
▁395	-14911
▁4,1	-14912
▁4,8	-14913
▁401	-14914
▁406	-14915
▁415	-14916
▁436	-14917
▁465	-14918
▁468	-14919
▁475	-14920
▁487	-14921
▁495	-14922
▁5,8	-14923
▁505	-14924
▁512	-14925
▁527	-14926
▁55,	-14927
▁568	-14928
▁6,4	-14929
▁6.7	-14930
▁60,	-14931
▁604	-14932
▁625	-14933
▁660	-14934
▁7-0	-14935
▁7.2	-14936
▁718	-14937
▁730	-14938
▁733	-14939
▁74.	-14940
▁825	-14941
▁876	-14942
▁880	-14943
▁ADD	-14944
▁ALT	-14945
▁ANT	-14946
▁AYY	-14947
▁Abe	-14948
▁And	-14949
▁Ann	-14950
▁Anı	-14951
▁Aya	-14952
▁AİB	-14953
▁Aşı	-14954
▁CER	-14955
▁Cat	-14956
▁DAP	-14957
▁DEV	-14958
▁Dal	-14959
▁Deb	-14960
▁Eye	-14961
▁Ezo	-14962
▁EÇE	-14963
▁FAO	-14964
▁FEM	-14965
▁Fle	-14966
▁GEL	-14967
▁HAM	-14968
▁Hey	-14969
▁HİÇ	-14970
▁IBM	-14971
▁INA	-14972
▁ISS	-14973
▁JÖH	-14974
▁KLA	-14975
▁KLI	-14976
▁KMA	-14977
▁KOÇ	-14978
▁KÖY	-14979
▁Kâr	-14980
▁Kör	-14981
▁LDE	-14982
▁LEB	-14983
▁Lan	-14984
▁Log	-14985
▁MOK	-14986
▁MPT	-14987
▁MSF	-14988
▁MZA	-14989
▁Miş	-14990
▁MİN	-14991
▁NIM	-14992
▁NRA	-14993
▁NUZ	-14994
▁Nah	-14995
▁Ned	-14996
▁Neg	-14997
▁ONG	-14998
▁OZU	-14999
▁PAS	-15000
▁PÖH	-15001
▁REF	-15002
▁RIN	-15003
▁RTE	-15004
▁Raj	-15005
▁RÜN	-15006
▁SAS	-15007
▁SET	-15008
▁SOM	-15009
▁Sea	-15010
▁Sor	-15011
▁Sos	-15012
▁TAG	-15013
▁TOS	-15014
▁TTA	-15015
▁TTE	-15016
▁Tüt	-15017
▁UKU	-15018
▁ULA	-15019
▁WTI	-15020
▁Wel	-15021
▁YAT	-15022
▁YMK	-15023
▁YUZ	-15024
▁Yem	-15025
▁aji	-15026
▁akü	-15027
▁aot	-15028
▁arj	-15029
▁asn	-15030
▁aux	-15031
▁chp	-15032
▁dit	-15033
▁elb	-15034
▁elf	-15035
▁elp	-15036
▁eny	-15037
▁gne	-15038
▁hır	-15039
▁iny	-15040
▁itz	-15041
▁kha	-15042
▁kûn	-15043
▁leo	-15044
▁lug	-15045
▁mfi	-15046
▁nha	-15047
▁nia	-15048
▁nol	-15049
▁oet	-15050
▁onf	-15051
▁ouz	-15052
▁owr	-15053
▁ozi	-15054
▁peç	-15055
▁pkk	-15056
▁raw	-15057
▁roy	-15058
▁urf	-15059
▁uti	-15060
▁uğa	-15061
▁vaf	-15062
▁vay	-15063
▁vot	-15064
▁vşa	-15065
▁wic	-15066
▁xel	-15067
▁yye	-15068
▁zed	-15069
▁zzi	-15070
▁ÖİV	-15071
▁ÜCÜ	-15072
▁ÜZE	-15073
▁Üçü	-15074
▁çup	-15075
▁ğca	-15076
▁ğne	-15077
▁İKA	-15078
▁ıdı	-15079
▁ızd	-15080
▁ŞLI	-15081
▁ştu	-15082
▁ABRİ	-15083
▁AKLA	-15084
▁AKPM	-15085
▁ALON	-15086
▁ARIM	-15087
▁ASAR	-15088
▁ATAN	-15089
▁ATİH	-15090
▁AZIM	-15091
▁Baum	-15092
▁Buzz	-15093
▁Core	-15094
▁Dave	-15095
▁Demi	-15096
▁Denk	-15097
▁DİSİ	-15098
▁EKİR	-15099
▁ESLE	-15100
▁EVİR	-15101
▁FİNA	-15102
▁HALİ	-15103
▁HESA	-15104
▁KAMU	-15105
▁Kadi	-15106
▁Kati	-15107
▁KÜRT	-15108
▁KİLİ	-15109
▁LENE	-15110
▁MLAR	-15111
▁Modi	-15112
▁MÜDA	-15113
▁NASI	-15114
▁Nida	-15115
▁OBİL	-15116
▁ORSA	-15117
▁OTEL	-15118
▁Omar	-15119
▁Ovit	-15120
▁PENA	-15121
▁PTAL	-15122
▁Pato	-15123
▁Plas	-15124
▁RUMP	-15125
▁TAKI	-15126
▁TEMA	-15127
▁TEPE	-15128
▁TROY	-15129
▁TRİB	-15130
▁TSAS	-15131
▁URUN	-15132
▁YEŞİ	-15133
▁YİNE	-15134
▁ZAMA	-15135
▁ZLIK	-15136
▁abeu	-15137
▁abus	-15138
▁acan	-15139
▁ackl	-15140
▁acra	-15141
▁agas	-15142
▁agop	-15143
▁ahan	-15144
▁ajoy	-15145
▁akao	-15146
▁akub	-15147
▁akva	-15148
▁alal	-15149
▁aldo	-15150
▁aler	-15151
▁ambs	-15152
▁anay	-15153
▁anke	-15154
▁ansk	-15155
▁arel	-15156
▁asis	-15157
▁asti	-15158
▁atis	-15159
▁azda	-15160
▁açay	-15161
▁aşha	-15162
▁bate	-15163
▁bego	-15164
▁biki	-15165
▁cDon	-15166
▁cLar	-15167
▁cano	-15168
▁conn	-15169
▁culu	-15170
▁dikl	-15171
▁dizm	-15172
▁dzic	-15173
▁eady	-15174
▁egel	-15175
▁eigh	-15176
▁eith	-15177
▁eixe	-15178
▁elas	-15179
▁elbo	-15180
▁elif	-15181
▁endo	-15182
▁etni	-15183
▁ewan	-15184
▁ezib	-15185
▁ezih	-15186
▁ezit	-15187
▁ezot	-15188
▁eâlâ	-15189
▁eşiz	-15190
▁fani	-15191
▁frod	-15192
▁ftan	-15193
▁fton	-15194
▁gage	-15195
▁gens	-15196
▁head	-15197
▁hela	-15198
▁hett	-15199
▁hieu	-15200
▁hlal	-15201
▁iapo	-15202
▁ibor	-15203
▁ibri	-15204
▁icot	-15205
▁idra	-15206
▁ielb	-15207
▁igür	-15208
▁iken	-15209
▁ilad	-15210
▁ilma	-15211
▁inoa	-15212
▁iroz	-15213
▁ison	-15214
▁itol	-15215
▁izof	-15216
▁kkat	-15217
▁kürt	-15218
▁lade	-15219
▁lair	-15220
▁lake	-15221
▁leon	-15222
▁liko	-15223
▁liny	-15224
▁lşev	-15225
▁masm	-15226
▁mbro	-15227
▁migo	-15228
▁mind	-15229
▁ming	-15230
▁mork	-15231
▁nahi	-15232
▁nail	-15233
▁nale	-15234
▁nbur	-15235
▁nevv	-15236
▁niyo	-15237
▁novo	-15238
▁nroe	-15239
▁olka	-15240
▁omat	-15241
▁orch	-15242
▁orit	-15243
▁ouro	-15244
▁plaz	-15245
▁pold	-15246
▁psos	-15247
▁puro	-15248
▁quez	-15249
▁race	-15250
▁rago	-15251
▁rane	-15252
▁reet	-15253
▁regl	-15254
▁rges	-15255
▁riya	-15256
▁rkın	-15257
▁room	-15258
▁rttı	-15259
▁rtır	-15260
▁shop	-15261
▁sign	-15262
▁soda	-15263
▁sraf	-15264
▁takt	-15265
▁talo	-15266
▁thal	-15267
▁ther	-15268
▁tkis	-15269
▁town	-15270
▁trük	-15271
▁ttar	-15272
▁türb	-15273
▁uala	-15274
▁uart	-15275
▁uazz	-15276
▁ucur	-15277
▁uerr	-15278
▁ulad	-15279
▁ules	-15280
▁ulis	-15281
▁unni	-15282
▁usis	-15283
▁usül	-15284
▁uter	-15285
▁vaad	-15286
▁vere	-15287
▁verg	-15288
▁veyş	-15289
▁vnik	-15290
▁xxxx	-15291
▁yant	-15292
▁yini	-15293
▁ynay	-15294
▁ysee	-15295
▁zavi	-15296
▁çeke	-15297
▁ümam	-15298
▁ünel	-15299
▁ütur	-15300
▁üyük	-15301
▁üzne	-15302
▁ĞRAF	-15303
▁ğlar	-15304
▁İADE	-15305
▁İYAD	-15306
▁ıcır	-15307
▁ıkla	-15308
▁ısım	-15309
▁ızın	-15310
▁ışır	-15311
▁Şıke	-15312
▁şiar	-15313
▁ANSER	-15314
▁ARSİM	-15315
▁AYATI	-15316
▁Damon	-15317
▁Dilan	-15318
▁EKLİF	-15319
▁Ferre	-15320
▁FİRMA	-15321
▁Gayet	-15322
▁Gomes	-15323
▁Horne	-15324
▁ILMAZ	-15325
▁Keram	-15326
▁Kyrie	-15327
▁LİDER	-15328
▁ONYAS	-15329
▁OPLAM	-15330
▁PUTİN	-15331
▁Plzen	-15332
▁SİNAN	-15333
▁TÜMSİ	-15334
▁ULÜBE	-15335
▁URSAS	-15336
▁abbar	-15337
▁addar	-15338
▁aipei	-15339
▁akbul	-15340
▁aksir	-15341
▁alize	-15342
▁ampos	-15343
▁andaj	-15344
▁anesi	-15345
▁angır	-15346
▁ansum	-15347
▁anşet	-15348
▁arkık	-15349
▁artro	-15350
▁arure	-15351
▁asdik	-15352
▁astre	-15353
▁aulle	-15354
▁ayyam	-15355
▁ağlay	-15356
▁cCain	-15357
▁cılız	-15358
▁decek	-15359
▁didas	-15360
▁dwide	-15361
▁ebael	-15362
▁eddül	-15363
▁ehcir	-15364
▁elaar	-15365
▁elyaf	-15366
▁eremc	-15367
▁ermen	-15368
▁ersta	-15369
▁erter	-15370
▁eryad	-15371
▁evhit	-15372
▁eyyam	-15373
▁eyşel	-15374
▁eşrif	-15375
▁firet	-15376
▁first	-15377
▁fokur	-15378
▁fıkıh	-15379
▁gatti	-15380
▁halel	-15381
▁herme	-15382
▁idier	-15383
▁ikail	-15384
▁ikrit	-15385
▁ilika	-15386
▁imren	-15387
▁imsal	-15388
▁indan	-15389
▁inder	-15390
▁insle	-15391
▁istül	-15392
▁itina	-15393
▁izzet	-15394
▁işani	-15395
▁kanat	-15396
▁keşfe	-15397
▁kibir	-15398
▁kimya	-15399
▁kozmo	-15400
▁kreut	-15401
▁kubuz	-15402
▁kunet	-15403
▁lahit	-15404
▁laser	-15405
▁lavaş	-15406
▁lenko	-15407
▁lütfu	-15408
▁lütuf	-15409
▁maktu	-15410
▁meali	-15411
▁metam	-15412
▁morti	-15413
▁nafık	-15414
▁nakav	-15415
▁nicks	-15416
▁olker	-15417
▁oodle	-15418
▁ouise	-15419
▁phael	-15420
▁polat	-15421
▁rampo	-15422
▁rasse	-15423
▁reign	-15424
▁resen	-15425
▁ropik	-15426
▁rteks	-15427
▁rucks	-15428
▁rumme	-15429
▁rving	-15430
▁stemi	-15431
▁sulak	-15432
▁tecil	-15433
▁teril	-15434
▁tovle	-15435
▁udwig	-15436
▁ukuşi	-15437
▁ulumb	-15438
▁umpur	-15439
▁unior	-15440
▁urphy	-15441
▁uture	-15442
▁uvage	-15443
▁uzuli	-15444
▁vakum	-15445
▁vekâl	-15446
▁warze	-15447
▁wrink	-15448
▁yukar	-15449
▁zaptı	-15450
▁zenci	-15451
▁ÇIKMA	-15452
▁ÖRGÜT	-15453
▁çelya	-15454
▁öhmet	-15455
▁üllük	-15456
▁ümbüş	-15457
▁ürans	-15458
▁şması	-15459
▁şöval	-15460
.:	-15461
5,	-15462
CR	-15463
GG	-15464
Hİ	-15465
JA	-15466
LL	-15467
NU	-15468
bl	-15469
bû	-15470
lö	-15471
uv	-15472
ÂR	-15473
şâ	-15474
ABT	-15475
BAT	-15476
DİM	-15477
DİT	-15478
FEB	-15479
GUN	-15480
JDE	-15481
MET	-15482
MYK	-15483
OMC	-15484
STO	-15485
VEN	-15486
VER	-15487
ang	-15488
api	-15489
ary	-15490
bid	-15491
cip	-15492
dai	-15493
ema	-15494
eno	-15495
ess	-15496
fia	-15497
hia	-15498
jam	-15499
jja	-15500
kas	-15501
maz	-15502
oth	-15503
pus	-15504
rap	-15505
rer	-15506
rit	-15507
tuf	-15508
ubl	-15509
uzo	-15510
wan	-15511
ÖRE	-15512
öle	-15513
üla	-15514
ĞÜN	-15515
şad	-15516
şap	-15517
▁%8	-15518
▁00	-15519
▁1⁄	-15520
▁2'	-15521
▁CF	-15522
▁DD	-15523
▁Ez	-15524
▁FR	-15525
▁GN	-15526
▁Is	-15527
▁JK	-15528
▁Jİ	-15529
▁OU	-15530
▁OX	-15531
▁PD	-15532
▁QU	-15533
▁SL	-15534
▁SV	-15535
▁Un	-15536
▁ZU	-15537
▁Zı	-15538
▁cy	-15539
▁hç	-15540
▁oe	-15541
▁tn	-15542
▁vc	-15543
▁yâ	-15544
▁ÇU	-15545
▁Çi	-15546
▁öw	-15547
▁ŞT	-15548
▁"21	-15549
▁"50	-15550
▁"60	-15551
▁(15	-15552
▁(23	-15553
▁(3.	-15554
▁-10	-15555
▁0-3	-15556
▁0.2	-15557
▁1/2	-15558
▁11-	-15559
▁231	-15560
▁239	-15561
▁266	-15562
▁276	-15563
▁356	-15564
▁357	-15565
▁364	-15566
▁372	-15567
▁373	-15568
▁389	-15569
▁396	-15570
▁41,	-15571
▁412	-15572
▁413	-15573
▁427	-15574
▁428	-15575
▁434	-15576
▁445	-15577
▁47,	-15578
▁473	-15579
▁5,2	-15580
▁508	-15581
▁510	-15582
▁514	-15583
▁543	-15584
▁544	-15585
▁563	-15586
▁585	-15587
▁596	-15588
▁6,8	-15589
▁621	-15590
▁630	-15591
▁647	-15592
▁649	-15593
▁652	-15594
▁667	-15595
▁678	-15596
▁699	-15597
▁7.0	-15598
▁705	-15599
▁749	-15600
▁770	-15601
▁808	-15602
▁810	-15603
▁813	-15604
▁821	-15605
▁833	-15606
▁887	-15607
▁910	-15608
▁920	-15609
▁923	-15610
▁934	-15611
▁948	-15612
▁AHA	-15613
▁AKM	-15614
▁ANC	-15615
▁ATP	-15616
▁Aid	-15617
▁Azı	-15618
▁BBB	-15619
▁BER	-15620
▁Baz	-15621
▁Bom	-15622
▁Boy	-15623
▁CBS	-15624
▁CLA	-15625
▁CLI	-15626
▁CLK	-15627
▁CRE	-15628
▁DGS	-15629
▁DMC	-15630
▁Div	-15631
▁DÜN	-15632
▁EDS	-15633
▁EGO	-15634
▁EKK	-15635
▁ELL	-15636
▁ERC	-15637
▁ERS	-15638
▁ERÜ	-15639
▁ETE	-15640
▁EVİ	-15641
▁Ebû	-15642
▁FFP	-15643
▁FUT	-15644
▁GIF	-15645
▁Get	-15646
▁GÖK	-15647
▁HRW	-15648
▁HİS	-15649
▁IFA	-15650
▁ION	-15651
▁IRS	-15652
▁IĞI	-15653
▁Jeb	-15654
▁KIA	-15655
▁KIL	-15656
▁Kez	-15657
▁Kia	-15658
▁Kok	-15659
▁LSI	-15660
▁Lah	-15661
▁Lif	-15662
▁MAS	-15663
▁MDE	-15664
▁MLI	-15665
▁Mir	-15666
▁MÜZ	-15667
▁Müd	-15668
▁NLI	-15669
▁ODD	-15670
▁ONT	-15671
▁ORK	-15672
▁ORM	-15673
▁OYD	-15674
▁Oni	-15675
▁OİB	-15676
▁PSO	-15677
▁Pap	-15678
▁Pil	-15679
▁RAS	-15680
▁REK	-15681
▁Rap	-15682
▁SLA	-15683
▁TFA	-15684
▁THE	-15685
▁THK	-15686
▁TON	-15687
▁Til	-15688
▁TÜV	-15689
▁Veh	-15690
▁VİN	-15691
▁YAÇ	-15692
▁YDU	-15693
▁YPJ	-15694
▁Zer	-15695
▁acc	-15696
▁akp	-15697
▁anz	-15698
▁aou	-15699
▁aud	-15700
▁aun	-15701
▁aws	-15702
▁bac	-15703
▁bos	-15704
▁bük	-15705
▁daq	-15706
▁eam	-15707
▁ecz	-15708
▁eff	-15709
▁eim	-15710
▁emc	-15711
▁emr	-15712
▁ews	-15713
▁eya	-15714
▁gis	-15715
▁gni	-15716
▁got	-15717
▁heo	-15718
▁how	-15719
▁iew	-15720
▁ilf	-15721
▁jör	-15722
▁kWh	-15723
▁lba	-15724
▁lic	-15725
▁lmi	-15726
▁luf	-15727
▁mig	-15728
▁mni	-15729
▁mük	-15730
▁mık	-15731
▁ngo	-15732
▁nig	-15733
▁nza	-15734
▁odo	-15735
▁oel	-15736
▁onn	-15737
▁ops	-15738
▁pıl	-15739
▁roj	-15740
▁rst	-15741
▁söy	-15742
▁tjy	-15743
▁tum	-15744
▁uch	-15745
▁uev	-15746
▁uny	-15747
▁vcu	-15748
▁yne	-15749
▁yos	-15750
▁yâd	-15751
▁yör	-15752
▁zni	-15753
▁ÇAK	-15754
▁ÇTI	-15755
▁ÜRE	-15756
▁çtı	-15757
▁üsn	-15758
▁ĞLA	-15759
▁İHT	-15760
▁İNA	-15761
▁ŞKE	-15762
▁ŞKİ	-15763
▁Şot	-15764
▁ŞİD	-15765
▁AKIM	-15766
▁ANIT	-15767
▁APSA	-15768
▁APİS	-15769
▁Anka	-15770
▁AŞAM	-15771
▁AŞLI	-15772
▁Bile	-15773
▁Boat	-15774
▁CERN	-15775
▁DMAN	-15776
▁Dele	-15777
▁Dino	-15778
▁DİYE	-15779
▁ELEN	-15780
▁ELVA	-15781
▁ELİK	-15782
▁EMEA	-15783
▁ENKS	-15784
▁ERGİ	-15785
▁ERİM	-15786
▁EZON	-15787
▁FOMC	-15788
▁Fren	-15789
▁GIDA	-15790
▁GİDİ	-15791
▁HALK	-15792
▁HATA	-15793
▁HKİB	-15794
▁Happ	-15795
▁Hick	-15796
▁Hila	-15797
▁IAAF	-15798
▁Jada	-15799
▁Jung	-15800
▁KISA	-15801
▁KIYA	-15802
▁KIZI	-15803
▁KPMG	-15804
▁Koke	-15805
▁Kota	-15806
▁LANA	-15807
▁LLAH	-15808
▁Link	-15809
▁Lisa	-15810
▁MAKÜ	-15811
▁Mael	-15812
▁NDER	-15813
▁NERE	-15814
▁NTER	-15815
▁NUTU	-15816
▁Nadi	-15817
▁Nami	-15818
▁Nika	-15819
▁NÖBE	-15820
▁ORAL	-15821
▁Opet	-15822
▁OÇEV	-15823
▁OĞAN	-15824
▁PARK	-15825
▁PUAN	-15826
▁Pear	-15827
▁Poko	-15828
▁RACI	-15829
▁RGAN	-15830
▁RKEK	-15831
▁Reed	-15832
▁Reşo	-15833
▁Rotm	-15834
▁Rudi	-15835
▁SKON	-15836
▁STAR	-15837
▁Saba	-15838
▁Soko	-15839
▁TAKİ	-15840
▁TGRT	-15841
▁TKİM	-15842
▁Tree	-15843
▁UKUK	-15844
▁URAK	-15845
▁UTLA	-15846
▁VALİ	-15847
▁Winf	-15848
▁YAKI	-15849
▁YEDİ	-15850
▁Yoga	-15851
▁YÜZÜ	-15852
▁Zamb	-15853
▁adak	-15854
▁adur	-15855
▁afil	-15856
▁ahşa	-15857
▁akho	-15858
▁akou	-15859
▁aleh	-15860
▁alfa	-15861
▁aliy	-15862
▁alki	-15863
▁almö	-15864
▁amut	-15865
▁angı	-15866
▁anku	-15867
▁anli	-15868
▁anze	-15869
▁aros	-15870
▁arot	-15871
▁arth	-15872
▁assa	-15873
▁aton	-15874
▁avre	-15875
▁awhi	-15876
▁ayfu	-15877
▁ayiç	-15878
▁azer	-15879
▁azne	-15880
▁bali	-15881
▁baya	-15882
▁bery	-15883
▁bluz	-15884
▁body	-15885
▁cast	-15886
▁chai	-15887
▁cipi	-15888
▁cola	-15889
▁deke	-15890
▁deşa	-15891
▁dgar	-15892
▁dibi	-15893
▁eate	-15894
▁edye	-15895
▁egia	-15896
▁egon	-15897
▁ehil	-15898
▁einz	-15899
▁elps	-15900
▁ento	-15901
▁enyi	-15902
▁eola	-15903
▁eppe	-15904
▁erev	-15905
▁eroz	-15906
▁erra	-15907
▁etis	-15908
▁eynd	-15909
▁falz	-15910
▁fsir	-15911
▁fsta	-15912
▁gade	-15913
▁gire	-15914
▁gung	-15915
▁hayk	-15916
▁hece	-15917
▁heus	-15918
▁hirt	-15919
▁horn	-15920
▁hşap	-15921
▁iant	-15922
▁ican	-15923
▁igan	-15924
▁ikim	-15925
▁ikin	-15926
▁ilyo	-15927
▁imaş	-15928
▁info	-15929
▁iotr	-15930
▁irda	-15931
▁itta	-15932
▁karo	-15933
▁kore	-15934
▁kvat	-15935
▁kype	-15936
▁kâbu	-15937
▁küre	-15938
▁labi	-15939
▁lidi	-15940
▁lion	-15941
▁lips	-15942
▁lose	-15943
▁mang	-15944
▁mbih	-15945
▁mbil	-15946
▁mear	-15947
▁mela	-15948
▁mend	-15949
▁mile	-15950
▁mkan	-15951
▁muas	-15952
▁nari	-15953
▁ndaç	-15954
▁negg	-15955
▁ngal	-15956
▁ntum	-15957
▁ohan	-15958
▁omle	-15959
▁ompe	-15960
▁onos	-15961
▁orti	-15962
▁oçka	-15963
▁popo	-15964
▁quad	-15965
▁rack	-15966
▁rawf	-15967
▁rcik	-15968
▁rele	-15969
▁reva	-15970
▁reyd	-15971
▁rfoz	-15972
▁rghe	-15973
▁rich	-15974
▁roni	-15975
▁ropo	-15976
▁rsen	-15977
▁ruce	-15978
▁ruis	-15979
▁rush	-15980
▁rust	-15981
▁sant	-15982
▁sein	-15983
▁sekt	-15984
▁siri	-15985
▁slın	-15986
▁sour	-15987
▁sque	-15988
▁stas	-15989
▁taca	-15990
▁tanc	-15991
▁tayt	-15992
▁teba	-15993
▁teva	-15994
▁tham	-15995
▁toph	-15996
▁tter	-15997
▁uadi	-15998
▁uate	-15999
▁ubur	-16000
▁uidi	-16001
▁ulaç	-16002
▁undy	-16003
▁urul	-16004
▁uzer	-16005
▁uşan	-16006
▁vaiz	-16007
▁vier	-16008
▁vole	-16009
▁wicz	-16010
▁xtra	-16011
▁yabi	-16012
▁yder	-16013
▁ymak	-16014
▁ynat	-16015
▁zhan	-16016
▁zide	-16017
▁ÖABT	-16018
▁ÖZYA	-16019
▁ÜZCE	-16020
▁öşem	-16021
▁ükum	-16022
▁ükûn	-16023
▁ülüm	-16024
▁ürem	-16025
▁ürma	-16026
▁İFEB	-16027
▁İLÇE	-16028
▁İRİŞ	-16029
▁İZİM	-16030
▁İŞÇİ	-16031
▁ısra	-16032
▁ŞAMA	-16033
▁ŞLER	-16034
▁şamp	-16035
▁AMERA	-16036
▁BELGE	-16037
▁BMMYK	-16038
▁Drake	-16039
▁EDAVİ	-16040
▁EHDİT	-16041
▁EKTÖR	-16042
▁GSYİH	-16043
▁Garet	-16044
▁Gürer	-16045
▁Hazro	-16046
▁HİSSE	-16047
▁IKARI	-16048
▁Jamie	-16049
▁Katie	-16050
▁Kebap	-16051
▁Keres	-16052
▁Kovan	-16053
▁Kulis	-16054
▁KÜTAH	-16055
▁Kürüm	-16056
▁LLERİ	-16057
▁MOKRA	-16058
▁Mekân	-16059
▁MÜDAH	-16060
▁MÜJDE	-16061
▁NLIĞI	-16062
▁Nemes	-16063
▁ONDRA	-16064
▁PATLA	-16065
▁RLIĞI	-16066
▁Ramal	-16067
▁Ramir	-16068
▁SMAİL	-16069
▁SPARK	-16070
▁SİVİL	-16071
▁VURDU	-16072
▁Verho	-16073
▁YEŞİL	-16074
▁aggie	-16075
▁agner	-16076
▁akire	-16077
▁akrib	-16078
▁albur	-16079
▁alman	-16080
▁alter	-16081
▁anofi	-16082
▁antan	-16083
▁antum	-16084
▁ariah	-16085
▁ariya	-16086
▁armen	-16087
▁arput	-16088
▁asnif	-16089
▁assan	-16090
▁assat	-16091
▁atını	-16092
▁auren	-16093
▁ayrat	-16094
▁aşema	-16095
▁aşlan	-16096
▁aşmet	-16097
▁berra	-16098
▁blast	-16099
▁cakla	-16100
▁cebir	-16101
▁ceğim	-16102
▁darip	-16103
▁defne	-16104
▁deril	-16105
▁dorff	-16106
▁ekill	-16107
▁ekser	-16108
▁elaşa	-16109
▁emila	-16110
▁enium	-16111
▁ennes	-16112
▁eptün	-16113
▁epubl	-16114
▁eridy	-16115
▁erran	-16116
▁errem	-16117
▁erris	-16118
▁etter	-16119
▁evhen	-16120
▁eyder	-16121
▁eylak	-16122
▁fonla	-16123
▁ftwar	-16124
▁fırat	-16125
▁güero	-16126
▁heron	-16127
▁htagi	-16128
▁iallo	-16129
▁ianni	-16130
▁iazza	-16131
▁ietro	-16132
▁igaro	-16133
▁imitr	-16134
▁imnas	-16135
▁ining	-16136
▁inois	-16137
▁inval	-16138
▁ipüla	-16139
▁isale	-16140
▁kafat	-16141
▁kavim	-16142
▁kenin	-16143
▁kidaş	-16144
▁kland	-16145
▁konto	-16146
▁koçan	-16147
▁kulum	-16148
▁kurdu	-16149
▁körük	-16150
▁levne	-16151
▁leyev	-16152
▁lianz	-16153
▁lkemi	-16154
▁luver	-16155
▁mazur	-16156
▁menfi	-16157
▁mesul	-16158
▁mouth	-16159
▁musik	-16160
▁nazır	-16161
▁negie	-16162
▁nejad	-16163
▁neşir	-16164
▁nçert	-16165
▁olmes	-16166
▁ombal	-16167
▁onnie	-16168
▁orabı	-16169
▁ordsa	-16170
▁ornav	-16171
▁pedüz	-16172
▁pijam	-16173
▁plast	-16174
▁rabbi	-16175
▁raham	-16176
▁range	-16177
▁ranüs	-16178
▁rauke	-16179
▁rekon	-16180
▁riple	-16181
▁river	-16182
▁rummo	-16183
▁rusya	-16184
▁setya	-16185
▁sogai	-16186
▁sorum	-16187
▁süley	-16188
▁talog	-16189
▁tamah	-16190
▁tavla	-16191
▁tekke	-16192
▁tevan	-16193
▁tevbe	-16194
▁tisit	-16195
▁titan	-16196
▁tkisi	-16197
▁torun	-16198
▁tudio	-16199
▁umbar	-16200
▁umlup	-16201
▁uncan	-16202
▁uneng	-16203
▁unzur	-16204
▁urabi	-16205
▁ustik	-16206
▁uvala	-16207
▁vafti	-16208
▁votka	-16209
▁yuvar	-16210
▁zadeh	-16211
▁zaraf	-16212
▁zeval	-16213
▁zijja	-16214
▁zorba	-16215
▁Çehre	-16216
▁üella	-16217
▁üspan	-16218
▁İSTEM	-16219
▁Şerit	-16220
▁şaner	-16221
▁şarkü	-16222
▁şerri	-16223
4,	-16224
7,	-16225
CH	-16226
EA	-16227
GV	-16228
HD	-16229
HM	-16230
HR	-16231
LD	-16232
OD	-16233
PC	-16234
SÜ	-16235
Ve	-16236
WT	-16237
au	-16238
bü	-16239
cd	-16240
ft	-16241
gs	-16242
hâ	-16243
oe	-16244
sn	-16245
uç	-16246
ÖL	-16247
şo	-16248
▁ê	-16249
▁■	-16250
AKA	-16251
DEO	-16252
DÜR	-16253
FED	-16254
KDE	-16255
LLİ	-16256
RAN	-16257
RAŞ	-16258
SAL	-16259
SKO	-16260
She	-16261
TEV	-16262
abo	-16263
cha	-16264
cid	-16265
cim	-16266
cos	-16267
dah	-16268
dot	-16269
eka	-16270
ese	-16271
ett	-16272
evs	-16273
ges	-16274
gin	-16275
gui	-16276
hon	-16277
jen	-16278
mey	-16279
olm	-16280
ong	-16281
oud	-16282
pad	-16283
rel	-16284
res	-16285
ted	-16286
tör	-16287
vao	-16288
ved	-16289
vio	-16290
vis	-16291
zaj	-16292
zot	-16293
âre	-16294
ûra	-16295
İRO	-16296
▁%2	-16297
▁%5	-16298
▁'4	-16299
▁AJ	-16300
▁BH	-16301
▁BY	-16302
▁CH	-16303
▁CK	-16304
▁IQ	-16305
▁It	-16306
▁KB	-16307
▁NB	-16308
▁Pu	-16309
▁SR	-16310
▁iu	-16311
▁kp	-16312
▁lî	-16313
▁xy	-16314
▁ÇÜ	-16315
▁Çİ	-16316
▁ÖM	-16317
▁ÖÇ	-16318
▁ÜF	-16319
▁în	-16320
▁ûl	-16321
▁İG	-16322
latz	-16323
uppe	-16324
İHAT	-16325
▁"40	-16326
▁(19	-16327
▁(39	-16328
▁0-2	-16329
▁17-	-16330
▁179	-16331
▁2-5	-16332
▁224	-16333
▁258	-16334
▁3.0	-16335
▁312	-16336
▁319	-16337
▁34,	-16338
▁344	-16339
▁354	-16340
▁361	-16341
▁383	-16342
▁386	-16343
▁387	-16344
▁392	-16345
▁393	-16346
▁4,7	-16347
▁4.3	-16348
▁403	-16349
▁411	-16350
▁414	-16351
▁418	-16352
▁419	-16353
▁42,	-16354
▁424	-16355
▁426	-16356
▁433	-16357
▁435	-16358
▁44,	-16359
▁454	-16360
▁462	-16361
▁466	-16362
▁471	-16363
▁48,	-16364
▁482	-16365
▁496	-16366
▁499	-16367
▁5+1	-16368
▁5,6	-16369
▁5-3	-16370
▁51,	-16371
▁524	-16372
▁526	-16373
▁528	-16374
▁536	-16375
▁566	-16376
▁572	-16377
▁586	-16378
▁587	-16379
▁592	-16380
▁593	-16381
▁6,2	-16382
▁6,3	-16383
▁6,9	-16384
▁6-3	-16385
▁6.2	-16386
▁6.3	-16387
▁6.4	-16388
▁6.6	-16389
▁6.8	-16390
▁601	-16391
▁633	-16392
▁638	-16393
▁645	-16394
▁659	-16395
▁666	-16396
▁671	-16397
▁673	-16398
▁682	-16399
▁683	-16400
▁685	-16401
▁688	-16402
▁7,2	-16403
▁7-6	-16404
▁7.9	-16405
▁703	-16406
▁72,	-16407
▁751	-16408
▁753	-16409
▁768	-16410
▁774	-16411
▁799	-16412
▁814	-16413
▁851	-16414
▁890	-16415
▁893	-16416
▁908	-16417
▁912	-16418
▁941	-16419
▁970	-16420
▁971	-16421
▁975	-16422
▁980	-16423
▁993	-16424
▁AGÜ	-16425
▁AKS	-16426
▁APA	-16427
▁API	-16428
▁Apo	-16429
▁Arz	-16430
▁Ash	-16431
▁BAY	-16432
▁BDA	-16433
▁BDP	-16434
▁BMC	-16435
▁BRA	-16436
▁BVA	-16437
▁Bad	-16438
▁Bot	-16439
▁Bud	-16440
▁BİP	-16441
▁CAR	-16442
▁CIP	-16443
▁CRR	-16444
▁Cin	-16445
▁DNS	-16446
▁DOR	-16447
▁DOS	-16448
▁DSG	-16449
▁ESO	-16450
▁EYE	-16451
▁EYT	-16452
▁Edu	-16453
▁FDP	-16454
▁FSM	-16455
▁GAN	-16456
▁GLC	-16457
▁GTC	-16458
▁Gor	-16459
▁GÖZ	-16460
▁GÜÇ	-16461
▁HAP	-16462
▁HAT	-16463
▁HKÜ	-16464
▁Hap	-16465
▁ICA	-16466
▁INT	-16467
▁IOC	-16468
▁ISO	-16469
▁ITF	-16470
▁Jen	-16471
▁KEİ	-16472
▁KOÜ	-16473
▁Kep	-16474
▁Kre	-16475
▁Kın	-16476
▁LLE	-16477
▁LMU	-16478
▁Loc	-16479
▁Lot	-16480
▁LÜK	-16481
▁MAL	-16482
▁MAM	-16483
▁MAR	-16484
▁MEF	-16485
▁MSG	-16486
▁Mam	-16487
▁Mat	-16488
▁Mon	-16489
▁Mun	-16490
▁MÜN	-16491
▁MÜŞ	-16492
▁NCT	-16493
▁NDR	-16494
▁NMİ	-16495
▁NSI	-16496
▁Neb	-16497
▁Neo	-16498
▁NİK	-16499
▁OGM	-16500
▁OLO	-16501
▁ORÇ	-16502
▁OST	-16503
▁OTA	-16504
▁OTİ	-16505
▁OĞA	-16506
▁OŞA	-16507
▁PAÜ	-16508
▁PLİ	-16509
▁Pay	-16510
▁Peş	-16511
▁RDÜ	-16512
▁RIA	-16513
▁RNE	-16514
▁RUZ	-16515
▁RVP	-16516
▁Ret	-16517
▁Roy	-16518
▁RİA	-16519
▁RİN	-16520
▁SIL	-16521
▁STİ	-16522
▁SYA	-16523
▁Soy	-16524
▁TCL	-16525
▁TDV	-16526
▁TGS	-16527
▁TLI	-16528
▁TUR	-16529
▁Tık	-16530
▁UBA	-16531
▁UBP	-16532
▁URİ	-16533
▁USD	-16534
▁VIA	-16535
▁VLİ	-16536
▁VPN	-16537
▁Vez	-16538
▁Via	-16539
▁VİC	-16540
▁YKB	-16541
▁ZDE	-16542
▁ZPT	-16543
▁ZTK	-16544
▁Zaf	-16545
▁azz	-16546
▁bby	-16547
▁bej	-16548
▁bia	-16549
▁cih	-16550
▁cip	-16551
▁cul	-16552
▁cur	-16553
▁die	-16554
▁eav	-16555
▁eby	-16556
▁ely	-16557
▁emy	-16558
▁epp	-16559
▁fly	-16560
▁fra	-16561
▁ful	-16562
▁fış	-16563
▁ggy	-16564
▁gut	-16565
▁hik	-16566
▁hin	-16567
▁hne	-16568
▁iol	-16569
▁its	-16570
▁kie	-16571
▁lca	-16572
▁lee	-16573
▁nje	-16574
▁nuc	-16575
▁ofo	-16576
▁oft	-16577
▁oil	-16578
▁oln	-16579
▁oms	-16580
▁onk	-16581
▁opm	-16582
▁orf	-16583
▁oum	-16584
▁ouv	-16585
▁paj	-16586
▁pot	-16587
▁ppi	-16588
▁pti	-16589
▁pto	-16590
▁rmo	-16591
▁rni	-16592
▁rqu	-16593
▁rri	-16594
▁rts	-16595
▁rıh	-16596
▁sso	-16597
▁sty	-16598
▁tka	-16599
▁tüz	-16600
▁veh	-16601
▁wak	-16602
▁yaw	-16603
▁ype	-16604
▁yur	-16605
▁zaz	-16606
▁zgi	-16607
▁zgâ	-16608
▁zıv	-16609
▁ÇEK	-16610
▁Çep	-16611
▁Çöp	-16612
▁ÜNG	-16613
▁âhî	-16614
▁ânî	-16615
▁örf	-16616
▁öyl	-16617
▁ĞRI	-16618
▁ğir	-16619
▁İHD	-16620
▁ıng	-16621
▁ŞEY	-16622
▁ŞIK	-16623
▁ŞTE	-16624
▁Şav	-16625
▁ŞİK	-16626
▁ŞİÖ	-16627
▁Şıh	-16628
▁şet	-16629
▁şya	-16630
▁AAŞI	-16631
▁ABLO	-16632
▁AHİL	-16633
▁AKAT	-16634
▁AKIR	-16635
▁ARAK	-16636
▁ARAT	-16637
▁ARAÇ	-16638
▁ASAN	-16639
▁ATAY	-16640
▁ATSO	-16641
▁AYIS	-16642
▁AZİR	-16643
▁AÇTI	-16644
▁BTSO	-16645
▁Brie	-16646
▁BÜLE	-16647
▁BÜYÜ	-16648
▁BİNA	-16649
▁BİST	-16650
▁CENA	-16651
▁Casa	-16652
▁Cora	-16653
▁DALE	-16654
▁DEHB	-16655
▁Dali	-16656
▁Diaz	-16657
▁Diet	-16658
▁Diri	-16659
▁EJİM	-16660
▁ELLİ	-16661
▁ELİH	-16662
▁ERBİ	-16663
▁EREİ	-16664
▁EVDE	-16665
▁EYRE	-16666
▁FEDA	-16667
▁FIRA	-16668
▁FİLM	-16669
▁FİYA	-16670
▁GALİ	-16671
▁GDAŞ	-16672
▁GRAM	-16673
▁Gian	-16674
▁GİRE	-16675
▁GİRİ	-16676
▁HANE	-16677
▁HMET	-16678
▁HOCA	-16679
▁Head	-16680
▁IFIR	-16681
▁Jake	-16682
▁Jare	-16683
▁Joan	-16684
▁KESİ	-16685
▁KLİK	-16686
▁Kais	-16687
▁Kala	-16688
▁Kawa	-16689
▁Kevs	-16690
▁Kron	-16691
▁Kuaf	-16692
▁Kıta	-16693
▁LDER	-16694
▁LTAY	-16695
▁Lala	-16696
▁Lane	-16697
▁Leke	-16698
▁Ludo	-16699
▁Mota	-16700
▁MÜZE	-16701
▁NGEL	-16702
▁OMUT	-16703
▁ORUM	-16704
▁OSYA	-16705
▁PAŞA	-16706
▁PERS	-16707
▁POZİ	-16708
▁PSOE	-16709
▁Pale	-16710
▁Pedo	-16711
▁Pist	-16712
▁RANI	-16713
▁RETİ	-16714
▁RIMI	-16715
▁RMEK	-16716
▁Reno	-16717
▁Rhei	-16718
▁Ruzo	-16719
▁RİSK	-16720
▁SALT	-16721
▁SEKA	-16722
▁SENE	-16723
▁STEN	-16724
▁Saad	-16725
▁TEST	-16726
▁Trig	-16727
▁True	-16728
▁URAN	-16729
▁Vecd	-16730
▁WASP	-16731
▁Witt	-16732
▁YANA	-16733
▁YDER	-16734
▁ZORU	-16735
▁Zile	-16736
▁abau	-16737
▁absü	-16738
▁acos	-16739
▁aczi	-16740
▁adsı	-16741
▁affe	-16742
▁ager	-16743
▁agos	-16744
▁ahse	-16745
▁ahşe	-16746
▁akül	-16747
▁alha	-16748
▁alvo	-16749
▁alât	-16750
▁alço	-16751
▁ambo	-16752
▁amfi	-16753
▁amik	-16754
▁amis	-16755
▁amon	-16756
▁ampo	-16757
▁anad	-16758
▁andt	-16759
▁anis	-16760
▁anzi	-16761
▁arge	-16762
▁ariş	-16763
▁arki	-16764
▁arre	-16765
▁arty	-16766
▁arze	-16767
▁asat	-16768
▁atin	-16769
▁atka	-16770
▁atus	-16771
▁augh	-16772
▁avas	-16773
▁awal	-16774
▁ayıc	-16775
▁azit	-16776
▁açin	-16777
▁aşid	-16778
▁aşil	-16779
▁aşti	-16780
▁aşıy	-16781
▁best	-16782
▁blak	-16783
▁cafe	-16784
▁cala	-16785
▁chel	-16786
▁cila	-16787
▁cing	-16788
▁cken	-16789
▁colm	-16790
▁dafi	-16791
▁darb	-16792
▁dgok	-16793
▁disp	-16794
▁eaut	-16795
▁ebad	-16796
▁eber	-16797
▁ebol	-16798
▁ebra	-16799
▁eeth	-16800
▁eira	-16801
▁ekas	-16802
▁ektr	-16803
▁eleğ	-16804
▁elfo	-16805
▁ellf	-16806
▁emto	-16807
▁enia	-16808
▁erer	-16809
▁erih	-16810
▁etaf	-16811
▁evdi	-16812
▁evez	-16813
▁eyfe	-16814
▁eçki	-16815
▁faks	-16816
▁fart	-16817
▁gles	-16818
▁gues	-16819
▁hara	-16820
▁heid	-16821
▁henk	-16822
▁holo	-16823
▁iago	-16824
▁iaom	-16825
▁iblo	-16826
▁ibro	-16827
▁icks	-16828
▁iera	-16829
▁iero	-16830
▁ifoz	-16831
▁igne	-16832
▁ihin	-16833
▁ikis	-16834
▁ikri	-16835
▁ilüe	-16836
▁imer	-16837
▁imms	-16838
▁imri	-16839
▁inet	-16840
▁infe	-16841
▁ingo	-16842
▁inka	-16843
▁into	-16844
▁itik	-16845
▁iyom	-16846
▁kant	-16847
▁kine	-16848
▁kond	-16849
▁krea	-16850
▁krom	-16851
▁ksen	-16852
▁ktir	-16853
▁kâse	-16854
▁kûme	-16855
▁lady	-16856
▁laug	-16857
▁lavo	-16858
▁lber	-16859
▁ldin	-16860
▁lela	-16861
▁liak	-16862
▁life	-16863
▁lime	-16864
▁lita	-16865
▁llan	-16866
▁lmat	-16867
▁loom	-16868
▁love	-16869
▁lpan	-16870
▁meth	-16871
▁meşa	-16872
▁mono	-16873
▁mora	-16874
▁mudi	-16875
▁nayi	-16876
▁ngan	-16877
▁nglo	-16878
▁nitz	-16879
▁nium	-16880
▁nore	-16881
▁oach	-16882
▁ohem	-16883
▁oire	-16884
▁olik	-16885
▁olyo	-16886
▁olün	-16887
▁ombi	-16888
[...]
