<unk>	0
<s>	0
</s>	0
.	-3.44802
n	-3.82524
'	-4.17996
▁	-4.29985
▁,	-4.30878
,	-4.31113
k	-4.49264
▁ve	-4.58697
a	-4.60224
e	-4.75239
▁bir	-4.8455
i	-4.89611
▁"	-4.99509
m	-5.15883
r	-5.1719
da	-5.19961
▁'	-5.26362
de	-5.2707
ı	-5.29608
t	-5.38787
ya	-5.4023
▁de	-5.43868
ın	-5.44449
nin	-5.45136
▁da	-5.48599
l	-5.49145
li	-5.54416
in	-5.56137
si	-5.56194
lar	-5.57656
▁bu	-5.59126
ye	-5.63631
ler	-5.65548
la	-5.67031
nın	-5.68728
p	-5.72674
leri	-5.74074
s	-5.74894
z	-5.75413
lı	-5.75492
le	-5.77785
ları	-5.77937
u	-5.78085
na	-5.79806
▁için	-5.81098
▁ile	-5.86693
ne	-5.94395
ki	-6.00315
"	-6.00967
sı	-6.01743
te	-6.14427
y	-6.14469
ü	-6.18376
▁n	-6.19761
▁-	-6.2263
▁A	-6.22684
▁.	-6.23341
▁Bu	-6.2497
ma	-6.25676
ta	-6.26702
den	-6.28127
▁Türkiye	-6.28993
er	-6.32007
dan	-6.33645
▁K	-6.38045
ni	-6.38514
ş	-6.39622
▁olarak	-6.42655
nı	-6.43473
me	-6.44943
lık	-6.45317
-	-6.46097
en	-6.47009
▁(	-6.47373
f	-6.47668
di	-6.48351
▁çok	-6.48667
▁olan	-6.50839
ra	-6.51834
▁S	-6.51992
un	-6.52219
:	-6.56261
yı	-6.57425
▁en	-6.58946
ri	-6.59094
lik	-6.59455
▁ise	-6.60492
yle	-6.62733
ca	-6.6336
nda	-6.63403
▁ne	-6.63646
lerin	-6.64807
▁daha	-6.65247
yi	-6.67402
h	-6.68474
yla	-6.68803
nde	-6.70314
dı	-6.70581
ce	-6.70712
ti	-6.70755
d	-6.71487
ların	-6.72757
▁o	-6.75578
tı	-6.77032
an	-6.77086
▁ya	-6.7997
▁ki	-6.80887
▁yer	-6.81054
)	-6.81891
▁sonra	-6.82741
▁yıl	-6.83246
g	-6.83781
o	-6.8459
▁bin	-6.85571
▁3	-6.85781
sa	-6.86184
v	-6.86323
▁var	-6.86678
ç	-6.88738
▁kadar	-6.88757
▁k	-6.88843
▁göre	-6.88889
▁gibi	-6.89395
lu	-6.90019
▁G	-6.92167
▁T	-6.9238
▁2	-6.92872
▁O	-6.9376
▁B	-6.9555
▁lar	-6.95583
▁a	-6.96301
▁kişi	-6.96401
ğı	-6.97115
▁olduğu	-6.97456
re	-6.97679
▁İ	-6.98381
at	-6.98594
b	-6.98803
larını	-6.98841
▁5	-6.99193
al	-7.00741
A	-7.01585
▁F	-7.01768
▁dedi	-7.01959
▁E	-7.02091
K	-7.03843
▁etti	-7.06037
▁her	-7.06444
▁ta	-7.06546
se	-7.07726
▁karşı	-7.08016
S	-7.08128
▁olduğunu	-7.08489
▁e	-7.08492
mi	-7.09941
ba	-7.1023
▁önce	-7.10554
▁ilk	-7.10913
▁yüzde	-7.11241
▁yeni	-7.1134
cı	-7.11395
▁4	-7.11824
▁büyük	-7.12309
▁ler	-7.12429
nun	-7.12455
lan	-7.13541
▁diye	-7.14022
?	-7.14483
▁oldu	-7.14769
miz	-7.17152
▁Ha	-7.1716
du	-7.18463
el	-7.18883
larda	-7.19215
▁1	-7.19476
▁Ç	-7.19508
ini	-7.19868
1	-7.20145
im	-7.2056
▁son	-7.20945
▁sa	-7.21091
su	-7.22322
▁iş	-7.22489
tan	-7.22859
▁6	-7.22881
ar	-7.23107
▁iki	-7.23271
lerini	-7.24399
sını	-7.24732
▁tarafında	-7.24813
▁ma	-7.2482
▁i	-7.25048
ği	-7.25414
▁Sa	-7.2592
lara	-7.26113
▁arasında	-7.26768
▁devam	-7.2686
2	-7.27711
▁gün	-7.2772
▁:	-7.28578
▁C	-7.28685
lığı	-7.29287
▁7	-7.29524
yor	-7.29915
ci	-7.31064
lere	-7.31086
ması	-7.31105
ğ	-7.32273
ine	-7.32588
▁İstanbul	-7.33492
▁zaman	-7.33864
▁P	-7.34063
▁Bir	-7.34251
lama	-7.34572
rak	-7.3459
mız	-7.34844
▁değil	-7.34894
▁Türk	-7.34929
ur	-7.35437
lerde	-7.35488
▁yapılan	-7.35674
▁m	-7.35748
İ	-7.36039
▁p	-7.3627
cak	-7.36349
▁H	-7.36372
5	-7.36433
T	-7.36483
il	-7.37373
▁terör	-7.37388
0	-7.37615
▁D	-7.38349
▁ardından	-7.38525
▁milyon	-7.38543
▁ülke	-7.38557
▁ilgili	-7.39609
um	-7.39894
▁8	-7.39989
▁10	-7.40058
▁iyi	-7.40317
B	-7.40898
D	-7.41666
▁süre	-7.4216
▁eden	-7.42865
ir	-7.42997
▁Başkanı	-7.445
▁...	-7.44715
rken	-7.4532
▁önemli	-7.45877
dığı	-7.4607
daki	-7.46207
▁söyledi	-7.46431
▁M	-7.46506
▁me	-7.46624
lü	-7.46661
ır	-7.46697
9	-7.46839
ö	-7.47045
sini	-7.47712
▁an	-7.48292
uz	-7.48304
deki	-7.48553
▁Me	-7.487
sında	-7.49348
dir	-7.49605
larında	-7.49837
inde	-7.50156
▁alan	-7.50315
4	-7.50325
▁mi	-7.5092
▁gelen	-7.51224
▁se	-7.51279
diği	-7.51572
▁ları	-7.517
mış	-7.52173
O	-7.522
ro	-7.52498
▁ifade	-7.52738
ndan	-7.5288
sinde	-7.53787
▁Y	-7.53791
▁Haberleri	-7.54064
▁ABD	-7.54856
bi	-7.55039
ün	-7.55465
▁15	-7.55679
▁polis	-7.55947
▁üzerinde	-7.56634
▁yaptığı	-7.57089
çi	-7.57309
▁19	-7.58376
man	-7.58889
liği	-7.58923
7	-7.59322
▁na	-7.6011
3	-7.60229
I	-7.6041
▁ev	-7.60465
8	-7.6107
6	-7.6135
▁ama	-7.61353
▁leri	-7.6182
sine	-7.62159
▁te	-7.62626
zi	-7.62663
ay	-7.62931
▁Ma	-7.62957
▁saat	-7.63449
▁içinde	-7.64326
▁ay	-7.64495
ten	-7.64765
E	-7.64925
be	-7.6498
ında	-7.65077
▁Se	-7.65914
▁yol	-7.66386
▁şu	-7.66707
▁Erdoğan	-7.66845
sına	-7.6718
▁yaptı	-7.67266
▁yok	-7.67389
▁Ya	-7.6739
lerinde	-7.6747
▁karar	-7.67715
▁2016	-7.67855
▁la	-7.68344
▁kendi	-7.68354
▁dünya	-7.68624
00	-7.68949
dır	-7.69693
▁ni	-7.70072
ik	-7.70537
▁bulunan	-7.71172
▁bile	-7.71457
ru	-7.71548
▁U	-7.71612
▁aldı	-7.71727
ran	-7.71938
▁konu	-7.71984
▁;	-7.72124
▁9	-7.72442
sel	-7.728
▁Ak	-7.73104
▁tüm	-7.73229
▁birlikte	-7.7341
lo	-7.73446
▁Avrupa	-7.73841
miş	-7.74158
▁olay	-7.74289
▁üzerine	-7.74305
▁Ö	-7.74583
▁el	-7.74614
mak	-7.74646
▁ka	-7.7477
▁ko	-7.74809
st	-7.75044
hi	-7.7507
▁Suriye	-7.7508
▁geldi	-7.75134
▁verdi	-7.75514
va	-7.76096
ken	-7.76132
mesi	-7.76247
▁şekilde	-7.76465
▁hem	-7.76572
▁fazla	-7.76606
ım	-7.76615
▁!	-7.76691
▁konuştu	-7.77729
▁20	-7.7804
ıyor	-7.78238
c	-7.78518
j	-7.78649
luk	-7.79638
ge	-7.8024
▁Er	-7.8028
▁baş	-7.80331
yu	-7.80853
▁tek	-7.81131
rı	-7.81406
▁biz	-7.81781
et	-7.82236
▁dir	-7.82451
▁FETÖ	-7.82488
▁biri	-7.82641
C	-7.82682
ah	-7.82954
ze	-7.83256
▁hafta	-7.83302
Y	-7.83665
M	-7.84467
▁dolar	-7.84473
mek	-7.84477
▁mücadele	-7.84725
▁aynı	-7.85431
▁Al	-7.85537
am	-7.85721
▁Gazetesi	-7.86237
▁geri	-7.86372
P	-7.86839
unu	-7.8733
▁z	-7.87459
▁olmak	-7.8773
▁insan	-7.87889
G	-7.87917
▁11	-7.88023
▁günü	-7.88028
ga	-7.88034
landı	-7.88575
▁Kara	-7.88621
ul	-7.88724
to	-7.88751
▁darbe	-7.88885
gi	-7.88921
larına	-7.8923
ey	-7.89314
▁destek	-7.89368
acak	-7.89425
▁Cumhurbaşkanı	-7.89588
bilir	-7.89799
▁lerin	-7.90057
▁şey	-7.90604
es	-7.90635
▁bölge	-7.91027
▁orta	-7.91031
▁bilgi	-7.91118
▁sahip	-7.9118
Ş	-7.91619
▁dikkat	-7.91732
iş	-7.91883
▁yapı	-7.92329
nden	-7.92449
▁bugün	-7.92575
▁para	-7.92594
▁göz	-7.92724
▁diğer	-7.93501
ha	-7.93745
ecek	-7.93871
▁Di	-7.93907
▁V	-7.94005
▁hava	-7.94135
vi	-7.94319
▁Ba	-7.94321
▁ba	-7.94546
▁çıkar	-7.94551
▁yaşında	-7.95136
U	-7.95406
kları	-7.95477
▁larını	-7.96071
it	-7.962
▁h	-7.96216
▁olacak	-7.96223
▁olması	-7.96479
▁doğru	-7.96552
▁le	-7.96648
▁çıktı	-7.96701
▁yapan	-7.96717
▁PKK	-7.96778
nu	-7.96812
▁edildi	-7.96856
▁nedeni	-7.97237
or	-7.97342
iz	-7.97375
▁üzere	-7.97394
▁ların	-7.97863
ğını	-7.97904
▁kal	-7.97973
rek	-7.98066
▁s	-7.98301
▁)	-7.98648
ren	-7.9873
▁kez	-7.98813
sinin	-7.98833
▁Genel	-7.99069
▁12	-7.992
▁ediyor	-7.99246
tir	-7.99267
▁su	-7.9931
▁Öz	-7.99423
▁mı	-7.99498
▁du	-7.9954
arak	-7.99639
▁ye	-7.99845
▁Ay	-7.9998
tik	-7.99988
▁Ş	-8.00165
▁TL	-8.00359
siz	-8.00406
▁di	-8.00655
▁söz	-8.0092
▁Ankara	-8.00997
▁lira	-8.01862
dü	-8.01877
▁ça	-8.02081
ladı	-8.02093
▁edilen	-8.02161
▁Fenerbahçe	-8.02162
▁Beşiktaş	-8.02605
larla	-8.02638
▁örgütü	-8.0283
â	-8.02948
▁De	-8.0325
▁ha	-8.03378
ıl	-8.03486
▁mü	-8.03508
▁bazı	-8.03708
leme	-8.03736
ünü	-8.0385
▁Bo	-8.04009
▁Ne	-8.0401
▁ara	-8.04046
▁lerini	-8.0419
▁kadın	-8.04655
▁sade	-8.04817
R	-8.0482
▁geçen	-8.04924
▁görev	-8.04967
▁saldırı	-8.05009
▁özel	-8.05216
▁Spor	-8.0522
lerle	-8.05241
nün	-8.05474
ğu	-8.05618
▁neden	-8.05822
ter	-8.05849
cü	-8.05948
▁açık	-8.06313
▁yılında	-8.06404
▁az	-8.06412
▁0	-8.06569
­	-8.06571
▁mu	-8.06852
sız	-8.06889
▁siz	-8.06954
▁Da	-8.06986
iyor	-8.0745
ğa	-8.07499
cağı	-8.07702
▁yönelik	-8.07706
▁r	-8.078
sal	-8.08063
çı	-8.08117
ış	-8.0815
ül	-8.08196
kan	-8.08222
L	-8.08263
▁miz	-8.08465
▁başladı	-8.08616
erek	-8.08767
▁Rusya	-8.08886
▁do	-8.08914
▁I	-8.09174
▁Ancak	-8.09243
▁veya	-8.09429
▁Galatasaray	-8.09525
▁Son	-8.09619
▁Ta	-8.09644
▁bulundu	-8.09888
▁so	-8.09906
▁hakkında	-8.09937
▁olma	-8.10321
cu	-8.10382
▁yakın	-8.10578
▁li	-8.10834
▁?	-8.10836
▁hareket	-8.11006
cek	-8.11033
yoruz	-8.11475
▁va	-8.12803
▁at	-8.13054
is	-8.13223
▁soru	-8.13227
rası	-8.13241
▁N	-8.13416
▁Z	-8.13508
iyet	-8.13542
▁başka	-8.14314
▁iç	-8.1502
▁söyle	-8.15342
▁yerine	-8.1535
▁Ama	-8.155
▁takım	-8.15575
▁nin	-8.15959
▁hazır	-8.16038
▁güvenlik	-8.1625
▁silah	-8.1633
▁Dünya	-8.16433
▁et	-8.16462
ör	-8.16465
tır	-8.17002
▁nasıl	-8.17081
▁milyar	-8.17237
rma	-8.17244
lendi	-8.1743
▁haber	-8.17546
on	-8.17634
nce	-8.18113
▁farklı	-8.18128
▁kararı	-8.18264
▁şöyle	-8.18275
▁sağ	-8.18431
▁iddia	-8.18546
▁u	-8.18672
▁üst	-8.18801
▁Re	-8.18895
ko	-8.18976
▁nı	-8.19038
▁yara	-8.19132
AR	-8.1936
▁sezon	-8.19526
▁etme	-8.19613
▁yla	-8.20142
▁başarı	-8.20262
▁yle	-8.2029
▁maç	-8.20353
ceği	-8.20399
iyle	-8.20779
tu	-8.20831
▁yüksek	-8.20916
▁yön	-8.21061
fi	-8.21203
▁sıra	-8.21407
▁ek	-8.2148
ch	-8.21534
▁yaklaşı	-8.21578
ber	-8.21586
▁ekipleri	-8.21642
▁ettiği	-8.21822
ev	-8.21869
▁ele	-8.2212
▁14	-8.22232
▁Pa	-8.22733
mıştı	-8.22954
▁Temmuz	-8.23123
ık	-8.23203
▁konusunda	-8.23389
dığını	-8.23612
▁böyle	-8.23672
oğlu	-8.239
▁En	-8.2392
▁çalışma	-8.24185
us	-8.2425
▁in	-8.24486
▁kar	-8.24541
▁açıklama	-8.24707
üz	-8.24736
▁il	-8.24754
şa	-8.25074
▁gol	-8.25144
▁devlet	-8.25579
▁dır	-8.25595
ol	-8.25853
▁Parti	-8.25942
luğu	-8.2601
▁Ben	-8.26107
▁ceza	-8.26113
▁tanı	-8.26339
▁Mehmet	-8.26374
çe	-8.26406
▁Biz	-8.26429
▁Müdürlüğü	-8.26463
▁suç	-8.26471
ve	-8.26568
▁oğlu	-8.26838
▁açıklamada	-8.26981
▁kabul	-8.26985
▁18	-8.27001
han	-8.27273
▁etki	-8.27448
ür	-8.27648
▁sev	-8.28052
fa	-8.28326
▁yaş	-8.28822
tma	-8.28889
▁dün	-8.28958
diğini	-8.29282
▁lere	-8.29435
▁ekonomi	-8.29466
▁13	-8.29924
lanma	-8.29976
ancak	-8.29988
as	-8.30137
▁soruşturma	-8.30186
▁ayrı	-8.30195
▁uzun	-8.30344
▁al	-8.30389
▁eski	-8.30431
▁hizmet	-8.30593
▁çalışan	-8.30595
▁16	-8.30655
ilen	-8.30842
H	-8.30994
▁zor	-8.31196
▁ar	-8.31237
▁So	-8.31246
▁altında	-8.31517
▁nın	-8.31568
▁proje	-8.31591
▁yanı	-8.31664
▁Bakanı	-8.31671
▁bulunduğu	-8.31725
▁eğitim	-8.31826
▁Ko	-8.31855
▁ağır	-8.31963
▁şehit	-8.32563
▁top	-8.32661
▁kapsamında	-8.32812
▁plan	-8.32955
▁bütün	-8.33081
▁ilişkin	-8.33093
▁durum	-8.33645
▁lara	-8.3365
▁Yeni	-8.33916
▁si	-8.33961
▁30	-8.34021
asyon	-8.34097
▁dile	-8.34247
▁Başbakan	-8.34346
▁kat	-8.34573
▁Devlet	-8.34707
▁hayat	-8.34894
AN	-8.35153
x	-8.35187
!	-8.35272
▁ben	-8.35497
▁konusu	-8.35521
▁eşi	-8.35617
▁Sözcü	-8.35627
▁yarı	-8.35744
do	-8.36472
miyor	-8.36564
▁bomba	-8.36576
▁Do	-8.36998
▁üç	-8.37385
▁Bakanlığı	-8.37401
▁yı	-8.37434
▁ak	-8.37454
▁aile	-8.3751
lıyor	-8.37861
▁Ve	-8.38075
çok	-8.38402
▁yan	-8.38533
▁f	-8.3875
▁belirte	-8.38974
sü	-8.39223
▁kaza	-8.39457
▁yardım	-8.39475
▁rağmen	-8.39557
F	-8.39655
▁R	-8.39949
w	-8.39959
▁meydan	-8.40007
▁yayın	-8.40209
▁mız	-8.40248
▁17	-8.40524
▁Cumhuriyet	-8.40614
▁ikinci	-8.40697
▁çıkan	-8.40729
klarını	-8.40822
▁oyuncu	-8.41001
▁alınan	-8.41031
▁ö	-8.41085
▁hale	-8.41111
ip	-8.41236
mişti	-8.41237
▁yi	-8.41803
/	-8.41998
▁İl	-8.42048
▁Kurulu	-8.42076
▁ön	-8.42241
▁ı	-8.42275
muz	-8.42387
▁bo	-8.42417
▁kontrol	-8.42465
▁ait	-8.42618
▁re	-8.42667
▁etmek	-8.42702
▁yatırım	-8.42754
ğü	-8.42782
▁gözaltın	-8.42922
şi	-8.43051
▁genç	-8.43145
▁yazı	-8.43452
şı	-8.43528
▁aldığı	-8.43604
▁tespit	-8.43762
lma	-8.43777
ktan	-8.43821
▁sistemi	-8.43846
▁dakika	-8.43885
▁bağlı	-8.44039
▁ge	-8.44275
▁Mahallesi	-8.4437
he	-8.44643
▁kaldı	-8.44683
lanması	-8.44721
▁veri	-8.44736
▁ş	-8.44885
▁kullandı	-8.4496
▁hedef	-8.4508
▁To	-8.45132
▁200	-8.45151
▁Mi	-8.45217
▁El	-8.4557
▁gelir	-8.45699
Bu	-8.45998
▁tır	-8.46092
po	-8.46122
Ü	-8.46175
▁Ali	-8.46461
lanan	-8.4692
▁olur	-8.46969
▁uz	-8.47142
▁basın	-8.47193
▁okul	-8.47247
▁Na	-8.47267
kü	-8.47464
▁ti	-8.4749
▁Ü	-8.47704
▁den	-8.47853
▁gerek	-8.47877
sıyla	-8.48008
▁gerçek	-8.48015
▁Zaman	-8.48261
▁b	-8.48368
nca	-8.48702
yorum	-8.4879
▁araç	-8.48869
▁eş	-8.48877
▁alındı	-8.4898
▁hiçbir	-8.49413
▁parti	-8.49484
▁Her	-8.49705
▁25	-8.4971
co	-8.49975
▁sosyal	-8.50007
▁kan	-8.50097
▁hiç	-8.50281
▁isim	-8.5032
▁gö	-8.50349
▁sak	-8.50501
rt	-8.5053
▁alın	-8.50539
▁burada	-8.50552
▁özellikle	-8.50583
▁bunu	-8.50782
▁ter	-8.50782
▁Te	-8.50965
van	-8.51031
▁güzel	-8.5106
▁er	-8.51109
tar	-8.5123
muş	-8.5123
mez	-8.51278
▁İş	-8.51311
▁Si	-8.51388
lük	-8.51843
▁iz	-8.52003
▁oku	-8.52052
▁Yıldırım	-8.52348
▁toplam	-8.52363
▁puan	-8.52464
▁yapma	-8.52562
▁imza	-8.52577
▁Li	-8.52667
N	-8.52798
▁konuşma	-8.52859
ret	-8.53111
▁Terör	-8.53204
▁işlem	-8.53251
▁gece	-8.53268
▁yeniden	-8.53394
bu	-8.53565
▁taşı	-8.53835
▁tarih	-8.53852
▁g	-8.53949
şan	-8.54043
ça	-8.54263
▁ziyaret	-8.54399
▁verdiği	-8.545
ER	-8.54554
▁çocuk	-8.54952
▁çek	-8.55021
tü	-8.55192
liyor	-8.55201
▁yine	-8.55218
▁Ahme	-8.55317
▁grup	-8.55441
▁AB	-8.55477
▁Mustafa	-8.55498
▁Mo	-8.55767
▁Be	-8.5581
▁Başkan	-8.55978
▁tamam	-8.561
▁Can	-8.56141
▁bizim	-8.56162
▁50	-8.56513
▁Dr	-8.56552
▁savaş	-8.56594
layan	-8.56877
▁tedavi	-8.56885
▁bit	-8.56962
▁ilgi	-8.56987
▁kısa	-8.5713
▁oyun	-8.57273
▁Kur	-8.57278
▁gösteri	-8.57283
".	-8.57522
▁itibar	-8.57522
▁içerisinde	-8.57537
▁artık	-8.5758
ed	-8.57631
▁ortay	-8.57648
os	-8.57691
▁Ra	-8.57782
▁sağlık	-8.57833
▁adet	-8.57847
▁Emniyet	-8.58092
▁kesi	-8.58125
▁lı	-8.58158
▁dava	-8.58176
▁W	-8.58324
▁sayı	-8.58372
▁alma	-8.58625
▁hasta	-8.58872
▁be	-8.58916
▁Bunun	-8.58981
▁seçim	-8.58996
▁kullan	-8.59318
ğini	-8.59349
▁genel	-8.59409
▁nız	-8.5951
yo	-8.59568
▁veren	-8.59729
▁belirtti	-8.59765
▁lerden	-8.5977
▁görme	-8.59809
Ö	-8.59957
met	-8.60195
▁yüz	-8.60265
lim	-8.60399
▁d	-8.60489
▁anda	-8.60551
▁fa	-8.60725
▁geç	-8.60928
▁Gül	-8.61052
▁Mü	-8.61095
▁La	-8.61101
▁yürü	-8.61185
▁yoğun	-8.61247
▁belirtildi	-8.61313
▁tarihi	-8.61455
▁sonrası	-8.61628
leşme	-8.61708
;	-8.61824
▁hayatını	-8.61978
▁Su	-8.62032
▁uygulama	-8.6211
▁Lig	-8.62233
▁verme	-8.62358
▁ayı	-8.62417
▁Büyük	-8.62425
▁L	-8.62474
▁CHP	-8.62549
▁sonucu	-8.62641
▁operasyon	-8.62698
▁can	-8.6277
▁sun	-8.63045
gu	-8.63234
▁tam	-8.63253
▁değer	-8.63295
▁ayında	-8.63835
▁bak	-8.64171
▁sınır	-8.64418
▁Amerika	-8.64695
▁açı	-8.64831
▁sayısı	-8.65007
spor	-8.65094
mıyor	-8.65198
ız	-8.65267
▁şüpheli	-8.65346
▁Almanya	-8.65418
▁Milli	-8.65451
▁bırak	-8.6553
nız	-8.65627
az	-8.65749
▁niz	-8.66026
▁çıkma	-8.66027
▁edecek	-8.6611
▁100	-8.66313
▁larda	-8.66338
▁yaşa	-8.66628
▁tepki	-8.6663
▁sahibi	-8.66693
▁Ar	-8.6674
▁24	-8.66814
ıp	-8.66836
▁diyor	-8.66875
▁asker	-8.66958
▁toplum	-8.67219
▁akşam	-8.67477
Ç	-8.67513
▁duyu	-8.67561
Z	-8.67886
▁fi	-8.67926
▁yaşanan	-8.67947
▁Bakan	-8.68017
▁dı	-8.68173
▁21	-8.68179
▁22	-8.68192
▁yana	-8.68622
▁ortak	-8.68642
teki	-8.68706
▁dışında	-8.68716
lması	-8.68811
şma	-8.69081
▁İlk	-8.69184
▁şeklinde	-8.69199
▁askeri	-8.69209
▁dolayı	-8.69265
▁belirterek	-8.69312
▁düzenlene	-8.69337
▁mahkeme	-8.69464
▁medya	-8.69535
▁t	-8.69653
▁otomobil	-8.69732
▁dönemde	-8.69741
▁kız	-8.69796
▁2015	-8.69825
sun	-8.70229
▁yap	-8.70285
▁ce	-8.70292
▁kalan	-8.70348
▁bunun	-8.7044
▁tür	-8.70459
▁Mart	-8.70554
▁sırasında	-8.70565
ok	-8.70776
▁fe	-8.70801
yum	-8.70802
▁teknik	-8.7082
▁telefon	-8.70863
ck	-8.71112
▁Üniversitesi	-8.71112
▁verile	-8.71138
▁der	-8.71207
yecek	-8.71253
▁çı	-8.71348
laşma	-8.71624
▁eylem	-8.71794
▁ca	-8.71842
▁Daha	-8.71976
▁merkez	-8.72092
▁Baş	-8.72126
▁sı	-8.72278
maz	-8.72545
▁terörist	-8.72691
▁AK	-8.72797
▁sırada	-8.72856
▁kır	-8.72863
▁adam	-8.72956
▁durumu	-8.72978
ut	-8.73023
...	-8.73118
▁sunu	-8.7312
▁Şubat	-8.73145
▁gelecek	-8.73236
▁kapı	-8.73271
▁görüşme	-8.73436
▁öğren	-8.73444
▁güç	-8.73469
niz	-8.73728
▁oluyor	-8.73738
▁anlaşma	-8.73763
ğünü	-8.73813
▁satış	-8.73819
▁sık	-8.73936
ünkü	-8.73959
▁dönem	-8.73982
go	-8.74013
▁başlaya	-8.74079
mı	-8.74121
▁tir	-8.74286
▁engel	-8.74302
▁belir	-8.74314
▁yolu	-8.74503
▁onlar	-8.74551
▁futbolcu	-8.74605
▁girişimi	-8.74631
▁siyasi	-8.74725
lacak	-8.74751
bilecek	-8.7483
▁yaz	-8.74843
▁biliyor	-8.75021
▁güçleri	-8.75142
▁hastane	-8.75202
▁düzen	-8.7527
▁geçi	-8.75313
▁başında	-8.75334
▁larında	-8.75516
▁kaydetti	-8.75822
inci	-8.7586
▁azal	-8.75867
▁İzmir	-8.76032
▁Ev	-8.76101
▁film	-8.76106
ağı	-8.76209
▁koru	-8.76247
▁Fi	-8.76277
▁amacı	-8.76435
▁geliyor	-8.76458
▁beraber	-8.76525
V	-8.76559
min	-8.76578
▁transfer	-8.76677
▁olsun	-8.76678
▁alıyor	-8.76793
acağı	-8.7682
kten	-8.76846
▁takip	-8.76902
mizi	-8.77037
▁ses	-8.77083
▁gerekiyor	-8.77369
▁boyun	-8.77396
▁larına	-8.77503
▁çekti	-8.7754
▁Ni	-8.77553
▁Mu	-8.7756
suz	-8.77562
lenen	-8.77569
▁örgüt	-8.77596
▁öde	-8.77616
▁yağ	-8.77676
tör	-8.77728
▁yapılacak	-8.77873
▁Ocak	-8.7789
▁ağ	-8.78023
▁derece	-8.78058
san	-8.7816
▁tutu	-8.78273
▁40	-8.78332
▁sevk	-8.78453
▁araya	-8.78472
▁güven	-8.78568
dık	-8.78575
ndeki	-8.78712
▁..	-8.78712
▁ateş	-8.78795
▁Olay	-8.78822
▁çe	-8.78856
▁hak	-8.78912
▁Kal	-8.78945
▁öğrenildi	-8.78948
▁istedi	-8.7897
▁dan	-8.79117
▁He	-8.79121
▁Ro	-8.79148
ad	-8.79221
▁yanında	-8.79389
ğe	-8.79423
▁müdahale	-8.79596
▁sistem	-8.79624
EN	-8.79665
▁bil	-8.79871
ildi	-8.79954
▁zarar	-8.79968
▁hukuk	-8.8019
▁kazandı	-8.8023
▁bulun	-8.80243
▁ücret	-8.80339
evi	-8.80495
▁Gün	-8.80621
▁benim	-8.80663
▁gündem	-8.80674
▁ndan	-8.80692
▁Ga	-8.80748
▁getir	-8.80896
▁ata	-8.8106
▁olabilir	-8.81085
İN	-8.81087
▁adı	-8.8117
▁önünde	-8.81216
bileceği	-8.81301
▁yasa	-8.81333
▁yandan	-8.81483
▁piyasa	-8.8154
▁Euro	-8.81542
madı	-8.81625
▁Kar	-8.81683
▁öz	-8.81804
if	-8.81827
▁düş	-8.81839
▁ederek	-8.81854
▁izin	-8.81962
▁şimdi	-8.82071
yon	-8.82078
▁23	-8.82317
der	-8.82348
▁sonuç	-8.82364
duğu	-8.82483
▁yargı	-8.82681
▁inan	-8.82803
▁banka	-8.8305
bo	-8.83068
lenmesi	-8.83075
ladığı	-8.83156
ılan	-8.83201
▁nda	-8.83239
▁öne	-8.8325
▁Irak	-8.83359
rme	-8.83421
▁çift	-8.8353
lmesi	-8.8359
▁nden	-8.83613
dik	-8.83677
▁yapmak	-8.83841
let	-8.83884
▁ç	-8.83985
▁altına	-8.84139
▁isteyen	-8.84141
▁lerinde	-8.84253
▁ilişki	-8.84272
▁geçti	-8.84457
▁çalıştı	-8.84575
▁eder	-8.84639
▁Ye	-8.84674
▁Polis	-8.85088
▁dair	-8.85121
▁Ca	-8.85244
▁tuta	-8.85335
▁Haber	-8.85492
bey	-8.85694
▁İs	-8.85699
lenme	-8.85756
▁din	-8.85825
▁halinde	-8.8584
▁Demir	-8.85852
▁saha	-8.85954
▁çalışmaları	-8.86005
▁yüksel	-8.86112
▁onu	-8.86139
ist	-8.86142
▁tekrar	-8.8618
▁aday	-8.86191
▁kay	-8.86215
▁ciddi	-8.86255
▁bulunuyor	-8.8627
▁seviye	-8.86284
▁anne	-8.86349
▁sene	-8.86554
kar	-8.8656
sta	-8.86568
▁Hastanesi	-8.86817
hane	-8.86855
▁kapa	-8.86878
▁kadro	-8.8689
mektedir	-8.86956
▁Allah	-8.86972
ing	-8.87012
▁Şa	-8.87142
▁dakikada	-8.87351
kça	-8.87579
▁durumda	-8.87583
▁gitme	-8.87636
▁yılın	-8.88017
▁dışı	-8.88026
▁/	-8.88124
▁kurum	-8.88137
▁tur	-8.88151
▁gitti	-8.88247
▁Ceza	-8.88334
▁kalma	-8.88356
▁yapıyor	-8.88398
▁sivil	-8.88497
▁kötü	-8.88577
▁ödeme	-8.8865
▁mümkün	-8.8882
▁yorum	-8.88822
▁forma	-8.88876
mızı	-8.88963
bü	-8.89083
▁giriş	-8.89116
▁tercih	-8.89146
▁Rus	-8.8926
▁Bugün	-8.89311
▁Ayrıca	-8.89554
▁getirdi	-8.89616
müz	-8.89669
▁ana	-8.89759
▁spor	-8.89931
▁ekibi	-8.9013
▁sabah	-8.90378
▁kamu	-8.90383
▁im	-8.90426
▁Yılmaz	-8.90468
▁çekil	-8.90555
▁olmadığını	-8.90588
▁açıkladı	-8.9063
▁verildi	-8.90745
▁içeri	-8.90756
▁araştırma	-8.90757
▁küçük	-8.90838
▁kredi	-8.90872
▁arama	-8.91027
▁Aralık	-8.91037
▁Le	-8.91055
▁Meclis	-8.9112
▁bilir	-8.91279
ledi	-8.91363
▁teknoloji	-8.9137
müş	-8.91469
▁İran	-8.9154
▁adım	-8.91544
▁28	-8.91651
▁zamanda	-8.917
▁Ara	-8.91765
şunları	-8.91855
▁bölgede	-8.91965
▁Bil	-8.91974
▁sarı	-8.92007
▁güçlü	-8.92084
▁sayıda	-8.92095
▁gereken	-8.92164
▁değerlendirme	-8.92387
▁enerji	-8.92459
▁gerektiğini	-8.92553
cağız	-8.92661
sunda	-8.92732
▁vardı	-8.92787
▁Trabzonspor	-8.92887
▁internet	-8.92965
▁kimse	-8.92972
▁firma	-8.93033
▁toplantı	-8.93197
dim	-8.93266
▁ilçe	-8.93307
▁edilmesi	-8.9336
▁talep	-8.93481
▁Yönetim	-8.93559
▁katı	-8.93623
likle	-8.93637
▁tı	-8.93692
▁belge	-8.93749
▁faiz	-8.93808
▁Ekonomi	-8.94275
▁çocuğu	-8.94299
▁Deniz	-8.94499
hangi	-8.94518
▁ulaştı	-8.94547
rem	-8.94556
id	-8.94571
▁kim	-8.94584
▁Diyarbakır	-8.94586
▁başvuru	-8.94672
▁İşte	-8.94811
▁kon	-8.94889
▁Kor	-8.95002
▁nokta	-8.95008
kleri	-8.95059
▁hemen	-8.9524
▁lider	-8.9535
▁elde	-8.95407
▁çevre	-8.95475
▁`	-8.95754
▁Sarı	-8.95964
▁mutlu	-8.95973
▁kur	-8.96015
▁Mar	-8.96045
▁uygun	-8.96059
▁hep	-8.96179
▁pazar	-8.96236
▁Hava	-8.96249
▁ifadelerini	-8.96265
▁inceleme	-8.96617
şehir	-8.96641
▁madde	-8.96654
▁düştü	-8.96788
▁uygula	-8.96856
▁saatlerinde	-8.96862
▁kaynak	-8.96897
▁boş	-8.97024
▁bilme	-8.97028
▁serbest	-8.97201
▁gelme	-8.97216
▁şiddet	-8.97289
▁yaşayan	-8.97303
▁acı	-8.97373
▁Ligi	-8.97378
▁oy	-8.97538
▁ist	-8.97679
klerini	-8.97703
▁başına	-8.97727
▁siyaset	-8.97747
▁dur	-8.97793
▁katkı	-8.97831
ürü	-8.97866
▁maçı	-8.9809
▁bekle	-8.98105
ket	-8.98106
dur	-8.98138
▁bilin	-8.98177
▁mizi	-8.98309
▁hesap	-8.98355
▁Gülen	-8.98432
meyen	-8.985
▁mızı	-8.98556
▁Davutoğlu	-8.98624
ova	-8.98667
▁milli	-8.98698
▁Vi	-8.98937
▁Es	-8.99009
▁Çin	-8.99096
dür	-8.99154
▁savunma	-8.99162
▁baskı	-8.99214
landığı	-8.99585
▁tartışma	-8.99614
▁mo	-8.99663
▁fotoğraf	-8.99799
tepe	-8.9985
▁İki	-8.99875
tme	-8.99897
▁tarihinde	-8.99904
▁önem	-8.99909
▁1.	-9.00021
▁babası	-9.00245
▁değiş	-9.00339
▁yerinde	-9.0039
▁Anadolu	-9.00431
▁kent	-9.00546
▁yapıldı	-9.00813
▁27	-9.00838
DA	-9.00846
▁görüntü	-9.00925
▁As	-9.01015
▁Şimdi	-9.01073
▁Tek	-9.01086
▁yılı	-9.01092
▁Belediye	-9.01169
▁yönetimi	-9.01173
▁adına	-9.01198
▁attı	-9.01257
▁politika	-9.01534
▁herkes	-9.01583
▁olmayan	-9.01678
▁Bölge	-9.01809
▁yazılı	-9.0181
▁kullanıla	-9.02204
▁baba	-9.02259
▁yor	-9.02344
▁söyleyen	-9.02384
tor	-9.02459
▁resmi	-9.02649
▁karşısında	-9.02665
▁2014	-9.02831
▁yardımcı	-9.02891
▁Antalya	-9.02907
▁bunlar	-9.03031
▁500	-9.03056
başı	-9.03155
▁edildiği	-9.03166
▁uluslara	-9.03205
▁adlı	-9.03214
▁bölüm	-9.03233
▁üstün	-9.03376
▁Süper	-9.03393
▁yabancı	-9.03393
▁bina	-9.03516
▁geldiği	-9.03541
▁),	-9.03586
▁fiyatı	-9.0367
▁anlattı	-9.03675
▁kaçı	-9.03685
▁pek	-9.03813
sunuz	-9.03842
lım	-9.04082
▁Ri	-9.04085
▁büyü	-9.04169
▁maçında	-9.04186
▁yılda	-9.04192
▁konuda	-9.04197
▁ü	-9.04257
▁Eğitim	-9.04337
▁artış	-9.04385
▁Bey	-9.04415
ici	-9.04479
▁orada	-9.04704
▁paylaş	-9.04707
▁Çok	-9.04831
▁ince	-9.04939
lay	-9.04992
▁teslim	-9.05099
▁çi	-9.05111
▁girme	-9.05235
▁Koç	-9.05278
▁Güvenli	-9.05424
▁fark	-9.0543
▁olmadığı	-9.05516
▁ödül	-9.05583
▁karşılaşma	-9.056
▁bana	-9.05648
▁yolcu	-9.05703
▁ayrıca	-9.05762
▁Ülke	-9.05866
▁şehir	-9.05894
▁Tayyi	-9.05982
▁ileri	-9.05993
▁kolay	-9.06009
mayan	-9.06028
▁Sağlık	-9.06059
▁futbol	-9.06125
ho	-9.06157
▁hakkı	-9.06171
▁Jo	-9.06291
▁Rece	-9.06354
▁26	-9.06383
laştı	-9.06418
▁Müdürü	-9.06495
ılmış	-9.06532
▁öğrenci	-9.06532
▁Bü	-9.06546
tif	-9.06621
▁işaret	-9.06641
ver	-9.06673
▁kol	-9.06735
▁başkan	-9.06791
▁belli	-9.06845
▁durdu	-9.07002
▁bar	-9.07024
▁Du	-9.07216
aj	-9.07226
▁kap	-9.07246
▁ürün	-9.07303
▁Gel	-9.07303
▁istiyor	-9.07333
har	-9.07365
▁çözüm	-9.07502
▁ettiğini	-9.07547
▁sonunda	-9.07733
▁yönetim	-9.07799
▁cezası	-9.07802
▁hayatı	-9.07871
▁bakan	-9.07912
▁29	-9.08011
AL	-9.08047
▁uzman	-9.08048
▁izle	-9.08145
ımı	-9.08206
akat	-9.0824
▁onun	-9.08281
lanıyor	-9.08283
▁maçta	-9.08317
▁Bay	-9.08354
ham	-9.08502
▁metre	-9.08605
ilmesi	-9.08674
▁görüş	-9.08684
▁öldü	-9.08762
▁ünlü	-9.08802
▁millet	-9.08858
▁şarkı	-9.08996
▁şart	-9.09063
▁Yardımcısı	-9.09095
▁emekli	-9.09196
▁etmesi	-9.09223
▁İslam	-9.09282
▁kas	-9.09286
▁yıldız	-9.09505
▁yaralı	-9.09587
▁temel	-9.09627
▁sorumlu	-9.09649
▁arada	-9.09723
▁sü	-9.0979
▁kurul	-9.09876
▁büyüme	-9.09889
▁Mahkemesi	-9.0989
▁önün	-9.09927
▁geniş	-9.09996
▁düzey	-9.10018
tra	-9.10141
▁Co	-9.10199
▁üye	-9.10259
ic	-9.10371
son	-9.10482
▁edilme	-9.10567
▁mülteci	-9.10598
▁işçi	-9.10742
lüğü	-9.10775
▁desteği	-9.10801
▁sat	-9.10906
▁girdi	-9.1092
▁önlem	-9.10933
▁kızı	-9.1094
▁ilçesinde	-9.10952
▁Kemal	-9.11003
▁ci	-9.11046
▁halk	-9.11067
▁temiz	-9.11163
bay	-9.11235
▁Ser	-9.11245
▁ekip	-9.1132
▁Dışişleri	-9.11409
nci	-9.11429
20	-9.11432
▁yapacağı	-9.11503
▁Yar	-9.11519
fer	-9.11548
▁Der	-9.116
▁Birliği	-9.11612
▁atan	-9.11615
▁Merkezi	-9.11684
▁lazım	-9.11716
▁nedenle	-9.11737
▁dahil	-9.11758
▁final	-9.11784
▁faaliyet	-9.1193
▁arttı	-9.11995
▁gider	-9.12147
▁sürü	-9.12162
▁gördü	-9.12204
▁veriyor	-9.12309
▁larımız	-9.12418
▁uyarı	-9.12439
▁alacak	-9.12477
▁ismi	-9.12549
▁insanlar	-9.12671
▁demokrasi	-9.12741
AK	-9.12776
▁HDP	-9.12948
▁sıkıntı	-9.1295
▁yük	-9.12992
▁Bel	-9.13063
▁konuşa	-9.13256
▁cevap	-9.13258
▁Murat	-9.1326
oz	-9.13402
▁olsa	-9.13463
▁yerde	-9.13487
▁Şu	-9.13581
ceğini	-9.1369
▁Prof	-9.13737
▁merkezi	-9.13835
▁arkadaşları	-9.13932
▁sol	-9.14077
▁çalışıyor	-9.14135
▁Kim	-9.14226
▁defa	-9.14251
▁üyeleri	-9.14322
▁sergi	-9.14407
▁Burada	-9.14416
▁yöntem	-9.14423
▁yaka	-9.1443
▁Orta	-9.14452
▁sürdü	-9.14476
▁Doğu	-9.14476
▁rol	-9.14505
▁yurt	-9.14512
▁kayıt	-9.14516
▁canlı	-9.14532
▁bi	-9.14571
▁Fatih	-9.1472
op	-9.14743
▁almak	-9.14778
ılması	-9.14804
taş	-9.14949
üs	-9.15039
▁bağ	-9.15055
kal	-9.15168
▁programı	-9.1524
▁har	-9.15402
▁Alman	-9.15445
▁kara	-9.1547
▁kurulu	-9.15503
yü	-9.1551
▁Ol	-9.15534
▁taraf	-9.15558
▁yanıt	-9.15561
▁İngiltere	-9.15565
▁şirketi	-9.15582
▁değiştir	-9.15701
▁Trump	-9.15778
▁Genç	-9.1578
▁Nisan	-9.15805
uk	-9.15888
ov	-9.15895
▁tehdit	-9.15991
▁öğretmen	-9.15991
▁geçtiği	-9.16137
▁tarafta	-9.1616
▁ülkede	-9.16172
▁Atatürk	-9.16204
MA	-9.1633
▁süreci	-9.16387
luyor	-9.16404
leyen	-9.16437
),	-9.16488
▁üyesi	-9.16512
▁tehlike	-9.16632
▁İnsan	-9.16637
▁kilo	-9.16641
▁kendisini	-9.16671
▁oran	-9.16698
▁yapılması	-9.16742
soy	-9.16887
▁Gö	-9.16914
▁mesaj	-9.16915
▁sonrasında	-9.16957
▁um	-9.16975
▁aça	-9.17113
▁yapacak	-9.17123
▁ydi	-9.17137
▁PYD	-9.1717
▁kıs	-9.17241
▁oranı	-9.17244
▁katıldı	-9.1726
▁Kaza	-9.17286
▁sorunu	-9.1737
▁ister	-9.17379
lığını	-9.17413
▁program	-9.17502
▁as	-9.17534
▁Şube	-9.17545
▁Adana	-9.17563
▁Kürt	-9.17605
▁Ek	-9.17607
▁Aydın	-9.17616
▁konuş	-9.17772
▁başta	-9.17876
▁alanı	-9.17893
▁ediliyor	-9.17928
▁yaşadığı	-9.1802
▁yaşam	-9.18037
▁Merkez	-9.18069
▁çeşitli	-9.18213
▁ga	-9.18259
▁oluşa	-9.18264
▁kanser	-9.18267
▁İlçesi	-9.18299
▁etmeye	-9.18305
▁buldu	-9.18324
▁uzak	-9.18373
maktadır	-9.18375
▁nde	-9.1856
▁sahne	-9.18584
▁operasyonu	-9.18587
▁Suriyeli	-9.18596
▁vatandaşlar	-9.18619
▁düzenleme	-9.18636
▁sözleşme	-9.1864
▁etkisi	-9.18709
▁IŞİD	-9.188
leşti	-9.18891
▁marka	-9.18912
▁Muh	-9.18954
▁yet	-9.19109
▁DAEŞ	-9.1913
▁talebi	-9.19131
▁gösterdi	-9.19164
▁c	-9.19174
▁deniz	-9.19384
th	-9.19413
▁Özel	-9.19452
▁giden	-9.19727
▁Po	-9.19758
▁türlü	-9.19777
İR	-9.19786
▁bildirildi	-9.19795
▁sınav	-9.19837
▁dış	-9.20015
▁Bar	-9.20076
▁koruma	-9.20084
▁Yo	-9.20118
▁evin	-9.20135
▁ihracat	-9.20235
▁kendini	-9.2034
▁edilmiş	-9.20347
▁kardeş	-9.20443
▁Mayıs	-9.2046
▁hen	-9.20488
▁savcı	-9.20569
▁kültür	-9.20681
▁getiren	-9.20716
▁Fransa	-9.20793
▁kafa	-9.20799
▁bulunma	-9.20892
▁bas	-9.20894
▁rahat	-9.20995
▁olacağı	-9.21092
▁sen	-9.21155
▁hızlı	-9.2122
▁60	-9.21233
▁ona	-9.21254
▁krizi	-9.21272
▁açısında	-9.21351
▁zorunda	-9.21356
▁35	-9.21465
▁finans	-9.21468
▁kişiler	-9.21474
▁Futbol	-9.21578
▁Kap	-9.21642
▁yaralandı	-9.21679
▁Ber	-9.21699
▁Top	-9.22004
▁fırsat	-9.2203
mo	-9.2209
IN	-9.22112
ans	-9.22124
▁takımın	-9.22163
hal	-9.22169
▁hız	-9.22171
▁arkadaşı	-9.22204
▁liste	-9.22261
▁kaybetti	-9.22302
▁yemek	-9.2236
▁kısmı	-9.22421
Lİ	-9.22448
mer	-9.22532
▁ihtiyaç	-9.22711
▁ydı	-9.2274
abı	-9.22836
▁isten	-9.22958
▁galibiyet	-9.23054
▁emniyet	-9.23054
▁şirket	-9.23099
▁aralarında	-9.23134
▁elektrik	-9.23168
▁es	-9.23283
ceğiz	-9.23333
▁oynaya	-9.23488
▁vergi	-9.23536
▁yönünde	-9.23652
▁tutuklandı	-9.23829
▁ekran	-9.23831
▁hapis	-9.23858
▁kullanma	-9.23875
▁dizi	-9.23903
▁çeken	-9.23929
▁geçmiş	-9.24192
▁kendisi	-9.242
bet	-9.24294
▁tü	-9.24314
▁bağlantı	-9.2432
▁yere	-9.24328
▁kaç	-9.24365
▁anı	-9.24425
▁gel	-9.24512
▁arka	-9.24513
▁gerekli	-9.24588
▁kazana	-9.24615
▁Cem	-9.24658
▁kilometre	-9.24668
▁doku	-9.24783
▁ihtiyacı	-9.24784
▁uçak	-9.24923
▁hakem	-9.24948
▁döneminde	-9.24986
▁Kasım	-9.25011
▁ten	-9.25016
▁aylık	-9.25022
▁90	-9.25033
▁düşük	-9.25084
▁bakım	-9.25153
▁Sayı	-9.25173
▁hangi	-9.2521
▁etkili	-9.25265
▁otur	-9.25267
▁onları	-9.25272
lendiği	-9.25328
UR	-9.2536
▁kamera	-9.25378
etti	-9.25381
ll	-9.25408
▁tahmin	-9.25485
▁sebebi	-9.25485
▁katılım	-9.25513
▁Ja	-9.25544
▁amaç	-9.25546
laşı	-9.2564
▁yıldır	-9.25659
▁öncesi	-9.25681
▁Öte	-9.25698
▁sin	-9.25784
▁ayak	-9.25789
▁çalışmalar	-9.25832
▁fiyatları	-9.25947
▁hükümeti	-9.25987
▁tören	-9.26049
▁fiyat	-9.26099
▁öyle	-9.26277
▁oda	-9.26278
▁sebep	-9.26309
▁dört	-9.26427
▁Ho	-9.26441
▁net	-9.26475
▁kira	-9.26504
ji	-9.26513
▁kart	-9.26537
▁İtalya	-9.26545
▁Lo	-9.266
kaya	-9.26659
▁duygu	-9.26663
▁sıcak	-9.26803
tür	-9.2682
▁grubu	-9.26901
▁sürekli	-9.27048
ton	-9.27051
▁hakim	-9.27174
▁Eğ	-9.27181
▁Konu	-9.27197
dağ	-9.27208
▁sözleri	-9.27223
▁ken	-9.27348
▁fayda	-9.2738
lendirme	-9.27584
▁mak	-9.27595
▁belirti	-9.27653
▁Batı	-9.27713
▁miktar	-9.27738
▁anlatan	-9.27779
▁diyerek	-9.27799
▁döne	-9.27836
▁ölüm	-9.27867
zar	-9.27931
▁sonu	-9.27931
▁bunları	-9.27941
▁Kılıçdaroğlu	-9.27976
▁Sosyal	-9.27976
▁günlerde	-9.28002
▁Kadın	-9.28123
▁ailesi	-9.28157
▁31	-9.28221
AT	-9.28286
▁alanda	-9.28308
▁getirildi	-9.28463
▁edin	-9.28468
▁Halep	-9.28708
▁ulaşı	-9.28733
lığa	-9.28759
▁isteme	-9.2876
▁giren	-9.28985
▁ulaşa	-9.29071
▁yarın	-9.29146
▁rakam	-9.2919
▁ülkelerin	-9.29266
medi	-9.29281
▁söylüyor	-9.29306
▁başı	-9.2932
▁ra	-9.29373
▁Geç	-9.29527
▁Caddesi	-9.29672
sanız	-9.29704
▁Eylül	-9.29794
▁Anayasa	-9.29794
▁olup	-9.29798
▁par	-9.29809
▁No	-9.29819
par	-9.29967
ıcı	-9.29993
YA	-9.30029
▁gerekir	-9.30219
▁Bunlar	-9.30282
▁ilan	-9.30349
▁sefer	-9.30353
▁Başkanlığı	-9.30371
▁kuvvet	-9.30407
▁anayasa	-9.30413
▁istediği	-9.30475
▁yanlış	-9.30534
▁bildirdi	-9.30557
▁Ekim	-9.30644
▁İngiliz	-9.30777
res	-9.30832
▁biraz	-9.30876
▁sorun	-9.30893
ize	-9.30921
▁çıkış	-9.31026
▁benzer	-9.31034
▁Van	-9.31069
▁Vali	-9.31074
▁köy	-9.31092
▁Tan	-9.31099
▁70	-9.31102
▁sız	-9.31115
▁Millet	-9.3116
▁av	-9.31213
▁takımı	-9.31248
▁teröristler	-9.31269
lanmış	-9.31275
▁görün	-9.31277
▁konut	-9.31337
▁Yüksek	-9.31397
▁beni	-9.31423
▁cami	-9.3145
▁geçiş	-9.31541
▁görüle	-9.31577
▁sektörü	-9.31647
▁çalışı	-9.31847
taki	-9.31863
▁Kan	-9.31887
▁birkaç	-9.31897
▁J	-9.31938
▁altın	-9.31946
▁yani	-9.31985
▁Yani	-9.31996
üstü	-9.32138
▁üniversite	-9.32146
▁2017	-9.32146
▁bozu	-9.32261
siniz	-9.32318
▁dik	-9.32463
İL	-9.32613
▁doktor	-9.32648
liğini	-9.3267
▁v	-9.32744
▁sevgi	-9.3276
ydi	-9.32794
▁Fetullah	-9.329
▁bekleniyor	-9.32906
▁45	-9.32954
▁devre	-9.32983
▁mal	-9.33156
▁çaba	-9.33217
▁Kır	-9.33263
▁bizi	-9.33325
▁otobüs	-9.33406
▁gelişme	-9.33425
▁oyna	-9.33524
▁elinde	-9.336
▁model	-9.33646
▁Araştırma	-9.3366
▁masa	-9.33719
▁korku	-9.33774
▁hükümet	-9.33778
▁Güncel	-9.33788
▁parça	-9.33815
▁dünyada	-9.33841
▁tu	-9.33856
▁kesim	-9.3386
▁risk	-9.3396
▁Özellikle	-9.34064
ciler	-9.34098
▁Tüm	-9.34103
▁Sev	-9.34112
ğunu	-9.34158
▁kor	-9.34205
▁Örgütü	-9.3422
▁Onlar	-9.34273
▁değildir	-9.34329
▁Bizim	-9.3453
▁işi	-9.3457
▁Belediyesi	-9.3465
▁gösterme	-9.34738
▁girişim	-9.34756
ES	-9.34793
▁aç	-9.34807
ON	-9.34844
▁doğu	-9.3487
▁Tekni	-9.34945
▁sert	-9.34961
▁gaz	-9.34981
▁bekliyor	-9.35004
oloji	-9.3501
▁çocuklar	-9.35063
▁Dakika	-9.35068
▁sağlaya	-9.35073
liğe	-9.35081
▁Nur	-9.35082
▁kitap	-9.35206
▁işbirliği	-9.35214
mıza	-9.3524
▁aracı	-9.35245
▁hisse	-9.35307
ET	-9.35447
▁Tur	-9.3548
for	-9.35542
▁getirme	-9.35589
DE	-9.35618
▁Ömer	-9.35645
dikleri	-9.35675
▁gire	-9.35691
▁sayesinde	-9.35717
▁patlama	-9.35789
▁numara	-9.35846
▁halkın	-9.35865
▁Gür	-9.35899
▁Müslüman	-9.35975
▁olumsuz	-9.35975
▁İsrail	-9.35975
▁gerçekleşti	-9.3604
▁Grubu	-9.36236
▁DEAŞ	-9.36366
▁tedbir	-9.36366
▁Bankası	-9.36368
▁başkanı	-9.36369
İK	-9.36436
▁yaptıkları	-9.36442
▁Gör	-9.36484
▁unu	-9.36506
▁normal	-9.36628
▁eser	-9.36685
▁Şen	-9.36711
▁derin	-9.36734
▁başlattı	-9.36759
▁buna	-9.36779
▁düşü	-9.36798
▁pat	-9.36828
bir	-9.36946
▁kullandığı	-9.37042
▁iktidar	-9.37153
▁haberi	-9.3716
▁İç	-9.37256
▁kuş	-9.37448
TA	-9.37463
▁vurgulaya	-9.37585
▁açıklaması	-9.37699
▁dönü	-9.37775
▁karşılık	-9.37829
▁site	-9.37862
acağını	-9.37961
▁olmaz	-9.37982
▁sal	-9.38045
▁yazdı	-9.38052
leştirme	-9.38121
▁ölü	-9.38188
▁Şehit	-9.38212
üzü	-9.38271
▁hayal	-9.38274
▁belediye	-9.38345
▁annesi	-9.38345
▁üretim	-9.38388
▁yaşama	-9.38394
▁koşu	-9.38538
▁sektör	-9.386
▁vardır	-9.3861
▁kaydedildi	-9.38612
▁Güneş	-9.38616
▁filmi	-9.3862
▁işlemleri	-9.3862
▁günde	-9.3887
▁geçme	-9.38953
▁doğum	-9.39075
▁güvenliği	-9.3928
▁döndü	-9.39282
▁çağrı	-9.39325
▁davet	-9.39351
▁olun	-9.39423
▁kura	-9.39429
▁geleceği	-9.3943
▁cins	-9.39483
▁İbrahim	-9.39552
▁Derneği	-9.39552
▁kampanya	-9.39552
▁barış	-9.39603
▁vurgu	-9.39636
▁operasyonlar	-9.39727
Ben	-9.39735
▁günlük	-9.39859
▁imkan	-9.40019
▁belirlendi	-9.40032
▁beri	-9.40053
▁Haberler	-9.40085
▁saygı	-9.40092
mayacak	-9.40116
▁Kon	-9.40119
▁Obama	-9.4023
▁yazar	-9.40293
▁rapor	-9.40317
▁mensupları	-9.40364
▁Kendi	-9.40396
▁etkisiz	-9.40458
▁Şampiyon	-9.405
▁gerçekleştirile	-9.40528
▁Kaya	-9.40574
▁tatil	-9.40656
▁kuru	-9.40754
▁alınması	-9.4077
istan	-9.40805
▁teklif	-9.40828
leniyor	-9.40926
▁Şi	-9.40991
hat	-9.41069
▁kaldırıldı	-9.41082
▁ediyorum	-9.41172
▁altını	-9.41242
▁80	-9.41303
▁arta	-9.41352
Dİ	-9.41368
▁kalp	-9.41425
▁Yıl	-9.41492
LE	-9.41502
▁Kültür	-9.41561
▁hata	-9.41587
▁dost	-9.41632
▁rahatsız	-9.41635
▁gelin	-9.41829
▁Bal	-9.41924
rse	-9.42095
▁bilgiler	-9.42115
▁ameliyat	-9.42147
▁kulüp	-9.42148
▁durumunda	-9.42244
▁ilişkileri	-9.42272
▁Abd	-9.423
▁ortada	-9.42346
▁sanat	-9.42385
▁cihaz	-9.42425
▁yönetme	-9.42426
▁sın	-9.42587
▁Hüseyin	-9.42702
▁çatışma	-9.42865
▁Hasan	-9.42878
▁demek	-9.42898
▁indi	-9.42911
▁bölgesinde	-9.42975
▁asıl	-9.43042
▁zaten	-9.43125
▁beş	-9.43181
▁duru	-9.43258
▁Ata	-9.43259
general	-9.43262
▁Bursa	-9.43399
▁Çelik	-9.43413
▁kardeşi	-9.43424
▁çocukları	-9.43429
ütün	-9.43459
▁mahalle	-9.43461
▁Altın	-9.4349
▁kadınlar	-9.43501
üncü	-9.43528
▁ton	-9.43528
▁Hasta	-9.43539
▁Aile	-9.43547
▁yapıldığı	-9.43748
▁ders	-9.43764
▁açtı	-9.43918
▁MHP	-9.44245
▁Sokak	-9.44246
▁yapımı	-9.44293
ayet	-9.44324
▁dışarı	-9.44388
▁otel	-9.44523
▁aş	-9.44573
▁Bağ	-9.44608
▁şikayet	-9.4467
▁Kupası	-9.44724
▁merak	-9.44754
▁Eş	-9.44761
▁Söz	-9.44785
çu	-9.44861
oto	-9.44874
sh	-9.44976
▁lik	-9.44981
▁toprak	-9.4503
ilmiş	-9.45146
▁patlayıcı	-9.45243
ırken	-9.45261
▁isimler	-9.45298
▁ağrı	-9.45324
▁yarış	-9.45671
▁sanatçı	-9.45701
▁televizyon	-9.45812
▁tesis	-9.45847
▁Yol	-9.45992
EM	-9.46102
▁vatandaş	-9.4611
▁Geçen	-9.46161
Türkiye	-9.462
▁Jandarma	-9.46244
▁Bunu	-9.46412
▁Ze	-9.46484
▁LAR	-9.46599
▁saldırısı	-9.46648
▁petrol	-9.46677
▁dönüş	-9.467
▁gerekçesi	-9.46715
▁aşama	-9.46734
▁görüşmeler	-9.46837
▁çıkıyor	-9.46969
▁kapsam	-9.46988
▁lideri	-9.4708
▁halin	-9.47099
▁Emre	-9.47119
▁2015'	-9.47229
▁kü	-9.47247
▁halkı	-9.47252
▁katılma	-9.47276
▁Uzman	-9.47406
rah	-9.47443
▁Ala	-9.47493
▁borç	-9.47552
▁şeyi	-9.47643
▁Hollanda	-9.47843
▁çoğu	-9.47844
▁Peki	-9.47863
▁değişiklik	-9.47959
▁Sultan	-9.47991
▁yakalandı	-9.48094
▁alarak	-9.4812
ucu	-9.48256
▁lig	-9.48358
▁gözü	-9.48472
▁görevi	-9.4852
▁Yaş	-9.48547
▁Siz	-9.48565
▁direktör	-9.48589
▁Har	-9.48632
▁gü	-9.48645
▁mevcut	-9.48726
▁Uluslara	-9.48726
▁dağıt	-9.48815
▁idar	-9.48872
▁beklenti	-9.48878
▁gösteren	-9.48901
▁Kat	-9.49
▁şampiyon	-9.49127
▁lık	-9.49132
▁Hem	-9.49133
▁Önce	-9.4935
▁Per	-9.49391
tal	-9.49432
▁teşekkür	-9.49468
▁not	-9.49605
▁Pi	-9.49605
▁pozisyon	-9.49617
▁Yer	-9.49696
gün	-9.49736
▁yangın	-9.49772
▁sona	-9.49814
ksiyon	-9.49822
▁erken	-9.49895
▁UEFA	-9.49915
▁yalnız	-9.49916
▁yetkilileri	-9.49996
▁düşen	-9.49999
▁görü	-9.50026
▁detay	-9.50037
▁(2	-9.50122
▁BM	-9.50122
ydu	-9.50225
▁bıraktı	-9.50343
▁Gaziantep	-9.50348
▁topla	-9.50376
▁belirtile	-9.50467
▁yapmış	-9.50473
▁sanık	-9.50552
liğinde	-9.50648
▁örnek	-9.50667
▁gazete	-9.50686
▁ortalama	-9.50734
▁Or	-9.50757
▁yapılma	-9.50808
▁erkek	-9.50876
ME	-9.50886
gül	-9.51015
▁açıklamalar	-9.51063
▁şirketleri	-9.51072
▁insanların	-9.51104
▁diş	-9.51119
▁Mücadele	-9.51119
▁gönderdi	-9.5112
▁attığı	-9.51297
▁bilim	-9.51326
▁muhalif	-9.51423
▁yıllarda	-9.51428
▁Ru	-9.51433
▁topu	-9.51455
▁hain	-9.51536
▁taş	-9.51547
LI	-9.51571
▁sigorta	-9.51575
▁anlam	-9.51688
▁gücü	-9.51769
▁hazırlık	-9.51818
▁Ağustos	-9.51879
▁Savcı	-9.5188
▁pro	-9.5198
▁dolu	-9.5203
▁hastalığı	-9.52032
▁eleştiri	-9.52033
▁birinci	-9.52086
▁Yapılan	-9.52143
▁olumlu	-9.52338
▁Kuvvetleri	-9.5234
▁ilçesi	-9.52356
▁TV	-9.52419
▁mağdur	-9.52645
▁hal	-9.52665
▁plaka	-9.528
▁açıla	-9.52835
▁kırmızı	-9.52912
ydı	-9.52978
▁boy	-9.53052
î	-9.53107
▁trafik	-9.53107
▁oyunu	-9.53139
▁düşünce	-9.53144
▁belirlene	-9.53154
▁Kurumu	-9.53263
▁Milletvekili	-9.53265
▁üçüncü	-9.53287
▁heyecan	-9.53417
▁artı	-9.53433
▁anlaşıl	-9.53448
▁koydu	-9.5347
▁kendisin	-9.53475
▁çıktığı	-9.53476
▁müdür	-9.53484
▁ülkeler	-9.53501
▁ediyoruz	-9.53533
TE	-9.53548
▁yapmaya	-9.53663
Biz	-9.53749
▁Sonra	-9.53819
▁bölü	-9.5396
▁avukat	-9.53969
▁tutuk	-9.53994
▁içi	-9.54057
▁Sur	-9.54094
▁36	-9.54142
▁renk	-9.54147
▁Samsun	-9.54195
▁şeyler	-9.54287
▁liği	-9.54302
▁2013	-9.54351
▁dosya	-9.54357
▁olmuştu	-9.5441
▁hastalık	-9.54428
▁edeceği	-9.54502
▁ilaç	-9.54515
▁sınıf	-9.54541
▁kaydede	-9.54622
▁Havalimanı	-9.54664
▁zirve	-9.54664
▁yeme	-9.54667
▁cı	-9.54687
▁bölümü	-9.54702
▁hedefi	-9.54735
▁açıldı	-9.54797
▁aşağı	-9.5484
▁paylaştı	-9.54865
▁Çağ	-9.54905
▁gazeteci	-9.5495
▁evinde	-9.5496
▁yakınları	-9.54967
▁Osman	-9.54976
▁servis	-9.54978
▁indirim	-9.54986
▁çıkardı	-9.5499
▁salon	-9.54991
▁kullanıcı	-9.55002
▁Pazar	-9.55014
▁Hakan	-9.55331
▁vermek	-9.55434
▁hakları	-9.5544
▁uğr	-9.55491
syon	-9.55491
▁nizi	-9.55522
abil	-9.55636
▁temsil	-9.55764
▁34	-9.55801
▁Böyle	-9.55805
▁ürünleri	-9.55818
▁test	-9.55835
muştu	-9.55874
▁kaldığı	-9.55893
▁Doğan	-9.5593
▁uçağı	-9.56117
EK	-9.56127
▁devletin	-9.56146
▁kulübü	-9.56245
▁Bak	-9.565
▁İsmail	-9.56564
▁giri	-9.56601
▁örgütleri	-9.56652
biliyor	-9.56691
▁maaş	-9.56713
▁Şahin	-9.56728
▁Halk	-9.56802
LA	-9.56871
▁evde	-9.56947
▁baz	-9.57043
▁mutlak	-9.57045
▁varsa	-9.57059
▁kalite	-9.5706
▁civarında	-9.5709
▁Cumhuriyeti	-9.57174
SA	-9.57216
cilik	-9.57244
▁lığı	-9.57267
▁gidiyor	-9.57368
▁Başsavcılığı	-9.57388
▁öneri	-9.57419
▁New	-9.57472
DI	-9.5757
▁vatan	-9.5767
▁karşıya	-9.57693
▁algı	-9.577
▁verecek	-9.57724
EL	-9.57764
▁adres	-9.57853
▁vatandaşların	-9.57955
▁hoca	-9.58017
▁Zira	-9.58021
▁gemi	-9.58144
▁pas	-9.58168
▁üretimi	-9.58222
▁sır	-9.5823
▁sürede	-9.58272
▁Haziran	-9.58338
▁İkinci	-9.58363
▁olursa	-9.58385
▁art	-9.58399
▁uç	-9.58406
AP	-9.58451
▁Bazı	-9.58511
▁gördüğü	-9.58514
.30	-9.58523
▁gazetesi	-9.58651
▁arkasında	-9.58745
▁iptal	-9.58993
▁Baba	-9.58993
▁kamp	-9.59005
▁yasak	-9.59037
▁lerimiz	-9.59134
▁vatandaşı	-9.59144
▁yürütüle	-9.59155
▁alanında	-9.59185
▁Savaş	-9.59329
▁telefonu	-9.5936
▁çocukların	-9.59363
▁Film	-9.59377
ttin	-9.59437
▁asla	-9.59451
▁olacağını	-9.59461
▁İlçe	-9.59504
▁Gazete	-9.59592
▁32	-9.59606
▁gelişmeler	-9.59625
lardır	-9.59667
▁maliyet	-9.5969
▁Je	-9.59702
▁Tabi	-9.59732
▁dök	-9.59822
▁müzik	-9.59823
▁yaparak	-9.59908
▁sürüyor	-9.59923
▁ambulans	-9.59979
▁kurma	-9.60113
▁aracın	-9.60225
▁Dur	-9.60285
▁aslında	-9.60311
▁gönderi	-9.60338
ard	-9.60384
▁olabil	-9.60425
▁Sanat	-9.60539
▁atma	-9.60557
▁300	-9.60584
▁Kulübü	-9.60643
▁endişe	-9.60643
▁Bayram	-9.60649
şen	-9.60722
vo	-9.60753
▁küresel	-9.60842
hatta	-9.61012
▁kayıp	-9.6102
▁düşüş	-9.61023
▁huzur	-9.61144
▁Diğer	-9.61145
bar	-9.6119
▁istiyorum	-9.61253
▁gizli	-9.61312
lenmiş	-9.61391
lmaz	-9.61403
ort	-9.61431
▁rakip	-9.61484
tur	-9.61546
İZ	-9.61598
▁gelmiş	-9.61604
▁cenaze	-9.61611
▁eksik	-9.61672
▁Taş	-9.61682
▁tedavisi	-9.61706
▁kazanma	-9.61708
▁Cami	-9.61796
▁dinle	-9.61815
▁kanun	-9.61822
▁birbirin	-9.61882
▁kriz	-9.61972
▁halde	-9.61999
AB	-9.62033
▁LER	-9.62039
▁hayvan	-9.62071
İM	-9.62084
▁kaybeden	-9.62104
▁hattı	-9.62144
▁kaybı	-9.62157
▁sahası	-9.62221
▁sorunları	-9.62252
▁bulma	-9.62265
▁kendilerin	-9.62331
▁seri	-9.62341
▁arası	-9.62361
▁Eski	-9.6247
▁Komutanlığı	-9.62492
bilmek	-9.6251
▁unsur	-9.62662
▁taşıyan	-9.62691
▁kurtarı	-9.62714
▁bilgileri	-9.62789
▁Osmanlı	-9.62819
▁Twitter	-9.62831
▁oluşu	-9.62832
▁ri	-9.62833
▁sanayi	-9.62841
▁ruh	-9.62889
▁Güney	-9.62924
▁TBMM	-9.63002
▁çıkacak	-9.63003
▁karış	-9.63086
▁alım	-9.63103
▁Genelkurmay	-9.63172
▁problem	-9.63172
▁şehri	-9.63172
▁genelinde	-9.63213
▁katılan	-9.63233
pol	-9.63267
▁alt	-9.63285
▁Hükümet	-9.63343
▁park	-9.63349
▁Tıp	-9.63459
▁Fer	-9.63496
▁Darbe	-9.63516
▁gittiği	-9.63548
▁sorgu	-9.6361
▁Bank	-9.63635
▁Kuzey	-9.63687
▁Gökhan	-9.63709
▁sağlam	-9.63838
50	-9.63856
▁sığınmacı	-9.63858
▁adamı	-9.63944
▁muhabir	-9.6403
▁denge	-9.6407
mon	-9.64137
▁İyi	-9.64155
▁neler	-9.64199
▁gıda	-9.64211
▁sıkı	-9.64365
▁mah	-9.6438
▁Cuma	-9.64388
▁ölçü	-9.64446
▁paylaşım	-9.64463
▁Üst	-9.64487
▁bilecek	-9.64519
▁Benim	-9.64527
▁inşa	-9.64554
▁kaleci	-9.64555
▁sürücü	-9.64557
▁operasyonda	-9.64598
▁altı	-9.64721
yse	-9.64765
▁ticaret	-9.6478
▁hali	-9.64839
▁başkanlı	-9.6492
OR	-9.64921
▁çünkü	-9.64935
▁Ege	-9.64949
▁yeterli	-9.65071
▁hepsi	-9.65095
ow	-9.65112
▁önde	-9.65127
30	-9.65261
▁getirile	-9.65264
▁bildi	-9.65389
▁ihlal	-9.65419
▁Yunanistan	-9.65596
▁deplasman	-9.65768
▁zengin	-9.65768
gar	-9.65828
ttiği	-9.65848
▁kıl	-9.65943
▁çalıştığı	-9.66014
▁gr	-9.66093
▁müşteri	-9.66119
▁Saray	-9.66184
▁anlamın	-9.66202
▁YPG	-9.66295
▁kupa	-9.66295
▁kişilerin	-9.66333
▁Konya	-9.66379
düğü	-9.66604
▁kul	-9.66666
▁ifadesini	-9.66669
▁Kay	-9.66751
▁Av	-9.66797
▁istiyoruz	-9.66931
▁inşaat	-9.66963
▁yüzü	-9.66987
▁etmiş	-9.67037
▁görüldü	-9.67039
bilirsiniz	-9.67063
▁olmaya	-9.6708
▁çalışması	-9.67097
▁kalkı	-9.67224
▁uygulana	-9.67254
▁yasağı	-9.67317
▁meslek	-9.67359
▁Anne	-9.67376
▁Arena	-9.67391
fet	-9.6741
▁yönetici	-9.67486
Gündem	-9.67531
▁hafif	-9.67536
▁yoktur	-9.67555
▁sokaklar	-9.67716
▁farkı	-9.67718
▁sıralarında	-9.67782
▁bırakma	-9.67793
▁organ	-9.6781
▁alındığı	-9.67844
▁yavaş	-9.67895
▁turist	-9.67933
▁Adli	-9.68088
▁git	-9.68124
▁ulaşma	-9.68157
AM	-9.68175
▁getiri	-9.68274
▁bildiri	-9.68357
▁Göz	-9.68361
▁suçun	-9.68423
▁DE	-9.68464
▁Dün	-9.68517
▁geldiğini	-9.68586
▁kamuoyu	-9.68612
▁çerçevesinde	-9.68638
▁Yüz	-9.68655
▁­	-9.68721
▁giye	-9.68794
▁Adalet	-9.68796
▁yayınlana	-9.6881
▁duruşma	-9.68819
▁önümüzde	-9.68974
▁geçirdi	-9.69079
▁köprü	-9.69155
▁sayfa	-9.69156
▁etmişti	-9.69252
▁satın	-9.69286
▁medyada	-9.69333
▁Suudi	-9.69338
▁başladığı	-9.69341
▁Wi	-9.69383
▁şüphe	-9.69487
▁sonuçları	-9.6952
▁vurdu	-9.69524
kut	-9.69533
▁turizm	-9.69533
▁gül	-9.69584
▁geçire	-9.69593
▁oynama	-9.69597
▁Yapı	-9.69645
▁Operasyon	-9.697
▁Proje	-9.69701
nşallah	-9.69704
beyazlı	-9.6976
▁gözaltı	-9.69786
▁maçın	-9.70065
ester	-9.70091
diklerini	-9.70175
▁gösteriyor	-9.70176
▁yaşadı	-9.70177
layarak	-9.70247
▁ayrıldı	-9.70299
▁mesajı	-9.70316
▁faaliyetleri	-9.70414
▁Tar	-9.70424
▁gelmesi	-9.70559
▁hat	-9.706
▁çıkarma	-9.70752
▁gazeteciler	-9.70826
▁fon	-9.70836
▁geçirme	-9.70885
▁nızı	-9.70982
▁hücre	-9.70985
▁karakter	-9.70986
▁boyut	-9.71023
▁bütçe	-9.7117
▁dil	-9.71345
▁Volkan	-9.71355
▁üreti	-9.71356
▁dönme	-9.71358
▁ettikleri	-9.7143
▁görevli	-9.71529
▁yaşıyor	-9.71569
▁sonucunda	-9.71598
▁uygulaması	-9.71642
▁sınırı	-9.71678
▁Car	-9.71753
▁yatırımcı	-9.71837
▁bağış	-9.71918
▁tanım	-9.72053
yip	-9.72078
▁yapar	-9.72095
paşa	-9.7215
▁prim	-9.72156
▁yetki	-9.72174
▁yarışma	-9.72183
▁öğrencileri	-9.72228
▁edilecek	-9.72286
▁muhalefet	-9.72286
▁Yeşil	-9.72287
▁AKP	-9.72392
▁ederken	-9.72398
▁görüyor	-9.72456
▁dönemi	-9.7261
▁Savunma	-9.72661
▁kavga	-9.72661
▁güney	-9.72745
▁değerlendiril	-9.72777
▁doldu	-9.72785
▁Çocuk	-9.72891
▁redd	-9.72938
▁Mahkeme	-9.73044
▁sağlıklı	-9.73107
▁sahada	-9.73231
▁yerleşti	-9.73272
tiğimiz	-9.73283
▁Başbakanı	-9.73379
TÜ	-9.73401
▁Holding	-9.73415
▁öngör	-9.73415
▁video	-9.73415
▁almaya	-9.73473
▁Lu	-9.73476
▁olmuş	-9.73536
▁Hu	-9.73565
▁biçim	-9.73607
▁imha	-9.73698
▁bel	-9.73714
TI	-9.73725
▁gerçekleşe	-9.73796
▁personel	-9.73803
▁oynana	-9.73894
▁hesabı	-9.73902
▁tutuklu	-9.73921
▁öncesinde	-9.74038
▁siniz	-9.74119
▁düşman	-9.74172
▁rekor	-9.74185
▁olduklarını	-9.7427
▁Fo	-9.7428
NA	-9.74286
▁adliye	-9.74308
▁düşünüyor	-9.74319
vet	-9.74327
▁doğal	-9.74358
▁malzeme	-9.74367
▁öğrenciler	-9.7437
▁gelişi	-9.7438
▁katıldığı	-9.74414
▁saldırılar	-9.74416
▁Üç	-9.74471
▁vermeye	-9.74508
▁süreç	-9.74566
▁oluşturul	-9.74628
▁olmadı	-9.74643
▁yarar	-9.74683
▁kutla	-9.74702
▁gerektiği	-9.74724
▁Ağır	-9.74768
▁işin	-9.7491
▁Şirket	-9.7494
▁çarpı	-9.74941
▁sürdürdü	-9.74988
▁milletin	-9.7508
▁işte	-9.75098
▁oyuncuları	-9.751
▁Hayat	-9.7514
▁hatırla	-9.75158
▁aşırı	-9.75176
öğretim	-9.75326
▁gereği	-9.75332
▁75	-9.75342
▁kimlik	-9.7536
lent	-9.75437
ano	-9.75456
▁çekme	-9.75462
▁tık	-9.75527
▁vurguladı	-9.75538
▁Ordu	-9.75624
▁denildi	-9.75626
▁işletme	-9.75713
▁kurula	-9.7572
▁başlayacak	-9.75737
▁bulunduğunu	-9.75809
▁Çetin	-9.75908
▁kuruluşları	-9.75933
▁Uzun	-9.76103
▁yerini	-9.76169
imizin	-9.76183
▁sınız	-9.76199
▁%	-9.76209
▁buluştu	-9.76294
▁tahliye	-9.76294
▁ihbar	-9.76294
▁olmasını	-9.76431
▁sunuz	-9.76448
▁istediğini	-9.76448
▁göstere	-9.76453
▁Şırnak	-9.76489
▁Yıldız	-9.7649
▁bebek	-9.76493
▁yalan	-9.7668
▁eyalet	-9.76686
▁projesi	-9.76706
▁alıp	-9.7679
▁Ter	-9.76794
▁derbi	-9.76865
▁öldürü	-9.76882
▁seyr	-9.77033
▁batı	-9.7707
▁verilmesi	-9.77073
▁müsabaka	-9.77076
▁Okul	-9.77092
▁noktada	-9.77097
▁yaralanan	-9.7718
▁dönemin	-9.77188
▁meş	-9.77371
▁bulunu	-9.77427
▁bulutlu	-9.77469
▁rakibi	-9.7747
▁hakaret	-9.7747
▁strateji	-9.77667
▁Enerji	-9.77667
▁istikrar	-9.77667
▁iletişim	-9.77667
▁sokağ	-9.77677
▁dili	-9.777
▁Bilgi	-9.77766
▁hızla	-9.77779
▁eve	-9.77788
▁toplantısında	-9.77835
▁aşı	-9.77853
▁memnun	-9.77869
▁Arap	-9.77871
▁yaşamını	-9.77919
▁haberler	-9.78014
▁Tü	-9.78027
▁Kayseri	-9.78045
PDY	-9.78065
lanmıştı	-9.78111
▁Kul	-9.78153
sınız	-9.78174
▁adını	-9.78271
▁olmalı	-9.7843
▁Musul	-9.78461
▁yaşandı	-9.78536
▁temas	-9.78545
▁nüfus	-9.78659
Bahçe	-9.78664
▁takı	-9.78746
▁cinayet	-9.78859
▁düşünüyorum	-9.78925
▁gönderildi	-9.78956
▁tamamı	-9.79067
▁bek	-9.79108
▁Arda	-9.79109
▁insanları	-9.79204
▁33	-9.79257
▁vazgeç	-9.79259
▁görüştü	-9.79372
▁skor	-9.79473
▁siyah	-9.79474
▁Böylece	-9.79615
▁Roma	-9.79627
IR	-9.79719
▁Direktörü	-9.79739
▁kaçak	-9.79884
köy	-9.80028
▁verilme	-9.80045
▁paket	-9.80066
▁değeri	-9.80092
▁Sinan	-9.80115
▁olayları	-9.80151
▁istihdam	-9.80267
▁Putin	-9.80268
▁alınma	-9.80297
▁Asya	-9.80309
▁eğ	-9.8041
▁acil	-9.80498
▁olabileceği	-9.80501
▁Gök	-9.80708
ud	-9.8073
▁söyleme	-9.80745
▁kullanılma	-9.80776
▁oluştu	-9.80866
▁Arabistan	-9.80877
▁yurtdışı	-9.80877
▁zorlu	-9.80896
▁dönüştü	-9.80899
▁Günü	-9.80956
▁herkesi	-9.80978
▁açma	-9.81016
▁belki	-9.81157
▁yaptığını	-9.8118
▁anlamda	-9.81211
▁tazminat	-9.81285
▁çalışa	-9.8129
▁Sanayi	-9.81291
▁hazırlana	-9.8145
▁Komisyonu	-9.81464
▁Büyükelçi	-9.8149
▁anlatı	-9.81503
▁Aziz	-9.81508
▁dura	-9.81535
▁sağlığı	-9.81626
▁süt	-9.81632
laştırma	-9.81773
▁düşündü	-9.81788
▁kuruş	-9.81823
▁planı	-9.81882
▁tecrübe	-9.81901
▁Asker	-9.81908
▁uyum	-9.8196
▁göçmen	-9.82123
▁ifadeleri	-9.82139
▁cep	-9.82154
▁onay	-9.82168
`	-9.82211
şar	-9.82235
▁karıştı	-9.82266
▁çarptı	-9.82314
▁Sabah	-9.82321
▁toplantısı	-9.82403
diğimiz	-9.82498
▁koya	-9.8255
▁ölümü	-9.82651
▁nöbet	-9.82729
▁saç	-9.82736
▁tutma	-9.82803
▁alacağı	-9.82846
▁sinema	-9.82856
▁gidere	-9.82899
▁çıkarıldı	-9.82989
uyor	-9.83006
▁beyaz	-9.83083
▁Apple	-9.83145
▁2012	-9.83145
▁saldırıda	-9.83285
▁lardı	-9.8332
▁altyapı	-9.83353
▁kapasite	-9.83356
▁Turan	-9.83371
▁oyuncusu	-9.83508
▁zanlı	-9.83566
sever	-9.83631
▁anlama	-9.83658
▁çıkması	-9.83716
▁Başakşehir	-9.83772
▁seyahat	-9.83773
▁2011	-9.83773
▁doğa	-9.83807
▁Belçika	-9.83982
▁Mersin	-9.83983
▁Paris	-9.83986
▁lerimizi	-9.83995
▁kurumları	-9.84011
▁65	-9.8408
▁Orman	-9.84082
UN	-9.8415
▁Trabzon	-9.84175
▁Selçuk	-9.84193
▁kahraman	-9.84193
▁gecesi	-9.84193
▁Grup	-9.84196
▁oldukları	-9.84201
▁Cumhurbaşkan	-9.84292
▁taşıma	-9.84365
▁larımızı	-9.84489
▁süreçte	-9.8449
▁adli	-9.84493
▁maz	-9.84501
▁bildiği	-9.84519
▁peşin	-9.84617
▁değişim	-9.84662
▁Beyaz	-9.84668
▁liraya	-9.84684
▁taksi	-9.84725
▁iPhone	-9.84827
▁vermesi	-9.8491
▁devr	-9.84921
▁itibarı	-9.84947
▁fotoğrafı	-9.8503
▁edeceğiz	-9.85045
-3	-9.85053
▁hac	-9.85108
▁rejimi	-9.85284
Tİ	-9.85326
süz	-9.85374
▁oynadığı	-9.85403
▁atıla	-9.85453
▁Dolayısıyla	-9.85465
▁şeker	-9.85466
▁açıklandı	-9.85526
leşmiş	-9.85596
▁yapması	-9.85668
▁sayısını	-9.857
▁istihbarat	-9.85721
▁Kızıl	-9.85756
▁sürdüre	-9.8576
▁aklı	-9.85766
fo	-9.85785
▁ertele	-9.8581
▁sahte	-9.85898
▁umut	-9.85932
▁maddesi	-9.85948
▁bölümünde	-9.85962
▁Ant	-9.86012
▁Sür	-9.86066
▁güncelleme	-9.86124
X	-9.86323
▁sağlamak	-9.86426
▁For	-9.86502
▁Ortadoğu	-9.86538
▁geçirildi	-9.86539
▁aktar	-9.86546
▁çözü	-9.86573
▁Kad	-9.86614
▁payı	-9.86615
▁özgü	-9.86713
▁Ukrayna	-9.86754
▁Karşı	-9.8682
▁sayılı	-9.8683
▁alması	-9.86857
doğan	-9.86902
▁yükseldi	-9.86931
▁gerçekleştirdi	-9.86962
▁deneyim	-9.86972
▁ez	-9.86981
tıcı	-9.87042
▁iade	-9.87054
▁Dev	-9.87058
▁memur	-9.8706
▁ayrılma	-9.87066
▁bahçe	-9.87188
▁edip	-9.87199
▁duyurdu	-9.87258
▁kararını	-9.87385
▁anlayış	-9.87405
▁hala	-9.8742
▁akıllı	-9.87461
▁doğrultu	-9.87624
▁milletvekili	-9.87847
▁kapalı	-9.87851
▁başlıyor	-9.87885
▁suçlama	-9.87994
▁yapılıyor	-9.88007
▁albüm	-9.88061
izm	-9.88147
▁Madrid	-9.88279
▁bağımsız	-9.8828
▁tuttu	-9.8828
▁uçuş	-9.88282
▁araçlar	-9.88298
▁Takımı	-9.88385
▁kuzey	-9.88391
▁merkezinde	-9.88433
▁Albayrak	-9.88499
▁takdir	-9.88511
▁kendilerini	-9.88588
▁şansı	-9.88591
▁futbolcular	-9.88596
▁yüzünde	-9.88632
leyici	-9.88736
▁toplu	-9.88747
▁raporu	-9.88797
Bir	-9.88842
▁özelliği	-9.88846
▁koyu	-9.8889
▁zam	-9.8892
▁Afrika	-9.8894
15	-9.89061
▁golü	-9.89066
▁tamamladı	-9.89127
▁namazı	-9.89168
▁beğen	-9.89169
▁tablo	-9.89384
uncu	-9.89435
▁performansı	-9.8944
▁kimi	-9.89441
▁şahs	-9.89479
▁Komutanı	-9.89605
▁konser	-9.89614
▁gerçekleştiril	-9.89635
▁örgütünü	-9.89643
▁Denizli	-9.89736
▁dalga	-9.89841
muyor	-9.8997
▁37	-9.89998
▁girdiği	-9.90029
▁Tam	-9.90036
▁göç	-9.90083
▁bahs	-9.90128
▁durma	-9.90213
▁kentinde	-9.90228
▁teşvik	-9.90275
▁kaybetme	-9.90278
▁motor	-9.90314
▁Artı	-9.90324
▁çıkmış	-9.90338
▁aşk	-9.90342
▁arkadaş	-9.90497
▁Öztürk	-9.905
▁Herkes	-9.90503
▁sö	-9.90516
▁Tarih	-9.90554
▁komuta	-9.90724
▁istifa	-9.90725
▁55	-9.90812
▁Uğur	-9.90951
▁Abdullah	-9.90954
altı	-9.90981
▁Köy	-9.91023
▁devri	-9.91106
seniz	-9.91107
▁ihale	-9.91178
▁yiz	-9.91362
▁vuru	-9.91521
▁biline	-9.91602
▁Azerbaycan	-9.91628
▁intihar	-9.91628
▁cenazesi	-9.91677
▁Binal	-9.91708
▁araba	-9.91986
▁öğle	-9.92084
▁hayır	-9.92089
▁alış	-9.92129
▁hatırlata	-9.92139
▁beklenen	-9.92155
▁şok	-9.9217
▁başkenti	-9.92198
eysel	-9.92374
▁Nec	-9.92424
▁tüketici	-9.9254
▁uyu	-9.92642
▁çağı	-9.92649
▁üretici	-9.92673
landırma	-9.92719
▁Fransız	-9.9277
▁2010	-9.9277
▁meyve	-9.9277
▁götürüldü	-9.92783
▁balık	-9.92859
▁Vakfı	-9.92999
+	-9.92999
▁dönüşüm	-9.93005
▁edilir	-9.93007
▁verdiğini	-9.93131
▁esas	-9.93139
▁olacaktır	-9.9321
▁İddia	-9.9323
▁Fırat	-9.93231
▁Karadeniz	-9.93231
▁deprem	-9.93234
▁Bahçeli	-9.93236
▁ticar	-9.93267
▁Ulu	-9.93334
▁Açık	-9.93335
yolu	-9.93416
▁Moskova	-9.93461
▁Turizm	-9.93471
▁Salih	-9.93479
▁gördük	-9.93495
▁38	-9.93618
▁suyu	-9.93643
▁Demokrat	-9.93692
▁irade	-9.93707
▁oyuncular	-9.93717
▁gerçekte	-9.93767
▁Federasyonu	-9.93924
▁bilgisayar	-9.93924
▁Kamu	-9.9393
▁görüşü	-9.93946
▁gide	-9.93973
▁gerçekleştire	-9.93992
▁kanal	-9.94136
▁trafiğ	-9.94157
▁başlatıla	-9.94157
▁bırakıldı	-9.94172
▁davası	-9.9418
▁güneş	-9.94205
▁köyü	-9.94215
▁bilirsiniz	-9.94315
▁47	-9.94315
▁kaynağı	-9.94402
▁düzenlediği	-9.94529
▁Koca	-9.94533
▁güvenli	-9.94623
▁yetişti	-9.94626
▁Ünlü	-9.94629
▁yaparken	-9.94682
layıp	-9.94798
▁sürpriz	-9.94858
▁tarafı	-9.94908
layacak	-9.94922
kritik	-9.94949
kırmızılı	-9.94968
▁TSK	-9.95094
▁Mardin	-9.95105
▁Bursaspor	-9.95122
▁Onun	-9.95248
▁Ramazan	-9.95328
▁helikopter	-9.95328
▁gösterdiği	-9.95491
▁olağan	-9.95564
▁Ticaret	-9.95564
▁protesto	-9.95564
▁Var	-9.95576
▁kullanımı	-9.95724
▁Facebook	-9.958
▁Vatandaş	-9.95801
▁tasarım	-9.95833
▁Medi	-9.95839
▁bedeli	-9.95895
▁makam	-9.95926
▁Maç	-9.96199
▁Yusuf	-9.96275
▁itiraz	-9.96275
▁İpek	-9.96275
▁Dündar	-9.96279
▁hasar	-9.96292
▁cezaevin	-9.96311
▁sitesinde	-9.96381
▁makine	-9.96449
▁avantaj	-9.96513
▁enflasyon	-9.96513
▁milletvekilleri	-9.96513
▁kamyon	-9.96514
▁etkinlik	-9.96549
hir	-9.96584
▁kaynakları	-9.9664
▁etmeyi	-9.9667
▁performans	-9.9669
▁komşu	-9.96751
▁harekat	-9.96752
▁aldığını	-9.96784
▁geçici	-9.96787
J	-9.96844
▁ihtimali	-9.96851
▁alışveriş	-9.96991
▁denetim	-9.96992
▁mesele	-9.97052
▁kaybettiği	-9.97134
▁yetkililer	-9.97155
▁Mil	-9.97172
▁York	-9.97249
▁adayı	-9.97412
▁bıçak	-9.97471
▁Özgür	-9.97471
▁olası	-9.97493
▁yız	-9.97497
▁savaşı	-9.97543
çişleri	-9.97644
▁39	-9.97807
▁heyeti	-9.97938
▁aykırı	-9.97953
▁400	-9.97975
▁kenar	-9.98002
▁yaşandığı	-9.98027
▁kış	-9.98059
▁zayıf	-9.98195
&	-9.98195
▁Konseyi	-9.98196
▁götürü	-9.98236
▁iddiası	-9.98241
▁memuru	-9.98343
IM	-9.98451
▁beslenme	-9.98459
▁değerli	-9.98501
▁artırma	-9.9852
▁jandarma	-9.98681
▁Japon	-9.98683
▁gönül	-9.98685
OS	-9.98718
▁kaybed	-9.98776
▁oturu	-9.98816
AH	-9.98819
▁48	-9.98832
▁taraftarı	-9.98832
▁tüketim	-9.98925
▁düzenlendi	-9.98927
rılması	-9.99108
▁Küçük	-9.9917
▁diploma	-9.9917
lacivertli	-9.9917
▁Arslan	-9.99171
▁Akdeniz	-9.99417
▁fikir	-9.99423
▁fizik	-9.99433
▁tabi	-9.99503
▁İspanya	-9.99661
▁Açıklamada	-9.99661
▁euro	-9.99665
▁temin	-9.99727
▁hesabında	-9.99767
▁Bilim	-9.99904
▁Süleyman	-9.99907
▁Sistem	-9.99908
ÜN	-9.99939
▁öldürüldü	-9.99946
▁46	-10.0006
LU	-10.0026
▁demir	-10.0028
▁Barcelona	-10.004
▁alır	-10.0051
▁riski	-10.0058
▁satışı	-10.0059
▁şirketler	-10.0059
▁çeyrek	-10.0065
▁duyduğu	-10.0065
▁Kartal	-10.0068
▁atış	-10.0071
▁arazi	-10.0077
▁Emin	-10.008
meyeceği	-10.0087
▁kimliği	-10.0088
▁mensubu	-10.009
▁mesafe	-10.009
▁soğuk	-10.009
▁yeşil	-10.009
▁Tuğ	-10.0091
▁Hatta	-10.0092
▁modeli	-10.0095
▁hastanede	-10.0099
▁delil	-10.0105
alıcı	-10.011
▁kaçtı	-10.0116
▁yapılmış	-10.013
▁Teknoloji	-10.014
▁uçakları	-10.014
▁The	-10.014
▁kurban	-10.0142
▁ülkelerde	-10.0148
YE	-10.0155
▁personeli	-10.0164
▁Yaklaşı	-10.0165
▁Kilis	-10.0165
AZ	-10.0168
▁şans	-10.0181
▁yetkili	-10.0187
▁pilot	-10.019
▁Daire	-10.0191
şem	-10.0203
▁görevlileri	-10.0212
▁Brezilya	-10.0215
▁fabrika	-10.0215
▁çizgi	-10.0215
▁aktara	-10.0216
▁iddianame	-10.0217
▁oranında	-10.0217
▁Dön	-10.0227
▁köşe	-10.024
▁ajan	-10.0243
▁Erdem	-10.0243
▁uğraş	-10.0247
▁açtığı	-10.0247
▁kök	-10.0249
▁istemi	-10.0257
▁09	-10.0257
▁cevabı	-10.0266
▁tabii	-10.0268
▁antrenman	-10.0291
▁akıl	-10.0305
▁aktardı	-10.031
▁şahıs	-10.0317
▁Cizre	-10.0317
âlâ	-10.0317
▁hedefleri	-10.0323
▁liradan	-10.0331
▁aralık	-10.0334
▁yakalama	-10.0334
nızı	-10.0336
▁çatışmalar	-10.034
▁vitamin	-10.0342
▁yönetiminde	-10.0342
▁karşılaştı	-10.0343
▁Yurt	-10.0343
▁Kısa	-10.0344
▁pazarı	-10.0349
▁ayağı	-10.035
anak	-10.0352
▁yedi	-10.0357
▁sağlana	-10.0361
▁özgürlüğü	-10.0368
▁borcu	-10.0368
▁ortamı	-10.0372
▁törenin	-10.0374
▁çalışmalarını	-10.0375
▁Metin	-10.0375
W	-10.0388
▁komisyon	-10.0393
▁kaldırılması	-10.0397
▁Park	-10.0399
▁düşünme	-10.04
▁Brüksel	-10.0419
▁Çavuşoğlu	-10.0421
▁açığ	-10.0421
▁Eskişehir	-10.0421
▁almış	-10.0423
▁atıldı	-10.0425
▁bitti	-10.044
▁vereceği	-10.0441
▁Londra	-10.0445
şim	-10.0445
▁44	-10.0445
▁Töre	-10.0446
▁nerede	-10.0456
▁sordu	-10.0456
▁çağrısı	-10.0463
▁mobil	-10.0471
▁ateşkes	-10.0471
ülüyor	-10.0474
▁tarım	-10.0475
▁Kral	-10.0475
▁düşüne	-10.0496
▁Clinton	-10.0496
▁cesedi	-10.0497
▁Sivas	-10.0497
▁bekleme	-10.0498
▁sözlerini	-10.0506
▁artması	-10.0511
▁milletimiz	-10.0513
▁buray	-10.0516
▁davranış	-10.0522
▁Toplantı	-10.0522
▁Marmara	-10.0523
▁taraftarları	-10.0529
▁aracılığı	-10.0536
▁araçların	-10.054
▁NATO	-10.0549
▁rahmet	-10.0549
▁Takım	-10.0563
▁oluştura	-10.0569
▁kaldırıla	-10.057
▁başlık	-10.0575
▁zemin	-10.0576
▁saniye	-10.0576
▁kaldırı	-10.0577
▁Edin	-10.0583
▁dizisi	-10.0598
▁müzakere	-10.0601
▁tribün	-10.0601
▁çekiyor	-10.0602
▁kuruluşu	-10.0602
▁organizasyon	-10.0603
▁vize	-10.0604
▁sağlayacak	-10.0617
esef	-10.0618
▁Fakültesi	-10.0627
▁adalet	-10.0627
▁196	-10.0633
▁Aşk	-10.0641
FETÖ	-10.0651
▁düzenledi	-10.0652
▁itfaiye	-10.0653
▁150	-10.066
▁ligde	-10.0663
▁geliştiril	-10.0664
▁sözü	-10.0666
▁düğün	-10.067
▁Saldırı	-10.068
▁Merkel	-10.068
▁ışık	-10.0681
▁talimatı	-10.0686
▁okuma	-10.0686
▁getirdiği	-10.0692
▁Çalışma	-10.0706
▁reklam	-10.0706
▁kurtarma	-10.0706
▁haberin	-10.0713
▁oynadı	-10.0714
▁Mari	-10.072
fakat	-10.0724
▁Şimşek	-10.0733
▁zorunlu	-10.0733
▁Silahlı	-10.0759
▁uyku	-10.0759
▁ilginç	-10.076
▁uyar	-10.0778
▁birimleri	-10.0782
▁memleket	-10.0786
▁Esad	-10.0791
▁belirledi	-10.0801
▁sinir	-10.0803
▁parçası	-10.0811
▁başlamış	-10.0812
▁gurur	-10.0813
▁Aslan	-10.0813
▁değerlendire	-10.0813
▁temsilcileri	-10.0813
▁çök	-10.0814
▁Kız	-10.0828
▁görüntüleri	-10.0833
▁şifre	-10.0839
▁ihraç	-10.084
▁Kongre	-10.084
▁cemaat	-10.084
▁bebeği	-10.084
▁bakma	-10.085
▁kalem	-10.086
▁Vodafone	-10.0866
▁mezun	-10.0877
▁biliyoruz	-10.0889
▁Portekiz	-10.0893
▁hediye	-10.0893
▁Yavuz	-10.0893
▁fuar	-10.0894
▁Ardında	-10.0895
▁verilecek	-10.0906
▁rejim	-10.0916
▁şaşır	-10.092
▁endeksi	-10.0921
▁başkanlığı	-10.0922
▁gelişti	-10.0931
▁adımlar	-10.0933
▁Ciha	-10.0936
▁teklifi	-10.0937
▁Yazı	-10.0945
▁harcama	-10.0948
▁geçirdiği	-10.0951
▁alınarak	-10.0964
bank	-10.0972
▁oluşturma	-10.0972
▁kartı	-10.0973
▁lise	-10.0974
▁demokratik	-10.0976
▁sorunlar	-10.0977
İH	-10.0979
▁Barış	-10.0983
▁yapılabil	-10.0993
▁piş	-10.0993
▁sürecinde	-10.0995
ovic	-10.0999
▁başlatıldı	-10.1002
▁Persie	-10.1003
▁duvar	-10.1003
▁yolunda	-10.1014
▁tavsiye	-10.1029
▁sigara	-10.1029
▁yağışı	-10.103
▁çatı	-10.1034
▁konumu	-10.1044
▁43	-10.105
▁Bunları	-10.1053
▁açıklamasında	-10.1053
▁kitabı	-10.1057
▁hoş	-10.1057
alkınma	-10.106
▁Orhan	-10.1062
▁tren	-10.1083
▁nefes	-10.1085
▁izleme	-10.1096
▁haftasında	-10.1111
▁seyirci	-10.1112
▁Stadı	-10.1113
▁isimlerin	-10.1116
▁aktif	-10.1119
▁ordusu	-10.112
▁Washington	-10.1139
▁istismar	-10.1139
▁yürüyüş	-10.1139
▁yayıl	-10.1141
▁girişimini	-10.1146
▁aydın	-10.1146
▁sağladı	-10.1147
▁Ayşe	-10.116
▁vücut	-10.1167
▁mağlu	-10.1167
▁kalması	-10.1173
▁Beş	-10.118
▁stat	-10.1186
▁tutuklana	-10.1188
▁meselesi	-10.1189
▁yaygın	-10.1195
▁Hukuk	-10.1195
▁kahve	-10.1195
▁Manisa	-10.1195
▁Belediyespor	-10.12
▁yöneticileri	-10.1203
▁gram	-10.1204
▁artışı	-10.121
▁değişikliği	-10.122
▁Çanakkale	-10.1223
▁Alına	-10.1233
▁TIR	-10.1237
▁istemiyor	-10.1241
▁vuruş	-10.1243
▁Muhammed	-10.1251
▁saldırgan	-10.1251
▁kenti	-10.127
neredeyse	-10.1276
▁temsilcisi	-10.1279
▁farkında	-10.1288
▁düşürü	-10.1292
▁Pereira	-10.1307
▁Mısır	-10.1307
▁Konyaspor	-10.1309
▁kanalı	-10.1328
▁noktası	-10.1337
▁hiss	-10.1342
▁görevlisi	-10.1348
▁izleye	-10.1351
▁kalbi	-10.1362
▁metrekare	-10.1363
▁Güzel	-10.1363
▁esnaf	-10.1363
▁Berlin	-10.1366
▁yakında	-10.1368
▁kılı	-10.1372
ÜR	-10.1384
▁2008	-10.139
stsubay	-10.1391
▁yağmur	-10.1392
▁kaçma	-10.1392
▁aşkın	-10.1396
▁hepimiz	-10.141
▁döviz	-10.142
Paralel	-10.142
▁olduğumuz	-10.1444
▁virüs	-10.1448
▁bayrak	-10.1449
▁Pro	-10.1458
▁Türkmen	-10.1459
▁bağı	-10.1465
▁kanıt	-10.1466
▁şartları	-10.1475
▁hayran	-10.1477
▁başlama	-10.148
▁öldürdü	-10.1487
▁kullanarak	-10.1493
▁çevresinde	-10.1497
▁form	-10.1499
▁Kanunu	-10.1501
▁eğer	-10.1504
▁geçerli	-10.1506
▁üzeri	-10.1509
▁Yayın	-10.1511
▁kontrolünde	-10.1512
▁çıkarıla	-10.1514
▁600	-10.1539
▁kıyı	-10.1539
▁bileceğini	-10.1554
▁uzaklaştı	-10.1557
▁hikaye	-10.1563
▁slogan	-10.1563
▁Işık	-10.1563
▁sporcu	-10.1574
▁içere	-10.1581
▁Kav	-10.1584
▁militan	-10.1593
▁Gece	-10.1599
▁koyma	-10.1601
▁Kanun	-10.162
▁alternatif	-10.1621
▁Kılıç	-10.1621
▁penaltı	-10.1621
▁yakalana	-10.1635
▁Valiliği	-10.1643
ulmuş	-10.1646
▁sohbet	-10.165
▁1-0	-10.165
▁kavu	-10.1651
▁kırıl	-10.1668
▁isabet	-10.1679
▁toprağa	-10.1679
▁binası	-10.1681
▁yükseliş	-10.1694
▁almıştı	-10.1701
▁bayrağı	-10.1708
▁husus	-10.1709
▁kına	-10.1709
▁John	-10.1709
▁oynanacak	-10.1719
▁Çocuklar	-10.1731
▁mekan	-10.1736
*	-10.1738
▁Serdar	-10.1739
▁başardı	-10.1746
▁pay	-10.1749
▁rast	-10.1751
▁asist	-10.176
▁besin	-10.1765
▁Akhisar	-10.1767
▁uyuşturucu	-10.1767
▁koalisyon	-10.1767
▁baktı	-10.1768
leyerek	-10.1768
▁Ermeni	-10.1769
GE	-10.1771
▁tabanca	-10.1778
▁mezar	-10.1783
▁rekabet	-10.1797
▁teşkil	-10.1797
▁hastalıkları	-10.1804
yakıt	-10.1815
▁Yatırım	-10.1826
▁imkân	-10.1826
▁değiştirme	-10.1831
▁kazı	-10.1844
▁Gazi	-10.1848
▁netice	-10.1857
▁görülme	-10.1858
LAN	-10.1859
▁Oyun	-10.1876
▁kaldırma	-10.1883
▁Tut	-10.1884
▁şoför	-10.1886
▁maruz	-10.1887
▁geçirile	-10.1888
▁damar	-10.1892
▁alınacak	-10.1906
▁düz	-10.1907
▁madd	-10.1908
▁kaydı	-10.191
▁Şanlıurfa	-10.1917
NE	-10.1917
▁beraberlik	-10.1919
▁paralel	-10.1919
▁Onur	-10.192
▁bekleyen	-10.192
▁olmayacak	-10.1927
▁kurdu	-10.1933
▁yaşadıkları	-10.1957
▁verici	-10.1959
▁Türkçe	-10.1961
▁doğalgaz	-10.1976
▁Çevre	-10.1976
▁MİT	-10.1976
▁Özbek	-10.1976
▁unutma	-10.199
▁toplana	-10.199
▁Çek	-10.1999
▁olurken	-10.2001
Q	-10.2006
▁itiraf	-10.2006
▁bayram	-10.2006
▁Köprüsü	-10.2007
▁4.5	-10.201
malıdır	-10.201
▁avukatı	-10.2019
tomotiv	-10.2036
lenecek	-10.2045
▁Erzurum	-10.2066
▁Örneğin	-10.2066
▁sermaye	-10.2066
▁Hakim	-10.2077
▁sorumluluk	-10.208
▁kesinlik	-10.2082
▁Google	-10.2097
▁şekil	-10.2106
▁yuvarla	-10.2127
▁verilerin	-10.2153
▁Filistin	-10.2158
▁kıyafet	-10.2158
▁meclis	-10.2158
▁CEO	-10.2158
▁Erke	-10.2162
▁birbirleri	-10.2171
▁250	-10.2175
▁beyan	-10.2181
▁Cumartesi	-10.2188
▁kariyeri	-10.2188
▁Oysa	-10.2189
▁sektöründe	-10.2191
▁geçiyor	-10.2192
▁oturan	-10.2193
▁fatura	-10.2219
▁Manch	-10.222
▁Orada	-10.2221
▁şef	-10.2224
▁besle	-10.2226
▁artıra	-10.223
▁Kent	-10.2242
▁Zor	-10.2248
landırılma	-10.2251
▁belirtiliyor	-10.2255
▁Suçlar	-10.2257
▁istedikleri	-10.2264
▁askerlerin	-10.2274
burg	-10.2276
▁Çarşamba	-10.2312
▁gönderme	-10.2312
▁vicdan	-10.2312
▁görülüyor	-10.2312
▁Oyuncu	-10.2315
▁gelip	-10.232
▁yoktu	-10.2323
▁yitirdi	-10.2329
▁düzenleye	-10.2341
▁havalimanı	-10.2343
▁Şehir	-10.2343
▁Kab	-10.2344
▁Hoca	-10.2347
▁yaşanma	-10.2348
▁Tolga	-10.2374
▁olmaması	-10.2376
▁hatır	-10.2377
▁işgal	-10.2381
▁kayd	-10.2383
▁Perşembe	-10.2406
▁ölen	-10.2415
▁gezi	-10.2419
▁görüyoruz	-10.2422
▁engelleme	-10.2423
▁karşılığın	-10.2425
▁yapılır	-10.2428
▁sağlıyor	-10.2435
▁dijital	-10.2437
▁psikoloji	-10.2437
▁İnşaat	-10.2437
▁gidip	-10.2437
▁yapabilir	-10.2437
▁açıklana	-10.2439
▁gidecek	-10.2442
▁vura	-10.2442
▁Kurul	-10.2462
▁açılışı	-10.2468
▁Festival	-10.2469
▁yukarı	-10.2469
▁örneği	-10.2469
▁kaçan	-10.2475
▁Tarım	-10.2477
▁öldürme	-10.2477
▁bulunması	-10.2478
▁08	-10.2482
▁Avcı	-10.2484
▁noktasında	-10.2498
▁kongre	-10.25
▁anlatma	-10.2501
▁hamile	-10.2501
▁Kaynak	-10.2501
▁açılması	-10.2513
landırdı	-10.2514
▁talimat	-10.2525
▁teşebbüs	-10.2532
▁kelime	-10.2532
▁sonun	-10.2538
▁vererek	-10.2538
CE	-10.256
▁Kıbrıs	-10.2564
▁duyma	-10.2583
▁Güven	-10.2583
▁ordu	-10.2589
▁Kadıköy	-10.2596
▁tartışı	-10.2596
▁uğur	-10.2596
▁xx	-10.2596
▁Çift	-10.2597
▁geliştirme	-10.2599
▁tutuklama	-10.261
▁vücudun	-10.2615
lenir	-10.2622
▁Program	-10.2628
▁hekim	-10.2628
▁ortasında	-10.2654
▁emin	-10.2657
▁Selim	-10.2661
▁bakış	-10.2679
lduğunu	-10.2681
▁hırsız	-10.2692
▁Yargıtay	-10.2692
▁Hakem	-10.2693
▁Hafta	-10.2693
▁İnan	-10.2696
▁Demirtaş	-10.2697
leşik	-10.2709
▁edebilir	-10.272
TV	-10.2722
▁gayret	-10.2725
▁Gümüş	-10.2725
▁Rapor	-10.2726
▁Fuar	-10.2726
▁kutu	-10.2727
▁kurşun	-10.2728
tuğ	-10.2739
▁kere	-10.2741
▁1.5	-10.2752
2016	-10.2753
Dünya	-10.2753
▁cumhurbaşkan	-10.2757
▁tiyatro	-10.2757
▁propaganda	-10.2757
▁görevini	-10.2778
▁Gol	-10.2779
▁Kerim	-10.279
▁2009	-10.2793
▁ekledi	-10.2793
▁Ünal	-10.2795
▁Usta	-10.281
▁Dursun	-10.2826
▁basit	-10.2836
▁geçmesi	-10.2841
▁Hürriyet	-10.2855
▁Çakır	-10.2855
▁yayımlana	-10.2855
▁THY	-10.2855
▁reform	-10.2855
▁City	-10.2855
▁Niha	-10.2856
▁icra	-10.2858
▁ürete	-10.2858
▁Aslın	-10.2867
▁Zat	-10.287
▁Bab	-10.2872
▁Şeno	-10.2877
▁İsveç	-10.2888
▁giydi	-10.289
▁anlatıyor	-10.2891
▁haksız	-10.2903
▁usta	-10.2904
▁sağlanması	-10.2907
▁Mahmut	-10.2921
▁Soruşturma	-10.2921
▁potansiyel	-10.2921
▁açılış	-10.2922
▁yapıyoruz	-10.2943
▁evlilik	-10.2955
▁yakaladı	-10.2966
▁erkekler	-10.2975
▁gözlem	-10.2977
▁gelenek	-10.2983
▁şiş	-10.2986
aruk	-10.2986
▁taciz	-10.2989
▁yüzyıl	-10.2991
▁kitle	-10.2996
▁misafir	-10.3021
▁Dış	-10.3027
û	-10.3054
▁Umut	-10.3054
▁kullanıyor	-10.306
▁vermiş	-10.3065
▁kalmış	-10.3066
▁kalıyor	-10.3072
▁zafer	-10.3088
▁ağaç	-10.3088
▁roman	-10.309
▁sürecini	-10.3097
▁araştır	-10.31
▁biliriz	-10.3103
▁standart	-10.3121
▁Zirve	-10.3121
▁sorgulama	-10.3137
▁maçını	-10.3144
▁Terim	-10.317
▁sessiz	-10.3172
▁düzenlenecek	-10.3173
▁Kendisi	-10.3183
▁mağaza	-10.3189
▁Üyesi	-10.319
▁değine	-10.3198
▁verilmiş	-10.3204
▁tamamlandı	-10.3209
▁hikâye	-10.3223
▁Hizmet	-10.3223
▁cümle	-10.3223
▁seçme	-10.3225
▁organiz	-10.3237
▁başlaması	-10.3238
▁Burcu	-10.3258
▁vatandaşlarımız	-10.3258
▁Antalyaspor	-10.3264
▁yapılacağı	-10.3267
▁taşıyor	-10.3286
▁Nusaybin	-10.3292
▁mühendis	-10.3292
▁restoran	-10.3292
▁Sezon	-10.3292
▁Siyah	-10.3292
▁heyet	-10.3294
▁dayana	-10.3294
▁getirilmesi	-10.33
▁şampiyonluk	-10.3301
▁yüklü	-10.3311
▁anlata	-10.3316
▁çekim	-10.3318
▁kategori	-10.3326
▁platform	-10.3326
▁özgürlük	-10.3326
▁sahil	-10.3334
▁Cha	-10.3343
okulu	-10.3352
Politika	-10.336
▁elbette	-10.336
▁kavram	-10.336
▁hükm	-10.336
▁alkol	-10.3362
▁ihanet	-10.3362
▁Kasımpaşa	-10.3362
▁yıkıl	-10.3375
▁Özdemir	-10.3395
▁kapattı	-10.3395
DHA	-10.3396
▁izleyici	-10.3398
▁usul	-10.3401
▁göndere	-10.343
▁görünüm	-10.3431
▁gerekçe	-10.3438
▁Kanal	-10.3439
▁tasarı	-10.346
▁Magazin	-10.3465
▁akademisyen	-10.3465
▁gerçeği	-10.3465
▁esnasında	-10.3465
▁Gomez	-10.3465
▁Harekat	-10.3465
▁roket	-10.3465
▁gelerek	-10.3475
▁Ateş	-10.3493
▁danışman	-10.35
▁düşünül	-10.3504
▁hüküm	-10.3527
▁bakıyor	-10.3533
▁Hakkari	-10.3535
▁Emekli	-10.3535
▁tanıtım	-10.3538
mayacağını	-10.3554
▁kalka	-10.3564
▁işadamı	-10.357
▁Yardım	-10.357
▁karayolu	-10.3571
▁oluşma	-10.3572
▁kaybol	-10.3574
▁kilit	-10.3577
▁Topal	-10.36
▁durumunu	-10.3603
▁tüfeği	-10.3605
▁Yalçın	-10.3605
▁eğlence	-10.3605
▁garanti	-10.3605
▁Pazartesi	-10.3605
▁parlamento	-10.361
▁girecek	-10.3614
▁kurucu	-10.3616
▁bedel	-10.3629
▁ulusal	-10.3641
▁Angel	-10.3642
▁başara	-10.3663
▁muhte	-10.3676
▁Güneydoğu	-10.3676
▁edilerek	-10.3676
▁yumurta	-10.3676
▁Acil	-10.368
▁kurduğu	-10.3693
▁dolandırıcı	-10.3712
▁suikast	-10.3712
▁Evet	-10.3716
▁taban	-10.3721
▁sürücüsü	-10.3721
▁seviyesinde	-10.3737
▁2007	-10.3746
▁verildiği	-10.3748
▁fragmanı	-10.3748
▁İsviçre	-10.3748
▁Malatya	-10.3748
▁yetenek	-10.3748
▁Semih	-10.3748
▁modern	-10.3748
▁uğradı	-10.375
▁asgar	-10.3753
▁günümüz	-10.3765
▁olmayacağı	-10.3771
ation	-10.3774
q	-10.3783
▁sebze	-10.3784
▁Başka	-10.3786
▁isteği	-10.3788
▁ofis	-10.3802
EV	-10.3804
lanırken	-10.3805
▁Paşa	-10.3808
▁gücünü	-10.3818
▁Kurtulmuş	-10.382
▁Osmanlıspor	-10.3824
▁Tiyatro	-10.3856
▁metro	-10.3857
▁belirsiz	-10.3874
▁Sneijder	-10.3892
▁Erol	-10.3893
▁cilt	-10.3893
▁işyeri	-10.3894
▁cephe	-10.3896
▁Gökçe	-10.3898
▁ısrar	-10.3929
▁Gerçek	-10.3929
▁sürdürüyor	-10.3929
▁başbakan	-10.3929
▁ayrıntı	-10.3931
▁cuma	-10.3932
▁lüks	-10.3938
▁getiriyor	-10.3938
▁orman	-10.3943
▁tavır	-10.3966
▁vermişti	-10.3967
UZ	-10.3986
▁Gençlerbirliği	-10.4002
▁kaygı	-10.4003
▁Maliye	-10.4008
▁Gıda	-10.4011
▁oluşturduğu	-10.4014
▁Kelime	-10.4039
▁ilave	-10.404
▁Esed	-10.4048
▁nesil	-10.4065
▁ikramiye	-10.4076
▁senaryo	-10.4076
▁kaşı	-10.4079
▁analiz	-10.4079
▁etkileye	-10.4103
▁Fethullah	-10.4113
▁Kenan	-10.4115
▁kullanım	-10.4135
▁geçecek	-10.4135
▁Resm	-10.415
▁2-1	-10.4151
▁Nasıl	-10.4151
▁Yasin	-10.4166
▁teröristleri	-10.4167
ayrimenkul	-10.4188
▁mektup	-10.4188
▁mevsim	-10.4188
▁taziye	-10.4189
▁Finans	-10.4189
▁tarif	-10.4191
▁Hakkı	-10.4194
▁yiyecek	-10.4201
layıcı	-10.4203
▁çerçeve	-10.422
▁savuna	-10.4226
▁Düzen	-10.4226
▁Toplum	-10.4226
▁ilerleme	-10.423
▁sığ	-10.4231
▁beklediği	-10.4242
▁direkt	-10.4248
▁Akademi	-10.4263
▁tuzak	-10.4264
▁Hamza	-10.4264
▁çıkıp	-10.4264
▁2-0	-10.4264
▁düzelt	-10.4264
▁Gönül	-10.4302
▁şiir	-10.4303
▁Kaç	-10.4309
▁vefat	-10.4314
▁yatak	-10.432
▁kapatma	-10.4322
▁efsane	-10.4339
▁seçenek	-10.4339
Donald	-10.434
▁deneme	-10.4345
▁kullanıldığı	-10.4346
▁kese	-10.4349
▁Bodrum	-10.4378
üştü	-10.4382
▁yararlana	-10.4406
▁Anahtar	-10.4416
▁röportaj	-10.4416
▁tecavüz	-10.4416
▁atılma	-10.4417
▁verimli	-10.4418
▁giyi	-10.4425
▁tasarla	-10.4429
▁leştiri	-10.4438
▁faktör	-10.4454
▁kulak	-10.4463
▁yapama	-10.4472
▁Temsilci	-10.4493
▁barikat	-10.4493
▁keşf	-10.4493
▁yenilgi	-10.4493
▁koku	-10.4497
▁aktör	-10.4506
▁Cengiz	-10.4532
▁İdaresi	-10.4532
▁kemik	-10.4532
▁olamaz	-10.4533
▁meşru	-10.4541
▁sürdüğü	-10.4561
▁Kocaeli	-10.4571
▁tahri	-10.4571
▁Mesela	-10.4572
▁Ozan	-10.4572
▁tünel	-10.4579
▁uydu	-10.4582
Ulusal	-10.4583
▁tasarruf	-10.461
▁görünüyor	-10.461
▁ihti	-10.461
▁çanta	-10.4615
▁patlat	-10.4617
▁ortamda	-10.462
lendirdi	-10.4635
▁Çavuş	-10.4646
▁Otomobil	-10.4649
▁Pakistan	-10.4649
▁Yüce	-10.4649
▁Kayserispor	-10.4652
pınar	-10.4667
▁selam	-10.4675
▁değişik	-10.4684
▁Yunan	-10.4688
▁yürüttüğü	-10.4688
▁2018	-10.4688
▁Tepe	-10.469
▁kuzeyinde	-10.4708
▁odasın	-10.4719
▁Emir	-10.4736
▁ağız	-10.4742
▁Ajansı	-10.4767
▁Avusturya	-10.4767
▁Hindistan	-10.4767
▁yerleşim	-10.4768
▁alkış	-10.4768
▁Yunus	-10.4768
▁oynuyor	-10.4769
▁profesyonel	-10.477
sayiş	-10.4775
▁sağladığı	-10.4776
▁Riekerink	-10.4807
▁otomatik	-10.4807
▁inanıyorum	-10.4807
▁Sakarya	-10.4807
▁götürdü	-10.4808
▁karşılaşa	-10.481
Fikret	-10.4819
▁odaklan	-10.4821
▁alırken	-10.4823
▁Balıkesir	-10.4847
▁teşhis	-10.4847
▁Ödülü	-10.4847
▁Hiç	-10.4848
▁kesti	-10.4849
▁tatlı	-10.4852
▁Müdür	-10.4874
▁idam	-10.4887
▁istikamet	-10.4887
▁Kahraman	-10.4887
▁Rizespor	-10.4887
▁festival	-10.4887
▁gösterge	-10.4887
▁sürdürüle	-10.4887
▁Öğrenci	-10.4887
▁Oscar	-10.4887
▁değerlendirdi	-10.4889
▁hissetti	-10.4892
▁duruşu	-10.4894
▁konuldu	-10.4915
▁tok	-10.4923
▁Arkadaş	-10.4928
▁ithalat	-10.4928
▁motosiklet	-10.4928
▁Petro	-10.4928
▁Güç	-10.4929
ullah	-10.4931
▁Kırmızı	-10.4932
▁Sahil	-10.4938
▁bankacılı	-10.494
▁bağlam	-10.4966
▁gergin	-10.4968
▁yaptırım	-10.4971
▁Odası	-10.4973
▁Üniversite	-10.4992
▁ilerleye	-10.4998
▁tamamlaya	-10.5008
▁bünyesinde	-10.5009
▁Sonuç	-10.5009
nükle	-10.5013
.000	-10.5026
▁burun	-10.5042
▁irtibat	-10.505
▁üzüntü	-10.505
◊	-10.505
▁öfke	-10.505
▁Borsa	-10.5051
▁dağıl	-10.5052
▁mimar	-10.5054
▁ağzı	-10.5059
▁yıka	-10.5076
▁açıklaya	-10.5076
orku	-10.5077
▁haps	-10.5084
▁TFF	-10.5091
▁Oğuzhan	-10.5093
terapi	-10.5093
Saray	-10.5121
stihbarat	-10.5124
▁Parlamento	-10.5132
▁Advocaat	-10.5132
▁dilekçe	-10.5132
▁çizen	-10.5133
▁mermi	-10.5134
▁Gaziantepspor	-10.5137
gerçekleştirdiği	-10.5146
lenerek	-10.5154
eşke	-10.5163
Türk	-10.5163
▁yolculuğ	-10.5172
▁köpek	-10.5173
▁başvura	-10.5173
▁Bozdağ	-10.5173
▁bağımlı	-10.5174
▁Cenk	-10.5178
▁lisans	-10.5195
▁artırıl	-10.5207
▁hâkim	-10.5215
▁Soylu	-10.5215
▁muhtemel	-10.5215
▁fikri	-10.5216
▁Yönetmen	-10.5256
▁çeyreğ	-10.5256
▁savundu	-10.5256
▁katliam	-10.5257
▁cadde	-10.5257
▁stres	-10.5257
▁resim	-10.5259
olog	-10.5274
Spor	-10.5291
▁Kuvvet	-10.5298
▁keyif	-10.5298
▁sıfır	-10.5298
▁Kulüp	-10.5298
▁üretme	-10.5298
▁kriter	-10.5298
▁gelişe	-10.5302
▁tamamlana	-10.5312
▁gideceği	-10.5324
▁forvet	-10.534
▁ayakkabı	-10.534
▁Hiçbir	-10.5341
▁götüre	-10.5343
▁diliyorum	-10.5345
▁Sigorta	-10.5382
▁popüler	-10.5382
▁Hatay	-10.5384
▁Kişi	-10.5386
▁başrol	-10.5388
▁şekli	-10.5424
▁skandal	-10.5425
▁Kredi	-10.5426
▁kanatta	-10.5427
▁kirli	-10.5436
▁Örgüt	-10.5451
oordinasyon	-10.5467
▁elektroni	-10.5467
▁madalya	-10.5467
▁zırh	-10.5467
▁Sınır	-10.5469
▁Kardeş	-10.5472
Basketbol	-10.551
▁Organiz	-10.551
▁Turkcell	-10.551
▁Otel	-10.553
▁Cenevre	-10.5553
▁SABAH	-10.5553
▁hücum	-10.5553
▁küçü	-10.5564
▁etkinliği	-10.5585
▁lendir	-10.5586
▁Kaymakam	-10.5596
▁vizyon	-10.5596
▁KOBİ	-10.5596
▁zeytin	-10.5596
▁işveren	-10.5596
▁yürek	-10.5596
▁Bekir	-10.5598
▁yedek	-10.5605
▁United	-10.5639
▁lezzet	-10.5639
▁harita	-10.564
▁kapatıla	-10.5647
▁sinyal	-10.5662
▁oluşturdu	-10.5669
▁Kalkanı	-10.5683
▁Piyasa	-10.5683
▁sorusuna	-10.5683
▁Federa	-10.5684
▁hita	-10.5684
▁bozma	-10.569
müyor	-10.5738
▁egzersiz	-10.577
▁tüketil	-10.5771
▁borsa	-10.5771
İYOR	-10.5771
▁ahlak	-10.5772
▁Medya	-10.5772
▁ucuz	-10.5772
▁Fatma	-10.5772
▁hassasiyet	-10.5773
vekili	-10.5814
▁kasaba	-10.5815
▁vakit	-10.5816
▁Bulut	-10.5819
▁düşürme	-10.5825
▁Hepsi	-10.583
eskin	-10.5845
▁şarj	-10.5859
▁Lisesi	-10.586
▁olsaydı	-10.5862
▁kalabalık	-10.5903
▁kulübe	-10.5903
▁akraba	-10.5903
▁müziği	-10.5903
▁zincir	-10.5905
▁kaybetmiş	-10.5948
▁Edirne	-10.5948
▁karanlık	-10.595
▁damga	-10.5951
▁dernek	-10.5952
▁niteliği	-10.596
▁fileler	-10.5964
▁sponsor	-10.5993
▁Zeynep	-10.5993
▁Cerablus	-10.5993
▁Gözaltın	-10.5993
▁öğr	-10.6026
politik	-10.6037
▁Efendi	-10.6038
▁başvurdu	-10.6038
▁Giriş	-10.6038
▁Bölümü	-10.6045
▁samimi	-10.6047
▁istek	-10.6054
▁Parçal	-10.6083
▁gidil	-10.6084
▁muhafaza	-10.6128
▁fırtına	-10.6128
▁konferans	-10.6128
▁kusur	-10.6129
▁füze	-10.6129
▁yaşanıyor	-10.6129
▁esteti	-10.613
sağlığı	-10.6131
off	-10.6169
▁enfeksiyon	-10.6174
▁koridor	-10.6174
▁muayene	-10.6174
efendi	-10.6174
▁girmiş	-10.6176
▁Adil	-10.6177
▁ihtimal	-10.6201
▁kafe	-10.6233
▁Andre	-10.6266
▁saldırdı	-10.6269
▁doğdu	-10.6278
▁kuralları	-10.6282
▁dayanışma	-10.6312
▁rezerv	-10.6312
▁sokakta	-10.6312
▁lıyız	-10.6313
▁ışığı	-10.6313
▁sabit	-10.6313
▁kanaat	-10.6314
▁Serka	-10.6317
▁moral	-10.6321
▁başkent	-10.6336
▁destekleye	-10.6348
▁gizle	-10.6354
▁Artvin	-10.6359
▁Ertuğrul	-10.6359
▁etrafında	-10.6359
▁çözme	-10.6359
▁Düşü	-10.6359
▁harika	-10.6359
▁ktadır	-10.6359
▁kurtula	-10.636
▁disiplin	-10.636
▁hendek	-10.6362
▁Kandil	-10.6367
▁yaklaştı	-10.637
▁anlaya	-10.6389
▁belirleye	-10.6397
▁Yabancı	-10.6406
▁başlangıç	-10.6406
▁abone	-10.6406
▁mahkum	-10.6406
▁sabır	-10.6406
▁olgu	-10.6406
üzgün	-10.6429
▁üzül	-10.6442
▁yetersiz	-10.6453
▁BAŞ	-10.6453
▁kurtulma	-10.6453
▁Toplam	-10.6467
▁konuşuyor	-10.6469
▁1,5	-10.6469
▁ölme	-10.6486
▁Ağbal	-10.65
▁Telekom	-10.65
▁yürürlüğ	-10.65
▁oray	-10.6503
▁takviye	-10.6547
▁Çiçek	-10.6547
CİHAN	-10.6547
▁İstikl	-10.6547
▁somu	-10.6576
▁güncel	-10.6593
statistik	-10.6595
▁TRT	-10.6595
▁Muğla	-10.6595
▁İşletme	-10.6595
▁miting	-10.6595
▁yeteri	-10.6598
▁kesme	-10.6598
▁çıkacağı	-10.6608
▁ölç	-10.6632
▁opera	-10.6642
▁gidiş	-10.6643
▁ihmal	-10.6643
▁görsel	-10.6643
▁Servis	-10.6645
▁başlata	-10.6665
▁gelişmiş	-10.6691
▁çapında	-10.6691
ACAK	-10.6693
▁emri	-10.6696
▁lanet	-10.67
▁siyas	-10.672
▁pasaport	-10.6739
▁şikâyet	-10.6739
▁nefret	-10.6739
▁tavrı	-10.6739
▁oluşturuyor	-10.6739
▁alçak	-10.6743
mavili	-10.6751
▁boğul	-10.6784
▁Quaresma	-10.6787
▁müttefik	-10.6787
▁İhracat	-10.6787
▁Doktor	-10.6788
▁zehir	-10.6788
▁SGK	-10.6788
Devlet	-10.6799
▁post	-10.6805
▁vadel	-10.6829
▁Elazığ	-10.6836
▁İnternet	-10.6836
çavuş	-10.6836
▁vuruşunda	-10.6836
▁tanıştı	-10.6837
▁blok	-10.6837
▁Anlaşma	-10.6839
Hayır	-10.6857
▁Boğaz	-10.6883
▁Levent	-10.6885
▁minibüs	-10.6885
▁edileceği	-10.6885
▁Sınav	-10.6885
▁mikro	-10.6887
▁Kanada	-10.6888
▁çizdi	-10.6917
▁Elektrik	-10.6934
uyruklu	-10.6934
▁Muhammet	-10.6934
▁Zafer	-10.6935
▁Mutlu	-10.6935
▁Vatan	-10.6936
▁kullanıldı	-10.6977
Android	-10.6984
▁kilogram	-10.6984
▁İspanyol	-10.6984
urtuluş	-10.6984
▁erişim	-10.6984
▁Mevlü	-10.6984
▁idman	-10.6985
▁üssü	-10.6985
▁Hedef	-10.6989
▁işsizli	-10.7005
▁Oğuz	-10.7032
′	-10.7034
▁kumpas	-10.7034
▁Doğru	-10.7034
▁şahit	-10.7034
▁Adnan	-10.7034
▁santral	-10.7034
▁Münih	-10.7034
▁Hanım	-10.7041
▁Numa	-10.7044
▁Final	-10.7063
▁Avukat	-10.7084
▁dördüncü	-10.7084
▁Tunceli	-10.7084
▁çoğunluğu	-10.7084
▁isyan	-10.7085
▁ayağ	-10.7088
▁satıla	-10.7089
▁Kerry	-10.7134
▁otorite	-10.7134
▁AVM	-10.7134
▁Öksüz	-10.7134
▁elimizde	-10.7134
▁kalkma	-10.7148
▁aktivite	-10.7235
▁mutabakat	-10.7235
▁randevu	-10.7235
▁şebeke	-10.7235
▁şehidin	-10.7235
▁mevzi	-10.7235
▁Köse	-10.7236
▁galip	-10.7236
lendirilmesi	-10.7277
▁Taraftar	-10.7286
▁mühimmat	-10.7286
▁Çocuğu	-10.7286
▁kıyasla	-10.7286
▁sembol	-10.7286
▁Celal	-10.7287
▁Seçim	-10.7289
▁sapta	-10.731
▁Sorumlu	-10.7338
▁Görüşme	-10.7338
▁litre	-10.7338
▁referandum	-10.7389
▁Vakıf	-10.7389
▁müjde	-10.7389
▁eleştire	-10.739
▁örtü	-10.7406
ağdaş	-10.7423
▁alamaya	-10.7431
▁Körfez	-10.7441
▁Müsteşar	-10.7441
▁Olimpiyat	-10.7441
▁mevzuat	-10.7441
▁kazanç	-10.7443
▁geçeceği	-10.7454
▁radyo	-10.7465
▁Avustralya	-10.7493
▁hormon	-10.7493
▁tebrik	-10.7493
▁tehdidi	-10.7493
▁Sabri	-10.7493
▁boşanma	-10.7494
▁Kamer	-10.7495
▁bonservis	-10.7545
·	-10.7545
▁Bingöl	-10.7545
▁Külliye	-10.7545
▁işadamları	-10.7545
▁manzara	-10.7545
▁Tasarı	-10.7546
▁Hareket	-10.7546
▁1-1	-10.7546
▁ufak	-10.7546
▁Patlama	-10.7546
▁İLGİ	-10.7598
▁Tugay	-10.7598
▁kapatıldı	-10.7598
▁görmüş	-10.7598
▁Pınar	-10.7599
▁Batman	-10.76
▁akışı	-10.76
▁sureti	-10.7605
▁Direktör	-10.763
▁çöze	-10.7651
▁hatırlattı	-10.7651
▁kapsaya	-10.7651
▁Polat	-10.7652
▁artırdı	-10.7668
▁kaldırdı	-10.7674
▁yargılana	-10.7703
▁Gümrük	-10.7704
▁çukur	-10.7704
▁Turgut	-10.7704
▁emanet	-10.7704
▁bulgu	-10.7706
▁böbrek	-10.7758
▁iftira	-10.7758
▁çiçek	-10.7758
▁Alex	-10.7759
▁sarf	-10.7761
▁bitirdi	-10.7765
▁benzin	-10.7772
▁düşürdü	-10.7773
meyiz	-10.78
▁Bölü	-10.7806
▁Peygamber	-10.7811
▁Tesisleri	-10.7811
▁OHAL	-10.7811
▁seçildi	-10.7812
Elbette	-10.7813
burcu	-10.7825
▁Destek	-10.7865
▁Diyanet	-10.7865
▁otopsi	-10.7865
▁kökenli	-10.7866
▁Satış	-10.7867
▁masum	-10.7868
▁tabut	-10.7871
ayvancılık	-10.7892
▁çaldı	-10.7899
▁HABER	-10.792
▁masraf	-10.792
▁Müzesi	-10.792
▁seçti	-10.7921
▁ideal	-10.7923
▁geliştirdi	-10.7925
▁öğrenile	-10.7944
▁Başsavcı	-10.7967
▁Sinema	-10.7971
▁Trafik	-10.7974
▁Karşıyaka	-10.7974
▁cesaret	-10.7974
▁Başarı	-10.7975
▁özetle	-10.7979
▁heykel	-10.8029
▁Bakırköy	-10.8029
▁Yargı	-10.803
▁Podolski	-10.8085
▁durdurulması	-10.8085
▁hafıza	-10.8085
▁Değiş	-10.8087
▁yönetil	-10.8089
leştirilmesi	-10.8124
▁kavuştu	-10.814
▁Çukur	-10.814
▁çevirdi	-10.814
▁kimyasal	-10.814
▁sıvı	-10.8141
▁Akıncı	-10.8141
▁Uyg	-10.8152
▁yakalaya	-10.816
ografi	-10.8196
▁Atleti	-10.8196
▁yorgun	-10.8196
▁sürüldü	-10.82
▁sığına	-10.8203
ByLock	-10.8252
▁edilebilir	-10.8252
▁seçilmiş	-10.8252
▁hariç	-10.8253
▁Başkent	-10.8253
▁çağırdı	-10.8267
▁kolaylaştır	-10.8287
Ekonomi	-10.8287
▁Şehidi	-10.8309
▁market	-10.8309
▁manevi	-10.8311
▁protokol	-10.8365
▁küfür	-10.8366
▁ömür	-10.8366
▁uzatı	-10.839
▁Silopi	-10.8423
▁cumartesi	-10.8423
▁Meteoroloji	-10.8423
▁mağlubiyet	-10.8423
▁eğilim	-10.8423
▁Rıza	-10.8423
▁konvoy	-10.8423
▁Selaha	-10.8423
▁Arjantin	-10.848
▁Komitesi	-10.848
▁basketbol	-10.848
▁Muslera	-10.848
▁Bürosu	-10.848
▁ideoloji	-10.848
▁çarpa	-10.8482
▁apartman	-10.8538
▁Sektör	-10.8538
▁mekanizma	-10.8539
▁böl	-10.8569
▁yansıdı	-10.8573
▁hassas	-10.8593
▁yurdu	-10.8596
-16	-10.8596
▁götürme	-10.8596
▁Dört	-10.8597
▁sıkıştı	-10.8597
que	-10.8598
▁alamadı	-10.8622
▁bırakılma	-10.8633
▁baktığımız	-10.8655
▁dükkan	-10.8655
▁Chris	-10.8655
▁Uygulama	-10.8655
▁robot	-10.8655
▁Kitap	-10.8655
▁koltuk	-10.8655
@	-10.9836
$	-11.4451
Â	-11.5212
̇	-11.5557
#	-11.5793
=	-11.6669
_	-11.7206
é	-11.7773
[	-12.0626
]	-12.1022
%	-12.2649
>	-12.2785
°	-12.3535
а	-12.4068
ˆ	-12.6198
ə	-12.69
á	-12.727
е	-12.8906
¦	-13.0863
ä	-13.0863
¥	-13.2632
ó	-13.3298
ñ	-13.4782
í	-13.6524
	-13.7524
\	-13.7524
å	-13.8635
¬	-13.8635
è	-13.8635
⁄	-13.8635
■	-14.1314
ê	-14.1314
×	-14.2981
¡	-14.7481
®	-14.7481
ï	-14.7481
ú	-14.7481
ć	-14.7481
⭐	-14.7481
️	-14.7481
ø	-14.7481
^	-15.0814
£	-15.0814
Ä	-15.0814
à	-15.0814
●	-15.0814
о	-15.0814
ا	-15.5813
د	-15.5813
س	-15.5813
ل	-15.5813
و	-15.5813
ي	-15.5813
Î	-15.5814
	-15.5814
ß	-15.5814
ã	-15.5814
ƒ	-15.5814
і	-15.5814
‬	-15.5814
∂	-15.5814
☮	-15.5814
👍	-15.5814
É	-15.5814
α	-16.5805
🇹	-16.5806
🇷	-16.5807
æ	-16.5808
€	-16.5809
̧	-16.581
•	-16.5811
̈	-16.5812
ة	-16.5813
غ	-16.5813
ق	-16.5813
ن	-16.5813
‫	-16.5813
Ğ	-16.5813
ح	-16.5814
ر	-16.5814
ł	-16.5814
Ø	-16.5814
~	-16.5814
	-16.5814
Ñ	-16.5814
Û	-16.5814
ë	-16.5814
̆	-16.5814
μ	-16.5814
п	-16.5814
с	-16.5814
т	-16.5814
у	-16.5814
م	-16.5814
›	-16.5814
🏆	-16.5814
🏻	-16.5814
👑	-16.5814
💋	-16.5814
💧	-16.5814
💰	-16.5814
😁	-16.5814
😊	-16.5814
🙏	-16.5814
ù	-16.5814
ē	-16.5814
Å	-16.5814
Л	-16.5814
(	-16.5814
к	-16.5814
н	-16.5814
