<unk>	0
<s>	0
</s>	0
.	-3.08021
,	-3.29816
'	-3.62756
▁ve	-4.28463
▁bir	-4.59186
n	-5.02689
"	-5.05973
▁"	-5.12082
a	-5.20728
nin	-5.36854
e	-5.38717
▁bu	-5.42172
▁de	-5.44418
▁da	-5.45021
da	-5.45164
▁için	-5.51698
de	-5.55425
▁ile	-5.55955
nın	-5.60284
ın	-5.65878
in	-5.69122
i	-5.75652
:	-5.90765
▁	-5.94524
lar	-5.96194
na	-5.98178
▁Türkiye	-5.98236
k	-6.05576
ler	-6.07193
-	-6.08023
▁Bu	-6.09644
▁olarak	-6.09986
ne	-6.12404
ye	-6.12423
ya	-6.15241
▁çok	-6.17075
dan	-6.21635
den	-6.22658
▁olan	-6.25299
▁(	-6.27185
▁ise	-6.28129
ı	-6.28249
m	-6.2864
▁daha	-6.32727
▁en	-6.35325
▁-	-6.36004
)	-6.39018
la	-6.46542
li	-6.47197
ki	-6.49845
ları	-6.54194
nde	-6.55218
▁sonra	-6.56308
▁kadar	-6.56911
▁gibi	-6.58244
le	-6.59254
?	-6.60748
leri	-6.62645
▁bin	-6.65986
te	-6.6747
ni	-6.6757
lı	-6.68702
▁var	-6.70557
▁göre	-6.71656
yla	-6.71773
nda	-6.72868
ta	-6.73374
▁dedi	-6.80943
▁olduğunu	-6.81186
un	-6.81388
▁olduğu	-6.82135
nı	-6.828
...	-6.82916
▁ilk	-6.83177
▁büyük	-6.83289
▁3	-6.86014
▁yer	-6.86752
yi	-6.86952
▁yüzde	-6.87796
▁'	-6.89212
▁yeni	-6.90104
▁her	-6.91877
▁2	-6.92086
▁tarafından	-6.95191
▁son	-6.96583
▁yıl	-6.97433
yle	-6.97783
▁devam	-6.99033
u	-7.00093
si	-7.00768
▁ne	-7.01136
▁etti	-7.01775
▁oldu	-7.02807
z	-7.03401
▁diye	-7.03534
▁İstanbul	-7.04284
r	-7.0429
▁1	-7.04696
;	-7.05205
▁ardından	-7.05792
yı	-7.05822
▁ilgili	-7.06922
lerin	-7.07249
▁o	-7.08975
▁iki	-7.09198
▁yapılan	-7.09318
ların	-7.09399
s	-7.09431
nun	-7.10075
▁önce	-7.10968
t	-7.12811
▁Türk	-7.12818
▁Başkanı	-7.13438
▁karşı	-7.14167
▁arasında	-7.14487
!	-7.14804
▁eden	-7.15838
▁değil	-7.16242
▁4	-7.16485
daki	-7.16523
▁milyon	-7.16903
▁5	-7.18817
▁Haberleri	-7.21247
▁önemli	-7.22806
▁ABD	-7.2388
▁iyi	-7.2401
▁gelen	-7.25286
▁gün	-7.27032
▁söyledi	-7.27471
▁terör	-7.27718
lik	-7.28327
deki	-7.28369
lere	-7.30431
▁ki	-7.31154
▁yaptığı	-7.33778
ndan	-7.35285
larını	-7.35309
▁Erdoğan	-7.35503
▁zaman	-7.36944
▁ama	-7.37131
▁10	-7.37543
p	-7.37853
▁kişi	-7.38064
▁15	-7.38435
▁bulunan	-7.38436
▁ya	-7.38794
▁ifade	-7.38929
▁içinde	-7.39021
▁Bir	-7.39216
lara	-7.3971
▁O	-7.39774
▁A	-7.40415
▁üzerine	-7.41545
▁birlikte	-7.41866
ten	-7.43204
tan	-7.43424
▁şekilde	-7.4374
lerini	-7.44023
▁6	-7.44475
▁Suriye	-7.4459
sı	-7.45097
dir	-7.46025
nden	-7.46233
▁tüm	-7.4653
di	-7.46631
▁Avrupa	-7.47107
▁alan	-7.49656
▁hem	-7.50235
dır	-7.50286
▁konuştu	-7.50403
▁FETÖ	-7.52102
▁fazla	-7.53265
▁Gazetesi	-7.53435
▁yok	-7.53618
▁aynı	-7.53962
l	-7.54966
­	-7.5578
▁geldi	-7.58345
▁Cumhurbaşkanı	-7.60079
sa	-7.60706
K	-7.62159
ma	-7.62846
en	-7.62943
▁nedeniyle	-7.63857
▁ortaya	-7.64892
▁7	-7.64937
▁üzere	-7.65625
lık	-7.66057
an	-7.66242
▁kez	-7.66263
▁PKK	-7.66306
▁diğer	-7.66522
▁olmak	-7.67162
▁Genel	-7.6755
A	-7.6793
▁verdi	-7.67976
▁iş	-7.68103
▁TL	-7.69376
▁edildi	-7.6949
▁veya	-7.698
▁polis	-7.70113
er	-7.70615
ü	-7.70658
▁şu	-7.70765
▁saat	-7.71062
▁Ankara	-7.71088
▁edilen	-7.71283
▁yapan	-7.71701
▁tek	-7.72085
▁geçen	-7.72234
▁olacak	-7.72684
▁S	-7.72844
y	-7.73495
▁2016	-7.73834
▁çıktı	-7.73977
▁sadece	-7.74243
▁yönelik	-7.74966
ca	-7.75607
S	-7.75823
▁günü	-7.75959
▁yaptı	-7.76121
▁8	-7.76619
▁Ancak	-7.76791
▁Fenerbahçe	-7.77336
▁Rusya	-7.78031
▁kendi	-7.78181
o	-7.7823
▁Beşiktaş	-7.78469
▁aldı	-7.78486
".	-7.79029
▁şey	-7.8117
▁özel	-7.81925
ti	-7.82141
▁hafta	-7.82425
▁üzerinde	-7.82659
▁yerine	-7.82738
▁bile	-7.8325
▁darbe	-7.83396
▁güvenlik	-7.83821
/	-7.84141
▁sahip	-7.8433
▁Galatasaray	-7.84979
▁nasıl	-7.85011
▁yılında	-7.85053
▁Spor	-7.85193
▁hakkında	-7.85196
▁ay	-7.85198
▁şöyle	-7.85812
▁bazı	-7.85831
▁ediyor	-7.85858
▁milyar	-7.86084
mız	-7.86752
▁Son	-7.87505
▁20	-7.87532
lu	-7.88028
▁G	-7.88365
ün	-7.88506
▁karar	-7.88609
▁bugün	-7.88774
▁başka	-7.89116
larla	-7.89119
▁doğru	-7.90714
▁Temmuz	-7.90929
▁konusunda	-7.91279
▁farklı	-7.9212
ce	-7.9238
larına	-7.92813
▁Ama	-7.9285
▁ancak	-7.92984
▁dikkat	-7.93095
miz	-7.93104
▁süre	-7.93154
▁destek	-7.93498
lerine	-7.93585
▁bulundu	-7.93792
▁açıklamada	-7.93994
▁dün	-7.94521
▁yaşındaki	-7.94558
▁mi	-7.94577
▁K	-7.95875
▁Dünya	-7.9601
larının	-7.96078
▁B	-7.96145
lerde	-7.97035
▁az	-7.97412
▁olması	-7.97709
larda	-7.98201
▁Mehmet	-7.98217
▁biri	-7.98835
▁yüksek	-7.9898
▁ilişkin	-7.99031
lerle	-7.99089
▁başladı	-7.99581
▁kabul	-7.99867
▁lira	-7.9993
▁kapsamında	-8.00114
▁neden	-8.00328
▁Bakanı	-8.01037
▁el	-8.01305
T	-8.01556
▁9	-8.0188
me	-8.02138
),	-8.02476
▁F	-8.03609
▁para	-8.03866
▁bulunduğu	-8.04083
dı	-8.04395
lerinin	-8.04544
▁12	-8.04568
▁böyle	-8.04755
▁dolar	-8.04852
▁E	-8.05041
▁görev	-8.05057
▁eski	-8.05248
nün	-8.05454
▁M	-8.06431
▁yakın	-8.06698
▁rağmen	-8.06863
▁gözaltına	-8.06911
se	-8.07104
▁belirten	-8.07166
▁Müdürlüğü	-8.07183
ini	-8.07306
▁geri	-8.07783
▁çıkan	-8.0797
▁mücadele	-8.07994
▁uzun	-8.08485
▁ettiği	-8.0861
▁alınan	-8.08677
G	-8.09237
▁kişinin	-8.10083
B	-8.10691
al	-8.10715
▁örgütü	-8.10869
d	-8.1149
▁Mahallesi	-8.11556
▁ait	-8.12191
▁konusu	-8.12374
▁yol	-8.12639
▁yaklaşık	-8.12696
▁söz	-8.1287
▁açık	-8.13203
▁bütün	-8.13395
M	-8.13464
du	-8.13558
▁ülke	-8.13876
▁meydan	-8.14013
lerden	-8.14175
▁ikinci	-8.14649
E	-8.14762
▁kararı	-8.15007
▁hava	-8.1508
▁su	-8.15207
▁Kurulu	-8.15556
▁olay	-8.16425
▁Bakanlığı	-8.16587
▁bağlı	-8.16749
▁D	-8.16792
▁altında	-8.17141
D	-8.17425
um	-8.17565
▁Başbakan	-8.17583
▁şehit	-8.17729
▁hiç	-8.18059
tır	-8.18828
▁Zaman	-8.18982
▁Ali	-8.19024
▁T	-8.19065
oğlu	-8.19076
▁Sözcü	-8.19433
▁bunu	-8.1949
▁Ben	-8.19615
lardan	-8.19935
▁Yıldırım	-8.2
▁Devlet	-8.20187
▁ele	-8.20262
▁üç	-8.20568
▁alındı	-8.20688
▁sosyal	-8.20738
▁dile	-8.20855
▁kadın	-8.20975
mış	-8.21185
▁yeniden	-8.21197
tir	-8.21294
▁Biz	-8.21553
▁30	-8.217
C	-8.21733
cı	-8.21754
▁Parti	-8.21786
▁tespit	-8.22378
▁kullandı	-8.22389
▁birçok	-8.22642
▁C	-8.23048
▁yine	-8.23048
▁14	-8.23104
▁mı	-8.23161
▁hiçbir	-8.23207
h	-8.23229
g	-8.23238
▁Her	-8.23604
▁Cumhuriyet	-8.24065
▁Dr	-8.24273
▁Mustafa	-8.24342
▁aldığı	-8.24778
▁biz	-8.24886
▁artık	-8.25313
▁19	-8.25342
▁Yeni	-8.25664
▁Bunun	-8.25939
▁AB	-8.26135
▁hale	-8.26253
ndeki	-8.26718
▁sonrası	-8.26752
▁dünya	-8.26938
▁anda	-8.27093
ci	-8.28318
▁sağlık	-8.28396
▁etmek	-8.28623
▁11	-8.28976
▁an	-8.29086
▁devlet	-8.29145
▁üzerinden	-8.29186
İ	-8.29382
▁16	-8.29386
▁veren	-8.29676
Bu	-8.29871
▁kısa	-8.29936
▁haber	-8.30007
▁Emniyet	-8.30017
▁sıra	-8.30282
▁belirtti	-8.3033
▁Ahmet	-8.30495
▁18	-8.31081
▁üst	-8.31323
▁belirtildi	-8.31333
▁ekipleri	-8.3135
▁hayatını	-8.31508
▁CHP	-8.31519
▁içerisinde	-8.31548
▁verdiği	-8.3212
▁bizim	-8.32237
▁sonucu	-8.3235
▁sezon	-8.32397
▁güzel	-8.33899
im	-8.33961
ine	-8.34068
▁13	-8.34715
▁Almanya	-8.34735
f	-8.3498
ken	-8.35138
larından	-8.35445
▁ayında	-8.35578
`	-8.3559
▁17	-8.35671
▁yardım	-8.3569
▁25	-8.36005
▁iddia	-8.36209
▁olur	-8.36395
tı	-8.36445
▁belirterek	-8.3652
uz	-8.36608
▁eğitim	-8.36753
▁ceza	-8.36809
▁şeklinde	-8.36867
▁dönemde	-8.37381
▁tedavi	-8.37391
▁sırasında	-8.37816
su	-8.37924
▁Üniversitesi	-8.38142
▁kalan	-8.38241
▁ev	-8.38265
▁gece	-8.38336
sini	-8.38397
▁ben	-8.38518
▁zor	-8.38553
▁tam	-8.38556
▁insan	-8.38601
larında	-8.38656
lerinden	-8.38656
▁teknik	-8.38759
▁takım	-8.39141
▁yana	-8.39594
ını	-8.39797
▁düzenlenen	-8.39987
▁Milli	-8.40003
P	-8.40369
▁çocuk	-8.40409
▁bilgi	-8.40629
▁Şubat	-8.4089
ar	-8.40916
▁çalışma	-8.40972
▁iç	-8.41136
▁kontrol	-8.41375
nız	-8.41537
sını	-8.42387
▁toplam	-8.42704
▁çalışan	-8.42711
▁yanı	-8.42882
▁özellikle	-8.43095
ktan	-8.43392
niz	-8.43425
▁siyasi	-8.43795
▁gol	-8.43857
at	-8.44248
ur	-8.44389
▁Daha	-8.44548
▁kaydetti	-8.44853
▁olsun	-8.44948
3	-8.44979
▁En	-8.44999
▁bunun	-8.45243
▁soruşturma	-8.45344
▁İzmir	-8.45398
▁Ocak	-8.45398
▁Ne	-8.45799
▁hizmet	-8.46092
▁öğrenildi	-8.46212
▁H	-8.46312
▁önünde	-8.46884
▁AK	-8.47794
▁Lig	-8.47827
▁oyuncu	-8.48337
▁yandan	-8.48364
▁sık	-8.48375
▁100	-8.48429
▁yapılacak	-8.48543
▁durum	-8.4867
ç	-8.48912
O	-8.49334
▁sırada	-8.4956
▁İl	-8.49573
▁göz	-8.49652
ir	-8.49724
mak	-8.49796
yu	-8.49994
▁yıllık	-8.49999
▁sahibi	-8.50017
▁dakika	-8.5016
▁burada	-8.50954
▁açıklama	-8.51052
▁askeri	-8.51321
▁Mart	-8.51474
ri	-8.5154
▁altına	-8.51654
▁genç	-8.51687
▁geliyor	-8.51689
▁yaşanan	-8.5178
mi	-8.51869
▁sevk	-8.51935
▁tarihi	-8.51952
▁Çünkü	-8.52182
▁hareket	-8.52625
ra	-8.52858
lü	-8.52934
▁ederek	-8.52961
el	-8.53169
▁konu	-8.5346
sine	-8.53482
luk	-8.53557
▁ağır	-8.53587
▁oluyor	-8.54443
▁halinde	-8.54797
sel	-8.54929
▁kaldı	-8.54967
ş	-8.54978
▁gerekiyor	-8.55356
Y	-8.55413
▁yoğun	-8.55429
▁basın	-8.55469
▁tekrar	-8.55667
▁gelecek	-8.55679
▁adet	-8.55767
siz	-8.56121
▁Başkan	-8.56131
▁50	-8.56145
arak	-8.56165
▁önceki	-8.56329
▁akşam	-8.56451
▁24	-8.56493
1	-8.56711
▁dakikada	-8.56772
re	-8.5728
▁şunları	-8.57417
▁İlk	-8.57607
nu	-8.57931
▁2015	-8.5799
▁sağ	-8.58035
▁olabilir	-8.58193
▁Yılmaz	-8.58294
▁Ayrıca	-8.58383
▁dışında	-8.58491
▁zamanda	-8.58858
▁sayıda	-8.58942
▁Aralık	-8.59059
▁tepki	-8.59644
miş	-8.59738
▁Allah	-8.59747
▁küçük	-8.60058
ndaki	-8.60149
▁maç	-8.60244
▁imza	-8.60501
man	-8.60712
▁22	-8.60756
▁İ	-8.60922
▁gelir	-8.60975
ması	-8.61072
▁Irak	-8.61285
▁Y	-8.61298
▁ara	-8.61368
▁öne	-8.61376
▁puan	-8.61409
▁saldırı	-8.61637
▁takip	-8.61653
▁kötü	-8.61663
▁mümkün	-8.61664
▁verildi	-8.61741
▁satış	-8.61891
▁yanında	-8.62066
▁21	-8.62146
▁bulunuyor	-8.6219
▁sayısı	-8.62498
▁yapmak	-8.62553
▁vardı	-8.62564
▁edecek	-8.62574
▁ortak	-8.62595
▁yatırım	-8.6273
▁hemen	-8.62776
▁araç	-8.62808
▁olmadığını	-8.6282
▁İşte	-8.62887
▁başlayan	-8.63149
▁benim	-8.63507
N	-8.63508
▁uygun	-8.63841
▁savaş	-8.63933
▁geçti	-8.64079
2	-8.64121
▁gereken	-8.64251
▁Diyarbakır	-8.64465
▁orta	-8.64645
▁dolayı	-8.64721
sız	-8.64832
Ş	-8.64838
▁yaşayan	-8.65033
▁ciddi	-8.65177
▁gerektiğini	-8.65212
▁ziyaret	-8.65251
▁Euro	-8.65342
sin	-8.65371
lerinde	-8.65481
▁açıkladı	-8.6591
teki	-8.66195
▁Bugün	-8.6628
larıyla	-8.66298
▁başına	-8.66625
▁Davutoğlu	-8.66693
▁Terör	-8.66838
ır	-8.66893
▁Gülen	-8.67108
▁itibaren	-8.67147
kten	-8.67177
▁El	-8.67391
▁boyunca	-8.67516
R	-8.67728
▁Trabzonspor	-8.67945
iz	-8.68494
▁silah	-8.68566
▁olmayan	-8.68788
▁ifadelerini	-8.68997
dur	-8.69176
▁ön	-8.69188
▁Haber	-8.69202
▁konuda	-8.69227
▁adına	-8.69284
▁yayın	-8.6935
F	-8.69435
ka	-8.69476
v	-8.69478
▁Hastanesi	-8.69502
▁Ligi	-8.69664
▁söyleyen	-8.69715
▁terörist	-8.69817
▁23	-8.69827
H	-8.69882
▁ateş	-8.69969
▁elde	-8.69992
▁kar	-8.70143
▁derece	-8.70342
▁Belediye	-8.70343
▁genel	-8.70361
▁Anadolu	-8.70563
▁serbest	-8.70642
▁kat	-8.70934
▁Rus	-8.70949
▁alıyor	-8.70973
▁adlı	-8.71035
▁durumda	-8.71191
b	-8.71244
▁ana	-8.71404
▁yerinde	-8.71498
▁yılı	-8.71538
ım	-8.71647
▁tercih	-8.71761
▁İran	-8.71883
▁uluslararası	-8.72071
▁Polis	-8.72216
▁operasyon	-8.72347
▁başında	-8.72357
ydi	-8.72363
▁resmi	-8.72391
▁Antalya	-8.72449
▁Süper	-8.72456
▁Çok	-8.7259
I	-8.72674
▁maçında	-8.72739
▁ayrıca	-8.72971
▁izin	-8.73018
▁enerji	-8.7328
▁bomba	-8.73284
▁durumu	-8.73322
▁arasındaki	-8.73784
sına	-8.7384
▁getirdi	-8.7386
▁milli	-8.73922
▁eşi	-8.74125
▁Müdürü	-8.74182
▁yapıldı	-8.74334
▁verilen	-8.74581
▁Eğitim	-8.74585
▁bana	-8.74632
▁güçlü	-8.74652
▁Şimdi	-8.74663
Türkiye	-8.74805
dığı	-8.75039
▁Recep	-8.7507
▁Tayyip	-8.75564
▁Can	-8.75691
sın	-8.75706
▁mu	-8.75725
▁Ve	-8.75775
▁sonunda	-8.75782
▁yabancı	-8.75925
▁bize	-8.75935
▁Mahkemesi	-8.76181
ecek	-8.7622
▁P	-8.76225
▁herhangi	-8.76263
▁gerçek	-8.76333
▁Yardımcısı	-8.76455
▁teslim	-8.76515
ik	-8.76532
▁sene	-8.76666
▁hedef	-8.76701
▁ayrı	-8.76787
▁araya	-8.76791
▁medya	-8.76935
lığı	-8.77059
▁internet	-8.77187
▁hep	-8.77337
▁belli	-8.77538
▁zarar	-8.77574
6	-8.77653
▁örgüt	-8.77747
▁şimdi	-8.77796
▁saatlerinde	-8.77797
▁dönem	-8.77798
▁karşısında	-8.77941
▁Güvenlik	-8.77979
▁arada	-8.7799
▁Merkezi	-8.78356
▁Bakan	-8.78373
acak	-8.78377
▁transfer	-8.78424
▁Birliği	-8.78841
▁Gül	-8.78862
▁isteyen	-8.78914
4	-8.78933
7	-8.7895
▁Çin	-8.79004
▁500	-8.79043
▁lazım	-8.79073
▁sabah	-8.79233
▁suç	-8.79246
▁istedi	-8.79569
il	-8.79621
▁kamu	-8.79729
▁Dışişleri	-8.79794
▁dava	-8.80057
▁dünyanın	-8.80429
▁ülkenin	-8.80495
▁nedenle	-8.80698
▁Yönetim	-8.80791
▁müdahale	-8.80889
▁Olay	-8.8097
▁Ç	-8.81059
▁olsa	-8.81099
▁dışı	-8.81153
▁çekti	-8.81417
▁sonu	-8.81417
▁yılın	-8.81597
ydı	-8.81851
▁fark	-8.8191
▁fiyatı	-8.82401
▁Ekonomi	-8.82536
▁pek	-8.82547
▁40	-8.82551
▁sistemi	-8.82617
▁tarihinde	-8.82679
▁Ceza	-8.82716
leriyle	-8.82726
▁ünlü	-8.8274
▁28	-8.82771
liği	-8.82915
▁üyesi	-8.83057
▁asker	-8.83445
▁yılda	-8.83875
▁anne	-8.83975
▁kız	-8.84005
▁canlı	-8.84052
▁Nisan	-8.84106
▁İki	-8.84145
▁Koç	-8.84161
▁Ak	-8.84351
▁sonrasında	-8.84371
mızı	-8.84371
▁İlçesi	-8.84797
lan	-8.84845
▁talep	-8.84845
▁ettiğini	-8.84968
▁İngiltere	-8.85085
erek	-8.85266
▁Sağlık	-8.85334
▁HDP	-8.85529
▁adı	-8.85539
▁Fatih	-8.85629
▁Kara	-8.85719
▁adam	-8.85811
▁diyor	-8.85934
▁başarılı	-8.85946
▁Trump	-8.86065
▁onu	-8.86097
▁bilgiye	-8.86183
▁Kemal	-8.86383
▁amacıyla	-8.86546
▁kredi	-8.86697
▁giden	-8.86747
▁katıldı	-8.86905
▁Murat	-8.86945
▁Prof	-8.87184
▁bildirildi	-8.87306
▁dair	-8.87321
▁maçı	-8.87402
çi	-8.87412
▁kan	-8.87453
mizi	-8.87574
▁anlattı	-8.87817
▁getiren	-8.8784
▁bölgede	-8.87898
▁Şu	-8.87973
▁türlü	-8.88259
▁Mayıs	-8.88273
▁dahil	-8.88417
▁maçta	-8.88499
▁Merkez	-8.88509
▁gerek	-8.88523
▁hızlı	-8.88564
▁cevap	-8.88888
ına	-8.89263
▁henüz	-8.89286
▁Alman	-8.89305
▁hazır	-8.89397
▁grup	-8.89552
▁Öz	-8.89587
▁IŞİD	-8.89638
▁DAEŞ	-8.89749
▁yönetim	-8.898
▁faiz	-8.8991
▁sarı	-8.89968
▁PYD	-8.89998
sun	-8.90035
Ç	-8.90044
ğı	-8.90111
8	-8.90112
▁adım	-8.9014
▁açısından	-8.9032
▁Fransa	-8.90326
▁isimli	-8.90358
▁olmadığı	-8.90396
▁aralarında	-8.90418
▁kendisine	-8.90613
mesi	-8.90667
▁çeken	-8.90907
▁Özel	-8.9099
▁ilgi	-8.91086
▁top	-8.91089
▁N	-8.91092
▁net	-8.91236
▁çeşitli	-8.91278
▁gündem	-8.91288
▁işaret	-8.914
ıyor	-8.91542
▁almak	-8.91575
▁ekonomik	-8.91578
▁aylık	-8.91699
▁hak	-8.91887
▁ileri	-8.91991
▁27	-8.92098
▁aile	-8.92103
▁kolay	-8.92132
▁düşük	-8.92157
▁Deniz	-8.92554
▁Atatürk	-8.92751
▁tehdit	-8.92899
▁Öte	-8.92935
▁Meclis	-8.93206
▁sivil	-8.93349
▁döneminde	-8.93411
sal	-8.93453
▁yapıyor	-8.93487
taki	-8.93739
ha	-8.93772
▁baş	-8.93808
▁Kasım	-8.93919
▁öncesi	-8.93929
▁yarın	-8.93933
▁onun	-8.93963
▁futbolcu	-8.93979
▁giren	-8.94061
▁anlatan	-8.94291
▁öyle	-8.9441
▁U	-8.94479
▁soru	-8.94514
▁ilçesinde	-8.94744
▁ediliyor	-8.94771
9	-8.94976
▁diyerek	-8.95141
▁sürekli	-8.95233
▁konuşan	-8.95253
▁Aydın	-8.95381
▁Hava	-8.9542
yan	-8.95459
▁sayı	-8.95839
▁günlerde	-8.96347
▁etmesi	-8.96422
▁Kılıçdaroğlu	-8.96565
▁dört	-8.9657
▁26	-8.96648
▁yıldır	-8.96705
▁Caddesi	-8.96962
▁başta	-8.96999
▁biraz	-8.97144
▁birkaç	-8.9751
ay	-8.97622
▁yerde	-8.97808
▁il	-8.9781
▁yani	-8.97835
U	-8.97941
▁hangi	-8.9796
▁artış	-8.97961
▁olup	-8.98036
▁Er	-8.98061
et	-8.98097
▁eş	-8.98387
▁Sarı	-8.98491
V	-8.98616
▁beni	-8.98649
▁Eylül	-8.98657
bi	-8.98713
▁değer	-8.98755
▁edilmesi	-8.98811
▁yönünde	-8.98974
lama	-8.99062
▁spor	-8.99063
▁parti	-8.99277
▁önüne	-8.99306
mek	-8.99398
▁tutuklandı	-8.99505
▁giriş	-8.99566
▁oy	-8.99648
▁Büyük	-8.99724
▁Halep	-8.99795
▁Ekim	-8.99808
▁temel	-8.9985
▁yazılı	-9.00026
▁oyun	-9.00056
▁gitti	-9.00226
▁Ay	-9.00277
▁Amerika	-9.00303
▁gösterdi	-9.00322
▁işlem	-9.00354
▁zorunda	-9.00471
▁Adana	-9.00476
▁Van	-9.00566
c	-9.00602
▁isim	-9.00726
▁girdi	-9.00776
ran	-9.00786
lük	-9.00815
▁tahmin	-9.00858
▁hayata	-9.00954
▁alanda	-9.01161
▁Belediyesi	-9.01198
▁kilometre	-9.01282
?"	-9.01288
▁beraber	-9.01295
▁Yani	-9.01338
sinin	-9.0137
▁elektrik	-9.01531
▁tür	-9.01556
▁değildir	-9.01566
ul	-9.01594
▁alacak	-9.01866
▁insanlar	-9.02013
ba	-9.02052
▁hapis	-9.02292
▁ek	-9.0236
▁bölge	-9.0236
▁bildirdi	-9.02368
▁yaş	-9.02389
▁Özellikle	-9.0241
▁dış	-9.02506
▁Dakika	-9.02583
L	-9.02753
▁bunlar	-9.02926
▁bizi	-9.02929
▁sayesinde	-9.02971
▁gerekli	-9.03109
▁Başkanlığı	-9.03116
dığını	-9.03232
▁e	-9.03235
sinde	-9.0337
▁29	-9.03374
▁yanlış	-9.03476
ıp	-9.03514
▁sert	-9.03645
▁emekli	-9.0366
▁Bankası	-9.0368
▁etkili	-9.03839
▁Grubu	-9.04015
▁ayı	-9.04017
▁dünyada	-9.04108
▁bekleniyor	-9.04117
Ö	-9.04166
▁cezası	-9.04317
▁Sosyal	-9.04414
▁haline	-9.04504
▁Teknik	-9.04543
▁buna	-9.04578
▁yapı	-9.04592
▁yaşında	-9.04802
▁vardır	-9.04905
▁Bizim	-9.04959
▁Ömer	-9.05206
▁oluşan	-9.05207
▁ülkede	-9.05209
▁kendisini	-9.05505
▁kaybetti	-9.05709
▁şüpheli	-9.05865
5	-9.05897
▁sınır	-9.05918
▁telefon	-9.0593
▁kaydedildi	-9.05939
▁Ba	-9.05967
▁DEAŞ	-9.06009
▁düştü	-9.06151
▁ilan	-9.06218
▁can	-9.06262
inde	-9.06329
▁diyen	-9.06448
▁Ö	-9.06497
▁Eğer	-9.06718
▁geldiği	-9.06925
▁ödeme	-9.06936
▁Derneği	-9.06943
▁babası	-9.07167
▁arama	-9.07182
▁ona	-9.07273
▁forma	-9.07303
tik	-9.07313
▁Haberler	-9.07335
▁beri	-9.07357
▁tamamen	-9.07501
▁yaralı	-9.07583
▁İslam	-9.07665
▁İbrahim	-9.07756
▁yapacak	-9.07773
ak	-9.07788
▁günlük	-9.07967
▁etkisiz	-9.07982
▁ekibi	-9.08117
siniz	-9.08122
▁yapılması	-9.0825
▁Al	-9.08307
▁attı	-9.08352
▁Suriyeli	-9.08707
▁Burada	-9.0877
▁otomobil	-9.08805
Ü	-9.08832
▁kalp	-9.08867
▁yere	-9.09076
▁herkes	-9.09117
be	-9.09217
▁Güneş	-9.09282
▁baba	-9.09293
▁Futbol	-9.09333
it	-9.09345
▁çıkar	-9.09768
▁Güncel	-9.09812
mı	-9.09908
▁pazar	-9.1006
▁geniş	-9.10084
▁Demir	-9.10167
▁Batı	-9.10177
▁konut	-9.10231
▁Aynı	-9.10233
▁Kültür	-9.1029
▁yaşadığı	-9.10495
▁süren	-9.10539
▁çalışmalar	-9.10639
▁veriyor	-9.10665
▁sona	-9.10765
ge	-9.1085
▁film	-9.10866
▁gören	-9.10931
▁zaten	-9.10941
us	-9.11007
▁Çelik	-9.1108
▁kendini	-9.11212
inin	-9.11278
▁ediyorum	-9.1132
▁metre	-9.11355
▁önem	-9.11436
▁Obama	-9.11512
to	-9.11612
▁güç	-9.11634
tu	-9.11682
is	-9.11683
▁kim	-9.11721
va	-9.11731
▁mahkeme	-9.11739
▁acı	-9.11749
▁yemek	-9.11785
▁Kupası	-9.11945
▁kilo	-9.11967
on	-9.12103
▁girişimi	-9.1214
▁silahlı	-9.12146
▁vergi	-9.12499
▁Hüseyin	-9.12502
▁yasa	-9.12526
▁yaralandı	-9.12643
▁İş	-9.1269
▁edildiği	-9.12747
▁yurt	-9.12864
▁yardımcı	-9.1308
iyor	-9.13098
▁I	-9.13135
▁lideri	-9.13233
▁altın	-9.13235
▁Anayasa	-9.13364
▁ortada	-9.13514
▁sorun	-9.13527
cu	-9.13541
▁Araştırma	-9.13937
▁yaşam	-9.14011
▁Bunlar	-9.14082
▁Geçen	-9.14103
▁Su	-9.14126
▁geç	-9.14302
ği	-9.14352
▁MHP	-9.14379
inci	-9.14439
▁kullandığı	-9.14504
▁güven	-9.14676
▁gösteren	-9.14824
▁başarı	-9.14867
▁Jandarma	-9.14956
▁oldukça	-9.14983
▁Şube	-9.15057
▁oranı	-9.15167
▁Bunu	-9.15346
mıştı	-9.15428
▁proje	-9.1548
▁olduğuna	-9.15543
▁Me	-9.15558
muş	-9.15599
▁merkez	-9.15699
▁olma	-9.15968
▁R	-9.15986
▁Büyükşehir	-9.16132
sunuz	-9.16144
▁Buna	-9.16147
▁Hasan	-9.16303
▁Emre	-9.1644
▁31	-9.16528
▁durumunda	-9.16594
▁insanların	-9.16704
▁teşekkür	-9.16724
▁başkan	-9.17029
▁İsrail	-9.17036
ça	-9.17151
▁desteği	-9.17161
▁belirlendi	-9.17165
▁futbol	-9.17189
▁çalışmaları	-9.1723
▁35	-9.17248
▁Tüm	-9.17319
za	-9.17364
▁Örgütü	-9.17565
▁alarak	-9.17635
maya	-9.17727
han	-9.17733
▁bundan	-9.17735
▁2015'	-9.17793
▁orada	-9.18015
▁merkezi	-9.18263
▁yüz	-9.18377
▁Uluslararas	-9.1856
▁katkı	-9.18682
ip	-9.1887
▁emniyet	-9.18874
▁şirket	-9.19103
▁defa	-9.19143
▁oğlu	-9.19221
▁olumsuz	-9.19251
▁sol	-9.19262
▁UEFA	-9.19288
▁Mücadele	-9.19288
▁gerçekleştiril	-9.19474
▁aday	-9.1952
▁savunma	-9.19675
▁ölüm	-9.19755
▁Bursa	-9.19789
▁yargı	-9.20281
▁hatta	-9.20434
▁gerekir	-9.2049
▁olumlu	-9.20518
▁Ağustos	-9.20521
fa	-9.20574
▁Milletvekili	-9.20673
▁yüzden	-9.20679
▁Kurumu	-9.20694
▁büyüme	-9.20819
▁çıkıyor	-9.20829
▁rol	-9.20911
ö	-9.20968
▁et	-9.20987
▁hakkı	-9.20987
▁okul	-9.21006
▁Gaziantep	-9.21142
▁Kuvvetleri	-9.21193
w	-9.21204
▁Sayın	-9.21393
▁mutlu	-9.21409
▁mevcut	-9.21598
▁başkanlık	-9.21705
▁varsa	-9.21761
▁üretim	-9.21797
▁kaza	-9.22259
▁yan	-9.22289
▁toplum	-9.22426
▁yapımı	-9.22624
▁etme	-9.22694
▁60	-9.22768
▁yıllarda	-9.22836
▁çıkma	-9.22912
▁hakim	-9.22988
nce	-9.22998
▁sürede	-9.23026
▁normal	-9.23095
▁finans	-9.23153
▁Havalimanı	-9.23186
diği	-9.23218
▁başkanı	-9.23324
▁annesi	-9.23606
▁alma	-9.23615
▁ölü	-9.23673
▁geçtiğimiz	-9.23844
▁Kaya	-9.23851
▁Doğu	-9.23865
cü	-9.23888
▁erken	-9.2389
▁vatandaşlar	-9.23928
▁Ar	-9.23963
▁çözüm	-9.23969
▁erkek	-9.24096
▁seçim	-9.24099
▁yola	-9.24178
▁atan	-9.24255
diğini	-9.2428
▁ulaştı	-9.24396
▁kafa	-9.2445
▁din	-9.2448
▁civarında	-9.2449
▁200	-9.24643
▁Bey	-9.2474
▁Sur	-9.2492
▁vermek	-9.24973
▁La	-9.2507
▁halk	-9.25094
▁yolu	-9.251
▁Cumhuriyeti	-9.25396
▁deniz	-9.25404
▁anayasa	-9.25406
▁İsmail	-9.25437
▁Hakan	-9.25458
▁istediği	-9.25762
▁TV	-9.25846
▁Doğan	-9.25928
ol	-9.25965
▁ediyoruz	-9.26017
landı	-9.26018
▁rahat	-9.26031
▁demokrasi	-9.26039
▁vurgulaya	-9.26244
▁Fakat	-9.26256
▁olacağını	-9.26405
▁sürüyor	-9.2646
▁ses	-9.26546
▁Sokak	-9.26579
çı	-9.267
▁aracı	-9.26715
▁kazandı	-9.26934
▁düşen	-9.27051
▁fotoğraf	-9.27149
▁hükümet	-9.27187
▁Haziran	-9.27243
▁yaparak	-9.27245
▁üçüncü	-9.27414
x	-9.27716
▁topu	-9.27821
▁banka	-9.27849
▁aslında	-9.27913
▁yarı	-9.27957
ter	-9.27985
▁kırmızı	-9.28121
▁hayat	-9.28133
▁altını	-9.28161
▁getirildi	-9.28295
▁kullanılan	-9.28406
▁istiyorum	-9.28427
▁kurulu	-9.28444
▁etmeye	-9.28481
▁Peki	-9.28482
▁kimse	-9.28502
ro	-9.28722
▁baskı	-9.28773
▁ismi	-9.28798
▁De	-9.28934
▁uygulama	-9.29084
▁halde	-9.29282
▁Şahin	-9.29312
zi	-9.29471
▁takımın	-9.2955
lanan	-9.29618
▁ihtiyaç	-9.29667
▁kaç	-9.29716
▁üniversite	-9.29723
▁at	-9.29726
▁yaptıkları	-9.29767
▁hasta	-9.29823
▁uzak	-9.29903
▁Komutanlığı	-9.29927
▁taşıyan	-9.29928
▁kişilik	-9.29933
▁petrol	-9.30072
▁Dün	-9.30145
▁kara	-9.3017
▁karşıya	-9.30225
▁dolu	-9.30331
len	-9.30445
▁yara	-9.3055
▁genelinde	-9.30596
▁küresel	-9.30608
▁gerçekleştirile	-9.30641
▁takımı	-9.30707
▁teklif	-9.30826
▁dünyaya	-9.3086
▁yakalandı	-9.30881
▁hukuk	-9.31073
▁hesap	-9.31122
can	-9.31163
▁beş	-9.31208
▁kişilerin	-9.31219
▁trafik	-9.31318
ız	-9.31409
sının	-9.3144
▁alanı	-9.31509
▁2014	-9.31628
▁Güney	-9.31866
mızın	-9.31986
▁Diğer	-9.31988
▁yönetimi	-9.32048
▁operasyonda	-9.3209
▁Twitter	-9.32157
▁Benim	-9.32227
▁İyi	-9.32267
vi	-9.32283
▁alınması	-9.32292
▁üye	-9.32307
▁döndü	-9.32364
▁süreci	-9.32521
▁bölgesinde	-9.32603
▁Genelkurmay	-9.3268
▁TBMM	-9.32688
Bir	-9.32703
▁çünkü	-9.32849
▁sorunu	-9.32929
▁BM	-9.33229
▁madde	-9.33262
▁fiyat	-9.33319
▁tartışma	-9.33365
▁açtı	-9.33424
sınız	-9.33499
▁Cuma	-9.33559
▁şehir	-9.3367
▁yasağı	-9.33679
▁Kuzey	-9.33745
▁gerekçesiyle	-9.3375
nü	-9.33891
▁istiyoruz	-9.34105
▁saha	-9.34156
▁45	-9.34247
▁Gökhan	-9.34272
▁Kürt	-9.34286
os	-9.34287
▁kart	-9.34338
▁yeri	-9.34369
▁Genç	-9.34428
▁sonuç	-9.3445
▁300	-9.34466
ver	-9.34466
▁Ma	-9.34489
▁şeyi	-9.34544
▁güçleri	-9.34611
▁yoktur	-9.34713
min	-9.34768
▁Osmanlı	-9.34787
▁yürütülen	-9.34799
▁yıla	-9.34862
▁krizi	-9.34928
▁bölüm	-9.34937
nizi	-9.34937
▁dolarlık	-9.34966
▁sıralarında	-9.34971
▁sistem	-9.35114
▁Arena	-9.35331
▁kişiler	-9.35357
▁Yapılan	-9.35389
▁inceleme	-9.35553
layan	-9.35762
▁işi	-9.35791
▁çerçevesinde	-9.35895
▁kent	-9.35896
▁İnsan	-9.35934
▁anlaşma	-9.36366
▁Yunanistan	-9.36425
▁İngiliz	-9.36426
▁Sadece	-9.36438
kan	-9.36464
▁mutlaka	-9.3648
▁alt	-9.36495
▁araştırma	-9.36579
▁istiyor	-9.36582
▁önümüzde	-9.36595
▁eder	-9.36598
▁neler	-9.36697
▁dönemi	-9.36731
▁işbirliği	-9.36767
▁derin	-9.3685
▁şeyler	-9.3687
▁hastaneye	-9.36914
mişti	-9.37071
00	-9.37076
▁Kar	-9.37316
▁çıkacak	-9.37323
▁ortalama	-9.37522
▁barış	-9.37684
▁İlçe	-9.37927
▁buldu	-9.37952
▁faaliyet	-9.38093
▁satın	-9.38098
▁yolcu	-9.3811
▁ilçe	-9.38124
▁Sonra	-9.38145
▁teknoloji	-9.3832
▁kaldırıldı	-9.38347
▁gösteriyor	-9.38563
▁New	-9.38588
▁geldiğini	-9.38621
ke	-9.38658
kları	-9.38854
▁evinde	-9.38857
ey	-9.38888
sak	-9.38889
ül	-9.38915
▁sonucunda	-9.38954
▁Ra	-9.39001
klarını	-9.39096
▁kızı	-9.39124
▁hakem	-9.39211
▁İtalya	-9.39212
▁verecek	-9.39377
nca	-9.39559
san	-9.39574
▁sebep	-9.39602
spor	-9.39605
▁onların	-9.39722
▁ton	-9.39784
yen	-9.39789
▁iptal	-9.39813
▁dizi	-9.39815
▁kaydeden	-9.40112
suz	-9.40197
▁siz	-9.40201
▁gerçekleştir	-9.40262
▁asla	-9.40277
▁öğrenci	-9.40372
lerimiz	-9.40419
▁yapmaya	-9.40469
iş	-9.4048
▁ücret	-9.40504
▁Konya	-9.40542
▁sağlıklı	-9.40624
or	-9.4064
▁eylem	-9.40644
▁Holding	-9.40671
▁Volkan	-9.40677
0	-9.4068
▁Adalet	-9.40685
unu	-9.40811
▁olmaz	-9.40827
▁Böyle	-9.40865
▁işlemleri	-9.40885
▁YPG	-9.40909
▁olursa	-9.40909
DA	-9.40926
▁davet	-9.41035
▁Suudi	-9.41077
ah	-9.41197
▁yazı	-9.41374
▁imha	-9.41434
▁geçiş	-9.41438
▁gizli	-9.41536
▁mal	-9.41644
▁alanında	-9.41645
sında	-9.4167
▁AKP	-9.41695
▁attığı	-9.41714
▁operasyonu	-9.41839
▁Söz	-9.41849
▁vurguladı	-9.41863
abilir	-9.41907
▁görüş	-9.41938
▁olduklarını	-9.42124
ko	-9.4219
▁doğal	-9.42192
▁yağ	-9.4226
▁Bazı	-9.42311
▁taş	-9.42347
▁Bölge	-9.42398
▁doğum	-9.42565
dik	-9.42568
▁Orta	-9.42594
lığa	-9.42639
lardı	-9.42701
tur	-9.42718
▁ederken	-9.428
▁engel	-9.42828
▁başlayacak	-9.42854
▁İkinci	-9.42889
▁önde	-9.42899
▁başvuru	-9.4294
▁Savunma	-9.42976
▁bilinen	-9.42978
▁belediye	-9.4299
▁Ya	-9.42999
▁terk	-9.43
▁birinci	-9.43068
▁gördü	-9.43128
▁etkisi	-9.43218
liğe	-9.43257
▁millet	-9.43271
î	-9.43331
▁Ağır	-9.43365
▁numara	-9.43369
▁yerli	-9.4364
nızı	-9.43691
▁tatil	-9.43753
▁konuşma	-9.43789
▁olmuş	-9.43906
▁inşa	-9.43958
▁merak	-9.43967
▁ameliyat	-9.44023
▁Z	-9.44057
▁söylüyor	-9.44063
iyle	-9.44081
▁bulunduğunu	-9.44102
▁lider	-9.44106
▁karşılık	-9.44285
▁açıldı	-9.44289
▁yaralanan	-9.44343
▁sahne	-9.44465
▁Tıp	-9.44564
▁katılan	-9.44572
sanız	-9.44586
▁yeterli	-9.44631
ebilir	-9.44647
▁kaybeden	-9.44667
▁Kadın	-9.44763
mizin	-9.44811
▁kaleci	-9.4484
▁Mahkeme	-9.44873
▁vatandaş	-9.44902
▁cenaze	-9.44922
▁bulutlu	-9.44927
▁ilçesi	-9.44998
▁sanat	-9.44998
▁iktidar	-9.45032
▁müzik	-9.45053
▁Şırnak	-9.45125
▁toplantısında	-9.45207
▁marka	-9.4522
üncü	-9.45308
▁toplantı	-9.45399
yiz	-9.45415
ve	-9.45564
▁yapıldığı	-9.45579
30	-9.45595
▁uçak	-9.45673
▁demek	-9.45674
▁çift	-9.45723
▁kendisi	-9.45871
ga	-9.45878
▁iletişim	-9.45915
▁hakaret	-9.45924
▁alıp	-9.45926
▁kendilerine	-9.46003
▁mülteci	-9.46064
do	-9.46086
▁görülen	-9.46115
▁düşünüyorum	-9.4613
▁Aile	-9.4621
LAR	-9.46236
▁açıklaması	-9.46385
▁Kulübü	-9.46422
▁haberi	-9.46431
▁saygı	-9.46465
▁hafif	-9.4648
▁2016'	-9.46486
▁aşırı	-9.46548
mez	-9.46621
▁Ş	-9.46638
▁sözleşme	-9.46668
▁açılan	-9.46724
▁Osman	-9.46731
▁Hem	-9.46737
▁denildi	-9.4674
▁görevli	-9.46863
▁çalışıyor	-9.4691
▁Sultan	-9.46925
▁ekip	-9.46928
▁cinsel	-9.46939
▁Bütün	-9.46956
▁size	-9.47013
▁patlama	-9.47066
▁Direktörü	-9.47099
▁Pazar	-9.47119
▁f	-9.47172
▁Yıldız	-9.47337
▁yaşamını	-9.47357
es	-9.4741
as	-9.47529
▁bugüne	-9.47561
▁evde	-9.47643
▁arka	-9.47715
▁ihtiyacı	-9.47733
▁Enerji	-9.47733
▁kaldığı	-9.47744
▁binlerce	-9.4777
▁günde	-9.47807
▁yerel	-9.47931
▁yıldız	-9.47965
ür	-9.48105
▁harekete	-9.48106
▁olmaya	-9.48157
▁çıkardı	-9.48174
▁anlamda	-9.48252
▁V	-9.48292
▁istihdam	-9.48337
▁çalışması	-9.48374
▁al	-9.48407
leşme	-9.48431
▁altı	-9.48573
mize	-9.4861
▁Ev	-9.48615
▁kuruş	-9.4863
▁Asya	-9.48672
Ben	-9.48683
▁Tek	-9.48726
▁televizyon	-9.48752
▁Eski	-9.48848
▁Komisyonu	-9.48921
▁ödül	-9.48923
▁bunların	-9.48976
▁belki	-9.49001
▁onlar	-9.49031
▁Şehit	-9.49038
▁Kayseri	-9.49159
▁personel	-9.49175
▁Böylece	-9.49197
son	-9.49273
Biz	-9.49283
▁Uzun	-9.49393
▁32	-9.49409
▁patlayıcı	-9.49433
▁işçi	-9.4967
▁90	-9.49713
▁sıkıntı	-9.4972
▁kadro	-9.49782
▁belirtilen	-9.49786
sen	-9.49786
▁devletin	-9.50148
▁Arabistan	-9.50192
sıyla	-9.50231
â	-9.50247
▁s	-9.50248
▁W	-9.50311
▁geçmiş	-9.50365
▁ifadesini	-9.50414
ğ	-9.50525
▁liraya	-9.50526
▁ekran	-9.50535
ının	-9.50683
▁dahi	-9.50773
▁model	-9.50873
▁Sinan	-9.50883
lenen	-9.50959
yım	-9.50959
▁şiddet	-9.50998
▁direktör	-9.51014
▁oynanan	-9.5104
▁Kur	-9.51216
▁çıkış	-9.51329
▁yaşandı	-9.51402
▁yaz	-9.51447
▁Putin	-9.5146
▁dikkati	-9.51587
▁öncesinde	-9.51606
▁tane	-9.51666
▁Turan	-9.51692
▁bilgileri	-9.51773
▁kamera	-9.51877
▁gider	-9.5193
rak	-9.51969
▁oldukları	-9.52068
▁giderek	-9.5209
▁evine	-9.52121
▁Sabah	-9.52125
▁yanıt	-9.52127
tr	-9.52202
20	-9.52298
▁hala	-9.52315
▁Aziz	-9.52329
▁katıldığı	-9.52359
▁süreçte	-9.52408
▁3.	-9.52449
▁Musul	-9.52529
▁örnek	-9.52547
▁ürün	-9.52553
muz	-9.52682
▁Orman	-9.52733
▁edin	-9.52761
▁Grup	-9.52941
▁korku	-9.52955
▁hain	-9.53029
▁70	-9.53044
▁mü	-9.53149
▁Başakşehir	-9.5315
▁sorumlu	-9.53258
▁L	-9.53476
larımız	-9.53484
▁benzer	-9.53488
▁tur	-9.5363
▁kurulan	-9.53655
DE	-9.53663
▁içine	-9.53747
▁edilecek	-9.53774
▁sonraki	-9.5378
Cumhurbaşkanlığı	-9.53795
▁Paris	-9.53799
dım	-9.53809
▁adli	-9.53814
▁80	-9.5385
▁düzey	-9.53913
▁sıcak	-9.53918
FETÖ	-9.53963
PDY	-9.53979
▁kanser	-9.54002
inden	-9.54029
ist	-9.54088
▁medyada	-9.54112
▁eve	-9.54166
▁haberine	-9.54178
▁değerlendirme	-9.54189
▁bölümünde	-9.54191
▁karşılaşma	-9.5422
▁Apple	-9.54246
▁süredir	-9.543
ev	-9.54308
▁bölgeye	-9.54377
▁halkın	-9.54455
▁Başsavcılığı	-9.54505
▁koruma	-9.54576
▁başlattı	-9.5466
▁iPhone	-9.54668
▁Na	-9.54688
▁edeceğiz	-9.54711
▁kapalı	-9.54886
▁2.	-9.54894
▁bilgiler	-9.54918
çe	-9.54939
▁bunları	-9.54983
kar	-9.55007
gi	-9.55017
▁Toto	-9.55106
▁yapılıyor	-9.55107
▁açıklandı	-9.55156
▁kişiyi	-9.55213
▁Le	-9.5522
▁yazdı	-9.55244
▁gecesi	-9.55264
leme	-9.55287
▁Trabzon	-9.55318
▁insanları	-9.55367
▁sokağa	-9.55536
▁tarih	-9.55731
▁gerektiği	-9.55745
▁Albayrak	-9.55759
▁kullanan	-9.55784
▁34	-9.55854
▁sen	-9.55865
j	-9.55867
▁içi	-9.55873
▁Dolayısıyla	-9.55987
▁Tabii	-9.5605
▁anlamı	-9.56081
▁kardeşi	-9.56097
10	-9.56199
▁Mersin	-9.56221
▁Nur	-9.56253
▁şirketi	-9.56295
▁Amerikan	-9.56313
▁Ko	-9.56326
▁dolara	-9.56329
▁programı	-9.56341
▁görüşme	-9.56368
▁noktada	-9.56388
▁Bülent	-9.56418
st	-9.56467
▁vurdu	-9.56483
▁konuk	-9.56582
▁süreç	-9.56637
▁etki	-9.56643
▁diş	-9.56662
▁zengin	-9.56858
fi	-9.56886
▁örgütün	-9.56957
▁gıda	-9.56975
▁Madrid	-9.57091
▁hazırlanan	-9.57109
▁olacağı	-9.57171
▁vatandaşların	-9.57233
ic	-9.57265
▁cep	-9.57299
▁galibiyet	-9.57323
▁yetkilileri	-9.57324
Z	-9.57363
▁başı	-9.5737
▁bıraktı	-9.57379
▁çocuğu	-9.57412
▁teşvik	-9.57531
▁yaptığını	-9.57585
▁Baş	-9.57708
▁çocukların	-9.57718
▁olmadı	-9.57726
van	-9.57756
▁Öztürk	-9.57761
▁onları	-9.57865
▁Darbe	-9.57914
men	-9.57928
▁arkadaşı	-9.5793
▁bölümü	-9.57934
▁adeta	-9.57946
▁dönemin	-9.57986
▁siyah	-9.5802
bu	-9.58036
ad	-9.58047
▁kurum	-9.58092
▁akıllı	-9.58112
hi	-9.58145
Gündem	-9.58166
▁oyuncusu	-9.58232
▁Re	-9.58249
▁saldırıda	-9.58338
▁yasak	-9.5844
▁Ortadoğu	-9.58444
ed	-9.58552
nci	-9.58562
▁Komutanı	-9.58567
▁Kendi	-9.58599
▁üzerindeki	-9.58652
▁çıktığı	-9.58655
▁öğretmen	-9.58715
▁Başbakanı	-9.58748
▁olayı	-9.58984
▁boş	-9.59001
▁olmasına	-9.59048
▁mesaj	-9.59095
▁endişe	-9.59119
dü	-9.59119
▁kuru	-9.59202
▁Ege	-9.5933
▁beklenen	-9.59345
▁sanayi	-9.5939
mıza	-9.59419
▁birisi	-9.59419
▁yapma	-9.59426
▁sonuçları	-9.5946
▁başkenti	-9.59515
▁yerini	-9.59607
▁tutuklu	-9.59654
▁oynadığı	-9.59682
▁risk	-9.59847
▁teröristler	-9.59894
▁kulüp	-9.59976
yız	-9.60016
EN	-9.60044
▁gidiyor	-9.60215
▁Vakfı	-9.60256
▁Yüksek	-9.60265
maz	-9.60326
▁Müslüman	-9.60328
▁Onlar	-9.60399
▁telefonu	-9.60402
▁aracın	-9.6041
▁video	-9.60463
▁yükseldi	-9.60486
▁kazanan	-9.60565
▁üyeleri	-9.60701
▁plakalı	-9.60756
▁ayrıldı	-9.60897
▁acil	-9.60899
▁suçundan	-9.61012
▁sektör	-9.61032
▁temsil	-9.61038
▁adamı	-9.61141
▁hızla	-9.61146
▁siyaset	-9.61212
▁öldü	-9.61269
▁başlıyor	-9.61314
▁yapmış	-9.6133
▁olacaktır	-9.61393
▁ticari	-9.61413
▁tahliye	-9.61419
▁edip	-9.61421
▁farkı	-9.61497
ch	-9.61531
▁sayısının	-9.61556
▁düzenlediği	-9.61591
▁hepsi	-9.61597
▁kimlik	-9.61609
▁Da	-9.61628
▁Abdullah	-9.61655
▁güncelleme	-9.61748
▁sürdü	-9.6178
▁sahada	-9.61876
▁sınav	-9.61879
▁yaparken	-9.61892
▁çocukları	-9.61906
iye	-9.61907
▁%	-9.61929
▁Federasyonu	-9.61955
▁kesin	-9.6196
▁herkesin	-9.62091
▁intihar	-9.62122
▁sağlamak	-9.62148
▁adını	-9.62203
▁etmiş	-9.62214
▁gerçekten	-9.62315
▁Fırat	-9.62379
▁kanun	-9.62415
▁cenazesi	-9.62422
ru	-9.62443
▁Belçika	-9.62459
▁değişiklik	-9.62537
▁maçın	-9.62545
▁Karadeniz	-9.62584
▁kritik	-9.62585
lanma	-9.62667
mektedir	-9.62716
▁isimler	-9.62718
▁duyurdu	-9.62722
▁İç	-9.62821
▁terörle	-9.62825
▁çocuklar	-9.629
mıştır	-9.63063
▁Turizm	-9.63065
▁oyunu	-9.63074
▁yavaş	-9.63156
▁hız	-9.63174
▁olmasını	-9.63313
50	-9.6341
▁a	-9.63413
▁kişiye	-9.63483
▁paylaştı	-9.63544
▁örgütünün	-9.63594
▁görevi	-9.63606
▁kriz	-9.63635
▁görmek	-9.63751
▁final	-9.63754
▁Moskova	-9.63777
▁Se	-9.63986
▁uzman	-9.6406
▁Artık	-9.64068
▁kentinde	-9.64089
▁arası	-9.6413
▁kira	-9.64155
▁Facebook	-9.64247
▁milletvekilleri	-9.64247
▁hayal	-9.64251
▁milletin	-9.64254
ov	-9.64355
▁dev	-9.64488
▁Dündar	-9.64492
rken	-9.64504
▁York	-9.64727
▁Ticaret	-9.64732
▁çıkması	-9.64774
▁TSK	-9.64786
▁bak	-9.64837
▁verme	-9.64872
▁değerli	-9.64962
▁Azerbaycan	-9.64986
▁Denizli	-9.6506
▁sağlayan	-9.65093
▁işe	-9.65112
▁Yusuf	-9.65209
▁Mardin	-9.65221
▁Salih	-9.65223
▁Bursaspor	-9.65245
▁istediğini	-9.65409
▁servis	-9.65412
▁asıl	-9.65431
▁Konseyi	-9.65516
dim	-9.65522
▁sanık	-9.65576
▁dil	-9.6572
▁kitap	-9.65764
▁kaybı	-9.65806
▁gerçekleşti	-9.65822
▁hastanede	-9.6587
▁adayı	-9.65972
▁içindeki	-9.65975
▁sebebiyle	-9.66031
▁vermesi	-9.66035
ze	-9.66061
▁kayıp	-9.66115
ut	-9.66208
lo	-9.66257
▁bilim	-9.66276
▁2017	-9.66314
▁vatan	-9.6638
▁Arslan	-9.66426
▁belirlenen	-9.6644
▁itibarıyla	-9.66447
▁olayın	-9.6654
dür	-9.66629
siyle	-9.66652
▁geçici	-9.66679
acağı	-9.66683
▁bekliyor	-9.66731
▁sağlığı	-9.66803
▁Arda	-9.66832
▁gelmesi	-9.66864
▁doğrudan	-9.66874
▁sebebi	-9.66886
▁indirim	-9.66901
▁kayıt	-9.66905
▁yayınlanan	-9.66941
▁ihracat	-9.66947
▁seyahat	-9.66961
▁Sa	-9.66999
▁hakları	-9.6702
▁J	-9.6706
▁parça	-9.67072
LER	-9.67174
▁Yine	-9.67234
▁yüzünden	-9.67528
▁Afrika	-9.67597
▁Kan	-9.67622
▁Selçuk	-9.67628
▁almaya	-9.6767
▁Fetullahçı	-9.67693
▁Kaza	-9.67714
imiz	-9.67771
▁yaptık	-9.6784
▁edilmiş	-9.67861
▁itibariyle	-9.67915
▁işin	-9.68016
▁Açıklamada	-9.68049
▁kadının	-9.68151
▁getirilen	-9.68167
▁inşaat	-9.68185
ladı	-9.68238
ğını	-9.68261
▁rakibi	-9.683
▁Ukrayna	-9.68308
▁gönderildi	-9.68312
▁Ta	-9.68319
▁çağrı	-9.68374
ing	-9.68386
▁rakip	-9.68424
▁Sanayi	-9.68431
▁görme	-9.68649
▁euro	-9.68653
▁sayılı	-9.68656
▁kalma	-9.68706
▁elinde	-9.68727
▁fırsat	-9.68846
▁ettik	-9.68849
▁halkı	-9.689
▁Akdeniz	-9.68905
▁İspanya	-9.68937
lüğü	-9.68999
▁Beyaz	-9.69074
yken	-9.69123
▁liralık	-9.69161
▁kısmı	-9.69187
▁bütçe	-9.69325
▁ticaret	-9.69373
▁verdiğini	-9.69425
ER	-9.69589
▁yanına	-9.69614
▁0	-9.69708
▁kaynak	-9.69736
▁geçirdi	-9.69738
▁Halk	-9.69774
▁açıklamalarda	-9.69782
kleri	-9.69837
▁AA	-9.69867
▁gönderdi	-9.69904
▁çaba	-9.69915
▁başlatılan	-9.69923
▁Burak	-9.69943
▁merkezinde	-9.6995
▁Fransız	-9.70124
▁arkasında	-9.70144
▁Erdem	-9.70179
▁Hatta	-9.70194
▁milletvekili	-9.70202
▁oranında	-9.70208
▁liradan	-9.70269
up	-9.70339
▁düzenleme	-9.70382
▁hastalık	-9.70387
▁güvenli	-9.70479
▁muhalefet	-9.7053
lendi	-9.70548
ber	-9.70551
▁dedim	-9.70663
▁çoğu	-9.70695
▁Barcelona	-9.70695
▁Küçük	-9.70705
▁bombalı	-9.70726
▁yangın	-9.70823
▁güvenliği	-9.70834
yet	-9.70838
▁The	-9.70854
▁Ana	-9.70859
▁tabii	-9.7086
▁özelliği	-9.70879
▁İçişleri	-9.70932
▁yalnız	-9.71146
▁Çavuşoğlu	-9.71207
▁gücü	-9.71207
▁Kartal	-9.71212
▁yapması	-9.71226
▁gaz	-9.7129
▁işte	-9.71343
ren	-9.71364
▁rapor	-9.71396
▁beyaz	-9.71408
▁ilişki	-9.71453
▁kaynağı	-9.71487
▁geride	-9.71512
id	-9.71527
▁girişiminin	-9.71548
▁insanın	-9.71566
▁ince	-9.71588
una	-9.7162
▁Partisi	-9.71622
▁sizin	-9.71656
▁esas	-9.71706
luğu	-9.71777
dık	-9.71788
▁performans	-9.71797
ık	-9.71857
▁düşüş	-9.71941
mıyor	-9.71967
eceğini	-9.71977
▁topla	-9.72121
▁Altın	-9.72164
▁sizi	-9.72251
▁çevre	-9.72271
▁sahaya	-9.72271
▁algı	-9.72316
let	-9.72354
▁ilaç	-9.72369
▁soruşturması	-9.72381
▁alması	-9.72417
▁sahte	-9.72486
bir	-9.72492
▁Onun	-9.72704
▁gelişme	-9.72758
ret	-9.72786
▁tedavisi	-9.72824
▁ekonomi	-9.72833
▁Şampiyonlar	-9.7284
▁/	-9.72916
▁çocuğun	-9.72977
▁doğrultusunda	-9.73002
acağını	-9.73085
▁Uğur	-9.73233
▁memuru	-9.73239
▁grubu	-9.73274
▁San	-9.73327
▁nokta	-9.73426
▁aykırı	-9.73435
▁sürdürdü	-9.73518
▁tarım	-9.73529
▁Metin	-9.73535
▁beslenme	-9.73537
▁Fakültesi	-9.7354
▁ülkeye	-9.73557
▁fiyatları	-9.73621
▁çekiyor	-9.73771
▁Ro	-9.73894
▁Gün	-9.73916
İN	-9.73959
▁ak	-9.7398
▁Siz	-9.73981
▁Ünlü	-9.73992
▁yolda	-9.74009
▁ülkeler	-9.7403
▁onlara	-9.74033
▁otobüs	-9.7405
▁itfaiye	-9.74054
▁kol	-9.74065
▁filmi	-9.74115
▁hata	-9.74149
▁ligde	-9.74155
▁kültür	-9.74188
▁bilgisayar	-9.74243
lerimizi	-9.74245
▁operasyonlar	-9.74272
▁turizm	-9.74273
▁geçirildi	-9.74346
eçtiğimiz	-9.7445
▁sınıf	-9.74468
▁gözaltı	-9.74488
▁performansı	-9.74516
▁güneş	-9.74567
▁Şimşek	-9.74583
▁Clinton	-9.74589
▁Londra	-9.74591
▁Cizre	-9.74599
Dk	-9.7464
pe	-9.74696
▁götürüldü	-9.74729
▁hal	-9.74817
▁ilginç	-9.7485
▁verilmesi	-9.74857
▁Yaklaşı	-9.74865
▁saatleri	-9.74896
▁öğle	-9.74919
meye	-9.74923
▁plan	-9.74966
▁gördüğü	-9.74983
▁ister	-9.74988
▁karşısına	-9.75062
▁insani	-9.75097
▁yeşil	-9.75136
▁sürpriz	-9.75136
▁meyve	-9.75213
▁örgütüne	-9.75231
▁birinin	-9.75258
▁yük	-9.75295
▁düşünce	-9.75348
▁Şen	-9.75375
▁Çocuk	-9.7554
▁ihraç	-9.75651
▁Brüksel	-9.75663
▁kampanya	-9.75666
▁Terörle	-9.75776
▁amacı	-9.75796
▁rahatsız	-9.75798
▁alın	-9.75868
▁protesto	-9.75875
▁33	-9.75939
▁şirketin	-9.75965
▁veri	-9.75986
ımız	-9.76073
▁vurgu	-9.76086
▁sanatçı	-9.76115
▁hasar	-9.76155
▁sefer	-9.76177
▁36	-9.76182
▁teröristlerin	-9.76215
tar	-9.76218
▁polisi	-9.76264
tü	-9.76265
▁nedeni	-9.76369
▁verilecek	-9.7639
▁Aslan	-9.7643
▁prim	-9.76443
▁NATO	-9.7646
▁görüntü	-9.76539
▁mağdur	-9.76574
▁Di	-9.76715
AB	-9.76756
▁Çetin	-9.7676
▁gazeteci	-9.76772
▁Silahlı	-9.76801
▁Taş	-9.76804
▁kendilerini	-9.76841
▁almış	-9.76871
▁bol	-9.76996
▁soğuk	-9.77013
▁köprü	-9.77016
miyor	-9.7705
▁jandarma	-9.7706
▁Be	-9.77074
▁400	-9.77089
▁kale	-9.7714
▁Takım	-9.77221
▁Süleyman	-9.77273
▁Persie	-9.77275
▁endeksi	-9.77281
▁dolayısıyla	-9.77297
▁açıklamaya	-9.77303
▁sinema	-9.77377
▁mali	-9.77546
▁mücadelede	-9.77563
▁bakan	-9.77596
lanması	-9.7776
▁bilen	-9.7777
▁ülkelerin	-9.77796
▁Ziraat	-9.77837
▁başladığı	-9.77979
▁girdiği	-9.78034
▁Arap	-9.78038
▁2013	-9.78129
▁kavga	-9.78143
▁üretimi	-9.78207
▁açıklamasında	-9.78306
▁Merkel	-9.78384
▁payı	-9.78417
ırken	-9.78443
no	-9.78461
▁bebek	-9.78532
▁aldığını	-9.78539
▁görüyor	-9.78569
▁belge	-9.78579
▁Film	-9.78655
▁alınarak	-9.78668
▁gözü	-9.7867
▁nefes	-9.78671
▁yapacağı	-9.7869
▁dediği	-9.78801
▁kullanma	-9.78847
▁mesajı	-9.78855
▁alındığı	-9.78864
J	-9.78909
▁haftasında	-9.78932
miştir	-9.7902
▁edildiğini	-9.79036
▁çalıştı	-9.79043
▁etkin	-9.79093
bo	-9.79151
▁Stadı	-9.79204
▁fakat	-9.79205
▁Yavuz	-9.79212
▁Vodafone	-9.79212
▁mağlu	-9.79222
▁Belediyespor	-9.79228
▁Takımı	-9.7925
▁Anne	-9.79375
yü	-9.79376
▁golü	-9.79422
yse	-9.7945
▁görüldü	-9.79479
▁Esad	-9.79499
▁açan	-9.7954
go	-9.7962
▁Ardından	-9.79762
▁bölücü	-9.79762
▁neredeyse	-9.79773
▁hayatı	-9.79835
der	-9.79848
▁Barış	-9.79848
▁çalıştığı	-9.79941
▁tazminat	-9.80001
eceği	-9.80016
▁Fetullah	-9.80025
▁ikili	-9.80077
▁Te	-9.80144
YA	-9.80253
klerini	-9.80275
▁temsilcisi	-9.80284
▁kendine	-9.80316
▁65	-9.80617
▁yasal	-9.80652
▁sürecinde	-9.807
▁re	-9.80716
▁Alına	-9.80718
▁2014'	-9.80719
ho	-9.80837
▁talebi	-9.80876
▁süt	-9.80878
▁Pereira	-9.80887
yim	-9.80889
▁ka	-9.80908
lardır	-9.80919
▁program	-9.80954
▁Valisi	-9.8097
▁tamamladı	-9.80988
▁bırakıldı	-9.8101
▁gitmek	-9.81027
▁Hollanda	-9.81047
▁b	-9.81135
▁Binal	-9.81232
▁olanlar	-9.81267
▁uyku	-9.81463
▁aşağı	-9.81595
▁göç	-9.81656
▁Ara	-9.8168
ünü	-9.81707
▁ayak	-9.81753
▁yaşadı	-9.81763
acağız	-9.81886
▁yaşıyor	-9.81909
▁gelmiş	-9.81912
▁devreye	-9.81925
▁yalan	-9.81939
layarak	-9.81954
▁Muhammed	-9.82031
▁kullanarak	-9.82034
▁Washington	-9.82034
▁istihbarat	-9.82077
▁kararını	-9.82084
▁hastane	-9.82168
▁parçası	-9.82203
▁hesabından	-9.82204
▁mensubu	-9.82227
▁Samsun	-9.82289
▁hastalığı	-9.82307
▁Berlin	-9.82313
▁döviz	-9.8232
▁aktardı	-9.82348
▁etmişti	-9.82384
▁Ha	-9.82387
▁150	-9.82408
▁dua	-9.82422
▁çatışma	-9.82501
▁polisin	-9.82652
▁zam	-9.82775
▁Edinile	-9.82889
▁Kanunu	-9.83029
▁polise	-9.83033
▁eğitimi	-9.83042
▁geçerli	-9.83045
▁uygulaması	-9.83081
▁sözlerini	-9.83172
Türk	-9.83195
▁politika	-9.83199
▁Hükümet	-9.83227
▁75	-9.8338
▁araba	-9.83389
▁Konyaspor	-9.83479
▁Çanakkale	-9.83479
▁aç	-9.83481
▁Sanat	-9.83493
▁aktara	-9.83523
▁ifadeleri	-9.8353
▁Cem	-9.83537
▁buraya	-9.83537
leşmiş	-9.83559
lat	-9.83648
ton	-9.83704
▁yakınları	-9.83705
15	-9.83724
▁Ramazan	-9.83736
▁Kılıç	-9.83756
▁Özgür	-9.83761
▁penaltı	-9.83768
▁itiraz	-9.8381
▁katılım	-9.83856
▁Vi	-9.83907
▁yolunda	-9.83994
▁tüketici	-9.84001
▁Önce	-9.8402
▁toprağa	-9.84048
▁olmalı	-9.84063
▁hükümeti	-9.84069
▁bazen	-9.84073
▁gelin	-9.84089
▁kaçak	-9.84093
▁Sen	-9.84136
▁olmadan	-9.84159
▁tanı	-9.84271
▁yakından	-9.84341
▁aktif	-9.84343
▁oynanacak	-9.84345
▁An	-9.84352
▁dönüşüm	-9.84434
ysa	-9.84517
sinden	-9.84521
▁gereği	-9.84564
▁ders	-9.84607
taş	-9.84611
▁gelişmeler	-9.84611
▁sohbet	-9.84634
ıyla	-9.84756
▁Meclisi	-9.84948
▁sorunları	-9.84968
▁Bahçeli	-9.84971
▁rejim	-9.84973
▁akıl	-9.85072
cılar	-9.85134
mizde	-9.85136
▁sergi	-9.8515
▁kimsenin	-9.85168
▁deplasmanda	-9.85184
Bahçe	-9.85253
▁yıllar	-9.85304
▁altyapı	-9.85318
▁nedir	-9.85334
▁arttı	-9.85343
▁projesi	-9.8539
▁Kanun	-9.85444
▁alışveriş	-9.85446
▁dik	-9.85465
▁Ordu	-9.85466
▁sözü	-9.85494
!..	-9.85517
▁olağanüstü	-9.85519
▁Işık	-9.85521
▁halen	-9.85573
▁saç	-9.85628
▁süresi	-9.85636
AR	-9.8565
com	-9.85721
▁gittiği	-9.85774
Lİ	-9.85785
▁düzenlendi	-9.8581
▁1-0	-9.85819
▁saldırısı	-9.85846
▁cesedi	-9.85848
▁şok	-9.85865
cak	-9.85917
▁ayda	-9.85963
▁fayda	-9.86022
▁maruz	-9.86113
kı	-9.86152
▁TIR	-9.86158
▁açtığı	-9.86209
▁haftada	-9.86311
▁sağlayacak	-9.86397
▁bekleyen	-9.86416
▁verici	-9.86537
▁biliyor	-9.86541
▁davası	-9.86688
▁Konu	-9.86711
▁ihlal	-9.86735
▁hedefi	-9.86741
▁biçimde	-9.86764
▁toplantısı	-9.86774
▁motor	-9.86816
▁eğer	-9.86894
lanıyor	-9.86895
▁savcı	-9.86904
▁sözlerine	-9.86906
▁huzur	-9.86939
▁bedeli	-9.86971
mda	-9.86996
▁hediye	-9.86998
▁doğalgaz	-9.87012
▁Serdar	-9.87014
▁uyuşturucu	-9.87016
▁Şenol	-9.87022
▁sürücü	-9.87158
▁cami	-9.87184
W	-9.87303
▁kadınlar	-9.87305
▁Köprüsü	-9.87315
▁olurken	-9.87423
▁avukatı	-9.87435
▁Kore	-9.87469
bey	-9.87474
▁lise	-9.87544
▁sigorta	-9.87632
▁maddesi	-9.87673
▁cinayet	-9.87761
▁on	-9.87809
▁aşk	-9.87855
▁kimliği	-9.87856
▁bölgedeki	-9.87889
▁kas	-9.87915
▁Üç	-9.87922
▁Bar	-9.87975
▁bakım	-9.88064
▁öğrenciler	-9.881
ck	-9.88157
▁sevgi	-9.88187
▁geleceği	-9.88194
▁istifa	-9.88206
▁alınacak	-9.88246
▁Akhisar	-9.88247
▁Türkçe	-9.88335
▁düzenledi	-9.88336
▁Bunların	-9.88393
▁600	-9.88463
▁maça	-9.88503
▁in	-9.88597
▁tipi	-9.88624
▁kapı	-9.88646
▁ailesi	-9.88663
lıyor	-9.88681
liğin	-9.88783
▁bağ	-9.88881
▁koydu	-9.8896
▁dağ	-9.89003
▁demokratik	-9.89025
▁getirdiği	-9.89035
▁Marmara	-9.89103
▁oturan	-9.89169
▁yaşama	-9.89183
▁Ka	-9.89217
▁öz	-9.89315
▁kartı	-9.89322
▁aracılığıyla	-9.89469
İstanbul	-9.89491
▁gösterdiği	-9.89589
▁katı	-9.89618
▁temas	-9.89644
▁sigara	-9.89668
▁Google	-9.89755
▁İpek	-9.8976
▁belirtiliyor	-9.89787
▁Vali	-9.89823
▁Kilis	-9.90073
12	-9.90084
▁CEO	-9.90089
▁paralel	-9.90112
▁11'	-9.90131
▁Onur	-9.90187
▁Bundan	-9.90241
▁oynayan	-9.90271
▁güçlerinin	-9.90299
AN	-9.90301
▁gelip	-9.90386
ıcı	-9.90386
45	-9.90449
▁boyu	-9.9049
▁Eren	-9.90563
▁Güzel	-9.90611
▁te	-9.90649
▁Cumartesi	-9.90689
▁yoktu	-9.90771
▁rakam	-9.90949
▁birlik	-9.90975
alım	-9.91019
▁Hukuk	-9.9102
▁Oysa	-9.91076
co	-9.9109
▁Teknoloji	-9.91132
▁Hollandalı	-9.9115
▁dışarı	-9.91179
▁dini	-9.91183
▁sahası	-9.91201
▁4.5	-9.91235
lığını	-9.91252
▁Tam	-9.91253
▁olmuştu	-9.91279
▁Yapı	-9.91298
▁otel	-9.913
▁kulübün	-9.91361
▁ta	-9.91468
▁gidip	-9.91627
▁görülüyor	-9.91627
▁Orhan	-9.91649
▁Sözcüsü	-9.91654
▁gurur	-9.91678
▁çay	-9.91684
▁Kamu	-9.91707
▁Uzman	-9.91717
▁ürünleri	-9.91721
larımızı	-9.91753
ış	-9.9177
▁k	-9.91795
ek	-9.91858
▁ettikleri	-9.91901
▁maddi	-9.91943
▁gidecek	-9.91944
▁kazan	-9.92034
▁piyasa	-9.92097
unun	-9.92113
▁lig	-9.92164
maktadır	-9.92246
▁konser	-9.9226
▁Şanlıurfa	-9.92269
▁geçirdiği	-9.92272
▁Çalışma	-9.92281
▁vize	-9.92286
▁Ülke	-9.92288
▁sitesi	-9.92343
▁olmuştur	-9.9236
▁kaçan	-9.92406
▁olmaması	-9.92418
▁hesabı	-9.92531
▁göçmen	-9.9256
▁Perşembe	-9.92577
▁devleti	-9.92605
AK	-9.92716
40	-9.92735
▁kadınların	-9.92744
lılar	-9.92765
▁noktasında	-9.92788
▁ettiklerini	-9.9279
▁değişikliği	-9.92817
▁park	-9.92828
▁vererek	-9.92904
▁görüyoruz	-9.92923
▁Herkes	-9.92935
▁MİT	-9.92943
▁sığınmacı	-9.92956
beyazlı	-9.92975
he	-9.92997
if	-9.93095
▁sözleri	-9.93143
LE	-9.93147
▁c	-9.93147
▁Dk	-9.93197
▁İnşaat	-9.93215
▁hâlâ	-9.93216
▁kesinlikle	-9.93221
▁Örneğin	-9.93229
▁Erzurum	-9.9323
▁içeren	-9.93246
▁55	-9.93333
per	-9.93365
malı	-9.9339
▁şarkı	-9.93464
▁sinir	-9.9347
▁bulunması	-9.93484
▁Mısır	-9.93491
▁Manisa	-9.93543
▁Çarşamba	-9.93543
▁geçiyor	-9.9362
▁değeri	-9.93664
▁ortasında	-9.93702
▁katılma	-9.93709
▁şeker	-9.93715
▁aldık	-9.93799
▁As	-9.93828
▁bilgilere	-9.93888
▁dosya	-9.93898
▁2012	-9.93997
▁tutuklama	-9.94008
eceğiz	-9.94037
▁görevlisi	-9.94042
gen	-9.94076
ger	-9.94089
sü	-9.94166
▁sınırı	-9.94239
▁tabi	-9.94258
▁Aşk	-9.94261
▁hayvan	-9.94331
▁Savaş	-9.9434
▁anlatıyor	-9.94409
▁250	-9.94428
▁Basın	-9.94458
ılmış	-9.94461
▁köy	-9.9454
▁yazar	-9.94543
▁firma	-9.94558
▁yapacağız	-9.94609
▁öğrencisi	-9.94634
▁xx	-9.94644
▁Eş	-9.9465
ör	-9.94671
abiliyor	-9.94759
ılması	-9.94779
▁Demirtaş	-9.9484
▁Meydanı	-9.94866
▁masa	-9.94877
▁şansı	-9.9495
▁kahraman	-9.94995
imi	-9.95015
▁doğu	-9.95079
iyet	-9.95096
▁imkanı	-9.9517
ova	-9.95172
▁hoca	-9.95179
▁Valiliği	-9.95226
▁yağışı	-9.95248
▁tehlike	-9.95259
▁saniye	-9.95296
liğini	-9.95332
pa	-9.9538
▁Ünal	-9.95483
▁Günü	-9.95528
liler	-9.95545
▁Yeşil	-9.95596
▁Saray	-9.95644
Ya	-9.95645
▁mahkemeye	-9.95659
▁çek	-9.95753
▁Şehir	-9.95812
▁Tarım	-9.95826
▁geçiren	-9.95832
▁Man	-9.9586
▁test	-9.95868
▁kaydı	-9.95938
▁kere	-9.96011
▁meselesi	-9.96055
▁alternatif	-9.96072
elim	-9.96187
▁Zaten	-9.96188
▁Gazete	-9.96195
▁yapıyoruz	-9.96213
▁gram	-9.96222
▁umut	-9.9623
▁sağlanması	-9.96271
▁meş	-9.96339
laşma	-9.96378
▁toplumun	-9.96385
▁meslek	-9.96419
▁THY	-9.96498
▁çık	-9.96508
▁temiz	-9.96514
Ha	-9.96568
▁işler	-9.96636
met	-9.96639
ınca	-9.9666
▁Li	-9.96663
▁planı	-9.96763
▁Gece	-9.96786
▁idari	-9.96798
▁Usta	-9.96805
▁yetkililer	-9.96864
cilik	-9.96868
▁yaşandığı	-9.96871
ley	-9.96876
dum	-9.96881
▁dönüş	-9.96956
▁ada	-9.97108
▁Yargıtay	-9.97131
▁Kıbrıs	-9.97142
▁Manchester	-9.97148
▁bina	-9.9723
▁Mo	-9.9724
nize	-9.97259
▁heyeti	-9.97261
▁tablo	-9.97406
▁işlemi	-9.97407
▁Dursun	-9.97467
▁ekipler	-9.97485
köy	-9.97497
duk	-9.97517
▁deprem	-9.97552
▁Adli	-9.97648
MA	-9.97702
▁batı	-9.97705
▁kanseri	-9.97744
▁üstünde	-9.97755
▁köşe	-9.97772
Dünya	-9.97822
▁not	-9.97828
▁çeyrek	-9.97853
▁Kim	-9.9789
ici	-9.97953
▁kur	-9.97964
fe	-9.97988
▁taşıyor	-9.97992
sek	-9.97994
▁avukat	-9.98001
▁gazetesi	-9.98045
▁kişisel	-9.9806
▁yerden	-9.98067
▁gel	-9.9809
▁yoksa	-9.9811
▁yaptığımız	-9.98183
▁birbirine	-9.98184
▁kimi	-9.98197
▁Real	-9.98201
tepe	-9.9821
▁duruma	-9.98245
▁der	-9.98245
▁mobil	-9.98276
▁olmayı	-9.98285
▁pas	-9.98333
▁reklam	-9.98347
▁teklifi	-9.9848
▁gerçekleşen	-9.98489
▁tavsiye	-9.98493
▁çarptı	-9.98545
▁kurban	-9.98629
▁devre	-9.98646
▁doktor	-9.98666
lak	-9.98709
▁evlilik	-9.98759
▁basit	-9.98821
lerdir	-9.98823
▁düzenlenecek	-9.98825
▁iddiasıyla	-9.98945
▁satışı	-9.98959
▁Fa	-9.98966
▁rahmet	-9.98976
▁ambulans	-9.98988
aş	-9.99006
▁kullanımı	-9.9913
▁ışık	-9.99139
▁Özbek	-9.99151
▁Üyesi	-9.99173
▁Kadıköy	-9.99173
▁İnşallah	-9.99177
nızda	-9.99196
▁Aslında	-9.99245
▁aşkın	-9.99262
▁vermeye	-9.99336
▁1.5	-9.99385
▁ayakta	-9.99439
▁Bana	-9.99446
▁açığa	-9.9949
▁Faruk	-9.99491
▁Hürriyet	-9.995
▁heyecan	-9.99507
▁37	-9.99519
▁yorum	-9.99551
▁Bilim	-9.99552
▁ihale	-9.996
▁açıdan	-9.9962
▁korumak	-9.99699
▁38	-9.99704
▁ülkeyi	-9.99724
▁getirmek	-9.99733
▁beyin	-9.99794
▁ekledi	-9.99841
▁Terim	-9.99854
▁fotoğrafı	-9.99879
▁112	-9.99927
▁sağlıyor	-9.9997
▁olayları	-9.99978
25	-10
▁şekil	-10.0003
AL	-10.0009
▁taraftan	-10.0022
▁2011	-10.0029
▁sıkı	-10.003
tiği	-10.0032
▁olun	-10.0033
Spor	-10.0037
lığın	-10.0045
▁bas	-10.0046
▁İtalyan	-10.0046
▁Kısa	-10.0049
şi	-10.0054
mo	-10.0056
▁Selim	-10.0057
Ne	-10.0061
▁u	-10.0065
▁toplu	-10.0068
▁bilgisi	-10.0072
▁güne	-10.0076
▁önemlidir	-10.0076
▁toplantıda	-10.0082
▁seyirci	-10.0086
▁Burcu	-10.0086
▁Soruşturma	-10.0087
▁şampiyonluk	-10.0088
dıkları	-10.0089
▁yüklü	-10.0089
▁giyen	-10.0089
yacak	-10.0091
▁iade	-10.0093
▁turist	-10.0095
▁Lo	-10.0095
▁gazete	-10.0101
▁getirilmesi	-10.0114
▁Özdemir	-10.0121
▁onay	-10.0122
▁elbette	-10.0122
gan	-10.0126
▁hazırlık	-10.013
lanmış	-10.0141
▁beraberlik	-10.0149
▁müşteri	-10.015
▁yüzü	-10.0153
▁sorularını	-10.0157
▁artan	-10.0162
baş	-10.0164
▁Yatırım	-10.0164
▁ağrı	-10.0165
▁Baba	-10.0169
▁paket	-10.0174
▁isabet	-10.0175
▁yarım	-10.0179
▁başlatıldı	-10.0188
▁esnasında	-10.019
▁rekor	-10.0191
▁gelerek	-10.0192
▁Salı	-10.0196
landığı	-10.0204
▁olacağız	-10.0204
▁Ala	-10.0206
▁halka	-10.021
▁Han	-10.0212
▁ekiplerinin	-10.0212
▁itiraf	-10.0213
▁kupa	-10.0217
▁eksik	-10.0219
▁yapılmış	-10.022
▁yaşlı	-10.022
▁gemi	-10.023
▁vatandaşı	-10.0232
▁çizgi	-10.0244
▁riski	-10.0244
▁sorunlar	-10.0248
▁gösteri	-10.0254
▁Az	-10.0255
▁bitti	-10.0264
kırmızılı	-10.0267
▁biliyoruz	-10.0269
▁yerlerde	-10.0271
▁yönetmen	-10.0273
kçe	-10.0282
▁vatandaşlarımız	-10.0288
▁hükümetin	-10.0288
▁sektöründe	-10.0288
▁Magazin	-10.0295
▁Nusaybin	-10.0296
izm	-10.0297
▁gir	-10.0299
▁hatırlatan	-10.0299
▁Antalyaspor	-10.03
▁gerçekleştirdi	-10.0301
▁sesi	-10.0302
▁Savaşı	-10.0316
▁borç	-10.0319
▁42	-10.032
▁zayıf	-10.0326
▁yönde	-10.033
▁suyu	-10.033
▁tüfeği	-10.0331
▁Umut	-10.0333
ağa	-10.0335
▁açıklamalar	-10.0336
▁2010	-10.0337
▁şans	-10.0344
▁izle	-10.0345
▁yaptıklarını	-10.0346
▁girecek	-10.035
▁sektörü	-10.035
▁temin	-10.0365
▁Topal	-10.0369
▁yakalama	-10.0373
▁buluştu	-10.0382
kü	-10.0382
meli	-10.0384
▁bağlantı	-10.0393
▁dijital	-10.04
▁balık	-10.0403
▁hizmeti	-10.0407
▁120	-10.0412
▁er	-10.0418
▁bulan	-10.0424
▁enflasyon	-10.0426
▁denetim	-10.0437
▁Ni	-10.0441
başı	-10.0442
▁olduğunun	-10.0444
▁içeri	-10.0448
▁durumun	-10.0448
▁izni	-10.0449
▁bağlantılı	-10.045
▁48	-10.0467
lenme	-10.0467
▁Ata	-10.0468
▁hali	-10.0468
▁toprak	-10.047
▁benzeri	-10.0471
▁insanı	-10.0471
80	-10.0475
ledi	-10.0476
▁Kasımpaşa	-10.0477
▁birer	-10.0478
60	-10.0479
▁demir	-10.048
▁So	-10.0491
▁zirve	-10.0492
▁Yayın	-10.0499
▁41	-10.0503
th	-10.0506
▁olmayacak	-10.0509
▁Hakkari	-10.0509
▁City	-10.051
mer	-10.0511
▁dönen	-10.0512
▁Siyah	-10.0512
▁çıkarak	-10.0514
▁olayda	-10.0531
mızda	-10.0536
abilecek	-10.0542
▁göreve	-10.0548
▁arkadaşları	-10.0553
▁sonuçlar	-10.0554
▁kurul	-10.056
▁anı	-10.0567
likle	-10.0569
▁merkezli	-10.0573
tür	-10.0576
▁asgari	-10.0582
▁Kurtulmuş	-10.0582
▁Paşa	-10.0582
▁üste	-10.0587
▁okuma	-10.0591
▁düzenli	-10.0597
▁Öyle	-10.0598
▁görevini	-10.06
▁etkisiyle	-10.06
▁ülkeleri	-10.0605
yor	-10.0618
▁Pazartesi	-10.0618
▁ulusal	-10.0619
▁Evet	-10.0632
sam	-10.0635
ğini	-10.0639
ğe	-10.0642
▁uçağı	-10.0643
bet	-10.0644
▁kuvvet	-10.0651
▁Kerim	-10.0654
▁Güneydoğu	-10.0655
▁Bo	-10.0656
▁Gomez	-10.0656
▁44	-10.0656
▁Erol	-10.0657
▁tehlikeli	-10.0661
▁yapıldığını	-10.0663
▁başından	-10.0664
▁öğretim	-10.0665
ciler	-10.0675
▁alır	-10.0677
▁saldırıları	-10.068
▁seri	-10.0682
▁oyuncular	-10.0699
▁şart	-10.0701
▁günden	-10.0701
▁Gazi	-10.071
▁İşleri	-10.0715
▁yoluyla	-10.0719
kaya	-10.0725
▁hareketi	-10.0727
▁Semih	-10.0728
▁çalışmalarını	-10.073
▁ihtimali	-10.073
▁yalnızca	-10.0734
▁mezun	-10.0734
▁46	-10.0741
tim	-10.0743
ebiliyor	-10.0745
▁ülkelerde	-10.0757
▁taraf	-10.0757
▁düşünüyor	-10.0758
▁Ke	-10.076
▁olduk	-10.0761
ince	-10.0762
▁yetkili	-10.0763
▁bağımsız	-10.0765
▁ücretsiz	-10.0769
▁Acil	-10.0772
▁kazı	-10.0772
▁sorumluluk	-10.0773
▁verir	-10.0783
▁düzeyde	-10.0785
▁fikir	-10.0787
14	-10.0792
▁Çevre	-10.0796
▁39	-10.0798
▁yürüyüş	-10.0803
▁tip	-10.0806
▁Saat	-10.0808
▁kaybettiği	-10.0811
▁transferi	-10.0813
▁Kal	-10.0816
70	-10.082
meyen	-10.0828
▁Açık	-10.0838
▁ilave	-10.084
▁orman	-10.084
▁muhabirine	-10.0849
▁öğrencilerin	-10.0852
▁ilişkiler	-10.0852
▁kır	-10.0859
▁yarısı	-10.086
▁söylediği	-10.0862
ama	-10.0863
▁Ki	-10.0869
▁ordusu	-10.0871
üz	-10.0873
ez	-10.0873
▁Kelime	-10.0876
▁cuma	-10.0877
▁Bölgesi	-10.0878
larımızın	-10.0878
▁Osmanlıspor	-10.088
11	-10.088
▁genellikle	-10.0881
▁çağrısı	-10.0881
▁kaldırılması	-10.0886
lanarak	-10.0899
▁hakkını	-10.0903
▁Para	-10.0903
▁muhalif	-10.0904
▁tanesi	-10.0909
▁2017'	-10.091
▁lüks	-10.0914
▁kurşun	-10.0918
▁yedi	-10.0927
▁gördük	-10.0931
En	-10.0933
▁buradan	-10.0936
▁47	-10.0938
▁denge	-10.094
▁geçecek	-10.0941
▁ha	-10.0942
▁Başka	-10.0944
ilen	-10.0947
▁53	-10.0952
▁Sneijder	-10.0952
ebilecek	-10.0957
▁Halil	-10.096
▁43	-10.096
▁temsilcileri	-10.0967
▁ekmek	-10.0967
▁ifadesi	-10.0969
ladığı	-10.0977
▁sermaye	-10.0977
▁Orada	-10.098
TA	-10.0986
▁edilerek	-10.099
▁çıkıp	-10.099
▁evi	-10.0994
tör	-10.0997
▁anlaşması	-10.1001
▁şifre	-10.1004
19	-10.1016
▁Bab	-10.1017
ünün	-10.1019
▁açıklamaları	-10.1019
▁kaçtı	-10.1019
▁sana	-10.1022
▁edeceği	-10.1023
▁AŞ	-10.1024
▁evin	-10.1025
▁av	-10.1028
▁modern	-10.103
▁sezonunda	-10.1042
▁adliyey	-10.1045
▁Karaca	-10.1049
▁icra	-10.1062
▁John	-10.1065
▁Kenan	-10.1065
▁Mahmut	-10.1066
▁Gıda	-10.1066
▁olası	-10.1067
LA	-10.1073
lim	-10.1076
▁düğün	-10.108
▁of	-10.1081
▁koalisyon	-10.1097
▁Ga	-10.1097
▁Roma	-10.1101
▁sağanak	-10.1103
▁yakınlarında	-10.111
▁kış	-10.1119
▁daire	-10.1123
▁sorunun	-10.1123
▁yeme	-10.1127
▁Maliye	-10.1131
nizde	-10.1133
▁taciz	-10.1141
▁Anahtar	-10.1141
▁haklı	-10.1143
▁başardı	-10.115
rek	-10.1167
▁dikkatli	-10.1167
▁raporu	-10.117
▁tuttu	-10.1182
▁rekabet	-10.1185
▁Kanal	-10.1189
▁Yasin	-10.1189
ılan	-10.1191
▁şartları	-10.1199
▁merkezine	-10.1205
▁bilet	-10.1205
pi	-10.1208
ku	-10.121
▁sorgulama	-10.121
dikleri	-10.121
▁Akın	-10.1211
lerimizin	-10.1212
▁Yalçın	-10.1218
▁sürülen	-10.1219
▁2-1	-10.122
▁Suçlar	-10.1221
▁atılan	-10.1222
av	-10.1223
▁teröristin	-10.1229
mde	-10.1229
▁Bayram	-10.1235
▁Tolga	-10.1254
bar	-10.1256
▁bölgesi	-10.1259
▁Gençlerbirliği	-10.126
medi	-10.126
▁Nasıl	-10.1262
▁Demokrasi	-10.1263
▁Kent	-10.1265
▁taraftarlar	-10.1267
▁kitabı	-10.1268
lenmiş	-10.1273
▁pay	-10.1275
▁olabileceği	-10.1275
▁Du	-10.1276
▁geldik	-10.128
▁önceden	-10.128
▁bağış	-10.1281
gu	-10.1282
▁seçimleri	-10.1287
▁çöz	-10.1287
▁Bodrum	-10.1297
▁şirketler	-10.1301
▁gerekçe	-10.1302
▁mesele	-10.1306
▁vermiş	-10.131
▁Gençlik	-10.1311
▁kalması	-10.1313
ab	-10.1313
▁İdaresi	-10.1313
▁Güven	-10.1316
▁dışına	-10.1319
üm	-10.1319
▁derbi	-10.1322
▁kendisinin	-10.1322
▁olamaz	-10.1324
▁Başbakanlık	-10.1328
▁misafir	-10.1331
ğa	-10.1332
▁Ü	-10.1335
▁görünüyor	-10.1335
▁Ulusal	-10.1338
▁kullanıyor	-10.1341
hane	-10.1341
▁hamile	-10.1344
▁uçuş	-10.1344
▁doğa	-10.1345
Saray	-10.1348
▁anlat	-10.135
net	-10.1352
▁kod	-10.1353
▁akşamı	-10.1354
▁arz	-10.1355
▁belirledi	-10.1355
▁tabanca	-10.1364
▁örgütleri	-10.1364
▁nerede	-10.1364
▁getiriyor	-10.1367
ilmiş	-10.1367
▁başlar	-10.1369
▁Proje	-10.1371
▁görüntüleri	-10.1374
▁kapsamda	-10.1375
▁vazgeç	-10.1378
▁açılış	-10.1392
▁savaşı	-10.1392
▁yılından	-10.1393
▁bayrağı	-10.1397
▁tesis	-10.1401
▁görevlileri	-10.1409
▁Çavuş	-10.1411
▁ikna	-10.1414
▁2-0	-10.1414
▁Esed	-10.1416
▁takıma	-10.1417
▁zamanlarda	-10.1418
▁bekliyoruz	-10.1418
▁tutan	-10.1419
▁Caner	-10.1432
▁yarıda	-10.1433
▁şüphe	-10.1438
SA	-10.1452
▁ihanet	-10.1462
▁ateşkes	-10.1463
▁yarısında	-10.1466
leyen	-10.1475
▁tamam	-10.1478
uyor	-10.1485
▁Kocaeli	-10.1493
▁Cengiz	-10.1494
▁yerleşim	-10.1494
▁Ozan	-10.1498
▁Avcı	-10.1499
▁üstüne	-10.1504
▁asist	-10.1505
▁inan	-10.1506
▁Ajansı	-10.151
▁Kurul	-10.1511
evi	-10.1512
▁artışı	-10.1519
▁Mü	-10.1523
▁mahalle	-10.1524
▁ölçüde	-10.1528
lenmesi	-10.1532
▁organize	-10.1533
▁inanıyorum	-10.1534
▁otomatik	-10.1535
▁tiyatro	-10.154
▁pozisyon	-10.1544
▁töreni	-10.155
▁Ca	-10.155
▁yapıp	-10.1552
İM	-10.1554
▁organizasyon	-10.1554
▁İsveç	-10.1555
▁konuşmada	-10.1559
▁futbolcular	-10.156
▁edeceğini	-10.1564
▁halkının	-10.1566
▁p	-10.1567
▁ortamda	-10.1569
▁52	-10.157
▁mücadelesi	-10.1572
▁Donald	-10.1573
▁Hindistan	-10.1573
▁profesyonel	-10.1573
▁Samsung	-10.1577
▁tasarım	-10.1577
▁günler	-10.158
▁Köyü	-10.158
▁yıldızı	-10.1581
amaz	-10.1584
em	-10.1587
İK	-10.1587
eli	-10.1589
▁mensupları	-10.1592
Ge	-10.1596
▁karşın	-10.1597
▁Bayramı	-10.1598
▁sürdüğü	-10.1602
▁tarihleri	-10.1603
ından	-10.1605
▁noktaya	-10.1605
▁öldürüldü	-10.1613
▁kalıcı	-10.1613
▁birini	-10.1614
▁Günlük	-10.1615
▁kuzeyinde	-10.1618
▁Demirel	-10.162
▁dur	-10.1622
▁Japonya	-10.1626
▁Ser	-10.1631
▁sezonun	-10.1638
▁Milletler	-10.164
▁değildi	-10.1644
▁sahil	-10.1648
▁Ödülü	-10.1653
▁Riekerink	-10.1653
▁Gök	-10.1654
şe	-10.1656
▁birliği	-10.1656
▁Ayşe	-10.1659
▁Cumhuriyetçi	-10.166
▁borcu	-10.166
ğu	-10.1668
▁karşılığında	-10.1669
▁kentin	-10.167
▁adımlar	-10.1671
▁aldıkları	-10.1675
▁as	-10.1677
▁sessiz	-10.1677
madı	-10.1687
▁çevresinde	-10.1689
▁Tur	-10.1691
▁Fikret	-10.1694
▁Mesela	-10.1694
▁Odası	-10.1701
▁mensuplarının	-10.1703
▁demişti	-10.1706
▁modeli	-10.1707
▁faaliyetleri	-10.171
▁tatlı	-10.1711
▁kapattı	-10.1712
▁saldırısında	-10.1715
▁yıllardır	-10.1716
▁konuş	-10.1717
▁kurtarma	-10.1729
ll	-10.1731
▁ihbar	-10.1733
▁Rizespor	-10.1735
▁yayımlanan	-10.1736
▁artarak	-10.1737
▁işadamı	-10.1737
▁avukatları	-10.1738
▁ma	-10.1739
am	-10.174
▁heyet	-10.1741
▁se	-10.1745
▁erdi	-10.175
▁ölen	-10.1759
▁Ri	-10.1759
▁ödülü	-10.1765
az	-10.1765
▁eleştiri	-10.1768
▁çıkmış	-10.1772
▁kuzey	-10.1772
▁Sakarya	-10.1776
▁noktası	-10.1777
▁Yunan	-10.1777
▁toplanan	-10.1779
▁*	-10.178
▁tren	-10.1781
▁zamanı	-10.1782
▁pa	-10.1788
▁değişim	-10.1789
abileceği	-10.1789
&	-10.179
▁İsviçre	-10.1792
▁Tarihi	-10.1793
▁vitamini	-10.1794
▁birimleri	-10.1802
▁km	-10.1803
▁ettim	-10.1803
▁indir	-10.1805
▁kalıyor	-10.181
▁gerçeği	-10.1811
▁ilişkileri	-10.1811
▁Gi	-10.1813
emez	-10.1816
▁Sulh	-10.1816
▁Bakanlar	-10.1817
▁Avusturya	-10.1817
▁Pakistan	-10.1818
▁geçirilen	-10.1818
▁yürüten	-10.1819
▁Yaşar	-10.1823
▁şampiyon	-10.1827
müz	-10.1828
▁yönetici	-10.1831
▁Po	-10.1833
▁sahasında	-10.1836
▁sitesinde	-10.1838
gar	-10.1841
▁yapmayı	-10.1843
op	-10.1847
▁Başkanlık	-10.1847
▁memnun	-10.1852
▁olmaktan	-10.1855
▁sorgu	-10.1855
▁Zira	-10.1856
▁nükleer	-10.1858
▁◊	-10.1858
▁Sivas	-10.1859
▁çizen	-10.1861
▁şarkıcı	-10.1861
▁TFF	-10.1861
▁tutuk	-10.1861
▁çalışıyoruz	-10.1863
▁idam	-10.1863
IN	-10.1865
▁bölgelerde	-10.1865
▁alış	-10.1868
▁stratejik	-10.1873
▁ülkemizde	-10.1874
▁bünyesinde	-10.1876
eri	-10.1878
▁yöntemi	-10.1882
▁kuvvetli	-10.1884
masını	-10.1885
▁Hiçbir	-10.189
▁iddiası	-10.1894
▁maden	-10.1896
▁uygulanan	-10.1899
▁maaş	-10.1899
▁isteği	-10.1902
▁Sistemi	-10.1902
▁bayram	-10.1905
▁insanlara	-10.1908
▁yöneticileri	-10.191
▁alım	-10.1913
▁Şubesi	-10.1915
laş	-10.1917
ydu	-10.192
▁paylaşım	-10.1921
▁arazi	-10.1923
▁sayfa	-10.1926
▁üyelerinin	-10.1926
▁çıkarıldı	-10.1927
▁işgal	-10.1928
▁Askeri	-10.1934
▁Yunus	-10.194
▁Bozdağ	-10.1941
abilirsiniz	-10.1941
▁Ümit	-10.1942
▁Soylu	-10.1942
▁çekerek	-10.1942
▁iken	-10.1943
▁alırken	-10.1944
▁bakış	-10.1946
▁duygu	-10.1946
▁kardeş	-10.1954
▁art	-10.1955
▁ilde	-10.1956
ser	-10.1956
▁yıldan	-10.1957
▁konularda	-10.1959
▁miktarda	-10.1963
▁operasyonlarda	-10.1964
▁telefonla	-10.1965
▁usta	-10.1967
▁zorunlu	-10.1969
▁oranda	-10.1979
▁Bank	-10.198
▁geçtiği	-10.198
▁maalesef	-10.1982
▁zamanlı	-10.1983
▁buluşan	-10.1984
90	-10.1986
har	-10.1987
▁olunca	-10.1987
▁ağrısı	-10.199
▁Resmi	-10.1991
▁özgürlüğü	-10.1991
▁kalın	-10.1991
▁yazarı	-10.1997
▁Belki	-10.1997
▁yaygın	-10.1999
▁tamamı	-10.2009
▁2008	-10.2013
▁cilt	-10.2015
▁suçu	-10.2016
▁adalet	-10.202
▁fragmanı	-10.2021
▁taşıma	-10.2022
▁oynadı	-10.2023
▁İstihbarat	-10.2024
▁kontrolü	-10.2026
▁sorumlusu	-10.2028
▁şikayet	-10.2032
▁ülkemizin	-10.2035
mu	-10.2035
▁niye	-10.2035
paşa	-10.2037
▁Hiç	-10.2045
mar	-10.2049
▁vücut	-10.2055
▁sağladı	-10.2055
▁Dolar	-10.2057
Me	-10.2057
▁Malatya	-10.2065
▁Advocaat	-10.2066
▁yükselen	-10.2067
▁Oscar	-10.2067
▁kişiden	-10.2069
▁toplumsal	-10.2069
▁ruh	-10.2071
▁He	-10.2073
▁kilit	-10.2076
seniz	-10.2078
▁ila	-10.2079
▁X	-10.2079
▁81	-10.2086
uncu	-10.2086
fer	-10.209
▁bölümde	-10.2092
▁51	-10.2093
▁Festivali	-10.2098
▁ikramiye	-10.2098
▁çıktığını	-10.2099
ok	-10.21
▁kuruluşu	-10.2105
▁görüşmeler	-10.2108
▁bırakma	-10.211
▁Eskişehir	-10.2111
▁Hoca	-10.2111
▁oyuncunun	-10.2113
▁72	-10.2118
UN	-10.2124
▁öğrencileri	-10.2134
▁Akar	-10.2135
!"	-10.214
▁kap	-10.215
▁yardımcısı	-10.2151
▁verilerin	-10.2151
▁diliyorum	-10.2151
▁Kahraman	-10.2152
Her	-10.2154
▁burun	-10.2156
▁Sekreteri	-10.2164
Dİ	-10.2165
▁Si	-10.2171
sından	-10.2172
YE	-10.2175
▁etmeyi	-10.2176
▁şirketleri	-10.2177
▁girişimine	-10.2177
▁Brezilya	-10.2177
▁partisi	-10.2179
▁Or	-10.2179
▁uyarı	-10.218
▁Bel	-10.2187
▁amaçlı	-10.2188
▁85	-10.2189
▁popüler	-10.2193
▁şirketlerin	-10.2194
▁Va	-10.2196
▁saldırılar	-10.2201
▁kalacak	-10.2203
▁yürüttüğü	-10.2204
▁gündür	-10.2205
▁ücreti	-10.2211
▁komisyon	-10.2214
ıldı	-10.2214
▁olabileceğini	-10.2221
▁yönetiminin	-10.2223
tığı	-10.2225
▁engelli	-10.2225
▁madalya	-10.2236
▁ulaşan	-10.2236
▁Oğuzhan	-10.2238
dipol	-10.2238
▁bakımından	-10.2239
İL	-10.224
▁geriledi	-10.2241
▁Oyuncu	-10.2243
▁Cenk	-10.2244
▁i	-10.2247
▁arasına	-10.2247
▁katlı	-10.2252
Devlet	-10.2252
bat	-10.2261
▁tedbir	-10.2261
▁Ön	-10.2264
▁saf	-10.2265
▁kahve	-10.2269
▁şiddetli	-10.227
▁hazırladığı	-10.227
▁hukuki	-10.2271
▁harekat	-10.2271
▁derken	-10.2273
▁sürdürüyor	-10.2276
▁sıfır	-10.2279
18	-10.2281
▁işletme	-10.2281
▁ettiler	-10.2283
▁iz	-10.2287
▁değine	-10.2291
▁yetki	-10.2293
▁yukarı	-10.2297
▁hızı	-10.2304
▁ocak	-10.2306
DI	-10.2306
▁kala	-10.2307
▁farkında	-10.2312
▁düşme	-10.2313
uş	-10.2316
▁beyan	-10.2319
▁yüzlerce	-10.2322
▁Birçok	-10.2325
▁haberler	-10.2325
▁Gaziantepspor	-10.2326
çu	-10.2329
▁turu	-10.233
▁yağmur	-10.2331
dar	-10.2333
▁Bal	-10.2335
▁puanla	-10.2342
▁gönderdiği	-10.2343
▁takdirde	-10.2344
▁alanlarda	-10.2347
layacak	-10.235
▁yumurta	-10.235
▁müsabaka	-10.235
▁eylemi	-10.2351
▁me	-10.2352
▁çıkmak	-10.2355
▁taşı	-10.2356
▁sözde	-10.2359
▁emin	-10.2362
▁hayatta	-10.2365
▁SABAH	-10.2365
rat	-10.2367
▁hücre	-10.2369
▁renk	-10.237
▁Alper	-10.237
▁ayrılan	-10.2372
▁Ham	-10.2373
lanır	-10.238
▁olduğumuz	-10.2383
▁fabrika	-10.2386
▁ortam	-10.2389
ron	-10.2396
▁oyuna	-10.2398
▁Kırmızı	-10.24
▁araçları	-10.2403
▁artması	-10.2405
▁gördüm	-10.2407
▁tarihte	-10.2408
▁söyleyerek	-10.2409
▁United	-10.241
▁verdik	-10.2411
▁dizisi	-10.2412
▁Kalkanı	-10.2413
▁Kayserispor	-10.2413
▁değiştir	-10.2416
▁ekiplerince	-10.2416
▁hastalıklar	-10.2417
cık	-10.2418
ilmesi	-10.2421
ize	-10.2423
▁sorusuna	-10.2426
▁İnan	-10.2429
▁gitme	-10.2431
▁başladığını	-10.2434
▁araçlar	-10.2437
▁sınırlı	-10.244
▁almıştı	-10.2441
▁konuşmasında	-10.2442
▁zemin	-10.2444
▁tüketimi	-10.2446
▁Üniversite	-10.245
▁nüfus	-10.245
▁3'	-10.2451
▁Basketbol	-10.2452
▁eseri	-10.2452
▁yedek	-10.2452
▁cevabı	-10.2455
▁problem	-10.2455
▁gelince	-10.2458
▁Boz	-10.2461
▁ol	-10.2465
▁54	-10.2471
▁çalışmaya	-10.2474
05	-10.2483
▁ifadesinde	-10.2487
▁Turkcell	-10.2496
▁Bekir	-10.2497
▁Erkan	-10.2499
▁Yurt	-10.25
▁Hatay	-10.2502
ası	-10.2504
▁edilmiştir	-10.2509
▁belirtiyor	-10.2514
▁ifadeler	-10.2515
▁kolu	-10.2531
tık	-10.2534
▁Fatma	-10.254
▁haberleri	-10.2541
▁geldiğinde	-10.2542
müş	-10.2543
▁çıkarılan	-10.2543
▁d	-10.2545
var	-10.2554
rma	-10.2554
▁askerlerin	-10.2555
▁herkese	-10.2556
▁gönderme	-10.2557
▁yolunu	-10.2559
▁insanlık	-10.2559
▁nesil	-10.2562
leşti	-10.2562
▁Göz	-10.2563
▁yönetimindeki	-10.2563
▁şunu	-10.2564
▁sağlam	-10.2568
amadı	-10.257
75	-10.257
▁parayı	-10.2575
gül	-10.2577
▁ter	-10.2578
▁dost	-10.2579
▁yöntem	-10.258
▁ailesine	-10.258
▁tutar	-10.2584
▁öldürdü	-10.2584
▁vakit	-10.2584
▁ligin	-10.259
▁miktar	-10.259
mayan	-10.2593
▁ailesinin	-10.2595
16	-10.2597
▁hattı	-10.2598
▁saldırının	-10.26
▁Ja	-10.2602
▁oyuncuları	-10.2604
▁Sarayı	-10.2604
▁Beni	-10.261
▁şahıs	-10.2622
▁sal	-10.2622
▁Lisesi	-10.2624
▁kalmış	-10.2627
▁vermedi	-10.2629
▁kanatta	-10.2631
▁bugünkü	-10.2634
▁BİR	-10.2635
▁ilgisi	-10.2635
▁Do	-10.2639
▁ucuz	-10.264
▁maçının	-10.2645
▁Top	-10.2646
▁atma	-10.2647
▁aşı	-10.2648
▁aklı	-10.2649
▁yakalanması	-10.2654
▁uzmanı	-10.2657
▁görüntüler	-10.266
yon	-10.2667
▁elinden	-10.267
▁olsaydı	-10.2673
▁Bulut	-10.2674
▁kaldığını	-10.2674
▁alıcı	-10.2675
▁kalmadı	-10.2675
▁yağışlı	-10.2682
▁özellikleri	-10.2686
▁tecrübeli	-10.2686
▁alanına	-10.2694
▁düşman	-10.2699
▁tamamlanması	-10.2701
▁be	-10.2703
▁ürünler	-10.2707
▁anlama	-10.2708
▁fırsatı	-10.2709
▁önlemleri	-10.2711
yıp	-10.2714
▁Ol	-10.2719
▁elektronik	-10.2719
▁başlaması	-10.2724
▁atıldı	-10.2725
▁cezaevine	-10.2725
▁araçların	-10.2726
lardaki	-10.2729
malıdır	-10.2732
▁Paralel	-10.2734
▁polisler	-10.2734
leniyor	-10.2745
▁olayla	-10.2748
▁taziye	-10.2753
▁kalbi	-10.2756
▁Geri	-10.2756
▁sunuyor	-10.2758
▁sa	-10.2762
▁kalabalık	-10.2763
▁eşliğinde	-10.2763
▁Cenevre	-10.2765
▁Kredi	-10.2765
▁oldum	-10.2766
▁sistemine	-10.2771
▁DE	-10.2772
▁z	-10.2775
▁Bilgi	-10.2776
▁oradan	-10.2781
om	-10.2784
▁hastalıkları	-10.2789
▁düştüğü	-10.2791
▁yurtdışında	-10.2801
▁Bölümü	-10.2803
üyor	-10.2804
▁Bin	-10.2807
▁ihbarı	-10.2808
▁ba	-10.2815
▁demektir	-10.2815
irken	-10.2821
▁istediklerini	-10.2825
▁imamı	-10.2827
▁altındaki	-10.2828
▁kaynakları	-10.2829
▁otomobilin	-10.283
▁istismar	-10.2834
imizi	-10.2843
▁oluşturduğu	-10.2846
▁Ses	-10.2847
▁metrekare	-10.2847
▁sürücüsü	-10.2851
▁tecavüz	-10.2853
▁yaşanıyor	-10.2854
▁kayyum	-10.2854
▁saldırıyı	-10.2854
▁kaldırılan	-10.2856
▁sürece	-10.2861
▁sisteminin	-10.2863
▁Ter	-10.2865
21	-10.2867
▁şahsın	-10.287
▁taraftar	-10.2873
▁kemik	-10.2873
▁tak	-10.2878
▁kurduğu	-10.2879
▁süreli	-10.2879
▁alana	-10.2886
▁cumhurbaşkanı	-10.289
▁dalga	-10.2892
▁inşallah	-10.29
▁Dış	-10.29
▁Gönül	-10.2901
▁KOBİ	-10.2902
▁parmak	-10.2903
▁artışla	-10.2907
▁yazık	-10.2911
▁zorla	-10.2918
▁korunması	-10.2923
▁Mar	-10.2924
TL	-10.2926
▁hayır	-10.2931
▁böylece	-10.2934
▁bulma	-10.2935
▁kenti	-10.2935
▁Şirket	-10.2939
sizlik	-10.294
▁Mi	-10.2944
laması	-10.2944
▁Zeynep	-10.2946
▁kamyon	-10.2946
▁Serkan	-10.2947
▁Lu	-10.2948
▁ilişkisi	-10.2951
▁isimleri	-10.2951
▁kullanmak	-10.2954
▁özen	-10.2954
▁bulun	-10.2964
▁gözlem	-10.2966
▁bedel	-10.2971
▁Co	-10.2973
▁düşmesi	-10.2973
▁bazıları	-10.2974
LI	-10.2974
26	-10.2975
▁Bağ	-10.2975
po	-10.2985
▁durma	-10.2985
▁bireysel	-10.2992
▁Edirne	-10.2992
▁geliri	-10.2992
▁yatırımcı	-10.2993
▁mücadeleyi	-10.2995
▁Park	-10.3
amayan	-10.3003
▁konuyu	-10.3003
şa	-10.3007
▁dakikalarda	-10.3008
▁kullanılması	-10.3008
ster	-10.3009
▁geriye	-10.301
▁oynama	-10.301
▁sebze	-10.301
▁talimat	-10.3012
▁gününde	-10.3014
▁78	-10.3017
▁x	-10.3017
ner	-10.3019
▁teröre	-10.302
▁boyun	-10.3023
▁Üst	-10.3025
▁olaylar	-10.3025
▁Demokrat	-10.3025
▁motosiklet	-10.3026
▁seviyesinde	-10.3028
UR	-10.303
▁ziyareti	-10.3031
▁tören	-10.3034
▁Müdür	-10.3034
▁hâkim	-10.3038
▁başsağlığı	-10.3038
▁planlanan	-10.3039
▁Ateş	-10.3041
▁yolları	-10.3042
▁psikolojik	-10.3042
▁kanlı	-10.3043
AT	-10.3048
▁başkent	-10.305
▁Et	-10.3055
▁liste	-10.3057
▁Amerikalı	-10.306
▁yılları	-10.3065
▁taraftarı	-10.3066
▁it	-10.3076
imizin	-10.3079
▁kurmak	-10.308
nıza	-10.3082
▁dayanışma	-10.3084
▁çatışmalar	-10.3085
▁Sınır	-10.3087
▁açıkça	-10.3088
TE	-10.3089
▁geçerek	-10.3089
▁sistemini	-10.309
▁şehrin	-10.3093
▁na	-10.3094
▁esnaf	-10.3094
▁çalışmalarına	-10.3095
lerdeki	-10.31
▁gazetecilerin	-10.31
▁iddianame	-10.3102
▁uyum	-10.3103
▁sahipliği	-10.3107
▁bölgenin	-10.3113
▁delil	-10.3114
▁Beş	-10.3114
▁kurma	-10.3115
▁Hepsi	-10.3118
gerçekleştirdiği	-10.3119
▁yazdığı	-10.3127
▁kimin	-10.3128
ly	-10.3131
▁Orgeneral	-10.3131
▁üstü	-10.3131
▁ağlar	-10.3132
▁Hu	-10.3137
▁memur	-10.3137
▁Hacı	-10.3138
▁karşıtı	-10.3141
▁hat	-10.3141
▁vatandaşın	-10.3149
ımı	-10.3152
▁gözler	-10.3152
▁tavır	-10.3152
▁Kongre	-10.3155
▁askerler	-10.3156
▁2'	-10.3159
▁elini	-10.316
▁başlangıç	-10.3178
▁harika	-10.3178
▁Balıkesir	-10.3179
▁Parçalı	-10.3179
▁Rize	-10.3179
▁Cerablus	-10.318
fo	-10.3183
▁geçmek	-10.3186
ET	-10.319
▁Portekizli	-10.3192
▁Pi	-10.3196
Ankara	-10.3199
▁Hayat	-10.3203
bay	-10.3208
▁verileri	-10.3219
▁doları	-10.3223
▁eline	-10.3223
▁kapsamlı	-10.3225
▁mahkum	-10.3225
▁Ağbal	-10.3225
▁sabit	-10.3225
▁Çek	-10.3225
▁avro	-10.3226
▁yürürlüğ	-10.323
aç	-10.3231
▁ismini	-10.3231
▁49	-10.3232
unda	-10.3241
▁zorlu	-10.3242
▁geçmesi	-10.3244
▁memleketi	-10.3245
▁rejimi	-10.3249
▁alacağı	-10.3251
▁Ku	-10.3252
kal	-10.3254
▁müdürü	-10.3265
▁durumlarda	-10.3265
▁kendileri	-10.3266
▁Bölgede	-10.3267
▁edilmişti	-10.3272
▁Türkmen	-10.3273
▁görünce	-10.3275
▁mutluluk	-10.3279
▁bölgesel	-10.328
▁uygulanması	-10.3284
▁vadeli	-10.3286
▁Millet	-10.3286
ıyoruz	-10.3289
▁kontrolünde	-10.329
▁şeyin	-10.3291
▁yönet	-10.3293
Suriye	-10.3294
Sİ	-10.3295
ban	-10.3297
▁Dairesi	-10.3297
▁geçişi	-10.3299
▁yenilgi	-10.3299
▁hisse	-10.3299
▁sokakta	-10.3302
▁örgüte	-10.3303
lendirme	-10.3307
▁filmin	-10.3308
▁onur	-10.3309
▁getir	-10.3311
▁kullanım	-10.3314
▁duruyor	-10.3315
▁kay	-10.3321
▁çekilen	-10.3322
▁yapar	-10.3325
cek	-10.3325
▁savcılık	-10.3326
▁Savcı	-10.3329
▁Car	-10.3329
▁savundu	-10.3337
▁suikast	-10.3339
Ekonomi	-10.3342
▁Yıl	-10.3343
ebilirsiniz	-10.3347
▁St	-10.3349
▁açılması	-10.3351
▁tarihli	-10.3354
ih	-10.3359
▁yaka	-10.336
▁analiz	-10.3361
▁karşılaştı	-10.3362
▁hayatına	-10.3362
▁alkol	-10.3367
▁üzüntü	-10.3368
▁sokak	-10.3368
▁değerlendiren	-10.3373
▁evli	-10.3374
▁Kadınlar	-10.3374
▁Katar	-10.3375
▁çektiği	-10.3376
oz	-10.3377
uk	-10.3379
iyoruz	-10.3387
▁vicdan	-10.3388
▁cihaz	-10.3388
rı	-10.3388
▁Cami	-10.339
DHA	-10.3392
▁geçirmek	-10.3393
17	-10.3394
▁yakaladı	-10.3399
▁getirme	-10.34
ss	-10.34
▁yayınlandı	-10.3401
▁sat	-10.3403
▁gazetecilere	-10.3409
▁Karşı	-10.3409
▁Çakır	-10.3413
▁Astsubay	-10.3416
▁uygulamaları	-10.3416
▁görsel	-10.3416
▁tutuklanan	-10.3417
▁çapında	-10.3418
▁Ertuğrul	-10.3418
▁Medya	-10.342
▁Önümüzdeki	-10.3421
▁musunuz	-10.3422
▁kongre	-10.3422
▁ederim	-10.3423
▁antrenman	-10.3424
▁öncelikle	-10.3431
▁ulaşım	-10.3432
▁savaşın	-10.3436
▁yükseliş	-10.3436
▁adliye	-10.344
▁Pa	-10.3441
▁67	-10.3447
▁geçmişte	-10.3451
▁ellerinde	-10.3453
▁düzeni	-10.3454
▁ayakkabı	-10.3456
ker	-10.3459
yorum	-10.3461
▁oluşturuyor	-10.3465
▁fiziksel	-10.3465
▁Muğla	-10.3466
▁güncel	-10.3466
▁uyarısı	-10.3466
▁albüm	-10.3466
▁girme	-10.3467
▁istenen	-10.3468
▁saatte	-10.3468
▁müze	-10.3469
▁indi	-10.3469
▁Albay	-10.347
duğu	-10.3473
▁güney	-10.3474
▁vermişti	-10.3476
▁saldırgan	-10.3478
▁maliyeti	-10.3479
▁Uzmanı	-10.3479
▁Güler	-10.348
▁alımı	-10.3481
▁gelişmiş	-10.3481
▁56	-10.3482
süz	-10.3484
▁politikası	-10.3486
▁şehri	-10.35
▁gösterme	-10.3501
▁miktarı	-10.3503
tti	-10.3508
mayın	-10.3509
▁hakkındaki	-10.3511
▁mesafe	-10.3513
▁Quaresma	-10.3513
▁ihmal	-10.3513
▁hoş	-10.3514
▁listesinde	-10.3514
▁ani	-10.3516
▁başlıklı	-10.3518
▁pazarı	-10.3521
-16	-10.3522
▁Tel	-10.3524
ktadır	-10.3525
▁aldıklarını	-10.3525
yum	-10.3532
▁yitirdi	-10.3534
▁güvenliğini	-10.3535
NA	-10.3539
gin	-10.3539
▁Yolu	-10.3541
▁kesim	-10.3545
▁komşu	-10.3546
▁sporcu	-10.3547
▁çözümü	-10.3553
▁olmaları	-10.3555
▁hayati	-10.3557
▁öfke	-10.356
▁Tosun	-10.3564
▁haksız	-10.3567
▁istemiyor	-10.357
▁çıkarma	-10.3572
▁Sahil	-10.3579
▁vuruşunda	-10.3579
▁Koca	-10.3579
masına	-10.358
▁gerçekleştiren	-10.3585
▁sınırları	-10.3586
▁soruları	-10.3589
nd	-10.3596
29	-10.3604
DAN	-10.3605
▁yakalanan	-10.3614
▁Adam	-10.3616
-1	-10.3617
▁Es	-10.3618
▁cezasına	-10.362
▁resim	-10.3621
▁kedi	-10.3625
▁testi	-10.3628
-20	-10.3631
▁görüştü	-10.3633
▁saldırıya	-10.3635
▁anlamın	-10.3636
nizin	-10.3638
yar	-10.364
▁doku	-10.3641
▁aylarında	-10.3641
LAN	-10.3642
▁ordu	-10.3649
larken	-10.365
▁bulmak	-10.3654
▁sözleşmesi	-10.3654
▁bıçak	-10.3658
▁Camii	-10.3659
▁İstiklal	-10.366
▁Borsa	-10.3661
▁SGK	-10.3663
28	-10.3663
▁kullanıcı	-10.3663
▁alındığını	-10.3663
▁dönemlerde	-10.3663
▁etkileri	-10.3664
▁kararının	-10.3667
▁duran	-10.3667
▁göstermek	-10.3668
AM	-10.3668
▁Kadir	-10.3669
▁Kimse	-10.3671
▁binanın	-10.3675
▁Var	-10.3677
▁kanıt	-10.3679
▁maaşı	-10.3684
▁taksi	-10.3688
▁meclis	-10.3689
▁Hafta	-10.3689
lerdi	-10.3689
▁karşılıklı	-10.3692
▁Büyükelçisi	-10.3695
▁ülkeden	-10.3698
▁karara	-10.37
▁Projesi	-10.3708
▁Levent	-10.371
▁somut	-10.371
▁kilogram	-10.371
▁istendi	-10.3711
▁göster	-10.3712
▁girmesi	-10.3712
▁h	-10.3719
▁öte	-10.372
ğerlendirmesinde	-10.3722
▁gerekse	-10.3724
gı	-10.3724
▁Kız	-10.3726
▁Biden	-10.3727
▁Otomobil	-10.373
▁çalışmak	-10.3734
▁zamanla	-10.3736
▁sınırında	-10.3737
Rusya	-10.3739
▁eşit	-10.3742
▁gelme	-10.3742
▁katkısı	-10.3748
▁belgesi	-10.3752
▁800	-10.3753
▁başladık	-10.3754
▁bölgelerinde	-10.3755
Sen	-10.3757
▁Oğuz	-10.3758
▁durumunun	-10.3759
yarak	-10.3759
▁Elektrik	-10.3759
▁Muhammet	-10.3759
▁nefret	-10.3759
▁santral	-10.3759
▁liman	-10.376
▁TRT	-10.376
bil	-10.3761
▁Artvin	-10.3761
▁düşünüyoruz	-10.3763
leyerek	-10.3763
▁kültürel	-10.3763
▁oda	-10.3766
▁Tepe	-10.3768
▁ilçesine	-10.3771
▁özür	-10.3772
▁uyar	-10.3774
▁VE	-10.3775
▁trafiği	-10.3776
):	-10.3778
▁başa	-10.3781
▁ayağı	-10.3782
SI	-10.3782
-3	-10.3784
▁sürü	-10.3793
cılık	-10.3794
bur	-10.3798
lenecek	-10.3799
▁koy	-10.3803
▁yılına	-10.3806
iliyor	-10.3807
▁istemiyle	-10.3811
▁üssü	-10.3813
▁gözyaşları	-10.3813
layıp	-10.3816
▁plana	-10.3818
▁skor	-10.3818
▁Adil	-10.3819
▁oluşuyor	-10.3821
ry	-10.3828
▁bal	-10.3829
▁seçimi	-10.383
▁alınmış	-10.3831
▁köyü	-10.3832
▁belirli	-10.3832
▁Gözaltın	-10.3833
▁uyu	-10.3835
▁ilçede	-10.3836
▁Bakanlık	-10.3839
▁yemeği	-10.3839
▁diyorlar	-10.3842
▁ağız	-10.385
▁fatura	-10.3851
▁tamamlandı	-10.3854
▁işleri	-10.3855
▁yakıt	-10.386
▁muhteşem	-10.386
▁emir	-10.3861
▁başlandı	-10.3862
▁Kazada	-10.3862
▁dili	-10.3862
DEN	-10.3864
▁girmek	-10.3865
▁azından	-10.3865
▁yat	-10.3868
▁Gür	-10.3873
▁artıyor	-10.3873
▁hizmetleri	-10.3877
▁avantaj	-10.388
▁sektörün	-10.3882
▁sistemin	-10.3883
▁sürecinin	-10.3884
▁lisans	-10.3897
▁karşılaşmada	-10.39
▁tarafında	-10.3904
▁stres	-10.3908
▁merkezleri	-10.391
▁Mevlüt	-10.391
▁Öksüz	-10.391
▁Münih	-10.391
▁İspanyol	-10.391
▁düzenleyen	-10.3911
▁geleneksel	-10.3911
▁eser	-10.3913
▁yarış	-10.3913
af	-10.3914
▁milyonlarca	-10.3916
▁açı	-10.3917
▁Toplam	-10.3918
hal	-10.3919
▁İngilizce	-10.392
▁Yaz	-10.3925
▁garanti	-10.3926
▁mücadelenin	-10.393
üş	-10.3931
▁pilot	-10.3932
▁63	-10.3934
▁olduğundan	-10.394
▁değiliz	-10.3954
ket	-10.3956
▁tarzı	-10.3959
▁uyruklu	-10.3961
▁bizzat	-10.3961
▁galip	-10.3961
▁Kerry	-10.3962
▁ailenin	-10.3962
▁Birleşi	-10.3962
▁Final	-10.3963
▁anlar	-10.3964
▁Tunceli	-10.3964
▁Neden	-10.3969
▁alkış	-10.3969
▁66	-10.3971
daş	-10.3973
▁No	-10.3974
▁tarafı	-10.3979
▁buluyor	-10.3981
▁gemisi	-10.3981
▁yaşadıkları	-10.3982
▁gücünü	-10.3984
▁fiyatlarında	-10.3989
▁şehidin	-10.3989
▁doğan	-10.399
▁geçme	-10.399
ABD	-10.3991
▁düzen	-10.3993
res	-10.3993
▁hazırlanıyor	-10.3994
▁piyasaya	-10.3995
▁gül	-10.3995
▁çıkarmak	-10.3996
▁kaygı	-10.4001
gün	-10.4004
▁amaç	-10.4006
▁deneme	-10.4009
▁sağladığı	-10.4009
▁adamları	-10.401
▁ajansı	-10.4014
▁günleri	-10.4015
▁kazandığı	-10.4018
▁onlarca	-10.4023
▁çocuklara	-10.4024
lıyız	-10.4025
▁karakteri	-10.4029
▁Av	-10.4031
▁baskın	-10.4031
▁operasyonların	-10.4031
▁bunlara	-10.4032
▁kalem	-10.4038
▁denk	-10.4039
▁eşinin	-10.4045
aj	-10.4049
ot	-10.405
▁konuldu	-10.4053
▁ediyorlar	-10.4056
landığını	-10.4057
▁Mert	-10.4059
▁çatı	-10.4061
▁Ercan	-10.4067
▁Şa	-10.407
▁planları	-10.4072
▁kulübü	-10.4075
▁fotoğrafları	-10.408
▁arkadaş	-10.4082
▁mektup	-10.4084
▁Star	-10.4084
mon	-10.4087
▁Özer	-10.409
▁forvet	-10.4091
Bugün	-10.4091
▁saati	-10.4092
▁Şii	-10.4095
▁tepe	-10.41
▁kaybetme	-10.4104
▁Finans	-10.4112
▁AVM	-10.4115
▁Android	-10.4116
▁Celal	-10.4116
▁uygulamaya	-10.4116
▁sürdüren	-10.4118
zan	-10.412
▁yaşta	-10.412
▁giderken	-10.4121
▁1.2	-10.4124
▁projenin	-10.4125
▁evden	-10.4126
▁trafiğ	-10.4129
▁yıllarında	-10.4129
meyi	-10.4132
▁izleyici	-10.4133
▁Ho	-10.4135
▁takımda	-10.4135
▁sap	-10.4136
tin	-10.4136
▁vatandaşları	-10.4136
▁sektörünün	-10.4137
▁bildiri	-10.4138
▁araştırmalar	-10.4138
▁Okulu	-10.4138
▁gruplar	-10.414
▁aradı	-10.4142
▁okula	-10.415
▁renkli	-10.415
▁Sol	-10.4151
▁albümü	-10.4154
▁Emin	-10.4157
▁çekildi	-10.4158
▁oyuncuların	-10.4159
▁Adnan	-10.4167
▁neticesinde	-10.4168
▁getirerek	-10.4168
▁dışındaki	-10.4168
▁dünyasının	-10.4169
▁gerekmektedir	-10.417
▁sayısında	-10.417
▁dönük	-10.4174
▁saatlerde	-10.4179
▁Petrol	-10.418
▁kişilere	-10.4182
▁Zirvesi	-10.4183
rt	-10.4183
▁seviyesine	-10.4185
▁ters	-10.4192
▁cam	-10.4193
▁do	-10.4195
▁dediler	-10.4195
▁adamın	-10.4197
rıl	-10.42
▁füze	-10.4201
ılacak	-10.4202
▁kararın	-10.4204
▁mağaza	-10.4213
lıların	-10.4218
▁Muharrem	-10.4219
▁Telekom	-10.4219
▁tebrik	-10.4219
▁izledi	-10.422
▁boşanma	-10.4221
▁oynuyor	-10.4222
▁eli	-10.4223
▁soy	-10.4225
▁ürünlerin	-10.4225
▁ondan	-10.4231
▁ulaşma	-10.4234
şan	-10.4236
▁talimatı	-10.4236
Şu	-10.4237
▁projeleri	-10.4238
▁tasarruf	-10.4247
▁tanıtım	-10.4248
LARI	-10.4252
▁kurulması	-10.4253
▁konuya	-10.4254
▁boya	-10.4255
▁Bize	-10.4258
▁yüzünü	-10.4261
▁iddiaları	-10.4265
▁uç	-10.4267
▁bonservis	-10.4271
▁tehdidi	-10.4271
·	-10.4271
▁çekici	-10.4272
▁önünü	-10.4272
▁Avukat	-10.4272
▁ülkelere	-10.4272
▁sunulan	-10.4273
▁maçlarda	-10.4274
▁Ye	-10.4275
▁Özcan	-10.4275
▁görüşü	-10.4276
▁tehlikesi	-10.428
▁değilim	-10.4281
birinden	-10.4282
▁hastaların	-10.4283
▁karakter	-10.4286
▁ortağı	-10.4288
▁çalışanı	-10.4289
▁biten	-10.429
▁59	-10.429
▁babasının	-10.4291
▁kurdu	-10.4293
▁seviyede	-10.4293
▁geleceğini	-10.4295
tal	-10.4298
dere	-10.4299
▁Sal	-10.4302
▁Tekin	-10.4306
▁yoluna	-10.4308
amıyor	-10.4311
▁görüşmesi	-10.4314
yoruz	-10.4314
▁ayrılma	-10.4317
AY	-10.432
▁finale	-10.4321
▁Gümüş	-10.4323
▁ufak	-10.4324
▁götürdü	-10.4324
▁gönderilen	-10.4326
▁zırhlı	-10.4326
▁idare	-10.4327
▁kazanç	-10.4327
▁terörün	-10.4327
lanacak	-10.4328
▁Karşılaşma	-10.4328
▁Direktör	-10.4329
larımıza	-10.4333
▁Kat	-10.4333
▁falan	-10.4336
▁yarışı	-10.4338
▁fazlası	-10.4343
▁Yönetimi	-10.4345
▁golle	-10.4346
▁aşamasında	-10.4349
▁tuzak	-10.435
▁araçla	-10.4355
▁indirimi	-10.4355
▁yönetiminde	-10.4358
▁bek	-10.4364
▁suçlu	-10.437
▁hedefleri	-10.4371
mayı	-10.4373
▁otomotiv	-10.4377
▁Sabri	-10.4377
▁litre	-10.4377
▁sarf	-10.4377
▁duygusal	-10.4378
▁Tan	-10.4379
▁namaz	-10.4379
▁dar	-10.438
ji	-10.4383
▁fon	-10.4387
▁salonu	-10.4388
ans	-10.4388
▁depo	-10.4388
EL	-10.4397
▁kullanıldı	-10.4397
▁kazanmak	-10.4398
▁g	-10.4399
▁hatırlattı	-10.4401
▁yanıtladı	-10.4402
▁kanalı	-10.4407
▁paylaştığı	-10.4409
▁önlem	-10.4412
Kur	-10.4413
▁futbolcunun	-10.4414
▁grupların	-10.4418
▁kararları	-10.4421
▁verildiği	-10.4422
▁Asker	-10.4424
▁gönül	-10.4426
lay	-10.4429
▁roket	-10.443
▁Asayiş	-10.443
▁kendimi	-10.443
▁Bingöl	-10.4431
▁piyasada	-10.4431
▁Ermeni	-10.4433
▁ihracatı	-10.4436
▁yolculuk	-10.4436
tor	-10.4438
▁700	-10.4441
▁kampanyası	-10.4442
▁okudu	-10.4445
▁kuruluşları	-10.4446
▁ayar	-10.4446
▁anında	-10.4451
▁58	-10.4452
▁uçakları	-10.4452
▁tanık	-10.4455
ME	-10.4456
▁emeklilik	-10.4461
▁Organiz	-10.447
▁oluşturdu	-10.4473
hat	-10.4474
▁oran	-10.4478
maları	-10.4479
▁Sev	-10.4481
▁imam	-10.4483
▁Ulaştırma	-10.4484
▁bilmiyorum	-10.4485
▁pahalı	-10.4485
▁hacmi	-10.4486
▁söylemek	-10.4486
▁tedbirler	-10.4488
▁etmektedir	-10.4489
▁giriyor	-10.4491
▁mesajlar	-10.4497
▁san	-10.4497
larınızı	-10.45
▁şiir	-10.4504
▁Maç	-10.4507
▁verdikleri	-10.4508
tma	-10.4508
▁ayın	-10.4508
▁atama	-10.451
▁kamuoyu	-10.451
▁senin	-10.4514
▁tecrübe	-10.4514
▁görüşmede	-10.4515
abilmek	-10.4516
▁gayret	-10.4521
▁2002	-10.4526
▁Bil	-10.4527
▁Çocuklar	-10.4528
türk	-10.453
▁Yan	-10.4536
▁böbrek	-10.4537
▁Avustralya	-10.4538
▁bakın	-10.4538
▁Polat	-10.4539
▁oraya	-10.4539
▁bilimsel	-10.4541
▁tarihe	-10.4542
▁Fuarı	-10.4543
▁bine	-10.4546
′	-10.4546
▁sayısını	-10.4548
▁tünel	-10.455
sem	-10.4553
▁oğlunu	-10.4553
zer	-10.4555
▁Kas	-10.4555
▁hamle	-10.4557
▁diz	-10.4559
▁fikri	-10.4559
▁Tesisleri	-10.4562
▁hattında	-10.4563
▁omuz	-10.4569
▁duyma	-10.457
▁vefat	-10.4575
▁deri	-10.4576
meyecek	-10.4581
▁Daire	-10.4583
▁Şam	-10.4585
▁sözler	-10.4586
▁Galaxy	-10.4591
▁otopsi	-10.4591
▁personeli	-10.4592
▁edilirken	-10.4593
▁beklentisi	-10.4594
▁Emir	-10.4595
▁Hakları	-10.4596
▁liderleri	-10.4597
▁kökenli	-10.4598
▁Bak	-10.4603
▁kültürü	-10.4604
▁girişim	-10.4607
▁Dünyada	-10.4607
▁1,5	-10.4613
▁kesintisi	-10.4614
▁kadını	-10.4617
▁filmde	-10.462
▁Musa	-10.462
▁malzeme	-10.4627
▁Har	-10.4629
emedi	-10.463
gel	-10.464
▁grubun	-10.4641
▁miting	-10.4644
▁mide	-10.4645
▁layık	-10.4645
▁hücum	-10.4646
▁çalışırken	-10.4647
▁anket	-10.4648
▁kalite	-10.4649
▁çekmek	-10.4649
▁Emekli	-10.4649
▁kariyeri	-10.4653
▁ilerleyen	-10.4656
▁Dava	-10.4657
▁Müzesi	-10.4658
▁Hi	-10.4659
▁Zeki	-10.466
▁Birinci	-10.4661
▁eğlence	-10.4661
▁ideal	-10.4665
▁girişi	-10.4667
▁ilerleme	-10.4667
▁çalışmalarının	-10.4668
▁beklediği	-10.4675
▁sisteme	-10.4678
▁yazılım	-10.4679
▁maçını	-10.4681
terör	-10.4682
▁değişik	-10.4682
▁iyice	-10.4682
▁sevgilisi	-10.4682
▁tarz	-10.4684
▁okulların	-10.4686
▁yaklaşım	-10.4687
▁Hal	-10.4688
▁günün	-10.4693
24	-10.4693
▁herkesi	-10.4695
diklerini	-10.4697
▁yatırımlar	-10.4697
▁HABER	-10.47
▁Üstelik	-10.47
▁alanları	-10.4701
▁Mu	-10.4702
▁Batman	-10.4703
▁tanım	-10.4703
▁isterim	-10.4705
▁5'	-10.4705
▁katılacak	-10.4706
▁bulduğu	-10.4708
▁m	-10.471
▁Din	-10.4719
▁kıl	-10.472
▁zamanında	-10.472
▁şoförü	-10.4721
▁Cezaevi	-10.4722
▁öğren	-10.4723
▁tut	-10.4723
▁sürecek	-10.4725
34	-10.4728
▁cemaat	-10.4729
▁hepimiz	-10.4729
▁Kul	-10.473
▁kayıtlı	-10.4733
▁ölümü	-10.4734
▁efsane	-10.4735
▁Banka	-10.4743
▁57	-10.4749
▁senaryo	-10.4749
▁istikrar	-10.475
▁programında	-10.4751
▁basına	-10.4752
▁dördüncü	-10.4754
▁iftira	-10.4755
▁İmam	-10.4757
▁sağlar	-10.4758
▁sakin	-10.4758
▁derdi	-10.476
▁başarısız	-10.4761
▁Per	-10.4762
▁çıkarken	-10.4764
▁şüpheliler	-10.4766
▁olanların	-10.4768
▁2009	-10.4769
▁ikisi	-10.477
▁sanki	-10.4771
▁tarihine	-10.4783
ff	-10.4785
esi	-10.4787
▁değerlendirmesi	-10.4789
▁Za	-10.4791
▁olmasının	-10.4793
tif	-10.4794
▁karşılığı	-10.4795
▁partinin	-10.4796
İT	-10.4798
▁kullanıldığı	-10.4799
▁helikopter	-10.4801
▁Görev	-10.4801
▁açığı	-10.4802
▁Sağ	-10.4804
▁kaldır	-10.4808
▁müthiş	-10.481
▁işlemler	-10.4811
▁Yüksekova	-10.4811
▁kararlı	-10.4812
▁Berat	-10.4812
▁62	-10.4813
▁uzay	-10.4814
▁meme	-10.4814
▁şikayetçi	-10.4815
▁dayalı	-10.4815
▁kararına	-10.4822
▁Esra	-10.4823
▁tesisi	-10.4824
▁mahkemece	-10.4824
▁açıklamıştı	-10.4825
▁aksine	-10.4825
ja	-10.4826
RA	-10.4826
▁karanlık	-10.4829
ük	-10.483
▁aydır	-10.4831
▁durdurulması	-10.4833
▁adresi	-10.4837
▁seni	-10.4837
▁laf	-10.4838
▁Onu	-10.4842
▁haftanın	-10.4844
rin	-10.4845
▁fırtına	-10.4847
▁Karar	-10.4848
kur	-10.485
iç	-10.4852
▁irade	-10.4852
▁dışarıda	-10.486
▁kanat	-10.4865
▁gayrimenkul	-10.4866
▁suretiyle	-10.4866
▁sıvı	-10.4866
ılır	-10.4866
▁uygulanacak	-10.4866
Yeni	-10.4866
▁davran	-10.4867
▁veriliyor	-10.4867
▁Gümrük	-10.4867
▁Seçim	-10.4869
▁Messi	-10.487
▁Hanım	-10.487
▁atarak	-10.4874
▁açıklayan	-10.4875
▁79	-10.4878
▁hayırlı	-10.4884
lerindeki	-10.4886
▁içer	-10.4891
rd	-10.4894
▁seviye	-10.4897
▁değerlendiril	-10.4897
▁yolun	-10.4898
▁takımının	-10.4899
▁açıklamasını	-10.4901
▁değerlendirdi	-10.4906
▁kâr	-10.4907
▁Bay	-10.491
▁sak	-10.491
▁yatak	-10.4911
▁görüşmeleri	-10.4913
▁ç	-10.4915
▁Ban	-10.4917
▁Diyanet	-10.4922
▁Bakırköy	-10.4922
▁sürüldü	-10.4922
▁Akif	-10.4924
▁karıştı	-10.4925
▁detaylar	-10.4925
▁kulübe	-10.4926
ildi	-10.4928
▁Yer	-10.4928
▁adıyla	-10.4929
▁katında	-10.4931
▁köyünde	-10.4931
▁vizyon	-10.4934
▁bankalar	-10.4938
▁davada	-10.4938
▁bi	-10.4942
▁erkekler	-10.4948
▁arzu	-10.4949
▁kentte	-10.4951
▁deneyim	-10.4952
▁davanın	-10.4957
madan	-10.4958
07	-10.496
▁arayan	-10.4961
▁yargılama	-10.4961
▁ekiplerine	-10.4965
▁demiş	-10.4966
"...	-10.4967
örü	-10.4968
▁Rum	-10.4971
▁82	-10.4977
▁muhaliflerin	-10.4977
▁hariç	-10.4978
▁Satış	-10.4978
▁denilen	-10.4978
▁76	-10.4979
▁toplamda	-10.4982
▁kızın	-10.4982
▁sahneye	-10.4984
▁İlhan	-10.4986
▁Ti	-10.4986
▁sürecin	-10.4986
▁veriyoruz	-10.4988
▁1-1	-10.499
hu	-10.499
▁ettiğimiz	-10.4992
▁ayağ	-10.4993
▁sordu	-10.4997
▁Ber	-10.5002
▁operasyonları	-10.5004
▁bar	-10.5009
▁kadına	-10.5015
dıklarını	-10.5017
▁Fed	-10.5018
▁seç	-10.5021
br	-10.5025
▁etmedi	-10.5026
▁Kay	-10.5026
ucu	-10.5028
▁Gerçek	-10.5028
22	-10.503
▁galibiyeti	-10.5032
▁Karşıyaka	-10.5034
▁Başkent	-10.5035
▁bankacılık	-10.5035
▁Engin	-10.5037
▁detaylı	-10.5041
▁varil	-10.5041
▁hapse	-10.5042
▁faydalı	-10.5043
▁gelmişti	-10.5046
rdı	-10.5046
▁Martin	-10.5048
▁yapmıştı	-10.5049
▁ağırlık	-10.5049
▁çalıştığını	-10.505
din	-10.5052
lenir	-10.5054
zo	-10.5054
▁işsizlik	-10.5056
▁uçağın	-10.5056
▁idi	-10.5056
▁hastalığın	-10.5058
▁sor	-10.5062
▁kapasite	-10.5064
▁Akıncı	-10.5066
46	-10.5066
▁desteğiyle	-10.507
▁örneği	-10.5074
yalım	-10.5079
▁eleme	-10.508
ard	-10.508
▁Pe	-10.5082
▁Kalkınma	-10.5091
▁hitap	-10.5091
▁Ağrı	-10.5091
▁gelişen	-10.5095
▁yaptım	-10.5096
luğa	-10.5097
▁başlattığı	-10.5098
▁2006	-10.51
▁sevgili	-10.5102
▁perde	-10.5103
▁teşebbüs	-10.5105
syon	-10.5107
▁Go	-10.5111
sh	-10.5111
▁sürecini	-10.5113
ral	-10.5115
laştı	-10.5118
▁imkan	-10.5118
▁isimlerin	-10.512
▁2007	-10.5121
▁Kars	-10.5123
▁disiplin	-10.5126
▁Harekat	-10.5127
▁Tarih	-10.5129
▁Camisi	-10.5133
▁eksikliği	-10.5134
sti	-10.5135
▁atıyor	-10.514
▁çıkardığı	-10.5144
▁aldım	-10.5148
▁Podolski	-10.5148
▁kalkınma	-10.5149
▁kimyasal	-10.5149
▁diğeri	-10.5151
▁yazısı	-10.5151
▁sunan	-10.5151
▁OHAL	-10.5153
▁söylüyorum	-10.5157
▁2004	-10.5157
▁namazı	-10.516
▁61	-10.5161
ks	-10.5161
leyip	-10.5163
▁bulunma	-10.5164
▁ihtiyacımız	-10.5167
bı	-10.5168
▁Filistin	-10.517
▁suçlarından	-10.517
▁aya	-10.5171
▁mesajları	-10.5173
▁altının	-10.5173
▁duyuru	-10.5176
▁belgeler	-10.5177
▁masum	-10.5178
▁TEM	-10.518
▁problemi	-10.5181
▁başlamış	-10.5183
▁isteyenler	-10.5186
▁Ge	-10.5186
▁değerleri	-10.5186
▁öldüğü	-10.5189
▁Ze	-10.5189
▁Diş	-10.5192
▁Otel	-10.5194
▁yapılır	-10.5199
▁konuşuyor	-10.5204
OR	-10.5206
▁cumartesi	-10.5206
▁sayede	-10.5206
▁yapabilir	-10.5207
▁Erdal	-10.5207
▁yarışma	-10.5212
▁olduğum	-10.5212
▁Komitesi	-10.5213
▁Bi	-10.5214
abilmesi	-10.5217
▁Dağı	-10.5217
▁doğumlu	-10.5217
▁Bürosu	-10.5217
▁ihlali	-10.5218
▁Pro	-10.522
▁anlaşmaya	-10.5223
▁kuruluş	-10.5224
▁kararlar	-10.5225
▁arkadaşlarımız	-10.5225
▁ürünü	-10.5226
▁2.5	-10.5227
diğimiz	-10.5228
▁tekne	-10.523
▁hesapları	-10.5232
yecek	-10.5234
hir	-10.5237
▁şüphelilerin	-10.5237
▁düşünme	-10.5238
▁berabere	-10.5243
▁bakanlık	-10.5247
▁kulak	-10.5248
gil	-10.5251
▁değişiklikler	-10.5256
▁gözyaşı	-10.5264
▁küfür	-10.5264
▁düşüyor	-10.5264
▁sözcüsü	-10.5264
▁sundu	-10.5265
▁öldürülen	-10.5265
▁Mutlu	-10.5266
▁yuvarlak	-10.527
▁damar	-10.5271
▁türü	-10.5272
▁açıklanan	-10.5274
▁üretici	-10.5274
▁boy	-10.5275
▁yardımı	-10.5276
▁evinin	-10.5276
▁programları	-10.5278
▁darbeci	-10.528
▁ülkesi	-10.5282
▁gelmeye	-10.5282
Siz	-10.5283
▁binası	-10.5284
▁varlığı	-10.5284
▁artırmak	-10.5286
lenerek	-10.5292
▁Fi	-10.5292
09	-10.5297
▁Yol	-10.5298
sün	-10.53
.000	-10.53
Bizim	-10.5307
▁Sigorta	-10.5309
üs	-10.531
▁kurtar	-10.531
▁uzmanlar	-10.5312
baba	-10.5313
▁lirayı	-10.5314
mın	-10.5316
▁firması	-10.532
▁değerlendir	-10.5321
▁Meteoroloji	-10.5322
▁Tuğgeneral	-10.5322
▁Silopi	-10.5322
▁Adem	-10.5324
▁içeriği	-10.5324
-19	-10.5324
eş	-10.5325
lamak	-10.5325
▁savunan	-10.5326
▁fiyatlar	-10.5327
dal	-10.5332
▁bilgisini	-10.5337
▁yaşamak	-10.5338
KA	-10.534
ac	-10.5341
02	-10.5342
▁kura	-10.5346
▁götür	-10.5347
▁yöneticisi	-10.535
▁nakli	-10.5358
▁çekme	-10.536
▁gençler	-10.5366
▁yapılanması	-10.5371
▁maçına	-10.5372
▁aş	-10.5375
mur	-10.5376
▁makine	-10.538
▁siyasal	-10.538
▁Rıza	-10.538
▁Muslera	-10.538
▁Trafik	-10.5382
▁Temsilcisi	-10.5383
▁askerin	-10.5384
▁ekim	-10.5384
▁Özkan	-10.5385
▁mekan	-10.5385
▁Yabancı	-10.5385
23	-10.539
▁seçilmiş	-10.5395
▁buz	-10.5397
▁yardımıyla	-10.5397
▁kon	-10.5401
amayacak	-10.5404
▁sev	-10.5407
▁Bina	-10.5407
▁sakatlığı	-10.5411
▁belir	-10.5413
imize	-10.5414
lerimize	-10.5415
▁bitir	-10.5417
▁çalış	-10.542
▁Çiçek	-10.542
▁duyduğu	-10.5423
sızlık	-10.5423
nızın	-10.5423
▁muayene	-10.5424
▁peşinde	-10.5428
▁gittiğini	-10.5428
ettin	-10.5428
▁salon	-10.5434
▁yürütme	-10.5436
▁İLGİL	-10.5437
▁randevu	-10.5438
▁Instagram	-10.5439
▁ömür	-10.5439
ılıyor	-10.5439
▁Elbette	-10.5441
▁73	-10.5451
yo	-10.5454
▁Vatan	-10.5455
▁almayı	-10.5458
▁69	-10.546
▁Ordusu	-10.546
▁kalitesi	-10.5461
▁milleti	-10.5468
▁davranış	-10.5468
wa	-10.5469
▁Önceki	-10.547
▁kelime	-10.5472
tım	-10.5475
▁şube	-10.5476
35	-10.5476
▁?	-10.5478
▁2013'	-10.5479
▁konular	-10.5481
▁sır	-10.5481
▁firmaların	-10.5482
▁bağlantısı	-10.5484
öz	-10.5486
ou	-10.5487
▁sitesinden	-10.5487
▁taşın	-10.549
▁yapılacağı	-10.5492
▁At	-10.5496
▁Nihat	-10.5499
▁yap	-10.5499
▁oyunun	-10.5503
İR	-10.5504
▁zanlı	-10.5506
▁etmiyor	-10.5509
riz	-10.5511
ilecek	-10.5514
▁haklarını	-10.5515
lacivertli	-10.5521
▁cerrahi	-10.553
PKK	-10.5531
▁gözleri	-10.5534
so	-10.5536
▁bebeğin	-10.5539
▁2015"	-10.554
▁çıkışı	-10.5541
▁yazan	-10.5544
▁edilir	-10.555
▁moral	-10.5553
xx	-10.5553
maması	-10.5554
▁saatlik	-10.5557
▁hassas	-10.5557
▁Şehidin	-10.5558
▁Sabancı	-10.5558
▁Enstitüsü	-10.5558
▁olmuyor	-10.5558
▁Ersoy	-10.5559
▁Okul	-10.5562
▁gaye	-10.5563
▁Doç	-10.5566
▁olmasın	-10.5566
▁sorunların	-10.5567
▁teknolojisi	-10.5571
▁büyü	-10.5571
▁dans	-10.5572
▁işten	-10.5579
▁bayrak	-10.5579
▁kurumlar	-10.5583
▁oturma	-10.5583
kara	-10.5584
▁Mor	-10.5586
▁Kanada	-10.559
▁Eto	-10.559
▁aşama	-10.5594
▁ihtiyaçları	-10.5595
▁koku	-10.5599
▁Alp	-10.5601
▁vatandaşlara	-10.5604
▁gönüllü	-10.5608
▁ağabeyi	-10.5617
▁market	-10.5618
▁Şampiyonası	-10.5618
▁Kurban	-10.5619
▁aranan	-10.5619
vo	-10.5619
▁kadrosu	-10.562
▁alakalı	-10.5621
▁olabilecek	-10.5624
▁Has	-10.5626
▁yen	-10.5626
▁dünyası	-10.5627
▁cezalandırılma	-10.5635
▁İnsanlar	-10.5639
▁egzersiz	-10.5642
▁kalmak	-10.5643
▁gecikme	-10.5645
▁çıkaran	-10.5645
▁siyasetin	-10.5649
▁83	-10.5651
Fenerbahçe	-10.5651
layın	-10.5653
▁On	-10.5653
▁töreninde	-10.5655
▁&	-10.5656
▁etkisini	-10.5657
ben	-10.5663
▁Konut	-10.5664
▁soruya	-10.5664
▁girişiminde	-10.5665
▁müzakere	-10.5667
▁kesti	-10.5669
▁kadrosunda	-10.5669
▁akademisyen	-10.567
▁eylemleri	-10.5675
▁Kurt	-10.5675
lacak	-10.5678
▁Uygulama	-10.5678
▁Yiğit	-10.5678
▁tweet	-10.5678
▁çöp	-10.5678
▁David	-10.5678
▁Mesut	-10.5678
▁Gu	-10.5679
larım	-10.568
▁kıyasla	-10.5681
▁ameliyatı	-10.5684
▁ortamı	-10.5687
▁bahçe	-10.5694
▁harcama	-10.5696
▁Onların	-10.5696
▁71	-10.5704
▁virüs	-10.5706
▁sezonu	-10.5708
▁oynamak	-10.5715
▁ulaşmak	-10.5722
lerinizi	-10.5726
▁olmasa	-10.5726
▁cevabını	-10.573
▁selam	-10.5732
▁gazı	-10.5733
umuz	-10.5735
▁arıyor	-10.5735
▁FIFA	-10.5738
▁bilinmeyen	-10.5739
Federal	-10.5739
▁göstererek	-10.574
▁üretilen	-10.574
▁uyumlu	-10.5743
▁cephe	-10.5746
▁güçlerine	-10.5747
▁Araç	-10.5747
▁etrafında	-10.5748
cağı	-10.5748
▁döner	-10.5748
▁edilebilir	-10.5749
▁2003	-10.575
▁sesleri	-10.5752
▁geçtiğini	-10.5752
ham	-10.5753
▁söylemişti	-10.5754
▁kaliteli	-10.5758
▁Ver	-10.5759
▁baz	-10.5768
▁alev	-10.5772
▁gündemde	-10.5775
▁adaylar	-10.5776
ümüz	-10.5779
▁seyir	-10.5779
▁di	-10.5784
▁64	-10.5788
▁söyler	-10.5788
-2	-10.5789
▁Gar	-10.5792
▁ata	-10.5796
▁taşıdı	-10.5797
▁bakıldığında	-10.58
▁nereye	-10.58
▁Üssü	-10.58
▁seçilen	-10.5803
▁arsa	-10.5804
▁bırakan	-10.5806
▁Mavi	-10.5809
▁İn	-10.581
▁Beyoğlu	-10.581
lerce	-10.581
▁Ekonomik	-10.5812
▁ilişkilerin	-10.5812
▁şeye	-10.5812
▁bizden	-10.5815
▁doların	-10.5816
org	-10.5819
▁üzeri	-10.5824
lamış	-10.5825
▁bitirdi	-10.5825
▁ulaştığı	-10.5828
▁verdim	-10.5831
▁rolü	-10.5831
▁okulda	-10.5832
mü	-10.5832
▁üstün	-10.5834
▁dağıtım	-10.5836
▁İlişkiler	-10.5839
▁değişti	-10.584
▁markası	-10.5841
mekte	-10.5842
▁çerçevede	-10.5843
▁Kaynak	-10.5845
▁şahit	-10.5847
▁tanıma	-10.5851
mesini	-10.5853
▁özgür	-10.586
▁vadede	-10.5861
▁Bağdat	-10.5861
▁protein	-10.5861
▁değişen	-10.5864
▁Yanal	-10.5864
▁77	-10.5866
▁Yenikapı	-10.5867
▁Cemal	-10.5868
▁Şener	-10.5871
08	-10.5876
▁uğraş	-10.5876
65	-10.5877
▁varlık	-10.5877
UM	-10.5879
▁Kazan	-10.5882
▁yapısı	-10.5883
▁Mah	-10.5884
▁In	-10.5888
13	-10.5889
▁Sezon	-10.5891
ON	-10.5895
▁projeler	-10.5897
▁iddianamede	-10.5897
▁politikaları	-10.59
▁Zafer	-10.5902
ÜR	-10.5902
acaktır	-10.5906
▁yağış	-10.5912
Benim	-10.5916
▁1'	-10.5916
dağ	-10.5917
▁başkanları	-10.5921
▁Pınar	-10.5922
▁infaz	-10.5922
▁meşru	-10.5923
▁lehine	-10.5923
▁Hakem	-10.5924
▁derecede	-10.5924
▁Büyükelçi	-10.5925
▁Bahar	-10.5926
▁ekonomisi	-10.5927
▁ülkelerine	-10.5928
▁başkanlığı	-10.5929
▁başarısı	-10.5932
▁şartıyla	-10.5934
▁dönme	-10.5934
▁Efes	-10.5938
▁diyorum	-10.5939
▁Sü	-10.5942
▁uyan	-10.5943
makta	-10.5944
ow	-10.5946
▁cümle	-10.5948
▁paketi	-10.5951
▁başkanlığında	-10.5958
▁müziği	-10.5958
▁temizlik	-10.5958
Çok	-10.596
▁çizdi	-10.5962
▁68	-10.5963
▁talebinde	-10.5963
▁etkinliği	-10.5966
▁Doğru	-10.5971
▁Pan	-10.5971
▁kuş	-10.5974
▁ağı	-10.5978
▁hükümetinin	-10.5979
▁edebilir	-10.5982
ktüel	-10.5985
▁kaşığı	-10.5985
▁metro	-10.5985
▁resmen	-10.5986
▁yolsuzluk	-10.5986
▁edilemez	-10.5987
▁ikamet	-10.5988
kça	-10.5993
▁koyduğu	-10.6006
▁Uzmanlar	-10.6011
▁kazanma	-10.6012
▁çatışmada	-10.6014
▁katma	-10.6016
▁Ona	-10.6017
▁üyeliği	-10.602
▁kurtul	-10.602
▁bakma	-10.6024
▁sistemleri	-10.6024
▁isyan	-10.6027
ris	-10.603
larsa	-10.603
▁v	-10.603
▁uzlaşma	-10.6035
▁işlemlerin	-10.604
▁kalır	-10.604
▁Hak	-10.6041
madığı	-10.6042
▁Destek	-10.6046
▁tutum	-10.6047
▁Cüneyt	-10.6047
▁Yüksel	-10.6047
▁kahvaltı	-10.6047
▁anlayışı	-10.6049
▁mevsim	-10.6049
▁camia	-10.6049
▁vurgulayarak	-10.6051
▁kök	-10.6053
tt	-10.6054
▁Sch	-10.6055
▁etkinlik	-10.6055
▁özetle	-10.6055
▁yollar	-10.6056
▁hatırla	-10.6056
▁yön	-10.6057
▁ağzı	-10.606
melidir	-10.6061
▁ağırlıklı	-10.6061
▁çıkarılması	-10.6061
▁fiyatlarının	-10.6061
lıdır	-10.6062
▁yaşadıklarını	-10.6063
▁bebeği	-10.6064
▁işveren	-10.6066
▁kal	-10.607
▁ş	-10.6071
▁milletimiz	-10.6071
sta	-10.6071
▁göze	-10.6072
▁çıkart	-10.6073
▁Jan	-10.6073
Son	-10.6074
▁kaldırıldığı	-10.6075
▁bilgilendirme	-10.6075
▁eti	-10.6076
▁müdahalesi	-10.6076
▁sakat	-10.6077
▁şüphelinin	-10.608
▁Aksu	-10.6081
▁Yaralılar	-10.6081
▁ağaç	-10.6083
36	-10.6084
▁say	-10.6087
▁sağlama	-10.6089
▁kardeşim	-10.6097
▁Büro	-10.6098
▁besin	-10.6099
LIK	-10.6103
▁beğen	-10.6105
▁alçak	-10.6109
▁bisiklet	-10.611
▁İşbirliği	-10.611
yer	-10.611
▁büyüyen	-10.6111
▁Boğaziçi	-10.6112
▁oluşturulan	-10.6112
▁cadde	-10.6113
▁olabiliyor	-10.6117
▁iniş	-10.6117
▁Operasyon	-10.6119
Terör	-10.6119
▁standart	-10.6121
▁Cihan	-10.6121
▁ekibinin	-10.6122
▁Hz	-10.6123
▁olayların	-10.6126
▁vereceği	-10.6127
01	-10.6128
▁düş	-10.613
▁t	-10.6131
sar	-10.6134
▁taksit	-10.6136
▁maliyet	-10.6137
▁bombası	-10.614
muştu	-10.6143
▁sunduğu	-10.6144
miyorum	-10.6144
55	-10.6146
▁bırak	-10.6146
▁zamanlar	-10.6146
▁golcü	-10.6147
04	-10.6153
▁Gol	-10.6153
▁tatili	-10.6156
▁çalışmaların	-10.6158
▁Ada	-10.616
▁ye	-10.616
▁kaynaklı	-10.6162
▁terörü	-10.6167
▁yatırımları	-10.6167
▁Sayı	-10.6168
lek	-10.6169
▁bizler	-10.6169
99	-10.617
AP	-10.6171
▁buluşma	-10.6173
▁felaket	-10.6173
▁pozitif	-10.6173
▁törenine	-10.6173
▁radyo	-10.6173
▁klasik	-10.6173
▁saldırdı	-10.6174
▁Müzik	-10.6175
▁uyarınca	-10.6175
▁men	-10.6175
▁Kitap	-10.6176
▁çirkin	-10.6176
▁Yoksa	-10.6177
İZ	-10.6188
▁Teşkilatı	-10.6188
▁taşıdığı	-10.6189
CI	-10.6191
LERİ	-10.6195
▁arkadaşlar	-10.6197
▁kiralama	-10.6197
muyor	-10.6197
▁idman	-10.6206
▁mart	-10.6207
TI	-10.6208
▁devi	-10.6208
lendiği	-10.6209
CİHAN	-10.621
▁platform	-10.621
▁DA	-10.6211
▁gönder	-10.6215
▁hastası	-10.6219
▁11.	-10.6224
▁Mali	-10.6224
▁örgütlerinin	-10.6225
03	-10.6225
▁raporda	-10.6226
▁7'	-10.6226
▁Far	-10.6227
▁muhtemel	-10.6232
▁Ebru	-10.6237
▁vakıf	-10.6237
▁Uşak	-10.6238
▁Toprak	-10.6238
▁Elazığ	-10.6239
▁girerek	-10.624
▁okur	-10.6243
▁Yazı	-10.6245
▁önlemler	-10.6245
▁Karaman	-10.6248
▁tutma	-10.6249
▁hastanın	-10.625
▁konulan	-10.625
▁kuralları	-10.625
▁hayatın	-10.6251
ril	-10.6253
▁getirecek	-10.6257
▁oluştu	-10.626
▁Brezilyalı	-10.6262
▁oynayacağı	-10.6264
▁görevine	-10.6266
▁parası	-10.6268
▁öldürme	-10.6271
▁getirildiği	-10.6271
▁es	-10.6281
▁takviye	-10.6282
▁bel	-10.6283
▁açma	-10.6284
sunu	-10.6286
▁rakipleri	-10.6292
▁festival	-10.6293
▁Sistem	-10.6296
▁rast	-10.6296
▁yaklaştı	-10.6296
▁Fethullah	-10.6297
▁Salonu	-10.6297
▁bitki	-10.6298
▁çekim	-10.6299
▁moda	-10.6301
▁Adıyaman	-10.6301
▁sipariş	-10.6301
▁stoper	-10.6301
▁Coşkun	-10.6301
▁siber	-10.6301
▁koşulları	-10.6302
off	-10.6303
▁yönlü	-10.6303
▁zorundayız	-10.6304
tel	-10.6306
▁Olur	-10.6306
▁gösterilen	-10.6308
▁95	-10.6308
▁arayarak	-10.6308
larındaki	-10.6309
▁Hani	-10.6309
▁bahar	-10.6309
▁tıp	-10.6313
▁Harun	-10.6314
44	-10.6315
mle	-10.6318
54	-10.6318
▁tarihinden	-10.6319
▁Dil	-10.6324
▁finansman	-10.6326
▁millete	-10.6326
▁ilçesindeki	-10.6328
▁topa	-10.6328
▁kendisinden	-10.633
▁manzara	-10.633
06	-10.6333
nik	-10.6333
iniz	-10.6334
▁belgeleri	-10.6334
▁Kongresi	-10.6334
▁ga	-10.6339
▁seviyesini	-10.6339
▁elindeki	-10.6344
▁Portekiz	-10.6349
▁Kızılay	-10.6349
▁yetersiz	-10.6352
▁öğrencilere	-10.6358
▁abone	-10.636
▁samimi	-10.6364
▁manevi	-10.6365
▁mükemmel	-10.6365
▁çabuk	-10.6366
▁tescil	-10.6366
▁Show	-10.6366
lacivertliler	-10.6366
▁Napoli	-10.6368
▁Bilal	-10.6369
▁yiyecek	-10.6369
▁oluşturan	-10.6371
mdan	-10.6373
▁Taksim	-10.6375
▁katılımıyla	-10.6376
▁sıkıntılar	-10.6376
▁başvurdu	-10.6378
▁futbolcuların	-10.6379
▁duruşma	-10.638
▁ayrıntı	-10.6382
▁Ru	-10.6383
▁gerçekleşecek	-10.6383
▁tüket	-10.6388
▁geliştirme	-10.6389
59	-10.6391
▁gazetesinin	-10.6394
▁Hep	-10.6395
▁belirsiz	-10.6397
▁detayları	-10.6398
▁hareketleri	-10.6398
▁boşa	-10.6399
▁amaçla	-10.6399
▁organları	-10.64
▁eyaletinde	-10.6402
▁milletimizin	-10.6403
madığını	-10.6405
▁tutarı	-10.6421
▁aldığımız	-10.6424
▁biliniyor	-10.6428
▁beraat	-10.643
▁elbise	-10.6431
▁cumhuriyet	-10.6431
▁strateji	-10.6432
▁Yorumu	-10.6433
▁Akşam	-10.6434
▁Meslek	-10.6434
▁86	-10.6436
▁Ayhan	-10.6436
▁görmesi	-10.6436
▁anlaşıldı	-10.6437
▁gündüz	-10.6437
▁biliyorum	-10.6437
▁şekli	-10.6439
▁haftalık	-10.6445
▁bit	-10.6448
ebileceğini	-10.6463
▁maddeler	-10.6464
▁İddiay	-10.6465
▁Avrupalı	-10.6465
▁inancı	-10.6466
▁şeyleri	-10.647
▁Acı	-10.647
▁inanç	-10.6471
▁mevzuat	-10.6471
▁kul	-10.6474
cik	-10.6479
▁Wi	-10.6479
▁konuları	-10.6486
▁olmazsa	-10.6488
▁Yetkililer	-10.6488
▁göstermesi	-10.6489
▁başarılar	-10.649
▁işyeri	-10.6493
EM	-10.6494
pınar	-10.6495
▁Vitor	-10.6497
▁Afganistan	-10.6497
▁sorusu	-10.6497
▁verirken	-10.6502
▁giy	-10.6503
▁emri	-10.6506
▁kurumları	-10.6506
ste	-10.6507
ışı	-10.6508
▁bilir	-10.6508
▁2005	-10.6513
▁yapının	-10.6513
▁dilekçe	-10.6514
▁bölgeler	-10.6516
ang	-10.6517
▁operasyonunda	-10.6519
▁EN	-10.652
▁birimi	-10.652
▁İnternet	-10.6521
▁gelişimi	-10.6523
▁filmleri	-10.6525
▁Erkek	-10.6537
▁önemi	-10.6539
CE	-10.654
▁istedikleri	-10.6544
▁Yakın	-10.6547
ımızı	-10.6549
▁Jo	-10.655
▁Ailesi	-10.6553
▁yaralandığı	-10.6554
▁sekiz	-10.6556
▁yapım	-10.6557
bilir	-10.656
▁Menderes	-10.6562
▁Cinayet	-10.6562
▁vakti	-10.6562
▁kesinti	-10.6563
▁17-25	-10.6563
▁dokunulmazlık	-10.6563
▁giydiği	-10.6563
▁zafer	-10.6564
▁sisteminde	-10.6564
▁edici	-10.6564
rack	-10.6565
▁üreten	-10.6566
kent	-10.6567
▁azalma	-10.6574
▁hızlandır	-10.6575
▁dinleme	-10.6581
ovic	-10.6586
▁evre	-10.6587
▁çıkmaya	-10.6587
lanırken	-10.659
▁İşçi	-10.6592
▁eserleri	-10.6594
▁Servis	-10.6594
▁dizinin	-10.6596
▁beğeni	-10.66
▁yarattı	-10.6604
▁makam	-10.6607
▁50'	-10.6614
▁kapatılması	-10.6615
▁Ek	-10.6616
▁içeride	-10.6618
▁sakatlık	-10.6622
▁zararlı	-10.6626
▁inanılmaz	-10.6628
▁Eyüp	-10.6628
▁Selahattin	-10.6628
▁pazartesi	-10.6628
▁verimli	-10.6632
▁2018	-10.6632
▁dönüm	-10.6634
▁duyurusunda	-10.6634
▁duvar	-10.6636
▁emanet	-10.6636
▁duyan	-10.6637
▁Aslı	-10.6637
▁dönüşü	-10.664
▁20'	-10.6642
▁işini	-10.6643
▁Yap	-10.6644
31	-10.6656
saydı	-10.6657
▁kısmını	-10.6657
emiyor	-10.6658
▁ruhu	-10.6659
▁gole	-10.6663
▁teşhis	-10.6668
leştirme	-10.667
▁Ci	-10.6674
▁husus	-10.6675
▁Japon	-10.6676
▁şampiyonluğu	-10.6677
▁general	-10.6679
yat	-10.668
▁vücudun	-10.668
▁vermeden	-10.6683
▁gündemi	-10.669
▁Turgut	-10.6691
▁göğüs	-10.6695
ACAK	-10.6695
▁Amirliği	-10.6696
▁Sivil	-10.6697
▁kurumsal	-10.6698
▁söylen	-10.6699
▁vuran	-10.67
▁tespiti	-10.67
▁çıkmıştı	-10.6705
▁van	-10.6706
kat	-10.6713
uh	-10.6715
▁olmanın	-10.6718
▁çabaları	-10.6718
▁kaynaklar	-10.6724
▁Ger	-10.6728
▁yatırımı	-10.6731
▁hissi	-10.6735
▁forması	-10.6743
▁yetkililerin	-10.6745
▁gelişi	-10.6746
▁gezi	-10.6748
▁va	-10.6749
▁Mete	-10.6753
▁kamp	-10.6757
▁değiştirme	-10.6758
▁koca	-10.6761
▁buradaki	-10.6761
▁cennet	-10.6762
▁mesai	-10.6762
▁tutuklanarak	-10.6762
▁Hamza	-10.6763
▁Köprü	-10.6763
▁piyasalarda	-10.6763
▁nöbetçi	-10.6764
▁sırt	-10.6765
▁yaşıyoruz	-10.6769
▁AYM	-10.677
▁uçaklarının	-10.677
▁edecektir	-10.6783
▁yansıdı	-10.6784
▁Kupa	-10.6785
▁belirtileri	-10.6787
▁skandal	-10.679
▁oranının	-10.6791
▁öneri	-10.6791
üne	-10.6792
▁Adası	-10.6792
▁Emine	-10.6792
▁etmiştir	-10.6792
▁ülkedeki	-10.6793
▁direkt	-10.6795
▁kazanması	-10.6796
▁İşletme	-10.6799
▁aramada	-10.6802
▁bulunmak	-10.6804
▁harekatı	-10.6807
demir	-10.6812
▁boz	-10.6815
İş	-10.6815
▁ekibin	-10.6819
▁gördüğünü	-10.6823
emeyen	-10.6824
▁çoğunluğu	-10.6824
▁futbolcusu	-10.6826
▁görülme	-10.6827
▁idrar	-10.6829
▁kalori	-10.6829
▁estetik	-10.6829
▁seçimlerinde	-10.683
▁düzenlemeler	-10.683
▁açılacak	-10.683
▁bırakıp	-10.683
▁diplomatik	-10.6831
▁okuyan	-10.6831
▁Sow	-10.6836
▁istiyorlar	-10.6839
▁ke	-10.684
▁dernek	-10.684
abileceğini	-10.6843
beyazlılar	-10.6843
▁Kaynaklar	-10.6846
▁katliam	-10.6847
▁kapan	-10.685
▁sigortası	-10.6854
▁satan	-10.6855
▁seven	-10.6856
▁çevredeki	-10.6857
▁vade	-10.6857
▁organ	-10.6866
ildiği	-10.6868
▁vurgulandı	-10.6869
▁karışık	-10.6878
▁beraberinde	-10.6889
▁sezonda	-10.689
▁Fer	-10.6891
▁2016"	-10.6892
▁sigortalı	-10.6895
▁4'	-10.6895
▁çağırdı	-10.6895
▁geçmeye	-10.6897
▁lanet	-10.6897
▁Lens	-10.6897
▁Bayraktar	-10.6897
▁bordo	-10.6898
▁çalışacak	-10.6899
▁verip	-10.6899
▁Telefon	-10.69
▁2023	-10.6902
▁hane	-10.6902
▁konumunda	-10.6904
▁ederiz	-10.6904
▁etmez	-10.6912
▁dersi	-10.6912
▁seçildi	-10.6917
▁büyüklüğünde	-10.6921
▁sorusunu	-10.6921
▁girmiş	-10.6923
▁havalimanı	-10.6934
▁anlamında	-10.6935
mesine	-10.6935
lemiş	-10.6937
▁2000	-10.6937
bel	-10.6938
▁katil	-10.694
İB	-10.6941
▁havadan	-10.6941
ürü	-10.6941
▁emek	-10.6941
▁gelebilir	-10.6943
▁hesabını	-10.6945
ılarak	-10.6946
▁altından	-10.6949
▁2011'	-10.6949
▁girişimini	-10.6954
▁Peygamber	-10.6955
▁Körfez	-10.6957
▁puanı	-10.6958
▁genelde	-10.6959
▁bulunmuştu	-10.6959
95	-10.6962
▁oranla	-10.6964
▁numarası	-10.6965
▁deşifre	-10.6966
▁Oktay	-10.6966
▁delege	-10.6966
▁Azez	-10.6967
▁Fotoğraf	-10.6967
tek	-10.6967
▁sorumluluğu	-10.6968
▁Mobil	-10.697
▁Parlamentosu	-10.697
▁destekleyen	-10.6973
▁ülkelerinin	-10.6979
les	-10.6981
▁etmesini	-10.6982
liyiz	-10.6983
asyon	-10.6983
▁riskini	-10.6984
▁Tu	-10.6986
▁kapatıldı	-10.6987
mediği	-10.6988
▁Oyun	-10.6988
▁vergisi	-10.6989
lığına	-10.6989
CA	-10.699
dy	-10.6994
▁Olayın	-10.6996
▁cihazlar	-10.7001
▁geleni	-10.7001
▁vali	-10.7002
▁üs	-10.7006
▁Tugay	-10.7006
Galatasaray	-10.7008
Allah	-10.7008
▁katılmak	-10.701
▁halkına	-10.7013
▁düzeyinde	-10.7014
▁istedim	-10.7017
▁hayali	-10.7024
düğü	-10.7026
▁görüldüğü	-10.7027
abi	-10.703
▁88	-10.7032
▁dünyasında	-10.7033
▁bekleme	-10.7034
▁imkânı	-10.7035
▁Moody	-10.7035
▁Piyango	-10.7035
▁Müezzinoğlu	-10.7035
▁Başkanvekili	-10.7035
▁Atletico	-10.7036
▁VAR	-10.7037
▁hikaye	-10.7037
▁direktörü	-10.7038
▁Siyaset	-10.7038
▁otomobili	-10.7039
▁aşan	-10.7044
▁74	-10.7044
▁gelmek	-10.7044
EY	-10.7045
▁ÖSO	-10.7046
tra	-10.7047
▁kısmında	-10.7049
▁akın	-10.7054
▁Em	-10.7055
rik	-10.7056
▁onunla	-10.7058
▁edenler	-10.7061
▁is	-10.7061
▁pazarında	-10.7062
▁toplandı	-10.7062
ıldığı	-10.7062
▁olduğunda	-10.7065
▁saatlerinden	-10.7066
we	-10.7067
▁akışı	-10.7069
▁kazası	-10.7072
▁yaklaş	-10.7072
▁Rio	-10.7079
inizi	-10.708
abilen	-10.7081
▁yollarını	-10.7084
▁Evi	-10.7084
▁birine	-10.7087
▁hekim	-10.7087
▁gelişmeleri	-10.7087
▁doktora	-10.7089
▁Yüz	-10.7089
▁dediğimiz	-10.7089
▁siyaseti	-10.709
68	-10.7092
▁olmasından	-10.7092
▁bini	-10.7095
▁koşu	-10.7098
▁Mer	-10.71
▁damga	-10.7101
38	-10.7101
▁site	-10.7101
▁korun	-10.7102
▁netice	-10.7102
▁Hillary	-10.7104
▁Nitekim	-10.7104
▁ümit	-10.7104
▁flaş	-10.7105
▁Serbest	-10.7106
▁görüşmelerin	-10.7108
▁Arka	-10.7111
▁ser	-10.7113
▁satır	-10.7115
▁binada	-10.7116
▁otobüsü	-10.7116
▁işleme	-10.7117
De	-10.7119
▁oluşturmak	-10.712
▁dolardan	-10.7122
▁Hemen	-10.7123
▁belirlenmesi	-10.7123
par	-10.7125
▁dizisinde	-10.7127
▁ambulansla	-10.7129
▁paylaşımı	-10.7129
▁kamerası	-10.7133
▁desteğini	-10.7135
▁Bolu	-10.7138
▁Bas	-10.7138
▁abi	-10.7143
▁taraftarların	-10.7144
▁dergi	-10.7146
▁sel	-10.7147
▁çadır	-10.7147
Beşiktaş	-10.7148
takım	-10.7148
▁tır	-10.715
▁Tüneli	-10.715
▁blok	-10.7151
▁Çayk	-10.7154
lanıp	-10.7159
▁Birlik	-10.7162
▁dedik	-10.7169
▁SE	-10.717
▁çabası	-10.717
▁kullanıcıların	-10.7171
▁havaya	-10.7171
▁çalışanları	-10.7172
yacağını	-10.7174
▁astsubay	-10.7174
▁hatırlatarak	-10.7174
▁kucak	-10.7174
▁Mezarlığı	-10.7175
▁şov	-10.7175
▁taze	-10.7176
▁anlamak	-10.7176
▁yayınlanacak	-10.7176
▁Birkaç	-10.7177
▁Mario	-10.7177
▁yerlere	-10.718
32	-10.7181
▁baktığımızda	-10.7183
▁önlenmesi	-10.7183
▁mühimmat	-10.7184
▁eğ	-10.7187
▁koyan	-10.7189
▁Ülker	-10.7193
▁atmak	-10.7198
▁ölümüne	-10.7204
▁Yerli	-10.7204
ebileceği	-10.7204
▁çalışanlar	-10.7206
▁kamuoyuna	-10.7208
▁gittim	-10.7208
▁sorular	-10.7209
▁makinesi	-10.7211
▁erteleme	-10.7211
▁çağrısında	-10.7211
▁açmak	-10.7214
▁ediyordu	-10.7215
▁Adliyesi	-10.7217
▁uygulamalar	-10.7218
▁yüzüne	-10.722
▁tüketim	-10.7221
▁açar	-10.7224
▁şehrinde	-10.7227
ec	-10.7227
▁tavrı	-10.7228
▁baskısı	-10.7228
Aile	-10.7229
▁kazada	-10.7229
▁uğradı	-10.7233
▁uzatma	-10.7234
▁artı	-10.7234
▁90'	-10.7236
iyorum	-10.7238
▁ham	-10.7239
▁düşün	-10.724
▁sebeple	-10.724
▁oynat	-10.7243
▁Fernandao	-10.7245
▁takibi	-10.7245
▁Hayvancılık	-10.7245
▁2-3	-10.7246
▁HSYK	-10.7248
abiliriz	-10.7248
▁yanındaki	-10.7249
▁ekonomisinin	-10.7253
▁Hakimliği	-10.7256
▁ortaklık	-10.7258
▁yarattığı	-10.7258
▁Ortak	-10.7259
▁Koruma	-10.7261
liyor	-10.7262
dil	-10.7265
▁350	-10.7266
lısınız	-10.7267
▁yurtdışına	-10.7267
▁girişinde	-10.7268
▁Bunları	-10.7272
85	-10.7273
▁tarif	-10.7277
▁Kendisi	-10.7278
▁İnce	-10.7279
▁don	-10.728
▁Kut	-10.7281
▁70'	-10.7282
▁geçeceği	-10.7285
▁hendek	-10.7285
▁katkıda	-10.7285
▁Özal	-10.7286
Kültür	-10.7289
▁kuran	-10.7293
▁adında	-10.7294
▁fuar	-10.7295
mayacak	-10.7297
▁Politikalar	-10.7298
▁faaliyeti	-10.7302
▁kadınlara	-10.731
▁West	-10.731
▁karayolu	-10.7311
▁bölgesindeki	-10.7312
▁radikal	-10.7315
▁tasfiye	-10.7315
▁Bulgaristan	-10.7315
▁Çınar	-10.7315
▁direksiyon	-10.7316
▁nisan	-10.7316
▁yaşandığını	-10.7316
▁İsmet	-10.7316
▁yapıyorlar	-10.7316
▁defalarca	-10.7317
ara	-10.7317
▁tamamlayan	-10.7317
▁Cenaze	-10.7317
▁çarpıcı	-10.732
▁Hangi	-10.732
▁Cemil	-10.7322
▁değiştirdi	-10.7323
▁kurucusu	-10.7328
▁fotoğrafını	-10.7333
▁Avni	-10.7333
▁evlerinde	-10.7336
che	-10.734
▁üstlendiği	-10.7342
çılar	-10.7344
▁kurumu	-10.7344
▁kirli	-10.7344
Tİ	-10.7345
▁Çağlar	-10.7346
▁girişiminden	-10.7354
EK	-10.7355
▁borsa	-10.7357
▁84	-10.7367
▁uğra	-10.7368
▁çatışmaların	-10.7371
▁Gazeteciler	-10.7373
▁başbakan	-10.7379
yüz	-10.738
▁kurucu	-10.7382
UZ	-10.7384
mb	-10.7386
▁artırma	-10.7386
▁Norveç	-10.7387
▁Odeabank	-10.7387
▁Vladimir	-10.7387
▁İhbar	-10.7387
▁İletişim	-10.7387
▁Zengin	-10.7387
▁yapılabilir	-10.7387
▁Hazine	-10.7387
▁Önder	-10.7388
▁Kiev	-10.7388
▁KDV	-10.7389
▁oturduğu	-10.739
▁unsurları	-10.7391
▁oranları	-10.7391
▁130	-10.7398
▁sürerken	-10.7398
▁başlama	-10.7399
▁ölçü	-10.7402
layıcı	-10.7402
48	-10.7403
▁Eroğlu	-10.7403
▁diyoruz	-10.7403
▁rengi	-10.7404
▁aktarıldı	-10.7404
▁Temel	-10.7408
▁artırılması	-10.7408
▁sanal	-10.7409
▁kimseye	-10.7409
Kİ	-10.741
▁iletti	-10.741
▁Op	-10.7411
▁yaşı	-10.7416
▁eşim	-10.7419
▁devlete	-10.7419
Ba	-10.7423
▁Veli	-10.7423
76	-10.7428
▁yapılmasını	-10.7431
▁benzin	-10.7431
▁mutabakat	-10.7433
▁Örgüt	-10.7434
▁mensuplarına	-10.7435
▁10'	-10.7436
▁seviyesi	-10.7439
▁yetkisi	-10.7441
▁budur	-10.7444
Al	-10.7444
▁propagandası	-10.7445
▁atak	-10.7446
▁doğusunda	-10.7446
▁sahipleri	-10.7447
▁konferans	-10.7448
▁içme	-10.7449
▁firmalar	-10.745
istan	-10.745
▁kıyı	-10.7451
▁cezaevinde	-10.7451
▁Devletin	-10.7451
▁Savcısı	-10.7452
▁sahasına	-10.7452
▁oto	-10.7456
▁bulunacak	-10.7456
▁Pek	-10.7457
▁seçme	-10.7458
▁çete	-10.7459
▁akciğer	-10.7459
▁infilak	-10.7459
▁müebbet	-10.7459
▁Arınç	-10.7459
▁seçeneği	-10.7459
▁rehin	-10.7459
▁tanınan	-10.7459
▁Aykut	-10.746
▁Üsküdar	-10.7461
▁öğrenilen	-10.7461
▁Yaşanan	-10.7461
▁sözünü	-10.7462
▁yargılanan	-10.7463
▁tutmak	-10.7466
lidir	-10.7467
▁mezar	-10.7469
▁dert	-10.747
TÜ	-10.747
▁adımı	-10.7473
▁haklarında	-10.7478
ÜN	-10.7479
▁Başta	-10.7479
▁veriler	-10.748
▁iyileşme	-10.748
▁duruşu	-10.7481
lanmıştı	-10.7483
▁ofis	-10.7485
▁sakinleri	-10.7486
▁fa	-10.7486
▁kararıyla	-10.7488
▁durdu	-10.7489
▁AL	-10.7495
▁zararı	-10.7498
▁Say	-10.7498
▁gök	-10.7499
▁Ah	-10.7501
▁diyet	-10.7501
▁reform	-10.7506
▁Hizmet	-10.7511
▁minibüs	-10.7514
▁Fonu	-10.7519
▁düşünen	-10.7521
rü	-10.7522
▁kuruldu	-10.7526
▁Mimar	-10.7527
▁polislerin	-10.7527
▁aileleri	-10.7528
▁alınmıştı	-10.7529
▁Yarın	-10.7529
▁şarj	-10.753
▁Danıştay	-10.7531
▁Marmaris	-10.7531
▁Mercedes	-10.7531
▁keşif	-10.7531
▁Necip	-10.7531
▁razı	-10.7531
▁Bitlis	-10.7531
▁Yangın	-10.7532
▁James	-10.7532
▁biber	-10.7532
▁yaşa	-10.7533
TO	-10.7535
▁sendika	-10.7538
▁şunlar	-10.7542
tro	-10.7543
▁karşıladı	-10.7543
don	-10.7544
▁Mark	-10.7544
▁izleme	-10.7545
▁gittik	-10.7547
▁hedefimiz	-10.755
▁Gezi	-10.7551
▁Savcılık	-10.7557
lamaya	-10.7558
▁beden	-10.7561
landırma	-10.7561
▁katılması	-10.7562
▁siyasetçi	-10.7563
▁bulunmadığı	-10.7564
▁yaptılar	-10.7565
▁duyduğunu	-10.7567
▁döneme	-10.7568
▁bankaların	-10.7569
▁ağ	-10.7572
▁konuşmak	-10.7573
▁İlker	-10.7575
ecektir	-10.7577
▁09	-10.7578
▁şut	-10.7578
▁Kış	-10.758
acağım	-10.758
▁hizmetler	-10.758
land	-10.7583
bin	-10.7585
▁geçer	-10.7585
▁konuşmasını	-10.7587
▁paranın	-10.7587
▁ö	-10.7589
27	-10.7591
biliyor	-10.7592
▁incelemesi	-10.7592
▁izlemek	-10.7596
▁yerleşti	-10.7598
▁güneyinde	-10.7601
▁aşkı	-10.7602
▁protokol	-10.7604
▁Siirt	-10.7604
▁Kaçakçılık	-10.7604
▁derbisi	-10.7605
▁panik	-10.7605
▁Zonguldak	-10.7606
▁oradaki	-10.7606
▁tamamlanan	-10.7606
▁okullar	-10.7607
ime	-10.7608
▁Hakemler	-10.7608
▁bozukluğu	-10.7609
GE	-10.7611
▁ülkelerden	-10.7612
▁ailelerine	-10.7613
dığımız	-10.7615
▁şartlarda	-10.7616
▁bölümünü	-10.7616
▁2001	-10.7617
▁takdir	-10.7622
▁çekilme	-10.7624
▁kolları	-10.7629
▁Göç	-10.7632
▁Programı	-10.7633
▁dünyayı	-10.7636
▁parçaları	-10.7638
▁güçler	-10.7642
▁büyümesi	-10.7642
▁notu	-10.7642
▁sokakları	-10.7643
zu	-10.7643
▁hatıra	-10.7643
çü	-10.7644
ayım	-10.7645
▁karın	-10.7646
göz	-10.7648
▁gelmez	-10.7649
▁kaçırma	-10.7651
▁Kuvvet	-10.7657
meyin	-10.7664
▁kullan	-10.7667
ft	-10.7668
▁iddialı	-10.7668
▁Ligde	-10.7671
▁BBC	-10.7678
▁Küba	-10.7678
▁Premier	-10.7678
▁tahsis	-10.7678
▁mesela	-10.7678
▁helal	-10.7678
▁Karabükspor	-10.7679
▁Otomotiv	-10.7679
▁Aksoy	-10.7679
▁etnik	-10.7679
▁tepkiler	-10.7679
▁Ergenekon	-10.768
▁dönüştü	-10.7681
▁gelmedi	-10.7682
▁serisi	-10.7683
▁boyutu	-10.7683
▁Küresel	-10.7684
▁koyuyor	-10.7686
▁Jose	-10.7688
pan	-10.7692
▁çiftçi	-10.7692
mediğini	-10.7692
▁bey	-10.7695
▁Kır	-10.7695
▁engellemek	-10.7696
▁gö	-10.7698
▁89	-10.7698
NE	-10.7704
▁planlama	-10.7705
▁tuz	-10.7707
▁Fenerbahçeli	-10.7707
larca	-10.7708
▁basını	-10.772
▁yakında	-10.772
▁yatan	-10.7721
▁tank	-10.7721
▁kapılarını	-10.7722
▁Yıllar	-10.7722
▁kasa	-10.7724
▁Hakkında	-10.7724
▁müdahalelere	-10.7726
▁noktasına	-10.7729
▁Denizi	-10.7729
▁okullarda	-10.773
▁incelemede	-10.7731
▁tedavisinde	-10.7732
▁Gel	-10.7733
▁şartı	-10.7736
amadığı	-10.7737
▁işsiz	-10.7737
▁Yüzde	-10.7737
▁ödülünü	-10.7739
▁yatır	-10.7739
▁hissetme	-10.7743
▁kaybetmesi	-10.7744
▁şoför	-10.7747
▁Öncelikle	-10.7748
▁Ermenistan	-10.7752
▁iflas	-10.7752
▁Çevik	-10.7752
▁Şişli	-10.7752
▁korkunç	-10.7752
▁keskin	-10.7752
▁Vekili	-10.7752
▁Karlov	-10.7752
▁inanıyoruz	-10.7754
▁Kırım	-10.7754
mayacağı	-10.7755
▁kenarında	-10.7756
▁iadesi	-10.7757
kon	-10.7758
▁öldüren	-10.7759
▁ödemesi	-10.7759
▁görüyorum	-10.776
▁Muş	-10.776
▁aut	-10.7762
▁giydi	-10.7765
▁zirvede	-10.7767
▁hüküm	-10.7767
▁modelleri	-10.7769
▁maçları	-10.777
▁sınıfı	-10.7775
▁atanan	-10.7779
bal	-10.778
▁milyona	-10.7781
▁Okan	-10.7781
▁hikâye	-10.7782
▁Suç	-10.7783
▁yorumlar	-10.7784
▁aylarda	-10.7789
▁sevdiği	-10.779
▁kurumun	-10.7794
ruk	-10.7798
▁yakınlarına	-10.7798
ub	-10.7799
▁çiftin	-10.7804
▁bölgesine	-10.7806
▁aşamada	-10.7808
▁davasında	-10.7812
▁Şah	-10.7812
▁önlemi	-10.7813
▁çal	-10.7813
ğin	-10.7816
▁dönüştür	-10.7821
▁uçağının	-10.7821
▁satıl	-10.7822
▁Tork	-10.7823
▁rövanş	-10.7826
▁oyu	-10.7826
▁Tufan	-10.7826
▁Boydak	-10.7827
▁İcra	-10.7827
▁anlayış	-10.7828
▁seviyorum	-10.7829
▁yanıtlayan	-10.7829
▁korkusu	-10.783
▁maçlarında	-10.783
▁Eylem	-10.7832
▁110	-10.7833
▁ekiplerinden	-10.7833
▁Am	-10.7833
IM	-10.7836
▁önemlisi	-10.7836
▁Devleti	-10.7837
▁değişiyor	-10.7839
▁Harp	-10.784
▁pasaport	-10.7842
▁plaka	-10.7844
▁çevirdi	-10.7844
lem	-10.7849
stik	-10.785
▁yılbaşı	-10.7851
ktedir	-10.7852
▁Toplantısı	-10.7856
37	-10.7856
▁salı	-10.7857
▁atılması	-10.7863
lıkla	-10.7864
▁sözleriyle	-10.787
▁Yolları	-10.7872
▁yöneticiler	-10.7876
▁sabır	-10.7876
▁Yaralı	-10.7876
▁ülkemize	-10.7881
▁Yargı	-10.7881
je	-10.7882
▁Gö	-10.7883
▁Par	-10.7888
49	-10.7895
▁harcamaları	-10.7897
▁medyası	-10.7899
▁hedefliyor	-10.7902
▁Kahramanmaraş	-10.7902
▁diyabet	-10.7902
▁Gazze	-10.7902
▁istemeyen	-10.7903
▁Silivri	-10.7903
▁Der	-10.7903
▁yenerek	-10.7903
▁kaleme	-10.7906
▁Demokratik	-10.7907
▁çiçek	-10.7908
▁Elif	-10.7908
ön	-10.7909
▁metrekarelik	-10.7913
▁Kral	-10.7918
▁parasını	-10.7918
▁mesajını	-10.792
▁kullanılıyor	-10.792
▁arkasına	-10.7921
▁başlat	-10.7924
nur	-10.7925
ıyorum	-10.793
▁isteme	-10.7931
▁tarafta	-10.7936
▁Evde	-10.7937
▁kısmının	-10.7939
▁yapacağını	-10.794
lilerin	-10.7942
▁aramızda	-10.7943
▁kumpas	-10.7949
▁denen	-10.795
▁bizde	-10.7955
▁yerleri	-10.7956
▁Dar	-10.7956
▁niyeti	-10.7956
▁gerilim	-10.7959
DU	-10.796
▁Bur	-10.796
▁taraflar	-10.7962
▁çalışanların	-10.7964
▁programda	-10.7964
rem	-10.7969
▁akla	-10.797
▁projede	-10.7971
▁konuşması	-10.7972
▁yapılanma	-10.7972
û	-10.7976
▁doğdu	-10.7977
▁Michael	-10.7977
▁Libya	-10.7977
▁Monaco	-10.7977
▁Robin	-10.7978
▁korner	-10.7978
▁Düzenleme	-10.798
▁topladı	-10.7981
▁görünen	-10.7984
▁paylaşan	-10.7984
▁izi	-10.7986
▁söyleme	-10.7986
▁çalışıyorlar	-10.7987
▁Sosa	-10.7988
▁hastalıkların	-10.799
▁vermiyor	-10.799
▁Sak	-10.799
▁Dilek	-10.7992
▁yayınladı	-10.7996
▁kalk	-10.7996
▁tel	-10.7998
▁aktar	-10.7999
▁okulu	-10.8001
şer	-10.8003
▁uyguladığı	-10.8003
▁yapın	-10.8003
▁arkadaşım	-10.8007
▁Yaşam	-10.801
▁olmayacağını	-10.8012
lıkları	-10.8015
▁yendi	-10.8016
▁önemine	-10.8017
▁bence	-10.802
▁koyma	-10.8022
▁Piya	-10.8022
▁sil	-10.8025
42	-10.8026
▁3-1	-10.8027
▁Toplum	-10.8028
▁gelecekte	-10.8029
▁dönmesi	-10.8031
şar	-10.8031
▁mermi	-10.8031
▁ar	-10.8032
▁İste	-10.8032
ınız	-10.8035
▁pasta	-10.8036
▁komutanı	-10.8038
▁Beşiktaşlı	-10.8041
▁İs	-10.8042
▁aktivite	-10.8044
▁Meydan	-10.8045
▁filminde	-10.8046
▁şartlar	-10.805
▁rahatsızlık	-10.8054
▁tuvalet	-10.8054
▁Bütçe	-10.8055
▁beraberliği	-10.8055
▁kadroya	-10.8056
▁kitle	-10.8056
▁Sünni	-10.8058
▁önlemek	-10.806
▁Dağ	-10.8062
▁edilmesini	-10.8068
lerim	-10.807
▁şeyden	-10.8073
▁Olimpiyat	-10.8075
▁Partili	-10.8077
▁firari	-10.8081
IR	-10.8082
▁sıraya	-10.8084
▁kimdir	-10.8086
▁devri	-10.8086
▁özellik	-10.8086
ğü	-10.8089
▁devir	-10.8089
isi	-10.809
▁destekli	-10.8091
▁gazeteciler	-10.8092
ünde	-10.8094
▁talepleri	-10.8095
▁kapat	-10.8096
▁07	-10.8096
▁potansiyeli	-10.8097
▁geçirilmesi	-10.8099
▁Yapılanması	-10.8101
lam	-10.8105
▁bahçesinde	-10.8107
▁ülkelerinde	-10.8108
▁set	-10.8114
▁silahla	-10.8114
▁yetkilisi	-10.8114
▁Sizin	-10.8116
▁indirdi	-10.8117
▁duruşmada	-10.812
▁karşılaşması	-10.8122
bra	-10.8122
▁rahatsızlığı	-10.8126
▁edilme	-10.8129
▁ibadet	-10.8131
▁Öcalan	-10.8131
▁sürdürülebilir	-10.8131
▁kapsayan	-10.8131
▁Bazen	-10.8132
▁Burhan	-10.8132
▁Kurtuluş	-10.8132
▁Erkin	-10.8132
▁Ödülleri	-10.8133
▁karış	-10.8133
▁süresince	-10.8133
▁AFAD	-10.8134
▁dolandırıcılık	-10.8136
BA	-10.8137
▁gerisinde	-10.8138
▁kasım	-10.8138
altı	-10.8139
▁Enes	-10.8139
▁hırsızlık	-10.814
▁ithalat	-10.8141
mızla	-10.8141
▁açıkladığı	-10.8145
▁yaşamaya	-10.8145
▁saldırıların	-10.8146
▁köpek	-10.8148
▁pi	-10.8154
▁Mal	-10.8155
▁potansiyel	-10.8155
▁kenara	-10.8156
▁mah	-10.8156
▁sizler	-10.8157
▁unut	-10.8159
▁Kandil	-10.8161
▁günah	-10.8161
▁çeşit	-10.8163
▁Parkı	-10.8164
erken	-10.8167
57	-10.8169
▁kopar	-10.8176
▁adil	-10.8176
▁Arı	-10.8176
▁kayıtları	-10.8178
▁kişileri	-10.8178
Paralel	-10.8182
▁kapısını	-10.8182
▁anti	-10.8182
▁burs	-10.8184
▁bulamadı	-10.8187
şim	-10.8195
▁oluşturma	-10.8197
▁açıyor	-10.8198
▁seferleri	-10.82
▁basketbol	-10.8202
▁bil	-10.8203
ağ	-10.8205
▁insana	-10.8205
▁Meksika	-10.8208
▁kağıt	-10.8208
▁Çolak	-10.8208
▁ehliyet	-10.8208
▁Angeles	-10.8209
▁kilise	-10.8209
▁kurgu	-10.8209
▁Zarrab	-10.8209
▁Çetinkaya	-10.8209
▁Eskişehirspor	-10.821
▁tedbirleri	-10.821
▁İdil	-10.821
▁Sanatçı	-10.821
▁dokun	-10.8211
▁tüp	-10.8212
▁satılan	-10.8214
▁Yemen	-10.8214
▁bırakmak	-10.8215
47	-10.8216
▁Ersun	-10.8217
▁aktör	-10.8217
▁ByLock	-10.8218
▁duruş	-10.8219
▁tazminatı	-10.822
▁Sam	-10.822
▁şirketlerinin	-10.8221
▁katıl	-10.8222
▁Altun	-10.8223
▁girişimleri	-10.8225
DER	-10.8225
▁Sınav	-10.823
▁almadı	-10.8233
ts	-10.8233
▁talebiyle	-10.8234
▁toz	-10.8235
▁görünme	-10.8236
▁nöbet	-10.8236
▁has	-10.8236
▁başlamıştı	-10.8238
▁oyunları	-10.8242
▁girişimci	-10.8245
▁Los	-10.8246
▁ez	-10.8247
ski	-10.8249
ight	-10.8256
▁kaybetmiş	-10.8258
▁kırdı	-10.8259
▁ayrılması	-10.8259
▁içe	-10.8266
▁olurdu	-10.827
▁konumu	-10.8271
▁Mahalle	-10.8273
▁toplumu	-10.8275
▁adayları	-10.8276
▁güçlerin	-10.8276
▁Sinema	-10.8279
▁havada	-10.828
▁aralık	-10.8283
▁mülteciler	-10.8283
▁"15	-10.8284
▁zeytin	-10.8286
▁trilyon	-10.8286
▁çocuğa	-10.8286
▁taşeron	-10.8286
▁herhalde	-10.8286
▁yaşanacak	-10.8287
▁derhal	-10.8287
▁faul	-10.8288
▁Karabük	-10.8288
▁Melek	-10.8288
▁geliştirilen	-10.8289
▁Bulvarı	-10.8289
▁TÜRKİYE	-10.829
▁Arif	-10.8291
▁anlam	-10.8294
▁1999	-10.8295
▁dinle	-10.8297
▁Akademi	-10.8297
▁bakanlar	-10.8299
öl	-10.8299
▁karşılaşacak	-10.83
▁duman	-10.8303
sinler	-10.8304
▁birbirlerine	-10.8305
▁kaybettiğini	-10.8312
▁futbolu	-10.8312
▁verildiğini	-10.8313
ilerek	-10.8314
▁bulur	-10.8314
▁isteniyor	-10.8315
gun	-10.8315
▁bot	-10.8319
▁yılını	-10.832
▁gıdalar	-10.8325
▁başvurusu	-10.8325
▁yazma	-10.8328
▁Saldırıda	-10.8329
▁başla	-10.8331
▁Türkler	-10.8334
▁kurtarmak	-10.8336
▁Sha	-10.8337
▁büyükelçi	-10.834
▁yarar	-10.8341
▁özgürlük	-10.8341
▁Operasyonda	-10.8341
▁alanlar	-10.8348
53	-10.835
mla	-10.8351
▁Akademisi	-10.8356
▁merdiven	-10.8357
▁kartları	-10.8365
▁acaba	-10.8365
▁müracaat	-10.8365
▁tutuyor	-10.8366
▁hanım	-10.8366
▁planlanıyor	-10.8367
▁Toyota	-10.8367
▁Şeker	-10.8367
▁sağlanacak	-10.8368
▁alınırken	-10.8368
▁istemiyorum	-10.837
til	-10.8372
rip	-10.8373
▁bedeni	-10.8373
▁şebeke	-10.8374
nuz	-10.8376
▁geliştirilmesi	-10.8377
▁cesaret	-10.8378
▁çukur	-10.8378
▁günkü	-10.8381
▁bununla	-10.8382
▁Lise	-10.8383
▁söyledim	-10.8384
-5	-10.8387
▁yönettiği	-10.8387
▁Töre	-10.8387
▁durumuna	-10.8389
fen	-10.8391
▁tasarısı	-10.8392
▁karşımıza	-10.8393
▁öncelikli	-10.8393
▁anlamlı	-10.8395
▁inen	-10.8398
ud	-10.8398
▁düştüğünü	-10.8399
▁kırıklığı	-10.8402
▁Sun	-10.8403
▁araca	-10.8405
▁manşet	-10.8406
▁askerleri	-10.8406
▁Yılın	-10.8407
▁içinden	-10.8408
liğine	-10.8412
eh	-10.8413
▁Vatandaş	-10.8416
63	-10.8417
lamıştı	-10.8418
Burada	-10.842
▁görmez	-10.842
▁öğretmeni	-10.8424
▁geçirme	-10.8426
▁benden	-10.8428
▁Cha	-10.8428
▁tutun	-10.8429
▁firmaları	-10.8429
39	-10.843
▁coğrafya	-10.8433
ES	-10.8435
▁Plan	-10.8436
▁atandı	-10.8441
▁ithal	-10.8442
▁görülür	-10.8442
▁Hikmet	-10.8444
▁müsaade	-10.8444
▁Hulusi	-10.8444
▁diyalog	-10.8444
▁Bebek	-10.8445
▁ötesinde	-10.8445
▁yapılarak	-10.8446
▁yaşadığını	-10.8446
▁açılma	-10.8446
▁sevinç	-10.8446
▁Tokat	-10.8446
▁man	-10.8447
▁alınıyor	-10.8447
▁bulunarak	-10.8448
▁bırakılan	-10.8448
▁sağlandı	-10.8448
▁Yahudi	-10.8449
▁sunulacak	-10.8449
▁toplantıya	-10.845
▁Asliy	-10.8451
▁geldim	-10.8451
▁versin	-10.8452
▁tansiyon	-10.8452
▁kaste	-10.8454
▁Enver	-10.8454
▁Platformu	-10.8454
▁ışığı	-10.8457
▁Maçın	-10.8459
▁süreyle	-10.8459
▁Kişi	-10.846
nuzu	-10.8463
bor	-10.8464
ilir	-10.8468
▁kaos	-10.8468
ıldığını	-10.847
leyecek	-10.8472
▁We	-10.8473
▁aydın	-10.8473
▁tartışmalar	-10.8473
▁Yüce	-10.8477
▁gitmiş	-10.8478
▁puana	-10.8481
▁etmeleri	-10.8482
masının	-10.8482
▁Altan	-10.8483
▁bölgeden	-10.8483
▁Men	-10.8489
▁maçtan	-10.8493
▁ilçelerinde	-10.8494
likleri	-10.8497
▁SA	-10.8497
▁gazetesine	-10.8502
▁listede	-10.8503
▁teröristlere	-10.8505
▁personelin	-10.8505
▁birinde	-10.8505
▁kurtardı	-10.8506
▁söylediler	-10.8507
İŞ	-10.8508
▁Tedavi	-10.8508
▁salonda	-10.851
▁güzellik	-10.8513
▁müjde	-10.8514
ilebilir	-10.8515
▁Silah	-10.8518
▁eğitime	-10.8518
▁Hay	-10.8522
▁hepimizin	-10.8522
▁Sert	-10.8522
▁hayli	-10.8524
▁şimdiden	-10.8525
▁belirlenemeyen	-10.8525
▁çıkarıldığı	-10.8525
▁Korkmaz	-10.8525
▁taburcu	-10.8525
▁takibe	-10.8525
▁yapabilecek	-10.8525
▁genetik	-10.8525
▁birileri	-10.8526
▁Erzincan	-10.8526
▁Survivor	-10.8526
▁beklentileri	-10.8526
▁girip	-10.8527
▁konunun	-10.8529
▁kamyonet	-10.8529
▁sıcaklığı	-10.853
▁kademe	-10.853
▁Elvan	-10.8531
▁Bosna	-10.8532
▁sayfasında	-10.8532
▁kısım	-10.8533
▁toplayan	-10.8535
61	-10.8535
▁yöntemleri	-10.8538
▁şık	-10.8539
▁kapısı	-10.8539
▁günümüzde	-10.854
▁almadan	-10.8547
▁beklenti	-10.855
fet	-10.8552
▁araçta	-10.8553
▁ısınma	-10.8553
▁Sey	-10.8554
▁çocuklarının	-10.8556
▁kanal	-10.8557
▁kıyafet	-10.8557
▁İddianamede	-10.856
▁noktaları	-10.8561
▁To	-10.8564
▁yeterin	-10.8566
her	-10.8567
▁kına	-10.8571
▁ülkemiz	-10.8573
▁poz	-10.8575
▁asıllı	-10.8577
▁yapmasını	-10.8577
▁gez	-10.8577
▁atlat	-10.858
▁tartışması	-10.8581
▁roman	-10.8585
▁ağrıları	-10.8586
▁verdiler	-10.8587
▁mesafede	-10.8588
▁Şehitler	-10.8589
üstü	-10.8593
▁faizi	-10.8595
▁turnuva	-10.8596
▁ticareti	-10.8596
51	-10.8597
▁Kalp	-10.8598
▁verilmiş	-10.8599
▁semt	-10.8599
▁kırsal	-10.8602
▁asit	-10.8602
▁internette	-10.8603
▁900	-10.8604
▁Ekipler	-10.8604
▁Disiplin	-10.8605
▁Lavrov	-10.8605
▁muhatap	-10.8605
▁jüri	-10.8605
▁nikah	-10.8605
▁olmayacağı	-10.8605
▁Zeybekci	-10.8606
▁kayyım	-10.8606
▁Tarık	-10.8606
▁Ulu	-10.8606
▁Akdoğan	-10.8606
▁deyip	-10.8607
▁katılımcı	-10.8608
▁başını	-10.8609
soy	-10.861
▁Sportif	-10.8611
▁3-4	-10.8615
▁uyardı	-10.8616
▁öğrenen	-10.8616
▁sıkıntısı	-10.8617
sınlar	-10.8617
abil	-10.8617
▁gençlerin	-10.8619
▁törenle	-10.8621
▁Fener	-10.8624
▁propaganda	-10.8624
▁talimatıyla	-10.8625
▁Doğuş	-10.8626
▁olmadığına	-10.8626
▁açısı	-10.8633
▁Is	-10.8633
▁kurulacak	-10.8634
▁AY	-10.8636
▁çifti	-10.8636
yol	-10.8637
▁Hasta	-10.8637
▁kitapları	-10.8643
▁silahı	-10.8644
▁girer	-10.8649
▁satışları	-10.8654
▁tezahürat	-10.8657
▁tehlikeye	-10.866
Avrupa	-10.866
▁evet	-10.8666
▁vermeyi	-10.8666
▁yaşına	-10.8667
▁Köse	-10.867
▁imkanları	-10.867
▁çeyreğinde	-10.8674
▁yurtdışı	-10.8674
▁2,5	-10.8675
Bunlar	-10.8677
▁1000	-10.8684
▁Emenike	-10.8686
▁Tüketici	-10.8686
▁global	-10.8686
▁koruyucu	-10.8686
▁Çankaya	-10.8686
▁hemşire	-10.8686
▁Kontrol	-10.8686
▁süper	-10.8687
▁Ferhat	-10.8687
▁Konser	-10.8687
▁uğurlandı	-10.8687
▁arıza	-10.8687
▁Times	-10.8687
▁beton	-10.8687
▁Üçüncü	-10.8688
▁Sivasspor	-10.8688
▁beste	-10.8688
▁Motor	-10.8689
▁kurtarılamadı	-10.8691
▁kanaat	-10.8693
▁Akıllı	-10.8694
▁yapılacağını	-10.8696
▁kül	-10.87
▁(2)	-10.8703
▁şiddetle	-10.8704
▁tepkisini	-10.8705
▁geliş	-10.8707
▁iklim	-10.8709
▁teyi	-10.8716
▁Yönetmeni	-10.8717
rim	-10.8723
▁kredisi	-10.8724
▁gelmiyor	-10.8724
▁Nuri	-10.8728
▁müdür	-10.8733
▁darbeye	-10.8735
▁yarat	-10.8736
▁bahane	-10.8741
▁uyma	-10.8745
▁Zor	-10.8746
▁ayının	-10.8747
▁haberini	-10.8751
racak	-10.8751
gal	-10.8751
▁ilaçlar	-10.8753
▁Dört	-10.8753
▁yararlan	-10.8755
▁girmeye	-10.8755
▁AR	-10.876
▁eriş	-10.876
▁atış	-10.8763
▁vur	-10.8767
▁BİN	-10.8767
▁`	-10.8768
&#39;	-10.8768
▁karaciğer	-10.8768
▁Hayvan	-10.8769
▁3-0	-10.8769
▁yaşlarda	-10.8769
▁Kaplan	-10.877
▁Siyasi	-10.8772
▁saldırısına	-10.8773
▁düşürdü	-10.8773
▁TMSF	-10.8773
▁Bomba	-10.8776
▁sürecine	-10.8778
▁durumlar	-10.8779
▁Boğaz	-10.8779
▁kavram	-10.878
▁soruşturmada	-10.878
▁firmanın	-10.8781
▁rekoru	-10.8781
enler	-10.8781
▁sırasıyla	-10.8782
▁skoru	-10.8783
▁gidil	-10.8786
▁işadamları	-10.8787
▁Kulüp	-10.8787
▁diyecek	-10.8788
▁po	-10.879
▁vücutta	-10.879
▁İsa	-10.8792
▁Maden	-10.8794
▁Zorlu	-10.8794
▁arttır	-10.8797
▁Kale	-10.88
▁Yaş	-10.88
▁mücadeleye	-10.88
▁kısıtlama	-10.8801
▁1-	-10.8804
71	-10.8806
▁bakıyor	-10.881
ök	-10.8812
▁izleyen	-10.8815
▁belgesel	-10.8816
▁bıçakla	-10.8816
▁Kimi	-10.8817
▁geliştir	-10.8817
▁takımlar	-10.8817
kul	-10.8823
▁gerçekleştirdik	-10.8823
▁emniyette	-10.8823
▁cihazı	-10.8827
▁kör	-10.8828
▁Efendi	-10.883
▁kafe	-10.883
▁yetiştir	-10.8831
▁Şüpheli	-10.8835
▁adayların	-10.8838
▁Tiyatro	-10.884
▁Tim	-10.8844
▁Cor	-10.8847
laştırma	-10.8847
kol	-10.8847
▁Sergi	-10.8848
▁yerler	-10.8848
mizden	-10.8849
▁uçakta	-10.8849
▁paraları	-10.8851
▁Tuncay	-10.8851
▁depresyon	-10.8851
▁perşembe	-10.8851
▁artacak	-10.8851
▁Diego	-10.8851
▁planlıyor	-10.8852
▁bağırsak	-10.8852
▁Kanser	-10.8852
▁Ergin	-10.8853
▁burası	-10.8853
▁sevilen	-10.8854
▁kalarak	-10.8855
▁içerisine	-10.8856
dılar	-10.8856
▁aleyhine	-10.8858
▁isterken	-10.8859
▁Biri	-10.8861
▁etapta	-10.8862
X	-10.8865
▁iktidarın	-10.8867
▁hayranları	-10.8868
▁Kaan	-10.887
▁teknolojik	-10.8872
▁Büyükelçiliği	-10.8874
▁kesme	-10.8875
▁Külliyesi	-10.8877
▁kimler	-10.8878
▁demokrasiye	-10.888
▁Dede	-10.888
▁politik	-10.8882
▁gitmeye	-10.8883
OL	-10.8883
▁seviyelerinde	-10.8883
▁iddialar	-10.889
▁Ülkenin	-10.8892
▁mücadelesinde	-10.8894
▁keyifli	-10.8895
▁şikâyet	-10.8895
▁heyecanı	-10.8896
▁kazanacak	-10.8897
▁Rüzgar	-10.8899
▁2-	-10.89
▁Yücel	-10.89
▁gerekçesi	-10.89
▁kutu	-10.8901
▁Yasa	-10.8901
▁Del	-10.8902
TV	-10.8902
▁kadınlarda	-10.8902
lediği	-10.8903
▁sanıklar	-10.8908
▁çanta	-10.8909
meleri	-10.891
▁kaldırdı	-10.8911
ceği	-10.8913
▁Danimarka	-10.8915
▁hazırlıklarını	-10.8917
▁koyu	-10.8919
▁ederse	-10.892
▁istedik	-10.8922
▁kullandıkları	-10.8924
▁elebaşı	-10.8926
▁Gelin	-10.8927
▁yürek	-10.8929
emi	-10.893
▁bağı	-10.8932
▁Ece	-10.8933
▁sahadan	-10.8933
▁Benfica	-10.8934
▁telafi	-10.8934
▁Hülya	-10.8934
▁taahhüt	-10.8934
▁çarpıştı	-10.8934
▁Emrah	-10.8935
▁Şerif	-10.8935
▁Ekrem	-10.8935
▁makul	-10.8935
▁Uzay	-10.8935
▁kaldırılarak	-10.8936
▁anlaş	-10.8938
▁Macaristan	-10.8938
mp	-10.8939
66	-10.8939
▁yönetimine	-10.8939
▁Tom	-10.8941
anlar	-10.8942
▁annem	-10.8942
▁oluşturulması	-10.8942
▁Kaç	-10.8945
etti	-10.8946
ers	-10.8946
▁evlerine	-10.8946
▁ortalaması	-10.8947
▁metin	-10.8948
▁ihtimal	-10.8948
▁şehirde	-10.895
▁kiralık	-10.8951
▁verin	-10.8951
▁içki	-10.8952
▁gerekirse	-10.8952
▁projesinin	-10.8954
▁zamandır	-10.8954
▁iktidarı	-10.8959
bilme	-10.896
▁öldüğünü	-10.896
▁rüzgar	-10.8961
raf	-10.8963
bul	-10.8965
▁etmeyen	-10.8968
▁seçenek	-10.8968
▁deme	-10.8972
▁kurtarıldı	-10.8972
▁peynir	-10.8973
▁rejiminin	-10.8975
▁perakende	-10.8979
▁yeter	-10.898
▁tarafların	-10.8988
96	-10.8993
▁sınavı	-10.8994
▁olacaktı	-10.8996
43	-10.8997
▁etkileme	-10.8998
▁üstünlüğü	-10.9
▁gelirleri	-10.9001
şı	-10.9001
▁to	-10.9002
▁etmeyin	-10.9002
▁törende	-10.9003
▁ekonomiye	-10.9005
▁hocası	-10.9008
▁utan	-10.9011
▁deplasman	-10.9014
▁sütü	-10.9015
▁teşkil	-10.9015
ros	-10.9016
▁Bek	-10.9018
▁vesile	-10.9018
▁kütüphane	-10.9018
▁nezdinde	-10.9018
▁gasp	-10.9018
▁Uslu	-10.9018
▁zeka	-10.9019
▁Bordo	-10.9019
▁belirtilerek	-10.902
▁kardeşlerimiz	-10.902
▁Koray	-10.902
▁Öğretim	-10.9021
▁bırakarak	-10.9021
▁kaynaklanan	-10.9021
▁yapılırken	-10.9022
▁ülkesinde	-10.9022
▁KPSS	-10.9023
▁Gündem	-10.9024
▁tasarımı	-10.9025
▁durdur	-10.9025
▁açarak	-10.9025
▁kullanması	-10.9026
▁isimlerden	-10.9026
▁döktü	-10.9026
▁evladı	-10.9029
▁hücreleri	-10.903
▁akademisyenler	-10.903
▁Tartışma	-10.9031
▁verdiğimiz	-10.9032
▁haberlere	-10.9032
IYOR	-10.9033
▁2020	-10.9033
▁Saç	-10.9038
Fi	-10.904
▁yuva	-10.9041
▁git	-10.9043
▁Kap	-10.9044
▁villa	-10.9045
▁pozisyonda	-10.9045
▁yansıt	-10.9048
▁Kızıl	-10.9048
▁tarama	-10.9051
▁partilerin	-10.9054
▁gösterir	-10.9055
▁Babası	-10.9056
▁mavi	-10.9057
▁suçlamaları	-10.9058
dri	-10.9059
▁Ju	-10.9062
▁Aralarında	-10.9064
▁kontrolünden	-10.9064
▁görünüm	-10.9067
▁Con	-10.9067
▁uydu	-10.9069
▁olanak	-10.907
▁Roman	-10.907
▁Gerek	-10.9071
▁şirketlere	-10.9071
▁bozma	-10.9072
▁itibar	-10.9073
▁programına	-10.9074
▁arkasından	-10.9075
Eğer	-10.9077
▁restoran	-10.9078
▁yönetimin	-10.9078
lıklar	-10.9083
▁yapanlar	-10.9083
▁toplumda	-10.9088
▁3.5	-10.9092
▁bulacak	-10.9092
mir	-10.9094
top	-10.9099
▁Sevgili	-10.9101
▁Fas	-10.9102
▁Tüfenkci	-10.9103
▁müzisyen	-10.9103
▁edebilecek	-10.9103
▁morguna	-10.9103
▁Numan	-10.9104
▁Olcay	-10.9105
▁İSTANBUL	-10.9105
▁etkilenen	-10.9106
▁kapatılan	-10.9106
▁göreceğiz	-10.9107
▁bulunmaktadır	-10.9108
▁başvuran	-10.911
▁subay	-10.9111
▁tasarı	-10.9112
▁darp	-10.9115
▁bizimle	-10.9117
▁Biraz	-10.9118
▁gösterdiğini	-10.9121
▁dakikasında	-10.9122
▁Gir	-10.9123
▁finali	-10.9124
▁babam	-10.9125
▁yapıyorum	-10.9126
▁öden	-10.9128
▁kapatma	-10.9128
▁seviyeye	-10.9137
▁adrese	-10.9137
▁sabaha	-10.9139
▁nüfusun	-10.9141
▁sıcaklık	-10.9144
▁nöbeti	-10.9144
tay	-10.9147
▁Alevi	-10.915
zen	-10.9151
▁görür	-10.9153
oğu	-10.9158
▁zorluk	-10.9158
▁atmış	-10.9161
▁ip	-10.9165
▁ikiye	-10.9167
▁avantajı	-10.9168
▁kalktı	-10.9168
▁mültecilerin	-10.917
▁ziyaretçi	-10.9173
▁Sami	-10.9173
▁irtibat	-10.9174
▁muhalifler	-10.9175
▁ihtiyaçlarını	-10.9176
lerse	-10.9177
▁Hareket	-10.9177
▁ithalatı	-10.9181
ire	-10.9181
▁ispat	-10.9184
▁ateşe	-10.9184
▁hakemi	-10.9189
▁Avrasya	-10.9189
▁Kıdem	-10.9189
▁asansör	-10.9189
▁online	-10.9189
▁ödeyecek	-10.9189
▁Henüz	-10.9189
▁kullanmaya	-10.919
▁askı	-10.919
▁Bruma	-10.919
▁bakalım	-10.919
▁Kısmets	-10.9191
▁Divan	-10.9191
▁Söyle	-10.9191
▁Denizcilik	-10.9192
▁140	-10.9193
▁eleştiren	-10.9194
rar	-10.9195
▁giderilmesi	-10.92
▁Sağlığı	-10.9201
▁odasın	-10.9201
▁taban	-10.9206
▁röportaj	-10.9212
bas	-10.9212
bek	-10.9212
▁konuştuk	-10.9215
▁tribün	-10.9215
▁odası	-10.922
▁maddeleri	-10.922
▁Kuru	-10.9224
▁maçlar	-10.9225
▁Hastanesine	-10.9226
▁çevir	-10.9227
▁İÇİN	-10.9227
▁Mars	-10.9228
▁Doktor	-10.9228
▁metrelik	-10.9231
▁gelirse	-10.9234
▁tat	-10.9235
▁bırakın	-10.9235
▁Hakim	-10.9236
meden	-10.9239
▁rüya	-10.9239
▁alanlarında	-10.924
▁olduğumuzu	-10.9243
▁bıraktığı	-10.9249
▁güveni	-10.9249
▁Vatandaşlar	-10.9249
muzu	-10.9252
sever	-10.9253
▁miras	-10.9253
▁uzaktan	-10.9258
jen	-10.9261
▁Polonya	-10.9266
▁baştan	-10.9268
▁düşünül	-10.9268
AV	-10.9269
▁Meral	-10.9271
▁Sorumlu	-10.9272
▁evlendi	-10.9274
▁Isparta	-10.9274
▁EXPO	-10.9275
▁Lübnan	-10.9275
▁Çağatay	-10.9275
▁işkence	-10.9275
▁cari	-10.9275
▁bulunur	-10.9276
▁adlandırılan	-10.9277
64	-10.9277
▁tavan	-10.9277
▁namlul	-10.9278
▁kararlılıkla	-10.9279
▁anlaşmanın	-10.9279
laşması	-10.9281
▁Acar	-10.9281
▁odasında	-10.9281
▁1.1	-10.9284
ırsa	-10.9286
▁kaldık	-10.9286
▁gerçekleşmesi	-10.9287
▁eyalet	-10.9291
▁GB	-10.9293
▁artır	-10.9296
52	-10.9296
▁hafıza	-10.9298
▁deneyimli	-10.9298
ven	-10.9302
▁Ebu	-10.9302
▁askerlik	-10.9303
▁atışı	-10.9308
▁mesleği	-10.931
▁yaktı	-10.931
▁grupları	-10.9311
▁hastanelere	-10.9313
▁hukukun	-10.9314
▁Yok	-10.9316
▁barikat	-10.932
ğünü	-10.932
▁AN	-10.9321
▁faaliyetlerini	-10.9324
ğunu	-10.9324
▁silahlarla	-10.9325
▁konulu	-10.9328
▁Piyasa	-10.933
▁söyle	-10.9335
▁varan	-10.9337
▁komşuları	-10.9341
▁görmüş	-10.9342
▁zaferi	-10.9344
leş	-10.935
▁bekledi	-10.9354
▁defans	-10.9354
▁Alan	-10.9357
▁gelişmekte	-10.9359
▁çare	-10.936
▁çap	-10.936
▁Lazio	-10.9362
▁feda	-10.9362
▁savunuyor	-10.9362
▁harcan	-10.9363
▁hepsini	-10.9363
▁başaran	-10.9364
▁Aylin	-10.9365
▁civarı	-10.9365
▁haftalarda	-10.9366
▁olasılığı	-10.9367
▁kömür	-10.9369
▁Kuş	-10.937
▁oğlum	-10.9372
▁Naci	-10.9372
▁durumları	-10.9373
▁pencere	-10.9375
▁Kor	-10.938
oloji	-10.938
▁istemez	-10.9383
▁08	-10.9383
▁tabanı	-10.9386
▁gerginlik	-10.9386
▁Kum	-10.9388
kov	-10.9394
▁yaralılar	-10.9396
▁doğrusu	-10.9397
▁stat	-10.94
▁başlığı	-10.9402
▁hikayesi	-10.9402
zar	-10.9405
▁parçalı	-10.9406
▁yaşını	-10.9408
▁ayakları	-10.941
▁tarihlerinde	-10.941
▁üyelik	-10.9412
▁Nani	-10.9412
▁Berk	-10.9415
▁yazısında	-10.9417
▁Yemek	-10.9419
▁hayatında	-10.9421
▁bireyler	-10.9421
hangi	-10.9424
▁görüşmelerde	-10.9429
▁erişim	-10.9439
sat	-10.944
▁ileride	-10.9441
▁onlarla	-10.9441
▁dosyası	-10.9441
▁sığınmacıların	-10.9442
▁Şirketi	-10.9444
▁golünü	-10.9445
▁oturdu	-10.9445
▁Kol	-10.9448
▁Fuar	-10.9448
▁DHKP	-10.9449
▁Yalova	-10.9449
▁gezegen	-10.9449
▁şükür	-10.9449
▁CIA	-10.9449
▁patates	-10.945
▁tarla	-10.945
▁tıpkı	-10.945
▁sesini	-10.9452
▁savcılığa	-10.9452
▁toplama	-10.9452
▁Başsavcılığınca	-10.9453
▁ruhsat	-10.9453
▁Olağanüstü	-10.9454
▁Oto	-10.9454
▁dönüyor	-10.9454
▁açıklanacak	-10.9455
▁Önemli	-10.9455
▁Suriyeliler	-10.9455
▁sunacak	-10.9456
▁unutul	-10.9457
▁bulundukları	-10.9458
▁gösterisi	-10.9459
▁kaya	-10.946
▁katılımı	-10.946
▁Hakkı	-10.9461
yal	-10.9462
▁Ey	-10.9464
▁dokunma	-10.9465
▁parlamento	-10.9466
lt	-10.9468
▁Dinam	-10.9469
▁gitmesi	-10.947
▁karşılaş	-10.947
▁yaşadık	-10.9471
ebilmek	-10.9471
▁durması	-10.9473
▁durumunu	-10.9474
▁750	-10.9474
▁yıllarca	-10.9474
▁kapıyı	-10.9475
▁gelsin	-10.9478
▁the	-10.9478
▁Kapı	-10.9478
▁Doğum	-10.9484
▁saldır	-10.9484
▁tarihin	-10.9484
▁3-	-10.9485
▁planladığı	-10.9486
▁kuruluşlar	-10.9487
▁niteliğinde	-10.949
▁keyif	-10.9491
▁zirvesi	-10.9491
▁evvel	-10.9494
▁ulaşması	-10.9496
▁elimizden	-10.9499
▁borcunu	-10.95
▁kayak	-10.9501
▁dakikalık	-10.9504
▁dışından	-10.9505
▁arasından	-10.9505
lenebilir	-10.9512
▁birlikleri	-10.9513
▁olmamız	-10.9514
▁tarihini	-10.9517
▁Kürtler	-10.952
ymış	-10.9525
▁takımla	-10.9525
▁problemleri	-10.9531
▁kanı	-10.9534
ong	-10.9534
▁krizin	-10.9536
98	-10.9537
▁muhafaza	-10.9537
▁kronik	-10.9538
▁İhsan	-10.9538
▁Kobani	-10.9538
▁bağışıklık	-10.9538
▁Çorum	-10.9538
▁öncülüğünde	-10.9538
▁tablet	-10.9538
▁balkon	-10.9539
▁yuvarlağı	-10.9539
▁çalıştırıcı	-10.9539
▁rahatlıkla	-10.9539
▁ihalesi	-10.9539
▁dönüp	-10.9541
▁uzanan	-10.9542
▁işareti	-10.9543
▁himmet	-10.9546
▁satılıyor	-10.9551
▁Komisyon	-10.9553
▁seçimlerde	-10.9553
▁kalkan	-10.9553
▁kare	-10.9554
▁deplasmanında	-10.9554
▁paylaş	-10.9554
▁çıkmadı	-10.9555
▁şaşır	-10.9556
▁önerisi	-10.9561
▁metni	-10.9562
▁ikiz	-10.9562
likten	-10.9564
leneceği	-10.9566
▁gen	-10.9568
▁raf	-10.9568
▁yüzyıl	-10.9569
▁keyfi	-10.957
▁ciro	-10.957
▁elden	-10.9571
▁nişan	-10.9574
▁taşındı	-10.9575
▁mücadelesini	-10.9575
▁Televizyon	-10.9576
lanabilir	-10.958
▁kızım	-10.9581
▁Yeter	-10.9582
▁Dizi	-10.9582
+	-10.9585
▁başladılar	-10.9587
▁gazi	-10.9588
▁şahıslar	-10.9588
▁yaşadığımız	-10.9589
▁finalde	-10.9589
▁oynayacak	-10.9589
▁AP	-10.959
▁dönmek	-10.9592
▁bütçesi	-10.9593
▁gelişmesi	-10.9593
▁geçir	-10.9594
▁otomobilde	-10.9595
▁vitamin	-10.9599
▁panel	-10.9599
▁değişimi	-10.96
▁isimlerinden	-10.96
ty	-10.9602
▁Örgütün	-10.9605
▁durdurdu	-10.9606
▁diledi	-10.9608
▁Bizi	-10.9609
▁platformu	-10.961
▁Yardım	-10.9613
▁savcısı	-10.9615
▁şikayeti	-10.9617
▁borçlanma	-10.9619
2016	-10.9619
▁getirir	-10.962
▁kendinizi	-10.9621
69	-10.9622
▁şaka	-10.9623
▁haziran	-10.9627
▁George	-10.9627
▁Ürdün	-10.9627
▁Viyana	-10.9627
▁Memur	-10.9629
▁Inter	-10.9629
▁Kapısı	-10.963
▁bulunmayan	-10.963
▁varlığını	-10.9631
▁dostu	-10.9631
▁dek	-10.9633
▁1980	-10.9634
▁atıp	-10.9634
▁suçlamasıyla	-10.9634
▁gününe	-10.9635
▁Kon	-10.9638
▁Hadi	-10.9639
▁faktörler	-10.9641
▁Şeyh	-10.9641
▁Tar	-10.9641
ef	-10.9642
▁bağır	-10.9642
▁bastı	-10.9645
▁2012'	-10.9646
▁hatları	-10.9649
▁Romanya	-10.965
IL	-10.9651
▁kendilerinin	-10.9655
▁Bayern	-10.9655
▁Fidan	-10.9659
▁bedelini	-10.966
pol	-10.966
AZ	-10.966
▁kaçmaya	-10.966
▁ifadesine	-10.966
▁duyur	-10.9662
▁aziz	-10.9662
▁camiası	-10.967
▁Müdürlüğüne	-10.9671
▁projeye	-10.9672
▁İktidar	-10.9676
▁sahnede	-10.9677
▁arkadaşımız	-10.9679
56	-10.9679
▁deney	-10.968
▁şarkılar	-10.9684
▁tamir	-10.9684
ney	-10.9684
▁4,5	-10.9686
▁verdiklerini	-10.9688
▁zorluklar	-10.9689
MAN	-10.969
▁Papa	-10.9693
BM	-10.9693
▁ürettiği	-10.9696
▁Saha	-10.9696
▁Mac	-10.9697
AH	-10.9698
▁savunması	-10.9699
▁kav	-10.9701
72	-10.9702
▁dışarıdan	-10.9703
▁hayatlarını	-10.9707
▁adımları	-10.9709
▁skorla	-10.9709
ras	-10.9711
kas	-10.9716
▁kuruluşlarının	-10.9717
▁ötürü	-10.9717
▁istisna	-10.9717
▁İdmanyurdu	-10.9717
▁SSK	-10.9717
▁YOK	-10.9719
▁bulunuldu	-10.9719
▁Metro	-10.9719
▁ilham	-10.9719
▁düz	-10.9719
▁uğrayan	-10.972
iyeti	-10.972
▁Yerel	-10.9721
▁Braga	-10.9721
▁Duruşma	-10.9724
▁Herkesin	-10.9724
▁yiyecekler	-10.9724
of	-10.9727
▁Kürtlerin	-10.9729
▁nitelikli	-10.973
▁çalışıyorum	-10.9731
▁bütünlüğü	-10.9732
▁evlenme	-10.9734
▁yanıtını	-10.9736
▁terörizm	-10.9737
▁silahlar	-10.9742
▁alıyoruz	-10.9742
▁gelirken	-10.9744
▁1-2	-10.9745
▁basınında	-10.9746
▁Kab	-10.9748
▁etkiler	-10.9755
lon	-10.9755
vet	-10.9756
▁içerisindeki	-10.9756
▁başrol	-10.9757
▁kaptan	-10.9758
▁Savcılığı	-10.9758
▁Mir	-10.9758
▁primi	-10.9758
▁gerçekleri	-10.9761
58	-10.9764
▁niteliği	-10.9766
▁yaptırma	-10.9769
▁ilişkilerini	-10.9772
▁incelemelerde	-10.9773
rit	-10.9773
▁haberleşme	-10.9774
▁Çocukların	-10.9775
▁devrim	-10.9777
▁merakla	-10.9777
▁dk	-10.9779
▁bo	-10.9783
▁harita	-10.9783
▁şeref	-10.9784
▁tutulması	-10.9784
▁sanığın	-10.9787
▁peşine	-10.9787
▁piyasası	-10.9789
▁isten	-10.9793
ram	-10.9794
▁gelişim	-10.9796
▁Adı	-10.98
▁açacak	-10.9802
▁mevzi	-10.9803
▁tahsil	-10.9804
▁saldırısının	-10.9805
▁şubat	-10.9806
▁aracına	-10.9806
▁değişme	-10.9806
▁mezhep	-10.9807
▁militanları	-10.9807
▁bırakıyor	-10.9807
▁EURO	-10.9808
▁akaryakıt	-10.9808
▁Şafak	-10.9808
▁Şükrü	-10.9808
▁Sürücü	-10.9808
▁web	-10.9808
▁dürüst	-10.9808
▁niçin	-10.9808
▁ziyade	-10.9808
▁Haydar	-10.9808
▁DAİŞ	-10.9809
▁Baykal	-10.9809
▁yasadışı	-10.9809
▁fren	-10.9812
▁yetenek	-10.9813
▁düşünün	-10.9814
▁öğrenmek	-10.9814
▁geçip	-10.9815
▁eleman	-10.9816
▁üz	-10.9817
▁soruşturmanın	-10.9819
▁varmış	-10.9819
▁yakalamak	-10.9821
ib	-10.9823
▁hastalar	-10.9826
muzun	-10.983
▁sorma	-10.983
▁oyundan	-10.9831
LİK	-10.9834
▁teknolojileri	-10.9834
mden	-10.9835
▁soruyor	-10.9835
▁zinciri	-10.9836
▁tersine	-10.9836
▁aramalarda	-10.9839
lâ	-10.9842
▁Mak	-10.9842
▁atması	-10.9842
▁minik	-10.9843
▁har	-10.9847
▁vekil	-10.9849
▁yakını	-10.9849
▁tadı	-10.985
kle	-10.9856
mizle	-10.9856
şehir	-10.9858
▁sloganı	-10.9859
luğunu	-10.9859
▁Dev	-10.986
▁geçtik	-10.9861
leşen	-10.9861
▁tamamını	-10.9863
▁söyleniyor	-10.9864
▁geçmişi	-10.9866
doğan	-10.9868
▁muhabiri	-10.9869
likler	-10.9872
▁binaların	-10.9872
▁Şarkı	-10.9875
▁tercihi	-10.9883
▁edilmesine	-10.9884
lemek	-10.9886
▁Müslümanlar	-10.9886
▁Raporda	-10.9888
▁öğret	-10.989
▁bilgilerin	-10.9891
lip	-10.9896
▁Pas	-10.9897
▁bilmiyor	-10.9898
▁izliyor	-10.9899
▁Fevzi	-10.99
▁Hıristiyan	-10.99
▁laboratuvar	-10.99
▁plastik	-10.99
▁ÖSYM	-10.99
▁bardağı	-10.99
▁ertesi	-10.9901
▁düzgün	-10.9901
▁Pensilvanya	-10.9902
▁uy	-10.9902
▁çifte	-10.9903
93	-10.9905
▁Mil	-10.9909
▁19.00	-10.9909
ımızın	-10.9912
▁öğrendim	-10.9912
▁giyim	-10.9913
▁otelde	-10.9913
+1	-10.9915
▁Çay	-10.9916
▁Galatasaraylı	-10.9917
▁yağlı	-10.9917
▁giz	-10.9918
▁Geçmişte	-10.9919
▁hukuka	-10.992
▁milyonu	-10.992
mal	-10.9922
▁Çoğu	-10.9922
▁Ad	-10.9922
▁yolculuğuna	-10.9925
▁arkadaşlarım	-10.9925
▁so	-10.9926
41	-10.9927
▁verilmedi	-10.993
▁akım	-10.9931
▁oynan	-10.9931
▁kategorisinde	-10.9933
▁Harekatı	-10.9934
▁LG	-10.9936
▁Selin	-10.9937
▁karakol	-10.9938
▁Toplantı	-10.9939
▁sektörde	-10.9942
kış	-10.9944
▁uygula	-10.9946
▁şirketinin	-10.9946
▁istediğimiz	-10.9946
▁ge	-10.9947
▁işlemlerini	-10.9948
▁Hepimiz	-10.9949
▁mini	-10.9949
▁ücretleri	-10.9951
▁hassasiyet	-10.9951
▁saldırılarının	-10.9953
▁tartışmaya	-10.9953
▁Eşi	-10.9953
▁vaat	-10.9958
▁kadroda	-10.9961
Cumhurbaşkanı	-10.9966
▁şarkıları	-10.9971
leştirilmesi	-10.9972
▁birbirini	-10.9974
▁aldılar	-10.9977
▁hisseleri	-10.9977
▁dayan	-10.9983
od	-10.9986
▁araştırmaya	-10.9987
▁360	-10.9987
▁güvence	-10.9987
▁kanadı	-10.9989
▁ödediği	-10.999
▁stadyum	-10.9993
▁mahsur	-10.9993
▁metreküp	-10.9993
▁parlamenter	-10.9993
▁İstatistik	-10.9993
▁Florya	-10.9993
▁Veysel	-10.9993
▁azalarak	-10.9993
▁Rakka	-10.9993
▁nakil	-10.9993
▁koyun	-10.9993
▁yürüyen	-10.9993
▁umudu	-10.9993
▁bardak	-10.9993
▁Melih	-10.9994
mazsa	-10.9995
▁bağlayan	-10.9995
▁Farklı	-10.9996
▁Melis	-10.9996
▁Çiftçi	-10.9999
▁imzaladı	-11.0002
▁çavuş	-11.0003
İlk	-11.0004
▁kararname	-11.0005
▁verilmesini	-11.0006
▁çaldı	-11.0007
▁taraftarları	-11.0008
▁çekilmesi	-11.0013
▁sokaklarda	-11.0015
▁eleştirdi	-11.0015
▁gençlik	-11.0019
▁Asıl	-11.0019
▁memurları	-11.0021
▁müsabakasında	-11.0022
▁çalışır	-11.0024
▁fileler	-11.0025
▁ücretin	-11.0026
▁Polisin	-11.0032
▁düşürülmesi	-11.0032
▁Raporu	-11.0034
▁belirleme	-11.0036
▁Hele	-11.0037
▁deneyimi	-11.0037
▁aileler	-11.0042
geç	-11.0044
▁operasyonun	-11.0044
▁teker	-11.0045
▁92	-11.0048
▁kıs	-11.0053
▁motoru	-11.0054
▁balıkçı	-11.0054
▁oylama	-11.0055
81	-11.0056
▁fuarı	-11.006
▁sunucu	-11.0063
▁yöntemler	-11.0063
▁alacağını	-11.0068
▁kıta	-11.0072
▁hiçbiri	-11.0073
▁şarkısı	-11.0073
▁sıradan	-11.0078
▁İŞ	-11.0079
▁üretme	-11.0081
▁seçenekleri	-11.0082
▁öldürüldüğü	-11.0086
▁çikolata	-11.0086
▁sandalye	-11.0086
▁yeğeni	-11.0086
▁travma	-11.0086
▁Köln	-11.0086
▁Kosova	-11.0086
▁Uludağ	-11.0086
▁mayıs	-11.0086
▁Sultanahmet	-11.0086
▁Atalay	-11.0087
▁ilgilendiren	-11.0087
▁Kerem	-11.0087
▁katılıyor	-11.0087
▁Tatar	-11.0088
▁Ford	-11.009
▁Tunç	-11.009
▁Cemaat	-11.009
▁Filmi	-11.0091
▁Ahmed	-11.0091
▁kazanarak	-11.0092
▁çalıştıklarını	-11.0092
-12	-11.0099
▁öğün	-11.01
▁cinayeti	-11.0104
▁kızının	-11.0105
▁arttığını	-11.0105
▁olmalıdır	-11.0108
▁kaynaklarından	-11.0109
▁takımdan	-11.011
▁enerjisi	-11.011
▁gelişmelerin	-11.0111
likte	-11.0111
▁zehir	-11.0112
▁istasyonu	-11.0112
▁filmler	-11.0115
▁Pat	-11.0116
▁ihracatçı	-11.0117
▁Süt	-11.0118
▁eserler	-11.0118
▁duruşmaya	-11.0118
▁ödenmesi	-11.0119
77	-11.0121
▁oranını	-11.0124
▁gösteril	-11.0124
▁temizlenmesi	-11.0126
▁muhtar	-11.0134
83	-11.0135
art	-11.0136
▁bazında	-11.0136
▁facia	-11.0137
▁birbirleri	-11.0138
▁ikincisi	-11.0139
▁kasaba	-11.014
▁sokaklara	-11.0143
▁kıy	-11.0144
▁Tuna	-11.0144
▁apartman	-11.0145
▁sistemde	-11.0145
alan	-11.0148
▁inme	-11.0149
▁bulunmadığını	-11.015
▁Bence	-11.015
▁durumdan	-11.0151
▁doktorlar	-11.0151
▁ihtiyacını	-11.0152
▁Abi	-11.0152
▁Sektör	-11.0153
▁mühendis	-11.0155
▁eleştiriler	-11.0155
kut	-11.0158
▁ziyaretinde	-11.0159
▁çekin	-11.016
▁baktığı	-11.016
▁sonuçlandı	-11.0161
▁kadınları	-11.0161
▁Sevgi	-11.0162
▁verebilir	-11.0164
▁kesimleri	-11.0164
▁tutuklanması	-11.0166
▁etken	-11.0176
▁Öğretmen	-11.0177
▁heyecanlı	-11.0178
▁Chris	-11.018
bank	-11.018
▁gruba	-11.018
▁obezite	-11.018
▁tahvil	-11.018
▁gerektiren	-11.018
▁piyade	-11.018
▁solunum	-11.018
▁rica	-11.0181
▁İnönü	-11.0181
kâr	-11.0181
▁leke	-11.0181
▁Ronaldo	-11.0181
▁Kapalı	-11.0183
▁Sürekli	-11.0183
dor	-11.0183
▁Giresun	-11.0183
▁hedefliyoruz	-11.0184
▁yaklaşımı	-11.0185
▁Adanaspor	-11.0187
▁NBA	-11.0187
▁atık	-11.0188
▁kapatan	-11.0189
▁gördüğümüz	-11.019
▁işlediği	-11.019
▁anılan	-11.0191
▁müsabakada	-11.0191
▁Edi	-11.0191
▁tüfek	-11.0192
▁yayımlandı	-11.0192
▁nadir	-11.0194
▁başlatan	-11.0194
▁Sel	-11.0197
▁nereden	-11.0197
La	-11.0201
▁uçakla	-11.0201
▁BU	-11.0202
▁pil	-11.0205
-15	-11.0206
▁Babam	-11.0207
▁okulun	-11.0207
▁kesildi	-11.0207
▁namazının	-11.0208
tta	-11.0208
▁mahkemenin	-11.021
▁yayınladığı	-11.0211
▁yolculuğu	-11.0211
▁yorumunu	-11.0212
▁zamana	-11.0213
▁Balık	-11.0214
▁40'	-11.0215
▁besinler	-11.022
▁Sonuç	-11.0221
dığım	-11.0223
cısı	-11.0224
▁makineleri	-11.0226
▁açılışı	-11.0228
düğünü	-11.0228
▁bildiği	-11.0229
lmaz	-11.023
▁öp	-11.0236
▁kalkması	-11.0236
çok	-11.0239
▁kendisiyle	-11.0241
▁Çağ	-11.0243
▁olmakla	-11.0246
▁telefonda	-11.0249
devlet	-11.0249
▁Şi	-11.025
ncı	-11.025
▁hayran	-11.0251
▁saray	-11.0256
▁ekonominin	-11.0257
▁Yağ	-11.0258
▁korucu	-11.0258
▁Hastane	-11.0258
port	-11.0259
est	-11.0262
▁yatırımcıların	-11.0264
▁azaldı	-11.0267
▁azaltma	-11.0271
84	-11.0271
▁TE	-11.0271
▁pozisyonu	-11.0272
▁ülkemizi	-11.0272
▁Marcelo	-11.0276
▁Zekeriya	-11.0276
▁domates	-11.0276
▁köpeği	-11.0276
▁Başvuru	-11.0276
▁FBI	-11.0276
▁donanım	-11.0276
▁Souza	-11.0276
▁Elitaş	-11.0276
▁Kuzu	-11.0277
▁yaratıcı	-11.0277
▁güvenilir	-11.0277
▁Ağaoğlu	-11.0277
▁mutluyum	-11.0278
▁geçiriyor	-11.028
▁dostluk	-11.028
▁geçerken	-11.028
▁Hedef	-11.028
▁Tiyatrosu	-11.0281
iyorlar	-11.0281
▁tıbbi	-11.0281
ücü	-11.0286
▁gösterildi	-11.0287
74	-11.0287
▁otur	-11.0288
▁Hayır	-11.0288
▁Lirası	-11.0289
▁etsin	-11.029
▁arayışı	-11.029
▁davranma	-11.0292
▁bela	-11.0293
▁bölgeyi	-11.0295
▁arttığı	-11.0298
▁kapasitesi	-11.0299
▁Dere	-11.0301
▁yaya	-11.0303
▁Şirketin	-11.0304
▁şansını	-11.0305
▁imkân	-11.0306
▁destekleme	-11.0307
▁taraflı	-11.0308
abilme	-11.0309
▁aşağıdaki	-11.031
▁kullanılacak	-11.0311
▁eşini	-11.0315
▁anlatmak	-11.0319
▁yaratan	-11.032
▁koştu	-11.0321
▁yağı	-11.0325
▁kırık	-11.0328
▁yolcular	-11.033
▁görüntüsü	-11.0331
▁partiler	-11.0335
▁Hizmetleri	-11.0336
▁hac	-11.0338
▁öldürülmesi	-11.0339
▁malzemeleri	-11.0341
▁Özge	-11.0341
mik	-11.0341
▁sanatçısı	-11.0342
▁hatası	-11.0343
▁diyordu	-11.0345
▁ısı	-11.0345
SPOR	-11.0345
▁kaldırma	-11.0346
▁güldü	-11.0346
▁Kaymakamı	-11.0348
▁kaçma	-11.035
▁aldıktan	-11.0351
▁Kav	-11.0353
▁kalmayı	-11.0355
▁Buradan	-11.0355
▁kamuoyunda	-11.0356
İYE	-11.0359
▁masay	-11.0361
▁etkiliyor	-11.0363
▁fena	-11.0365
▁binasında	-11.0365
▁Kuvvetler	-11.0367
▁Kalın	-11.0368
▁çıkabilir	-11.0369
▁İtfaiye	-11.0372
▁Hatice	-11.0372
▁tavuk	-11.0372
▁Fikri	-11.0372
▁Başika	-11.0372
▁bilirkişi	-11.0372
▁Soğuk	-11.0372
▁Meryem	-11.0372
▁tekstil	-11.0372
▁yapalım	-11.0373
▁direnç	-11.0373
▁yakalanarak	-11.0374
▁Ruh	-11.0374
▁duyuyorum	-11.0374
▁Transfer	-11.0375
▁şirkete	-11.0375
▁GE	-11.0375
▁izlediği	-11.0375
▁GÜN	-11.0376
▁Sonrasında	-11.0376
PA	-11.0378
▁Gaz	-11.0378
leriniz	-11.0378
▁Sedat	-11.0378
▁MEB	-11.0378
rul	-11.0381
▁öğrenme	-11.0381
▁değerlendirilen	-11.0381
▁sağlanan	-11.0383
▁kocası	-11.0384
▁Somali	-11.0386
▁2019	-11.0386
OS	-11.0387
62	-11.039
umu	-11.0392
▁formasıyla	-11.0394
▁sivillerin	-11.0395
▁yolla	-11.0396
▁öde	-11.0398
zken	-11.0402
▁gündeminde	-11.0403
▁Erken	-11.0404
▁İHA	-11.0405
▁Çinli	-11.0407
▁gözde	-11.0408
▁gözaltında	-11.0412
▁kanalında	-11.0412
bilecek	-11.0416
▁hareketli	-11.0418
mıyorum	-11.0419
▁doğusu	-11.042
▁Soru	-11.042
▁Hastalıkları	-11.0425
▁çağır	-11.0426
▁30'	-11.0426
▁l	-11.0426
▁görün	-11.0428
▁vicdanı	-11.043
▁şifresi	-11.0431
Be	-11.0433
lis	-11.0435
▁tarafa	-11.0436
severler	-11.0437
▁rakibini	-11.0437
89	-11.0439
▁onayı	-11.0442
Kara	-11.0442
say	-11.0443
▁kutlama	-11.0446
▁zevk	-11.0446
▁reddetti	-11.0446
▁Arama	-11.0447
▁Koza	-11.0447
▁değerler	-11.0447
▁örneğin	-11.0451
mes	-11.0451
allah	-11.0455
▁kendimizi	-11.0456
▁yapılmasına	-11.0458
bol	-11.0459
▁destekliyor	-11.0462
▁örgütlerine	-11.0462
▁çıktık	-11.0464
▁mevki	-11.0466
▁toprakları	-11.0466
▁kusur	-11.0467
▁alandaki	-11.0468
▁Furkan	-11.0469
▁Windows	-11.0469
▁mevduat	-11.0469
▁ödüyor	-11.0469
▁Esnaf	-11.0469
▁yumruk	-11.0469
▁sunuluyor	-11.0469
▁Emlak	-11.047
▁PTT	-11.047
▁Ayşegül	-11.047
▁oynamaya	-11.047
▁başlangıcı	-11.047
▁enfeksiyon	-11.047
▁etkileyen	-11.0471
▁kalıp	-11.0471
▁yorumları	-11.0471
▁telsiz	-11.0471
▁eksi	-11.0472
▁Poyraz	-11.0473
▁Adliye	-11.0473
▁ailelerin	-11.0473
▁yaşındayken	-11.0473
▁havuz	-11.0474
▁kaçır	-11.0475
▁Evli	-11.0477
▁kalkışma	-11.0478
▁87	-11.048
▁haberde	-11.0482
▁tedavisinin	-11.0488
▁uzmanları	-11.0489
▁evliliği	-11.0489
▁galibiyetini	-11.049
▁ibaret	-11.0491
▁beraberindeki	-11.0491
▁ortaklığı	-11.0492
▁Eser	-11.0492
diğinde	-11.0493
▁havanın	-11.0493
▁işçinin	-11.0494
5'	-11.0495
▁ülkesinin	-11.0496
UL	-11.0497
▁İşin	-11.0497
88	-11.0497
ladığını	-11.0498
Cİ	-11.0499
▁Operasyonu	-11.0501
ıyorlar	-11.0501
▁öğretmenler	-11.0503
▁kurtuldu	-11.0504
▁ray	-11.0504
val	-11.0505
▁şiddetin	-11.0505
▁Un	-11.0506
▁biridir	-11.0508
lendiğini	-11.0509
miyoruz	-11.0512
▁Konferansı	-11.0513
▁Ofisi	-11.0519
▁yüzyılda	-11.052
▁kaba	-11.052
▁Note	-11.0522
▁edileceği	-11.0524
▁şampiyonu	-11.0525
▁işçilerin	-11.0526
▁ödemeleri	-11.0527
▁görevinden	-11.0535
him	-11.0537
92	-11.0537
▁bilme	-11.0537
▁malzemesi	-11.0541
▁İçin	-11.0541
Ev	-11.0542
▁görecek	-11.0543
▁yakalanma	-11.0551
▁ayrılmak	-11.0551
▁notunu	-11.0552
▁bizlere	-11.0555
▁yılların	-11.0555
▁açılışını	-11.0556
▁temizleme	-11.0557
▁Çeşme	-11.0558
lanacağı	-11.0558
▁iman	-11.0562
▁Kutlu	-11.0566
▁Arsenal	-11.0567
▁Kazakistan	-11.0567
▁geleceğe	-11.0567
▁promosyon	-11.0567
que	-11.0567
▁fındık	-11.0567
▁oyunlar	-11.0567
▁belirgin	-11.0567
▁Aksaray	-11.0568
▁taktik	-11.0569
▁Ameliyat	-11.057
▁eylül	-11.057
▁bildiren	-11.0571
▁zanlısı	-11.0571
▁TOKİ	-11.0571
▁tutulan	-11.0572
▁ısrar	-11.0575
79	-11.0576
▁satıyor	-11.0577
▁biyo	-11.0577
▁yöneten	-11.0578
▁tuttuğu	-11.0579
▁180	-11.0582
▁içerikli	-11.0582
gü	-11.0582
diler	-11.0583
▁Gelen	-11.0591
▁Ziya	-11.0591
▁yaşananlar	-11.0592
gör	-11.0593
▁öldürmek	-11.0598
▁unutma	-11.0601
▁büyüklüğü	-11.0602
▁Bizde	-11.0603
▁sınava	-11.0603
▁anlaşıl	-11.0603
▁çevresindeki	-11.0606
▁uzat	-11.0607
▁otoyol	-11.0608
▁ekonomisine	-11.061
▁işçiler	-11.0611
▁büyüdü	-11.0611
▁virüsü	-11.0612
▁öğrencinin	-11.0615
▁kanama	-11.0622
all	-11.0626
▁teşebbüsü	-11.0632
▁Zirve	-11.0634
PYD	-11.0639
▁futbolun	-11.064
▁düşür	-11.064
rmak	-11.0642
87	-11.0644
▁kurultay	-11.0645
▁düşürül	-11.0647
▁sevinci	-11.0647
▁nitelikte	-11.0647
▁çalıştır	-11.0649
▁Sıra	-11.065
▁çeyrekte	-11.065
▁yoğunluğu	-11.0652
▁gösterecek	-11.0652
▁fotoğraflar	-11.0653
▁ons	-11.0656
▁düşmanı	-11.066
leşiyor	-11.0661
▁alındığında	-11.0663
▁ödenecek	-11.0664
▁vuruldu	-11.0665
▁Muammer	-11.0666
▁Personel	-11.0666
▁Tekirdağ	-11.0666
▁kutsal	-11.0666
▁negatif	-11.0666
▁Havaalanı	-11.0666
▁soyunma	-11.0666
▁Kararname	-11.0666
▁parlak	-11.0666
▁Nurettin	-11.0667
▁deyince	-11.0667
▁yapay	-11.0667
▁TÜBİTAK	-11.0668
▁Fuat	-11.0668
diye	-11.067
▁olgu	-11.067
▁oynar	-11.0671
▁kural	-11.0671
▁takımını	-11.0673
▁istikametine	-11.0674
▁Eve	-11.0675
▁Fethullahçı	-11.0676
▁Bizler	-11.0679
▁Muha	-11.0679
▁dön	-11.0679
▁çocuklarını	-11.0683
▁odaklı	-11.0684
▁ilişkili	-11.0684
▁02	-11.0685
73	-11.0686
▁girdiğini	-11.0689
▁kalitesini	-11.069
▁Filistinli	-11.069
rah	-11.0691
▁beşinci	-11.0694
▁hatalar	-11.0695
▁kayıplar	-11.0695
▁Art	-11.0695
SE	-11.0697
▁Ülkemizde	-11.0698
▁çatısı	-11.0698
▁başvur	-11.0699
▁tekme	-11.0702
▁Otobüs	-11.0704
çiler	-11.0704
▁Eşim	-11.0704
▁ihracatın	-11.0709
▁kaldırmak	-11.071
▁İslami	-11.0712
▁ittifak	-11.0714
▁Program	-11.072
▁üret	-11.0721
▁polisleri	-11.0722
▁yakalay	-11.0725
▁anlaştı	-11.0729
▁içerik	-11.0731
▁hayvanlar	-11.0731
▁çalışmış	-11.0733
▁Ker	-11.0735
luyor	-11.0736
▁yapıya	-11.0737
▁Paul	-11.0741
▁Konuk	-11.0745
lav	-11.0746
▁Kulüpler	-11.0747
kes	-11.0748
▁Stat	-11.0753
▁faydalan	-11.0756
▁ayrım	-11.0757
▁yıkıl	-11.0758
▁yaratmak	-11.0758
rım	-11.076
▁his	-11.0761
▁otelin	-11.0761
▁TT	-11.0764
▁Doğa	-11.0766
▁Vural	-11.0766
▁Aşırı	-11.0766
▁Vadisi	-11.0766
▁zeytinyağı	-11.0766
▁emeği	-11.0766
▁duyuruldu	-11.0766
▁Yüzyıl	-11.0766
▁kaydederek	-11.0767
▁Ergün	-11.0768
▁koltuk	-11.0769
▁PFDK	-11.0769
▁rakamın	-11.0769
▁vahim	-11.0769
▁bilinci	-11.077
▁Hamzaoğlu	-11.077
▁konuşulan	-11.077
▁Zi	-11.077
▁kırsalında	-11.0772
lüğe	-11.0773
▁sizden	-11.0773
▁yiyen	-11.0773
▁turistler	-11.0774
▁Nazlı	-11.0774
nizle	-11.0775
▁petrolün	-11.0775
▁Buradaki	-11.0778
▁huzuru	-11.0781
▁düşüncesi	-11.0785
ymiş	-11.0786
▁pasında	-11.079
▁bırakmadı	-11.0792
bah	-11.0795
▁çalışmalarda	-11.0796
▁sıklıkla	-11.08
biz	-11.0801
▁çatışmalarda	-11.0803
▁Yeniden	-11.0803
▁nüfusu	-11.0804
▁görüşlerini	-11.0804
▁Sonuçta	-11.0805
▁teşhisi	-11.0805
▁erecek	-11.0806
▁benzet	-11.0807
▁İnci	-11.0807
▁yakınında	-11.0808
▁pist	-11.0817
▁ağları	-11.0819
▁Öğrenci	-11.082
▁çiz	-11.0823
▁ilişkilerinin	-11.0827
▁Oyunları	-11.0828
yordu	-11.083
▁saçma	-11.0831
▁saldırılarını	-11.0835
▁seçti	-11.0835
▁gönderilmesi	-11.0837
▁eğlenceli	-11.084
Darbe	-11.084
▁bakmak	-11.0844
▁çıkarıyor	-11.0847
▁mezunu	-11.085
▁aracının	-11.085
▁benze	-11.0851
▁Efe	-11.0853
The	-11.0853
▁kablo	-11.0854
▁ardı	-11.0856
▁elleri	-11.086
▁bakımı	-11.086
▁mağduru	-11.0861
▁Aboubakar	-11.0867
▁gümrük	-11.0867
▁implant	-11.0867
▁iğne	-11.0867
▁çıplak	-11.0867
▁CNN	-11.0867
▁roketatar	-11.0867
▁torba	-11.0867
▁yöre	-11.0867
▁Ceylan	-11.0867
▁fişeği	-11.0867
▁poşet	-11.0867
▁şair	-11.0867
▁Çalışkan	-11.0867
▁vesayet	-11.0867
▁Abdul	-11.0868
▁inç	-11.0868
▁ceset	-11.0868
▁mevkisinde	-11.0869
▁Loto	-11.0871
▁yönetecek	-11.0871
▁Maalesef	-11.0872
▁servisi	-11.0872
▁Hü	-11.0873
▁dergisi	-11.0873
▁DNA	-11.0873
▁suçlar	-11.0874
-100	-11.0874
▁göstergesi	-11.0875
▁liranın	-11.0876
▁Gelecek	-11.0876
▁fileleri	-11.0876
67	-11.0879
▁oturum	-11.0879
▁edemez	-11.088
▁vereceğiz	-11.0881
kor	-11.0886
▁tartış	-11.0887
kay	-11.0887
▁formasını	-11.0888
86	-11.0889
lanmaya	-11.0889
suzluk	-11.0889
▁istediğiniz	-11.089
▁kalmıştı	-11.0894
▁üçte	-11.0894
▁etmeden	-11.0896
▁Sh	-11.0897
▁olaya	-11.0897
▁araştırmada	-11.0898
▁Gelir	-11.0898
▁Çift	-11.0898
▁almıştır	-11.0901
müyor	-11.0901
▁taşımak	-11.0901
▁gribi	-11.0904
▁kaydedile	-11.0904
▁uyarısında	-11.0913
▁Alış	-11.0915
▁evleri	-11.0915
▁Müsteşarı	-11.0915
▁tutul	-11.0916
▁kesimi	-11.0918
▁tıka	-11.0919
xxx	-11.092
yeceğiz	-11.092
▁hedeflerini	-11.0927
bb	-11.0928
▁rakamları	-11.0929
▁stratejisi	-11.093
▁robot	-11.0931
▁Şans	-11.0932
▁sağlığını	-11.0934
▁biçimi	-11.0934
▁Altı	-11.0934
▁şimdilik	-11.0937
▁üretiminde	-11.094
▁zamanki	-11.094
cc	-11.094
▁yoksun	-11.0942
▁Müslümanların	-11.0946
mun	-11.0946
▁çocuklarda	-11.0948
▁medeniyet	-11.0951
▁Soy	-11.0953
▁kulüpte	-11.0959
▁gündemin	-11.0959
▁Ok	-11.0959
amayız	-11.0961
bü	-11.0961
▁varken	-11.0962
sol	-11.0962
▁öncü	-11.0965
▁kitaplar	-11.0965
▁anma	-11.0966
burg	-11.0966
▁temenni	-11.0968
▁Akşener	-11.0969
▁götürülen	-11.0969
▁uzantısı	-11.0969
▁yansıyan	-11.0969
▁edelim	-11.0969
▁Dicle	-11.0969
▁Video	-11.0969
▁kulağı	-11.0969
▁bulunmuyor	-11.0969
▁and	-11.097
▁Yüzbaşı	-11.097
▁kısmen	-11.097
▁Kamil	-11.0971
▁alabilecek	-11.0972
▁hazırlıkları	-11.0972
▁olmaktadır	-11.0973
▁Ağ	-11.0973
▁duyurmuştu	-11.0975
yerek	-11.0975
▁halini	-11.0976
▁standartları	-11.0976
▁haberdar	-11.0976
▁Konak	-11.0978
▁verilmiştir	-11.0979
▁Selam	-11.0979
▁edeceğim	-11.0979
▁duyarlı	-11.0981
▁yenilikler	-11.0983
▁Yönetmen	-11.0985
▁öldür	-11.0988
▁duvarı	-11.0989
İki	-11.0991
▁bayi	-11.0993
▁Alanya	-11.0994
▁alabilir	-11.0995
▁gelmiştir	-11.0996
▁eri	-11.0997
ian	-11.0999
US	-11.1
▁planda	-11.1
▁3-2	-11.1002
▁Gazeteci	-11.1003
▁KAP	-11.1005
▁ot	-11.1008
ent	-11.1012
▁anahtar	-11.1015
▁kapandı	-11.1015
▁takımları	-11.1016
tion	-11.1017
▁bilgilerini	-11.1018
▁boru	-11.1019
hur	-11.102
▁TK	-11.102
▁Anlaşması	-11.1022
▁havalimanında	-11.1024
▁sevme	-11.1025
▁vuruşu	-11.1026
▁artışın	-11.1027
▁Ülkemiz	-11.1028
diğim	-11.1029
▁sonradan	-11.1029
Tek	-11.1033
▁etmeli	-11.1033
▁topluma	-11.1035
▁liderlik	-11.1035
▁alınmasını	-11.1036
▁koruması	-11.1041
▁Planı	-11.1042
imizde	-11.1043
atif	-11.1045
YPG	-11.1046
▁okulları	-11.1046
Daha	-11.1046
Rİ	-11.1046
▁sevin	-11.1049
▁oluştur	-11.105
▁100'	-11.105
▁göstermeye	-11.105
▁hükümete	-11.1051
▁yıkım	-11.1052
leşmesi	-11.1052
fik	-11.1053
▁özgü	-11.1054
kırmızılılar	-11.1057
▁form	-11.1059
▁heykel	-11.1059
▁yıka	-11.1059
eceğim	-11.106
▁Durumu	-11.1061
▁yerin	-11.1063
▁Nijerya	-11.1064
▁ifadesinin	-11.1065
▁korunma	-11.1068
▁söylemesi	-11.107
▁savun	-11.1071
ED	-11.1072
▁Endonezya	-11.1072
▁Gürcistan	-11.1072
▁Lokomotiv	-11.1072
▁Rıdvan	-11.1072
▁bürokrasi	-11.1072
▁İrfan	-11.1072
▁radar	-11.1072
▁Daniel	-11.1072
▁Atilla	-11.1072
▁Bozkır	-11.1072
▁esnada	-11.1072
▁Lozan	-11.1073
▁Hırvatistan	-11.1074
▁Sarıyer	-11.1074
▁boyutlu	-11.1075
▁illerde	-11.1075
▁Umarım	-11.1077
▁hazırladı	-11.1077
▁Çözüm	-11.1078
▁kazandıran	-11.108
▁şutunda	-11.1082
▁uzunluğunda	-11.1082
▁karışan	-11.1084
▁listesi	-11.1085
▁Yazar	-11.1088
▁yayında	-11.1089
▁Faiz	-11.1089
ydü	-11.109
mızdan	-11.1092
ST	-11.1093
▁Batılı	-11.1095
▁puanını	-11.1097
▁patladı	-11.1098
oto	-11.1099
▁batısında	-11.1099
▁ciddiye	-11.1101
▁kurumların	-11.1101
▁saatler	-11.1102
▁fiziki	-11.1103
▁getirdiğini	-11.1105
▁ör	-11.1106
mamış	-11.1106
▁gide	-11.1107
▁gazetesinde	-11.1108
97	-11.1109
▁duygusu	-11.111
▁savaşa	-11.1111
gh	-11.1113
▁arkadaşlarının	-11.1117
▁edeceklerini	-11.1117
▁kutla	-11.1119
▁gerçeklik	-11.1119
▁öğrendik	-11.1121
▁Saldırı	-11.1121
▁memnuniyet	-11.1121
▁arabası	-11.1122
▁Nar	-11.1123
▁sergisi	-11.1125
▁sıkıntılı	-11.1131
▁3,2	-11.1132
▁93	-11.1136
▁yaşamı	-11.1137
▁ömrü	-11.1137
▁mektubu	-11.1138
▁dükkan	-11.1138
▁kaldırmaya	-11.1138
▁Gör	-11.1143
▁yüreği	-11.1144
▁doktorların	-11.1144
▁dök	-11.1146
▁uygulamasının	-11.1146
▁projeyi	-11.1146
▁yükselmesi	-11.1146
▁farkla	-11.115
▁faaliyetlerine	-11.1152
▁çıkmasını	-11.1153
▁99	-11.1154
▁kişiyle	-11.1155
▁başlamak	-11.1158
▁daral	-11.1158
▁işine	-11.116
▁Yaptığı	-11.1163
▁eşya	-11.1163
▁sürdürecek	-11.1167
▁Hükümeti	-11.1167
▁yaptırım	-11.1168
▁yapmamız	-11.1169
▁gerçekleştiği	-11.117
GS	-11.117
▁unsuru	-11.1171
▁gölge	-11.1172
▁görüntülendi	-11.1172
▁takma	-11.1173
▁Toplantıda	-11.1174
ğimiz	-11.1174
▁böl	-11.1175
▁almasını	-11.1175
▁niha	-11.1175
▁düşmüş	-11.1176
▁Katılım	-11.1176
▁bankası	-11.1176
▁Mandıralı	-11.1176
▁bertaraf	-11.1176
▁kıdem	-11.1176
▁Uysal	-11.1176
▁ivme	-11.1176
▁06	-11.1177
▁buçuk	-11.1177
▁ekstra	-11.1177
▁Topçu	-11.1177
▁ismin	-11.1177
▁sığınak	-11.1178
▁Reuters	-11.1178
▁Özlem	-11.1178
▁aranıyor	-11.1179
▁Modern	-11.1179
▁izah	-11.118
▁finalinde	-11.1181
▁kıza	-11.1181
-4	-11.1182
sch	-11.1183
▁antrenör	-11.1184
▁TSİ	-11.1184
▁Kurmay	-11.1185
▁aşık	-11.1186
▁akademik	-11.1187
larımızla	-11.1188
▁riskli	-11.1188
▁karşılığını	-11.1191
▁tebliğ	-11.1192
▁çıkmaz	-11.1194
▁duygularını	-11.1194
▁Bahçe	-11.1197
▁metal	-11.1198
▁mutfağı	-11.1198
▁Annesi	-11.1202
▁oluşma	-11.1204
82	-11.1205
fir	-11.1208
▁slogan	-11.121
▁görüşmek	-11.1213
▁zammı	-11.1214
▁sis	-11.1217
▁gidiş	-11.1218
▁darbesi	-11.1218
▁tutku	-11.1219
▁Şüphelilerin	-11.122
▁yerlerinde	-11.1223
▁BA	-11.1225
▁haftaya	-11.1227
▁olamadı	-11.1229
▁küme	-11.1231
▁muhabirinin	-11.1231
▁sevenleri	-11.1232
▁atmaya	-11.1238
▁değiştirmek	-11.124
▁dokuz	-11.1242
▁getirmeye	-11.1243
HA	-11.1243
▁yüze	-11.1245
▁edilmek	-11.1251
▁Aç	-11.1253
▁azalması	-11.1253
▁fizik	-11.1255
tum	-11.1259
medim	-11.1261
8'	-11.1261
▁hissettir	-11.1261
▁alanların	-11.1263
▁YIL	-11.1263
▁Gençler	-11.1265
▁bitmesi	-11.1266
rilme	-11.1267
sk	-11.1268
▁solu	-11.1268
▁önü	-11.127
▁uzan	-11.1272
▁sonuçlarını	-11.1274
evleri	-11.1274
▁mültecilere	-11.1275
▁etmekte	-11.1275
mut	-11.1276
▁ödemek	-11.1276
▁getirilmiş	-11.1277
▁gözle	-11.1277
▁sür	-11.1279
▁Ödül	-11.1281
▁Kjaer	-11.1281
▁Tahran	-11.1281
▁Sönmez	-11.1281
▁Kirby	-11.1282
▁meşhur	-11.1282
▁bulması	-11.1282
▁Liverpool	-11.1283
▁koruyan	-11.1283
▁kapağı	-11.1283
▁1997	-11.1284
▁bulunurken	-11.1284
▁rezervasyon	-11.1284
▁1996	-11.1285
▁Dick	-11.1286
▁yapmadı	-11.1287
▁çalma	-11.1288
▁gözünü	-11.1289
▁artıran	-11.1289
▁maliyetleri	-11.1289
▁söylemi	-11.1291
ebilen	-11.1293
ray	-11.1294
▁Q	-11.1294
▁haberlerin	-11.1294
kır	-11.1295
▁Çağla	-11.1295
▁karla	-11.1297
▁tutumu	-11.13
lerimizde	-11.13
▁kanalları	-11.1301
▁kor	-11.1303
▁BAŞ	-11.1304
▁soruşturmasında	-11.1305
▁çağ	-11.1305
▁bağlantıları	-11.1305
▁ordusunun	-11.1306
▁bankanın	-11.1306
yorsunuz	-11.1308
▁dostları	-11.1309
▁ili	-11.131
rıp	-11.1311
▁Angela	-11.1311
▁Sto	-11.1312
▁yediği	-11.1313
▁yanıtı	-11.1313
▁yarışması	-11.1313
▁liderliği	-11.1313
▁yorumu	-11.1313
▁boynu	-11.1315
liğinin	-11.1316
▁annesinin	-11.1319
▁kaybetmişti	-11.132
▁kullanıldığını	-11.1321
▁başvurma	-11.1321
▁macera	-11.1326
▁öngörüle	-11.1326
▁yaşananları	-11.1328
▁Çi	-11.133
▁vatandaşımız	-11.1331
▁akraba	-11.1336
▁odaklan	-11.1337
▁otobüsün	-11.1337
▁turizmi	-11.1338
▁gayreti	-11.1338
▁eklem	-11.134
▁cihazın	-11.134
▁üreticisi	-11.1341
▁götürme	-11.1342
▁tersi	-11.1345
▁binin	-11.1345
▁kutladı	-11.1346
▁sonuçla	-11.1346
▁arkasındaki	-11.1347
▁eylemler	-11.1349
▁davranışları	-11.135
▁Kastamonu	-11.1352
▁kum	-11.1353
▁seçimler	-11.1355
▁yazıyor	-11.1357
▁patlamada	-11.1357
▁Güçlü	-11.1358
▁medyanın	-11.1361
Kendi	-11.1362
Erdoğan	-11.1362
Sayın	-11.1362
▁belirlediği	-11.1362
▁tarife	-11.1362
▁yaptığım	-11.1365
▁kullanacak	-11.1366
▁Niye	-11.1367
▁Sağlıklı	-11.1368
▁Aksi	-11.1368
▁seslendi	-11.1373
78	-11.1374
▁taraftarın	-11.1376
meliyiz	-11.1377
▁piyasasında	-11.1378
▁seti	-11.1379
▁dersleri	-11.1379
▁Gökçek	-11.1382
▁açması	-11.1384
▁Robert	-11.1384
uhteşem	-11.1388
▁Nevruz	-11.1388
▁Sanders	-11.1388
▁diktatör	-11.1388
▁Hollywood	-11.1388
▁Microsoft	-11.1388
▁istişare	-11.1388
▁mekân	-11.1388
▁referans	-11.1388
▁lastik	-11.1388
▁STK	-11.1388
▁nakit	-11.1388
▁kazanıyor	-11.1389
▁geleceğine	-11.1389
▁Göztepe	-11.1389
▁duyuyoruz	-11.139
▁izlenen	-11.139
▁damat	-11.1391
▁köklü	-11.1391
▁işletim	-11.1392
▁alınıp	-11.1393
▁aynen	-11.1393
siyon	-11.1393
▁dönemini	-11.1393
▁yaralama	-11.1395
▁barınma	-11.1395
▁Taner	-11.1399
▁önemini	-11.1399
▁söylenen	-11.1403
▁domuz	-11.1409
▁Tü	-11.1409
▁gereğini	-11.1409
▁eksiklik	-11.141
▁alacağız	-11.1411
▁partisinin	-11.1411
▁gününü	-11.1413
▁10.00	-11.1414
▁İranlı	-11.1416
▁kardeşlik	-11.1417
▁Eli	-11.1418
▁94	-11.1419
▁fazlasını	-11.1422
▁Sık	-11.1423
▁01	-11.1425
▁Firma	-11.1426
▁salonunda	-11.1429
▁haz	-11.143
▁devamı	-11.1431
▁Fox	-11.1431
▁Kendisine	-11.1431
▁seviyor	-11.1434
▁durağı	-11.1435
▁tanıtımı	-11.1436
▁konvoy	-11.1436
▁Onları	-11.1438
▁topraklarında	-11.144
FA	-11.1443
lanacağını	-11.1445
▁salgı	-11.1447
▁benimle	-11.1451
▁şüphelilerden	-11.1451
▁vermeyen	-11.1452
amazsınız	-11.1453
üğü	-11.1455
▁çıkartıla	-11.146
▁Fen	-11.1461
hak	-11.1461
▁çekilmiş	-11.1461
gov	-11.1463
▁saldırılarda	-11.1464
▁usul	-11.1466
▁ülkesine	-11.1469
Şimdi	-11.1469
▁yükselt	-11.1472
▁finansmanı	-11.1474
▁detay	-11.1476
cüler	-11.1477
▁şoku	-11.1478
▁vermez	-11.148
▁patlamanın	-11.148
▁yararlı	-11.1483
TAN	-11.1484
▁bahçesi	-11.1489
▁Stadyumu	-11.1489
▁dilim	-11.1489
q	-11.1491
▁sözlü	-11.1491
mezse	-11.1492
▁kriter	-11.1493
▁Sema	-11.1493
▁Eskiden	-11.1494
▁tasarla	-11.1494
▁kaçınılmaz	-11.1495
▁vazife	-11.1495
▁federasyon	-11.1495
▁reyting	-11.1495
▁Otoyolu	-11.1495
▁sorulması	-11.1496
▁öngörülüyor	-11.1496
▁belirleyecek	-11.1496
▁Nobel	-11.1496
▁Alanyaspor	-11.1496
▁ağırlaştırılmış	-11.1496
▁suyun	-11.1497
▁Toner	-11.1498
▁yapabilirsiniz	-11.1498
▁1998	-11.1499
▁Yağmur	-11.1499
▁Mas	-11.1499
▁hedefleniyor	-11.1499
▁Şiddet	-11.15
▁rakamı	-11.15
▁yapıyordu	-11.1502
▁devrildi	-11.1502
▁sokul	-11.1503
▁he	-11.1504
▁Tok	-11.1504
▁Yaman	-11.1506
▁ödedi	-11.1507
▁gidiyoruz	-11.1507
▁çene	-11.1508
▁eşyaları	-11.1512
▁istismarı	-11.1512
sunun	-11.1513
▁çelik	-11.1513
▁olduğunuz	-11.1514
▁dehşet	-11.1514
▁Hükümetin	-11.1515
▁sığınmacılar	-11.1517
▁artırıyor	-11.1519
▁memleket	-11.152
▁kesintisiz	-11.1522
▁Törende	-11.1524
▁adının	-11.1524
▁misiniz	-11.1526
NİN	-11.1529
▁atar	-11.1532
▁KA	-11.1536
▁değerini	-11.1536
▁evinden	-11.1536
▁odaları	-11.1536
▁sanatçının	-11.1537
▁yönetmeni	-11.154
▁yarışında	-11.1541
▁krizinin	-11.1542
mem	-11.1543
▁YA	-11.1544
▁belediyeler	-11.1545
eyim	-11.1548
▁TA	-11.155
▁kızları	-11.1552
▁yürüdü	-11.1553
▁Devre	-11.1556
▁sektörüne	-11.1557
▁sayıları	-11.1557
Ay	-11.1559
▁gördükleri	-11.156
▁işimiz	-11.156
▁döndüğü	-11.1561
alp	-11.1562
stro	-11.1562
▁Post	-11.1564
▁ateşi	-11.1566
▁sattı	-11.1566
▁bakanı	-11.1567
▁Olmaz	-11.1569
▁beklemek	-11.157
▁yaptırdı	-11.1571
▁engellemeye	-11.1575
▁onarım	-11.1578
▁Üstün	-11.1579
▁duyguları	-11.1579
▁Günümüzde	-11.158
▁televizyonu	-11.1581
▁tanış	-11.1585
▁yükselme	-11.1587
▁kalmaya	-11.159
▁hepsinin	-11.1594
▁programını	-11.1597
▁Parlamento	-11.1597
suna	-11.1597
▁Sat	-11.1598
▁koymak	-11.1599
▁evrak	-11.1602
▁Deli	-11.1604
▁Chedjou	-11.1604
▁Yukarı	-11.1604
▁Bandırma	-11.1604
▁Kanarya	-11.1604
▁sterlin	-11.1604
▁yoğurt	-11.1605
▁Zika	-11.1606
▁düşerek	-11.1607
▁vb	-11.1607
▁Luis	-11.1607
▁buluşacak	-11.1607
▁casusluk	-11.1607
▁Bankacılık	-11.1608
▁olumsuzluklar	-11.1608
▁Ekici	-11.1609
ebiliriz	-11.161
▁koridor	-11.1613
▁Burası	-11.1613
▁çoktan	-11.1613
▁koruyor	-11.1614
EV	-11.1615
▁fi	-11.1617
▁Gemi	-11.1617
▁vs	-11.1619
▁talebini	-11.1625
PS	-11.1626
▁hazırlığı	-11.1627
▁konumda	-11.1628
rme	-11.1633
▁yarıya	-11.1634
▁bağlama	-11.1635
▁sürdüğünü	-11.1637
▁istikrarı	-11.1638
▁160	-11.1638
▁imkansız	-11.1641
▁unsurlar	-11.1643
▁oluruz	-11.1643
▁organı	-11.1644
▁Bro	-11.1645
▁kaynaklardan	-11.165
▁fakir	-11.165
▁süs	-11.1653
▁girdik	-11.1653
▁başarıya	-11.1653
▁sonsuz	-11.1654
▁takımında	-11.1655
▁siteleri	-11.1655
▁yetenekli	-11.1657
▁Air	-11.1659
▁Mon	-11.166
▁kaybettik	-11.166
duğunu	-11.1662
lıktan	-11.1664
▁yenileme	-11.1665
▁Leyla	-11.1666
▁raporları	-11.1667
▁şiddeti	-11.1669
▁vazgeçme	-11.1669
▁boğul	-11.167
▁hastalarda	-11.1671
wi	-11.1671
▁rakamlar	-11.1671
NIN	-11.1672
ood	-11.1672
▁hedefler	-11.1672
▁hikâyesi	-11.1672
▁kimseyi	-11.1673
hil	-11.1673
▁kalkış	-11.1674
▁oyuncuyu	-11.1677
▁Mat	-11.1679
▁verilere	-11.168
▁YENİ	-11.1681
▁Ed	-11.1683
▁ocağı	-11.1684
▁çıkacağı	-11.1685
mavili	-11.1686
▁yatırımların	-11.1689
memesi	-11.1689
▁kavgaya	-11.1689
▁konusunu	-11.1691
▁başvuruları	-11.1692
▁sızdı	-11.1692
▁4-	-11.1692
▁arkadaşlarına	-11.1693
▁getirmesi	-11.1693
▁yükseltti	-11.1694
▁uçaklar	-11.1694
▁koridoru	-11.1696
rent	-11.1701
▁varlıkları	-11.1703
▁belirlen	-11.1704
Zaman	-11.1704
▁sistemiyle	-11.1707
▁toplantısına	-11.1707
▁sınırlarını	-11.1708
▁taleplerini	-11.1708
▁gelmesini	-11.171
▁çak	-11.1711
▁çözmek	-11.1713
▁Fırtına	-11.1714
▁Kütahya	-11.1714
▁İdlib	-11.1714
dışı	-11.1714
▁Hollande	-11.1714
▁fırın	-11.1714
▁iOS	-11.1714
▁Akyazı	-11.1715
▁Binbaşı	-11.1715
▁objektif	-11.1715
▁tatmin	-11.1715
▁çıkınca	-11.1716
▁Makedonya	-11.1717
▁çevrede	-11.1717
▁Köy	-11.1718
lıkta	-11.1718
▁yankı	-11.1719
▁mevkiinde	-11.1719
▁grip	-11.172
▁paylaşmak	-11.172
▁Ersan	-11.1722
▁çalıştık	-11.1723
▁Keşke	-11.1723
▁Salon	-11.1725
▁halı	-11.1725
▁yatırımcılar	-11.1728
▁450	-11.1729
▁otopark	-11.173
▁depolama	-11.1731
YI	-11.1731
▁geleneği	-11.1735
▁grev	-11.1735
▁KUR	-11.1736
▁aştı	-11.1737
▁taşıyacak	-11.1738
▁Zanlı	-11.174
▁yoğunluk	-11.1742
▁ablası	-11.1743
▁biletleri	-11.1744
▁mağlubiyet	-11.1746
▁diplomat	-11.1747
▁bırakılması	-11.1751
▁çalışmanın	-11.1752
emeyiz	-11.1753
▁peşin	-11.1753
▁okuyor	-11.1757
▁sunum	-11.1758
for	-11.176
▁Erkekler	-11.1761
▁sonuca	-11.1761
▁boğaz	-11.1761
SU	-11.1761
▁80'	-11.1764
▁çalışmalarımız	-11.1768
▁Yeri	-11.1768
GA	-11.1769
▁kişilerde	-11.1771
şen	-11.1772
▁inanma	-11.1774
▁Açıklama	-11.1775
▁demesi	-11.1775
▁özellikler	-11.1778
▁nişancı	-11.1779
▁eşitliği	-11.1782
dis	-11.1786
▁Chi	-11.1786
▁kapısında	-11.1788
▁edilmesinin	-11.1789
▁arı	-11.179
▁görülmesi	-11.1791
▁sahiptir	-11.1792
▁yemin	-11.1792
▁Bora	-11.1794
▁fotoğraflarını	-11.1795
▁düşünür	-11.1795
▁konularında	-11.1797
lıoğlu	-11.1797
KCK	-11.1798
Böyle	-11.1799
▁hekimi	-11.1799
▁rota	-11.1799
posta	-11.18
▁çocuğunun	-11.18
▁belirsizlik	-11.18
▁yönlendirme	-11.1803
▁met	-11.1803
▁yum	-11.1804
▁Sar	-11.1805
▁menajeri	-11.1806
▁coşku	-11.1806
▁hırsız	-11.1809
▁merkezinin	-11.181
▁yapmadan	-11.1814
▁bez	-11.1816
amayacağı	-11.1816
▁değerlendirmede	-11.1821
▁telefonlar	-11.1823
▁kayboldu	-11.1824
▁törene	-11.1825
▁WhatsApp	-11.1825
▁Riyad	-11.1825
▁nasip	-11.1825
abildi	-11.1825
▁Bozkurt	-11.1825
▁taviz	-11.1825
▁konuşuluyor	-11.1826
▁yapabiliyor	-11.1827
▁•	-11.1827
▁röportajda	-11.1828
▁saldırısını	-11.1828
▁sürdürülen	-11.1828
▁kolaylaştır	-11.1828
▁beyni	-11.1829
▁Mevcut	-11.1829
▁duyulan	-11.1829
▁miydi	-11.183
▁istemiyoruz	-11.1831
▁krem	-11.1831
arım	-11.1831
▁salata	-11.1831
▁unsur	-11.1834
▁play	-11.1836
▁dizide	-11.1837
▁dağıt	-11.1837
▁edince	-11.1845
▁açıklamasının	-11.1845
▁kalacağı	-11.1845
▁inşaatı	-11.1846
▁aydan	-11.1847
▁yasası	-11.1848
▁Duran	-11.1849
▁yurdun	-11.1853
▁karşılaştığı	-11.1853
▁hapishane	-11.1854
▁teması	-11.1855
▁Bol	-11.1856
▁Normal	-11.1857
▁dinamik	-11.1857
▁Emeklilik	-11.1858
▁oluyoruz	-11.1859
▁satıldı	-11.1859
LU	-11.1863
▁Ülkede	-11.1865
▁kavramı	-11.1867
▁planlarını	-11.1869
▁2008'	-11.1871
▁işlerini	-11.1872
94	-11.1873
▁haritası	-11.1874
▁sokma	-11.1877
▁Fu	-11.1879
▁edileceğini	-11.1879
▁açıklamasına	-11.188
▁un	-11.1883
▁kü	-11.1885
▁etmemiz	-11.1885
▁engeller	-11.1886
▁karısı	-11.1891
▁giyme	-11.1892
OK	-11.1894
▁bozuklukları	-11.1897
▁darbeyi	-11.19
▁ayırdı	-11.1903
▁Iraklı	-11.1903
▁yaralanma	-11.1904
▁af	-11.1904
▁ailesini	-11.1905
seydi	-11.1905
▁adımların	-11.1908
▁yapısını	-11.1909
fil	-11.1909
▁masada	-11.191
Ancak	-11.1911
▁intikam	-11.1912
▁operasyona	-11.1913
▁değiştirilmesi	-11.1914
▁istediğim	-11.1914
▁Öğrenciler	-11.1914
▁Ümraniye	-11.1914
ılırken	-11.1921
ESİ	-11.1921
▁üstlendi	-11.1927
▁anlatmaya	-11.1927
Baş	-11.1933
▁yürütüyor	-11.1935
▁sayın	-11.1936
▁mes	-11.1936
▁bulunmuş	-11.1936
▁lokanta	-11.1937
▁MİLYON	-11.1937
▁fuhuş	-11.1937
▁lojistik	-11.1937
▁merhamet	-11.1937
▁metrobüs	-11.1937
▁ılımlı	-11.1937
▁09.00	-11.1937
▁Yoğun	-11.1937
▁Nehri	-11.1937
▁Nusra	-11.1937
▁İzzet	-11.1938
▁Filiz	-11.1938
▁Ziyaret	-11.1938
▁Karabağ	-11.1938
▁çamaşır	-11.1938
▁Tahir	-11.1939
▁Simon	-11.1939
▁üstünlük	-11.194
gon	-11.1941
▁2018'	-11.1941
▁başladım	-11.1941
▁Evren	-11.1941
LÜ	-11.1941
▁Play	-11.1942
▁Noel	-11.1942
▁başlayarak	-11.1943
▁azaltmak	-11.1943
▁Rapor	-11.1943
▁Ensar	-11.1944
▁evini	-11.1945
▁Demek	-11.1946
▁hazırız	-11.1947
▁amiral	-11.1947
▁Nerede	-11.1948
-10	-11.1948
▁Jet	-11.1949
▁yavru	-11.1951
ğerlendirmelerde	-11.1951
▁tüketme	-11.1952
▁açıklamayı	-11.1953
▁sindirim	-11.1956
ilirken	-11.1956
?..	-11.1959
▁yaşlarında	-11.196
▁bizleri	-11.196
2'	-11.1962
tap	-11.1962
▁incelemeye	-11.1963
▁kurallar	-11.1964
▁karşılaşmayı	-11.1966
▁yayımladı	-11.1966
▁Gölü	-11.1967
▁kurtulmak	-11.1968
▁Yarışması	-11.1968
ino	-11.1969
▁par	-11.197
▁İnsanların	-11.1971
▁cezayı	-11.1971
▁görüntülerin	-11.1971
sil	-11.1972
▁Reza	-11.1973
▁kesimlerinde	-11.1974
▁Tamam	-11.1976
▁kararla	-11.1976
▁görevlilerinin	-11.1979
▁gerekiyordu	-11.198
▁bitecek	-11.198
avi	-11.1984
▁ayrımı	-11.1986
▁desteklemek	-11.1989
▁suçlama	-11.199
▁İçinde	-11.199
malıyız	-11.1991
▁malı	-11.1992
▁eğilim	-11.1994
▁araçtan	-11.1996
▁sularında	-11.1999
▁eğitimini	-11.2
▁Limanı	-11.2002
▁hassasiyeti	-11.2005
▁havan	-11.2005
▁filminin	-11.2006
▁düzelt	-11.2008
▁Dü	-11.2009
manın	-11.201
▁söyledikleri	-11.2011
▁tamamının	-11.2011
▁adamlar	-11.2011
▁endeks	-11.2014
▁dışarıya	-11.2015
▁açılmış	-11.2016
▁ilçeleri	-11.2018
▁duy	-11.2018
layacağı	-11.2023
▁buluşturdu	-11.2023
▁versiyonu	-11.2024
▁bozulma	-11.2024
▁alakası	-11.2024
▁dolandır	-11.2025
▁değin	-11.2026
▁İdare	-11.2028
▁faydası	-11.2029
layacağız	-11.2031
ari	-11.2033
▁güçlendir	-11.2033
▁düşecek	-11.2033
▁şiş	-11.2034
llo	-11.2035
▁Duru	-11.2035
▁savaşçı	-11.2037
▁sakın	-11.2037
▁keşfed	-11.2038
▁Durum	-11.2039
▁görüştüğü	-11.2039
ant	-11.204
▁karşılama	-11.2042
▁etmesinin	-11.2043
▁ekranlarında	-11.2044
▁Kart	-11.2051
sman	-11.2051
▁Çakmak	-11.2051
▁Şemdinli	-11.2051
▁Hakkâri	-11.2051
▁Kapalıçarşı	-11.2051
▁parmağı	-11.2051
▁iştirak	-11.2051
▁Kafkas	-11.2051
▁limon	-11.2051
▁vahşi	-11.2051
▁çarşı	-11.2051
▁prensip	-11.2051
▁vereceğini	-11.2052
▁edilmektedir	-11.2052
▁Aydoğan	-11.2053
▁Köşkü	-11.2053
▁YGS	-11.2053
Bi	-11.2053
▁KKTC	-11.2054
▁Akdağ	-11.2054
▁Dijital	-11.2056
rdo	-11.2056
▁ger	-11.2056
▁köyleri	-11.2056
SD	-11.2058
▁5-6	-11.2058
▁istiyorsanız	-11.2058
▁ulaşıldı	-11.2059
▁Açılış	-11.2059
▁konaklama	-11.206
▁Erhan	-11.2061
hisar	-11.2062
▁değerinde	-11.2063
▁oteller	-11.2063
▁Balta	-11.2063
▁kopya	-11.2063
▁atmosfer	-11.2064
▁oldular	-11.2065
▁mutfak	-11.2065
▁konseri	-11.2066
▁dediğini	-11.2067
▁kişilerle	-11.2068
▁aralıklı	-11.2069
▁müdürleri	-11.207
▁Yazıcı	-11.207
▁ambulanslarla	-11.207
▁korumaya	-11.2073
▁beklendiği	-11.2074
▁uygulamanın	-11.2074
▁açlık	-11.2075
▁sertifika	-11.2077
SO	-11.208
▁listesine	-11.2081
▁şüphesi	-11.2082
▁yapılmak	-11.2083
▁yaşar	-11.2084
▁imar	-11.2085
▁süresinin	-11.2085
▁bilin	-11.2085
▁odada	-11.2086
▁müttefik	-11.2087
▁varılan	-11.2087
ımıza	-11.2087
▁tutarında	-11.2089
▁borçları	-11.2091
▁kontrolünü	-11.2092
▁kardeşleri	-11.2093
▁gerçekleşme	-11.2103
▁Çal	-11.2103
▁sanıkların	-11.2104
▁co	-11.2107
▁olanlara	-11.2115
▁artırdı	-11.2116
▁canını	-11.2117
▁cezasını	-11.2117
▁Vergi	-11.2118
diğiniz	-11.2118
▁inceledi	-11.2118
ladıkları	-11.212
▁düzenlemesi	-11.2121
▁aralığında	-11.2121
▁yükü	-11.2122
▁Hami	-11.2123
▁bekle	-11.2123
▁mıydı	-11.2123
▁üzül	-11.2124
▁pazarlama	-11.2124
!-	-11.2125
IP	-11.2125
▁konum	-11.2126
▁kirliliği	-11.2127
▁yığ	-11.2131
▁galibiyetle	-11.2131
▁şekeri	-11.2132
▁müşterileri	-11.2133
▁hazırlandı	-11.2135
▁ker	-11.2135
laşmış	-11.2137
▁baraj	-11.2138
tıl	-11.2138
▁sağlaması	-11.2142
▁atıl	-11.2146
▁ırkçı	-11.2147
▁115	-11.2148
mışlar	-11.215
ÜL	-11.2151
▁programlar	-11.2153
▁deliller	-11.2155
▁raporunda	-11.2156
▁kapıları	-11.2156
▁bakteri	-11.2157
▁ruhunu	-11.2158
▁yöntemle	-11.2163
rarak	-11.2163
▁bahsede	-11.2164
▁sinyal	-11.2164
▁MA	-11.2165
▁ho	-11.2166
▁Denetleme	-11.2166
▁felç	-11.2166
▁Bahçelievler	-11.2166
▁Deprem	-11.2166
▁İncirlik	-11.2166
▁atıf	-11.2166
▁dokunulmazlığı	-11.2166
▁temmuz	-11.2166
▁lazer	-11.2166
▁vazgeçilmez	-11.2166
▁projelerin	-11.2166
▁Saygı	-11.2167
▁Jean	-11.2167
▁garip	-11.2167
▁cinsiyet	-11.2168
▁Çağlayan	-11.2169
▁Havacılık	-11.2169
▁Dergisi	-11.2169
▁öngören	-11.2169
▁durdurma	-11.217
▁hastalığa	-11.2172
▁Halit	-11.2174
▁ekonomide	-11.2174
▁Haluk	-11.2175
▁hürriyeti	-11.2177
▁buluş	-11.2179
▁değiş	-11.218
▁hukuku	-11.2182
▁sürüş	-11.2182
▁paylaşma	-11.2183
▁karşılandı	-11.2183
▁edil	-11.2185
▁@	-11.2186
emeyecek	-11.2186
▁Evin	-11.2188
▁döneceği	-11.2191
▁içecekler	-11.2196
▁mahkemede	-11.2197
▁önerge	-11.2198
▁Sır	-11.2198
▁em	-11.22
▁durdurmak	-11.2201
▁kıran	-11.2201
▁referandum	-11.2203
▁denli	-11.2205
sey	-11.2206
▁ateşkesin	-11.2208
▁devletinin	-11.2208
▁edebiyat	-11.2212
▁ayrılık	-11.2212
▁gencin	-11.2213
ecekler	-11.2213
▁kabin	-11.2218
▁ücretli	-11.2219
▁yeteneği	-11.2222
▁başvuruda	-11.2223
by	-11.2226
▁kova	-11.2226
▁eğilimi	-11.2227
▁patla	-11.2227
▁getirmişti	-11.2231
▁İkincisi	-11.2232
▁almaz	-11.2232
▁çılgın	-11.2233
▁uğur	-11.2233
▁silin	-11.2234
▁direk	-11.2238
▁araçlarının	-11.224
▁Topu	-11.2241
▁çizgisi	-11.2244
▁çalıştım	-11.2245
▁dünyasına	-11.2246
▁bombardıman	-11.2247
▁askerlerinin	-11.2248
▁sergiledi	-11.2248
▁etmekten	-11.225
bilirsiniz	-11.2251
baz	-11.2254
▁telefonunu	-11.2255
▁futbolcuları	-11.2256
▁kullanıcıları	-11.2257
log	-11.2257
oy	-11.2259
▁kıyafetleri	-11.2259
▁kaz	-11.2264
▁Arjantin	-11.2265
▁ribaunt	-11.2266
▁geliştirdiği	-11.2266
▁esir	-11.2267
▁Af	-11.2268
▁uygulanma	-11.2268
iyordu	-11.227
▁aldat	-11.2271
▁sözlerle	-11.2272
▁yolcuların	-11.2272
▁bozuk	-11.2274
▁deposu	-11.2274
▁piyasalar	-11.2276
▁kaptır	-11.2278
▁VER	-11.228
▁kınadı	-11.2281
▁Terzi	-11.2282
▁Gebze	-11.2282
▁Linnes	-11.2282
▁fezleke	-11.2282
̇	-11.2282
▁Barzani	-11.2282
▁Yasemin	-11.2282
▁selfie	-11.2282
▁merkezlerinde	-11.2282
▁sofra	-11.2282
▁Karayolu	-11.2283
▁Afyonkarahisar	-11.2284
▁60'	-11.2284
▁Asgar	-11.2284
▁Sokakları	-11.2285
▁Altıntaş	-11.2285
▁Aliyev	-11.2285
▁Cerattepe	-11.2286
▁1993	-11.2286
▁Josef	-11.2286
▁1995	-11.2287
▁unutulmaz	-11.2287
▁organizasyonu	-11.2287
▁Kötü	-11.2288
▁Doğal	-11.2288
▁emniyete	-11.2289
▁Tak	-11.2289
▁kapanış	-11.2289
▁ER	-11.229
▁bölümünün	-11.2291
▁Fethiye	-11.2292
kuş	-11.2292
▁saldıran	-11.2296
▁politikalar	-11.2296
▁ortamında	-11.2297
▁kararında	-11.2299
irse	-11.2301
▁gönderen	-11.2302
▁gereksiz	-11.2303
▁Donk	-11.2303
▁okunması	-11.2304
▁telefonun	-11.2304
▁Olayla	-11.2306
cular	-11.2307
▁değerlendirmek	-11.2307
▁şiddete	-11.2307
▁Hamdi	-11.2313
▁oyunculuk	-11.2314
▁haliyle	-11.2317
▁kategori	-11.232
▁vaka	-11.2321
▁oluşması	-11.2322
▁basında	-11.2323
▁Tabi	-11.2324
▁evlerini	-11.2327
▁mesajında	-11.2328
▁İz	-11.233
▁seyred	-11.2331
▁ettiğim	-11.2333
▁bulgular	-11.2334
▁Pol	-11.2334
▁sok	-11.2335
▁alınmak	-11.2335
▁cansız	-11.2336
▁işlet	-11.2342
▁bağımlılığı	-11.2343
▁karşısındaki	-11.2347
▁kullanıcılar	-11.2347
▁One	-11.2348
▁skandalı	-11.235
cilerin	-11.235
▁sokaklar	-11.2352
▁Senin	-11.2352
▁tepkisi	-11.2352
▁teminat	-11.2354
-18	-11.2354
▁kente	-11.2355
▁1.3	-11.2356
▁çocukluk	-11.2356
▁görmeye	-11.2358
▁Bakın	-11.2359
▁maddenin	-11.2362
▁etkinlikler	-11.2364
▁seçilmesi	-11.2365
▁alınma	-11.2368
▁pişman	-11.237
▁yapmaları	-11.2372
▁fiili	-11.2372
▁yüzeyi	-11.2372
▁duyu	-11.2373
Artık	-11.2374
▁kariyerinde	-11.2376
▁temelinde	-11.2376
▁genişlet	-11.2376
Büyük	-11.2378
uf	-11.238
▁direkte	-11.2382
ılıp	-11.2383
▁şanslı	-11.2384
▁karakterini	-11.2384
io	-11.2385
▁hücrelerin	-11.2385
▁koz	-11.2386
▁aileye	-11.2386
▁yaşaması	-11.2386
kurt	-11.2387
▁patlat	-11.2392
▁beklet	-11.2392
▁anlatma	-11.2394
▁Güngör	-11.2396
▁Col	-11.2397
▁Joe	-11.2398
▁olağan	-11.24
▁Talisca	-11.24
▁Turgay	-11.24
▁santimetre	-11.24
▁tahrip	-11.24
▁dolgu	-11.24
▁Beykoz	-11.24
▁Gizem	-11.24
▁İfade	-11.24
▁Halisdemir	-11.24
▁esrar	-11.24
://	-11.24
▁Hotel	-11.2401
▁Darüşşafaka	-11.2401
▁Düzce	-11.2403
▁Böylelikle	-11.2403
▁alamayan	-11.2404
▁YAŞ	-11.2404
▁Gürsel	-11.2405
▁Görmez	-11.2405
▁danışmanlık	-11.2405
▁beklediklerini	-11.2405
▁malzemeler	-11.2406
vaz	-11.2406
Ak	-11.2407
▁kaybına	-11.2407
▁bakar	-11.2409
▁trend	-11.241
▁Kes	-11.2412
▁faaliyetlerinin	-11.2413
kül	-11.2414
yeceğini	-11.2414
▁Başarılı	-11.2415
▁sorulan	-11.2415
▁Şehri	-11.2415
▁antik	-11.2417
▁Polisi	-11.2421
▁ahlak	-11.2422
▁örnekleri	-11.2422
▁adres	-11.2422
rın	-11.2422
▁Burun	-11.2425
▁güvenliğinin	-11.2425
▁yapılandırma	-11.2427
▁kaldırım	-11.2428
▁tanıyor	-11.2431
bak	-11.2432
▁kıymetli	-11.2437
▁kalkma	-11.2438
▁kaldım	-11.244
▁bağışı	-11.2441
▁bozdu	-11.2443
▁yatırımla	-11.2444
▁törenin	-11.2446
▁Dal	-11.2447
▁babasını	-11.2448
▁savcılar	-11.245
▁Şahan	-11.2452
▁geçirmeye	-11.2454
▁Özen	-11.2456
▁yıldızlı	-11.2456
ildiğini	-11.2456
▁otele	-11.2457
▁şifa	-11.2459
▁yüzey	-11.2459
başka	-11.246
▁elimizde	-11.2461
▁Ülkemizin	-11.2461
▁ret	-11.2469
lenip	-11.247
▁Gökçen	-11.2471
▁indirme	-11.2471
▁imajı	-11.2474
▁hedefe	-11.2476
▁geliştirmek	-11.2476
▁96	-11.2478
▁Başarı	-11.2479
▁Not	-11.248
▁sorgusu	-11.248
▁kurtulma	-11.2482
▁çeyreği	-11.2483
▁du	-11.2485
▁alanını	-11.2486
▁torunu	-11.2486
▁yetkililerinin	-11.2489
▁şehidimiz	-11.2489
▁olunması	-11.2491
▁beklentilerin	-11.2493
▁Müze	-11.2494
▁kalmayacak	-11.2496
▁akını	-11.2496
ston	-11.2498
DÜ	-11.2499
▁algısı	-11.2499
▁Uçak	-11.2501
▁Bit	-11.2501
▁durdurul	-11.2507
▁yetiş	-11.2507
▁ağırlığı	-11.2512
▁pe	-11.2513
TSK	-11.2515
▁görünümü	-11.2515
▁Bilgin	-11.2516
▁karşılaşmasında	-11.2516
▁Sorun	-11.2518
▁am	-11.2518
▁Kolombiya	-11.2519
▁Koordinasyon	-11.2519
▁Nilüfer	-11.2519
▁inovasyon	-11.2519
▁kelepçe	-11.2519
▁lütfen	-11.2519
▁çarşamba	-11.2519
▁Huzur	-11.2519
▁IMF	-11.2519
▁Yurdu	-11.2519
▁nihayet	-11.2519
▁General	-11.252
▁oturuyor	-11.252
▁Yüksekdağ	-11.252
▁benziyor	-11.2521
▁kalkıp	-11.2521
▁Muhalefet	-11.2521
▁edebilirsiniz	-11.2521
▁düşünerek	-11.2521
▁diliyoruz	-11.2521
▁şişe	-11.2522
▁projesini	-11.2523
▁Chelsea	-11.2523
▁sağlamaya	-11.2524
▁Kocaman	-11.2524
▁Arapça	-11.2524
▁koyarak	-11.2525
▁söylerken	-11.2525
▁KOSGEB	-11.2525
▁sorunlarını	-11.2526
▁Kazım	-11.2526
▁Başak	-11.2527
▁boğuldu	-11.2531
▁görüşmenin	-11.2535
▁seyreden	-11.2536
▁Arjantinli	-11.2537
▁mısınız	-11.2538
▁Kaymakam	-11.2538
▁dizisinin	-11.2538
▁açıp	-11.2538
▁alınmıştır	-11.2543
▁TAK	-11.2543
▁ıs	-11.2544
AŞ	-11.2544
▁sahiplerine	-11.2546
ksızın	-11.2547
▁hataları	-11.255
▁alınır	-11.255
▁devriye	-11.2554
▁Kardeşler	-11.2556
▁pankart	-11.2556
▁tabancayla	-11.2556
▁kaybedenler	-11.2557
yüzde	-11.2558
lerimi	-11.2559
▁116	-11.256
▁Efendimiz	-11.2562
▁98	-11.2564
▁uzaklaştı	-11.2564
▁belirtiler	-11.2564
▁komp	-11.2566
▁dönecek	-11.2567
▁İkili	-11.2567
▁işletmeler	-11.2568
▁haksızlık	-11.2569
▁atışları	-11.2571
▁edilmemesi	-11.2573
ps	-11.2574
▁paralar	-11.2578
▁güçlükle	-11.2578
şu	-11.2581
▁istemesi	-11.2583
▁kavuş	-11.2583
▁mensup	-11.2585
▁kabine	-11.2587
▁Hat	-11.2588
lüğünü	-11.2588
MI	-11.2593
▁okuduğu	-11.2595
▁üzerimiz	-11.2598
▁yakma	-11.2601
▁söylediğini	-11.2601
▁ayırma	-11.2603
▁sunmak	-11.2603
▁eyaleti	-11.2606
▁engelleme	-11.2608
▁nedenlerle	-11.2609
nizden	-11.2609
▁ekranı	-11.261
İzmir	-11.2613
Evet	-11.2619
▁ışığında	-11.2621
▁muamele	-11.2621
▁bayramı	-11.2623
▁sürdürdüğü	-11.2623
▁sektöre	-11.2625
▁sözleşmeli	-11.2626
▁kiloda	-11.2627
▁görüntülerini	-11.2628
▁dayanıklı	-11.2629
▁125	-11.2631
▁yapmanız	-11.2631
▁değişiklikleri	-11.2632
▁yaralanmıştı	-11.2633
▁kaldıkları	-11.2634
▁programa	-11.2635
▁etmenin	-11.2637
▁Peşmerge	-11.2639
▁karbonhidrat	-11.2639
▁talihsiz	-11.2639
▁İşadamları	-11.2639
▁okumak	-11.2639
▁plaj	-11.2639
▁ceviz	-11.2639
▁İzlanda	-11.264
▁Green	-11.264
▁yanlısı	-11.264
▁üzücü	-11.264
▁çarpan	-11.264
▁kaçarken	-11.264
▁sokaklarında	-11.264
▁hastaları	-11.264
▁taraftarlarının	-11.2641
▁gürültülü	-11.2641
▁açılıyor	-11.2642
▁tekniği	-11.2642
▁sportif	-11.2642
▁1994	-11.2642
▁başlayıp	-11.2643
▁çekip	-11.2643
▁0-0	-11.2644
▁arayıp	-11.2644
▁Hızlı	-11.2647
▁uğruna	-11.2647
▁yapmaktan	-11.2648
Kan	-11.2648
▁haberinde	-11.2648
leştiği	-11.2649
▁lif	-11.2649
▁ödenen	-11.265
▁bombalar	-11.265
▁geçit	-11.265
oğul	-11.2651
▁atılacak	-11.2653
ECEK	-11.2656
▁Seri	-11.2658
▁olabilirsiniz	-11.2658
▁saygın	-11.2659
▁statü	-11.266
▁Özlü	-11.2661
▁yollardan	-11.2661
▁OL	-11.2662
▁TÜRK	-11.2662
▁hazırlanmış	-11.2663
▁destekle	-11.2665
▁odak	-11.2672
▁kurumlarının	-11.2675
▁başlamadan	-11.2675
▁otorite	-11.2676
▁pası	-11.2677
▁edinile	-11.2678
▁18.00	-11.2678
▁faaliyetler	-11.2679
▁oyunda	-11.268
▁komuta	-11.2684
larımı	-11.2686
▁çevirme	-11.2687
İYOR	-11.2688
▁hap	-11.269
▁koltuğunda	-11.2691
▁binalar	-11.2693
▁üyelerine	-11.2693
ora	-11.2695
▁mermisi	-11.2696
▁kılına	-11.2698
▁yitiren	-11.2698
▁görevlerini	-11.2699
▁binasına	-11.27
▁eşine	-11.2701
▁Bazıları	-11.2702
▁91	-11.2702
▁durak	-11.2703
▁Teröristler	-11.2705
▁vatandaşlarının	-11.2706
▁yapmıyor	-11.2707
▁patlaması	-11.2709
▁Haberde	-11.2709
▁PARA	-11.2713
Ro	-11.2713
ebilmesi	-11.2714
▁Boru	-11.2715
▁İN	-11.2718
▁gençleri	-11.2718
▁formayı	-11.2718
▁Türklerin	-11.2719
▁Marka	-11.2721
▁araştırması	-11.2721
▁dönemlerinde	-11.2721
▁Sav	-11.2723
▁Güner	-11.2725
▁kime	-11.2726
▁niyet	-11.2727
cülerin	-11.2728
▁pişir	-11.2728
▁aşağıya	-11.2731
▁anlattığı	-11.2733
Kadın	-11.2735
acağına	-11.2735
▁Kafa	-11.2736
Yİ	-11.2737
▁(19	-11.2737
entegre	-11.2738
▁sade	-11.274
▁Çam	-11.274
▁yıldönümü	-11.2747
▁İleri	-11.2747
▁kişilerden	-11.275
▁makale	-11.2751
▁hastalığının	-11.2753
▁günlerinde	-11.2754
car	-11.2755
Çocuğu	-11.276
▁alanındaki	-11.276
▁Tatlı	-11.2761
▁Derdiyok	-11.2761
▁Kıvanç	-11.2761
▁Sezgin	-11.2761
▁tatbikat	-11.2761
▁Michel	-11.2761
▁Yakup	-11.2761
▁gözüküyor	-11.2761
▁Uyku	-11.2761
▁kuyumcu	-11.2761
▁gümüş	-11.2762
▁Marşı	-11.2762
▁tırnak	-11.2762
▁Maltepe	-11.2762
▁şehirler	-11.2764
▁görüp	-11.2764
▁rüşvet	-11.2765
▁yapılmadı	-11.2765
▁çalışacağız	-11.2765
▁atarken	-11.2766
▁balon	-11.2766
▁girerken	-11.2766
▁$	-11.2766
▁kuşak	-11.2767
▁YÖK	-11.2767
▁Of	-11.2768
▁aksi	-11.2769
▁Dur	-11.2769
abildiği	-11.277
▁1960	-11.277
▁tartışmaları	-11.2772
91	-11.2774
▁Halkın	-11.2774
▁imzalanan	-11.2775
▁derse	-11.2776
▁Buraya	-11.2777
amp	-11.2777
▁sıralamasında	-11.2779
ğına	-11.278
▁Teröre	-11.278
▁canım	-11.2781
▁kapsamına	-11.2783
▁Toplu	-11.2786
▁Cansel	-11.2786
▁Turu	-11.2786
▁romanı	-11.279
▁bitiyor	-11.2792
▁sığın	-11.2793
▁bileti	-11.2795
7'	-11.2801
▁işyerinde	-11.2801
▁gazetenin	-11.2804
▁Big	-11.2804
DO	-11.2805
▁bildir	-11.2805
▁Hor	-11.2808
▁alet	-11.2808
▁havası	-11.2809
▁evlat	-11.2809
Ar	-11.2811
▁04	-11.2812
▁alay	-11.2818
▁Endeksi	-11.2818
Gel	-11.2819
▁bildirim	-11.282
▁çıkarları	-11.2821
▁gerçekleştirme	-11.2821
▁hakimiyetini	-11.2823
▁ölme	-11.2824
▁katılacağı	-11.2826
▁Onlara	-11.2828
El	-11.283
▁çalışmayı	-11.2831
▁silahları	-11.2834
▁kuralı	-11.2835
▁16.00	-11.2837
▁yenilme	-11.2841
▁bulduğunu	-11.2842
raz	-11.2846
▁laik	-11.2846
ich	-11.2848
▁yangında	-11.2848
▁başlık	-11.285
▁etmediği	-11.285
▁ürünlerinin	-11.285
▁vuruşta	-11.285
leyici	-11.2853
▁pis	-11.2856
▁çar	-11.2856
▁anlık	-11.2856
▁yaratma	-11.2864
▁düşündü	-11.2865
▁plakası	-11.2866
▁yarısını	-11.2871
▁Canlı	-11.2872
▁elma	-11.2872
▁içeriyor	-11.2875
amaması	-11.2876
▁ulaşmış	-11.2876
▁patronu	-11.2878
▁getirilme	-11.288
▁tedavileri	-11.2882
▁uzaklıkta	-11.2882
▁çiğ	-11.2883
▁uygulamasına	-11.2884
▁mazlum	-11.2885
▁Yozgat	-11.2885
▁kalsiyum	-11.2885
▁alışkanlığı	-11.2885
▁Atiba	-11.2885
▁Kayıt	-11.2885
▁Alparslan	-11.2885
.01.2016	-11.2885
▁kesimlerde	-11.2885
▁Üretim	-11.2885
▁Pilot	-11.2885
▁komedi	-11.2885
▁Ulusoy	-11.2885
▁Amed	-11.2885
▁geçin	-11.2885
▁vurularak	-11.2885
▁Pendik	-11.2886
lerarası	-11.2887
▁inceleyen	-11.2887
▁Rahmi	-11.2887
▁arkadan	-11.2887
▁yerleştirilen	-11.2887
▁sunuldu	-11.2887
leyin	-11.2889
▁artar	-11.2889
▁gereğince	-11.2889
▁Kardemir	-11.2891
▁duydum	-11.2891
▁muhtemelen	-11.2895
▁Dost	-11.2896
▁Analistler	-11.2898
memiş	-11.2898
▁For	-11.2899
▁medyadan	-11.2899
▁sürerek	-11.2899
▁Demirci	-11.2903
▁düşündüm	-11.2903
▁dolaşım	-11.2904
▁hamlesi	-11.2906
▁bölgeleri	-11.2908
▁Şan	-11.291
▁çök	-11.2913
emeyeceği	-11.2916
ast	-11.2918
reel	-11.2919
▁verilir	-11.2919
▁markaların	-11.2919
▁dille	-11.2919
▁vatandaşlarına	-11.2919
▁Kuran	-11.2924
▁iste	-11.2925
▁yaşanma	-11.2925
ınızı	-11.2926
▁Günde	-11.2927
▁çıkaracak	-11.2928
▁arkadaşlarıyla	-11.2932
▁sürücüler	-11.2933
▁görüşmelere	-11.2936
HR	-11.2937
▁hareketsiz	-11.2937
▁KAL	-11.2938
▁yataklık	-11.2944
▁Gra	-11.2945
▁yerleştirme	-11.2946
Ara	-11.2947
▁geçmesine	-11.2951
ling	-11.2951
▁Görgü	-11.2951
▁yaralıların	-11.2952
▁kazanmış	-11.2952
▁mucize	-11.2955
▁yapıcı	-11.2955
▁hormon	-11.2955
▁yukarıda	-11.2956
▁cm	-11.2957
▁Patlama	-11.2957
▁DHA	-11.2957
▁Fo	-11.2957
▁2010'	-11.2959
▁gruplara	-11.2961
▁mayın	-11.2962
▁Ürün	-11.2966
▁hakkına	-11.2968
▁değişmesi	-11.297
▁ilçelerde	-11.2971
▁kuvvetleri	-11.2972
▁kule	-11.2973
▁kavuştu	-11.2973
▁formül	-11.2974
▁temasları	-11.2977
▁bırakıl	-11.2977
▁kupada	-11.2978
▁tanıdığı	-11.2983
▁tez	-11.2984
▁çorba	-11.2984
▁bastır	-11.2985
▁yayım	-11.2985
▁Koalisyon	-11.2988
▁yetmez	-11.2988
▁bombanın	-11.2993
İD	-11.2993
unuz	-11.2995
▁kuruyor	-11.2995
▁demokrasinin	-11.2996
▁ileriye	-11.2999
▁Yara	-11.3002
▁kimliğini	-11.3004
▁traktör	-11.3004
aklı	-11.3005
▁Filmin	-11.3007
▁dalgası	-11.3009
▁ikram	-11.3009
▁barışı	-11.3009
▁posta	-11.301
▁Komando	-11.301
▁Mistura	-11.301
▁Netanyahu	-11.301
▁hesaba	-11.301
▁intikal	-11.301
▁oksijen	-11.301
▁Şükür	-11.301
▁Numara	-11.301
▁GATA	-11.301
▁Ünsal	-11.301
▁soğan	-11.301
▁polislere	-11.301
▁Kudüs	-11.301
▁Gültekin	-11.301
▁OLDU	-11.301
▁belirleyici	-11.301
sür	-11.301
▁etkiledi	-11.3011
▁ortaokul	-11.3011
▁mo	-11.3011
▁Feyenoord	-11.3012
▁Yarım	-11.3012
▁beklerken	-11.3013
▁Terzioğlu	-11.3013
▁Karadağ	-11.3013
▁seçtiği	-11.3014
▁planlayan	-11.3014
▁Erbil	-11.3014
▁planını	-11.3014
sto	-11.3015
▁telefonları	-11.3015
▁getirip	-11.3016
▁damgasını	-11.3017
▁havacılık	-11.3017
▁bakımdan	-11.3018
▁Radyo	-11.3018
▁onlardan	-11.3022
▁İm	-11.3023
▁sayfalık	-11.3024
▁1.6	-11.3024
▁Bölüm	-11.3026
▁Düğün	-11.3027
▁gerçekçi	-11.3028
▁tabir	-11.3029
▁maddelerin	-11.3029
▁kuyu	-11.3029
▁Milletin	-11.3029
▁yaşanmış	-11.303
▁Gerçekten	-11.3031
▁işlerin	-11.3032
▁II	-11.3032
▁Konuşma	-11.3034
▁ettirdi	-11.3035
▁elektrikli	-11.3036
▁sorguları	-11.3036
▁sarma	-11.3037
ıyordu	-11.3043
▁doküman	-11.3045
amayacağını	-11.3046
▁sunul	-11.3046
▁uçu	-11.3049
▁hatırlatıl	-11.305
graf	-11.3051
▁evlerin	-11.3053
YAN	-11.3056
▁istikrarlı	-11.3056
▁düşünceleri	-11.3056
meyeceğini	-11.3057
▁giderleri	-11.3059
▁Tipi	-11.306
▁kardeşlerim	-11.3061
ılabilir	-11.3061
▁aylığı	-11.3062
▁AD	-11.3064
▁kast	-11.3064
NI	-11.3064
▁Çağrı	-11.3065
▁Geç	-11.3069
▁sorulara	-11.307
▁anımsata	-11.307
lanınca	-11.3072
▁şifalar	-11.3073
▁faaliyete	-11.3075
▁bilinçli	-11.3076
▁yapacağım	-11.3076
▁kral	-11.3077
▁Sp	-11.308
▁(1	-11.3083
▁kazasında	-11.3085
▁bulunul	-11.3088
▁yolların	-11.3088
▁heyecanla	-11.309
▁taşınması	-11.309
▁mobilya	-11.309
▁kalmıyor	-11.3092
▁özgün	-11.3092
▁kadrosun	-11.3095
▁00	-11.3095
▁çekecek	-11.3096
▁ısrarla	-11.3097
▁Vo	-11.3097
▁saldırılarında	-11.3099
söz	-11.3099
▁Tra	-11.3102
▁binaya	-11.3104
▁ulaştığını	-11.3106
▁fuarda	-11.311
▁açılışında	-11.3111
▁duyuyor	-11.3112
▁gözlerini	-11.3113
red	-11.3114
MO	-11.3118
▁Bankalar	-11.3119
▁çocuğunu	-11.3119
▁şehirlerde	-11.3119
▁karşılamak	-11.3121
▁KO	-11.3122
mel	-11.3123
▁Kir	-11.3123
▁Boğazı	-11.3124
▁öğretmenlerin	-11.3124
▁kriterleri	-11.3126
▁öncesine	-11.3126
▁mıdır	-11.313
▁mesleki	-11.3131
▁birim	-11.3132
▁çalışmalarında	-11.3133
sidir	-11.3136
ükmünde	-11.3136
▁darbenin	-11.3136
▁Necati	-11.3136
▁dağılımı	-11.3136
▁muhtaç	-11.3136
▁söyleyeyim	-11.3136
▁tahrik	-11.3136
▁tereddüt	-11.3136
▁Niğde	-11.3136
▁stüdyo	-11.3136
▁İzmit	-11.3136
▁komik	-11.3137
▁acımasız	-11.3137
▁kullanılamaz	-11.3137
▁söyleyecek	-11.3137
▁Ağabey	-11.3137
▁meslektaşları	-11.3137
▁dudak	-11.3137
▁talip	-11.3137
▁görülebilir	-11.3137
▁sunma	-11.3137
▁hasret	-11.3138
▁SUV	-11.3138
▁Hekim	-11.3138
▁Büyükçekmece	-11.3138
▁Peter	-11.3139
▁Gayrimenkul	-11.3139
▁Dolmabahçe	-11.3139
▁Castro	-11.314
▁saldırılara	-11.314
▁Örgütlü	-11.314
▁seans	-11.314
▁Kürdistan	-11.314
▁Akçay	-11.3141
▁Komşu	-11.3141
▁hedefleyen	-11.3141
▁Porto	-11.3142
▁ayırt	-11.3142
▁ilkokul	-11.3142
▁Tuğba	-11.3143
▁Aktaş	-11.3143
▁Ataman	-11.3143
▁kesilen	-11.3143
▁tayin	-11.3143
▁gösterge	-11.3144
▁kargo	-11.3144
▁dayanan	-11.3144
▁yıldızın	-11.3144
▁yapılar	-11.3145
▁gideceğiz	-11.3145
▁sürmesi	-11.3145
▁yumuşak	-11.3146
▁çıkarıp	-11.3147
▁yenen	-11.3148
▁Yarışma	-11.3148
▁bitirme	-11.3148
▁gideceği	-11.3149
▁yazılan	-11.3149
▁fiber	-11.315
▁götüren	-11.315
▁sayısına	-11.3151
▁yaşamış	-11.3151
▁çiftinin	-11.3151
▁atölye	-11.3151
▁harekâtı	-11.3151
olojik	-11.3153
▁bilerek	-11.3154
▁eskiden	-11.3155
▁düşüşle	-11.3155
▁Hayal	-11.3156
▁olmanız	-11.3158
rtesi	-11.3159
▁yaşat	-11.3159
lerimizden	-11.3159
▁hu	-11.3163
▁karadan	-11.3164
▁etrafı	-11.3164
▁programın	-11.3164
ting	-11.3167
▁genelge	-11.3167
▁yılki	-11.3169
▁Tasarım	-11.317
▁liderliğini	-11.317
▁isterse	-11.317
▁Den	-11.3172
▁koordinasyon	-11.3174
▁çevril	-11.3174
▁tütün	-11.3174
▁erkeklerde	-11.3175
▁düzel	-11.3176
▁Kimlik	-11.3177
yeni	-11.3179
▁ardında	-11.3179
rom	-11.3181
▁Heyeti	-11.3182
▁artıracak	-11.3185
CU	-11.3186
ydım	-11.3187
▁Vergisi	-11.3193
▁konuşmaya	-11.3199
▁ajan	-11.3199
▁tahta	-11.3201
▁alınmasına	-11.3202
▁Gökçe	-11.3204
▁sağcı	-11.3204
▁Maria	-11.3205
kale	-11.3208
DK	-11.3208
▁2-2	-11.3209
▁kana	-11.3211
▁ad	-11.3213
▁Çalışan	-11.3213
▁senedir	-11.3216
muştur	-11.3216
▁maddesinin	-11.3217
▁barikatların	-11.3222
▁soruların	-11.3222
▁gençlere	-11.3223
▁eşinden	-11.3224
▁yansıması	-11.3227
▁Prens	-11.3227
▁yönetme	-11.3228
▁açıklarında	-11.3228
▁hükümleri	-11.323
▁yerlerine	-11.3231
▁çağrıda	-11.3231
▁kontrat	-11.3232
▁kapatmak	-11.3233
üç	-11.3234
▁kesen	-11.3238
▁grubunun	-11.3238
CHP	-11.3238
▁Dünyaya	-11.3239
▁hedeflerine	-11.3241
▁aklın	-11.3241
mam	-11.3242
ph	-11.3242
ografi	-11.3243
▁araştır	-11.3244
▁Lale	-11.3245
▁Kurum	-11.3245
▁kalmasını	-11.3246
▁masal	-11.3248
▁silahların	-11.3249
▁fiyatının	-11.3249
▁başarısını	-11.3249
▁Size	-11.3249
▁geçirmesi	-11.325
▁14.00	-11.3251
▁tapu	-11.3252
▁yatma	-11.3252
▁çözüme	-11.3253
▁arda	-11.3254
▁teklifini	-11.3255
▁Seda	-11.3257
▁süreçleri	-11.3258
▁uğradığı	-11.3261
ble	-11.3264
▁Nevşehir	-11.3265
▁bambaşka	-11.3265
▁rüzgâr	-11.3265
▁Kavşağı	-11.3265
▁temyiz	-11.3265
▁İBB	-11.3265
▁düşünülüyor	-11.3265
▁sopa	-11.3265
▁evlerde	-11.3265
▁belirleyen	-11.3266
▁Sezen	-11.3266
▁kuzu	-11.3266
▁görünür	-11.3266
▁oğulları	-11.3267
▁müzesi	-11.3267
▁etkilenme	-11.3267
▁hazine	-11.3268
▁Yanlış	-11.3268
▁devamlı	-11.327
▁alkollü	-11.327
▁İnceleme	-11.3272
▁kurarak	-11.3274
▁seçmen	-11.3275
▁kamuya	-11.3275
▁içecek	-11.3276
▁ekipte	-11.3276
▁getiriliyor	-11.3276
▁Türkan	-11.3277
▁bozul	-11.3278
▁yazmış	-11.3278
▁Annem	-11.3281
▁takipçisi	-11.3281
▁olacağına	-11.3286
▁böylesi	-11.3286
▁gözlük	-11.3286
▁miyiz	-11.3288
▁yakaladığı	-11.3289
▁endişesi	-11.3289
▁j	-11.329
▁paylaşıldı	-11.329
▁Müdürlüğünden	-11.3293
▁ülkelerinden	-11.3294
▁öğrenim	-11.3294
▁soktu	-11.3295
▁kupayı	-11.3297
▁pazarda	-11.3298
▁sınavları	-11.3299
▁denetimi	-11.33
▁ayağında	-11.3303
▁zorunluluğu	-11.3305
lenirken	-11.3306
▁vuruş	-11.3307
▁bağladı	-11.3309
▁beslen	-11.331
▁eliyle	-11.331
▁çarpı	-11.3311
▁Veri	-11.3311
▁tanıştı	-11.3315
▁oluşturacak	-11.3317
▁militanı	-11.3318
▁gösterileri	-11.3319
GB	-11.332
▁Pala	-11.3321
▁aktarma	-11.3321
▁kamuoyunun	-11.3323
▁gücünün	-11.3323
▁Yakası	-11.3327
▁burnu	-11.3328
rio	-11.333
▁yemekleri	-11.3334
ıncı	-11.3334
▁Aker	-11.3337
▁üçlü	-11.3338
▁erkeklerin	-11.3339
bilen	-11.334
▁yıllara	-11.3341
▁oluşum	-11.3342
▁3,5	-11.3343
▁şiiri	-11.3343
▁Olayda	-11.3344
▁cihazların	-11.3344
▁programının	-11.3344
▁desteklediği	-11.3347
▁2007'	-11.3348
▁Balkan	-11.3348
▁başındaki	-11.3355
▁Hande	-11.3358
▁Üye	-11.3359
▁Altının	-11.336
ulmuş	-11.3362
▁kurdukları	-11.3365
▁toparlanma	-11.3365
▁seçil	-11.3368
Hayır	-11.3368
Trabzonspor	-11.3368
▁Görüntü	-11.3369
▁Rektörü	-11.3371
▁tanışma	-11.3371
▁oyuncuya	-11.3373
▁Başkanımız	-11.3373
▁yasama	-11.3373
▁170	-11.3374
muzda	-11.3376
▁tablosu	-11.3376
nüz	-11.3378
▁sonuçlara	-11.3383
▁balığı	-11.3383
bilim	-11.3384
▁düğünü	-11.3384
▁yazıları	-11.3392
cuk	-11.3392
▁gürültü	-11.3393
▁demokrat	-11.3393
▁hedefine	-11.3394
▁Strateji	-11.3395
▁cesur	-11.3395
▁meşgul	-11.3395
▁kaçakçılığı	-11.3395
2016-2017	-11.3395
▁maksadıyla	-11.3395
▁Tunus	-11.3395
▁Keskin	-11.3395
▁Center	-11.3395
▁özgüven	-11.3395
▁Boyko	-11.3395
▁oturup	-11.3395
▁Dinç	-11.3396
şak	-11.3396
▁Tarkan	-11.3396
▁kayıpları	-11.3396
▁konulması	-11.3396
▁işgücü	-11.3397
▁oluştuğunu	-11.3397
▁sembol	-11.3397
▁provokasyon	-11.3397
▁Duygu	-11.3397
▁aralıksız	-11.3397
▁araçlara	-11.3398
▁Çukurca	-11.3399
▁tedbirlerin	-11.3401
▁Ivan	-11.3402
▁tutarak	-11.3403
▁kavgası	-11.3403
▁getirdik	-11.3404
▁depremin	-11.3404
▁terapi	-11.3405
İnsan	-11.3406
▁yaşayacak	-11.3406
▁ofisi	-11.3408
▁gözünde	-11.3409
▁heykeli	-11.3411
▁mahallelerinde	-11.3411
▁uzaklıktaki	-11.3411
▁yürü	-11.3412
ASI	-11.3412
▁çıkararak	-11.3412
▁tutmaya	-11.3414
▁güçlerimiz	-11.3414
▁Jong	-11.3415
▁mimar	-11.3416
▁kaybola	-11.3417
▁dikkatini	-11.3418
▁ilçeye	-11.342
▁sesle	-11.342
▁yazarları	-11.3424
Kiralık	-11.3425
▁Varlık	-11.3427
▁grubunda	-11.3428
mişler	-11.3429
orgeneral	-11.3429
▁davalar	-11.343
▁Süre	-11.3431
▁Alay	-11.3433
▁Nas	-11.3434
▁dakikalar	-11.3434
▁midir	-11.3437
▁işçisi	-11.3438
▁niyetli	-11.3438
▁diplomasi	-11.3439
▁çalışmasını	-11.344
▁yaralandığını	-11.344
▁Soma	-11.3441
▁Belli	-11.3441
laşan	-11.3442
▁aşaması	-11.3442
▁Cin	-11.3443
▁artırıl	-11.3443
▁sorgulanma	-11.3446
▁hadise	-11.3446
▁Derya	-11.3447
▁boyut	-11.3447
▁gelmeden	-11.3448
▁duyurusu	-11.3449
▁misin	-11.3451
▁TC	-11.3453
▁hissedil	-11.3454
▁sözleşmesini	-11.3454
▁örnekler	-11.3456
▁kazanmıştı	-11.3457
▁kork	-11.3462
▁çalışanlarının	-11.3462
▁istemişti	-11.3462
▁tok	-11.3463
ölü	-11.3463
TS	-11.3466
▁Alt	-11.3466
▁aks	-11.3467
▁iptali	-11.3468
▁korkma	-11.3469
▁başları	-11.3472
oğ	-11.3473
▁Sanık	-11.3474
▁arandığı	-11.3475
▁sakla	-11.3476
Benz	-11.3479
▁yas	-11.348
bildi	-11.348
▁ağacı	-11.3481
▁kurumlarında	-11.3482
▁bahsettiği	-11.3484
▁ağladı	-11.3484
▁sırrı	-11.3485
zade	-11.3486
▁etse	-11.3486
▁yönetmelik	-11.3486
▁Sana	-11.3487
▁Başsavcı	-11.3487
▁belirtmişti	-11.349
▁elimde	-11.3491
▁takvim	-11.3492
▁yargılandığı	-11.3498
fu	-11.3499
▁savaşta	-11.3501
▁itirazı	-11.3502
▁sendromu	-11.3504
▁öldürdüğü	-11.3504
▁pazarlık	-11.3508
▁tempo	-11.351
San	-11.3511
▁devamında	-11.3514
▁gerileme	-11.3516
▁yaparsa	-11.3518
▁dizel	-11.3519
▁suya	-11.3519
▁kuzeyi	-11.3521
▁teröristlerle	-11.3522
▁suçları	-11.3523
▁ünite	-11.3523
diniz	-11.3523
▁mikro	-11.3523
▁bütünlüğünü	-11.3523
▁düşündüğü	-11.3524
▁yoksul	-11.3525
▁Kırklareli	-11.3526
▁Smith	-11.3526
▁sanırım	-11.3526
▁zulüm	-11.3526
-7	-11.3526
▁dâhil	-11.3526
▁karmaşık	-11.3526
2016-02-1	-11.3526
▁Şeref	-11.3526
▁Bağcılar	-11.3528
▁anlaşılıyor	-11.3528
▁Başbakanımız	-11.3529
▁ideoloji	-11.353
▁Enflasyon	-11.353
▁Habertürk	-11.353
▁Yener	-11.3531
▁Bakır	-11.3531
▁Sefa	-11.3531
▁yayılan	-11.3532
▁afiş	-11.3532
▁Bilgiç	-11.3532
▁neyi	-11.3532
▁Günay	-11.3532
▁tribünde	-11.3533
tiğini	-11.3534
▁darbecilerin	-11.3534
▁Qu	-11.3534
▁Hint	-11.3535
▁Hersek	-11.3537
▁dönümü	-11.3539
cal	-11.354
▁akrabaları	-11.354
▁edilebilecek	-11.354
▁yavaşlat	-11.3541
▁+	-11.3541
lendirilmesi	-11.3541
▁yargılanma	-11.3543
▁idaresinde	-11.3543
▁kurulduğu	-11.3544
▁medyaya	-11.3544
▁başlığıyla	-11.3545
▁dahilinde	-11.3548
▁fırsatları	-11.3548
Bana	-11.3549
▁sorununu	-11.3551
▁katta	-11.3552
▁sanayici	-11.3555
▁çıkarmayı	-11.3556
▁bilinç	-11.3558
▁çöktü	-11.3558
Ah	-11.3559
▁kayıtlara	-11.3559
▁değişikliğ	-11.356
▁sıklığı	-11.356
▁gebelik	-11.3562
▁anları	-11.3562
▁alanın	-11.3564
▁ARA	-11.3567
vat	-11.3569
▁geliştirdi	-11.3571
▁sürüklen	-11.3572
▁Otur	-11.3572
▁olursak	-11.3574
▁değilse	-11.3576
▁Sevgililer	-11.3576
▁favori	-11.3579
▁kurulmuş	-11.3579
▁yitirdiği	-11.3581
▁sağlandığı	-11.3584
▁sahibinin	-11.3585
jo	-11.3585
▁doz	-11.3588
vir	-11.359
▁söylemleri	-11.359
▁paylaşıyor	-11.359
▁kadarıyla	-11.3591
▁darbeciler	-11.3592
▁Tor	-11.3593
▁direniş	-11.3595
▁büyümeye	-11.3597
▁kırılma	-11.3599
▁dengeli	-11.3599
▁teröristleri	-11.3599
▁soluk	-11.3599
mamız	-11.3601
EF	-11.3601
tuğ	-11.3601
▁Hazır	-11.3602
▁noktalarda	-11.3603
▁olanları	-11.3604
▁sezonunu	-11.3604
MAK	-11.3604
▁Yo	-11.3607
acağımız	-11.3607
▁ucu	-11.3609
▁hareketle	-11.3609
▁ayrıldığı	-11.361
▁gr	-11.3612
▁tehditler	-11.3616
▁girişimiyle	-11.3617
▁aktardığı	-11.3617
▁galeri	-11.3619
▁sürdürme	-11.362
▁üretmek	-11.3621
▁çaresiz	-11.3624
▁gazetecinin	-11.3624
▁artırır	-11.3627
▁tesisleri	-11.3628
▁gerçekleştirmek	-11.3629
▁yükleme	-11.3629
▁Beh	-11.363
Sinema	-11.3633
▁engelle	-11.3633
▁özeti	-11.3638
▁bacağı	-11.3642
▁nedenleri	-11.3643
▁görüşleri	-11.3646
▁yaratıl	-11.3647
▁Mes	-11.3648
▁birikim	-11.3648
▁alanlara	-11.3648
▁turunda	-11.3648
▁helikopterle	-11.3649
▁simge	-11.3649
▁muhalefetin	-11.3649
▁geçirmiş	-11.365
▁fırsatta	-11.3651
LERİN	-11.3654
▁ederler	-11.3655
▁Tav	-11.3655
▁acısı	-11.3656
▁oluştuğu	-11.3658
▁Pamuk	-11.3659
▁Cevdet	-11.3659
▁Kuşadası	-11.3659
▁Schengen	-11.3659
▁federal	-11.3659
▁mağara	-11.3659
▁rutin	-11.3659
▁Özyakup	-11.3659
▁çarparak	-11.3659
▁şehre	-11.3659
▁gü	-11.366
▁Vedat	-11.366
▁patent	-11.366
▁mantar	-11.3661
▁Atina	-11.3661
▁Panama	-11.3661
▁Cook	-11.3662
▁sıkışan	-11.3663
▁tüy	-11.3663
▁Giriş	-11.3663
▁Profesyonel	-11.3664
▁Dikkat	-11.3664
▁ilkeleri	-11.3664
▁devral	-11.3665
▁anlatarak	-11.3666
▁geçildi	-11.3667
▁testleri	-11.3667
▁dolduran	-11.3667
▁konuğu	-11.3667
▁özelliğini	-11.3667
▁yardımların	-11.3668
▁filan	-11.367
▁yönetime	-11.367
▁getiril	-11.367
naz	-11.3671
▁otoriter	-11.3673
▁seyrediyor	-11.3679
▁olursunuz	-11.3681
yel	-11.3682
▁koalisyonun	-11.3682
tmek	-11.3684
▁görüştük	-11.3685
▁Lütfi	-11.3686
▁bayıl	-11.3687
Gün	-11.3688
▁yetmezliği	-11.3689
▁yöntemlerle	-11.369
▁danışmanı	-11.369
▁söyledik	-11.3692
▁sü	-11.3693
▁Festival	-11.3693
▁eylemin	-11.3694
▁insansız	-11.3694
▁izleri	-11.3694
▁bozulması	-11.3695
▁arkadaşının	-11.3696
▁yapmıştır	-11.3698
▁yurttaş	-11.37
▁riskler	-11.3704
▁ailesiyle	-11.3708
▁dükkanı	-11.3708
cılığı	-11.3709
▁Etki	-11.371
▁Bağlar	-11.371
▁çözülmesi	-11.3711
▁kısıt	-11.3711
▁başkası	-11.3718
▁düşmanlığı	-11.3719
yacağım	-11.3721
▁görüşünü	-11.3722
▁Törene	-11.3724
▁eşsiz	-11.3724
▁Sahne	-11.3726
▁vermediği	-11.3726
▁bağımsızlığı	-11.3727
▁kullandığını	-11.3728
▁çözme	-11.3729
▁istekleri	-11.3732
▁gişe	-11.3734
▁çevresi	-11.3735
▁otomobille	-11.3735
▁saniyede	-11.3737
▁20.00	-11.3739
▁Pazarlama	-11.3742
RI	-11.3744
▁getirildiğini	-11.3745
▁Mis	-11.3745
▁kazanın	-11.375
▁söylemiş	-11.375
ğım	-11.3752
▁mekanizma	-11.3753
▁çizil	-11.3753
▁Dair	-11.3758
▁sığınma	-11.3762
▁Kamp	-11.3762
▁milletimize	-11.3763
▁noktadan	-11.3764
100	-11.3765
park	-11.3766
▁taşıdığını	-11.3768
Bütün	-11.3768
▁Ag	-11.3769
silahlı	-11.3772
▁yaptıktan	-11.3774
▁107	-11.3776
▁düzensiz	-11.3778
▁espri	-11.3779
▁saldırılarına	-11.378
Er	-11.378
▁karıştığı	-11.3788
▁yangını	-11.3788
▁Muhtar	-11.3789
▁mekanizması	-11.3789
▁merkezde	-11.3789
▁kuşatma	-11.3791
▁gitmişti	-11.3792
▁örtü	-11.3792
▁20.00'	-11.3792
▁ilerliyor	-11.3792
▁Che	-11.3793
▁faktör	-11.3794
▁Alex	-11.3794
▁çekirdek	-11.3795
.09.2016	-11.3795
▁Kampanya	-11.3795
▁acele	-11.3795
▁Ruhani	-11.3795
▁çağdaş	-11.3795
▁Çağdaş	-11.3795
▁Serhat	-11.3796
▁etkileyecek	-11.3796
▁Bayrampaşa	-11.3796
▁altyapısı	-11.3796
▁düşünmüyorum	-11.3796
▁korsan	-11.3796
▁zihinsel	-11.3796
▁çile	-11.3796
▁yaprak	-11.3797
▁kaybederken	-11.3797
▁World	-11.3797
▁çekerken	-11.3797
▁uzaklaştırdı	-11.3797
▁organik	-11.3798
▁topladığı	-11.3798
▁Global	-11.3799
▁Akgül	-11.3799
▁hareketler	-11.3799
▁Milan	-11.3802
mayacağız	-11.3802
▁sağlanıyor	-11.3803
▁asır	-11.3803
▁yanlarında	-11.3803
▁başlanan	-11.3805
▁pilotu	-11.3807
▁yaşattı	-11.3807
▁deniyor	-11.3808
▁ekipman	-11.3809
dıktan	-11.381
▁işlerde	-11.3811
▁şüphesiz	-11.3812
▁ten	-11.3812
▁tarafsız	-11.3814
▁Görüşme	-11.3815
▁mahallesinde	-11.3815
▁dengesini	-11.3816
▁üretiminin	-11.3819
hra	-11.3819
▁dostum	-11.3821
▁tutulma	-11.3822
▁değerinin	-11.3822
▁otomobiller	-11.3822
▁cihazları	-11.3824
Bak	-11.3825
sha	-11.3825
▁ezan	-11.3828
▁bayrakları	-11.3828
bildiği	-11.383
▁Yay	-11.3832
▁kapasiteli	-11.3832
bileceği	-11.3832
▁ko	-11.3833
Onlar	-11.3834
▁Kamuoyu	-11.3835
▁kota	-11.3835
▁sınıfta	-11.3836
▁topun	-11.3836
▁bulmaya	-11.3838
▁eleştir	-11.384
▁oyunculara	-11.3841
uç	-11.3841
▁Bah	-11.3842
▁yandaşları	-11.3842
[...]
