#version: 0.2
  б
  х
и й
а а
а й
э э
. 

  т
а н
а р
о л
  н
у у
 б ай
а л
  г
ий н
ү ү
э н
а г
э г
  д
э р
о н
ү й
  с
э л
  а
  з
 б ол
и л
ы н
ө ө
а х
  м
о р
и н
э д
э х
г үй
 н ь
г аа
ий г
  ч
о о
 х ү
уу л
а д
с ан
  ш
  ү
н а
а м
  у
ө р
ө н
ээ р
  я
  ю
о г
э ж
о х
о й
 б и
у р
ы г
аа р
 бай на
ө г
э й
с эн
и р
э м
т ай
 ю м
т эй
ж ил
 б ү
уу д
и х
ө л
г ийн
о д
  ор
н ий
  ц
а с
и г
  л
 бай гаа
үү л
н д
д аг
өө р
г а
 г эж
н э
 х эр
н ы
о м
. .
 х у
э в
эн э
а в
 т у
т г
 а в
л аг
д аа
  ө
а ж
ээ д
 х ар
 г ар
 бай х
и д
үй л
он г
 н эг
аа с
 м эд
т ой
ээ с
 а м
 хэр эг
? 

  өөр
с он
  эр
үү д
ө х
аа д
ө в
 х о
а т
э с
  ол
 х ам
 б у
 х ий
 х эл
 а жил
  энэ
Э нэ
ж ээ
ээ л
 бай сан
е р
ал т
  ир
ь д
 хү н
л с
х ан
 я в
и м
  ал
.. .

  он
 с ай
  "
д ээ
л аа
  уу
д эг
  ар
н о
а я
  в
  их
 ху в
 с ан
о в
үү х
 ү з
 бол ох
үү н
  Б
ан д
онг ол
э сэн
 хү р
д ал
2 0
 д ар
 б од
  ж
д өр
ч л
у л
үү с
  к
ий м
өн г
 д ээр
  өг
  эх
эн д
 б ар
г ээ
  Х
г ээр
  М
а ш
 т ал
  үйл
 бү р
 у лс
  жил
 т эр
гаа р
 бол но
 г эд
уу р
г уул
 а с
о ор
 ү е
м ар
  А
х ий
а з
 т өр
 ц аг
 ч ад
 в э
 бай даг
л ах
ч их
 д ээ
 з үйл
 би д
л ээ
х ай
ү р
э тг
л г
  ил
 т ог
ц аа
с өн
м н
 ю у
о ж
  ан
 т а
 т ан
ин ь
м үүс
л эг
 г эсэн
ч ил
  Т
 с ур
 з өв
уул ах
 х эм
 у р
үү р
Б и
 я р
у т
д л
г ал
ар ын
 бү х
 ол он
аа н
ш иг
  -
 ш үү
ё р
 г аз
ү н
 хү мүүс
ж л
ч ин
  ё
аг д
 я мар
ох и
 б аг
ом ж
өө д
 ё с
 т өл
 ү н
ин ий
 би ш
о с
оо д
 ш ин
и ж
 з ар
 ту с
  ...

д в
  эм
ах гүй
 г эр
л эл
 ам ьд
г ийг
Т эр
 м аш
и с
ол д
 хо ёр
л ийн
н г
о т
эг д
он д
л д
  ой
 х үүх
 хү с
ө д
 бол омж
лаг а
 ө мн
 х ол
 эр х
у й
  С
  У
 гэд эг
в эл
э т
ч ид
  өр
ай р
 ас ууд
ан ай
 бай гуул
аа л
 н ар
 хам гийн
 хэрэг тэй
  өн
э ц
 бол он
оо с
 ү р
  эс
Х ар
 д ах
г д
 сай н
х эн
 бол г
эх дээ
т ээ
ай л
р ал
үүл эх
 з ор
 дар аа
20 1
 ш иг
 х эд
л эх
 с он
 бол сон
 ту хай
 н ий
! 

и к
 т ав
и ш
 хол б
- ын
 н эр
 хий х
  од
д ог
Т эг
 а шиг
 бу с
б ар
 д аа
 ан х
дв эр
  (
 ёс той
 с этг
в ал
 бол ов
 у даа
ч д
л ог
г эл
и у
 өмн ө
уул ж
 т эд
 х ур
е н
га цаа
 ш ий
 тал аар
 бай ж
ч ир
л өг
1 0
 ч инь
г эж
ам ж
ээ н
Б ид
  үү
Т а
 ху гацаа
д оо
л аж
 д у
 х ор
өнг ө
 д эл
 н ам
 ав ах
  Н
 үе д
 бол ж
 д уу
  о
 д ур
 з ур
эг тэй
  р
үүн ийг
 мэд ээл
ая р
 з ас
 М онгол
эх ээр
  Д
и т
э з
у с
в ар
 х уул
 н ас
 у н
ан г
ол ц
  и
 с у
 т ү
үү ний
 ө дөр
 газ ар
  З
 од оо
 би е
 т ом
 бай р
 ил үү
Хар ин
ан а
 хэм жээ
 с онг
ийн х
 хам т
 би ч
аар д
 х я
ээ ж
ө с
 б өг
 з ал
г эд
 он ы
л оо
ил ц
ан ц
эх гүй
  эд
 н өх
 б ас
  п
Е р
 ү г
 т од
ай г
эм ж
 хий ж
  Э
с н
  Г
 бу й
 г ээд
 а ж
эл т
 т эм
 жил ийн
  ин
 хув ьд
 ш аард
т ын
л ал
 х эн
 х өг
  ийм
 с арын
и ул
  ер
өн хий
е с
  О
ан ы
 г эх
Х эр
д р
ь ж
 ав ч
 бөг өөд
 тог т
М онгол
өө с
 шин э
 к ом
г эн
ог д
ө м
 ой лг
х ал
 б эл
  ай
Г эхдээ
Т ийм
и в
 с ал
өл өө
 з охи
 ний т
о он
х ийн
а сан
 з ах
ай н
 он д
 х он
 хү нд
.. .
л ын
х өн
1 9
д аж
у н
 м инь
 нэг эн
 би з
ад аг
 байх гүй
 б ил
 хү лээ
 сэтг эл
т эл
аа гүй
 ө в
 ал б
п ан
 с уу
 т өс
 б ий
р ын
 х аа
лаг аа
и ч
 т оо
 с ар
 д от
н ийг
ш ин
 амьд рал
ор х
н ууд
т ад
ү гээр
 д ав
 н ай
ч ийн
 хү ний
 г ад
га ж
аг аад
Т эд
 з ам
тг эл
в ан
 х эв
л ыг
0 0
 а жл
А Н
с д
 асууд ал
 г иш
уул сан
 х айр
 сан ал
 б э
 улс ын
 ш ал
  аа
х аа
 сай хан
г ах
ар т
т р
 х эс
О доо
 хув ь
 х ой
 н эм
үүл ж
ох ир
 хүүх д
  өнг
 м иний
өө дөр
 т охи
Э р
орх ой
  .

х үү
  И
 ажил лагаа
 н ад
 ар га
 м анай
 х ал
 бай дл
 бил ээ
 т ат
 хон ог
Ө өр
" 

 ху дал
М өн
 боломж той
ч үүд
алт ын
 д аг
 төл өө
  уул
 б аяр
 бай лаа
 у л
д сан
 м өн
о ол
 н ут
ө ж
 тод орхой
 т ур
 ком пан
 эх эл
гаа н
ис т
 тог л
 ор олц
о ё
и а
жил т
 х анд
ч ууд
 ту лд
 у т
 ир гэд
 бү тээ
өл т
д ах
  эн
 б ат
 гэд гийг
 бү т
 сан аа
уу н
ч р
ир х
 бай дал
 т эг
 өнг өр
 ор он
 хо ол
й м
 хүр тэл
ил г
у г
 хэр хэн
 хэд эн
 т өг
 эс вэл
 өөр чл
  ид
д ан
т ан
  аг
 у д
 б а
 г эв
 м аан
i n
 з аа
 т ийм
ур хан
 г ур
 ч у
 ажил л
 тан ы
 у чр
 х ө
 а х
в р
Ер өнхий
 маан ь
 хү ч
чил гээ
 зал уу
: 

 д ол
л ан
 х өр
 ү нд
ар аа
o n
 г анц
 дах ь
аг ч
 тур ш
 дах ин
г эр
  К
е к
 холб оо
20 0
л ийг
ар ч
 болох гүй
 үйл двэр
 х ич
өл д
 д эмж
 эм эгтэй
  ээ
e r
н х
ол той
 я л
и ал
 ир сэн
М анай
 ар д
 анх аар
 ө др
е м
аг т
ол т
 тохи олд
 м өр
) 

х н
өд өл
 гар ч
аг ад
а к
 сур гуул
 з эр
 өөр ийн
ээр ээ
Ү үн
- д
л он
у д
с р
 үр гэл
г өө
г ой
 хам гаа
 чу хал
 ч ан
 чад ахгүй
х и
лага тай
  ох
ү х
 хэм ээн
 ү нэ
ээ гүй
И нг
 ш ил
эз ээ
 хой ш
 ду нд
И йм
М иний
 бү гд
б өр
- ийн
эх эд
 а я
аа т
 ший двэр
эл ц
 үн эн
 бү с
 сон с
- р
 г ай
 т үр
 хүүх эд
 г ол
Ө н
т ал
 ч и
 т эн
 У лс
 ам ь
 өг өх
Тийм ээс
 а д
 хий сэн
м ын
И Х
и з
 у чир
 хо т
 м уу
 сон ирх
ал тай
 ав сан
 өн дөр
 р уу
 хар иу
  үүс
Х ү
 с ая
и ад
аг үй
 н ом
 ал ь
ийг өө
 баг а
аар ай
О р
 з ээл
 маш ин
эх үү
  эз
о сон
 хэс эг
гаа д
 т үүний
А р
 м эт
ин о
Н эг
 зар им
аар аа
  ф
аа ш
 бай в
ог т
 ч ам
ч им
 д үр
 төр ийн
д ын
 уул з
 мэдээл эл
ууд ыг
л ж
 г энэ
га сан
 бус ад
 алб ан
  /
 ажил лаж
үүл сэн
 төл өв
 х ан
 өөр өө
 бод ож
 хөг ж
a n
 х эзээ
 зөв хөн
 хуул ь
т ер
  Ш
 б ур
х он
ь е
. Б
 учр аас
 у с
 эх л
Хэр эв
д өг
эг ч
 А Н
 м өнгө
 д үн
 ун ш
 т е
 хугацаа нд
 с үүл
 дуу с
ууд ын
 о ч
эв ч
  Ү
 т өв
 т үүх
 т ар
 х анг
 я аж
 с эр
А м
 над ад
 зор иул
н аас
ю у
 г үй
 ший д
ал д
 он ц
н ээс
 тэм ц
  Ч
 ай м
эт эл
 болох оор
у гаар
 т айл
 д эв
 ор ж
  Ж
л өө
 т охир
 ч иг
ах ад
  эц
 з ог
  үүр
ох гүй
 я ах
  эл
а ц
 х өдөл
оон ы
 зөв ш
гаа с
я тад
 я агаад
 ан г
 хар агд
 м онгол
 байх ад
  үүнийг
о п
 у х
 х ийг
 ш алт
 уд ир
д өө
ү г
 з үй
 нам айг
лөг ч
 я г
 ажл ын
м ийн
ас гийн
А л
 хэл ж
 ох ин
 н өлөө
 хэл б
 яв ж
л эж
 м эр
г оор
 зог с
 ор уул
о ц
 ол г
  S
 ажил лах
 т үүнийг
эв эр
 өр г
р ах
 ту л
 м агад
  энд
ю ул
 ад ил
им т
, 

 нөх ц
" -
эд эг
 зөвш өөр
a r
 дар га
 ү гүй
 өөр сд
 хэрэг ж
у в
н ес
 ө м
 газ рын
 шал г
лаа н
 зур аг
Г этэл
 ө с
  Ц
 зэр эг
эр хий
 ам жилт
даг гүй
ор онд
 уу р
 ол ж
  ээж
 най з
ь сан
 бид ний
од ог
 үнд эс
 и тг
 мэд эх
үү нд
Э д
 х ая
е т
 сай д
 холбоо той
эл д
 холб огд
ү д
 сонг уул
 хэл элц
 болов ср
o r
  Е
ш ил
  Л
ол гой
 м өнг
 м энд
 байгаа г
  Ерөнхий
үүд ийн
Х ам
 үйл чилгээ
м аар
т эн
 ир эх
  П
 с уур
 тэм дэг
г ан
он о
 яв ах
 п р
Д эл
 өн өөдөр
 х өл
 байгуул лаг
 зор илг
1 2
Тэг ээд
г ай
 газ р
 дот ор
ж иг
х ам
е й
  _
 у г
 дур тай
чд ын
 су дал
 бур уу
 үн эхээр
 ир ээд
 бүр эн
 хө т
с ний
 тан илц
1 1
 а юул
 гиш үүн
гд эх
д сэн
аал т
 хар ь
 т аа
 ас уу
 дэл хийн
 хэл сэн
ан к
 х үү
 н ийг
 з аг
үүд ийг
1 5
 хар ж
 өг сөн
 гур ван
 ү лд
 эд ийн
 х ууд
я а
 бол оод
 тү м
 бол дог
 бай вал
о к
с ийн
т өн
ар гал
 зөв л
ээс ээ
 з ов
е л
 сан агд
 хүр г
Я мар
 ш ат
 хүлээ н
 т анд
 м ин
 ду гаар
ар га
ээ нд
 гар сан
д угаар
ал ын
e n
  M
 бу юу
 сал бар
! !
эг т
лөг өө
лэл ийн
 Б урхан
10 0
он ы
 мэд эгд
 өөр ийгөө
өр ийн
ер ик
т аа
 ү л
 шаард лагатай
 нэм эгд
р ам
аат ар
п ор
 х ад
 м я
аас аа
чл эн
3 0
 асууд лыг
 үе ийн
 ас уул
 гүй ц
 зохи он
н ө
 ал д
 г эм
 гар уй
 төр лийн
Г эвч
 мэр гэж
Т аны
 бай н
  Ө
 зас гийн
ин ы
ар тай
г оо
г ээд
ин д
 Б и
 бод лог
Өн өөдөр
д энэ
 тоо ц
 з өр
с аар
Д араа
хай н
өг өө
в ээ
Х үүх
ээр эй
үүд эд
 дол оо
л ох
л асан
Х үн
Ү ү
 зүйл ийг
у м
ийнх өө
 хар ин
Ч и
 хо оронд
 х ав
л и
 гар ах
р ийн
ой р
 ой р
 улс ад
 бүс гүй
s t
с т
 х ай
 ч өлөө
 бар имт
 яр илц
М эд
 бүт ээл
 д ор
 ш ууд
 мин ут
 бол лоо
 бу т
 биз нес
л эн
 мэд эхгүй
 ин гэж
ен т
 а ч
 з үгээр
 нас тай
И р
 болов ч
 байгаа д
 эр үүл
 н уу
 бүтээ гдэх
 тогт оо
 гэв эл
  A
 ү х
аг с
Үүн ийг
l e
б ээр
 болг ох
З ар
эл тэй
 байдл аар
 У ИХ
 З асгийн
р эг
 төг с
 х эц
өө н
 бүх эн
с гал
Э н
 ар г
 хөр өнгө
уул даг
  C
 яв дал
 гар гах
б ал
 н үүр
 ил эрхий
 бат ал
ил т
 ав т
 м ар
 мэд ээ
Тэг вэл
 бол жээ
ин э
 аа в
үүн ээс
1 8
 ер өнхий
 ав на
оо гүй
 т ай
өг д
 яр ьж
 с ол
 х ат
 ам ар
х ээ
 АН У
аг н
 чад вар
 үз үүл
 д үүр
ин г
о ёр
 ор онд
 болг он
 н аад
 д оо
 ир гэн
 даг уу
Г эр
 өг ч
 д өр
 ор ох
  .
 хүн ийг
 гар гаж
р ан
 х эт
ю ут
ам с
өл бөр
  Я
 сар д
т өө
 мэд р
 шалт гаан
 хэц үү
 гэх эд
 ир ж
 хү чин
эх ийг
 хич ээл
  P
 т ас
й л
 и тгэл
ил цаа
 өнгөр сөн
 нөхц өл
 т ам
 хий дэг
 анх ны
 өөрчл өлт
 хариу ц
 хя н
уул ан
ар сан
Зар им
 дэл хий
 ц эвэр
a t
У г
ол ог
 хар иул
л уур
 чад ах
Т үүний
ъ я
г ий
 бү л
ист ем
 Улс ын
 те хн
a l
г ч
 б уур
 компан и
вр оп
ор ж
Ү н
р өг
 өр өө
 т аар
ш гүй
 бод дог
 тайл бар
5 0
 бай жээ
 д ээд
 д амж
б аатар
л алт
н з
  эв
Б ү
 ул ам
ээ х
д лаа
ч иг
 хүлээ ж
 хад гал
 хэрэг гүй
 б ая
 тухай н
 тог лоо
20 2
 тэд ний
 ал га
иж иг
 ж ин
О лон
с ны
 хэрэг лэг
 м у
 ц ааш
 яр их
д ийн
н эл
o o
 эс рэг
 зас аг
Хам гийн
чд ийн
 судал гаа
 мэд дэг
ийнх ээ
 ашиг лах
г ын
 үз эж
 хуул ийн
 баг ш
г үүр
даа д
иш ээ
 хүмүүс ийн
  э
Эд гээр
 ц ах
 Монгол ын
 хар илцаа
агд сан
r e
 яр ь
үүл эг
 ж агс
 А р
 гад аад
 байгаа гүй
 О р
Т у
 нут гийн
 гүйц этг
в эр
 дараа х
Э х
 д ан
 с ү
 тохиолд олд
  I
 с т
 хам аар
ол оо
 магад гүй
 т олгой
 с истем
 сур г
 бүр ийн
 а з
  огт
и ар
 ту ш
 ш үүх
 б үү
1 4
л адаг
ар х
 хэл эх
өм ж
б ай
 цаг ийн
 зах ир
Ц аг
. Э
 өдр ийн
м аа
Хэр вээ
  В
 А м
  айл
  Энэ
о б
эн х
 гар гасан
Б үх
 Х ятад
алт тай
Ө мн
л эдэг
 зүйл с
Н ам
 хэрэг с
 сан хүү
 ор чин
 ц эр
 сүүл ийн
  Р
Тэр ээр
З өв
 бол чих
 бар аг
 з ав
Я агаад
л эсэн
 дээр х
төн ц
 н эв
 үн эл
 эд гээр
. "

 хүүхд үүд
 бар ил
 хамгаа лах
 ү с
н ээ
уу ны
ж ин
уул на
 хоног ийн
  N
 үз эх
 ор сон
 хар ах
 төг рөг
уул га
өх өөр
  B
эл ээ
 х аан
  Ф
 цаг т
 чан ар
 хөт өлбөр
a c
 бут луур
 нэг д
o u
ууд ад
иу д
 гэр ээ
 боломж гүй
 заа вал
 тан ь
 ур ьд
ч ээ
ал даа
 харь ц
  T
У лс
ал з
өм б
 бү хий
 н арын
 гад на
 хэмжээ ний
 ту н
i t
 т ойр
лаг дсан
 төр өл
 г оё
 ц эц
т ийн
 б ос
Тэг эхээр
тг ий
- нд
v v
 дээр ээ
олц оо
 мя нг
 ух аан
 чад на
 к ино
чил ж
 б ор
м ан
 гар г
Эн эхүү
 худал даа
м д
 нам ын
аа хан
 төл бөр
х ар
 мэд эж
 р үү
 эн эхүү
чил сан
 тү в
с ай
 ал даа
У чир
 яв сан
 эм нэл
 ор ны
б аяр
 х ийн
чих сан
Э м
лал аа
 эхэл сэн
онг ос
 ав аад
 д ууд
тэй гээ
 хууд ас
; 

 нөх өр
 болох ыг
өн ө
ол ын
 бэл эн
 б анк
лаг ын
 ж аргал
 эх ний
 нас ны
 ер төнц
 з ан
 байх даа
 тэр г
 бид энд
г уй
 бу ц
 хүс сэн
 ут ас
 с эд
 бич иг
в ор
өр сөн
Х оёр
 хэлб эр
i c
 хаа на
  онг
 м ал
хал тай
 хур дан
 Э р
 д ут
 ор нууд
 н айр
 ц уг
 бүр тг
ал ц
ах ыг
 н үд
 он оос
 үргэл ж
 удир д
м эл
өө л
 мянг ан
1 6
 т ээ
 я нз
v й
o m
Т ус
 хүмүүс т
Н ий
 сай т
 асууд л
үүл эн
 д ай
 хув ийн
я н
 ту лг
 хув ц
Инг ээд
 амьд арч
  ...
 г эхдээ
 к ин
 шил ж
гүй гээр
үр х
Монгол ын
1 7
л ээд
 үе эр
н ыг
ог рам
 хор иг
 м арт
 яв ц
н эр
 ажл ыг
Үү ний
и о
м ж
 ажил д
 болг ож
- аас
 х аг
өө ц
 н ис
 ор лог
үүл нэ
Х эд
 б ууд
 ж ижиг
 д үг
ал ин
  G
ог ц
 шаард лаг
З а
 амьдрал ын
.Б ат
Я г
р уулах
 у гаа
Мэд ээж
 тогл олт
сн ыг
 нуу ц
х эг
а б
 аюул гүй
 шин ж
 бич сэн
19 9
 ор ч
 хайр тай
 амьд ар
 ол ох
с аа
 з ү
Тэр бээр
пор т
 үйл д
 б эр
чл эг
д ол
 хүс ч
 с онгол
ээл т
л аад
 хо тын
 х өөр
 сай ж
 зорилг о
Х эн
 з ай
  D
1 3
 х өн
 ун т
 хөдөл гөө
 их энх
 асуул т
 тоглоо м
в өн
 т үүнд
 байдл ыг
- ны
  [
 т ов
 хэлб эл
х гүй
ь ю
 байх ыг
омж той
өмб өг
 аж лаа
 шаард лага
эн дээ
 ирээд үй
e s
 ах уй
  F
.Э нх
 мэдээл лийг
 Т а
 нэв тр
А в
 ор уулах
Дэл хийн
 заг вар
Бид ний
 өмн өх
 айм гийн
 ц ар
ш их
уул алт
 хэмжээ нд
 үргэл жл
 зохи ц
 зориул сан
 г элээ
 аг аар
 ажилл адаг
х ийг
Ө нг
 бол олтой
Э нд
х энэ
 төр сөн
 ур т
Ш инэ
 с оё
 чиг лэл
з гаар
л өх
 бар их
Б ус
 бод ох
Б ар
л айн
аа ны
уул аад
өхөөр өмж
Б ас
 өөр төө
 н өгөө
m n
 сонгол т
ү жиг
ан т
С үүл
Х А
 өг лөө
У ИХ
 эх нэр
 тэг ээд
? ?
ек с
гаа ны
агд аж
аг а
 эмэгтэй чүүд
е в
дэг гүй
 гур ав
 т энд
ол онгос
 м е
ам д
 удаа н
 яв даг
г ээс
лаг д
 нийт ийн
 чам айг
ад ад
 тус л
И х
 бүр д
 ор чим
н ээр
Н үүр
с ээр
аш ин
л ар
 мэд нэ
 дээ ш
сан д
у яа
 цаг даа
 гиш үүд
 т өхөөрөмж
 эз эм
 ар ай
х ны
 үйл чл
У р
 гэд гээ
 ор д
 хүүхд ийн
с г
 бү лийн
 үз сэн
жл ийн
уу чин
 хя згаар
Эр дэнэ
 зар ц
 би тгий
 бүтээгдэх үүн
в арын
 б уу
 тан ыг
 д ал
 өөр ийнхөө
 түм эн
 үнд сэн
 дүг н
 ор ой
 ж ур
2 4
  H
 м ат
 о юут
 техн олог
 пр ограм
 хийн э
 түв шин
 г уй
гаа ш
 гэдэг т
ү нд
 төлөв лөгөө
2 5
Үүн ээс
 шил дэг
 бар ьж
 д эх
 ур ан
өөс өө
ц ээ
 эр гэл
 өн өө
г ар
 хэрэг лэх
 суур ь
. mn
аа х
Б ай
 хэд ий
ик ийн
 б өх
этг эл
аг ийн
ол б
 удаа гийн
ес с
 хувц ас
 гай х
лаг ч
Х ятад
 н эл
 гэм т
уд арга
 эр т
 хөг жил
 бай л
 бод ит
a m
Х У
 эх лэх
 хоног т
 оч иж
 х ил
 нут аг
 т он
эн тэй
гаар аа
 ту т
л жээ
 ам р
 суу ж
 хүр т
эн гүй
АН У
 өг нө
 Ам ерик
и п
 баг т
 амьд рах
 эц эг
 нийг эм
эг үй
 м од
  ээл
агд ах
р а
 бай гал
 с ав
 Е вроп
С ан
 ав даг
к с
 г ом
ох ой
 хал дв
 сур алц
вр ийн
  W
. .

с өлд
 т ос
 хийг ээд
 бар иг
 байгуул лага
 ял гаа
м ээр
 н я
 ашиг лаж
 төлөв л
Г ад
 х уур
 бодлог о
 М АН
эгд сэн
 тус лах
 ч иний
 зүй н
 Ор ос
тай гаа
 өв ч
 байдаг гүй
п он
4 0
 у хаа
 ул ир
е д
 хэрэг лээ
лөг чийн
г үү
л уулах
ид е
 эм ч
н оо
 бү лэг
 хам р
  R
 сонирх олтой
  t
Хү мүүс
 минут ын
г vй
ь я
эл ж
 и жил
  E
 би члэг
лэг ч
дл ыг
 гэр тээ
 өөрчл өгд
 байн га
н үүд
r o
* *
 я д
эс т
 ар ил
 сургуул ь
б арын
 ш ир
 сэтг үүл
  ,
 жил д
 худал даж
ан даа
 үүр эг
ив аа
у нд
эр ч
 тусл амж
 арг агүй
с ү
 ц алин
жил гээ
 а жээ
С ур
 батал гаа
в ол
ер иал
өд өө
  v
 өг дөг
эгд эл
 н өөц
 худал дан
оо хон
 зах иал
л ам
 чад даг
 дөр вөн
 м ах
ө сөн
 ор уулж
i s
л бар
т ор
 яв аа
д эж
 д ас
 ш агн
 тав ан
с ыг
 гай халтай
 ойлг ож
 хүр ээнд
 иргэд ийн
 ху лг
аа сан
Тэд ний
u n
 ш ү
үүл дэг
 тохиолд ол
 с ул
 хар илц
 эн гийн
 нут агт
h e
 г эхээр
 з айл
 х охир
 өг өө
 ц эг
 дот оод
 тав ьж
Өнг өрсөн
- н
 гэж ээ
 өр сөлд
Б урхан
 хар аад
/ 

х оо
 Ерөнхий лөгч
 з үрх
ю ун
 с уул
 хүс эл
б и
м аас
 би чих
 хув ил
д эх
 юм аа
 онг оц
 тав их
 эхл ээд
о ф
 бэр х
 тэр ээр
 тэр б
Өөр өөр
 туш аал
аг ш
 я ам
 чад сан
 салбар т
  L
  өнгө
ак ц
 үе дээ
 хүмүүс ийг
А нх
е ж
 нийг мийн
эс ний
Ту хайн
Д ээр
Ор ос
нд аа
 сон ин
Т үүн
 д үү
 хам аагүй
с эг
  үүд
г эх
 з о
 м ор
 өрг өн
 Монгол д
эр лэг
 төс өл
 чам д
 эр гэн
 Б р
 мэдээл лийн
 ж ишээ
 ол д
Ар д
уул ь
 шин жилгээ
 бие л
э е
уул агч
И Й
 х аш
 яв на
г ыг
ог ч
2 2
 б я
ир ус
a y
 мөнг өн
e t
 хот од
ин а
с ын
Т ан
 г ал
 бүх нийг
 х а
 өөрсд өө
Ю у
  е
 т ээр
in g
 нийт лэл
 суу ц
] 

 мат ериал
 үз дэг
 ут га
 цах им
үр эн
Т өрийн
 ажиллагаа ны
А Р
 з үг
т өр
х им
г үүд
 хя лбар
 жин хэнэ
Зөв хөн
o l
аа ж
 ш ах
 үз үүлэх
. Х
п п
 б ээл
 үн эгүй
 хамт ран
ун т
a d
 цаг аан
 И х
Э с
 бус д
эс гэл
 он лайн
 з у
 т өд
  p
 ид эв
гэр энгүй
 Ү нд
e l
 тэд нийг
 ж үжиг
 байдал д
даг ч
 хий лг
i l
 н ээ
 газар т
 б ал
 с ууд
 сург алт
ш ээл
аа ч
у дал
л х
 м ан
 хур д
анг уяа
уг ай
 сургуул ийн
 хат уу
 С олонгос
  c
 эр чим
. Г
!! !

 зогс оо
 тат аж
 т ах
 оролц ох
a s
м аг
 эр эгтэй
 мэнд ийн
Нам айг
Б ол
аал га
00 0
Э ц
 бич иж
б олд
 яр иа
 сонг ох
 шинэ чл
г ад
 х аж
 хүр гэж
 тав ь
С айн
 н асан
 үз эл
 хоол ой
 эр д
 хүч ний
 хувил бар
 бүр тгэл
 үргэл жил
иде о
жл эх
Хү ний
 бол т
 бод ол
 о чих
 ор х
e d
А Х
 ханг алттай
 хүр ч
 эр сд
 байгууллаг ын
 бол з
 хэл эхэд
 дараа гийн
 хө дл
2 1
аг чид
Т үүнийг
с ийг
 ч им
 хүр эх
 байгуул ах
н аа
 хүч тэй
Ам ьд
  s
г и
 ал х
 ч ул
чл ал
 нар ийн
 м ая
уулах ад
чууд ын
 Бурхан ы
о онд
 хүн тэй
 бүгд ийг
л ээр
эс нээр
 адил хан
 ярь даг
 хугацаа ны
Сүүл ийн
 бээл ий
р анц
 компан ийн
a g
 төд ий
л иг
 л ээ
дл ийг
 ний л
ээ ний
тг алз
 тус гаар
 хүр сэн
 ул маас
в ийн
  m
 нэл ээд
б эр
А жил
 яр и
ог ийн
ээ ээ
өөд рийн
 яв аад
 өр т
6 0
 т үүн
 бу цаа
 ар иу
o w
аа на
м ыг
 та тгалз
 санхүү гийн
 мэд лэг
 ж ир
 тав ьсан
С ай
 бол ь
ах ын
 тэрб ум
 хүс элт
 байдл ын
 хэрэгж үүлэх
Э эж
 зөв лөгөө
) .

 ш ударга
 ойлг олт
н оос
 ур ам
амс алтай
 ар ван
 өм с
 яр иад
 хөг жлийн
 бэрх шээл
 тэн ц
 бай шин
 ү гийг
 хо с
 тус ал
 тогл ох
 мэргэж лийн
 ажилл асан
 байгаа гаа
 гар аад
 бид нийг
на ж
дл ын
ай з
у х
үр эл
 тус гай
 Д эл
 бэл эг
даа с
м өр
Ө в
 чад аагүй
 тал бай
 дэв ш
 т этг
 уур хайн
ью тер
Н адад
Х ув
 б на
 н ээлт
 илэрхий л
 тэн эг
г т
ор он
 ор шин
з аар
 х үй
 л ав
 анг и
р ай
 өг үүл
 боломж ийг
 мэд ээж
 дур гүй
 дас гал
 сал барын
M N
 амжилт тай
п ьютер
 ц эн
б эл
 хар сан
 дэмж их
 нар т
 дэл гүүр
б ат
 баяр лалаа
 амьдар даг
өм өр
Г эсэн
 ил р
унт аг
о ш
ор ын
 тал д
ит ан
 суу х
 сү лжээ
А Т
н ээн
 г у
 хув аал
 Х ар
 ойлг ох
o t
өг ч
 ээл ж
 үндэс ний
 с ах
 тэд гээр
 зохи ол
 амьдрал д
 унш их
 б лог
өх гүй
 дав уу
 сэр гээ
 ч ин
ал уу
өөр өө
ор но
лаг ийн
 бод сон
 ж аахан
 ёс ны
 зар на
лаан баатар
 д оор
 зам ын
 хэр гийн
 том ил
 үнэ тэй
М агад
ир ч
 хэл дэг
 бар аа
 харагд аж
 ир нэ
 үз эсгэл
чих сэн
 ор олд
 бэл тг
 онц лог
 г үн
эр гүү
 дэмж лэг
Г ур
 хү л
л уул
 сур вал
 бэл тгэл
 ст анд
А ав
 сур тал
 бүт эн
 үлд сэн
и ц
 н ур
 эр г
үүл эгч
А Л
  |
. MN
 аж иг
Бус ад
 авт ом
 бүр т
 ам ж
 тат вар
эр хүү
 нэр ийг
ан гийн
 гар ын
ууд аа
 тээр эм
Ү нд
 з эв
ах аар
 ахуй н
алт ыг
 зээл ийн
 хай ж
т хэг
 гар даг
т нууд
илг ын
 уд ахгүй
 яр ьсан
   
 м ө
Түүн члэн
эргүү ц
 ч уул
 он оо
 ам иа
л энэ
 му ж
 үл дээ
С онг
л ана
 дах иад
- ийг
т он
 цэр гийн
 яв уулах
т эр
жл ын
- г
 д үнд
 тэн гэр
 хэрэгс эл
 нэг ж
онд оо
Өөр ийн
Х айр
 мэдр эмж
 эс эхийг
 жагс аалт
 дэмж иж
 д эг
 ажиллагаа г
 хүс эж
 ин тер
дл ийн
 ох ид
 онц гой
 магад лал
 мар гааш
i on
сн ээр
чиг дөр
 я ар
үүл ээд
 эс эх
Хүүх д
 с өр
 ир дэг
 к он
 яах ав
З ур
- Та
e w
р ист
чүүд ийн
сн аас
 шаардлаг агүй
уу уу
 хэмжээ г
 итгэл тэй
  ов
с лэлийн
 т эж
u r
 ил гээ
и гийн
 тон ог
ээ ч
 ор оод
 А л
 хуваал ц
 н охой
у б
 г ут
 халдв ар
Ө г
 ш ар
 газр аас
 жаргал тай
Н өгөө
ил гаан
 бод ис
этг ээд
 дол лар
 сонгуул ийн
Магад гүй
 ал дсан
 тэд энд
 үйлд эл
  огц
 том оохон
 бай лг
 ёс оор
 хүс дэг
Эм эгтэй
 х ас
  алт
 нар ыг
чд ад
 сургуул ьд
 сур ах
 у й
 дав хар
т ний
иг д
 амь тан
 түм ний
 байн аа
8 0
 ашиг тай
 тар х
# #
є є
 н унтаг
 эл с
 хөдөлгөө н
 хү чир
шиг ч
 эс эргүүц
 зөвл өл
Ү йл
 хян алт
 гар га
 ал хам
 сэр гий
 шагн ал
 шалг ар
и ас
Ө дөр
 эм чилгээ
 п ар
 зү тг
  этгээд
ш ээ
 ая лал
 вэ б
. Н
с лэл
 өөрсд ийн
i d
А нг
 хэл ээд
 тал аас
 үзүүл элт
2 3
м ал
 т эс
 з уу
 идэв х
оор ой
 гэр ийн
 цэц эрлэг
 б р
чд ыг
 дүгн элт
М ар
Э Н
 шүү м
 хур ал
 хэсэг т
 д уул
эв члэн
 төс өв
 тэг ж
 хаг ас
 хулг ай
  ос
Ц ааш
Ө р
 өв д
 нэм элт
 мөр д
 хамгаа л
 сэд эв
  O
 компан иуд
 өөрчл өх
 тээ врийн
 н ог
 дот р
Өмн өх
ц гаа
 с ор
 хариул т
ф р
 б ах
Эс вэл
Т үүнээс
б ор
  b
 учир тай
 х v
 ир лээ
 анхаар ал
Амьд рал
 хэрэг лэж
 хэрэг цээ
 тогт вор
 асуудл аар
 байгуул сан
ь с
өнг өн
u s
гаас аа
пор тын
эр сэн
оо г
 д эр
ог ино
др ийн
 орлог о
- Т
с ар
 М иний
чд эд
 Европ ын
 эз эн
 д ая
 яв уулж
 өдөр т
 амар хан
 там ир
- Х
М АН
У ул
х ад
З асгийн
- Би
 хув аар
 унш иж
c h
 ш өнө
 ав чир
 в акц
 А в
чил ан
 тохир омжтой
  J
 с тр
 Т эр
 хэв ээр
 ал даг
 баяр тай
 д эд
уул ийн
лаг ыг
им п
г э
л а
 сурвал ж
 н ү
 ор ос
 эрх ийг
 сонгуул ьд
 б өмбөг
 с үр
 ч их
 ханд аж
  оо
 мэргэж ил
 м ас
 дур с
en t
с үх
у ц
 ц өөн
 баг ийн
 хэд ийн
 ж олоо
 ор но
 хур алдаа
 тог лог
 олг ох
 хя тад
өн дөө
эм т
 ажил тан
 тов ч
 Б Н
 шин ээр
 хамт даа
 ганц аараа
Т өр
 өв чин
 хэв лэл
Ам ерик
 хя мд
 холбогд ох
 т ор
 амь сгал
 түвшин д
з ан
 бай д
Хэр эг
? "
 т үүнээс
 ш ав
ээд эг
к к
Г анц
А Й
 тал ын
 зам аар
 хая г
их гүй
 бод оод
 хийх эд
 б урхан
 ж уул
 тан ай
 зор иг
 сонгуул ь
- т
e b
 хар ахад
ер ман
У У
ер м
 Х Х
 зүйл ээ
 н от
 тэр бээр
 бүх энд
эл ийн
 з а
ой д
 Б ид
 И р
 ойр олцоо
ев из
  U
 ний ц
сай хан
- ыг
Х ур
 а ш
 ц ом
 ол сон
 эхэл ж
. О
ууд аас
 ам т
 оролц ож
 төрөл х
Ү р
ил га
Инг эснээр
 в идео
 үз ээрэй
 Бр итан
 байр анд
 эхэл лээ
 тэмц ээн
ъ ё
үүд ээ
 зур гийг
 алб а
 мөр өөд
 шалг алт
т ул
ас ны
 болг осон
оо сон
7 0
б ол
я м
 х өө
 уур хай
 хэрэг т
 тогл ож
Хүүх эд
  өл
б а
 А з
огд сон
... .

ел ь
 тай ван
А с
 эр гэж
. С
 зүй тэй
 баг ас
л ол
 бар ь
Ж ишээ
о у
.. ..
 эхл эн
 те л
 зүг ээс
 бай сныг
 ц ай
 бу л
уд амж
 цагдаа гийн
р уул
 гар на
 хо ж
 дав т
 ав арга
 нэр тэй
 анг ил
u b
 ор уулсан
 даа тг
амж ийн
 монгол чууд
 өс өлт
Гад аад
А н
ан х
гаа гүй
 ком пьютер
 уулз алт
аа г
он х
 зар дал
Инг эж
 эргэл з
 Б ат
 ас ар
  эгч
л бал
Бү гд
 цааш ид
19 8
И хэн
н аар
 ху длаа
 зөвшөөр өл
 хоёр ын
 ашиг ладаг
 т оол
Я л
ен еж
Дэл хий
нг ын
 шалт гаа
 соё л
 ан гийн
 хаа г
 дүн тэй
г ам
 д ий
 з ая
 я лг
 хэл ний
ш уул
ол ь
 дүүр эн
  Y
 чад даггүй
 хариуц лага
Эр х
Ир гэд
ам ын
Б Н
 хүүх дээ
 өр н
 санагд даг
  им
л ав
Ү Б
 эрх тэй
 Хятад ын
п ер
ш өө
 х өв
 хэв ийн
б ир
л ов
чил гаа
 хөдөл мөр
А А
Х ор
 хув ийг
 гэр эл
 итг эж
р ийг
ш иж
 б уул
М аш
 г оо
 хэр гийг
 алб аны
 хувь цаа
  d
 б оо
 х өх
 з уун
чих аад
9 0
З үгээр
л өл
 бол оогүй
 улам жл
 ан заар
 нөх өд
 ханг ах
 зориул ж
 дөр өв
2 6
л олт
 юм уу
 түр ээс
 чиглэл ээр
 х уучин
 үз эг
2 8
 сай дын
 су в
 шал гах
 дүр эм
 д айр
З алуу
 нэг дсэн
 төгс г
г эц
д үгээр
м ад
 хүрг эе
 нээлт тэй
ч иж
ил ийн
 ц ув
Монгол д
 оролц сон
 чан артай
 ном ын
Ал ь
 зорилг оор
  өө
 мя н
 сонс ох
 алд артай
  V
Ш ин
 урьд чилан
 д айн
тг ах
 үз нэ
даа гүй
 А нг
 ганц хан
 дая ар
ад аа
 их эвчлэн
 хя м
 цах илгаан
Э Г
 з уур
 талаар х
 одоо гийн
 хич ээ
 нөхц өлд
О н
Х от
 ал иваа
 п орно
Одоо гоор
 станд арт
i m
 төл өх
 шийдвэр лэх
  f
ш аа
лг эр
 чул уу
Ихэн х
м ол
ХА У
гэд эг
Ний т
 б охир
 х өдөө
 хүр ээл
А жлын
 байл гүй
у лаа
 чадвар тай
 үнэл гээ
2 7
 ө д
 агаар ын
л оор
 а т
 дар аал
аз ар
 эрх эм
  эг
 хэм ээ
 Х эр
 Е сү
 тогтвор той
х ин
Б үр
эх э
 тогт оол
 ХХ К
эл сэн
ер ийн
 сан аж
Н ийг
 с ам
ийг ээр
 хэм ээх
p p
 м енеж
 үнэн дээ
. Т
 н эмж
 хо ё
но ор
 зас вар
 хуул ийг
 ид эх
. мн
К ом
алт гүй
 зур гаан
Үн эхээр
oo k
Б ат
Х өг
Ч ам
 д үгээр
 Х ү
 ажилл ана
 хөгж үүлэх
 зөр чил
 сайж руулах
й н
р и
гээр ээ
 над аас
шиг тай
 ер дөө
 х ог
аг даад
 тү гээ
 цар ай
e x
эн т
анг уй
 жагс аал
ф ф
 бие э
 бие ийн
огд ох
 дэр гэд
ж үүлэх
л б
 з аалт
 үйлчилгээ ний
 ухаа ны
ол л
лаг даж
 най дв
- тай
 з ад
сн аа
 хөн д
5 00
 т араа
 з ох
 ашиг лан
 су м
 тогтоо х
Б од
 мэд сэн
 дар ж
 сур аг
оос оо
өнгө ж
 эц сийн
 гарг адаг
 тут мын
 уу чл
Т энд
б өмбөг
т ны
 М эд
 мөнг ийг
 хаан аас
. Д
 зор илт
 дэл гэрэнгүй
 т ий
 бар уун
 байгуул ж
И н
п оны
 байгаа рай
 хүс ье
С ая
ж аа
 хүнд р
Өмн ө
e c
к о
эл дэг
Монгол чууд
 муу хай
г өн
о шгүй
ат е
 ол бор
 дар гын
 ерөнхий лөгч
Ту хай
an d
ал ж
 хү м
 су мын
 О ХУ
 ханд ах
Т Г
ууд тай
Г ар
Улс ын
 зүйл д
Ор он
 мөнг өө
д дэг
 хэл эв
 Б ай
 ид эж
үрэл сүх
ст рал
i a
 б огино
 байх аа
 ар гаар
ew s
ц аг
ал гүй
 эц эст
эх ийн
 өгөх гүй
 Ө мн
 э кс
ор н
 ш ив
 хэл лээ
 бар им
Дараа гийн
 тел евиз
 с үй
 үн эм
 дуус сан
t er
к ет
 гар аа
 су д
 одоо гоор
 өрөө нд
Сай хан
Т ав
 " 

 бод лоо
чл алын
 оруул алт
  #
а п
с аг
эр гэж
уул лаа
 улс төр
 үн эр
 анг ли
О Н
ийг ээ
ас аг
 ду гуй
Э Э
агд даг
 най даж
г эсэн
 д эм
 сур ч
 хэрэг лэдэг
 дүн г
Тухай лбал
Х ал
өн гийн
 я асан
 ц ус
 ар х
 анхаар ах
об ус
 болз ошгүй
i g
 г удамж
ер эг
Эр үүл
 гай хам
 боловср уулах
И л
л уулж
 с ек
 эр чүүд
 зам ыг
ИЙ Н
 даг аж
з эн
 хал уун
 газр ыг
" Би
 хэв т
 бусд ад
тай гаар
 тал арх
 болг одог
г ууд
аа з
 хо вор
 сонс сон
 хамт ын
Өг лөө
e m
 ор хи
 бүх ний
 хөгж им
 гом дол
 хям рал
 Т өрийн
 худалдаа ны
А х
О Л
 Ерөнхий лөгчийн
 дотр оо
  өөд
О й
уу хан
 өмн өөс
 шал гаж
 бизнес ийн
А з
 байх аар
 хийх гүй
 ин ээ
 санал ыг
 асуудал д
ал гаа
ин гийн
 дуу г
 хүүхэд тэй
Хүүх дийн
Үн эн
 орчин д
ын хаа
 ү д
 шин жлэх
... ]

 төс вийн
 оюут нууд
, "
 залуу с
 чан арын
 х э
 ц ох
 иргэд эд
 дэлхий д
 жур ам
 бүр элд
 вакц ин
дээ гүй
 юу г
 нийт эд
н ет
ээ хэн
 хор оо
 болчих сон
 сэргий лэх
на сан
 ур д
 хор оол
 ф айл
Үү нд
 хооронд оо
 сөр өг
 з үүн
 ав ар
 ав аарай
гал аа
 ү лгэр
 аг уул
Эх ний
и ан
 ц ац
сн аар
 ин гээд
 хугацаа г
 дав х
  X
Т ом
ж их
нэ т
чл ах
 цаг аа
! !

 хэр эв
ийнх үү
 өдр үүдэд
 з үүд
 хоол ны
 түр үүнд
 г эг
 ор дог
 хо ц
энд үү
 [ ...]

 эзэм ш
 технолог и
o f
 г р
 в ирус
 тэг ш
 оч оод
Н аад
Э М
 гэр т
 байгуул агдсан
 тат ах
 оч сон
 нэгд үгээр
С он
 эр с
 бар ив
 ойлг омжтой
 ажиллагаа нд
 аюул тай
 ш ирх
 хүн сний
 холб ооны
 аг уу
 Үнд сэн
 тухай д
 хэрэгж үүлж
л эм
 заа ж
 санагд аж
Д ах
Ч иний
ор м
 у лаан
 үз ээгүй
 тү г
 уулз аж
 дан даа
 Америк ийн
Т од
л арын
 б өө
 хам аа
 эрх ийн
 эхэл нэ
 хув иар
 ойлг одог
 хүүхд эд
 заа сан
 өдр ийг
 суур ил
 удирд лаг
 зарим даа
 ус ны
Тан ыг
2 9
с той
 ш ан
 А н
 мян га
к а
 т уу
 зүйл ийн
 бос г
 хөөр хөн
i r
б ан
 ав лаа
 үү нд
өлт ийн
 Ц аг
 оронд оо
 дамж уулан
 тэрг үүн
л аар
 хэмжээ гээр
 амьдрал ыг
- гийн
ээ тэй
 дар ам
 Т аны
 иргэн ий
д сон
л үүд
үү к
 к ам
лэл т
ес т
 манай д
 хэт эрхий
тул га
  w
 Б ол
 ийм эрхүү
Өн өө
 н эх
чд ийг
 тайл ан
д ахгүй
 ус т
 тэмц эх
т о
 н ээх
эц эг
 сэтг эгдэл
эл ийг
лэг ийн
 шийд сэн
 барил га
У н
е нд
л уулсан
үүл элт
 зов лон
в өл
м ийг
 ав ахгүй
 цаг аар
 ур алдаа
 зар чим
on e
  є
я г
 х энд
лаг дах
 болг оо
 үйлдвэр ийн
 машин ы
. Ц
А С
 бай цаа
 эр гээд
 үз үүлж
 асуу ж
3 00
З ах
ц ийн
ор т
жил ж
 сонс ож
 я даж
Хар амсалтай
 су длаа
 сэтгэл ийн
  i
 с порт
 ш уур
 дэл гэц
оон оос
 хан ш
Дараа х
 байгал ь
 чуул ган
 пар лам
. дол
т ар
 уу х
 ар хи
 сонг осон
 төс лийг
 үйлдвэр лэл
Өн өөдрийн
 судалгаа ны
 э ерэг
- ээс
 их ээр
гаар ай
 төр д
 ёс гүй
 бус дын
 тэмц ээнд
 боловср ол
 үйлчилгээ г
 гадаад ын
 хоёр дугаар
 үүс сэн
 өс сөн
 байгал ийн
 ц өө
дал гүй
 итг эдэг
е г
 а пп
 ц огц
 шийд эх
 доо ш
 хян алтын
 утас ны
u t
л анд
х аг
үү гийн
иш ээл
 зайл шгүй
 мөнгөн ий
 бр энд
Ял ангуяа
- ний
Е вроп
Н өх
 цув рал
o s
u l
О юут
Т өс
 хув ир
 к л
ч и
 ш аар
 ш уг
ов ч
 тогт олцоо
Ир эх
Б аяр
Н ар
с ал
 х ах
 ш ид
 ол ны
 яв уул
 ур иал
 өөрсд ийгөө
 бүтээгдэх үүний
ул уун
  ?

иг т
 цаг ийг
чих лаа
 төс өөл
 зээл д
ar t
 удаа д
Х ууль
 юм ыг
 Х олб
Ерөнхий лөгч
д эн
ч ийг
үй м
хан д
 өн ц
Ийм д
Т анд
 т ооны
 өөр т
 уу ж
a p
Г ол
г уу
ог чид
ер т
Одоо гийн
 үс эг
.Энх баяр
Ү Ү
 ш уу
эгд эж
наас аа
 харагд даг
А Г
Т ог
Ү з
 хэл ээр
 хэс гийг
 сонирх ол
 бодлог ын
 х уу
оор оо
 байр ны
 гэнэ т
 шат ны
 с аад
 У лаанбаатар
 өнөө гийн
 о юун
 үндэс лэл
в а
д эл
 з ууны
 таа маг
 кин оны
o v
ээ г
 у тг
 нэг тг
 хуул ьд
 му нд
 нийгэм д
 з өндөө
 ш өн
 харагд ах
э ш
 з од
 з өөл
 хийх ийг
 сүүл д
 баталгаа ж
ол ж
 г эс
 тогт мол
 санал аа
АХ Н
g le
 бай т
 з ол
 бар сан
 төв л
 болдог гүй
 наад ам
 жүжиг чин
г аны
 н у
 байх ын
 дар уй
 хор ооны
 банк ны
в өр
л эв
 дүүр гийн
 цэц эг
 хөгжил тэй
 ариу тг
Б ая
Т эн
ай д
 хий лээ
 цаг аас
сн ийг
 тан хим
ш р
 к од
 төр х
 зар ч
 Я пон
ц хан
я мд
 турш лагатай
хн эр
 хүрг эх
  K
- Энэ
үй ц
 ажил даа
им с
лэг чид
Би е
 бүтээ сэн
 зүйлс ийг
 их ээхэн
огд ож
лалт ад
х тай
 технолог ийн
г ил
л аас
 д эндүү
эгд үгээр
 нэмэгд үүлэх
 мар гаан
 эмнэл гийн
  анд
 их тэй
 ур лаг
 хамт лаг
 холбогд сон
 чөлөө тэй
 Ар д
 гүйцэтг эх
 N ews
 Ф ранц
 ш ашин
 зал бир
 мэддэг гүй
 бутлуур ын
 оюут ан
 бах арх
  $
  ес
c k
м өрийн
 ш аш
 хар амс
 ур сгал
ен ер
oo gle
 Дэл хийн
 стр ате
З ор
 з уг
 хүн ээс
 нэм эр
 бол оо
 өөр чил
 Н ий
инг ис
 харилц ан
в оо
и ф
о тг
 н эн
 Х рист
 байр лал
i v
м оор
аг аа
ат ор
 ажил тнууд
чл ан
шиг т
 най ман
  >
Х эл
с гүй
 ал дах
 ур гам
 тү лх
 гад уур
 дэв с
 сэд в
ан ад
 д өнгөж
гал ан
 над тай
 бүгд ээрээ
 найз ууд
Д от
л үүлэх
 бай нгын
чих сон
 турш лага
 ял ангуяа
 т өмөр
 үз ээд
 бая н
 явц ад
Т анай
Э Л
 г ү
Хэд ийгээр
 үзэсгэл эн
Н ом
уулах гүй
Өөр ийгөө
 зөр ч
л ож
ү л
үй н
Хэд эн
 болт ол
 урам шуул
  h
  үүнээс
з ра
и б
ар ь
ал аа
 ай ж
 мөр г
 мэдэгд сэн
 зорилго той
 идэвх тэй
  ийнхүү
 г алз
 д уур
 в из
 өгөө ч
 жолоо ч
 д аалга
 ө чигдөр
ов ь
19 7
 өрг өж
Эд ийн
сг өл
o st
ав дугаар
 бар ьсан
 дол оон
 өс г
" Х
 г ун
 байсан гүй
 хүр эхгүй
 хүүхд ийг
 тогтоо сон
 ширх эг
л осон
 С ан
 бич гийн
Цаг даа
 хаж уу
d ow
х ыг
 ай д
 хүлээ х
 хаж ууд
o p
Ү гүй
 болох оос
 энд ээс
 бүсгүй чүүд
 Энэ тхэг
 эмэгтэйчүүд ийн
од оо
 Б ар
 өн өөд
лэх гүй
 насан д
 ц уц
 гар гаад
 жил үүдэд
чих даг
лэг дсэн
 хүс вэл
 хэд хэн
 дут уу
 ме дал
 Өмн өд
Н айз
С У
 г ор
 ам ын
 бар илгын
 удир дах
 авт обус
 яар алтай
И Л
г уур
аг чийн
 у я
ур к
 авах ад
из м
 яр иг
 эм чл
эгд орж
Өөр өө
 Улс ад
 с екс
 үз вэл
 авах ыг
 өнгөр өө
Үн эндээ
Бай гал
Д ав
б аат
т ах
үү ж
үүх эн
 бод лоор
лд өг
 төс лийн
 байгууллаг ад
 өг өөд
 тү л
 баяр ын
?? ?

 ялгаа тай
 з өө
 к арт
 З өв
Мөн х
 хэлэлц ээр
 тооц оол
  ийн
С этгэл
ш ир
ий х
 гар ц
 эр ч
 ал даж
 буц аж
 улир алд
 дэг лэм
м сэг
ч ны
 т ой
 с эл
 ур агш
 тү мн
Тэд гээр
 боловср олын
 таа лагд
eb ook
ишээл бэл
е з
р уу
 н ойр
 хэс гийн
 эмнэл эгт
 магадлал тай
Б агш
д эв
м с
 гар ахгүй
 бу д
 хэл нэ
лал ын
. "
3 5
л өн
 эмнэл эг
 хэлбэр ээр
a b
ог чдын
 болох од
Хятад ын
 ухаа лаг
 гу ай
 хар уулах
 хар уулж
 итг эх
.Энх болд
 хүчир хий
б эг
ар м
 дээр ээс
 З асаг
г ана
т а
 н ээл
ал сан
 ний слэл
ен з
 хугацаа гаар
 дур дсан
19 6
 өв өр
 хөр өнг
Ийм ээс
 уулз ах
 ханг амж
Ал тан
 мас к
д ар
 х өнг
 ж ив
 М ар
үн с
 хадгал ах
 мунд аг
. М
 хэл т
 хэлэлц эх
 сург алтын
ө тг
 б v
ал ь
 ш ор
өг с
 ц аас
 Т эг
 төс өө
 иргэд ийг
 Орос ын
Д өр
 х оосон
 юу нд
 байр ш
 хүнд этг
Ш ил
х ондоо
 х айл
 А фр
 эм ээ
 онц лов
 олг одог
 хөл бөмбөг
u m
У л
е тр
 ц өм
 хүмүүс тэй
 шиг ээ
 асуу х
 ээлж ит
 д өө
 хэл жээ
 хүн с
 в ий
 хүс эхгүй
 хэв ээрээ
 шийдвэр ийг
с эл
 н оц
 ш оронд
өл дөр
 бүх эл
от о
 сая хан
 тас р
 нэг ийг
 байдал тай
  Ю
уул ын
 юм сан
 сай хны
 өн өөдрийн
 ут гаараа
 ач аал
А я
с б
 төлөвл өж
 зу гаа
лб эгдорж
Х өр
 гар лаа
 тай в
 хүй тэн
  n
м ент
Ө нд
 сан гийн
 ойлг осон
 ханд лага
 орнууд ын
 тээ вэр
Дээр х
г ис
 ц орын
 Б ү
 мэдэгд эл
 там хи
ac ebook
. Эрдэнэ
 айм агт
 буур уулах
 дэвс гэр
Ө Р
лөг чид
 Э м
 тодорхой лох
 айл ын
 ертөнц өд
 байт угай
И Н
 х аалга
оо оо
 мэд эр
 анхаар лаа
 Ш инэ
 таа тай
 заг варын
 унт аж
М эргэж
 н ил
ам б
үүл жээ
үүл лээ
ов ш
 хич нээн
 Ч и
орон ав
- Эрдэнэ
 ц энэ
 ам ерик
 төр ж
 төв д
 жир эм
 шуг ам
ол тын
ил аа
 хүс элтэй
 Г эр
 төс тэй
 техн ик
o d
u p
аа в
 О лон
 хаа ны
оф е
 хүл ээл
оронав ирус
Д ар
С этг
 г ав
 чад вал
аан аас
хүү гийн
.Б аяр
 анг ид
 бүл гийн
 гарг ана
 дай ны
Ц ах
 үү ний
 хамт арч
 Э л
 бат лах
 анхаар ч
Цаг аан
 суралц ах
 ц ол
агд ана
 хан гаж
 дут аг
Ы Н
 хар даг
ит ал
 хой но
 үүс вэр
Зарим даа
 нис эх
.Г ан
Н эр
ол дл
 хар амсалтай
 өөр ийнх
 өөр чилж
 к аз
уур ын
 ой рын
 эрх гүй
 зас ах
 хооронд ын
 эрсд эл
? !

Э Р
т анд
ч ээр
 бү жиг
 гиш үүдийн
оё н
 танилц уул
 нэмэгд эж
 үүд нээс
М өнгө
в аа
 х эхэ
он т
 үе эс
 баг таа
 үн ийн
 турш ид
 хийг ээгүй
ей н
 хай х
 санхүү жилт
Гур ван
I I
 гар алтай
 тэр эг
 тоо г
 хөр ш
 ойр хон
А М
 ш дээ
 үз эн
 сонг ож
 ая л
амс ар
 бая лаг
 тулг ар
 түүн тэй
 чөлөө т
 Үнд эсний
  &
4 5
Т эм
ж иж
є р
 мэд эрч
ов ср
 Х ам
 тодорхой гүй
 кл уб
Б ур
 г а
 ш оу
 ир жээ
 тус ам
 судал ж
олог ийн
Үнд сэн
 төгсг өл
даа н
 бүр ийг
Тэг сэн
 хой д
 чанар ыг
 төвл өр
 м агт
 ур уу
 амьд р
ш тай
 ш им
 болг оно
 нөх өн
ем ент
И С
е хн
 б эх
 г үйл
 ол имп
 ил үүд
e e
Б ага
ь сон
 д охи
ас т
лаа гүй
дог гүй
 бэл гийн
 хүртэл х
 сонирх ож
 түүх эн
 харь цаа
 шүүм жл
Х оол
Э хнэр
с оор
ох од
 нэг ний
 яв уулсан
сн ээс
 гад аа
 бүтээ х
 дор ом
 илэрхий лж
 болт угай
А Ш
Т үр
 т эвч
 би ен
 Т өв
 тогт н
  ·
0 9
И йн
ээл ийн
 ар ьс
 ах мад
 пр оц
 төдий гүй
 дурс амж
сб үүк
Б эл
О л
 гарч ээ
 Ч ух
 ух аар
 хая ж
 арг ыг
 хэрэглэг ч
сай т
3 1
 бод олтой
чих ээд
 сур сан
 хувь сгал
 байгууллаг ууд
 газр аа
 угаа х
 хүрээл эн
А мар
 хур алд
 нэм эх
 үйлдвэр лэлийн
er s
 ард чил
Мар гааш
 Чух лыг
Ж ил
 м эс
лах гүй
 Н ам
 ст анц
 ав лиг
 Б ая
 хэм н
 болг о
 дуу чин
 олг оно
Ү Й
ийнх аа
 сар аас
 хөдл өх
Т ал
 г ам
 м анд
 ц аана
 гар т
 Н ҮБ
 залуу чууд
 муу тай
 хөгж иж
 шийд эж
 айм аг
 цэвэр лэх
 орч ны
 амр алтын
 биел үүлэх
л ом
 Х үүх
 баг ц
 ашиг ласан
 үнэ т
 үнэн ийг
 мөнг өөр
 бэрхшээл тэй
 инээ мсэг
  '
У лаанбаатар
 хүр ээд
 тал тай
 Э нх
 үлд эх
 тоглоо мын
- аад
аа лд
ог о
 хөр өнгийн
 хан гал
рам п
А йм
д жээ
ат р
 ир эв
 нэр ээр
 Монгол чууд
 шийд эл
at ion
Хув ь
 ариутг агч
t h
х ины
өө гүй
хн ыг
 дүр с
  a
л ээс
 хур имт
 су дл
 зогсоо х
 ног оон
 д алд
 эх чүүд
 нэр лэдэг
иу дын
 хор ио
 манай х
 түүх ийг
Эх лээд
Я пон
 т ол
 с портын
 л уй
лс өн
 сан д
19 4
Т үүнд
Х удал
ө ц
 хор их
Ш үүх
б од
чил сэн
 бүтээ н
Ур ьд
 суул гах
ямд орж
ь т
 ш ув
 бү д
 гар агт
 хэл мээр
 тус даа
 хийх ээр
 ин г
Ал иваа
Ний слэлийн
Бурхан ы
анх уй
l i
М ал
х у
ир ийн
 бүт эц
 зогс ож
 бууд ал
 сайж р
 соё лын
А й
ар д
 с огт
өн д
 ө ч
 хэл эхдээ
 ойлг охгүй
 төгс сөн
 г алт
 мэд эл
 Т үүний
Х эзээ
 т аг
өг тэй
 өг чих
лг ын
 хүүх эн
 дунд аж
om e
n e
О О
г чид
ы гаа
 д из
 гар аагүй
 хуул иар
 ай х
on g
 захир ал
ип лом
 БН ХАУ
У лаан
е ф
ий в
 г ээч
ав ч
 ав алт
 нөлөө лөх
 ноц той
 д ад
 ир эхэд
 зах ид
 хүч ээр
 тооц оо
ья ас
 тавь даг
 найдв артай
  x
ч нээн
 х олд
 х аалт
 төр өх
 тан ил
 орнууд ад
 жир ийн
0 1
l o
аа аа
 бай тал
 у сан
 хар гал
 бу хим
 ж иг
нууд ыг
 тат ан
 буцаа ж
Үнд эсний
a v
Н ад
 б оол
ах даа
 би т
 нөх д
 хал д
 зөвл өмж
 хат ан
 Эр дэнэ
Сур гуул
д эр
е е
с к
 з ун
 тал ыг
эгд эх
 сэтгэл ийг
 чу хам
 батал сан
 шүүх ийн
 ня гт
 зо чид
Ж ишээлбэл
Т айл
л э
иу н
 ариу н
 цөө хөн
д ам
 н овш
 м ууд
 ү гээр
 руу гаа
 ирээдүй д
П р
Т Х
н эг
х эр
даа ны
 хар уул
 бич ээд
 санаа г
ек т
 ном ыг
 өм гөө
 ойр т
 хэрэглэг чид
 Есү с
 хоё улаа
и той
 ар ь
 ар аас
 суу гаад
 эрд эмт
Ж ин
М ан
 д ам
 ц онх
 эх лэл
 жил дээ
 хур аа
 турш илт
 цэр эг
 үргэлжл үүлэн
 байлг ах
 түгээ мэл
 д өх
 су н
 төг өлдөр
 дэв шиг
 шалг уур
 бүтээгдэх үүнийг
Орос ын
 эрд эм
 бүрэлд эх
 кам ер
Х ан
 ярилц аж
 сол их
 кин онд
өл өг
 яв лаа
 ж ор
 ур лагийн
 ший дэг
 хамгаа лалт
 өм ч
 зөвл өх
.Бат тулга
Хот ын
ш ний
лах ад
 Г ерман
 ус тгах
 хэлэлц эж
 таар на
 харьц уулахад
 кин ог
 шаардлаг ыг
ерм аны
Ш ал
л т
ү в
 т эв
 бид энтэй
ac k
 ухаан тай
е х
 г эгч
ил ж
ил ан
эй н
 дар х
 хоёр ыг
ит р
 ун аг
 дуус ах
 буу ж
 үргэлжил ж
Ө дрийн
ам ч
 хэл ье
 тат варын
ак т
 тулг уур
 нунтаг лах
цгаа я
з эг
 г я
 үз ье
 дэл гэр
 хийг дсэн
Хам т
 санагд сан
Эц эст
- тэй
з нес
к т
 ш д
 бу лан
 хур им
 сонг он
 тодорхой л
 үнэн ч
 бя цхан
 сууц ны
  !

о з
у мын
 өөр өөр
 удаа гаа
 үг с
Өөр ийнхөө
 тэмдэг лэл
 I n
 онгоц ны
 мор ь
Эц эг
г өөр
ж уулах
 б өөн
 г эн
 бие д
 хэмжээ тэй
 хичээл ийн
 яд уу
 утга тай
 т үн
ис с
 оруул алтын
 зөвл өж
.Х үрэлсүх
 бусд ыг
эй л
эй сбүүк
цаа гүй
 тав иг
Тэг ж
 байр шил
иул ах
 сонс оод
 холбогд олтой
 зэв с
9 9
Ф ранц
ж ийн
ил ь
 тус тай
 суу гаа
Тэд нийг
 ажиллагаа гаа
 тэг вэл
 гай гүй
 S t
 наад мын
 тас ал
 нис лэг
 зөөл өн
л алтын
 у йл
үүн тэй
 тав иад
Хү нд
 эц эс
 дан с
 Ав страл
АШ Т
О ХУ
у пп
 н а
амж тай
 эн х
 унш сан
 төгрөг ийн
 гурав дугаар
Ийн хүү
a k
r i
 ав рах
 сонг одог
гэн ий
 дот но
 дав ж
 үүр эгтэй
 тайлбар лаж
 N o
 хаш аа
чих гүй
 дол ларын
 монгол ын
 дарам т
С ар
Х үү
б анк
 амьдрал даа
 оролц оо
 ханд ив
 нэмэгд сэн
 Солонгос ын
ex t
h one
Э нх
и од
л о
т аж
ал ай
 ор ш
Бид энд
 зур гаа
 най м
 бат лагдсан
 бариг чид
 төрөлх төн
ub e
% -
Б р
аг тай
эг чид
 д ом
 гад ны
 хохир ол
 насан даа
Э л
г о
с ээ
 ил эр
 юу н
 мэргэж илт
 цэг ц
 сэргээ х
  g
 н ааш
 ор ших
 ор ноо
 Н эг
 хамгаа лж
 бор оо
 эрт ний
 мө ч
 интер нет
х уу
 н ээж
 д оод
ос к
 нийт лэг
 хаа шаа
 баяр лаж
 аг ент
 талбай д
 ав аагүй
 ам жил
 бар иад
 даа сан
 нөх р
 ин ээд
 суу сан
 амьдрал аа
 гиш үүний
 хич ээдэг
үүлэг чид
Зур аг
 мөрөөд өл
Чам айг
Өнд өр
Х ич
е б
ж аргал
 у санд
 хүн ээ
 суртал чилгаа
 дий лэн
т ол
 к офе
лөг д
 тод отг
 зам д
 дэмж дэг
Хүүхд үүд
и шиг
 ш үд
 улс аас
гуул ах
19 5
 эхэл дэг
 нөлөө лдөг
 зов ж
 хэрэглэг чийн
 нэвтр үүл
 дал айн
оо ж
 мөр өө
 нөлөө лж
 харилцаа ны
 тэтг эвэр
) ,
 г ан
 үз эгдэл
 хүр элц
 мэт ээр
 үгүй сг
 илэрхий лэх
 байд гийг
 айд ас
ө т
 бай саар
 хар уулсан
им ийн
 дах иж
 хор т
 төс в
 зэр гийн
 гадаад ад
 харьц ангуй
 автом ат
Х өл
з ар
 б гаа
 биз дээ
 байдл аас
 төлөө лөгч
Үүн тэй
 амь т
15 0
мэл з
 амр алт
 д ог
 ав р
 тод р
Манай х
 Я поны
 хүчир хэг
Сая хан
Я ах
 байгаа н
 хар аа
Би знес
 зас агт
 ут саар
 тохир олц
 үнэм лэх
 хангал уун
 луй вар
З аг
д а
л ас
с үрэн
х ү
 у наж
 Б аяр
 улс ыг
аан ч
 ханд даг
 тохир сон
 гэрээ г
 хэ чнээн
- О
О Р
 Х ур
 чад аж
үр эв
 мэдээл лээ
 ин ж
or e
 ярилц лага
 сол илц
 хэт р
Ул маар
s s
уул алтын
 л ам
 тал даа
 нэгэн т
 сүүл чийн
Ир ээд
 боль сон
 галз уу
3 6
Х эв
Я р
у к
өл гөө
 өг ье
аз рын
өд өг
 зор иу
 дууд лага
 зох их
 шаар даг
 зөрч сөн
  Z
Н ас
п онд
 г аж
 хар на
 эр мэлз
 яв дл
 ой л
 С ур
нууд ын
 санаа нд
 эхл үүлэх
 унш аад
 зу ны
Г азар
 сэтгэл ээсээ
пан и
 хайр лаж
 үйлдвэр лэх
 харагд ана
 өөрчлөгд сөн
а тай
д ана
є н
 их эд
 ду лаан
 дав ан
Бү сгүй
Цааш ид
 тоглог ч
  ?
ий д
 т аал
 н ул
 байгуул алт
 өв өө
 дунд уур
 оруул на
 тэмдэг лэж
pp le
н и
ав х
аас ай
 үйл чил
 Т ийм
ен тын
 даг ав
 эхэл жээ
 тогл осон
Инг эхдээ
 шүүх эд
 буц ах
 зай лс
 ирээдүй н
 автом ашин
 гун иг
  *
т ом
ар хал
 г үр
 д агаад
Энэ тхэг
 аг уулга
 олд охгүй
 проц есс
г алт
е п
ш үүр
ол он
 бод вол
 юу ны
ээн ээс
 и ч
 авч ээ
 му з
 захиал га
Анх ны
 мая г
  on
Б аг
 б аатар
 сай тай
 үз үүлсэн
 баг агүй
 ай лд
 хаа лг
 хүүхд үүдэд
 тар иал
 интер нэт
 гут ал
д ож
Ү Т
 бай снаа
ил л
 байгаа гаар
 үз эхэд
 нэр ийн
 асуудал тай
 хөгж мийн
an g
 нээ гд
 доор х
 зэв сэг
 дэм ий
 сек унд
- с
д ыг
 ир эхгүй
 сэтгэл д
 түүнийг ээ
 хөл с
 арил гах
is s
 тамир чин
 той м
анд ан
 эх ээр
 Х үн
 эрх лэх
 У р
 асууд лын
 хур ц
 дэл хийг
 компан ид
 өдр үүд
 өдр өөс
 удир дагч
 нөлөө л
 зөвлөл ийн
 Аз ийн
 шөн ийн
 шаш ны
. Мөнх
 б н
үүл т
 ур ьж
 үн ийг
 хүлээ сэн
ок ур
 үх эх
 зав гүй
 таср алтгүй
  of
o b
 яв длыг
 их ийг
 И н
 бага тай
 өвч ний
.О юун
0 6
Ө чигдөр
 ст ат
 хамаар на
 систем ийн
 захир гааны
 даатг алын
 Анг ли
 дарх лаа
О хин
С ал
Я даж
 бай маар
 байгаа м
чл он
 бэл д
 бил үү
 өв өл
Ал бан
 суд лах
 медал ь
 түн ш
m ent
С олонгос
У т
м өц
 ү ер
 улс ууд
 тат сан
 олг ож
 засаг лал
 ме тр
 тут ам
 хэрэглээ ний
Үйл двэр
Т өв
а ф
ар ан
ол сон
ах аас
 ту хтай
 к кк
уулах ыг
Өөр сд
 ял алт
Ор чин
 дэв шил
 бор л
 сайт ар
 шуур хай
 Ард чилсан
 дутаг дал
Я аж
д гийг
х ын
аг чдын
оо ч
 у нд
 ор охгүй
 эр элт
 ир ээгүй
 жил ээр
 төл ж
 хэн ийг
огд дог
 най маа
 цуг л
 өгөө гүй
 вэб сайт
 менеж ер
4 00
 М АХН
 бич жээ
 бич дэг
 ая лах
 зөвшөөр ч
 зөвшөөр сөн
 авт о
 эргэл т
 хулгай ч
М өр
Т ат
 д иплом
 хув аа
 сан ах
аш гүй
уур уулах
 ду лаа
 О н
 охин ы
or d
 алд ар
 зав сар
 аш гийг
 өнц өг
У у
 х өнгөн
уул т
 ху м
аш ины
оос ой
 дуу гар
 түр гэн
 төв ийн
ац арт
 мэдр эх
 зохиц уулалт
 арил ж
 Британ ийн
3 2
д даг
 т өм
эл эн
ор ч
 нэг энд
 ам лалт
 хам аг
 к г
 ший тг
 мөн х
 чан га
 хан ь
 хадгал ж
 асуудл ууд
 чим ээгүй
 дийлэн х
4 8
Н Д
ил ал
 хэр нээ
 ажил чид
дв ал
 хэн ий
 ер өөсөө
 шат анд
 шү т
Анг ли
 түлх үүр
  y
O L
Н эгдүгээр
 т оон
 я м
 нэг нийг
 эл дэв
 хэрэгж иж
 дотоод ын
Нийг эм
  ууд
О Х
С удал
У дахгүй
г адаг
ш д
Ү нэ
 бол сныг
уул аа
сан гүй
 у ндаа
 хар ц
 хур уу
 Д ав
 дэв ших
 газр ууд
 хамаар алтай
 хөөр хий
 чадсан гүй
 ха чин
 тусал ж
 илэрхийл сэн
. Ч
n d
и ос
м ун
ү м
ох ыг
 ав ьяас
 яв ахгүй
 нар тай
 бус даас
 дуу ны
 ун тр
 шаард даг
 нут гаар
 эн ер
ar d
Европ ын
P re
Д Ү
гээр эй
 авах аар
руул бал
орн од
 хөнг өл
Г ай
 асууд лаа
 И с
 эв гүй
A R
Б ор
с ууд
Ө Ө
ах аа
үүд ээс
 хүмүүс ээс
 У лаан
 Э зэн
 Г р
Манай д
 үүр гээ
 бүтээл ч
Гэр тээ
 шинжилгээ ний
c e
 з анг
лаг чид
 яв ахад
 хур лын
 суу на
 дунд аа
 бүхэн дээ
 барим тал
3 3
? "

 хар анхуй
чих на
чих аж
пан ийн
 үүс гэх
 холбогд ол
 харь я
 сү м
 сууд аг
. Ж
сан даа
 ц о
эв рийн
 гар цаагүй
 өөр өөсөө
 хүр ээ
 тал б
 о фф
 ун шиг
 хаа гч
 заа вар
 бүртгэл ийн
Х эт
эл гүй
 ажил гүй
 олг осон
 П ар
 ертөнц ийн
Хоёр дугаар
 бөх ийн
Америк ийн
У Р
эм жл
 хар аахан
гээ ний
оод ог
 эм зэг
 хич ээж
 хүү гийн
Мэд ээл
al l
Б у
н өөс
 т агн
үү гээр
уул жээ
 к м
лээ гүй
гд сан
 тав дугаар
 Би б
 үзүүл дэг
Нийг мийн
- "
. У
х ид
Ү х
ал ю
 үйлдвэр лэгч
 хан гасан
.дол лар
c om
О д
и я
х эд
ц ан
ц эн
 т өөр
 т этгэл
өх өд
лаа ч
 зор чиг
 тут амд
Х өдөл
н үүдийн
 у гаасаа
 у насан
 бу лаа
 өг өг
 үйл дсэн
 шүү гч
 үн с
 гэр элт
 өр х
 шиг шээ
 шалтгаан аар
 гарга жээ
Ил үү
 зайлс хий
Д ур
З охи
 с аат
 ш үр
ер р
 үн ээр
 хүс эх
 тогл одог
 эхл эв
 зохиц уулах
Е Г
г ас
з гий
 х ом
ар тын
ом ын
 яв агдаж
ут ин
эгд дэг
 ард чилсан
 ая га
 холбоотой гоор
 өөрчлөгд өж
T he
С арын
ө ч
дл өө
 баг адаа
 зар ласан
 заг ас
 алд арт
 нэвтр үүлэг
 сэтгүүл ч
 яам ны
Ц эр
л өж
 т р
 гар аар
 ол иг
 болг онд
 И зра
 ид сэн
 экс порт
 Т ан
 хор и
 зур гийн
in e
in dow
 мэдэгд жээ
 удирд лага
ра ф
 улир ал
 эрсд элтэй
 им порт
Ин тер
М ашин
ѳ ѳ
 д ов
 хий мэл
 Х ойд
 Э З
 Ж он
 угаа лгын
 цох илт
 өвөр мөц
 цэнэ тэй
  иж
У ур
г эг
 ц ас
онг ор
 хо ш
ик т
 байр лах
 тэмц эж
 зөр үү
 удирд лагын
Бар аг
 суралц аж
 хамр агдах
- м
i k
т х
 с эж
 ту й
 хүр нэ
үүлэх ийг
ун к
Нэг эн
 нэл ээн
! "
0 7
а о
д ир
 т ив
 с үнс
 ү гээ
 байгаа гийн
 өг өгд
 ил тг
 ашиг лалтад
 хүүхд үүдийн
 турш иж
 анхаар лыг
 зэрэг цээ
 холбогд уулан
 танилц уулж
 амар гүй
 мах бод
 уламжл алт
indow s
e st
Г А
М уу
с с
тэй гээр
 хар вал
 сан агдаад
 эх ийн
19 3
 түүх энд
 бодлог ыг
 зохиол ч
 хоц р
  l
Х ав
Ц эц
г анд
м эг
 б үүр
 ч арм
 ор гил
 ав гай
 ав ъя
лаг ад
 гар аг
ээс эй
 ур в
 төгрөг өөр
 тулг ам
Юу ны
 цөм ийн
t s
и ур
н ь
ий ж
уул ав
 яв уулдаг
 ме хан
 өвч төн
** **
 е вр
  =
  in
э б
аа вал
 ор лоо
 ам с
ат ур
 талаар аа
элт ийн
 шаард аж
 ханд сан
Ерөнхий лөгчийн
өлд өө
 үндэс тэн
 наад амд
 систем ийг
Өмн өд
Ж ижиг
 дар на
 ой н
 санаа тай
 зогс охгүй
 өрг өдөл
 зарц уулах
 ургам ал
0 5
7 5
в ас
эх эн
өн х
үүлэх эд
 бие дээ
Эр эгтэй
 И тал
 хал амж
 ганц аар
 мар кет
 өгч ээ
 шү лэг
 цэн эг
УУ Л
r a
Ч у
ад ар
ос т
 зар ах
 хүүх элд
 холб оос
оон о
 К ом
уд ит
мж той
 онлайн аар
 жив х
3 4
 А ТГ
 бодох од
 алт ан
## ##
 эрдэмт эд
Б анк
г үүдийн
 ту нх
 ойлг олц
 хайр лах
 ид дэг
нээс ээ
 хүрг эсэн
б ил
л ь
 н ээрээ
 ажил тай
 чад ал
 авах ын
 үргэлжл эх
Ас ууд
 сүй р
Цагдаа гийн
0 8
? ?

м иний
х аар
ий гаа
 хэр ээр
 хэр үүл
 ж ол
 ж иш
 жил ээс
 гэр чилгээ
 нэр ээ
 хамт р
 сэтгэл ээ
Хү с
 машин ыг
олгой н
 суур иа
 асуу сан
 техн икийн
 дараах ь
ou s
ou t
 хөн өө
 суурь тай
БН ХАУ
 ес дүгээр
 урамшуул ал
Г ал
м онгол
 хий жээ
 Б үх
 зар ж
 эм х
 байгуул амж
 хамт лагийн
19 2
 мэнд эд
 буруу тай
 түм энд
at e
 нур уу
 цэцэрлэг т
u ck
Ж үжиг
 д уулж
эр эл
 хүр ээгүй
 өнгөр ч
Ор ой
 ус тг
 хөдөл г
 бут лах
 тогтоо ж
 нүүр сний
 гайх аж
 тэж ээл
 хамаа тай
- Таны
Э Д
 т ааш
уу ц
 бол олцоо
 л уу
 тал бар
 төр өөс
 дээ гүүр
 Г ад
 гэх ээс
 түүх тэй
!! !!
 хян ах
 дөрөв дүгээр
Дах ин
g u
г үүдийг
 т үйм
ний хээ
 он овч
 бүх нээ
 хөл өг
 гүн згий
 хуваар ил
Мэргэж лийн
Т ам
Х уучин
г он
х аж
 г үүр
өөр эй
га вар
 зор ьж
 хүү гээ
 тон н
 биен ээ
 гар галаа
 ам рах
 бу ян
 к оронавирус
Бид нийг
 шат ах
 менеж мент
Нөх өр
В С
З ам
ц гой
ц эцэг
 ор оогүй
ат ан
 хэл эхгүй
 сонг огдсон
 О доо
 хэв лэлийн
Нэг энт
 нөлөө лсөн
 хөтөлбөр ийг
 бүртг эгдсэн
 чим эг
 амт тай
 уучл алт
 уучл аарай
 гр упп
 даалга вар
А ж
Ч амд
ц ийг
ил тын
 он ош
 тан саг
лог ч
 зур агт
 гол ын
 үүс г
 Ү йл
 мэдэгд эж
 гүйцэтг эж
- аар
0 4
a st
Х у
Х аа
ал дах
 ю ү
 о б
 зориул ан
 тулг арч
 хил ийн
 нөөц ийн
- Д
q u
 о ё
ес тор
 хэв ш
 бүтээ ж
 тооц ох
 дор ой
 нүүр с
 кин он
 хуур амч
 улир лын
 тах лын
 ялг ар
 үд эш
5 5
и ор
тэй гөө
 эр үү
 Т ав
 С онг
лог о
 Э х
 дав аа
 мөр т
 зээл ийг
 уулз сан
 хамаар ан
Бол овср
0 2
м эд
ь ц
 с үү
 а сан
 гар д
ер в
ая г
 эм ийн
 сэтгэл тэй
 чиг лэлийн
 шалг алтын
 шалтгаан ыг
 хөтөлбөр т
 гарг ахгүй
 төлбөр ийн
 ялгаа гүй
 t o
 хүсэлт ийг
 тэдгээр ийг
 төсөв т
 жирэм сэн
0 3
ор иг
 бү лг
 хэрэг жилт
 р ом
 дэмж сэн
ац тай
 зөвшөөр өх
Энд ээс
 жагсаалт ыг
Тод руулбал
 оновч той
 т оль
 з үү
 м есс
ор к
эх ээ
ог чийн
 гар вал
 хэрэг л
 эрх ээ
 ний слэлийн
тэл гүй
 ф унк
 өөрчлөлт ийг
Хув ийн
 ойролцоо гоор
 боо м
 удирдлаг ууд
4 9
д өж
ай к
 т ох
ар хан
 г адаг
 ц оо
 бод итой
чил гааны
 Т урк
 алб анд
 дэв шигч
 ярилц ах
 чиглэл д
 диз айн
үв шин
  st
Г ҮЙ
ж уулагч
л онг
н үүдийг
 г ээ
өг чийн
 хий вэл
гээ е
 зас ал
 Г ан
 ай даг
 өгөх ийг
 те атр
аб ор
 таларх аж
л ик
т у
Ө ө
 г этэл
 ү гийн
 ц ам
 Т эд
 байгуул алтын
 нар ийв
 су нг
 хамт арсан
 Бурхан д
 рүү гээ
 орд ны
 дал ай
 хуур ай
3 8
Е сү
л уу
 д аж
 д ээл
 яв длын
 эх энд
чих вал
 сур агч
 яр уу
 эм гэн
хэн дээ
 зур г
 дот орх
 тогл олтын
 иргэд ээ
 К анад
 үүс гэн
 суур ин
 орлог ын
 тос ны
 төлөвл өсөн
 олд сон
 хажуу гаар
 өнөөд рийг
 тунх аг
P hone
Ж ич
Х өөр
Х олб
Х өдөө
г оос
л ад
с айн
у гаа
х аан
ш гийн
 т аагүй
 г олд
 с аар
ах а
 хэл ээгүй
 хэл снээр
 хэм ж
Тэг эхэд
 хугацаа тай
 өв гөн
 учр ыг
 цэвэр лэг
энх эр
 жижиг хэн
 G oogle
 F acebook
 өрсөлд өх
 өнгө тэй
 хүндр эл
 тэвч ээр
Жин хэнэ
тх эгт
8 00
Д уучин
Т ур
д ох
л үүлж
р өөс
х ой
 х аал
үүл эв
 өөр ийг
 үе ийг
 хүмүүс ээ
 Ч ингис
 зов ох
 нүд энд
 зая а
Байгал ь
E D
ын х
 ш ун
 ир эхээр
 ил тгэл
 нас ыг
 тодорхой лолт
 дунд аас
 ая н
дөг гүй
 түүх ийн
 орд онд
 t he
 ос ол
 тий ш
 гайхам шигтай
r y
ай ны
 бай снаас
ад ан
 Б ур
лах ыг
 зар длыг
чд од
 санаа ны
 амь тад
юу ны
 охин той
 үх сэн
 таар сан
Ард чилсан
 үзэсгэл энтэй
 хуралдаа н
 хааг чид
 зориу лагдсан
i f
o c
л одог
аг ц
 юм анд
 ц аад
 ж им
 дээр эм
 ард ын
 амжилт анд
 хав ар
 бор луул
 ног оо
 хоё ул
Сон ирх
 суурил сан
 нил ээд
 Эл чин
  +
Д уу
г ип
ар а
 д а
 ц у
 ц охи
 сур гаа
 уул ын
лон о
үх баатар
 C h
il l
 илгээ х
гэ ш
 шалтгаа л
 Хэр эв
1 20
e p
Ш ууд
Я в
р аа
ог оон
 байгаа гаас
 байгаа сай
 гар игт
 Т рамп
 О юут
 сал ах
 тохиолд сон
 удир даж
 чадвар ыг
 тойр онд
 шалгар уулалт
 жагсаал тад
 телевиз ийн
 муз ей
л ат
л үүлнэ
 ол оод
 ж оохон
 Д АШТ
 сонг оно
 бич нэ
 хувь даа
 хоол оо
 хөдөл мөрийн
 пр окур
 туш аалт
 эзэм ших
 хүрт сэн
Сонг уулийн
 зориг той
ч уур
 з ул
 ажил лаг
 он ол
 хүс ээгүй
 хор воо
 хайр ладаг
 эл емент
 өс ч
 ертөнц ийг
 сав ан
 бэлтг эх
 өд гөө
Цах им
: )

Э Х
 н оён
он с
 эр эл
 зүйл ээс
ен н
 хүүхд үүдийг
 өм чл
 санагд ана
 ач аа
 хариуц лагатай
Бү тээ
es s
 өрт өг
 шав ь
 жуул члалын
  Өөрийн
Д унд
И с
н ын
ин ээ
од оод
ая а
 тодорхой лж
 ут саа
 өнгөр өх
 шинж тэй
 өвч тэй
 хийлг эх
Ой р
баат арын
  Өнөөдөр
9 5
з үйн
л ай
үүл ээгүй
хан гай
 уу члал
 бар илг
 С ай
 зориул алттай
 тэмдэг лэх
 хүү г
Эм ч
 шилж их
 хаг алгаа
 сууд ал
 яри аг
 амж аагүй
 Мэд ээ
А гаар
Н ҮБ
г энд
д орж
 н үх
 ц үн
 ав аач
 хар ахгүй
 хэл ийг
 үз лээ
 тэр хүү
 эрх тэн
 өр өв
 тухай гаа
 нам ар
ист ан
 айм шигтай
Анг илал
 цөөн гүй
н ах
ор сон
 ту лал
 хий д
 хэл чих
 М У
 байгуул на
 р ад
 санаа чил
 хүч ийг
 холбогд ож
.Э лбэгдорж
 Эр үүл
Хэд ий
 хүрт лээ
абор атор
Т үүх
л ин
 х имийн
тг ал
 сан с
 тан их
 шин жээ
 талаар хи
 О У
... "
 ажилл уулах
 хөр в
Манай хан
 Ү н
оц иал
 хэлэлц үүл
 сол онгос
 хөдөлгөө ний
un g
Эрх эм
 ям агт
 хөнгөл өлт
А д
в ин
 ч ийг
ам дах
 чад алтай
 тог ооны
гэл т
 хайр ын
 дамж ин
иц енз
 тий шээ
арь ер
Айм гийн
" С
' s
a il
А лд
г ор
т оо
 бай г
 а к
 к ур
мн эл
 дур ьд
 хөг жл
 тохи ол
 хич ээх
 үүс гэж
ar e
 хүчин гүй
 ярь жээ
 аз тай
 харилц ах
 хаш г
 тэнц вэр
Үр гэл
Тав ан
 Цаг аан
 болгоо мжтой
 судлаа чид
  ог
. com
= "
Х ойд
т ыг
 б аахан
 т оос
 м алт
 хү чил
 тус маа
 хөг шин
 тохиолд дог
чим эг
 мөнгө тэй
 эл эг
 охин ыг
 зогс оол
 байгууллаг аас
 батал ж
Гэр ийн
 амьдралын хаа
 өмс өх
 алдаг дал
 барь цаа
 төсөө лж
в ад
д ав
и аг
с лан
 ам ин
 Б ус
 хийх дээ
 бус аар
юул гүй
 урьд чилсан
лагд даг
 програм м
 е сөн
 хуваар ь
 агент лаг
 инж енер
г алтын
л өөр
Ө д
 с өх
 дар гыг
лэг чийн
 өмн өд
-ын хан
 хор в
 гад ар
 хөгж их
 дуус гах
 түүх ий
 тэмц ээний
en d
 асуул тад
 халдв арын
 бичлэг ийг
 мая гаар
 буцаа н
 оролд ож
 хүм үү
бил эг
a in
Ю м
л ууд
 х ир
 ав ир
 байх аас
шин э
ац и
 өөрсд ийнхөө
 суур ийг
 асуу хад
 тогтоо гд
 ерөнхий дөө
 хөтөлбөр ийн
 гуй ж
Сан хүүгийн
 хос ууд
c t
Н ут
сэн д
 ам галан
 хэрэг лэсэн
 ж имс
 өг вөл
 нэр лэж
 даа в
 Н ийг
 хя наж
 хаа яа
ок тор
 хэрэгс лийн
 төлбөр гүй
 хөгжил д
 огц р
Дот оод
 мөрт лөө
Н үд
П ар
ш сан
 г аш
эв эл
дл оо
олд угаар
үүлэх гүй
 эд гэр
 хүч ээ
 удир даг
Дэл гэрэнгүй
 таа лагдсан
 нэгд эж
 гэрээ ний
 өгүүл бэр
 парлам ент
i o
Я поны
 н үүд
 з эс
 у на
 ил эрсэн
 тэд энтэй
 ший тгэл
 дуу гүй
 өв чл
 хайр цаг
 ут аа
 сонгуул иар
 буур сан
 нү дээ
лол тын
 захид ал
  up
Н ай
б аа
л ий
ү ж
 н огд
 г ац
 у далгүй
 я пон
 мэд ээд
 жил ийг
 юу наас
 ур с
 бат лан
 П р
 дүүр эг
Тэн гэр
" Энэ
З үүн
У ран
Ш аард
и араа
м и
 з аал
 бү лд
 ор олдл
 гар ган
 хэрэг лэнэ
 үз лэг
 яр ина
лэл д
 байр ыг
 Ш в
 боловср уулж
 алд жээ
Эн гийн
 март аж
 өглөө ний
 өгөө ж
 мэдлэг тэй
 хv н
 ну тг
Шил дэг
OL O
И Д
Т О
х оёр
ц ын
ь ё
 н уур
аг даагүй
 з өг
 үйл длийг
 ажилл аад
 санагд ах
 Ө р
 үнэл ж
 төрөлх тний
 утг агүй
 чарм айл
 Гад аад
3 7
Д ан
з а
ы м
аа лийн
ас с
 хэр вээ
 бод лыг
чл аарай
 Х Ү
гуул ж
 өв лийн
 турш лаг
 дунд ж
 зөр чл
 орох од
 мэргэжилт нүүд
6 5
г айл
д ад
з оо
к ра
 х ээр
 з эм
 ш арх
 ам ийг
 эн ийг
 төв өгтэй
 тохир ох
 танилц уулах
 мэдээ г
 тайлбар лах
 нэвтр эх
 төхөөрөмж ийн
ec t
- М
- С
т өрийн
ий тэй
 ор чих
 Б АЙ
 ил т
эц ийн
 бие эр
 үг энд
 буй г
 хүнд тэй
 хүнд этгэл
 үлд эж
 харилцаа нд
 хүүхдүүд ээ
 дууд аж
Дөр вөн
  ис
i e
Д олоо
ф ган
х өө
х ов
 ор оо
 хар аагүй
 ам ны
алт аар
 үйл дл
 ёс лол
 зор чих
 тохи ож
Ерөнхий дөө
 сургуул иуд
 түр үүлж
 чиг лэсэн
 үүр гийг
 Ар дын
 бүрд үүлэх
 жур мын
 багт сан
 Хар ин
Гур ав
 муж ийн
Чу хам
6 00
Т ехн
Х уулийн
Ц ар
Ш ар
о ч
у ны
х р
ор д
 ху н
 мэд ээгүй
 үйл с
 зар лаж
 С айн
 төс өлд
 M iss
 Ар аб
 уралдаа н
 шув уу
. )

Ш ударга
 ш үүлт
 бү тэлгүй
лаг длаа
 дар гаар
 к р
 Х ув
 өн гийн
 болг оод
 мэдээл ж
сн ээ
Эр д
 чам аас
 таар ч
 өнөө х
 төдий лөн
 Британ и
 өрн өж
 сув ил
 найдв ар
Тод орхой
 каз ино
 туй лын
O S
А У
ш ийн
Ө АТ
 т аш
 мэд эг
 эр ин
 Х эн
 зур сан
 и в
 том ъё
 сал ж
 сэтгэл гээ
 ут гаар
 хариу г
 охин оо
ок с
 ач аар
 цааш даа
 е вроп
 уламжл ал
гип ет
2 50
Ё стой
р аг
 ч ир
 ор ныг
 ху т
 ху ц
 ар ч
 болох ын
 бод охгүй
 М анай
чил эн
агд лаа
анг ар
уд ын
 ух амсар
ou r
 нүд ний
 бууд лын
 сайж ир
 тусал даг
Тайл бар
  айр
Т ү
д ээд
с ноор
Ө с
 ш аг
 ц ал
 ж ар
лэг чдийн
 ун шигч
 зал г
 хүнд ээ
 ажл аас
om ment
 загвар ыг
 үер х
 арилж ааны
ж им
 т уулж
ов ид
 бар ина
 байр ладаг
 О л
 авч рах
 ад уу
 боловср уулсан
 Бурхан ыг
 . .

 судалгаа гаар
Нам ын
 үйлчл эх
 чим ээ
 татгалз ах
єє р
 мөрд өн
 мэргэжил тэн
a h
Й орк
п ур
 бай я
эр эн
 м эх
 м алын
 хар лаа
 тан ьж
 сур агчид
 тав ина
доо гүй
 нас аа
 ин д
шин а
 хийг дэж
 мөрд өх
 сэдв ээр
- Г
. Амар
o g
 б аа
 хүр тээ
Өөр төө
 ханд ан
 тэн гис
 үүнийг ээ
 мэдэгд эх
 төлбөр ийг
 хүрт эх
 тусал на
ош иал
 ачаал ал
  үүл
  иш
Ө Х
 х эз
 бол их
 ол ноор
 ямар ч
 ун ах
 тоо гоор
сд өг
ек ст
 дэмж иг
 үүс эх
 тар хи
 тэмц эл
 хэлэлц үүлэг
 тойр он
Эрдэнэ т
 эмчилгээ ний
 тамир чид
 багас гах
 хах а
 борл уулалт
мун ист
С ҮТ
ж ав
ъ яа
 бол сн
 у ян
үүл ье
үүл ээрэй
тг он
үүд тэй
 зүйл сийн
 тан тай
 гэр ээсээ
 дур аараа
 сал хи
 ханд лагатай
.Б олд
 эв л
 бая ж
 ээл тэй
 шалгар уулах
 туу штай
 парлам ентын
 гор им
 дам п
 хураа мж
- Миний
Х он
Ч ингис
с өөр
 д уулсан
ээл ээ
 яв саар
 ар авдугаар
 к ор
 өг өв
 олон х
 зор ьсон
 зур гууд
 тэм д
 шил эн
 дуус тал
 янз ын
 дүгн эж
 хүл ээлт
 дараал ан
Жүжиг чин
  ..
- Манай
4 2
Х ат
ж р
л олын
т эг
ч ний
 а удит
 я с
 бүх элд
Инг эхэд
 хугацаанд аа
 нөлөө тэй
 хууд сууд
Бай гуул
 биел үүлж
 олбор лох
 Холб оо
Ирээд үй
" Т
. Алтан
l y
З аавал
н эгт
 б х
 т уур
на м
ууд аар
 л иценз
 гар ахад
 в алю
 сан дал
 Х ал
 Н ью
 хаа х
 ах лах
из мын
 шийд нэ
 өрг ө
 тогтоо мж
 унт ах
ag e
 тор гуул
Өнөө гийн
 зол иос
агц хүү
i an
Б Б
Ц алин
б ү
т и
ах ан
 я адаг
ог оо
эгд лээ
 одоо г
Тийм ээ
 алб агүй
Тэд энд
 төлөө лөл
 хө шөө
 мөр ийн
 бүс эд
 чам тай
Ам жилт
 харагд ахгүй
 хариуц сан
 орны хоо
 дай сан
 орой н
 хөдл өл
.Н ямдорж
Цааш даа
 нү ц
 нот лох
 Холб ооны
" Бид
N o
Х ий
Ч ад
л оод
м ин
у з
х оор
 т ем
ой лг
 ц ааз
 хар аат
 Т өр
 баг аар
лэл ийг
үүлэх ээр
 р естор
 З а
 З үүн
 компан ийг
Ийм эрхүү
 бүс ийн
 зов лонг
ли п
 болгох ын
 хамр агдсан
 орх иж
 цэн гэл
 хож им
 дохи о
 диплом ат
Э мнэл
в с
 г ах
 хий чих
 тан ихгүй
 нар аас
 Г ерманы
шин з
 компан иудын
 хууд сыг
 бор луулах
ic e
 чуул ганы
" М
" Н
Г иш
Д ээд
У с
м өөр
Ө Н
 б ан
 х өөц
ил ын
уул ъя
 байгаа даа
 эр эг
гээ гүй
 Х ууль
 үйл длийн
уур ч
 худал дах
уд лаа
Ам ь
 монгол д
 зөвшөөр өхгүй
 харилцаа г
 толгой д
 түв шний
 найр уулагч
 өрсөлд өгч
Эц сийн
 шинэчл эл
 үлдээ сэн
 цом ог
 орхи сон
 страте гийн
  ~
- Н
Г ан
б э
и аны
х эм
уу жин
 г оол
 ху й
 эр дэнэ
 ол дог
 сай тын
 үз үүр
 М оск
 тан гар
 яр илаа
 - 

 боломж ийн
чир халтай
 дур лал
 буц аад
Бар илгын
 бөх чүүд
 материал ыг
 авчир ч
 амьсгал ын
 хөрөнг ийг
 хөлбөмбөг ийн
Г ерман
О Г
Х ул
е лийн
ш н
ин к
 зүйл гүй
 төл сөн
 ний лж
 зохи стой
Ямар тай
 цэр гүүд
it y
 мор ил
 хөв гүүд
 сэж иг
4 4
Х уул
Х үр
и сан
ин гоо
 гар иг
 к арьер
 тал ууд
 Т ай
 Т ус
 нар ны
 нар таа
 ашиг т
 зас гийг
Хэр хэн
 сонс дог
 түр үү
 сүүл ээр
ац гаа
 явах даа
 гэм ээр
 Хятад ад
 хөн дл
Ав страл
 үйлчл үүлэг
 бя сал
 хувилбар ыг
 кон т
 ов оо
 хэрэгцээ г
өтг өр
 олиг той
- 

- наас
. З
b er
м эн
х ор
 хүр гэдэг
 баг аж
 тус лал
 бүтээ гд
 санаа ч
 ф ор
 төлөв тэй
 эхл үүлсэн
шил ж
 байгууллаг уудын
 асуу в
 хав др
 үх эр
 хэрэглэг чдийн
ио той
 нутагт аа
 тэдгээр ийн
  and
у др
ш дээ
 б өмб
ин га
 бү лээ
 хэл м
 дар гад
 тод руулах
Тийм дээ
 дахин д
 үндэс лэн
 орч ныг
 зү с
 зү тгэл
 нээ сэн
 аш гийн
пер атур
 болгоо м
 шуу ги
Тог лоо
 яриг даж
 мэдэр дэг
h t
А шиг
К ин
Т огт
г уудын
ий р
 м өх
эм гий
эв с
ут луур
 бус ын
 зас лын
 түр х
 ирэх ийг
 хав ь
 ярих гүй
 болчих оод
 болчих лоо
 T he
гад угаар
 чул уун
Амьдрал ын
 шан ал
 Энэтхэг ийн
  re
  үүнтэй
- Б
I D
o y
v i
б ид
є х
 х аз
ур аг
 цаг таа
 хүс нэгт
 дот ны
 К р
ем ат
 хот ыг
 ф ото
 тохир гоо
 зүй р
 бүсгүй н
Сан ал
 хулг айл
 очих од
 чин ээ
 нээл тээ
 Нам айг
ерр ор
 хөөц өлд
- ээр
. П
w it
л аарай
өө е
 тэд нээс
 хамгаа лагч
 танилц аж
 бүрд үүлж
 орд он
 зуу нд
Уул з
Хөр өнгө
 өч үүхэн
 бүрэлдэх үүн
 ЭЗ ЭН
  Ер
3 9
7 6
P S
u d
Г азрын
Д үр
л өсөн
ай гаа
он гийн
 хэр гээр
өх ийн
 сай хныг
 Х өг
ис ын
от ын
уй н
 С ангийн
гд аж
 анхаар алтай
 бүгд эд
 амь тны
 дүр д
 танилц уулга
 айл члал
 төлөвлөгөө г
 гом д
 үргэлжил нэ
Эмэгтэй чүүд
 хамгаал алтын
 нү гэл
 төгсг өлд
 түл ш
 орш дог
М У
 бай длаа
 д э
 ор ц
 ор жээ
 ав лага
лаг даагүй
 Х ор
 тал аасаа
 тал архал
 олон д
 гэр лэх
лэл ээ
уй ц
 тү ш
 гад наас
 дүр в
 алдаа г
 үйлчл үүлэгч
 хязгаар лалт
 арил жаа
 зогсоо ж
 татгалз аж
 тэж ээ
 авчир сан
 тэв р
G oogle
a z
З амын
Ю ун
в ен
л з
 м уур
ад ем
 ц ээж
 Х ан
 А жлын
уулах ын
 Э ц
 сэтгэл ээр
 төс л
 хувь тай
оол ингоо
 оролц огч
 ф р
 эл бэг
 хийг ээрэй
 асуул га
 гаргах ад
 өрөө ний
 I I
 бодох оор
 жур мыг
 R e
АТ Г
 тэс вэр
Ас уулт
 өөрчил сөн
 таалагд даг
 дором жл
Хоёрдугаар т
) )
H ome
Н эм
С т
Э в
г чийн
л гийн
 бу даа
 ал чуур
чин д
 илүү тэй
өлөө т
19 1
 хайр ыг
жилт ийн
 салбар ыг
 нэв т
 тойр ог
.Х үрэл
 хуваалц ах
 даж гүй
м м
р ээ
 т э
 н ух
ат ар
 яв ган
 ар ав
 шин гэн
 хур аалт
 Н ар
 Н ом
 хэрэгс лийг
 бууд алд
 хөдөлгөө нийг
 автом ашины
 эсэргүүц эж
 БН СУ
 хувьцаа ны
 харгал зан
 өмгөө лөгч
инга пур
  ын
  vv
a w
О хид
Х ож
Э З
б ад
з өв
з ориг
 х ана
 ш улуун
 их эс
анд ын
рал ын
 тайл анг
 үүр д
 мэр гэн
 нэмэгд эх
 тооц ож
 ерөнхий лөгчийн
 иргэн ийг
 шилж үүлэх
 өрт сөн
 ос олд
Дах иад
Сэтг үүл
авх лан
Б айр
Д ал
Х ад
и он
н ай
 х өлд
ай ж
ир эм
ос оф
ис к
 С ар
 даа шинз
шин д
Ар ай
 онц лох
 мэр гэш
 ээж ийн
 чөлөө лөх
 настай даа
 огц руулах
УУ Д
 Мэд ээл
 гудамж инд
 зуг т
баат арт
 туслал цаа
  үйм
E E
N U
a a
i z
я р
 ор ноос
 хэрэг тээ
 хий в
 М ан
 дур ын
 ер дийн
 төлөө лөгчид
 К ар
 унш аарай
 үндэс тний
 итг эхгүй
 танилц сан
 таа лагдаж
 үлд энэ
 хэрэглэг чдэд
 хязгаар лагд
 Америк т
 хурд тай
Хайр тай
 хас ах
 нот ол
БН СУ
Он лайн
 Хү ний
 стат ист
М өнгөн
ц ээнд
 ашиг лалт
 Э н
 дав сан
 манай хан
 уд ам
шил тай
 буруу т
 баримт ыг
Үүнийг ээ
 угаа ж
 зарц уулж
 сүлжээ ний
 хүндр элтэй
Есү с
 дундж аар
  e
- ий
- Монгол
А Д
г үүн
л ид
 хүн ээр
 сай гүй
чих сөн
 Д орнод
 З ах
Эр дэн
 үүс ч
 мэдэх ийг
ок ол
 бүтээл ийн
өгд сөн
 багш ийн
 огт хон
ант олгой
Сүүл д
 зарц уулсан
 ман ь
 m in
 Аз и
Шин ээр
 хэвт эж
 эзэмш сэн
инээ в
  Ямар
5 1
Е Х
Ш үү
Ш өн
а ч
д уу
л га
л лийн
э к
ол гүй
аг аах
 ту йл
ид ер
 төр дөг
 тав илга
 ун шина
 ая тай
 гэм тэл
 ярилц сан
 хамаар ч
 төлөвл өлт
 зүтг эж
Бод ит
 утг ыг
 нул имс
i p
i st
З ав
Ц эвэр
х х
 д уулах
 ш о
 эр үүгийн
өв сгөл
 ол охгүй
гал ж
 хоёр т
 С он
 тогт сон
 хаа ж
 тат даг
 гур в
 сонирх дог
 сонирх лыг
эхүү нд
Ам галан
 зогс сон
 сол ьж
 тэнд ээс
Ард чил
 үргэлжил сэн
 мө чид
Гадаад ад
 хэмээ сэн
 хороол лын
Нэгдүгээр т
. Л
л я
х ээр
є г
 т оонд
 с өн
эл эг
оо той
 хар в
 байх ав
аас ны
ат ын
 хор той
 п ас
иул ж
 ажл ууд
 баяр ыг
 аг уулсан
 Ш ин
 S h
 хөт өч
 асуулт анд
 бэлтг эж
Иргэд ийн
 олбор лолт
 Ний слэлийн
iv e
  от
4 6
u g
Ш ү
Ш ий
л ээрээ
х онд
Ү л
 ам арч
ов ол
 бод но
ул ган
 М ал
 Т эн
 тав илан
 хуул бар
 одоо хондоо
 Г ар
... "

 оролц оно
 сайд ыг
 Л онд
 тайлбар ласан
 эв с
 харилцаа тай
 хамгаалах ын
 татгалз сан
 тэтг эмж
 сор илт
 өл с
 хэмээ в
 судлаа ч
.дол ларын
 харгал з
 маркет ингийн
З о
Т ар
Ч ин
аа гаад
ан аас
 н тр
өл ж
үүл ийн
 ав арч
 хо в
 Х айр
 тэр ийг
 хийх ийн
 нам д
 бич гийг
 даг уулж
Ар ван
 онц ол
 эл чин
 монгол чуудын
or t
 үзүүл нэ
 Я понд
 систем д
 цуг луулах
 шир ээ
ээээ ээээ
 тоглог чид
Гадаад ын
 Y ou
Бая н
 бахарх аж
 Христ ийн
 найм дугаар
 ууд аг
С эр
ээ э
ил д
ил оо
ил ип
 юм нууд
 нэг ээр
 хий е
Тэр нээс
Тэг тэл
19 0
 заа х
 сургуул иа
 хөгж сөн
ей ц
Бар уун
 шинэчл эх
 алт ны
 өл сгөл
 Франц ын
 Хүүх дийн
итр ил
 функ ц
 тем ператур
 ту лаан
 хэл лэг
 хүр дэг
 ан хан
иж итал
дв ол
 эрх элдэг
 хуул иа
 ном оо
 сүлжээ нд
 шагнал ыг
 Хам гийн
  эт
: :
Д оор
Н айр
О М
є л
 я ана
 л аборатор
 хар ъя
той гоо
 сан аарай
 бар ааны
 бид нээс
 Т ам
 сур даг
лэл тийн
Хар иу
 Н адад
 мэдээл сэн
 мэдээл лээр
 мэдээл снээр
 бүт цийн
ar k
 баримт лах
сгал ан
 явц ыг
 ня м
Хүмүүс ийн
 алх аж
 дасгал жуулагч
 өөрийнх өөрөө
, ,
I n
п р
Ө В
Ө Г
 б аар
аа а
ээ врийн
эг чдийн
 бол моор
 м эл
ад ын
лаг аар
 ол но
 бүр ээс
чих лээ
 өр гөө
 өр шөө
лог дсон
 Монгол банк
Эр чүүд
 оч но
 Ү з
 айм аар
 оруул аад
 S on
 ажиллах ыг
 мэдэгд лээ
 аав ын
Ний слэл
 бариг ч
ro s
 v з
 яри аны
 ов ог
 хэдийн э
 Хэр эг
 сум анд
dow n
 тасал бар
 месс еж
  ом
f f
к ийн
т эж
у сан
х а
Ү үгээр
 с ерв
ин ох
 мэд эхэд
сон о
 зүйл үүд
Би тгий
агд ахгүй
 зар лиг
 тус гасан
 эрх элж
 У Б
 асууд аг
 удаа гүй
 р ек
 тогт олц
оё лын
ек ийн
уд ар
 бусад тай
an t
 оч дог
Ам р
 ажиллах гүй
 захир гаа
 бүртг үүлэх
 тусламж тайгаар
 орх их
 тэнц үү
 онцлог той
 буул гах
 хэлт эс
 Эм эгтэй
 амжил тад
 талб айн
Өд гөө
З Д
Х аана
в ит
т эд
ү гээ
 б ааз
 бол бол
 м от
 я лах
ой н
 в иде
 хүр чээ
 С екс
 дуу гаа
 Э НД
 Г оолингоо
адаг гүй
 итгэл ийг
 түүн члэн
id e
 хариулт ыг
im e
Өглөө ний
 харамс аж
 страте ги
элэн гэ
- Бид
l ay
p re
б ур
л ер
 б онд
уу нд
 г ен
өө х
 ир вэл
 хүр лээ
 к лип
 А с
лэг ддэг
 Т ом
олд ог
элт гүй
 зам бар
 хэс гээс
 ажиллагаа тай
 зэр гийг
 гүй ж
 өм өөр
 явах ыг
 дамж уулж
 эсрэг ээрээ
 тун гаа
 асуудл уудыг
 тов чл
 зарц уулдаг
 ня лх
 өөрчлөгд өх
ИЙ Г
 хуралдаа наар
 хаалт тай
 дамп уур
  Өөр
Б С
г өөс
х ив
 б өөр
үү гээ
 з ус
ав ал
 ав агч
 хар аарай
 Т У
 сур тах
 бүх нээс
 анх дагч
 Н эгдсэн
 зах ын
 тохи олдл
 компан ий
 ял гаж
Өн өөд
 хот оос
 хариу д
 ханг алтгүй
 зогс ох
 таа лагдах
 чадвар гүй
 болгон ыг
 гүйцэтг эдэг
ян га
 орой т
 хийлг эж
уууу уууу
 огц ом
 ат аар
of t
 боом т
 цүн х
  →
S t
Ж илийн
Н Б
Н ис
Х Б
х эл
 н ая
эх ээс
 хү лээд
ой тон
 ө дөө
 бу даг
 хий ц
но в
 дээ ж
 тан ьд
 биш ээ
лд сэн
 хүс дэггүй
 хот ноо
Ар дын
 дүн гээ
 унш даг
 өрг өтг
 үлд лээ
 A pple
18 0
 W indows
 зөвлөгөө г
 даатг ал
Бур уу
 гэн ээ
 Бус ад
" Д
A N
У гаасаа
Э зэн
 т үү
 н е
 д эн
 я дан
 хэл тэй
 чад лаа
 эрх лэгч
 дур сгал
 З ар
 тат аад
дах ад
 боловср олтой
хам гийн
 асуул тын
 Ө г
 болгох од
 хөдөлгөө нд
Бус дын
 өнөө г
 багт аж
 яд уур
Дээр ээс
ху яг
 хашг ир
5 8
A S
О нг
б ам
ч тэй
ш г
Ө Л
 т ест
 ш т
од он
 ху с
 он доо
 нэр лэсэн
 хийх ээ
 сэтг эх
 болов сон
 бэл дэж
 сонс г
 уг т
 M ac
 хариул ж
 хариул ах
 өрсөлд өөн
 Бү гд
 үгүйсг эхгүй
 тааш аал
- оос
C O
А АН
Т овч
г энэ
л өөд
ол ыг
 с эн
 ш ог
 хар ам
 А жил
 тав тай
 су пер
 бие ийг
агт аа
 үйлчилгээ нд
 сург амж
 бичиг дсэн
Тус гай
 оюут ны
 нийц сэн
Баяр лалаа
 нүц гэн
- Уул
l d
У хаа
ан ь
ан хай
 хү сэн
өл өв
.. ...

 эх эн
аан аа
 эм гэг
 ажилл уулж
вр ыг
 залуу чуудын
 үйлдвэр т
 анхаар на
 өгөх өд
 ф ил
 дуус лаа
 хариул сан
 цааш аа
 үс ээ
 худалдаа нд
 ихэнх дээ
 тэнгэр ийн
 стр есс
 брэнд ийн
раф ик
 жол оод
Х өт
б у
и агүй
т нүүд
х өөр
ъ ект
 т уулах
 бай лд
 бү ж
 ц ээр
 М ак
 бүр дсэн
 төр үүлж
 шин эхэн
лэх эд
 п лат
огд оно
 үйлдвэр лэсэн
 дуус на
 тохир уулах
 ажиллах ад
об от
 сонголт ыг
 эрчим тэй
 станд артын
 хөдөлгөөн т
 Бай гал
 цал инг
wit ter
r am
Г р
О У
У Л
Ш У
ь яа
 х ацарт
ал даг
 д олдугаар
 бол оосой
 ш ул
 би р
 юм ны
 байгаа тай
 мэд эрсэн
 уу гаад
 бүр ээр
 хүүх нүүд
 сал сан
 залуу тай
 ханг амжийн
 хэрэгж их
 өм д
 баримт лал
олог и
 дамж уулах
 туш аалд
 зан ал
 хориг лосон
 буу х
 технолог ийг
 өгдөг гүй
 муж ид
 эсэх ээ
 шүүм жил
 Есү сийн
Ах мад
 таамаг лаж
 Ин тер
 энер ги
out ube
 өрөв д
4 1
4 3
H D
А йл
З Х
аг ас
уул аагүй
 ажил чдын
 яв уулна
 ал уур
 сай тад
 ж ишиг
гээ ж
 биш үү
 хор ом
 п уужин
 хон ь
 төлөө х
 ус ыг
 Ж ДҮ
гоор оо
гоо ё
 үнэл эх
vv д
Ав лиг
 эхнэр ээ
 бариг дсан
 илгээ сэн
 уй лж
 орос ын
Ганц хан
 хэмээ жээ
ЭМ Б
 апп лик
 түмн ийг
 харья ал
I N
Б ал
Ж олоо
Т урк
Х өх
е на
м уу
ай сан
 н үүл
 д аанч
 ц ор
 ол з
лэг дэж
агд ан
 байр лаж
 асуудал гүй
 К аз
 хөдөл гүүр
 өс өх
 таар ах
 мал гай
 тоглолт оо
 өмс өж
Өдөр т
 цэцэрлэг ийн
ап итал
 тогтолцоо г
 танхим д
Бүтээ гдэх
 хүлээд эг
  k
