{"\n":0," ":1,"!":2,"\"":3,"#":4,"$":5,"%":6,"&":7,"'":8,"(":9,")":10,"*":11,"+":12,",":13,"-":14,".":15,"/":16,"0":17,"1":18,"2":19,"3":20,"4":21,"5":22,"6":23,"7":24,"8":25,"9":26,":":27,";":28,"<":29,"=":30,">":31,"?":32,"@":33,"A":34,"B":35,"C":36,"D":37,"E":38,"F":39,"G":40,"H":41,"I":42,"J":43,"K":44,"L":45,"M":46,"N":47,"O":48,"P":49,"Q":50,"R":51,"S":52,"T":53,"U":54,"V":55,"W":56,"X":57,"Y":58,"Z":59,"[":60,"\\":61,"]":62,"^":63,"_":64,"a":65,"b":66,"c":67,"d":68,"e":69,"f":70,"g":71,"h":72,"i":73,"j":74,"k":75,"l":76,"m":77,"n":78,"o":79,"p":80,"q":81,"r":82,"s":83,"t":84,"u":85,"v":86,"w":87,"x":88,"y":89,"z":90,"{":91,"|":92,"}":93,"~":94,"¢":95,"£":96,"¤":97,"¥":98,"¦":99,"§":100,"©":101,"¬":102,"®":103,"°":104,"±":105,"¶":106,"·":107,"¿":108,"À":109,"Á":110,"Â":111,"Ã":112,"Ä":113,"Æ":114,"Ç":115,"È":116,"É":117,"Ê":118,"Ë":119,"Ì":120,"Í":121,"Î":122,"Ð":123,"Ñ":124,"Ò":125,"Ô":126,"Õ":127,"Ö":128,"×":129,"Ø":130,"Ü":131,"Ý":132,"ß":133,"à":134,"á":135,"â":136,"ã":137,"ä":138,"å":139,"æ":140,"ç":141,"è":142,"é":143,"ê":144,"ë":145,"ì":146,"í":147,"î":148,"ï":149,"ð":150,"ñ":151,"ò":152,"ó":153,"ô":154,"õ":155,"ö":156,"÷":157,"ø":158,"ú":159,"û":160,"ü":161,"ý":162,"þ":163,"ÿ":164,"Ā":165,"ā":166,"ă":167,"ć":168,"Č":169,"č":170,"đ":171,"ē":172,"ĕ":173,"Ė":174,"ė":175,"ę":176,"ě":177,"ğ":178,"ī":179,"Į":180,"İ":181,"ı":182,"ĸ":183,"ľ":184,"Ł":185,"ł":186,"ń":187,"ň":188,"ō":189,"Œ":190,"œ":191,"ř":192,"ś":193,"Ş":194,"ş":195,"š":196,"ť":197,"ŧ":198,"ū":199,"ů":200,"Ž":201,"Ɗ":202,"ƒ":203,"ư":204,"ǎ":205,"ǐ":206,"ǿ":207,"ɇ":208,"ɐ":209,"ɑ":210,"ə":211,"ɪ":212,"ɲ":213,"ɴ":214,"ɵ":215,"ʀ":216,"ʏ":217,"ʜ":218,"ʟ":219,"ˈ":220,"ˌ":221,"ː":222,"˗":223,"̀":224,"́":225,"̄":226,"̈":227,"̌":228,"̵":229,"̷":230,"̸":231,"͜":232,"͞":233,"Δ":234,"Η":235,"Κ":236,"Μ":237,"Ο":238,"Τ":239,"Φ":240,"Ψ":241,"Ω":242,"ά":243,"ή":244,"ί":245,"α":246,"β":247,"γ":248,"δ":249,"ε":250,"η":251,"θ":252,"ι":253,"κ":254,"λ":255,"μ":256,"ν":257,"ο":258,"π":259,"ρ":260,"ς":261,"σ":262,"τ":263,"υ":264,"φ":265,"ω":266,"ό":267,"ύ":268,"ώ":269,"Ё":270,"Ђ":271,"Є":272,"Ѕ":273,"І":274,"Ї":275,"Ћ":276,"Ќ":277,"Ў":278,"Џ":279,"А":280,"Б":281,"В":282,"Г":283,"Д":284,"Е":285,"Ж":286,"З":287,"И":288,"Й":289,"К":290,"Л":291,"М":292,"Н":293,"О":294,"П":295,"Р":296,"С":297,"Т":298,"У":299,"Ф":300,"Х":301,"Ц":302,"Ч":303,"Ш":304,"Щ":305,"Ъ":306,"Ы":307,"Ь":308,"Э":309,"Ю":310,"Я":311,"а":312,"б":313,"в":314,"г":315,"д":316,"е":317,"ж":318,"з":319,"и":320,"й":321,"к":322,"л":323,"м":324,"н":325,"о":326,"п":327,"р":328,"с":329,"т":330,"у":331,"ф":332,"х":333,"ц":334,"ч":335,"ш":336,"щ":337,"ъ":338,"ы":339,"ь":340,"э":341,"ю":342,"я":343,"ѐ":344,"ё":345,"ђ":346,"ѓ":347,"є":348,"ѕ":349,"і":350,"ї":351,"ј":352,"њ":353,"ћ":354,"ќ":355,"ў":356,"џ":357,"Ѳ":358,"ѳ":359,"҉":360,"Ґ":361,"ґ":362,"ғ":363,"ҕ":364,"Җ":365,"җ":366,"Қ":367,"қ":368,"ҡ":369,"Ң":370,"ң":371,"Ҥ":372,"ҥ":373,"Ү":374,"ү":375,"Ұ":376,"ұ":377,"Ҳ":378,"ҳ":379,"ҷ":380,"Һ":381,"һ":382,"Ӏ":383,"ӄ":384,"Ӈ":385,"ӈ":386,"ӑ":387,"ӓ":388,"Ә":389,"ә":390,"ӝ":391,"ӣ":392,"ӧ":393,"Ө":394,"ө":395,"ӯ":396,"ӱ":397,"Ա":398,"Գ":399,"Ե":400,"Ո":401,"ա":402,"դ":403,"ե":404,"զ":405,"ը":406,"ի":407,"լ":408,"խ":409,"կ":410,"ղ":411,"մ":412,"յ":413,"ն":414,"ո":415,"չ":416,"ս":417,"վ":418,"տ":419,"ր":420,"ց":421,"ւ":422,"ք":423,"א":424,"ב":425,"ג":426,"ה":427,"ו":428,"ז":429,"ט":430,"י":431,"ל":432,"מ":433,"נ":434,"ע":435,"פ":436,"ר":437,"ת":438,"،":439,"؟":440,"أ":441,"إ":442,"ا":443,"ب":444,"ة":445,"ت":446,"ج":447,"ح":448,"خ":449,"د":450,"ذ":451,"ر":452,"ز":453,"س":454,"ش":455,"ص":456,"ض":457,"ط":458,"ع":459,"غ":460,"ف":461,"ق":462,"ك":463,"ل":464,"م":465,"ن":466,"ه":467,"و":468,"ى":469,"ي":470,"َ":471,"ک":472,"ہ":473,"ۇ":474,"ی":475,"ە":476,"ं":477,"इ":478,"ए":479,"क":480,"ज":481,"ब":482,"र":483,"ल":484,"़":485,"ा":486,"ि":487,"ै":488,"१":489,"४":490,"७":491,"९":492,"অ":493,"ই":494,"ক":495,"চ":496,"ত":497,"দ":498,"ন":499,"ব":500,"র":501,"া":502,"ি":503,"ু":504,"ে":505,"্":506,"ਂ":507,"ਕ":508,"ਟ":509,"ਪ":510,"ਮ":511,"ਰ":512,"ਸ":513,"ਹ":514,"ਾ":515,"ਿ":516,"ੀ":517,"ੂ":518,"ੈ":519,"ੌ":520,"க":521,"ட":522,"ழ":523,"ா":524,"ி":525,"ூ":526,"ை":527,"்":528,"ೋ":529,"ก":530,"ค":531,"ง":532,"จ":533,"ซ":534,"ด":535,"ต":536,"ท":537,"น":538,"ฝ":539,"พ":540,"ฟ":541,"ภ":542,"ม":543,"ย":544,"ล":545,"ว":546,"ษ":547,"ส":548,"ห":549,"ฬ":550,"อ":551,"ั":552,"า":553,"ิ":554,"ี":555,"ึ":556,"เ":557,"แ":558,"โ":559,"ใ":560,"ไ":561,"่":562,"้":563,"์":564,"྆":565,"࿐":566,"တ":567,"န":568,"မ":569,"လ":570,"သ":571,"ဦ":572,"ိ":573,"ု":574,"ေ":575,"့":576,"း":577,"္":578,"်":579,"ြ":580,"၊":581,"ᄀ":582,"ᄂ":583,"ᄅ":584,"ᄆ":585,"ᄇ":586,"ᄋ":587,"ᄏ":588,"ᄒ":589,"ᅮ":590,"ᅲ":591,"ᅳ":592,"ᅵ":593,"ᆞ":594,"ᐉ":595,"᠋":596,"ᠠ":597,"ᠡ":598,"ᠢ":599,"ᠤ":600,"ᠥ":601,"ᠦ":602,"ᠨ":603,"ᠫ":604,"ᠬ":605,"ᠭ":606,"ᠮ":607,"ᠯ":608,"ᠰ":609,"ᠱ":610,"ᠳ":611,"ᠴ":612,"ᠵ":613,"ᠶ":614,"ᠷ":615,"ᠹ":616,"ᠻ":617,"ᠼ":618,"᭄":619,"ᴀ":620,"ᴄ":621,"ᴇ":622,"ᴍ":623,"ᴜ":624,"ᴠ":625,"ᵯ":626,"ᵴ":627,"ḍ":628,"ḥ":629,"ṃ":630,"ṅ":631,"ṇ":632,"ṭ":633,"ẙ":634,"ầ":635,"ắ":636,"ằ":637,"ế":638,"ễ":639,"ớ":640,"ờ":641,"ἰ":642,"‐":643,"―":644,"‖":645,"†":646,"‡":647,"•":648,"‣":649," ":650,"‰":651,"′":652,"‹":653,"›":654,"※":655,"⁄":656,"₩":657,"₪":658,"€":659,"₮":660,"₹":661,"₽":662,"⃣":663,"←":664,"↑":665,"→":666,"↓":667,"↔":668,"↖":669,"↙":670,"↳":671,"⇒":672,"⇨":673,"∂":674,"∆":675,"∈":676,"−":677,"∙":678,"√":679,"∞":680,"≈":681,"≠":682,"≤":683,"≥":684,"≫":685,"⋆":686,"⋯":687,"⌚":688,"⎪":689,"⏱":690,"│":691,"╒":692,"╘":693,"╟":694,"╢":695,"█":696,"▍":697,"■":698,"□":699,"▨":700,"▪":701,"▲":702,"▶":703,"►":704,"▼":705,"◆":706,"◇":707,"◊":708,"○":709,"●":710,"◦":711,"☀":712,"☂":713,"★":714,"☆":715,"☈":716,"☎":717,"☑":718,"☔":719,"☕":720,"☘":721,"☛":722,"☝":723,"☞":724,"☤":725,"☮":726,"☹":727,"☺":728,"☻":729,"♀":730,"♂":731,"♏":732,"♔":733,"♚":734,"♛":735,"♠":736,"♡":737,"♣":738,"♥":739,"♦":740,"♪":741,"♫":742,"♻":743,"⚃":744,"⚕":745,"⚙":746,"⚠":747,"⚡":748,"⚫":749,"⚽":750,"✅":751,"✈":752,"✌":753,"✍":754,"✓":755,"✔":756,"✞":757,"✨":758,"✯":759,"✿":760,"❀":761,"❂":762,"❃":763,"❄":764,"❏":765,"❖":766,"❗":767,"❤":768,"❷":769,"❹":770,"❼":771,"➜":772,"➡":773,"➢":774,"➥":775,"➳":776,"⠀":777,"⦁":778,"⭐":779,"⿱":780,"、":781,"。":782,"《":783,"》":784,"「":785,"」":786,"『":787,"』":788,"【":789,"】":790,"〓":791,"あ":792,"い":793,"う":794,"え":795,"お":796,"か":797,"が":798,"き":799,"ぎ":800,"く":801,"ぐ":802,"け":803,"げ":804,"こ":805,"ご":806,"さ":807,"ざ":808,"し":809,"じ":810,"す":811,"せ":812,"そ":813,"た":814,"だ":815,"ち":816,"っ":817,"つ":818,"て":819,"で":820,"と":821,"ど":822,"な":823,"に":824,"ぬ":825,"の":826,"は":827,"ば":828,"ひ":829,"ぶ":830,"べ":831,"ほ":832,"ま":833,"み":834,"め":835,"も":836,"ゃ":837,"や":838,"ゅ":839,"ゆ":840,"ょ":841,"よ":842,"ら":843,"り":844,"る":845,"れ":846,"ろ":847,"わ":848,"を":849,"ん":850,"ィ":851,"イ":852,"ウ":853,"カ":854,"ガ":855,"キ":856,"ギ":857,"ク":858,"ゲ":859,"コ":860,"ゴ":861,"サ":862,"シ":863,"ジ":864,"セ":865,"ゼ":866,"ソ":867,"タ":868,"ダ":869,"チ":870,"ツ":871,"ヅ":872,"デ":873,"ド":874,"ナ":875,"ニ":876,"ハ":877,"バ":878,"ヒ":879,"ビ":880,"フ":881,"ブ":882,"ベ":883,"ペ":884,"マ":885,"ミ":886,"ム":887,"モ":888,"ャ":889,"ョ":890,"ラ":891,"リ":892,"ル":893,"ン":894,"・":895,"ー":896,"ㄍ":897,"ㄎ":898,"ㄟ":899,"ㄨ":900,"一":901,"七":902,"万":903,"三":904,"上":905,"下":906,"不":907,"世":908,"业":909,"个":910,"中":911,"么":912,"乐":913,"也":914,"二":915,"云":916,"互":917,"交":918,"京":919,"人":920,"今":921,"介":922,"仔":923,"他":924,"付":925,"代":926,"们":927,"件":928,"任":929,"企":930,"伊":931,"休":932,"众":933,"会":934,"位":935,"住":936,"何":937,"作":938,"你":939,"使":940,"便":941,"係":942,"保":943,"信":944,"修":945,"俺":946,"們":947,"停":948,"健":949,"側":950,"僕":951,"優":952,"儿":953,"元":954,"光":955,"克":956,"免":957,"八":958,"公":959,"内":960,"册":961,"再":962,"冯":963,"出":964,"分":965,"划":966,"別":967,"前":968,"势":969,"動":970,"勖":971,"務":972,"勧":973,"包":974,"化":975,"北":976,"医":977,"十":978,"午":979,"华":980,"南":981,"博":982,"卡":983,"参":984,"古":985,"叫":986,"召":987,"台":988,"号":989,"合":990,"名":991,"向":992,"吗":993,"君":994,"员":995,"周":996,"味":997,"命":998,"和":999,"品":1000,"唐":1001,"售":1002,"唱":1003,"商":1004,"問":1005,"喵":1006,"器":1007,"回":1008,"団":1009,"図":1010,"国":1011,"图":1012,"國":1013,"圖":1014,"地":1015,"址":1016,"型":1017,"基":1018,"場":1019,"塑":1020,"塚":1021,"士":1022,"声":1023,"夂":1024,"変":1025,"夕":1026,"夜":1027,"夢":1028,"天":1029,"太":1030,"奇":1031,"奋":1032,"好":1033,"妹":1034,"委":1035,"姿":1036,"娱":1037,"子":1038,"字":1039,"学":1040,"宅":1041,"安":1042,"宗":1043,"定":1044,"室":1045,"宽":1046,"密":1047,"导":1048,"小":1049,"少":1050,"局":1051,"展":1052,"属":1053,"履":1054,"山":1055,"岩":1056,"峮":1057,"州":1058,"巡":1059,"巣":1060,"工":1061,"帝":1062,"带":1063,"帮":1064,"帯":1065,"平":1066,"年":1067,"庆":1068,"府":1069,"康":1070,"建":1071,"开":1072,"异":1073,"弦":1074,"当":1075,"录":1076,"形":1077,"彩":1078,"後":1079,"御":1080,"心":1081,"必":1082,"志":1083,"忘":1084,"忙":1085,"快":1086,"怎":1087,"恩":1088,"悔":1089,"您":1090,"悲":1091,"情":1092,"意":1093,"愛":1094,"憎":1095,"我":1096,"戒":1097,"戰":1098,"戸":1099,"手":1100,"打":1101,"払":1102,"抢":1103,"拶":1104,"指":1105,"挨":1106,"探":1107,"掲":1108,"提":1109,"改":1110,"故":1111,"文":1112,"斗":1113,"斥":1114,"斯":1115,"新":1116,"族":1117,"日":1118,"早":1119,"时":1120,"昌":1121,"星":1122,"是":1123,"昴":1124,"時":1125,"普":1126,"暲":1127,"曜":1128,"曲":1129,"更":1130,"書":1131,"會":1132,"月":1133,"有":1134,"望":1135,"朝":1136,"本":1137,"机":1138,"李":1139,"村":1140,"松":1141,"林":1142,"査":1143,"株":1144,"格":1145,"椰":1146,"楫":1147,"業":1148,"楽":1149,"概":1150,"構":1151,"横":1152,"機":1153,"歌":1154,"止":1155,"歳":1156,"残":1157,"毛":1158,"民":1159,"气":1160,"気":1161,"水":1162,"永":1163,"江":1164,"沖":1165,"没":1166,"河":1167,"治":1168,"沿":1169,"法":1170,"注":1171,"泰":1172,"洛":1173,"洞":1174,"流":1175,"浙":1176,"浜":1177,"淮":1178,"済":1179,"渡":1180,"湖":1181,"漏":1182,"演":1183,"点":1184,"照":1185,"燼":1186,"版":1187,"牛":1188,"特":1189,"玉":1190,"现":1191,"理":1192,"甘":1193,"生":1194,"用":1195,"田":1196,"町":1197,"画":1198,"留":1199,"発":1200,"登":1201,"百":1202,"的":1203,"皇":1204,"盘":1205,"眉":1206,"码":1207,"破":1208,"礦":1209,"社":1210,"祉":1211,"祐":1212,"神":1213,"福":1214,"离":1215,"私":1216,"秘":1217,"称":1218,"稳":1219,"站":1220,"等":1221,"简":1222,"管":1223,"米":1224,"糞":1225,"紀":1226,"紇":1227,"経":1228,"給":1229,"線":1230,"红":1231,"线":1232,"网":1233,"美":1234,"翻":1235,"考":1236,"者":1237,"聲":1238,"胡":1239,"能":1240,"腕":1241,"臨":1242,"自":1243,"舞":1244,"航":1245,"良":1246,"華":1247,"葵":1248,"蒙":1249,"藏":1250,"藤":1251,"蘭":1252,"蛋":1253,"蠟":1254,"行":1255,"衛":1256,"表":1257,"袖":1258,"裏":1259,"製":1260,"西":1261,"要":1262,"見":1263,"視":1264,"親":1265,"见":1266,"解":1267,"言":1268,"証":1269,"話":1270,"誉":1271,"誌":1272,"語":1273,"説":1274,"諸":1275,"識":1276,"讃":1277,"计":1278,"让":1279,"记":1280,"译":1281,"语":1282,"请":1283,"读":1284,"课":1285,"豚":1286,"象":1287,"貸":1288,"費":1289,"賃":1290,"資":1291,"賞":1292,"责":1293,"趋":1294,"路":1295,"身":1296,"車":1297,"軒":1298,"載":1299,"輝":1300,"软":1301,"载":1302,"辉":1303,"输":1304,"辺":1305,"込":1306,"达":1307,"运":1308,"近":1309,"返":1310,"还":1311,"迴":1312,"迹":1313,"送":1314,"通":1315,"逢":1316,"連":1317,"進":1318,"過":1319,"達":1320,"選":1321,"郑":1322,"部":1323,"都":1324,"配":1325,"里":1326,"重":1327,"金":1328,"鈴":1329,"鑑":1330,"钱":1331,"银":1332,"镇":1333,"长":1334,"間":1335,"関":1336,"门":1337,"问":1338,"间":1339,"阒":1340,"际":1341,"陝":1342,"险":1343,"陳":1344,"随":1345,"際":1346,"雑":1347,"電":1348,"面":1349,"革":1350,"韬":1351,"音":1352,"響":1353,"題":1354,"類":1355,"颚":1356,"駅":1357,"马":1358,"高":1359,"鵬":1360,"麦":1361,"黄":1362,"黑":1363,"龙":1364,"龶":1365,"꧁":1366,"꧂":1367,"가":1368,"갑":1369,"갤":1370,"거":1371,"걸":1372,"것":1373,"게":1374,"겠":1375,"격":1376,"경":1377,"계":1378,"고":1379,"골":1380,"공":1381,"과":1382,"관":1383,"교":1384,"구":1385,"국":1386,"굴":1387,"권":1388,"규":1389,"긋":1390,"기":1391,"긱":1392,"김":1393,"끼":1394,"나":1395,"남":1396,"내":1397,"너":1398,"노":1399,"뉴":1400,"는":1401,"니":1402,"다":1403,"단":1404,"달":1405,"답":1406,"대":1407,"더":1408,"도":1409,"돈":1410,"동":1411,"둥":1412,"딩":1413,"떻":1414,"또":1415,"뚜":1416,"뚝":1417,"라":1418,"랑":1419,"래":1420,"랫":1421,"러":1422,"렘":1423,"려":1424,"로":1425,"루":1426,"룬":1427,"룰":1428,"류":1429,"르":1430,"를":1431,"리":1432,"린":1433,"림":1434,"릿":1435,"마":1436,"만":1437,"말":1438,"매":1439,"먹":1440,"메":1441,"며":1442,"명":1443,"모":1444,"몽":1445,"무":1446,"문":1447,"뭘":1448,"뮤":1449,"미":1450,"민":1451,"바":1452,"반":1453,"밥":1454,"배":1455,"백":1456,"밴":1457,"버":1458,"번":1459,"법":1460,"베":1461,"벼":1462,"변":1463,"병":1464,"보":1465,"부":1466,"불":1467,"뷔":1468,"브":1469,"븐":1470,"블":1471,"비":1472,"빈":1473,"뻐":1474,"뿌":1475,"사":1476,"상":1477,"새":1478,"생":1479,"서":1480,"석":1481,"선":1482,"설":1483,"섭":1484,"성":1485,"세":1486,"송":1487,"수":1488,"숙":1489,"스":1490,"슨":1491,"습":1492,"승":1493,"시":1494,"식":1495,"신":1496,"실":1497,"싼":1498,"쌍":1499,"아":1500,"안":1501,"알":1502,"야":1503,"양":1504,"어":1505,"업":1506,"없":1507,"에":1508,"엘":1509,"엥":1510,"여":1511,"역":1512,"연":1513,"열":1514,"영":1515,"예":1516,"오":1517,"올":1518,"옷":1519,"와":1520,"왔":1521,"외":1522,"요":1523,"용":1524,"우":1525,"울":1526,"웆":1527,"워":1528,"원":1529,"월":1530,"유":1531,"윤":1532,"율":1533,"으":1534,"은":1535,"을":1536,"응":1537,"의":1538,"이":1539,"인":1540,"일":1541,"있":1542,"자":1543,"잘":1544,"장":1545,"재":1546,"저":1547,"적":1548,"전":1549,"정":1550,"제":1551,"조":1552,"죄":1553,"죻":1554,"주":1555,"즈":1556,"지":1557,"직":1558,"진":1559,"짓":1560,"짱":1561,"찌":1562,"찡":1563,"차":1564,"창":1565,"찾":1566,"채":1567,"청":1568,"체":1569,"초":1570,"최":1571,"침":1572,"칩":1573,"칫":1574,"카":1575,"커":1576,"케":1577,"코":1578,"콕":1579,"콧":1580,"크":1581,"키":1582,"탄":1583,"탓":1584,"태":1585,"탠":1586,"터":1587,"토":1588,"통":1589,"튜":1590,"트":1591,"티":1592,"틴":1593,"팅":1594,"팝":1595,"퍼":1596,"펄":1597,"평":1598,"폰":1599,"푸":1600,"플":1601,"픽":1602,"하":1603,"학":1604,"한":1605,"함":1606,"항":1607,"해":1608,"햄":1609,"혀":1610,"현":1611,"혜":1612,"호":1613,"홈":1614,"홍":1615,"화":1616,"횊":1617,"회":1618,"횒":1619,"횗":1620,"횜":1621,"후":1622,"훈":1623,"흐":1624,"흥":1625,"희":1626,"︎":1627,"️":1628,"￼":1629,"�":1630,"𖢘":1631,"🆕":1632,"🇫":1633,"🇰":1634,"🇲":1635,"🇳":1636,"🇷":1637,"🇸":1638,"🇺":1639,"🇽":1640,"🌃":1641,"🌄":1642,"🌅":1643,"🌈":1644,"🌍":1645,"🌐":1646,"🌙":1647,"🌟":1648,"🌡":1649,"🌱":1650,"🌳":1651,"🌸":1652,"🌻":1653,"🍀":1654,"🍁":1655,"🍇":1656,"🍑":1657,"🍞":1658,"🍩":1659,"🍯":1660,"🍰":1661,"🍱":1662,"🍷":1663,"🍹":1664,"🍽":1665,"🍾":1666,"🎀":1667,"🎁":1668,"🎄":1669,"🎧":1670,"🎬":1671,"🎯":1672,"🎶":1673,"🏆":1674,"🏋":1675,"🏠":1676,"🏣":1677,"🏦":1678,"🏻":1679,"🏼":1680,"👀":1681,"👉":1682,"👍":1683,"👎":1684,"👏":1685,"👐":1686,"👑":1687,"👦":1688,"👧":1689,"👨":1690,"👩":1691,"👷":1692,"👽":1693,"💀":1694,"💁":1695,"💃":1696,"💅":1697,"💉":1698,"💋":1699,"💎":1700,"💐":1701,"💔":1702,"💕":1703,"💙":1704,"💚":1705,"💜":1706,"💝":1707,"💡":1708,"💢":1709,"💥":1710,"💩":1711,"💪":1712,"💫":1713,"💯":1714,"💰":1715,"💵":1716,"💸":1717,"💻":1718,"💼":1719,"📁":1720,"📅":1721,"📌":1722,"📍":1723,"📎":1724,"📕":1725,"📖":1726,"📞":1727,"📣":1728,"📦":1729,"📱":1730,"📲":1731,"📷":1732,"🔄":1733,"🔅":1734,"🔊":1735,"🔌":1736,"🔑":1737,"🔥":1738,"🔬":1739,"🔰":1740,"🔴":1741,"🔵":1742,"🔶":1743,"🔸":1744,"🔹":1745,"🕑":1746,"🕘":1747,"🕯":1748,"🖐":1749,"🖤":1750,"🗃":1751,"🗓":1752,"😀":1753,"😁":1754,"😂":1755,"😃":1756,"😄":1757,"😅":1758,"😆":1759,"😇":1760,"😈":1761,"😉":1762,"😊":1763,"😋":1764,"😍":1765,"😎":1766,"😐":1767,"😑":1768,"😓":1769,"😔":1770,"😘":1771,"😛":1772,"😜":1773,"😝":1774,"😡":1775,"😢":1776,"😥":1777,"😦":1778,"😩":1779,"😫":1780,"😭":1781,"😮":1782,"😰":1783,"😱":1784,"😲":1785,"😶":1786,"😷":1787,"🙁":1788,"🙂":1789,"🙃":1790,"🙆":1791,"🙋":1792,"🙌":1793,"🙎":1794,"🙏":1795,"🚀":1796,"🚗":1797,"🚘":1798,"🚩":1799,"🚫":1800,"🛍":1801,"🛑":1802,"🛒":1803,"🛡":1804,"🛫":1805,"🤍":1806,"🤑":1807,"🤓":1808,"🤔":1809,"🤗":1810,"🤘":1811,"🤟":1812,"🤡":1813,"🤣":1814,"🤩":1815,"🤪":1816,"🤫":1817,"🤮":1818,"🥄":1819,"🥇":1820,"🥰":1821,"🥳":1822,"🥺":1823,"🦉":1824,"🦊":1825,"🦋":1826,"🦸":1827,"🧤":1828,"🧨":1829,"🧼":1830," б":1831," х":1832,"ий":1833,"аа":1834,"ай":1835,"ээ":1836,".\n":1837," т":1838,"ан":1839,"ар":1840,"ол":1841," н":1842,"уу":1843," бай":1844,"ал":1845," г":1846,"ийн":1847,"үү":1848,"эн":1849,"аг":1850,"эг":1851," д":1852,"эр":1853,"он":1854,"үй":1855," с":1856,"эл":1857," а":1858," з":1859," бол":1860,"ил":1861,"ын":1862,"өө":1863,"ах":1864," м":1865,"ор":1866,"ин":1867,"эд":1868,"эх":1869,"гүй":1870," нь":1871,"гаа":1872,"ийг":1873," ч":1874,"оо":1875," хү":1876,"уул":1877,"ад":1878,"сан":1879," ш":1880," ү":1881,"на":1882,"ам":1883," у":1884,"өр":1885,"өн":1886,"ээр":1887," я":1888," ю":1889,"ог":1890,"эж":1891,"ох":1892,"ой":1893," би":1894,"ур":1895,"ыг":1896,"аар":1897," байна":1898,"өг":1899,"эй":1900,"сэн":1901,"ир":1902,"эм":1903,"тай":1904," юм":1905,"тэй":1906,"жил":1907," бү":1908,"ууд":1909,"их":1910,"өл":1911,"гийн":1912,"од":1913," ор":1914,"ний":1915," ц":1916,"ас":1917,"иг":1918," л":1919," байгаа":1920,"үүл":1921,"нд":1922,"даг":1923,"өөр":1924,"га":1925," гэж":1926,"нэ":1927," хэр":1928,"ны":1929,"ом":1930,"..":1931," ху":1932,"эв":1933,"энэ":1934,"ав":1935," ту":1936,"тг":1937," ав":1938,"лаг":1939,"даа":1940," ө":1941,"аж":1942,"ээд":1943," хар":1944," гар":1945," байх":1946,"ид":1947,"үйл":1948,"онг":1949," нэг":1950,"аас":1951," мэд":1952,"той":1953,"ээс":1954," ам":1955," хэрэг":1956,"?\n":1957," өөр":1958,"сон":1959," эр":1960,"үүд":1961,"өх":1962,"аад":1963,"өв":1964," хо":1965,"ат":1966,"эс":1967," ол":1968," хам":1969," бу":1970," хий":1971," хэл":1972," ажил":1973," энэ":1974,"Энэ":1975,"жээ":1976,"ээл":1977," байсан":1978,"ер":1979,"алт":1980," ир":1981,"ьд":1982," хүн":1983,"лс":1984,"хан":1985," яв":1986,"им":1987," ал":1988,"...\n":1989," он":1990," сай":1991," \"":1992,"дээ":1993,"лаа":1994," уу":1995,"дэг":1996," ар":1997,"но":1998,"ая":1999," в":2000," их":2001," хув":2002," сан":2003,"ов":2004,"үүх":2005," үз":2006," болох":2007,"үүн":2008," Б":2009,"анд":2010,"онгол":2011,"эсэн":2012," хүр":2013,"дал":2014,"20":2015," дар":2016," бод":2017," ж":2018,"дөр":2019,"чл":2020,"ул":2021,"үүс":2022," к":2023,"ийм":2024,"өнг":2025," дээр":2026," өг":2027," эх":2028,"энд":2029," бар":2030,"гээ":2031," Х":2032,"гээр":2033," М":2034,"аш":2035," тал":2036," үйл":2037," бүр":2038," улс":2039," жил":2040," тэр":2041,"гаар":2042," болно":2043," гэд":2044,"уур":2045,"гуул":2046," ас":2047,"оор":2048," үе":2049,"мар":2050," А":2051,"хий":2052,"аз":2053," төр":2054," цаг":2055," чад":2056," вэ":2057," байдаг":2058,"лах":2059,"чих":2060," дээ":2061," зүйл":2062," бид":2063,"лээ":2064,"хай":2065,"үр":2066,"этг":2067,"лг":2068," ил":2069," тог":2070,"цаа":2071,"сөн":2072,"мн":2073," юу":2074,"ож":2075," ан":2076," та":2077," тан":2078,"инь":2079,"мүүс":2080,"лэг":2081," гэсэн":2082,"чил":2083," Т":2084," сур":2085," зөв":2086,"уулах":2087," хэм":2088," ур":2089,"үүр":2090,"Би":2091," яр":2092,"ут":2093,"дл":2094,"гал":2095,"арын":2096," бүх":2097," олон":2098,"аан":2099,"шиг":2100," -":2101," шүү":2102,"ёр":2103," газ":2104,"үн":2105," хүмүүс":2106,"жл":2107,"чин":2108," ё":2109,"агд":2110," ямар":2111,"охи":2112," баг":2113,"омж":2114,"өөд":2115," ёс":2116," төл":2117," үн":2118,"иний":2119," биш":2120,"ос":2121,"оод":2122," шин":2123,"иж":2124," зар":2125," тус":2126," ...\n":2127,"дв":2128," эм":2129,"ахгүй":2130," гэр":2131,"лэл":2132," амьд":2133,"гийг":2134,"Тэр":2135," маш":2136,"ис":2137,"олд":2138," хоёр":2139,"лийн":2140,"нг":2141,"от":2142,"эгд":2143,"онд":2144,"лд":2145," ой":2146," хүүх":2147," хүс":2148,"өд":2149," боломж":2150,"лага":2151," өмн":2152," хол":2153," эрх":2154,"уй":2155," С":2156," У":2157," гэдэг":2158,"вэл":2159,"эт":2160,"чид":2161," өр":2162,"айр":2163," асууд":2164,"анай":2165," байгуул":2166,"аал":2167," нар":2168," хамгийн":2169," хэрэгтэй":2170," өн":2171,"эц":2172," болон":2173,"оос":2174," үр":2175," эс":2176,"Хар":2177," дах":2178,"гд":2179," сайн":2180,"хэн":2181," болг":2182,"эхдээ":2183,"тээ":2184,"айл":2185,"рал":2186,"үүлэх":2187," зор":2188," дараа":2189,"201":2190," шиг":2191," хэд":2192,"лэх":2193," сон":2194," болсон":2195," тухай":2196," ний":2197,"!\n":2198,"ик":2199," тав":2200,"иш":2201," холб":2202,"-ын":2203," нэр":2204," хийх":2205," од":2206,"дог":2207,"Тэг":2208," ашиг":2209," бус":2210,"бар":2211," даа":2212," анх":2213,"двэр":2214," (":2215," ёстой":2216," сэтг":2217,"вал":2218," болов":2219," удаа":2220,"чд":2221,"лог":2222,"гэл":2223,"иу":2224," өмнө":2225,"уулж":2226," тэд":2227," хур":2228,"ен":2229,"гацаа":2230," ший":2231," талаар":2232," байж":2233,"чир":2234,"лөг":2235,"10":2236," чинь":2237,"гэж":2238,"амж":2239,"ээн":2240,"Бид":2241," үү":2242,"Та":2243," хугацаа":2244,"доо":2245,"лаж":2246," ду":2247," хор":2248,"өнгө":2249," дэл":2250," нам":2251," авах":2252," Н":2253," үед":2254," болж":2255," дуу":2256," о":2257," дур":2258," зур":2259,"эгтэй":2260," р":2261,"үүнийг":2262," мэдээл":2263,"аяр":2264," зас":2265," Монгол":2266,"эхээр":2267," Д":2268,"ит":2269,"эз":2270,"ус":2271,"вар":2272," хуул":2273," нас":2274," ун":2275,"анг":2276,"олц":2277," и":2278," су":2279," тү":2280,"үүний":2281," өдөр":2282," газар":2283," З":2284," одоо":2285," бие":2286," том":2287," байр":2288," илүү":2289,"Харин":2290,"ана":2291," хэмжээ":2292," сонг":2293,"ийнх":2294," хамт":2295," бич":2296,"аард":2297," хя":2298,"ээж":2299,"өс":2300," бөг":2301," зал":2302,"гэд":2303," оны":2304,"лоо":2305,"илц":2306,"анц":2307,"эхгүй":2308," эд":2309," нөх":2310," бас":2311," п":2312,"Ер":2313," үг":2314," тод":2315,"айг":2316,"эмж":2317," хийж":2318," Э":2319,"сн":2320," Г":2321," буй":2322," гээд":2323," аж":2324,"элт":2325," тэм":2326," жилийн":2327," ин":2328," хувьд":2329," шаард":2330,"тын":2331,"лал":2332," хэн":2333," хөг":2334," ийм":2335," сарын":2336,"иул":2337," ер":2338,"өнхий":2339,"ес":2340," О":2341,"аны":2342," гэх":2343,"Хэр":2344,"др":2345,"ьж":2346," авч":2347," бөгөөд":2348," тогт":2349,"Монгол":2350,"өөс":2351," шинэ":2352," ком":2353,"гэн":2354,"огд":2355,"өм":2356," ойлг":2357,"хал":2358," бэл":2359," ай":2360,"Гэхдээ":2361,"Тийм":2362,"ив":2363," сал":2364,"өлөө":2365," зохи":2366," нийт":2367,"оон":2368,"хийн":2369,"асан":2370," зах":2371,"айн":2372," онд":2373," хон":2374," хүнд":2375,"...":2376,"лын":2377,"хөн":2378,"19":2379,"даж":2380,"ун":2381," минь":2382," нэгэн":2383," биз":2384,"адаг":2385," байхгүй":2386," бил":2387," хүлээ":2388," сэтгэл":2389,"тэл":2390,"аагүй":2391," өв":2392," алб":2393,"пан":2394," суу":2395," төс":2396," бий":2397,"рын":2398," хаа":2399,"лагаа":2400,"ич":2401," тоо":2402," сар":2403," дот":2404,"нийг":2405,"шин":2406," амьдрал":2407,"орх":2408,"нууд":2409,"тад":2410,"үгээр":2411," дав":2412," най":2413,"чийн":2414," хүний":2415," гад":2416,"гаж":2417,"агаад":2418,"Тэд":2419," зам":2420,"тгэл":2421,"ван":2422," хэв":2423,"лыг":2424,"00":2425," ажл":2426,"АН":2427,"сд":2428," асуудал":2429," гиш":2430,"уулсан":2431," хайр":2432," санал":2433," бэ":2434," улсын":2435," шал":2436," аа":2437,"хаа":2438," сайхан":2439,"гах":2440,"арт":2441,"тр":2442," хэс":2443,"Одоо":2444," хувь":2445," хой":2446," нэм":2447,"үүлж":2448,"охир":2449," хүүхд":2450," өнг":2451," миний":2452,"өөдөр":2453," тохи":2454,"Эр":2455,"орхой":2456," .\n":2457,"хүү":2458," И":2459," ажиллагаа":2460," над":2461," арга":2462," манай":2463," хал":2464," байдл":2465," билээ":2466," тат":2467," хоног":2468,"Өөр":2469,"\"\n":2470," худал":2471,"Мөн":2472," боломжтой":2473,"чүүд":2474,"алтын":2475," даг":2476," төлөө":2477," уул":2478," баяр":2479," байлаа":2480," ул":2481,"дсан":2482," мөн":2483,"оол":2484," нут":2485,"өж":2486," тодорхой":2487," тур":2488," компан":2489," эхэл":2490,"гаан":2491,"ист":2492," тогл":2493," оролц":2494,"оё":2495,"иа":2496,"жилт":2497," ханд":2498,"чууд":2499," тулд":2500," ут":2501," иргэд":2502," бүтээ":2503,"өлт":2504,"дах":2505," эн":2506," бат":2507," гэдгийг":2508," бүт":2509," санаа":2510,"уун":2511,"чр":2512,"ирх":2513," байдал":2514," тэг":2515," өнгөр":2516," орон":2517," хоол":2518,"йм":2519," хүртэл":2520,"илг":2521,"уг":2522," хэрхэн":2523," хэдэн":2524," төг":2525," эсвэл":2526," өөрчл":2527," ид":2528,"дан":2529,"тан":2530," аг":2531," уд":2532," ба":2533," гэв":2534," маан":2535,"in":2536," заа":2537," тийм":2538,"урхан":2539," гур":2540," чу":2541," ажилл":2542," таны":2543," учр":2544," хө":2545," ах":2546,"вр":2547,"Ерөнхий":2548," маань":2549," хүч":2550,"чилгээ":2551," залуу":2552,":\n":2553," дол":2554,"лан":2555," хөр":2556," үнд":2557,"араа":2558,"on":2559," ганц":2560," дахь":2561,"агч":2562," турш":2563," дахин":2564,"гэр":2565," К":2566,"ек":2567," холбоо":2568,"200":2569,"лийг":2570,"арч":2571," болохгүй":2572," үйлдвэр":2573," хич":2574,"өлд":2575," дэмж":2576," эмэгтэй":2577," ээ":2578,"er":2579,"нх":2580,"олтой":2581," ял":2582,"иал":2583," ирсэн":2584,"Манай":2585," ард":2586," анхаар":2587," өдр":2588,"ем":2589,"агт":2590,"олт":2591," тохиолд":2592," мөр":2593,")\n":2594,"хн":2595,"өдөл":2596," гарч":2597,"агад":2598,"ак":2599," сургуул":2600," зэр":2601," өөрийн":2602,"ээрээ":2603,"Үүн":2604,"-д":2605,"лон":2606,"уд":2607,"ср":2608," үргэл":2609,"гөө":2610,"гой":2611," хамгаа":2612," чухал":2613," чан":2614," чадахгүй":2615,"хи":2616,"лагатай":2617," ох":2618,"үх":2619," хэмээн":2620," үнэ":2621,"ээгүй":2622,"Инг":2623," шил":2624,"эзээ":2625," хойш":2626," дунд":2627,"Ийм":2628,"Миний":2629," бүгд":2630,"бөр":2631,"-ийн":2632,"эхэд":2633," ая":2634,"аат":2635," шийдвэр":2636,"элц":2637," үнэн":2638," бүс":2639," сонс":2640,"-р":2641," гай":2642," түр":2643," хүүхэд":2644," гол":2645,"Өн":2646,"тал":2647," чи":2648," тэн":2649," Улс":2650," амь":2651," өгөх":2652,"Тиймээс":2653," ад":2654," хийсэн":2655,"мын":2656,"ИХ":2657,"из":2658," учир":2659," хот":2660," муу":2661," сонирх":2662,"алтай":2663," авсан":2664," өндөр":2665," руу":2666," хариу":2667," үүс":2668,"Хү":2669," сая":2670,"иад":2671,"агүй":2672," ном":2673," аль":2674,"ийгөө":2675," бага":2676,"аарай":2677,"Ор":2678," зээл":2679," машин":2680,"эхүү":2681," эз":2682,"осон":2683," хэсэг":2684,"гаад":2685," түүний":2686,"Ар":2687," мэт":2688,"ино":2689,"Нэг":2690," зарим":2691,"аараа":2692," ф":2693,"ааш":2694," байв":2695,"огт":2696," чам":2697,"чим":2698," дүр":2699," төрийн":2700,"дын":2701," уулз":2702," мэдээлэл":2703,"уудыг":2704,"лж":2705," гэнэ":2706,"гасан":2707," бусад":2708," албан":2709," /":2710," ажиллаж":2711,"үүлсэн":2712," төлөв":2713," хан":2714," өөрөө":2715," бодож":2716," хөгж":2717,"an":2718," хэзээ":2719," зөвхөн":2720," хууль":2721,"тер":2722," Ш":2723," бур":2724,"хон":2725,"ье":2726,".Б":2727," учраас":2728," ус":2729," эхл":2730,"Хэрэв":2731,"дөг":2732,"эгч":2733," АН":2734," мөнгө":2735," дүн":2736," унш":2737," те":2738," хугацаанд":2739," сүүл":2740," дуус":2741,"уудын":2742," оч":2743,"эвч":2744," Ү":2745," төв":2746," түүх":2747," тар":2748," ханг":2749," яаж":2750," сэр":2751,"Ам":2752," надад":2753," зориул":2754,"наас":2755,"юу":2756," гүй":2757," шийд":2758,"алд":2759," онц":2760,"нээс":2761," тэмц":2762," Ч":2763," айм":2764,"этэл":2765," болохоор":2766,"угаар":2767," тайл":2768," дэв":2769," орж":2770," Ж":2771,"лөө":2772," тохир":2773," чиг":2774,"ахад":2775," эц":2776," зог":2777," үүр":2778,"охгүй":2779," яах":2780," эл":2781,"ац":2782," хөдөл":2783,"ооны":2784," зөвш":2785,"гаас":2786,"ятад":2787," яагаад":2788," анг":2789," харагд":2790," монгол":2791," байхад":2792," үүнийг":2793,"оп":2794," ух":2795," хийг":2796," шалт":2797," удир":2798,"дөө":2799,"үг":2800," зүй":2801," намайг":2802,"лөгч":2803," яг":2804," ажлын":2805,"мийн":2806,"асгийн":2807,"Ал":2808," хэлж":2809," охин":2810," нөлөө":2811," хэлб":2812," явж":2813,"лэж":2814," мэр":2815,"гоор":2816," зогс":2817," оруул":2818,"оц":2819," олг":2820," S":2821," ажиллах":2822," түүнийг":2823,"эвэр":2824," өрг":2825,"рах":2826," тул":2827," магад":2828," энд":2829,"юул":2830," адил":2831,"имт":2832,",\n":2833," нөхц":2834,"\"-":2835,"эдэг":2836," зөвшөөр":2837,"ar":2838," дарга":2839," үгүй":2840," өөрсд":2841," хэрэгж":2842,"ув":2843,"нес":2844," өм":2845," газрын":2846," шалг":2847,"лаан":2848," зураг":2849,"Гэтэл":2850," өс":2851," Ц":2852," зэрэг":2853,"эрхий":2854," амжилт":2855,"даггүй":2856,"оронд":2857," уур":2858," олж":2859," ээж":2860," найз":2861,"ьсан":2862," бидний":2863,"одог":2864," үндэс":2865," итг":2866," мэдэх":2867,"үүнд":2868,"Эд":2869," хая":2870,"ет":2871," сайд":2872," холбоотой":2873,"элд":2874," холбогд":2875,"үд":2876," сонгуул":2877," хэлэлц":2878," боловср":2879,"or":2880," Е":2881,"шил":2882," Л":2883,"олгой":2884," мөнг":2885," мэнд":2886," байгааг":2887," Ерөнхий":2888,"үүдийн":2889,"Хам":2890," үйлчилгээ":2891,"маар":2892,"тэн":2893," ирэх":2894," П":2895," суур":2896," тэмдэг":2897,"ган":2898,"оно":2899," явах":2900," пр":2901,"Дэл":2902," өнөөдөр":2903," хөл":2904," байгууллаг":2905," зорилг":2906,"12":2907,"Тэгээд":2908,"гай":2909," газр":2910," дотор":2911,"жиг":2912,"хам":2913,"ей":2914," _":2915," уг":2916," дуртай":2917,"чдын":2918," судал":2919," буруу":2920," үнэхээр":2921," ирээд":2922," бүрэн":2923," хөт":2924,"сний":2925," танилц":2926,"11":2927," аюул":2928," гишүүн":2929,"гдэх":2930,"дсэн":2931,"аалт":2932," харь":2933," таа":2934," асуу":2935," дэлхийн":2936," хэлсэн":2937,"анк":2938," хүү":2939," нийг":2940," заг":2941,"үүдийг":2942,"15":2943," харж":2944," өгсөн":2945," гурван":2946," үлд":2947," эдийн":2948," хууд":2949,"яа":2950," болоод":2951," түм":2952," болдог":2953," байвал":2954,"ок":2955,"сийн":2956,"төн":2957,"аргал":2958," зөвл":2959,"ээсээ":2960," зов":2961,"ел":2962," санагд":2963," хүрг":2964,"Ямар":2965," шат":2966," хүлээн":2967," танд":2968," мин":2969," дугаар":2970,"арга":2971,"ээнд":2972," гарсан":2973,"дугаар":2974,"алын":2975,"en":2976," M":2977," буюу":2978," салбар":2979,"!!":2980,"эгт":2981,"лөгөө":2982,"лэлийн":2983," Бурхан":2984,"100":2985,"оны":2986," мэдэгд":2987," өөрийгөө":2988,"өрийн":2989,"ерик":2990,"таа":2991," үл":2992," шаардлагатай":2993," нэмэгд":2994,"рам":2995,"аатар":2996,"пор":2997," хад":2998," мя":2999,"аасаа":3000,"члэн":3001,"30":3002," асуудлыг":3003," үеийн":3004," асуул":3005," гүйц":3006," зохион":3007,"нө":3008," алд":3009," гэм":3010," гаруй":3011," төрлийн":3012,"Гэвч":3013," мэргэж":3014,"Таны":3015," байн":3016," Ө":3017," засгийн":3018,"ины":3019,"артай":3020,"гоо":3021,"гээд":3022,"инд":3023," Би":3024," бодлог":3025,"Өнөөдөр":3026,"дэнэ":3027," тооц":3028," зөр":3029,"саар":3030,"Дараа":3031,"хайн":3032,"өгөө":3033,"вээ":3034,"Хүүх":3035,"ээрэй":3036,"үүдэд":3037," долоо":3038,"лох":3039,"ласан":3040,"Хүн":3041,"Үү":3042," зүйлийг":3043,"ум":3044,"ийнхөө":3045," харин":3046,"Чи":3047," хооронд":3048," хав":3049,"ли":3050," гарах":3051,"рийн":3052,"ойр":3053," ойр":3054," улсад":3055," бүсгүй":3056,"st":3057,"ст":3058," хай":3059," чөлөө":3060," баримт":3061," ярилц":3062,"Мэд":3063," бүтээл":3064," дор":3065," шууд":3066," минут":3067," боллоо":3068," бут":3069," бизнес":3070,"лэн":3071," мэдэхгүй":3072," ингэж":3073,"ент":3074," ач":3075," зүгээр":3076," настай":3077,"Ир":3078," боловч":3079," байгаад":3080," эрүүл":3081," нуу":3082," бүтээгдэх":3083," тогтоо":3084," гэвэл":3085," A":3086," үх":3087,"агс":3088,"Үүнийг":3089,"le":3090,"бээр":3091," болгох":3092,"Зар":3093,"элтэй":3094," байдлаар":3095," УИХ":3096," Засгийн":3097,"рэг":3098," төгс":3099," хэц":3100,"өөн":3101," бүхэн":3102,"сгал":3103,"Эн":3104," арг":3105," хөрөнгө":3106,"уулдаг":3107," C":3108," явдал":3109," гаргах":3110,"бал":3111," нүүр":3112," илэрхий":3113," батал":3114,"илт":3115," авт":3116," мар":3117," мэдээ":3118,"Тэгвэл":3119," болжээ":3120,"инэ":3121," аав":3122,"үүнээс":3123,"18":3124," ерөнхий":3125," авна":3126,"оогүй":3127," тай":3128,"өгд":3129," ярьж":3130," сол":3131," хат":3132," амар":3133,"хээ":3134," АНУ":3135,"агн":3136," чадвар":3137," үзүүл":3138," дүүр":3139,"инг":3140,"оёр":3141," оронд":3142," болгон":3143," наад":3144," доо":3145," иргэн":3146," дагуу":3147,"Гэр":3148," өгч":3149," дөр":3150," орох":3151," .":3152," хүнийг":3153," гаргаж":3154,"ран":3155," хэт":3156,"юут":3157,"амс":3158,"өлбөр":3159," Я":3160," сард":3161,"төө":3162," мэдр":3163," шалтгаан":3164," хэцүү":3165," гэхэд":3166," ирж":3167," хүчин":3168,"эхийг":3169," хичээл":3170," P":3171," тас":3172,"йл":3173," итгэл":3174,"илцаа":3175," өнгөрсөн":3176," нөхцөл":3177," там":3178," хийдэг":3179," анхны":3180," өөрчлөлт":3181," хариуц":3182," хян":3183,"уулан":3184,"арсан":3185,"Зарим":3186," дэлхий":3187," цэвэр":3188,"at":3189,"Уг":3190,"олог":3191," хариул":3192,"луур":3193," чадах":3194,"Түүний":3195,"ъя":3196,"гий":3197," бүл":3198,"истем":3199," Улсын":3200," техн":3201,"al":3202,"гч":3203," буур":3204," компани":3205,"вроп":3206,"орж":3207,"Үн":3208,"рөг":3209," өрөө":3210," таар":3211,"шгүй":3212," боддог":3213," тайлбар":3214,"50":3215," байжээ":3216," дээд":3217," дамж":3218,"баатар":3219,"лалт":3220,"нз":3221," эв":3222,"Бү":3223," улам":3224,"ээх":3225,"длаа":3226,"чиг":3227," хүлээж":3228," хадгал":3229," хэрэггүй":3230," бая":3231," тухайн":3232," тоглоо":3233,"202":3234," тэдний":3235," алга":3236,"ижиг":3237," жин":3238,"Олон":3239,"сны":3240," хэрэглэг":3241," му":3242," цааш":3243," ярих":3244,"дийн":3245,"нэл":3246,"oo":3247," эсрэг":3248," засаг":3249,"Хамгийн":3250,"чдийн":3251," судалгаа":3252," мэддэг":3253,"ийнхээ":3254," ашиглах":3255,"гын":3256," үзэж":3257," хуулийн":3258," багш":3259,"гүүр":3260,"даад":3261,"ишээ":3262," хүмүүсийн":3263," э":3264,"Эдгээр":3265," цах":3266," Монголын":3267," харилцаа":3268,"агдсан":3269,"re":3270," ярь":3271,"үүлэг":3272," жагс":3273," Ар":3274," гадаад":3275," байгаагүй":3276," Ор":3277,"Ту":3278," нутгийн":3279," гүйцэтг":3280,"вэр":3281," дараах":3282,"Эх":3283," дан":3284," сү":3285," тохиолдолд":3286," I":3287," ст":3288," хамаар":3289,"олоо":3290," магадгүй":3291," толгой":3292," систем":3293," сург":3294," бүрийн":3295," аз":3296," огт":3297,"иар":3298," туш":3299," шүүх":3300," бүү":3301,"14":3302,"ладаг":3303,"арх":3304," хэлэх":3305,"өмж":3306,"бай":3307," цагийн":3308," захир":3309,"Цаг":3310,".Э":3311," өдрийн":3312,"маа":3313,"Хэрвээ":3314," В":3315," Ам":3316," айл":3317," Энэ":3318,"об":3319,"энх":3320," гаргасан":3321,"Бүх":3322," Хятад":3323,"алттай":3324,"Өмн":3325,"лэдэг":3326," зүйлс":3327,"Нам":3328," хэрэгс":3329," санхүү":3330," орчин":3331," цэр":3332," сүүлийн":3333," Р":3334,"Тэрээр":3335,"Зөв":3336," болчих":3337," бараг":3338," зав":3339,"Яагаад":3340,"лэсэн":3341," дээрх":3342,"төнц":3343," нэв":3344," үнэл":3345," эдгээр":3346,".\"\n":3347," хүүхдүүд":3348," барил":3349," хамгаалах":3350," үс":3351,"нээ":3352,"ууны":3353,"жин":3354,"уулна":3355," хоногийн":3356," N":3357," үзэх":3358," орсон":3359," харах":3360," төгрөг":3361,"уулга":3362,"өхөөр":3363," B":3364,"элээ":3365," хаан":3366," Ф":3367," цагт":3368," чанар":3369," хөтөлбөр":3370,"ac":3371," бутлуур":3372," нэгд":3373,"ou":3374,"уудад":3375,"иуд":3376," гэрээ":3377," боломжгүй":3378," заавал":3379," тань":3380," урьд":3381,"чээ":3382,"алдаа":3383," харьц":3384," T":3385,"Улс":3386,"алз":3387,"өмб":3388," бүхий":3389," нарын":3390," гадна":3391," хэмжээний":3392," тун":3393,"it":3394," тойр":3395,"лагдсан":3396," төрөл":3397," гоё":3398," цэц":3399,"тийн":3400," бос":3401,"Тэгэхээр":3402,"тгий":3403,"-нд":3404,"vv":3405," дээрээ":3406,"олцоо":3407," мянг":3408," ухаан":3409," чадна":3410," кино":3411,"чилж":3412," бор":3413,"ман":3414," гарг":3415,"Энэхүү":3416," худалдаа":3417,"мд":3418," намын":3419,"аахан":3420," төлбөр":3421,"хар":3422," мэдэж":3423," рүү":3424," энэхүү":3425,"чилсан":3426," түв":3427,"сай":3428," алдаа":3429,"Учир":3430," явсан":3431," эмнэл":3432," орны":3433,"баяр":3434," хийн":3435,"чихсан":3436,"Эм":3437,"лалаа":3438," эхэлсэн":3439,"онгос":3440," аваад":3441," дууд":3442,"тэйгээ":3443," хуудас":3444,";\n":3445," нөхөр":3446," болохыг":3447,"өнө":3448,"олын":3449," бэлэн":3450," банк":3451,"лагын":3452," жаргал":3453," эхний":3454," насны":3455," ертөнц":3456," зан":3457," байхдаа":3458," тэрг":3459," бидэнд":3460,"гуй":3461," буц":3462," хүссэн":3463," утас":3464," сэд":3465," бичиг":3466,"вор":3467,"өрсөн":3468,"Хоёр":3469," хэлбэр":3470,"ic":3471," хаана":3472," онг":3473," мал":3474,"халтай":3475," хурдан":3476," Эр":3477," дут":3478," орнууд":3479," найр":3480," цуг":3481," бүртг":3482,"алц":3483,"ахыг":3484," нүд":3485," оноос":3486," үргэлж":3487," удирд":3488,"мэл":3489,"өөл":3490," мянган":3491,"16":3492," тээ":3493," янз":3494,"vй":3495,"om":3496,"Тус":3497," хүмүүст":3498,"Ний":3499," сайт":3500," асуудл":3501,"үүлэн":3502," дай":3503," хувийн":3504,"ян":3505," тулг":3506," хувц":3507,"Ингээд":3508," амьдарч":3509," ...":3510," гэхдээ":3511," кин":3512," шилж":3513,"гүйгээр":3514,"үрх":3515,"Монголын":3516,"17":3517,"лээд":3518," үеэр":3519,"ныг":3520,"ограм":3521," хориг":3522," март":3523," явц":3524,"нэр":3525," ажлыг":3526,"Үүний":3527,"ио":3528,"мж":3529," ажилд":3530," болгож":3531,"-аас":3532," хаг":3533,"өөц":3534," нис":3535," орлог":3536,"үүлнэ":3537,"Хэд":3538," бууд":3539," жижиг":3540," дүг":3541,"алин":3542," G":3543,"огц":3544," шаардлаг":3545,"За":3546," амьдралын":3547,".Бат":3548,"Яг":3549,"руулах":3550," угаа":3551,"Мэдээж":3552," тоглолт":3553,"сныг":3554," нууц":3555,"хэг":3556,"аб":3557," аюулгүй":3558," шинж":3559," бичсэн":3560,"199":3561," орч":3562," хайртай":3563," амьдар":3564," олох":3565,"саа":3566," зү":3567,"Тэрбээр":3568,"порт":3569," үйлд":3570," бэр":3571,"члэг":3572,"дол":3573," хүсч":3574," сонгол":3575,"ээлт":3576,"лаад":3577," хотын":3578," хөөр":3579," сайж":3580," зорилго":3581,"Хэн":3582," зай":3583," D":3584,"13":3585," хөн":3586," унт":3587," хөдөлгөө":3588," ихэнх":3589," асуулт":3590," тоглоом":3591,"вөн":3592," түүнд":3593," байдлыг":3594,"-ны":3595," [":3596," тов":3597," хэлбэл":3598,"хгүй":3599,"ью":3600," байхыг":3601,"омжтой":3602,"өмбөг":3603," ажлаа":3604," шаардлага":3605,"эндээ":3606," ирээдүй":3607,"es":3608," ахуй":3609," F":3610,".Энх":3611," мэдээллийг":3612," Та":3613," нэвтр":3614,"Ав":3615," оруулах":3616,"Дэлхийн":3617," загвар":3618,"Бидний":3619," өмнөх":3620," аймгийн":3621," цар":3622,"ших":3623,"уулалт":3624," хэмжээнд":3625," үргэлжл":3626," зохиц":3627," зориулсан":3628," гэлээ":3629," агаар":3630," ажилладаг":3631,"хийг":3632,"Өнг":3633," бололтой":3634,"Энд":3635,"хэнэ":3636," төрсөн":3637," урт":3638,"Шинэ":3639," соё":3640," чиглэл":3641,"згаар":3642,"лөх":3643," барих":3644,"Бус":3645," бодох":3646,"Бар":3647,"лайн":3648,"ааны":3649,"уулаад":3650,"өхөөрөмж":3651,"Бас":3652," өөртөө":3653," нөгөө":3654,"mn":3655," сонголт":3656,"үжиг":3657,"ант":3658,"Сүүл":3659,"ХА":3660," өглөө":3661,"УИХ":3662," эхнэр":3663," тэгээд":3664,"??":3665,"екс":3666,"гааны":3667,"агдаж":3668,"ага":3669," эмэгтэйчүүд":3670,"ев":3671,"дэггүй":3672," гурав":3673," тэнд":3674,"олонгос":3675," ме":3676,"амд":3677," удаан":3678," явдаг":3679,"гээс":3680,"лагд":3681," нийтийн":3682," чамайг":3683,"адад":3684," тусл":3685,"Их":3686," бүрд":3687," орчим":3688,"нээр":3689,"Нүүр":3690,"сээр":3691,"ашин":3692,"лар":3693," мэднэ":3694," дээш":3695,"санд":3696,"уяа":3697," цагдаа":3698," гишүүд":3699," төхөөрөмж":3700," эзэм":3701," арай":3702,"хны":3703," үйлчл":3704,"Ур":3705," гэдгээ":3706," орд":3707," хүүхдийн":3708,"сг":3709," бүлийн":3710," үзсэн":3711,"жлийн":3712,"уучин":3713," хязгаар":3714,"Эрдэнэ":3715," зарц":3716," битгий":3717," бүтээгдэхүүн":3718,"варын":3719," буу":3720," таныг":3721," дал":3722," өөрийнхөө":3723," түмэн":3724," үндсэн":3725," дүгн":3726," орой":3727," жур":3728,"24":3729," H":3730," мат":3731," оюут":3732," технолог":3733," програм":3734," хийнэ":3735," түвшин":3736," гуй":3737,"гааш":3738," гэдэгт":3739,"үнд":3740," төлөвлөгөө":3741,"25":3742,"Үүнээс":3743," шилдэг":3744," барьж":3745," дэх":3746," уран":3747,"өөсөө":3748,"цээ":3749," эргэл":3750," өнөө":3751,"гар":3752," хэрэглэх":3753," суурь":3754,".mn":3755,"аах":3756,"Бай":3757," хэдий":3758,"икийн":3759," бөх":3760,"этгэл":3761,"агийн":3762,"олб":3763," удаагийн":3764,"есс":3765," хувцас":3766," гайх":3767,"лагч":3768,"Хятад":3769," нэл":3770," гэмт":3771,"ударга":3772," эрт":3773," хөгжил":3774," байл":3775," бодит":3776,"am":3777,"ХУ":3778," эхлэх":3779," хоногт":3780," очиж":3781," хил":3782," нутаг":3783," тон":3784,"энтэй":3785,"гаараа":3786," тут":3787,"лжээ":3788," амр":3789," сууж":3790," хүрт":3791,"энгүй":3792,"АНУ":3793," өгнө":3794," Америк":3795,"ип":3796," багт":3797," амьдрах":3798," эцэг":3799," нийгэм":3800,"эгүй":3801," мод":3802," ээл":3803,"агдах":3804,"ра":3805," байгал":3806," сав":3807," Европ":3808,"Сан":3809," авдаг":3810,"кс":3811," гом":3812,"охой":3813," халдв":3814," суралц":3815,"врийн":3816," W":3817,"..\n":3818,"сөлд":3819," тос":3820," хийгээд":3821," бариг":3822," байгууллага":3823," ялгаа":3824,"мээр":3825," ня":3826," ашиглаж":3827," төлөвл":3828,"Гад":3829," хуур":3830," бодлого":3831," МАН":3832,"эгдсэн":3833," туслах":3834," чиний":3835," зүйн":3836," Орос":3837,"тайгаа":3838," өвч":3839," байдаггүй":3840,"пон":3841,"40":3842," ухаа":3843," улир":3844,"ед":3845," хэрэглээ":3846,"лөгчийн":3847,"гүү":3848,"луулах":3849,"иде":3850," эмч":3851,"ноо":3852," бүлэг":3853," хамр":3854," R":3855," сонирхолтой":3856," t":3857,"Хүмүүс":3858," минутын":3859,"гvй":3860,"ья":3861,"элж":3862," ижил":3863," E":3864," бичлэг":3865,"лэгч":3866,"длыг":3867," гэртээ":3868," өөрчлөгд":3869," байнга":3870,"нүүд":3871,"ro":3872,"**":3873," яд":3874,"эст":3875," арил":3876," сургууль":3877,"барын":3878," шир":3879," сэтгүүл":3880," ,":3881," жилд":3882," худалдаж":3883,"андаа":3884," үүрэг":3885,"иваа":3886,"унд":3887,"эрч":3888," тусламж":3889," аргагүй":3890,"сү":3891," цалин":3892,"жилгээ":3893," ажээ":3894,"Сур":3895," баталгаа":3896,"вол":3897,"ериал":3898,"өдөө":3899," v":3900," өгдөг":3901,"эгдэл":3902," нөөц":3903," худалдан":3904,"оохон":3905," захиал":3906,"лам":3907," чаддаг":3908," дөрвөн":3909," мах":3910,"өсөн":3911," оруулж":3912,"is":3913,"лбар":3914,"тор":3915," яваа":3916,"дэж":3917," дас":3918," шагн":3919," таван":3920,"сыг":3921," гайхалтай":3922," ойлгож":3923," хүрээнд":3924," иргэдийн":3925," хулг":3926,"аасан":3927,"Тэдний":3928,"un":3929," шү":3930,"үүлдэг":3931," тохиолдол":3932," сул":3933," харилц":3934," энгийн":3935," нутагт":3936,"he":3937," гэхээр":3938," зайл":3939," хохир":3940," өгөө":3941," цэг":3942," дотоод":3943," тавьж":3944,"Өнгөрсөн":3945,"-н":3946," гэжээ":3947," өрсөлд":3948,"Бурхан":3949," хараад":3950,"/\n":3951,"хоо":3952," Ерөнхийлөгч":3953," зүрх":3954,"юун":3955," суул":3956," хүсэл":3957,"би":3958,"маас":3959," бичих":3960," хувил":3961,"дэх":3962," юмаа":3963," онгоц":3964," тавих":3965," эхлээд":3966,"оф":3967," бэрх":3968," тэрээр":3969," тэрб":3970,"Өөрөөр":3971," тушаал":3972,"агш":3973," яам":3974," чадсан":3975," салбарт":3976," L":3977," өнгө":3978,"акц":3979," үедээ":3980," хүмүүсийг":3981,"Анх":3982,"еж":3983," нийгмийн":3984,"эсний":3985,"Тухайн":3986,"Дээр":3987,"Орос":3988,"ндаа":3989," сонин":3990,"Түүн":3991," дүү":3992," хамаагүй":3993,"сэг":3994," үүд":3995,"гэх":3996," зо":3997," мор":3998," өргөн":3999," Монголд":4000,"эрлэг":4001," төсөл":4002," чамд":4003," эргэн":4004," Бр":4005," мэдээллийн":4006," жишээ":4007," олд":4008,"Ард":4009,"ууль":4010," шинжилгээ":4011," биел":4012,"эе":4013,"уулагч":4014,"ИЙ":4015," хаш":4016," явна":4017,"гыг":4018,"огч":4019,"22":4020," бя":4021,"ирус":4022,"ay":4023," мөнгөн":4024,"et":4025," хотод":4026,"ина":4027,"сын":4028,"Тан":4029," гал":4030," бүхнийг":4031," ха":4032," өөрсдөө":4033,"Юу":4034," е":4035," тээр":4036,"ing":4037," нийтлэл":4038," сууц":4039,"]\n":4040," материал":4041," үздэг":4042," утга":4043," цахим":4044,"үрэн":4045,"Төрийн":4046," ажиллагааны":4047,"АР":4048," зүг":4049,"төр":4050,"хим":4051,"гүүд":4052," хялбар":4053," жинхэнэ":4054,"Зөвхөн":4055,"ol":4056,"ааж":4057," шах":4058," үзүүлэх":4059,".Х":4060,"пп":4061," бээл":4062," үнэгүй":4063," хамтран":4064,"унт":4065,"ad":4066," цагаан":4067," Их":4068,"Эс":4069," бусд":4070,"эсгэл":4071," онлайн":4072," зу":4073," төд":4074," p":4075," идэв":4076,"гэрэнгүй":4077," Үнд":4078,"el":4079," тэднийг":4080," жүжиг":4081," байдалд":4082,"дагч":4083," хийлг":4084,"il":4085," нээ":4086," газарт":4087," бал":4088," сууд":4089," сургалт":4090,"шээл":4091,"аач":4092,"удал":4093,"лх":4094," ман":4095," хурд":4096,"ангуяа":4097,"угай":4098," сургуулийн":4099," хатуу":4100," Солонгос":4101," c":4102," эрчим":4103,".Г":4104,"!!!\n":4105," зогсоо":4106," татаж":4107," тах":4108," оролцох":4109,"as":4110,"маг":4111," эрэгтэй":4112," мэндийн":4113,"Намайг":4114,"Бол":4115,"аалга":4116,"000":4117,"Эц":4118," бичиж":4119,"болд":4120," яриа":4121," сонгох":4122," шинэчл":4123,"гад":4124," хаж":4125," хүргэж":4126," тавь":4127,"Сайн":4128," насан":4129," үзэл":4130," хоолой":4131," эрд":4132," хүчний":4133," хувилбар":4134," бүртгэл":4135," үргэлжил":4136,"идео":4137,"жлэх":4138,"Хүний":4139," болт":4140," бодол":4141," очих":4142," орх":4143,"ed":4144,"АХ":4145," хангалттай":4146," хүрч":4147," эрсд":4148," байгууллагын":4149," болз":4150," хэлэхэд":4151," дараагийн":4152," хөдл":4153,"21":4154,"агчид":4155,"Түүнийг":4156,"сийг":4157," чим":4158," хүрэх":4159," байгуулах":4160,"наа":4161," хүчтэй":4162,"Амьд":4163," s":4164,"ги":4165," алх":4166," чул":4167,"члал":4168," нарийн":4169," мая":4170,"уулахад":4171,"чуудын":4172," Бурханы":4173,"оонд":4174," хүнтэй":4175," бүгдийг":4176,"лээр":4177,"эснээр":4178," адилхан":4179," ярьдаг":4180," хугацааны":4181,"Сүүлийн":4182," бээлий":4183,"ранц":4184," компанийн":4185,"ag":4186," төдий":4187,"лиг":4188," лээ":4189,"длийг":4190," нийл":4191,"ээний":4192,"тгалз":4193," тусгаар":4194," хүрсэн":4195," улмаас":4196,"вийн":4197," m":4198," нэлээд":4199,"бэр":4200,"Ажил":4201," яри":4202,"огийн":4203,"ээээ":4204,"өөдрийн":4205," яваад":4206," өрт":4207,"60":4208," түүн":4209," буцаа":4210," ариу":4211,"ow":4212,"аана":4213,"мыг":4214," татгалз":4215," санхүүгийн":4216," мэдлэг":4217," жир":4218," тавьсан":4219,"Сай":4220," боль":4221,"ахын":4222," тэрбум":4223," хүсэлт":4224," байдлын":4225," хэрэгжүүлэх":4226,"Ээж":4227," зөвлөгөө":4228,").\n":4229," шударга":4230," ойлголт":4231,"ноос":4232," урам":4233,"амсалтай":4234," арван":4235," өмс":4236," яриад":4237," хөгжлийн":4238," бэрхшээл":4239," тэнц":4240," байшин":4241," үгийг":4242," хос":4243," тусал":4244," тоглох":4245," мэргэжлийн":4246," ажилласан":4247," байгаагаа":4248," гараад":4249," биднийг":4250,"наж":4251,"длын":4252,"айз":4253,"ух":4254,"үрэл":4255," тусгай":4256," Дэл":4257," бэлэг":4258,"даас":4259,"мөр":4260,"Өв":4261," чадаагүй":4262," талбай":4263," дэвш":4264," тэтг":4265," уурхайн":4266,"ьютер":4267,"Надад":4268,"Хув":4269," бна":4270," нээлт":4271," илэрхийл":4272," тэнэг":4273,"гт":4274,"орон":4275," оршин":4276,"заар":4277," хүй":4278," лав":4279," анги":4280,"рай":4281," өгүүл":4282," боломжийг":4283," мэдээж":4284," дургүй":4285," дасгал":4286," салбарын":4287,"MN":4288," амжилттай":4289,"пьютер":4290," цэн":4291,"бэл":4292," харсан":4293," дэмжих":4294," нарт":4295," дэлгүүр":4296,"бат":4297," баярлалаа":4298," амьдардаг":4299,"өмөр":4300,"Гэсэн":4301," илр":4302,"унтаг":4303,"ош":4304,"орын":4305," талд":4306,"итан":4307," суух":4308," сүлжээ":4309,"АТ":4310,"нээн":4311," гу":4312," хуваал":4313," Хар":4314," ойлгох":4315,"ot":4316,"өгч":4317," ээлж":4318," үндэсний":4319," сах":4320," тэдгээр":4321," зохиол":4322," амьдралд":4323," унших":4324," блог":4325,"өхгүй":4326," давуу":4327," сэргээ":4328," чин":4329,"алуу":4330,"өөрөө":4331,"орно":4332,"лагийн":4333," бодсон":4334," жаахан":4335," ёсны":4336," зарна":4337,"лаанбаатар":4338," доор":4339," замын":4340," хэргийн":4341," томил":4342," үнэтэй":4343,"Магад":4344,"ирч":4345," хэлдэг":4346," бараа":4347," харагдаж":4348," ирнэ":4349," үзэсгэл":4350,"чихсэн":4351," оролд":4352," бэлтг":4353," онцлог":4354," гүн":4355,"эргүү":4356," дэмжлэг":4357,"Гур":4358," хүл":4359,"луул":4360," сурвал":4361," бэлтгэл":4362," станд":4363,"Аав":4364," суртал":4365," бүтэн":4366," үлдсэн":4367,"иц":4368," нур":4369," эрг":4370,"үүлэгч":4371,"АЛ":4372," |":4373,".MN":4374," ажиг":4375,"Бусад":4376," автом":4377," бүрт":4378," амж":4379," татвар":4380,"эрхүү":4381," нэрийг":4382,"ангийн":4383," гарын":4384,"уудаа":4385," тээрэм":4386,"Үнд":4387," зэв":4388,"ахаар":4389," ахуйн":4390,"алтыг":4391," зээлийн":4392," хайж":4393,"тхэг":4394," гардаг":4395,"тнууд":4396,"илгын":4397," удахгүй":4398," ярьсан":4399,"  ":4400," мө":4401,"Түүнчлэн":4402,"эргүүц":4403," чуул":4404," оноо":4405," амиа":4406,"лэнэ":4407," муж":4408," үлдээ":4409,"Сонг":4410,"лана":4411," дахиад":4412,"-ийг":4413,"тон":4414," цэргийн":4415," явуулах":4416,"тэр":4417,"жлын":4418,"-г":4419," дүнд":4420," тэнгэр":4421," хэрэгсэл":4422," нэгж":4423,"ондоо":4424,"Өөрийн":4425,"Хайр":4426," мэдрэмж":4427," эсэхийг":4428," жагсаалт":4429," дэмжиж":4430," дэг":4431," ажиллагааг":4432," хүсэж":4433," интер":4434,"длийн":4435," охид":4436," онцгой":4437," магадлал":4438," маргааш":4439,"ion":4440,"снээр":4441,"чигдөр":4442," яар":4443,"үүлээд":4444," эсэх":4445,"Хүүхд":4446," сөр":4447," ирдэг":4448," кон":4449," яахав":4450,"Зур":4451,"-Та":4452,"ew":4453,"рист":4454,"чүүдийн":4455,"снаас":4456," шаардлагагүй":4457,"уууу":4458," хэмжээг":4459," итгэлтэй":4460," ов":4461,"слэлийн":4462," тэж":4463,"ur":4464," илгээ":4465,"игийн":4466," тоног":4467,"ээч":4468," ороод":4469," Ал":4470," хуваалц":4471," нохой":4472,"уб":4473," гут":4474," халдвар":4475,"Өг":4476," шар":4477," газраас":4478," жаргалтай":4479,"Нөгөө":4480,"илгаан":4481," бодис":4482,"этгээд":4483," доллар":4484," сонгуулийн":4485,"Магадгүй":4486," алдсан":4487," тэдэнд":4488," үйлдэл":4489," огц":4490," томоохон":4491," байлг":4492," ёсоор":4493," хүсдэг":4494,"Эмэгтэй":4495," хас":4496," алт":4497," нарыг":4498,"чдад":4499," сургуульд":4500," сурах":4501," уй":4502," давхар":4503,"тний":4504,"игд":4505," амьтан":4506," түмний":4507," байнаа":4508,"80":4509," ашигтай":4510," тарх":4511,"##":4512,"єє":4513," нунтаг":4514," элс":4515," хөдөлгөөн":4516," хүчир":4517,"шигч":4518," эсэргүүц":4519," зөвлөл":4520,"Үйл":4521," хяналт":4522," гарга":4523," алхам":4524," сэргий":4525," шагнал":4526," шалгар":4527,"иас":4528,"Өдөр":4529," эмчилгээ":4530," пар":4531," зүтг":4532," этгээд":4533,"шээ":4534," аялал":4535," вэб":4536,".Н":4537,"слэл":4538," өөрсдийн":4539,"id":4540,"Анг":4541," хэлээд":4542," талаас":4543," үзүүлэлт":4544,"23":4545,"мал":4546," тэс":4547," зуу":4548," идэвх":4549,"оорой":4550," гэрийн":4551," цэцэрлэг":4552," бр":4553,"чдыг":4554," дүгнэлт":4555,"Мар":4556,"ЭН":4557," шүүм":4558," хурал":4559," хэсэгт":4560," дуул":4561,"эвчлэн":4562," төсөв":4563," тэгж":4564," хагас":4565," хулгай":4566," ос":4567,"Цааш":4568,"Өр":4569," өвд":4570," нэмэлт":4571," мөрд":4572," хамгаал":4573," сэдэв":4574," O":4575," компаниуд":4576," өөрчлөх":4577," тээврийн":4578," ног":4579," дотр":4580,"Өмнөх":4581,"цгаа":4582," сор":4583," хариулт":4584,"фр":4585," бах":4586,"Эсвэл":4587,"Түүнээс":4588,"бор":4589," b":4590," учиртай":4591," хv":4592," ирлээ":4593," анхаарал":4594,"Амьдрал":4595," хэрэглэж":4596," хэрэгцээ":4597," тогтвор":4598," асуудлаар":4599," байгуулсан":4600,"ьс":4601,"өнгөн":4602,"us":4603,"гаасаа":4604,"портын":4605,"эрсэн":4606,"оог":4607," дэр":4608,"огино":4609,"дрийн":4610," орлого":4611,"-Т":4612,"сар":4613," Миний":4614,"чдэд":4615," Европын":4616," эзэн":4617," дая":4618," явуулж":4619," өдөрт":4620," амархан":4621," тамир":4622,"-Х":4623,"МАН":4624,"Уул":4625,"хад":4626,"Засгийн":4627,"-Би":4628," хуваар":4629," уншиж":4630,"ch":4631," шөнө":4632," авчир":4633," вакц":4634," Ав":4635,"чилан":4636," тохиромжтой":4637," J":4638," стр":4639," Тэр":4640," хэвээр":4641," алдаг":4642," баяртай":4643," дэд":4644,"уулийн":4645,"лагыг":4646,"имп":4647,"гэ":4648,"ла":4649," сурвалж":4650," нү":4651," орос":4652," эрхийг":4653," сонгуульд":4654," бөмбөг":4655," сүр":4656," чих":4657," хандаж":4658," оо":4659," мэргэжил":4660," мас":4661," дурс":4662,"ent":4663,"сүх":4664,"уц":4665," цөөн":4666," багийн":4667," хэдийн":4668," жолоо":4669," орно":4670," хуралдаа":4671," тоглог":4672," олгох":4673," хятад":4674,"өндөө":4675,"эмт":4676," ажилтан":4677," товч":4678," БН":4679," шинээр":4680," хамтдаа":4681," ганцаараа":4682,"Төр":4683," өвчин":4684," хэвлэл":4685,"Америк":4686," хямд":4687," холбогдох":4688," тор":4689," амьсгал":4690," түвшинд":4691,"зан":4692," байд":4693,"Хэрэг":4694,"?\"":4695," түүнээс":4696," шав":4697,"ээдэг":4698,"кк":4699,"Ганц":4700,"АЙ":4701," талын":4702," замаар":4703," хаяг":4704,"ихгүй":4705," бодоод":4706," хийхэд":4707," бурхан":4708," жуул":4709," танай":4710," зориг":4711," сонгууль":4712,"-т":4713,"eb":4714," харахад":4715,"ерман":4716,"УУ":4717,"ерм":4718," ХХ":4719," зүйлээ":4720," нот":4721," тэрбээр":4722," бүхэнд":4723,"элийн":4724," за":4725,"ойд":4726," Бид":4727," Ир":4728," ойролцоо":4729,"евиз":4730," U":4731," нийц":4732,"сайхан":4733,"-ыг":4734,"Хур":4735," аш":4736," цом":4737," олсон":4738," эхэлж":4739,".О":4740,"уудаас":4741," амт":4742," оролцож":4743," төрөлх":4744,"Үр":4745,"илга":4746,"Ингэснээр":4747," видео":4748," үзээрэй":4749," Британ":4750," байранд":4751," эхэллээ":4752," тэмцээн":4753,"ъё":4754,"үүдээ":4755," зургийг":4756," алба":4757," мөрөөд":4758," шалгалт":4759,"тул":4760,"асны":4761," болгосон":4762,"оосон":4763,"70":4764,"бол":4765,"ям":4766," хөө":4767," уурхай":4768," хэрэгт":4769," тоглож":4770,"Хүүхэд":4771," өл":4772,"ба":4773," Аз":4774,"огдсон":4775,"....\n":4776,"ель":4777," тайван":4778,"Ас":4779," эргэж":4780,".С":4781," зүйтэй":4782," багас":4783,"лол":4784," барь":4785,"Жишээ":4786,"оу":4787,"....":4788," эхлэн":4789," тел":4790," зүгээс":4791," байсныг":4792," цай":4793," бул":4794,"удамж":4795," цагдаагийн":4796,"руул":4797," гарна":4798," хож":4799," давт":4800," аварга":4801," нэртэй":4802," ангил":4803,"ub":4804," оруулсан":4805," даатг":4806,"амжийн":4807," монголчууд":4808," өсөлт":4809,"Гадаад":4810,"Ан":4811,"анх":4812,"гаагүй":4813," компьютер":4814," уулзалт":4815,"ааг":4816,"онх":4817," зардал":4818,"Ингэж":4819," эргэлз":4820," Бат":4821," асар":4822," эгч":4823,"лбал":4824,"Бүгд":4825," цаашид":4826,"198":4827,"Ихэн":4828,"наар":4829," худлаа":4830," зөвшөөрөл":4831," хоёрын":4832," ашигладаг":4833," тоол":4834,"Ял":4835,"енеж":4836,"Дэлхий":4837,"нгын":4838," шалтгаа":4839," соёл":4840," ангийн":4841," хааг":4842," дүнтэй":4843,"гам":4844," дий":4845," зая":4846," ялг":4847," хэлний":4848,"шуул":4849,"оль":4850," дүүрэн":4851," Y":4852," чаддаггүй":4853," хариуцлага":4854,"Эрх":4855,"Иргэд":4856,"амын":4857,"БН":4858," хүүхдээ":4859," өрн":4860," санагддаг":4861," им":4862,"лав":4863,"ҮБ":4864," эрхтэй":4865," Хятадын":4866,"пер":4867,"шөө":4868," хөв":4869," хэвийн":4870,"бир":4871,"лов":4872,"чилгаа":4873," хөдөлмөр":4874,"АА":4875,"Хор":4876," хувийг":4877," гэрэл":4878," итгэж":4879,"рийг":4880,"шиж":4881," буул":4882,"Маш":4883," гоо":4884," хэргийг":4885," албаны":4886," хувьцаа":4887," d":4888," боо":4889," хөх":4890," зуун":4891,"чихаад":4892,"90":4893,"Зүгээр":4894,"лөл":4895," болоогүй":4896," уламжл":4897," анзаар":4898," нөхөд":4899," хангах":4900," зориулж":4901," дөрөв":4902,"26":4903,"лолт":4904," юмуу":4905," түрээс":4906," чиглэлээр":4907," хуучин":4908," үзэг":4909,"28":4910," сайдын":4911," сув":4912," шалгах":4913," дүрэм":4914," дайр":4915,"Залуу":4916," нэгдсэн":4917," төгсг":4918,"гэц":4919,"дүгээр":4920,"мад":4921," хүргэе":4922," нээлттэй":4923,"чиж":4924,"илийн":4925," цув":4926,"Монголд":4927," оролцсон":4928," чанартай":4929," номын":4930,"Аль":4931," зорилгоор":4932," өө":4933," мян":4934," сонсох":4935," алдартай":4936," V":4937,"Шин":4938," урьдчилан":4939," дайн":4940,"тгах":4941," үзнэ":4942,"даагүй":4943," Анг":4944," ганцхан":4945," даяар":4946,"адаа":4947," ихэвчлэн":4948," хям":4949," цахилгаан":4950,"ЭГ":4951," зуур":4952," талаарх":4953," одоогийн":4954," хичээ":4955," нөхцөлд":4956,"Он":4957,"Хот":4958," аливаа":4959," порно":4960,"Одоогоор":4961," стандарт":4962,"im":4963," төлөх":4964," шийдвэрлэх":4965," f":4966,"шаа":4967,"лгэр":4968," чулуу":4969,"Ихэнх":4970,"мол":4971,"ХАУ":4972,"гэдэг":4973,"Нийт":4974," бохир":4975," хөдөө":4976," хүрээл":4977,"Ажлын":4978," байлгүй":4979,"улаа":4980," чадвартай":4981," үнэлгээ":4982,"27":4983," өд":4984," агаарын":4985,"лоор":4986," ат":4987," дараал":4988,"азар":4989," эрхэм":4990," эг":4991," хэмээ":4992," Хэр":4993," Есү":4994," тогтвортой":4995,"хин":4996,"Бүр":4997,"эхэ":4998," тогтоол":4999," ХХК":5000,"элсэн":5001,"ерийн":5002," санаж":5003,"Нийг":5004," сам":5005,"ийгээр":5006," хэмээх":5007,"pp":5008," менеж":5009," үнэндээ":5010,".Т":5011," нэмж":5012," хоё":5013,"ноор":5014," засвар":5015," хуулийг":5016," идэх":5017,".мн":5018,"Ком":5019,"алтгүй":5020," зургаан":5021,"Үнэхээр":5022,"ook":5023,"Бат":5024,"Хөг":5025,"Чам":5026," дүгээр":5027," Хү":5028," ажиллана":5029," хөгжүүлэх":5030," зөрчил":5031," сайжруулах":5032,"йн":5033,"ри":5034,"гээрээ":5035," надаас":5036,"шигтай":5037," ердөө":5038," хог":5039,"агдаад":5040," түгээ":5041," царай":5042,"ex":5043,"энт":5044,"ангуй":5045," жагсаал":5046,"фф":5047," биеэ":5048," биеийн":5049,"огдох":5050," дэргэд":5051,"жүүлэх":5052,"лб":5053," заалт":5054," үйлчилгээний":5055," ухааны":5056,"олл":5057,"лагдаж":5058," найдв":5059,"-тай":5060," зад":5061,"снаа":5062," хөнд":5063,"500":5064," тараа":5065," зох":5066," ашиглан":5067," сум":5068," тогтоох":5069,"Бод":5070," мэдсэн":5071," дарж":5072," сураг":5073,"оосоо":5074,"өнгөж":5075," эцсийн":5076," гаргадаг":5077," тутмын":5078," уучл":5079,"Тэнд":5080,"бөмбөг":5081,"тны":5082," Мэд":5083," мөнгийг":5084," хаанаас":5085,".Д":5086," зорилт":5087," дэлгэрэнгүй":5088," тий":5089," баруун":5090," байгуулж":5091,"Ин":5092,"поны":5093," байгаарай":5094," хүсье":5095,"Сая":5096,"жаа":5097," хүндр":5098,"Өмнө":5099,"ec":5100,"ко":5101,"элдэг":5102,"Монголчууд":5103," муухай":5104,"гөн":5105,"ошгүй":5106,"ате":5107," олбор":5108," даргын":5109," ерөнхийлөгч":5110,"Тухай":5111,"and":5112,"алж":5113," хүм":5114," сумын":5115," ОХУ":5116," хандах":5117,"ТГ":5118,"уудтай":5119,"Гар":5120,"Улсын":5121," зүйлд":5122,"Орон":5123," мөнгөө":5124,"ддэг":5125," хэлэв":5126," Бай":5127," идэж":5128,"үрэлсүх":5129,"страл":5130,"ia":5131," богино":5132," байхаа":5133," аргаар":5134,"ews":5135,"цаг":5136,"алгүй":5137," эцэст":5138,"эхийн":5139," өгөхгүй":5140," Өмн":5141," экс":5142,"орн":5143," шив":5144," хэллээ":5145," барим":5146,"Дараагийн":5147," телевиз":5148," сүй":5149," үнэм":5150," дууссан":5151,"ter":5152,"кет":5153," гараа":5154," суд":5155," одоогоор":5156," өрөөнд":5157,"Сайхан":5158,"Тав":5159," \"\n":5160," бодлоо":5161,"члалын":5162," оруулалт":5163," #":5164,"ап":5165,"саг":5166,"эргэж":5167,"ууллаа":5168," улстөр":5169," үнэр":5170," англи":5171,"ОН":5172,"ийгээ":5173,"асаг":5174," дугуй":5175,"ЭЭ":5176,"агддаг":5177," найдаж":5178,"гэсэн":5179," дэм":5180," сурч":5181," хэрэглэдэг":5182," дүнг":5183,"Тухайлбал":5184,"Хал":5185,"өнгийн":5186," яасан":5187," цус":5188," арх":5189," анхаарах":5190,"обус":5191," болзошгүй":5192,"ig":5193," гудамж":5194,"ерэг":5195,"Эрүүл":5196," гайхам":5197," боловсруулах":5198,"Ил":5199,"луулж":5200," сек":5201," эрчүүд":5202," замыг":5203,"ИЙН":5204," дагаж":5205,"зэн":5206," халуун":5207," газрыг":5208,"\"Би":5209," хэвт":5210," бусдад":5211,"тайгаар":5212," таларх":5213," болгодог":5214,"гууд":5215,"ааз":5216," ховор":5217," сонссон":5218," хамтын":5219,"Өглөө":5220,"em":5221," орхи":5222," бүхний":5223," хөгжим":5224," гомдол":5225," хямрал":5226," Төрийн":5227," худалдааны":5228,"Ах":5229,"ОЛ":5230," Ерөнхийлөгчийн":5231," дотроо":5232," өөд":5233,"Ой":5234,"уухан":5235," өмнөөс":5236," шалгаж":5237," бизнесийн":5238,"Аз":5239," байхаар":5240," хийхгүй":5241," инээ":5242," саналыг":5243," асуудалд":5244,"алгаа":5245,"ингийн":5246," дууг":5247," хүүхэдтэй":5248,"Хүүхдийн":5249,"Үнэн":5250," орчинд":5251,"ынхаа":5252," үд":5253," шинжлэх":5254,"...]\n":5255," төсвийн":5256," оюутнууд":5257,",\"":5258," залуус":5259," чанарын":5260," хэ":5261," цох":5262," иргэдэд":5263," дэлхийд":5264," журам":5265," бүрэлд":5266," вакцин":5267,"дээгүй":5268," юуг":5269," нийтэд":5270,"нет":5271,"ээхэн":5272," хороо":5273," болчихсон":5274," сэргийлэх":5275,"насан":5276," урд":5277," хороол":5278," файл":5279,"Үүнд":5280," хоорондоо":5281," сөрөг":5282," зүүн":5283," авар":5284," аваарай":5285,"галаа":5286," үлгэр":5287," агуул":5288,"Эхний":5289,"иан":5290," цац":5291,"снаар":5292," ингээд":5293," хугацааг":5294," давх":5295," X":5296,"Том":5297,"жих":5298,"нэт":5299,"члах":5300," цагаа":5301,"!!\n":5302," хэрэв":5303,"ийнхүү":5304," өдрүүдэд":5305," зүүд":5306," хоолны":5307," түрүүнд":5308," гэг":5309," ордог":5310," хоц":5311,"эндүү":5312," [...]\n":5313," эзэмш":5314," технологи":5315,"of":5316," гр":5317," вирус":5318," тэгш":5319," очоод":5320,"Наад":5321,"ЭМ":5322," гэрт":5323," байгуулагдсан":5324," татах":5325," очсон":5326," нэгдүгээр":5327,"Сон":5328," эрс":5329," барив":5330," ойлгомжтой":5331," ажиллагаанд":5332," аюултай":5333," ширх":5334," хүнсний":5335," холбооны":5336," агуу":5337," Үндсэн":5338," тухайд":5339," хэрэгжүүлж":5340,"лэм":5341," зааж":5342," санагдаж":5343,"Дах":5344,"Чиний":5345,"орм":5346," улаан":5347," үзээгүй":5348," түг":5349," уулзаж":5350," дандаа":5351," Америкийн":5352,"Тод":5353,"ларын":5354," бөө":5355," хамаа":5356," эрхийн":5357," эхэлнэ":5358," хувиар":5359," ойлгодог":5360," хүүхдэд":5361," заасан":5362," өдрийг":5363," суурил":5364," удирдлаг":5365," заримдаа":5366," усны":5367,"Таныг":5368,"29":5369,"стой":5370," шан":5371," Ан":5372," мянга":5373,"ка":5374," туу":5375," зүйлийн":5376," босг":5377," хөөрхөн":5378,"ir":5379,"бан":5380," авлаа":5381," үүнд":5382,"өлтийн":5383," Цаг":5384," орондоо":5385," дамжуулан":5386," тэргүүн":5387,"лаар":5388," хэмжээгээр":5389," амьдралыг":5390,"-гийн":5391,"ээтэй":5392," дарам":5393," Таны":5394," иргэний":5395,"дсон":5396,"лүүд":5397,"үүк":5398," кам":5399,"лэлт":5400,"ест":5401," манайд":5402," хэтэрхий":5403,"тулга":5404," w":5405," Бол":5406," иймэрхүү":5407,"Өнөө":5408," нэх":5409,"чдийг":5410," тайлан":5411,"дахгүй":5412," уст":5413," тэмцэх":5414,"то":5415," нээх":5416,"эцэг":5417," сэтгэгдэл":5418,"элийг":5419,"лэгийн":5420," шийдсэн":5421," барилга":5422,"Ун":5423,"енд":5424,"луулсан":5425,"үүлэлт":5426," зовлон":5427,"вөл":5428,"мийг":5429," авахгүй":5430," цагаар":5431," уралдаа":5432," зарчим":5433,"one":5434," є":5435,"яг":5436," хэнд":5437,"лагдах":5438," болгоо":5439," үйлдвэрийн":5440," машины":5441,".Ц":5442,"АС":5443," байцаа":5444," эргээд":5445," үзүүлж":5446," асууж":5447,"300":5448,"Зах":5449,"цийн":5450,"орт":5451,"жилж":5452," сонсож":5453," ядаж":5454,"Харамсалтай":5455," судлаа":5456," сэтгэлийн":5457," i":5458," спорт":5459," шуур":5460," дэлгэц":5461,"ооноос":5462," ханш":5463,"Дараах":5464," байгаль":5465," чуулган":5466," парлам":5467,".дол":5468,"тар":5469," уух":5470," архи":5471," сонгосон":5472," төслийг":5473," үйлдвэрлэл":5474,"Өнөөдрийн":5475," судалгааны":5476," эерэг":5477,"-ээс":5478," ихээр":5479,"гаарай":5480," төрд":5481," ёсгүй":5482," бусдын":5483," тэмцээнд":5484," боловсрол":5485," үйлчилгээг":5486," гадаадын":5487," хоёрдугаар":5488," үүссэн":5489," өссөн":5490," байгалийн":5491," цөө":5492,"далгүй":5493," итгэдэг":5494,"ег":5495," апп":5496," цогц":5497," шийдэх":5498," доош":5499," хяналтын":5500," утасны":5501,"ut":5502,"ланд":5503,"хаг":5504,"үүгийн":5505,"ишээл":5506," зайлшгүй":5507," мөнгөний":5508," брэнд":5509,"Ялангуяа":5510,"-ний":5511,"Европ":5512,"Нөх":5513," цуврал":5514,"os":5515,"ul":5516,"Оюут":5517,"Төс":5518," хувир":5519," кл":5520,"чи":5521," шаар":5522," шуг":5523,"овч":5524," тогтолцоо":5525,"Ирэх":5526,"Баяр":5527,"Нар":5528,"сал":5529," хах":5530," шид":5531," олны":5532," явуул":5533," уриал":5534," өөрсдийгөө":5535," бүтээгдэхүүний":5536,"улуун":5537," ?\n":5538,"игт":5539," цагийг":5540,"чихлаа":5541," төсөөл":5542," зээлд":5543,"art":5544," удаад":5545,"Хууль":5546," юмыг":5547," Холб":5548,"Ерөнхийлөгч":5549,"дэн":5550,"чийг":5551,"үйм":5552,"ханд":5553," өнц":5554,"Иймд":5555,"Танд":5556," тооны":5557," өөрт":5558," ууж":5559,"ap":5560,"Гол":5561,"гуу":5562,"огчид":5563,"ерт":5564,"Одоогийн":5565," үсэг":5566,".Энхбаяр":5567,"ҮҮ":5568," шуу":5569,"эгдэж":5570,"наасаа":5571," харагддаг":5572,"АГ":5573,"Тог":5574,"Үз":5575," хэлээр":5576," хэсгийг":5577," сонирхол":5578," бодлогын":5579," хуу":5580,"оороо":5581," байрны":5582," гэнэт":5583," шатны":5584," саад":5585," Улаанбаатар":5586," өнөөгийн":5587," оюун":5588," үндэслэл":5589,"ва":5590,"дэл":5591," зууны":5592," таамаг":5593," киноны":5594,"ov":5595,"ээг":5596," утг":5597," нэгтг":5598," хуульд":5599," мунд":5600," нийгэмд":5601," зөндөө":5602," шөн":5603," харагдах":5604,"эш":5605," зод":5606," зөөл":5607," хийхийг":5608," сүүлд":5609," баталгааж":5610,"олж":5611," гэс":5612," тогтмол":5613," саналаа":5614,"АХН":5615,"gle":5616," байт":5617," зол":5618," барсан":5619," төвл":5620," болдоггүй":5621," наадам":5622," жүжигчин":5623,"ганы":5624," ну":5625," байхын":5626," даруй":5627," хорооны":5628," банкны":5629,"вөр":5630,"лэв":5631," дүүргийн":5632," цэцэг":5633," хөгжилтэй":5634," ариутг":5635,"Бая":5636,"Тэн":5637,"айд":5638," хийлээ":5639," цагаас":5640,"снийг":5641," танхим":5642,"шр":5643," код":5644," төрх":5645," зарч":5646," Япон":5647,"цхан":5648,"ямд":5649," туршлагатай":5650,"хнэр":5651," хүргэх":5652," K":5653,"-Энэ":5654,"үйц":5655," ажилдаа":5656,"имс":5657,"лэгчид":5658,"Бие":5659," бүтээсэн":5660," зүйлсийг":5661," ихээхэн":5662,"огдож":5663,"лалтад":5664,"хтай":5665," технологийн":5666,"гил":5667,"лаас":5668," дэндүү":5669,"эгдүгээр":5670," нэмэгдүүлэх":5671," маргаан":5672," эмнэлгийн":5673," анд":5674," ихтэй":5675," урлаг":5676," хамтлаг":5677," холбогдсон":5678," чөлөөтэй":5679," Ард":5680," гүйцэтгэх":5681," News":5682," Франц":5683," шашин":5684," залбир":5685," мэддэггүй":5686," бутлуурын":5687," оюутан":5688," бахарх":5689," $":5690," ес":5691,"ck":5692,"мөрийн":5693," шаш":5694," харамс":5695," урсгал":5696,"енер":5697,"oogle":5698," Дэлхийн":5699," страте":5700,"Зор":5701," зуг":5702," хүнээс":5703," нэмэр":5704," болоо":5705," өөрчил":5706," Ний":5707,"ингис":5708," харилцан":5709,"воо":5710,"иф":5711,"отг":5712," нэн":5713," Христ":5714," байрлал":5715,"iv":5716,"моор":5717,"агаа":5718,"атор":5719," ажилтнууд":5720,"члан":5721,"шигт":5722," найман":5723," >":5724,"Хэл":5725,"сгүй":5726," алдах":5727," ургам":5728," түлх":5729," гадуур":5730," дэвс":5731," сэдв":5732,"анад":5733," дөнгөж":5734,"галан":5735," надтай":5736," бүгдээрээ":5737," найзууд":5738,"Дот":5739,"лүүлэх":5740," байнгын":5741,"чихсон":5742," туршлага":5743," ялангуяа":5744," төмөр":5745," үзээд":5746," баян":5747," явцад":5748,"Танай":5749,"ЭЛ":5750," гү":5751,"Хэдийгээр":5752," үзэсгэлэн":5753,"Ном":5754,"уулахгүй":5755,"Өөрийгөө":5756," зөрч":5757,"лож":5758,"үл":5759,"үйн":5760,"Хэдэн":5761," болтол":5762," урамшуул":5763," h":5764," үүнээс":5765,"зра":5766,"иб":5767,"арь":5768,"алаа":5769," айж":5770," мөрг":5771," мэдэгдсэн":5772," зорилготой":5773," идэвхтэй":5774," ийнхүү":5775," галз":5776," дуур":5777," виз":5778," өгөөч":5779," жолооч":5780," даалга":5781," өчигдөр":5782,"овь":5783,"197":5784," өргөж":5785,"Эдийн":5786,"сгөл":5787,"ost":5788,"авдугаар":5789," барьсан":5790," долоон":5791," өсг":5792,"\"Х":5793," гун":5794," байсангүй":5795," хүрэхгүй":5796," хүүхдийг":5797," тогтоосон":5798," ширхэг":5799,"лосон":5800," Сан":5801," бичгийн":5802,"Цагдаа":5803," хажуу":5804,"dow":5805,"хыг":5806," айд":5807," хүлээх":5808," хажууд":5809,"op":5810,"Үгүй":5811," болохоос":5812," эндээс":5813," бүсгүйчүүд":5814," Энэтхэг":5815," эмэгтэйчүүдийн":5816,"одоо":5817," Бар":5818," өнөөд":5819,"лэхгүй":5820," насанд":5821," цуц":5822," гаргаад":5823," жилүүдэд":5824,"чихдаг":5825,"лэгдсэн":5826," хүсвэл":5827," хэдхэн":5828," дутуу":5829," медал":5830," Өмнөд":5831,"Найз":5832,"СУ":5833," гор":5834," амын":5835," барилгын":5836," удирдах":5837," автобус":5838," яаралтай":5839,"ИЛ":5840,"гуур":5841,"агчийн":5842," уя":5843,"урк":5844," авахад":5845,"изм":5846," яриг":5847," эмчл":5848,"эгдорж":5849,"Өөрөө":5850," Улсад":5851," секс":5852," үзвэл":5853," авахыг":5854," өнгөрөө":5855,"Үнэндээ":5856,"Байгал":5857,"Дав":5858,"баат":5859,"тах":5860,"үүж":5861,"үүхэн":5862," бодлоор":5863,"лдөг":5864," төслийн":5865," байгууллагад":5866," өгөөд":5867," түл":5868," баярын":5869,"???\n":5870," ялгаатай":5871," зөө":5872," карт":5873," Зөв":5874,"Мөнх":5875," хэлэлцээр":5876," тооцоол":5877," ийн":5878,"Сэтгэл":5879,"шир":5880,"ийх":5881," гарц":5882," эрч":5883," алдаж":5884," буцаж":5885," улиралд":5886," дэглэм":5887,"мсэг":5888,"чны":5889," той":5890," сэл":5891," урагш":5892," түмн":5893,"Тэдгээр":5894," боловсролын":5895," таалагд":5896,"ebook":5897,"ишээлбэл":5898,"ез":5899,"руу":5900," нойр":5901," хэсгийн":5902," эмнэлэгт":5903," магадлалтай":5904,"Багш":5905,"дэв":5906,"мс":5907," гарахгүй":5908," буд":5909," хэлнэ":5910,"лалын":5911,".\"":5912,"35":5913,"лөн":5914," эмнэлэг":5915," хэлбэрээр":5916,"ab":5917,"огчдын":5918," болоход":5919,"Хятадын":5920," ухаалаг":5921," гуай":5922," харуулах":5923," харуулж":5924," итгэх":5925,".Энхболд":5926," хүчирхий":5927,"бэг":5928,"арм":5929," дээрээс":5930," Засаг":5931,"гана":5932,"та":5933," нээл":5934,"алсан":5935," нийслэл":5936,"енз":5937," хугацаагаар":5938," дурдсан":5939,"196":5940," өвөр":5941," хөрөнг":5942,"Иймээс":5943," уулзах":5944," хангамж":5945,"Алтан":5946," маск":5947,"дар":5948," хөнг":5949," жив":5950," Мар":5951,"үнс":5952," хадгалах":5953," мундаг":5954,".М":5955," хэлт":5956," хэлэлцэх":5957," сургалтын":5958,"өтг":5959," бv":5960,"аль":5961," шор":5962,"өгс":5963," цаас":5964," Тэг":5965," төсөө":5966," иргэдийг":5967," Оросын":5968,"Дөр":5969," хоосон":5970," юунд":5971," байрш":5972," хүндэтг":5973,"Шил":5974,"хондоо":5975," хайл":5976," Афр":5977," эмээ":5978," онцлов":5979," олгодог":5980," хөлбөмбөг":5981,"um":5982,"Ул":5983,"етр":5984," цөм":5985," хүмүүстэй":5986," шигээ":5987," асуух":5988," ээлжит":5989," дөө":5990," хэлжээ":5991," хүнс":5992," вий":5993," хүсэхгүй":5994," хэвээрээ":5995," шийдвэрийг":5996,"сэл":5997," ноц":5998," шоронд":5999,"өлдөр":6000," бүхэл":6001,"ото":6002," саяхан":6003," таср":6004," нэгийг":6005," байдалтай":6006," Ю":6007,"уулын":6008," юмсан":6009," сайхны":6010," өнөөдрийн":6011," утгаараа":6012," ачаал":6013,"Ая":6014,"сб":6015," төлөвлөж":6016," зугаа":6017,"лбэгдорж":6018,"Хөр":6019," гарлаа":6020," тайв":6021," хүйтэн":6022," n":6023,"мент":6024,"Өнд":6025," сангийн":6026," ойлгосон":6027," хандлага":6028," орнуудын":6029," тээвэр":6030,"Дээрх":6031,"гис":6032," цорын":6033," Бү":6034," мэдэгдэл":6035," тамхи":6036,"acebook":6037,".Эрдэнэ":6038," аймагт":6039," бууруулах":6040," дэвсгэр":6041,"ӨР":6042,"лөгчид":6043," Эм":6044," тодорхойлох":6045," айлын":6046," ертөнцөд":6047," байтугай":6048,"ИН":6049," хаалга":6050,"оооо":6051," мэдэр":6052," анхаарлаа":6053," Шинэ":6054," таатай":6055," загварын":6056," унтаж":6057,"Мэргэж":6058," нил":6059,"амб":6060,"үүлжээ":6061,"үүллээ":6062,"овш":6063," хичнээн":6064," Чи":6065,"оронав":6066,"-Эрдэнэ":6067," цэнэ":6068," америк":6069," төрж":6070," төвд":6071," жирэм":6072," шугам":6073,"олтын":6074,"илаа":6075," хүсэлтэй":6076," Гэр":6077," төстэй":6078," техник":6079,"od":6080,"up":6081,"аав":6082," Олон":6083," хааны":6084,"офе":6085," хүлээл":6086,"оронавирус":6087,"Дар":6088,"Сэтг":6089," гав":6090," чадвал":6091,"аанаас":6092,"хүүгийн":6093,".Баяр":6094," ангид":6095," бүлгийн":6096," гаргана":6097," дайны":6098,"Цах":6099," үүний":6100," хамтарч":6101," Эл":6102," батлах":6103," анхаарч":6104,"Цагаан":6105," суралцах":6106," цол":6107,"агдана":6108," хангаж":6109," дутаг":6110,"ЫН":6111," хардаг":6112,"итал":6113," хойно":6114," үүсвэр":6115,"Заримдаа":6116," нисэх":6117,".Ган":6118,"Нэр":6119,"олдл":6120," харамсалтай":6121," өөрийнх":6122," өөрчилж":6123," каз":6124,"уурын":6125," ойрын":6126," эрхгүй":6127," засах":6128," хоорондын":6129," эрсдэл":6130,"?!\n":6131,"ЭР":6132,"танд":6133,"чээр":6134," бүжиг":6135," гишүүдийн":6136,"оён":6137," танилцуул":6138," нэмэгдэж":6139," үүднээс":6140,"Мөнгө":6141,"ваа":6142," хэхэ":6143,"онт":6144," үеэс":6145," багтаа":6146," үнийн":6147," туршид":6148," хийгээгүй":6149,"ейн":6150," хайх":6151," санхүүжилт":6152,"Гурван":6153,"II":6154," гаралтай":6155," тэрэг":6156," тоог":6157," хөрш":6158," ойрхон":6159,"АМ":6160," шдээ":6161," үзэн":6162," сонгож":6163," аял":6164,"амсар":6165," баялаг":6166," тулгар":6167," түүнтэй":6168," чөлөөт":6169," Үндэсний":6170," &":6171,"45":6172,"Тэм":6173,"жиж":6174,"єр":6175," мэдэрч":6176,"овср":6177," Хам":6178," тодорхойгүй":6179," клуб":6180,"Бур":6181," га":6182," шоу":6183," иржээ":6184," тусам":6185," судалж":6186,"ологийн":6187,"Үндсэн":6188," төгсгөл":6189,"даан":6190," бүрийг":6191,"Тэгсэн":6192," хойд":6193," чанарыг":6194," төвлөр":6195," магт":6196," уруу":6197," амьдр":6198,"штай":6199," шим":6200," болгоно":6201," нөхөн":6202,"емент":6203,"ИС":6204,"ехн":6205," бэх":6206," гүйл":6207," олимп":6208," илүүд":6209,"ee":6210,"Бага":6211,"ьсон":6212," дохи":6213,"аст":6214,"лаагүй":6215,"доггүй":6216," бэлгийн":6217," хүртэлх":6218," сонирхож":6219," түүхэн":6220," харьцаа":6221," шүүмжл":6222,"Хоол":6223,"Эхнэр":6224,"соор":6225,"оход":6226," нэгний":6227," явуулсан":6228,"снээс":6229," гадаа":6230," бүтээх":6231," дором":6232," илэрхийлж":6233," болтугай":6234,"АШ":6235,"Түр":6236," тэвч":6237," биен":6238," Төв":6239," тогтн":6240," ·":6241,"09":6242,"Ийн":6243,"ээлийн":6244," арьс":6245," ахмад":6246," проц":6247," төдийгүй":6248," дурсамж":6249,"сбүүк":6250,"Бэл":6251,"Ол":6252," гарчээ":6253," Чух":6254," ухаар":6255," хаяж":6256," аргыг":6257," хэрэглэгч":6258,"сайт":6259,"31":6260," бодолтой":6261,"чихээд":6262," сурсан":6263," хувьсгал":6264," байгууллагууд":6265," газраа":6266," угаах":6267," хүрээлэн":6268,"Амар":6269," хуралд":6270," нэмэх":6271," үйлдвэрлэлийн":6272,"ers":6273," ардчил":6274,"Маргааш":6275," Чухлыг":6276,"Жил":6277," мэс":6278,"лахгүй":6279," Нам":6280," станц":6281," авлиг":6282," Бая":6283," хэмн":6284," болго":6285," дуучин":6286," олгоно":6287,"ҮЙ":6288,"ийнхаа":6289," сараас":6290," хөдлөх":6291,"Тал":6292," гам":6293," манд":6294," цаана":6295," гарт":6296," НҮБ":6297," залуучууд":6298," муутай":6299," хөгжиж":6300," шийдэж":6301," аймаг":6302," цэвэрлэх":6303," орчны":6304," амралтын":6305," биелүүлэх":6306,"лом":6307," Хүүх":6308," багц":6309," ашигласан":6310," үнэт":6311," үнэнийг":6312," мөнгөөр":6313," бэрхшээлтэй":6314," инээмсэг":6315," '":6316,"Улаанбаатар":6317," хүрээд":6318," талтай":6319," Энх":6320," үлдэх":6321," тоглоомын":6322,"-аад":6323,"аалд":6324,"ого":6325," хөрөнгийн":6326," хангал":6327,"рамп":6328,"Айм":6329,"джээ":6330,"атр":6331," ирэв":6332," нэрээр":6333," Монголчууд":6334," шийдэл":6335,"ation":6336,"Хувь":6337," ариутгагч":6338,"th":6339,"хины":6340,"өөгүй":6341,"хныг":6342," дүрс":6343," a":6344,"лээс":6345," хуримт":6346," судл":6347," зогсоох":6348," ногоон":6349," далд":6350," эхчүүд":6351," нэрлэдэг":6352,"иудын":6353," хорио":6354," манайх":6355," түүхийг":6356,"Эхлээд":6357,"Япон":6358," тол":6359," спортын":6360," луй":6361,"лсөн":6362," санд":6363,"194":6364,"Түүнд":6365,"Худал":6366,"өц":6367," хорих":6368,"Шүүх":6369,"бод":6370,"чилсэн":6371," бүтээн":6372,"Урьд":6373," суулгах":6374,"ямдорж":6375,"ьт":6376," шув":6377," бүд":6378," гарагт":6379," хэлмээр":6380," тусдаа":6381," хийхээр":6382," инг":6383,"Аливаа":6384,"Нийслэлийн":6385,"Бурханы":6386,"анхуй":6387,"li":6388,"Мал":6389,"ху":6390,"ирийн":6391," бүтэц":6392," зогсож":6393," буудал":6394," сайжр":6395," соёлын":6396,"Ай":6397,"ард":6398," согт":6399,"өнд":6400," өч":6401," хэлэхдээ":6402," ойлгохгүй":6403," төгссөн":6404," галт":6405," мэдэл":6406," Түүний":6407,"Хэзээ":6408," таг":6409,"өгтэй":6410," өгчих":6411,"лгын":6412," хүүхэн":6413," дундаж":6414,"ome":6415,"ne":6416,"ОО":6417,"гчид":6418,"ыгаа":6419," диз":6420," гараагүй":6421," хуулиар":6422," айх":6423,"ong":6424," захирал":6425,"иплом":6426," БНХАУ":6427,"Улаан":6428,"еф":6429,"ийв":6430," гээч":6431,"авч":6432," авалт":6433," нөлөөлөх":6434," ноцтой":6435," дад":6436," ирэхэд":6437," захид":6438," хүчээр":6439," тооцоо":6440,"ьяас":6441," тавьдаг":6442," найдвартай":6443," x":6444,"чнээн":6445," холд":6446," хаалт":6447," төрөх":6448," танил":6449," орнуудад":6450," жирийн":6451,"01":6452,"lo":6453,"аааа":6454," байтал":6455," усан":6456," харгал":6457," бухим":6458," жиг":6459,"нуудыг":6460," татан":6461," буцааж":6462,"Үндэсний":6463,"av":6464,"Над":6465," боол":6466,"ахдаа":6467," бит":6468," нөхд":6469," халд":6470," зөвлөмж":6471," хатан":6472," Эрдэнэ":6473,"Сургуул":6474,"дэр":6475,"ее":6476,"ск":6477," зун":6478," талыг":6479,"эгдэх":6480," сэтгэлийг":6481," чухам":6482," баталсан":6483," шүүхийн":6484," нягт":6485," зочид":6486,"Жишээлбэл":6487,"Тайл":6488,"лэ":6489,"иун":6490," ариун":6491," цөөхөн":6492,"дам":6493," новш":6494," мууд":6495," үгээр":6496," руугаа":6497," ирээдүйд":6498,"Пр":6499,"ТХ":6500,"нэг":6501,"хэр":6502,"дааны":6503," харуул":6504," бичээд":6505," санааг":6506,"ект":6507," номыг":6508," өмгөө":6509," ойрт":6510," хэрэглэгчид":6511," Есүс":6512," хоёулаа":6513,"итой":6514," арь":6515," араас":6516," суугаад":6517," эрдэмт":6518,"Жин":6519,"Ман":6520," дам":6521," цонх":6522," эхлэл":6523," жилдээ":6524," хураа":6525," туршилт":6526," цэрэг":6527," үргэлжлүүлэн":6528," байлгах":6529," түгээмэл":6530," дөх":6531," сун":6532," төгөлдөр":6533," дэвшиг":6534," шалгуур":6535," бүтээгдэхүүнийг":6536,"Оросын":6537," эрдэм":6538," бүрэлдэх":6539," камер":6540,"Хан":6541," ярилцаж":6542," солих":6543," кинонд":6544,"өлөг":6545," явлаа":6546," жор":6547," урлагийн":6548," шийдэг":6549," хамгаалалт":6550," өмч":6551," зөвлөх":6552,".Баттулга":6553,"Хотын":6554,"шний":6555,"лахад":6556," Герман":6557," устгах":6558," хэлэлцэж":6559," таарна":6560," харьцуулахад":6561," киног":6562," шаардлагыг":6563,"ерманы":6564,"Шал":6565,"лт":6566,"үв":6567," тэв":6568," бидэнтэй":6569,"ack":6570," ухаантай":6571,"ех":6572," гэгч":6573,"илж":6574,"илан":6575,"эйн":6576," дарх":6577," хоёрыг":6578,"итр":6579," унаг":6580," дуусах":6581," бууж":6582," үргэлжилж":6583,"Өдрийн":6584,"амч":6585," хэлье":6586," татварын":6587,"акт":6588," тулгуур":6589," нунтаглах":6590,"цгаая":6591,"зэг":6592," гя":6593," үзье":6594," дэлгэр":6595," хийгдсэн":6596,"Хамт":6597," санагдсан":6598,"Эцэст":6599,"-тэй":6600,"знес":6601,"кт":6602," шд":6603," булан":6604," хурим":6605," сонгон":6606," тодорхойл":6607," үнэнч":6608," бяцхан":6609," сууцны":6610," !\n":6611,"оз":6612,"умын":6613," өөрөөр":6614," удаагаа":6615," үгс":6616,"Өөрийнхөө":6617," тэмдэглэл":6618," In":6619," онгоцны":6620," морь":6621,"Эцэг":6622,"гөөр":6623,"жуулах":6624," бөөн":6625," гэн":6626," биед":6627," хэмжээтэй":6628," хичээлийн":6629," ядуу":6630," утгатай":6631," түн":6632,"исс":6633," оруулалтын":6634," зөвлөж":6635,".Хүрэлсүх":6636," бусдыг":6637,"эйл":6638,"эйсбүүк":6639,"цаагүй":6640," тавиг":6641,"Тэгж":6642," байршил":6643,"иулах":6644," сонсоод":6645," холбогдолтой":6646," зэвс":6647,"99":6648,"Франц":6649,"жийн":6650,"иль":6651," тустай":6652," суугаа":6653,"Тэднийг":6654," ажиллагаагаа":6655," тэгвэл":6656," гайгүй":6657," St":6658," наадмын":6659," тасал":6660," нислэг":6661," зөөлөн":6662,"лалтын":6663," уйл":6664,"үүнтэй":6665," тавиад":6666,"Хүнд":6667," эцэс":6668," данс":6669," Австрал":6670,"АШТ":6671,"ОХУ":6672,"упп":6673," на":6674,"амжтай":6675," энх":6676," уншсан":6677," төгрөгийн":6678," гуравдугаар":6679,"Ийнхүү":6680,"ak":6681,"ri":6682," аврах":6683," сонгодог":6684,"гэний":6685," дотно":6686," давж":6687," үүрэгтэй":6688," тайлбарлаж":6689," No":6690," хашаа":6691,"чихгүй":6692," долларын":6693," монголын":6694," дарамт":6695,"Сар":6696,"Хүү":6697,"банк":6698," амьдралдаа":6699," оролцоо":6700," хандив":6701," нэмэгдсэн":6702," Солонгосын":6703,"ext":6704,"hone":6705,"Энх":6706,"иод":6707,"ло":6708,"таж":6709,"алай":6710," орш":6711,"Бидэнд":6712," зургаа":6713," найм":6714," батлагдсан":6715," баригчид":6716," төрөлхтөн":6717,"ube":6718,"%-":6719,"Бр":6720,"агтай":6721,"эгчид":6722," дом":6723," гадны":6724," хохирол":6725," насандаа":6726,"Эл":6727,"го":6728,"сээ":6729," илэр":6730," юун":6731," мэргэжилт":6732," цэгц":6733," сэргээх":6734," g":6735," нааш":6736," орших":6737," орноо":6738," Нэг":6739," хамгаалж":6740," бороо":6741," эртний":6742," мөч":6743," интернет":6744,"хуу":6745," нээж":6746," доод":6747,"оск":6748," нийтлэг":6749," хаашаа":6750," баярлаж":6751," агент":6752," талбайд":6753," аваагүй":6754," амжил":6755," бариад":6756," даасан":6757," нөхр":6758," инээд":6759," суусан":6760," амьдралаа":6761," гишүүний":6762," хичээдэг":6763,"үүлэгчид":6764,"Зураг":6765," мөрөөдөл":6766,"Чамайг":6767,"Өндөр":6768,"Хич":6769,"еб":6770,"жаргал":6771," усанд":6772," хүнээ":6773," сурталчилгаа":6774," дийлэн":6775,"тол":6776," кофе":6777,"лөгд":6778," тодотг":6779," замд":6780," дэмждэг":6781,"Хүүхдүүд":6782,"ишиг":6783," шүд":6784," улсаас":6785,"гуулах":6786,"195":6787," эхэлдэг":6788," нөлөөлдөг":6789," зовж":6790," хэрэглэгчийн":6791," нэвтрүүл":6792," далайн":6793,"оож":6794," мөрөө":6795," нөлөөлж":6796," харилцааны":6797," тэтгэвэр":6798,"),":6799," ган":6800," үзэгдэл":6801," хүрэлц":6802," мэтээр":6803," үгүйсг":6804," илэрхийлэх":6805," байдгийг":6806," айдас":6807,"өт":6808," байсаар":6809," харуулсан":6810,"имийн":6811," дахиж":6812," хорт":6813," төсв":6814," зэргийн":6815," гадаадад":6816," харьцангуй":6817," автомат":6818,"Хөл":6819,"зар":6820," бгаа":6821," биздээ":6822," байдлаас":6823," төлөөлөгч":6824,"Үүнтэй":6825," амьт":6826,"150":6827,"мэлз":6828," амралт":6829," дог":6830," авр":6831," тодр":6832,"Манайх":6833," Японы":6834," хүчирхэг":6835,"Саяхан":6836,"Яах":6837," байгаан":6838," хараа":6839,"Бизнес":6840," засагт":6841," утсаар":6842," тохиролц":6843," үнэмлэх":6844," хангалуун":6845," луйвар":6846,"Заг":6847,"да":6848,"лас":6849,"сүрэн":6850,"хү":6851," унаж":6852," Баяр":6853," улсыг":6854,"аанч":6855," ханддаг":6856," тохирсон":6857," гэрээг":6858," хэчнээн":6859,"-О":6860,"ОР":6861," Хур":6862," чадаж":6863,"үрэв":6864," мэдээллээ":6865," инж":6866,"ore":6867," ярилцлага":6868," солилц":6869," хэтр":6870,"Улмаар":6871,"ss":6872,"уулалтын":6873," лам":6874," талдаа":6875," нэгэнт":6876," сүүлчийн":6877,"Ирээд":6878," больсон":6879," галзуу":6880,"36":6881,"Хэв":6882,"Яр":6883,"ук":6884,"өлгөө":6885," өгье":6886,"азрын":6887,"өдөг":6888," зориу":6889," дуудлага":6890," зохих":6891," шаардаг":6892," зөрчсөн":6893," Z":6894,"Нас":6895,"понд":6896," гаж":6897," харна":6898," эрмэлз":6899," явдл":6900," ойл":6901," Сур":6902,"нуудын":6903," санаанд":6904," эхлүүлэх":6905," уншаад":6906," зуны":6907,"Газар":6908," сэтгэлээсээ":6909,"пани":6910," хайрлаж":6911," үйлдвэрлэх":6912," харагдана":6913," өөрчлөгдсөн":6914,"атай":6915,"дана":6916,"єн":6917," ихэд":6918," дулаан":6919," даван":6920,"Бүсгүй":6921,"Цаашид":6922," тоглогч":6923," ?":6924,"ийд":6925," таал":6926," нул":6927," байгуулалт":6928," өвөө":6929," дундуур":6930," оруулна":6931," тэмдэглэж":6932,"pple":6933,"ни":6934,"авх":6935,"аасай":6936," үйлчил":6937," Тийм":6938,"ентын":6939," дагав":6940," эхэлжээ":6941," тоглосон":6942,"Ингэхдээ":6943," шүүхэд":6944," буцах":6945," зайлс":6946," ирээдүйн":6947," автомашин":6948," гуниг":6949," *":6950,"том":6951,"архал":6952," гүр":6953," дагаад":6954,"Энэтхэг":6955," агуулга":6956," олдохгүй":6957," процесс":6958,"галт":6959,"еп":6960,"шүүр":6961,"олон":6962," бодвол":6963," юуны":6964,"ээнээс":6965," ич":6966," авчээ":6967," муз":6968," захиалга":6969,"Анхны":6970," маяг":6971," on":6972,"Баг":6973," баатар":6974," сайтай":6975," үзүүлсэн":6976," багагүй":6977," айлд":6978," хаалг":6979," хүүхдүүдэд":6980," тариал":6981," интернэт":6982," гутал":6983,"дож":6984,"ҮТ":6985," байснаа":6986,"илл":6987," байгаагаар":6988," үзэхэд":6989," нэрийн":6990," асуудалтай":6991," хөгжмийн":6992,"ang":6993," нээгд":6994," доорх":6995," зэвсэг":6996," дэмий":6997," секунд":6998,"-с":6999,"дыг":7000," ирэхгүй":7001," сэтгэлд":7002," түүнийгээ":7003," хөлс":7004," арилгах":7005,"iss":7006," тамирчин":7007," тойм":7008,"андан":7009," эхээр":7010," Хүн":7011," эрхлэх":7012," Ур":7013," асуудлын":7014," хурц":7015," дэлхийг":7016," компанид":7017," өдрүүд":7018," өдрөөс":7019," удирдагч":7020," нөлөөл":7021," зөвлөлийн":7022," Азийн":7023," шөнийн":7024," шашны":7025,".Мөнх":7026," бн":7027,"үүлт":7028," урьж":7029," үнийг":7030," хүлээсэн":7031,"окур":7032," үхэх":7033," завгүй":7034," тасралтгүй":7035," of":7036,"ob":7037," явдлыг":7038," ихийг":7039," Ин":7040," багатай":7041," өвчний":7042,".Оюун":7043,"06":7044,"Өчигдөр":7045," стат":7046," хамаарна":7047," системийн":7048," захиргааны":7049," даатгалын":7050," Англи":7051," дархлаа":7052,"Охин":7053,"Сал":7054,"Ядаж":7055," баймаар":7056," байгаам":7057,"члон":7058," бэлд":7059," билүү":7060," өвөл":7061,"Албан":7062," судлах":7063," медаль":7064," түнш":7065,"ment":7066,"Солонгос":7067,"Ут":7068,"мөц":7069," үер":7070," улсууд":7071," татсан":7072," олгож":7073," засаглал":7074," метр":7075," тутам":7076," хэрэглээний":7077,"Үйлдвэр":7078,"Төв":7079,"аф":7080,"аран":7081,"олсон":7082,"ахаас":7083," тухтай":7084," ккк":7085,"уулахыг":7086,"Өөрсд":7087," ялалт":7088,"Орчин":7089," дэвшил":7090," борл":7091," сайтар":7092," шуурхай":7093," Ардчилсан":7094," дутагдал":7095,"Яаж":7096,"дгийг":7097,"хын":7098,"агчдын":7099,"ооч":7100," унд":7101," орохгүй":7102," эрэлт":7103," ирээгүй":7104," жилээр":7105," төлж":7106," хэнийг":7107,"огддог":7108," наймаа":7109," цугл":7110," өгөөгүй":7111," вэбсайт":7112," менежер":7113,"400":7114," МАХН":7115," бичжээ":7116," бичдэг":7117," аялах":7118," зөвшөөрч":7119," зөвшөөрсөн":7120," авто":7121," эргэлт":7122," хулгайч":7123,"Мөр":7124,"Тат":7125," диплом":7126," хуваа":7127," санах":7128,"ашгүй":7129,"ууруулах":7130," дулаа":7131," Он":7132," охины":7133,"ord":7134," алдар":7135," завсар":7136," ашгийг":7137," өнцөг":7138,"Уу":7139," хөнгөн":7140,"уулт":7141," хум":7142,"ашины":7143,"оосой":7144," дуугар":7145," түргэн":7146," төвийн":7147,"ацарт":7148," мэдрэх":7149," зохицуулалт":7150," арилж":7151," Британийн":7152,"32":7153,"ддаг":7154," төм":7155,"элэн":7156,"орч":7157," нэгэнд":7158," амлалт":7159," хамаг":7160," кг":7161," шийтг":7162," мөнх":7163," чанга":7164," хань":7165," хадгалж":7166," асуудлууд":7167," чимээгүй":7168," дийлэнх":7169,"48":7170,"НД":7171,"илал":7172," хэрнээ":7173," ажилчид":7174,"двал":7175," хэний":7176," ерөөсөө":7177," шатанд":7178," шүт":7179,"Англи":7180," түлхүүр":7181," y":7182,"OL":7183,"Нэгдүгээр":7184," тоон":7185," ям":7186," нэгнийг":7187," элдэв":7188," хэрэгжиж":7189," дотоодын":7190,"Нийгэм":7191," ууд":7192,"ОХ":7193,"Судал":7194,"Удахгүй":7195,"гадаг":7196,"шд":7197,"Үнэ":7198," болсныг":7199,"уулаа":7200,"сангүй":7201," ундаа":7202," харц":7203," хуруу":7204," Дав":7205," дэвших":7206," газрууд":7207," хамааралтай":7208," хөөрхий":7209," чадсангүй":7210," хачин":7211," тусалж":7212," илэрхийлсэн":7213,".Ч":7214,"nd":7215,"иос":7216,"мун":7217,"үм":7218,"охыг":7219," авьяас":7220," явахгүй":7221," нартай":7222," бусдаас":7223," дууны":7224," унтр":7225," шаарддаг":7226," нутгаар":7227," энер":7228,"ard":7229,"Европын":7230,"Pre":7231,"ДҮ":7232,"гээрэй":7233," авахаар":7234,"руулбал":7235,"орнод":7236," хөнгөл":7237,"Гай":7238," асуудлаа":7239," Ис":7240," эвгүй":7241,"AR":7242,"Бор":7243,"сууд":7244,"ӨӨ":7245,"ахаа":7246,"үүдээс":7247," хүмүүсээс":7248," Улаан":7249," Эзэн":7250," Гр":7251,"Манайд":7252," үүргээ":7253," бүтээлч":7254,"Гэртээ":7255," шинжилгээний":7256,"ce":7257," занг":7258,"лагчид":7259," явахад":7260," хурлын":7261," сууна":7262," дундаа":7263," бүхэндээ":7264," баримтал":7265,"33":7266,"?\"\n":7267," харанхуй":7268,"чихна":7269,"чихаж":7270,"панийн":7271," үүсгэх":7272," холбогдол":7273," харья":7274," сүм":7275," суудаг":7276,".Ж":7277,"сандаа":7278," цо":7279,"эврийн":7280," гарцаагүй":7281," өөрөөсөө":7282," хүрээ":7283," талб":7284," офф":7285," уншиг":7286," хаагч":7287," заавар":7288," бүртгэлийн":7289,"Хэт":7290,"элгүй":7291," ажилгүй":7292," олгосон":7293," Пар":7294," ертөнцийн":7295,"Хоёрдугаар":7296," бөхийн":7297,"Америкийн":7298,"УР":7299,"эмжл":7300," хараахан":7301,"гээний":7302,"оодог":7303," эмзэг":7304," хичээж":7305," хүүгийн":7306,"Мэдээл":7307,"all":7308,"Бу":7309,"нөөс":7310," тагн":7311,"үүгээр":7312,"уулжээ":7313," км":7314,"лээгүй":7315,"гдсан":7316," тавдугаар":7317," Биб":7318," үзүүлдэг":7319,"Нийгмийн":7320,"-\"":7321,".У":7322,"хид":7323,"Үх":7324,"алю":7325," үйлдвэрлэгч":7326," хангасан":7327,".доллар":7328,"com":7329,"Од":7330,"ия":7331,"хэд":7332,"цан":7333,"цэн":7334," төөр":7335," тэтгэл":7336,"өхөд":7337,"лаач":7338," зорчиг":7339," тутамд":7340,"Хөдөл":7341,"нүүдийн":7342," угаасаа":7343," унасан":7344," булаа":7345," өгөг":7346," үйлдсэн":7347," шүүгч":7348," үнс":7349," гэрэлт":7350," өрх":7351," шигшээ":7352," шалтгаанаар":7353," гаргажээ":7354,"Илүү":7355," зайлсхий":7356,"Дур":7357,"Зохи":7358," саат":7359," шүр":7360,"ерр":7361," үнээр":7362," хүсэх":7363," тоглодог":7364," эхлэв":7365," зохицуулах":7366,"ЕГ":7367,"гас":7368,"згий":7369," хом":7370,"артын":7371,"омын":7372," явагдаж":7373,"утин":7374,"эгддэг":7375," ардчилсан":7376," аяга":7377," холбоотойгоор":7378," өөрчлөгдөж":7379,"The":7380,"Сарын":7381,"өч":7382,"длөө":7383," багадаа":7384," зарласан":7385," загас":7386," алдарт":7387," нэвтрүүлэг":7388," сэтгүүлч":7389," яамны":7390,"Цэр":7391,"лөж":7392," тр":7393," гараар":7394," олиг":7395," болгонд":7396," Изра":7397," идсэн":7398," экспорт":7399," Тан":7400," хори":7401," зургийн":7402,"ine":7403,"indow":7404," мэдэгджээ":7405," удирдлага":7406,"раф":7407," улирал":7408," эрсдэлтэй":7409," импорт":7410,"Интер":7411,"Машин":7412,"ѳѳ":7413," дов":7414," хиймэл":7415," Хойд":7416," ЭЗ":7417," Жон":7418," угаалгын":7419," цохилт":7420," өвөрмөц":7421," цэнэтэй":7422," иж":7423,"Уур":7424,"гэг":7425," цас":7426,"онгор":7427," хош":7428,"икт":7429," байрлах":7430," тэмцэж":7431," зөрүү":7432," удирдлагын":7433,"Бараг":7434," суралцаж":7435," хамрагдах":7436,"-м":7437,"ik":7438,"тх":7439," сэж":7440," туй":7441," хүрнэ":7442,"үүлэхийг":7443,"унк":7444,"Нэгэн":7445," нэлээн":7446,"!\"":7447,"07":7448,"ао":7449,"дир":7450," тив":7451," сүнс":7452," үгээ":7453," байгаагийн":7454," өгөгд":7455," илтг":7456," ашиглалтад":7457," хүүхдүүдийн":7458," туршиж":7459," анхаарлыг":7460," зэрэгцээ":7461," холбогдуулан":7462," танилцуулж":7463," амаргүй":7464," махбод":7465," уламжлалт":7466,"indows":7467,"est":7468,"ГА":7469,"Муу":7470,"сс":7471,"тэйгээр":7472," харвал":7473," санагдаад":7474," эхийн":7475,"193":7476," түүхэнд":7477," бодлогыг":7478," зохиолч":7479," хоцр":7480," l":7481,"Хав":7482,"Цэц":7483,"ганд":7484,"мэг":7485," бүүр":7486," чарм":7487," оргил":7488," авгай":7489," авъя":7490,"лагад":7491," гараг":7492,"ээсэй":7493," урв":7494," төгрөгөөр":7495," тулгам":7496,"Юуны":7497," цөмийн":7498,"ts":7499,"иур":7500,"нь":7501,"ийж":7502,"уулав":7503," явуулдаг":7504," механ":7505," өвчтөн":7506,"****":7507," евр":7508," =":7509," in":7510,"эб":7511,"аавал":7512," орлоо":7513," амс":7514,"атур":7515," талаараа":7516,"элтийн":7517," шаардаж":7518," хандсан":7519,"Ерөнхийлөгчийн":7520,"өлдөө":7521," үндэстэн":7522," наадамд":7523," системийг":7524,"Өмнөд":7525,"Жижиг":7526," дарна":7527," ойн":7528," санаатай":7529," зогсохгүй":7530," өргөдөл":7531," зарцуулах":7532," ургамал":7533,"05":7534,"75":7535,"вас":7536,"эхэн":7537,"өнх":7538,"үүлэхэд":7539," биедээ":7540,"Эрэгтэй":7541," Итал":7542," халамж":7543," ганцаар":7544," маркет":7545," өгчээ":7546," шүлэг":7547," цэнэг":7548,"УУЛ":7549,"ra":7550,"Чу":7551,"адар":7552,"ост":7553," зарах":7554," хүүхэлд":7555," холбоос":7556,"ооно":7557," Ком":7558,"удит":7559,"мжтой":7560," онлайнаар":7561," живх":7562,"34":7563," АТГ":7564," бодоход":7565," алтан":7566,"####":7567," эрдэмтэд":7568,"Банк":7569,"гүүдийн":7570," тунх":7571," ойлголц":7572," хайрлах":7573," иддэг":7574,"нээсээ":7575," хүргэсэн":7576,"бил":7577,"ль":7578," нээрээ":7579," ажилтай":7580," чадал":7581," авахын":7582," үргэлжлэх":7583,"Асууд":7584," сүйр":7585,"Цагдаагийн":7586,"08":7587,"??\n":7588,"миний":7589,"хаар":7590,"ийгаа":7591," хэрээр":7592," хэрүүл":7593," жол":7594," жиш":7595," жилээс":7596," гэрчилгээ":7597," нэрээ":7598," хамтр":7599," сэтгэлээ":7600,"Хүс":7601," машиныг":7602,"олгойн":7603," сууриа":7604," асуусан":7605," техникийн":7606," дараахь":7607,"ous":7608,"out":7609," хөнөө":7610," суурьтай":7611,"БНХАУ":7612," есдүгээр":7613," урамшуулал":7614,"Гал":7615,"монгол":7616," хийжээ":7617," Бүх":7618," зарж":7619," эмх":7620," байгууламж":7621," хамтлагийн":7622,"192":7623," мэндэд":7624," буруутай":7625," түмэнд":7626,"ate":7627," нуруу":7628," цэцэрлэгт":7629,"uck":7630,"Жүжиг":7631," дуулж":7632,"эрэл":7633," хүрээгүй":7634," өнгөрч":7635,"Орой":7636," устг":7637," хөдөлг":7638," бутлах":7639," тогтоож":7640," нүүрсний":7641," гайхаж":7642," тэжээл":7643," хамаатай":7644,"-Таны":7645,"ЭД":7646," тааш":7647,"ууц":7648," бололцоо":7649," луу":7650," талбар":7651," төрөөс":7652," дээгүүр":7653," Гад":7654," гэхээс":7655," түүхтэй":7656,"!!!!":7657," хянах":7658," дөрөвдүгээр":7659,"Дахин":7660,"gu":7661,"гүүдийг":7662," түйм":7663,"нийхээ":7664," оновч":7665," бүхнээ":7666," хөлөг":7667," гүнзгий":7668," хуваарил":7669,"Мэргэжлийн":7670,"Там":7671,"Хуучин":7672,"гон":7673,"хаж":7674," гүүр":7675,"өөрэй":7676,"гавар":7677," зорьж":7678," хүүгээ":7679," тонн":7680," биенээ":7681," гаргалаа":7682," амрах":7683," буян":7684," коронавирус":7685,"Биднийг":7686," шатах":7687," менежмент":7688,"Нөхөр":7689,"ВС":7690,"Зам":7691,"цгой":7692,"цэцэг":7693," ороогүй":7694,"атан":7695," хэлэхгүй":7696," сонгогдсон":7697," Одоо":7698," хэвлэлийн":7699,"Нэгэнт":7700," нөлөөлсөн":7701," хөтөлбөрийг":7702," бүртгэгдсэн":7703," чимэг":7704," амттай":7705," уучлалт":7706," уучлаарай":7707," групп":7708," даалгавар":7709,"Аж":7710,"Чамд":7711,"цийг":7712,"илтын":7713," онош":7714," тансаг":7715,"логч":7716," зурагт":7717," голын":7718," үүсг":7719," Үйл":7720," мэдэгдэж":7721," гүйцэтгэж":7722,"-аар":7723,"04":7724,"ast":7725,"Ху":7726,"Хаа":7727,"алдах":7728," юү":7729," об":7730," зориулан":7731," тулгарч":7732," хилийн":7733," нөөцийн":7734,"-Д":7735,"qu":7736," оё":7737,"естор":7738," хэвш":7739," бүтээж":7740," тооцох":7741," дорой":7742," нүүрс":7743," кинон":7744," хуурамч":7745," улирлын":7746," тахлын":7747," ялгар":7748," үдэш":7749,"55":7750,"иор":7751,"тэйгөө":7752," эрүү":7753," Тав":7754," Сонг":7755,"лого":7756," Эх":7757," даваа":7758," мөрт":7759," зээлийг":7760," уулзсан":7761," хамааран":7762,"Боловср":7763,"02":7764,"мэд":7765,"ьц":7766," сүү":7767," асан":7768," гард":7769,"ерв":7770,"аяг":7771," эмийн":7772," сэтгэлтэй":7773," чиглэлийн":7774," шалгалтын":7775," шалтгааныг":7776," хөтөлбөрт":7777," гаргахгүй":7778," төлбөрийн":7779," ялгаагүй":7780," to":7781," хүсэлтийг":7782," тэдгээрийг":7783," төсөвт":7784," жирэмсэн":7785,"03":7786,"ориг":7787," бүлг":7788," хэрэгжилт":7789," ром":7790," дэмжсэн":7791,"ацтай":7792," зөвшөөрөх":7793,"Эндээс":7794," жагсаалтыг":7795,"Тодруулбал":7796," оновчтой":7797," толь":7798," зүү":7799," месс":7800,"орк":7801,"эхээ":7802,"огчийн":7803," гарвал":7804," хэрэгл":7805," эрхээ":7806," нийслэлийн":7807,"тэлгүй":7808," функ":7809," өөрчлөлтийг":7810,"Хувийн":7811," ойролцоогоор":7812," боом":7813," удирдлагууд":7814,"49":7815,"дөж":7816,"айк":7817," тох":7818,"архан":7819," гадаг":7820," цоо":7821," бодитой":7822,"чилгааны":7823," Турк":7824," албанд":7825," дэвшигч":7826," ярилцах":7827," чиглэлд":7828," дизайн":7829,"үвшин":7830," st":7831,"ГҮЙ":7832,"жуулагч":7833,"лонг":7834,"нүүдийг":7835," гээ":7836,"өгчийн":7837," хийвэл":7838,"гээе":7839," засал":7840," Ган":7841," айдаг":7842," өгөхийг":7843," театр":7844,"абор":7845," талархаж":7846,"лик":7847,"ту":7848,"Өө":7849," гэтэл":7850," үгийн":7851," цам":7852," Тэд":7853," байгуулалтын":7854," нарийв":7855," сунг":7856," хамтарсан":7857," Бурханд":7858," рүүгээ":7859," ордны":7860," далай":7861," хуурай":7862,"38":7863,"Есү":7864,"луу":7865," даж":7866," дээл":7867," явдлын":7868," эхэнд":7869,"чихвал":7870," сурагч":7871," яруу":7872," эмгэн":7873,"хэндээ":7874," зург":7875," доторх":7876," тоглолтын":7877," иргэдээ":7878," Канад":7879," үүсгэн":7880," суурин":7881," орлогын":7882," тосны":7883," төлөвлөсөн":7884," олдсон":7885," хажуугаар":7886," өнөөдрийг":7887," тунхаг":7888,"Phone":7889,"Жич":7890,"Хөөр":7891,"Холб":7892,"Хөдөө":7893,"гоос":7894,"лад":7895,"сайн":7896,"угаа":7897,"хаан":7898,"шгийн":7899," таагүй":7900," голд":7901," саар":7902,"аха":7903," хэлээгүй":7904," хэлснээр":7905," хэмж":7906,"Тэгэхэд":7907," хугацаатай":7908," өвгөн":7909," учрыг":7910," цэвэрлэг":7911,"энхэр":7912," жижигхэн":7913," Google":7914," Facebook":7915," өрсөлдөх":7916," өнгөтэй":7917," хүндрэл":7918," тэвчээр":7919,"Жинхэнэ":7920,"тхэгт":7921,"800":7922,"Дуучин":7923,"Тур":7924,"дох":7925,"лүүлж":7926,"рөөс":7927,"хой":7928," хаал":7929,"үүлэв":7930," өөрийг":7931," үеийг":7932," хүмүүсээ":7933," Чингис":7934," зовох":7935," нүдэнд":7936," заяа":7937,"Байгаль":7938,"ED":7939,"ынх":7940," шун":7941," ирэхээр":7942," илтгэл":7943," насыг":7944," тодорхойлолт":7945," дундаас":7946," аян":7947,"дөггүй":7948," түүхийн":7949," ордонд":7950," the":7951," осол":7952," тийш":7953," гайхамшигтай":7954,"ry":7955,"айны":7956," байснаас":7957,"адан":7958," Бур":7959,"лахыг":7960," зардлыг":7961,"чдод":7962," санааны":7963," амьтад":7964,"юуны":7965," охинтой":7966," үхсэн":7967," таарсан":7968,"Ардчилсан":7969," үзэсгэлэнтэй":7970," хуралдаан":7971," хаагчид":7972," зориулагдсан":7973,"if":7974,"oc":7975,"лодог":7976,"агц":7977," юманд":7978," цаад":7979," жим":7980," дээрэм":7981," ардын":7982," амжилтанд":7983," хавар":7984," борлуул":7985," ногоо":7986," хоёул":7987,"Сонирх":7988," суурилсан":7989," нилээд":7990," Элчин":7991," +":7992,"Дуу":7993,"гип":7994,"ара":7995," да":7996," цу":7997," цохи":7998," сургаа":7999," уулын":8000,"лоно":8001,"үхбаатар":8002," Ch":8003,"ill":8004," илгээх":8005,"гэш":8006," шалтгаал":8007," Хэрэв":8008,"120":8009,"ep":8010,"Шууд":8011,"Яв":8012,"раа":8013,"огоон":8014," байгаагаас":8015," байгаасай":8016," гаригт":8017," Трамп":8018," Оюут":8019," салах":8020," тохиолдсон":8021," удирдаж":8022," чадварыг":8023," тойронд":8024," шалгаруулалт":8025," жагсаалтад":8026," телевизийн":8027," музей":8028,"лат":8029,"лүүлнэ":8030," олоод":8031," жоохон":8032," ДАШТ":8033," сонгоно":8034," бичнэ":8035," хувьдаа":8036," хоолоо":8037," хөдөлмөрийн":8038," прокур":8039," тушаалт":8040," эзэмших":8041," хүртсэн":8042,"Сонгуулийн":8043," зоригтой":8044,"чуур":8045," зул":8046," ажиллаг":8047," онол":8048," хүсээгүй":8049," хорвоо":8050," хайрладаг":8051," элемент":8052," өсч":8053," ертөнцийг":8054," саван":8055," бэлтгэх":8056," өдгөө":8057,"Цахим":8058,":)\n":8059,"ЭХ":8060," ноён":8061,"онс":8062," эрэл":8063," зүйлээс":8064,"енн":8065," хүүхдүүдийг":8066," өмчл":8067," санагдана":8068," ачаа":8069," хариуцлагатай":8070,"Бүтээ":8071,"ess":8072," өртөг":8073," шавь":8074," жуулчлалын":8075," Өөрийн":8076,"Дунд":8077,"Ис":8078,"нын":8079,"инээ":8080,"одоод":8081,"аяа":8082," тодорхойлж":8083," утсаа":8084," өнгөрөх":8085," шинжтэй":8086," өвчтэй":8087," хийлгэх":8088,"Ойр":8089,"баатарын":8090," Өнөөдөр":8091,"95":8092,"зүйн":8093,"лай":8094,"үүлээгүй":8095,"хангай":8096," уучлал":8097," барилг":8098," Сай":8099," зориулалттай":8100," тэмдэглэх":8101," хүүг":8102,"Эмч":8103," шилжих":8104," хагалгаа":8105," суудал":8106," яриаг":8107," амжаагүй":8108," Мэдээ":8109,"Агаар":8110,"НҮБ":8111,"гэнд":8112,"дорж":8113," нүх":8114," цүн":8115," аваач":8116," харахгүй":8117," хэлийг":8118," үзлээ":8119," тэрхүү":8120," эрхтэн":8121," өрөв":8122," тухайгаа":8123," намар":8124,"истан":8125," аймшигтай":8126,"Ангилал":8127," цөөнгүй":8128,"нах":8129,"орсон":8130," тулал":8131," хийд":8132," хэлчих":8133," МУ":8134," байгуулна":8135," рад":8136," санаачил":8137," хүчийг":8138," холбогдож":8139,".Элбэгдорж":8140," Эрүүл":8141,"Хэдий":8142," хүртлээ":8143,"аборатор":8144,"Түүх":8145,"лин":8146," химийн":8147,"тгал":8148," санс":8149," таних":8150," шинжээ":8151," талаархи":8152," ОУ":8153,"...\"":8154," ажиллуулах":8155," хөрв":8156,"Манайхан":8157," Үн":8158,"оциал":8159," хэлэлцүүл":8160," солонгос":8161," хөдөлгөөний":8162,"ung":8163,"Эрхэм":8164," ямагт":8165," хөнгөлөлт":8166,"Ад":8167,"вин":8168," чийг":8169,"амдах":8170," чадалтай":8171," тогооны":8172,"гэлт":8173," хайрын":8174," дамжин":8175,"иценз":8176," тийшээ":8177,"арьер":8178,"Аймгийн":8179,"\"С":8180,"'s":8181,"ail":8182,"Алд":8183,"гор":8184,"тоо":8185," байг":8186," ак":8187," кур":8188,"мнэл":8189," дурьд":8190," хөгжл":8191," тохиол":8192," хичээх":8193," үүсгэж":8194,"are":8195," хүчингүй":8196," ярьжээ":8197," азтай":8198," харилцах":8199," хашг":8200," тэнцвэр":8201,"Үргэл":8202,"Таван":8203," Цагаан":8204," болгоомжтой":8205," судлаачид":8206," ог":8207,".com":8208,"=\"":8209,"Хойд":8210,"тыг":8211," баахан":8212," тоос":8213," малт":8214," хүчил":8215," тусмаа":8216," хөгшин":8217," тохиолддог":8218,"чимэг":8219," мөнгөтэй":8220," элэг":8221," охиныг":8222," зогсоол":8223," байгууллагаас":8224," баталж":8225,"Гэрийн":8226," амьдралынхаа":8227," өмсөх":8228," алдагдал":8229," барьцаа":8230," төсөөлж":8231,"вад":8232,"дав":8233,"иаг":8234,"слан":8235," амин":8236," Бус":8237," хийхдээ":8238," бусаар":8239,"юулгүй":8240," урьдчилсан":8241,"лагддаг":8242," программ":8243," есөн":8244," хуваарь":8245," агентлаг":8246," инженер":8247,"галтын":8248,"лөөр":8249,"Өд":8250," сөх":8251," даргыг":8252,"лэгчийн":8253," өмнөд":8254,"-ынхан":8255," хорв":8256," гадар":8257," хөгжих":8258," дуусгах":8259," түүхий":8260," тэмцээний":8261,"end":8262," асуултад":8263," халдварын":8264," бичлэгийг":8265," маягаар":8266," буцаан":8267," оролдож":8268," хүмүү":8269,"билэг":8270,"ain":8271,"Юм":8272,"лууд":8273," хир":8274," авир":8275," байхаас":8276,"шинэ":8277,"аци":8278," өөрсдийнхөө":8279," суурийг":8280," асуухад":8281," тогтоогд":8282," ерөнхийдөө":8283," хөтөлбөрийн":8284," гуйж":8285,"Санхүүгийн":8286," хосууд":8287,"ct":8288,"Нут":8289,"сэнд":8290," амгалан":8291," хэрэглэсэн":8292," жимс":8293," өгвөл":8294," нэрлэж":8295," даав":8296," Нийг":8297," хянаж":8298," хааяа":8299,"октор":8300," хэрэгслийн":8301," төлбөргүй":8302," хөгжилд":8303," огцр":8304,"Дотоод":8305," мөртлөө":8306,"Нүд":8307,"Пар":8308,"шсан":8309," гаш":8310,"эвэл":8311,"длоо":8312,"олдугаар":8313,"үүлэхгүй":8314," эдгэр":8315," хүчээ":8316," удирдаг":8317,"Дэлгэрэнгүй":8318," таалагдсан":8319," нэгдэж":8320," гэрээний":8321," өгүүлбэр":8322," парламент":8323,"io":8324,"Японы":8325," нүүд":8326," зэс":8327," уна":8328," илэрсэн":8329," тэдэнтэй":8330," шийтгэл":8331," дуугүй":8332," өвчл":8333," хайрцаг":8334," утаа":8335," сонгуулиар":8336," буурсан":8337," нүдээ":8338,"лолтын":8339," захидал":8340," up":8341,"Най":8342,"баа":8343,"лий":8344,"үж":8345," ногд":8346," гац":8347," удалгүй":8348," япон":8349," мэдээд":8350," жилийг":8351," юунаас":8352," урс":8353," батлан":8354," Пр":8355," дүүрэг":8356,"Тэнгэр":8357,"\"Энэ":8358,"Зүүн":8359,"Уран":8360,"Шаард":8361,"иараа":8362,"ми":8363," заал":8364," бүлд":8365," оролдл":8366," гарган":8367," хэрэглэнэ":8368," үзлэг":8369," ярина":8370,"лэлд":8371," байрыг":8372," Шв":8373," боловсруулж":8374," алджээ":8375,"Энгийн":8376," мартаж":8377," өглөөний":8378," өгөөж":8379," мэдлэгтэй":8380," хvн":8381," нутг":8382,"Шилдэг":8383,"OLO":8384,"ИД":8385,"ТО":8386,"хоёр":8387,"цын":8388,"ьё":8389," нуур":8390,"агдаагүй":8391," зөг":8392," үйлдлийг":8393," ажиллаад":8394," санагдах":8395," Өр":8396," үнэлж":8397," төрөлхтний":8398," утгагүй":8399," чармайл":8400," Гадаад":8401,"37":8402,"Дан":8403,"за":8404,"ым":8405,"аалийн":8406,"асс":8407," хэрвээ":8408," бодлыг":8409,"члаарай":8410," ХҮ":8411,"гуулж":8412," өвлийн":8413," туршлаг":8414," дундж":8415," зөрчл":8416," ороход":8417," мэргэжилтнүүд":8418,"65":8419,"гайл":8420,"дад":8421,"зоо":8422,"кра":8423," хээр":8424," зэм":8425," шарх":8426," амийг":8427," энийг":8428," төвөгтэй":8429," тохирох":8430," танилцуулах":8431," мэдээг":8432," тайлбарлах":8433," нэвтрэх":8434," төхөөрөмжийн":8435,"ect":8436,"-М":8437,"-С":8438,"төрийн":8439,"ийтэй":8440," орчих":8441," БАЙ":8442," илт":8443,"эцийн":8444," биеэр":8445," үгэнд":8446," буйг":8447," хүндтэй":8448," хүндэтгэл":8449," үлдэж":8450," харилцаанд":8451," хүүхдүүдээ":8452," дуудаж":8453,"Дөрвөн":8454," ис":8455,"ie":8456,"Долоо":8457,"фган":8458,"хөө":8459,"хов":8460," ороо":8461," хараагүй":8462," амны":8463,"алтаар":8464," үйлдл":8465," ёслол":8466," зорчих":8467," тохиож":8468,"Ерөнхийдөө":8469," сургуулиуд":8470," түрүүлж":8471," чиглэсэн":8472," үүргийг":8473," Ардын":8474," бүрдүүлэх":8475," журмын":8476," багтсан":8477," Харин":8478,"Гурав":8479," мужийн":8480,"Чухам":8481,"600":8482,"Техн":8483,"Хуулийн":8484,"Цар":8485,"Шар":8486,"оч":8487,"уны":8488,"хр":8489,"орд":8490," хун":8491," мэдээгүй":8492," үйлс":8493," зарлаж":8494," Сайн":8495," төсөлд":8496," Miss":8497," Араб":8498," уралдаан":8499," шувуу":8500,".)\n":8501,"Шударга":8502," шүүлт":8503," бүтэлгүй":8504,"лагдлаа":8505," даргаар":8506," кр":8507," Хув":8508," өнгийн":8509," болгоод":8510," мэдээлж":8511,"снээ":8512,"Эрд":8513," чамаас":8514," таарч":8515," өнөөх":8516," төдийлөн":8517," Британи":8518," өрнөж":8519," сувил":8520," найдвар":8521,"Тодорхой":8522," казино":8523," туйлын":8524,"OS":8525,"АУ":8526,"шийн":8527,"ӨАТ":8528," таш":8529," мэдэг":8530," эрин":8531," Хэн":8532," зурсан":8533," ив":8534," томъё":8535," салж":8536," сэтгэлгээ":8537," утгаар":8538," хариуг":8539," охиноо":8540,"окс":8541," ачаар":8542," цаашдаа":8543," европ":8544," уламжлал":8545,"гипет":8546,"250":8547,"Ёстой":8548,"раг":8549," чир":8550," орныг":8551," хут":8552," хуц":8553," арч":8554," болохын":8555," бодохгүй":8556," Манай":8557,"чилэн":8558,"агдлаа":8559,"ангар":8560,"удын":8561," ухамсар":8562,"our":8563," нүдний":8564," буудлын":8565," сайжир":8566," тусалдаг":8567,"Тайлбар":8568," айр":8569,"Тү":8570,"дээд":8571,"сноор":8572,"Өс":8573," шаг":8574," цал":8575," жар":8576,"лэгчдийн":8577," уншигч":8578," залг":8579," хүндээ":8580," ажлаас":8581,"omment":8582," загварыг":8583," үерх":8584," арилжааны":8585,"жим":8586," туулж":8587,"овид":8588," барина":8589," байрладаг":8590," Ол":8591," авчрах":8592," адуу":8593," боловсруулсан":8594," Бурханыг":8595," ..\n":8596," судалгаагаар":8597,"Намын":8598," үйлчлэх":8599," чимээ":8600," татгалзах":8601,"єєр":8602," мөрдөн":8603," мэргэжилтэн":8604,"ah":8605,"Йорк":8606,"пур":8607," байя":8608,"эрэн":8609," мэх":8610," малын":8611," харлаа":8612," таньж":8613," сурагчид":8614," тавина":8615,"доогүй":8616," насаа":8617," инд":8618,"шина":8619," хийгдэж":8620," мөрдөх":8621," сэдвээр":8622,"-Г":8623,".Амар":8624,"og":8625," баа":8626," хүртээ":8627,"Өөртөө":8628," хандан":8629," тэнгис":8630," үүнийгээ":8631," мэдэгдэх":8632," төлбөрийг":8633," хүртэх":8634," тусална":8635,"ошиал":8636," ачаалал":8637," үүл":8638," иш":8639,"ӨХ":8640," хэз":8641," болих":8642," олноор":8643," ямарч":8644," унах":8645," тоогоор":8646,"сдөг":8647,"екст":8648," дэмжиг":8649," үүсэх":8650," тархи":8651," тэмцэл":8652," хэлэлцүүлэг":8653," тойрон":8654,"Эрдэнэт":8655," эмчилгээний":8656," тамирчид":8657," багасгах":8658," хаха":8659," борлуулалт":8660,"мунист":8661,"СҮТ":8662,"жав":8663,"ъяа":8664," болсн":8665," уян":8666,"үүлье":8667,"үүлээрэй":8668,"тгон":8669,"үүдтэй":8670," зүйлсийн":8671," тантай":8672," гэрээсээ":8673," дураараа":8674," салхи":8675," хандлагатай":8676,".Болд":8677," эвл":8678," баяж":8679," ээлтэй":8680," шалгаруулах":8681," тууштай":8682," парламентын":8683," горим":8684," дамп":8685," хураамж":8686,"-Миний":8687,"Хон":8688,"Чингис":8689,"сөөр":8690," дуулсан":8691,"ээлээ":8692," явсаар":8693," аравдугаар":8694," кор":8695," өгөв":8696," олонх":8697," зорьсон":8698," зургууд":8699," тэмд":8700," шилэн":8701," дуустал":8702," янзын":8703," дүгнэж":8704," хүлээлт":8705," дараалан":8706,"Жүжигчин":8707," ..":8708,"-Манай":8709,"42":8710,"Хат":8711,"жр":8712,"лолын":8713,"тэг":8714,"чний":8715," аудит":8716," яс":8717," бүхэлд":8718,"Ингэхэд":8719," хугацаандаа":8720," нөлөөтэй":8721," хуудсууд":8722,"Байгуул":8723," биелүүлж":8724," олборлох":8725," Холбоо":8726,"Ирээдүй":8727,"\"Т":8728,".Алтан":8729,"ly":8730,"Заавал":8731,"нэгт":8732," бх":8733," туур":8734,"нам":8735,"уудаар":8736," лиценз":8737," гарахад":8738," валю":8739," сандал":8740," Хал":8741," Нью":8742," хаах":8743," ахлах":8744,"измын":8745," шийднэ":8746," өргө":8747," тогтоомж":8748," унтах":8749,"age":8750," торгуул":8751,"Өнөөгийн":8752," золиос":8753,"агцхүү":8754,"ian":8755,"ББ":8756,"Цалин":8757,"бү":8758,"ти":8759,"ахан":8760," яадаг":8761,"огоо":8762,"эгдлээ":8763," одоог":8764,"Тиймээ":8765," албагүй":8766,"Тэдэнд":8767," төлөөлөл":8768," хөшөө":8769," мөрийн":8770," бүсэд":8771," чамтай":8772,"Амжилт":8773," харагдахгүй":8774," хариуцсан":8775," орныхоо":8776," дайсан":8777," оройн":8778," хөдлөл":8779,".Нямдорж":8780,"Цаашдаа":8781," нүц":8782," нотлох":8783," Холбооны":8784,"\"Бид":8785,"No":8786,"Хий":8787,"Чад":8788,"лоод":8789,"мин":8790,"уз":8791,"хоор":8792," тем":8793,"ойлг":8794," цааз":8795," хараат":8796," Төр":8797," багаар":8798,"лэлийг":8799,"үүлэхээр":8800," рестор":8801," За":8802," Зүүн":8803," компанийг":8804,"Иймэрхүү":8805," бүсийн":8806," зовлонг":8807,"лип":8808," болгохын":8809," хамрагдсан":8810," орхиж":8811," цэнгэл":8812," хожим":8813," дохио":8814," дипломат":8815,"Эмнэл":8816,"вс":8817," гах":8818," хийчих":8819," танихгүй":8820," нараас":8821," Германы":8822,"шинз":8823," компаниудын":8824," хуудсыг":8825," борлуулах":8826,"ice":8827," чуулганы":8828,"\"М":8829,"\"Н":8830,"Гиш":8831,"Дээд":8832,"Ус":8833,"мөөр":8834,"ӨН":8835," бан":8836," хөөц":8837,"илын":8838,"уулъя":8839," байгаадаа":8840," эрэг":8841,"гээгүй":8842," Хууль":8843," үйлдлийн":8844,"уурч":8845," худалдах":8846,"удлаа":8847,"Амь":8848," монголд":8849," зөвшөөрөхгүй":8850," харилцааг":8851," толгойд":8852," түвшний":8853," найруулагч":8854," өрсөлдөгч":8855,"Эцсийн":8856," шинэчлэл":8857," үлдээсэн":8858," цомог":8859," орхисон":8860," стратегийн":8861," ~":8862,"-Н":8863,"Ган":8864,"бэ":8865,"ианы":8866,"хэм":8867,"уужин":8868," гоол":8869," хуй":8870," эрдэнэ":8871," олдог":8872," сайтын":8873," үзүүр":8874," Моск":8875," тангар":8876," ярилаа":8877," -\n":8878," боломжийн":8879,"чирхалтай":8880," дурлал":8881," буцаад":8882,"Барилгын":8883," бөхчүүд":8884," материалыг":8885," авчирч":8886," амьсгалын":8887," хөрөнгийг":8888," хөлбөмбөгийн":8889,"Герман":8890,"ОГ":8891,"Хул":8892,"елийн":8893,"шн":8894,"инк":8895," зүйлгүй":8896," төлсөн":8897," нийлж":8898," зохистой":8899,"Ямартай":8900," цэргүүд":8901,"ity":8902," морил":8903," хөвгүүд":8904," сэжиг":8905,"44":8906,"Хуул":8907,"Хүр":8908,"исан":8909,"ингоо":8910," гариг":8911," карьер":8912," талууд":8913," Тай":8914," Тус":8915," нарны":8916," нартаа":8917," ашигт":8918," засгийг":8919,"Хэрхэн":8920," сонсдог":8921," түрүү":8922," сүүлээр":8923,"ацгаа":8924," явахдаа":8925," гэмээр":8926," Хятадад":8927," хөндл":8928,"Австрал":8929," үйлчлүүлэг":8930," бясал":8931," хувилбарыг":8932," конт":8933," овоо":8934," хэрэгцээг":8935,"өтгөр":8936," олигтой":8937,"-\n":8938,"-наас":8939,".З":8940,"ber":8941,"мэн":8942,"хор":8943," хүргэдэг":8944," багаж":8945," туслал":8946," бүтээгд":8947," санаач":8948," фор":8949," төлөвтэй":8950," эхлүүлсэн":8951,"шилж":8952," байгууллагуудын":8953," асуув":8954," хавдр":8955," үхэр":8956," хэрэглэгчдийн":8957,"иотой":8958," нутагтаа":8959," тэдгээрийн":8960," and":8961,"удр":8962,"шдээ":8963," бөмб":8964,"инга":8965," бүлээ":8966," хэлм":8967," даргад":8968," тодруулах":8969,"Тиймдээ":8970," дахинд":8971," үндэслэн":8972," орчныг":8973," зүс":8974," зүтгэл":8975," нээсэн":8976," ашгийн":8977,"ператур":8978," болгоом":8979," шууги":8980,"Тоглоо":8981," яригдаж":8982," мэдэрдэг":8983,"ht":8984,"Ашиг":8985,"Кин":8986,"Тогт":8987,"гуудын":8988,"ийр":8989," мөх":8990,"эмгий":8991,"эвс":8992,"утлуур":8993," бусын":8994," заслын":8995," түрх":8996," ирэхийг":8997," хавь":8998," ярихгүй":8999," болчихоод":9000," болчихлоо":9001," The":9002,"гадугаар":9003," чулуун":9004,"Амьдралын":9005," шанал":9006," Энэтхэгийн":9007," re":9008," үүнтэй":9009,"-Б":9010,"ID":9011,"oy":9012,"vi":9013,"бид":9014,"єх":9015," хаз":9016,"ураг":9017," цагтаа":9018," хүснэгт":9019," дотны":9020," Кр":9021,"емат":9022," хотыг":9023," фото":9024," тохиргоо":9025," зүйр":9026," бүсгүйн":9027,"Санал":9028," хулгайл":9029," очиход":9030," чинээ":9031," нээлтээ":9032," Намайг":9033,"еррор":9034," хөөцөлд":9035,"-ээр":9036,".П":9037,"wit":9038,"лаарай":9039,"өөе":9040," тэднээс":9041," хамгаалагч":9042," танилцаж":9043," бүрдүүлж":9044," ордон":9045," зуунд":9046,"Уулз":9047,"Хөрөнгө":9048," өчүүхэн":9049," бүрэлдэхүүн":9050," ЭЗЭН":9051," Ер":9052,"39":9053,"76":9054,"PS":9055,"ud":9056,"Газрын":9057,"Дүр":9058,"лөсөн":9059,"айгаа":9060,"онгийн":9061," хэргээр":9062,"өхийн":9063," сайхныг":9064," Хөг":9065,"исын":9066,"отын":9067,"уйн":9068," Сангийн":9069,"гдаж":9070," анхааралтай":9071," бүгдэд":9072," амьтны":9073," дүрд":9074," танилцуулга":9075," айлчлал":9076," төлөвлөгөөг":9077," гомд":9078," үргэлжилнэ":9079,"Эмэгтэйчүүд":9080," хамгаалалтын":9081," нүгэл":9082," төгсгөлд":9083," түлш":9084," оршдог":9085,"МУ":9086," байдлаа":9087," дэ":9088," орц":9089," оржээ":9090," авлага":9091,"лагдаагүй":9092," Хор":9093," талаасаа":9094," талархал":9095," олонд":9096," гэрлэх":9097,"лэлээ":9098,"уйц":9099," түш":9100," гаднаас":9101," дүрв":9102," алдааг":9103," үйлчлүүлэгч":9104," хязгаарлалт":9105," арилжаа":9106," зогсоож":9107," татгалзаж":9108," тэжээ":9109," авчирсан":9110," тэвр":9111,"Google":9112,"az":9113,"Замын":9114,"Юун":9115,"вен":9116,"лз":9117," муур":9118,"адем":9119," цээж":9120," Хан":9121," Ажлын":9122,"уулахын":9123," Эц":9124," сэтгэлээр":9125," төсл":9126," хувьтай":9127,"оолингоо":9128," оролцогч":9129," фр":9130," элбэг":9131," хийгээрэй":9132," асуулга":9133," гаргахад":9134," өрөөний":9135," II":9136," бодохоор":9137," журмыг":9138," Re":9139,"АТГ":9140," тэсвэр":9141,"Асуулт":9142," өөрчилсөн":9143," таалагддаг":9144," доромжл":9145,"Хоёрдугаарт":9146,"))":9147,"Home":9148,"Нэм":9149,"Ст":9150,"Эв":9151,"гчийн":9152,"лгийн":9153," будаа":9154," алчуур":9155,"чинд":9156," илүүтэй":9157,"өлөөт":9158,"191":9159," хайрыг":9160,"жилтийн":9161," салбарыг":9162," нэвт":9163," тойрог":9164,".Хүрэл":9165," хуваалцах":9166," дажгүй":9167,"мм":9168,"рээ":9169," тэ":9170," нух":9171,"атар":9172," явган":9173," арав":9174," шингэн":9175," хураалт":9176," Нар":9177," Ном":9178," хэрэгслийг":9179," буудалд":9180," хөдөлгөөнийг":9181," автомашины":9182," эсэргүүцэж":9183," БНСУ":9184," хувьцааны":9185," харгалзан":9186," өмгөөлөгч":9187,"ингапур":9188," ын":9189," vv":9190,"aw":9191,"Охид":9192,"Хож":9193,"ЭЗ":9194,"бад":9195,"зөв":9196,"зориг":9197," хана":9198," шулуун":9199," ихэс":9200,"андын":9201,"ралын":9202," тайланг":9203," үүрд":9204," мэргэн":9205," нэмэгдэх":9206," тооцож":9207," ерөнхийлөгчийн":9208," иргэнийг":9209," шилжүүлэх":9210," өртсөн":9211," осолд":9212,"Дахиад":9213,"Сэтгүүл":9214,"авхлан":9215,"Байр":9216,"Дал":9217,"Хад":9218,"ион":9219,"най":9220," хөлд":9221,"айж":9222,"ирэм":9223,"ософ":9224,"иск":9225," Сар":9226," даашинз":9227,"шинд":9228,"Арай":9229," онцлох":9230," мэргэш":9231," ээжийн":9232," чөлөөлөх":9233," настайдаа":9234," огцруулах":9235,"УУД":9236," Мэдээл":9237," гудамжинд":9238," зугт":9239,"баатарт":9240," туслалцаа":9241," үйм":9242,"EE":9243,"NU":9244,"aa":9245,"iz":9246,"яр":9247," орноос":9248," хэрэгтээ":9249," хийв":9250," Ман":9251," дурын":9252," ердийн":9253," төлөөлөгчид":9254," Кар":9255," уншаарай":9256," үндэстний":9257," итгэхгүй":9258," танилцсан":9259," таалагдаж":9260," үлдэнэ":9261," хэрэглэгчдэд":9262," хязгаарлагд":9263," Америкт":9264," хурдтай":9265,"Хайртай":9266," хасах":9267," нотол":9268,"БНСУ":9269,"Онлайн":9270," Хүний":9271," статист":9272,"Мөнгөн":9273,"цээнд":9274," ашиглалт":9275," Эн":9276," давсан":9277," манайхан":9278," удам":9279,"шилтай":9280," буруут":9281," баримтыг":9282,"Үүнийгээ":9283," угааж":9284," зарцуулж":9285," сүлжээний":9286," хүндрэлтэй":9287,"Есүс":9288," дунджаар":9289," e":9290,"-ий":9291,"-Монгол":9292,"АД":9293,"гүүн":9294,"лид":9295," хүнээр":9296," сайгүй":9297,"чихсөн":9298," Дорнод":9299," Зах":9300,"Эрдэн":9301," үүсч":9302," мэдэхийг":9303,"окол":9304," бүтээлийн":9305,"өгдсөн":9306," багшийн":9307," огтхон":9308,"антолгой":9309,"Сүүлд":9310," зарцуулсан":9311," мань":9312," min":9313," Ази":9314,"Шинээр":9315," хэвтэж":9316," эзэмшсэн":9317,"инээв":9318," Ямар":9319,"51":9320,"ЕХ":9321,"Шүү":9322,"Шөн":9323,"ач":9324,"дуу":9325,"лга":9326,"ллийн":9327,"эк":9328,"олгүй":9329,"агаах":9330," туйл":9331,"идер":9332," төрдөг":9333," тавилга":9334," уншина":9335," аятай":9336," гэмтэл":9337," ярилцсан":9338," хамаарч":9339," төлөвлөлт":9340," зүтгэж":9341,"Бодит":9342," утгыг":9343," нулимс":9344,"ip":9345,"ist":9346,"Зав":9347,"Цэвэр":9348,"хх":9349," дуулах":9350," шо":9351," эрүүгийн":9352,"өвсгөл":9353," олохгүй":9354,"галж":9355," хоёрт":9356," Сон":9357," тогтсон":9358," хааж":9359," татдаг":9360," гурв":9361," сонирхдог":9362," сонирхлыг":9363,"эхүүнд":9364,"Амгалан":9365," зогссон":9366," сольж":9367," тэндээс":9368,"Ардчил":9369," үргэлжилсэн":9370," мөчид":9371,"Гадаадад":9372," хэмээсэн":9373," хорооллын":9374,"Нэгдүгээрт":9375,".Л":9376,"ля":9377,"хээр":9378,"єг":9379," тоонд":9380," сөн":9381,"элэг":9382,"оотой":9383," харв":9384," байхав":9385,"аасны":9386,"атын":9387," хортой":9388," пас":9389,"иулж":9390," ажлууд":9391," баярыг":9392," агуулсан":9393," Шин":9394," Sh":9395," хөтөч":9396," асуултанд":9397," бэлтгэж":9398,"Иргэдийн":9399," олборлолт":9400," Нийслэлийн":9401,"ive":9402," от":9403,"46":9404,"ug":9405,"Шү":9406,"Ший":9407,"лээрээ":9408,"хонд":9409,"Үл":9410," амарч":9411,"овол":9412," бодно":9413,"улган":9414," Мал":9415," Тэн":9416," тавилан":9417," хуулбар":9418," одоохондоо":9419," Гар":9420,"...\"\n":9421," оролцоно":9422," сайдыг":9423," Лонд":9424," тайлбарласан":9425," эвс":9426," харилцаатай":9427," хамгаалахын":9428," татгалзсан":9429," тэтгэмж":9430," сорилт":9431," өлс":9432," хэмээв":9433," судлаач":9434,".долларын":9435," харгалз":9436," маркетингийн":9437,"Зо":9438,"Тар":9439,"Чин":9440,"аагаад":9441,"анаас":9442," нтр":9443,"өлж":9444,"үүлийн":9445," аварч":9446," хов":9447," Хайр":9448," тэрийг":9449," хийхийн":9450," намд":9451," бичгийг":9452," дагуулж":9453,"Арван":9454," онцол":9455," элчин":9456," монголчуудын":9457,"ort":9458," үзүүлнэ":9459," Японд":9460," системд":9461," цуглуулах":9462," ширээ":9463,"ээээээээ":9464," тоглогчид":9465,"Гадаадын":9466," You":9467,"Баян":9468," бахархаж":9469," Христийн":9470," наймдугаар":9471," уудаг":9472,"Сэр":9473,"эээ":9474,"илд":9475,"илоо":9476,"илип":9477," юмнууд":9478," нэгээр":9479," хийе":9480,"Тэрнээс":9481,"Тэгтэл":9482,"190":9483," заах":9484," сургуулиа":9485," хөгжсөн":9486,"ейц":9487,"Баруун":9488," шинэчлэх":9489," алтны":9490," өлсгөл":9491," Францын":9492," Хүүхдийн":9493,"итрил":9494," функц":9495," температур":9496," тулаан":9497," хэллэг":9498," хүрдэг":9499," анхан":9500,"ижитал":9501,"двол":9502," эрхэлдэг":9503," хуулиа":9504," номоо":9505," сүлжээнд":9506," шагналыг":9507," Хамгийн":9508," эт":9509,"::":9510,"Доор":9511,"Найр":9512,"ОМ":9513,"єл":9514," яана":9515," лаборатор":9516," харъя":9517,"тойгоо":9518," санаарай":9519," барааны":9520," биднээс":9521," Там":9522," сурдаг":9523,"лэлтийн":9524,"Хариу":9525," Надад":9526," мэдээлсэн":9527," мэдээллээр":9528," мэдээлснээр":9529," бүтцийн":9530,"ark":9531," баримтлах":9532,"сгалан":9533," явцыг":9534," ням":9535,"Хүмүүсийн":9536," алхаж":9537," дасгалжуулагч":9538," өөрийнхөөрөө":9539,",,":9540,"In":9541,"пр":9542,"ӨВ":9543,"ӨГ":9544," баар":9545,"ааа":9546,"ээврийн":9547,"эгчдийн":9548," болмоор":9549," мэл":9550,"адын":9551,"лагаар":9552," олно":9553," бүрээс":9554,"чихлээ":9555," өргөө":9556," өршөө":9557,"логдсон":9558," Монголбанк":9559,"Эрчүүд":9560," очно":9561," Үз":9562," аймаар":9563," оруулаад":9564," Son":9565," ажиллахыг":9566," мэдэгдлээ":9567," аавын":9568,"Нийслэл":9569," баригч":9570,"ros":9571," vз":9572," ярианы":9573," овог":9574," хэдийнэ":9575," Хэрэг":9576," суманд":9577,"down":9578," тасалбар":9579," мессеж":9580," ом":9581,"ff":9582,"кийн":9583,"тэж":9584,"усан":9585,"ха":9586,"Үүгээр":9587," серв":9588,"инох":9589," мэдэхэд":9590,"соно":9591," зүйлүүд":9592,"Битгий":9593,"агдахгүй":9594," зарлиг":9595," тусгасан":9596," эрхэлж":9597," УБ":9598," асуудаг":9599," удаагүй":9600," рек":9601," тогтолц":9602,"оёлын":9603,"екийн":9604,"удар":9605," бусадтай":9606,"ant":9607," очдог":9608,"Амр":9609," ажиллахгүй":9610," захиргаа":9611," бүртгүүлэх":9612," тусламжтайгаар":9613," орхих":9614," тэнцүү":9615," онцлогтой":9616," буулгах":9617," хэлтэс":9618," Эмэгтэй":9619," амжилтад":9620," талбайн":9621,"Өдгөө":9622,"ЗД":9623,"Хаана":9624,"вит":9625,"тэд":9626,"үгээ":9627," бааз":9628," болбол":9629," мот":9630," ялах":9631,"ойн":9632," виде":9633," хүрчээ":9634," Секс":9635," дуугаа":9636," ЭНД":9637," Гоолингоо":9638,"адаггүй":9639," итгэлийг":9640," түүнчлэн":9641,"ide":9642," хариултыг":9643,"ime":9644,"Өглөөний":9645," харамсаж":9646," стратеги":9647,"элэнгэ":9648,"-Бид":9649,"lay":9650,"pre":9651,"бур":9652,"лер":9653," бонд":9654,"уунд":9655," ген":9656,"өөх":9657," ирвэл":9658," хүрлээ":9659," клип":9660," Ас":9661,"лэгддэг":9662," Том":9663,"олдог":9664,"элтгүй":9665," замбар":9666," хэсгээс":9667," ажиллагаатай":9668," зэргийг":9669," гүйж":9670," өмөөр":9671," явахыг":9672," дамжуулж":9673," эсрэгээрээ":9674," тунгаа":9675," асуудлуудыг":9676," товчл":9677," зарцуулдаг":9678," нялх":9679," өөрчлөгдөх":9680,"ИЙГ":9681," хуралдаанаар":9682," хаалттай":9683," дампуур":9684," Өөр":9685,"БС":9686,"гөөс":9687,"хив":9688," бөөр":9689,"үүгээ":9690," зус":9691,"авал":9692," авагч":9693," хараарай":9694," ТУ":9695," суртах":9696," бүхнээс":9697," анхдагч":9698," Нэгдсэн":9699," захын":9700," тохиолдл":9701," компаний":9702," ялгаж":9703,"Өнөөд":9704," хотоос":9705," хариуд":9706," хангалтгүй":9707," зогсох":9708," таалагдах":9709," чадваргүй":9710," болгоныг":9711," гүйцэтгэдэг":9712,"янга":9713," оройт":9714," хийлгэж":9715,"уууууууу":9716," огцом":9717," атаар":9718,"oft":9719," боомт":9720," цүнх":9721," →":9722,"St":9723,"Жилийн":9724,"НБ":9725,"Нис":9726,"ХБ":9727,"хэл":9728," ная":9729,"эхээс":9730," хүлээд":9731,"ойтон":9732," өдөө":9733," будаг":9734," хийц":9735,"нов":9736," дээж":9737," таньд":9738," бишээ":9739,"лдсэн":9740," хүсдэггүй":9741," хотноо":9742,"Ардын":9743," дүнгээ":9744," уншдаг":9745," өргөтг":9746," үлдлээ":9747," Apple":9748,"180":9749," Windows":9750," зөвлөгөөг":9751," даатгал":9752,"Буруу":9753," гэнээ":9754," Бусад":9755,"\"Д":9756,"AN":9757,"Угаасаа":9758,"Эзэн":9759," түү":9760," не":9761," дэн":9762," ядан":9763," хэлтэй":9764," чадлаа":9765," эрхлэгч":9766," дурсгал":9767," Зар":9768," татаад":9769,"дахад":9770," боловсролтой":9771,"хамгийн":9772," асуултын":9773," Өг":9774," болгоход":9775," хөдөлгөөнд":9776,"Бусдын":9777," өнөөг":9778," багтаж":9779," ядуур":9780,"Дээрээс":9781,"хуяг":9782," хашгир":9783,"58":9784,"AS":9785,"Онг":9786,"бам":9787,"чтэй":9788,"шг":9789,"ӨЛ":9790," тест":9791," шт":9792,"одон":9793," хус":9794," ондоо":9795," нэрлэсэн":9796," хийхээ":9797," сэтгэх":9798," боловсон":9799," бэлдэж":9800," сонсг":9801," угт":9802," Mac":9803," хариулж":9804," хариулах":9805," өрсөлдөөн":9806," Бүгд":9807," үгүйсгэхгүй":9808," таашаал":9809,"-оос":9810,"CO":9811,"ААН":9812,"Товч":9813,"гэнэ":9814,"лөөд":9815,"олыг":9816," сэн":9817," шог":9818," харам":9819," Ажил":9820," тавтай":9821," супер":9822," биеийг":9823,"агтаа":9824," үйлчилгээнд":9825," сургамж":9826," бичигдсэн":9827,"Тусгай":9828," оюутны":9829," нийцсэн":9830,"Баярлалаа":9831," нүцгэн":9832,"-Уул":9833,"ld":9834,"Ухаа":9835,"ань":9836,"анхай":9837," хүсэн":9838,"өлөв":9839,".....\n":9840," эхэн":9841,"аанаа":9842," эмгэг":9843," ажиллуулж":9844,"врыг":9845," залуучуудын":9846," үйлдвэрт":9847," анхаарна":9848," өгөхөд":9849," фил":9850," дууслаа":9851," хариулсан":9852," цаашаа":9853," үсээ":9854," худалдаанд":9855," ихэнхдээ":9856," тэнгэрийн":9857," стресс":9858," брэндийн":9859,"рафик":9860," жолоод":9861,"Хөт":9862,"бу":9863,"иагүй":9864,"тнүүд":9865,"хөөр":9866,"ъект":9867," туулах":9868," байлд":9869," бүж":9870," цээр":9871," Мак":9872," бүрдсэн":9873," төрүүлж":9874," шинэхэн":9875,"лэхэд":9876," плат":9877,"огдоно":9878," үйлдвэрлэсэн":9879," дуусна":9880," тохируулах":9881," ажиллахад":9882,"обот":9883," сонголтыг":9884," эрчимтэй":9885," стандартын":9886," хөдөлгөөнт":9887," Байгал":9888," цалинг":9889,"witter":9890,"ram":9891,"Гр":9892,"ОУ":9893,"УЛ":9894,"ШУ":9895,"ьяа":9896," хацарт":9897,"алдаг":9898," долдугаар":9899," болоосой":9900," шул":9901," бир":9902," юмны":9903," байгаатай":9904," мэдэрсэн":9905," уугаад":9906," бүрээр":9907," хүүхнүүд":9908," салсан":9909," залуутай":9910," хангамжийн":9911," хэрэгжих":9912," өмд":9913," баримтлал":9914,"ологи":9915," дамжуулах":9916," тушаалд":9917," занал":9918," хориглосон":9919," буух":9920," технологийг":9921," өгдөггүй":9922," мужид":9923," эсэхээ":9924," шүүмжил":9925," Есүсийн":9926,"Ахмад":9927," таамаглаж":9928," Интер":9929," энерги":9930,"outube":9931," өрөвд":9932,"41":9933,"43":9934,"HD":9935,"Айл":9936,"ЗХ":9937,"агас":9938,"уулаагүй":9939," ажилчдын":9940," явуулна":9941," алуур":9942," сайтад":9943," жишиг":9944,"гээж":9945," бишүү":9946," хором":9947," пуужин":9948," хонь":9949," төлөөх":9950," усыг":9951," ЖДҮ":9952,"гоороо":9953,"гооё":9954," үнэлэх":9955,"vvд":9956,"Авлиг":9957," эхнэрээ":9958," баригдсан":9959," илгээсэн":9960," уйлж":9961," оросын":9962,"Ганцхан":9963," хэмээжээ":9964,"ЭМБ":9965," апплик":9966," түмнийг":9967," харьяал":9968,"IN":9969,"Бал":9970,"Жолоо":9971,"Турк":9972,"Хөх":9973,"ена":9974,"муу":9975,"айсан":9976," нүүл":9977," даанч":9978," цор":9979," олз":9980,"лэгдэж":9981,"агдан":9982," байрлаж":9983," асуудалгүй":9984," Каз":9985," хөдөлгүүр":9986," өсөх":9987," таарах":9988," малгай":9989," тоглолтоо":9990," өмсөж":9991,"Өдөрт":9992," цэцэрлэгийн":9993,"апитал":9994," тогтолцоог":9995," танхимд":9996,"Бүтээгдэх":9997," хүлээдэг":9998," k":9999}