#version: 0.2
a n
e r
e n
  d
  m
a r
a t
  p
an g
a k
i n
  s
a s
a l
  k
a h
  t
. 

e m
  b
a m
u n
 d i
e l
 m en
a d
k an
t u
y a
s i
  P
a p
o n
  y
  S
 y ang
e b
i l
g a
  K
o r
 d an
e s
i k
en g
i s
 t er
u r
u t
  B
 b er
i t
  l
in g
u s
e k
  A
u m
e t
as i
  M
ak an
o l
 men g
ad a
ar a
un g
 p er
u k
ar i
em b
a b
n ya
 k e
  (
  J
  h
a i
i m
  T
  I
o m
u l
  D
i d
2 0
i r
t a
  j
  in
  R
tu k
  un
al am
20 2
 s e
 un tuk
u d
i tu
i h
 p en
  r
eng an
at a
t i
a g
a w
u p
 d engan
at an
 m em
ang an
e g
  -
 in i
 d ari
ad i
e si
am a
o k
i a
  W
  itu
" ,
r o
u h
 d alam
 p ada
an t
e d
  H
  G
 I n
  n
e p
 m el
an d
a ga
  C
i an
a ya
  N
 s eb
am p
u kan
en t
  L
 m emb
 m er
a y
  U
al i
eb ut
r i
 men j
p er
e h
  g
 ter s
id ak
  w
 men y
u b
 p em
er i
a j
a in
 In d
  c
i si
al ah
el ah
a an
u ga
 t idak
o t
w a
ang k
en d
u a
) .

i b
u an
on esi
  akan
onesi a
 ters ebut
 p eng
 Ind onesia
  F
ah an
as a
 ke p
em p
aga i
ar an
u j
n n
am b
a at
p nn
j pnn
an j
o ta
 j uga
an a
 P er
at akan
c om
ang g
at i
. com
 s el
 W I
 WI B
t r
u si
 men d
ah un
 p ro
 b ah
ak ukan
am i
 m as
in t
or ang
g i
o b
an ya
an y
  E
al u
 k ata
ap at
ol eh
r a
ag i
 menj adi
ar ga
c ara
 P r
ak ar
  f
as an
al an
 meng atakan
j a
ung an
t er
h ad
ek a
 s aat
al a
is a
 bah wa
at u
ik a
 s ek
d a
  ad
 p el
 s er
  ak
 seb agai
eb ih
  oleh
 t elah
on g
ing k
  ada
 t ahun
en a
i p
it as
ap a
o s
u tu
am an
n i
akar ta
y ar
 k ar
e w
 k on
 s et
ud ah
 b isa
ap i
 di l
  O
eg ara
 k et
it a
on al
A R
  ata
r an
0 0
l ah
 k em
ar u
ing ga
ar t
 kep ada
 ata u
ing g
in d
in ya
as il
 l ebih
 K e
 A n
ak at
o w
ak u
r es
 mer eka
 per t
 men c
ung k
in a
 p emb
 J akarta
  "
g r
el um
ur ut
es ar
  orang
eb er
d en
 s atu
 di s
 s em
 S el
yar akat
 ber s
o d
a ik
 P ol
  Y
o si
 s udah
any ak
o p
emp at
aw a
 kar ena
 per s
im p
 di b
er int
 ber k
ir i
 k el
er ah
er ja
 ad alah
T A
 k es
 di t
 k ami
o g
 p ara
i ga
 K ota
 ber b
 pen y
 mas yarakat
ap an
  an
or m
 mel akukan
 I s
il ik
emb er
esi den
ab u
asi h
b an
 h ari
 p as
 l ain
ang s
aw an
  uj
at kan
 se j
 P em
a c
ar ang
is t
o h
u at
ak s
had ap
ar kan
e j
il ih
ai kan
ar us
um at
A K
1 0
in i
ap kan
 n egara
es t
 ter hadap
 meng g
eri kan
im a
om p
 di k
 mem per
 t et
  at
i kan
 b agi
 p r
 ter b
asi onal
erint ah
i c
 d apat
j adi
 uj ar
 k or
 di a
ar at
en c
AR TA
AK ARTA
 T im
up at
um lah
k a
S el
 se cara
uh an
d ang
ur an
gr am
 h ingga
m as
ab upat
abupat en
d uk
  as
am is
eng ah
um ah
 J AKARTA
  v
h ir
un j
en in
eber apa
us ah
M en
anj ut
up akan
en si
e c
ing an
as kan
  V
ih ak
per ti
) ,
D ia
 set elah
o v
 mer upakan
ang at
 p ol
angk a
1 2
 C h
 d ua
usi a
 se perti
an tu
ay ah
 b aru
P P
 s aya
 S ur
 k eb
er n
ul an
uk a
1 9
 w arga
tu a
em ent
al on
 m asih
 K abupaten
s es
 p un
  ag
 h arus
 A S
 dil akukan
  ek
A N
1 1
 b eberapa
 ser ta
a erah
as us
em en
ti f
 memb erikan
 A g
ilik i
um p
er a
alu i
 an ak
 pen d
am un
angs ung
il an
 b anyak
  ant
an c
u ang
e kan
eng g
 J awa
uk um
art ai
ay an
 A m
 A l
ra el
it ik
s t
il ayah
 P ro
 kor ban
 l alu
 di p
 h anya
 at as
 p ihak
ol o
 b esar
ik asi
t or
tu r
 ber h
 s u
d i
u ah
 M ar
un an
in an
P er
u ar
 di g
 mem iliki
 r umah
ap or
 bers ama
f orm
e a
ingg u
ag ian
ti kan
ow o
 P il
 ter jadi
a f
ur uh
 t im
 B ali
 se h
er angan
 P en
. jpnn
 sel ama
it ar
i g
t ing
 b aik
 mel alui
 ber l
u c
e v
 s angat
im b
 Is rael
ak si
un ia
emb ali
u g
an i
ul ai
 U n
 k er
Men urut
 s alah
on s
 B er
 ke d
 k asus
w an
in ta
m an
 A r
1 5
il ai
 w ak
ka it
 w ilayah
ang kan
 D es
el ar
 s en
ik ut
i ap
 ber t
e i
K ami
p a
 pem erintah
amp aikan
 D P
ed ia
ab tu
 R p
 K om
 Pr esiden
 B and
aj a
un akan
ga w
 k ita
 R abu
 meng h
N amun
 S enin
 m il
 Sel asa
a u
 s ama
 t ent
un c
  al
ah u
 ter l
 tet api
um b
l u
 B arat
ab owo
  ap
  angg
 K ep
 ter us
 seb elum
 k om
ot o
 K amis
 di r
 ter kait
 k embali
is asi
h an
utu s
ad an
ut an
 pers en
ih at
 k ek
 sek itar
S eb
k r
ud a
ter n
 ke c
 h al
ud i
 men ingk
1 6
 h ukum
un ya
 sel uruh
t ri
ant o
3 0
ung g
on om
i j
 mend apat
ar k
 ag ar
ud ian
1 4
 Pr abowo
a z
k ada
 berb agai
ar ah
 per n
 di d
 se p
1 7
 p es
 t ak
 t iga
id ikan
 ter d
at ih
ingg al
l ik
at ang
om or
 d aerah
er ik
m i
am atan
  o
ab at
s p
 J umat
 t an
en tu
 h asil
 P T
ul i
ep an
j u
up aya
ur u
 pro gram
ab ar
 menj el
ah kan
 seb uah
 Sel atan
m en
P K
y ata
 lain nya
1 3
 S t
mas uk
1 8
eg eri
uk ung
e tu
i f
ent eri
eh atan
 s amp
as ar
ap ai
i z
ub ern
ubern ur
usah aan
 c alon
 d unia
- b
 meny ebut
 di per
u ari
 pro duk
2 1
2 3
s a
ut a
un d
 b elum
ai r
form asi
t as
osi al
 U t
olo gi
 pert ama
 ant ara
 Ke tua
er si
ab aya
 tent ang
 R I
il u
ar is
an ti
 se dang
 A p
 s es
er ian
l i
 T er
ing gi
 Sur abaya
ut ama
an k
 k erja
amp ak
 pen ting
ing in
 meng had
M K
e f
 r es
 d em
 k h
m ad
ayan an
it er
 Ag us
el as
ok asi
 Band ung
r il
 memb uat
ol ah
 sem ua
id ang
ilih an
 P eng
 ter masuk
n as
ek erja
aman an
 K or
alam i
 sej umlah
 pel aku
 mem as
 ber j
 Tim ur
 ber d
in si
atan ya
 l angsung
2 5
 s t
ara an
ak in
" .

um um
imp in
  Z
ati f
ib at
r e
 d epan
D alam
S aya
u as
ak it
P U
ungk ap
u al
 sej ak
 ber p
 m an
ak hir
 pen c
us us
 T engah
si a
ant an
 b i
es k
 ked ua
 angg ota
unj uk
 ter p
 k atanya
D i
  a
ti v
and a
ant or
 Pil kada
 k ali
 men er
aw at
 b agian
ang unan
ep at
 su ara
 wak tu
as is
 DP R
 se orang
is tr
ib u
A S
ak a
 di m
2 2
emp uan
 P artai
 mend ukung
 b ulan
 U m
 S em
 Ke c
enc ana
 M inggu
 T h
 pol itik
 Ch ina
 M en
Sel ain
on o
 seh ingga
un i
 peng g
us tr
ai an
g as
c h
 A s
 S abtu
 T r
 Per t
er ika
 t empat
ak il
 P al
 meng aku
us at
ar g
ir ek
  ya
er ang
 ser angan
 meny ampaikan
 ak hir
utus an
 k ota
 O k
at im
 m ulai
20 1
on t
ek si
l in
ek n
aw asan
2 4
aks an
 meningk atkan
d in
 s aja
 pro ses
 J ok
onom i
P ada
 per usahaan
P N
omp ok
 l agi
ingk at
- s
ob a
ob er
 kon s
em ukan
 M al
 in d
B er
  aw
e o
 M enteri
 P el
D I
eng k
 ket ika
ar d
 b el
  [
 M as
ala u
 s osial
ub lik
 mengg unakan
 N ov
S I
 k amp
 Per si
 se g
 s ur
 m alam
 j uta
ar n
ak ni
 P as
ga j
P em
 Am erika
 kes ehatan
u arga
 S ep
usah a
N I
ot or
uk ungan
P en
v insi
 menjel askan
id up
eg i
or t
o al
er al
 t inggi
 y akni
 m edia
ob il
ad ir
t ober
 Um um
 m in
 pem ain
 tet ap
 b ukan
antu an
 meng en
 Ok tober
 ke gi
per asi
I n
un a
al kan
ab il
 kegi atan
 U ni
  ingin
 ket erangan
up un
ar ap
 m a
al ing
H al
 di ri
i v
at or
K et
ement erian
 Pol res
tu s
 l anjut
  air
 Kec amatan
 b en
 m asa
uk ul
U n
us an
anj ang
angk ah
k o
r at
t ar
az a
 ters angka
 ber ada
  upaya
in al
c a
 R usia
 P PP
er s
angk ap
2 7
 mendapat kan
 kem udian
 l uar
ow i
 mas uk
 sek ali
uk ti
 samp ai
ol a
ahan an
 Nov ember
  apa
 ses u
apor an
 di h
ul a
l e
 pr esiden
 p ut
 menc apai
I ni
ga b
 G ubernur
ir an
 J an
up si
ur n
 J uli
ingk ungan
o y
ap ol
 sebelum nya
 Un it
00 0
t im
 kh usus
- p
 m akan
amb il
y at
 k ur
 p osi
 kon d
 men unjuk
ib ran
 S h
 Sem arang
ement ara
  en
ak al
it men
? 

 a cara
 t ran
 per empuan
  uc
 d ukungan
 j elas
 G aza
og or
ur kan
ungk in
 k omp
 M ah
ad ilan
 P ut
ak i
uh i
 m usi
 k awasan
irek tur
v ersi
 k end
 M an
 B ogor
ed a
j ata
il m
y ah
us tri
Sel asa
 peny el
or ong
M er
ang i
 j alan
 pas angan
S ementara
 memb antu
 j adi
 Ut ara
any e
 h ak
 A d
 n omor
 Agus tus
 meny atakan
 N asional
 p ukul
 peng h
 meng alami
it al
amb ah
utu r
om b
 per k
 J uni
P r
o c
 ter akhir
 in tern
it an
R I
er ta
R abu
end iri
 menunjuk kan
t ember
A n
 b antuan
 memas tikan
2 9
u atan
 J alan
aya an
2 8
em uan
 Sep tember
 j ika
i ar
J umat
K amis
 T ahun
ul ang
em an
 l okasi
 Des ember
aw ah
 Des a
 ek onomi
2 6
r esi
od e
 M ei
 kel uarga
on d
- k
ol isi
aw ab
 PPP K
 g amb
em a
er j
ang un
 mem inta
e y
a ut
 uc ap
 j umlah
 ber m
at eng
 An g
 berl angsung
eb r
 d in
 t engah
 k ap
j en
uk ai
t o
is n
F oto
ur un
 Ap ril
 men inggal
 berh asil
er b
 Jan uari
 K ementerian
aj u
ub ungan
f aat
" K
ul u
 s i
 set iap
apor kan
 N egeri
ot ensi
ahu i
S enin
 t r
umb er
 s tr
 aw al
o or
yata an
 mem p
 m ana
 l aga
eb ab
 ma upun
 A b
 Unit ed
 Pol da
ang ga
 as al
 t ind
ungk apkan
d ul
ed i
K ep
en angan
ai m
Mer eka
S et
" Kami
 D ep
 r ek
 S ub
 p artai
  empat
] 

is ata
  ia
 ujar nya
 Kep ala
 pol isi
 s oal
 mel ihat
 S ek
ir kan
em u
a v
 t ekn
 sesu ai
et ahui
 pihak nya
 m obil
 k l
as arkan
 berh arap
 seb esar
K e
 per b
 K al
ung i
uj an
) 

r asi
 A k
K I
ai h
uga an
 res mi
ew an
 pern ah
 men urut
emb angan
 P DI
 mem en
 p et
 kel ompok
k ar
- an
u angan
ul kan
up ati
kr ain
 gamb ar
K B
 ter k
ij akan
J adi
krain a
  ungkap
 S um
 mil iter
 s endiri
ur a
 kond isi
 B adan
 b ekerja
ak yat
 t angg
and ingan
 Mar et
 s k
 L iga
 Uni versi
 H ar
 A h
  utama
 k r
un t
ikut i
 h adir
 n asional
 I r
asis wa
  ar
istr ik
 H ari
s el
 per d
er d
 A sia
 l ingkungan
 in formasi
 K h
anj ar
 l aporan
etu gas
ew as
up a
amp ung
ist em
 per j
id en
 tan pa
 P i
 ya itu
 kend araan
emb aga
 ad anya
im ana
 per lu
 D aerah
 d ek
0 8
 menj alan
- l
P S
 Jok owi
 U kraina
P el
 b arang
uk up
angk at
e gaw
ab or
or g
and ing
0 7
- t
at eg
ej abat
arg et
ad e
 W akil
 per m
  &
l im
 memper k
 mener ima
er gi
et er
 b akal
 seb anyak
 K el
K em
 Pro vinsi
ent ara
aran ya
 Tim nas
amp u
on or
 H am
 l ayanan
alam an
  X
P B
 M uh
 pen j
s ek
 k eber
et a
aga imana
us ai
 p ar
el it
 ke amanan
imp inan
  uang
 d ugaan
al ia
 meng ungkapkan
adi on
ap un
 kon f
" S
ia ya
id ana
e z
 S at
 mengen ai
v est
h am
 S uk
 mel awan
 t uj
 dir inya
 p aling
A d
ir im
AN G
am at
emb ang
 memb awa
aksan akan
 s at
erik at
 ind ustri
il ang
 mengg elar
ud ara
 d ok
 k ini
r is
 mas alah
  umum
 pend idikan
en ang
t ik
ung si
 Pem ilu
3 1
 menj aga
atih an
5 0
erint ahan
 kep ala
 S erikat
um en
 per ang
 T NI
is m
 men gaj
ga g
 m uda
 s p
aj ar
 Kor ea
 Tr ump
 d es
 menghad api
ed ung
isn is
ni es
h i
 p l
id ik
 b awah
 pert andingan
utu han
 ber g
ap res
 l ima
 D en
 S ul
 Kom isi
T er
g us
 c ukup
on i
f i
ap ua
 n ama
ua ca
0 9
 I I
 Pi ala
I a
 pemb angunan
 L eb
al nya
Ke tua
oor din
f r
 I ran
A M
 A ir
 sem entara
 seg era
-an ak
h a
 D em
 sur at
at ian
 l angkah
P ro
 K PU
 pel angg
est ina
or i
 meny el
r et
 m ah
 kamp anye
 h arga
ant ai
  urut
u ara
int as
 m ungkin
K N
P eng
st itu
 di ter
 sen jata
erj aan
 ak ibat
 se d
A da
 s itu
eg al
 b ukti
 o f
 P ak
 n egeri
P ara
tu m
ia u
 d ata
uk u
 ke h
s aan
20 0
angs a
an an
 P usat
ub ahan
 P apua
 dig elar
 mem ang
 pern yataan
 keb ijakan
 t utur
un tu
 m ampu
ir a
- n
 B r
 ber in
0 5
 men eg
 P end
  op
utu h
 sek olah
 St adion
el ak
 S o
 k en
 m antan
b usi
S abtu
 An da
 s istem
 P B
 di j
 P emb
  on
 intern asional
D engan
ant en
 keb utuhan
uj u
ual itas
si p
0 6
  '
 t ingkat
 P S
 k ol
 ter j
 j am
at ur
ok us
 Universi tas
 D in
- h
 K es
aks a
ag u
  em
i cara
 Pal estina
Kep ala
A B
 p ejabat
ul it
lin e
 p ekan
um i
 l ama
 s iap
 R es
emp atan
 An d
 mil iar
- G
esk i
Set elah
 b al
 h idup
et apkan
 Pem erintah
Ket erangan
 pem ilu
 k al
er an
 m ilik
 G ol
arga an
id eo
ad w
 d atang
S aat
 C ukai
 ber si
 pun ya
 S olo
 E k
 K em
 F ebr
 l ap
m in
 K emen
ju angan
 ber n
e al
el l
ed an
 mend orong
 sekali gus
al ur
amb ahkan
eb at
 E n
oh on
ark oba
 m od
 in t
erik saan
p res
Un tuk
ingk atan
 Pen y
 makan an
y o
and ang
en aga
 Pol ri
 h ujan
 A ri
 N egara
 akhir nya
 S p
end eral
un ga
 Ah mad
 S et
 A c
 did uga
 s akit
 bah kan
 Dep ok
en is
ib atkan
jadi an
et ak
 W id
 p ublik
 wak il
ar in
 mend atang
 tan ah
f t
l ob
am ah
 m otor
 pem erintahan
 pem impin
 Per s
  aman
 K PK
eng ar
 A nies
 Febr uari
  el
ar ik
K P
o in
ong an
 kon t
i anto
 D irektur
 In tern
tr uk
 men ilai
 l istrik
duk ung
 G r
 ke jadian
 J ep
 p an
 m ew
  Q
0 1
e orang
 r ibu
onor er
lob al
 G er
 dig unakan
 K antor
m a
angg ung
 In i
 g uru
 c ara
E N
0 4
at at
amb ang
 meneg askan
 ter t
 dit emukan
amp il
0 2
a uh
si s
tiv itas
l y
am mad
ol usi
 men ambahkan
uk i
 per l
uan ya
abor asi
 B as
ada an
 pas ar
 berj alan
am ina
 ber as
 men uju
 di c
 k alau
en ar
er asan
 K eb
un aan
 kap al
en al
emb ak
anj ir
 S en
ut i
 In g
f ikasi
isi al
it y
ur i
 tekn ologi
 N omor
 J atim
  ibu
 men t
uj ud
engg ara
 p etugas
an isasi
eg itu
ebab kan
 t ewas
 D KI
 G anjar
 N us
Ad apun
 pes erta
 b isnis
 ak si
U R
ok rasi
in c
olisi an
M I
u asa
t an
 b at
 ek s
l on
 p il
 s empat
 Ham as
i ah
 per i
j o
/ jpnn
ro pa
erah kan
p or
 p ri
 kom itmen
 B anten
 ter utama
 seb agian
 pem eriksaan
aj i
0 3
 mer aih
 k antor
ari an
 kom un
ot al
 terb aik
 t ahu
alan an
A p
 M et
 sek tor
ip un
 sem akin
P as
 peri ode
esk ipun
 dib erikan
 B upati
M inggu
er asi
 J aya
ad ah
Kem udian
kr im
or o
 E ropa
aj aran
ant ara
 r asa
 G un
 per c
 musi m
MK M
j atim
 berin isial
is k
 Sub ianto
 g ol
 c epat
Seb elum
 Persi b
A k
 Jep ang
 h ubungan
- m
 p otensi
l am
um as
 c uaca
abil itas
 kor upsi
 t eg
 p ak
 sel alu
amp ir
anjut an
 meng ikuti
ad ang
 ket iga
 memb angun
ok al
- M
D ari
 per ubahan
 R am
 B ank
 B ea
 dig ital
el i
 r akyat
ip il
 meningk at
ub ah
j abar
ar akan
ati on
 dis ampaikan
resi asi
 t ok
or itas
 J enderal
 ber tu
 R ep
end a
 g r
anjut kan
P ol
ak ah
or e
is ti
ol ak
N G
n y
 ber usia
ul asi
 kep utusan
 B aru
 pem ilihan
amb ut
 J abar
asil itas
  ef
 pert emuan
  usaha
 f ilm
gr is
 tind akan
am in
 J ateng
og y
al l
af tar
S ek
U M
y ek
ar ta
b u
 memb eri
k y
ant as
 ben tuk
 K r
 F C
el a
angg ap
 dis ebut
vest asi
o kan
 mah asiswa
h o
an s
 kes empatan
 kem enangan
A l
 B iden
y ak
A T
 meng el
at asan
 j ar
 j auh
 pen ingkatan
 perj alanan
P R
id at
ek s
4 0
 j enis
ac h
 n anti
aj ang
utu p
ug as
 tran s
 p ul
 des a
at angan
 ter c
um si
 T an
tri busi
elak aan
  ikut
 v ideo
 terp ilih
 terb aru
 Din as
 dek at
er t
 Ag ung
 posi si
el awan
alah an
ar apkan
ov asi
l ikasi
 mem ilih
 memb uka
umum kan
 en am
-G ibran
 f orm
 b ahan
 meng ambil
 se usai
 E l
utuh kan
 k uat
p asar
ab r
  is
at ar
er ak
 kur ang
 m aka
aw as
ay akan
S alah
 k and
on el
 sat unya
 kec il
v ei
 t inggal
 b egitu
en ti
  udara
 K ar
 d aya
ul is
ok ok
aj ak
 S up
 K on
 j awab
 menjalan i
 Den pasar
uh nya
sip asi
 t enaga
 terl ibat
it ra
ip t
 Ke j
ab atan
 berk om
 pr ia
er man
al is
il is
aman kan
T im
 mer asa
 s aksi
un dang
apol res
 meng ing
 mel aporkan
u f
 ke j
P T
  il
an ta
at e
 memen uhi
r y
 men it
 M ad
ay at
- mas
 n ilai
 Ing gris
ir akan
w ak
at usan
 s uk
  ungg
 p usat
 b idang
 A ustr
 on line
T idak
 Pert amina
 d ampak
 U MKM
 PB B
 Gol kar
 M us
ist ik
 berd asarkan
an si
ew at
  z
  org
S ej
er l
 p oin
 W ali
t on
Menurut nya
 S er
 g en
 bi asa
 N ew
 H ukum
 pen uh
at uran
gr asi
  i
 dit angkap
 d r
  ut
 S umat
 Th e
 B B
 khusus nya
tum b
 B al
 pen er
c e
as s
in asi
 P P
 memper t
unc urkan
 kel uar
on e
1 00
 D it
 Pem ilihan
 G ar
gab ung
 m au
ay ar
am ar
e x
om o
 s umber
un uhan
um an
h e
 kon tr
stitu si
 t el
 b agaimana
 R ah
 g lobal
 t urun
ar ena
 M o
 dib anding
 sek arang
 posi tif
t asi
rat is
or n
 h onorer
 m aju
ik it
 R iau
it i
ism e
f ud
at us
  imb
 G ibran
e wa
w ar
 men ang
 S y
 AS N
aksan aan
ipt akan
 t ah
 men emukan
  and
 b anjir
ud uk
 o perasi
k ot
ud aya
 f asilitas
an ian
ib a
 O r
-mas ing
p ol
unj ung
 ker as
 g ubernur
unj ungan
A Y
 D ewan
  ist
 pengh argaan
 di tu
ik ian
 l embaga
 berm ain
" Saya
ah ter
 g er
 p agi
 p ekerja
 t ambah
ind ungan
 kek erasan
er ensi
 S E
 M a
 un it
ungg u
 Per juangan
 komp et
en s
 t otal
 l aut
 ant aranya
 Ut ama
I tu
ogy akarta
 w isata
 set empat
am u
 h ampir
o f
amp ing
 PDI P
 t epat
ur ah
 per h
awas lu
 In s
ungk inan
 R aya
 pas ukan
MK G
as h
 P ar
uh kan
 N ur
ot el
iz in
AR A
tumb uhan
  engg
 D unia
 dan a
 lap angan
 mas ing
el ang
am il
 n aik
ah as
 teg as
 B esar
od o
an tikan
 ter n
c o
 p idana
 s eri
on a
 Y ogyakarta
adw al
b ali
" M
 per an
 meny ebabkan
im an
unc ul
ak aran
 K omp
 M ak
  imp
ind ak
 Austr alia
p ons
ak atan
 Rep ublik
ent er
ub uh
 ber ita
ur at
 I m
 n amun
 menjel ang
 ek sp
 m om
us ung
  id
 b eb
at asi
 pem ilih
k i
3 5
isti wa
AY A
 k an
 s ipil
ek erjaan
end ah
w i
 sep anjang
ant angan
 k il
 G edung
 menyebut kan
K ed
 S al
aj ib
 pelangg aran
u arkan
am ai
 dis el
 memperk uat
g g
 U U
 en ergi
j id
 t urut
 men arik
 l intas
-n egara
ump ang
  angka
t h
uj i
 pr ak
 man usia
A I
j uan
 R umah
 j alur
- orang
l et
 b ur
 per si
  ik
m ar
 S a
A L
 l okal
 f okus
Per t
 meng ur
 Y o
el apan
 berb eda
 B udi
m al
 m at
 kar ya
 h ar
egaw ai
4 5
 t angan
 P l
ej ahter
  ev
 t api
 menghad irkan
 DPR D
ro v
ateg is
 m udah
 k ualitas
ag angan
eg ah
 ben ar
 s isi
 C alon
ok rat
entu kan
 Jok o
 sed ikit
 Per d
 bert emu
t e
 menc ari
i un
er ita
 dem ikian
 ter tu
 kem ungkinan
Pr esiden
ol i
 n arkoba
amb ahan
 bel ak
in e
 D i
 kem arin
ar ti
 men ekan
ut ip
 menc iptakan
ist an
l emen
  gag
o perasi
 D r
 Muh ammad
 tuj uan
 t arget
 di had
r al
 t ugas
 keterangan nya
 meng ak
 dem i
 perk ara
ret aris
 Kes ehatan
 terd apat
 peng alaman
Sebelum nya
us ak
 ke uangan
 j abatan
- S
 f ak
 m uncul
 ak ses
 dik etahui
 sen i
 s is
et n
l is
 pel aksanaan
 man faat
  ajang
 N at
 S M
er at
ing atan
er it
 as ing
  ob
I I
 tutur nya
 Wid odo
 el ek
 ber at
 pemb unuhan
 Ang g
A r
on f
 L e
p ada
 peng embangan
 bi cara
ud ik
ib uan
 ment eri
us t
eb ar
or k
 r uang
In d
 is u
 d ini
 L uar
 kec elakaan
am anya
un uh
 T ang
ep as
ad er
 B ek
in erja
K S
m ent
D irektur
 per tumbuhan
 E d
edi akan
 m ed
ib ur
 Mal ang
 ucap nya
 il egal
n a
 g una
 d ar
 B idang
 B AN
eg ini
 l uas
 r encana
 Sumat era
u ali
il ip
emb angkan
ril iun
k l
 p utusan
 pes awat
er o
en tuk
il a
 mel aksanakan
os ok
 bern ama
 Ac eh
 meng umumkan
- r
em i
 S i
ent ingan
 Pil pres
ustr asi
 dih arapkan
 org anisasi
y an
 t iba
w as
 p anjang
 t ubuh
 H as
es s
 em as
 R ak
ort asi
as e
  api
 S UR
b ar
ab ak
 D PP
 pen gaw
ati onal
 diper k
oordin asi
w ard
i al
engg arakan
an nya
 Dem okrat
 Tang erang
  ali
 K ed
 mel ibatkan
ad akan
il l
 B o
 M ul
 ap akah
 Ab dul
arn o
PN N
ag us
 peny akit
 at uran
 tangg al
or um
isi ko
s u
si st
 p angan
arta wan
 al asan
 B ar
 mem impin
 kep olisian
 E m
enc an
AB AYA
 SUR ABAYA
T ARA
c k
 m akin
 P SI
 k asih
 S l
 produk si
K arena
 t itik
ay u
unga i
ja u
untu t
b es
 H umas
 situ asi
 ali as
l eh
 B RI
and ar
 peng el
 ser ing
er ti
anj a
ung utan
ay ang
y u
 s amb
 t antangan
 B UM
et ik
 terl ihat
M enteri
l asi
 pel uang
 al at
U NG
 b angsa
truk tur
k um
 pro yek
 G us
 S u
 pengg una
 b udaya
 s idang
 b es
c aman
z i
 k unjungan
 r ut
 pers onel
Pen y
 diter ima
anj ian
 p ilihan
 terb esar
y anto
 ber w
 R S
 L aut
 l ewat
 G ro
 Ar ab
 dim ulai
it asi
ic u
arn a
ar asi
 R af
ir m
 mel anjutkan
 p ed
 pen da
 Pend idikan
 dibanding kan
 B el
 dik enal
b ul
ak wa
 kep entingan
. .
r aga
 K et
es aikan
 angg aran
 pro f
S D
utus kan
 pen dukung
 U s
 Kom bes
 S eb
 ber upa
 s ana
 b encana
K alau
el is
  usia
ik at
 ak un
 tran sp
a il
 berkom itmen
p en
ad ar
angk aian
 engg ak
M eski
 Is lam
 berk el
 beras al
 tok oh
 S D
 pen elit
 b adan
ab uhan
 sur vei
 konf lik
 mengaj ak
ujud kan
  arah
 tuj uh
  ot
 b ola
 ak tif
aku asi
 M eng
 t riliun
and i
 sel eksi
 T el
O leh
q u
3 6
O G
 s emb
 P a
imp i
 str ategis
egi atan
KB P
r ah
ant aran
 pel ayanan
 K erja
alah kan
 musi k
" B
G P
K om
en tikan
 J o
 R e
 H al
anj i
 M el
 ar ea
 K er
 K ap
 N as
anjut nya
Ber d
 konf erensi
wak ilan
 l ahan
D an
ur ahan
 L ampung
 Kal im
k amah
at form
 M and
ur angan
 seh at
 jelas nya
" T
 A KBP
ind ra
 Pal embang
 K an
 R id
at as
 in vestasi
b adi
 s ig
ek tif
 B ah
 terb uka
ons umsi
 dil aksanakan
 pro vinsi
ni f
 dil aporkan
 Pro f
il ah
 T ran
 tind ak
 op tim
 b abak
 l uka
ta gram
g ub
 s ang
 N g
 Pro gram
 pen umpang
 f inal
ag am
faat kan
e ja
 s ah
 O l
I N
angk apan
onal d
en j
 penj ara
 Bek asi
er ai
 p ekerjaan
 n y
 S ud
 g ratis
 penting nya
 t eman
 pengg unaan
 Met ro
 form asi
J ika
 di anggap
ol aan
ant ung
s or
 P ul
P olisi
 M er
 p op
as anya
 l atihan
ir asi
  art
I l
 A F
 ber usaha
ant ik
as aran
t y
ol id
 Nus antara
 men urun
 g el
 DP D
 t ua
 ak tivitas
emu i
 Kor upsi
 tern yata
 BUM N
 P at
ur us
anc is
 terd iri
 BAN D
k ab
 S am
 samp ah
 M in
ep atan
 s olusi
ek onom
ind ungi
an on
 k inerja
 B awaslu
 ber upaya
or d
 J erman
 D ip
 L ap
 An ak
ft aran
ting gi
ekonom ian
in j
 P N
ew askan
ont on
 penda ftaran
 t ampak
 men olak
 meng ungkap
ilip ina
u ad
 m ata
ay sia
 B at
ro duk
T B
yar at
 perd ana
 di si
Seb agai
 gen erasi
O R
er g
ay ak
 bertu juan
 b iaya
at egi
 t ampil
m at
 men angkap
 Peng adilan
amping i
 A t
 An t
 Pol isi
ut h
 i alah
 s ini
 w artawan
angg ar
si den
3 8
 per istiwa
aj emen
 o per
 Kalim antan
 B l
amp uan
 sem angat
 dit etapkan
 penyel idikan
ab es
aw atan
aw arkan
 jar ingan
ar m
 s up
 l antaran
 kes el
ac a
fr as
d y
am en
 belak ang
 s ulit
es an
um a
and atangan
 ap likasi
 P ember
ik et
is ah
 D ig
itu r
 S ing
 E ri
 dem okrasi
T T
s en
as inya
on is
 kem atian
or an
 hak im
 D ir
ti b
nif ikan
 b us
ti an
ia ga
PN S
 Mas yarakat
 per g
end er
 pert ahanan
 as p
ali si
 pel atih
 hukum an
 p impinan
eb asan
 kep em
PB D
 ke per
 pet ani
 sis wa
an usi
 pas lon
 memen angkan
ejahter aan
 J adi
 sel atan
b aru
 an caman
 Ger indra
w edan
 l eg
ari f
 Ins tagram
 m eskipun
ut ri
 r atusan
ju alan
  ed
 Pr ancis
 Pas al
3 4
3 7
 sig nifikan
  ib
 l agu
 si apa
irm asi
I s
j ateng
 A f
 r ingan
 komun itas
w il
 kel as
 ter h
 in f
 meny ediakan
 sk or
oordin ator
 perh atian
5 00
es tiv
 Put ih
 Bas wedan
ul us
 Leb anon
i wa
 d asar
 P ur
 I l
 t entu
 meng etahui
 R iz
ant asan
 H AM
 menc egah
 menghad iri
 kol aborasi
fras truktur
j uk
 menj abat
tr a
Pel atih
un ikasi
og ja
 per ingatan
 j udi
 menjalan kan
 ken aikan
 Ram adan
ul er
ik ap
ateg ori
  ulang
- c
L ebih
M el
u y
 j ajaran
 F ilipina
 dik utip
tif ikasi
 BAND UNG
S em
in aan
 T enggara
amp ilan
ent ar
st em
 pes an
 Mah kamah
estiv al
l a
r ed
P D
 kes ep
ap atan
 meng irim
end ara
p o
 p at
 J PNN
enar nya
3 2
uk aan
Il ustrasi
 S erang
 n on
int ang
 pas ti
ustr u
  olah
 dok ter
Y ang
 j uara
 Ke uangan
 g ug
ac k
6 0
 memb utuhkan
 E x
 mengur angi
  angk
H asil
 D is
 r apat
 Mal aysia
 perb atasan
tu p
 in ovasi
adi si
ank si
 T PS
 Ind ia
Berd asarkan
 Pr am
 pl atform
- R
ah a
 kek uatan
 gag al
  izin
 mem utuskan
 mel uncurkan
aj elis
P I
 s il
 berkel anjutan
l o
is an
ta f
 O n
K PU
 ter ima
an ita
kan d
or a
ud al
r en
 men ewaskan
 W arga
 kem ampuan
 Pil gub
ev el
kum ham
P AS
 p egawai
un da
 P aris
arus nya
Pem erintah
d angan
iaya an
ur uan
ir ing
emp a
 sp esi
 Intern asional
  gab
 b oleh
 d elapan
 M K
 M oto
 r em
 C o
 v s
c ak
 s in
al ih
 K O
 M il
 peny idik
 T ekn
 mer es
as akan
 men unggu
impi ade
 P KB
ek l
 E r
 Sur iah
K or
K emen
es in
 h ati
 b uah
Per s
 m inggu
 p os
 memb ahas
 dis k
 kons umen
as t
 A z
 T a
ung kan
aw esi
 mem an
inta an
ah atan
 H er
 beb as
art o
 menekan kan
 mengaj ukan
es ak
 T ai
 D ew
usi f
 mom en
 si ang
idup an
ol aborasi
ind o
 ap arat
 tah ap
  alam
 pul uhan
l os
 men etapkan
uk ur
ab um
C h
s h
u w
- H
h awat
w isata
angan an
19 9
s ama
z ah
 S us
 ter g
erb angan
 m aksi
 P asar
 N et
 Sul awesi
N A
 B ad
 kem anusi
 menc oba
engk ap
5 5
 men ik
ek at
 n eg
 S ri
e e
 k ader
ad em
Seb ab
es ai
 j adwal
 sej arah
anta u
 K a
it o
 D EN
 meny i
aj ukan
B eberapa
 men awarkan
tu di
eg r
 kemanusi aan
W akil
el ompok
 K apol
 ke tua
aks aan
 d er
 Un dang
 Ang k
ari kan
ong k
PAS AR
 DEN PASAR
it kan
ab in
- undang
 L a
abum ing
f a
 S tr
 ke w
 H ak
 Al i
 mengaku i
 Set i
 pri badi
 mengel uarkan
s on
 s a
 j ustru
ag ang
ig ran
 har apan
k es
n um
 Pen j
utur kan
 ist ri
 Rak abuming
" P
 d ebat
 men uturkan
ent asi
 Sa udi
 r eg
angan i
ati kan
j i
 bersi h
 suk ses
ab umi
 C enter
 II I
angg api
osi si
mi grasi
- B
M eng
it e
 I KN
 st atus
at uh
 s ub
ari wisata
 V i
 keb akaran
l ok
al agi
 b ay
 meng amankan
o alisi
 meng atasi
-b aru
 perc aya
 s ore
 b angunan
 h it
 meny ambut
 gab ungan
 k abupaten
 b agus
 T ak
 T ri
 kand idat
 berk embang
 din ilai
 meng embangkan
ud in
angg il
P O
T ak
ang in
 ber per
 mer ek
  ok
es u
 T ur
 r isiko
 ag ama
anc am
imb ulkan
abil a
 Gun ung
 m eski
 K ong
ik sa
 Intern ational
D ua
l or
l angga
 m eter
 s osok
ik si
ud din
 F ran
u e
 ter tinggi
K PK
y adi
 t ud
 B i
 ber gabung
ed ar
S eorang
 l og
 R aka
 kes ejahteraan
g o
s yah
 k alah
 menc atat
 l akukan
 I bu
 W ah
ant inya
min istr
om end
os k
amp i
asil kan
 Gro up
ik ir
 Band ara
3 3
ent ak
aj ah
any akan
 perk embangan
ak er
 M art
ai d
ir aan
o a
 M oh
ab ah
id a
 berb icara
ak up
is alnya
 v ir
-s ama
 Suk abumi
 menging atkan
o od
 men gaw
 C PNS
 pem ungutan
 T ol
up uk
ar jo
et an
 meny erang
Ket ika
 berg erak
c r
 k ategori
 berl aku
K egiatan
ap ak
om at
 pengel olaan
ad u
 sel esai
 terd ampak
 perl indungan
omend asi
 s al
 I dul
 r angka
amp anye
 mew ujudkan
 f or
 pemb er
o ur
ap resiasi
at uan
om eter
 l ah
 r ibuan
 dik el
 k abar
 b ek
 meny er
art emen
unj ungi
apai an
 diperk irakan
 R akyat
 mer ah
 an ti
 sep eda
S e
E O
il angan
 B ul
bul lah
J ok
b ud
 s y
ur unan
 in frastruktur
 n yata
anc e
tor at
 keh idupan
 bal ik
  arus
e or
t en
 p and
ai ran
 r endah
 pel atihan
 dib awa
 terd akwa
 pengaw asan
isi k
 prof esi
K ita
 j iwa
 seb enarnya
 tr uk
u gi
es ti
 t ambahan
 Pert ahanan
 Sum sel
O A
f ik
alu asi
 kl ub
ail and
U T
as itas
 P es
 sedang kan
 Th ailand
 min im
m p
 R ic
 berb asis
 meninggal kan
ar y
 h ilang
etu l
iz bullah
emb akan
 Kel urahan
 t umb
it ri
 pem ilik
emp rov
 seh arusnya
 p ajak
 in siden
 r el
m ati
 perd agangan
  ah
h ar
m cr
al in
 f oto
 Gr up
w ang
 p asi
end ik
 Rid wan
P ihak
 k re
 r udal
aw al
 pun cak
 C ar
uali fikasi
h asil
 s us
us akan
 M edan
 berp otensi
 menyi apkan
b on
ungg al
 pil kada
 BB C
E R
M as
 g elar
 peng ungsi
 min yak
 put ra
 kal angan
 kesep akatan
 ber akhir
um ur
aw apres
 W ilayah
 mel anggar
Sel ama
 M uda
 sek s
egaw ati
 Leb aran
 tertu lis
 Ol impiade
 d arah
ain kan
Pro gram
 Tai wan
S ep
t es
 P os
unc i
 terl alu
 d aftar
 di dukung
 S osial
es ang
 per awatan
 H otel
 pend uduk
 Ber k
if ah
r on
en alkan
 t iket
il lah
 A ward
 k ulit
 berd ampak
irim an
e ar
ag n
 memper ing
  ayah
Un dang
 tr adisi
 bur uk
 P ang
ent ang
 sel aku
 Sek retaris
 t ulis
ad inya
Ber ikut
Ind onesia
i ang
 ut ara
b aik
ah fud
 menyel esaikan
 Pemb angunan
 KO TA
et apan
ab ang
 mem icu
 seni or
etn am
 m itra
am aian
ev isi
ah ulu
il i
 K ara
 ber ikut
 A fr
ol d
 j angan
 g enc
ong sor
onf irmasi
 ah li
k ap
u el
an o
 P et
AS N
 str ategi
 Air langga
 meny erahkan
I M
en ag
 t ema
ing ton
ahan kan
 pemb el
 pak et
Sej umlah
 s yarat
 mend esak
at atan
 meny us
Ked ua
 K amil
end ag
-l aki
 seri us
 disel enggarakan
 B en
ic e
ula uan
 ungkap nya
 Tan ah
ass ar
 P ri
 D ok
idak nya
insi p
Jok owi
ar elawan
ay aran
ib uran
 rut in
t inya
un y
 P ekan
 maksi mal
B K
U U
in o
 s ikap
 D alam
omb ang
c ayaan
 s anksi
 k ri
ik in
 perm intaan
 tert entu
 ik lim
b er
 n et
 peng adilan
angg u
 menc etak
 aw ak
 pelangg an
 di ikuti
ed akan
 v isi
engg araan
 kej ahatan
 kompet isi
 s aling
 B h
 pen erbangan
ent itas
und ur
abr ik
4 8
 B any
enc e
al ik
 men ambah
ri g
 kur si
 Has to
 Ke amanan
 U l
ac am
ekan an
3 9
 gr am
 mel indungi
any i
 Tran s
 Vi etnam
 P adang
ag ub
eg ang
o alan
 meng apresiasi
anj ung
 menc akup
arget kan
k et
 m us
 men imbulkan
uas aan
 pan as
 Dew i
 Ch ampi
A cara
P A
 l aki
 in s
 pen anganan
 F orum
amb at
Is rael
 s abu
on tribusi
 Pr an
