{"\n":0," ":1,"!":2,"\"":3,"#":4,"$":5,"%":6,"&":7,"'":8,"(":9,")":10,"*":11,"+":12,",":13,"-":14,".":15,"/":16,"0":17,"1":18,"2":19,"3":20,"4":21,"5":22,"6":23,"7":24,"8":25,"9":26,":":27,";":28,"<":29,"=":30,">":31,"?":32,"@":33,"A":34,"B":35,"C":36,"D":37,"E":38,"F":39,"G":40,"H":41,"I":42,"J":43,"K":44,"L":45,"M":46,"N":47,"O":48,"P":49,"Q":50,"R":51,"S":52,"T":53,"U":54,"V":55,"W":56,"X":57,"Y":58,"Z":59,"[":60,"\\":61,"]":62,"_":63,"`":64,"a":65,"b":66,"c":67,"d":68,"e":69,"f":70,"g":71,"h":72,"i":73,"j":74,"k":75,"l":76,"m":77,"n":78,"o":79,"p":80,"q":81,"r":82,"s":83,"t":84,"u":85,"v":86,"w":87,"x":88,"y":89,"z":90,"£":91,"®":92,"°":93,"±":94,"²":95,"³":96,"µ":97,"·":98,"¼":99,"½":100,"Á":101,"Â":102,"Ä":103,"Ç":104,"É":105,"Ó":106,"Ö":107,"×":108,"Ü":109,"à":110,"á":111,"â":112,"ã":113,"ä":114,"ç":115,"è":116,"é":117,"ê":118,"ë":119,"ì":120,"í":121,"ï":122,"ð":123,"ñ":124,"ò":125,"ó":126,"ô":127,"õ":128,"ö":129,"ø":130,"ú":131,"ü":132,"Ā":133,"ā":134,"ć":135,"ę":136,"ğ":137,"İ":138,"ı":139,"ķ":140,"Ł":141,"ł":142,"ś":143,"ş":144,"š":145,"ơ":146,"ư":147,"́":148,"Α":149,"Η":150,"Τ":151,"α":152,"μ":153,"‍":154,"‎":155,"•":156,"′":157,"″":158,"⁠":159,"€":160,"™":161,"−":162,"≥":163,"丽":164,"安":165,"洪":166,"金":167,"陈":168,"🍌":169,"😊":170,"😭":171,"🤲":172,"an":173,"er":174,"en":175," d":176," m":177,"ar":178,"at":179," p":180,"ang":181,"ak":182,"in":183," s":184,"as":185,"al":186," k":187,"ah":188," t":189,".\n":190,"em":191," b":192,"am":193,"un":194," di":195,"el":196," men":197,"ad":198,"kan":199,"tu":200,"ya":201,"si":202," P":203,"ap":204,"on":205," y":206," S":207," yang":208,"eb":209,"il":210,"ga":211," K":212,"or":213," dan":214,"es":215,"ik":216,"eng":217,"is":218," ter":219,"ur":220,"ut":221," B":222," ber":223,"it":224," l":225,"ing":226,"us":227,"ek":228," A":229,"um":230,"et":231,"asi":232," M":233,"akan":234,"ol":235," meng":236,"ada":237,"ara":238,"ung":239," per":240,"uk":241,"ari":242,"emb":243,"ab":244,"nya":245," ke":246," (":247," J":248," h":249,"ai":250,"im":251," T":252," I":253,"om":254,"ul":255," D":256,"id":257,"20":258,"ir":259,"ta":260," j":261," in":262," R":263,"tuk":264," un":265,"alam":266,"202":267," se":268," untuk":269,"ud":270,"itu":271,"ih":272," pen":273," r":274,"engan":275,"ata":276,"ti":277,"ag":278,"aw":279,"up":280," dengan":281,"atan":282," mem":283,"angan":284,"eg":285," -":286," ini":287," dari":288,"adi":289,"esi":290,"ama":291,"ok":292,"ia":293," W":294," itu":295,"\",":296,"ro":297,"uh":298," dalam":299," pada":300,"ant":301,"ed":302," H":303," G":304," In":305," n":306,"ep":307," mel":308,"and":309,"aga":310," C":311,"ian":312,"aya":313," N":314," seb":315,"amp":316,"ukan":317,"ent":318," L":319," memb":320," mer":321,"ay":322," U":323,"ali":324,"ebut":325,"ri":326," menj":327,"per":328,"eh":329," g":330," ters":331,"idak":332," w":333," meny":334,"ub":335," pem":336,"eri":337,"aj":338,"ain":339," Ind":340," c":341,"isi":342,"alah":343,"elah":344,"aan":345,"uga":346," tidak":347,"ot":348,"wa":349,"angk":350,"end":351,"ua":352,").\n":353,"ib":354,"uan":355,"onesi":356," akan":357,"onesia":358," tersebut":359," peng":360," Indonesia":361," F":362,"ahan":363,"asa":364," kep":365,"emp":366,"agai":367,"aran":368,"uj":369,"nn":370,"amb":371,"aat":372,"pnn":373,"jpnn":374,"anj":375,"ota":376," juga":377,"ana":378," Per":379,"atakan":380,"com":381,"angg":382,"ati":383,".com":384," sel":385," WI":386," WIB":387,"tr":388,"usi":389," mend":390,"ahun":391," pro":392," bah":393,"akukan":394,"ami":395," mas":396,"int":397,"orang":398,"gi":399,"ob":400,"anya":401,"any":402," E":403,"alu":404," kata":405,"apat":406,"oleh":407,"ra":408,"agi":409," menjadi":410,"arga":411,"cara":412," Pr":413,"akar":414," f":415,"asan":416,"alan":417," mengatakan":418,"ja":419,"ungan":420,"ter":421,"had":422,"eka":423," saat":424,"ala":425,"isa":426," bahwa":427,"atu":428,"ika":429," sek":430,"da":431," ad":432," pel":433," ser":434," ak":435," sebagai":436,"ebih":437," oleh":438," telah":439,"ong":440,"ingk":441," ada":442," tahun":443,"ena":444,"ip":445,"itas":446,"apa":447,"os":448,"utu":449,"aman":450,"ni":451,"akarta":452,"yar":453," kar":454,"ew":455," kon":456," set":457,"udah":458," bisa":459,"api":460," dil":461," O":462,"egara":463," ket":464,"ita":465,"onal":466,"AR":467," ata":468,"ran":469,"00":470,"lah":471," kem":472,"aru":473,"ingga":474,"art":475," kepada":476," atau":477,"ingg":478,"ind":479,"inya":480,"asil":481," lebih":482," Ke":483," An":484,"akat":485,"ow":486,"aku":487,"res":488," mereka":489," pert":490," menc":491,"ungk":492,"ina":493," pemb":494," Jakarta":495," \"":496,"gr":497,"elum":498,"urut":499,"esar":500," orang":501,"eber":502,"den":503," satu":504," dis":505," sem":506," Sel":507,"yarakat":508," bers":509,"od":510,"aik":511," Pol":512," Y":513,"osi":514," sudah":515,"anyak":516,"op":517,"empat":518,"awa":519," karena":520," pers":521,"imp":522," dib":523,"erint":524," berk":525,"iri":526," kel":527,"erah":528,"erja":529," adalah":530,"TA":531," kes":532," dit":533," kami":534,"og":535," para":536,"iga":537," Kota":538," berb":539," peny":540," masyarakat":541,"apan":542," an":543,"orm":544," melakukan":545," Is":546,"ilik":547,"ember":548,"esiden":549,"abu":550,"asih":551,"ban":552," hari":553," pas":554," lain":555,"angs":556,"awan":557," uj":558,"atkan":559," sej":560," Pem":561,"ac":562,"arang":563,"ist":564,"oh":565,"uat":566,"aks":567,"hadap":568,"arkan":569,"ej":570,"ilih":571,"aikan":572,"arus":573,"umat":574,"AK":575,"10":576,"ini":577,"apkan":578," negara":579,"est":580," terhadap":581," mengg":582,"erikan":583,"ima":584,"omp":585," dik":586," memper":587," tet":588," at":589,"ikan":590," bagi":591," pr":592," terb":593,"asional":594,"erintah":595,"ic":596," dapat":597,"jadi":598," ujar":599," kor":600," dia":601,"arat":602,"enc":603,"ARTA":604,"AKARTA":605," Tim":606,"upat":607,"umlah":608,"ka":609,"Sel":610," secara":611,"uhan":612,"dang":613,"uran":614,"gram":615," hingga":616,"mas":617,"abupat":618,"abupaten":619,"duk":620," as":621,"amis":622,"engah":623,"umah":624," JAKARTA":625," v":626,"hir":627,"unj":628,"enin":629,"eberapa":630,"usah":631,"Men":632,"anjut":633,"upakan":634,"ensi":635,"ec":636,"ingan":637,"askan":638," V":639,"ihak":640,"perti":641,"),":642,"Dia":643," setelah":644,"ov":645," merupakan":646,"angat":647," pol":648,"angka":649,"12":650," Ch":651," dua":652,"usia":653," seperti":654,"antu":655,"ayah":656," baru":657,"PP":658," saya":659," Sur":660," keb":661,"ern":662,"ulan":663,"uka":664,"19":665," warga":666,"tua":667,"ement":668,"alon":669," masih":670," Kabupaten":671,"ses":672," pun":673," ag":674," harus":675," AS":676," dilakukan":677," ek":678,"AN":679,"11":680," beberapa":681," serta":682,"aerah":683,"asus":684,"emen":685,"tif":686," memberikan":687," Ag":688,"iliki":689,"ump":690,"era":691,"alui":692," anak":693," pend":694,"amun":695,"angsung":696,"ilan":697," banyak":698," ant":699,"anc":700,"uang":701,"ekan":702,"engg":703," Jawa":704,"ukum":705,"artai":706,"ayan":707," Am":708," Al":709,"rael":710,"itik":711,"st":712,"ilayah":713," Pro":714," korban":715," lalu":716," dip":717," hanya":718," atas":719," pihak":720,"olo":721," besar":722,"ikasi":723,"tor":724,"tur":725," berh":726," su":727,"di":728,"uah":729," Mar":730,"unan":731,"inan":732,"Per":733,"uar":734," dig":735," memiliki":736," rumah":737,"apor":738," bersama":739,"form":740,"ea":741,"inggu":742,"agian":743,"tikan":744,"owo":745," Pil":746," terjadi":747,"af":748,"uruh":749," tim":750," Bali":751," seh":752,"erangan":753," Pen":754,".jpnn":755," selama":756,"itar":757,"ig":758,"ting":759," baik":760," melalui":761," berl":762,"uc":763,"ev":764," sangat":765,"imb":766," Israel":767,"aksi":768,"unia":769,"embali":770,"ug":771,"ani":772,"ulai":773," Un":774," ker":775,"Menurut":776," salah":777,"ons":778," Ber":779," ked":780," kasus":781,"wan":782,"inta":783,"man":784," Ar":785,"15":786,"ilai":787," wak":788,"kait":789," wilayah":790,"angkan":791," Des":792,"elar":793," sen":794,"ikut":795,"iap":796," bert":797,"ei":798,"Kami":799,"pa":800," pemerintah":801,"ampaikan":802," DP":803,"edia":804,"abtu":805," Rp":806," Kom":807," Presiden":808," Band":809,"aja":810,"unakan":811,"gaw":812," kita":813," Rabu":814," mengh":815,"Namun":816," Senin":817," mil":818," Selasa":819,"au":820," sama":821," tent":822,"unc":823," al":824,"ahu":825," terl":826," tetapi":827,"umb":828,"lu":829," Barat":830,"abowo":831," ap":832," angg":833," Kep":834," terus":835," sebelum":836," kom":837,"oto":838," Kamis":839," dir":840," terkait":841," kembali":842,"isasi":843,"han":844,"utus":845,"adan":846,"utan":847," persen":848,"ihat":849," kek":850," sekitar":851,"Seb":852,"kr":853,"uda":854,"tern":855," kec":856," hal":857,"udi":858," meningk":859,"16":860," hukum":861,"unya":862," seluruh":863,"tri":864,"anto":865,"30":866,"ungg":867,"onom":868,"ij":869," mendapat":870,"ark":871," agar":872,"udian":873,"14":874," Prabowo":875,"az":876,"kada":877," berbagai":878,"arah":879," pern":880," did":881," sep":882,"17":883," pes":884," tak":885," tiga":886,"idikan":887," terd":888,"atih":889,"inggal":890,"lik":891,"atang":892,"omor":893," daerah":894,"erik":895,"mi":896,"amatan":897," o":898,"abat":899,"sp":900," Jumat":901," tan":902,"entu":903," hasil":904," PT":905,"uli":906,"epan":907,"ju":908,"upaya":909,"uru":910," program":911,"abar":912," menjel":913,"ahkan":914," sebuah":915," Selatan":916,"men":917,"PK":918,"yata":919," lainnya":920,"13":921," St":922,"masuk":923,"18":924,"egeri":925,"ukung":926,"etu":927,"if":928,"enteri":929,"ehatan":930," samp":931,"asar":932,"apai":933,"iz":934,"ubern":935,"ubernur":936,"usahaan":937," calon":938," dunia":939,"-b":940," menyebut":941," diper":942,"uari":943," produk":944,"21":945,"23":946,"sa":947,"uta":948,"und":949," belum":950,"air":951,"formasi":952,"tas":953,"osial":954," Ut":955,"ologi":956," pertama":957," antara":958," Ketua":959,"ersi":960,"abaya":961," tentang":962," RI":963,"ilu":964,"aris":965,"anti":966," sedang":967," Ap":968," ses":969,"erian":970,"li":971," Ter":972,"inggi":973," Surabaya":974,"utama":975,"ank":976," kerja":977,"ampak":978," penting":979,"ingin":980," menghad":981,"MK":982,"ef":983," res":984," dem":985," kh":986,"mad":987,"ayanan":988,"iter":989," Agus":990,"elas":991,"okasi":992," Bandung":993,"ril":994," membuat":995,"olah":996," semua":997,"idang":998,"ilihan":999," Peng":1000," termasuk":1001,"nas":1002,"ekerja":1003,"amanan":1004," Kor":1005,"alami":1006," sejumlah":1007," pelaku":1008," memas":1009," berj":1010," Timur":1011," berd":1012,"insi":1013,"atanya":1014," langsung":1015,"25":1016," st":1017,"araan":1018,"akin":1019,"\".\n":1020,"umum":1021,"impin":1022," Z":1023,"atif":1024,"ibat":1025,"re":1026," depan":1027,"Dalam":1028,"Saya":1029,"uas":1030,"akit":1031,"PU":1032,"ungkap":1033,"ual":1034," sejak":1035," berp":1036," man":1037,"akhir":1038," penc":1039,"usus":1040," Tengah":1041,"sia":1042,"antan":1043," bi":1044,"esk":1045," kedua":1046," anggota":1047,"unjuk":1048," terp":1049," katanya":1050,"Di":1051," a":1052,"tiv":1053,"anda":1054,"antor":1055," Pilkada":1056," kali":1057," mener":1058,"awat":1059," bagian":1060,"angunan":1061,"epat":1062," suara":1063," waktu":1064,"asis":1065," DPR":1066," seorang":1067,"istr":1068,"ibu":1069,"AS":1070,"aka":1071," dim":1072,"22":1073,"empuan":1074," Partai":1075," mendukung":1076," bulan":1077," Um":1078," Sem":1079," Kec":1080,"encana":1081," Minggu":1082," Th":1083," politik":1084," China":1085," Men":1086,"Selain":1087,"ono":1088," sehingga":1089,"uni":1090," pengg":1091,"ustr":1092,"aian":1093,"gas":1094,"ch":1095," As":1096," Sabtu":1097," Tr":1098," Pert":1099,"erika":1100," tempat":1101,"akil":1102," Pal":1103," mengaku":1104,"usat":1105,"arg":1106,"irek":1107," ya":1108,"erang":1109," serangan":1110," menyampaikan":1111," akhir":1112,"utusan":1113," kota":1114," Ok":1115,"atim":1116," mulai":1117,"201":1118,"ont":1119,"eksi":1120,"lin":1121,"ekn":1122,"awasan":1123,"24":1124,"aksan":1125," meningkatkan":1126,"din":1127," saja":1128," proses":1129," Jok":1130,"onomi":1131,"Pada":1132," perusahaan":1133,"PN":1134,"ompok":1135," lagi":1136,"ingkat":1137,"-s":1138,"oba":1139,"ober":1140," kons":1141,"emukan":1142," Mal":1143," ind":1144,"Ber":1145," aw":1146,"eo":1147," Menteri":1148," Pel":1149,"DI":1150,"engk":1151," ketika":1152,"ard":1153," bel":1154," [":1155," Mas":1156,"alau":1157," sosial":1158,"ublik":1159," menggunakan":1160," Nov":1161,"SI":1162," kamp":1163," Persi":1164," seg":1165," sur":1166," malam":1167," juta":1168,"arn":1169,"akni":1170," Pas":1171,"gaj":1172,"Pem":1173," Amerika":1174," kesehatan":1175,"uarga":1176," Sep":1177,"usaha":1178,"NI":1179,"otor":1180,"ukungan":1181,"Pen":1182,"vinsi":1183," menjelaskan":1184,"idup":1185,"egi":1186,"ort":1187,"oal":1188,"eral":1189," tinggi":1190," yakni":1191," media":1192,"obil":1193,"adir":1194,"tober":1195," Umum":1196," min":1197," pemain":1198," tetap":1199," bukan":1200,"antuan":1201," mengen":1202," Oktober":1203," kegi":1204,"perasi":1205,"In":1206,"una":1207,"alkan":1208,"abil":1209," kegiatan":1210," Uni":1211," ingin":1212," keterangan":1213,"upun":1214,"arap":1215," ma":1216,"aling":1217,"Hal":1218," diri":1219,"iv":1220,"ator":1221,"Ket":1222,"ementerian":1223," Polres":1224,"tus":1225," lanjut":1226," air":1227," Kecamatan":1228," ben":1229," masa":1230,"ukul":1231,"Un":1232,"usan":1233,"anjang":1234,"angkah":1235,"ko":1236,"rat":1237,"tar":1238,"aza":1239," tersangka":1240," berada":1241," upaya":1242,"inal":1243,"ca":1244," Rusia":1245," PPP":1246,"ers":1247,"angkap":1248,"27":1249," mendapatkan":1250," kemudian":1251," luar":1252,"owi":1253," masuk":1254," sekali":1255,"ukti":1256," sampai":1257,"ola":1258,"ahanan":1259," November":1260," apa":1261," sesu":1262,"aporan":1263," dih":1264,"ula":1265,"le":1266," presiden":1267," put":1268," mencapai":1269,"Ini":1270,"gab":1271," Gubernur":1272,"iran":1273," Jan":1274,"upsi":1275,"urn":1276," Juli":1277,"ingkungan":1278,"oy":1279,"apol":1280," sebelumnya":1281," Unit":1282,"000":1283,"tim":1284," khusus":1285,"-p":1286," makan":1287,"ambil":1288,"yat":1289," kur":1290," posi":1291," kond":1292," menunjuk":1293,"ibran":1294," Sh":1295," Semarang":1296,"ementara":1297," en":1298,"akal":1299,"itmen":1300,"?\n":1301," acara":1302," tran":1303," perempuan":1304," uc":1305," dukungan":1306," jelas":1307," Gaza":1308,"ogor":1309,"urkan":1310,"ungkin":1311," komp":1312," Mah":1313,"adilan":1314," Put":1315,"aki":1316,"uhi":1317," musi":1318," kawasan":1319,"irektur":1320,"versi":1321," kend":1322," Man":1323," Bogor":1324,"eda":1325,"jata":1326,"ilm":1327,"yah":1328,"ustri":1329,"Selasa":1330," penyel":1331,"orong":1332,"Mer":1333,"angi":1334," jalan":1335," pasangan":1336,"Sementara":1337," membantu":1338," jadi":1339," Utara":1340,"anye":1341," hak":1342," Ad":1343," nomor":1344," Agustus":1345," menyatakan":1346," Nasional":1347," pukul":1348," pengh":1349," mengalami":1350,"ital":1351,"ambah":1352,"utur":1353,"omb":1354," perk":1355," Juni":1356,"Pr":1357,"oc":1358," terakhir":1359," intern":1360,"itan":1361,"RI":1362,"erta":1363,"Rabu":1364,"endiri":1365," menunjukkan":1366,"tember":1367,"An":1368," bantuan":1369," memastikan":1370,"29":1371,"uatan":1372," Jalan":1373,"ayaan":1374,"28":1375,"emuan":1376," September":1377," jika":1378,"iar":1379,"Jumat":1380,"Kamis":1381," Tahun":1382,"ulang":1383,"eman":1384," lokasi":1385," Desember":1386,"awah":1387," Desa":1388," ekonomi":1389,"26":1390,"resi":1391,"ode":1392," Mei":1393," keluarga":1394,"ond":1395,"-k":1396,"olisi":1397,"awab":1398," PPPK":1399," gamb":1400,"ema":1401,"erj":1402,"angun":1403," meminta":1404,"ey":1405,"aut":1406," ucap":1407," jumlah":1408," berm":1409,"ateng":1410," Ang":1411," berlangsung":1412,"ebr":1413," din":1414," tengah":1415," kap":1416,"jen":1417,"ukai":1418,"to":1419,"isn":1420,"Foto":1421,"urun":1422," April":1423," meninggal":1424," berhasil":1425,"erb":1426," Januari":1427," Kementerian":1428,"aju":1429,"ubungan":1430,"faat":1431,"\"K":1432,"ulu":1433," si":1434," setiap":1435,"aporkan":1436," Negeri":1437,"otensi":1438,"ahui":1439,"Senin":1440," tr":1441,"umber":1442," str":1443," awal":1444,"oor":1445,"yataan":1446," memp":1447," mana":1448," laga":1449,"ebab":1450," maupun":1451," Ab":1452," United":1453," Polda":1454,"angga":1455," asal":1456," tind":1457,"ungkapkan":1458,"dul":1459,"edi":1460,"Kep":1461,"enangan":1462,"aim":1463,"Mereka":1464,"Set":1465,"\"Kami":1466," Dep":1467," rek":1468," Sub":1469," partai":1470," empat":1471,"]\n":1472,"isata":1473," ia":1474," ujarnya":1475," Kepala":1476," polisi":1477," soal":1478," melihat":1479," Sek":1480,"irkan":1481,"emu":1482,"av":1483," tekn":1484," sesuai":1485,"etahui":1486," pihaknya":1487," mobil":1488," kl":1489,"asarkan":1490," berharap":1491," sebesar":1492,"Ke":1493," perb":1494," Kal":1495,"ungi":1496,"ujan":1497,")\n":1498,"rasi":1499," Ak":1500,"KI":1501,"aih":1502,"ugaan":1503," resmi":1504,"ewan":1505," pernah":1506," menurut":1507,"embangan":1508," PDI":1509," memen":1510," pet":1511," kelompok":1512,"kar":1513,"-an":1514,"uangan":1515,"ulkan":1516,"upati":1517,"krain":1518," gambar":1519,"KB":1520," terk":1521,"ijakan":1522,"Jadi":1523,"kraina":1524," ungkap":1525," Sum":1526," militer":1527," sendiri":1528,"ura":1529," kondisi":1530," Badan":1531," bekerja":1532,"akyat":1533," tangg":1534,"andingan":1535," Maret":1536," sk":1537," Liga":1538," Universi":1539," Har":1540," Ah":1541," utama":1542," kr":1543,"unt":1544,"ikuti":1545," hadir":1546," nasional":1547," Ir":1548,"asiswa":1549," ar":1550,"istrik":1551," Hari":1552,"sel":1553," perd":1554,"erd":1555," Asia":1556," lingkungan":1557," informasi":1558," Kh":1559,"anjar":1560," laporan":1561,"etugas":1562,"ewas":1563,"upa":1564,"ampung":1565,"istem":1566," perj":1567,"iden":1568," tanpa":1569," Pi":1570," yaitu":1571," kendaraan":1572,"embaga":1573," adanya":1574,"imana":1575," perlu":1576," Daerah":1577," dek":1578,"08":1579," menjalan":1580,"-l":1581,"PS":1582," Jokowi":1583," Ukraina":1584,"Pel":1585," barang":1586,"ukup":1587,"angkat":1588,"egaw":1589,"abor":1590,"org":1591,"anding":1592,"07":1593,"-t":1594,"ateg":1595,"ejabat":1596,"arget":1597,"ade":1598," Wakil":1599," perm":1600," &":1601,"lim":1602," memperk":1603," menerima":1604,"ergi":1605,"eter":1606," bakal":1607," sebanyak":1608," Kel":1609,"Kem":1610," Provinsi":1611,"entara":1612,"aranya":1613," Timnas":1614,"ampu":1615,"onor":1616," Ham":1617," layanan":1618,"alaman":1619," X":1620,"PB":1621," Muh":1622," penj":1623,"sek":1624," keber":1625,"eta":1626,"agaimana":1627,"usai":1628," par":1629,"elit":1630," keamanan":1631,"impinan":1632," uang":1633," dugaan":1634,"alia":1635," mengungkapkan":1636,"adion":1637,"apun":1638," konf":1639,"\"S":1640,"iaya":1641,"idana":1642,"ez":1643," Sat":1644," mengenai":1645,"vest":1646,"ham":1647," Suk":1648," melawan":1649," tuj":1650," dirinya":1651," paling":1652,"Ad":1653,"irim":1654,"ANG":1655,"amat":1656,"embang":1657," membawa":1658,"aksanakan":1659," sat":1660,"erikat":1661," industri":1662,"ilang":1663," menggelar":1664,"udara":1665," dok":1666," kini":1667,"ris":1668," masalah":1669," umum":1670," pendidikan":1671,"enang":1672,"tik":1673,"ungsi":1674," Pemilu":1675,"31":1676," menjaga":1677,"atihan":1678,"50":1679,"erintahan":1680," kepala":1681," Serikat":1682,"umen":1683," perang":1684," TNI":1685,"ism":1686," mengaj":1687,"gag":1688," muda":1689," sp":1690,"ajar":1691," Korea":1692," Trump":1693," des":1694," menghadapi":1695,"edung":1696,"isnis":1697,"nies":1698,"hi":1699," pl":1700,"idik":1701," bawah":1702," pertandingan":1703,"utuhan":1704," berg":1705,"apres":1706," lima":1707," Den":1708," Sul":1709," Komisi":1710,"Ter":1711,"gus":1712," cukup":1713,"oni":1714,"fi":1715,"apua":1716," nama":1717,"uaca":1718,"09":1719," II":1720," Piala":1721,"Ia":1722," pembangunan":1723," Leb":1724,"alnya":1725,"Ketua":1726,"oordin":1727,"fr":1728," Iran":1729,"AM":1730," Air":1731," sementara":1732," segera":1733,"-anak":1734,"ha":1735," Dem":1736," surat":1737,"atian":1738," langkah":1739,"Pro":1740," KPU":1741," pelangg":1742,"estina":1743,"ori":1744," menyel":1745,"ret":1746," mah":1747," kampanye":1748," harga":1749,"antai":1750," urut":1751,"uara":1752,"intas":1753," mungkin":1754,"KN":1755,"Peng":1756,"stitu":1757," diter":1758," senjata":1759,"erjaan":1760," akibat":1761," sed":1762,"Ada":1763," situ":1764,"egal":1765," bukti":1766," of":1767," Pak":1768," negeri":1769,"Para":1770,"tum":1771,"iau":1772," data":1773,"uku":1774," keh":1775,"saan":1776,"200":1777,"angsa":1778,"anan":1779," Pusat":1780,"ubahan":1781," Papua":1782," digelar":1783," memang":1784," pernyataan":1785," kebijakan":1786," tutur":1787,"untu":1788," mampu":1789,"ira":1790,"-n":1791," Br":1792," berin":1793,"05":1794," meneg":1795," Pend":1796," op":1797,"utuh":1798," sekolah":1799," Stadion":1800,"elak":1801," So":1802," ken":1803," mantan":1804,"busi":1805,"Sabtu":1806," Anda":1807," sistem":1808," PB":1809," dij":1810," Pemb":1811," on":1812," internasional":1813,"Dengan":1814,"anten":1815," kebutuhan":1816,"uju":1817,"ualitas":1818,"sip":1819,"06":1820," '":1821," tingkat":1822," PS":1823," kol":1824," terj":1825," jam":1826,"atur":1827,"okus":1828," Universitas":1829," Din":1830,"-h":1831," Kes":1832,"aksa":1833,"agu":1834," em":1835,"icara":1836," Palestina":1837,"Kepala":1838,"AB":1839," pejabat":1840,"ulit":1841,"line":1842," pekan":1843,"umi":1844," lama":1845," siap":1846," Res":1847,"empatan":1848," And":1849," miliar":1850,"-G":1851,"eski":1852,"Setelah":1853," bal":1854," hidup":1855,"etapkan":1856," Pemerintah":1857,"Keterangan":1858," pemilu":1859," kal":1860,"eran":1861," milik":1862," Gol":1863,"argaan":1864,"ideo":1865,"adw":1866," datang":1867,"Saat":1868," Cukai":1869," bersi":1870," punya":1871," Solo":1872," Ek":1873," Kem":1874," Febr":1875," lap":1876,"min":1877," Kemen":1878,"juangan":1879," bern":1880,"eal":1881,"ell":1882,"edan":1883," mendorong":1884," sekaligus":1885,"alur":1886,"ambahkan":1887,"ebat":1888," En":1889,"ohon":1890,"arkoba":1891," mod":1892," int":1893,"eriksaan":1894,"pres":1895,"Untuk":1896,"ingkatan":1897," Peny":1898," makanan":1899,"yo":1900,"andang":1901,"enaga":1902," Polri":1903," hujan":1904," Ari":1905," Negara":1906," akhirnya":1907," Sp":1908,"enderal":1909,"unga":1910," Ahmad":1911," Set":1912," Ac":1913," diduga":1914," sakit":1915," bahkan":1916," Depok":1917,"enis":1918,"ibatkan":1919,"jadian":1920,"etak":1921," Wid":1922," publik":1923," wakil":1924,"arin":1925," mendatang":1926," tanah":1927,"ft":1928,"lob":1929,"amah":1930," motor":1931," pemerintahan":1932," pemimpin":1933," Pers":1934," aman":1935," KPK":1936,"engar":1937," Anies":1938," Februari":1939," el":1940,"arik":1941,"KP":1942,"oin":1943,"ongan":1944," kont":1945,"ianto":1946," Direktur":1947," Intern":1948,"truk":1949," menilai":1950," listrik":1951,"dukung":1952," Gr":1953," kejadian":1954," Jep":1955," pan":1956," mew":1957," Q":1958,"01":1959,"eorang":1960," ribu":1961,"onorer":1962,"lobal":1963," Ger":1964," digunakan":1965," Kantor":1966,"ma":1967,"anggung":1968," Ini":1969," guru":1970," cara":1971,"EN":1972,"04":1973,"atat":1974,"ambang":1975," menegaskan":1976," tert":1977," ditemukan":1978,"ampil":1979,"02":1980,"auh":1981,"sis":1982,"tivitas":1983,"ly":1984,"ammad":1985,"olusi":1986," menambahkan":1987,"uki":1988," perl":1989,"uanya":1990,"aborasi":1991," Bas":1992,"adaan":1993," pasar":1994," berjalan":1995,"amina":1996," beras":1997," menuju":1998," dic":1999," kalau":2000,"enar":2001,"erasan":2002," Keb":2003,"unaan":2004," kapal":2005,"enal":2006,"embak":2007,"anjir":2008," Sen":2009,"uti":2010," Ing":2011,"fikasi":2012,"isial":2013,"ity":2014,"uri":2015," teknologi":2016," Nomor":2017," Jatim":2018," ibu":2019," ment":2020,"ujud":2021,"enggara":2022," petugas":2023,"anisasi":2024,"egitu":2025,"ebabkan":2026," tewas":2027," DKI":2028," Ganjar":2029," Nus":2030,"Adapun":2031," peserta":2032," bisnis":2033," aksi":2034,"UR":2035,"okrasi":2036,"inc":2037,"olisian":2038,"MI":2039,"uasa":2040,"tan":2041," bat":2042," eks":2043,"lon":2044," pil":2045," sempat":2046," Hamas":2047,"iah":2048," peri":2049,"jo":2050,"/jpnn":2051,"ropa":2052,"erahkan":2053,"por":2054," pri":2055," komitmen":2056," Banten":2057," terutama":2058," sebagian":2059," pemeriksaan":2060,"aji":2061,"03":2062," meraih":2063," kantor":2064,"arian":2065," komun":2066,"otal":2067," terbaik":2068," tahu":2069,"alanan":2070,"Ap":2071," Met":2072," sektor":2073,"ipun":2074," semakin":2075,"Pas":2076," periode":2077,"eskipun":2078," diberikan":2079," Bupati":2080,"Minggu":2081,"erasi":2082," Jaya":2083,"adah":2084,"Kemudian":2085,"krim":2086,"oro":2087," Eropa":2088,"ajaran":2089,"antara":2090," rasa":2091," Gun":2092," perc":2093," musim":2094,"MKM":2095,"jatim":2096," berinisial":2097,"isk":2098," Subianto":2099," gol":2100," cepat":2101,"Sebelum":2102," Persib":2103,"Ak":2104," Jepang":2105," hubungan":2106,"-m":2107," potensi":2108,"lam":2109,"umas":2110," cuaca":2111,"abilitas":2112," korupsi":2113," teg":2114," pak":2115," selalu":2116,"ampir":2117,"anjutan":2118," mengikuti":2119,"adang":2120," ketiga":2121," membangun":2122,"okal":2123,"-M":2124,"Dari":2125," perubahan":2126," Ram":2127," Bank":2128," Bea":2129," digital":2130,"eli":2131," rakyat":2132,"ipil":2133," meningkat":2134,"ubah":2135,"jabar":2136,"arakan":2137,"ation":2138," disampaikan":2139,"resiasi":2140," tok":2141,"oritas":2142," Jenderal":2143," bertu":2144," Rep":2145,"enda":2146," gr":2147,"anjutkan":2148,"Pol":2149,"akah":2150,"ore":2151,"isti":2152,"olak":2153,"NG":2154,"ny":2155," berusia":2156,"ulasi":2157," keputusan":2158," Baru":2159," pemilihan":2160,"ambut":2161," Jabar":2162,"asilitas":2163," ef":2164," pertemuan":2165," usaha":2166," film":2167,"gris":2168," tindakan":2169,"amin":2170," Jateng":2171,"ogy":2172,"all":2173,"aftar":2174,"Sek":2175,"UM":2176,"yek":2177,"arta":2178,"bu":2179," memberi":2180,"ky":2181,"antas":2182," bentuk":2183," Kr":2184," FC":2185,"ela":2186,"anggap":2187," disebut":2188,"vestasi":2189,"okan":2190," mahasiswa":2191,"ho":2192,"ans":2193," kesempatan":2194," kemenangan":2195,"Al":2196," Biden":2197,"yak":2198,"AT":2199," mengel":2200,"atasan":2201," jar":2202," jauh":2203," peningkatan":2204," perjalanan":2205,"PR":2206,"idat":2207,"eks":2208,"40":2209," jenis":2210,"ach":2211," nanti":2212,"ajang":2213,"utup":2214,"ugas":2215," trans":2216," pul":2217," desa":2218,"atangan":2219," terc":2220,"umsi":2221," Tan":2222,"tribusi":2223,"elakaan":2224," ikut":2225," video":2226," terpilih":2227," terbaru":2228," Dinas":2229," dekat":2230,"ert":2231," Agung":2232," posisi":2233,"elawan":2234,"alahan":2235,"arapkan":2236,"ovasi":2237,"likasi":2238," memilih":2239," membuka":2240,"umumkan":2241," enam":2242,"-Gibran":2243," form":2244," bahan":2245," mengambil":2246," seusai":2247," El":2248,"utuhkan":2249," kuat":2250,"pasar":2251,"abr":2252," is":2253,"atar":2254,"erak":2255," kurang":2256," maka":2257,"awas":2258,"ayakan":2259,"Salah":2260," kand":2261,"onel":2262," satunya":2263," kecil":2264,"vei":2265," tinggal":2266," begitu":2267,"enti":2268," udara":2269," Kar":2270," daya":2271,"ulis":2272,"okok":2273,"ajak":2274," Sup":2275," Kon":2276," jawab":2277," menjalani":2278," Denpasar":2279,"uhnya":2280,"sipasi":2281," tenaga":2282," terlibat":2283,"itra":2284,"ipt":2285," Kej":2286,"abatan":2287," berkom":2288," pria":2289,"erman":2290,"alis":2291,"ilis":2292,"amankan":2293,"Tim":2294," merasa":2295," saksi":2296,"undang":2297,"apolres":2298," menging":2299," melaporkan":2300,"uf":2301," kej":2302,"PT":2303," il":2304,"anta":2305,"ate":2306," memenuhi":2307,"ry":2308," menit":2309," Mad":2310,"ayat":2311,"-mas":2312," nilai":2313," Inggris":2314,"irakan":2315,"wak":2316,"atusan":2317," suk":2318," ungg":2319," pusat":2320," bidang":2321," Austr":2322," online":2323,"Tidak":2324," Pertamina":2325," dampak":2326," UMKM":2327," PBB":2328," Golkar":2329," Mus":2330,"istik":2331," berdasarkan":2332,"ansi":2333,"ewat":2334," z":2335," org":2336,"Sej":2337,"erl":2338," poin":2339," Wali":2340,"ton":2341,"Menurutnya":2342," Ser":2343," gen":2344," biasa":2345," New":2346," Hukum":2347," penuh":2348,"aturan":2349,"grasi":2350," i":2351," ditangkap":2352," dr":2353," ut":2354," Sumat":2355," The":2356," BB":2357," khususnya":2358,"tumb":2359," Bal":2360," pener":2361,"ce":2362,"ass":2363,"inasi":2364," PP":2365," mempert":2366,"uncurkan":2367," keluar":2368,"one":2369,"100":2370," Dit":2371," Pemilihan":2372," Gar":2373,"gabung":2374," mau":2375,"ayar":2376,"amar":2377,"ex":2378,"omo":2379," sumber":2380,"unuhan":2381,"uman":2382,"he":2383," kontr":2384,"stitusi":2385," tel":2386," bagaimana":2387," Rah":2388," global":2389," turun":2390,"arena":2391," Mo":2392," dibanding":2393," sekarang":2394," positif":2395,"tasi":2396,"ratis":2397,"orn":2398," honorer":2399," maju":2400,"ikit":2401," Riau":2402,"iti":2403,"isme":2404,"fud":2405,"atus":2406," imb":2407," Gibran":2408,"ewa":2409,"war":2410," menang":2411," Sy":2412," ASN":2413,"aksanaan":2414,"iptakan":2415," tah":2416," menemukan":2417," and":2418," banjir":2419,"uduk":2420," operasi":2421,"kot":2422,"udaya":2423," fasilitas":2424,"anian":2425,"iba":2426," Or":2427,"-masing":2428,"pol":2429,"unjung":2430," keras":2431," gubernur":2432,"unjungan":2433,"AY":2434," Dewan":2435," ist":2436," penghargaan":2437," ditu":2438,"ikian":2439," lembaga":2440," bermain":2441,"\"Saya":2442,"ahter":2443," ger":2444," pagi":2445," pekerja":2446," tambah":2447,"indungan":2448," kekerasan":2449,"erensi":2450," SE":2451," Ma":2452," unit":2453,"unggu":2454," Perjuangan":2455," kompet":2456,"ens":2457," total":2458," laut":2459," antaranya":2460," Utama":2461,"Itu":2462,"ogyakarta":2463," wisata":2464," setempat":2465,"amu":2466," hampir":2467,"of":2468,"amping":2469," PDIP":2470," tepat":2471,"urah":2472," perh":2473,"awaslu":2474," Ins":2475,"ungkinan":2476," Raya":2477," pasukan":2478,"MKG":2479,"ash":2480," Par":2481,"uhkan":2482," Nur":2483,"otel":2484,"izin":2485,"ARA":2486,"tumbuhan":2487," engg":2488," Dunia":2489," dana":2490," lapangan":2491," masing":2492,"elang":2493,"amil":2494," naik":2495,"ahas":2496," tegas":2497," Besar":2498,"odo":2499,"antikan":2500," tern":2501,"co":2502," pidana":2503," seri":2504,"ona":2505," Yogyakarta":2506,"adwal":2507,"bali":2508,"\"M":2509," peran":2510," menyebabkan":2511,"iman":2512,"uncul":2513,"akaran":2514," Komp":2515," Mak":2516," imp":2517,"indak":2518," Australia":2519,"pons":2520,"akatan":2521," Republik":2522,"enter":2523,"ubuh":2524," berita":2525,"urat":2526," Im":2527," namun":2528," menjelang":2529," eksp":2530," mom":2531,"usung":2532," id":2533," beb":2534,"atasi":2535," pemilih":2536,"ki":2537,"35":2538,"istiwa":2539,"AYA":2540," kan":2541," sipil":2542,"ekerjaan":2543,"endah":2544,"wi":2545," sepanjang":2546,"antangan":2547," kil":2548," Gedung":2549," menyebutkan":2550,"Ked":2551," Sal":2552,"ajib":2553," pelanggaran":2554,"uarkan":2555,"amai":2556," disel":2557," memperkuat":2558,"gg":2559," UU":2560," energi":2561,"jid":2562," turut":2563," menarik":2564," lintas":2565,"-negara":2566,"umpang":2567," angka":2568,"th":2569,"uji":2570," prak":2571," manusia":2572,"AI":2573,"juan":2574," Rumah":2575," jalur":2576,"-orang":2577,"let":2578," bur":2579," persi":2580," ik":2581,"mar":2582," Sa":2583,"AL":2584," lokal":2585," fokus":2586,"Pert":2587," mengur":2588," Yo":2589,"elapan":2590," berbeda":2591," Budi":2592,"mal":2593," mat":2594," karya":2595," har":2596,"egawai":2597,"45":2598," tangan":2599," Pl":2600,"ejahter":2601," ev":2602," tapi":2603," menghadirkan":2604," DPRD":2605,"rov":2606,"ategis":2607," mudah":2608," kualitas":2609,"agangan":2610,"egah":2611," benar":2612," sisi":2613," Calon":2614,"okrat":2615,"entukan":2616," Joko":2617," sedikit":2618," Perd":2619," bertemu":2620,"te":2621," mencari":2622,"iun":2623,"erita":2624," demikian":2625," tertu":2626," kemungkinan":2627,"Presiden":2628,"oli":2629," narkoba":2630,"ambahan":2631," belak":2632,"ine":2633," Di":2634," kemarin":2635,"arti":2636," menekan":2637,"utip":2638," menciptakan":2639,"istan":2640,"lemen":2641," gag":2642,"operasi":2643," Dr":2644," Muhammad":2645," tujuan":2646," target":2647," dihad":2648,"ral":2649," tugas":2650," keterangannya":2651," mengak":2652," demi":2653," perkara":2654,"retaris":2655," Kesehatan":2656," terdapat":2657," pengalaman":2658,"Sebelumnya":2659,"usak":2660," keuangan":2661," jabatan":2662,"-S":2663," fak":2664," muncul":2665," akses":2666," diketahui":2667," seni":2668," sis":2669,"etn":2670,"lis":2671," pelaksanaan":2672," manfaat":2673," ajang":2674," Nat":2675," SM":2676,"erat":2677,"ingatan":2678,"erit":2679," asing":2680," ob":2681,"II":2682," tuturnya":2683," Widodo":2684," elek":2685," berat":2686," pembunuhan":2687," Angg":2688,"Ar":2689,"onf":2690," Le":2691,"pada":2692," pengembangan":2693," bicara":2694,"udik":2695,"ibuan":2696," menteri":2697,"ust":2698,"ebar":2699,"ork":2700," ruang":2701,"Ind":2702," isu":2703," dini":2704," Luar":2705," kecelakaan":2706,"amanya":2707,"unuh":2708," Tang":2709,"epas":2710,"ader":2711," Bek":2712,"inerja":2713,"KS":2714,"ment":2715,"Direktur":2716," pertumbuhan":2717," Ed":2718,"ediakan":2719," med":2720,"ibur":2721," Malang":2722," ucapnya":2723," ilegal":2724,"na":2725," guna":2726," dar":2727," Bidang":2728," BAN":2729,"egini":2730," luas":2731," rencana":2732," Sumatera":2733,"uali":2734,"ilip":2735,"embangkan":2736,"riliun":2737,"kl":2738," putusan":2739," pesawat":2740,"ero":2741,"entuk":2742,"ila":2743," melaksanakan":2744,"osok":2745," bernama":2746," Aceh":2747," mengumumkan":2748,"-r":2749,"emi":2750," Si":2751,"entingan":2752," Pilpres":2753,"ustrasi":2754," diharapkan":2755," organisasi":2756,"yan":2757," tiba":2758,"was":2759," panjang":2760," tubuh":2761," Has":2762,"ess":2763," emas":2764," Rak":2765,"ortasi":2766,"ase":2767," api":2768," SUR":2769,"bar":2770,"abak":2771," DPP":2772," pengaw":2773,"ational":2774," diperk":2775,"oordinasi":2776,"ward":2777,"ial":2778,"enggarakan":2779,"annya":2780," Demokrat":2781," Tangerang":2782," ali":2783," Ked":2784," melibatkan":2785,"adakan":2786,"ill":2787," Bo":2788," Mul":2789," apakah":2790," Abdul":2791,"arno":2792,"PNN":2793,"agus":2794," penyakit":2795," aturan":2796," tanggal":2797,"orum":2798,"isiko":2799,"su":2800,"sist":2801," pangan":2802,"artawan":2803," alasan":2804," Bar":2805," memimpin":2806," kepolisian":2807," Em":2808,"encan":2809,"ABAYA":2810," SURABAYA":2811,"TARA":2812,"ck":2813," makin":2814," PSI":2815," kasih":2816," Sl":2817," produksi":2818,"Karena":2819," titik":2820,"ayu":2821,"ungai":2822,"jau":2823,"untut":2824,"bes":2825," Humas":2826," situasi":2827," alias":2828,"leh":2829," BRI":2830,"andar":2831," pengel":2832," sering":2833,"erti":2834,"anja":2835,"ungutan":2836,"ayang":2837,"yu":2838," samb":2839," tantangan":2840," BUM":2841,"etik":2842," terlihat":2843,"Menteri":2844,"lasi":2845," peluang":2846," alat":2847,"UNG":2848," bangsa":2849,"truktur":2850,"kum":2851," proyek":2852," Gus":2853," Su":2854," pengguna":2855," budaya":2856," sidang":2857," bes":2858,"caman":2859,"zi":2860," kunjungan":2861," rut":2862," personel":2863,"Peny":2864," diterima":2865,"anjian":2866," pilihan":2867," terbesar":2868,"yanto":2869," berw":2870," RS":2871," Laut":2872," lewat":2873," Gro":2874," Arab":2875," dimulai":2876,"itasi":2877,"icu":2878,"arna":2879,"arasi":2880," Raf":2881,"irm":2882," melanjutkan":2883," ped":2884," penda":2885," Pendidikan":2886," dibandingkan":2887," Bel":2888," dikenal":2889,"bul":2890,"akwa":2891," kepentingan":2892,"..":2893,"raga":2894," Ket":2895,"esaikan":2896," anggaran":2897," prof":2898,"SD":2899,"utuskan":2900," pendukung":2901," Us":2902," Kombes":2903," Seb":2904," berupa":2905," sana":2906," bencana":2907,"Kalau":2908,"elis":2909," usia":2910,"ikat":2911," akun":2912," transp":2913,"ail":2914," berkomitmen":2915,"pen":2916,"adar":2917,"angkaian":2918," enggak":2919,"Meski":2920," Islam":2921," berkel":2922," berasal":2923," tokoh":2924," SD":2925," penelit":2926," badan":2927,"abuhan":2928," survei":2929," konflik":2930," mengajak":2931,"ujudkan":2932," arah":2933," tujuh":2934," ot":2935," bola":2936," aktif":2937,"akuasi":2938," Meng":2939," triliun":2940,"andi":2941," seleksi":2942," Tel":2943,"Oleh":2944,"qu":2945,"36":2946,"OG":2947," semb":2948," Pa":2949,"impi":2950," strategis":2951,"egiatan":2952,"KBP":2953,"rah":2954,"antaran":2955," pelayanan":2956," Kerja":2957,"alahkan":2958," musik":2959,"\"B":2960,"GP":2961,"Kom":2962,"entikan":2963," Jo":2964," Re":2965," Hal":2966,"anji":2967," Mel":2968," area":2969," Ker":2970," Kap":2971," Nas":2972,"anjutnya":2973,"Berd":2974," konferensi":2975,"wakilan":2976," lahan":2977,"Dan":2978,"urahan":2979," Lampung":2980," Kalim":2981,"kamah":2982,"atform":2983," Mand":2984,"urangan":2985," sehat":2986," jelasnya":2987,"\"T":2988," AKBP":2989,"indra":2990," Palembang":2991," Kan":2992," Rid":2993,"atas":2994," investasi":2995,"badi":2996," sig":2997,"ektif":2998," Bah":2999," terbuka":3000,"onsumsi":3001," dilaksanakan":3002," provinsi":3003,"nif":3004," dilaporkan":3005," Prof":3006,"ilah":3007," Tran":3008," tindak":3009," optim":3010," babak":3011," luka":3012,"tagram":3013,"gub":3014," sang":3015," Ng":3016," Program":3017," penumpang":3018," final":3019,"agam":3020,"faatkan":3021,"eja":3022," sah":3023," Ol":3024,"IN":3025,"angkapan":3026,"onald":3027,"enj":3028," penjara":3029," Bekasi":3030,"erai":3031," pekerjaan":3032," ny":3033," Sud":3034," gratis":3035," pentingnya":3036," teman":3037," penggunaan":3038," Metro":3039," formasi":3040,"Jika":3041," dianggap":3042,"olaan":3043,"antung":3044,"sor":3045," Pul":3046,"Polisi":3047," Mer":3048," pop":3049,"asanya":3050," latihan":3051,"irasi":3052," art":3053,"Il":3054," AF":3055," berusaha":3056,"antik":3057,"asaran":3058,"ty":3059,"olid":3060," Nusantara":3061," menurun":3062," gel":3063," DPD":3064," tua":3065," aktivitas":3066,"emui":3067," Korupsi":3068," ternyata":3069," BUMN":3070," Pat":3071,"urus":3072,"ancis":3073," terdiri":3074," BAND":3075,"kab":3076," Sam":3077," sampah":3078," Min":3079,"epatan":3080," solusi":3081,"ekonom":3082,"indungi":3083,"anon":3084," kinerja":3085," Bawaslu":3086," berupaya":3087,"ord":3088," Jerman":3089," Dip":3090," Lap":3091," Anak":3092,"ftaran":3093,"tinggi":3094,"ekonomian":3095,"inj":3096," PN":3097,"ewaskan":3098,"onton":3099," pendaftaran":3100," tampak":3101," menolak":3102," mengungkap":3103,"ilipina":3104,"uad":3105," mata":3106,"aysia":3107," Bat":3108,"roduk":3109,"TB":3110,"yarat":3111," perdana":3112," disi":3113,"Sebagai":3114," generasi":3115,"OR":3116,"erg":3117,"ayak":3118," bertujuan":3119," biaya":3120,"ategi":3121," tampil":3122,"mat":3123," menangkap":3124," Pengadilan":3125,"ampingi":3126," At":3127," Ant":3128," Polisi":3129,"uth":3130," ialah":3131," sini":3132," wartawan":3133,"anggar":3134,"siden":3135,"38":3136," peristiwa":3137,"ajemen":3138," oper":3139," Kalimantan":3140," Bl":3141,"ampuan":3142," semangat":3143," ditetapkan":3144," penyelidikan":3145,"abes":3146,"awatan":3147,"awarkan":3148," jaringan":3149,"arm":3150," sup":3151," lantaran":3152," kesel":3153,"aca":3154,"fras":3155,"dy":3156,"amen":3157," belakang":3158," sulit":3159,"esan":3160,"uma":3161,"andatangan":3162," aplikasi":3163," Pember":3164,"iket":3165,"isah":3166," Dig":3167,"itur":3168," Sing":3169," Eri":3170," demokrasi":3171,"TT":3172,"sen":3173,"asinya":3174,"onis":3175," kematian":3176,"oran":3177," hakim":3178," Dir":3179,"tib":3180,"nifikan":3181," bus":3182,"tian":3183,"iaga":3184,"PNS":3185," Masyarakat":3186," perg":3187,"ender":3188," pertahanan":3189," asp":3190,"alisi":3191," pelatih":3192," hukuman":3193," pimpinan":3194,"ebasan":3195," kepem":3196,"PBD":3197," keper":3198," petani":3199," siswa":3200,"anusi":3201," paslon":3202," memenangkan":3203,"ejahteraan":3204," Jadi":3205," selatan":3206,"baru":3207," ancaman":3208," Gerindra":3209,"wedan":3210," leg":3211,"arif":3212," Instagram":3213," meskipun":3214,"utri":3215," ratusan":3216,"jualan":3217," ed":3218," Prancis":3219," Pasal":3220,"34":3221,"37":3222," signifikan":3223," ib":3224," lagu":3225," siapa":3226,"irmasi":3227,"Is":3228,"jateng":3229," Af":3230," ringan":3231," komunitas":3232,"wil":3233," kelas":3234," terh":3235," inf":3236," menyediakan":3237," skor":3238,"oordinator":3239," perhatian":3240,"500":3241,"estiv":3242," Putih":3243," Baswedan":3244,"ulus":3245," Lebanon":3246,"iwa":3247," dasar":3248," Pur":3249," Il":3250," tentu":3251," mengetahui":3252," Riz":3253,"antasan":3254," HAM":3255," mencegah":3256," menghadiri":3257," kolaborasi":3258,"frastruktur":3259,"juk":3260," menjabat":3261,"tra":3262,"Pelatih":3263,"unikasi":3264,"ogja":3265," peringatan":3266," judi":3267," menjalankan":3268," kenaikan":3269," Ramadan":3270,"uler":3271,"ikap":3272,"ategori":3273," ulang":3274,"-c":3275,"Lebih":3276,"Mel":3277,"uy":3278," jajaran":3279," Filipina":3280," dikutip":3281,"tifikasi":3282," BANDUNG":3283,"Sem":3284,"inaan":3285," Tenggara":3286,"ampilan":3287,"entar":3288,"stem":3289," pesan":3290," Mahkamah":3291,"estival":3292,"la":3293,"red":3294,"PD":3295," kesep":3296,"apatan":3297," mengirim":3298,"endara":3299,"po":3300," pat":3301," JPNN":3302,"enarnya":3303,"32":3304,"ukaan":3305,"Ilustrasi":3306," Serang":3307," non":3308,"intang":3309," pasti":3310,"ustru":3311," olah":3312," dokter":3313,"Yang":3314," juara":3315," Keuangan":3316," gug":3317,"ack":3318,"60":3319," membutuhkan":3320," Ex":3321," mengurangi":3322," angk":3323,"Hasil":3324," Dis":3325," rapat":3326," Malaysia":3327," perbatasan":3328,"tup":3329," inovasi":3330,"adisi":3331,"anksi":3332," TPS":3333," India":3334,"Berdasarkan":3335," Pram":3336," platform":3337,"-R":3338,"aha":3339," kekuatan":3340," gagal":3341," izin":3342," memutuskan":3343," meluncurkan":3344,"ajelis":3345,"PI":3346," sil":3347," berkelanjutan":3348,"lo":3349,"isan":3350,"taf":3351," On":3352,"KPU":3353," terima":3354,"anita":3355,"kand":3356,"ora":3357,"udal":3358,"ren":3359," menewaskan":3360," Warga":3361," kemampuan":3362," Pilgub":3363,"evel":3364,"kumham":3365,"PAS":3366," pegawai":3367,"unda":3368," Paris":3369,"arusnya":3370,"Pemerintah":3371,"dangan":3372,"iayaan":3373,"uruan":3374,"iring":3375,"empa":3376," spesi":3377," Internasional":3378," gab":3379," boleh":3380," delapan":3381," MK":3382," Moto":3383," rem":3384," Co":3385," vs":3386,"cak":3387," sin":3388,"alih":3389," KO":3390," Mil":3391," penyidik":3392," Tekn":3393," meres":3394,"asakan":3395," menunggu":3396,"impiade":3397," PKB":3398,"ekl":3399," Er":3400," Suriah":3401,"Kor":3402,"Kemen":3403,"esin":3404," hati":3405," buah":3406,"Pers":3407," minggu":3408," pos":3409," membahas":3410," disk":3411," konsumen":3412,"ast":3413," Az":3414," Ta":3415,"ungkan":3416,"awesi":3417," meman":3418,"intaan":3419,"ahatan":3420," Her":3421," bebas":3422,"arto":3423," menekankan":3424," mengajukan":3425,"esak":3426," Tai":3427," Dew":3428,"usif":3429," momen":3430," siang":3431,"idupan":3432,"olaborasi":3433,"indo":3434," aparat":3435," tahap":3436," alam":3437," puluhan":3438,"los":3439," menetapkan":3440,"ukur":3441,"abum":3442,"Ch":3443,"sh":3444,"uw":3445,"-H":3446,"hawat":3447,"wisata":3448,"anganan":3449,"199":3450,"sama":3451,"zah":3452," Sus":3453," terg":3454,"erbangan":3455," maksi":3456," Pasar":3457," Net":3458," Sulawesi":3459,"NA":3460," Bad":3461," kemanusi":3462," mencoba":3463,"engkap":3464,"55":3465," menik":3466,"ekat":3467," neg":3468," Sri":3469,"ee":3470," kader":3471,"adem":3472,"Sebab":3473,"esai":3474," jadwal":3475," sejarah":3476,"antau":3477," Ka":3478,"ito":3479," DEN":3480," menyi":3481,"ajukan":3482,"Beberapa":3483," menawarkan":3484,"tudi":3485,"egr":3486," kemanusiaan":3487,"Wakil":3488,"elompok":3489," Kapol":3490," ketua":3491,"aksaan":3492," der":3493," Undang":3494," Angk":3495,"arikan":3496,"ongk":3497,"PASAR":3498," DENPASAR":3499,"itkan":3500,"abin":3501,"-undang":3502," La":3503,"abuming":3504,"fa":3505," Str":3506," kew":3507," Hak":3508," Ali":3509," mengakui":3510," Seti":3511," pribadi":3512," mengeluarkan":3513,"son":3514," sa":3515," justru":3516,"agang":3517,"igran":3518," harapan":3519,"kes":3520,"num":3521," Penj":3522,"uturkan":3523," istri":3524," Rakabuming":3525,"\"P":3526," debat":3527," menuturkan":3528,"entasi":3529," Saudi":3530," reg":3531,"angani":3532,"atikan":3533,"ji":3534," bersih":3535," sukses":3536,"abumi":3537," Center":3538," III":3539,"anggapi":3540,"osisi":3541,"migrasi":3542,"-B":3543,"Meng":3544,"ite":3545," IKN":3546," status":3547,"atuh":3548," sub":3549,"ariwisata":3550," Vi":3551," kebakaran":3552,"lok":3553,"alagi":3554," bay":3555," mengamankan":3556,"oalisi":3557," mengatasi":3558,"-baru":3559," percaya":3560," sore":3561," bangunan":3562," hit":3563," menyambut":3564," gabungan":3565," kabupaten":3566," bagus":3567," Tak":3568," Tri":3569," kandidat":3570," berkembang":3571," dinilai":3572," mengembangkan":3573,"udin":3574,"anggil":3575,"PO":3576,"Tak":3577,"angin":3578," berper":3579," merek":3580," ok":3581,"esu":3582," Tur":3583," risiko":3584," agama":3585,"ancam":3586,"imbulkan":3587,"abila":3588," Gunung":3589," meski":3590," Kong":3591,"iksa":3592," International":3593,"Dua":3594,"lor":3595,"langga":3596," meter":3597," sosok":3598,"iksi":3599,"uddin":3600," Fran":3601,"ue":3602," tertinggi":3603,"KPK":3604,"yadi":3605," tud":3606," Bi":3607," bergabung":3608,"edar":3609,"Seorang":3610," log":3611," Raka":3612," kesejahteraan":3613,"go":3614,"syah":3615," kalah":3616," mencatat":3617," lakukan":3618," Ibu":3619," Wah":3620,"antinya":3621,"ministr":3622,"omend":3623,"osk":3624,"ampi":3625,"asilkan":3626," Group":3627,"ikir":3628," Bandara":3629,"33":3630,"entak":3631,"ajah":3632,"anyakan":3633," perkembangan":3634,"aker":3635," Mart":3636,"aid":3637,"iraan":3638,"oa":3639," Moh":3640,"abah":3641,"ida":3642," berbicara":3643,"akup":3644,"isalnya":3645," vir":3646,"-sama":3647," Sukabumi":3648," mengingatkan":3649,"ood":3650," mengaw":3651," CPNS":3652," pemungutan":3653," Tol":3654,"upuk":3655,"arjo":3656,"etan":3657," menyerang":3658,"Ketika":3659," bergerak":3660,"cr":3661," kategori":3662," berlaku":3663,"Kegiatan":3664,"apak":3665,"omat":3666," pengelolaan":3667,"adu":3668," selesai":3669," terdampak":3670," perlindungan":3671,"omendasi":3672," sal":3673," Idul":3674," rangka":3675,"ampanye":3676," mewujudkan":3677," for":3678," pember":3679,"our":3680,"apresiasi":3681,"atuan":3682,"ometer":3683," lah":3684," ribuan":3685," dikel":3686," kabar":3687," bek":3688," menyer":3689,"artemen":3690,"unjungi":3691,"apaian":3692," diperkirakan":3693," Rakyat":3694," merah":3695," anti":3696," sepeda":3697,"Se":3698,"EO":3699,"ilangan":3700," Bul":3701,"bullah":3702,"Jok":3703,"bud":3704," sy":3705,"urunan":3706," infrastruktur":3707," nyata":3708,"ance":3709,"torat":3710," kehidupan":3711," balik":3712," arus":3713,"eor":3714,"ten":3715," pand":3716,"airan":3717," rendah":3718," pelatihan":3719," dibawa":3720," terdakwa":3721," pengawasan":3722,"isik":3723," profesi":3724,"Kita":3725," jiwa":3726," sebenarnya":3727," truk":3728,"ugi":3729,"esti":3730," tambahan":3731," Pertahanan":3732," Sumsel":3733,"OA":3734,"fik":3735,"aluasi":3736," klub":3737,"ailand":3738,"UT":3739,"asitas":3740," Pes":3741," sedangkan":3742," Thailand":3743," minim":3744,"mp":3745," Ric":3746," berbasis":3747," meninggalkan":3748,"ary":3749," hilang":3750,"etul":3751,"izbullah":3752,"embakan":3753," Kelurahan":3754," tumb":3755,"itri":3756," pemilik":3757,"emprov":3758," seharusnya":3759," pajak":3760," insiden":3761," rel":3762,"mati":3763," perdagangan":3764," ah":3765,"har":3766,"mcr":3767,"alin":3768," foto":3769," Grup":3770,"wang":3771," pasi":3772,"endik":3773," Ridwan":3774,"Pihak":3775," kre":3776," rudal":3777,"awal":3778," puncak":3779," Car":3780,"ualifikasi":3781,"hasil":3782," sus":3783,"usakan":3784," Medan":3785," berpotensi":3786," menyiapkan":3787,"bon":3788,"unggal":3789," pilkada":3790," BBC":3791,"ER":3792,"Mas":3793," gelar":3794," pengungsi":3795," minyak":3796," putra":3797," kalangan":3798," kesepakatan":3799," berakhir":3800,"umur":3801,"awapres":3802," Wilayah":3803," melanggar":3804,"Selama":3805," Muda":3806," seks":3807,"egawati":3808," Lebaran":3809," tertulis":3810," Olimpiade":3811," darah":3812,"ainkan":3813,"Program":3814," Taiwan":3815,"Sep":3816,"tes":3817," Pos":3818,"unci":3819," terlalu":3820," daftar":3821," didukung":3822," Sosial":3823,"esang":3824," perawatan":3825," Hotel":3826," penduduk":3827," Berk":3828,"ifah":3829,"ron":3830,"enalkan":3831," tiket":3832,"illah":3833," Award":3834," kulit":3835," berdampak":3836,"iriman":3837,"ear":3838,"agn":3839," mempering":3840," ayah":3841,"Undang":3842," tradisi":3843," buruk":3844," Pang":3845,"entang":3846," selaku":3847," Sekretaris":3848," tulis":3849,"adinya":3850,"Berikut":3851,"Indonesia":3852,"iang":3853," utara":3854,"baik":3855,"ahfud":3856," menyelesaikan":3857," Pembangunan":3858," KOTA":3859,"etapan":3860,"abang":3861," memicu":3862," senior":3863,"etnam":3864," mitra":3865,"amaian":3866,"evisi":3867,"ahulu":3868,"ili":3869," Kara":3870," berikut":3871," Afr":3872,"old":3873," jangan":3874," genc":3875,"ongsor":3876,"onfirmasi":3877," ahli":3878,"kap":3879,"uel":3880,"ano":3881," Pet":3882,"ASN":3883," strategi":3884," Airlangga":3885," menyerahkan":3886,"IM":3887,"enag":3888," tema":3889,"ington":3890,"ahankan":3891," pembel":3892," paket":3893,"Sejumlah":3894," syarat":3895," mendesak":3896,"atatan":3897," menyus":3898,"Kedua":3899," Kamil":3900,"endag":3901,"-laki":3902," serius":3903," diselenggarakan":3904," Ben":3905,"ice":3906,"ulauan":3907," ungkapnya":3908," Tanah":3909,"assar":3910," Pri":3911," Dok":3912,"idaknya":3913,"insip":3914,"Jokowi":3915,"arelawan":3916,"ayaran":3917,"iburan":3918," rutin":3919,"tinya":3920,"uny":3921," Pekan":3922," maksimal":3923,"BK":3924,"UU":3925,"ino":3926," sikap":3927," Dalam":3928,"ombang":3929,"cayaan":3930," sanksi":3931," kri":3932,"ikin":3933," permintaan":3934," tertentu":3935," iklim":3936,"ber":3937," net":3938," pengadilan":3939,"anggu":3940," mencetak":3941," awak":3942," pelanggan":3943," diikuti":3944,"edakan":3945," visi":3946,"enggaraan":3947," kejahatan":3948," kompetisi":3949," saling":3950," Bh":3951," penerbangan":3952,"entitas":3953,"undur":3954,"abrik":3955,"48":3956," Bany":3957,"ence":3958,"alik":3959," menambah":3960,"rig":3961," kursi":3962," Hasto":3963," Keamanan":3964," Ul":3965,"acam":3966,"ekanan":3967,"39":3968," gram":3969," melindungi":3970,"anyi":3971," Trans":3972," Vietnam":3973," Padang":3974,"agub":3975,"egang":3976,"oalan":3977," mengapresiasi":3978,"anjung":3979," mencakup":3980,"argetkan":3981,"ket":3982," mus":3983," menimbulkan":3984,"uasaan":3985," panas":3986," Dewi":3987," Champi":3988,"Acara":3989,"PA":3990," laki":3991," ins":3992," penanganan":3993," Forum":3994,"ambat":3995,"Israel":3996," sabu":3997,"ontribusi":3998," Pran":3999}