#version: 0.2
  क
  स
  म
  ह
  प
। 

ा र
े ं
न े
 क े
  ब
् र
य ा
 म ें
 ह ै
  ज
  द
  र
  ल
 क ी
ो ं
  अ
  व
  ग
र ्
 क ो
  न
ा न
 स े
 क ि
त ा
  ने
  आ
 क ा
 क र
  भ
ा ल
 प र
  त
न ा
ि क
् य
ि ल
  श
  उ
  औ
स ्
 औ र
  च
क ्
  थ
ा ं
 प ्र
  ए
इ स
ा म
ह ी
ि या
 ह ो
व ा
ि त
क े
ह ा
ल ा
क र
ल े
 है ं
 ब ा
ि य
ि स
ड ़
ि ए
ु र
 भ ी
 ज ा
ं ग
  ख
त े
  फ
त ्र
र ा
े श
 स ्
 व ि
  य
र ी
ि न
ार ी
त ी
ही ं
 र ा
 ह ु
ु ल
ट ी
 कि या
् या
स ी
न ी
व ार
ग ा
त ि
स े
 स ा
 ल िए
  ड
ं द
न ्
  इ
 ग या
 थ ा
 ए क
क् ष
 प ह
 स ं
ो ग
 ल े
 न हीं
 स म
 र ह
ा य
 द े
  इस
 न ि
क ा
िल ा
  घ
 क ार
  ट
 अ प
ल ी
क ी
 ह ी
िय ों
 बा द
भ ा
त ्
ार ्
प ी
 स ि
 म ु
म ा
ं ड
ा स
ि र
ुल िस
 ग ई
न् ह
ग ी
 क हा
 सा थ
स ा
 कर ने
ट र
र ो
र े
 क ु
द ी
 प ू
 ब ता
ं च
 रह े
 थ ी
 द िया
्र ी
 त ो
 अ ध
 व ाल
म ी
 स ु
क ार
ान ा
्र े
प ुर
व ि
2 0
 ल ोग
ौ र
स् ट
ज ी
 स ी
ज ा
ल ्
 त क
 र हा
द ा
म ें
 द ो
  छ
 प ुलिस
व ी
भ ी
ग े
द ेश
ह र
 अ न
ष ्
 द ी
 हु ए
 म ह
 ल ा
 बता या
 म िल
 च ु
ग र
ि श
 रा ज
ं ह
  ध
क ि
 र ही
 उ न
 थ े
 उ स
ं त्र
् त
ब ा
् ष
. 

ान ी
ह ां
ट े
  या
 म ौ
ज न
 ब ार
ा ई
श न
ओ ं
ों ने
ज े
ा ह
ब र
ि व
ढ ़
 सि ंह
प ा
न्ह ोंने
स् थ
  (
 ल गा
 ग ए
 ब ी
म ार
र् ट
व े
ु प
 जा ए
 पह ु
स् त
ि ंग
 पहु ंच
द ्
 ले कर
 स र
द ्र
 द िन
् म
च ्
 ब े
 ब ना
 म ो
 स् थ
 ज ो
न ों
 अध िक
ै ं
 पह ले
ा ज
क िन
 हु ई
क ्र
 लोग ों
 अप ने
ंत्र ी
े ल
 आ रो
श ्
 म ाम
ो ज
 म े
 द ौर
ो क
व र
 स ाल
ख ा
र् म
 य ह
ट ा
 हो ने
ं ध
 कार ्य
 स क
 वाल े
इस के
 दौर ान
ां च
त र
 भ ार
  टी
 क ्ष
 पर ि
ड ी
म ान
 स ो
 ज ी
व ाल
 हु आ
ब ी
ना व
 प ा
 ग ां
 प ी
  ओ
इ न
क ो
 द र्
 स ाम
 त र
ध ान
प ्र
्रे स
 व र्
 नि र्
 ज ान
 बा त
े त्र
ड़ ी
ए म
 ज िस
ू ल
क ारी
म े
 कर ते
 र ुप
र् व
ा प
ट ना
च् च
ू र
व ं
स र
 श ुर
ें द्र
 म ां
ष् ट
 कु मार
ि प
 क्ष ेत्र
 श ाम
ड़ ा
 घ र
 ब ि
 उ प
ए स
 ह म
1 0
उ न्होंने
 सर कार
ो ट
 श िक
ं प
क ों
् स
स् प
े ट
 आ य
ू न
 का म
क्ष ा
 र ू
  ऑ
20 2
ी न
 चु नाव
क् त
 य ु
 ल िया
 ब ै
ो र
् ल
ो ल
 व ह
 म ा
वा ई
 द ्
क् ट
ज ार
 ज ब
 प ार्
 अ ं
 क म
क् टर
वार ा
 प ास
स भा
 ले किन
ि ता
ि म
 क ह
भा ग
 क ै
 अन ु
ू स
च ार
 ड ॉ
 च ल
ा इ
 आ प
 मह िला
 स भी
न्ह ें
 द ु
ें गे
 प्र ति
 क ई
 ज ु
 कु छ
 स ब
श ी
 क ॉ
प र
 थ ाना
िक ा
 ग िर
ि ट
 गां व
 को ई
 द् वारा
ब ंध
्य क्ष
 अ ब
 र ो
 स ह
 व ्य
 न ाम
 टी म
ार ा
 च ौ
 शुर ू
र् स
ता ल
म ्
 ख िला
 दे ख
 सम य
ख ्य
द् ध
 भ ा
 अप नी
ै न
्य ू
  झ
 न िक
ण ा
 ह र
  ऐ
 ब ह
य र
 माम ले
 ग ्र
 ज न
म ु
ृ त
 दर् ज
 ब जे
 ल ग
 स् ट
य े
 स ू
च ा
 रुप ए
म ंत्री
 च ाह
 ट ्र
िल ्
ी ड
ज िस
 व िक
 ब च्च
 ह ि
ज र
 भार त
 उन के
ं बर
 आरो प
 इ ं
 रू प
य ह
 र ख
 तर ह
िल े
फ ्त
आ ई
्य ों
 अ व
 व े
ड़ े
ाय त
 वि भाग
 अ भ
  ठ
 न ा
  ता
 म ै
 बी च
 उ न्हें
 ह ा
 ब ु
द ार
 ग ो
ज ू
क् स
 य े
व न
 ज ांच
 का ंग
 शाम िल
व हीं
े ज
त ्या
 ला ख
 कि सी
 ब ढ़
ं ट
 स्थ ित
च ना
ल य
प ुलिस
ो र्ट
 द ि
 ए वं
ज ्
 ड ि
 कांग ्रेस
 आ ई
 द ेश
 ब न
ए ं
 स् क
 ज िला
 र ाम
स्प ताल
 हो गा
 कर ा
 जाए गा
 इ न
ाल ी
प ू
ाल ा
 प ै
 उ न्होंने
 कि ए
 ग ु
  '
र् ड
 अ ग
 यु व
व ान
रा ज
ी ब
प ्
वा सी
द ान
ब ह
क्र म
 त ै
 खिला फ
  "
ेश न
 ब द
्या दा
 ज ारी
ज ब
 प्र देश
 कार ण
ुर ु
 जा ने
ज य
ें ट
 ख ु
ध ार
 अ स्पताल
ां स
िया ं
न ि
ह ार
 प ु
 मु ख्य
 दो नों
 इ ला
फ ी
ह त
ध ी
ह ाल
 या द
उ स
 न गर
 अन ्य
 ए स
क् ति
द े
स ार
 छ ा
 ल ोक
र् थ
 जान कारी
 पार् टी
 सी ट
 स ुर
 वाल ी
ंद िर
 आरो पी
 ने ता
प ाल
 ज ्यादा
ती य
 उ से
स ान
त्र ा
ल ो
 ओ र
 आ ए
 कर ना
 जा ता
्या लय
 बै ठ
्र वाई
 अध ्यक्ष
ो ड़
 स द
5 0
 उस के
 र े
ु त
ल ग
 म ान
 आ ज
 उ त्
 घ टना
ड़ ी
 ज िले
िन ्
ाम ी
 ब ो
 न ी
 मौ त
 कार ्रवाई
 म ार
 फ िल
फ्त ार
 द ूस
 रा त
 ह जार
 वर् ष
ग त
 ल ी
ह म
 म ंत्री
 साम ने
 कर ीब
? 

क ान
 परि वार
 पू र्व
 ल ि
ध िक
1 2
 भ ाज
्री य
र् मा
 श ु
 दे ने
ं स
 भाज पा
 मां ग
3 0
ि छ
ब ्
वा स
 म ंदिर
 श ा
 फ िर
श े
 नि वासी
ड़ ा
िय ो
स म
ग ्
 उन की
 त ीन
 आ द
ो न
1 9
ं त
 याद व
 म ार्
ो ष
भा व
ू म
 मौ के
ाय ल
जू द
. .
ध ्य
 द िए
े त
 स्क ूल
 व ो
 च ला
 राज ्य
त ार
 फ ै
 ज ै
 सब से
 पहुंच े
ू ं
 हो गी
 शिक ्ष
ार ियों
आ र
 प ानी
 आ या
उ न
स्थ ा
ं ब
 ज ग
र ाम
ंग ल
 वि ध
 फिल ्म
 ज र
 प्र श
व ल
 आ ने
 तै य
ठ ा
िल् ली
 सु बह
  ई
ास न
 श हर
द र्
ंद र
इ क
 बार िश
 म हा
क ु
 अधिक ारी
र् ण
 य हां
 अनु सार
 रह ने
 मिल ी
ह न
ध ा
 क ्र
1 5
 शिक ायत
बा द
 श ्री
 युव क
वा द
ोज ना
 गिर फ्तार
 प ो
 ड ी
ले किन
 सक ता
क र्
 श र्मा
श् व
 चाह िए
ं ज
ाय र
ाय क
र ण
िय र
में ट
च् छ
त् व
्र ा
ें स
ज् ञ
ंग े
स ल
 क ्या
 द ा
 क ंप
 बा हर
ू ट
 म त
् ड
िछ ले
य ोग
 प द
 सं बंध
श ा
 मो दी
 प्र ा
 मिल े
ि ज
 अ म
 सू चना
 आ र
1 1
 म ैं
ो ध
ं क
र् फ
 म न
ला ई
 ग ा
िय म
20 1
 पू री
 म िला
थ ा
 ब ंद
स्थ ान
 क प
 रा ष्ट
द ्य
 कार्य क्रम
 प त्
 श व
ो जन
 श े
 ख ा
िप ोर्ट
0 0
 प्र ो
ख ्या
िश ्
 कर ें
 सह ित
 क र्म
 को र्ट
भ ार
च ान
 जाए गी
 च े
 ऑ फ
द ो
 म ी
ां ड
ग ्र
म ो
मा ण
 स् व
ां कि
 अ ला
मे र
 म ही
 अप ना
ता ब
 भार तीय
 का फी
 द िल्ली
य पुर
 श िव
म् मी
ी क्षा
त् म
 वि धान
 आ गे
 त ी
ग म
ए क
 हो ता
 जी त
व री
 ट ्रे
ट ्
 सद स
ब े
ु क्त
ु क
अ ब
 उस की
द न
ल ों
 त हत
 माम ला
रा ब
 मौ जूद
 रो ड
 बह ुत
 विक ास
 लोक सभा
ें द
इस में
च ी
स ि
ग ्री
 क ेंद्र
े म
 बार े
 स् वा
 इ ंड
 च ार
क्ष ण
 सक ते
ज ह
 सम ाज
म्मी द
 ट े
इ ल
 निर् देश
 स फ
 अला वा
ं टे
 य ू
 व्य व
 कि सान
त िक
 ह त्या
स् क
हाल ांकि
त म
 कर ोड़
2 5
 य ोजना
 स ंग
ग ढ़
 क ्यों
 र िपोर्ट
 जग ह
दर् शन
ड़ े
य हां
 ग ुरु
 प े
सा थ
 सु न
 कह ना
इस ी
ंग ा
 विधान सभा
फ ्
 म ीड
 उ म्मीद
ो री
ख ंड
 सं ख्या
 छ ो
म िक
 ब स
क ाल
 छा त्र
 व जह
 अ लग
ले ज
 प ता
शे ष
ता ओं
 बच्च ों
ें ड
 दिन ों
 व ाह
 बा इक
 ह ाल
च ित
 मीड िया
इस से
ु आ
ार् थ
 व ीड
ामी ण
झ े
 प्र धान
जे पी
 व हां
 स् प
 कर ता
 मु ताब
 ल गे
ां ग
श ल
 फ ी
 तर फ
स् ता
 मुताब िक
 कर ेंगे
 प िता
 आ ग
 हो ती
 घ ायल
ो ह
ण ी
 भा ग
च ाल
 ज हां
ै ल
जन ों
 विध ायक
क् शन
 व्य क्ति
 आ धार
 व ा
 ड े
 मही ने
त न
 पो स्ट
 वीड ियो
 र वि
ॉ ल
घ टना
 व ोट
 सुर क्षा
 क ुल
 पहुंच ी
 ह ों
a n
 बना ने
व र्
िया णा
 पत् नी
य ू
 घ ंटे
 प ुर
ड़ क
 पर ीक्षा
 प ढ़
श ि
 प ं
 पू छ
 ब ां
 कर वा
 ए न
प ति
र् य
 न ंबर
म वार
 हा थ
ित ि
 प ंच
 प क
 भ ग
 फ र
 आय ोजन
स ू
ज ़
 न जर
 ब ्र
र् चा
 प्र भ
द र
 स ांस
ब ल
1 4
ल िए
् ला
 ग ं
व ेश
 पू रा
 भ र
2 4
 प त्र
 शा दी
 भ ाई
 इस के
 था ने
च े
द ्यालय
स ु
 र न
 प्र त
 अधिक ारियों
 दि ख
 प्रश ासन
ंद ्र
- अ
 सा ह
 मुख्य मंत्री
 स च
 स र्
 दूस रे
 आ स
 क ृ
 द िव
 निर् माण
िक ल
 दु कान
 सक ती
 अ भी
म त
 सम ्म
 प िछले
ार े
 लगा या
 त ेज
  ढ
 तैय ार
 मिल ने
ा ने
भी र
 ए म
 ख ेल
 घ ोष
 बि ज
 वि शेष
वी र
 य ोग
 जिस में
 कंप नी
 वाल ा
 म ंड
स् ते
 न ्या
ंगल वार
1 8
 कॉ लेज
इ ट
 लगा तार
  S
ी य
 बैठ क
 ज ल
री ज
 क ल
 ह ूं
 व ै
ार् ट
 र ेल
ार् ड
 करा या
ैं क
ि स्ट
1 3
 स ौ
 ज ून
 से वा
 ल ड़
मी न
 दे ते
िय न
व ह
 डि ग्री
 आ म
 आरोप ियों
  ऊ
भ ग
 सांस द
श त
1 6
ोज ित
ज ु
 के स
 उ ठा
कर ण
- प
 भ े
 हि स्
 गं भीर
 ए क्स
 क ान
 बना या
 श ्र
 उन का
 जै से
या न
 ल ाल
 अ र
ऐ से
 म ाल
 पू रे
 आद ि
स्त ान
ध वार
 कर े
क्र वार
ल् ड
 ग र्
ष् ण
 गां धी
  -
स ं
 सम झ
ष् ठ
ब ता
ना थ
 व्यव स्था
 प्र दर्शन
 जा ती
 नि गम
 ल गी
 ज े
 डॉ क्टर
1 7
स् या
 ब ड़ी
 ख ान
 मै च
ै ंड
ू री
िया न
 म ाह
 वि श्व
 ह ाई
 रुप ये
न र
श ु
ंद ी
जा ब
ि टी
 ब ढ़
 ब ॉ
 भ र्
 न र
न िया
 व ाप
 ड ्र
 आय ोजित
  C
मु ख
का श
प मान
 प्र या
 सं चाल
फ र
 वि रो
ह ुल
 इला ज
म ह
 पह ली
 ह े
 सम ेत
 बी जेपी
िल ी
 प्रभ ारी
ड ा
 पर ेश
 पह चान
 प क्ष
 ग्र ामीण
ां त
म र
 प ांच
ाप ्त
 ख े
 ले ने
दी प
म ैं
न् न
ि रा
 व ्या
 द ें
ल ाल
 ता पमान
 भर् ती
 सदस ्य
आ रो
 स्थ ान
बंध न
 प ड़
ष ण
 पू जा
द ारी
 हो ते
 अ च्छ
 अ फ
 ब ाल
 आ देश
 ख री
िन् न
 भग वान
 म द
 म ना
 राज नी
 स्थित ि
 शिक्ष ा
ध ्यक्ष
20 0
 हो कर
जी त
 खु द
ि ंद
 उस ने
 बना ए
न् द्र
प ास
ह रा
 मे ड
वा ब
ए न
 ऐ सा
 ज ेल
 न ौ
ै क
 साम ान
 स ित
 चल ते
पू र्ण
त्र ी
ब ार
प हर
 र खा
 ए क्ट
 म ृत
 थी ं
 र ोक
 ट्रे न
भ िन्न
 ज ल्
 द र
 ग ठ
 चु के
 भ ेज
 न ए
 ज मीन
 ब ज
 जु लाई
 सो मवार
व त
 कर के
ू र्
 प ति
स् ती
 क ले
 अ ति
स्थ ्य
 सी एम
ू प
र् च
ू त
 प्रति शत
वा ह
 बिज ली
 फ ोन
 बे ह
 ब ल्
 त ब
 च ाल
 या त्रा
 ऐ से
फ ा
 ब ने
 मद द
 इस े
 त स्
ष द
 न ार
र ि
श ्य
 बा जार
बा इल
 बे टे
 हम ला
ट न
 त था
 जन ता
 च र्चा
 हों गे
ए ल
 अव सर
2 2
 शुर ुआ
 अग स्त
धिक ारी
 ग ै
 सम स्या
 स वाल
 जब कि
 पी छ
 ज िन
 चु की
 बच्च े
 श नि
 च ोरी
 सं प
 प्रया स
्र म
 वि भिन्न
 म ंगलवार
ानी य
 प ेश
म न
  A
 दे र
् ले
वे दन
 अभ ियान
े क
 फै स
क्ष क
 दे व
पी ट
ठ ी
 ब यान
 त ला
ध ि
 उस का
 द ल
 स ड़क
 स के
 प ार
 जा ते
र् क
 सर कारी
ल् प
 पहुंच ा
4 0
ग ंज
 न िय
 न ई
 बे टी
 फ ा
 ह मार
र िक
अ प
 प्रधान मंत्री
ज ाम
 य ून
 कर ती
 प ाल
 विरो ध
म ौ
 सच िव
म ाल
 सम्म ान
ब ू
a r
 म ि
 दे खा
च र
 र िक
 बि हार
ू बर
ै ध
 अ र्
 प्र मुख
 व ित
ह ित
म ाम
 ल ॉ
 दि खा
 ज ्
 ब ल
 ब चा
 उम्मीद वार
 ब ैंक
 वाह न
 राष्ट ्रीय
 म िन
 म िश
 स वार
 मु झे
आ ज
ज ान
 प्र े
कर ी
  P
 मा ध्य
 च ी
 मो बाइल
 अप रा
ग ढ़
 स् तर
ां व
 स्वा स्थ्य
ो पाल
 बु धवार
 मह त्व
श िश
 इला के
 ब र
 यु वा
 द ूर
 वि वाद
 वाप स
 सम िति
हा य
 महिला ओं
के श
ट क
 सि र्फ
 व न
 उ म
 इस की
 दे वी
 ज ैन
ा क
जिस के
त ना
 अ ल
शन ल
 व ी
 भ ूम
प क्ष
्या न
 जिस से
 ग्र ाम
 द िस
ंद ौर
एस पी
 रवि वार
 ल ौ
 शु क्रवार
 रा शि
पुर ा
 शनि वार
 कार्य कर्
न गर
 अ गर
ू ड
 ज य
 सो शल
 ब राम
ट ्र
 को शिश
ध र
 अ ंदर
क्ट ूबर
 लग भग
ं का
र् ग
 रा हुल
 दो पहर
 म ई
ए च
 वाल ों
ं भ
ब ि
 प्र भाव
वी ं
स् टर
 शे यर
 पंच ायत
 इं टर
 बराम द
क् कर
 सम र्थ
 म ध्य
मा श
ह री
 निक ल
ट ल
 अव ैध
 सित ंबर
 पु त्र
उ ंड
स ो
 जी वन
कार ्य
ल् स
 गुरु वार
र िया
 कह ते
ौ न
 परि जनों
श् च
 सं घ
रा त
ज हां
ा त
 चु का
जिस में
द से
ॉ प
ाल य
भ र
इ ड
2 1
 राज स्थान
दे व
 कर ो
 दे कर
 जर ूर
ता छ
ष ा
त ृ
 जल् द
 ब ड़ा
 श राब
ग ल
 ह ॉ
 अ क्टूबर
 सं त
 स ें
 मार् ग
 रेल वे
प ह
वं बर
 संग ठ
 पीछ े
ध री
 इंड िया
 म ंत्र
ए फ
 लि खा
दो नों
  N
 शुरुआ त
थ ि
ेंद ्रीय
ॉ र्ड
 कार ्यालय
ज ल
कि ंग
 ए ड
 ज म
िक ्ष
 ग ल
ती स
य न
  B
 सं भाव
 ध र्म
कि स्तान
भार त
 ट िक
 राष्ट ्र
 दिस ंबर
ैं प
2 3
 त ौर
सा द
ड़ क
 द ौ
 मु ख
 अभ ि
स्थ ित
ल ोग
ि वार
 जाए ंगे
प क
 ज ाना
ब ाल
 क्यों कि
 इस का
ो स
वि धा
 रा य
च ारी
 न वंबर
 अ मेर
 देख ने
 न ोट
िल ों
 मार पीट
2 6
 ग ुप
ला इन
 वि जय
10 0
 मिन ट
 र ि
 प्र ाप्त
ख न
ल र
 चौ धरी
र् जी
क त
ज ो
् ता
ंद ा
ख िल
 कि लो
 ब ड़े
टे ड
टे ल
i n
स व
िस र
प्र देश
 उप ल
 दूस री
 क ट
म ारी
 ल क्ष
िम ्म
प ्री
प ोर्ट
 म जब
ुर ा
फ ़
 प ्ल
 नेता ओं
ध न
 किसान ों
 स्ट ेशन
 माध्य म
 प्र त्या
 क र्
स् व
वि द्यालय
फ े
 र ु
 ब ्ल
 स हाय
ां क
ौ ल
स त
 मेड िकल
 के वल
 हो ना
 ज वाब
 न ियम
ंड ी
 बढ़ ा
 मे रे
a t
 अं तर
क ल
 लगा ए
म ृत
 मत दान
 ती स
व ित
िट ल
न ो
के ट
्य ो
 ध म
.. .

 व ार
 अप ्र
 स ंद
 ध ्यान
क ृ
 ग ण
र् या
िक ेट
 इस ी
 आस पास
 मा ता
2 8
व ो
 ए यर
र् ष
 पं जाब
 भ ारी
य ु
ग ू
द ाय
िश ा
भ व
 अं त
 त े
घ ा
छ ा
म ार्ट
 बद ल
 र ज
 निक ाल
क ांग
 मु द्
 ला इन
क्र िया
 ड ाल
  I
 स्थ ानीय
 श ाह
ज री
 ब नी
 करा ने
 स र्व
 सं य
त् ता
 ज न्
 सु विधा
 उत् तर
 म रीज
 न दी
-अ लग
 क भी
 लि ख
 मार् च
 मौ सम
ध ियों
 बद माश
2 7
 श ो
िय ार
 हि ंद
 ला भ
 आ वेदन
 हर ियाणा
ॉ क
 बि ना
द ि
 स प्
 ज यपुर
को र्ट
 टिक ट
 जिस के
िप ्
 छ ोड़
 हमार े
 स ां
 देख ते
ि री
ड े
 फर ार
 करो ड़
जब कि
 सीट ों
कांग ्रेस
 प दा
फ् ट
 प्र क्रिया
त री
ज्ञ ान
 उपल ब्
  M
 प ्ले
 बद ला
चार ियों
ं कर
फ िल
 ज मा
क्ष ित
ि ग
 अग ्र
 भे जा
 प्र साद
ंब ई
 सफ ल
तृ त्व
 क ्
 कै से
 संबंध ित
 उ द्
त् तीस
 पूछ ताछ
 ज िलों
 र ोज
 संभाव ना
ू क
 ए ज
 जन वरी
अ सल
 ह टा
 नि री
द ु
्र ोल
उस के
  R
ें सी
िम्म े
 त य
 फी स
 एक्स प
 ख बर
 सह योग
 ल ो
 ट्र ै
o n
 विक ेट
 अ हम
 ने तृत्व
 आ व
 रख ने
ज ों
 च ले
कार्य क्रम
 ध न
 बो र्ड
 पढ़ ें
अ गर
च ु
ृ ह
 कर्म चारी
 परेश ान
का ब
) ,
 श ि
ज द
 स ै
 गो ली
ना त
ध े
जी व
ट ो
स् ल
 नि श
ल ोक
 उ र्फ
 हिस् सा
िय ल
 लगा ने
 तैय ारी
 ह ास
त ों
य ों
घ र
फ िर
झ ा
 दा वा
 कले क्टर
 च ि
 तला श
 क ब्
ित ्
 जा कर
 की मत
 नी चे
न ियर
व ्य
ु ओं
 वि द्य
ला देश
ग ांव
 बो ले
 प्रत्या शी
चार ्य
 श्र द्ध
मु ख्य
 दु र्
आरो पी
 व ार्ड
हर ियाणा
- क
 आय ोग
उन के
द ूस
ग ु
 छात्र ों
 नर ेंद्र
ड़ ित
 इस लिए
 गुप ्ता
ड ्
 फैस ला
 ना गर
िन् ह
 ब च
 हास िल
 स जा
 फ ोट
ाम ा
आ प
 आप को
ू ब
लो नी
 छा त्रा
ष ्य
ॉ र्म
 मंड ल
 घ ु
 क ्ल
ष्ट ्र
  ।

2 9
 ज िम्मे
 व ायर
 ख ास
 वि देश
च न
 ग ति
 रह ते
स्ते माल
 ज ता
रा ह
 व क्त
 इ स्तेमाल
 पी एम
ाप न
 अप्र ैल
 क ेंद्रीय
क म
ी ल
 र ंग
 त री
 कर्म चारियों
 इस से
 बल् कि
 न्या य
 च िक
 ओ वर
 ज ़
e r
क िस
 च रण
 रहे गा
 स्थ ाप
 पा किस्तान
 टे स्ट
ां ति
िय ोग
ल ू
 प्र कार
ग् लादेश
ती श
ह ान
 ख ो
 वर् ग
ष ि
द म
 भा व
कु छ
 भ वन
िन ि
वाल ी
न ु
 र िश्
त् ति
 त त्
 ड ाय
ार ोह
ची त
दर असल
ब ्ल
  D
श् वास
3 5
ी क
 व्या प
त रा
् मी
क् ता
 सम ारोह
ज पा
 बु ला
ंग ी
द ों
ार खंड
ट ने
व ें
िश न
थ मिक
 सु नी
ाय ण
 ज् ञ
 बन ने
ख ी
 सं जय
 पा ए
स ुर
 ल ड़
 गर् मी
 र ण
 सा इ
 च ंद्र
 सा फ
 पर िसर
श्य क
 म कान
 ह थ
 प ेट
 ट क्कर
ग ार
बा जी
 मान स
 घोष णा
 मै दान
 ग ौ
 कर ाई
 हाल त
 म ॉ
 ख त्म
 ग ाय
 दिव स
 महत्व पूर्ण
ब ै
ैन िक
 चौ क
 इ ंदौर
 संगठ न
फ िक
 क ला
 बात चीत
 ह में
न ौ
 शु भ
 ब ंग
वा ही
 दु निया
खन ऊ
 म श
 चाल क
ड ्ड
 ग िरा
 कार ्ड
 दो स्त
े य
 आ श
ति म
 ह ार
मह िला
त नी
ाइ म
 म ाना
ंड ा
 सी मा
 रिक ॉर्ड
 पू र्ण
म ता
 न व
 त ि
 न्या या
ं सा
स भी
 प्र काश
भा जपा
 पै से
 राजनी तिक
 फ ायर
ेश ्
 एस पी
 मिल कर
 घोष ित
ल िया
द ाल
प िछले
इस लिए
 सि र
 न या
 च ा
हा स
द्य ोग
 गठ बंधन
 स त
 स ड़क
ख े
 आव श्यक
 भ ोपाल
 कि स
मी टर
 स् वी
 ठ ीक
 या नी
4 5
 ऊ पर
ब ु
 व हीं
मे टी
 म ूल
 व ृ
्रे ट
जान कारी
a l
 द िल
 आ वा
 त ्र
 फ ु
 उपलब् ध
 उप स्थित
 ऐ सी
वि धान
 ट्र ांस
 ड्र ाइ
प न
 मु काब
 खु ला
श ्री
ष ेक
वि ंद
 वि चार
 प श्च
 सें टर
 जर िए
 नागर िक
ूड ेंट
3 1
न िक
र ों
 भ ु
 पा या
 प्रा थमिक
6 0
 क मी
 घ ा
ठ क
 लगा ई
 ता कि
 मु क
 सद र
 खरी द
ड ल
 द ू
ित ्य
 मी टर
त ियों
 श ी
 अ श
चान क
 जन् म
 अग ले
 आ ख
 वर्ष ीय
 उ द
द्ध ि
 ख राब
 नि जी
मी र
त ु
र ल
ो त्
स् कार
रा य
 ध ारा
ुल ्
 राज ्यों
 प ांड
 ब ोल
सी टी
 तस् वीर
 र ै
ं ता
 प ल
स् कर
 सि टी
 चाह ते
व ाना
 अं क
 क हीं
 मो ह
 समर्थ न
क र्म
 दर् शन
 आ न
 ए ल
 वि द्यालय
 सम ु
ब ोध
व जूद
 प्र स्त
 क्षेत्र ों
 दे ना
 धम की
 प ड़ा
 सम ा
च िका
 मो हन
 कॉ न्
 फोट ो
च ल
ै या
 द िला
 ला गू
इन में
 सदस ्यों
 मु ला
 मु ंबई
 अम ित
7 0
 वायर ल
 प्र स्ता
 प्र वेश
 आ ते
 त ु
 अग्र वाल
 फ े
 प ौ
ि ब
 बा बा
पू र्व
ॉ ट
 स ही
 ख ेत
ेंड र
 अं तिम
ू ह
रा व
र् न
स्ट म
 चु ना
 आप के
ज िला
 न ुक
व ट
 इं त
 तै नात
 मैं ने
 क मेटी
 ऑ न
उ ट
 कॉ लोनी
 क ही
ुर ी
 उम ्र
पह ले
 यू पी
म ति
" 

सि ंह
 सुन वाई
 से ना
 त ह
 बना कर
 सु ना
बता या
 बदला व
्या ण
 राष्ट्र पति
िक ्
ार् ज
 उ च्च
 उ ठ
न् ना
 कान ून
क िल
ख ्त
स ों
 ट ै
 सं क
उस ने
 स भा
 परि षद
 क्र िकेट
 ग ेट
 इस में
प् शन
 दिख ाई
िक ी
दाल त
 रह ता
 वर् मा
 नि वेश
ियोग िता
 व रि
 ख ़
 प टेल
प ण
ु ण
 ए ंड
 रख ी
ध ्या
 प ड़
त ंत्र
ि द
 म ं
 ऑफ िस
सी ल
 प्रभाव ित
चु नाव
ड ॉ
प ं
दा त
 शिक्ष क
 ग ेंद
 गा ड़ी
ान ों
ष्ट ्रीय
 करे गी
य ोध
ति हास
 अमेर िका
ने ट
 बना ई
 निर् ण
 नुक सान
 स् टे
 पदा धिकारी
क ई
त ल
ि ड
 पह ला
 उप योग
स्प िटल
 ब ू
 न ्यू
 जर ूरी
 बेह तर
 जिस े
 हथ ियार
 अ सर
 च ोर
 कि न
ारा ष्ट्र
 स्ट ूडेंट
 ग्रामीण ों
ग ो
क्ष ि
 राजनी ति
ूर् ति
द ू
 प ढ़
 मृत क
 तरी के
 प्र ेम
इस े
 लग ने
 हा दसे
स ब
 सामान ्य
 प ुल
 बह न
 विश्व विद्यालय
योध ्या
स द
 त ुर
 ट्र क
o r
क ुल
त ने
ने श
 र ी
 पर िव
 ती नों
 जरूर त
सीटी वी
र् गत
 बा वजूद
 रा हत
 भूम िका
डी एम
 गल त
- ब
ड़ ों
 फ ़
 ल ूट
 मिश ्रा
ै र
 प्र ता
श हर
िन ी
ट िंग
ल् ल
s h
 र िली
 ए फ
मृत क
 वरि ष्ठ
 ध र
 फ ्र
ॉ र्ट
 न म
क् या
प ंच
 ब ड़ी
 लगा कर
 स्थ ल
 तत् काल
 प्र दान
का त
 कार ो
 मजब ूत
 अ चानक
जे क्ट
  ,
ै से
 म जद
 कॉ ल
ध ु
 मे री
 तुर ंत
 स्वा गत
 गिर फ्त
 ब िल्
 हो टल
 कै म
 र िज
कु मार
  E
ख र
ाल े
 वि ष
 सं स्थान
 ते जी
 च ंद
 ले ते
पर ि
 कृ ष्ण
ार्थ ियों
र्ड र
 फा इन
 को च
 लग ता
र्थ िक
 सफ ाई
 हॉ स्पिटल
ं की
 म नी
 उ पा
 बां ग्लादेश
  K
ल् ट
 मिले गा
 निरी क्षण
व हां
 ग्र ुप
 सीट ें
हम ्म
उ ंट
 सा त
त ो
बाल िग
 रिली ज
 ज ित
 फीस दी
्य ून
 लॉ न्
 जो र
 कार्यकर् ताओं
फ ्र
 अ स
 बे च
राज ्य
 रहे गी
 तो ड़
 या चिका
 प्र चार
ित ्र
डी ए
 वाह नों
ता ह
 द बा
 च ीन
 च ोट
 ल ंब
 अश ोक
ड िंग
 अपरा ध
 भ ू
 वि पक्ष
 ज िन्ह
 छ ु
 मह ार
 उन से
ह रे
इस का
 ता ला
 अफ सर
 ज ाम
ड़ ियों
प े
 जा गर
 करे गा
 ह ल्
 जब ्त
 कल ्याण
र ान
त्तीस गढ़
- स
 ग ुर
वि ष्य
ज्ञ ात
 नौ करी
 जम कर
8 0
 श ांति
बी र
 माल िक
उ न्हें
 ला इ
 हिंद ू
 उस से
 प ि
 सं भ
 ल ु
 अ जय
 कप ूर
 एक्सप ्रेस
हम्म द
 क दम
 ट ा
  ऋ
 ग ी
 हम ारी
 निर्ण य
व िल
रा सत
 रह ती
वर ण
 साम ना
 झ ारखंड
रिक ्त
ग ुरु
 ह वा
त्र ियों
 मुला कात
 अंत र्गत
व ती
 जु ड़े
 प्रत ियोगिता
 ग ृह
की य
ृ ति
 म ू
 रा स्ते
प थ
िव र्स
ब ्र
 नार ाज
 नोट िस
ग ण
 प्रत िनि
 सं बोध
 ज वान
्य ु
 बज ट
ेश् वर
 फर वरी
) 

 करवा या
 ड्राइ वर
ले क्ट
र् श
जिस से
 छो टे
 व्य क्त
ांक न
 फ ्ल
 अप ील
 लौ ट
मुख्य मंत्री
 श री
 ड ा
ल् ले
 इला कों
त्म क
्त ान
्या म
 परि जन
ोल न
.. .
त मान
 कि श
 हम ले
 अं जाम
लोग ों
त ब
 भ क्त
 देश ों
न ियों
 अ दालत
 मिल ते
ग्र ाम
 द ेंगे
थ म
व क
 त ारी
 ख ुल
आरो प
ं टी
ेश ल
 आन ंद
द िन
ाइ वे
 साह ू
 सु प्री
 ठ ाक
त वाली
स वाल
 बैठ े
 पक ड़
ें ज
 आ त्म
 फ ाय
ेश ा
 माम लों
ाइ ल
 किलो मीटर
 संय ुक्त
स्ल िम
फ ल
 म ंच
 प र्व
 पार् ट
िक ्स
्रे न
व ारी
ु ड
  F
वा दी
 क ौन
 राज ेश
 हा उस
 ठाक ुर
 प ंड
ैं स
 तह सील
 भ विष्य
 सि स्टम
 ध ो
 जै सी
 बंग ाल
 प टना
ां सी
 सं स्था
 कार्यकर् ता
िश् चित
 मुक द
 बे टा
 निर् वा
 सं र
t i
 चु नौ
ष्ट ि
 श्रद्ध ाल
50 0
 गिरफ्त ारी
प ो
 ठ े
 प्रस्ता व
 आ र्थिक
 ख र्च
 मु श्
ाज िक
 गै ंग
्र ाम
 आ ं
स् त्र
 स् टा
र ज
 म र
देश क
 स त्र
 सु धार
 सी सीटीवी
ं घ
 सु ख
 संचाल न
जरी वाल
 बता ते
दार ों
ॉ य
 द क्षि
 आ ंद
इस की
 आय ु
 प्रश िक्ष
 सी रीज
 बां ध
 अ ली
 आ वास
 उत् पा
 ऑन लाइन
 देख कर
 परेश ानी
 अभि षेक
रा ष्ट्रीय
स्ट ्री
 छ ह
 कृ षि
 वार दात
 ज िंद
 अ ज्ञात
 दी पक
 मत दा
 आ त
ला ह
माम ले
ण ्ड
 महार ाज
 अधिक ार
 अच्छ ी
ने शनल
 मंत्र ालय
टे ज
वाल ा
ध ानी
  T
ले ट
सू चना
सु बह
व ां
व नी
 अल र्ट
 च ली
ल पुर
 प र्य
 अति रिक्त
 गति वि
 अध ी
e s
 प ॉ
वे ज
 हम ने
 ह नु
 ना बालिग
 मन ोज
 फ र्जी
्य ार
 वि स्त
 पार् षद
उन की
प ु
ल ि
 निक ाला
 युव ती
 अच्छ ा
प ित
 ब िक
 आ शी
 जा य
 पी ड़ित
श् मीर
 मी णा
 मना या
 पेट ्रोल
r a
ड र
 गई ं
 प ड़े
 फ सल
 पै र
िव ारी
 सो ने
 चल ने
e n
म ैन
 ब र्
 आ कर
 कब् जे
ह े
 प र्या
 त िवारी
 प्रो जेक्ट
 द िशा
 ने शनल
स्क ृत
 क मा
 ग ौर
से ना
्रम ण
 मौ का
ज् ज
 आंद ोलन
न ्या
 त ुल
 सि विल
 मो हम्मद
 दे ता
 मह ाराष्ट्र
िवर्स िटी
J P
 अन िल
 साल ों
 झ ा
 सहाय क
 घा ट
3 3
व ानी
 सुर क्षित
 स्प ेशल
 डाय रे
स न
 त ेल
मार्ट म
 क ब
वा ड़ा
 घर ों
 प ट
 श ्रे
 स ल
श ाला
श िप
 प ारी
 द श
ंड ल
 अति थि
 जिम्मे दारी
 पूछ ा
h a
 रख े
ज िन
स ाय
 द म
 का ं
 गु ज
 उ सी
 च ां
 मै ने
 सम्मान ित
स्त व
थ ाना
 रा व
 खुला सा
 संबोध ित
 द ब
 सा गर
 सु पर
ल का
स ित
ां ट
 ए क्
 कु मारी
 सो न
 प्ल ान
द सा
र वि
ह ्
 किन ारे
पुर ी
 दी प
 रज िस्ट
नी य
 बदमाश ों
 उद् देश
व ुड
वे द
उन का
 सुनी ल
 र क्षा
ार् मिक
श् वर
मे ज
9 0
 अ का
 से क्टर
 आय ुक्त
 सुप्री म
 ह िस
 भूम ि
 प स
 ध ी
बै ठक
मौ के
अ भी
प त
 क ौ
 व ्र
 ख ोल
धिक ारियों
भार तीय
 प ाई
री ब
 रह ेंगे
 जागर ूक
 ला या
 पहुंच कर
ण ाम
 हम ेशा
 सप् ताह
7 5
ो श
्यू टी
 प्र ि
 स्कूल ों
 प्रता प
ब ारी
 युव कों
िय स
 युवा ओं
क ॉ
म ित
कार ों
 संप र्क
मौ सम
 श ासन
 मुश् किल
 ज ला
िए शन
 प्ले ट
म ि
 कार्य ों
 महिला एं
 अ ंग
 ल ं
 ड र
ें शन
 ख ाली
 श क्ति
 नि भा
 या त्रियों
 चुना वी
 ल खनऊ
 प्र ी
 रो हित
 नाम ांकन
ो द
्यून तम
e w
 बि ग
 लि स्ट
 मरीज ों
 आ ता
 कम रे
जु र्ग
 क ौर
 बच्च ी
 न्याया लय
 घ े
 ग ंगा
्य र्थ
 उप चार
 समु दाय
 बेह द
क ै
 स िल
 मु स्लिम
 अधिक तम
ंदी प
3 2
 च यन
 प्र बंधन
 हाई कोर्ट
 रिश् ते
 हनु मान
 छ ाप
त्र ि
 ग ोल
 को तवाली
ली वुड
 प िछ
 ब हा
 न ो
 यु द्ध
िट ्
ोत् सव
अ न
द िल्ली
व ै
 ब िल
 से क
 भी ड़
सी एम
पर ेशन
 भा स्कर
 आद मी
ुल् क
 क ैंप
र् जा
 ख ूब
 दूस रा
19 9
l e
 वि श
 घु स
 मे रा
 गण ेश
 आ ंक
 बता ई
 मिले गी
d i
हा दसे
त्र ों
 वि वाह
 यून िवर्सिटी
 पोस्ट मार्टम
ि फ
द् द
 सर् वे
थ र
 सं विधान
 अधी क्षक
श िव
 द ृ
 फ ो
वा या
स्ट े
 वर् ल्ड
 आवा ज
ाइवे ट
 उद्देश ्य
- ज
मान त
 मार ने
 योग ी
 प ुरु
 तक नी
 ला ने
 पहुंच ने
 चौ हान
 समा धान
4 8
 र वाना
रे न
 मु केश
म् प
 मुख ्यालय
 पे पर
 सफल ता
पं जाब
 पुरु ष
 वर्ष ों
फिल हाल
 पश्च िम
 रै ली
 से ल्स
 ऑ टो
 व्र त
 नि र
 छो ड़
 के जरीवाल
बी सी
भ ू
 र िट
कर ीब
ग् ध
 सुन िश्चित
 मंड ी
 अ योध्या
 निर् धार
 शिक्ष कों
 डॉक्टर ों
 दो ष
सर कार
द ल
 पह ल
 कह ानी
 सौ ंप
 इंत जार
 विष य
 फ ॉ
 इ लेक्ट
 नी तीश
प ेट
गी य
्री न
 साम ाजिक
 पार् क
 कै प्शन
- साथ
5 5
स च
 ज ॉ
वास ियों
 फी ट
 न क
सी बी
 सी जन
 स्थाप ित
िय े
ड ियो
 द वा
 आ उट
 सू र्य
 स्प ष्ट
3 6
इ ंट
क् सर
िय ोजना
हर ण
 शु क्
 वी र
ै ट
 पै सा
 क ैं
 उ तर
 प्र खंड
 ट ू
 चौ की
च ंद
ड़ ित
स् वी
सी पी
प्र त
 खु श
 नार ायण
क ाम
ग्र ामीण
िप् टी
 मिल ता
िम ांड
 तीस रे
्यो ति
 भु गत
ग री
दा बाद
 चे क
 एयर पोर्ट
 साइ बर
ब च्च
ार ण
 प्र व
 रोक ने
 स्टूडेंट ्स
क ृत
 आ ठ
रे ट
 परि णाम
शी ल
बि हार
 फाय दा
न ान
 ज ाल
 सि द्ध
ार्थ ी
 ति थि
 निर्वा चन
ा ब
 कि मी
प्र धान
मु झे
ट् टी
 एज ेंसी
 बुला या
म ेश
 स ूर
रा इल
बा ज
दर् श
 सौ ं
श िक
या त
 ज ंगल
 ब्ल ॉक
 प्रस्त ुत
 शरी र
 प ोल
 सा ब
 र फ्तार
 रा जा
मैं ने
 स्थान ों
 लॉन् च
  G
 ह रा
 भ जन
पी एस
 न ्यूनतम
वाल ियर
 रे प
 माह ौल
 दबा व
 प्रे र
 स्टा फ
ू नी
 म िस
 रा यपुर
 मार् केट
 सहाय ता
 मजद ूर
 लंब े
3 4
 पर ियोजना
 पू जन
 एक्ट ्रेस
 दक्षि ण
इ ज
 एस ोस
ब ारा
 ब ंध
 द स्ता
 य ही
 रा केश
 उस में
 पा ठ
00 0
 स त्ता
वी न
आई आर
प ल
 र िस
 हि रासत
ं जन
टे न
इ ंड
्म ू
a y
व धान
 कंप नियों
लोक सभा
जी नियर
ित् सा
 ब ड़े
क् का
वा ने
 चुनाव ों
 अभ ्यर्थ
 बचा ने
य ल
 स िक
 ख ंड
 लक्ष ्य
 आख िरी
  V
 अ ज
 सेल्स ियस
 म ल
 का उ
 का ट
ऐ सा
 श ान
 श पथ
टी म
 इ तिहास
्रे लिया
स्ट ्र
क्र िय
 अनु मति
ट् ट
ए ंगे
द् दी
 जान ते
 मश ीन
ॉर्ट म
 अभ िय
 ना ग
जु न
- च
 वित ्त
r i
 नि देशक
 फाइन ल
इ धर
 कर नी
ंद े
 बी ते
 गा ड़ी
ल म
ार ाम
कर ा
 निक ले
इ मेज
ना म
त् त
ल ब
ने स
 साथ ी
को र
 शिव िर
 लड़ की
सो मवार
प द
ु ति
 जा ति
 इ तनी
पी एम
इक िल
 जता ई
 उद यपुर
ज िले
ो प
 श ंकर
की ल
 उन को
 कम िश्
 बु जुर्ग
ं टर
र् जर
 रख ते
 आद ित्य
्य ता
 प्र ाइवेट
 फ ें
 मु ह
ोज क
 सै नी
ह त्या
ग्र ह
 उ द्योग
 सम ूह
 संत ोष
 मुकाब ले
रो ज
 ध ार्मिक
ांच ी
 संचाल क
दूस रे
न ल
 ए ग्
 मुकद मा
ew s
ब ां
 क ्ला
 द ास
 कि र
 कर वाई
 ट ूट
 रू म
 रे फर
 संचाल ित
स ंग
ह ारी
् व
 स ंदीप
ें गी
 नी ति
 फैस ले
 ड ्यूटी
 अम र
 चि ंता
 विद्य ार्थियों
 हा दसा
 गुज रात
ती न
  L
 ब ड़ा
र् तन
 सम ी
 ला पर
क ़
फ ॉर्म
्य ेक
 फ ूल
स्प े
 गिरा वट
 तारी ख
लका ता
थ ी
 श ूट
 स सुर
 ट ाइ
 सप् लाई
आ ग
व ्यू
 च ढ़
स ाल
 इ तना
शन िवार
 ऑ परेशन
 निय ंत्र
 सो नी
 मे ह
 हिस् से
प्री त
 भ रा
िया ना
श् न
त क
ु क्ति
ौ ली
 ए क्टर
 पाल न
ि पा
िक ्र
बा दी
 रोज गार
 प्रशिक्ष ण
 निर्धार ित
  U
' ,
 क ंट
 स क्रिय
 ह ल
 प्र थम
फिल ्म
ित् व
 ज मानत
 अ ट
ित ्स
िला स
3 7
ल् ला
 मो टर
उ त्
भ ि
ष् ठा
 सू ची
 पै दा
 संप त्ति
 इलेक्ट ्र
 साब ित
 क क्षा
 अ खिल
र् द
 इ न्
स्ट ्रेलिया
 उठा या
रवि वार
 सा ध
 करवा ने
 बू थ
इ ंदौर
 क हां
 से ल
 मां गी
 चे यर
 इं जीनियर
 एसोस िएशन
 पस ंद
 ख ड़े
 पु ष्
 ट्रै फिक
उ थ
 स प
 इ स्ती
 वे ब
 चिक ित्सा
 उ तार
ेल न
 क्ष मता
 आर क्षण
वं त
 अं ब
 डॉ लर
 खा ते
 अर विंद
 वित रण
 फायर िंग
 थ ो
ह ो
कर् मी
 मनी ष
a m
 प्र भा
 स् मार्ट
 झ ू
 दा खिल
अप ने
 उपा ध्यक्ष
 विस्त ार
u r
 आ ती
 मह ाम
 क्र म
गण ना
 लापर वाही
 चुनौ ती
 म ास
 अका उंट
 कि रा
ले श
 चाह ता
ेम ारी
प्रधान मंत्री
ि मा
 स्टे ट
ण सी
थ े
स्त र
- म
द ास
स्थ ल
' 

ल िंग
 वि वे
ंड र
प ट
 प्रति मा
 पोस्ट म
घा टन
ड्ड ा
 डायरे क्टर
क ्यों
 ल ै
ान ि
 वि श्वास
 स्ट ैंड
राज स्थान
 मुद् दे
 का ल
 ध ान
 उम्मीदवार ों
 संद ेश
 स्क ू
 भाव ना
श ासन
 द ूरी
 पोस्टम ॉर्टम
व ली
 स पा
 स लाह
 प ्ला
 ट ॉप
 सो च
 गु जर
ि मी
 श ै
 घ ूम
 निश ाना
 किश ोर
ि ग्ध
् वी
 ग ार्ड
 त भी
 प्र बंध
 क ने
 प्र माण
 अनु मान
 मानस ून
उ से
े न्द्र
ार् व
 आर ती
 योजना ओं
 गौर व
र ु
 सर पंच
 कमिश् नर
3 8
घ ायल
 र द्द
 सम ाप्त
 बढ़ ाने
 फै क्ट
प ार्
य ं
भा ष
वे ल
 सक ेंगे
 कर्म ियों
 निय ुक्त
सी य
 सी नियर
 ज्ञ ापन
 भी तर
सी सी
 ठ ंड
 इंड स्ट्री
शु क्रवार
ज ांच
ना टक
 प्र िय
 ड िप्टी
 ठ गी
 क ड़ी
िप ल
 यून िट
ट का
 ए ंट
 इ ंच
 स्थाप ना
ण ि
त भी
 कर ियर
 चला या
 संघ र्ष
 भुगत ान
  l
ं ती
 अ र्थ
क ंप
 फिल्म ों
 बल् ले
 ट्रै क्टर
 ले ना
ाला त
 इंटर व्यू
सा इड
 हे ड
 वृ द्धि
आरोप ियों
 तो ड़
धिक ार
 दुर् गा
 प्र दीप
 ताला ब
 भ रो
 पू र्
वि ध
 शिक ार
 हटा ने
सच िव
प ता
 प ्यार
 र हीं
 प्र ार
के शन
 बा की
 वर् तमान
 गो द
 गो पाल
 चे ता
 विश ाल
 रा जीव
 पा वर
म् बर
30 0
 र ुक
 हो नी
 स् पी
 सम ीक्षा
्रे ड
 सर्व िस
 न शे
ना ड
 सं सद
 कार्य काल
 गठ न
 आत ंक
 प्रि ंस
o l
औ र
 जो न
तिक ्रमण
 हाई वे
 बज कर
ब ो
म ंगलवार
द्र ा
स्टे बल
 ज बर
 व ्
 ड ाला
 ला इट
बी आई
जय पुर
अ ल
ज िद
 द ान
