{
  "version": "1.0",
  "truncation": null,
  "padding": null,
  "added_tokens": [],
  "normalizer": null,
  "pre_tokenizer": {
    "type": "Sequence",
    "pretokenizers": [
      {
        "type": "Split",
        "pattern": {
          "Regex": "[^\\r\\n\\p{L}\\p{N}]?[\\p{Lu}\\p{Lt}\\p{Lm}\\p{Lo}\\p{M}]*[\\p{Ll}\\p{Lm}\\p{Lo}\\p{M}]+|[^\\r\\n\\p{L}\\p{N}]?[\\p{Lu}\\p{Lt}\\p{Lm}\\p{Lo}\\p{M}]+[\\p{Ll}\\p{Lm}\\p{Lo}\\p{M}]*|\\p{N}{1,3}| ?[^\\s\\p{L}\\p{N}]+[\\r\\n/]*|\\s*[\\r\\n]+|\\s+(?!\\S)|\\s+"
        },
        "behavior": "Isolated",
        "invert": false
      }
    ]
  },
  "post_processor": null,
  "decoder": null,
  "model": {
    "type": "BPE",
    "dropout": null,
    "unk_token": null,
    "continuing_subword_prefix": null,
    "end_of_word_suffix": null,
    "fuse_unk": false,
    "byte_fallback": false,
    "ignore_merges": false,
    "vocab": {
      "\n": 0,
      " ": 1,
      "!": 2,
      "\"": 3,
      "#": 4,
      "$": 5,
      "%": 6,
      "&": 7,
      "'": 8,
      "(": 9,
      ")": 10,
      "*": 11,
      "+": 12,
      ",": 13,
      "-": 14,
      ".": 15,
      "/": 16,
      "0": 17,
      "1": 18,
      "2": 19,
      "3": 20,
      "4": 21,
      "5": 22,
      "6": 23,
      "7": 24,
      "8": 25,
      "9": 26,
      ":": 27,
      ";": 28,
      "=": 29,
      ">": 30,
      "?": 31,
      "@": 32,
      "A": 33,
      "B": 34,
      "C": 35,
      "D": 36,
      "E": 37,
      "F": 38,
      "G": 39,
      "H": 40,
      "I": 41,
      "J": 42,
      "K": 43,
      "L": 44,
      "M": 45,
      "N": 46,
      "O": 47,
      "P": 48,
      "Q": 49,
      "R": 50,
      "S": 51,
      "T": 52,
      "U": 53,
      "V": 54,
      "W": 55,
      "X": 56,
      "Y": 57,
      "Z": 58,
      "[": 59,
      "\\": 60,
      "]": 61,
      "^": 62,
      "_": 63,
      "a": 64,
      "b": 65,
      "c": 66,
      "d": 67,
      "e": 68,
      "f": 69,
      "g": 70,
      "h": 71,
      "i": 72,
      "j": 73,
      "k": 74,
      "l": 75,
      "m": 76,
      "n": 77,
      "o": 78,
      "p": 79,
      "q": 80,
      "r": 81,
      "s": 82,
      "t": 83,
      "u": 84,
      "v": 85,
      "w": 86,
      "x": 87,
      "y": 88,
      "z": 89,
      "{": 90,
      "}": 91,
      "~": 92,
      "£": 93,
      "¨": 94,
      "­": 95,
      "°": 96,
      "²": 97,
      "·": 98,
      "º": 99,
      "½": 100,
      "×": 101,
      "ï": 102,
      "ँ": 103,
      "ं": 104,
      "ः": 105,
      "अ": 106,
      "आ": 107,
      "इ": 108,
      "ई": 109,
      "उ": 110,
      "ऊ": 111,
      "ऋ": 112,
      "ऍ": 113,
      "ए": 114,
      "ऐ": 115,
      "ऑ": 116,
      "ओ": 117,
      "औ": 118,
      "क": 119,
      "ख": 120,
      "ग": 121,
      "घ": 122,
      "ङ": 123,
      "च": 124,
      "छ": 125,
      "ज": 126,
      "झ": 127,
      "ञ": 128,
      "ट": 129,
      "ठ": 130,
      "ड": 131,
      "ढ": 132,
      "ण": 133,
      "त": 134,
      "थ": 135,
      "द": 136,
      "ध": 137,
      "न": 138,
      "ऩ": 139,
      "प": 140,
      "फ": 141,
      "ब": 142,
      "भ": 143,
      "म": 144,
      "य": 145,
      "र": 146,
      "ऱ": 147,
      "ल": 148,
      "ळ": 149,
      "व": 150,
      "श": 151,
      "ष": 152,
      "स": 153,
      "ह": 154,
      "़": 155,
      "ऽ": 156,
      "ा": 157,
      "ि": 158,
      "ी": 159,
      "ु": 160,
      "ू": 161,
      "ृ": 162,
      "ॅ": 163,
      "ॆ": 164,
      "े": 165,
      "ै": 166,
      "ॉ": 167,
      "ॊ": 168,
      "ो": 169,
      "ौ": 170,
      "्": 171,
      "ॐ": 172,
      "॑": 173,
      "क़": 174,
      "ख़": 175,
      "ग़": 176,
      "ज़": 177,
      "ड़": 178,
      "ढ़": 179,
      "फ़": 180,
      "य़": 181,
      "ॠ": 182,
      "।": 183,
      "॥": 184,
      "०": 185,
      "१": 186,
      "२": 187,
      "३": 188,
      "४": 189,
      "५": 190,
      "६": 191,
      "८": 192,
      "९": 193,
      "॰": 194,
      "ঁ": 195,
      "অ": 196,
      "আ": 197,
      "ই": 198,
      "এ": 199,
      "ও": 200,
      "ক": 201,
      "খ": 202,
      "ঘ": 203,
      "চ": 204,
      "ছ": 205,
      "জ": 206,
      "ট": 207,
      "ঠ": 208,
      "ড": 209,
      "ণ": 210,
      "ত": 211,
      "দ": 212,
      "ধ": 213,
      "ন": 214,
      "প": 215,
      "ব": 216,
      "ম": 217,
      "য": 218,
      "র": 219,
      "ল": 220,
      "ষ": 221,
      "স": 222,
      "়": 223,
      "া": 224,
      "ি": 225,
      "ী": 226,
      "ু": 227,
      "ে": 228,
      "ো": 229,
      "্": 230,
      "ઢ": 231,
      "ం": 232,
      "ఇ": 233,
      "క": 234,
      "గ": 235,
      "చ": 236,
      "ఛ": 237,
      "జ": 238,
      "ట": 239,
      "డ": 240,
      "ణ": 241,
      "త": 242,
      "థ": 243,
      "ద": 244,
      "న": 245,
      "ప": 246,
      "ఫ": 247,
      "బ": 248,
      "భ": 249,
      "ర": 250,
      "ల": 251,
      "వ": 252,
      "శ": 253,
      "స": 254,
      "ా": 255,
      "ి": 256,
      "ీ": 257,
      "ు": 258,
      "ూ": 259,
      "ె": 260,
      "ే": 261,
      "ొ": 262,
      "ో": 263,
      "్": 264,
      "‌": 265,
      "‍": 266,
      "‎": 267,
      "‛": 268,
      "•": 269,
      "⁠": 270,
      "€": 271,
      "₹": 272,
      "℃": 273,
      "⏩": 274,
      "⏱": 275,
      "▪": 276,
      "○": 277,
      "●": 278,
      "☀": 279,
      "♈": 280,
      "♉": 281,
      "♊": 282,
      "♋": 283,
      "♌": 284,
      "♍": 285,
      "♏": 286,
      "♐": 287,
      "♑": 288,
      "♒": 289,
      "♓": 290,
      "♦": 291,
      "⚠": 292,
      "⚫": 293,
      "❓": 294,
      "❗": 295,
      "➤": 296,
      "⭐": 297,
      "": 298,
      "️": 299,
      "𝐀": 300,
      "𝐃": 301,
      "𝐍": 302,
      "𝟎": 303,
      "𝟏": 304,
      "𝟐": 305,
      "𝟑": 306,
      "𝟒": 307,
      "𝟕": 308,
      "𝟖": 309,
      "𝟗": 310,
      "🇮": 311,
      "🇳": 312,
      "🌅": 313,
      "🌙": 314,
      "🌟": 315,
      "🎉": 316,
      "🏅": 317,
      "🏹": 318,
      "🐉": 319,
      "💫": 320,
      "🔴": 321,
      "🔵": 322,
      "🕐": 323,
      "🗓": 324,
      "😉": 325,
      "😎": 326,
      "😜": 327,
      "😸": 328,
      "🤔": 329,
      "🤩": 330,
      "🦌": 331,
      "🧭": 332,
      "🪐": 333,
      " क": 334,
      " स": 335,
      " म": 336,
      " ह": 337,
      " प": 338,
      "।\n": 339,
      "ार": 340,
      "ें": 341,
      "ने": 342,
      " के": 343,
      " ब": 344,
      "्र": 345,
      "या": 346,
      " में": 347,
      " है": 348,
      " ज": 349,
      " द": 350,
      " र": 351,
      " ल": 352,
      " की": 353,
      "ों": 354,
      " अ": 355,
      " व": 356,
      " ग": 357,
      "र्": 358,
      " को": 359,
      " न": 360,
      "ान": 361,
      " से": 362,
      " कि": 363,
      "ता": 364,
      " ने": 365,
      " आ": 366,
      " का": 367,
      " कर": 368,
      " भ": 369,
      "ाल": 370,
      " पर": 371,
      " त": 372,
      "ना": 373,
      "िक": 374,
      "्य": 375,
      "िल": 376,
      " श": 377,
      " उ": 378,
      " औ": 379,
      "स्": 380,
      " और": 381,
      " च": 382,
      "क्": 383,
      " थ": 384,
      "ां": 385,
      " प्र": 386,
      " ए": 387,
      "इस": 388,
      "ाम": 389,
      "ही": 390,
      "िया": 391,
      " हो": 392,
      "वा": 393,
      "ित": 394,
      "के": 395,
      "हा": 396,
      "ला": 397,
      "कर": 398,
      "ले": 399,
      " हैं": 400,
      " बा": 401,
      "िय": 402,
      "िस": 403,
      "ड़": 404,
      "िए": 405,
      "ुर": 406,
      " भी": 407,
      " जा": 408,
      "ंग": 409,
      " ख": 410,
      "ते": 411,
      " फ": 412,
      "त्र": 413,
      "रा": 414,
      "ेश": 415,
      " स्": 416,
      " वि": 417,
      " य": 418,
      "री": 419,
      "िन": 420,
      "ारी": 421,
      "ती": 422,
      "हीं": 423,
      " रा": 424,
      " हु": 425,
      "ुल": 426,
      "टी": 427,
      " किया": 428,
      "्या": 429,
      "सी": 430,
      "नी": 431,
      "वार": 432,
      "गा": 433,
      "ति": 434,
      "से": 435,
      " सा": 436,
      " लिए": 437,
      " ड": 438,
      "ंद": 439,
      "न्": 440,
      " इ": 441,
      " गया": 442,
      " था": 443,
      " एक": 444,
      "क्ष": 445,
      " पह": 446,
      " सं": 447,
      "ोग": 448,
      " ले": 449,
      " नहीं": 450,
      " सम": 451,
      " रह": 452,
      "ाय": 453,
      " दे": 454,
      " इस": 455,
      " नि": 456,
      "का": 457,
      "िला": 458,
      " घ": 459,
      " कार": 460,
      " ट": 461,
      " अप": 462,
      "ली": 463,
      "की": 464,
      " ही": 465,
      "ियों": 466,
      " बाद": 467,
      "भा": 468,
      "त्": 469,
      "ार्": 470,
      "पी": 471,
      " सि": 472,
      " मु": 473,
      "मा": 474,
      "ंड": 475,
      "ास": 476,
      "िर": 477,
      "ुलिस": 478,
      " गई": 479,
      "न्ह": 480,
      "गी": 481,
      " कहा": 482,
      " साथ": 483,
      "सा": 484,
      " करने": 485,
      "टर": 486,
      "रो": 487,
      "रे": 488,
      " कु": 489,
      "दी": 490,
      " पू": 491,
      " बता": 492,
      "ंच": 493,
      " रहे": 494,
      " थी": 495,
      " दिया": 496,
      "्री": 497,
      " तो": 498,
      " अध": 499,
      " वाल": 500,
      "मी": 501,
      " सु": 502,
      "कार": 503,
      "ाना": 504,
      "्रे": 505,
      "पुर": 506,
      "वि": 507,
      "20": 508,
      " लोग": 509,
      "ौर": 510,
      "स्ट": 511,
      "जी": 512,
      " सी": 513,
      "जा": 514,
      "ल्": 515,
      " तक": 516,
      " रहा": 517,
      "दा": 518,
      "में": 519,
      " दो": 520,
      " छ": 521,
      " पुलिस": 522,
      "वी": 523,
      "भी": 524,
      "गे": 525,
      "देश": 526,
      "हर": 527,
      " अन": 528,
      "ष्": 529,
      " दी": 530,
      " हुए": 531,
      " मह": 532,
      " ला": 533,
      " बताया": 534,
      " मिल": 535,
      " चु": 536,
      "गर": 537,
      "िश": 538,
      " राज": 539,
      "ंह": 540,
      " ध": 541,
      "कि": 542,
      " रही": 543,
      " उन": 544,
      " थे": 545,
      " उस": 546,
      "ंत्र": 547,
      "्त": 548,
      "बा": 549,
      "्ष": 550,
      ".\n": 551,
      "ानी": 552,
      "हां": 553,
      "टे": 554,
      " या": 555,
      " मौ": 556,
      "जन": 557,
      " बार": 558,
      "ाई": 559,
      "शन": 560,
      "ओं": 561,
      "ोंने": 562,
      "जे": 563,
      "ाह": 564,
      "बर": 565,
      "िव": 566,
      "ढ़": 567,
      " सिंह": 568,
      "पा": 569,
      "न्होंने": 570,
      "स्थ": 571,
      " (": 572,
      " लगा": 573,
      " गए": 574,
      " बी": 575,
      "मार": 576,
      "र्ट": 577,
      "वे": 578,
      "ुप": 579,
      " जाए": 580,
      " पहु": 581,
      "स्त": 582,
      "िंग": 583,
      " पहुंच": 584,
      "द्": 585,
      " लेकर": 586,
      " सर": 587,
      "द्र": 588,
      " दिन": 589,
      "्म": 590,
      "च्": 591,
      " बे": 592,
      " बना": 593,
      " मो": 594,
      " स्थ": 595,
      " जो": 596,
      "नों": 597,
      " अधिक": 598,
      "ैं": 599,
      " पहले": 600,
      "ाज": 601,
      "किन": 602,
      " हुई": 603,
      "क्र": 604,
      " लोगों": 605,
      " अपने": 606,
      "ंत्री": 607,
      "ेल": 608,
      " आरो": 609,
      "श्": 610,
      " माम": 611,
      "ोज": 612,
      " मे": 613,
      " दौर": 614,
      "ोक": 615,
      "वर": 616,
      " साल": 617,
      "खा": 618,
      "र्म": 619,
      " यह": 620,
      "टा": 621,
      " होने": 622,
      "ंध": 623,
      " कार्य": 624,
      " सक": 625,
      " वाले": 626,
      "इसके": 627,
      " दौरान": 628,
      "ांच": 629,
      "तर": 630,
      " भार": 631,
      " टी": 632,
      " क्ष": 633,
      " परि": 634,
      "डी": 635,
      "मान": 636,
      " सो": 637,
      " जी": 638,
      "वाल": 639,
      " हुआ": 640,
      "बी": 641,
      "नाव": 642,
      " पा": 643,
      " गां": 644,
      " पी": 645,
      " ओ": 646,
      "इन": 647,
      "को": 648,
      " दर्": 649,
      " साम": 650,
      " तर": 651,
      "धान": 652,
      "प्र": 653,
      "्रेस": 654,
      " वर्": 655,
      " निर्": 656,
      " जान": 657,
      " बात": 658,
      "ेत्र": 659,
      "ड़ी": 660,
      "एम": 661,
      " जिस": 662,
      "ूल": 663,
      "कारी": 664,
      "मे": 665,
      " करते": 666,
      " रुप": 667,
      "र्व": 668,
      "ाप": 669,
      "टना": 670,
      "च्च": 671,
      "ूर": 672,
      "वं": 673,
      "सर": 674,
      " शुर": 675,
      "ेंद्र": 676,
      " मां": 677,
      "ष्ट": 678,
      " कुमार": 679,
      "िप": 680,
      " क्षेत्र": 681,
      " शाम": 682,
      "ड़ा": 683,
      " घर": 684,
      " बि": 685,
      " उप": 686,
      "एस": 687,
      " हम": 688,
      "10": 689,
      "उन्होंने": 690,
      " सरकार": 691,
      "ोट": 692,
      " शिक": 693,
      "ंप": 694,
      "कों": 695,
      "्स": 696,
      "स्प": 697,
      "ेट": 698,
      " आय": 699,
      "ून": 700,
      " काम": 701,
      "क्षा": 702,
      " रू": 703,
      " ऑ": 704,
      "202": 705,
      "ीन": 706,
      " चुनाव": 707,
      "क्त": 708,
      " यु": 709,
      " लिया": 710,
      " बै": 711,
      "ोर": 712,
      "्ल": 713,
      "ोल": 714,
      " वह": 715,
      " मा": 716,
      "वाई": 717,
      " द्": 718,
      "क्ट": 719,
      "जार": 720,
      " जब": 721,
      " पार्": 722,
      " अं": 723,
      " कम": 724,
      "क्टर": 725,
      "वारा": 726,
      " पास": 727,
      "सभा": 728,
      " लेकिन": 729,
      "िता": 730,
      "िम": 731,
      " कह": 732,
      "भाग": 733,
      " कै": 734,
      " अनु": 735,
      "ूस": 736,
      "चार": 737,
      " डॉ": 738,
      " चल": 739,
      "ाइ": 740,
      " आप": 741,
      " महिला": 742,
      " सभी": 743,
      "न्हें": 744,
      " दु": 745,
      "ेंगे": 746,
      " प्रति": 747,
      " कई": 748,
      " जु": 749,
      " कुछ": 750,
      " सब": 751,
      "शी": 752,
      " कॉ": 753,
      "पर": 754,
      " थाना": 755,
      "िका": 756,
      " गिर": 757,
      "िट": 758,
      " गांव": 759,
      " कोई": 760,
      " द्वारा": 761,
      "बंध": 762,
      "्यक्ष": 763,
      " अब": 764,
      " रो": 765,
      " सह": 766,
      " व्य": 767,
      " नाम": 768,
      " टीम": 769,
      "ारा": 770,
      " चौ": 771,
      " शुरू": 772,
      "र्स": 773,
      "ताल": 774,
      "म्": 775,
      " खिला": 776,
      " देख": 777,
      " समय": 778,
      "ख्य": 779,
      "द्ध": 780,
      " भा": 781,
      " अपनी": 782,
      "ैन": 783,
      "्यू": 784,
      " झ": 785,
      " निक": 786,
      "णा": 787,
      " हर": 788,
      " ऐ": 789,
      " बह": 790,
      "यर": 791,
      " मामले": 792,
      " ग्र": 793,
      " जन": 794,
      "मु": 795,
      "ृत": 796,
      " दर्ज": 797,
      " बजे": 798,
      " लग": 799,
      " स्ट": 800,
      "ये": 801,
      " सू": 802,
      "चा": 803,
      " रुपए": 804,
      "मंत्री": 805,
      " चाह": 806,
      " ट्र": 807,
      "िल्": 808,
      "ीड": 809,
      "जिस": 810,
      " विक": 811,
      " बच्च": 812,
      " हि": 813,
      "जर": 814,
      " भारत": 815,
      " उनके": 816,
      "ंबर": 817,
      " आरोप": 818,
      " इं": 819,
      " रूप": 820,
      "यह": 821,
      " रख": 822,
      " तरह": 823,
      "िले": 824,
      "फ्त": 825,
      "आई": 826,
      "्यों": 827,
      " अव": 828,
      " वे": 829,
      "ड़े": 830,
      "ायत": 831,
      " विभाग": 832,
      " अभ": 833,
      " ठ": 834,
      " ना": 835,
      " ता": 836,
      " मै": 837,
      " बीच": 838,
      " उन्हें": 839,
      " हा": 840,
      " बु": 841,
      "दार": 842,
      " गो": 843,
      "जू": 844,
      "क्स": 845,
      " ये": 846,
      "वन": 847,
      " जांच": 848,
      " कांग": 849,
      " शामिल": 850,
      "वहीं": 851,
      "ेज": 852,
      "त्या": 853,
      " लाख": 854,
      " किसी": 855,
      " बढ़": 856,
      "ंट": 857,
      " स्थित": 858,
      "चना": 859,
      "लय": 860,
      "पुलिस": 861,
      "ोर्ट": 862,
      " दि": 863,
      " एवं": 864,
      "ज्": 865,
      " डि": 866,
      " कांग्रेस": 867,
      " आई": 868,
      " देश": 869,
      " बन": 870,
      "एं": 871,
      " स्क": 872,
      " जिला": 873,
      " राम": 874,
      "स्पताल": 875,
      " होगा": 876,
      " करा": 877,
      " जाएगा": 878,
      " इन": 879,
      "ाली": 880,
      "पू": 881,
      "ाला": 882,
      " पै": 883,
      " उन्होंने": 884,
      " किए": 885,
      " गु": 886,
      " '": 887,
      "र्ड": 888,
      " अग": 889,
      " युव": 890,
      "वान": 891,
      "राज": 892,
      "ीब": 893,
      "प्": 894,
      "वासी": 895,
      "दान": 896,
      "बह": 897,
      "क्रम": 898,
      " तै": 899,
      " खिलाफ": 900,
      " \"": 901,
      "ेशन": 902,
      " बद": 903,
      "्यादा": 904,
      " जारी": 905,
      "जब": 906,
      " प्रदेश": 907,
      " कारण": 908,
      "ुरु": 909,
      " जाने": 910,
      "जय": 911,
      "ेंट": 912,
      " खु": 913,
      "धार": 914,
      " अस्पताल": 915,
      "ांस": 916,
      "ियां": 917,
      "नि": 918,
      "हार": 919,
      " पु": 920,
      " मुख्य": 921,
      " दोनों": 922,
      " इला": 923,
      "फी": 924,
      "हत": 925,
      "धी": 926,
      "हाल": 927,
      " याद": 928,
      "उस": 929,
      " नगर": 930,
      " अन्य": 931,
      " एस": 932,
      "क्ति": 933,
      "दे": 934,
      "सार": 935,
      " छा": 936,
      " लोक": 937,
      "र्थ": 938,
      " जानकारी": 939,
      " पार्टी": 940,
      " सीट": 941,
      " सुर": 942,
      " वाली": 943,
      "ंदिर": 944,
      " आरोपी": 945,
      " नेता": 946,
      "पाल": 947,
      " ज्यादा": 948,
      "तीय": 949,
      " उसे": 950,
      "सान": 951,
      "त्रा": 952,
      "लो": 953,
      " ओर": 954,
      " आए": 955,
      " करना": 956,
      " जाता": 957,
      "्यालय": 958,
      " बैठ": 959,
      "्रवाई": 960,
      " अध्यक्ष": 961,
      "ोड़": 962,
      " सद": 963,
      "50": 964,
      " उसके": 965,
      " रे": 966,
      "ुत": 967,
      "लग": 968,
      " मान": 969,
      " आज": 970,
      " उत्": 971,
      " घटना": 972,
      "ड़ी": 973,
      " जिले": 974,
      "िन्": 975,
      "ामी": 976,
      " बो": 977,
      " नी": 978,
      " मौत": 979,
      " कार्रवाई": 980,
      " मार": 981,
      " फिल": 982,
      "फ्तार": 983,
      " दूस": 984,
      " रात": 985,
      " हजार": 986,
      " वर्ष": 987,
      "गत": 988,
      " ली": 989,
      "हम": 990,
      " मंत्री": 991,
      " सामने": 992,
      " करीब": 993,
      "?\n": 994,
      "कान": 995,
      " परिवार": 996,
      " पूर्व": 997,
      " लि": 998,
      "धिक": 999,
      "12": 1000,
      " भाज": 1001,
      "्रीय": 1002,
      "र्मा": 1003,
      " शु": 1004,
      " देने": 1005,
      "ंस": 1006,
      " भाजपा": 1007,
      " मांग": 1008,
      "30": 1009,
      "िछ": 1010,
      "ब्": 1011,
      "वास": 1012,
      " मंदिर": 1013,
      " शा": 1014,
      " फिर": 1015,
      "शे": 1016,
      " निवासी": 1017,
      "ड़ा": 1018,
      "ियो": 1019,
      "सम": 1020,
      "ग्": 1021,
      " उनकी": 1022,
      " तीन": 1023,
      " आद": 1024,
      "ोन": 1025,
      "19": 1026,
      "ंत": 1027,
      " यादव": 1028,
      " मार्": 1029,
      "ोष": 1030,
      "भाव": 1031,
      "ूम": 1032,
      " मौके": 1033,
      "ायल": 1034,
      "जूद": 1035,
      "..": 1036,
      "ध्य": 1037,
      " दिए": 1038,
      "ेत": 1039,
      " स्कूल": 1040,
      " वो": 1041,
      " चला": 1042,
      " राज्य": 1043,
      "तार": 1044,
      " फै": 1045,
      " जै": 1046,
      " सबसे": 1047,
      " पहुंचे": 1048,
      "ूं": 1049,
      " होगी": 1050,
      " शिक्ष": 1051,
      "ारियों": 1052,
      "आर": 1053,
      " पानी": 1054,
      " आया": 1055,
      "उन": 1056,
      "स्था": 1057,
      "ंब": 1058,
      " जग": 1059,
      "राम": 1060,
      "ंगल": 1061,
      " विध": 1062,
      " फिल्म": 1063,
      " जर": 1064,
      " प्रश": 1065,
      "वल": 1066,
      " आने": 1067,
      " तैय": 1068,
      "ठा": 1069,
      "िल्ली": 1070,
      " सुबह": 1071,
      " ई": 1072,
      "ासन": 1073,
      " शहर": 1074,
      "दर्": 1075,
      "ंदर": 1076,
      "इक": 1077,
      " बारिश": 1078,
      " महा": 1079,
      "कु": 1080,
      " अधिकारी": 1081,
      "र्ण": 1082,
      " यहां": 1083,
      " अनुसार": 1084,
      " रहने": 1085,
      " मिली": 1086,
      "हन": 1087,
      "धा": 1088,
      " क्र": 1089,
      "15": 1090,
      " शिकायत": 1091,
      "बाद": 1092,
      " श्री": 1093,
      " युवक": 1094,
      "वाद": 1095,
      "ोजना": 1096,
      " गिरफ्तार": 1097,
      " पो": 1098,
      " डी": 1099,
      "लेकिन": 1100,
      " सकता": 1101,
      "कर्": 1102,
      " शर्मा": 1103,
      "श्व": 1104,
      " चाहिए": 1105,
      "ंज": 1106,
      "ायर": 1107,
      "ायक": 1108,
      "रण": 1109,
      "ियर": 1110,
      "मेंट": 1111,
      "च्छ": 1112,
      "त्व": 1113,
      "्रा": 1114,
      "ेंस": 1115,
      "ज्ञ": 1116,
      "ंगे": 1117,
      "सल": 1118,
      " क्या": 1119,
      " दा": 1120,
      " कंप": 1121,
      " बाहर": 1122,
      "ूट": 1123,
      " मत": 1124,
      "्ड": 1125,
      "िछले": 1126,
      "योग": 1127,
      " पद": 1128,
      " संबंध": 1129,
      "शा": 1130,
      " मोदी": 1131,
      " प्रा": 1132,
      " मिले": 1133,
      "िज": 1134,
      " अम": 1135,
      " सूचना": 1136,
      " आर": 1137,
      "11": 1138,
      " मैं": 1139,
      "ोध": 1140,
      "ंक": 1141,
      "र्फ": 1142,
      " मन": 1143,
      "लाई": 1144,
      " गा": 1145,
      "ियम": 1146,
      "201": 1147,
      " पूरी": 1148,
      " मिला": 1149,
      "था": 1150,
      " बंद": 1151,
      "स्थान": 1152,
      " कप": 1153,
      " राष्ट": 1154,
      "द्य": 1155,
      " कार्यक्रम": 1156,
      " पत्": 1157,
      " शव": 1158,
      "ोजन": 1159,
      " शे": 1160,
      " खा": 1161,
      "िपोर्ट": 1162,
      "00": 1163,
      " प्रो": 1164,
      "ख्या": 1165,
      "िश्": 1166,
      " करें": 1167,
      " सहित": 1168,
      " कर्म": 1169,
      " कोर्ट": 1170,
      "भार": 1171,
      "चान": 1172,
      " जाएगी": 1173,
      " चे": 1174,
      " ऑफ": 1175,
      "दो": 1176,
      " मी": 1177,
      "ांड": 1178,
      "ग्र": 1179,
      "मो": 1180,
      "माण": 1181,
      " स्व": 1182,
      "ांकि": 1183,
      " अला": 1184,
      "मेर": 1185,
      " मही": 1186,
      " अपना": 1187,
      "ताब": 1188,
      " भारतीय": 1189,
      " काफी": 1190,
      " दिल्ली": 1191,
      "यपुर": 1192,
      " शिव": 1193,
      "म्मी": 1194,
      "ीक्षा": 1195,
      "त्म": 1196,
      " विधान": 1197,
      " आगे": 1198,
      " ती": 1199,
      "गम": 1200,
      "एक": 1201,
      " होता": 1202,
      " जीत": 1203,
      "वरी": 1204,
      " ट्रे": 1205,
      "ट्": 1206,
      " सदस": 1207,
      "बे": 1208,
      "ुक्त": 1209,
      "ुक": 1210,
      "अब": 1211,
      " उसकी": 1212,
      "दन": 1213,
      "लों": 1214,
      " तहत": 1215,
      " मामला": 1216,
      "राब": 1217,
      " मौजूद": 1218,
      " रोड": 1219,
      " बहुत": 1220,
      " विकास": 1221,
      " लोकसभा": 1222,
      "ेंद": 1223,
      "इसमें": 1224,
      "ची": 1225,
      "सि": 1226,
      "ग्री": 1227,
      " केंद्र": 1228,
      "ेम": 1229,
      " बारे": 1230,
      " स्वा": 1231,
      " इंड": 1232,
      " चार": 1233,
      "क्षण": 1234,
      " सकते": 1235,
      "जह": 1236,
      " समाज": 1237,
      "म्मीद": 1238,
      " टे": 1239,
      "इल": 1240,
      " निर्देश": 1241,
      " सफ": 1242,
      " अलावा": 1243,
      "ंटे": 1244,
      " यू": 1245,
      " व्यव": 1246,
      " किसान": 1247,
      "तिक": 1248,
      " हत्या": 1249,
      "स्क": 1250,
      "हालांकि": 1251,
      "तम": 1252,
      " करोड़": 1253,
      "25": 1254,
      " योजना": 1255,
      " संग": 1256,
      "गढ़": 1257,
      " क्यों": 1258,
      " रिपोर्ट": 1259,
      " जगह": 1260,
      "दर्शन": 1261,
      "ड़े": 1262,
      "यहां": 1263,
      " गुरु": 1264,
      " पे": 1265,
      "साथ": 1266,
      " सुन": 1267,
      " कहना": 1268,
      "इसी": 1269,
      "ंगा": 1270,
      " विधानसभा": 1271,
      "फ्": 1272,
      " मीड": 1273,
      " उम्मीद": 1274,
      "ोरी": 1275,
      "खंड": 1276,
      " संख्या": 1277,
      " छो": 1278,
      "मिक": 1279,
      " बस": 1280,
      "काल": 1281,
      " छात्र": 1282,
      " वजह": 1283,
      " अलग": 1284,
      "लेज": 1285,
      " पता": 1286,
      "शेष": 1287,
      "ताओं": 1288,
      " बच्चों": 1289,
      "ेंड": 1290,
      " दिनों": 1291,
      " वाह": 1292,
      " बाइक": 1293,
      " हाल": 1294,
      "चित": 1295,
      " मीडिया": 1296,
      "इससे": 1297,
      "ुआ": 1298,
      "ार्थ": 1299,
      " वीड": 1300,
      "ामीण": 1301,
      "झे": 1302,
      " प्रधान": 1303,
      "जेपी": 1304,
      " वहां": 1305,
      " स्प": 1306,
      " करता": 1307,
      " मुताब": 1308,
      " लगे": 1309,
      "ांग": 1310,
      "शल": 1311,
      " फी": 1312,
      " तरफ": 1313,
      "स्ता": 1314,
      " मुताबिक": 1315,
      " करेंगे": 1316,
      " पिता": 1317,
      " आग": 1318,
      " होती": 1319,
      " घायल": 1320,
      "ोह": 1321,
      "णी": 1322,
      " भाग": 1323,
      "चाल": 1324,
      " जहां": 1325,
      "ैल": 1326,
      "जनों": 1327,
      " विधायक": 1328,
      "क्शन": 1329,
      " व्यक्ति": 1330,
      " आधार": 1331,
      " वा": 1332,
      " डे": 1333,
      " महीने": 1334,
      "तन": 1335,
      " पोस्ट": 1336,
      " वीडियो": 1337,
      " रवि": 1338,
      "ॉल": 1339,
      "घटना": 1340,
      " वोट": 1341,
      " सुरक्षा": 1342,
      " कुल": 1343,
      " पहुंची": 1344,
      " हों": 1345,
      "an": 1346,
      " बनाने": 1347,
      "वर्": 1348,
      "ियाणा": 1349,
      " पत्नी": 1350,
      "यू": 1351,
      " घंटे": 1352,
      " पुर": 1353,
      "ड़क": 1354,
      " परीक्षा": 1355,
      " पढ़": 1356,
      "शि": 1357,
      " पं": 1358,
      " पूछ": 1359,
      " बां": 1360,
      " करवा": 1361,
      " एन": 1362,
      "पति": 1363,
      "र्य": 1364,
      " नंबर": 1365,
      "मवार": 1366,
      " हाथ": 1367,
      "िति": 1368,
      " पंच": 1369,
      " पक": 1370,
      " भग": 1371,
      " फर": 1372,
      " आयोजन": 1373,
      "सू": 1374,
      "ज़": 1375,
      " नजर": 1376,
      " ब्र": 1377,
      "र्चा": 1378,
      " प्रभ": 1379,
      "दर": 1380,
      " सांस": 1381,
      "बल": 1382,
      "14": 1383,
      "लिए": 1384,
      "्ला": 1385,
      " गं": 1386,
      "वेश": 1387,
      " पूरा": 1388,
      " भर": 1389,
      "24": 1390,
      " पत्र": 1391,
      " शादी": 1392,
      " भाई": 1393,
      " इसके": 1394,
      " थाने": 1395,
      "चे": 1396,
      "द्यालय": 1397,
      "सु": 1398,
      " रन": 1399,
      " प्रत": 1400,
      " अधिकारियों": 1401,
      " दिख": 1402,
      " प्रशासन": 1403,
      "ंद्र": 1404,
      "-अ": 1405,
      " साह": 1406,
      " मुख्यमंत्री": 1407,
      " सच": 1408,
      " सर्": 1409,
      " दूसरे": 1410,
      " आस": 1411,
      " कृ": 1412,
      " दिव": 1413,
      " निर्माण": 1414,
      "िकल": 1415,
      " दुकान": 1416,
      " सकती": 1417,
      " अभी": 1418,
      "मत": 1419,
      " सम्म": 1420,
      " पिछले": 1421,
      "ारे": 1422,
      " लगाया": 1423,
      " तेज": 1424,
      " ढ": 1425,
      " तैयार": 1426,
      " मिलने": 1427,
      "ाने": 1428,
      "भीर": 1429,
      " एम": 1430,
      " खेल": 1431,
      " घोष": 1432,
      " बिज": 1433,
      " विशेष": 1434,
      "वीर": 1435,
      " योग": 1436,
      " जिसमें": 1437,
      " कंपनी": 1438,
      " वाला": 1439,
      " मंड": 1440,
      "स्ते": 1441,
      " न्या": 1442,
      "ंगलवार": 1443,
      "18": 1444,
      " कॉलेज": 1445,
      "इट": 1446,
      " लगातार": 1447,
      " S": 1448,
      "ीय": 1449,
      " बैठक": 1450,
      " जल": 1451,
      "रीज": 1452,
      " कल": 1453,
      " हूं": 1454,
      " वै": 1455,
      "ार्ट": 1456,
      " रेल": 1457,
      "ार्ड": 1458,
      " कराया": 1459,
      "ैंक": 1460,
      "िस्ट": 1461,
      "13": 1462,
      " सौ": 1463,
      " जून": 1464,
      " सेवा": 1465,
      " लड़": 1466,
      "मीन": 1467,
      " देते": 1468,
      "ियन": 1469,
      "वह": 1470,
      " डिग्री": 1471,
      " आम": 1472,
      " आरोपियों": 1473,
      " ऊ": 1474,
      "भग": 1475,
      " सांसद": 1476,
      "शत": 1477,
      "16": 1478,
      "ोजित": 1479,
      "जु": 1480,
      " केस": 1481,
      " उठा": 1482,
      "करण": 1483,
      "-प": 1484,
      " भे": 1485,
      " हिस्": 1486,
      " गंभीर": 1487,
      " एक्स": 1488,
      " कान": 1489,
      " बनाया": 1490,
      " श्र": 1491,
      " उनका": 1492,
      " जैसे": 1493,
      "यान": 1494,
      " लाल": 1495,
      " अर": 1496,
      "ऐसे": 1497,
      " माल": 1498,
      " पूरे": 1499,
      " आदि": 1500,
      "स्तान": 1501,
      "धवार": 1502,
      " करे": 1503,
      "क्रवार": 1504,
      "ल्ड": 1505,
      " गर्": 1506,
      "ष्ण": 1507,
      " गांधी": 1508,
      " -": 1509,
      "सं": 1510,
      " समझ": 1511,
      "ष्ठ": 1512,
      "बता": 1513,
      "नाथ": 1514,
      " व्यवस्था": 1515,
      " प्रदर्शन": 1516,
      " जाती": 1517,
      " निगम": 1518,
      " लगी": 1519,
      " जे": 1520,
      " डॉक्टर": 1521,
      "17": 1522,
      "स्या": 1523,
      " बड़ी": 1524,
      " खान": 1525,
      " मैच": 1526,
      "ैंड": 1527,
      "ूरी": 1528,
      "ियान": 1529,
      " माह": 1530,
      " विश्व": 1531,
      " हाई": 1532,
      " रुपये": 1533,
      "नर": 1534,
      "शु": 1535,
      "ंदी": 1536,
      "जाब": 1537,
      "िटी": 1538,
      " बढ़": 1539,
      " बॉ": 1540,
      " भर्": 1541,
      " नर": 1542,
      "निया": 1543,
      " वाप": 1544,
      " ड्र": 1545,
      " आयोजित": 1546,
      " C": 1547,
      "मुख": 1548,
      "काश": 1549,
      "पमान": 1550,
      " प्रया": 1551,
      " संचाल": 1552,
      "फर": 1553,
      " विरो": 1554,
      "हुल": 1555,
      " इलाज": 1556,
      "मह": 1557,
      " पहली": 1558,
      " हे": 1559,
      " समेत": 1560,
      " बीजेपी": 1561,
      "िली": 1562,
      " प्रभारी": 1563,
      "डा": 1564,
      " परेश": 1565,
      " पहचान": 1566,
      " पक्ष": 1567,
      " ग्रामीण": 1568,
      "ांत": 1569,
      "मर": 1570,
      " पांच": 1571,
      "ाप्त": 1572,
      " खे": 1573,
      " लेने": 1574,
      "दीप": 1575,
      "मैं": 1576,
      "न्न": 1577,
      "िरा": 1578,
      " व्या": 1579,
      " दें": 1580,
      "लाल": 1581,
      " तापमान": 1582,
      " भर्ती": 1583,
      " सदस्य": 1584,
      "आरो": 1585,
      " स्थान": 1586,
      "बंधन": 1587,
      " पड़": 1588,
      "षण": 1589,
      " पूजा": 1590,
      "दारी": 1591,
      " होते": 1592,
      " अच्छ": 1593,
      " अफ": 1594,
      " बाल": 1595,
      " आदेश": 1596,
      " खरी": 1597,
      "िन्न": 1598,
      " भगवान": 1599,
      " मद": 1600,
      " मना": 1601,
      " राजनी": 1602,
      " स्थिति": 1603,
      " शिक्षा": 1604,
      "ध्यक्ष": 1605,
      "200": 1606,
      " होकर": 1607,
      "जीत": 1608,
      " खुद": 1609,
      "िंद": 1610,
      " उसने": 1611,
      " बनाए": 1612,
      "न्द्र": 1613,
      "पास": 1614,
      "हरा": 1615,
      " मेड": 1616,
      "वाब": 1617,
      "एन": 1618,
      " ऐसा": 1619,
      " जेल": 1620,
      " नौ": 1621,
      "ैक": 1622,
      " सामान": 1623,
      " सित": 1624,
      " चलते": 1625,
      "पूर्ण": 1626,
      "त्री": 1627,
      "बार": 1628,
      "पहर": 1629,
      " रखा": 1630,
      " एक्ट": 1631,
      " मृत": 1632,
      " थीं": 1633,
      " रोक": 1634,
      " ट्रेन": 1635,
      "भिन्न": 1636,
      " जल्": 1637,
      " दर": 1638,
      " गठ": 1639,
      " चुके": 1640,
      " भेज": 1641,
      " नए": 1642,
      " जमीन": 1643,
      " बज": 1644,
      " जुलाई": 1645,
      " सोमवार": 1646,
      "वत": 1647,
      " करके": 1648,
      "ूर्": 1649,
      " पति": 1650,
      "स्ती": 1651,
      " कले": 1652,
      " अति": 1653,
      "स्थ्य": 1654,
      " सीएम": 1655,
      "ूप": 1656,
      "र्च": 1657,
      "ूत": 1658,
      " प्रतिशत": 1659,
      "वाह": 1660,
      " बिजली": 1661,
      " फोन": 1662,
      " बेह": 1663,
      " बल्": 1664,
      " तब": 1665,
      " चाल": 1666,
      " यात्रा": 1667,
      " ऐसे": 1668,
      "फा": 1669,
      " बने": 1670,
      " मदद": 1671,
      " इसे": 1672,
      " तस्": 1673,
      "षद": 1674,
      " नार": 1675,
      "रि": 1676,
      "श्य": 1677,
      " बाजार": 1678,
      "बाइल": 1679,
      " बेटे": 1680,
      " हमला": 1681,
      "टन": 1682,
      " तथा": 1683,
      " जनता": 1684,
      " चर्चा": 1685,
      " होंगे": 1686,
      "एल": 1687,
      " अवसर": 1688,
      "22": 1689,
      " शुरुआ": 1690,
      " अगस्त": 1691,
      "धिकारी": 1692,
      " गै": 1693,
      " समस्या": 1694,
      " सवाल": 1695,
      " जबकि": 1696,
      " पीछ": 1697,
      " जिन": 1698,
      " चुकी": 1699,
      " बच्चे": 1700,
      " शनि": 1701,
      " चोरी": 1702,
      " संप": 1703,
      " प्रयास": 1704,
      "्रम": 1705,
      " विभिन्न": 1706,
      " मंगलवार": 1707,
      "ानीय": 1708,
      " पेश": 1709,
      "मन": 1710,
      " A": 1711,
      " देर": 1712,
      "्ले": 1713,
      "वेदन": 1714,
      " अभियान": 1715,
      "ेक": 1716,
      " फैस": 1717,
      "क्षक": 1718,
      " देव": 1719,
      "पीट": 1720,
      "ठी": 1721,
      " बयान": 1722,
      " तला": 1723,
      "धि": 1724,
      " उसका": 1725,
      " दल": 1726,
      " सड़क": 1727,
      " सके": 1728,
      " पार": 1729,
      " जाते": 1730,
      "र्क": 1731,
      " सरकारी": 1732,
      "ल्प": 1733,
      " पहुंचा": 1734,
      "40": 1735,
      "गंज": 1736,
      " निय": 1737,
      " नई": 1738,
      " बेटी": 1739,
      " फा": 1740,
      " हमार": 1741,
      "रिक": 1742,
      "अप": 1743,
      " प्रधानमंत्री": 1744,
      "जाम": 1745,
      " यून": 1746,
      " करती": 1747,
      " पाल": 1748,
      " विरोध": 1749,
      "मौ": 1750,
      " सचिव": 1751,
      "माल": 1752,
      " सम्मान": 1753,
      "बू": 1754,
      "ar": 1755,
      " मि": 1756,
      " देखा": 1757,
      "चर": 1758,
      " रिक": 1759,
      " बिहार": 1760,
      "ूबर": 1761,
      "ैध": 1762,
      " अर्": 1763,
      " प्रमुख": 1764,
      " वित": 1765,
      "हित": 1766,
      "माम": 1767,
      " लॉ": 1768,
      " दिखा": 1769,
      " ज्": 1770,
      " बल": 1771,
      " बचा": 1772,
      " उम्मीदवार": 1773,
      " बैंक": 1774,
      " वाहन": 1775,
      " राष्ट्रीय": 1776,
      " मिन": 1777,
      " मिश": 1778,
      " सवार": 1779,
      " मुझे": 1780,
      "आज": 1781,
      "जान": 1782,
      " प्रे": 1783,
      "करी": 1784,
      " P": 1785,
      " माध्य": 1786,
      " ची": 1787,
      " मोबाइल": 1788,
      " अपरा": 1789,
      "गढ़": 1790,
      " स्तर": 1791,
      "ांव": 1792,
      " स्वास्थ्य": 1793,
      "ोपाल": 1794,
      " बुधवार": 1795,
      " महत्व": 1796,
      "शिश": 1797,
      " इलाके": 1798,
      " बर": 1799,
      " युवा": 1800,
      " दूर": 1801,
      " विवाद": 1802,
      " वापस": 1803,
      " समिति": 1804,
      "हाय": 1805,
      " महिलाओं": 1806,
      "केश": 1807,
      "टक": 1808,
      " सिर्फ": 1809,
      " वन": 1810,
      " उम": 1811,
      " इसकी": 1812,
      " देवी": 1813,
      " जैन": 1814,
      "ाक": 1815,
      "जिसके": 1816,
      "तना": 1817,
      " अल": 1818,
      "शनल": 1819,
      " वी": 1820,
      " भूम": 1821,
      "पक्ष": 1822,
      "्यान": 1823,
      " जिससे": 1824,
      " ग्राम": 1825,
      " दिस": 1826,
      "ंदौर": 1827,
      "एसपी": 1828,
      " रविवार": 1829,
      " लौ": 1830,
      " शुक्रवार": 1831,
      " राशि": 1832,
      "पुरा": 1833,
      " शनिवार": 1834,
      " कार्यकर्": 1835,
      "नगर": 1836,
      " अगर": 1837,
      "ूड": 1838,
      " जय": 1839,
      " सोशल": 1840,
      " बराम": 1841,
      "ट्र": 1842,
      " कोशिश": 1843,
      "धर": 1844,
      " अंदर": 1845,
      "क्टूबर": 1846,
      " लगभग": 1847,
      "ंका": 1848,
      "र्ग": 1849,
      " राहुल": 1850,
      " दोपहर": 1851,
      " मई": 1852,
      "एच": 1853,
      " वालों": 1854,
      "ंभ": 1855,
      "बि": 1856,
      " प्रभाव": 1857,
      "वीं": 1858,
      "स्टर": 1859,
      " शेयर": 1860,
      " पंचायत": 1861,
      " इंटर": 1862,
      " बरामद": 1863,
      "क्कर": 1864,
      " समर्थ": 1865,
      " मध्य": 1866,
      "माश": 1867,
      "हरी": 1868,
      " निकल": 1869,
      "टल": 1870,
      " अवैध": 1871,
      " सितंबर": 1872,
      " पुत्र": 1873,
      "उंड": 1874,
      "सो": 1875,
      " जीवन": 1876,
      "कार्य": 1877,
      "ल्स": 1878,
      " गुरुवार": 1879,
      "रिया": 1880,
      " कहते": 1881,
      "ौन": 1882,
      " परिजनों": 1883,
      "श्च": 1884,
      " संघ": 1885,
      "रात": 1886,
      "जहां": 1887,
      "ात": 1888,
      " चुका": 1889,
      "जिसमें": 1890,
      "दसे": 1891,
      "ॉप": 1892,
      "ालय": 1893,
      "भर": 1894,
      "इड": 1895,
      "21": 1896,
      " राजस्थान": 1897,
      "देव": 1898,
      " करो": 1899,
      " देकर": 1900,
      " जरूर": 1901,
      "ताछ": 1902,
      "षा": 1903,
      "तृ": 1904,
      " जल्द": 1905,
      " बड़ा": 1906,
      " शराब": 1907,
      "गल": 1908,
      " हॉ": 1909,
      " अक्टूबर": 1910,
      " संत": 1911,
      " सें": 1912,
      " मार्ग": 1913,
      " रेलवे": 1914,
      "पह": 1915,
      "वंबर": 1916,
      " संगठ": 1917,
      " पीछे": 1918,
      "धरी": 1919,
      " इंडिया": 1920,
      " मंत्र": 1921,
      "एफ": 1922,
      " लिखा": 1923,
      "दोनों": 1924,
      " N": 1925,
      " शुरुआत": 1926,
      "थि": 1927,
      "ेंद्रीय": 1928,
      "ॉर्ड": 1929,
      " कार्यालय": 1930,
      "जल": 1931,
      "किंग": 1932,
      " एड": 1933,
      " जम": 1934,
      "िक्ष": 1935,
      " गल": 1936,
      "तीस": 1937,
      "यन": 1938,
      " B": 1939,
      " संभाव": 1940,
      " धर्म": 1941,
      "किस्तान": 1942,
      "भारत": 1943,
      " टिक": 1944,
      " राष्ट्र": 1945,
      " दिसंबर": 1946,
      "ैंप": 1947,
      "23": 1948,
      " तौर": 1949,
      "साद": 1950,
      "ड़क": 1951,
      " दौ": 1952,
      " मुख": 1953,
      " अभि": 1954,
      "स्थित": 1955,
      "लोग": 1956,
      "िवार": 1957,
      " जाएंगे": 1958,
      "पक": 1959,
      " जाना": 1960,
      "बाल": 1961,
      " क्योंकि": 1962,
      " इसका": 1963,
      "ोस": 1964,
      "विधा": 1965,
      " राय": 1966,
      "चारी": 1967,
      " नवंबर": 1968,
      " अमेर": 1969,
      " देखने": 1970,
      " नोट": 1971,
      "िलों": 1972,
      " मारपीट": 1973,
      "26": 1974,
      " गुप": 1975,
      "लाइन": 1976,
      " विजय": 1977,
      "100": 1978,
      " मिनट": 1979,
      " रि": 1980,
      " प्राप्त": 1981,
      "खन": 1982,
      "लर": 1983,
      " चौधरी": 1984,
      "र्जी": 1985,
      "कत": 1986,
      "जो": 1987,
      "्ता": 1988,
      "ंदा": 1989,
      "खिल": 1990,
      " किलो": 1991,
      " बड़े": 1992,
      "टेड": 1993,
      "टेल": 1994,
      "in": 1995,
      "सव": 1996,
      "िसर": 1997,
      "प्रदेश": 1998,
      " उपल": 1999,
      " दूसरी": 2000,
      " कट": 2001,
      "मारी": 2002,
      " लक्ष": 2003,
      "िम्म": 2004,
      "प्री": 2005,
      "पोर्ट": 2006,
      " मजब": 2007,
      "ुरा": 2008,
      "फ़": 2009,
      " प्ल": 2010,
      " नेताओं": 2011,
      "धन": 2012,
      " किसानों": 2013,
      " स्टेशन": 2014,
      " माध्यम": 2015,
      " प्रत्या": 2016,
      " कर्": 2017,
      "स्व": 2018,
      "विद्यालय": 2019,
      "फे": 2020,
      " रु": 2021,
      " ब्ल": 2022,
      " सहाय": 2023,
      "ांक": 2024,
      "ौल": 2025,
      "सत": 2026,
      " मेडिकल": 2027,
      " केवल": 2028,
      " होना": 2029,
      " जवाब": 2030,
      " नियम": 2031,
      "ंडी": 2032,
      " बढ़ा": 2033,
      " मेरे": 2034,
      "at": 2035,
      " अंतर": 2036,
      "कल": 2037,
      " लगाए": 2038,
      "मृत": 2039,
      " मतदान": 2040,
      " तीस": 2041,
      "वित": 2042,
      "िटल": 2043,
      "नो": 2044,
      "केट": 2045,
      "्यो": 2046,
      " धम": 2047,
      "...\n": 2048,
      " वार": 2049,
      " अप्र": 2050,
      " संद": 2051,
      " ध्यान": 2052,
      "कृ": 2053,
      " गण": 2054,
      "र्या": 2055,
      "िकेट": 2056,
      " इसी": 2057,
      " आसपास": 2058,
      " माता": 2059,
      "28": 2060,
      "वो": 2061,
      " एयर": 2062,
      "र्ष": 2063,
      " पंजाब": 2064,
      " भारी": 2065,
      "यु": 2066,
      "गू": 2067,
      "दाय": 2068,
      "िशा": 2069,
      "भव": 2070,
      " अंत": 2071,
      " ते": 2072,
      "घा": 2073,
      "छा": 2074,
      "मार्ट": 2075,
      " बदल": 2076,
      " रज": 2077,
      " निकाल": 2078,
      "कांग": 2079,
      " मुद्": 2080,
      " लाइन": 2081,
      "क्रिया": 2082,
      " डाल": 2083,
      " I": 2084,
      " स्थानीय": 2085,
      " शाह": 2086,
      "जरी": 2087,
      " बनी": 2088,
      " कराने": 2089,
      " सर्व": 2090,
      " संय": 2091,
      "त्ता": 2092,
      " जन्": 2093,
      " सुविधा": 2094,
      " उत्तर": 2095,
      " मरीज": 2096,
      " नदी": 2097,
      "-अलग": 2098,
      " कभी": 2099,
      " लिख": 2100,
      " मार्च": 2101,
      " मौसम": 2102,
      "धियों": 2103,
      " बदमाश": 2104,
      "27": 2105,
      " शो": 2106,
      "ियार": 2107,
      " हिंद": 2108,
      " लाभ": 2109,
      " आवेदन": 2110,
      " हरियाणा": 2111,
      "ॉक": 2112,
      " बिना": 2113,
      "दि": 2114,
      " सप्": 2115,
      " जयपुर": 2116,
      "कोर्ट": 2117,
      " टिकट": 2118,
      " जिसके": 2119,
      "िप्": 2120,
      " छोड़": 2121,
      " हमारे": 2122,
      " सां": 2123,
      " देखते": 2124,
      "िरी": 2125,
      "डे": 2126,
      " फरार": 2127,
      " करोड़": 2128,
      "जबकि": 2129,
      " सीटों": 2130,
      "कांग्रेस": 2131,
      " पदा": 2132,
      "फ्ट": 2133,
      " प्रक्रिया": 2134,
      "तरी": 2135,
      "ज्ञान": 2136,
      " उपलब्": 2137,
      " M": 2138,
      " प्ले": 2139,
      " बदला": 2140,
      "चारियों": 2141,
      "ंकर": 2142,
      "फिल": 2143,
      " जमा": 2144,
      "क्षित": 2145,
      "िग": 2146,
      " अग्र": 2147,
      " भेजा": 2148,
      " प्रसाद": 2149,
      "ंबई": 2150,
      " सफल": 2151,
      "तृत्व": 2152,
      " क्": 2153,
      " कैसे": 2154,
      " संबंधित": 2155,
      " उद्": 2156,
      "त्तीस": 2157,
      " पूछताछ": 2158,
      " जिलों": 2159,
      " रोज": 2160,
      " संभावना": 2161,
      "ूक": 2162,
      " एज": 2163,
      " जनवरी": 2164,
      "असल": 2165,
      " हटा": 2166,
      " निरी": 2167,
      "दु": 2168,
      "्रोल": 2169,
      "उसके": 2170,
      " R": 2171,
      "ेंसी": 2172,
      "िम्मे": 2173,
      " तय": 2174,
      " फीस": 2175,
      " एक्सप": 2176,
      " खबर": 2177,
      " सहयोग": 2178,
      " लो": 2179,
      " ट्रै": 2180,
      "on": 2181,
      " विकेट": 2182,
      " अहम": 2183,
      " नेतृत्व": 2184,
      " आव": 2185,
      " रखने": 2186,
      "जों": 2187,
      " चले": 2188,
      "कार्यक्रम": 2189,
      " धन": 2190,
      " बोर्ड": 2191,
      " पढ़ें": 2192,
      "अगर": 2193,
      "चु": 2194,
      "ृह": 2195,
      " कर्मचारी": 2196,
      " परेशान": 2197,
      "काब": 2198,
      "),": 2199,
      " शि": 2200,
      "जद": 2201,
      " सै": 2202,
      " गोली": 2203,
      "नात": 2204,
      "धे": 2205,
      "जीव": 2206,
      "टो": 2207,
      "स्ल": 2208,
      " निश": 2209,
      "लोक": 2210,
      " उर्फ": 2211,
      " हिस्सा": 2212,
      "ियल": 2213,
      " लगाने": 2214,
      " तैयारी": 2215,
      " हास": 2216,
      "तों": 2217,
      "यों": 2218,
      "घर": 2219,
      "फिर": 2220,
      "झा": 2221,
      " दावा": 2222,
      " कलेक्टर": 2223,
      " चि": 2224,
      " तलाश": 2225,
      " कब्": 2226,
      "ित्": 2227,
      " जाकर": 2228,
      " कीमत": 2229,
      " नीचे": 2230,
      "नियर": 2231,
      "व्य": 2232,
      "ुओं": 2233,
      " विद्य": 2234,
      "लादेश": 2235,
      "गांव": 2236,
      " बोले": 2237,
      " प्रत्याशी": 2238,
      "चार्य": 2239,
      " श्रद्ध": 2240,
      "मुख्य": 2241,
      " दुर्": 2242,
      "आरोपी": 2243,
      " वार्ड": 2244,
      "हरियाणा": 2245,
      "-क": 2246,
      " आयोग": 2247,
      "उनके": 2248,
      "दूस": 2249,
      "गु": 2250,
      " छात्रों": 2251,
      " नरेंद्र": 2252,
      "ड़ित": 2253,
      " इसलिए": 2254,
      " गुप्ता": 2255,
      "ड्": 2256,
      " फैसला": 2257,
      " नागर": 2258,
      "िन्ह": 2259,
      " बच": 2260,
      " हासिल": 2261,
      " सजा": 2262,
      " फोट": 2263,
      "ामा": 2264,
      "आप": 2265,
      " आपको": 2266,
      "ूब": 2267,
      "लोनी": 2268,
      " छात्रा": 2269,
      "ष्य": 2270,
      "ॉर्म": 2271,
      " मंडल": 2272,
      " घु": 2273,
      " क्ल": 2274,
      "ष्ट्र": 2275,
      " ।\n": 2276,
      "29": 2277,
      " जिम्मे": 2278,
      " वायर": 2279,
      " खास": 2280,
      " विदेश": 2281,
      "चन": 2282,
      " गति": 2283,
      " रहते": 2284,
      "स्तेमाल": 2285,
      " जता": 2286,
      "राह": 2287,
      " वक्त": 2288,
      " इस्तेमाल": 2289,
      " पीएम": 2290,
      "ापन": 2291,
      " अप्रैल": 2292,
      " केंद्रीय": 2293,
      "कम": 2294,
      "ील": 2295,
      " रंग": 2296,
      " तरी": 2297,
      " कर्मचारियों": 2298,
      " इससे": 2299,
      " बल्कि": 2300,
      " न्याय": 2301,
      " चिक": 2302,
      " ओवर": 2303,
      " ज़": 2304,
      "er": 2305,
      "किस": 2306,
      " चरण": 2307,
      " रहेगा": 2308,
      " स्थाप": 2309,
      " पाकिस्तान": 2310,
      " टेस्ट": 2311,
      "ांति": 2312,
      "ियोग": 2313,
      "लू": 2314,
      " प्रकार": 2315,
      "ग्लादेश": 2316,
      "तीश": 2317,
      "हान": 2318,
      " खो": 2319,
      " वर्ग": 2320,
      "षि": 2321,
      "दम": 2322,
      " भाव": 2323,
      "कुछ": 2324,
      " भवन": 2325,
      "िनि": 2326,
      "वाली": 2327,
      "नु": 2328,
      " रिश्": 2329,
      "त्ति": 2330,
      " तत्": 2331,
      " डाय": 2332,
      "ारोह": 2333,
      "चीत": 2334,
      "दरअसल": 2335,
      "ब्ल": 2336,
      " D": 2337,
      "श्वास": 2338,
      "35": 2339,
      "ीक": 2340,
      " व्याप": 2341,
      "तरा": 2342,
      "्मी": 2343,
      "क्ता": 2344,
      " समारोह": 2345,
      "जपा": 2346,
      " बुला": 2347,
      "ंगी": 2348,
      "दों": 2349,
      "ारखंड": 2350,
      "टने": 2351,
      "वें": 2352,
      "िशन": 2353,
      "थमिक": 2354,
      " सुनी": 2355,
      "ायण": 2356,
      " ज्ञ": 2357,
      " बनने": 2358,
      "खी": 2359,
      " संजय": 2360,
      " पाए": 2361,
      "सुर": 2362,
      " लड़": 2363,
      " गर्मी": 2364,
      " रण": 2365,
      " साइ": 2366,
      " चंद्र": 2367,
      " साफ": 2368,
      " परिसर": 2369,
      "श्यक": 2370,
      " मकान": 2371,
      " हथ": 2372,
      " पेट": 2373,
      " टक्कर": 2374,
      "गार": 2375,
      "बाजी": 2376,
      " मानस": 2377,
      " घोषणा": 2378,
      " मैदान": 2379,
      " गौ": 2380,
      " कराई": 2381,
      " हालत": 2382,
      " मॉ": 2383,
      " खत्म": 2384,
      " गाय": 2385,
      " दिवस": 2386,
      " महत्वपूर्ण": 2387,
      "बै": 2388,
      "ैनिक": 2389,
      " चौक": 2390,
      " इंदौर": 2391,
      " संगठन": 2392,
      "फिक": 2393,
      " कला": 2394,
      " बातचीत": 2395,
      " हमें": 2396,
      "नौ": 2397,
      " शुभ": 2398,
      " बंग": 2399,
      "वाही": 2400,
      " दुनिया": 2401,
      "खनऊ": 2402,
      " मश": 2403,
      " चालक": 2404,
      "ड्ड": 2405,
      " गिरा": 2406,
      " कार्ड": 2407,
      " दोस्त": 2408,
      "ेय": 2409,
      " आश": 2410,
      "तिम": 2411,
      " हार": 2412,
      "महिला": 2413,
      "तनी": 2414,
      "ाइम": 2415,
      " माना": 2416,
      "ंडा": 2417,
      " सीमा": 2418,
      " रिकॉर्ड": 2419,
      " पूर्ण": 2420,
      "मता": 2421,
      " नव": 2422,
      " ति": 2423,
      " न्याया": 2424,
      "ंसा": 2425,
      "सभी": 2426,
      " प्रकाश": 2427,
      "भाजपा": 2428,
      " पैसे": 2429,
      " राजनीतिक": 2430,
      " फायर": 2431,
      "ेश्": 2432,
      " एसपी": 2433,
      " मिलकर": 2434,
      " घोषित": 2435,
      "लिया": 2436,
      "दाल": 2437,
      "पिछले": 2438,
      "इसलिए": 2439,
      " सिर": 2440,
      " नया": 2441,
      " चा": 2442,
      "हास": 2443,
      "द्योग": 2444,
      " गठबंधन": 2445,
      " सत": 2446,
      " सड़क": 2447,
      "खे": 2448,
      " आवश्यक": 2449,
      " भोपाल": 2450,
      " किस": 2451,
      "मीटर": 2452,
      " स्वी": 2453,
      " ठीक": 2454,
      " यानी": 2455,
      "45": 2456,
      " ऊपर": 2457,
      "बु": 2458,
      " वहीं": 2459,
      "मेटी": 2460,
      " मूल": 2461,
      " वृ": 2462,
      "्रेट": 2463,
      "जानकारी": 2464,
      "al": 2465,
      " दिल": 2466,
      " आवा": 2467,
      " त्र": 2468,
      " फु": 2469,
      " उपलब्ध": 2470,
      " उपस्थित": 2471,
      " ऐसी": 2472,
      "विधान": 2473,
      " ट्रांस": 2474,
      " ड्राइ": 2475,
      "पन": 2476,
      " मुकाब": 2477,
      " खुला": 2478,
      "श्री": 2479,
      "षेक": 2480,
      "विंद": 2481,
      " विचार": 2482,
      " पश्च": 2483,
      " सेंटर": 2484,
      " जरिए": 2485,
      " नागरिक": 2486,
      "ूडेंट": 2487,
      "31": 2488,
      "निक": 2489,
      "रों": 2490,
      " भु": 2491,
      " पाया": 2492,
      " प्राथमिक": 2493,
      "60": 2494,
      " कमी": 2495,
      " घा": 2496,
      "ठक": 2497,
      " लगाई": 2498,
      " ताकि": 2499,
      " मुक": 2500,
      " सदर": 2501,
      " खरीद": 2502,
      "डल": 2503,
      " दू": 2504,
      "ित्य": 2505,
      " मीटर": 2506,
      "तियों": 2507,
      " शी": 2508,
      " अश": 2509,
      "चानक": 2510,
      " जन्म": 2511,
      " अगले": 2512,
      " आख": 2513,
      " वर्षीय": 2514,
      " उद": 2515,
      "द्धि": 2516,
      " खराब": 2517,
      " निजी": 2518,
      "मीर": 2519,
      "तु": 2520,
      "रल": 2521,
      "ोत्": 2522,
      "स्कार": 2523,
      "राय": 2524,
      " धारा": 2525,
      "ुल्": 2526,
      " राज्यों": 2527,
      " पांड": 2528,
      " बोल": 2529,
      "सीटी": 2530,
      " तस्वीर": 2531,
      " रै": 2532,
      "ंता": 2533,
      " पल": 2534,
      "स्कर": 2535,
      " सिटी": 2536,
      " चाहते": 2537,
      "वाना": 2538,
      " अंक": 2539,
      " कहीं": 2540,
      " मोह": 2541,
      " समर्थन": 2542,
      "कर्म": 2543,
      " दर्शन": 2544,
      " आन": 2545,
      " एल": 2546,
      " विद्यालय": 2547,
      " समु": 2548,
      "बोध": 2549,
      "वजूद": 2550,
      " प्रस्त": 2551,
      " क्षेत्रों": 2552,
      " देना": 2553,
      " धमकी": 2554,
      " पड़ा": 2555,
      " समा": 2556,
      "चिका": 2557,
      " मोहन": 2558,
      " कॉन्": 2559,
      " फोटो": 2560,
      "चल": 2561,
      "ैया": 2562,
      " दिला": 2563,
      " लागू": 2564,
      "इनमें": 2565,
      " सदस्यों": 2566,
      " मुला": 2567,
      " मुंबई": 2568,
      " अमित": 2569,
      "70": 2570,
      " वायरल": 2571,
      " प्रस्ता": 2572,
      " प्रवेश": 2573,
      " आते": 2574,
      " तु": 2575,
      " अग्रवाल": 2576,
      " फे": 2577,
      " पौ": 2578,
      "िब": 2579,
      " बाबा": 2580,
      "पूर्व": 2581,
      "ॉट": 2582,
      " सही": 2583,
      " खेत": 2584,
      "ेंडर": 2585,
      " अंतिम": 2586,
      "ूह": 2587,
      "राव": 2588,
      "र्न": 2589,
      "स्टम": 2590,
      " चुना": 2591,
      " आपके": 2592,
      "जिला": 2593,
      " नुक": 2594,
      "वट": 2595,
      " इंत": 2596,
      " तैनात": 2597,
      " मैंने": 2598,
      " कमेटी": 2599,
      " ऑन": 2600,
      "उट": 2601,
      " कॉलोनी": 2602,
      " कही": 2603,
      "ुरी": 2604,
      " उम्र": 2605,
      "पहले": 2606,
      " यूपी": 2607,
      "मति": 2608,
      "\"\n": 2609,
      "सिंह": 2610,
      " सुनवाई": 2611,
      " सेना": 2612,
      " तह": 2613,
      " बनाकर": 2614,
      " सुना": 2615,
      "बताया": 2616,
      " बदलाव": 2617,
      "्याण": 2618,
      " राष्ट्रपति": 2619,
      "िक्": 2620,
      "ार्ज": 2621,
      " उच्च": 2622,
      " उठ": 2623,
      "न्ना": 2624,
      " कानून": 2625,
      "किल": 2626,
      "ख्त": 2627,
      "सों": 2628,
      " टै": 2629,
      " संक": 2630,
      "उसने": 2631,
      " सभा": 2632,
      " परिषद": 2633,
      " क्रिकेट": 2634,
      " गेट": 2635,
      " इसमें": 2636,
      "प्शन": 2637,
      " दिखाई": 2638,
      "िकी": 2639,
      "दालत": 2640,
      " रहता": 2641,
      " वर्मा": 2642,
      " निवेश": 2643,
      "ियोगिता": 2644,
      " वरि": 2645,
      " ख़": 2646,
      " पटेल": 2647,
      "पण": 2648,
      "ुण": 2649,
      " एंड": 2650,
      " रखी": 2651,
      "ध्या": 2652,
      " पड़": 2653,
      "तंत्र": 2654,
      "िद": 2655,
      " मं": 2656,
      " ऑफिस": 2657,
      "सील": 2658,
      " प्रभावित": 2659,
      "चुनाव": 2660,
      "डॉ": 2661,
      "पं": 2662,
      "दात": 2663,
      " शिक्षक": 2664,
      " गेंद": 2665,
      " गाड़ी": 2666,
      "ानों": 2667,
      "ष्ट्रीय": 2668,
      " करेगी": 2669,
      "योध": 2670,
      "तिहास": 2671,
      " अमेरिका": 2672,
      "नेट": 2673,
      " बनाई": 2674,
      " निर्ण": 2675,
      " नुकसान": 2676,
      " स्टे": 2677,
      " पदाधिकारी": 2678,
      "कई": 2679,
      "तल": 2680,
      "िड": 2681,
      " पहला": 2682,
      " उपयोग": 2683,
      "स्पिटल": 2684,
      " बू": 2685,
      " न्यू": 2686,
      " जरूरी": 2687,
      " बेहतर": 2688,
      " जिसे": 2689,
      " हथियार": 2690,
      " असर": 2691,
      " चोर": 2692,
      " किन": 2693,
      "ाराष्ट्र": 2694,
      " स्टूडेंट": 2695,
      " ग्रामीणों": 2696,
      "गो": 2697,
      "क्षि": 2698,
      " राजनीति": 2699,
      "ूर्ति": 2700,
      "दू": 2701,
      " पढ़": 2702,
      " मृतक": 2703,
      " तरीके": 2704,
      " प्रेम": 2705,
      "इसे": 2706,
      " लगने": 2707,
      " हादसे": 2708,
      "सब": 2709,
      " सामान्य": 2710,
      " पुल": 2711,
      " बहन": 2712,
      " विश्वविद्यालय": 2713,
      "योध्या": 2714,
      "सद": 2715,
      " तुर": 2716,
      " ट्रक": 2717,
      "or": 2718,
      "कुल": 2719,
      "तने": 2720,
      "नेश": 2721,
      " री": 2722,
      " परिव": 2723,
      " तीनों": 2724,
      " जरूरत": 2725,
      "सीटीवी": 2726,
      "र्गत": 2727,
      " बावजूद": 2728,
      " राहत": 2729,
      " भूमिका": 2730,
      "डीएम": 2731,
      " गलत": 2732,
      "-ब": 2733,
      "ड़ों": 2734,
      " फ़": 2735,
      " लूट": 2736,
      " मिश्रा": 2737,
      "ैर": 2738,
      " प्रता": 2739,
      "शहर": 2740,
      "िनी": 2741,
      "टिंग": 2742,
      "ल्ल": 2743,
      "sh": 2744,
      " रिली": 2745,
      " एफ": 2746,
      "मृतक": 2747,
      " वरिष्ठ": 2748,
      " धर": 2749,
      " फ्र": 2750,
      "ॉर्ट": 2751,
      " नम": 2752,
      "क्या": 2753,
      "पंच": 2754,
      " बड़ी": 2755,
      " लगाकर": 2756,
      " स्थल": 2757,
      " तत्काल": 2758,
      " प्रदान": 2759,
      "कात": 2760,
      " कारो": 2761,
      " मजबूत": 2762,
      " अचानक": 2763,
      "जेक्ट": 2764,
      " ,": 2765,
      "ैसे": 2766,
      " मजद": 2767,
      " कॉल": 2768,
      "धु": 2769,
      " मेरी": 2770,
      " तुरंत": 2771,
      " स्वागत": 2772,
      " गिरफ्त": 2773,
      " बिल्": 2774,
      " होटल": 2775,
      " कैम": 2776,
      " रिज": 2777,
      "कुमार": 2778,
      " E": 2779,
      "खर": 2780,
      "ाले": 2781,
      " विष": 2782,
      " संस्थान": 2783,
      " तेजी": 2784,
      " चंद": 2785,
      " लेते": 2786,
      "परि": 2787,
      " कृष्ण": 2788,
      "ार्थियों": 2789,
      "र्डर": 2790,
      " फाइन": 2791,
      " कोच": 2792,
      " लगता": 2793,
      "र्थिक": 2794,
      " सफाई": 2795,
      " हॉस्पिटल": 2796,
      "ंकी": 2797,
      " मनी": 2798,
      " उपा": 2799,
      " बांग्लादेश": 2800,
      " K": 2801,
      "ल्ट": 2802,
      " मिलेगा": 2803,
      " निरीक्षण": 2804,
      "वहां": 2805,
      " ग्रुप": 2806,
      " सीटें": 2807,
      "हम्म": 2808,
      "उंट": 2809,
      " सात": 2810,
      "तो": 2811,
      "बालिग": 2812,
      " रिलीज": 2813,
      " जित": 2814,
      " फीसदी": 2815,
      "्यून": 2816,
      " लॉन्": 2817,
      " जोर": 2818,
      " कार्यकर्ताओं": 2819,
      "फ्र": 2820,
      " अस": 2821,
      " बेच": 2822,
      "राज्य": 2823,
      " रहेगी": 2824,
      " तोड़": 2825,
      " याचिका": 2826,
      " प्रचार": 2827,
      "ित्र": 2828,
      "डीए": 2829,
      " वाहनों": 2830,
      "ताह": 2831,
      " दबा": 2832,
      " चीन": 2833,
      " चोट": 2834,
      " लंब": 2835,
      " अशोक": 2836,
      "डिंग": 2837,
      " अपराध": 2838,
      " भू": 2839,
      " विपक्ष": 2840,
      " जिन्ह": 2841,
      " छु": 2842,
      " महार": 2843,
      " उनसे": 2844,
      "हरे": 2845,
      "इसका": 2846,
      " ताला": 2847,
      " अफसर": 2848,
      " जाम": 2849,
      "ड़ियों": 2850,
      "पे": 2851,
      " जागर": 2852,
      " करेगा": 2853,
      " हल्": 2854,
      " जब्त": 2855,
      " कल्याण": 2856,
      "रान": 2857,
      "त्तीसगढ़": 2858,
      "-स": 2859,
      " गुर": 2860,
      "विष्य": 2861,
      "ज्ञात": 2862,
      " नौकरी": 2863,
      " जमकर": 2864,
      "80": 2865,
      " शांति": 2866,
      "बीर": 2867,
      " मालिक": 2868,
      "उन्हें": 2869,
      " लाइ": 2870,
      " हिंदू": 2871,
      " उससे": 2872,
      " पि": 2873,
      " संभ": 2874,
      " लु": 2875,
      " अजय": 2876,
      " कपूर": 2877,
      " एक्सप्रेस": 2878,
      "हम्मद": 2879,
      " कदम": 2880,
      " टा": 2881,
      " ऋ": 2882,
      " गी": 2883,
      " हमारी": 2884,
      " निर्णय": 2885,
      "विल": 2886,
      "रासत": 2887,
      " रहती": 2888,
      "वरण": 2889,
      " सामना": 2890,
      " झारखंड": 2891,
      "रिक्त": 2892,
      "गुरु": 2893,
      " हवा": 2894,
      "त्रियों": 2895,
      " मुलाकात": 2896,
      " अंतर्गत": 2897,
      "वती": 2898,
      " जुड़े": 2899,
      " प्रतियोगिता": 2900,
      " गृह": 2901,
      "कीय": 2902,
      "ृति": 2903,
      " मू": 2904,
      " रास्ते": 2905,
      "पथ": 2906,
      "िवर्स": 2907,
      "ब्र": 2908,
      " नाराज": 2909,
      " नोटिस": 2910,
      "गण": 2911,
      " प्रतिनि": 2912,
      " संबोध": 2913,
      " जवान": 2914,
      "्यु": 2915,
      " बजट": 2916,
      "ेश्वर": 2917,
      " फरवरी": 2918,
      ")\n": 2919,
      " करवाया": 2920,
      " ड्राइवर": 2921,
      "लेक्ट": 2922,
      "र्श": 2923,
      "जिससे": 2924,
      " छोटे": 2925,
      " व्यक्त": 2926,
      "ांकन": 2927,
      " फ्ल": 2928,
      " अपील": 2929,
      " लौट": 2930,
      "मुख्यमंत्री": 2931,
      " शरी": 2932,
      " डा": 2933,
      "ल्ले": 2934,
      " इलाकों": 2935,
      "त्मक": 2936,
      "्तान": 2937,
      "्याम": 2938,
      " परिजन": 2939,
      "ोलन": 2940,
      "...": 2941,
      "तमान": 2942,
      " किश": 2943,
      " हमले": 2944,
      " अंजाम": 2945,
      "लोगों": 2946,
      "तब": 2947,
      " भक्त": 2948,
      " देशों": 2949,
      "नियों": 2950,
      " अदालत": 2951,
      " मिलते": 2952,
      "ग्राम": 2953,
      " देंगे": 2954,
      "थम": 2955,
      "वक": 2956,
      " तारी": 2957,
      " खुल": 2958,
      "आरोप": 2959,
      "ंटी": 2960,
      "ेशल": 2961,
      " आनंद": 2962,
      "दिन": 2963,
      "ाइवे": 2964,
      " साहू": 2965,
      " सुप्री": 2966,
      " ठाक": 2967,
      "तवाली": 2968,
      "सवाल": 2969,
      " बैठे": 2970,
      " पकड़": 2971,
      "ेंज": 2972,
      " आत्म": 2973,
      " फाय": 2974,
      "ेशा": 2975,
      " मामलों": 2976,
      "ाइल": 2977,
      " किलोमीटर": 2978,
      " संयुक्त": 2979,
      "स्लिम": 2980,
      "फल": 2981,
      " मंच": 2982,
      " पर्व": 2983,
      " पार्ट": 2984,
      "िक्स": 2985,
      "्रेन": 2986,
      "वारी": 2987,
      "ुड": 2988,
      " F": 2989,
      "वादी": 2990,
      " कौन": 2991,
      " राजेश": 2992,
      " हाउस": 2993,
      " ठाकुर": 2994,
      " पंड": 2995,
      "ैंस": 2996,
      " तहसील": 2997,
      " भविष्य": 2998,
      " सिस्टम": 2999,
      " धो": 3000,
      " जैसी": 3001,
      " बंगाल": 3002,
      " पटना": 3003,
      "ांसी": 3004,
      " संस्था": 3005,
      " कार्यकर्ता": 3006,
      "िश्चित": 3007,
      " मुकद": 3008,
      " बेटा": 3009,
      " निर्वा": 3010,
      " संर": 3011,
      "ti": 3012,
      " चुनौ": 3013,
      "ष्टि": 3014,
      " श्रद्धाल": 3015,
      "500": 3016,
      " गिरफ्तारी": 3017,
      "पो": 3018,
      " ठे": 3019,
      " प्रस्ताव": 3020,
      " आर्थिक": 3021,
      " खर्च": 3022,
      " मुश्": 3023,
      "ाजिक": 3024,
      " गैंग": 3025,
      "्राम": 3026,
      " आं": 3027,
      "स्त्र": 3028,
      " स्टा": 3029,
      "रज": 3030,
      " मर": 3031,
      "देशक": 3032,
      " सत्र": 3033,
      " सुधार": 3034,
      " सीसीटीवी": 3035,
      "ंघ": 3036,
      " सुख": 3037,
      " संचालन": 3038,
      "जरीवाल": 3039,
      " बताते": 3040,
      "दारों": 3041,
      "ॉय": 3042,
      " दक्षि": 3043,
      " आंद": 3044,
      "इसकी": 3045,
      " आयु": 3046,
      " प्रशिक्ष": 3047,
      " सीरीज": 3048,
      " बांध": 3049,
      " अली": 3050,
      " आवास": 3051,
      " उत्पा": 3052,
      " ऑनलाइन": 3053,
      " देखकर": 3054,
      " परेशानी": 3055,
      " अभिषेक": 3056,
      "राष्ट्रीय": 3057,
      "स्ट्री": 3058,
      " छह": 3059,
      " कृषि": 3060,
      " वारदात": 3061,
      " जिंद": 3062,
      " अज्ञात": 3063,
      " दीपक": 3064,
      " मतदा": 3065,
      " आत": 3066,
      "लाह": 3067,
      "मामले": 3068,
      "ण्ड": 3069,
      " महाराज": 3070,
      " अधिकार": 3071,
      " अच्छी": 3072,
      "नेशनल": 3073,
      " मंत्रालय": 3074,
      "टेज": 3075,
      "वाला": 3076,
      "धानी": 3077,
      " T": 3078,
      "लेट": 3079,
      "सूचना": 3080,
      "सुबह": 3081,
      "वां": 3082,
      "वनी": 3083,
      " अलर्ट": 3084,
      " चली": 3085,
      "लपुर": 3086,
      " पर्य": 3087,
      " अतिरिक्त": 3088,
      " गतिवि": 3089,
      " अधी": 3090,
      "es": 3091,
      " पॉ": 3092,
      "वेज": 3093,
      " हमने": 3094,
      " हनु": 3095,
      " नाबालिग": 3096,
      " मनोज": 3097,
      " फर्जी": 3098,
      "्यार": 3099,
      " विस्त": 3100,
      " पार्षद": 3101,
      "उनकी": 3102,
      "पु": 3103,
      "लि": 3104,
      " निकाला": 3105,
      " युवती": 3106,
      " अच्छा": 3107,
      "पित": 3108,
      " बिक": 3109,
      " आशी": 3110,
      " जाय": 3111,
      " पीड़ित": 3112,
      "श्मीर": 3113,
      " मीणा": 3114,
      " मनाया": 3115,
      " पेट्रोल": 3116,
      "ra": 3117,
      "डर": 3118,
      " गईं": 3119,
      " पड़े": 3120,
      " फसल": 3121,
      " पैर": 3122,
      "िवारी": 3123,
      " सोने": 3124,
      " चलने": 3125,
      "en": 3126,
      "मैन": 3127,
      " बर्": 3128,
      " आकर": 3129,
      " कब्जे": 3130,
      "हे": 3131,
      " पर्या": 3132,
      " तिवारी": 3133,
      " प्रोजेक्ट": 3134,
      " दिशा": 3135,
      " नेशनल": 3136,
      "स्कृत": 3137,
      " कमा": 3138,
      " गौर": 3139,
      "सेना": 3140,
      "्रमण": 3141,
      " मौका": 3142,
      "ज्ज": 3143,
      " आंदोलन": 3144,
      "न्या": 3145,
      " तुल": 3146,
      " सिविल": 3147,
      " मोहम्मद": 3148,
      " देता": 3149,
      " महाराष्ट्र": 3150,
      "िवर्सिटी": 3151,
      "JP": 3152,
      " अनिल": 3153,
      " सालों": 3154,
      " झा": 3155,
      " सहायक": 3156,
      " घाट": 3157,
      "33": 3158,
      "वानी": 3159,
      " सुरक्षित": 3160,
      " स्पेशल": 3161,
      " डायरे": 3162,
      "सन": 3163,
      " तेल": 3164,
      "मार्टम": 3165,
      " कब": 3166,
      "वाड़ा": 3167,
      " घरों": 3168,
      " पट": 3169,
      " श्रे": 3170,
      " सल": 3171,
      "शाला": 3172,
      "शिप": 3173,
      " पारी": 3174,
      " दश": 3175,
      "ंडल": 3176,
      " अतिथि": 3177,
      " जिम्मेदारी": 3178,
      " पूछा": 3179,
      "ha": 3180,
      " रखे": 3181,
      "जिन": 3182,
      "साय": 3183,
      " दम": 3184,
      " कां": 3185,
      " गुज": 3186,
      " उसी": 3187,
      " चां": 3188,
      " मैने": 3189,
      " सम्मानित": 3190,
      "स्तव": 3191,
      "थाना": 3192,
      " राव": 3193,
      " खुलासा": 3194,
      " संबोधित": 3195,
      " दब": 3196,
      " सागर": 3197,
      " सुपर": 3198,
      "लका": 3199,
      "सित": 3200,
      "ांट": 3201,
      " एक्": 3202,
      " कुमारी": 3203,
      " सोन": 3204,
      " प्लान": 3205,
      "दसा": 3206,
      "रवि": 3207,
      "ह्": 3208,
      " किनारे": 3209,
      "पुरी": 3210,
      " दीप": 3211,
      " रजिस्ट": 3212,
      "नीय": 3213,
      " बदमाशों": 3214,
      " उद्देश": 3215,
      "वुड": 3216,
      "वेद": 3217,
      "उनका": 3218,
      " सुनील": 3219,
      " रक्षा": 3220,
      "ार्मिक": 3221,
      "श्वर": 3222,
      "मेज": 3223,
      "90": 3224,
      " अका": 3225,
      " सेक्टर": 3226,
      " आयुक्त": 3227,
      " सुप्रीम": 3228,
      " हिस": 3229,
      " भूमि": 3230,
      " पस": 3231,
      " धी": 3232,
      "बैठक": 3233,
      "मौके": 3234,
      "अभी": 3235,
      "पत": 3236,
      " कौ": 3237,
      " व्र": 3238,
      " खोल": 3239,
      "धिकारियों": 3240,
      "भारतीय": 3241,
      " पाई": 3242,
      "रीब": 3243,
      " रहेंगे": 3244,
      " जागरूक": 3245,
      " लाया": 3246,
      " पहुंचकर": 3247,
      "णाम": 3248,
      " हमेशा": 3249,
      " सप्ताह": 3250,
      "75": 3251,
      "ोश": 3252,
      "्यूटी": 3253,
      " प्रि": 3254,
      " स्कूलों": 3255,
      " प्रताप": 3256,
      "बारी": 3257,
      " युवकों": 3258,
      "ियस": 3259,
      " युवाओं": 3260,
      "कॉ": 3261,
      "मित": 3262,
      "कारों": 3263,
      " संपर्क": 3264,
      "मौसम": 3265,
      " शासन": 3266,
      " मुश्किल": 3267,
      " जला": 3268,
      "िएशन": 3269,
      " प्लेट": 3270,
      "मि": 3271,
      " कार्यों": 3272,
      " महिलाएं": 3273,
      " अंग": 3274,
      " लं": 3275,
      " डर": 3276,
      "ेंशन": 3277,
      " खाली": 3278,
      " शक्ति": 3279,
      " निभा": 3280,
      " यात्रियों": 3281,
      " चुनावी": 3282,
      " लखनऊ": 3283,
      " प्री": 3284,
      " रोहित": 3285,
      " नामांकन": 3286,
      "ोद": 3287,
      "्यूनतम": 3288,
      "ew": 3289,
      " बिग": 3290,
      " लिस्ट": 3291,
      " मरीजों": 3292,
      " आता": 3293,
      " कमरे": 3294,
      "जुर्ग": 3295,
      " कौर": 3296,
      " बच्ची": 3297,
      " न्यायालय": 3298,
      " घे": 3299,
      " गंगा": 3300,
      "्यर्थ": 3301,
      " उपचार": 3302,
      " समुदाय": 3303,
      " बेहद": 3304,
      "कै": 3305,
      " सिल": 3306,
      " मुस्लिम": 3307,
      " अधिकतम": 3308,
      "ंदीप": 3309,
      "32": 3310,
      " चयन": 3311,
      " प्रबंधन": 3312,
      " हाईकोर्ट": 3313,
      " रिश्ते": 3314,
      " हनुमान": 3315,
      " छाप": 3316,
      "त्रि": 3317,
      " गोल": 3318,
      " कोतवाली": 3319,
      "लीवुड": 3320,
      " पिछ": 3321,
      " बहा": 3322,
      " नो": 3323,
      " युद्ध": 3324,
      "िट्": 3325,
      "ोत्सव": 3326,
      "अन": 3327,
      "दिल्ली": 3328,
      "वै": 3329,
      " बिल": 3330,
      " सेक": 3331,
      " भीड़": 3332,
      "सीएम": 3333,
      "परेशन": 3334,
      " भास्कर": 3335,
      " आदमी": 3336,
      "ुल्क": 3337,
      " कैंप": 3338,
      "र्जा": 3339,
      " खूब": 3340,
      " दूसरा": 3341,
      "199": 3342,
      "le": 3343,
      " विश": 3344,
      " घुस": 3345,
      " मेरा": 3346,
      " गणेश": 3347,
      " आंक": 3348,
      " बताई": 3349,
      " मिलेगी": 3350,
      "di": 3351,
      "हादसे": 3352,
      "त्रों": 3353,
      " विवाह": 3354,
      " यूनिवर्सिटी": 3355,
      " पोस्टमार्टम": 3356,
      "िफ": 3357,
      "द्द": 3358,
      " सर्वे": 3359,
      "थर": 3360,
      " संविधान": 3361,
      " अधीक्षक": 3362,
      "शिव": 3363,
      " दृ": 3364,
      " फो": 3365,
      "वाया": 3366,
      "स्टे": 3367,
      " वर्ल्ड": 3368,
      " आवाज": 3369,
      "ाइवेट": 3370,
      " उद्देश्य": 3371,
      "-ज": 3372,
      "मानत": 3373,
      " मारने": 3374,
      " योगी": 3375,
      " पुरु": 3376,
      " तकनी": 3377,
      " लाने": 3378,
      " पहुंचने": 3379,
      " चौहान": 3380,
      " समाधान": 3381,
      "48": 3382,
      " रवाना": 3383,
      "रेन": 3384,
      " मुकेश": 3385,
      "म्प": 3386,
      " मुख्यालय": 3387,
      " पेपर": 3388,
      " सफलता": 3389,
      "पंजाब": 3390,
      " पुरुष": 3391,
      " वर्षों": 3392,
      "फिलहाल": 3393,
      " पश्चिम": 3394,
      " रैली": 3395,
      " सेल्स": 3396,
      " ऑटो": 3397,
      " व्रत": 3398,
      " निर": 3399,
      " छोड़": 3400,
      " केजरीवाल": 3401,
      "बीसी": 3402,
      "भू": 3403,
      " रिट": 3404,
      "करीब": 3405,
      "ग्ध": 3406,
      " सुनिश्चित": 3407,
      " मंडी": 3408,
      " अयोध्या": 3409,
      " निर्धार": 3410,
      " शिक्षकों": 3411,
      " डॉक्टरों": 3412,
      " दोष": 3413,
      "सरकार": 3414,
      "दल": 3415,
      " पहल": 3416,
      " कहानी": 3417,
      " सौंप": 3418,
      " इंतजार": 3419,
      " विषय": 3420,
      " फॉ": 3421,
      " इलेक्ट": 3422,
      " नीतीश": 3423,
      "पेट": 3424,
      "गीय": 3425,
      "्रीन": 3426,
      " सामाजिक": 3427,
      " पार्क": 3428,
      " कैप्शन": 3429,
      "-साथ": 3430,
      "55": 3431,
      "सच": 3432,
      " जॉ": 3433,
      "वासियों": 3434,
      " फीट": 3435,
      " नक": 3436,
      "सीबी": 3437,
      " सीजन": 3438,
      " स्थापित": 3439,
      "िये": 3440,
      "डियो": 3441,
      " दवा": 3442,
      " आउट": 3443,
      " सूर्य": 3444,
      " स्पष्ट": 3445,
      "36": 3446,
      "इंट": 3447,
      "क्सर": 3448,
      "ियोजना": 3449,
      "हरण": 3450,
      " शुक्": 3451,
      " वीर": 3452,
      "ैट": 3453,
      " पैसा": 3454,
      " कैं": 3455,
      " उतर": 3456,
      " प्रखंड": 3457,
      " टू": 3458,
      " चौकी": 3459,
      "चंद": 3460,
      "ड़ित": 3461,
      "स्वी": 3462,
      "सीपी": 3463,
      "प्रत": 3464,
      " खुश": 3465,
      " नारायण": 3466,
      "काम": 3467,
      "ग्रामीण": 3468,
      "िप्टी": 3469,
      " मिलता": 3470,
      "िमांड": 3471,
      " तीसरे": 3472,
      "्योति": 3473,
      " भुगत": 3474,
      "गरी": 3475,
      "दाबाद": 3476,
      " चेक": 3477,
      " एयरपोर्ट": 3478,
      " साइबर": 3479,
      "बच्च": 3480,
      "ारण": 3481,
      " प्रव": 3482,
      " रोकने": 3483,
      " स्टूडेंट्स": 3484,
      "कृत": 3485,
      " आठ": 3486,
      "रेट": 3487,
      " परिणाम": 3488,
      "शील": 3489,
      "बिहार": 3490,
      " फायदा": 3491,
      "नान": 3492,
      " जाल": 3493,
      " सिद्ध": 3494,
      "ार्थी": 3495,
      " तिथि": 3496,
      " निर्वाचन": 3497,
      "ाब": 3498,
      " किमी": 3499,
      "प्रधान": 3500,
      "मुझे": 3501,
      "ट्टी": 3502,
      " एजेंसी": 3503,
      " बुलाया": 3504,
      "मेश": 3505,
      " सूर": 3506,
      "राइल": 3507,
      "बाज": 3508,
      "दर्श": 3509,
      " सौं": 3510,
      "शिक": 3511,
      "यात": 3512,
      " जंगल": 3513,
      " ब्लॉक": 3514,
      " प्रस्तुत": 3515,
      " शरीर": 3516,
      " पोल": 3517,
      " साब": 3518,
      " रफ्तार": 3519,
      " राजा": 3520,
      "मैंने": 3521,
      " स्थानों": 3522,
      " लॉन्च": 3523,
      " G": 3524,
      " हरा": 3525,
      " भजन": 3526,
      "पीएस": 3527,
      " न्यूनतम": 3528,
      "वालियर": 3529,
      " रेप": 3530,
      " माहौल": 3531,
      " दबाव": 3532,
      " प्रेर": 3533,
      " स्टाफ": 3534,
      "ूनी": 3535,
      " मिस": 3536,
      " रायपुर": 3537,
      " मार्केट": 3538,
      " सहायता": 3539,
      " मजदूर": 3540,
      " लंबे": 3541,
      "34": 3542,
      " परियोजना": 3543,
      " पूजन": 3544,
      " एक्ट्रेस": 3545,
      " दक्षिण": 3546,
      "इज": 3547,
      " एसोस": 3548,
      "बारा": 3549,
      " बंध": 3550,
      " दस्ता": 3551,
      " यही": 3552,
      " राकेश": 3553,
      " उसमें": 3554,
      " पाठ": 3555,
      "000": 3556,
      " सत्ता": 3557,
      "वीन": 3558,
      "आईआर": 3559,
      "पल": 3560,
      " रिस": 3561,
      " हिरासत": 3562,
      "ंजन": 3563,
      "टेन": 3564,
      "इंड": 3565,
      "्मू": 3566,
      "ay": 3567,
      "वधान": 3568,
      " कंपनियों": 3569,
      "लोकसभा": 3570,
      "जीनियर": 3571,
      "ित्सा": 3572,
      " बड़े": 3573,
      "क्का": 3574,
      "वाने": 3575,
      " चुनावों": 3576,
      " अभ्यर्थ": 3577,
      " बचाने": 3578,
      "यल": 3579,
      " सिक": 3580,
      " खंड": 3581,
      " लक्ष्य": 3582,
      " आखिरी": 3583,
      " V": 3584,
      " अज": 3585,
      " सेल्सियस": 3586,
      " मल": 3587,
      " काउ": 3588,
      " काट": 3589,
      "ऐसा": 3590,
      " शान": 3591,
      " शपथ": 3592,
      "टीम": 3593,
      " इतिहास": 3594,
      "्रेलिया": 3595,
      "स्ट्र": 3596,
      "क्रिय": 3597,
      " अनुमति": 3598,
      "ट्ट": 3599,
      "एंगे": 3600,
      "द्दी": 3601,
      " जानते": 3602,
      " मशीन": 3603,
      "ॉर्टम": 3604,
      " अभिय": 3605,
      " नाग": 3606,
      "जुन": 3607,
      "-च": 3608,
      " वित्त": 3609,
      "ri": 3610,
      " निदेशक": 3611,
      " फाइनल": 3612,
      "इधर": 3613,
      " करनी": 3614,
      "ंदे": 3615,
      " बीते": 3616,
      " गाड़ी": 3617,
      "लम": 3618,
      "ाराम": 3619,
      "करा": 3620,
      " निकले": 3621,
      "इमेज": 3622,
      "नाम": 3623,
      "त्त": 3624,
      "लब": 3625,
      "नेस": 3626,
      " साथी": 3627,
      "कोर": 3628,
      " शिविर": 3629,
      " लड़की": 3630,
      "सोमवार": 3631,
      "पद": 3632,
      "ुति": 3633,
      " जाति": 3634,
      " इतनी": 3635,
      "पीएम": 3636,
      "इकिल": 3637,
      " जताई": 3638,
      " उदयपुर": 3639,
      "जिले": 3640,
      "ोप": 3641,
      " शंकर": 3642,
      "कील": 3643,
      " उनको": 3644,
      " कमिश्": 3645,
      " बुजुर्ग": 3646,
      "ंटर": 3647,
      "र्जर": 3648,
      " रखते": 3649,
      " आदित्य": 3650,
      "्यता": 3651,
      " प्राइवेट": 3652,
      " फें": 3653,
      " मुह": 3654,
      "ोजक": 3655,
      " सैनी": 3656,
      "हत्या": 3657,
      "ग्रह": 3658,
      " उद्योग": 3659,
      " समूह": 3660,
      " संतोष": 3661,
      " मुकाबले": 3662,
      "रोज": 3663,
      " धार्मिक": 3664,
      "ांची": 3665,
      " संचालक": 3666,
      "दूसरे": 3667,
      "नल": 3668,
      " एग्": 3669,
      " मुकदमा": 3670,
      "ews": 3671,
      "बां": 3672,
      " क्ला": 3673,
      " दास": 3674,
      " किर": 3675,
      " करवाई": 3676,
      " टूट": 3677,
      " रूम": 3678,
      " रेफर": 3679,
      " संचालित": 3680,
      "संग": 3681,
      "हारी": 3682,
      "्व": 3683,
      " संदीप": 3684,
      "ेंगी": 3685,
      " नीति": 3686,
      " फैसले": 3687,
      " ड्यूटी": 3688,
      " अमर": 3689,
      " चिंता": 3690,
      " विद्यार्थियों": 3691,
      " हादसा": 3692,
      " गुजरात": 3693,
      "तीन": 3694,
      " L": 3695,
      " बड़ा": 3696,
      "र्तन": 3697,
      " समी": 3698,
      " लापर": 3699,
      "क़": 3700,
      "फॉर्म": 3701,
      "्येक": 3702,
      " फूल": 3703,
      "स्पे": 3704,
      " गिरावट": 3705,
      " तारीख": 3706,
      "लकाता": 3707,
      "थी": 3708,
      " शूट": 3709,
      " ससुर": 3710,
      " टाइ": 3711,
      " सप्लाई": 3712,
      "आग": 3713,
      "व्यू": 3714,
      " चढ़": 3715,
      "साल": 3716,
      " इतना": 3717,
      "शनिवार": 3718,
      " ऑपरेशन": 3719,
      " नियंत्र": 3720,
      " सोनी": 3721,
      " मेह": 3722,
      " हिस्से": 3723,
      "प्रीत": 3724,
      " भरा": 3725,
      "ियाना": 3726,
      "श्न": 3727,
      "तक": 3728,
      "ुक्ति": 3729,
      "ौली": 3730,
      " एक्टर": 3731,
      " पालन": 3732,
      "िपा": 3733,
      "िक्र": 3734,
      "बादी": 3735,
      " रोजगार": 3736,
      " प्रशिक्षण": 3737,
      " निर्धारित": 3738,
      " U": 3739,
      "',": 3740,
      " कंट": 3741,
      " सक्रिय": 3742,
      " हल": 3743,
      " प्रथम": 3744,
      "फिल्म": 3745,
      "ित्व": 3746,
      " जमानत": 3747,
      " अट": 3748,
      "ित्स": 3749,
      "िलास": 3750,
      "37": 3751,
      "ल्ला": 3752,
      " मोटर": 3753,
      "उत्": 3754,
      "भि": 3755,
      "ष्ठा": 3756,
      " सूची": 3757,
      " पैदा": 3758,
      " संपत्ति": 3759,
      " इलेक्ट्र": 3760,
      " साबित": 3761,
      " कक्षा": 3762,
      " अखिल": 3763,
      "र्द": 3764,
      " इन्": 3765,
      "स्ट्रेलिया": 3766,
      " उठाया": 3767,
      "रविवार": 3768,
      " साध": 3769,
      " करवाने": 3770,
      " बूथ": 3771,
      "इंदौर": 3772,
      " कहां": 3773,
      " सेल": 3774,
      " मांगी": 3775,
      " चेयर": 3776,
      " इंजीनियर": 3777,
      " एसोसिएशन": 3778,
      " पसंद": 3779,
      " खड़े": 3780,
      " पुष्": 3781,
      " ट्रैफिक": 3782,
      "उथ": 3783,
      " सप": 3784,
      " इस्ती": 3785,
      " वेब": 3786,
      " चिकित्सा": 3787,
      " उतार": 3788,
      "ेलन": 3789,
      " क्षमता": 3790,
      " आरक्षण": 3791,
      "वंत": 3792,
      " अंब": 3793,
      " डॉलर": 3794,
      " खाते": 3795,
      " अरविंद": 3796,
      " वितरण": 3797,
      " फायरिंग": 3798,
      " थो": 3799,
      "हो": 3800,
      "कर्मी": 3801,
      " मनीष": 3802,
      "am": 3803,
      " प्रभा": 3804,
      " स्मार्ट": 3805,
      " झू": 3806,
      " दाखिल": 3807,
      "अपने": 3808,
      " उपाध्यक्ष": 3809,
      " विस्तार": 3810,
      "ur": 3811,
      " आती": 3812,
      " महाम": 3813,
      " क्रम": 3814,
      "गणना": 3815,
      " लापरवाही": 3816,
      " चुनौती": 3817,
      " मास": 3818,
      " अकाउंट": 3819,
      " किरा": 3820,
      "लेश": 3821,
      " चाहता": 3822,
      "ेमारी": 3823,
      "प्रधानमंत्री": 3824,
      "िमा": 3825,
      " स्टेट": 3826,
      "णसी": 3827,
      "थे": 3828,
      "स्तर": 3829,
      "-म": 3830,
      "दास": 3831,
      "स्थल": 3832,
      "'\n": 3833,
      "लिंग": 3834,
      " विवे": 3835,
      "ंडर": 3836,
      "पट": 3837,
      " प्रतिमा": 3838,
      " पोस्टम": 3839,
      "घाटन": 3840,
      "ड्डा": 3841,
      " डायरेक्टर": 3842,
      "क्यों": 3843,
      " लै": 3844,
      "ानि": 3845,
      " विश्वास": 3846,
      " स्टैंड": 3847,
      "राजस्थान": 3848,
      " मुद्दे": 3849,
      " काल": 3850,
      " धान": 3851,
      " उम्मीदवारों": 3852,
      " संदेश": 3853,
      " स्कू": 3854,
      " भावना": 3855,
      "शासन": 3856,
      " दूरी": 3857,
      " पोस्टमॉर्टम": 3858,
      "वली": 3859,
      " सपा": 3860,
      " सलाह": 3861,
      " प्ला": 3862,
      " टॉप": 3863,
      " सोच": 3864,
      " गुजर": 3865,
      "िमी": 3866,
      " शै": 3867,
      " घूम": 3868,
      " निशाना": 3869,
      " किशोर": 3870,
      "िग्ध": 3871,
      "्वी": 3872,
      " गार्ड": 3873,
      " तभी": 3874,
      " प्रबंध": 3875,
      " कने": 3876,
      " प्रमाण": 3877,
      " अनुमान": 3878,
      " मानसून": 3879,
      "उसे": 3880,
      "ेन्द्र": 3881,
      "ार्व": 3882,
      " आरती": 3883,
      " योजनाओं": 3884,
      " गौरव": 3885,
      "रु": 3886,
      " सरपंच": 3887,
      " कमिश्नर": 3888,
      "38": 3889,
      "घायल": 3890,
      " रद्द": 3891,
      " समाप्त": 3892,
      " बढ़ाने": 3893,
      " फैक्ट": 3894,
      "पार्": 3895,
      "यं": 3896,
      "भाष": 3897,
      "वेल": 3898,
      " सकेंगे": 3899,
      " कर्मियों": 3900,
      " नियुक्त": 3901,
      "सीय": 3902,
      " सीनियर": 3903,
      " ज्ञापन": 3904,
      " भीतर": 3905,
      "सीसी": 3906,
      " ठंड": 3907,
      " इंडस्ट्री": 3908,
      "शुक्रवार": 3909,
      "जांच": 3910,
      "नाटक": 3911,
      " प्रिय": 3912,
      " डिप्टी": 3913,
      " ठगी": 3914,
      " कड़ी": 3915,
      "िपल": 3916,
      " यूनिट": 3917,
      "टका": 3918,
      " एंट": 3919,
      " इंच": 3920,
      " स्थापना": 3921,
      "णि": 3922,
      "तभी": 3923,
      " करियर": 3924,
      " चलाया": 3925,
      " संघर्ष": 3926,
      " भुगतान": 3927,
      " l": 3928,
      "ंती": 3929,
      " अर्थ": 3930,
      "कंप": 3931,
      " फिल्मों": 3932,
      " बल्ले": 3933,
      " ट्रैक्टर": 3934,
      " लेना": 3935,
      "ालात": 3936,
      " इंटरव्यू": 3937,
      "साइड": 3938,
      " हेड": 3939,
      " वृद्धि": 3940,
      "आरोपियों": 3941,
      " तोड़": 3942,
      "धिकार": 3943,
      " दुर्गा": 3944,
      " प्रदीप": 3945,
      " तालाब": 3946,
      " भरो": 3947,
      " पूर्": 3948,
      "विध": 3949,
      " शिकार": 3950,
      " हटाने": 3951,
      "सचिव": 3952,
      "पता": 3953,
      " प्यार": 3954,
      " रहीं": 3955,
      " प्रार": 3956,
      "केशन": 3957,
      " बाकी": 3958,
      " वर्तमान": 3959,
      " गोद": 3960,
      " गोपाल": 3961,
      " चेता": 3962,
      " विशाल": 3963,
      " राजीव": 3964,
      " पावर": 3965,
      "म्बर": 3966,
      "300": 3967,
      " रुक": 3968,
      " होनी": 3969,
      " स्पी": 3970,
      " समीक्षा": 3971,
      "्रेड": 3972,
      " सर्विस": 3973,
      " नशे": 3974,
      "नाड": 3975,
      " संसद": 3976,
      " कार्यकाल": 3977,
      " गठन": 3978,
      " आतंक": 3979,
      " प्रिंस": 3980,
      "ol": 3981,
      "और": 3982,
      " जोन": 3983,
      "तिक्रमण": 3984,
      " हाईवे": 3985,
      " बजकर": 3986,
      "बो": 3987,
      "मंगलवार": 3988,
      "द्रा": 3989,
      "स्टेबल": 3990,
      " जबर": 3991,
      " व्": 3992,
      " डाला": 3993,
      " लाइट": 3994,
      "बीआई": 3995,
      "जयपुर": 3996,
      "अल": 3997,
      "जिद": 3998,
      " दान": 3999
    },
    "merges": [
      [
        " ",
        "क"
      ],
      [
        " ",
        "स"
      ],
      [
        " ",
        "म"
      ],
      [
        " ",
        "ह"
      ],
      [
        " ",
        "प"
      ],
      [
        "।",
        "\n"
      ],
      [
        "ा",
        "र"
      ],
      [
        "े",
        "ं"
      ],
      [
        "न",
        "े"
      ],
      [
        " क",
        "े"
      ],
      [
        " ",
        "ब"
      ],
      [
        "्",
        "र"
      ],
      [
        "य",
        "ा"
      ],
      [
        " म",
        "ें"
      ],
      [
        " ह",
        "ै"
      ],
      [
        " ",
        "ज"
      ],
      [
        " ",
        "द"
      ],
      [
        " ",
        "र"
      ],
      [
        " ",
        "ल"
      ],
      [
        " क",
        "ी"
      ],
      [
        "ो",
        "ं"
      ],
      [
        " ",
        "अ"
      ],
      [
        " ",
        "व"
      ],
      [
        " ",
        "ग"
      ],
      [
        "र",
        "्"
      ],
      [
        " क",
        "ो"
      ],
      [
        " ",
        "न"
      ],
      [
        "ा",
        "न"
      ],
      [
        " स",
        "े"
      ],
      [
        " क",
        "ि"
      ],
      [
        "त",
        "ा"
      ],
      [
        " ",
        "ने"
      ],
      [
        " ",
        "आ"
      ],
      [
        " क",
        "ा"
      ],
      [
        " क",
        "र"
      ],
      [
        " ",
        "भ"
      ],
      [
        "ा",
        "ल"
      ],
      [
        " प",
        "र"
      ],
      [
        " ",
        "त"
      ],
      [
        "न",
        "ा"
      ],
      [
        "ि",
        "क"
      ],
      [
        "्",
        "य"
      ],
      [
        "ि",
        "ल"
      ],
      [
        " ",
        "श"
      ],
      [
        " ",
        "उ"
      ],
      [
        " ",
        "औ"
      ],
      [
        "स",
        "्"
      ],
      [
        " औ",
        "र"
      ],
      [
        " ",
        "च"
      ],
      [
        "क",
        "्"
      ],
      [
        " ",
        "थ"
      ],
      [
        "ा",
        "ं"
      ],
      [
        " प",
        "्र"
      ],
      [
        " ",
        "ए"
      ],
      [
        "इ",
        "स"
      ],
      [
        "ा",
        "म"
      ],
      [
        "ह",
        "ी"
      ],
      [
        "ि",
        "या"
      ],
      [
        " ह",
        "ो"
      ],
      [
        "व",
        "ा"
      ],
      [
        "ि",
        "त"
      ],
      [
        "क",
        "े"
      ],
      [
        "ह",
        "ा"
      ],
      [
        "ल",
        "ा"
      ],
      [
        "क",
        "र"
      ],
      [
        "ल",
        "े"
      ],
      [
        " है",
        "ं"
      ],
      [
        " ब",
        "ा"
      ],
      [
        "ि",
        "य"
      ],
      [
        "ि",
        "स"
      ],
      [
        "ड",
        "़"
      ],
      [
        "ि",
        "ए"
      ],
      [
        "ु",
        "र"
      ],
      [
        " भ",
        "ी"
      ],
      [
        " ज",
        "ा"
      ],
      [
        "ं",
        "ग"
      ],
      [
        " ",
        "ख"
      ],
      [
        "त",
        "े"
      ],
      [
        " ",
        "फ"
      ],
      [
        "त",
        "्र"
      ],
      [
        "र",
        "ा"
      ],
      [
        "े",
        "श"
      ],
      [
        " स",
        "्"
      ],
      [
        " व",
        "ि"
      ],
      [
        " ",
        "य"
      ],
      [
        "र",
        "ी"
      ],
      [
        "ि",
        "न"
      ],
      [
        "ार",
        "ी"
      ],
      [
        "त",
        "ी"
      ],
      [
        "ही",
        "ं"
      ],
      [
        " र",
        "ा"
      ],
      [
        " ह",
        "ु"
      ],
      [
        "ु",
        "ल"
      ],
      [
        "ट",
        "ी"
      ],
      [
        " कि",
        "या"
      ],
      [
        "्",
        "या"
      ],
      [
        "स",
        "ी"
      ],
      [
        "न",
        "ी"
      ],
      [
        "व",
        "ार"
      ],
      [
        "ग",
        "ा"
      ],
      [
        "त",
        "ि"
      ],
      [
        "स",
        "े"
      ],
      [
        " स",
        "ा"
      ],
      [
        " ल",
        "िए"
      ],
      [
        " ",
        "ड"
      ],
      [
        "ं",
        "द"
      ],
      [
        "न",
        "्"
      ],
      [
        " ",
        "इ"
      ],
      [
        " ग",
        "या"
      ],
      [
        " थ",
        "ा"
      ],
      [
        " ए",
        "क"
      ],
      [
        "क्",
        "ष"
      ],
      [
        " प",
        "ह"
      ],
      [
        " स",
        "ं"
      ],
      [
        "ो",
        "ग"
      ],
      [
        " ल",
        "े"
      ],
      [
        " न",
        "हीं"
      ],
      [
        " स",
        "म"
      ],
      [
        " र",
        "ह"
      ],
      [
        "ा",
        "य"
      ],
      [
        " द",
        "े"
      ],
      [
        " ",
        "इस"
      ],
      [
        " न",
        "ि"
      ],
      [
        "क",
        "ा"
      ],
      [
        "िल",
        "ा"
      ],
      [
        " ",
        "घ"
      ],
      [
        " क",
        "ार"
      ],
      [
        " ",
        "ट"
      ],
      [
        " अ",
        "प"
      ],
      [
        "ल",
        "ी"
      ],
      [
        "क",
        "ी"
      ],
      [
        " ह",
        "ी"
      ],
      [
        "िय",
        "ों"
      ],
      [
        " बा",
        "द"
      ],
      [
        "भ",
        "ा"
      ],
      [
        "त",
        "्"
      ],
      [
        "ार",
        "्"
      ],
      [
        "प",
        "ी"
      ],
      [
        " स",
        "ि"
      ],
      [
        " म",
        "ु"
      ],
      [
        "म",
        "ा"
      ],
      [
        "ं",
        "ड"
      ],
      [
        "ा",
        "स"
      ],
      [
        "ि",
        "र"
      ],
      [
        "ुल",
        "िस"
      ],
      [
        " ग",
        "ई"
      ],
      [
        "न्",
        "ह"
      ],
      [
        "ग",
        "ी"
      ],
      [
        " क",
        "हा"
      ],
      [
        " सा",
        "थ"
      ],
      [
        "स",
        "ा"
      ],
      [
        " कर",
        "ने"
      ],
      [
        "ट",
        "र"
      ],
      [
        "र",
        "ो"
      ],
      [
        "र",
        "े"
      ],
      [
        " क",
        "ु"
      ],
      [
        "द",
        "ी"
      ],
      [
        " प",
        "ू"
      ],
      [
        " ब",
        "ता"
      ],
      [
        "ं",
        "च"
      ],
      [
        " रह",
        "े"
      ],
      [
        " थ",
        "ी"
      ],
      [
        " द",
        "िया"
      ],
      [
        "्र",
        "ी"
      ],
      [
        " त",
        "ो"
      ],
      [
        " अ",
        "ध"
      ],
      [
        " व",
        "ाल"
      ],
      [
        "म",
        "ी"
      ],
      [
        " स",
        "ु"
      ],
      [
        "क",
        "ार"
      ],
      [
        "ान",
        "ा"
      ],
      [
        "्र",
        "े"
      ],
      [
        "प",
        "ुर"
      ],
      [
        "व",
        "ि"
      ],
      [
        "2",
        "0"
      ],
      [
        " ल",
        "ोग"
      ],
      [
        "ौ",
        "र"
      ],
      [
        "स्",
        "ट"
      ],
      [
        "ज",
        "ी"
      ],
      [
        " स",
        "ी"
      ],
      [
        "ज",
        "ा"
      ],
      [
        "ल",
        "्"
      ],
      [
        " त",
        "क"
      ],
      [
        " र",
        "हा"
      ],
      [
        "द",
        "ा"
      ],
      [
        "म",
        "ें"
      ],
      [
        " द",
        "ो"
      ],
      [
        " ",
        "छ"
      ],
      [
        " प",
        "ुलिस"
      ],
      [
        "व",
        "ी"
      ],
      [
        "भ",
        "ी"
      ],
      [
        "ग",
        "े"
      ],
      [
        "द",
        "ेश"
      ],
      [
        "ह",
        "र"
      ],
      [
        " अ",
        "न"
      ],
      [
        "ष",
        "्"
      ],
      [
        " द",
        "ी"
      ],
      [
        " हु",
        "ए"
      ],
      [
        " म",
        "ह"
      ],
      [
        " ल",
        "ा"
      ],
      [
        " बता",
        "या"
      ],
      [
        " म",
        "िल"
      ],
      [
        " च",
        "ु"
      ],
      [
        "ग",
        "र"
      ],
      [
        "ि",
        "श"
      ],
      [
        " रा",
        "ज"
      ],
      [
        "ं",
        "ह"
      ],
      [
        " ",
        "ध"
      ],
      [
        "क",
        "ि"
      ],
      [
        " र",
        "ही"
      ],
      [
        " उ",
        "न"
      ],
      [
        " थ",
        "े"
      ],
      [
        " उ",
        "स"
      ],
      [
        "ं",
        "त्र"
      ],
      [
        "्",
        "त"
      ],
      [
        "ब",
        "ा"
      ],
      [
        "्",
        "ष"
      ],
      [
        ".",
        "\n"
      ],
      [
        "ान",
        "ी"
      ],
      [
        "ह",
        "ां"
      ],
      [
        "ट",
        "े"
      ],
      [
        " ",
        "या"
      ],
      [
        " म",
        "ौ"
      ],
      [
        "ज",
        "न"
      ],
      [
        " ब",
        "ार"
      ],
      [
        "ा",
        "ई"
      ],
      [
        "श",
        "न"
      ],
      [
        "ओ",
        "ं"
      ],
      [
        "ों",
        "ने"
      ],
      [
        "ज",
        "े"
      ],
      [
        "ा",
        "ह"
      ],
      [
        "ब",
        "र"
      ],
      [
        "ि",
        "व"
      ],
      [
        "ढ",
        "़"
      ],
      [
        " सि",
        "ंह"
      ],
      [
        "प",
        "ा"
      ],
      [
        "न्ह",
        "ोंने"
      ],
      [
        "स्",
        "थ"
      ],
      [
        " ",
        "("
      ],
      [
        " ल",
        "गा"
      ],
      [
        " ग",
        "ए"
      ],
      [
        " ब",
        "ी"
      ],
      [
        "म",
        "ार"
      ],
      [
        "र्",
        "ट"
      ],
      [
        "व",
        "े"
      ],
      [
        "ु",
        "प"
      ],
      [
        " जा",
        "ए"
      ],
      [
        " पह",
        "ु"
      ],
      [
        "स्",
        "त"
      ],
      [
        "ि",
        "ंग"
      ],
      [
        " पहु",
        "ंच"
      ],
      [
        "द",
        "्"
      ],
      [
        " ले",
        "कर"
      ],
      [
        " स",
        "र"
      ],
      [
        "द",
        "्र"
      ],
      [
        " द",
        "िन"
      ],
      [
        "्",
        "म"
      ],
      [
        "च",
        "्"
      ],
      [
        " ब",
        "े"
      ],
      [
        " ब",
        "ना"
      ],
      [
        " म",
        "ो"
      ],
      [
        " स्",
        "थ"
      ],
      [
        " ज",
        "ो"
      ],
      [
        "न",
        "ों"
      ],
      [
        " अध",
        "िक"
      ],
      [
        "ै",
        "ं"
      ],
      [
        " पह",
        "ले"
      ],
      [
        "ा",
        "ज"
      ],
      [
        "क",
        "िन"
      ],
      [
        " हु",
        "ई"
      ],
      [
        "क",
        "्र"
      ],
      [
        " लोग",
        "ों"
      ],
      [
        " अप",
        "ने"
      ],
      [
        "ंत्र",
        "ी"
      ],
      [
        "े",
        "ल"
      ],
      [
        " आ",
        "रो"
      ],
      [
        "श",
        "्"
      ],
      [
        " म",
        "ाम"
      ],
      [
        "ो",
        "ज"
      ],
      [
        " म",
        "े"
      ],
      [
        " द",
        "ौर"
      ],
      [
        "ो",
        "क"
      ],
      [
        "व",
        "र"
      ],
      [
        " स",
        "ाल"
      ],
      [
        "ख",
        "ा"
      ],
      [
        "र्",
        "म"
      ],
      [
        " य",
        "ह"
      ],
      [
        "ट",
        "ा"
      ],
      [
        " हो",
        "ने"
      ],
      [
        "ं",
        "ध"
      ],
      [
        " कार",
        "्य"
      ],
      [
        " स",
        "क"
      ],
      [
        " वाल",
        "े"
      ],
      [
        "इस",
        "के"
      ],
      [
        " दौर",
        "ान"
      ],
      [
        "ां",
        "च"
      ],
      [
        "त",
        "र"
      ],
      [
        " भ",
        "ार"
      ],
      [
        " ",
        "टी"
      ],
      [
        " क",
        "्ष"
      ],
      [
        " पर",
        "ि"
      ],
      [
        "ड",
        "ी"
      ],
      [
        "म",
        "ान"
      ],
      [
        " स",
        "ो"
      ],
      [
        " ज",
        "ी"
      ],
      [
        "व",
        "ाल"
      ],
      [
        " हु",
        "आ"
      ],
      [
        "ब",
        "ी"
      ],
      [
        "ना",
        "व"
      ],
      [
        " प",
        "ा"
      ],
      [
        " ग",
        "ां"
      ],
      [
        " प",
        "ी"
      ],
      [
        " ",
        "ओ"
      ],
      [
        "इ",
        "न"
      ],
      [
        "क",
        "ो"
      ],
      [
        " द",
        "र्"
      ],
      [
        " स",
        "ाम"
      ],
      [
        " त",
        "र"
      ],
      [
        "ध",
        "ान"
      ],
      [
        "प",
        "्र"
      ],
      [
        "्रे",
        "स"
      ],
      [
        " व",
        "र्"
      ],
      [
        " नि",
        "र्"
      ],
      [
        " ज",
        "ान"
      ],
      [
        " बा",
        "त"
      ],
      [
        "े",
        "त्र"
      ],
      [
        "ड़",
        "ी"
      ],
      [
        "ए",
        "म"
      ],
      [
        " ज",
        "िस"
      ],
      [
        "ू",
        "ल"
      ],
      [
        "क",
        "ारी"
      ],
      [
        "म",
        "े"
      ],
      [
        " कर",
        "ते"
      ],
      [
        " र",
        "ुप"
      ],
      [
        "र्",
        "व"
      ],
      [
        "ा",
        "प"
      ],
      [
        "ट",
        "ना"
      ],
      [
        "च्",
        "च"
      ],
      [
        "ू",
        "र"
      ],
      [
        "व",
        "ं"
      ],
      [
        "स",
        "र"
      ],
      [
        " श",
        "ुर"
      ],
      [
        "ें",
        "द्र"
      ],
      [
        " म",
        "ां"
      ],
      [
        "ष्",
        "ट"
      ],
      [
        " कु",
        "मार"
      ],
      [
        "ि",
        "प"
      ],
      [
        " क्ष",
        "ेत्र"
      ],
      [
        " श",
        "ाम"
      ],
      [
        "ड़",
        "ा"
      ],
      [
        " घ",
        "र"
      ],
      [
        " ब",
        "ि"
      ],
      [
        " उ",
        "प"
      ],
      [
        "ए",
        "स"
      ],
      [
        " ह",
        "म"
      ],
      [
        "1",
        "0"
      ],
      [
        "उ",
        "न्होंने"
      ],
      [
        " सर",
        "कार"
      ],
      [
        "ो",
        "ट"
      ],
      [
        " श",
        "िक"
      ],
      [
        "ं",
        "प"
      ],
      [
        "क",
        "ों"
      ],
      [
        "्",
        "स"
      ],
      [
        "स्",
        "प"
      ],
      [
        "े",
        "ट"
      ],
      [
        " आ",
        "य"
      ],
      [
        "ू",
        "न"
      ],
      [
        " का",
        "म"
      ],
      [
        "क्ष",
        "ा"
      ],
      [
        " र",
        "ू"
      ],
      [
        " ",
        "ऑ"
      ],
      [
        "20",
        "2"
      ],
      [
        "ी",
        "न"
      ],
      [
        " चु",
        "नाव"
      ],
      [
        "क्",
        "त"
      ],
      [
        " य",
        "ु"
      ],
      [
        " ल",
        "िया"
      ],
      [
        " ब",
        "ै"
      ],
      [
        "ो",
        "र"
      ],
      [
        "्",
        "ल"
      ],
      [
        "ो",
        "ल"
      ],
      [
        " व",
        "ह"
      ],
      [
        " म",
        "ा"
      ],
      [
        "वा",
        "ई"
      ],
      [
        " द",
        "्"
      ],
      [
        "क्",
        "ट"
      ],
      [
        "ज",
        "ार"
      ],
      [
        " ज",
        "ब"
      ],
      [
        " प",
        "ार्"
      ],
      [
        " अ",
        "ं"
      ],
      [
        " क",
        "म"
      ],
      [
        "क्",
        "टर"
      ],
      [
        "वार",
        "ा"
      ],
      [
        " प",
        "ास"
      ],
      [
        "स",
        "भा"
      ],
      [
        " ले",
        "किन"
      ],
      [
        "ि",
        "ता"
      ],
      [
        "ि",
        "म"
      ],
      [
        " क",
        "ह"
      ],
      [
        "भा",
        "ग"
      ],
      [
        " क",
        "ै"
      ],
      [
        " अन",
        "ु"
      ],
      [
        "ू",
        "स"
      ],
      [
        "च",
        "ार"
      ],
      [
        " ड",
        "ॉ"
      ],
      [
        " च",
        "ल"
      ],
      [
        "ा",
        "इ"
      ],
      [
        " आ",
        "प"
      ],
      [
        " मह",
        "िला"
      ],
      [
        " स",
        "भी"
      ],
      [
        "न्ह",
        "ें"
      ],
      [
        " द",
        "ु"
      ],
      [
        "ें",
        "गे"
      ],
      [
        " प्र",
        "ति"
      ],
      [
        " क",
        "ई"
      ],
      [
        " ज",
        "ु"
      ],
      [
        " कु",
        "छ"
      ],
      [
        " स",
        "ब"
      ],
      [
        "श",
        "ी"
      ],
      [
        " क",
        "ॉ"
      ],
      [
        "प",
        "र"
      ],
      [
        " थ",
        "ाना"
      ],
      [
        "िक",
        "ा"
      ],
      [
        " ग",
        "िर"
      ],
      [
        "ि",
        "ट"
      ],
      [
        " गां",
        "व"
      ],
      [
        " को",
        "ई"
      ],
      [
        " द्",
        "वारा"
      ],
      [
        "ब",
        "ंध"
      ],
      [
        "्य",
        "क्ष"
      ],
      [
        " अ",
        "ब"
      ],
      [
        " र",
        "ो"
      ],
      [
        " स",
        "ह"
      ],
      [
        " व",
        "्य"
      ],
      [
        " न",
        "ाम"
      ],
      [
        " टी",
        "म"
      ],
      [
        "ार",
        "ा"
      ],
      [
        " च",
        "ौ"
      ],
      [
        " शुर",
        "ू"
      ],
      [
        "र्",
        "स"
      ],
      [
        "ता",
        "ल"
      ],
      [
        "म",
        "्"
      ],
      [
        " ख",
        "िला"
      ],
      [
        " दे",
        "ख"
      ],
      [
        " सम",
        "य"
      ],
      [
        "ख",
        "्य"
      ],
      [
        "द्",
        "ध"
      ],
      [
        " भ",
        "ा"
      ],
      [
        " अप",
        "नी"
      ],
      [
        "ै",
        "न"
      ],
      [
        "्य",
        "ू"
      ],
      [
        " ",
        "झ"
      ],
      [
        " न",
        "िक"
      ],
      [
        "ण",
        "ा"
      ],
      [
        " ह",
        "र"
      ],
      [
        " ",
        "ऐ"
      ],
      [
        " ब",
        "ह"
      ],
      [
        "य",
        "र"
      ],
      [
        " माम",
        "ले"
      ],
      [
        " ग",
        "्र"
      ],
      [
        " ज",
        "न"
      ],
      [
        "म",
        "ु"
      ],
      [
        "ृ",
        "त"
      ],
      [
        " दर्",
        "ज"
      ],
      [
        " ब",
        "जे"
      ],
      [
        " ल",
        "ग"
      ],
      [
        " स्",
        "ट"
      ],
      [
        "य",
        "े"
      ],
      [
        " स",
        "ू"
      ],
      [
        "च",
        "ा"
      ],
      [
        " रुप",
        "ए"
      ],
      [
        "म",
        "ंत्री"
      ],
      [
        " च",
        "ाह"
      ],
      [
        " ट",
        "्र"
      ],
      [
        "िल",
        "्"
      ],
      [
        "ी",
        "ड"
      ],
      [
        "ज",
        "िस"
      ],
      [
        " व",
        "िक"
      ],
      [
        " ब",
        "च्च"
      ],
      [
        " ह",
        "ि"
      ],
      [
        "ज",
        "र"
      ],
      [
        " भार",
        "त"
      ],
      [
        " उन",
        "के"
      ],
      [
        "ं",
        "बर"
      ],
      [
        " आरो",
        "प"
      ],
      [
        " इ",
        "ं"
      ],
      [
        " रू",
        "प"
      ],
      [
        "य",
        "ह"
      ],
      [
        " र",
        "ख"
      ],
      [
        " तर",
        "ह"
      ],
      [
        "िल",
        "े"
      ],
      [
        "फ",
        "्त"
      ],
      [
        "आ",
        "ई"
      ],
      [
        "्य",
        "ों"
      ],
      [
        " अ",
        "व"
      ],
      [
        " व",
        "े"
      ],
      [
        "ड़",
        "े"
      ],
      [
        "ाय",
        "त"
      ],
      [
        " वि",
        "भाग"
      ],
      [
        " अ",
        "भ"
      ],
      [
        " ",
        "ठ"
      ],
      [
        " न",
        "ा"
      ],
      [
        " ",
        "ता"
      ],
      [
        " म",
        "ै"
      ],
      [
        " बी",
        "च"
      ],
      [
        " उ",
        "न्हें"
      ],
      [
        " ह",
        "ा"
      ],
      [
        " ब",
        "ु"
      ],
      [
        "द",
        "ार"
      ],
      [
        " ग",
        "ो"
      ],
      [
        "ज",
        "ू"
      ],
      [
        "क्",
        "स"
      ],
      [
        " य",
        "े"
      ],
      [
        "व",
        "न"
      ],
      [
        " ज",
        "ांच"
      ],
      [
        " का",
        "ंग"
      ],
      [
        " शाम",
        "िल"
      ],
      [
        "व",
        "हीं"
      ],
      [
        "े",
        "ज"
      ],
      [
        "त",
        "्या"
      ],
      [
        " ला",
        "ख"
      ],
      [
        " कि",
        "सी"
      ],
      [
        " ब",
        "ढ़"
      ],
      [
        "ं",
        "ट"
      ],
      [
        " स्थ",
        "ित"
      ],
      [
        "च",
        "ना"
      ],
      [
        "ल",
        "य"
      ],
      [
        "प",
        "ुलिस"
      ],
      [
        "ो",
        "र्ट"
      ],
      [
        " द",
        "ि"
      ],
      [
        " ए",
        "वं"
      ],
      [
        "ज",
        "्"
      ],
      [
        " ड",
        "ि"
      ],
      [
        " कांग",
        "्रेस"
      ],
      [
        " आ",
        "ई"
      ],
      [
        " द",
        "ेश"
      ],
      [
        " ब",
        "न"
      ],
      [
        "ए",
        "ं"
      ],
      [
        " स्",
        "क"
      ],
      [
        " ज",
        "िला"
      ],
      [
        " र",
        "ाम"
      ],
      [
        "स्प",
        "ताल"
      ],
      [
        " हो",
        "गा"
      ],
      [
        " कर",
        "ा"
      ],
      [
        " जाए",
        "गा"
      ],
      [
        " इ",
        "न"
      ],
      [
        "ाल",
        "ी"
      ],
      [
        "प",
        "ू"
      ],
      [
        "ाल",
        "ा"
      ],
      [
        " प",
        "ै"
      ],
      [
        " उ",
        "न्होंने"
      ],
      [
        " कि",
        "ए"
      ],
      [
        " ग",
        "ु"
      ],
      [
        " ",
        "'"
      ],
      [
        "र्",
        "ड"
      ],
      [
        " अ",
        "ग"
      ],
      [
        " यु",
        "व"
      ],
      [
        "व",
        "ान"
      ],
      [
        "रा",
        "ज"
      ],
      [
        "ी",
        "ब"
      ],
      [
        "प",
        "्"
      ],
      [
        "वा",
        "सी"
      ],
      [
        "द",
        "ान"
      ],
      [
        "ब",
        "ह"
      ],
      [
        "क्र",
        "म"
      ],
      [
        " त",
        "ै"
      ],
      [
        " खिला",
        "फ"
      ],
      [
        " ",
        "\""
      ],
      [
        "ेश",
        "न"
      ],
      [
        " ब",
        "द"
      ],
      [
        "्या",
        "दा"
      ],
      [
        " ज",
        "ारी"
      ],
      [
        "ज",
        "ब"
      ],
      [
        " प्र",
        "देश"
      ],
      [
        " कार",
        "ण"
      ],
      [
        "ुर",
        "ु"
      ],
      [
        " जा",
        "ने"
      ],
      [
        "ज",
        "य"
      ],
      [
        "ें",
        "ट"
      ],
      [
        " ख",
        "ु"
      ],
      [
        "ध",
        "ार"
      ],
      [
        " अ",
        "स्पताल"
      ],
      [
        "ां",
        "स"
      ],
      [
        "िया",
        "ं"
      ],
      [
        "न",
        "ि"
      ],
      [
        "ह",
        "ार"
      ],
      [
        " प",
        "ु"
      ],
      [
        " मु",
        "ख्य"
      ],
      [
        " दो",
        "नों"
      ],
      [
        " इ",
        "ला"
      ],
      [
        "फ",
        "ी"
      ],
      [
        "ह",
        "त"
      ],
      [
        "ध",
        "ी"
      ],
      [
        "ह",
        "ाल"
      ],
      [
        " या",
        "द"
      ],
      [
        "उ",
        "स"
      ],
      [
        " न",
        "गर"
      ],
      [
        " अन",
        "्य"
      ],
      [
        " ए",
        "स"
      ],
      [
        "क्",
        "ति"
      ],
      [
        "द",
        "े"
      ],
      [
        "स",
        "ार"
      ],
      [
        " छ",
        "ा"
      ],
      [
        " ल",
        "ोक"
      ],
      [
        "र्",
        "थ"
      ],
      [
        " जान",
        "कारी"
      ],
      [
        " पार्",
        "टी"
      ],
      [
        " सी",
        "ट"
      ],
      [
        " स",
        "ुर"
      ],
      [
        " वाल",
        "ी"
      ],
      [
        "ंद",
        "िर"
      ],
      [
        " आरो",
        "पी"
      ],
      [
        " ने",
        "ता"
      ],
      [
        "प",
        "ाल"
      ],
      [
        " ज",
        "्यादा"
      ],
      [
        "ती",
        "य"
      ],
      [
        " उ",
        "से"
      ],
      [
        "स",
        "ान"
      ],
      [
        "त्र",
        "ा"
      ],
      [
        "ल",
        "ो"
      ],
      [
        " ओ",
        "र"
      ],
      [
        " आ",
        "ए"
      ],
      [
        " कर",
        "ना"
      ],
      [
        " जा",
        "ता"
      ],
      [
        "्या",
        "लय"
      ],
      [
        " बै",
        "ठ"
      ],
      [
        "्र",
        "वाई"
      ],
      [
        " अध",
        "्यक्ष"
      ],
      [
        "ो",
        "ड़"
      ],
      [
        " स",
        "द"
      ],
      [
        "5",
        "0"
      ],
      [
        " उस",
        "के"
      ],
      [
        " र",
        "े"
      ],
      [
        "ु",
        "त"
      ],
      [
        "ल",
        "ग"
      ],
      [
        " म",
        "ान"
      ],
      [
        " आ",
        "ज"
      ],
      [
        " उ",
        "त्"
      ],
      [
        " घ",
        "टना"
      ],
      [
        "ड़",
        "ी"
      ],
      [
        " ज",
        "िले"
      ],
      [
        "िन",
        "्"
      ],
      [
        "ाम",
        "ी"
      ],
      [
        " ब",
        "ो"
      ],
      [
        " न",
        "ी"
      ],
      [
        " मौ",
        "त"
      ],
      [
        " कार",
        "्रवाई"
      ],
      [
        " म",
        "ार"
      ],
      [
        " फ",
        "िल"
      ],
      [
        "फ्त",
        "ार"
      ],
      [
        " द",
        "ूस"
      ],
      [
        " रा",
        "त"
      ],
      [
        " ह",
        "जार"
      ],
      [
        " वर्",
        "ष"
      ],
      [
        "ग",
        "त"
      ],
      [
        " ल",
        "ी"
      ],
      [
        "ह",
        "म"
      ],
      [
        " म",
        "ंत्री"
      ],
      [
        " साम",
        "ने"
      ],
      [
        " कर",
        "ीब"
      ],
      [
        "?",
        "\n"
      ],
      [
        "क",
        "ान"
      ],
      [
        " परि",
        "वार"
      ],
      [
        " पू",
        "र्व"
      ],
      [
        " ल",
        "ि"
      ],
      [
        "ध",
        "िक"
      ],
      [
        "1",
        "2"
      ],
      [
        " भ",
        "ाज"
      ],
      [
        "्री",
        "य"
      ],
      [
        "र्",
        "मा"
      ],
      [
        " श",
        "ु"
      ],
      [
        " दे",
        "ने"
      ],
      [
        "ं",
        "स"
      ],
      [
        " भाज",
        "पा"
      ],
      [
        " मां",
        "ग"
      ],
      [
        "3",
        "0"
      ],
      [
        "ि",
        "छ"
      ],
      [
        "ब",
        "्"
      ],
      [
        "वा",
        "स"
      ],
      [
        " म",
        "ंदिर"
      ],
      [
        " श",
        "ा"
      ],
      [
        " फ",
        "िर"
      ],
      [
        "श",
        "े"
      ],
      [
        " नि",
        "वासी"
      ],
      [
        "ड़",
        "ा"
      ],
      [
        "िय",
        "ो"
      ],
      [
        "स",
        "म"
      ],
      [
        "ग",
        "्"
      ],
      [
        " उन",
        "की"
      ],
      [
        " त",
        "ीन"
      ],
      [
        " आ",
        "द"
      ],
      [
        "ो",
        "न"
      ],
      [
        "1",
        "9"
      ],
      [
        "ं",
        "त"
      ],
      [
        " याद",
        "व"
      ],
      [
        " म",
        "ार्"
      ],
      [
        "ो",
        "ष"
      ],
      [
        "भा",
        "व"
      ],
      [
        "ू",
        "म"
      ],
      [
        " मौ",
        "के"
      ],
      [
        "ाय",
        "ल"
      ],
      [
        "जू",
        "द"
      ],
      [
        ".",
        "."
      ],
      [
        "ध",
        "्य"
      ],
      [
        " द",
        "िए"
      ],
      [
        "े",
        "त"
      ],
      [
        " स्क",
        "ूल"
      ],
      [
        " व",
        "ो"
      ],
      [
        " च",
        "ला"
      ],
      [
        " राज",
        "्य"
      ],
      [
        "त",
        "ार"
      ],
      [
        " फ",
        "ै"
      ],
      [
        " ज",
        "ै"
      ],
      [
        " सब",
        "से"
      ],
      [
        " पहुंच",
        "े"
      ],
      [
        "ू",
        "ं"
      ],
      [
        " हो",
        "गी"
      ],
      [
        " शिक",
        "्ष"
      ],
      [
        "ार",
        "ियों"
      ],
      [
        "आ",
        "र"
      ],
      [
        " प",
        "ानी"
      ],
      [
        " आ",
        "या"
      ],
      [
        "उ",
        "न"
      ],
      [
        "स्थ",
        "ा"
      ],
      [
        "ं",
        "ब"
      ],
      [
        " ज",
        "ग"
      ],
      [
        "र",
        "ाम"
      ],
      [
        "ंग",
        "ल"
      ],
      [
        " वि",
        "ध"
      ],
      [
        " फिल",
        "्म"
      ],
      [
        " ज",
        "र"
      ],
      [
        " प्र",
        "श"
      ],
      [
        "व",
        "ल"
      ],
      [
        " आ",
        "ने"
      ],
      [
        " तै",
        "य"
      ],
      [
        "ठ",
        "ा"
      ],
      [
        "िल्",
        "ली"
      ],
      [
        " सु",
        "बह"
      ],
      [
        " ",
        "ई"
      ],
      [
        "ास",
        "न"
      ],
      [
        " श",
        "हर"
      ],
      [
        "द",
        "र्"
      ],
      [
        "ंद",
        "र"
      ],
      [
        "इ",
        "क"
      ],
      [
        " बार",
        "िश"
      ],
      [
        " म",
        "हा"
      ],
      [
        "क",
        "ु"
      ],
      [
        " अधिक",
        "ारी"
      ],
      [
        "र्",
        "ण"
      ],
      [
        " य",
        "हां"
      ],
      [
        " अनु",
        "सार"
      ],
      [
        " रह",
        "ने"
      ],
      [
        " मिल",
        "ी"
      ],
      [
        "ह",
        "न"
      ],
      [
        "ध",
        "ा"
      ],
      [
        " क",
        "्र"
      ],
      [
        "1",
        "5"
      ],
      [
        " शिक",
        "ायत"
      ],
      [
        "बा",
        "द"
      ],
      [
        " श",
        "्री"
      ],
      [
        " युव",
        "क"
      ],
      [
        "वा",
        "द"
      ],
      [
        "ोज",
        "ना"
      ],
      [
        " गिर",
        "फ्तार"
      ],
      [
        " प",
        "ो"
      ],
      [
        " ड",
        "ी"
      ],
      [
        "ले",
        "किन"
      ],
      [
        " सक",
        "ता"
      ],
      [
        "क",
        "र्"
      ],
      [
        " श",
        "र्मा"
      ],
      [
        "श्",
        "व"
      ],
      [
        " चाह",
        "िए"
      ],
      [
        "ं",
        "ज"
      ],
      [
        "ाय",
        "र"
      ],
      [
        "ाय",
        "क"
      ],
      [
        "र",
        "ण"
      ],
      [
        "िय",
        "र"
      ],
      [
        "में",
        "ट"
      ],
      [
        "च्",
        "छ"
      ],
      [
        "त्",
        "व"
      ],
      [
        "्र",
        "ा"
      ],
      [
        "ें",
        "स"
      ],
      [
        "ज्",
        "ञ"
      ],
      [
        "ंग",
        "े"
      ],
      [
        "स",
        "ल"
      ],
      [
        " क",
        "्या"
      ],
      [
        " द",
        "ा"
      ],
      [
        " क",
        "ंप"
      ],
      [
        " बा",
        "हर"
      ],
      [
        "ू",
        "ट"
      ],
      [
        " म",
        "त"
      ],
      [
        "्",
        "ड"
      ],
      [
        "िछ",
        "ले"
      ],
      [
        "य",
        "ोग"
      ],
      [
        " प",
        "द"
      ],
      [
        " सं",
        "बंध"
      ],
      [
        "श",
        "ा"
      ],
      [
        " मो",
        "दी"
      ],
      [
        " प्र",
        "ा"
      ],
      [
        " मिल",
        "े"
      ],
      [
        "ि",
        "ज"
      ],
      [
        " अ",
        "म"
      ],
      [
        " सू",
        "चना"
      ],
      [
        " आ",
        "र"
      ],
      [
        "1",
        "1"
      ],
      [
        " म",
        "ैं"
      ],
      [
        "ो",
        "ध"
      ],
      [
        "ं",
        "क"
      ],
      [
        "र्",
        "फ"
      ],
      [
        " म",
        "न"
      ],
      [
        "ला",
        "ई"
      ],
      [
        " ग",
        "ा"
      ],
      [
        "िय",
        "म"
      ],
      [
        "20",
        "1"
      ],
      [
        " पू",
        "री"
      ],
      [
        " म",
        "िला"
      ],
      [
        "थ",
        "ा"
      ],
      [
        " ब",
        "ंद"
      ],
      [
        "स्थ",
        "ान"
      ],
      [
        " क",
        "प"
      ],
      [
        " रा",
        "ष्ट"
      ],
      [
        "द",
        "्य"
      ],
      [
        " कार्य",
        "क्रम"
      ],
      [
        " प",
        "त्"
      ],
      [
        " श",
        "व"
      ],
      [
        "ो",
        "जन"
      ],
      [
        " श",
        "े"
      ],
      [
        " ख",
        "ा"
      ],
      [
        "िप",
        "ोर्ट"
      ],
      [
        "0",
        "0"
      ],
      [
        " प्र",
        "ो"
      ],
      [
        "ख",
        "्या"
      ],
      [
        "िश",
        "्"
      ],
      [
        " कर",
        "ें"
      ],
      [
        " सह",
        "ित"
      ],
      [
        " क",
        "र्म"
      ],
      [
        " को",
        "र्ट"
      ],
      [
        "भ",
        "ार"
      ],
      [
        "च",
        "ान"
      ],
      [
        " जाए",
        "गी"
      ],
      [
        " च",
        "े"
      ],
      [
        " ऑ",
        "फ"
      ],
      [
        "द",
        "ो"
      ],
      [
        " म",
        "ी"
      ],
      [
        "ां",
        "ड"
      ],
      [
        "ग",
        "्र"
      ],
      [
        "म",
        "ो"
      ],
      [
        "मा",
        "ण"
      ],
      [
        " स्",
        "व"
      ],
      [
        "ां",
        "कि"
      ],
      [
        " अ",
        "ला"
      ],
      [
        "मे",
        "र"
      ],
      [
        " म",
        "ही"
      ],
      [
        " अप",
        "ना"
      ],
      [
        "ता",
        "ब"
      ],
      [
        " भार",
        "तीय"
      ],
      [
        " का",
        "फी"
      ],
      [
        " द",
        "िल्ली"
      ],
      [
        "य",
        "पुर"
      ],
      [
        " श",
        "िव"
      ],
      [
        "म्",
        "मी"
      ],
      [
        "ी",
        "क्षा"
      ],
      [
        "त्",
        "म"
      ],
      [
        " वि",
        "धान"
      ],
      [
        " आ",
        "गे"
      ],
      [
        " त",
        "ी"
      ],
      [
        "ग",
        "म"
      ],
      [
        "ए",
        "क"
      ],
      [
        " हो",
        "ता"
      ],
      [
        " जी",
        "त"
      ],
      [
        "व",
        "री"
      ],
      [
        " ट",
        "्रे"
      ],
      [
        "ट",
        "्"
      ],
      [
        " सद",
        "स"
      ],
      [
        "ब",
        "े"
      ],
      [
        "ु",
        "क्त"
      ],
      [
        "ु",
        "क"
      ],
      [
        "अ",
        "ब"
      ],
      [
        " उस",
        "की"
      ],
      [
        "द",
        "न"
      ],
      [
        "ल",
        "ों"
      ],
      [
        " त",
        "हत"
      ],
      [
        " माम",
        "ला"
      ],
      [
        "रा",
        "ब"
      ],
      [
        " मौ",
        "जूद"
      ],
      [
        " रो",
        "ड"
      ],
      [
        " बह",
        "ुत"
      ],
      [
        " विक",
        "ास"
      ],
      [
        " लोक",
        "सभा"
      ],
      [
        "ें",
        "द"
      ],
      [
        "इस",
        "में"
      ],
      [
        "च",
        "ी"
      ],
      [
        "स",
        "ि"
      ],
      [
        "ग",
        "्री"
      ],
      [
        " क",
        "ेंद्र"
      ],
      [
        "े",
        "म"
      ],
      [
        " बार",
        "े"
      ],
      [
        " स्",
        "वा"
      ],
      [
        " इ",
        "ंड"
      ],
      [
        " च",
        "ार"
      ],
      [
        "क्ष",
        "ण"
      ],
      [
        " सक",
        "ते"
      ],
      [
        "ज",
        "ह"
      ],
      [
        " सम",
        "ाज"
      ],
      [
        "म्मी",
        "द"
      ],
      [
        " ट",
        "े"
      ],
      [
        "इ",
        "ल"
      ],
      [
        " निर्",
        "देश"
      ],
      [
        " स",
        "फ"
      ],
      [
        " अला",
        "वा"
      ],
      [
        "ं",
        "टे"
      ],
      [
        " य",
        "ू"
      ],
      [
        " व्य",
        "व"
      ],
      [
        " कि",
        "सान"
      ],
      [
        "त",
        "िक"
      ],
      [
        " ह",
        "त्या"
      ],
      [
        "स्",
        "क"
      ],
      [
        "हाल",
        "ांकि"
      ],
      [
        "त",
        "म"
      ],
      [
        " कर",
        "ोड़"
      ],
      [
        "2",
        "5"
      ],
      [
        " य",
        "ोजना"
      ],
      [
        " स",
        "ंग"
      ],
      [
        "ग",
        "ढ़"
      ],
      [
        " क",
        "्यों"
      ],
      [
        " र",
        "िपोर्ट"
      ],
      [
        " जग",
        "ह"
      ],
      [
        "दर्",
        "शन"
      ],
      [
        "ड़",
        "े"
      ],
      [
        "य",
        "हां"
      ],
      [
        " ग",
        "ुरु"
      ],
      [
        " प",
        "े"
      ],
      [
        "सा",
        "थ"
      ],
      [
        " सु",
        "न"
      ],
      [
        " कह",
        "ना"
      ],
      [
        "इस",
        "ी"
      ],
      [
        "ंग",
        "ा"
      ],
      [
        " विधान",
        "सभा"
      ],
      [
        "फ",
        "्"
      ],
      [
        " म",
        "ीड"
      ],
      [
        " उ",
        "म्मीद"
      ],
      [
        "ो",
        "री"
      ],
      [
        "ख",
        "ंड"
      ],
      [
        " सं",
        "ख्या"
      ],
      [
        " छ",
        "ो"
      ],
      [
        "म",
        "िक"
      ],
      [
        " ब",
        "स"
      ],
      [
        "क",
        "ाल"
      ],
      [
        " छा",
        "त्र"
      ],
      [
        " व",
        "जह"
      ],
      [
        " अ",
        "लग"
      ],
      [
        "ले",
        "ज"
      ],
      [
        " प",
        "ता"
      ],
      [
        "शे",
        "ष"
      ],
      [
        "ता",
        "ओं"
      ],
      [
        " बच्च",
        "ों"
      ],
      [
        "ें",
        "ड"
      ],
      [
        " दिन",
        "ों"
      ],
      [
        " व",
        "ाह"
      ],
      [
        " बा",
        "इक"
      ],
      [
        " ह",
        "ाल"
      ],
      [
        "च",
        "ित"
      ],
      [
        " मीड",
        "िया"
      ],
      [
        "इस",
        "से"
      ],
      [
        "ु",
        "आ"
      ],
      [
        "ार्",
        "थ"
      ],
      [
        " व",
        "ीड"
      ],
      [
        "ामी",
        "ण"
      ],
      [
        "झ",
        "े"
      ],
      [
        " प्र",
        "धान"
      ],
      [
        "जे",
        "पी"
      ],
      [
        " व",
        "हां"
      ],
      [
        " स्",
        "प"
      ],
      [
        " कर",
        "ता"
      ],
      [
        " मु",
        "ताब"
      ],
      [
        " ल",
        "गे"
      ],
      [
        "ां",
        "ग"
      ],
      [
        "श",
        "ल"
      ],
      [
        " फ",
        "ी"
      ],
      [
        " तर",
        "फ"
      ],
      [
        "स्",
        "ता"
      ],
      [
        " मुताब",
        "िक"
      ],
      [
        " कर",
        "ेंगे"
      ],
      [
        " प",
        "िता"
      ],
      [
        " आ",
        "ग"
      ],
      [
        " हो",
        "ती"
      ],
      [
        " घ",
        "ायल"
      ],
      [
        "ो",
        "ह"
      ],
      [
        "ण",
        "ी"
      ],
      [
        " भा",
        "ग"
      ],
      [
        "च",
        "ाल"
      ],
      [
        " ज",
        "हां"
      ],
      [
        "ै",
        "ल"
      ],
      [
        "जन",
        "ों"
      ],
      [
        " विध",
        "ायक"
      ],
      [
        "क्",
        "शन"
      ],
      [
        " व्य",
        "क्ति"
      ],
      [
        " आ",
        "धार"
      ],
      [
        " व",
        "ा"
      ],
      [
        " ड",
        "े"
      ],
      [
        " मही",
        "ने"
      ],
      [
        "त",
        "न"
      ],
      [
        " पो",
        "स्ट"
      ],
      [
        " वीड",
        "ियो"
      ],
      [
        " र",
        "वि"
      ],
      [
        "ॉ",
        "ल"
      ],
      [
        "घ",
        "टना"
      ],
      [
        " व",
        "ोट"
      ],
      [
        " सुर",
        "क्षा"
      ],
      [
        " क",
        "ुल"
      ],
      [
        " पहुंच",
        "ी"
      ],
      [
        " ह",
        "ों"
      ],
      [
        "a",
        "n"
      ],
      [
        " बना",
        "ने"
      ],
      [
        "व",
        "र्"
      ],
      [
        "िया",
        "णा"
      ],
      [
        " पत्",
        "नी"
      ],
      [
        "य",
        "ू"
      ],
      [
        " घ",
        "ंटे"
      ],
      [
        " प",
        "ुर"
      ],
      [
        "ड़",
        "क"
      ],
      [
        " पर",
        "ीक्षा"
      ],
      [
        " प",
        "ढ़"
      ],
      [
        "श",
        "ि"
      ],
      [
        " प",
        "ं"
      ],
      [
        " पू",
        "छ"
      ],
      [
        " ब",
        "ां"
      ],
      [
        " कर",
        "वा"
      ],
      [
        " ए",
        "न"
      ],
      [
        "प",
        "ति"
      ],
      [
        "र्",
        "य"
      ],
      [
        " न",
        "ंबर"
      ],
      [
        "म",
        "वार"
      ],
      [
        " हा",
        "थ"
      ],
      [
        "ित",
        "ि"
      ],
      [
        " प",
        "ंच"
      ],
      [
        " प",
        "क"
      ],
      [
        " भ",
        "ग"
      ],
      [
        " फ",
        "र"
      ],
      [
        " आय",
        "ोजन"
      ],
      [
        "स",
        "ू"
      ],
      [
        "ज",
        "़"
      ],
      [
        " न",
        "जर"
      ],
      [
        " ब",
        "्र"
      ],
      [
        "र्",
        "चा"
      ],
      [
        " प्र",
        "भ"
      ],
      [
        "द",
        "र"
      ],
      [
        " स",
        "ांस"
      ],
      [
        "ब",
        "ल"
      ],
      [
        "1",
        "4"
      ],
      [
        "ल",
        "िए"
      ],
      [
        "्",
        "ला"
      ],
      [
        " ग",
        "ं"
      ],
      [
        "व",
        "ेश"
      ],
      [
        " पू",
        "रा"
      ],
      [
        " भ",
        "र"
      ],
      [
        "2",
        "4"
      ],
      [
        " प",
        "त्र"
      ],
      [
        " शा",
        "दी"
      ],
      [
        " भ",
        "ाई"
      ],
      [
        " इस",
        "के"
      ],
      [
        " था",
        "ने"
      ],
      [
        "च",
        "े"
      ],
      [
        "द",
        "्यालय"
      ],
      [
        "स",
        "ु"
      ],
      [
        " र",
        "न"
      ],
      [
        " प्र",
        "त"
      ],
      [
        " अधिक",
        "ारियों"
      ],
      [
        " दि",
        "ख"
      ],
      [
        " प्रश",
        "ासन"
      ],
      [
        "ंद",
        "्र"
      ],
      [
        "-",
        "अ"
      ],
      [
        " सा",
        "ह"
      ],
      [
        " मुख्य",
        "मंत्री"
      ],
      [
        " स",
        "च"
      ],
      [
        " स",
        "र्"
      ],
      [
        " दूस",
        "रे"
      ],
      [
        " आ",
        "स"
      ],
      [
        " क",
        "ृ"
      ],
      [
        " द",
        "िव"
      ],
      [
        " निर्",
        "माण"
      ],
      [
        "िक",
        "ल"
      ],
      [
        " दु",
        "कान"
      ],
      [
        " सक",
        "ती"
      ],
      [
        " अ",
        "भी"
      ],
      [
        "म",
        "त"
      ],
      [
        " सम",
        "्म"
      ],
      [
        " प",
        "िछले"
      ],
      [
        "ार",
        "े"
      ],
      [
        " लगा",
        "या"
      ],
      [
        " त",
        "ेज"
      ],
      [
        " ",
        "ढ"
      ],
      [
        " तैय",
        "ार"
      ],
      [
        " मिल",
        "ने"
      ],
      [
        "ा",
        "ने"
      ],
      [
        "भी",
        "र"
      ],
      [
        " ए",
        "म"
      ],
      [
        " ख",
        "ेल"
      ],
      [
        " घ",
        "ोष"
      ],
      [
        " बि",
        "ज"
      ],
      [
        " वि",
        "शेष"
      ],
      [
        "वी",
        "र"
      ],
      [
        " य",
        "ोग"
      ],
      [
        " जिस",
        "में"
      ],
      [
        " कंप",
        "नी"
      ],
      [
        " वाल",
        "ा"
      ],
      [
        " म",
        "ंड"
      ],
      [
        "स्",
        "ते"
      ],
      [
        " न",
        "्या"
      ],
      [
        "ंगल",
        "वार"
      ],
      [
        "1",
        "8"
      ],
      [
        " कॉ",
        "लेज"
      ],
      [
        "इ",
        "ट"
      ],
      [
        " लगा",
        "तार"
      ],
      [
        " ",
        "S"
      ],
      [
        "ी",
        "य"
      ],
      [
        " बैठ",
        "क"
      ],
      [
        " ज",
        "ल"
      ],
      [
        "री",
        "ज"
      ],
      [
        " क",
        "ल"
      ],
      [
        " ह",
        "ूं"
      ],
      [
        " व",
        "ै"
      ],
      [
        "ार्",
        "ट"
      ],
      [
        " र",
        "ेल"
      ],
      [
        "ार्",
        "ड"
      ],
      [
        " करा",
        "या"
      ],
      [
        "ैं",
        "क"
      ],
      [
        "ि",
        "स्ट"
      ],
      [
        "1",
        "3"
      ],
      [
        " स",
        "ौ"
      ],
      [
        " ज",
        "ून"
      ],
      [
        " से",
        "वा"
      ],
      [
        " ल",
        "ड़"
      ],
      [
        "मी",
        "न"
      ],
      [
        " दे",
        "ते"
      ],
      [
        "िय",
        "न"
      ],
      [
        "व",
        "ह"
      ],
      [
        " डि",
        "ग्री"
      ],
      [
        " आ",
        "म"
      ],
      [
        " आरोप",
        "ियों"
      ],
      [
        " ",
        "ऊ"
      ],
      [
        "भ",
        "ग"
      ],
      [
        " सांस",
        "द"
      ],
      [
        "श",
        "त"
      ],
      [
        "1",
        "6"
      ],
      [
        "ोज",
        "ित"
      ],
      [
        "ज",
        "ु"
      ],
      [
        " के",
        "स"
      ],
      [
        " उ",
        "ठा"
      ],
      [
        "कर",
        "ण"
      ],
      [
        "-",
        "प"
      ],
      [
        " भ",
        "े"
      ],
      [
        " हि",
        "स्"
      ],
      [
        " गं",
        "भीर"
      ],
      [
        " ए",
        "क्स"
      ],
      [
        " क",
        "ान"
      ],
      [
        " बना",
        "या"
      ],
      [
        " श",
        "्र"
      ],
      [
        " उन",
        "का"
      ],
      [
        " जै",
        "से"
      ],
      [
        "या",
        "न"
      ],
      [
        " ल",
        "ाल"
      ],
      [
        " अ",
        "र"
      ],
      [
        "ऐ",
        "से"
      ],
      [
        " म",
        "ाल"
      ],
      [
        " पू",
        "रे"
      ],
      [
        " आद",
        "ि"
      ],
      [
        "स्त",
        "ान"
      ],
      [
        "ध",
        "वार"
      ],
      [
        " कर",
        "े"
      ],
      [
        "क्र",
        "वार"
      ],
      [
        "ल्",
        "ड"
      ],
      [
        " ग",
        "र्"
      ],
      [
        "ष्",
        "ण"
      ],
      [
        " गां",
        "धी"
      ],
      [
        " ",
        "-"
      ],
      [
        "स",
        "ं"
      ],
      [
        " सम",
        "झ"
      ],
      [
        "ष्",
        "ठ"
      ],
      [
        "ब",
        "ता"
      ],
      [
        "ना",
        "थ"
      ],
      [
        " व्यव",
        "स्था"
      ],
      [
        " प्र",
        "दर्शन"
      ],
      [
        " जा",
        "ती"
      ],
      [
        " नि",
        "गम"
      ],
      [
        " ल",
        "गी"
      ],
      [
        " ज",
        "े"
      ],
      [
        " डॉ",
        "क्टर"
      ],
      [
        "1",
        "7"
      ],
      [
        "स्",
        "या"
      ],
      [
        " ब",
        "ड़ी"
      ],
      [
        " ख",
        "ान"
      ],
      [
        " मै",
        "च"
      ],
      [
        "ै",
        "ंड"
      ],
      [
        "ू",
        "री"
      ],
      [
        "िया",
        "न"
      ],
      [
        " म",
        "ाह"
      ],
      [
        " वि",
        "श्व"
      ],
      [
        " ह",
        "ाई"
      ],
      [
        " रुप",
        "ये"
      ],
      [
        "न",
        "र"
      ],
      [
        "श",
        "ु"
      ],
      [
        "ंद",
        "ी"
      ],
      [
        "जा",
        "ब"
      ],
      [
        "ि",
        "टी"
      ],
      [
        " ब",
        "ढ़"
      ],
      [
        " ब",
        "ॉ"
      ],
      [
        " भ",
        "र्"
      ],
      [
        " न",
        "र"
      ],
      [
        "न",
        "िया"
      ],
      [
        " व",
        "ाप"
      ],
      [
        " ड",
        "्र"
      ],
      [
        " आय",
        "ोजित"
      ],
      [
        " ",
        "C"
      ],
      [
        "मु",
        "ख"
      ],
      [
        "का",
        "श"
      ],
      [
        "प",
        "मान"
      ],
      [
        " प्र",
        "या"
      ],
      [
        " सं",
        "चाल"
      ],
      [
        "फ",
        "र"
      ],
      [
        " वि",
        "रो"
      ],
      [
        "ह",
        "ुल"
      ],
      [
        " इला",
        "ज"
      ],
      [
        "म",
        "ह"
      ],
      [
        " पह",
        "ली"
      ],
      [
        " ह",
        "े"
      ],
      [
        " सम",
        "ेत"
      ],
      [
        " बी",
        "जेपी"
      ],
      [
        "िल",
        "ी"
      ],
      [
        " प्रभ",
        "ारी"
      ],
      [
        "ड",
        "ा"
      ],
      [
        " पर",
        "ेश"
      ],
      [
        " पह",
        "चान"
      ],
      [
        " प",
        "क्ष"
      ],
      [
        " ग्र",
        "ामीण"
      ],
      [
        "ां",
        "त"
      ],
      [
        "म",
        "र"
      ],
      [
        " प",
        "ांच"
      ],
      [
        "ाप",
        "्त"
      ],
      [
        " ख",
        "े"
      ],
      [
        " ले",
        "ने"
      ],
      [
        "दी",
        "प"
      ],
      [
        "म",
        "ैं"
      ],
      [
        "न्",
        "न"
      ],
      [
        "ि",
        "रा"
      ],
      [
        " व",
        "्या"
      ],
      [
        " द",
        "ें"
      ],
      [
        "ल",
        "ाल"
      ],
      [
        " ता",
        "पमान"
      ],
      [
        " भर्",
        "ती"
      ],
      [
        " सदस",
        "्य"
      ],
      [
        "आ",
        "रो"
      ],
      [
        " स्थ",
        "ान"
      ],
      [
        "बंध",
        "न"
      ],
      [
        " प",
        "ड़"
      ],
      [
        "ष",
        "ण"
      ],
      [
        " पू",
        "जा"
      ],
      [
        "द",
        "ारी"
      ],
      [
        " हो",
        "ते"
      ],
      [
        " अ",
        "च्छ"
      ],
      [
        " अ",
        "फ"
      ],
      [
        " ब",
        "ाल"
      ],
      [
        " आ",
        "देश"
      ],
      [
        " ख",
        "री"
      ],
      [
        "िन्",
        "न"
      ],
      [
        " भग",
        "वान"
      ],
      [
        " म",
        "द"
      ],
      [
        " म",
        "ना"
      ],
      [
        " राज",
        "नी"
      ],
      [
        " स्थित",
        "ि"
      ],
      [
        " शिक्ष",
        "ा"
      ],
      [
        "ध",
        "्यक्ष"
      ],
      [
        "20",
        "0"
      ],
      [
        " हो",
        "कर"
      ],
      [
        "जी",
        "त"
      ],
      [
        " खु",
        "द"
      ],
      [
        "ि",
        "ंद"
      ],
      [
        " उस",
        "ने"
      ],
      [
        " बना",
        "ए"
      ],
      [
        "न्",
        "द्र"
      ],
      [
        "प",
        "ास"
      ],
      [
        "ह",
        "रा"
      ],
      [
        " मे",
        "ड"
      ],
      [
        "वा",
        "ब"
      ],
      [
        "ए",
        "न"
      ],
      [
        " ऐ",
        "सा"
      ],
      [
        " ज",
        "ेल"
      ],
      [
        " न",
        "ौ"
      ],
      [
        "ै",
        "क"
      ],
      [
        " साम",
        "ान"
      ],
      [
        " स",
        "ित"
      ],
      [
        " चल",
        "ते"
      ],
      [
        "पू",
        "र्ण"
      ],
      [
        "त्र",
        "ी"
      ],
      [
        "ब",
        "ार"
      ],
      [
        "प",
        "हर"
      ],
      [
        " र",
        "खा"
      ],
      [
        " ए",
        "क्ट"
      ],
      [
        " म",
        "ृत"
      ],
      [
        " थी",
        "ं"
      ],
      [
        " र",
        "ोक"
      ],
      [
        " ट्रे",
        "न"
      ],
      [
        "भ",
        "िन्न"
      ],
      [
        " ज",
        "ल्"
      ],
      [
        " द",
        "र"
      ],
      [
        " ग",
        "ठ"
      ],
      [
        " चु",
        "के"
      ],
      [
        " भ",
        "ेज"
      ],
      [
        " न",
        "ए"
      ],
      [
        " ज",
        "मीन"
      ],
      [
        " ब",
        "ज"
      ],
      [
        " जु",
        "लाई"
      ],
      [
        " सो",
        "मवार"
      ],
      [
        "व",
        "त"
      ],
      [
        " कर",
        "के"
      ],
      [
        "ू",
        "र्"
      ],
      [
        " प",
        "ति"
      ],
      [
        "स्",
        "ती"
      ],
      [
        " क",
        "ले"
      ],
      [
        " अ",
        "ति"
      ],
      [
        "स्थ",
        "्य"
      ],
      [
        " सी",
        "एम"
      ],
      [
        "ू",
        "प"
      ],
      [
        "र्",
        "च"
      ],
      [
        "ू",
        "त"
      ],
      [
        " प्रति",
        "शत"
      ],
      [
        "वा",
        "ह"
      ],
      [
        " बिज",
        "ली"
      ],
      [
        " फ",
        "ोन"
      ],
      [
        " बे",
        "ह"
      ],
      [
        " ब",
        "ल्"
      ],
      [
        " त",
        "ब"
      ],
      [
        " च",
        "ाल"
      ],
      [
        " या",
        "त्रा"
      ],
      [
        " ऐ",
        "से"
      ],
      [
        "फ",
        "ा"
      ],
      [
        " ब",
        "ने"
      ],
      [
        " मद",
        "द"
      ],
      [
        " इस",
        "े"
      ],
      [
        " त",
        "स्"
      ],
      [
        "ष",
        "द"
      ],
      [
        " न",
        "ार"
      ],
      [
        "र",
        "ि"
      ],
      [
        "श",
        "्य"
      ],
      [
        " बा",
        "जार"
      ],
      [
        "बा",
        "इल"
      ],
      [
        " बे",
        "टे"
      ],
      [
        " हम",
        "ला"
      ],
      [
        "ट",
        "न"
      ],
      [
        " त",
        "था"
      ],
      [
        " जन",
        "ता"
      ],
      [
        " च",
        "र्चा"
      ],
      [
        " हों",
        "गे"
      ],
      [
        "ए",
        "ल"
      ],
      [
        " अव",
        "सर"
      ],
      [
        "2",
        "2"
      ],
      [
        " शुर",
        "ुआ"
      ],
      [
        " अग",
        "स्त"
      ],
      [
        "धिक",
        "ारी"
      ],
      [
        " ग",
        "ै"
      ],
      [
        " सम",
        "स्या"
      ],
      [
        " स",
        "वाल"
      ],
      [
        " जब",
        "कि"
      ],
      [
        " पी",
        "छ"
      ],
      [
        " ज",
        "िन"
      ],
      [
        " चु",
        "की"
      ],
      [
        " बच्च",
        "े"
      ],
      [
        " श",
        "नि"
      ],
      [
        " च",
        "ोरी"
      ],
      [
        " सं",
        "प"
      ],
      [
        " प्रया",
        "स"
      ],
      [
        "्र",
        "म"
      ],
      [
        " वि",
        "भिन्न"
      ],
      [
        " म",
        "ंगलवार"
      ],
      [
        "ानी",
        "य"
      ],
      [
        " प",
        "ेश"
      ],
      [
        "म",
        "न"
      ],
      [
        " ",
        "A"
      ],
      [
        " दे",
        "र"
      ],
      [
        "्",
        "ले"
      ],
      [
        "वे",
        "दन"
      ],
      [
        " अभ",
        "ियान"
      ],
      [
        "े",
        "क"
      ],
      [
        " फै",
        "स"
      ],
      [
        "क्ष",
        "क"
      ],
      [
        " दे",
        "व"
      ],
      [
        "पी",
        "ट"
      ],
      [
        "ठ",
        "ी"
      ],
      [
        " ब",
        "यान"
      ],
      [
        " त",
        "ला"
      ],
      [
        "ध",
        "ि"
      ],
      [
        " उस",
        "का"
      ],
      [
        " द",
        "ल"
      ],
      [
        " स",
        "ड़क"
      ],
      [
        " स",
        "के"
      ],
      [
        " प",
        "ार"
      ],
      [
        " जा",
        "ते"
      ],
      [
        "र्",
        "क"
      ],
      [
        " सर",
        "कारी"
      ],
      [
        "ल्",
        "प"
      ],
      [
        " पहुंच",
        "ा"
      ],
      [
        "4",
        "0"
      ],
      [
        "ग",
        "ंज"
      ],
      [
        " न",
        "िय"
      ],
      [
        " न",
        "ई"
      ],
      [
        " बे",
        "टी"
      ],
      [
        " फ",
        "ा"
      ],
      [
        " ह",
        "मार"
      ],
      [
        "र",
        "िक"
      ],
      [
        "अ",
        "प"
      ],
      [
        " प्रधान",
        "मंत्री"
      ],
      [
        "ज",
        "ाम"
      ],
      [
        " य",
        "ून"
      ],
      [
        " कर",
        "ती"
      ],
      [
        " प",
        "ाल"
      ],
      [
        " विरो",
        "ध"
      ],
      [
        "म",
        "ौ"
      ],
      [
        " सच",
        "िव"
      ],
      [
        "म",
        "ाल"
      ],
      [
        " सम्म",
        "ान"
      ],
      [
        "ब",
        "ू"
      ],
      [
        "a",
        "r"
      ],
      [
        " म",
        "ि"
      ],
      [
        " दे",
        "खा"
      ],
      [
        "च",
        "र"
      ],
      [
        " र",
        "िक"
      ],
      [
        " बि",
        "हार"
      ],
      [
        "ू",
        "बर"
      ],
      [
        "ै",
        "ध"
      ],
      [
        " अ",
        "र्"
      ],
      [
        " प्र",
        "मुख"
      ],
      [
        " व",
        "ित"
      ],
      [
        "ह",
        "ित"
      ],
      [
        "म",
        "ाम"
      ],
      [
        " ल",
        "ॉ"
      ],
      [
        " दि",
        "खा"
      ],
      [
        " ज",
        "्"
      ],
      [
        " ब",
        "ल"
      ],
      [
        " ब",
        "चा"
      ],
      [
        " उम्मीद",
        "वार"
      ],
      [
        " ब",
        "ैंक"
      ],
      [
        " वाह",
        "न"
      ],
      [
        " राष्ट",
        "्रीय"
      ],
      [
        " म",
        "िन"
      ],
      [
        " म",
        "िश"
      ],
      [
        " स",
        "वार"
      ],
      [
        " मु",
        "झे"
      ],
      [
        "आ",
        "ज"
      ],
      [
        "ज",
        "ान"
      ],
      [
        " प्र",
        "े"
      ],
      [
        "कर",
        "ी"
      ],
      [
        " ",
        "P"
      ],
      [
        " मा",
        "ध्य"
      ],
      [
        " च",
        "ी"
      ],
      [
        " मो",
        "बाइल"
      ],
      [
        " अप",
        "रा"
      ],
      [
        "ग",
        "ढ़"
      ],
      [
        " स्",
        "तर"
      ],
      [
        "ां",
        "व"
      ],
      [
        " स्वा",
        "स्थ्य"
      ],
      [
        "ो",
        "पाल"
      ],
      [
        " बु",
        "धवार"
      ],
      [
        " मह",
        "त्व"
      ],
      [
        "श",
        "िश"
      ],
      [
        " इला",
        "के"
      ],
      [
        " ब",
        "र"
      ],
      [
        " यु",
        "वा"
      ],
      [
        " द",
        "ूर"
      ],
      [
        " वि",
        "वाद"
      ],
      [
        " वाप",
        "स"
      ],
      [
        " सम",
        "िति"
      ],
      [
        "हा",
        "य"
      ],
      [
        " महिला",
        "ओं"
      ],
      [
        "के",
        "श"
      ],
      [
        "ट",
        "क"
      ],
      [
        " सि",
        "र्फ"
      ],
      [
        " व",
        "न"
      ],
      [
        " उ",
        "म"
      ],
      [
        " इस",
        "की"
      ],
      [
        " दे",
        "वी"
      ],
      [
        " ज",
        "ैन"
      ],
      [
        "ा",
        "क"
      ],
      [
        "जिस",
        "के"
      ],
      [
        "त",
        "ना"
      ],
      [
        " अ",
        "ल"
      ],
      [
        "शन",
        "ल"
      ],
      [
        " व",
        "ी"
      ],
      [
        " भ",
        "ूम"
      ],
      [
        "प",
        "क्ष"
      ],
      [
        "्या",
        "न"
      ],
      [
        " जिस",
        "से"
      ],
      [
        " ग्र",
        "ाम"
      ],
      [
        " द",
        "िस"
      ],
      [
        "ंद",
        "ौर"
      ],
      [
        "एस",
        "पी"
      ],
      [
        " रवि",
        "वार"
      ],
      [
        " ल",
        "ौ"
      ],
      [
        " शु",
        "क्रवार"
      ],
      [
        " रा",
        "शि"
      ],
      [
        "पुर",
        "ा"
      ],
      [
        " शनि",
        "वार"
      ],
      [
        " कार्य",
        "कर्"
      ],
      [
        "न",
        "गर"
      ],
      [
        " अ",
        "गर"
      ],
      [
        "ू",
        "ड"
      ],
      [
        " ज",
        "य"
      ],
      [
        " सो",
        "शल"
      ],
      [
        " ब",
        "राम"
      ],
      [
        "ट",
        "्र"
      ],
      [
        " को",
        "शिश"
      ],
      [
        "ध",
        "र"
      ],
      [
        " अ",
        "ंदर"
      ],
      [
        "क्ट",
        "ूबर"
      ],
      [
        " लग",
        "भग"
      ],
      [
        "ं",
        "का"
      ],
      [
        "र्",
        "ग"
      ],
      [
        " रा",
        "हुल"
      ],
      [
        " दो",
        "पहर"
      ],
      [
        " म",
        "ई"
      ],
      [
        "ए",
        "च"
      ],
      [
        " वाल",
        "ों"
      ],
      [
        "ं",
        "भ"
      ],
      [
        "ब",
        "ि"
      ],
      [
        " प्र",
        "भाव"
      ],
      [
        "वी",
        "ं"
      ],
      [
        "स्",
        "टर"
      ],
      [
        " शे",
        "यर"
      ],
      [
        " पंच",
        "ायत"
      ],
      [
        " इं",
        "टर"
      ],
      [
        " बराम",
        "द"
      ],
      [
        "क्",
        "कर"
      ],
      [
        " सम",
        "र्थ"
      ],
      [
        " म",
        "ध्य"
      ],
      [
        "मा",
        "श"
      ],
      [
        "ह",
        "री"
      ],
      [
        " निक",
        "ल"
      ],
      [
        "ट",
        "ल"
      ],
      [
        " अव",
        "ैध"
      ],
      [
        " सित",
        "ंबर"
      ],
      [
        " पु",
        "त्र"
      ],
      [
        "उ",
        "ंड"
      ],
      [
        "स",
        "ो"
      ],
      [
        " जी",
        "वन"
      ],
      [
        "कार",
        "्य"
      ],
      [
        "ल्",
        "स"
      ],
      [
        " गुरु",
        "वार"
      ],
      [
        "र",
        "िया"
      ],
      [
        " कह",
        "ते"
      ],
      [
        "ौ",
        "न"
      ],
      [
        " परि",
        "जनों"
      ],
      [
        "श्",
        "च"
      ],
      [
        " सं",
        "घ"
      ],
      [
        "रा",
        "त"
      ],
      [
        "ज",
        "हां"
      ],
      [
        "ा",
        "त"
      ],
      [
        " चु",
        "का"
      ],
      [
        "जिस",
        "में"
      ],
      [
        "द",
        "से"
      ],
      [
        "ॉ",
        "प"
      ],
      [
        "ाल",
        "य"
      ],
      [
        "भ",
        "र"
      ],
      [
        "इ",
        "ड"
      ],
      [
        "2",
        "1"
      ],
      [
        " राज",
        "स्थान"
      ],
      [
        "दे",
        "व"
      ],
      [
        " कर",
        "ो"
      ],
      [
        " दे",
        "कर"
      ],
      [
        " जर",
        "ूर"
      ],
      [
        "ता",
        "छ"
      ],
      [
        "ष",
        "ा"
      ],
      [
        "त",
        "ृ"
      ],
      [
        " जल्",
        "द"
      ],
      [
        " ब",
        "ड़ा"
      ],
      [
        " श",
        "राब"
      ],
      [
        "ग",
        "ल"
      ],
      [
        " ह",
        "ॉ"
      ],
      [
        " अ",
        "क्टूबर"
      ],
      [
        " सं",
        "त"
      ],
      [
        " स",
        "ें"
      ],
      [
        " मार्",
        "ग"
      ],
      [
        " रेल",
        "वे"
      ],
      [
        "प",
        "ह"
      ],
      [
        "वं",
        "बर"
      ],
      [
        " संग",
        "ठ"
      ],
      [
        " पीछ",
        "े"
      ],
      [
        "ध",
        "री"
      ],
      [
        " इंड",
        "िया"
      ],
      [
        " म",
        "ंत्र"
      ],
      [
        "ए",
        "फ"
      ],
      [
        " लि",
        "खा"
      ],
      [
        "दो",
        "नों"
      ],
      [
        " ",
        "N"
      ],
      [
        " शुरुआ",
        "त"
      ],
      [
        "थ",
        "ि"
      ],
      [
        "ेंद",
        "्रीय"
      ],
      [
        "ॉ",
        "र्ड"
      ],
      [
        " कार",
        "्यालय"
      ],
      [
        "ज",
        "ल"
      ],
      [
        "कि",
        "ंग"
      ],
      [
        " ए",
        "ड"
      ],
      [
        " ज",
        "म"
      ],
      [
        "िक",
        "्ष"
      ],
      [
        " ग",
        "ल"
      ],
      [
        "ती",
        "स"
      ],
      [
        "य",
        "न"
      ],
      [
        " ",
        "B"
      ],
      [
        " सं",
        "भाव"
      ],
      [
        " ध",
        "र्म"
      ],
      [
        "कि",
        "स्तान"
      ],
      [
        "भार",
        "त"
      ],
      [
        " ट",
        "िक"
      ],
      [
        " राष्ट",
        "्र"
      ],
      [
        " दिस",
        "ंबर"
      ],
      [
        "ैं",
        "प"
      ],
      [
        "2",
        "3"
      ],
      [
        " त",
        "ौर"
      ],
      [
        "सा",
        "द"
      ],
      [
        "ड़",
        "क"
      ],
      [
        " द",
        "ौ"
      ],
      [
        " मु",
        "ख"
      ],
      [
        " अभ",
        "ि"
      ],
      [
        "स्थ",
        "ित"
      ],
      [
        "ल",
        "ोग"
      ],
      [
        "ि",
        "वार"
      ],
      [
        " जाए",
        "ंगे"
      ],
      [
        "प",
        "क"
      ],
      [
        " ज",
        "ाना"
      ],
      [
        "ब",
        "ाल"
      ],
      [
        " क्यों",
        "कि"
      ],
      [
        " इस",
        "का"
      ],
      [
        "ो",
        "स"
      ],
      [
        "वि",
        "धा"
      ],
      [
        " रा",
        "य"
      ],
      [
        "च",
        "ारी"
      ],
      [
        " न",
        "वंबर"
      ],
      [
        " अ",
        "मेर"
      ],
      [
        " देख",
        "ने"
      ],
      [
        " न",
        "ोट"
      ],
      [
        "िल",
        "ों"
      ],
      [
        " मार",
        "पीट"
      ],
      [
        "2",
        "6"
      ],
      [
        " ग",
        "ुप"
      ],
      [
        "ला",
        "इन"
      ],
      [
        " वि",
        "जय"
      ],
      [
        "10",
        "0"
      ],
      [
        " मिन",
        "ट"
      ],
      [
        " र",
        "ि"
      ],
      [
        " प्र",
        "ाप्त"
      ],
      [
        "ख",
        "न"
      ],
      [
        "ल",
        "र"
      ],
      [
        " चौ",
        "धरी"
      ],
      [
        "र्",
        "जी"
      ],
      [
        "क",
        "त"
      ],
      [
        "ज",
        "ो"
      ],
      [
        "्",
        "ता"
      ],
      [
        "ंद",
        "ा"
      ],
      [
        "ख",
        "िल"
      ],
      [
        " कि",
        "लो"
      ],
      [
        " ब",
        "ड़े"
      ],
      [
        "टे",
        "ड"
      ],
      [
        "टे",
        "ल"
      ],
      [
        "i",
        "n"
      ],
      [
        "स",
        "व"
      ],
      [
        "िस",
        "र"
      ],
      [
        "प्र",
        "देश"
      ],
      [
        " उप",
        "ल"
      ],
      [
        " दूस",
        "री"
      ],
      [
        " क",
        "ट"
      ],
      [
        "म",
        "ारी"
      ],
      [
        " ल",
        "क्ष"
      ],
      [
        "िम",
        "्म"
      ],
      [
        "प",
        "्री"
      ],
      [
        "प",
        "ोर्ट"
      ],
      [
        " म",
        "जब"
      ],
      [
        "ुर",
        "ा"
      ],
      [
        "फ",
        "़"
      ],
      [
        " प",
        "्ल"
      ],
      [
        " नेता",
        "ओं"
      ],
      [
        "ध",
        "न"
      ],
      [
        " किसान",
        "ों"
      ],
      [
        " स्ट",
        "ेशन"
      ],
      [
        " माध्य",
        "म"
      ],
      [
        " प्र",
        "त्या"
      ],
      [
        " क",
        "र्"
      ],
      [
        "स्",
        "व"
      ],
      [
        "वि",
        "द्यालय"
      ],
      [
        "फ",
        "े"
      ],
      [
        " र",
        "ु"
      ],
      [
        " ब",
        "्ल"
      ],
      [
        " स",
        "हाय"
      ],
      [
        "ां",
        "क"
      ],
      [
        "ौ",
        "ल"
      ],
      [
        "स",
        "त"
      ],
      [
        " मेड",
        "िकल"
      ],
      [
        " के",
        "वल"
      ],
      [
        " हो",
        "ना"
      ],
      [
        " ज",
        "वाब"
      ],
      [
        " न",
        "ियम"
      ],
      [
        "ंड",
        "ी"
      ],
      [
        " बढ़",
        "ा"
      ],
      [
        " मे",
        "रे"
      ],
      [
        "a",
        "t"
      ],
      [
        " अं",
        "तर"
      ],
      [
        "क",
        "ल"
      ],
      [
        " लगा",
        "ए"
      ],
      [
        "म",
        "ृत"
      ],
      [
        " मत",
        "दान"
      ],
      [
        " ती",
        "स"
      ],
      [
        "व",
        "ित"
      ],
      [
        "िट",
        "ल"
      ],
      [
        "न",
        "ो"
      ],
      [
        "के",
        "ट"
      ],
      [
        "्य",
        "ो"
      ],
      [
        " ध",
        "म"
      ],
      [
        "..",
        ".\n"
      ],
      [
        " व",
        "ार"
      ],
      [
        " अप",
        "्र"
      ],
      [
        " स",
        "ंद"
      ],
      [
        " ध",
        "्यान"
      ],
      [
        "क",
        "ृ"
      ],
      [
        " ग",
        "ण"
      ],
      [
        "र्",
        "या"
      ],
      [
        "िक",
        "ेट"
      ],
      [
        " इस",
        "ी"
      ],
      [
        " आस",
        "पास"
      ],
      [
        " मा",
        "ता"
      ],
      [
        "2",
        "8"
      ],
      [
        "व",
        "ो"
      ],
      [
        " ए",
        "यर"
      ],
      [
        "र्",
        "ष"
      ],
      [
        " पं",
        "जाब"
      ],
      [
        " भ",
        "ारी"
      ],
      [
        "य",
        "ु"
      ],
      [
        "ग",
        "ू"
      ],
      [
        "द",
        "ाय"
      ],
      [
        "िश",
        "ा"
      ],
      [
        "भ",
        "व"
      ],
      [
        " अं",
        "त"
      ],
      [
        " त",
        "े"
      ],
      [
        "घ",
        "ा"
      ],
      [
        "छ",
        "ा"
      ],
      [
        "म",
        "ार्ट"
      ],
      [
        " बद",
        "ल"
      ],
      [
        " र",
        "ज"
      ],
      [
        " निक",
        "ाल"
      ],
      [
        "क",
        "ांग"
      ],
      [
        " मु",
        "द्"
      ],
      [
        " ला",
        "इन"
      ],
      [
        "क्र",
        "िया"
      ],
      [
        " ड",
        "ाल"
      ],
      [
        " ",
        "I"
      ],
      [
        " स्थ",
        "ानीय"
      ],
      [
        " श",
        "ाह"
      ],
      [
        "ज",
        "री"
      ],
      [
        " ब",
        "नी"
      ],
      [
        " करा",
        "ने"
      ],
      [
        " स",
        "र्व"
      ],
      [
        " सं",
        "य"
      ],
      [
        "त्",
        "ता"
      ],
      [
        " ज",
        "न्"
      ],
      [
        " सु",
        "विधा"
      ],
      [
        " उत्",
        "तर"
      ],
      [
        " म",
        "रीज"
      ],
      [
        " न",
        "दी"
      ],
      [
        "-अ",
        "लग"
      ],
      [
        " क",
        "भी"
      ],
      [
        " लि",
        "ख"
      ],
      [
        " मार्",
        "च"
      ],
      [
        " मौ",
        "सम"
      ],
      [
        "ध",
        "ियों"
      ],
      [
        " बद",
        "माश"
      ],
      [
        "2",
        "7"
      ],
      [
        " श",
        "ो"
      ],
      [
        "िय",
        "ार"
      ],
      [
        " हि",
        "ंद"
      ],
      [
        " ला",
        "भ"
      ],
      [
        " आ",
        "वेदन"
      ],
      [
        " हर",
        "ियाणा"
      ],
      [
        "ॉ",
        "क"
      ],
      [
        " बि",
        "ना"
      ],
      [
        "द",
        "ि"
      ],
      [
        " स",
        "प्"
      ],
      [
        " ज",
        "यपुर"
      ],
      [
        "को",
        "र्ट"
      ],
      [
        " टिक",
        "ट"
      ],
      [
        " जिस",
        "के"
      ],
      [
        "िप",
        "्"
      ],
      [
        " छ",
        "ोड़"
      ],
      [
        " हमार",
        "े"
      ],
      [
        " स",
        "ां"
      ],
      [
        " देख",
        "ते"
      ],
      [
        "ि",
        "री"
      ],
      [
        "ड",
        "े"
      ],
      [
        " फर",
        "ार"
      ],
      [
        " करो",
        "ड़"
      ],
      [
        "जब",
        "कि"
      ],
      [
        " सीट",
        "ों"
      ],
      [
        "कांग",
        "्रेस"
      ],
      [
        " प",
        "दा"
      ],
      [
        "फ्",
        "ट"
      ],
      [
        " प्र",
        "क्रिया"
      ],
      [
        "त",
        "री"
      ],
      [
        "ज्ञ",
        "ान"
      ],
      [
        " उपल",
        "ब्"
      ],
      [
        " ",
        "M"
      ],
      [
        " प",
        "्ले"
      ],
      [
        " बद",
        "ला"
      ],
      [
        "चार",
        "ियों"
      ],
      [
        "ं",
        "कर"
      ],
      [
        "फ",
        "िल"
      ],
      [
        " ज",
        "मा"
      ],
      [
        "क्ष",
        "ित"
      ],
      [
        "ि",
        "ग"
      ],
      [
        " अग",
        "्र"
      ],
      [
        " भे",
        "जा"
      ],
      [
        " प्र",
        "साद"
      ],
      [
        "ंब",
        "ई"
      ],
      [
        " सफ",
        "ल"
      ],
      [
        "तृ",
        "त्व"
      ],
      [
        " क",
        "्"
      ],
      [
        " कै",
        "से"
      ],
      [
        " संबंध",
        "ित"
      ],
      [
        " उ",
        "द्"
      ],
      [
        "त्",
        "तीस"
      ],
      [
        " पूछ",
        "ताछ"
      ],
      [
        " ज",
        "िलों"
      ],
      [
        " र",
        "ोज"
      ],
      [
        " संभाव",
        "ना"
      ],
      [
        "ू",
        "क"
      ],
      [
        " ए",
        "ज"
      ],
      [
        " जन",
        "वरी"
      ],
      [
        "अ",
        "सल"
      ],
      [
        " ह",
        "टा"
      ],
      [
        " नि",
        "री"
      ],
      [
        "द",
        "ु"
      ],
      [
        "्र",
        "ोल"
      ],
      [
        "उस",
        "के"
      ],
      [
        " ",
        "R"
      ],
      [
        "ें",
        "सी"
      ],
      [
        "िम्म",
        "े"
      ],
      [
        " त",
        "य"
      ],
      [
        " फी",
        "स"
      ],
      [
        " एक्स",
        "प"
      ],
      [
        " ख",
        "बर"
      ],
      [
        " सह",
        "योग"
      ],
      [
        " ल",
        "ो"
      ],
      [
        " ट्र",
        "ै"
      ],
      [
        "o",
        "n"
      ],
      [
        " विक",
        "ेट"
      ],
      [
        " अ",
        "हम"
      ],
      [
        " ने",
        "तृत्व"
      ],
      [
        " आ",
        "व"
      ],
      [
        " रख",
        "ने"
      ],
      [
        "ज",
        "ों"
      ],
      [
        " च",
        "ले"
      ],
      [
        "कार्य",
        "क्रम"
      ],
      [
        " ध",
        "न"
      ],
      [
        " बो",
        "र्ड"
      ],
      [
        " पढ़",
        "ें"
      ],
      [
        "अ",
        "गर"
      ],
      [
        "च",
        "ु"
      ],
      [
        "ृ",
        "ह"
      ],
      [
        " कर्म",
        "चारी"
      ],
      [
        " परेश",
        "ान"
      ],
      [
        "का",
        "ब"
      ],
      [
        ")",
        ","
      ],
      [
        " श",
        "ि"
      ],
      [
        "ज",
        "द"
      ],
      [
        " स",
        "ै"
      ],
      [
        " गो",
        "ली"
      ],
      [
        "ना",
        "त"
      ],
      [
        "ध",
        "े"
      ],
      [
        "जी",
        "व"
      ],
      [
        "ट",
        "ो"
      ],
      [
        "स्",
        "ल"
      ],
      [
        " नि",
        "श"
      ],
      [
        "ल",
        "ोक"
      ],
      [
        " उ",
        "र्फ"
      ],
      [
        " हिस्",
        "सा"
      ],
      [
        "िय",
        "ल"
      ],
      [
        " लगा",
        "ने"
      ],
      [
        " तैय",
        "ारी"
      ],
      [
        " ह",
        "ास"
      ],
      [
        "त",
        "ों"
      ],
      [
        "य",
        "ों"
      ],
      [
        "घ",
        "र"
      ],
      [
        "फ",
        "िर"
      ],
      [
        "झ",
        "ा"
      ],
      [
        " दा",
        "वा"
      ],
      [
        " कले",
        "क्टर"
      ],
      [
        " च",
        "ि"
      ],
      [
        " तला",
        "श"
      ],
      [
        " क",
        "ब्"
      ],
      [
        "ित",
        "्"
      ],
      [
        " जा",
        "कर"
      ],
      [
        " की",
        "मत"
      ],
      [
        " नी",
        "चे"
      ],
      [
        "न",
        "ियर"
      ],
      [
        "व",
        "्य"
      ],
      [
        "ु",
        "ओं"
      ],
      [
        " वि",
        "द्य"
      ],
      [
        "ला",
        "देश"
      ],
      [
        "ग",
        "ांव"
      ],
      [
        " बो",
        "ले"
      ],
      [
        " प्रत्या",
        "शी"
      ],
      [
        "चार",
        "्य"
      ],
      [
        " श्र",
        "द्ध"
      ],
      [
        "मु",
        "ख्य"
      ],
      [
        " दु",
        "र्"
      ],
      [
        "आरो",
        "पी"
      ],
      [
        " व",
        "ार्ड"
      ],
      [
        "हर",
        "ियाणा"
      ],
      [
        "-",
        "क"
      ],
      [
        " आय",
        "ोग"
      ],
      [
        "उन",
        "के"
      ],
      [
        "द",
        "ूस"
      ],
      [
        "ग",
        "ु"
      ],
      [
        " छात्र",
        "ों"
      ],
      [
        " नर",
        "ेंद्र"
      ],
      [
        "ड़",
        "ित"
      ],
      [
        " इस",
        "लिए"
      ],
      [
        " गुप",
        "्ता"
      ],
      [
        "ड",
        "्"
      ],
      [
        " फैस",
        "ला"
      ],
      [
        " ना",
        "गर"
      ],
      [
        "िन्",
        "ह"
      ],
      [
        " ब",
        "च"
      ],
      [
        " हास",
        "िल"
      ],
      [
        " स",
        "जा"
      ],
      [
        " फ",
        "ोट"
      ],
      [
        "ाम",
        "ा"
      ],
      [
        "आ",
        "प"
      ],
      [
        " आप",
        "को"
      ],
      [
        "ू",
        "ब"
      ],
      [
        "लो",
        "नी"
      ],
      [
        " छा",
        "त्रा"
      ],
      [
        "ष",
        "्य"
      ],
      [
        "ॉ",
        "र्म"
      ],
      [
        " मंड",
        "ल"
      ],
      [
        " घ",
        "ु"
      ],
      [
        " क",
        "्ल"
      ],
      [
        "ष्ट",
        "्र"
      ],
      [
        " ",
        "।\n"
      ],
      [
        "2",
        "9"
      ],
      [
        " ज",
        "िम्मे"
      ],
      [
        " व",
        "ायर"
      ],
      [
        " ख",
        "ास"
      ],
      [
        " वि",
        "देश"
      ],
      [
        "च",
        "न"
      ],
      [
        " ग",
        "ति"
      ],
      [
        " रह",
        "ते"
      ],
      [
        "स्ते",
        "माल"
      ],
      [
        " ज",
        "ता"
      ],
      [
        "रा",
        "ह"
      ],
      [
        " व",
        "क्त"
      ],
      [
        " इ",
        "स्तेमाल"
      ],
      [
        " पी",
        "एम"
      ],
      [
        "ाप",
        "न"
      ],
      [
        " अप्र",
        "ैल"
      ],
      [
        " क",
        "ेंद्रीय"
      ],
      [
        "क",
        "म"
      ],
      [
        "ी",
        "ल"
      ],
      [
        " र",
        "ंग"
      ],
      [
        " त",
        "री"
      ],
      [
        " कर्म",
        "चारियों"
      ],
      [
        " इस",
        "से"
      ],
      [
        " बल्",
        "कि"
      ],
      [
        " न्या",
        "य"
      ],
      [
        " च",
        "िक"
      ],
      [
        " ओ",
        "वर"
      ],
      [
        " ज",
        "़"
      ],
      [
        "e",
        "r"
      ],
      [
        "क",
        "िस"
      ],
      [
        " च",
        "रण"
      ],
      [
        " रहे",
        "गा"
      ],
      [
        " स्थ",
        "ाप"
      ],
      [
        " पा",
        "किस्तान"
      ],
      [
        " टे",
        "स्ट"
      ],
      [
        "ां",
        "ति"
      ],
      [
        "िय",
        "ोग"
      ],
      [
        "ल",
        "ू"
      ],
      [
        " प्र",
        "कार"
      ],
      [
        "ग्",
        "लादेश"
      ],
      [
        "ती",
        "श"
      ],
      [
        "ह",
        "ान"
      ],
      [
        " ख",
        "ो"
      ],
      [
        " वर्",
        "ग"
      ],
      [
        "ष",
        "ि"
      ],
      [
        "द",
        "म"
      ],
      [
        " भा",
        "व"
      ],
      [
        "कु",
        "छ"
      ],
      [
        " भ",
        "वन"
      ],
      [
        "िन",
        "ि"
      ],
      [
        "वाल",
        "ी"
      ],
      [
        "न",
        "ु"
      ],
      [
        " र",
        "िश्"
      ],
      [
        "त्",
        "ति"
      ],
      [
        " त",
        "त्"
      ],
      [
        " ड",
        "ाय"
      ],
      [
        "ार",
        "ोह"
      ],
      [
        "ची",
        "त"
      ],
      [
        "दर",
        "असल"
      ],
      [
        "ब",
        "्ल"
      ],
      [
        " ",
        "D"
      ],
      [
        "श्",
        "वास"
      ],
      [
        "3",
        "5"
      ],
      [
        "ी",
        "क"
      ],
      [
        " व्या",
        "प"
      ],
      [
        "त",
        "रा"
      ],
      [
        "्",
        "मी"
      ],
      [
        "क्",
        "ता"
      ],
      [
        " सम",
        "ारोह"
      ],
      [
        "ज",
        "पा"
      ],
      [
        " बु",
        "ला"
      ],
      [
        "ंग",
        "ी"
      ],
      [
        "द",
        "ों"
      ],
      [
        "ार",
        "खंड"
      ],
      [
        "ट",
        "ने"
      ],
      [
        "व",
        "ें"
      ],
      [
        "िश",
        "न"
      ],
      [
        "थ",
        "मिक"
      ],
      [
        " सु",
        "नी"
      ],
      [
        "ाय",
        "ण"
      ],
      [
        " ज्",
        "ञ"
      ],
      [
        " बन",
        "ने"
      ],
      [
        "ख",
        "ी"
      ],
      [
        " सं",
        "जय"
      ],
      [
        " पा",
        "ए"
      ],
      [
        "स",
        "ुर"
      ],
      [
        " ल",
        "ड़"
      ],
      [
        " गर्",
        "मी"
      ],
      [
        " र",
        "ण"
      ],
      [
        " सा",
        "इ"
      ],
      [
        " च",
        "ंद्र"
      ],
      [
        " सा",
        "फ"
      ],
      [
        " पर",
        "िसर"
      ],
      [
        "श्य",
        "क"
      ],
      [
        " म",
        "कान"
      ],
      [
        " ह",
        "थ"
      ],
      [
        " प",
        "ेट"
      ],
      [
        " ट",
        "क्कर"
      ],
      [
        "ग",
        "ार"
      ],
      [
        "बा",
        "जी"
      ],
      [
        " मान",
        "स"
      ],
      [
        " घोष",
        "णा"
      ],
      [
        " मै",
        "दान"
      ],
      [
        " ग",
        "ौ"
      ],
      [
        " कर",
        "ाई"
      ],
      [
        " हाल",
        "त"
      ],
      [
        " म",
        "ॉ"
      ],
      [
        " ख",
        "त्म"
      ],
      [
        " ग",
        "ाय"
      ],
      [
        " दिव",
        "स"
      ],
      [
        " महत्व",
        "पूर्ण"
      ],
      [
        "ब",
        "ै"
      ],
      [
        "ैन",
        "िक"
      ],
      [
        " चौ",
        "क"
      ],
      [
        " इ",
        "ंदौर"
      ],
      [
        " संगठ",
        "न"
      ],
      [
        "फ",
        "िक"
      ],
      [
        " क",
        "ला"
      ],
      [
        " बात",
        "चीत"
      ],
      [
        " ह",
        "में"
      ],
      [
        "न",
        "ौ"
      ],
      [
        " शु",
        "भ"
      ],
      [
        " ब",
        "ंग"
      ],
      [
        "वा",
        "ही"
      ],
      [
        " दु",
        "निया"
      ],
      [
        "खन",
        "ऊ"
      ],
      [
        " म",
        "श"
      ],
      [
        " चाल",
        "क"
      ],
      [
        "ड",
        "्ड"
      ],
      [
        " ग",
        "िरा"
      ],
      [
        " कार",
        "्ड"
      ],
      [
        " दो",
        "स्त"
      ],
      [
        "े",
        "य"
      ],
      [
        " आ",
        "श"
      ],
      [
        "ति",
        "म"
      ],
      [
        " ह",
        "ार"
      ],
      [
        "मह",
        "िला"
      ],
      [
        "त",
        "नी"
      ],
      [
        "ाइ",
        "म"
      ],
      [
        " म",
        "ाना"
      ],
      [
        "ंड",
        "ा"
      ],
      [
        " सी",
        "मा"
      ],
      [
        " रिक",
        "ॉर्ड"
      ],
      [
        " पू",
        "र्ण"
      ],
      [
        "म",
        "ता"
      ],
      [
        " न",
        "व"
      ],
      [
        " त",
        "ि"
      ],
      [
        " न्या",
        "या"
      ],
      [
        "ं",
        "सा"
      ],
      [
        "स",
        "भी"
      ],
      [
        " प्र",
        "काश"
      ],
      [
        "भा",
        "जपा"
      ],
      [
        " पै",
        "से"
      ],
      [
        " राजनी",
        "तिक"
      ],
      [
        " फ",
        "ायर"
      ],
      [
        "ेश",
        "्"
      ],
      [
        " एस",
        "पी"
      ],
      [
        " मिल",
        "कर"
      ],
      [
        " घोष",
        "ित"
      ],
      [
        "ल",
        "िया"
      ],
      [
        "द",
        "ाल"
      ],
      [
        "प",
        "िछले"
      ],
      [
        "इस",
        "लिए"
      ],
      [
        " सि",
        "र"
      ],
      [
        " न",
        "या"
      ],
      [
        " च",
        "ा"
      ],
      [
        "हा",
        "स"
      ],
      [
        "द्य",
        "ोग"
      ],
      [
        " गठ",
        "बंधन"
      ],
      [
        " स",
        "त"
      ],
      [
        " स",
        "ड़क"
      ],
      [
        "ख",
        "े"
      ],
      [
        " आव",
        "श्यक"
      ],
      [
        " भ",
        "ोपाल"
      ],
      [
        " कि",
        "स"
      ],
      [
        "मी",
        "टर"
      ],
      [
        " स्",
        "वी"
      ],
      [
        " ठ",
        "ीक"
      ],
      [
        " या",
        "नी"
      ],
      [
        "4",
        "5"
      ],
      [
        " ऊ",
        "पर"
      ],
      [
        "ब",
        "ु"
      ],
      [
        " व",
        "हीं"
      ],
      [
        "मे",
        "टी"
      ],
      [
        " म",
        "ूल"
      ],
      [
        " व",
        "ृ"
      ],
      [
        "्रे",
        "ट"
      ],
      [
        "जान",
        "कारी"
      ],
      [
        "a",
        "l"
      ],
      [
        " द",
        "िल"
      ],
      [
        " आ",
        "वा"
      ],
      [
        " त",
        "्र"
      ],
      [
        " फ",
        "ु"
      ],
      [
        " उपलब्",
        "ध"
      ],
      [
        " उप",
        "स्थित"
      ],
      [
        " ऐ",
        "सी"
      ],
      [
        "वि",
        "धान"
      ],
      [
        " ट्र",
        "ांस"
      ],
      [
        " ड्र",
        "ाइ"
      ],
      [
        "प",
        "न"
      ],
      [
        " मु",
        "काब"
      ],
      [
        " खु",
        "ला"
      ],
      [
        "श",
        "्री"
      ],
      [
        "ष",
        "ेक"
      ],
      [
        "वि",
        "ंद"
      ],
      [
        " वि",
        "चार"
      ],
      [
        " प",
        "श्च"
      ],
      [
        " सें",
        "टर"
      ],
      [
        " जर",
        "िए"
      ],
      [
        " नागर",
        "िक"
      ],
      [
        "ूड",
        "ेंट"
      ],
      [
        "3",
        "1"
      ],
      [
        "न",
        "िक"
      ],
      [
        "र",
        "ों"
      ],
      [
        " भ",
        "ु"
      ],
      [
        " पा",
        "या"
      ],
      [
        " प्रा",
        "थमिक"
      ],
      [
        "6",
        "0"
      ],
      [
        " क",
        "मी"
      ],
      [
        " घ",
        "ा"
      ],
      [
        "ठ",
        "क"
      ],
      [
        " लगा",
        "ई"
      ],
      [
        " ता",
        "कि"
      ],
      [
        " मु",
        "क"
      ],
      [
        " सद",
        "र"
      ],
      [
        " खरी",
        "द"
      ],
      [
        "ड",
        "ल"
      ],
      [
        " द",
        "ू"
      ],
      [
        "ित",
        "्य"
      ],
      [
        " मी",
        "टर"
      ],
      [
        "त",
        "ियों"
      ],
      [
        " श",
        "ी"
      ],
      [
        " अ",
        "श"
      ],
      [
        "चान",
        "क"
      ],
      [
        " जन्",
        "म"
      ],
      [
        " अग",
        "ले"
      ],
      [
        " आ",
        "ख"
      ],
      [
        " वर्ष",
        "ीय"
      ],
      [
        " उ",
        "द"
      ],
      [
        "द्ध",
        "ि"
      ],
      [
        " ख",
        "राब"
      ],
      [
        " नि",
        "जी"
      ],
      [
        "मी",
        "र"
      ],
      [
        "त",
        "ु"
      ],
      [
        "र",
        "ल"
      ],
      [
        "ो",
        "त्"
      ],
      [
        "स्",
        "कार"
      ],
      [
        "रा",
        "य"
      ],
      [
        " ध",
        "ारा"
      ],
      [
        "ुल",
        "्"
      ],
      [
        " राज",
        "्यों"
      ],
      [
        " प",
        "ांड"
      ],
      [
        " ब",
        "ोल"
      ],
      [
        "सी",
        "टी"
      ],
      [
        " तस्",
        "वीर"
      ],
      [
        " र",
        "ै"
      ],
      [
        "ं",
        "ता"
      ],
      [
        " प",
        "ल"
      ],
      [
        "स्",
        "कर"
      ],
      [
        " सि",
        "टी"
      ],
      [
        " चाह",
        "ते"
      ],
      [
        "व",
        "ाना"
      ],
      [
        " अं",
        "क"
      ],
      [
        " क",
        "हीं"
      ],
      [
        " मो",
        "ह"
      ],
      [
        " समर्थ",
        "न"
      ],
      [
        "क",
        "र्म"
      ],
      [
        " दर्",
        "शन"
      ],
      [
        " आ",
        "न"
      ],
      [
        " ए",
        "ल"
      ],
      [
        " वि",
        "द्यालय"
      ],
      [
        " सम",
        "ु"
      ],
      [
        "ब",
        "ोध"
      ],
      [
        "व",
        "जूद"
      ],
      [
        " प्र",
        "स्त"
      ],
      [
        " क्षेत्र",
        "ों"
      ],
      [
        " दे",
        "ना"
      ],
      [
        " धम",
        "की"
      ],
      [
        " प",
        "ड़ा"
      ],
      [
        " सम",
        "ा"
      ],
      [
        "च",
        "िका"
      ],
      [
        " मो",
        "हन"
      ],
      [
        " कॉ",
        "न्"
      ],
      [
        " फोट",
        "ो"
      ],
      [
        "च",
        "ल"
      ],
      [
        "ै",
        "या"
      ],
      [
        " द",
        "िला"
      ],
      [
        " ला",
        "गू"
      ],
      [
        "इन",
        "में"
      ],
      [
        " सदस",
        "्यों"
      ],
      [
        " मु",
        "ला"
      ],
      [
        " मु",
        "ंबई"
      ],
      [
        " अम",
        "ित"
      ],
      [
        "7",
        "0"
      ],
      [
        " वायर",
        "ल"
      ],
      [
        " प्र",
        "स्ता"
      ],
      [
        " प्र",
        "वेश"
      ],
      [
        " आ",
        "ते"
      ],
      [
        " त",
        "ु"
      ],
      [
        " अग्र",
        "वाल"
      ],
      [
        " फ",
        "े"
      ],
      [
        " प",
        "ौ"
      ],
      [
        "ि",
        "ब"
      ],
      [
        " बा",
        "बा"
      ],
      [
        "पू",
        "र्व"
      ],
      [
        "ॉ",
        "ट"
      ],
      [
        " स",
        "ही"
      ],
      [
        " ख",
        "ेत"
      ],
      [
        "ेंड",
        "र"
      ],
      [
        " अं",
        "तिम"
      ],
      [
        "ू",
        "ह"
      ],
      [
        "रा",
        "व"
      ],
      [
        "र्",
        "न"
      ],
      [
        "स्ट",
        "म"
      ],
      [
        " चु",
        "ना"
      ],
      [
        " आप",
        "के"
      ],
      [
        "ज",
        "िला"
      ],
      [
        " न",
        "ुक"
      ],
      [
        "व",
        "ट"
      ],
      [
        " इं",
        "त"
      ],
      [
        " तै",
        "नात"
      ],
      [
        " मैं",
        "ने"
      ],
      [
        " क",
        "मेटी"
      ],
      [
        " ऑ",
        "न"
      ],
      [
        "उ",
        "ट"
      ],
      [
        " कॉ",
        "लोनी"
      ],
      [
        " क",
        "ही"
      ],
      [
        "ुर",
        "ी"
      ],
      [
        " उम",
        "्र"
      ],
      [
        "पह",
        "ले"
      ],
      [
        " यू",
        "पी"
      ],
      [
        "म",
        "ति"
      ],
      [
        "\"",
        "\n"
      ],
      [
        "सि",
        "ंह"
      ],
      [
        " सुन",
        "वाई"
      ],
      [
        " से",
        "ना"
      ],
      [
        " त",
        "ह"
      ],
      [
        " बना",
        "कर"
      ],
      [
        " सु",
        "ना"
      ],
      [
        "बता",
        "या"
      ],
      [
        " बदला",
        "व"
      ],
      [
        "्या",
        "ण"
      ],
      [
        " राष्ट्र",
        "पति"
      ],
      [
        "िक",
        "्"
      ],
      [
        "ार्",
        "ज"
      ],
      [
        " उ",
        "च्च"
      ],
      [
        " उ",
        "ठ"
      ],
      [
        "न्",
        "ना"
      ],
      [
        " कान",
        "ून"
      ],
      [
        "क",
        "िल"
      ],
      [
        "ख",
        "्त"
      ],
      [
        "स",
        "ों"
      ],
      [
        " ट",
        "ै"
      ],
      [
        " सं",
        "क"
      ],
      [
        "उस",
        "ने"
      ],
      [
        " स",
        "भा"
      ],
      [
        " परि",
        "षद"
      ],
      [
        " क्र",
        "िकेट"
      ],
      [
        " ग",
        "ेट"
      ],
      [
        " इस",
        "में"
      ],
      [
        "प्",
        "शन"
      ],
      [
        " दिख",
        "ाई"
      ],
      [
        "िक",
        "ी"
      ],
      [
        "दाल",
        "त"
      ],
      [
        " रह",
        "ता"
      ],
      [
        " वर्",
        "मा"
      ],
      [
        " नि",
        "वेश"
      ],
      [
        "ियोग",
        "िता"
      ],
      [
        " व",
        "रि"
      ],
      [
        " ख",
        "़"
      ],
      [
        " प",
        "टेल"
      ],
      [
        "प",
        "ण"
      ],
      [
        "ु",
        "ण"
      ],
      [
        " ए",
        "ंड"
      ],
      [
        " रख",
        "ी"
      ],
      [
        "ध",
        "्या"
      ],
      [
        " प",
        "ड़"
      ],
      [
        "त",
        "ंत्र"
      ],
      [
        "ि",
        "द"
      ],
      [
        " म",
        "ं"
      ],
      [
        " ऑफ",
        "िस"
      ],
      [
        "सी",
        "ल"
      ],
      [
        " प्रभाव",
        "ित"
      ],
      [
        "चु",
        "नाव"
      ],
      [
        "ड",
        "ॉ"
      ],
      [
        "प",
        "ं"
      ],
      [
        "दा",
        "त"
      ],
      [
        " शिक्ष",
        "क"
      ],
      [
        " ग",
        "ेंद"
      ],
      [
        " गा",
        "ड़ी"
      ],
      [
        "ान",
        "ों"
      ],
      [
        "ष्ट",
        "्रीय"
      ],
      [
        " करे",
        "गी"
      ],
      [
        "य",
        "ोध"
      ],
      [
        "ति",
        "हास"
      ],
      [
        " अमेर",
        "िका"
      ],
      [
        "ने",
        "ट"
      ],
      [
        " बना",
        "ई"
      ],
      [
        " निर्",
        "ण"
      ],
      [
        " नुक",
        "सान"
      ],
      [
        " स्",
        "टे"
      ],
      [
        " पदा",
        "धिकारी"
      ],
      [
        "क",
        "ई"
      ],
      [
        "त",
        "ल"
      ],
      [
        "ि",
        "ड"
      ],
      [
        " पह",
        "ला"
      ],
      [
        " उप",
        "योग"
      ],
      [
        "स्प",
        "िटल"
      ],
      [
        " ब",
        "ू"
      ],
      [
        " न",
        "्यू"
      ],
      [
        " जर",
        "ूरी"
      ],
      [
        " बेह",
        "तर"
      ],
      [
        " जिस",
        "े"
      ],
      [
        " हथ",
        "ियार"
      ],
      [
        " अ",
        "सर"
      ],
      [
        " च",
        "ोर"
      ],
      [
        " कि",
        "न"
      ],
      [
        "ारा",
        "ष्ट्र"
      ],
      [
        " स्ट",
        "ूडेंट"
      ],
      [
        " ग्रामीण",
        "ों"
      ],
      [
        "ग",
        "ो"
      ],
      [
        "क्ष",
        "ि"
      ],
      [
        " राजनी",
        "ति"
      ],
      [
        "ूर्",
        "ति"
      ],
      [
        "द",
        "ू"
      ],
      [
        " प",
        "ढ़"
      ],
      [
        " मृत",
        "क"
      ],
      [
        " तरी",
        "के"
      ],
      [
        " प्र",
        "ेम"
      ],
      [
        "इस",
        "े"
      ],
      [
        " लग",
        "ने"
      ],
      [
        " हा",
        "दसे"
      ],
      [
        "स",
        "ब"
      ],
      [
        " सामान",
        "्य"
      ],
      [
        " प",
        "ुल"
      ],
      [
        " बह",
        "न"
      ],
      [
        " विश्व",
        "विद्यालय"
      ],
      [
        "योध",
        "्या"
      ],
      [
        "स",
        "द"
      ],
      [
        " त",
        "ुर"
      ],
      [
        " ट्र",
        "क"
      ],
      [
        "o",
        "r"
      ],
      [
        "क",
        "ुल"
      ],
      [
        "त",
        "ने"
      ],
      [
        "ने",
        "श"
      ],
      [
        " र",
        "ी"
      ],
      [
        " पर",
        "िव"
      ],
      [
        " ती",
        "नों"
      ],
      [
        " जरूर",
        "त"
      ],
      [
        "सीटी",
        "वी"
      ],
      [
        "र्",
        "गत"
      ],
      [
        " बा",
        "वजूद"
      ],
      [
        " रा",
        "हत"
      ],
      [
        " भूम",
        "िका"
      ],
      [
        "डी",
        "एम"
      ],
      [
        " गल",
        "त"
      ],
      [
        "-",
        "ब"
      ],
      [
        "ड़",
        "ों"
      ],
      [
        " फ",
        "़"
      ],
      [
        " ल",
        "ूट"
      ],
      [
        " मिश",
        "्रा"
      ],
      [
        "ै",
        "र"
      ],
      [
        " प्र",
        "ता"
      ],
      [
        "श",
        "हर"
      ],
      [
        "िन",
        "ी"
      ],
      [
        "ट",
        "िंग"
      ],
      [
        "ल्",
        "ल"
      ],
      [
        "s",
        "h"
      ],
      [
        " र",
        "िली"
      ],
      [
        " ए",
        "फ"
      ],
      [
        "मृत",
        "क"
      ],
      [
        " वरि",
        "ष्ठ"
      ],
      [
        " ध",
        "र"
      ],
      [
        " फ",
        "्र"
      ],
      [
        "ॉ",
        "र्ट"
      ],
      [
        " न",
        "म"
      ],
      [
        "क्",
        "या"
      ],
      [
        "प",
        "ंच"
      ],
      [
        " ब",
        "ड़ी"
      ],
      [
        " लगा",
        "कर"
      ],
      [
        " स्थ",
        "ल"
      ],
      [
        " तत्",
        "काल"
      ],
      [
        " प्र",
        "दान"
      ],
      [
        "का",
        "त"
      ],
      [
        " कार",
        "ो"
      ],
      [
        " मजब",
        "ूत"
      ],
      [
        " अ",
        "चानक"
      ],
      [
        "जे",
        "क्ट"
      ],
      [
        " ",
        ","
      ],
      [
        "ै",
        "से"
      ],
      [
        " म",
        "जद"
      ],
      [
        " कॉ",
        "ल"
      ],
      [
        "ध",
        "ु"
      ],
      [
        " मे",
        "री"
      ],
      [
        " तुर",
        "ंत"
      ],
      [
        " स्वा",
        "गत"
      ],
      [
        " गिर",
        "फ्त"
      ],
      [
        " ब",
        "िल्"
      ],
      [
        " हो",
        "टल"
      ],
      [
        " कै",
        "म"
      ],
      [
        " र",
        "िज"
      ],
      [
        "कु",
        "मार"
      ],
      [
        " ",
        "E"
      ],
      [
        "ख",
        "र"
      ],
      [
        "ाल",
        "े"
      ],
      [
        " वि",
        "ष"
      ],
      [
        " सं",
        "स्थान"
      ],
      [
        " ते",
        "जी"
      ],
      [
        " च",
        "ंद"
      ],
      [
        " ले",
        "ते"
      ],
      [
        "पर",
        "ि"
      ],
      [
        " कृ",
        "ष्ण"
      ],
      [
        "ार्थ",
        "ियों"
      ],
      [
        "र्ड",
        "र"
      ],
      [
        " फा",
        "इन"
      ],
      [
        " को",
        "च"
      ],
      [
        " लग",
        "ता"
      ],
      [
        "र्थ",
        "िक"
      ],
      [
        " सफ",
        "ाई"
      ],
      [
        " हॉ",
        "स्पिटल"
      ],
      [
        "ं",
        "की"
      ],
      [
        " म",
        "नी"
      ],
      [
        " उ",
        "पा"
      ],
      [
        " बां",
        "ग्लादेश"
      ],
      [
        " ",
        "K"
      ],
      [
        "ल्",
        "ट"
      ],
      [
        " मिले",
        "गा"
      ],
      [
        " निरी",
        "क्षण"
      ],
      [
        "व",
        "हां"
      ],
      [
        " ग्र",
        "ुप"
      ],
      [
        " सीट",
        "ें"
      ],
      [
        "हम",
        "्म"
      ],
      [
        "उ",
        "ंट"
      ],
      [
        " सा",
        "त"
      ],
      [
        "त",
        "ो"
      ],
      [
        "बाल",
        "िग"
      ],
      [
        " रिली",
        "ज"
      ],
      [
        " ज",
        "ित"
      ],
      [
        " फीस",
        "दी"
      ],
      [
        "्य",
        "ून"
      ],
      [
        " लॉ",
        "न्"
      ],
      [
        " जो",
        "र"
      ],
      [
        " कार्यकर्",
        "ताओं"
      ],
      [
        "फ",
        "्र"
      ],
      [
        " अ",
        "स"
      ],
      [
        " बे",
        "च"
      ],
      [
        "राज",
        "्य"
      ],
      [
        " रहे",
        "गी"
      ],
      [
        " तो",
        "ड़"
      ],
      [
        " या",
        "चिका"
      ],
      [
        " प्र",
        "चार"
      ],
      [
        "ित",
        "्र"
      ],
      [
        "डी",
        "ए"
      ],
      [
        " वाह",
        "नों"
      ],
      [
        "ता",
        "ह"
      ],
      [
        " द",
        "बा"
      ],
      [
        " च",
        "ीन"
      ],
      [
        " च",
        "ोट"
      ],
      [
        " ल",
        "ंब"
      ],
      [
        " अश",
        "ोक"
      ],
      [
        "ड",
        "िंग"
      ],
      [
        " अपरा",
        "ध"
      ],
      [
        " भ",
        "ू"
      ],
      [
        " वि",
        "पक्ष"
      ],
      [
        " ज",
        "िन्ह"
      ],
      [
        " छ",
        "ु"
      ],
      [
        " मह",
        "ार"
      ],
      [
        " उन",
        "से"
      ],
      [
        "ह",
        "रे"
      ],
      [
        "इस",
        "का"
      ],
      [
        " ता",
        "ला"
      ],
      [
        " अफ",
        "सर"
      ],
      [
        " ज",
        "ाम"
      ],
      [
        "ड़",
        "ियों"
      ],
      [
        "प",
        "े"
      ],
      [
        " जा",
        "गर"
      ],
      [
        " करे",
        "गा"
      ],
      [
        " ह",
        "ल्"
      ],
      [
        " जब",
        "्त"
      ],
      [
        " कल",
        "्याण"
      ],
      [
        "र",
        "ान"
      ],
      [
        "त्तीस",
        "गढ़"
      ],
      [
        "-",
        "स"
      ],
      [
        " ग",
        "ुर"
      ],
      [
        "वि",
        "ष्य"
      ],
      [
        "ज्ञ",
        "ात"
      ],
      [
        " नौ",
        "करी"
      ],
      [
        " जम",
        "कर"
      ],
      [
        "8",
        "0"
      ],
      [
        " श",
        "ांति"
      ],
      [
        "बी",
        "र"
      ],
      [
        " माल",
        "िक"
      ],
      [
        "उ",
        "न्हें"
      ],
      [
        " ला",
        "इ"
      ],
      [
        " हिंद",
        "ू"
      ],
      [
        " उस",
        "से"
      ],
      [
        " प",
        "ि"
      ],
      [
        " सं",
        "भ"
      ],
      [
        " ल",
        "ु"
      ],
      [
        " अ",
        "जय"
      ],
      [
        " कप",
        "ूर"
      ],
      [
        " एक्सप",
        "्रेस"
      ],
      [
        "हम्म",
        "द"
      ],
      [
        " क",
        "दम"
      ],
      [
        " ट",
        "ा"
      ],
      [
        " ",
        "ऋ"
      ],
      [
        " ग",
        "ी"
      ],
      [
        " हम",
        "ारी"
      ],
      [
        " निर्ण",
        "य"
      ],
      [
        "व",
        "िल"
      ],
      [
        "रा",
        "सत"
      ],
      [
        " रह",
        "ती"
      ],
      [
        "वर",
        "ण"
      ],
      [
        " साम",
        "ना"
      ],
      [
        " झ",
        "ारखंड"
      ],
      [
        "रिक",
        "्त"
      ],
      [
        "ग",
        "ुरु"
      ],
      [
        " ह",
        "वा"
      ],
      [
        "त्र",
        "ियों"
      ],
      [
        " मुला",
        "कात"
      ],
      [
        " अंत",
        "र्गत"
      ],
      [
        "व",
        "ती"
      ],
      [
        " जु",
        "ड़े"
      ],
      [
        " प्रत",
        "ियोगिता"
      ],
      [
        " ग",
        "ृह"
      ],
      [
        "की",
        "य"
      ],
      [
        "ृ",
        "ति"
      ],
      [
        " म",
        "ू"
      ],
      [
        " रा",
        "स्ते"
      ],
      [
        "प",
        "थ"
      ],
      [
        "िव",
        "र्स"
      ],
      [
        "ब",
        "्र"
      ],
      [
        " नार",
        "ाज"
      ],
      [
        " नोट",
        "िस"
      ],
      [
        "ग",
        "ण"
      ],
      [
        " प्रत",
        "िनि"
      ],
      [
        " सं",
        "बोध"
      ],
      [
        " ज",
        "वान"
      ],
      [
        "्य",
        "ु"
      ],
      [
        " बज",
        "ट"
      ],
      [
        "ेश्",
        "वर"
      ],
      [
        " फर",
        "वरी"
      ],
      [
        ")",
        "\n"
      ],
      [
        " करवा",
        "या"
      ],
      [
        " ड्राइ",
        "वर"
      ],
      [
        "ले",
        "क्ट"
      ],
      [
        "र्",
        "श"
      ],
      [
        "जिस",
        "से"
      ],
      [
        " छो",
        "टे"
      ],
      [
        " व्य",
        "क्त"
      ],
      [
        "ांक",
        "न"
      ],
      [
        " फ",
        "्ल"
      ],
      [
        " अप",
        "ील"
      ],
      [
        " लौ",
        "ट"
      ],
      [
        "मुख्य",
        "मंत्री"
      ],
      [
        " श",
        "री"
      ],
      [
        " ड",
        "ा"
      ],
      [
        "ल्",
        "ले"
      ],
      [
        " इला",
        "कों"
      ],
      [
        "त्म",
        "क"
      ],
      [
        "्त",
        "ान"
      ],
      [
        "्या",
        "म"
      ],
      [
        " परि",
        "जन"
      ],
      [
        "ोल",
        "न"
      ],
      [
        "..",
        "."
      ],
      [
        "त",
        "मान"
      ],
      [
        " कि",
        "श"
      ],
      [
        " हम",
        "ले"
      ],
      [
        " अं",
        "जाम"
      ],
      [
        "लोग",
        "ों"
      ],
      [
        "त",
        "ब"
      ],
      [
        " भ",
        "क्त"
      ],
      [
        " देश",
        "ों"
      ],
      [
        "न",
        "ियों"
      ],
      [
        " अ",
        "दालत"
      ],
      [
        " मिल",
        "ते"
      ],
      [
        "ग्र",
        "ाम"
      ],
      [
        " द",
        "ेंगे"
      ],
      [
        "थ",
        "म"
      ],
      [
        "व",
        "क"
      ],
      [
        " त",
        "ारी"
      ],
      [
        " ख",
        "ुल"
      ],
      [
        "आरो",
        "प"
      ],
      [
        "ं",
        "टी"
      ],
      [
        "ेश",
        "ल"
      ],
      [
        " आन",
        "ंद"
      ],
      [
        "द",
        "िन"
      ],
      [
        "ाइ",
        "वे"
      ],
      [
        " साह",
        "ू"
      ],
      [
        " सु",
        "प्री"
      ],
      [
        " ठ",
        "ाक"
      ],
      [
        "त",
        "वाली"
      ],
      [
        "स",
        "वाल"
      ],
      [
        " बैठ",
        "े"
      ],
      [
        " पक",
        "ड़"
      ],
      [
        "ें",
        "ज"
      ],
      [
        " आ",
        "त्म"
      ],
      [
        " फ",
        "ाय"
      ],
      [
        "ेश",
        "ा"
      ],
      [
        " माम",
        "लों"
      ],
      [
        "ाइ",
        "ल"
      ],
      [
        " किलो",
        "मीटर"
      ],
      [
        " संय",
        "ुक्त"
      ],
      [
        "स्ल",
        "िम"
      ],
      [
        "फ",
        "ल"
      ],
      [
        " म",
        "ंच"
      ],
      [
        " प",
        "र्व"
      ],
      [
        " पार्",
        "ट"
      ],
      [
        "िक",
        "्स"
      ],
      [
        "्रे",
        "न"
      ],
      [
        "व",
        "ारी"
      ],
      [
        "ु",
        "ड"
      ],
      [
        " ",
        "F"
      ],
      [
        "वा",
        "दी"
      ],
      [
        " क",
        "ौन"
      ],
      [
        " राज",
        "ेश"
      ],
      [
        " हा",
        "उस"
      ],
      [
        " ठाक",
        "ुर"
      ],
      [
        " प",
        "ंड"
      ],
      [
        "ैं",
        "स"
      ],
      [
        " तह",
        "सील"
      ],
      [
        " भ",
        "विष्य"
      ],
      [
        " सि",
        "स्टम"
      ],
      [
        " ध",
        "ो"
      ],
      [
        " जै",
        "सी"
      ],
      [
        " बंग",
        "ाल"
      ],
      [
        " प",
        "टना"
      ],
      [
        "ां",
        "सी"
      ],
      [
        " सं",
        "स्था"
      ],
      [
        " कार्यकर्",
        "ता"
      ],
      [
        "िश्",
        "चित"
      ],
      [
        " मुक",
        "द"
      ],
      [
        " बे",
        "टा"
      ],
      [
        " निर्",
        "वा"
      ],
      [
        " सं",
        "र"
      ],
      [
        "t",
        "i"
      ],
      [
        " चु",
        "नौ"
      ],
      [
        "ष्ट",
        "ि"
      ],
      [
        " श्रद्ध",
        "ाल"
      ],
      [
        "50",
        "0"
      ],
      [
        " गिरफ्त",
        "ारी"
      ],
      [
        "प",
        "ो"
      ],
      [
        " ठ",
        "े"
      ],
      [
        " प्रस्ता",
        "व"
      ],
      [
        " आ",
        "र्थिक"
      ],
      [
        " ख",
        "र्च"
      ],
      [
        " मु",
        "श्"
      ],
      [
        "ाज",
        "िक"
      ],
      [
        " गै",
        "ंग"
      ],
      [
        "्र",
        "ाम"
      ],
      [
        " आ",
        "ं"
      ],
      [
        "स्",
        "त्र"
      ],
      [
        " स्",
        "टा"
      ],
      [
        "र",
        "ज"
      ],
      [
        " म",
        "र"
      ],
      [
        "देश",
        "क"
      ],
      [
        " स",
        "त्र"
      ],
      [
        " सु",
        "धार"
      ],
      [
        " सी",
        "सीटीवी"
      ],
      [
        "ं",
        "घ"
      ],
      [
        " सु",
        "ख"
      ],
      [
        " संचाल",
        "न"
      ],
      [
        "जरी",
        "वाल"
      ],
      [
        " बता",
        "ते"
      ],
      [
        "दार",
        "ों"
      ],
      [
        "ॉ",
        "य"
      ],
      [
        " द",
        "क्षि"
      ],
      [
        " आ",
        "ंद"
      ],
      [
        "इस",
        "की"
      ],
      [
        " आय",
        "ु"
      ],
      [
        " प्रश",
        "िक्ष"
      ],
      [
        " सी",
        "रीज"
      ],
      [
        " बां",
        "ध"
      ],
      [
        " अ",
        "ली"
      ],
      [
        " आ",
        "वास"
      ],
      [
        " उत्",
        "पा"
      ],
      [
        " ऑन",
        "लाइन"
      ],
      [
        " देख",
        "कर"
      ],
      [
        " परेश",
        "ानी"
      ],
      [
        " अभि",
        "षेक"
      ],
      [
        "रा",
        "ष्ट्रीय"
      ],
      [
        "स्ट",
        "्री"
      ],
      [
[...]
