#version: 0.2
ന ്
ക ്
ത ്
ന് ന
ക് ക
  പ
ത ി
. 

ണ ്
ല ്
  ക
ട ്
ു ം
  സ
  വ
യ ി
ര ്
  ന
പ ്
  മ
ച ്
ു ന്ന
ര ി
  അ
മ ാ
ത് തി
ങ ്
് ര
സ ്
ള ്
ട് ട
് യ
റ ്
ത് ത
പ് പ
ച് ച
ി യ
  എ
ാ ണ്
  ത
ങ് ങ
ട െ
ി ല്
ു ക
ി ല
ി ക്ക
  ആ
  ച
ര ു
  ഇ
 പ ്ര
റ് റ
ര ാ
ഞ ്
ാ ന
ുന്ന ു
ക് ക്
 വ ി
ട ു
ന് ന്
ള് ള
ാ യി
റ െ
ി ച്ച
  ബ
വ ി
െ യ
  ഉ
  ജ
 ന ി
മ ്
 സ ്
ണ് ട
ക് ഷ
ി ക
ഞ് ഞ
യ ു
െ ന്ന
ന് റെ
ക്ക ാ
റ ി
ര ുന്നു
സ ി
ല് ല
ദ ്
  ര
ു ള്ള
ങ്ങ ള
ദ േ
  ശ
ില് ല
  ഒ
ണ് ട്
ാ യ
ട ി
ന് ത്
ാ ര്
പ്പ െ
  ല
 ക ോ
രി ക്ക
മാ യി
ുന്ന ത്
 സ ം
 എ ന്ന
 പ റ
യ ും
ന ി
 മ ു
ര ം
വ ാ
 ന ട
 മ ാ
പ ി
യ ാ
 ച െയ
യി ല
ാ ല
ണ ം
യി ല്
ങ് ക
 പ ി
ര െ
 ക ു
ു ടെ
 ന േ
ത് ത്
യ ം
 പ ോ
ു മ
ന െ
  രാ
െ ന്ന്
ാ ന്
േ ഷ
 ക േ
  ഗ
ച് ച്
ദേ ശ
ത ു
ോ ഗ
സ് ഥ
ത ാ
ത് ര
ട്ട ി
ങ്ങ ള്
  ഭ
മ് പ
ത്തി ല്
ി വ
ന് ദ
ാ ര
െന്ന ും
മ് മ
  ദ
ത്ത െ
ഡ ി
െ ടു
റ് റ്
ത്തി ല
യ ാണ്
വ ര്
ഡ ്
ം ഗ
 ക ൊ
പ്പ ോ
ന ം
ി ൽ
 സ ാ
വ ും
ഷ ്
മാ ണ്
ുക ള
 പ ു
ട് ട്
ട്ട ു
  തി
ായി രുന്നു
്യ ാ
 പറ ഞ്ഞ
യ ്
ഗ ്ര
രി ച്ച
 പ േ
 ഒ രു
 സ ി
മാ യ
ഴ ി
മ ു
ന്ത് രി
‍ ക്ക
 സ് വ
ാ ല്
ന് ത
 ക ൂ
 പ്ര തി
ീ ക
 സ് ഥ
ക്ക ി
ധ ി
  ഫ
യു ടെ
ദ ്യ
  ഹ
 ത ു
ശ ്
ക ു
 ബ ി
സ്ഥ ാന
യി ൽ
ാ ം
മ ി
  ഏ
 ചെയ ്
ന ാ
ല ി
 അ വ
ങ്ങ ൾ
സ ം
വ ്
 വ ാ
ന്ദ ്ര
 ക ാ
ത്തി യ
ില െ
ന ു
പ് ര
ക ള
 പ രി
ധ ്യ
‍ ക്ക്
ഴ ്
 വ ീ
ില ും
ക് ത
പ് പ്
ക് ര
േ ക്ക്
  റ
 ത ന്ന
ത്തി ന്
ിച്ച ു
ത്തി ൽ
  ഓ
ാ ഗ
ണ ി
ിക ള
ര ണ
ര ുന്ന
‍ ക
ല ീ
 പറഞ്ഞ ു
റ്റ ി
ദേ ഹ
ാ വ
  ഡ
  ഈ
േ ണ്ട
ര ോ
ന്ന ും
ുക ള്
ദ് ധ
 തു ട
 വ ്യ
 സ ു
ൂ ര്
ട ിയ
ഫ ്
 സ മ
ജ ി
ണ് ടെ
 ചെയ ്യ
ിച്ച ി
 വ െ
ോ ടെ
ദ് ദേഹ
എ ന്ന
മ ന്ത്രി
മാ ന
ത്തി ന്റെ
ജ െ
  (
പ ാ
 ന ല്
ിക്ക ുന്ന
അ ത
 രാ ജ
ര ീ
ര ള
2 0
ര ും
ാ ൻ
ട്ടു ണ്ട്
ര ഞ്ഞ
ാര് യ
ടു ത്ത
 പറ യ
‍ ത്ത
യില െ
ന് ധ
രു ടെ
വ ർ
ശ ്യ
െ ങ്ക
രഞ്ഞ െടു
 ന ിയ
 തന്ന െ
  യു
ള ി
  യ
 പ ാ
റ ിയ
ഴി ഞ്ഞ
ഖ ്യ
 ക െ
ക ാ
‍ ഗ്ര
ണ മ
ു വ
ക്ക ും
ഞ് ച
 ത ീ
ന്ത് യ
ക്ക ുന്ന
 ജ ില്ല
 അ ദ്ദേഹ
 നി ന്ന്
‍ ,
തി ന്
ത് യ
സ മ
പ ു
ജ ്
ോ ട്
െന്ന ാണ്
ിയ ുടെ
ബ ി
 ര ൂ
 ല ഭ
ു മായി
ോ ട്ട
ാ ക
 നേ താ
  റി
ത് സ
 സ ര്
വ ന
 എ ം
ുക യാണ്
 ന ില
 ശ ്ര
ണ് ണ
തി ന
 സം സ്ഥാന
ു പ
ാ മ
റി യി
തി യ
ദ ി
‍ ക്കാ
 പ ൊ
വ ശ്യ
പ്പെ ട്ട
 ഉ ണ്ട
 കോ ണ്
 പു റ
ത െ
ല്ല ാ
ര് യ
ത് ഥ
 സ െ
ക ോ
ധ ാന
സ് റ്റ
േ ഖ
 രൂ പ
ാ ക്ക
 ജ ോ
ല ിയ
ച്ച ി
ുക യും
അത േ
ിച്ച ത്
വ േ
 ആ വശ്യ
ന്ന ി
ുക ൾ
ത് രി
തി രെ
ബ ്
സമ യം
 സ ീ
ഭ വ
പ ക്ഷ
 വ്യ ക്ത
 ബി ജെ
 നിയ മ
 ബ ാ
 കേ ന്ദ്ര
ര േ
വി ഡ്
മ േ
 ദ ിവ
‍ ഷ
 സ്വ ദേശ
ക ള്
അതേ സമയം
സ ഭ
  ഷ
 കു റ
ത ൃ
ന ും
്യാ പ
ത് വ
ിക ള്
 തി രഞ്ഞെടു
 വ േ
 ത െ
പ്പെ ട
പ്പ ിക്ക
  ട
 ഇ ന്ത്യ
യ െ
ക്ക ു
 നി ര്
 വി ജ
 പേ ര്
 മ ുന്ന
ലീ സ്
െയ ാണ്
ത ാണ്
ള ം
 അദ്ദേഹ ം
 ജ ന
  ക്
 സം ഘ
 ഇ ട
ഗ ്
 ആ ശ
ത്ത ു
ുക യ
എന്ന ാല്
ധ ിക
െയ ും
യി രുന്നു
 കേ രള
 മ ൂ
പ്പ ി
ന് റ
  ഞ
 മ ോ
ാ ൽ
എ സ്
ഖ്യ മന്ത്രി
 എ ന്ന്
സ ാ
രിക്ക ുന്നത്
ൊ രു
 അ റിയി
ഷ് ട്
ച്ച ു
ത ീ
ന് റ്
 സ ർ
യ് ക്ക്
0 0
 മ ന്ത്രി
 ര ോഗ
 അ ഭ
ക്ക െ
 ക ാര്യ
 എന്ന ിവ
 റി പ്പോ
ൂ ർ
 ന ാ
ഹ ി
  ഡി
ല െ
ത ോടെ
 ഉ പ
ീക രിച്ച
ട തി
 വ ൈ
 ച ോ
 ല ക്ഷ
 വ ര്
 ശ േഷ
ന്ന ു
 വ്യക്ത മാ
 സ്ഥ ാന
 ക ി
 രാജ ്യ
ര ണം
ിക്ക ാ
 നട ത്ത
 വ ലിയ
ൽ ക
‍ .

ല ും
ംഗ ്
ോ ധ
ത ല്
 ന ീ
 അ നു
മ െ
ഴ് ച
ക െ
 ബ ന്ധ
 കാ ണ
ഷ ്യ
ണ് ടു
 പ രാ
 അ ന്
ക്ര മ
രി യ
 പ െ
ങ്ങള ുടെ
വ േഷ
 ന ൽക
ക്കാ ന്
ക േ
 ച ി
‍ഗ്ര സ്
 പി ന്ന
പ്പെ ടു
ല ം
ല ാ
സ് റ്റ്
 നി ന്നും
 സ്വദേശ ി
യ ൂ
മാ നം
ങ്ങള ില്
ങ്ങള ും
ത്തില െ
 പരി ശ
  ട്
ക ര്
എ ം
. .
ട ും
ര ോഗ
 ഏ റ്റ
പ്പ ു
ന േ
 സ ഹ
ിയ ും
ൂ ടെ
 ക ഴിഞ്ഞ
 മു ഖ്യമന്ത്രി
പ്പോ ള്
ട ക്ക
 പ ാര്
 വ ില
 പ്ര വര്
ിക്ക ും
വ ീ
യു ള്ള
െങ്ക ിലും
ി ര
ങ്ങ ിയ
 ബിജെ പി
 ഉ യ
ാര ണ
 ജ ീ
ല ോ
 കേ സ
‍ ത്തി
  ഐ
ഷ് ട
 ചെയ് ത
 ല ോ
ഡ ിയ
 തീ രു
വ ര
ീ യ
 മാ ത്ര
പ ോ
  -
ക് ട
 ച േ
ഡി എ
മ്പ ോ
 അ തി
 കൂ ടു
 സാ ധ
ാന ുള്ള
ക്ക ള
രാ യ
ുക ൊ
 പ ങ്ക
) ,
വ രെ
വി ടെ
ണ് ഡ
  യാ
സി ന്
 മ ത്സ
ാ ർ
ിയ െ
ണ െന്ന്
ുകയ ായിരുന്നു
 അഭ ി
 പറയ ുന്നു
മ ുള്ള
യ ോഗ
ില േക്ക്
 സം ഭവ
 ഭ ാഗ
 നി ന്ന
 അ പ
  ധ
ൂ രി
 ക ാല
‍ ച്ച
റ ോ
ത് രം
ക ൂ
ക ൊ
 നട പ
ട്ട ില്ല
 മ െ
ക ൾ
 ക ൈ
ങ്ങ ി
 നേ തൃ
 എ സ്
 പരിശ ോധ
 വ ന്ന
പ െ
 പ്ര ധാന
മാ ര്
 ച െ
ഭ ാഗ
ുപ ത്രി
 ത ോ
ത്ത ര
 നി ര
റ ു
 അ ന
 വ േണ്ട
 ക ഴ
ന്ത പു
 എന്ന ാണ്
ൺ ഗ്ര
‍ ത്ഥ
‍ ണ
രിക്ക ുന്ന
ിക്ക ുന്നത്
 ശ്ര മ
‍ സ
രു വന
ഹ ു
  ന്
 അന് വേഷ
രുവന ന്തപു
 ആ ണ്
വ ണ
 നേതൃ ത്വ
 നി ർ
ഹ ാ
ട ന
 സർ ക്കാ
 നട ത്തിയ
‍ ട്ട
 ഗ ്ര
 ആ രോ
‍ ശ
ാന ും
ിക ൾ
പ്പ ം
 വ ർ
ല്ല ാം
 പി ന്
രീ ക്ഷ
ാ പ
 ക ട
ു ണ്ട
‍ക്കാ ര്
 സ ൂ
 സ്ഥ ിര
ക്ക ിയ
 ആശ ുപത്രി
ക് തി
ത ായി
 ശേഷ ം
ണ ിക്ക
 അ ധിക
 പോ ലീസ്
ുമ െന്ന്
ഷ്ട് രീ
 ഡ ോ
 ആ ദ്യ
 അവ സ
ൈ ന
ങ്ങള െ
ട ക
 ക ണ്ടെ
പ്പെ ടുത്ത
ബ ു
ര ത്തെ
 പ്ര ഖ
ധ്യ ത
 ചെയ് തു
 ബ ോ
 സാ ഹ
 അ ംഗ
ുള്ള ത്
ത ും
 പ ്
‍ക്ക ും
ണ െന്നും
 ഉ റ
 കോ ടതി
ന ോ
 വ രെ
ക്ഷ േ
തി ല്
രിക്ക ുകയാണ്
1 9
 സീ റ്റ
 യ ോഗ
ര ക്ഷ
രിക്ക ും
 സാഹ ച
 മാ റ്റ
 ആരോ പ
ക്കാ ൻ
 തി രിച്ച
‍ ട്ടി
േഖ ല
 ജ െ
 പ ല
ാ ത്ത
 കോ ൺഗ്ര
സി ന്റെ
 പു തിയ
ന ിയ
 ക മ്മ
 റിപ്പോ ര്
രോഗ ്യ
ുന്നു ണ്ട്
 പ്രഖ ്യാപ
ൊ ഴ
 ര ണ്ട്
 ശ ത
ത്തി ന
 പാ ർ
 മ റ്റ
ക്ക ുന്നത്
 വ്യക്തമാ ക്കി
 ച ില
 അ ത്
ത ല
 പ്രതി ക
 ത ാ
 മ ണ്ഡ
േ ധ
ത ം
 ഏറ്റ വും
േ റ്റ
1 0
ശ ി
േ രി
ഷ്ട്രീ യ
മ ോ
ത ൽ
‍ സ്
 മ റ
 വ കു
പ്പോ ഴ
 ചെയ് തി
‍ പ്പ
 സ ൗ
 ര ംഗ
 എ ത്തി
 ദിവ സം
ോ ട്ട്
? 

 ദിവ സ
 ഇ ത്
ള ള
20 1
 പ ാല
ദ് ദേശ
യില േക്ക്
രുവനന്തപു രം
ി ന്
‍ ന്ന
 പോ ക
 വ യ
ദ്ധ തി
േ ക്ഷ
ക്ക ം
 എന്ന ും
 നേ രി
ീ ഷ
ബ ാ
ര ുന്നത്
 സ് റ്റ
ങ്ങ നെ
രാ ജ
 ശ ക്ത
റ ാ
ക്ക ോ
 എ ന്
സ ര്
വാ സ
 സാ ധ്യത
വ െ
ക ഴിഞ്ഞ
 എ ല്ലാ
 മ ല
 വ ള
ില ാണ്
 പ്ര വർ
ങ്ങള ിൽ
ുകള ും
ത്തില ാണ്
ഞ് ച്
േഷ ്
 ഗ ു
 തീരു മാന
ത െന്ന്
ര ാണ്
 നട ന്ന
 സ ോ
ച ി
 മ േഖല
ത െന്നും
ി ന്റെ
നെ തിരെ
രി ച്ച്
 ഇ ന്ന്
സ് സ
റ ായി
 അ റ
 പരാ തി
ത്തിയ ത്
സി ഡ
േ യും
യി ട്ടുണ്ട്
ണ ാ
‍ക ി
ഫ ീ
എന്ന ാൽ
ൃ ത
‍ ട്ട്
ാന ി
 പ ദ്ധതി
 പി ട
വി ധ
പ്പെടു ത്തി
 വി ഭാഗ
 സ്ഥിര ീകരിച്ച
ള്ള ി
ിച്ചി രുന്നു
വാ ദ
മ ല്ല
 വി ഷ
മു ണ്ട
‍ ഡ്
‌ സ്
ുമ െന്നും
വ ില്
രം ഭ
ാര ണം
 രാ ഷ്ട്രീയ
 ദ ു
 സാഹച ര്യ
 ആ രോഗ്യ
 പ്ര ച
സഭ ാ
േ ാ
യ ്യാ
 കൂ ട്ട
യ് ക്ക
 ഫ ോ
ു ണ്ട്
േ ക്ക
 ജില്ല ാ
 മ ി
പ്പോ ൾ
നി ടെ
യാ ള
ടും ബ
ക ർ
ൂ ഹ
ായി രുന്ന
ാ തെ
ഒ രു
ില ാ
 റ ോ
 നട ത്തി
ൊ പ്പം
 സി പി
ക്ര ട്ട
ക്ക ള്
 ത ല
യ ോ
 വ ോട്ട
 പ്ര ശ്
െയ ്
 പിന് തു
 സ മ്പ
ജ ീ
‍ 

‍ ന്ന്
‌ ന
ഷ േധ
 ന ോ
ിക്ക ുന്നു
സി ന
മായി രുന്നു
‍ റെ
 ഉപ യോഗ
 വി ദ
തീ ക്ഷ
ണ്ട ി
 ഉ ള്ള
ുകള ില്
വ രുടെ
 വിജ യ
 വി മ
യില ാണ്
 ആ ള
 മണ്ഡ ല
 ആ യി
കേ രള
 തിരഞ്ഞെടു പ്പ
ന് ധി
 ത യ്യാ
 ക ള
 ഉ ദ്യ
 സെ ക്രട്ട
 കൂ ടി
ധ്യ മ
സ ു
തി ന്റെ
 പ്ര സിഡ
െങ്ക ില്
രു ത്ത
ിക്ക ാന്
ണ്ട ും
ബ ന്ധ
ാ സ്
ീ തി
 സ്ഥ ാപ
  ടി
ണ ിയ
ം ബ
ട്ട ിയ
മ് പ്
ര് യം
രേ ന്ദ്ര
ർ ത്ത
ഇ ത്
സ ില്
നി ക്ക്
മാ ർ
ീ പ
 വാ ക്
 അറിയി ച്ചു
രി ല്
1 5
 മ ന
 ഉ ള്
ണമ െന്ന്
മ ില്ല
ു വി
 പുറ ത്ത
ഴ ിക്ക
 കൊ വിഡ്
എ ല്
ധ്യ ക്ഷ
20 2
യില ും
ച്ച ത്
 മു ന്
 ത ൃ
 ചോ ദ്യ
 കോ വിഡ്
ച ന
 ആ ര്
 ഓ ഫീ
വ ധി
ന ില
 ക ണ്ണ
യ ായ
 പറയ ുന്നത്
 രാ ഹു
 മ ീ
 ക ണ
്യ ം
ിക ി
േ ക
 അ ടി
  റെ
ികള ുടെ
ക ട
 ത ട
ര ന്
ർ ച്ച
 കോ ടി
േഷ ന്
 വി ശ
 അ ട
 കൂടു തല്
ാന ാണ്
സി ൽ
റ ും
ദ് ദ
 ഗ ാന്
  ഖ
 ഹ ൈ
പ്പെ ട്ടു
 പിന്തു ണ
റി ച്ച്
 ഗ ോ
വ ുമായി
 മ േ
‍ക ിയ
ി ന
ൊ ക്കെ
ോ ഷ
ഞ് ഞ്
പ്പ ാ
നി മ
 കു ടുംബ
1 2
രോ ധ
 പോ ലും
 പ്ര ത്യ
 പ ഞ്ച
ികി ത്സ
മാ ക
ർ ശ
ഗ ോ
വാ ഹ
‍ മാ
 തുട ര്
 പങ്ക െടു
 പിന്ന ാല
 തുട ങ്ങിയ
 പരിശോധ ന
 കഴ ിയ
 ഇ റ
 സമ യ
ാക്ക ിയ
ത്ത ും
 ച ര്
  ഘ
 ക ാര്
‍ ഡ
ജ ന
തി നെ
 ക രു
 രോഗ ം
കാ ശ
 ബാ ധ
ൻ ്
 മു തല്
 യാ ത്ര
പ്പെ ടെ
ഷ് ണ
 ചി ത്ര
റ ില്
 നില പാ
േ ാഗ
 ആ രംഭ
 ഇ തു
 ക ൃ
 സർക്കാ ർ
യി ല്ല
 ഭ രണ
 ച ികിത്സ
 യ ൂ
 അ ധ്യക്ഷ
ീ സ്
തി രുവനന്തപുരം
 ചെയ്യ ുന്ന
 ആ ക്രമ
സ് ത
 കോ ള
ായ ്
പ്പെ ട്ടി
 പ്ര തീക്ഷ
്യ ൂ
 റിപ്പോ ർ
 ത ൊഴ
ി ച്ച്
3 0
 ചോ ദ
വ ിലെ
സ ർ
 കൊ ണ്ട്
 ച ൂ
 ഇ ത്ത
 ര ണ്ട
ികള െ
ായ ത്
 മാ ത്രം
 തു റ
1 1
 തിരഞ്ഞെടു പ്പ്
 പ ര
ില്ല ി
യ ായി
 പൊ ലീസ്
ക ര
ുകൊ ണ്ട്
 വീ ട്ട
ൂ ല
 കൊ ണ്ടു
മ്പോ ള്
വ ദ
‍ വ
 കോൺഗ്ര സ്
ഹ ്
‍ പ
 വി ള
 മൂ ന്ന്
 വ ാര്
 പ്രത്യ േക
ാ ണ
  ടെ
പ്ര തി
 അ ടക്ക
ു മാണ്
 സ് വാ
 വേണ്ട ി
രി ക
ുമ െന്നാണ്
ഭ ാ
മ ീ
 പ്രതി ഷേധ
 മാ ധ്യമ
 കു റ്റ
 ശത മാനം
ഴിക്ക ോട്
ന ില്
ണമ െന്നും
പ്പെ ട്ട്
 സം സാ
ഡിയ ോ
ദേശ ീയ
പ്പ ിച്ച
 മ ണിക്ക
 അ റിയ
വി ട
ഴ ു
സം സ്ഥാന
റി ന്റെ
ട്ട ും
 പ്രധാന മന്ത്രി
 നേതാ ക്കള
ി രുന്നു
വ ന്
ഡിഎ ഫ്
 ല ീ
 പ്രതി പക്ഷ
 നേതാ വ്
ർ ന്ന
കാ രം
വി ത
െ തിരെ
ങ്ങള ാണ്
മ ല
 പേ ർ
ക ാര്യ
 ക ര്
 ഉയ ര്
ിയ ാണ്
ുകള ുടെ
ട്ട ം
ന ായ
 പ്രവർ ത്ത
ഷ്ട് ര
ാല ും
 പ്ര ദേശ
 ര ീതി
 ത േ
‍ക്കാ രി
ക ി
 സ് ത്ര
 വ ര
 ലക്ഷ ം
2 4
ണ്ടെ ന്നും
 വർ ഷ
 അ വര്
 വ രു
 എ ടു
5 0
മാ യും
 പ ട്ട
ാല ി
 കൊ ല്ല
 നിന്ന ുള്ള
പ രി
 ജ ി
 വിദ ്യാ
. .

 ര േഖ
ഡ ിക്ക
 മ രണ
 മ ാന
 ഒ ന്ന
 ഉ ത്തര
 വീ ണ്ടും
 വി ശ്
നാ ട്
ങ്ങൾ ക്ക്
 സ്ഥാന ാര്
 സമ ീപ
1 4
 ബിജെ പ
പ്പു റ
ക്ക ുന്നു
 ഉ ന്ന
ബ ൈ
 അ യ
ക ം
 നി രീക്ഷ
മെ ന്റ്
 ക ണ്ട
സ് യ
 മു ൻ
ീ ട്
ീ ം
ീക രിക്ക
 ചേ ര്
ത്തില ും
ത്ത ോടെ
ന ാണ്
 മ റ്റ്
ണ്ടെ ന്ന്
 വിജ യി
.. .

ിച്ചി ട്ടുണ്ട്
 ഉ ൾ
 കു ട്ട
 വ ഴി
 മ രിച്ച
ുക യാ
 അനു വദ
 ശ്ര ദ്ധ
രു വ
ക ാര
ണ റായി
ില ൂടെ
ഇ ന്ത്യ
ത േ
 മ ൊ
പ ര
ഡിഎ ഫ
ഇ തോടെ
സ് വ
വി ൽ
 പ ൂര്
 ഒ രാ
 ന ഷ്ട
 ക യ
 മാത്ര മാണ്
 സു രക്ഷ
അ തി
ൈ ന്
ത്ത ോ
വ സ
 സ േ
 എ ല്
മു ഖ
 ഇ പ്പോള്
ൻ് റെ
 ക് യാ
സ ോ
 ന ഗ
വ രം
ജ ന്
 ജോ ലി
 സെക്രട്ട റി
 ന മ്മ
 സ മ്മ
 വൈ റ
 വിഷ യ
 എ ന്ത
 വി വര
 സി നിമ
 ബ ു
 വകു പ്പ്
1 8
മാ ണ
 നേ രത്തെ
ത്തി ക
 പ ൂ
 വി മാന
 എ ത്ത
 പ്ര വേ
പി ന്ന
ന്ത ര
ാ ഴ്ച
ില ുള്ള
 നടപ ടി
 ഉ ട
ഷ ന്
ന ങ്ങള്
ുകള ാണ്
ൊ ന്നും
 അപ േക്ഷ
േ ക്കും
ഷ ി
കള ും
ദേശ ം
 ഹ ാ
 പ്ര ാ
ുമ തി
ഗ്ര ഹ
സ ും
 ക ാരണം
ായ ക
കള ില്
േ ജ
മ്പ ത്തിക
െടു ത്ത
1 3
 പരി ഗ
 വ ്യാപ
്ര ാ
 പ ഠ
 ചെയ്ത ത്
‍ ഗ
 ചൂ ണ്ട
ുമ െന്ന
 ഇ വിടെ
ശ് ച
 കൂ ടിയ
പ്പോഴ ും
ത ായ
െയ ുള്ള
 നിയ ന്ത്
ങ്ങ ന
ത്തില േക്ക്
! 

 എന്ന ി
ാക ും
േ സ്
 ക മ്പ
 അവസ ാന
ത്തില ുള്ള
മ ൂ
ക്ട ര്
 എ തി
 പഞ്ച ായ
പ്പു ഴ
‍ എ
 പാർ ട്ടി
േണ്ട ി
ികള ും
ഫ ോ
 അന്വേഷ ണ
 മ ിക
ിക്ക ാൻ
റോ ണ
‍ സി
ത ര
 പറഞ്ഞ ത്
‍ ല
 കമ്മ ി
തു ട
‍ മ
ക്കാ ട്
ണ് ണം
 ര ക്ഷ
  '
 അടി സ്ഥാന
 വ ്യാ
 വ്യ ക്തി
2 5
മ െന്ന്
ഇ തി
ബ ന്ധി
ട് രേ
ാർ ത്ഥ
 വി വിധ
 വ രുന്ന
 വാ ഹ
ത ോ
 ചൂണ്ട ിക്കാ
ുകള ിൽ
  ദേശീയ
 ഇതു വരെ
 പിന്നാല െ
 മാ സ
 നിര വധി
 മ ഴ
 പൊ തു
  .

 പി ണറായി
 ന ല്ല
അ ത്
  ,
 വിശ ദ
 കേ സ്
 ന െ
ില ീ
ഞ്ഞ ു
 ചോദ്യ ം
ആ ര്
ർ ത്ഥ
വ ൈ
മേ രിക്ക
കോ ണ്
1 6
ജ ു
ന്ത് ര
ണമ െന്ന
 മെ ഡിക്ക
 ത ന്റെ
 മറ ുപ
സി നെ
ബി ജെ
1 7
‌ സ
 ത ാര
 വീ ഡിയോ
രി ൽ
 ത മ്മ
 മു തൽ
 വള രെ
രാ ഷ്ട്ര
 ച ുമ
 സ ന്ദ
 മു സ്
േ റ്റ്
 ഇ വര്
ില്ല െന്ന്
 സംഘ ടന
ക്ഷേ പ
ല്ല ാവ
തിന ായി
 വി വരം
 നടപ ട
സ് റ്റി
 സ്ഥ ല
ശ് ശ
. എ
ീ വ്
െങ്ക ിൽ
ർ ന്ന്
 കൂ ട
പ്പെട ുന്ന
 തന്ന െയാണ്
 ശ്ര ീ
 സ ഖ്യ
കു ട്ട
 അ ടുത്ത
 സ്വ ന്ത
ിക്ക ുക
 ഷ ാ
 ത വണ
 ആ ർ
മു ണ്ട്
കു ളം
ത് മ
 ഉദ്യ ോഗ
 മ ാര്
ക്ക ൾ
 തീരു മാനം
 സ്വദേശി നി
 ജീ വന
 ശക്ത മായ
 പോ ലീ
റ ണാ
 വെ ള്ള
ഹ മ്മ
 എ ക്
ദ ം
 സമ യം
ത്ത േക്ക്
 ഇ ക്കാ
ട ങ്ങ
ക്കാ ം
ിക്ക ു
 പുറ ത്ത്
ുമ ോ
 മോ ദി
നാ ഥ
 നൽക ി
ഖ ്
 പ്രസിഡ ന്റ്
ങ്ങള ിലും
 ഞ ാന്
 ന ില്
രാജ ്യ
 നേതാ ക്കള്
ക ാല
ജ യ
 ബ ്
ധ ാക
ശ ്ര
‍ഷ ം
ഹ ൃ
ള െ
 പോ യ
 ഒ ഴി
ില്ല െന്നും
 സിപി എം
 ഇട പെ
ക ൃ
ക സ
 ജ ാ
  ക്ര
 ല ി
ദ ു
പ്ര ദേശ
നി ര
ിയ ായ
ണ്ട ാണ്
നി ൽ
 അവ രുടെ
 ജില്ല യില്
 അഭി പ്
 തെ രഞ്ഞെടു
 വില യി
 കോ ട്ട
തിയ െ
 നഗ ര
 ആ യിരുന്നു
ക്കാ ർ
 അവ കാശ
 എ ത്തിയ
 ക ാരണ
 ഗാന് ധി
ബന്ധി ച്ച്
 കൊ ടു
 വ ന്നി
 ഗ്ര ൂ
. പി
 പ ണം
യു മായി
നേ രത്തെ
 ഇ ല്ല
തി ര
ല പ്പുഴ
 മീ ഡിയ
 മിക ച്ച
ാ രി
 അവ ർ
കള ുടെ
 ലഭ ിച്ച
റി ന്
മ് പി
 സ്ഥാപ ന
ള ിവ
‍ ജി
 എ ണ്ണം
 ഉണ്ട ായി
തി ക
 സൂ ചന
‌ സി
 രാഹു ല്
 സീ റ്റ്
ട ം
മി തി
ില ി
 പരി പാ
 എന്ന ീ
 ലോ ക
വ െന്നും
മ്പോ ൾ
 വ ോട്ട്
 നേരി ട
 ന ാല്
 വി ധ
 വ ഴ
റി ൽ
 റിപ്പോർ ട്ട്
 യു വ
  ക്ഷ
 ത ാമ
 നേതൃത്വ ം
േ ജ്
 അന്വേഷ ണം
 കണ്ടെ ത്ത
 കൂടു തൽ
ക്കാ ര്
 മണിക്ക ൂ
ട്ട ുള്ളത്
 വി വാദ
‍ ഥ
േഷ ൻ
 സാ മ്പത്തിക
 സഹ ായ
 മ ഹാ
4 0
 ജന റ
 തിരഞ്ഞെടുപ്പ ില്
 ച ർച്ച
  ദേ
യ ര്
ങ്ങള ില
പ്പ ിക്കുന്ന
 ഇത്ത വണ
ത്തി നും
 കൊ ല
 ഹ ി
വ ില
 ക ീ
കള െ
 ഒ ഴ
പ്പുറ ം
തിന ാല്
വി ധാന
ാന ം
ഫ ി
സി സി
രി ക്കാന്
 എം എല്
 നാ ട്ട
 ല ൈ
ട്ടി ൽ
ീ ന
ട്ട ാണ്
ിച്ച േ
 ബന്ധ പ്പെട്ട
 അ ഞ്ച്
 വി ദേശ
‍ത്ത ക
 സംസ്ഥാന ത്ത്
ഷ്യ ല്
 ച െന്ന
2 3
ഇ തിന്
ട്ട ുള്ള
 പട്ട ിക
 ഉറ പ്പ
20 0
യ ്യ
ങ് ക്
 രാ ശ
 വിമ ര്
േസ് ബു
 ഇ ല്ലാ
ഭ ്യാ
 നൽക ിയ
ക്ക ുക
പ്പെട്ട ത്
രിച്ച ു
ന ായി
 ഭ ൂ
ാ ക്കി
 പ ൂർ
 ത ര
 ബ ാല
പക്ഷ േ
ക്കെ തിരെ
 പ രീക്ഷ
 ലോ ക്
 നിരീക്ഷ ണ
 മു ഴ
 പ്ര വ
 പ്രതി രോധ
മാ ക്കി
 വി ദ്യ
 എ ൻ
ു ളള
 കാര് യം
ക്ഷ ി
 ശ ിവ
 ജീ വിത
 സു പ്ര
 കോ ഴിക്കോട്
 ഉദ്യോഗ സ്ഥ
 അ ല്ല
 വി വാഹ
ബ ര്
പ്പ റ
രു ദ്ധ
 ജില്ല യിലെ
 സം വിധാന
 പോ ലെ
ിക്ക ുകയും
 നേ ടിയ
േ ള
 നടത്ത ുന്ന
ഇ ന്ന്
 നട ക്കുന്ന
ല ക്ഷ
ഷ ണ
 ഹൈ ക്കോ
2 2
വ ു
 ന് യൂ
ക്കിയ ത്
േ യ
 വാ ങ്ങ
പ്പി ന്
 ചെ ല
കള ിൽ
 ജ യ
  ല്
 ഇ ന്
േണ്ട ത്
 മൂ ന്ന
പ ാല
ട്ട െ
ധിക ം
 ശത മാന
ദ് ധി
ോ ദ
 ഉന്ന യി
ഘ ാ
ൻ സ്
ാ വി
 അറ സ്റ്റ്
 പരി ഹ
 രംഗ ത്തെ
 ഒഴി വാ
 ഘ ട്ട
 ലക്ഷ ്യ
റണാ കുളം
 മു മ്പ്
തി രഞ്ഞെടു
ജ ില്ല
പ്പ ില്
 കു റിച്ച്
േ ഴ്
ർ ഷ
യി രിക്കുന്നത്
ഹമ്മ ദ്
ഞ്ഞ ി
ലി ന്
ത്ത നം
പ്പ ള്ളി
 ല െ
 നീ ക്ക
  "
പ ൊ
േ ന
 ഞ ാൻ
 അ മ്മ
 നിയമ സഭാ
ണ്ടെ ന്ന
ദ ാ
 ര ജി
 പോ യി
യ ായിരുന്നു
 കമ്മ ീഷ
ങ്ക ിലും
 ആശ ങ്ക
 സു ര
മ ര്
 ഇ ന്ന
 സം ബന്ധിച്ച്
 ച ൈന
 മാ റ്റി
ത്തില ൂടെ
 ഭാഗ മായി
ച്ചി രുന്നു
 തയ്യാ റ
 മറ്റ ൊരു
എ ന്
ാ ള
 ചെയ ്യാ
പ്പ ിച്ചു
ർ ക്ക
 നട പ്പ
തി ല
 സി ംഗ്
‍ പ്പെടെ
 സ് വര്
മി ഴ്
 പോ രാ
ൗ ണ്
 ഒ റ്റ
 പ്രതി സ
 സു രേന്ദ്ര
 കാര്യ ങ്ങള്
ട ിക്ക
ക്ക ൊ
  ൽ
മ െന്നും
ി തി
വി ന്
 സം ശ
 അ മേരിക്ക
 തി ര
 ഇ നി
 എ ഫ്
ണ ു
ക്കാ ര
മാ ന്
ിലാ ള
 മാ സം
ാ വും
 പേ രാണ്
 പ് രിയ
 വിലയി രുത്ത
 എ ല്ലാവ
 സം ബന്ധ
 പറഞ്ഞ ിരുന്നു
ി ത
 പ ീ
യു ണ്ട
 ശ ി
 ട ീ
 നിലപാ ട്
 പരിഗ ണ
 അ ക
 ചെയ്തി രുന്നു
ല് യ
മ ത
 വ രും
രുന്ന ില്ല
ില ോ
 അധിക ാര
 വി കസ
ജ ോ
ങ്ങള ിലെ
 മറുപ ടി
തി ൽ
ക ണ്ണ
 കണ ക്ക
ധ ന
കേ ന്ദ്ര
 കൊ റോണ
 അന ുക
 ഇ ങ്ങനെ
ശ ം
 രംഗ ത്ത്
ദ ്ര
 വ ന്
‌ ക
രാ യി
ദ ില്ലി
 ഇ രു
തി ട്ട
 മു ഖ
 ബ െ
മാ ണെന്ന്
 അ ല
 അപ കട
േ ദ
ൂ ര
 ഫ േസ്ബു
 ഏ റെ
ത്തനം തിട്ട
2 6
 ല ാ
െടു ക്ക
 ലഭ ്യ
 നിയമ സഭ
 ആ ഗ്രഹ
 എ ന്റെ
ജ് ഞ
ശ േഷ
പ്പെട ുന്നത്
ബ ്ര
സ െ
 ബന്ധ പ്പെട്ട്
 പങ്ക ുവ
2 8
പാ ത
 ദ ി
 പ്ര സ്
 പു ന
ല ില്
 നേ ട്ട
 നീ ക്കം
 അന ുമതി
യു ണ്ട്
 പറ യാ
2 7
‍ ദേശ
ന ത്തിന്
 ഭ ക്ഷ
 സ്വ ീകരിച്ച
 സ്വ ീക
 പോ ല
 കൊണ്ടു വ
 സ ന്ത
ടു ക്കി
വ് വ
ധി പ
സ ീ
 ന രേന്ദ്ര
 പ്രവർ ത്തി
റ്റ ര്
‍ :
 കാല ാവ
പ്പി ന്റെ
‍ ജ്
 യു വാ
 സംഭവ ം
 ച ു
 വീ ട
 സർക്കാ രി
ട േയും
ാന ായി
 രാ വിലെ
 ഓ രോ
ണി ത്
 വി ത
 ഭ ൂരി
ത െന്നാണ്
ുകള െ
യ ോടെ
 ക മ
ിയ ോ
 സ മ്
ഭ്യാ സ
ജീ വ
ർ ത്തി
 ബ ൈ
‍ ഹി
മ സ്
‌ കൂ
 സംഘ ം
 അധിക ൃത
 തുട ങ്ങി
‌ .

ുക ാര
 പരാ ജയ
ക്ക േ
വി ന്റെ
ക്ക ൂ
 സ മിതി
 ഹൈക്കോ ടതി
 ആവശ്യ ം
 സമയ ത്ത്
ത്തി റ
 മ ക
 അഭിപ് രായ
 ആ രാ
ലി ന്റെ
 അ ടു
. സി
ഭ രണ
ൗ ര
 ആ കെ
ത്ത േ
നി ര്
 ശ ക്തി
00 0
 കൂട്ട ിച്ചേ
 മ ണി
ി ട
ല്ല ോ
 പ്ര കാരം
 മന സ്സ
 ത കര്
ത്തിന ായി
 ആരോപ ണ
2 1
ല ൈ
 നിയന്ത് രണ
ട് ര
 എ ത്ര
 മുഴ ുവ
ണ ോ
 സാ മ
ഇ ത്ത
 ജോ ര്
 രണ്ട ാം
 പ്രവേ ശ
 എ ണ്ണ
 പി ടി
മു ഖ്യമന്ത്രി
  ക്ഷേ
 എ ടുത്ത
 ചെയ് ത്
യാ ള്
 എ നിക്ക്
 മാത്ര മേ
 ഡ െ
വര ാണ്
 ചെയ്യ ുന്നത്
ാ രം
എ മ്മ
 താമ സ
 പ്ര ക
 ഉണ്ട ാക
പ്പെടു ത്തിയ
 കണ്ടെ ത്തി
 ഗാന് ധ
 നി റ
കൂ ട
 ദ ിലീ
 കരു ത
 രാ ത്രി
ഴ് ച്ച
 അനുക ൂല
‍ത്ത കര്
  ഔ
എ ഫ്
ച് ഛ
 പ ദ
 ഉദ്യ ോഗ
 ഇടപെ ട
 എന്ന ത്
 അനു ഭവ
‍ക്ക ാണ്
 യു ഡിഎഫ്
ന ിക്ക
 സു ധാക
 സഹ ായി
 സുപ്ര ീം
എ ഇ
ത ൊരു
ിക്ക ണം
 പ്രതിക രണം
 ചുമ തല
 പറയ ുന്ന
 കൈ മാ
രു ത്
 വെ ളി
 സ്ത്ര ീക
 പ റ്റ
 ഓ ഫ്
 പിന്ന ീട്
 അടക്ക ം
ൈ ല
 ഉ ണ്ട്
വ െന്ന്
ന്ദ ു
ത്ത ല
 ഉ ത്ത
ുകള ിലും
 ഫ ി
ക്ട ർ
ത ുമ
 സ്വ കാര്യ
യില ുള്ള
 അ വിടെ
ും ബൈ
 ഭ ീഷ
 ലഭ ിക്കും
ബിജെ പി
മാ ണെന്നും
 സാഹചര്യ ത്തില്
 പേ രും
 വാഹ ന
ഗ ത
 ശ ു
 നട ക്ക
 നേ ടി
വർ ക്ക്
ശ് വാസ
 സ്ഥാന ാർത്ഥ
യ റ
ലി ം
 ജോ സ
 ഫ ലം
 സമ ൂഹ
 മുന്ന റിയി
 വിദ്യ ാര്
ത്തി നു
‍ശ ന
ആ ർ
 പ് ല
 തൃ ശ
ത്തോ ളം
 ജ ൂ
യ് ക്കും
 ഭ ാര്യ
 അ ഞ്ച
 പു തു
 ഇന്ത്യ ന്
 കൃ ത്യ
രാ ന്
 ന ാല
ിക്ക റ്റ്
 മെഡിക്ക ല്
 മ നു
6 0
 എ ൽ
 ഉ മ്മ
രിക്ക ുന്നു
 ദ ൃ
ബ ോ
ീ ല
 പൊ ലീ
 ഡ ്ര
എ ൽ
 ത ൊ
സ ിലെ
 ഭ ാര
 താ ഴ
 സ ൃ
ിച്ച ാണ്
 തി രുവനന്തപുരം
രാ ല
 ആദ്യ ം
േ റെ
ക് യൂ
 പ ശ്ച
 തെ ളിവ
 കണ്ണ ൂര്
ക ുന്ന
 മുന്ന ോട്ട്
 കമ്മി റ്റി
സ ്ര
 മത്സ ര
ീക രണ
ിച്ചി രിക്കുന്നത്
ു മാ
ശ്ശ േരി
പ േ
ഷ ൻ
എ ല്ലാ
 സം രക്ഷ
 പ ക
 പ്ര സ
ൂരി ല്
ഭ ്യ
അത ുകൊണ്ട്
 സ ൈ
ക്ക ുകയും
 വിജ യം
 ക ല
സ് ത്ര
 ഇ ര
സ്റ്റ ര്
ക്ക ര
ിയ ാ
ർ ക്കം
 വ ോ
‍ മ്മ
 ജീ വ
റി നെ
 രൂ ക്ഷ
ന ുള്ള
ര ണ്ട്
വ ല
 ന മ്പ
ന്ത് രാല
 എ ഴു
 ത ാന്
 മല യാള
തായ ും
മ റ
 പശ്ച ാത്ത
താ വന
ക്കു റിച്ച്
 ജ യി
 കേസ ില്
തിന ുള്ള
‍ ജ
തുട ര്
ുക ാ
 സമ ര
 നടത്തിയ ത്
 സുര േഷ്
2 9
 വ നി
 എ റണാകുളം
 മാ റ
 ക സ്റ്റ
 ആശുപത്രി യില്
െന്ന ായിരുന്നു
‍ -
പ് റ്റ
 ഇ പ്പോൾ
 ഷ ോ
 ധ ന
 ഉൾ പ്പെടെ
 കീ ഴ
അ ദ്ദേഹ
 ലഭ ിക്ക
ക്ക ട
 സാധ ിക്ക
 ഗു രു
 സ്ത്ര ീ
‍ മാര്
പ്ര വര്
 തെ ളി
 ഹാ ജ
 ആ യ
 ആവശ്യ പ്പെട്ടു
ഘ ോഷ
വ രും
 അ മി
സം ഭവ
ായി രിക്കും
രാ മ
സം ഘ
നാ ട്ട
ച ന്ദ്ര
 ത ാല്
 ഗ്ര ാമ
 ആ ത്മ
 ആ ലപ്പുഴ
 ഏ ക
 വിഭാഗ ം
 കുറ ഞ്ഞ
ന ോട്
 വി ട്ട
സ ില
 വെ ച്ച്
ി നെ
ത്ത ം
പ്പ ിച്ചത്
വ ്യ
ാ ടക
 ച രി
ത്തിന ുള്ള
െ ല്ലാം
 ക ടുത്ത
 സ മാ
 ദു ര
 വിമ ർശ
 ഹ െ
 സു ഹൃ
ഇ തു
ന ീ
 ചെയ്യ ും
 നേ ട
3 5
 അ ര്
‍ക്ക ുന്ന
സ് തു
 ഹ ോ
 പശ്ചാത്ത ല
റ്റ ില്
 ഭൂരി പക്ഷ
വ ാണ്
ട ൊപ്പം
 പ തി
 ബി ഗ്
‍ക ുന്ന
രിച്ച ത്
ൂര് യ
വ ുമ
നാ ൽ
ൃത ദേഹ
തി രായ
 ജ ാമ
 എന്ന താണ്
 ഇ ത്തര
 തൊഴ ിലാള
. എസ്
എ ന്ത
 ഫ ല
 മു ഹമ്മദ്
 ക ഴി
വ സ്ഥ
‍ വീ
 യു ഡിഎഫ
റ്റ ു
ന ിയും
 ര ണ്ടു
 കോട്ട യം
 കെ ട്ടി
 പ്രസ് താവന
വ ്ര
 പുറത്ത ുവ
ോ ഭ
 മ ത
 അഭി ന
ക്കാ ല
ാ തി
ിച്ച ും
പിന്ന ീട്
പ്പി ച്ച്
 ആരോപ ണം
 ത മിഴ്
മാ ക്ക
 മോ ഹ
പ ാര്
1 00
ആ ദ്യ
ശ ാല
 പ്ര ായ
ധി ച്ച്
ന ങ്ങൾ
വ രി
 ഉദ്യോഗ സ്ഥ
4 5
‍ ഡി
േക്ക ുള്ള
ഡ ോ
ി ത്തല
ലോ ക
 ഫ െ
ക രണ
താ വ്
 പെ ണ്
്യ ത
ത്വ ം
 ന യി
ന്നി രുന്നു
ഭ ാവ
 എന്നി വിട
 സ്വ പ്
‍ വേ
 എം പി
 വൈറ സ്
ള ു
 ലീ ഗ്
 സന്ത ോഷ
ബ ർ
 കോ ടിയ
 കു റി
വി നെ
‍ത്ത ന
ഇ തില്
യ ർ
സ ൈ
 നടപ ടിയ
 അദ്ദേഹ ത്തിന്റെ
‍ത്ഥ ി
 ഇത്ത രം
‍ .
ാന െ
 ഒ ന്നും
 കൊല്ല ം
 ദൃ ശ്യ
ാ വ്
‌ സിന്
ന്ന െ
 പേ ര
 പാല ക്കാട്
 സൃ ഷ്ട
സ ൂ
 പുറ ത്തിറ
മ്പോ ഴ
നാഥ ്
) 

പ ീ
റി ഞ്ഞ
 ദ ില്ലി
 ന വ
ന് യൂ
വാ ക്
 അ ഖ
ക ര്യ
ല ിക്ക
 മുന്ന ില്
കൊ ച്ചി
 എന്ന ായിരുന്നു
ത് യാ
‍ക്ക െതിരെ
ല്ലാ ത്ത
 ചെ റിയ
ിയ ായി
 തെ റ്റ
ഗ ു
മാ റ്റ
 മാ റി
 തോ ന്ന
 സോ ഷ്യല്
‍ഗ്ര സിന്
ച്ചി ട്ടുണ്ട്
 സഹ ോദ
ൈന ിക
മ ൊരു
ക്കു റ
 റ ഷ്യ
 ആ ന
 വാ ർത്ത
 വിദ്യാ ഭ്യാസ
 ഒഴ ിവ
ര ത്ത്
ാ ള്
‍ക്കാരി ന്റെ
 രംഗത്തെ ത്തി
 ക രാ
 സ്വാ ധ
ഗ ം
 കി ട്ട
ം സ്
രി പ്പിക്ക
ഹ രി
‍ കു
 ക ന
ത്ര യും
 ഹ ര്
 പുറ ത്തു
 കു മാര്
ൗ ണ്ട
ണമ െന്നാണ്
 ഗ െ
 പു ല
 മാത്ര മല്ല
 യോഗ ം
ധിപ ത്യ
 സ ത്യ
ത ന്ത്ര
ിവ െ
 സമ്പ ർക്കം
പ ല
യില ൂടെ
 കോള േജ
ഭ്യ ന്തര
 ഭ ാ
ിക്ക ാം
 മു മ്പ
ീ ര്
 പാർ ട്ട
പോ ലെ
ഭ ി
 രാജ്യ ത്ത്
ല്ലാ തെ
ഭാ ഷ
വ ം
ു തി
 സമ്മ േള
മ ിക
ായ േ
ഇ വിടെ
 റ ൂ
കോ ഴിക്കോട്
 സ്വന്ത ം
 ചെന്ന ിത്തല
 വികസ ന
 ക ണ്
 ട് രെ
 സൗ ദി
 സെ ന്റ
ല ാണ്
ുക ാര്
 മു രള
കു തി
 ഉള്ള ത്
 സ്ഥിരീകരിച്ച ത്
ർ ക്ക്
 മു തി
 സാമ ൂഹ
പു തിയ
 ക ിലോ
 ക് രി
 നടന്ന ത്
 വ ന്നു
 പെ രു
 മനു ഷ്യ
മ െന്ന
സ ിയ
 ഡ യറ
 പോക ുന്ന
ാന ാവ
 ആവശ്യ പ്പെട്ടി
 സന്ദ ര്
 ജനറ ല്
യി രിക്കുകയാണ്
 സ്ഥ ിതി
 ആ റ്
 പു രു
3 1
 നി ൽ
ീ ധ
 അഭ ്യ
റ ന്
 കേന്ദ്ര ം
 ക ര
 ത നിക്ക്
 ച ന്ദ്ര
ിച്ച ുള്ള
െടു ത്ത്
 വകു പ്പ
യി ട
ിക്ക ൊ
 ചെയ്യ ാന്
 ക് ലാ
 ഇക്കാ ര്യം
  ഊ
 പ ത്തനംതിട്ട
രി ക്കാൻ
 എന്നിവ ര്
നിയ മ
തു പക്ഷ
 അ ധ
 അ ടിയ
വാ ദി
 ഫ ്ര
‍ ധ
പാ ട്
 പ ക്ഷ
 വീട്ട ില്
രു മായി
 പേ രെ
 ലഭ ിച്ചത്
 പ്രതിസ ന്ധി
 ജില്ല കള
 നിർ ദ്ദേശ
 കൊ ച്ചി
ിച്ചി ട്ടില്ല
പ്പെട ുന്നു
 രാ മ
 പറ ഞ്ഞ്
 കു മാ
 അവ സ്ഥ
ലീ ം
 കേരള ത്തില്
 പ്രച ാരണ
 വെ ച്ച
 എ ല്ലാം
മാ രുടെ
ത്ത ാവ
 ത ദ്ദേശ
 ഇ ടുക്കി
ുക ൂ
 തി രി
ധി ത
 കേരള ം
 കി ട
 ബോ സ്
പ ഞ്ച
 ബ ംഗ
 കോ ര്
ഹി ത
ൊ ക്ക
 സമ ര്
 നേതാ ക്കൾ
 അറ സ്റ്റ
 നി ക്ഷേപ
 കോ ട
മ തി
 സ്വ ീകരിക്ക
കൊ വിഡ്
 നിലപാ ട
 വർഷ ം
  യി
ങ്ക ില്
തിന ും
ഗ തി
 ശേഷ മാണ്
 പിട ിച്ച
 നമ്മ ുടെ
ല ു
 സ ജീവ
 വി പ
 സ ൈനിക
ത്തി യാ
 വി രുദ്ധ
അ തിന്
ജ് ജ
 അടക്ക മുള്ള
‍ ഫ
ങ്ങ ാ
 ഒ രിക്ക
 കാലാവ സ്ഥ
 വി ട
‍ഷ ക
നില വില്
 ആക്രമ ണ
ല്ല ുവി
ര െയും
ുമ ു
 ബാ ബു
ക്ക ണം
 വി ട്ടു
 വന്ന ത്
‍ ന്നു
 പരി ച
 പഞ്ചായ ത്ത്
ി ട്ടുണ്ട്
 താ രം
പ ിയുടെ
ുകള ില
 നിര ക്ക്
പര മായ
‌ റ്റ
ൊ ന്ന
ക്ക ില്
‍കിയ ത്
ട നം
 കട ന്ന
ാ റ്റ
ദ ന
 മ ൃതദേഹ
‍ഗ്ര സിന്റെ
 മ ന്ത്രാല
ാവ ുന്ന
8 0
7 0
 അ ബ്
രു ന്ന്
ന്ദ ി
ുപ ോ
 ഇ ൻ
 മോ ദ
പ്പ ിൽ
 ട് രം
ന ട
 സ ഞ്ച
 സമ്പ ര്
ദ് ഘാ
 പോ സ്റ്റ
 നിന്ന ാണ്
 യുവ തി
ര ൻ
ികൾ ക്ക്
 ച ീ
 അംഗ ീക
ോട്ട ോ
‍ ദ്ദേശ
സ് വാ
 മല പ്പുറം
 കമ്പ ന
ത െങ്കിലും
റ ുടെ
 അ ഡ്
 തി രു
മേ ശ്
‍ത്തി യാ
ുമ ുള്ള
ികള ാണ്
 അ ക്രമ
ക്കി ന്
ാ സ
ശ് ചി
ഗ് ദ
 സാധ ിക്കും
 സൗ കര്യ
ക് ട്
മാക ും
വാ സം
 ഉണ്ട ായ
 ചി ത്രം
ീക രണം
ഡ ല്
ങ്ങന െയാണ്
 ച ൊ
 ക ാര
ാണ് ടി
ുകൊ ണ്ടാണ്
 തോ മസ്
ട േ
ു മ്പോള്
 ജാ ഗ്ര
 അമി ത്
ർ ഡ്
 നേരി ട്ട്
 സ തീ
 ന മു
 സംഘ ടി
ാ ണെന്ന്
ത്ത ോട്
 ക് വാ
സി പി
രേ യും
 കാല ത്ത്
 ഫ ്
ള ും
‌ പെ
 പ്രിയ ങ്ക
സ്ര ായേ
റ ുകള്
 രൂപ യാണ്
 സാധ ാരണ
 വിദ്യാ ർത്ഥ
ത ായിരുന്നു
 സ ന്
 ബു ദ്ധി
ദ ായ
റ്റ ർ
ന് തി
ക ും
 ത ുക
ിക്ക ാനുള്ള
ട്ട ത്
 ആ ഭ്യന്തര
‍ത്ത ു
 പ്രവേ ശി
 ഭ യ
 യു എഇ
ക ലാ
ത്തി നെ
ത്ത ാണ്
 എന്ന െ
നാ ധിപത്യ
 എ ന്ത്
മി ന
 സിപി എമ്മ
 സംസാ രിക്ക
 ഹാജ രാ
ഇ നി
ൈ സ
 ഇ ള
 വെ ല്ലുവി
ൽ ഹി
ിക െ
ല്ല േ
 കൂ ടെ
 ഞ െ
ങ്ങന െയ
സ രിച്ച്
 പദ വി
ത ന്ത്
 വ രാ
 ഇ വ
േഷ ന
 വ ൃ
കൂട ാതെ
 കേരള ത്തിലെ
 ല ം
 ന ോട്ട
 അ ക്ക
ിക ൂ
 ചെയ്യ ുന്നു
 ഇ പ്പോഴും
 പോ സി
ര മ
 വേ ണം
 അധ്യക്ഷ ന്
 എ ത്തിയത്
 രാ ശി
തി നു
 ലക്ഷ ്യം
 ദ ിന
 അവ ത
ഴ യ
 ആ ന്
 ആ ഘോഷ
 വി ച
 മാ ർ
 പരിപാ ടി
രാ ഹു
ോ ക്
യി ട്ടില്ല
മാ യാണ്
 പ്ര ോ
ാല ോ
 തുട ങ്ങ
 ഭീഷ ണി
രാ ജ്
 സ്വ ർ
 കഴിയ ുന്ന
ണ്ടെന്ന ാണ്
 യ െ
 സീ സ
റ ിലെ
േ ക്കാ
 മറ്റ ു
‍ ഹ
 ശ മ്പ
 സ്വ യം
ടക്ക ം
കോ ടതി
 ഇന്ത്യ ൻ
ത് യം
ിക്ക ുകയാണ്
 ഉണ്ട ായിരുന്നു
 മുന്ന ോ
മെ ന്റ
 അവസ ര
ജ റാ
രോ ട്
‍ കുട്ട
 ഔ ദ്യ
ള ൂ
 ന ായ
 പേ രില്
ീക രിച്ച്
പ്ര ധാന
 അ ത
 ച ാ
 മുരള ീധ
ിക്കാ ത്ത
ഗോ ഡ്
 ഡ്ര ൈ
 ഉ ദ്ഘാ
 റ ാ
ികള ില്
ട്ട ോ
 സ്ഥാന ം
 ആരോപ ിച്ചു
 ചികിത്സ യില
പ തി
 മ ധ്യ
 തീ ര്
നേ ഹ
 ട്രെ യി
 നട ക്കുന്നത്
 ബിജെപ ിയുടെ
3 6
 ന യ
 ത ള്ള
െടു ത്തി
ക ാര്
 സെക്രട്ട റിയ
 പര സ്യ
പ് തി
 ഇ ന്റ
 നി ങ്ങള്
 പാ ട
 അ ന്ത
ഇ ന്ന
 ച ടങ്ങ
 വി ളി
 ചരി ത്ര
 പ ണ
കള ാണ്
 മുന്നറിയി പ്പ്
 ന ൂ
 ആരാ ധ
ച ില
 തീ വ്ര
ാമ ത്തെ
 പോ സ്റ്റ്
4 8
ടു വ
 ലഭ ിക്കുന്ന
മൂ ന്ന്
പി ച്ച്
 പ്രതി നി
 ലം ഘ
 അ ര
ത്തി നെതിരെ
 ച ാന
നി ട
 ഫ ാ
 ഡോ ള
 ശ്രമ ം
 രാജ്യ ത്തെ
 കൊല പാത
 മ നോ
ടി ച്ച്
  ക്രമ
 പ ട
 മാറ്റ ം
ഞ് ജ
 പ്രതിഷേധ ം
‍ ണ്ണ
ിക്ക റ്റ
ന ത്തില്
മ ം
തി നിടെ
രിക്ക ണം
 ജന ങ്ങള്
 പ്രവ ച
 ദുര ന്ത
വ ള
വാ ന്
 വ്യാ ജ
 ഫോ ണ
 ജോസ ഫ്
 പു രോഗ
 വീ തം
 അവസ രം
 വയ നാട്
 പിട ികൂ
 ത സ്
വ രില്
 ഉ ച്ച
‍ന്ന ാണ്
ജ ്യ
ണ് ണി
െ ത്തിയ
 മ ട
ങ്ങള ായി
കോ വിഡ്
 ചോദ ിച്ചു
 വിവര ങ്ങള്
 മുസ് ലിം
റ ാം
സ് സ്
ിക്ക ുകയായിരുന്നു
 സംബന്ധ ിച്ച
 വ രുന്നത്
ുകയാ ണെന്നും
 വ രിക
 നി ന്നു
 ലീ ഗ
ുകയാ ണ
 ഇ ഷ്ട
 ഏ ര്
വ കു
 ത രം
 ഞ ങ്ങള്
ഷ്യ ൽ
 കൂടിയ ാണ്
 സമ് മാന
 തെളി യി
മ ന
 വിമാന ത്താവ
ട്ടു ണ്ടെന്നും
 യോഗ ്യത
 ജീവന ക്കാ
 കസ്റ്റ ഡി
ങ് ങ്
 രീതി യില്
 ഗുരു തര
ഇ ക്കാ
 ഉട മ
പ ൂര്
മ് മാ
 പേ രുടെ
 ബന്ധ ം
‌ ക്
 ക ലാ
 മത്സ രിക്ക
 കൂട ിക്കാ
3 4
 നടത്ത ുന്നത്
 രാശ ിക്കാ
‍ ദേശം
 ക ഥ
 സ ൂര്യ
 ഗ ്
 ചെയ്തി ട്ടുണ്ട്
 പ്രസ ംഗ
 ഇക്കാ ര്യ
ന് യ
 സാഹച ര്യം
 ബ ീ
 വാ ക്ക
 ആ ലോ
താ ക്കള
 ക ണ്ടു
 മ ദ്യ
മാ ൻ
യാ ൾ
 പ്ര മുഖ
കു മാ
 സ മു
ുന്ന തിന്
 ഭ േദ
ദ ീ
‍ ച്ച്
ട് രോ
നു വരി
 വിത രണം
ഇത്ത വണ
മ െന്നാണ്
 നി കുതി
 ഓ ര്
‍ണ ാടക
ാ ബ്
 ജ യില
ശ് മീ
ാസ് ത്ര
 എതി ര്
 തിരഞ്ഞെടുപ്പ ിൽ
ല ിൽ
ിക്ക േണ്ട
 ബ ്ര
ികള ായ
 തയ്യാ റാ
ിക്ക ാര്
 ഉണ്ട ാവ
 രൂപ യുടെ
 മണ്ഡ ലം
 സ്ഥിരീകരിച്ച ു
 ഉണ്ട ാ
 ആള ുകള്
സ ഹ
ലോ ക്ക്
ത െന്ന
 പ രിക്ക
ടു ള്ള
 അവസ ാനി
അ പ
 മ രണം
‍ത്ഥ ികള്
സംസ്ഥാന ത്ത്
. എം
ുമ ില്ല
ക ോട്ട
തി നാൽ
 ആ രും
ങ്ങള ോട്
ങ്ക ള
 മെഡിക്ക ൽ
 സതീ ശ
 വ ഹ
ത്തി നിടെ
 ത ള്ളി
ിക്ക ുന്നുണ്ട്
 കൊ ടുത്ത
 വാ ദ
 ആ ം
 സൂ ക്ഷ
ത ന്റെ
മാ രെ
 വിശ് വസ
ിച്ചി രിക്കുകയാണ്
 വൈ ക
ശ ു
 ത ട്ടി
തോടെ യാണ്
3 8
ഴി മതി
 ട് ര
പു രം
7 5
 മ േധ
രി ത
പ്പിക്ക ാന്
 അഭി മുഖ
 ജാഗ്ര ത
ഇ ട
റ്റ ീവ്
 പെ ട്ട
3 2
 അ ന്ന്
 രോഗ മു
ങ്ങിയ ത്
 നിയമ ം
 കൈ വ
‍ശ നം
 പോ ളി
 കാ ത്തി
പ്പെടു ത്തിയത്
വെ ള്ള
 പങ്കുവ െ
ജ ൻ
വ യ
 വി ധി
 ഹ ൗ
ക ന്
 മേഖല യില്
കൃ ഷ്ണ
 ക ർ
 അ തിന്
 ശ േഖ
 പരാ മര്
 കൃ ഷ്ണ
3 9
ട ിച്ച
റ ാണ്
ർ ട്ട്
ദേശ ിക
 അവ രെ
 തന്ന െയ
 ക ള്ള
 കാ ഴ്ച
 തൃശ ൂര്
‌ മെന്റ്
ക്ക ാണ്
 ആ ണ
യ ന്
റ ന്റ
 സാ ക്ഷ
 പേ രി
 മുന്ന ണി
 പിന്നാല െയാണ്
 ബുദ്ധി മു
ച േ
 സാ മ്പി
ിലെ ത്തി
ധ ു
 ശി ക്ഷ
‌ സഭാ
‍ ത്തിയ
ൂരി ലെ
  രു
ത ന്നെ
 കു ഞ്ഞ
കര മായ
 പോ വ
 ഇട തുപക്ഷ
 തസ് തിക
 മ ഹ
വി ഷ
 ഓഫീ സര്
 ചൂണ്ടിക്കാ ട്ടി
സ ൗ
ക്ക ായി
 ഇ തിന
പി ന്റെ
 പെ ൺ
 എല്ലാവ രും
 ലക്ഷ്യ മി
 ര മേശ്
 ന ടി
 മ ുംബൈ
തിരഞ്ഞെടു പ്പ്
ന മ്മ
 ബന്ധ ു
 തിരിച്ച ടിയ
 മൊ ഴി
സ േന
 നേ ര
 കൊ ണ്ടാണ്
 റ ദ്ദ
ുമായി രുന്നു
മായി രിക്കും
ൂല ൈ
ഘ ട്ട
വ ായ
 വൈ ദ്യ
 ഡോ സ്
 സ ൈന്
പി സിസി
 സമ രം
 പ്രഖ്യാപ ിച്ച
യ തി
 ജോ സ്
 ട് രാ
 നേതൃത്വ ത്തില്
അ ടുത്ത
 ത ങ്ങളുടെ
 നേ രെ
 യു ദ്ധ
 കാര്യ ത്തില്
 യാ തൊരു
  ര്
 ഉപയോഗ ിച്ച്
അതി നിടെ
 വ സ്തു
 കമ്പ നി
 കഴിഞ്ഞ ു
 യോഗ ത്തില്
പ്ര വർ
 രാജ ്
പ്പിക്ക ുന്നത്
എൽ എ
ക്ക ാനുള്ള
 ഏ ഴ്
 വീ ട്
 തുട ര
 കി ട്ടിയ
 അതി ന്റെ
 എ ങ്ങനെ
മ്പ ാ
 വാ ഗ്ദ
 ഉന്ന ത
 ക്ഷേ ത്ര
ട നാ
ർ ജി
വി തം
 മുഴുവ ന്
ഭ ൂ
വ െന്നാണ്
മാ രും
 സീറ്റ ുകള്
5 5
ിയ ുമായി
ട്ടു ണ്ട
 ചെ റു
ന െയും
വ െന്ന
 മണ്ഡല ത്തില്
മി ച്ച്
ുവ രി
 എന്നിവ രാണ്
ങ്ങള ുമായി
 പ്ര കട
ക്കാ ത്ത
സി ൻ
 മല യാ
 അധ ്യാപ
 ഓഫീ സ
 നടപട ികള്
' ;
 ബ ജ
 ബിജെപി ക്ക്
 രാഹു ൽ
ക ാരണം
ക്ക ാന
ങ്ക ിൽ
 വിജയ ന്
 നഗര സഭ
ർ ത്തു
 നി രോധ
 ഇന്ത്യ യുടെ
  ന്ന
യ ോട്
ുന്ന ില്ല
‌കൂ ള
3 7
ശ ാ
 വ ില്
 കുറ ച്ച്
 കോടതി യില്
 തയ്യാ റായി
 ക ല്
ത്തില ായിരുന്നു
ര ണ്ട
 ബി രു
. കെ
 പ്രവർത്ത ക
 സഹായ ം
 നമു ക്ക്
 സൂ ചി
 വിശ് വാസ
  ർ
അ ന്ന്
േ ബ
മാ യുള്ള
ിക മായി
' ,
‌ സിന
ിയ ്
ുക െ
ായി ക
മായ ത്
 ഉണ്ട ായിരുന്ന
വു മായ
 ഉമ്മ ന്
‍ എസ്
ടക ം
 തുറ ന്ന
 കന ത്ത
4 9
ച െ
‍ ത്ത്
ിയ ുള്ള
 ഇ തിന്
 ഉയ ർന്ന
ഗ സ്റ്റ്
 ജ നാധിപത്യ
‍ത്ത നങ്ങള്
 പങ്കെടു ത്ത
ഇ വര്
 മ മത
രു ത്തി
 കേ സിൽ
 മത്സ രിച്ച
കലാ ശാല
െ ാ
‍ വ്
ിക്ക െതിരെ
 ഇ വർ
ശ ങ്ക
തിന ാണ്
പാ ട
പ റ
 സ ഭ
റ്റ ീ
 മാ തൃ
മെ ന്
ത്ത െയും
 സുരക്ഷ ാ
 ക്ര ൈ
 നില യില്
 കാര്യ ങ്ങൾ
 ത കർ
താ ണെന്ന്
 വയ സ്സ
 മു ഖ്യ
 തമ്മ ിലുള്ള
 ബ് രി
 ഫേസ്ബു ക്ക്
ുക ു
ം സ
 അ മ
സി ക്യൂ
ബ രി
ക്ക േണ്ട
പ്പ ര്
പ്പോഴ ാണ്
 സാഹചര്യ ത്തിൽ
 ഗോ പി
 സുരേന്ദ്ര ന്
ജീ വിത
ിച്ച ില്ല
 ട് വീ
 വിദ ഗ്
 കേസ ുകള്
4 7
ള ുടെ
ില ായി
 ഇ നിയും
 എം എൽഎ
 മൂന്ന ാം
 സ മാന
ത്തി ൻ്റെ
മി ഷ
 ഒന്ന ാം
ബ്ര ുവരി
ാ ളി
ത്ത ുന്ന
 തുട ർന്ന്
 പ് രി
 വോട്ട ുകള്
ൂ റി
ക്ക ന്
 റോ ഡ
ീ ന്
 ഒ ന്ന്
 തേ ടി
 ഉത്തര വാദി
ിച്ചി രുന്ന
മാ ത്ര
 ഗ ൂ
 ഹ ോട്ട
 റ ണ്
റ്റി ന്
കണ്ണ ൂര്
ത ല്ല
 വ ല
സ് തി
 പേ രിൽ
ുകൾ ക്ക്
 സ്വാധ ീന
ക്ക ുകയാണ്
 വ ധ
‍ക്ക ം
 യ ഥ
 നൽക ുന്ന
  ത്തി
 അഭി ഭാഷ
 പറഞ്ഞ ി
 യാ ദ
റു ണ്ട്
ാ ണെന്നും
േ റിയ
 ത ാൻ
 ഇ സ്രായേ
‍പ്പ റ
 പി സി
 ചെയ്യാ ൻ
ു ത
‍ പ്പെടുത്തി
വി ക
 ജ ല
 നി ങ്ങളുടെ
ദ് വീ
െടു ത്തു
 സംസ്ഥാന ത്തെ
കോ ൺഗ്ര
 നില വില്
 കൊണ്ടു പോ
 സേ ന
! !

ആ രോഗ്യ
രി യാ
ലി നെ
 കുറ ിച്ചു
 വ്യക്തമാ ക്കുന്നു
വ രാ
 സി റ്റി
 ബാ ങ്ക്
 സംവിധാന ം
 സം സ്
 ഹി ന്ദു
 വിവാഹ ം
 യു പി
 ഒരാ ള്
 വിമാനത്താവ ള
വ ാര്
ൂരി ൽ
ുണ്ട ായ
 പല രും
യു ധ
യാ ത്ര
 വാ ദം
വ ്യാ
വേഷ ണ
പ ൂ
ർ ക്കും
 റിപ്പോർ ട്ട
 ഉദ്യോഗസ്ഥ ര്
 വി സ
 ഭ രണം
 കോള േജ്
 മുസ് ലീം
ശ്ര ീ
യ ള
 ഇ ടി
 റോ ഡ്
‌ന ങ്ങള്
3 3
ോ ളം
 എ ട്ട്
 ല ോട്ട
 കേരള ത്തിൽ
 ധ ാരണ
 അനുവദ ിക്ക
 പ്രക ടി
ുകള ിലെ
പ്പെട ും
 കിലോ മീ
 ചീ ഫ്
കള ിലും
 സോ ണിയ
ുവി ന്റെ
 സേ വന
 ഭൂ മി
5 00
 അ ർ
യുടെ യും
 അദ്ദേഹ ത്തെ
 പരിശ ീല
 പ്രശ് ന
 തമ്മ ില്
 കൂടിക്കാ ഴ്ച
ക്കാ തെ
 കാ സര്
തൃ ശ
 ആക്രമ ണം
െടുത്ത ത്
 ഗ്രൂ പ്പ്
 കൂട്ടിച്ചേ ര്
 താഴ െ
വ ായി
ൊ പ്പ
 വ്യാപ ക
 ഒരിക്ക ലും
 അബ് ദു
ൗ ൺ
‍ഗ്ര സില്
 ഉണ്ട ാകും
 മഹാ രാഷ്ട്ര
 സംശ യ
 പക രം
‍ക്ക ായി
 ലോ ക്ക്
 ടെ ക്
 വിധ േയ
 ഇന്ന ലെ
ഇ തിന്റെ
 പ ത്ത്
പ് രാ
 ഇ യാള്
താ രാഷ്ട്ര
ണമ ൂ
ുകയ ോ
 സാമ്പി ള
 മു തല
 അദ്ദേഹ ത്തിന്
 ആവശ്യ പ്പെട്ട്
പ്രദേശ ്
 യു എസ്
 പ്രതിക രിച്ചു
തന്ത് ര്യ
ഹ ത്യ
ത് സ്യ
 ഗ വ
 സമ ർ
‍ട്ട ുകള്
ിച്ച ാല്
 വോ ട്ടി
ബ െ
നി ന്ന്
 ഷ ി
 സുരക്ഷ ിത
മ റ്റ
ക് സ്
 ച ല
 പ്രവർത്ത ന
ിയ ത്
 ഇ ദ്ദേഹ
വി ഡി
 ഷ െ
 ഫോ ണ്
 മരിച്ച ത്
 മീഡിയ യില്
ർ മ്മ
 തട യ
 വിഷയ ത്തില്
 മ ല്
 അ ല്
ളൂ രു
ന്ന ത്
ില്ല െന്ന
ഇതി നിടെ
 രാശ ിക്കാര്
ശേഷ ം
 അധികൃത ര്
ശ േരി
ക്കുന്ന തിന്
9 0
ല ങ്ക
ഷ ാ
‍ത്ത നം
 പൊ ലി
സർ ക്കാർ
 വനി താ
 ആദ്യ മായി
 യൂ ത്ത്
 ക്യാ മ്പ
പ ൂർ
ര ൂ
ഹ ൈ
മാ ക്കിയ
പ്രവർ ത്ത
 സ ച്ചി
 സ ജ്ജ
 സി ന്
 സി ംഗ
 വള ര്
രി വാ
 അ ഴിമതി
 ശ ബ്
ഞ്ച േരി
കൊ റോണ
4 6
 മാ ണി
 യ ോ
 ട ോ
ക്ട ോ
േക്ക ാണ്
 പി ഴ
ബി ഐ
ഗ് ഗ
‍ ഡിഎഫ
 നി ശ്ച
ില്ല ാത്ത
സാ ധ
 സിപി ഐ
പീ ക്ക
ട് രി
 വ ായി
 കു ടു
 ട് വി
െ ത്തി
ക് യ
 ഇ വരുടെ
 ഗു ണ
ാക്കിയ ത്
രുവ രും
മ ംഗ
ങ്ങ ുന്ന
ടക ര
 തിരി കെ
ല േ
ത്തി ടെ
കൊ ല്ല
. ഡി
 ക ണ്ട്
 എ തിരെ
 ഗ വര്
ണാ ടക
 പോരാ ട്ട
 ചെയ ര്
 നീ തി
 ഗു ജറാ
 പരിഗ ണിക്ക
പ് രിയ
ുക ാർ
റ്റ ിൽ
 ജയ രാജ
എ ൻ
എ ന്റെ
 ക ർഷ
ങ്ക േ
ഇ പ്പോള്
കു മാര്
ക്ക ുള്ള
 അ സി
 നടത്തി യിരുന്നു
 വിപ ണി
ല് യം
 ആ ക
 ഏ ജന്
നി മാ
ൂ ട്ട
ൂ ട്ടി
ിയ ു
 ഇ വരെ
 ബ സ്
 ബി സിന
 വെളി പ്പെടുത്ത
 ജാമ ്യം
 ക ൗണ്
 അധിക ം
 ദിലീ പ്
ാ റ
ത് രാ
 സ് കൂ
 ബാ ങ്ക
 രോഗ ബാ
ധ ാന്
ൃ ത്തി
 കേസ ിലെ
 പ്രതിക രണ
ല ിക
 ഒരു പാട്
 സ്വദേശ ിയായ
ുകൊ ണ്ടു
 പോക ുന്നത്
 പേർ ക്ക്
 ഗ്രൂ പ്പ
വ രു
 ത ങ്ങള്
 ആ ദി
 കൊ ണ്ടി
 വ്യ വസ
 ട ിക്കറ്റ്
 കൂടു തല
 നെ ഗ
ന ീയ
ിക്ക പ്പെട്ട
ായ റാ
യാള െ
‍ ബ
‍പ്പെടെ യുള്ള
 കൊലപാത ക
‍ ഡിഎഫ്
 ച ൗ
 ബ ഹു
െയ ര്
ുണ്ട ായി
യ െന്ന്
ാ ദ
 വിജ യ്
 വിഷ യം
  ടു
അ വര്
രാ ശ
ബി ഗ്
 വൈ സ്
വിധ ായക
ക്ക ുകയായിരുന്നു
 അ ച്ഛ
 മാ റിയ
 മൂ ലം
 ശ്രമ ിച്ച
കേരള ത്തില്
 കുറ്റ പ്പെടുത്തി
വ ുന്ന
ത്ത ുള്ള
ില് യ
 തി രുവനന്തപു
 ഞ ങ്ങൾ
ുകയാ ണെന്ന്
ത മായ
 പ്ര മേ
ങ്ങള ിലേക്ക്
 വെ ബ്
 ഉദ്ഘാ ടനം
 നി മിഷ
യിലെ ത്തി
വ ോ
 ആ ഴ്ച
 ജീ വിതം
4 2
 ജില്ല യിൽ
 മണിക്കൂ റി
 മൊ ബൈ
 ദേ വ
 പ്ര വാസ
 സാ ന്നി
ക്ക ിൽ
 ക ണ്ടി
ക്കാ രെ
സ ുകള്
ായ ം
 കോ ർ
‍ ദ
 മ െയ്
ടി ന്
 ഡ ല്
ബരി മല
 ത ര്
ണ്ട ായിരുന്നു
തെ ല്ലാം
 ഫി റോ
ദ ിവ
ന ഗ
േ ല്
കൂ ടു
 കണ ക്ക്
േബ ്യ
ട ുന്ന
ള ജി
 പ ൗര
 അ തോ
 പരിച യ
ജ യ്
 വ ക
കു ള
ത്രി ക
‍ഷ ിക
 മ ൈ
 വീ ട്ടിൽ
 തുട ക്ക
തീ ഷ്
 പുരു ഷന്
ശ േഖ
ാന ാക
ത്യ സ്ത
ഹി തം
ായ ാലും
‍ക്ക ു
 രാജ ിവെ
ിക്ക ല്
 ര ഹ
 പു ര
രുടെ യും
 നില നില്
 അറിയി ച്ചത്
 മേധ ാവി
6 5
 ആ ന്റ
താ ര
മി ന്
 പ്രസിഡ ന്റ
 റെ യില്
 വിദഗ് ധ
സ ന്
ത്ത രം
 ഏ ത്
ദി ന
‍ണ ായക
 വയ സ
 കണ ക്കാ
 തെരഞ്ഞെടു പ്പ്
 മ തി
െടു പ്പ്
ത്തിന്റെ യും
