{"\n":0," ":1,"!":2,"\"":3,"#":4,"$":5,"%":6,"&":7,"'":8,"(":9,")":10,"*":11,"+":12,",":13,"-":14,".":15,"/":16,"0":17,"1":18,"2":19,"3":20,"4":21,"5":22,"6":23,"7":24,"8":25,"9":26,":":27,";":28,"<":29,"=":30,">":31,"?":32,"@":33,"A":34,"B":35,"C":36,"D":37,"E":38,"F":39,"G":40,"H":41,"I":42,"J":43,"K":44,"L":45,"M":46,"N":47,"O":48,"P":49,"Q":50,"R":51,"S":52,"T":53,"U":54,"V":55,"W":56,"X":57,"Y":58,"Z":59,"[":60,"\\":61,"]":62,"_":63,"`":64,"a":65,"b":66,"c":67,"d":68,"e":69,"f":70,"g":71,"h":72,"i":73,"j":74,"k":75,"l":76,"m":77,"n":78,"o":79,"p":80,"q":81,"r":82,"s":83,"t":84,"u":85,"v":86,"w":87,"x":88,"y":89,"z":90,"{":91,"}":92,"":93,"£":94,"¥":95,"°":96,"³":97,"·":98,"¼":99,"½":100,"¾":101,"×":102,"â":103,"ñ":104,"ڇ":105,"ڈ":106,"ډ":107,"ं":108,"अ":109,"आ":110,"इ":111,"ए":112,"औ":113,"क":114,"ग":115,"च":116,"ज":117,"ट":118,"ठ":119,"ण":120,"त":121,"थ":122,"द":123,"ध":124,"न":125,"प":126,"ब":127,"भ":128,"म":129,"य":130,"र":131,"ल":132,"व":133,"श":134,"ष":135,"स":136,"ह":137,"ा":138,"ि":139,"ी":140,"े":141,"ो":142,"ौ":143,"्":144,"।":145,"ং":146,"ব":147,"ল":148,"া":149,"அ":150,"ஆ":151,"க":152,"ச":153,"ட":154,"ண":155,"த":156,"ன":157,"ப":158,"ம":159,"ய":160,"ல":161,"வ":162,"ி":163,"ீ":164,"ு":165,"ெ":166,"ை":167,"்":168,"ം":169,"ഃ":170,"അ":171,"ആ":172,"ഇ":173,"ഈ":174,"ഉ":175,"ഊ":176,"ഋ":177,"ഌ":178,"എ":179,"ഏ":180,"ഐ":181,"ഒ":182,"ഓ":183,"ഔ":184,"ക":185,"ഖ":186,"ഗ":187,"ഘ":188,"ങ":189,"ച":190,"ഛ":191,"ജ":192,"ഝ":193,"ഞ":194,"ട":195,"ഠ":196,"ഡ":197,"ഢ":198,"ണ":199,"ത":200,"ഥ":201,"ദ":202,"ധ":203,"ന":204,"പ":205,"ഫ":206,"ബ":207,"ഭ":208,"മ":209,"യ":210,"ര":211,"റ":212,"ല":213,"ള":214,"ഴ":215,"വ":216,"ശ":217,"ഷ":218,"സ":219,"ഹ":220,"ാ":221,"ി":222,"ീ":223,"ു":224,"ൂ":225,"ൃ":226,"െ":227,"േ":228,"ൈ":229,"ൊ":230,"ോ":231,"ൌ":232,"്":233,"ൗ":234,"ൡ":235,"൦":236,"൪":237,"൯":238,"ൺ":239,"ൻ":240,"ർ":241,"ൽ":242,"ൾ":243,"ൿ":244,"‌":245,"‍":246,"‐":247,"‑":248,"‟":249,"•":250,"″":251,"€":252,"₹":253,"⃣":254,"∙":255,"▪":256,"◼":257,"◾":258,"♀":259,"♥":260,"✌":261,"✨":262,"❓":263,"❤":264,"➡":265,"⬛":266,"ブ":267,"ム":268,"ラ":269,"ル":270,"ー":271,"南":272,"容":273,"湘":274,"美":275,"":276,"︎":277,"️":278,"🌹":279,"🎖":280,"🏻":281,"🐟":282,"👇":283,"👉":284,"👌":285,"👏":286,"💎":287,"💚":288,"🔘":289,"🔥":290,"🔸":291,"🖤":292,"🗃":293,"😄":294,"😍":295,"😘":296,"🙄":297,"🙏":298,"🚩":299,"🤔":300,"🤝":301,"🤣":302,"🤦":303,"🥛":304,"🥦":305,"ന്":306,"ക്":307,"ത്":308,"ന്ന":309,"ക്ക":310," പ":311,"തി":312,".\n":313,"ണ്":314,"ല്":315," ക":316,"ട്":317,"ും":318," സ":319," വ":320,"യി":321,"ര്":322," ന":323,"പ്":324," മ":325,"ച്":326,"ുന്ന":327,"രി":328," അ":329,"മാ":330,"ത്തി":331,"ങ്":332,"്ര":333,"സ്":334,"ള്":335,"ട്ട":336,"്യ":337,"റ്":338,"ത്ത":339,"പ്പ":340,"ച്ച":341,"ിയ":342," എ":343,"ാണ്":344," ത":345,"ങ്ങ":346,"ടെ":347,"ില്":348,"ുക":349,"ില":350,"ിക്ക":351," ആ":352," ച":353,"രു":354," ഇ":355," പ്ര":356,"റ്റ":357,"രാ":358,"ഞ്":359,"ാന":360,"ുന്നു":361,"ക്ക്":362," വി":363,"ടു":364,"ന്ന്":365,"ള്ള":366,"ായി":367,"റെ":368,"ിച്ച":369," ബ":370,"വി":371,"െയ":372," ഉ":373," ജ":374," നി":375,"മ്":376," സ്":377,"ണ്ട":378,"ക്ഷ":379,"ിക":380,"ഞ്ഞ":381,"യു":382,"െന്ന":383,"ന്റെ":384,"ക്കാ":385,"റി":386,"രുന്നു":387,"സി":388,"ല്ല":389,"ദ്":390," ര":391,"ുള്ള":392,"ങ്ങള":393,"ദേ":394," ശ":395,"ില്ല":396," ഒ":397,"ണ്ട്":398,"ായ":399,"ടി":400,"ന്ത്":401,"ാര്":402,"പ്പെ":403," ല":404," കോ":405,"രിക്ക":406,"മായി":407,"ുന്നത്":408," സം":409," എന്ന":410," പറ":411,"യും":412,"നി":413," മു":414,"രം":415,"വാ":416," നട":417," മാ":418,"പി":419,"യാ":420," ചെയ":421,"യില":422,"ാല":423,"ണം":424,"യില്":425,"ങ്ക":426," പി":427,"രെ":428," കു":429,"ുടെ":430," നേ":431,"ത്ത്":432,"യം":433," പോ":434,"ുമ":435,"നെ":436," രാ":437,"െന്ന്":438,"ാന്":439,"േഷ":440," കേ":441," ഗ":442,"ച്ച്":443,"ദേശ":444,"തു":445,"ോഗ":446,"സ്ഥ":447,"താ":448,"ത്ര":449,"ട്ടി":450,"ങ്ങള്":451," ഭ":452,"മ്പ":453,"ത്തില്":454,"ിവ":455,"ന്ദ":456,"ാര":457,"െന്നും":458,"മ്മ":459," ദ":460,"ത്തെ":461,"ഡി":462,"െടു":463,"റ്റ്":464,"ത്തില":465,"യാണ്":466,"വര്":467,"ഡ്":468,"ംഗ":469," കൊ":470,"പ്പോ":471,"നം":472,"ിൽ":473," സാ":474,"വും":475,"ഷ്":476,"മാണ്":477,"ുകള":478," പു":479,"ട്ട്":480,"ട്ടു":481," തി":482,"ായിരുന്നു":483,"്യാ":484," പറഞ്ഞ":485,"യ്":486,"ഗ്ര":487,"രിച്ച":488," പേ":489," ഒരു":490," സി":491,"മായ":492,"ഴി":493,"മു":494,"ന്ത്രി":495,"‍ക്ക":496," സ്വ":497,"ാല്":498,"ന്ത":499," കൂ":500," പ്രതി":501,"ീക":502," സ്ഥ":503,"ക്കി":504,"ധി":505," ഫ":506,"യുടെ":507,"ദ്യ":508," ഹ":509," തു":510,"ശ്":511,"കു":512," ബി":513,"സ്ഥാന":514,"യിൽ":515,"ാം":516,"മി":517," ഏ":518," ചെയ്":519,"നാ":520,"ലി":521," അവ":522,"ങ്ങൾ":523,"സം":524,"വ്":525," വാ":526,"ന്ദ്ര":527," കാ":528,"ത്തിയ":529,"ിലെ":530,"നു":531,"പ്ര":532,"കള":533," പരി":534,"ധ്യ":535,"‍ക്ക്":536,"ഴ്":537," വീ":538,"ിലും":539,"ക്ത":540,"പ്പ്":541,"ക്ര":542,"േക്ക്":543," റ":544," തന്ന":545,"ത്തിന്":546,"ിച്ചു":547,"ത്തിൽ":548," ഓ":549,"ാഗ":550,"ണി":551,"ികള":552,"രണ":553,"രുന്ന":554,"‍ക":555,"ലീ":556," പറഞ്ഞു":557,"റ്റി":558,"ദേഹ":559,"ാവ":560," ഡ":561," ഈ":562,"േണ്ട":563,"രോ":564,"ന്നും":565,"ുകള്":566,"ദ്ധ":567," തുട":568," വ്യ":569," സു":570,"ൂര്":571,"ടിയ":572,"ഫ്":573," സമ":574,"ജി":575,"ണ്ടെ":576," ചെയ്യ":577,"ിച്ചി":578," വെ":579,"ോടെ":580,"ദ്ദേഹ":581,"എന്ന":582,"മന്ത്രി":583,"മാന":584,"ത്തിന്റെ":585,"ജെ":586," (":587,"പാ":588," നല്":589,"ിക്കുന്ന":590,"അത":591," രാജ":592,"രീ":593,"രള":594,"20":595,"രും":596,"ാൻ":597,"ട്ടുണ്ട്":598,"രഞ്ഞ":599,"ാര്യ":600,"ടുത്ത":601," പറയ":602,"‍ത്ത":603,"യിലെ":604,"ന്ധ":605,"രുടെ":606,"വർ":607,"ശ്യ":608,"െങ്ക":609,"രഞ്ഞെടു":610," നിയ":611," തന്നെ":612," യു":613,"ളി":614," യ":615," പാ":616,"റിയ":617,"ഴിഞ്ഞ":618,"ഖ്യ":619," കെ":620,"കാ":621,"‍ഗ്ര":622,"ണമ":623,"ുവ":624,"ക്കും":625,"ഞ്ച":626," തീ":627,"ന്ത്യ":628,"ക്കുന്ന":629," ജില്ല":630," അദ്ദേഹ":631," നിന്ന്":632,"‍,":633,"തിന്":634,"ത്യ":635,"സമ":636,"പു":637,"ജ്":638,"ോട്":639,"െന്നാണ്":640,"ിയുടെ":641,"ബി":642," രൂ":643," ലഭ":644,"ുമായി":645,"ോട്ട":646,"ാക":647," നേതാ":648," റി":649,"ത്സ":650," സര്":651,"വന":652," എം":653,"ുകയാണ്":654," നില":655," ശ്ര":656,"ണ്ണ":657,"തിന":658," സംസ്ഥാന":659,"ുപ":660,"ാമ":661,"റിയി":662,"തിയ":663,"ദി":664,"‍ക്കാ":665," പൊ":666,"വശ്യ":667,"പ്പെട്ട":668," ഉണ്ട":669," കോണ്":670," പുറ":671,"തെ":672,"ല്ലാ":673,"ര്യ":674,"ത്ഥ":675," സെ":676,"കോ":677,"ധാന":678,"സ്റ്റ":679,"േഖ":680," രൂപ":681,"ാക്ക":682," ജോ":683,"ലിയ":684,"ച്ചി":685,"ുകയും":686,"അതേ":687,"ിച്ചത്":688,"വേ":689," ആവശ്യ":690,"ന്നി":691,"ുകൾ":692,"ത്രി":693,"തിരെ":694,"ബ്":695,"സമയം":696," സീ":697,"ഭവ":698,"പക്ഷ":699," വ്യക്ത":700," ബിജെ":701," നിയമ":702," ബാ":703," കേന്ദ്ര":704,"രേ":705,"വിഡ്":706,"മേ":707," ദിവ":708,"‍ഷ":709," സ്വദേശ":710,"കള്":711,"അതേസമയം":712,"സഭ":713," ഷ":714," കുറ":715,"തൃ":716,"നും":717,"്യാപ":718,"ത്വ":719,"ികള്":720," തിരഞ്ഞെടു":721," വേ":722," തെ":723,"പ്പെട":724,"പ്പിക്ക":725," ട":726," ഇന്ത്യ":727,"യെ":728,"ക്കു":729," നിര്":730," വിജ":731," പേര്":732," മുന്ന":733,"ലീസ്":734,"െയാണ്":735,"താണ്":736,"ളം":737," അദ്ദേഹം":738," ജന":739," ക്":740," സംഘ":741," ഇട":742,"ഗ്":743," ആശ":744,"ത്തു":745,"ുകയ":746,"എന്നാല്":747,"ധിക":748,"െയും":749,"യിരുന്നു":750," കേരള":751," മൂ":752,"പ്പി":753,"ന്റ":754," ഞ":755," മോ":756,"ാൽ":757,"എസ്":758,"ഖ്യമന്ത്രി":759," എന്ന്":760,"സാ":761,"രിക്കുന്നത്":762,"ൊരു":763," അറിയി":764,"ഷ്ട്":765,"ച്ചു":766,"തീ":767,"ന്റ്":768," സർ":769,"യ്ക്ക്":770,"00":771," മന്ത്രി":772," രോഗ":773," അഭ":774,"ക്കെ":775," കാര്യ":776," എന്നിവ":777," റിപ്പോ":778,"ൂർ":779," നാ":780,"ഹി":781," ഡി":782,"ലെ":783,"തോടെ":784," ഉപ":785,"ീകരിച്ച":786,"ടതി":787," വൈ":788," ചോ":789," ലക്ഷ":790," വര്":791," ശേഷ":792,"ന്നു":793," വ്യക്തമാ":794," സ്ഥാന":795," കി":796," രാജ്യ":797,"രണം":798,"ിക്കാ":799," നടത്ത":800," വലിയ":801,"ൽക":802,"‍.\n":803,"ലും":804,"ംഗ്":805,"ോധ":806,"തല്":807," നീ":808," അനു":809,"മെ":810,"ഴ്ച":811,"കെ":812," ബന്ധ":813," കാണ":814,"ഷ്യ":815,"ണ്ടു":816," പരാ":817," അന്":818,"ക്രമ":819,"രിയ":820," പെ":821,"ങ്ങളുടെ":822,"വേഷ":823," നൽക":824,"ക്കാന്":825,"കേ":826," ചി":827,"‍ഗ്രസ്":828," പിന്ന":829,"പ്പെടു":830,"ലം":831,"ലാ":832,"സ്റ്റ്":833," നിന്നും":834," സ്വദേശി":835,"യൂ":836,"മാനം":837,"ങ്ങളില്":838,"ങ്ങളും":839,"ത്തിലെ":840," പരിശ":841," ട്":842,"കര്":843,"എം":844,"..":845,"ടും":846,"രോഗ":847," ഏറ്റ":848,"പ്പു":849,"നേ":850," സഹ":851,"ിയും":852,"ൂടെ":853," കഴിഞ്ഞ":854," മുഖ്യമന്ത്രി":855,"പ്പോള്":856,"ടക്ക":857," പാര്":858," വില":859," പ്രവര്":860,"ിക്കും":861,"വീ":862,"യുള്ള":863,"െങ്കിലും":864,"ിര":865,"ങ്ങിയ":866," ബിജെപി":867," ഉയ":868,"ാരണ":869," ജീ":870,"ലോ":871," കേസ":872,"‍ത്തി":873," ഐ":874,"ഷ്ട":875," ചെയ്ത":876," ലോ":877,"ഡിയ":878," തീരു":879,"വര":880,"ീയ":881," മാത്ര":882,"പോ":883," -":884,"ക്ട":885," ചേ":886,"ഡിഎ":887,"മ്പോ":888," അതി":889," കൂടു":890," സാധ":891,"ാനുള്ള":892,"ക്കള":893,"രായ":894,"ുകൊ":895," പങ്ക":896,"),":897,"വരെ":898,"വിടെ":899,"ണ്ഡ":900," യാ":901,"സിന്":902," മത്സ":903,"ാർ":904,"ിയെ":905,"ണെന്ന്":906,"ുകയായിരുന്നു":907," അഭി":908," പറയുന്നു":909,"മുള്ള":910,"യോഗ":911,"ിലേക്ക്":912," സംഭവ":913," ഭാഗ":914," നിന്ന":915," അപ":916," ധ":917,"ൂരി":918," കാല":919,"‍ച്ച":920,"റോ":921,"ത്രം":922,"കൂ":923,"കൊ":924," നടപ":925,"ട്ടില്ല":926," മെ":927,"കൾ":928," കൈ":929,"ങ്ങി":930," നേതൃ":931," എസ്":932," പരിശോധ":933," വന്ന":934,"പെ":935," പ്രധാന":936,"മാര്":937," ചെ":938,"ഭാഗ":939,"ുപത്രി":940," തോ":941,"ത്തര":942," നിര":943,"റു":944," അന":945," വേണ്ട":946," കഴ":947,"ന്തപു":948," എന്നാണ്":949,"ൺഗ്ര":950,"‍ത്ഥ":951,"‍ണ":952,"രിക്കുന്ന":953,"ിക്കുന്നത്":954," ശ്രമ":955,"‍സ":956,"രുവന":957,"ഹു":958," ന്":959," അന്വേഷ":960,"രുവനന്തപു":961," ആണ്":962,"വണ":963," നേതൃത്വ":964," നിർ":965,"ഹാ":966,"ടന":967," സർക്കാ":968," നടത്തിയ":969,"‍ട്ട":970," ഗ്ര":971," ആരോ":972,"‍ശ":973,"ാനും":974,"ികൾ":975,"പ്പം":976," വർ":977,"ല്ലാം":978," പിന്":979,"രീക്ഷ":980,"ാപ":981," കട":982,"ുണ്ട":983,"‍ക്കാര്":984," സൂ":985," സ്ഥിര":986,"ക്കിയ":987," ആശുപത്രി":988,"ക്തി":989,"തായി":990," ശേഷം":991,"ണിക്ക":992," അധിക":993," പോലീസ്":994,"ുമെന്ന്":995,"ഷ്ട്രീ":996," ഡോ":997," ആദ്യ":998," അവസ":999,"ൈന":1000,"ങ്ങളെ":1001,"ടക":1002," കണ്ടെ":1003,"പ്പെടുത്ത":1004,"ബു":1005,"രത്തെ":1006," പ്രഖ":1007,"ധ്യത":1008," ചെയ്തു":1009," ബോ":1010," സാഹ":1011," അംഗ":1012,"ുള്ളത്":1013,"തും":1014," പ്":1015,"‍ക്കും":1016,"ണെന്നും":1017," ഉറ":1018," കോടതി":1019,"നോ":1020," വരെ":1021,"ക്ഷേ":1022,"തില്":1023,"രിക്കുകയാണ്":1024,"19":1025," സീറ്റ":1026," യോഗ":1027,"രക്ഷ":1028,"രിക്കും":1029," സാഹച":1030," മാറ്റ":1031," ആരോപ":1032,"ക്കാൻ":1033," തിരിച്ച":1034,"‍ട്ടി":1035,"േഖല":1036," ജെ":1037," പല":1038,"ാത്ത":1039," കോൺഗ്ര":1040,"സിന്റെ":1041," പുതിയ":1042,"നിയ":1043," കമ്മ":1044," റിപ്പോര്":1045,"രോഗ്യ":1046,"ുന്നുണ്ട്":1047," പ്രഖ്യാപ":1048,"ൊഴ":1049," രണ്ട്":1050," ശത":1051,"ത്തിന":1052," പാർ":1053," മറ്റ":1054,"ക്കുന്നത്":1055," വ്യക്തമാക്കി":1056," ചില":1057," അത്":1058,"തല":1059," പ്രതിക":1060," താ":1061," മണ്ഡ":1062,"േധ":1063,"തം":1064," ഏറ്റവും":1065,"േറ്റ":1066,"10":1067,"ശി":1068,"േരി":1069,"ഷ്ട്രീയ":1070,"മോ":1071,"തൽ":1072,"‍സ്":1073," മറ":1074," വകു":1075,"പ്പോഴ":1076," ചെയ്തി":1077,"‍പ്പ":1078," സൗ":1079," രംഗ":1080," എത്തി":1081," ദിവസം":1082,"ോട്ട്":1083,"?\n":1084," ദിവസ":1085," ഇത്":1086,"ളള":1087,"201":1088," പാല":1089,"ദ്ദേശ":1090,"യിലേക്ക്":1091,"രുവനന്തപുരം":1092,"ിന്":1093,"‍ന്ന":1094," പോക":1095," വയ":1096,"ദ്ധതി":1097,"േക്ഷ":1098,"ക്കം":1099," എന്നും":1100," നേരി":1101,"ീഷ":1102,"ബാ":1103,"രുന്നത്":1104," സ്റ്റ":1105,"ങ്ങനെ":1106,"രാജ":1107," ശക്ത":1108,"റാ":1109,"ക്കോ":1110," എന്":1111,"സര്":1112,"വാസ":1113," സാധ്യത":1114,"വെ":1115,"കഴിഞ്ഞ":1116," എല്ലാ":1117," മല":1118," വള":1119,"ിലാണ്":1120," പ്രവർ":1121,"ങ്ങളിൽ":1122,"ുകളും":1123,"ത്തിലാണ്":1124,"ഞ്ച്":1125,"േഷ്":1126," ഗു":1127," തീരുമാന":1128,"തെന്ന്":1129,"രാണ്":1130," നടന്ന":1131," സോ":1132,"ചി":1133," മേഖല":1134,"തെന്നും":1135,"ിന്റെ":1136,"നെതിരെ":1137,"രിച്ച്":1138," ഇന്ന്":1139,"സ്സ":1140,"റായി":1141," അറ":1142," പരാതി":1143,"ത്തിയത്":1144,"സിഡ":1145,"േയും":1146,"യിട്ടുണ്ട്":1147,"ണാ":1148,"‍കി":1149,"ഫീ":1150,"എന്നാൽ":1151,"ൃത":1152,"‍ട്ട്":1153,"ാനി":1154," പദ്ധതി":1155," പിട":1156,"വിധ":1157,"പ്പെടുത്തി":1158," വിഭാഗ":1159," സ്ഥിരീകരിച്ച":1160,"ള്ളി":1161,"ിച്ചിരുന്നു":1162,"വാദ":1163,"മല്ല":1164," വിഷ":1165,"മുണ്ട":1166,"‍ഡ്":1167,"‌സ്":1168,"ുമെന്നും":1169,"വില്":1170,"രംഭ":1171,"ാരണം":1172," രാഷ്ട്രീയ":1173," ദു":1174," സാഹചര്യ":1175," ആരോഗ്യ":1176," പ്രച":1177,"സഭാ":1178,"ോ":1179,"യ്യാ":1180," കൂട്ട":1181,"യ്ക്ക":1182," ഫോ":1183,"ുണ്ട്":1184,"േക്ക":1185," ജില്ലാ":1186," മി":1187,"പ്പോൾ":1188,"നിടെ":1189,"യാള":1190,"ടുംബ":1191,"കർ":1192,"ൂഹ":1193,"ായിരുന്ന":1194,"ാതെ":1195,"ഒരു":1196,"ിലാ":1197," റോ":1198," നടത്തി":1199,"ൊപ്പം":1200," സിപി":1201,"ക്രട്ട":1202,"ക്കള്":1203," തല":1204,"യോ":1205," വോട്ട":1206," പ്രശ്":1207,"െയ്":1208," പിന്തു":1209," സമ്പ":1210,"ജീ":1211,"‍\n":1212,"‍ന്ന്":1213,"‌ന":1214,"ഷേധ":1215," നോ":1216,"ിക്കുന്നു":1217,"സിന":1218,"മായിരുന്നു":1219,"‍റെ":1220," ഉപയോഗ":1221," വിദ":1222,"തീക്ഷ":1223,"ണ്ടി":1224," ഉള്ള":1225,"ുകളില്":1226,"വരുടെ":1227," വിജയ":1228," വിമ":1229,"യിലാണ്":1230," ആള":1231," മണ്ഡല":1232," ആയി":1233,"കേരള":1234," തിരഞ്ഞെടുപ്പ":1235,"ന്ധി":1236," തയ്യാ":1237," കള":1238," ഉദ്യ":1239," സെക്രട്ട":1240," കൂടി":1241,"ധ്യമ":1242,"സു":1243,"തിന്റെ":1244," പ്രസിഡ":1245,"െങ്കില്":1246,"രുത്ത":1247,"ിക്കാന്":1248,"ണ്ടും":1249,"ബന്ധ":1250,"ാസ്":1251,"ീതി":1252," സ്ഥാപ":1253," ടി":1254,"ണിയ":1255,"ംബ":1256,"ട്ടിയ":1257,"മ്പ്":1258,"ര്യം":1259,"രേന്ദ്ര":1260,"ർത്ത":1261,"ഇത്":1262,"സില്":1263,"നിക്ക്":1264,"മാർ":1265,"ീപ":1266," വാക്":1267," അറിയിച്ചു":1268,"രില്":1269,"15":1270," മന":1271," ഉള്":1272,"ണമെന്ന്":1273,"മില്ല":1274,"ുവി":1275," പുറത്ത":1276,"ഴിക്ക":1277," കൊവിഡ്":1278,"എല്":1279,"ധ്യക്ഷ":1280,"202":1281,"യിലും":1282,"ച്ചത്":1283," മുന്":1284," തൃ":1285," ചോദ്യ":1286," കോവിഡ്":1287,"ചന":1288," ആര്":1289," ഓഫീ":1290,"വധി":1291,"നില":1292," കണ്ണ":1293,"യായ":1294," പറയുന്നത്":1295," രാഹു":1296," മീ":1297," കണ":1298,"്യം":1299,"ികി":1300,"േക":1301," അടി":1302," റെ":1303,"ികളുടെ":1304,"കട":1305," തട":1306,"രന്":1307,"ർച്ച":1308," കോടി":1309,"േഷന്":1310," വിശ":1311," അട":1312," കൂടുതല്":1313,"ാനാണ്":1314,"സിൽ":1315,"റും":1316,"ദ്ദ":1317," ഗാന്":1318," ഖ":1319," ഹൈ":1320,"പ്പെട്ടു":1321," പിന്തുണ":1322,"റിച്ച്":1323," ഗോ":1324,"വുമായി":1325," മേ":1326,"‍കിയ":1327,"ിന":1328,"ൊക്കെ":1329,"ോഷ":1330,"ഞ്ഞ്":1331,"പ്പാ":1332,"നിമ":1333," കുടുംബ":1334,"12":1335,"രോധ":1336," പോലും":1337," പ്രത്യ":1338," പഞ്ച":1339,"ികിത്സ":1340,"മാക":1341,"ർശ":1342,"ഗോ":1343,"വാഹ":1344,"‍മാ":1345," തുടര്":1346," പങ്കെടു":1347," പിന്നാല":1348," തുടങ്ങിയ":1349," പരിശോധന":1350," കഴിയ":1351," ഇറ":1352," സമയ":1353,"ാക്കിയ":1354,"ത്തും":1355," ചര്":1356," ഘ":1357," കാര്":1358,"‍ഡ":1359,"ജന":1360,"തിനെ":1361," കരു":1362," രോഗം":1363,"കാശ":1364," ബാധ":1365,"ൻ്":1366," മുതല്":1367," യാത്ര":1368,"പ്പെടെ":1369,"ഷ്ണ":1370," ചിത്ര":1371,"റില്":1372," നിലപാ":1373,"ോഗ":1374," ആരംഭ":1375," ഇതു":1376," കൃ":1377," സർക്കാർ":1378,"യില്ല":1379," ഭരണ":1380," ചികിത്സ":1381," യൂ":1382," അധ്യക്ഷ":1383,"ീസ്":1384,"തിരുവനന്തപുരം":1385," ചെയ്യുന്ന":1386," ആക്രമ":1387,"സ്ത":1388," കോള":1389,"ായ്":1390,"പ്പെട്ടി":1391," പ്രതീക്ഷ":1392,"്യൂ":1393," റിപ്പോർ":1394," തൊഴ":1395,"ിച്ച്":1396,"30":1397," ചോദ":1398,"വിലെ":1399,"സർ":1400," കൊണ്ട്":1401," ചൂ":1402," ഇത്ത":1403," രണ്ട":1404,"ികളെ":1405,"ായത്":1406," മാത്രം":1407," തുറ":1408,"11":1409," തിരഞ്ഞെടുപ്പ്":1410," പര":1411,"ില്ലി":1412,"യായി":1413," പൊലീസ്":1414,"കര":1415,"ുകൊണ്ട്":1416," വീട്ട":1417,"ൂല":1418," കൊണ്ടു":1419,"മ്പോള്":1420,"വദ":1421,"‍വ":1422," കോൺഗ്രസ്":1423,"ഹ്":1424,"‍പ":1425," വിള":1426," മൂന്ന്":1427," വാര്":1428," പ്രത്യേക":1429,"ാണ":1430," ടെ":1431,"പ്രതി":1432," അടക്ക":1433,"ുമാണ്":1434," സ്വാ":1435," വേണ്ടി":1436,"രിക":1437,"ുമെന്നാണ്":1438,"ഭാ":1439,"മീ":1440," പ്രതിഷേധ":1441," മാധ്യമ":1442," കുറ്റ":1443," ശതമാനം":1444,"ഴിക്കോട്":1445,"നില്":1446,"ണമെന്നും":1447,"പ്പെട്ട്":1448," സംസാ":1449,"ഡിയോ":1450,"ദേശീയ":1451,"പ്പിച്ച":1452," മണിക്ക":1453," അറിയ":1454,"വിട":1455,"ഴു":1456,"സംസ്ഥാന":1457,"റിന്റെ":1458,"ട്ടും":1459," പ്രധാനമന്ത്രി":1460," നേതാക്കള":1461,"ിരുന്നു":1462,"വന്":1463,"ഡിഎഫ്":1464," ലീ":1465," പ്രതിപക്ഷ":1466," നേതാവ്":1467,"ർന്ന":1468,"കാരം":1469,"വിത":1470,"െതിരെ":1471,"ങ്ങളാണ്":1472,"മല":1473," പേർ":1474,"കാര്യ":1475," കര്":1476," ഉയര്":1477,"ിയാണ്":1478,"ുകളുടെ":1479,"ട്ടം":1480,"നായ":1481," പ്രവർത്ത":1482,"ഷ്ട്ര":1483,"ാലും":1484," പ്രദേശ":1485," രീതി":1486," തേ":1487,"‍ക്കാരി":1488,"കി":1489," സ്ത്ര":1490," വര":1491," ലക്ഷം":1492,"24":1493,"ണ്ടെന്നും":1494," വർഷ":1495," അവര്":1496," വരു":1497," എടു":1498,"50":1499,"മായും":1500," പട്ട":1501,"ാലി":1502," കൊല്ല":1503," നിന്നുള്ള":1504,"പരി":1505," ജി":1506," വിദ്യാ":1507,"..\n":1508," രേഖ":1509,"ഡിക്ക":1510," മരണ":1511," മാന":1512," ഒന്ന":1513," ഉത്തര":1514," വീണ്ടും":1515," വിശ്":1516,"നാട്":1517,"ങ്ങൾക്ക്":1518," സ്ഥാനാര്":1519," സമീപ":1520,"14":1521," ബിജെപ":1522,"പ്പുറ":1523,"ക്കുന്നു":1524," ഉന്ന":1525,"ബൈ":1526," അയ":1527,"കം":1528," നിരീക്ഷ":1529,"മെന്റ്":1530," കണ്ട":1531,"സ്യ":1532," മുൻ":1533,"ീട്":1534,"ീം":1535,"ീകരിക്ക":1536," ചേര്":1537,"ത്തിലും":1538,"ത്തോടെ":1539,"നാണ്":1540," മറ്റ്":1541,"ണ്ടെന്ന്":1542," വിജയി":1543,"...\n":1544,"ിച്ചിട്ടുണ്ട്":1545," ഉൾ":1546," കുട്ട":1547," വഴി":1548," മരിച്ച":1549,"ുകയാ":1550," അനുവദ":1551," ശ്രദ്ധ":1552,"രുവ":1553,"കാര":1554,"ണറായി":1555,"ിലൂടെ":1556,"ഇന്ത്യ":1557,"തേ":1558," മൊ":1559,"പര":1560,"ഡിഎഫ":1561,"ഇതോടെ":1562,"സ്വ":1563,"വിൽ":1564," പൂര്":1565," ഒരാ":1566," നഷ്ട":1567," കയ":1568," മാത്രമാണ്":1569," സുരക്ഷ":1570,"അതി":1571,"ൈന്":1572,"ത്തോ":1573,"വസ":1574," സേ":1575," എല്":1576,"മുഖ":1577," ഇപ്പോള്":1578,"ൻ്റെ":1579," ക്യാ":1580,"സോ":1581," നഗ":1582,"വരം":1583,"ജന്":1584," ജോലി":1585," സെക്രട്ടറി":1586," നമ്മ":1587," സമ്മ":1588," വൈറ":1589," വിഷയ":1590," എന്ത":1591," വിവര":1592," സിനിമ":1593," ബു":1594," വകുപ്പ്":1595,"18":1596,"മാണ":1597," നേരത്തെ":1598,"ത്തിക":1599," പൂ":1600," വിമാന":1601," എത്ത":1602," പ്രവേ":1603,"പിന്ന":1604,"ന്തര":1605,"ാഴ്ച":1606,"ിലുള്ള":1607," നടപടി":1608," ഉട":1609,"ഷന്":1610,"നങ്ങള്":1611,"ുകളാണ്":1612,"ൊന്നും":1613," അപേക്ഷ":1614,"േക്കും":1615,"ഷി":1616,"കളും":1617,"ദേശം":1618," ഹാ":1619," പ്രാ":1620,"ുമതി":1621,"ഗ്രഹ":1622,"സും":1623," കാരണം":1624,"ായക":1625,"കളില്":1626,"േജ":1627,"മ്പത്തിക":1628,"െടുത്ത":1629,"13":1630," പരിഗ":1631," വ്യാപ":1632,"്രാ":1633," പഠ":1634," ചെയ്തത്":1635,"‍ഗ":1636," ചൂണ്ട":1637,"ുമെന്ന":1638," ഇവിടെ":1639,"ശ്ച":1640," കൂടിയ":1641,"പ്പോഴും":1642,"തായ":1643,"െയുള്ള":1644," നിയന്ത്":1645,"ങ്ങന":1646,"ത്തിലേക്ക്":1647,"!\n":1648," എന്നി":1649,"ാകും":1650,"േസ്":1651," കമ്പ":1652," അവസാന":1653,"ത്തിലുള്ള":1654,"മൂ":1655,"ക്ടര്":1656," എതി":1657," പഞ്ചായ":1658,"പ്പുഴ":1659,"‍എ":1660," പാർട്ടി":1661,"േണ്ടി":1662,"ികളും":1663,"ഫോ":1664," അന്വേഷണ":1665," മിക":1666,"ിക്കാൻ":1667,"റോണ":1668,"‍സി":1669,"തര":1670," പറഞ്ഞത്":1671,"‍ല":1672," കമ്മി":1673,"തുട":1674,"‍മ":1675,"ക്കാട്":1676,"ണ്ണം":1677," രക്ഷ":1678," '":1679," അടിസ്ഥാന":1680," വ്യാ":1681," വ്യക്തി":1682,"25":1683,"മെന്ന്":1684,"ഇതി":1685,"ബന്ധി":1686,"ട്രേ":1687,"ാർത്ഥ":1688," വിവിധ":1689," വരുന്ന":1690," വാഹ":1691,"തോ":1692," ചൂണ്ടിക്കാ":1693,"ുകളിൽ":1694," ദേശീയ":1695," ഇതുവരെ":1696," പിന്നാലെ":1697," മാസ":1698," നിരവധി":1699," മഴ":1700," പൊതു":1701," .\n":1702," പിണറായി":1703," നല്ല":1704,"അത്":1705," ,":1706," വിശദ":1707," കേസ്":1708," നെ":1709,"ിലീ":1710,"ഞ്ഞു":1711," ചോദ്യം":1712,"ആര്":1713,"ർത്ഥ":1714,"വൈ":1715,"മേരിക്ക":1716,"കോണ്":1717,"16":1718,"ജു":1719,"ന്ത്ര":1720,"ണമെന്ന":1721," മെഡിക്ക":1722," തന്റെ":1723," മറുപ":1724,"സിനെ":1725,"ബിജെ":1726,"17":1727,"‌സ":1728," താര":1729," വീഡിയോ":1730,"രിൽ":1731," തമ്മ":1732," മുതൽ":1733," വളരെ":1734,"രാഷ്ട്ര":1735," ചുമ":1736," സന്ദ":1737," മുസ്":1738,"േറ്റ്":1739," ഇവര്":1740,"ില്ലെന്ന്":1741," സംഘടന":1742,"ക്ഷേപ":1743,"ല്ലാവ":1744,"തിനായി":1745," വിവരം":1746," നടപട":1747,"സ്റ്റി":1748," സ്ഥല":1749,"ശ്ശ":1750,".എ":1751,"ീവ്":1752,"െങ്കിൽ":1753,"ർന്ന്":1754," കൂട":1755,"പ്പെടുന്ന":1756," തന്നെയാണ്":1757," ശ്രീ":1758," സഖ്യ":1759,"കുട്ട":1760," അടുത്ത":1761," സ്വന്ത":1762,"ിക്കുക":1763," ഷാ":1764," തവണ":1765," ആർ":1766,"മുണ്ട്":1767,"കുളം":1768,"ത്മ":1769," ഉദ്യോഗ":1770," മാര്":1771,"ക്കൾ":1772," തീരുമാനം":1773," സ്വദേശിനി":1774," ജീവന":1775," ശക്തമായ":1776," പോലീ":1777,"റണാ":1778," വെള്ള":1779,"ഹമ്മ":1780," എക്":1781,"ദം":1782," സമയം":1783,"ത്തേക്ക്":1784," ഇക്കാ":1785,"ടങ്ങ":1786,"ക്കാം":1787,"ിക്കു":1788," പുറത്ത്":1789,"ുമോ":1790," മോദി":1791,"നാഥ":1792," നൽകി":1793,"ഖ്":1794," പ്രസിഡന്റ്":1795,"ങ്ങളിലും":1796," ഞാന്":1797," നില്":1798,"രാജ്യ":1799," നേതാക്കള്":1800,"കാല":1801,"ജയ":1802," ബ്":1803,"ധാക":1804,"ശ്ര":1805,"‍ഷം":1806,"ഹൃ":1807,"ളെ":1808," പോയ":1809," ഒഴി":1810,"ില്ലെന്നും":1811," സിപിഎം":1812," ഇടപെ":1813,"കൃ":1814,"കസ":1815," ജാ":1816," ക്ര":1817," ലി":1818,"ദു":1819,"പ്രദേശ":1820,"നിര":1821,"ിയായ":1822,"ണ്ടാണ്":1823,"നിൽ":1824," അവരുടെ":1825," ജില്ലയില്":1826," അഭിപ്":1827," തെരഞ്ഞെടു":1828," വിലയി":1829," കോട്ട":1830,"തിയെ":1831," നഗര":1832," ആയിരുന്നു":1833,"ക്കാർ":1834," അവകാശ":1835," എത്തിയ":1836," കാരണ":1837," ഗാന്ധി":1838,"ബന്ധിച്ച്":1839," കൊടു":1840," വന്നി":1841," ഗ്രൂ":1842,".പി":1843," പണം":1844,"യുമായി":1845,"നേരത്തെ":1846," ഇല്ല":1847,"തിര":1848,"ലപ്പുഴ":1849," മീഡിയ":1850," മികച്ച":1851,"ാരി":1852," അവർ":1853,"കളുടെ":1854," ലഭിച്ച":1855,"റിന്":1856,"മ്പി":1857," സ്ഥാപന":1858,"ളിവ":1859,"‍ജി":1860," എണ്ണം":1861," ഉണ്ടായി":1862,"തിക":1863," സൂചന":1864,"‌സി":1865," രാഹുല്":1866," സീറ്റ്":1867,"ടം":1868,"മിതി":1869,"ിലി":1870," പരിപാ":1871," എന്നീ":1872," ലോക":1873,"വെന്നും":1874,"മ്പോൾ":1875," വോട്ട്":1876," നേരിട":1877," നാല്":1878," വിധ":1879," വഴ":1880,"റിൽ":1881," റിപ്പോർട്ട്":1882," യുവ":1883," ക്ഷ":1884," താമ":1885," നേതൃത്വം":1886,"േജ്":1887," അന്വേഷണം":1888," കണ്ടെത്ത":1889," കൂടുതൽ":1890,"ക്കാര്":1891," മണിക്കൂ":1892,"ട്ടുള്ളത്":1893," വിവാദ":1894,"‍ഥ":1895,"േഷൻ":1896," സാമ്പത്തിക":1897," സഹായ":1898," മഹാ":1899,"40":1900," ജനറ":1901," തിരഞ്ഞെടുപ്പില്":1902," ചർച്ച":1903," ദേ":1904,"യര്":1905,"ങ്ങളില":1906,"പ്പിക്കുന്ന":1907," ഇത്തവണ":1908,"ത്തിനും":1909," കൊല":1910," ഹി":1911,"വില":1912," കീ":1913,"കളെ":1914," ഒഴ":1915,"പ്പുറം":1916,"തിനാല്":1917,"വിധാന":1918,"ാനം":1919,"ഫി":1920,"സിസി":1921,"രിക്കാന്":1922," എംഎല്":1923," നാട്ട":1924," ലൈ":1925,"ട്ടിൽ":1926,"ീന":1927,"ട്ടാണ്":1928,"ിച്ചേ":1929," ബന്ധപ്പെട്ട":1930," അഞ്ച്":1931," വിദേശ":1932,"‍ത്തക":1933," സംസ്ഥാനത്ത്":1934,"ഷ്യല്":1935," ചെന്ന":1936,"23":1937,"ഇതിന്":1938,"ട്ടുള്ള":1939," പട്ടിക":1940," ഉറപ്പ":1941,"200":1942,"യ്യ":1943,"ങ്ക്":1944," രാശ":1945," വിമര്":1946,"േസ്ബു":1947," ഇല്ലാ":1948,"ഭ്യാ":1949," നൽകിയ":1950,"ക്കുക":1951,"പ്പെട്ടത്":1952,"രിച്ചു":1953,"നായി":1954," ഭൂ":1955,"ാക്കി":1956," പൂർ":1957," തര":1958," ബാല":1959,"പക്ഷേ":1960,"ക്കെതിരെ":1961," പരീക്ഷ":1962," ലോക്":1963," നിരീക്ഷണ":1964," മുഴ":1965," പ്രവ":1966," പ്രതിരോധ":1967,"മാക്കി":1968," വിദ്യ":1969," എൻ":1970,"ുളള":1971," കാര്യം":1972,"ക്ഷി":1973," ശിവ":1974," ജീവിത":1975," സുപ്ര":1976," കോഴിക്കോട്":1977," ഉദ്യോഗസ്ഥ":1978," അല്ല":1979," വിവാഹ":1980,"ബര്":1981,"പ്പറ":1982,"രുദ്ധ":1983," ജില്ലയിലെ":1984," സംവിധാന":1985," പോലെ":1986,"ിക്കുകയും":1987," നേടിയ":1988,"േള":1989," നടത്തുന്ന":1990,"ഇന്ന്":1991," നടക്കുന്ന":1992,"ലക്ഷ":1993,"ഷണ":1994," ഹൈക്കോ":1995,"22":1996,"വു":1997," ന്യൂ":1998,"ക്കിയത്":1999,"േയ":2000," വാങ്ങ":2001,"പ്പിന്":2002," ചെല":2003,"കളിൽ":2004," ജയ":2005," ല്":2006," ഇന്":2007,"േണ്ടത്":2008," മൂന്ന":2009,"പാല":2010,"ട്ടെ":2011,"ധികം":2012," ശതമാന":2013,"ദ്ധി":2014,"ോദ":2015," ഉന്നയി":2016,"ഘാ":2017,"ൻസ്":2018,"ാവി":2019," അറസ്റ്റ്":2020," പരിഹ":2021," രംഗത്തെ":2022," ഒഴിവാ":2023," ഘട്ട":2024," ലക്ഷ്യ":2025,"റണാകുളം":2026," മുമ്പ്":2027,"തിരഞ്ഞെടു":2028,"ജില്ല":2029,"പ്പില്":2030," കുറിച്ച്":2031,"േഴ്":2032,"ർഷ":2033,"യിരിക്കുന്നത്":2034,"ഹമ്മദ്":2035,"ഞ്ഞി":2036,"ലിന്":2037,"ത്തനം":2038,"പ്പള്ളി":2039," ലെ":2040," നീക്ക":2041," \"":2042,"പൊ":2043,"േന":2044," ഞാൻ":2045," അമ്മ":2046," നിയമസഭാ":2047,"ണ്ടെന്ന":2048,"ദാ":2049," രജി":2050," പോയി":2051,"യായിരുന്നു":2052," കമ്മീഷ":2053,"ങ്കിലും":2054," ആശങ്ക":2055," സുര":2056,"മര്":2057," ഇന്ന":2058," സംബന്ധിച്ച്":2059," ചൈന":2060," മാറ്റി":2061,"ത്തിലൂടെ":2062," ഭാഗമായി":2063,"ച്ചിരുന്നു":2064," തയ്യാറ":2065," മറ്റൊരു":2066,"എന്":2067,"ാള":2068," ചെയ്യാ":2069,"പ്പിച്ചു":2070,"ർക്ക":2071," നടപ്പ":2072,"തില":2073," സിംഗ്":2074,"‍പ്പെടെ":2075," സ്വര്":2076,"മിഴ്":2077," പോരാ":2078,"ൗണ്":2079," ഒറ്റ":2080," പ്രതിസ":2081," സുരേന്ദ്ര":2082," കാര്യങ്ങള്":2083,"ടിക്ക":2084,"ക്കൊ":2085," ൽ":2086,"മെന്നും":2087,"ിതി":2088,"വിന്":2089," സംശ":2090," അമേരിക്ക":2091," തിര":2092," ഇനി":2093," എഫ്":2094,"ണു":2095,"ക്കാര":2096,"മാന്":2097,"ിലാള":2098," മാസം":2099,"ാവും":2100," പേരാണ്":2101," പ്രിയ":2102," വിലയിരുത്ത":2103," എല്ലാവ":2104," സംബന്ധ":2105," പറഞ്ഞിരുന്നു":2106,"ിത":2107," പീ":2108,"യുണ്ട":2109," ശി":2110," ടീ":2111," നിലപാട്":2112," പരിഗണ":2113," അക":2114," ചെയ്തിരുന്നു":2115,"ല്യ":2116,"മത":2117," വരും":2118,"രുന്നില്ല":2119,"ിലോ":2120," അധികാര":2121," വികസ":2122,"ജോ":2123,"ങ്ങളിലെ":2124," മറുപടി":2125,"തിൽ":2126,"കണ്ണ":2127," കണക്ക":2128,"ധന":2129,"കേന്ദ്ര":2130," കൊറോണ":2131," അനുക":2132," ഇങ്ങനെ":2133,"ശം":2134," രംഗത്ത്":2135,"ദ്ര":2136," വന്":2137,"‌ക":2138,"രായി":2139,"ദില്ലി":2140," ഇരു":2141,"തിട്ട":2142," മുഖ":2143," ബെ":2144,"മാണെന്ന്":2145," അല":2146," അപകട":2147,"േദ":2148,"ൂര":2149," ഫേസ്ബു":2150," ഏറെ":2151,"ത്തനംതിട്ട":2152,"26":2153," ലാ":2154,"െടുക്ക":2155," ലഭ്യ":2156," നിയമസഭ":2157," ആഗ്രഹ":2158," എന്റെ":2159,"ജ്ഞ":2160,"ശേഷ":2161,"പ്പെടുന്നത്":2162,"ബ്ര":2163,"സെ":2164," ബന്ധപ്പെട്ട്":2165," പങ്കുവ":2166,"28":2167,"പാത":2168," ദി":2169," പ്രസ്":2170," പുന":2171,"ലില്":2172," നേട്ട":2173," നീക്കം":2174," അനുമതി":2175,"യുണ്ട്":2176," പറയാ":2177,"27":2178,"‍ദേശ":2179,"നത്തിന്":2180," ഭക്ഷ":2181," സ്വീകരിച്ച":2182," സ്വീക":2183," പോല":2184," കൊണ്ടുവ":2185," സന്ത":2186,"ടുക്കി":2187,"വ്വ":2188,"ധിപ":2189,"സീ":2190," നരേന്ദ്ര":2191," പ്രവർത്തി":2192,"റ്റര്":2193,"‍:":2194," കാലാവ":2195,"പ്പിന്റെ":2196,"‍ജ്":2197," യുവാ":2198," സംഭവം":2199," ചു":2200," വീട":2201," സർക്കാരി":2202,"ടേയും":2203,"ാനായി":2204," രാവിലെ":2205," ഓരോ":2206,"ണിത്":2207," വിത":2208," ഭൂരി":2209,"തെന്നാണ്":2210,"ുകളെ":2211,"യോടെ":2212," കമ":2213,"ിയോ":2214," സമ്":2215,"ഭ്യാസ":2216,"ജീവ":2217,"ർത്തി":2218," ബൈ":2219,"‍ഹി":2220,"മസ്":2221,"‌കൂ":2222," സംഘം":2223," അധികൃത":2224," തുടങ്ങി":2225,"‌.\n":2226,"ുകാര":2227," പരാജയ":2228,"ക്കേ":2229,"വിന്റെ":2230,"ക്കൂ":2231," സമിതി":2232," ഹൈക്കോടതി":2233," ആവശ്യം":2234," സമയത്ത്":2235,"ത്തിറ":2236," മക":2237," അഭിപ്രായ":2238," ആരാ":2239,"ലിന്റെ":2240," അടു":2241,".സി":2242,"ഭരണ":2243,"ൗര":2244," ആകെ":2245,"ത്തേ":2246,"നിര്":2247," ശക്തി":2248,"000":2249," കൂട്ടിച്ചേ":2250," മണി":2251,"ിട":2252,"ല്ലോ":2253," പ്രകാരം":2254," മനസ്സ":2255," തകര്":2256,"ത്തിനായി":2257," ആരോപണ":2258,"21":2259,"ലൈ":2260," നിയന്ത്രണ":2261,"ട്ര":2262," എത്ര":2263," മുഴുവ":2264,"ണോ":2265," സാമ":2266,"ഇത്ത":2267," ജോര്":2268," രണ്ടാം":2269," പ്രവേശ":2270," എണ്ണ":2271," പിടി":2272,"മുഖ്യമന്ത്രി":2273," ക്ഷേ":2274," എടുത്ത":2275," ചെയ്ത്":2276,"യാള്":2277," എനിക്ക്":2278," മാത്രമേ":2279," ഡെ":2280,"വരാണ്":2281," ചെയ്യുന്നത്":2282,"ാരം":2283,"എമ്മ":2284," താമസ":2285," പ്രക":2286," ഉണ്ടാക":2287,"പ്പെടുത്തിയ":2288," കണ്ടെത്തി":2289," ഗാന്ധ":2290," നിറ":2291,"കൂട":2292," ദിലീ":2293," കരുത":2294," രാത്രി":2295,"ഴ്ച്ച":2296," അനുകൂല":2297,"‍ത്തകര്":2298," ഔ":2299,"എഫ്":2300,"ച്ഛ":2301," പദ":2302," ഉദ്യോഗ":2303," ഇടപെട":2304," എന്നത്":2305," അനുഭവ":2306,"‍ക്കാണ്":2307," യുഡിഎഫ്":2308,"നിക്ക":2309," സുധാക":2310," സഹായി":2311," സുപ്രീം":2312,"എഇ":2313,"തൊരു":2314,"ിക്കണം":2315," പ്രതികരണം":2316," ചുമതല":2317," പറയുന്ന":2318," കൈമാ":2319,"രുത്":2320," വെളി":2321," സ്ത്രീക":2322," പറ്റ":2323," ഓഫ്":2324," പിന്നീട്":2325," അടക്കം":2326,"ൈല":2327," ഉണ്ട്":2328,"വെന്ന്":2329,"ന്ദു":2330,"ത്തല":2331," ഉത്ത":2332,"ുകളിലും":2333," ഫി":2334,"ക്ടർ":2335,"തുമ":2336," സ്വകാര്യ":2337,"യിലുള്ള":2338," അവിടെ":2339,"ുംബൈ":2340," ഭീഷ":2341," ലഭിക്കും":2342,"ബിജെപി":2343,"മാണെന്നും":2344," സാഹചര്യത്തില്":2345," പേരും":2346," വാഹന":2347,"ഗത":2348," ശു":2349," നടക്ക":2350," നേടി":2351,"വർക്ക്":2352,"ശ്വാസ":2353," സ്ഥാനാർത്ഥ":2354,"യറ":2355,"ലിം":2356," ജോസ":2357," ഫലം":2358," സമൂഹ":2359," മുന്നറിയി":2360," വിദ്യാര്":2361,"ത്തിനു":2362,"‍ശന":2363,"ആർ":2364," പ്ല":2365," തൃശ":2366,"ത്തോളം":2367," ജൂ":2368,"യ്ക്കും":2369," ഭാര്യ":2370," അഞ്ച":2371," പുതു":2372," ഇന്ത്യന്":2373," കൃത്യ":2374,"രാന്":2375," നാല":2376,"ിക്കറ്റ്":2377," മെഡിക്കല്":2378," മനു":2379,"60":2380," എൽ":2381," ഉമ്മ":2382,"രിക്കുന്നു":2383," ദൃ":2384,"ബോ":2385,"ീല":2386," പൊലീ":2387," ഡ്ര":2388,"എൽ":2389," തൊ":2390,"സിലെ":2391," ഭാര":2392," താഴ":2393," സൃ":2394,"ിച്ചാണ്":2395," തിരുവനന്തപുരം":2396,"രാല":2397," ആദ്യം":2398,"േറെ":2399,"ക്യൂ":2400," പശ്ച":2401," തെളിവ":2402," കണ്ണൂര്":2403,"കുന്ന":2404," മുന്നോട്ട്":2405," കമ്മിറ്റി":2406,"സ്ര":2407," മത്സര":2408,"ീകരണ":2409,"ിച്ചിരിക്കുന്നത്":2410,"ുമാ":2411,"ശ്ശേരി":2412,"പേ":2413,"ഷൻ":2414,"എല്ലാ":2415," സംരക്ഷ":2416," പക":2417," പ്രസ":2418,"ൂരില്":2419,"ഭ്യ":2420,"അതുകൊണ്ട്":2421," സൈ":2422,"ക്കുകയും":2423," വിജയം":2424," കല":2425,"സ്ത്ര":2426," ഇര":2427,"സ്റ്റര്":2428,"ക്കര":2429,"ിയാ":2430,"ർക്കം":2431," വോ":2432,"‍മ്മ":2433," ജീവ":2434,"റിനെ":2435," രൂക്ഷ":2436,"നുള്ള":2437,"രണ്ട്":2438,"വല":2439," നമ്പ":2440,"ന്ത്രാല":2441," എഴു":2442," താന്":2443," മലയാള":2444,"തായും":2445,"മറ":2446," പശ്ചാത്ത":2447,"താവന":2448,"ക്കുറിച്ച്":2449," ജയി":2450," കേസില്":2451,"തിനുള്ള":2452,"‍ജ":2453,"തുടര്":2454,"ുകാ":2455," സമര":2456," നടത്തിയത്":2457," സുരേഷ്":2458,"29":2459," വനി":2460," എറണാകുളം":2461," മാറ":2462," കസ്റ്റ":2463," ആശുപത്രിയില്":2464,"െന്നായിരുന്നു":2465,"‍-":2466,"പ്റ്റ":2467," ഇപ്പോൾ":2468," ഷോ":2469," ധന":2470," ഉൾപ്പെടെ":2471," കീഴ":2472,"അദ്ദേഹ":2473," ലഭിക്ക":2474,"ക്കട":2475," സാധിക്ക":2476," ഗുരു":2477," സ്ത്രീ":2478,"‍മാര്":2479,"പ്രവര്":2480," തെളി":2481," ഹാജ":2482," ആയ":2483," ആവശ്യപ്പെട്ടു":2484,"ഘോഷ":2485,"വരും":2486," അമി":2487,"സംഭവ":2488,"ായിരിക്കും":2489,"രാമ":2490,"സംഘ":2491,"നാട്ട":2492,"ചന്ദ്ര":2493," താല്":2494," ഗ്രാമ":2495," ആത്മ":2496," ആലപ്പുഴ":2497," ഏക":2498," വിഭാഗം":2499," കുറഞ്ഞ":2500,"നോട്":2501," വിട്ട":2502,"സില":2503," വെച്ച്":2504,"ിനെ":2505,"ത്തം":2506,"പ്പിച്ചത്":2507,"വ്യ":2508,"ാടക":2509," ചരി":2510,"ത്തിനുള്ള":2511,"െല്ലാം":2512," കടുത്ത":2513," സമാ":2514," ദുര":2515," വിമർശ":2516," ഹെ":2517," സുഹൃ":2518,"ഇതു":2519,"നീ":2520," ചെയ്യും":2521," നേട":2522,"35":2523," അര്":2524,"‍ക്കുന്ന":2525,"സ്തു":2526," ഹോ":2527," പശ്ചാത്തല":2528,"റ്റില്":2529," ഭൂരിപക്ഷ":2530,"വാണ്":2531,"ടൊപ്പം":2532," പതി":2533," ബിഗ്":2534,"‍കുന്ന":2535,"രിച്ചത്":2536,"ൂര്യ":2537,"വുമ":2538,"നാൽ":2539,"ൃതദേഹ":2540,"തിരായ":2541," ജാമ":2542," എന്നതാണ്":2543," ഇത്തര":2544," തൊഴിലാള":2545,".എസ്":2546,"എന്ത":2547," ഫല":2548," മുഹമ്മദ്":2549," കഴി":2550,"വസ്ഥ":2551,"‍വീ":2552," യുഡിഎഫ":2553,"റ്റു":2554,"നിയും":2555," രണ്ടു":2556," കോട്ടയം":2557," കെട്ടി":2558," പ്രസ്താവന":2559,"വ്ര":2560," പുറത്തുവ":2561,"ോഭ":2562," മത":2563," അഭിന":2564,"ക്കാല":2565,"ാതി":2566,"ിച്ചും":2567,"പിന്നീട്":2568,"പ്പിച്ച്":2569," ആരോപണം":2570," തമിഴ്":2571,"മാക്ക":2572," മോഹ":2573,"പാര്":2574,"100":2575,"ആദ്യ":2576,"ശാല":2577," പ്രായ":2578,"ധിച്ച്":2579,"നങ്ങൾ":2580,"വരി":2581," ഉദ്യോഗസ്ഥ":2582,"45":2583,"‍ഡി":2584,"േക്കുള്ള":2585,"ഡോ":2586,"ിത്തല":2587,"ലോക":2588," ഫെ":2589,"കരണ":2590,"താവ്":2591," പെണ്":2592,"്യത":2593,"ത്വം":2594," നയി":2595,"ന്നിരുന്നു":2596,"ഭാവ":2597," എന്നിവിട":2598," സ്വപ്":2599,"‍വേ":2600," എംപി":2601," വൈറസ്":2602,"ളു":2603," ലീഗ്":2604," സന്തോഷ":2605,"ബർ":2606," കോടിയ":2607," കുറി":2608,"വിനെ":2609,"‍ത്തന":2610,"ഇതില്":2611,"യർ":2612,"സൈ":2613," നടപടിയ":2614," അദ്ദേഹത്തിന്റെ":2615,"‍ത്ഥി":2616," ഇത്തരം":2617,"‍.":2618,"ാനെ":2619," ഒന്നും":2620," കൊല്ലം":2621," ദൃശ്യ":2622,"ാവ്":2623,"‌സിന്":2624,"ന്നെ":2625," പേര":2626," പാലക്കാട്":2627," സൃഷ്ട":2628,"സൂ":2629," പുറത്തിറ":2630,"മ്പോഴ":2631,"നാഥ്":2632,")\n":2633,"പീ":2634,"റിഞ്ഞ":2635," ദില്ലി":2636," നവ":2637,"ന്യൂ":2638,"വാക്":2639," അഖ":2640,"കര്യ":2641,"ലിക്ക":2642," മുന്നില്":2643,"കൊച്ചി":2644," എന്നായിരുന്നു":2645,"ത്യാ":2646,"‍ക്കെതിരെ":2647,"ല്ലാത്ത":2648," ചെറിയ":2649,"ിയായി":2650," തെറ്റ":2651,"ഗു":2652,"മാറ്റ":2653," മാറി":2654," തോന്ന":2655," സോഷ്യല്":2656,"‍ഗ്രസിന്":2657,"ച്ചിട്ടുണ്ട്":2658," സഹോദ":2659,"ൈനിക":2660,"മൊരു":2661,"ക്കുറ":2662," റഷ്യ":2663," ആന":2664," വാർത്ത":2665," വിദ്യാഭ്യാസ":2666," ഒഴിവ":2667,"രത്ത്":2668,"ാള്":2669,"‍ക്കാരിന്റെ":2670," രംഗത്തെത്തി":2671," കരാ":2672," സ്വാധ":2673,"ഗം":2674," കിട്ട":2675,"ംസ്":2676,"രിപ്പിക്ക":2677,"ഹരി":2678,"‍കു":2679," കന":2680,"ത്രയും":2681," ഹര്":2682," പുറത്തു":2683," കുമാര്":2684,"ൗണ്ട":2685,"ണമെന്നാണ്":2686," ഗെ":2687," പുല":2688," മാത്രമല്ല":2689," യോഗം":2690,"ധിപത്യ":2691," സത്യ":2692,"തന്ത്ര":2693,"ിവെ":2694," സമ്പർക്കം":2695,"പല":2696,"യിലൂടെ":2697," കോളേജ":2698,"ഭ്യന്തര":2699," ഭാ":2700,"ിക്കാം":2701," മുമ്പ":2702,"ീര്":2703," പാർട്ട":2704,"പോലെ":2705,"ഭി":2706," രാജ്യത്ത്":2707,"ല്ലാതെ":2708,"ഭാഷ":2709,"വം":2710,"ുതി":2711," സമ്മേള":2712,"മിക":2713,"ായേ":2714,"ഇവിടെ":2715," റൂ":2716,"കോഴിക്കോട്":2717," സ്വന്തം":2718," ചെന്നിത്തല":2719," വികസന":2720," കണ്":2721," ട്രെ":2722," സൗദി":2723," സെന്റ":2724,"ലാണ്":2725,"ുകാര്":2726," മുരള":2727,"കുതി":2728," ഉള്ളത്":2729," സ്ഥിരീകരിച്ചത്":2730,"ർക്ക്":2731," മുതി":2732," സാമൂഹ":2733,"പുതിയ":2734," കിലോ":2735," ക്രി":2736," നടന്നത്":2737," വന്നു":2738," പെരു":2739," മനുഷ്യ":2740,"മെന്ന":2741,"സിയ":2742," ഡയറ":2743," പോകുന്ന":2744,"ാനാവ":2745," ആവശ്യപ്പെട്ടി":2746," സന്ദര്":2747," ജനറല്":2748,"യിരിക്കുകയാണ്":2749," സ്ഥിതി":2750," ആറ്":2751," പുരു":2752,"31":2753," നിൽ":2754,"ീധ":2755," അഭ്യ":2756,"റന്":2757," കേന്ദ്രം":2758," കര":2759," തനിക്ക്":2760," ചന്ദ്ര":2761,"ിച്ചുള്ള":2762,"െടുത്ത്":2763," വകുപ്പ":2764,"യിട":2765,"ിക്കൊ":2766," ചെയ്യാന്":2767," ക്ലാ":2768," ഇക്കാര്യം":2769," ഊ":2770," പത്തനംതിട്ട":2771,"രിക്കാൻ":2772," എന്നിവര്":2773,"നിയമ":2774,"തുപക്ഷ":2775," അധ":2776," അടിയ":2777,"വാദി":2778," ഫ്ര":2779,"‍ധ":2780,"പാട്":2781," പക്ഷ":2782," വീട്ടില്":2783,"രുമായി":2784," പേരെ":2785," ലഭിച്ചത്":2786," പ്രതിസന്ധി":2787," ജില്ലകള":2788," നിർദ്ദേശ":2789," കൊച്ചി":2790,"ിച്ചിട്ടില്ല":2791,"പ്പെടുന്നു":2792," രാമ":2793," പറഞ്ഞ്":2794," കുമാ":2795," അവസ്ഥ":2796,"ലീം":2797," കേരളത്തില്":2798," പ്രചാരണ":2799," വെച്ച":2800," എല്ലാം":2801,"മാരുടെ":2802,"ത്താവ":2803," തദ്ദേശ":2804," ഇടുക്കി":2805,"ുകൂ":2806," തിരി":2807,"ധിത":2808," കേരളം":2809," കിട":2810," ബോസ്":2811,"പഞ്ച":2812," ബംഗ":2813," കോര്":2814,"ഹിത":2815,"ൊക്ക":2816," സമര്":2817," നേതാക്കൾ":2818," അറസ്റ്റ":2819," നിക്ഷേപ":2820," കോട":2821,"മതി":2822," സ്വീകരിക്ക":2823,"കൊവിഡ്":2824," നിലപാട":2825," വർഷം":2826," യി":2827,"ങ്കില്":2828,"തിനും":2829,"ഗതി":2830," ശേഷമാണ്":2831," പിടിച്ച":2832," നമ്മുടെ":2833,"ലു":2834," സജീവ":2835," വിപ":2836," സൈനിക":2837,"ത്തിയാ":2838," വിരുദ്ധ":2839,"അതിന്":2840,"ജ്ജ":2841," അടക്കമുള്ള":2842,"‍ഫ":2843,"ങ്ങാ":2844," ഒരിക്ക":2845," കാലാവസ്ഥ":2846," വിട":2847,"‍ഷക":2848,"നിലവില്":2849," ആക്രമണ":2850,"ല്ലുവി":2851,"രെയും":2852,"ുമു":2853," ബാബു":2854,"ക്കണം":2855," വിട്ടു":2856," വന്നത്":2857,"‍ന്നു":2858," പരിച":2859," പഞ്ചായത്ത്":2860,"ിട്ടുണ്ട്":2861," താരം":2862,"പിയുടെ":2863,"ുകളില":2864," നിരക്ക്":2865,"പരമായ":2866,"‌റ്റ":2867,"ൊന്ന":2868,"ക്കില്":2869,"‍കിയത്":2870,"ടനം":2871," കടന്ന":2872,"ാറ്റ":2873,"ദന":2874," മൃതദേഹ":2875,"‍ഗ്രസിന്റെ":2876," മന്ത്രാല":2877,"ാവുന്ന":2878,"80":2879,"70":2880," അബ്":2881,"രുന്ന്":2882,"ന്ദി":2883,"ുപോ":2884," ഇൻ":2885," മോദ":2886,"പ്പിൽ":2887," ട്രം":2888,"നട":2889," സഞ്ച":2890," സമ്പര്":2891,"ദ്ഘാ":2892," പോസ്റ്റ":2893," നിന്നാണ്":2894," യുവതി":2895,"രൻ":2896,"ികൾക്ക്":2897," ചീ":2898," അംഗീക":2899,"ോട്ടോ":2900,"‍ദ്ദേശ":2901,"സ്വാ":2902," മലപ്പുറം":2903," കമ്പന":2904,"തെങ്കിലും":2905,"റുടെ":2906," അഡ്":2907," തിരു":2908,"മേശ്":2909,"‍ത്തിയാ":2910,"ുമുള്ള":2911,"ികളാണ്":2912," അക്രമ":2913,"ക്കിന്":2914,"ാസ":2915,"ശ്ചി":2916,"ഗ്ദ":2917," സാധിക്കും":2918," സൗകര്യ":2919,"ക്ട്":2920,"മാകും":2921,"വാസം":2922," ഉണ്ടായ":2923," ചിത്രം":2924,"ീകരണം":2925,"ഡല്":2926,"ങ്ങനെയാണ്":2927," ചൊ":2928," കാര":2929,"ാണ്ടി":2930,"ുകൊണ്ടാണ്":2931," തോമസ്":2932,"ടേ":2933,"ുമ്പോള്":2934," ജാഗ്ര":2935," അമിത്":2936,"ർഡ്":2937," നേരിട്ട്":2938," സതീ":2939," നമു":2940," സംഘടി":2941,"ാണെന്ന്":2942,"ത്തോട്":2943," ക്വാ":2944,"സിപി":2945,"രേയും":2946," കാലത്ത്":2947," ഫ്":2948,"ളും":2949,"‌പെ":2950," പ്രിയങ്ക":2951,"സ്രായേ":2952,"റുകള്":2953," രൂപയാണ്":2954," സാധാരണ":2955," വിദ്യാർത്ഥ":2956,"തായിരുന്നു":2957," സന്":2958," ബുദ്ധി":2959,"ദായ":2960,"റ്റർ":2961,"ന്തി":2962,"കും":2963," തുക":2964,"ിക്കാനുള്ള":2965,"ട്ടത്":2966," ആഭ്യന്തര":2967,"‍ത്തു":2968," പ്രവേശി":2969," ഭയ":2970," യുഎഇ":2971,"കലാ":2972,"ത്തിനെ":2973,"ത്താണ്":2974," എന്നെ":2975,"നാധിപത്യ":2976," എന്ത്":2977,"മിന":2978," സിപിഎമ്മ":2979," സംസാരിക്ക":2980," ഹാജരാ":2981,"ഇനി":2982,"ൈസ":2983," ഇള":2984," വെല്ലുവി":2985,"ൽഹി":2986,"ികെ":2987,"ല്ലേ":2988," കൂടെ":2989," ഞെ":2990,"ങ്ങനെയ":2991,"സരിച്ച്":2992," പദവി":2993,"തന്ത്":2994," വരാ":2995," ഇവ":2996,"േഷന":2997," വൃ":2998,"കൂടാതെ":2999," കേരളത്തിലെ":3000," ലം":3001," നോട്ട":3002," അക്ക":3003,"ികൂ":3004," ചെയ്യുന്നു":3005," ഇപ്പോഴും":3006," പോസി":3007,"രമ":3008," വേണം":3009," അധ്യക്ഷന്":3010," എത്തിയത്":3011," രാശി":3012,"തിനു":3013," ലക്ഷ്യം":3014," ദിന":3015," അവത":3016,"ഴയ":3017," ആന്":3018," ആഘോഷ":3019," വിച":3020," മാർ":3021," പരിപാടി":3022,"രാഹു":3023,"ോക്":3024,"യിട്ടില്ല":3025,"മായാണ്":3026," പ്രോ":3027,"ാലോ":3028," തുടങ്ങ":3029," ഭീഷണി":3030,"രാജ്":3031," സ്വർ":3032," കഴിയുന്ന":3033,"ണ്ടെന്നാണ്":3034," യെ":3035," സീസ":3036,"റിലെ":3037,"േക്കാ":3038," മറ്റു":3039,"‍ഹ":3040," ശമ്പ":3041," സ്വയം":3042,"ടക്കം":3043,"കോടതി":3044," ഇന്ത്യൻ":3045,"ത്യം":3046,"ിക്കുകയാണ്":3047," ഉണ്ടായിരുന്നു":3048," മുന്നോ":3049,"മെന്റ":3050," അവസര":3051,"ജറാ":3052,"രോട്":3053,"‍കുട്ട":3054," ഔദ്യ":3055,"ളൂ":3056," നായ":3057," പേരില്":3058,"ീകരിച്ച്":3059,"പ്രധാന":3060," അത":3061," ചാ":3062," മുരളീധ":3063,"ിക്കാത്ത":3064,"ഗോഡ്":3065," ഡ്രൈ":3066," ഉദ്ഘാ":3067," റാ":3068,"ികളില്":3069,"ട്ടോ":3070," സ്ഥാനം":3071," ആരോപിച്ചു":3072," ചികിത്സയില":3073,"പതി":3074," മധ്യ":3075," തീര്":3076,"നേഹ":3077," ട്രെയി":3078," നടക്കുന്നത്":3079," ബിജെപിയുടെ":3080,"36":3081," നയ":3082," തള്ള":3083,"െടുത്തി":3084,"കാര്":3085," സെക്രട്ടറിയ":3086," പരസ്യ":3087,"പ്തി":3088," ഇന്റ":3089," നിങ്ങള്":3090," പാട":3091," അന്ത":3092,"ഇന്ന":3093," ചടങ്ങ":3094," വിളി":3095," ചരിത്ര":3096," പണ":3097,"കളാണ്":3098," മുന്നറിയിപ്പ്":3099," നൂ":3100," ആരാധ":3101,"ചില":3102," തീവ്ര":3103,"ാമത്തെ":3104," പോസ്റ്റ്":3105,"48":3106,"ടുവ":3107," ലഭിക്കുന്ന":3108,"മൂന്ന്":3109,"പിച്ച്":3110," പ്രതിനി":3111," ലംഘ":3112," അര":3113,"ത്തിനെതിരെ":3114," ചാന":3115,"നിട":3116," ഫാ":3117," ഡോള":3118," ശ്രമം":3119," രാജ്യത്തെ":3120," കൊലപാത":3121," മനോ":3122,"ടിച്ച്":3123," ക്രമ":3124," പട":3125," മാറ്റം":3126,"ഞ്ജ":3127," പ്രതിഷേധം":3128,"‍ണ്ണ":3129,"ിക്കറ്റ":3130,"നത്തില്":3131,"മം":3132,"തിനിടെ":3133,"രിക്കണം":3134," ജനങ്ങള്":3135," പ്രവച":3136," ദുരന്ത":3137,"വള":3138,"വാന്":3139," വ്യാജ":3140," ഫോണ":3141," ജോസഫ്":3142," പുരോഗ":3143," വീതം":3144," അവസരം":3145," വയനാട്":3146," പിടികൂ":3147," തസ്":3148,"വരില്":3149," ഉച്ച":3150,"‍ന്നാണ്":3151,"ജ്യ":3152,"ണ്ണി":3153,"െത്തിയ":3154," മട":3155,"ങ്ങളായി":3156,"കോവിഡ്":3157," ചോദിച്ചു":3158," വിവരങ്ങള്":3159," മുസ്ലിം":3160,"റാം":3161,"സ്സ്":3162,"ിക്കുകയായിരുന്നു":3163," സംബന്ധിച്ച":3164," വരുന്നത്":3165,"ുകയാണെന്നും":3166," വരിക":3167," നിന്നു":3168," ലീഗ":3169,"ുകയാണ":3170," ഇഷ്ട":3171," ഏര്":3172,"വകു":3173," തരം":3174," ഞങ്ങള്":3175,"ഷ്യൽ":3176," കൂടിയാണ്":3177," സമ്മാന":3178," തെളിയി":3179,"മന":3180," വിമാനത്താവ":3181,"ട്ടുണ്ടെന്നും":3182," യോഗ്യത":3183," ജീവനക്കാ":3184," കസ്റ്റഡി":3185,"ങ്ങ്":3186," രീതിയില്":3187," ഗുരുതര":3188,"ഇക്കാ":3189," ഉടമ":3190,"പൂര്":3191,"മ്മാ":3192," പേരുടെ":3193," ബന്ധം":3194,"‌ക്":3195," കലാ":3196," മത്സരിക്ക":3197," കൂടിക്കാ":3198,"34":3199," നടത്തുന്നത്":3200," രാശിക്കാ":3201,"‍ദേശം":3202," കഥ":3203," സൂര്യ":3204," ഗ്":3205," ചെയ്തിട്ടുണ്ട്":3206," പ്രസംഗ":3207," ഇക്കാര്യ":3208,"ന്യ":3209," സാഹചര്യം":3210," ബീ":3211," വാക്ക":3212," ആലോ":3213,"താക്കള":3214," കണ്ടു":3215," മദ്യ":3216,"മാൻ":3217,"യാൾ":3218," പ്രമുഖ":3219,"കുമാ":3220," സമു":3221,"ുന്നതിന്":3222," ഭേദ":3223,"ദീ":3224,"‍ച്ച്":3225,"ട്രോ":3226,"നുവരി":3227," വിതരണം":3228,"ഇത്തവണ":3229,"മെന്നാണ്":3230," നികുതി":3231," ഓര്":3232,"‍ണാടക":3233,"ാബ്":3234," ജയില":3235,"ശ്മീ":3236,"ാസ്ത്ര":3237," എതിര്":3238," തിരഞ്ഞെടുപ്പിൽ":3239,"ലിൽ":3240,"ിക്കേണ്ട":3241," ബ്ര":3242,"ികളായ":3243," തയ്യാറാ":3244,"ിക്കാര്":3245," ഉണ്ടാവ":3246," രൂപയുടെ":3247," മണ്ഡലം":3248," സ്ഥിരീകരിച്ചു":3249," ഉണ്ടാ":3250," ആളുകള്":3251,"സഹ":3252,"ലോക്ക്":3253,"തെന്ന":3254," പരിക്ക":3255,"ടുള്ള":3256," അവസാനി":3257,"അപ":3258," മരണം":3259,"‍ത്ഥികള്":3260,"സംസ്ഥാനത്ത്":3261,".എം":3262,"ുമില്ല":3263,"കോട്ട":3264,"തിനാൽ":3265," ആരും":3266,"ങ്ങളോട്":3267,"ങ്കള":3268," മെഡിക്കൽ":3269," സതീശ":3270," വഹ":3271,"ത്തിനിടെ":3272," തള്ളി":3273,"ിക്കുന്നുണ്ട്":3274," കൊടുത്ത":3275," വാദ":3276," ആം":3277," സൂക്ഷ":3278,"തന്റെ":3279,"മാരെ":3280," വിശ്വസ":3281,"ിച്ചിരിക്കുകയാണ്":3282," വൈക":3283,"ശു":3284," തട്ടി":3285,"തോടെയാണ്":3286,"38":3287,"ഴിമതി":3288," ട്ര":3289,"പുരം":3290,"75":3291," മേധ":3292,"രിത":3293,"പ്പിക്കാന്":3294," അഭിമുഖ":3295," ജാഗ്രത":3296,"ഇട":3297,"റ്റീവ്":3298," പെട്ട":3299,"32":3300," അന്ന്":3301," രോഗമു":3302,"ങ്ങിയത്":3303," നിയമം":3304," കൈവ":3305,"‍ശനം":3306," പോളി":3307," കാത്തി":3308,"പ്പെടുത്തിയത്":3309,"വെള്ള":3310," പങ്കുവെ":3311,"ജൻ":3312,"വയ":3313," വിധി":3314," ഹൗ":3315,"കന്":3316," മേഖലയില്":3317,"കൃഷ്ണ":3318," കർ":3319," അതിന്":3320," ശേഖ":3321," പരാമര്":3322," കൃഷ്ണ":3323,"39":3324,"ടിച്ച":3325,"റാണ്":3326,"ർട്ട്":3327,"ദേശിക":3328," അവരെ":3329," തന്നെയ":3330," കള്ള":3331," കാഴ്ച":3332," തൃശൂര്":3333,"‌മെന്റ്":3334,"ക്കാണ്":3335," ആണ":3336,"യന്":3337,"റന്റ":3338," സാക്ഷ":3339," പേരി":3340," മുന്നണി":3341," പിന്നാലെയാണ്":3342," ബുദ്ധിമു":3343,"ചേ":3344," സാമ്പി":3345,"ിലെത്തി":3346,"ധു":3347," ശിക്ഷ":3348,"‌സഭാ":3349,"‍ത്തിയ":3350,"ൂരിലെ":3351," രു":3352,"തന്നെ":3353," കുഞ്ഞ":3354,"കരമായ":3355," പോവ":3356," ഇടതുപക്ഷ":3357," തസ്തിക":3358," മഹ":3359,"വിഷ":3360," ഓഫീസര്":3361," ചൂണ്ടിക്കാട്ടി":3362,"സൗ":3363,"ക്കായി":3364," ഇതിന":3365,"പിന്റെ":3366," പെൺ":3367," എല്ലാവരും":3368," ലക്ഷ്യമി":3369," രമേശ്":3370," നടി":3371," മുംബൈ":3372,"തിരഞ്ഞെടുപ്പ്":3373,"നമ്മ":3374," ബന്ധു":3375," തിരിച്ചടിയ":3376," മൊഴി":3377,"സേന":3378," നേര":3379," കൊണ്ടാണ്":3380," റദ്ദ":3381,"ുമായിരുന്നു":3382,"മായിരിക്കും":3383,"ൂലൈ":3384,"ഘട്ട":3385,"വായ":3386," വൈദ്യ":3387," ഡോസ്":3388," സൈന്":3389,"പിസിസി":3390," സമരം":3391," പ്രഖ്യാപിച്ച":3392,"യതി":3393," ജോസ്":3394," ട്രാ":3395," നേതൃത്വത്തില്":3396,"അടുത്ത":3397," തങ്ങളുടെ":3398," നേരെ":3399," യുദ്ധ":3400," കാര്യത്തില്":3401," യാതൊരു":3402," ര്":3403," ഉപയോഗിച്ച്":3404,"അതിനിടെ":3405," വസ്തു":3406," കമ്പനി":3407," കഴിഞ്ഞു":3408," യോഗത്തില്":3409,"പ്രവർ":3410," രാജ്":3411,"പ്പിക്കുന്നത്":3412,"എൽഎ":3413,"ക്കാനുള്ള":3414," ഏഴ്":3415," വീട്":3416," തുടര":3417," കിട്ടിയ":3418," അതിന്റെ":3419," എങ്ങനെ":3420,"മ്പാ":3421," വാഗ്ദ":3422," ഉന്നത":3423," ക്ഷേത്ര":3424,"ടനാ":3425,"ർജി":3426,"വിതം":3427," മുഴുവന്":3428,"ഭൂ":3429,"വെന്നാണ്":3430,"മാരും":3431," സീറ്റുകള്":3432,"55":3433,"ിയുമായി":3434,"ട്ടുണ്ട":3435," ചെറു":3436,"നെയും":3437,"വെന്ന":3438," മണ്ഡലത്തില്":3439,"മിച്ച്":3440,"ുവരി":3441," എന്നിവരാണ്":3442,"ങ്ങളുമായി":3443," പ്രകട":3444,"ക്കാത്ത":3445,"സിൻ":3446," മലയാ":3447," അധ്യാപ":3448," ഓഫീസ":3449," നടപടികള്":3450,"';":3451," ബജ":3452," ബിജെപിക്ക്":3453," രാഹുൽ":3454,"കാരണം":3455,"ക്കാന":3456,"ങ്കിൽ":3457," വിജയന്":3458," നഗരസഭ":3459,"ർത്തു":3460," നിരോധ":3461," ഇന്ത്യയുടെ":3462," ന്ന":3463,"യോട്":3464,"ുന്നില്ല":3465,"‌കൂള":3466,"37":3467,"ശാ":3468," വില്":3469," കുറച്ച്":3470," കോടതിയില്":3471," തയ്യാറായി":3472," കല്":3473,"ത്തിലായിരുന്നു":3474,"രണ്ട":3475," ബിരു":3476,".കെ":3477," പ്രവർത്തക":3478," സഹായം":3479," നമുക്ക്":3480," സൂചി":3481," വിശ്വാസ":3482," ർ":3483,"അന്ന്":3484,"േബ":3485,"മായുള്ള":3486,"ികമായി":3487,"',":3488,"‌സിന":3489,"ിയ്":3490,"ുകെ":3491,"ായിക":3492,"മായത്":3493," ഉണ്ടായിരുന്ന":3494,"വുമായ":3495," ഉമ്മന്":3496,"‍എസ്":3497,"ടകം":3498," തുറന്ന":3499," കനത്ത":3500,"49":3501,"ചെ":3502,"‍ത്ത്":3503,"ിയുള്ള":3504," ഇതിന്":3505," ഉയർന്ന":3506,"ഗസ്റ്റ്":3507," ജനാധിപത്യ":3508,"‍ത്തനങ്ങള്":3509," പങ്കെടുത്ത":3510,"ഇവര്":3511," മമത":3512,"രുത്തി":3513," കേസിൽ":3514," മത്സരിച്ച":3515,"കലാശാല":3516,"ൊ":3517,"‍വ്":3518,"ിക്കെതിരെ":3519," ഇവർ":3520,"ശങ്ക":3521,"തിനാണ്":3522,"പാട":3523,"പറ":3524," സഭ":3525,"റ്റീ":3526," മാതൃ":3527,"മെന്":3528,"ത്തെയും":3529," സുരക്ഷാ":3530," ക്രൈ":3531," നിലയില്":3532," കാര്യങ്ങൾ":3533," തകർ":3534,"താണെന്ന്":3535," വയസ്സ":3536," മുഖ്യ":3537," തമ്മിലുള്ള":3538," ബ്രി":3539," ഫേസ്ബുക്ക്":3540,"ുകു":3541,"ംസ":3542," അമ":3543,"സിക്യൂ":3544,"ബരി":3545,"ക്കേണ്ട":3546,"പ്പര്":3547,"പ്പോഴാണ്":3548," സാഹചര്യത്തിൽ":3549," ഗോപി":3550," സുരേന്ദ്രന്":3551,"ജീവിത":3552,"ിച്ചില്ല":3553," ട്വീ":3554," വിദഗ്":3555," കേസുകള്":3556,"47":3557,"ളുടെ":3558,"ിലായി":3559," ഇനിയും":3560," എംഎൽഎ":3561," മൂന്നാം":3562," സമാന":3563,"ത്തിൻ്റെ":3564,"മിഷ":3565," ഒന്നാം":3566,"ബ്രുവരി":3567,"ാളി":3568,"ത്തുന്ന":3569," തുടർന്ന്":3570," പ്രി":3571," വോട്ടുകള്":3572,"ൂറി":3573,"ക്കന്":3574," റോഡ":3575,"ീന്":3576," ഒന്ന്":3577," തേടി":3578," ഉത്തരവാദി":3579,"ിച്ചിരുന്ന":3580,"മാത്ര":3581," ഗൂ":3582," ഹോട്ട":3583," റണ്":3584,"റ്റിന്":3585,"കണ്ണൂര്":3586,"തല്ല":3587," വല":3588,"സ്തി":3589," പേരിൽ":3590,"ുകൾക്ക്":3591," സ്വാധീന":3592,"ക്കുകയാണ്":3593," വധ":3594,"‍ക്കം":3595," യഥ":3596," നൽകുന്ന":3597," ത്തി":3598," അഭിഭാഷ":3599," പറഞ്ഞി":3600," യാദ":3601,"റുണ്ട്":3602,"ാണെന്നും":3603,"േറിയ":3604," താൻ":3605," ഇസ്രായേ":3606,"‍പ്പറ":3607," പിസി":3608," ചെയ്യാൻ":3609,"ുത":3610,"‍പ്പെടുത്തി":3611,"വിക":3612," ജല":3613," നിങ്ങളുടെ":3614,"ദ്വീ":3615,"െടുത്തു":3616," സംസ്ഥാനത്തെ":3617,"കോൺഗ്ര":3618," നിലവില്":3619," കൊണ്ടുപോ":3620," സേന":3621,"!!\n":3622,"ആരോഗ്യ":3623,"രിയാ":3624,"ലിനെ":3625," കുറിച്ചു":3626," വ്യക്തമാക്കുന്നു":3627,"വരാ":3628," സിറ്റി":3629," ബാങ്ക്":3630," സംവിധാനം":3631," സംസ്":3632," ഹിന്ദു":3633," വിവാഹം":3634," യുപി":3635," ഒരാള്":3636," വിമാനത്താവള":3637,"വാര്":3638,"ൂരിൽ":3639,"ുണ്ടായ":3640," പലരും":3641,"യുധ":3642,"യാത്ര":3643," വാദം":3644,"വ്യാ":3645,"വേഷണ":3646,"പൂ":3647,"ർക്കും":3648," റിപ്പോർട്ട":3649," ഉദ്യോഗസ്ഥര്":3650," വിസ":3651," ഭരണം":3652," കോളേജ്":3653," മുസ്ലീം":3654,"ശ്രീ":3655,"യള":3656," ഇടി":3657," റോഡ്":3658,"‌നങ്ങള്":3659,"33":3660,"ോളം":3661," എട്ട്":3662," ലോട്ട":3663," കേരളത്തിൽ":3664," ധാരണ":3665," അനുവദിക്ക":3666," പ്രകടി":3667,"ുകളിലെ":3668,"പ്പെടും":3669," കിലോമീ":3670," ചീഫ്":3671,"കളിലും":3672," സോണിയ":3673,"ുവിന്റെ":3674," സേവന":3675," ഭൂമി":3676,"500":3677," അർ":3678,"യുടെയും":3679," അദ്ദേഹത്തെ":3680," പരിശീല":3681," പ്രശ്ന":3682," തമ്മില്":3683," കൂടിക്കാഴ്ച":3684,"ക്കാതെ":3685," കാസര്":3686,"തൃശ":3687," ആക്രമണം":3688,"െടുത്തത്":3689," ഗ്രൂപ്പ്":3690," കൂട്ടിച്ചേര്":3691," താഴെ":3692,"വായി":3693,"ൊപ്പ":3694," വ്യാപക":3695," ഒരിക്കലും":3696," അബ്ദു":3697,"ൗൺ":3698,"‍ഗ്രസില്":3699," ഉണ്ടാകും":3700," മഹാരാഷ്ട്ര":3701," സംശയ":3702," പകരം":3703,"‍ക്കായി":3704," ലോക്ക്":3705," ടെക്":3706," വിധേയ":3707," ഇന്നലെ":3708,"ഇതിന്റെ":3709," പത്ത്":3710,"പ്രാ":3711," ഇയാള്":3712,"താരാഷ്ട്ര":3713,"ണമൂ":3714,"ുകയോ":3715," സാമ്പിള":3716," മുതല":3717," അദ്ദേഹത്തിന്":3718," ആവശ്യപ്പെട്ട്":3719,"പ്രദേശ്":3720," യുഎസ്":3721," പ്രതികരിച്ചു":3722,"തന്ത്ര്യ":3723,"ഹത്യ":3724,"ത്സ്യ":3725," ഗവ":3726," സമർ":3727,"‍ട്ടുകള്":3728,"ിച്ചാല്":3729," വോട്ടി":3730,"ബെ":3731,"നിന്ന്":3732," ഷി":3733," സുരക്ഷിത":3734,"മറ്റ":3735,"ക്സ്":3736," ചല":3737," പ്രവർത്തന":3738,"ിയത്":3739," ഇദ്ദേഹ":3740,"വിഡി":3741," ഷെ":3742," ഫോണ്":3743," മരിച്ചത്":3744," മീഡിയയില്":3745,"ർമ്മ":3746," തടയ":3747," വിഷയത്തില്":3748," മല്":3749," അല്":3750,"ളൂരു":3751,"ന്നത്":3752,"ില്ലെന്ന":3753,"ഇതിനിടെ":3754," രാശിക്കാര്":3755,"ശേഷം":3756," അധികൃതര്":3757,"ശേരി":3758,"ക്കുന്നതിന്":3759,"90":3760,"ലങ്ക":3761,"ഷാ":3762,"‍ത്തനം":3763," പൊലി":3764,"സർക്കാർ":3765," വനിതാ":3766," ആദ്യമായി":3767," യൂത്ത്":3768," ക്യാമ്പ":3769,"പൂർ":3770,"രൂ":3771,"ഹൈ":3772,"മാക്കിയ":3773,"പ്രവർത്ത":3774," സച്ചി":3775," സജ്ജ":3776," സിന്":3777," സിംഗ":3778," വളര്":3779,"രിവാ":3780," അഴിമതി":3781," ശബ്":3782,"ഞ്ചേരി":3783,"കൊറോണ":3784,"46":3785," മാണി":3786," യോ":3787," ടോ":3788,"ക്ടോ":3789,"േക്കാണ്":3790," പിഴ":3791,"ബിഐ":3792,"ഗ്ഗ":3793,"‍ഡിഎഫ":3794," നിശ്ച":3795,"ില്ലാത്ത":3796,"സാധ":3797," സിപിഐ":3798,"പീക്ക":3799,"ട്രി":3800," വായി":3801," കുടു":3802," ട്വി":3803,"െത്തി":3804,"ക്യ":3805," ഇവരുടെ":3806," ഗുണ":3807,"ാക്കിയത്":3808,"രുവരും":3809,"മംഗ":3810,"ങ്ങുന്ന":3811,"ടകര":3812," തിരികെ":3813,"ലേ":3814,"ത്തിടെ":3815,"കൊല്ല":3816,".ഡി":3817," കണ്ട്":3818," എതിരെ":3819," ഗവര്":3820,"ണാടക":3821," പോരാട്ട":3822," ചെയര്":3823," നീതി":3824," ഗുജറാ":3825," പരിഗണിക്ക":3826,"പ്രിയ":3827,"ുകാർ":3828,"റ്റിൽ":3829," ജയരാജ":3830,"എൻ":3831,"എന്റെ":3832," കർഷ":3833,"ങ്കേ":3834,"ഇപ്പോള്":3835,"കുമാര്":3836,"ക്കുള്ള":3837," അസി":3838," നടത്തിയിരുന്നു":3839," വിപണി":3840,"ല്യം":3841," ആക":3842," ഏജന്":3843,"നിമാ":3844,"ൂട്ട":3845,"ൂട്ടി":3846,"ിയു":3847," ഇവരെ":3848," ബസ്":3849," ബിസിന":3850," വെളിപ്പെടുത്ത":3851," ജാമ്യം":3852," കൗണ്":3853," അധികം":3854," ദിലീപ്":3855,"ാറ":3856,"ത്രാ":3857," സ്കൂ":3858," ബാങ്ക":3859," രോഗബാ":3860,"ധാന്":3861,"ൃത്തി":3862," കേസിലെ":3863," പ്രതികരണ":3864,"ലിക":3865," ഒരുപാട്":3866," സ്വദേശിയായ":3867,"ുകൊണ്ടു":3868," പോകുന്നത്":3869," പേർക്ക്":3870," ഗ്രൂപ്പ":3871,"വരു":3872," തങ്ങള്":3873," ആദി":3874," കൊണ്ടി":3875," വ്യവസ":3876," ടിക്കറ്റ്":3877," കൂടുതല":3878," നെഗ":3879,"നീയ":3880,"ിക്കപ്പെട്ട":3881,"ായറാ":3882,"യാളെ":3883,"‍ബ":3884,"‍പ്പെടെയുള്ള":3885," കൊലപാതക":3886,"‍ഡിഎഫ്":3887," ചൗ":3888," ബഹു":3889,"െയര്":3890,"ുണ്ടായി":3891,"യെന്ന്":3892,"ാദ":3893," വിജയ്":3894," വിഷയം":3895," ടു":3896,"അവര്":3897,"രാശ":3898,"ബിഗ്":3899," വൈസ്":3900,"വിധായക":3901,"ക്കുകയായിരുന്നു":3902," അച്ഛ":3903," മാറിയ":3904," മൂലം":3905," ശ്രമിച്ച":3906,"കേരളത്തില്":3907," കുറ്റപ്പെടുത്തി":3908,"വുന്ന":3909,"ത്തുള്ള":3910,"ില്യ":3911," തിരുവനന്തപു":3912," ഞങ്ങൾ":3913,"ുകയാണെന്ന്":3914,"തമായ":3915," പ്രമേ":3916,"ങ്ങളിലേക്ക്":3917," വെബ്":3918," ഉദ്ഘാടനം":3919," നിമിഷ":3920,"യിലെത്തി":3921,"വോ":3922," ആഴ്ച":3923," ജീവിതം":3924,"42":3925," ജില്ലയിൽ":3926," മണിക്കൂറി":3927," മൊബൈ":3928," ദേവ":3929," പ്രവാസ":3930," സാന്നി":3931,"ക്കിൽ":3932," കണ്ടി":3933,"ക്കാരെ":3934,"സുകള്":3935,"ായം":3936," കോർ":3937,"‍ദ":3938," മെയ്":3939,"ടിന്":3940," ഡല്":3941,"ബരിമല":3942," തര്":3943,"ണ്ടായിരുന്നു":3944,"തെല്ലാം":3945," ഫിറോ":3946,"ദിവ":3947,"നഗ":3948,"േല്":3949,"കൂടു":3950," കണക്ക്":3951,"േബ്യ":3952,"ടുന്ന":3953,"ളജി":3954," പൗര":3955," അതോ":3956," പരിചയ":3957,"ജയ്":3958," വക":3959,"കുള":3960,"ത്രിക":3961,"‍ഷിക":3962," മൈ":3963," വീട്ടിൽ":3964," തുടക്ക":3965,"തീഷ്":3966," പുരുഷന്":3967,"ശേഖ":3968,"ാനാക":3969,"ത്യസ്ത":3970,"ഹിതം":3971,"ായാലും":3972,"‍ക്കു":3973," രാജിവെ":3974,"ിക്കല്":3975," രഹ":3976," പുര":3977,"രുടെയും":3978," നിലനില്":3979," അറിയിച്ചത്":3980," മേധാവി":3981,"65":3982," ആന്റ":3983,"താര":3984,"മിന്":3985," പ്രസിഡന്റ":3986," റെയില്":3987," വിദഗ്ധ":3988,"സന്":3989,"ത്തരം":3990," ഏത്":3991,"ദിന":3992,"‍ണായക":3993," വയസ":3994," കണക്കാ":3995," തെരഞ്ഞെടുപ്പ്":3996," മതി":3997,"െടുപ്പ്":3998,"ത്തിന്റെയും":3999}