#version: 0.2
் க
் த
ம ்
ல ்
ன ்
  ப
க ்க
் ட
  க
ர ்
த ்த
  வ
  ம
ப ்
. 

  த
ி ய
ு ம்
  ச
ள ்
ந ்த
  அ
ப் ப
த ு
ி ல்
ர ு
ட ்ட
  ந
  இ
  எ
ங ்க
ை ய
ா க
ற ்
த ி
ி ற
க்க ு
ி ன்
ட ு
் ச
ற ு
ள் ள
  உ
ண ்ட
ா ர்
ி ர
ா ர
த்த ு
ி ல
  ஆ
ா ன
ட ி
 ம ு
 ச ெ
வ ி
ற் ற
ர ்க
ல ை
ி க
 எ ன்
 வ ி
ர ி
ட்ட ு
ந்த ு
ி ரு
 க ு
வ ு
ா ல்
ள ை
 இ ரு
 செ ய
ச ்ச
ற ி
க ்
ா வ
ஸ ்
  ஒ
த ்
  ர
 ப ோ
ப்ப ு
ன ர்
த்த ில்
ைய ில்
ன ை
ள ு
ா ன்
ா ல
 க ொ
ல் ல
ம ை
 ம ா
 ப ெ
 ந ட
வ ர்
ா ய
 த ொ
ற ்க
க்க ும்
ு க
 க ூ
ர்க ள்
 வ ே
ம ி
வ ர
ன் ற
ப்ப ட்ட
ம் ப
ட ்ச
ிற து
ா ள
ு வ
 இ ந்த
 த ே
ா த
ற் ப
 உ ள்ள
க ு
  ஏ
ட ிய
 வ ெ
ி ட
க ள்
ண ்
ன் ன
ள ில்
ி க்க
ி ன
 ப ே
 த ெ
ண்ட ு
 எ ன
ங்க ள்
 ப ா
ா ம
 அ தி
 ப ிர
ச ்
ம ாக
ற ை
ட ்
ளு க்கு
வ ே
்க ள்
 க ா
டு த்த
 ந ா
த ிய
த்த ை
த ாக
 ஒ ரு
ர ச
வ ில்
ம ான
் ய
 என் று
ண ி
 ம ற்ற
 வ ழ
 தொ ட
ர ிய
 வ ரு
 க ோ
ட ை
 செய ்த
ி ட்ட
ற் று
இ ந்த
த ற்க
ழ ு
 ந ில
ச ி
 மற்ற ும்
வ ை
ள்ள து
ம ு
ர ா
த ை
 என் ற
்த ்த
 வ ர
  ஜ
வ ும்
ன் று
ட ும்
ட ன்
 அ ரச
ண்ட ும்
 ப ொ
ப ி
ோ து
. .

ா ம்
ப ு
 ம ே
ம ா
ன ால்
 ப ு
ைய ும்
டு க
 அ வ
த ல்
ப்ப ட்டு
 அ மை
 வ ீ
ள ி
 அதி க
ின் ற
ந ா
ழ ்
ள ின்
த ே
 ம ீ
 கு றி
 வ ா
 செய ்ய
ன ி
ிற ார்
ம ே
 க ே
ிற ்க
 ந ி
ிய ில்
ிரு க்க
 ந ீ
 தெ ரி
 த லை
 ச ு
 ச ே
ன ு
ண் ண
ந ில
ர ை
 தொட ர்
க ளை
 இரு ந்த
 ப ல
 வரு க
 என் ப
ைய ை
டு த்து
வ ா
 ம ூ
 வ ை
 தெரி வி
ச ிய
 வே ண்டும்
 எ தி
ிரு ந்த
ப ெ
 ஏ ற்ப
 இ ட
த ில்
ிக ள்
ாய ்
2 0
ப ா
ார ண
 ப ய
 இரு க்க
  ட
ார ்கள்
 ந ே
ிய ு
த்த ின்
க ா
 ந ிற
 க ட
ய ்
 ப ார
  ய
 ச ி
 த ு
 ச ொ
ம ுக
 ச ிற
 த ிரு
த்த ிய
 அ வர்
 அ றி
? 

 மு தல்
டி க்க
ங்க ு
ல ி
ஸ ்ட
 த மி
ிற்க ு
ர ும்
ட்ச ி
ள ிய
  ஓ
ங்க ளில்
 இந்த ிய
 வ ந்த
ட்ட ி
ள்ள ார்
த ன்
  "
ங்க ள
ப்ப ட
 த ீ
ர் வ
ல ா
தற்க ு
வ ர்க
 ப ி
ஞ ்ச
ிய ை
 ம க்க
 ர ா
ஆ னால்
ர ே
ப்ப ா
ம ைய
வ து
ர ்த
வ ர்கள்
 ஆ க
 கொ ண்ட
வில் லை
ன ா
வ ்
 வெ ளிய
ல ும்
ப ோ
ா து
ங்க ளை
ரு க்கு
ண ை
 அ ந்த
க்க ிய
ல ில்
ல ு
த்த ி
 நட ை
ழ க
ோ ம்
  ல
ற்ற ி
ிக ்
ில ும்
ழ ை
 ப ண
்க ்க
ரி க்க
ரு த்து
ச ெ
 உ ய
இ து
ம ன்ற
டு க்க
 வழ ங்க
  ஹ
 இரு ந்து
 த ா
 ச ில
 அமை ச்ச
ே ன்
ட ைய
 நில ையில்
 ச ம
ப்ப ி
ூ ர்
  (
ல க
ப்பட்ட து
ர ாக
  ஊ
 இ ர
 மு டி
 ச ந்த
ஷ ்
0 0
 க ால
 த ன
ர் ந்த
த ும்
 மு டிய
 மு ன்ன
ல ம்
வி ட்ட
 அரச ு
ும் ப
 கூ ற
 ப ிற
! 

ிட ம்
இ த
ர ோ
ள ும்
ிய ல்
ப்ப டும்
க வ
 ச ட்ட
ின்ற னர்
ம ர்
 நடை பெ
ிய ின்
ஸ ்த
 செய்த ு
ல ாம்
ாம ல்
த ால்
த ா
ப்ப டுக
 த ி
ர ்த்த
 தே ர்த
ாவ ில்
ட்ட ில்
ாவ ட்ட
 ப கு
ச ா
 அ னு
ாள ர்
ிர ி
ன ம்
த்த ார்
 ம ோ
ன் ப
ர ம்
 ச ா
ங்க ி
ப்ப டி
 ப தி
 ம ாவட்ட
ர ில்
 க ிட
வு க்கு
ட ்க
 போ ல
 இ து
ன் னை
த்த ிற்கு
ப்ப ோது
ழ ி
 உள்ள து
க ி
 மா நில
 த ிட்ட
ிய ா
 ஆ ண்ட
ந்த து
 க ை
ல் லை
வர ை
ர வ
ால ும்
த ம்
 வி ச
 கூ ட்ட
க ளில்
த ான்
 தொடர் ப
ல ங்க
 ம ிக
 ச ீ
 க ட்ட
ஜ க
ிய ாக
ல ்க
 அ ம
வ ீ
ொ ரு
 ப ூ
 குறி த்து
 ஆ ண்டு
 அ ள
ிரு ந்து
 க ாரண
 ஆக ிய
ட ம்
ட்ட ை
ரு க
்ச ்ச
. .
 பொ ரு
 ர ூ
 இரு க்கும்
க்க ி
 எ ழு
ந்த ிர
 என் ன
ழ ந்த
ின்ற ன
ச ு
ாவ ின்
க்க ம்
 த ான்
ம ும்
 அதிக ார
ற ைய
க்க ான
ர் ச்ச
 ந ிக
. க
 வி வ
ப்ப ை
 கொ ண்டு
 மு ன்
 நிற ுவ
  ஈ
 அ னை
ிற ார்கள்
ள்ள னர்
க ர்
 த ிர
ங ்
த்த ிர
ப்பட்டு ள்ளது
ங்க ளுக்கு
 உ று
ொ ண்ட
 என்ப து
று க
தி க்க
 க ட்ச
 க ல
 ச ூ
எ ஸ்
க ம்
 ம ருத்து
 பொ து
 தே தி
 கட ந்த
ைய ே
 க ண
வ ாக
 ப ின்
ிய து
  -
ள ாக
 ந ெ
க ்த
 கிட ை
ாவ து
 உ ட
ப்ப ோ
 வருக ிறது
ட் ப
ப்படுக ிறது
 ச ம்ப
 இரு ப்ப
 நீ தி
 க ிர
 த ர
வ ிர
 மே ற்க
ண ம்
 இ ய
 சே ர்ந்த
 ஆ த
த வி
்த ான்
வ ம்
 பா ஜக
 வர ும்
 தன து
ின ார்
 அ டி
 ம ணி
. ..

 என்ற ும்
வ ெ
ப்ப டுத்த
ந ீ
க ார
ைய ா
மே லும்
  ஐ
 பே ச
 இ ல்லை
 க ி
 மா ண
 போ ட்ட
ங்க ிர
ஆ ம்
 கூ றி
 மக்க ள்
ம் ம
த ல
திய ில்
 கு றை
 க ரு
ெ ல்ல
ப தி
 மு க்கிய
வ டிக்க
 பிர த
து கா
 நட வடிக்க
ொ ள்ள
ெ ய
ே ய
தே ச
20 2
ழ் நா
 வி ள
ப ோது
 ப ழ
க ை
த்து க்கு
 வ ிர
 தெரிவி த்து
வர ும்
ம ார்
 வர ை
ோ த
 ம ட்டு
 உ ண
ழ ்ச்ச
 எதி ர்
டு வ
 அறி வி
தாக வும்
 ப ர
 ந ோ
ன ்க
 மீ து
ர்க ்க
 பா துகா
 அமைச்ச ர்
ாத ார
ற்ப ோது
 ப ுக
 குறி ப்ப
 த கவ
அ ந்த
 ரா ஜ
ார ி
  '
 மூ லம்
 பெ ற்ற
 நே ர
 வ ந்து
ர் ந்து
ரி ச
 செ ல்ல
 போல ீ
ய ில்
 ப ால
 க ாவ
 ப ட
 உ ரு
" ,
 த ோ
க ள
ல் ப
ந ்
 பெ ய
 ஆண்ட ுக
ர்க ளை
 தொடர் ந்து
 கு ற்ற
ழ ுவ
ிருக்க ிறது
 சொ ல்ல
 அ வர
 தெ ரிய
வ் வ
ம ீ
 போ ன்ற
 எ ந்த
 கா ங்கிர
ர்க ளுக்கு
 தலை வர்
 பிற கு
அ த
 செ ன்ற
 ஆ ர
  டி
ற ும்
ர் வு
ாக ி
க்க ள்
ூ க
 நடவடிக்க ை
ப ர்
 என ்க
 உள்ள ிட்ட
மு றை
ன ார்
 அ ல்ல
ைய ின்
ோ ர்
எ ன
ஜ ி
 கூ றுக
ர்க ள
1 0
ங்க ே
 இ ல்ல
 இ ன்று
 வே ண்ட
க்க ாக
 நிறுவ ன
 வ ய
 தொ ழ
ரா ஜ
 வ ில
 கூ ட
 பார ்த்த
 தமி ழக
  ஷ
ில ிருந்து
க்க ூ
ர ீ
ப்ப ில்
ட ா
 அ ண
1 9
ர ின்
வே று
க ட
தற்க ாக
 நட த்த
 வே லை
்த ு
த்த ர
த ான
 போ து
 அ ணி
ை க்கு
 வ க
ாள ர்கள்
 மருத்து வ
டும் ப
 வ ாய்
 த ூ
ெ ரிக்க
ல் வ
ிக ளை
 மு ய
  ஸ்ட
 உ லக
ஸ ்க
ப ார
 விச ாரண
ண ைய
  `
க்க ப்பட்ட
 ஏற்ப டுத்த
 பே சிய
ோ டு
 கு ழந்த
 க வ
 ஒ ன்ற
வி ட
ப்ப து
 எ டுத்து
 க ண்ட
ா ள்
வ ில
ர்க ளின்
ிருக்க ிறார்
டு ப
 வ ார
 போ ரா
 காங்கிர ஸ்
 வை த்து
 வ ள
 சந்த ி
  ஸ்
 ந ான்
 க ட்சி
ாவ ை
 மா ற்ற
 பய ன்ப
தற்க ான
 ம க
ை கள்
 ம த்திய
ப டி
 தொட ங்க
 வெ ளி
 இருக்க ிறது
 மா த
 அ ழை
ற ிய
ெ ன
 அ ல
 செய ்
ய ில
த மி
த்த து
ேய ே
 சம ூக
 அ து
ல் வேறு
 செ ன்று
ீ ர்
ப்ப ின
 த ய
 தேர்த ல்
 கு டும்ப
இத னால்
 அவ ர்கள்
 நில ை
 பெ ரும்
 அரச ியல்
 நி னை
 மு தல
ச்ச ி
 ச ார்
ியு ள்ளது
ள ்க
ா ங்க
ப்பட்டு ள்ள
 ஆ ய
ப ர
 நில ைய
 வழ க்க
ு க்கு
ட்ட ும்
20 1
 இர ண்டு
 கல ந்து
வ ின்
 பெ ரிய
 பே ர்
வி ட்டு
 ந ம்ப
 ஆ ய்
 எ ண்ண
 ந க
ப்ப ாக
 பார ்க்க
 பிரத மர்
 ப ல்வேறு
 வழ க்கு
 எ ம்
ம து
 இ ணை
 ம ொ
 பகு தி
 அ ளி
ப ிர
 கொ ள்ள
 நீதி மன்ற
 த ின
 தமி ழ்நா
ஷ ்ய
ந ி
 வி ழ
 பு திய
ந ாய
 கா ண
ந்த ி
க ளுக்கு
 வா ழ
ப ே
 வழ ி
 ல ட்ச
 இ லங்க
 நடைபெ ற்ற
 ப க்த
 நட ந்த
ெ ட்
 க ட்டு
 த ற்போது
 நி ர்வ
ள்ள ி
 க ீ
க ோ
ட்ட ம்
ர ான
 பிர ி
கட ந்த
த வ
 திரு ம
 தொடர்ப ாக
டு கள்
 அதி முக
 மீ ண்டும்
 எ டுக்க
ளு டன்
 இந்திய ா
ச ிக
 இ ற
 மு றை
 அதிக ரி
 பெ ரு
 க ெ
 மட்டு மே
ைய ாக
 தி முக
 ஈ டுப
 செய ல
ஜ ்
 அம ெரிக்க
ட்ட ிய
த்து றை
ல் வி
 ந டி
ிற ேன்
ி ட்டு
. பி
 முதல் வர்
 தெரிவி த்தார்
 உ த்தர
 ம ன
 வெ ற்றி
ய ா
ஒ ரு
 பெ ற்று
 அவர து
 தீ ர்
வ ரு
 பெ ண
 நட ந்தது
ிருந்த ார்
அ தே
 பாதுகா ப்பு
டிய ாக
 கே ள்
செ ன்னை
ளு க்கும்
 பொ று
 காரண மாக
ம தி
ச ை
 த ங்க
 வீ ர
 பயன்ப டுத்த
 எ ல்ல
 ஆ ம்
ளு மன்ற
ல ோ
ட ப்பா
ஷ ்ட
ிரு க்கும்
நில ையில்
 என்ப தை
 வக ையில்
த்த ம்
 இருந்த து
 வா க்கு
 நிக ழ்ச்ச
 த ிற
 செய ல்ப
ச்ச ு
ல ிய
 சிற ப்பு
 நிர்வ ாக
ட்ட ின்
 ந ாள
 பா தி
அ தன்
 கூறி னார்
அ து
ப ட
 இ ஸ்
 அல்ல து
 வை த்த
ிற ோம்
க ொ
 க ார
வ ான
 ஏற்ப ட்ட
 வருக ின்றனர்
 வரு வ
டை ந்த
 ரூ ப
 என்ற ார்
 நே ற்று
 நிற ை
 முடி வு
இ தில்
 க ருத்து
 கு ழு
 தே சிய
த்து டன்
 கை து
ல ்கள்
 அ ருக
ய ம்
 அனை த்து
அ ப்போது
மைய ான
 ப டி
ள ாதார
 ந ிய
டப்பா டி
க ிறது
 வெளிய ே
 செ லு
இ ந்
ஸ்ட ்
ி னர்
 இ ன்ன
ற் ச
ிய ும்
ச ாய
ரு க்க
ம்ப ி
ந ே
திய ாக
க ே
ட க
ச ார
. எ
 து றை
 தெரிவி த்த
ைய டுத்து
்ட ்
 அறி க்க
 ஆ ட்ச
 வி ஷ
ண ுவ
ிய ர்
ற்ற ை
ிக ி
 தா க்கு
 நா டுக
மைய ாக
- ம்
த ொ
வ ன்
ர் ம
 மா தம்
ப ின்
 முடிய ும்
 செ ன்னை
னா தி
இந்த ிய
 வ ச
 கேள் வி
 உரு வா
ள வு
 அ தை
 அ க
. மு
 ம று
லு க்கு
ச்ச ை
 மிக வும்
 வ ல
 ச ுவ
 கிர ாம
ற ையில்
 ர ஷ்ய
 ந ல்ல
 அல ுவ
ிரு ப்ப
ைய ான
 வி டு
 செய்ய ப்பட்ட
ச ிர
ச ில
 மு ழு
டிய ோ
அ தி
ில ேயே
3 0
வர்க ளுக்கு
 சிற ு
 த னி
 குறி த்த
ாக ு
ள ம்
 வாய் ப்பு
ால ின்
  ஃ
்க ு
 தொ கு
 மு க
டு ப்ப
 பி டி
தி ரு
 ச ோ
ள ா
 ப ணி
 வி மான
க ளின்
 பதி வு
 எ ப்படி
 வா ங்க
வி ழ
 விசாரண ை
ொ ண்டு
 ப ற்றி
ற் சி
 தே வ
 ப ார்
ப்ப ெ
 முடிய ாது
 பொரு ளாதார
ந ர்
 காவ ல
 என்க ிறார்
 த வ
 விவ கார
ில ான
1 5
ம ூ
 அ டுத்த
 மருத்துவ ம
னி த
இந் நிலையில்
 கோ டி
ா மி
 எ டப்பாடி
 தலை மை
 வி ரு
ப ால
சா மி
ப ை
 மு ழுவ
ா ட்டு
 ச ாத
ச ே
 எதி ராக
ற்ற ிய
ச ன
 வி மர்
 ச ிக்க
 பெ ண்
1 2
 தா க்க
 பழ னி
 உ ரி
ிருந்த து
ண்ட ்
ா ட
 வி ட
ிக்க ை
 உ ற
 தகவ ல்
ல ாக
அ வர்
கு றி
 நட ந்து
 க டை
 அ ங்கு
 பூ ஜ
 குறிப்ப ிட
 தெரிவி க்க
 ஆ ளு
த்து வ
 மணி க்கு
 ஜ னாதி
மை ச்ச
 முன்ன ாள்
 செய் வ
 தேர்த லில்
 ம ர
 நா ட்க
 பகு தியில்
திய ை
பி எஸ்
ிக ளில்
ப ல
ப ்ட
 இ ல
 கே ட்ட
 முன் பு
 கொ டுத்த
 ஒரு வர்
செ ய
 பா திக்க
இ ரு
 விவ சாய
ை ப்பட
 ஒ ன்று
 குழந்த ை
ங்க ளின்
 நிற ு
ச ார்
ரோ னா
 அ தன்
 ம தி
 தீ விர
 வ ாக
னு க்கு
ம ையில்
 ம ின்
 ம ெ
 உண வு
 ப தவி
 பய ண
நில ை
ியு ள்ளார்
ீ டு
 நட த்தி
ன்ன ு
 சார் ப
 பிர ச்
 ச ிகி
ர்ச்ச ி
 நா ம்
என வே
ஆ ர்
ஷ ே
த்த ால்
 ஆய் வு
த்து ள்ளது
ம ோ
 தொழ ில்
ஸ்த ான்
 ட ெ
 அ த
 நிக ழ்
ார ்க
ஸ்த ான
 மூ ல
. எஸ்
 பக்த ர்கள்
 அ ரு
த்த ிற்க
 உள்ள ன
ன ே
 அ ங்க
லை க்க
 ம ட்டும்
 ஜ ெய
 அதிகார ிகள்
 ப ரி
 ஆ ர்
ன ின்
ம ொ
 வை க்க
 கூற ிய
 ம து
 வ ங்க
ியு ள்ள
 வேண்ட ிய
ப்ப ே
 எதி ர்க
ந்த ்
 கோ வில
 வீ டியோ
 பா ட
. ஜ
ர்த்த ு
 ரா ணுவ
 உய ர்
ீ ர
5 0
ு டன்
வ்வ ொரு
 இலங்க ை
1 1
 நட க்க
த லை
 குறிப்ப ிட்ட
 க டி
ச ன்
ன ில்
 ந ான
 ச ங்க
ட்ட த்தில்
 த டை
ரி டம்
 நி தி
த்த ான்
த்த ையும்
 ர ாம
 சொ ன்ன
த்த ா
இ தன்
 ஆய ிர
 த ன்
 செ ல
 முழுவ தும்
ப்பு கள்
  ட்
 மூ ன்று
 அ பி
 கா லை
 சூ ழ
 ஸ் ரீ
ெல்ல ி
ண்ட ி
 விள ையா
ன ும்
ம்ம ன்
 செ ல்
 வி ட்டு
டிய ே
நி தி
 ப ட்ட
 க ன
 வே று
 பெ ற
 தமிழ்நா டு
ன ்கள்
 க டு
 கொ டுக்க
ப ூ
 இட ங்களில்
ந ான்
 த ந்த
ப்ப ிர
 காவல ்து
 இஸ் ரே
 ஆத ரவ
 நேர த்தில்
 ஜ ன
20 0
00 0
ட ்கள்
 மே லும்
 தெரிவித்து ள்ளார்
 தொழ ில
டா ளுமன்ற
க்க ெ
க்க ோ
 கொ ள்க
க ர
 சம்ப வம்
 ரூப ாய்
அ தில்
 ந ிர
 வி ஜ
 செய்ய ும்
 சி வ
 ஆ ட்சி
 சு ற்று
 ம னை
 இ த
 உ தவி
 உறு தி
 அ ண்ண
 க ல்ல
ிக ளுக்கு
ெல்ல ாம்
 ஊ ழ
 வய து
ஸ் வர
 ஒ ப்ப
 போட்ட ிய
 ந ு
 லட்ச ம்
ந்து ள்ளது
 ப ங்கே
போ ல
 விர ும்ப
வ ருக்கு
 து ணை
 ப ள்ள
 ச ரிய
ப்ப டுவ
 உ ச்ச
 அலுவ லக
a n
 அ வரை
வர ாக
ப த்தில்
க ளும்
 த விர
 தே ர்வு
ரு ந்து
த்த க்க
ுக ள்
 நா ள்
நா ட்டு
 உய ிரி
 கீ ழ்
ம்ப ர்
ளை ஞ
ா டு
 சம்ப வ
 தொடர்ப ான
 காரண ம்
 ய ார
 இட ையே
 ய ா
ப ொ
 இ ப்போது
 ஆ ணைய
 பார்த்த ு
ர வு
விட்ட து
 ` `
ளு க்கான
 நா ங்கள்
 கோ வில்
 ஒ ரே
தொ ட
வர்க ளை
 ஜனாதி பதி
ின ால்
இத ையடுத்து
 மோ ச
 தமி ழ
று த்த
 அடி ப்பட
க்கு றி
 கே ட்டு
த்த க
ின ி
 விழ ா
 தே வை
 உட ல்
 வருக ிறார்
 மே ற்ப
 ய ோ
 எதிர் பார
 கூற ப்படுகிறது
 ஆ லோ
 அ டை
ா ட்ட
 க ல்வி
ரச ு
 போலீ ஸ
இ தை
ரிக்க ை
வர ின்
 மாவட்ட ம்
ல ைய
 கோ யில
 அள ிக்க
த்த ிலும்
ம ெ
 பிர தேச
ரு க்கும்
 உறு ப்பின
 வி தி
ோத னை
 அவ ருக்கு
 உ ண்
ா ச
 த ங்கள்
ும்ப ோது
க்க ொண்ட
 அ ர
ள் வ
 ஸ்ட ாலின்
 இர ண்ட
்ட ர்
ல ின்
 ஜ ூ
அ தை
த்த னர்
 சு மார்
 வாக ன
 ம ைய
ர ல்
ர்வ தேச
 உ த
 இ ளைஞ
ப்ப ின்
 க ண்டு
 விஷ ய
1 8
 பே ர
 கொ லை
த லில்
ட்டு க்கு
 சிகி ச்சை
வர்க ளின்
 இன்ன ும்
 வீ ட்டில்
 மேற்க ொள்ள
 ஜ ெ
 போ க
ஷ் ண
 க ள
ிய ார்
ழ மை
்க ளை
 ஏ ன்
நீ தி
இ தற்கு
 கொ ரோனா
ங்க ும்
 சார்ப ில்
 ர யில்
 கா ந்தி
 மோ டி
 கோ யில்
்க ா
 உ ட்ப
ம ையை
ிக ள
 நா டாளுமன்ற
 இ ந்து
ச ீ
ான து
தாக க்
 வந்த து
 கூட்ட ணி
 க ாய
 நடைபெற்ற து
 பிரச் னை
 வே ட்ப
ங்கள ும்
 மட்டு ம
 அள வில்
க்க ில்
 ஏற்ப ட்டு
 இ ணைய
ம்ப ெ
 ஏ ற்க
 மே ல்
த ெ
ற்ற ில்
 ச ரி
க்க ளை
 ச த
ூ ட
 பய ி
 த ுவ
தில் லை
ம் மா
 மு றைய
 கிடை க்க
 பு ற
ல ே
 ப ந்து
 வ ட
 வி ட்ட
 ர ாகு
 செய்த ி
ங்க ிய
ன ையில்
க்க த்தில்
 தமி ழ்
ிட ையே
 அழை த்து
ு ள்ள
ண ிய
மு தல்
தமி ழ்நா
 கூறுக ிறார்
 அ டைய
 கட்ச ியின்
1 4
ஃ ப்
ச ோ
 என க்கு
 அருக ே
த ோ
 ப டை
 ஏ ற்று
 ப தவ
 ஒ து
 அரச ாங்க
 வாழ ்க்க
 ம த
 திர ும்ப
ல்க ளை
க் ரை
 ந ூ
மைச்ச ர்
ஷ ன்
 கொ டுத்து
பு ரம்
i n
க்க ள
 ம ி
 வெ ள்ள
பா டு
வி ன
 கு டிய
 அ ப்ப
 பின் னர்
 செய ல்
வ் வா
ண் ப
ம க்கள்
ந ாத
 இ று
 பு து
 அனு ப்ப
 ம னித
த்த ும்
ரு வ
 ந ப
த்து க்
ஞ்ச ா
 தீர் மான
 அனு மதி
 ம ண்ட
 வா ழ்
 கல்ல ூ
 ட ிர
 விர ை
 அரச ின்
 அ ற
ார ்த்த
 என வும்
 பெண ்கள்
த ற்போது
ர் ப்ப
 வ கு
 எதி ர்க்க
 சி ங்
 இ ன்
 நெ ருக்க
 ஆலோ ச
ாக ்
 வில ை
ள்ள ன
 செயல ாளர்
 என்ற ால்
 பல ்க
ந ு
தி கள்
 ப ரிச
 கிடை க்கும்
 ம கி
ச ம்
 உள்ள னர்
 காவ ல்
 செ ல்வ
த ள
 பர பர
 ந ம்
ர ம
 ஒ வ்வொரு
 பிர ச்ச
று வ
வு டன்
தமி ழக
 குறி ப்பி
 தய ார
 அரச ிய
 நிறை வே
 சொ ந்த
 இல்ல ாத
 வர லா
ல ர்
 அதி பர்
 எ து
பி சி
 ச க
 அனு ம
 கி ள
பின் னர்
ிக ளின்
 ப ாத
ப்ப ாளர்
ச ூ
 புக ார்
 பண ம்
 ர சிக
 செய்த னர்
க்க ொள்ள
 கு ரு
 வே க
டுக ளை
ம்ப ு
 ஜ ோ
 மக்க ள
 சுவ ாமி
ன்ன ி
க்க ிர
 இ ழ
வர்க ள
1 6
ற்ற ம்
 எ டுத்த
ர் ப
த்தை ச்
ர்க ளும்
 பாதி ப்பு
ால ி
 போரா ட்ட
 ர ீ
 அமை ப்பு
 திட்ட ம்
ர ையா
 மேற்ப ட்ட
 தொட ங்கி
ப ்த
 உரி மை
1 3
 ம ை
 பே ச்ச
ந க
 ச ுக
ிரு ஷ்ண
க ன்
இ லங்க
வு கள்
 கு டி
 ப ை
 வல ியு
 குறிப்பிட த்தக்க
க்க ொ
ிய ாள
ா ண்ட
 என க்
ண ா
 ஓ பிஎஸ்
 த ள
 க ண்ண
 வரு ட
க்கூ டிய
க்கு ள்
 ப ாகி
 நீதி பதி
ர ிக
ப்ப ூ
 வி ற்ப
ஹ ி
ட்ட ர்
ிர ே
 மா லை
 இருக்க ிறார்
2 5
ார ம்
மா று
ு த
வ ாள
கள ையும்
த்து ள்ளார்
 வருக ின்றன
ிய ான
. ஏ
 க ைய
 மு ன்ப
 ந ாய
 ச ர்வதேச
e r
 உட ன
 ம ழை
ன்ன ீர்
 ஏற்ப டும்
 ஊ டக
 ப த்திர
 இர வு
 இய க்கு
க ொண்ட
 குற்ற ம்
 ஈடுப ட்ட
 வெ ற்ற
 நே ரம்
 ந ல
த்த ீ
ப்பி னர்
 நா டு
 போலீ சார்
வி ரு
ில ்தான்
 இட த்தில்
ிய ே
 என்ப தால்
 அதிக மாக
 தொடர் பு
க்கூ ட
லைக்க ழக
மை ப்பு
ர்த்த ி
 ஆகிய ோர்
நீதி மன்ற
 செய ்க
 வே ண்டு
ாத ம்
 கண ்கா
 த ிட
 வை ர
ோ க
 நடைபெ றும்
1 7
 க ாத
 ச ின்
ிற ு
1 00
2 4
டுத்து வ
ஜ ா
 சே வை
 கே ட்க
 அ தற்கு
 ஆ ப
 செலு த்த
 வர வே
 உ ள்
த்தி னர்
 ப ீ
த்த ியில்
ார ா
ந ோ
மான து
 பழனி சாமி
 அடிப்பட ையில்
 எதி ரான
 அ ட
த்தை ப்
 மனை வி
ப்ப ான
 நட த்திய
 கவ ன
ங்க ில
ாம லை
 குற்ற ச்ச
ா ண
வி னர்
 போலீஸ ார்
 செல்ல ும்
த ந்திர
 ப ங்க
 நக ர
 எதிர் ப்பு
அ தற்கு
 இ தை
 வெளிய ிட்டு
த்த ொ
ர ாள
த்த ிட்ட
ப ிற
 க லை
க்கு ப்
 பூஜ ை
 இ டை
 ஆ சிர
க்த ி
.எ ல்
 திட்ட மி
ில ோ
்த்த ு
ப்பட்டுள்ள ன
 வழக்க ில்
ம ார
 ஆளு நர்
 த ற்க
டு வது
ா டி
வ ரி
ட்ட ா
ே ஷ்
ில் லிய
a t
ல ாம
ரா ட்சி
க்கு ழு
 ப ள்ளி
த ீ
 ர ோ
த்தை க்
 பார ா
 பல்க லைக்கழக
திய ின்
 பிற ந்த
 த ண்ட
ிருந்த னர்
 பகுதி களில்
 கால த்தில்
 வி ழு
ாள ராக
 நிறுவ னம்
ம ற்ற
 ஆ ட்ட
 மூ த்த
விட்ட ார்
அத னால்
 ரஷ்ய ா
 மே ம்ப
டு க்கும்
 ஆர ம்பி
ந்த ில்
 போ ர்
 இட ம்
ட ல்
 ஆ வ
 திரும ணம்
 பய ணம்
்க ளுக்கு
 அதிக ம்
 சீ ன
ாவ ும்
ர க
 கா ட்ட
எ ன்
க்க ண
த்த ின
ன்னு டைய
 அ தே
 உ ற்ப
ிய ர்கள்
 பிர தி
இ ர
 ம றை
 ஆத ரவு
 ம னு
 போ ல்
 வெளிய ிட்ட
வர து
 ய ார்
போ ல்
 கட்டு ப்பா
 மருத்துவம னை
 பெ ண்ண
ற்க ு
 வெளிய ாக
ங்கி ணை
 திர ைப்பட
க்க ப்பட்டு
ப்பட வில்லை
 இணை ந்து
ர ங்க
ள ிக்க
வ ற்றை
 ப ரவ
 உ தவ
க்க ே
 க ர்
 ஆண்டுக ளுக்கு
வ ிய
ீ ர்கள்
ங்கள ாக
 எ ச்ச
 குறிப்பிடத்தக்க து
 திரு ப்ப
  ,
ந கர்
ர்கள ிடம்
. ப
எ ல்
த ையும்
ஷ ி
ப்பட்ட ன
 நோ ய
 அவ சிய
நாய க
ிக ை
ாய ம்
 திரு விழ
 நடைபெ ற
 கூட ாது
க்க ை
 இ ள
 நடைபெ ற்று
 அளி த்த
 வ லை
ன் றி
ட ாக
நு ட்ப
 பால ியல்
 செய்த ார்
 இது வரை
வ்வ ளவு
 முய ற்சி
ச ிக்க
 ய ூ
 தாக்கு தல்
 ச ர்ச்ச
ளு க்காக
 முன்ன ே
o n
 திரும ண
த ன
 நீ ண்ட
 நீதிமன்ற ம்
 செய்ய ப்பட்டு
 பதி ல
அ ரச
க ால
ன் பு
 இல்ல ாமல்
 அ தில்
 அடைய ாள
 நா டுகள்
 சத வீ
 மாண வர்கள்
க்குறி ப்பு
 உட்ப ட
4 0
 ட ெல்லி
ொ லை
 மாண வி
 இந்த ப்
 நீ ர்
 எ ஸ்
 வி ப
ப்ப டை
ள்ள தாக
ம ில்
ெ ய்
 இட ம்பெ
 தன ியார்
ட்ட ிற்கு
 கூறுக ையில்
ந்த ிய
த மாக
 பண ியா
 ஆ ன
டிய ில்
 தய ாரி
ங்கள ிலும்
பட க்குறிப்பு
தொட ர்ந்து
பி டி
 வ சி
 அறிக்க ை
 உள்ள ார்
 கோ ரிக்கை
 நீ ங்கள்
ம ணி
கு தி
 ப த
 வரு மான
2 3
 க டும்
 அ லங்க
 ஒரு ங்கிணை
 விச ாரி
ப ட்ட
 த ரிச
 சுக ாதார
 ப ங்கு
ம ான்
ழ ்த்த
 போ ட்டி
 பின் ன
 கா ட்ச
 இருந்த ாலும்
ிர ா
 தலை மைய
 இ ங்கு
வ்வா று
 அ ழு
 நட க்கும்
க்க ார
 வ ிரி
 நா ட்டின்
ண ியில்
 பெய ர்
ஷ ா
ன் ஸ்
 உ ங்கள்
 இருந்த ார்
 இஸ்ரே ல்
 இ ப்படி
 சந்தி த்து
ப ம்
த்த ன
 மா ட்ட
 முடிய ாத
 தொகு தி
 போ ட்டு
 தாக்க ல்
 ஆண்டுக ளாக
 மா தி
 எதிர்பார ்க்க
இ ன்று
 கு ழுவ
 மா ற
 கூட்ட ம்
 இருப்ப தாக
ழ க்கு
மு றைய
 சட்ட மன்ற
a r
ப்பு ற
இத ன
 மீ தான
 பு ரி
 வ டி
 எ ரி
2 2
 மகி ழ்ச்ச
வ ைய
 தலை மையில்
ப ார்
ைய ிலான
 ர ெ
 போ க்கு
 ய ு
 ஜ ி
 உருவா க்க
 நான ்கு
 கூ டிய
ஷே கம்
 பல ர்
அ வர்கள்
த ார
 வீ டு
 எல்ல ாம்
 நிகழ்ச்ச ி
. சி
 தெரிவித்து ள்ளது
 எண்ண ிக்கை
 வ ிக்
ர வை
க்க ல்
ய ூ
 த ண்ண
 நிறு த்த
 க ார்
ங்க ா
 மக்க ளுக்கு
 பிரி வு
ிக ா
 சில ர்
 ஆண்ட ில்
ப்பின ும்
  ரி
 அ ன்று
 ட ீ
ியு டன்
ிய ன்
 ஆர ம்ப
 அவ ர்களின்
்க ளில்
 ராகு ல்
ா ட்சி
ாள ி
 தலை வர்கள்
 சட்ட ம்
உ லக
ர த்தில்
நா ள்
 ஒது க்க
ன்ன ையில்
 உ க்ரை
ான ா
 வெ டி
 அதிகரி த்து
 குறிப்பி ட்டு
ராள மான
 வே ல
 அனை வரும்
இரு ப்பினும்
டிய ை
 முன்ன ிட்டு
அதி முக
ில்லிய ன்
 த ிக
 சந்த ிர
வெ ளி
ன்க ளை
 வ ன்
. தி
ன வே
 ச ோதனை
 வெளிய ிட
ரே ந்திர
 அமை க்க
த்த ே
ான ி
 அனும திக்க
 வ ரி
 வந்த ார்
ஞ்ச ி
ர ூ
 ஒப்ப ந்த
 ஆலோச னை
ெ டுக்க
 கூற ியுள்ளார்
ர ள
 பல ரும்
ற ையை
ி ழமை
 தவ ற
 அள வுக்கு
த ாவது
ிக ளும்
 நிய மி
குறி த்து
அ ங்கு
ரு டன்
 அறி வு
 ம ார்
 அமெரிக்க ா
ஜ ரா
அத ாவது
ஞ ர்
ம ின்
வ ச
 கூ டு
வு ன்
 சொல்ல ி
ய ி
 ஆ ன்
 சு தந்திர
 ஏற்பட்ட து
க ிறார்
திய ான
 தகவ ல்கள்
ப்ப டிய
 முக்கிய மான
ன்னீர் செ
ய ்ய
 ஆ று
இ ப்போது
 போரா ட்டம்
ள வில்
 ச ர
ன்ற ால்
நாய கர்
 ஆயிர ம்
 தொழில் நுட்ப
) ,
 பொரு ட்க
 அ டிக்க
 காவல்து றை
. ஆர்
 மாவட்ட த்தில்
ில ை
 தொ லை
அ ம
ந ிய
ப்ப ும்
ால ையில்
 க டன்
ங்கள ையும்
ில ுள்ள
 கடு மையாக
 ஆ ர்வ
வி டம்
` `
க ிர
ர ன்
 ப தில்
 போ ன
 ஆண்டுக ள்
 அறி முக
 தர ப்பு
ட்ட ிக்க
இத னை
 அறிவி க்க
ியு ள்ளனர்
 க ழி
 அனு ப
 வ ான
 கோவில ில்
 குற்றச்ச ாட்டு
வ ால்
 என் னை
 மா றி
சி ங்க
நா டு
ய ர்
 விற்ப னை
ர் மா
க் ஸ்
e n
 ப டம்
வரு க்கும்
 ம த்தியில்
 ஆர ாய
 ஒ ப்பு
 இறு தி
எ ன்று
மு ன்ன
 ஆ தி
 மே ல
 க ிலோ
 தே டி
 வெ ள
 உயிரி ழந்த
 உடன டியாக
வ ார
டு ப்பு
 போலீ ஸ்
ஜ ெ
களை ப்
 பாதிக்க ப்பட்ட
க்க ால
 கூட்ட த்தில்
 ம ண
 எழு ந்த
ச ல்
 பு தி
ப்போ தும்
 இருப்ப து
. ,
. டி
ப ொரு
 மு றையில்
 மக ன்
o r
டை ந்து
 குறை ந்த
ப ட்ச
 ச ை
 ஏ ராளமான
 அவ ர்களுக்கு
 சந்த ே
 முன் வை
 கிர ிக்க
ம டைந்த
வி டும்
 பு ல
 கவ னம்
 முதல மைச்சர்
ந ெ
 முறைய ாக
வ ால
 உ ற்ச
ஸ்த ிரே
2 1
பொ து
 ந கர்
ண்ட ை
 தெ ளி
ற வு
ர ான்
 த ாய்
 அ ம்ப
 சம ய
 ப ண்ண
 ர ன்கள்
 பே சி
 ப கி
 இ வர்
நா த்
 இருந்த ால்
 வி ளை
போ ன்ற
 நீதிமன்ற த்தில்
சா லை
 ப ற்றிய
.. ..
இந்த ியா
 இந்திய ாவில்
வ ந்த
செய ்ய
க்கூட ாது
 சின் ன
 மாநில ம்
 எது வும்
ீ ஸ்
 சம ீ
 ஓ ய்
எ ன்ன
 க ால்
 க ான்
 மருத்துவம னையில்
 ஹ ி
a l
ு ம
 வ ண
 விவகார ம்
 ப ற
நா டக
 அனு ப்பி
 ந ண்ப
ட ே
 ஈடுப ட்டு
 அந்த ப்
த்த னை
 நா ட்டில்
ிய ம்
 ந ரேந்திர
த் ய
வு க
 பி பிசி
 முடிய வில்லை
 சா லை
 மக்க ளின்
 பண ிய
பா ஜக
 இரு வரும்
 தேவ ையான
 கண்கா ணி
இ வர்
ச ர
ச்ச ே
 மேற்க ொண்ட
 வேண்ட ாம்
 நி திய
 ஹ ெ
 கை ப்ப
நீ ர்
ப்பெ ரிய
ங்க ை
 கு ழ
 சீ னா
குறி ப்பாக
த்தக ைய
க்கண க்கான
 ப கவ
 ம ார
ப்ப தி
ன ோ
 அ க்க
ிட ்
 நா ட்கள்
 ப ட்டிய
 க ழக
 இந்திய ாவின்
 மூ ன்ற
 ட ாக
 வ கை
வ ோ
ட் பு
 பிரத ம
 அ ப
 கால ம்
 ஆகிய ோ
ால ்தான்
தற்க ும்
 குறிப்பிட்ட ார்
ர ாம
 அதி ர்ச்ச
  லா
 பாரா ளுமன்ற
 சே ர்க்க
வர்க ளில்
ுக ிறது
ர ்ட
ஹ ா
ன ாக
 ச ிர
 த ன்னுடைய
வா தி
 த ாய
 நடக்க ிறது
 மா ற்று
 அதிகார ி
 ஒன்ற ை
வ ாய்
ற்க ை
 கா ட்டு
றைய ினர்
அ வ
ஞ ான
ராஜ ்
ஆ க
 கா த்த
 ம ிர
 அவ ்
பிற கு
 தெ ாட
டுக ிறது
 முய ற்ச
  ஸ்க
ட ர்
 வ ன
 சிற ப்பாக
 நிறைவே ற்ற
- ஆம்
ப்ப ிய
 ஆ னால்
ு மா
 ந ாக
 சே ர்ந்து
 விமர் சி
 த ற்ப
 அ ம்மன்
ங்கள து
 ப றி
ா லை
 ப ால்
வு களை
 த ான
ன் மை
மா ள்
ற்ற ின்
 நா ளை
நா ட்டில்
 ஏற்ப ட
 ஷ ா
 ர ே
ள ையும்
 ப க்க
னை கள்
 புக ைப்பட
ீர ென
ூ ரில்
த்திர ை
ம ்தான்
இ ல்
ஸ் லி
 க ப்ப
 மிக ப்பெரிய
ரு மான
 செய்ய ப்பட்டது
ம க்கு
ழ ும்
த்தை த்
பு ண
 போட்ட ியில்
 சக ோத
ட ன
ம ிக
ுவ ார்த்த
ப ய
ர ையில்
ழ ில்
 இ ன
ிருக்க ிறார்கள்
 உய ிர
 பேச ினார்
 வீர ர்கள்
ான ை
ம த்திய
 ப ்
 அத னை
 இ ன்ற
 அவ ர்களை
 அவர ின்
ல லி
ா ண்டு
த்த ிலிருந்து
ாக ும்
ிரு ப்பது
 க த
 குழந்த ைகள்
 ம ாக
 செய் வது
க்க ொண்டு
வர த்து
 சட்ட ச
 நோ க்கி
 விஜ ய
வ ியல்
ப்ப ூர்
 க ும்ப
 த ாம
ல்ல ா
 மேற்க ு
ச ர்
வ ருக
மி ட
 வார ்த்த
ப்ப ர்
 சொ ல்க
ப ான்
 உ டன்
ுக ளை
 கோயில ில்
ன ைய
வி த
 மட்டும ல்ல
 இ தில்
 வழங்க ுவ
ப்படுக ின்றன
இந்த ப்
 மது ரை
ின்ற து
க ூ
ந்து ள்ள
 க ல்
 த ரு
 ர ண
த்து வம்
 ம ருந்து
த்திற்க ும்
 யார ும்
 உ டை
 செய்த து
 ஆய ுத
 அண்ண ாமலை
 தொ ண்ட
 சே ர்த்து
 வி திக்க
 ஹ ோ
 அள வு
 க ௌ
ளி த்த
 சிற ந்த
 பண ிகள்
 எ ங்கள்
 கொ ல்ல
வே ண்டும்
 ஆக ும்
 பயி ற்சி
 போ ய்
ரா சிர
 நி புண
த ூ
கார ா
வ ாத
ர ்ட்
 வா ங்கி
 இய க்க
 மாற்ற ம்
 அ டைந்த
ற்ற ும்
வர ா
 தெ ன்
 ஐ ந்து
 இருக்க ிற
  லி
இ ப்படி
 தரிச னம்
பு ற
 ம கா
 பேச்ச ுவார்த்த
ன ையை
  S
ெ ழு
 த ன்னை
ச ிற
 முடி ந்த
 எழு திய
 க ணி
ம லை
ிருக்க ின்றனர்
அ ப்படி
 என து
 வழ ியாக
 செய்த ியாள
ாம ா
 வி ண்ண
 வி க்கெ
 கு மார்
 மின் சார
 இ தற்கு
ஞ்ச ம்
 அ ச்ச
ப்ப ம்
ைய ோ
 இந்த க்
 ராஜ ப
 நம்ப ிக்கை
 கடு மையான
 பாகி ஸ்தான்
த்து ள்ள
 விரு து
 நடை முறை
 த டுப்ப
 மு ருக
அம ெரிக்க
 என த்
 தே ர்
ழி ப்பு
 பிர பல
 சூ ழ்
 வலியு று
2 7
6 0
 த ிருக்க
ும்ப ை
 ட் விட்ட
ரிய ா
 தந்த ை
ம க்க
 ப க்கம்
 இ னி
 மாநில த்தில்
இ தே
 விடு தலை
- வது
 க ும்
 என்க ிற
 மொ த்த
ல் வம்
 ச சிக
 கிடை த்த
 உயிரி ழ
 திருவிழ ா
க ்ச
 க லா
 பிர ச்சி
 பந்து வீ
 வ ாய
 நிர்வாக ிகள்
ப்ப தாக
க மாக
 நு ழை
e s
ை ப்
ர்க ளில்
ய ு
 அ ச
 இந்த த்
அதன் படி
 கரு த
ல ூர்
 எ ளி
நில ைய
 ஆராய ்ச்ச
 வள ர்ச்சி
த்த ல்
 பு ர
வீ ன
 பால ா
 விவகார த்தில்
 எதிர்க்க ட்ச
 அ வை
ட் ஸ்
 அறிக்க ையில்
 வெ ன்ற
ண ு
ம ம்
 ந கை
 கிட ைய
ற் சிய
 மா நக
ரிய ில்
 சுற்று லா
 தின ம்
்ட ோ
 அபி விரு
 சொ த்து
 கொ ள்வ
 பண ியில்
 கண்ட ி
 தொ ற்று
 ஏ ற்ற
 எதிர்க ால
த்த ூர்
இது குறித்து
ல ையில்
 ப ட்
 ஏற்ப ா
 உறு ப்பினர்
கா ங்கிர
 பொது மக்கள்
இ ங்கு
க் ரே
19 9
 துவ ங்க
ண ்கள்
- ல்
 சிற ுவ
்து றை
நே ற்று
 மு தலில்
 மேற்க ொண்டு
 குறித்த ும்
 உற்ப த்தி
ஷே க
 வகு ப்பு
ந்த ர
ப்ப தற்கு
ங்க ல்
 சூ ரிய
 ஆண்டுக ளில்
2 8
ண்ட ிய
மி த்
. ஐ
2 6
 த ை
 நாட்க ளுக்கு
 மோ தி
 சூழ லில்
இ தற்க
 கு ஜரா
 பே ராசிர
 விரை வில்
 கிடைய ாது
 ச ப
 கு வி
 வழங்க ப்படும்
 மாக ாண
  A
 வ ங்கி
தி முக
 வி வர
 தலை வராக
 வ ியா
 கிரிக்க ெட்
ச ரி
 அ ம்மா
ீ ன்
 க தை
கு தியில்
அ டுத்த
 ப டைய
 அ மர்
 நா ட்டு
 தெரிவித்த னர்
 புரி ந்து
 உ ரிய
 ஏற்படுத்த ி
  டை
அ வரது
ட ெல்லி
 நிறுவன ங்கள்
பால ான
 ந வ
 அ ந்
 பே ருந்து
ன்னீர்செ ல்வம்
.. .
ச ியில்
தி லும்
 கடை சி
வ தற்கு
 அ ம்
 உ ங்களுக்கு
 மக்க ளை
ந்த ர்
 பின் ப
 டாக ்டர்
்ட ு
 க ர
 நிலைய த்தில்
 ஆய் வ
பா பி
ன்க ொ
ப ீ
 ந பர்
தை ப்
 வர ்த்த
 பகு தியை
 தற்க ொலை
ுவ ை
 நெ ரு
இந்திய ாவில்
இ ஸ்
ன ிய
 அதிகரி க்கும்
 திட ீரென
5 00
ம ன
ழ ்க
 த டுக்க
 அருக ில்
 ஆவ ண
 வலை தள
 ட ா
ீ ட்டு
 பெண ்க
அதே போல
 அரு ள்
ந்த ார்
 ந ிற்க
 என ும்
 வந்த னர்
 தொடங்க ிய
பிர த
 ரூப ாய
 ச தவி
 அ ம்ம
த ர்
 குடிய ரசு
 தலைமைய ிலான
த ோடு
ன ல்
 சு ய
 வருக ிறார்கள்
 தர ப்பில்
 ஏற்பட்டு ள்ளது
எ ம்
ர் ண
 அ ரி
 சதவி கி
வ தாக
 இருக்க லாம்
 அறிவி ப்பு
 மர ண
 மதி ப்ப
 இரண்ட ாவது
ா ந்து
 சிற ிய
 விழ ாவில்
 வ ட்ட
ரு டைய
 கீ ழ
 ர த்து
 தெ ரிக
ஷ் மீ
 பயன்படுத்த ி
எ தி
ங்கள ால்
 பேச ுக
 மற்ற ொரு
 அதிக மான
நா ங்கள்
 கொண்ட ிருந்த
வ ார்
 விள க்க
 மு தன்
 பே ட்ட
ப்படுத்த ி
 முய ன்ற
 பரி ந்து
ள ே
ா ரு
 வ ளாக
 செய ற்ப
காரா ஷ்ட
 க ிருஷ்ண
ரிய ாத
 ம லை
ின ும்
இந்த ச்
 வா க்க
ாவ ிற்கு
 அவசிய ம்
 வச தி
 மார் ச்
ைய ிலும்
 ட ே
ளு டைய
 நிற ைய
 கல்லூ ரி
 மு ஸ்லி
 பிர ிட்ட
 வெளிய ாகி
 ஆட்ச ியில்
 பார் வைய
ஸ ின்
ப்பட்ட ார்
 நம்ப ிக்க
 நாள ில்
 எ ங்களுக்கு
ாள ைய
 தொடர்ப ில்
 ர த்த
பெ ற்ற
 உ ண்டு
 ஏ மா
 ரண ில்
ண ்க
 வி த்திய
 ல ே
 தெரிய வ
i s
பி டிக்க
 ந மது
 பிர ே
களை க்
 ரா சி
 அதி ர
 ப வு
 வீ ட்டு
கவ ின்
 நினை க்க
 வழக்க றி
 மாவட்ட ங்களில்
கள ிலும்
ு ங்கள்
 க ம
ப்ப ிக்க
 போக்கு வரத்து
 ப ண்ட
 ப ற்ற
 தே ர்ந்த
ட் ரோ
 அதிக ரிக்க
 விப த்து
ச்ச ெய
 அ ழ
 நடி கர்
ூ ர
 உ ட்க
 இரு க்கு
 சா ப்ப
 பெரு மாள்
 தெரிய வில்லை
ம ண
ழ க்க
ப ால்
 போ ட
 சம்ப ந்த
 நிகழ்ச்ச ியில்
 ஒ த்து
 அரசு க்கு
 தெரிய ும்
 அழை க்க
 நிர்வாக ம்
 கொள்க ை
 ஜூ லை
ப டுத்த
 ஒ ழு
 சு ட்டிக்க
 ரசிக ர்கள்
 செய்ய ப்பட்டுள்ளது
 மாநில ங்களில்
 தொடங்க ியது
ஸ ில்
 பொறு த்த
 தண்ண ீர்
 கூடு தல்
ம ிருந்து
 க ள்ள
 ட ால
 சிற ை
 அண ியின்
 ஆ ஸ்திரே
 செ ன்னையில்
 பிர சார
 பரபர ப்பை
 தண்ட னை
  B
ஸ ை
வே ன்
 அவ ர்கள
ோத ைய
 த ட
 உ ரையா
 விஜ ய்
ற ையும்
 க மி
ங்களை ப்
 வெளி நாட்டு
 விளையா ட்டு
ரா ட்ச
டுக ளில்
 புக ார
 பெற்ற ோ
 வாழ்க்க ை
 விக் ரம
ம ிற
 இருக்க ின்றன
ப்பா டு
 பொறு ப்பு
ஸ்வர ர்
 ஏற்க னவே
எல் ஏ
. வி
 கட்ச ிய
 சரிய ாக
 உக்ரை ன்
 ப ண்
 நி ச்ச
 நாடுக ளில்
 க ாம
 இஸ் லாம
 பங்கே ற்ற
 தெரிக ிறது
 வித்திய ாச
வ ிற்கு
 த ள்ள
 து ப்பா
 கு ண
ாள ர்களை
 தமிழக த்தில்
க ொள்ள
ம க
ி ங்
ிய ம்மன்
 உ த்த
 உரு வாக
 தமிழ்நா ட்டில்
 உண் மை
 சந்தி த்த
ட ோ
 தன க்கு
இலங்க ை
 பொது க்குழு
 வில க
 திரு வ
 மாண வ
 அவ் வ
 ப ாக
விட்ட ால்
 சரிய ான
வ ையில்
 ச க்தி
 ஏற்ப ாடு
ாய ி
 பு த்தக
 சந்த ிக்க
 விமர் ச
 நிய ூ
 ஜூ ன்
 உத ய
 ப க்கத்தில்
 க ம்ப
ப் ரல்
ங்க ம்
 நட ்ச
 ஜ ே
ப்படுத்த ும்
 செல வு
 ச ான்
லா க்க
ரவ ரி
 கும் பாபி
 நட்ச த்திர
றைய ின்
 ஜன நாயக
 வ லி
வி க்க
 நிறுவன த்தின்
ச ில்
 செ ல்க
 கூ ட்டு
ஞ்ச ு
 எல்ல ா
 கள மிற
ர ால்
ப் ரவரி
 எதி ர்த்து
 சில ை
 கண்ட றிய
 வீ ட்டுக்கு
 தவ று
 அ ப்படி
டு மை
ர்க ளாக
ிருக்க ின்றன
 முழு மையாக
  t
ச்ச ார
 பேச ுவ
 கி ழக்கு
 பகி ர்ந்து
 கட ற்ப
 வழங்க ும்
i t
 சு ற்றி
ஸ்ட ாலின்
ிக ர
 வழங்க ி
 கட்ச ிகள்
 பரிந்து ரை
 க ையில்
தமிழ்நா ட்டில்
த்த ிலேயே
மாக க்
பா த்
ாதார ம்
மொ த்த
ன ாலும்
 சொ ல்
லை ன்
 பிடி த்து
 இயக்கு நர்
 அபிவிரு த்தி
 உய ர்த்த
 அ றிய
 ஓ ட்டு
 சா தி
 ல ெ
ந்திர ன்
 அலங்க ார
ற்ப ு
 கலந்து ரையா
 ப ஞ்சா
ந்த ா
க்கு ச்
 கொண்ட னர்
 கடி தம்
  C
மாக ும்
வர்க ளும்
 நிலை மை
 மொ ழ
ோ ட
மா ஸ்
 மீ ன
 பெய ரில்
 எம் எல்ஏ
 அங்க ீ
2 9
ம ழை
ு மி
நா ட்டின்
 வழங்க ிய
 ஹ ே
றுக ிறது
ர ஷ்ய
 த ங்களது
மா ண
 செயல் பா
 திக தி
  M
 ச ினி
 அ டுத்து
 எ ல்லை
 பெ ரி
இந்த க்
 தடுப்ப ூ
i c
 ந ன்ற
வி ட்
 நேர டியாக
ைய ுடன்
 தொ கை
 ஆகிய வ
க்கூ டும்
 ஆளு ந
 நாட்க ளில்
 மதி ப்பு
 ஜெய லலி
க ாவ
ர்க ளுடன்
 தீ ர்வு
செய ்த
 நெருக்க டி
a m
ந்த ை
 வி த
 பே ச்சு
 தீர் ப்பு
 கர் நாடக
காங்கிர ஸ்
ிருந்த ால்
 த ம்ப
த்து ள்ளனர்
 உத்தர வு
 சகோத ர
 அ க்
 ஆ டி
 நே ரில்
 உறுப்பின ர்கள்
 சட்டச பை
வ ாய
 த ன்ன
 எ ங்க
 சிற ையில்
 திட்ட த்தை
ிருப்ப தாக
 பிரதி நிதி
ல த்தில்
ன் ட்
 வ ரிச
 எ வ்வளவு
பு ரி
ென வே
ஏ ன
 முன்ன ெ
்கு மார்
 குற்றம் சா
 சந்தே க
ு ந்த
 ந ின்
 எ ப்போதும்
 பே ட்டி
 மருத்து வர்
க ிரி
ய ோ
 அ ழக
 ஒ லி
 ஆகிய வை
ராஜ ன்
 க ட்டி
 சார் ந்த
இ ன்ன
 ப டுக
 வ லு
 கே ப்ட
ியை ப்
ங்களை க்
 மொ த்தம்
 இடம்பெ ற்ற
ள்ள ை
 குற்ற வாள
த்திற்க ாக
 மோச மான
 வ கி
 ஒ ளி
ப்பட்ட னர்
 வீ ழ்த்த
 ஏற்படுத்த ியுள்ளது
 மூல மாக
தமிழ்நா டு
 ச ன
கள ால்
 பரிச ோதனை
க ல்
 வெளிய ான
 பண த்தை
 ம ில்லியன்
 ச னி
 வழ க்கம்
 நடவடிக்கை கள்
பிரத மர்
 உ ள
 பெ றுவ
ம்ப ர
 வருவ தாக
 க வுன்
 ர க
ளி ர்
 மீ ட்க
 ஒன்ற ாக
7 0
 பெரும் பாலான
ச ம
ி ர்
 த ிரி
 அ ப்பா
ையை ப்
 நோ க்க
பெ ரும்
.எ ன்
ப்பதி வு
 ஒத்து ழை
 தெரி ந்து
மொ ழி
 ரீ தியாக
டி த்து
வ க
ிக்க ொண்ட
 சா த்திய
 அண ுக
எ ந்த
ந ட
க்க ர்
 இ தன்
ல்க ளில்
 ந டு
 என்ப வர்
ாரண ம்
 செயல்ப ட்டு
ெ ன்றால்
 பய ங்க
 கலந்து கொண்ட
 வன் முறை
அ னை
 எழு ப்ப
அதே போல்
  T
ஜ ூ
ைய ொ
ிக்க ப்பட்ட
 தோ ல்வ
 தோ ல்வி
மா நில
தே ர்த
போ தும்
த்து க்கும்
ஸ்ட ர்
 திர ா
 சசிக லா
ச ுவ
ஹ ்
 ப ஞ்ச
 ஓ ர்
மில் லை
்டோ பர்
 ம ற
ண் மை
ின ம்
 விவசாய ிகள்
 அழைத்து ச்
 நோ ய்
 முதல ீ
 அரசாங்க ம்
 மீ ன்
ம் ஸ்
 நி மிட
 உ ண்ட
்க்க ு
 பொரு ட்கள்
ு ல்
க்க ட்ட
 ஊழ ிய
 வடி வ
ில ிருந்த
 கிர க
  P
ந ிக
ம ்த
டிய ும்
பு து
 இருப்ப தால்
 ஆதரவ ாக
 விமர் சன
 பிரச்ச னை
 ம ட
 அ று
வர ையும்
 கார ்த்த
 நடத்தி னர்
 போட்டிய ிட
 கண்டு பிடி
ஏ ற்க
ம ல்ல
 ர ொ
 கொ டுப்ப
ம்ப ா
 கட ல்
 நிகழ் வு
தி ல
 உள்ள ே
 கே ரள
 சூழ ல்
 வி நாயகர்
 கா ப்பா
 சி ங்க
 உற வின
ஃ ப
 விவ ாத
க ும்
க்க ெட்
 கா ஷ்மீ
ம ்க
வ ட
ெல்ல ியில்
 கௌ ரவ
தி க
ன்ன ா
பு ர
 திட்ட த்தின்
 கவ லை
ன ியா
ை க்
ம்ப ரம்
 கோ வை
ையை க்
 ஆணைய ம்
 விக்ரம சிங்க
ச மீ
ள் வது
 பக்த ர்களுக்கு
ல ாளர்
 ஆ ளும்
ிருக்க லாம்
அத ன
 தீவிர மாக
 மாதி ரி
ண்ட ர்
வே ளை
 போட்ட ிகளில்
 பொருட்க ளை
3 5
க ரி
 உள்ள தாக
 சேர்ந்த வர்
 வலியு றுத்த
 மூல ாதாரம்
வர ான
 செய்த ுக
ாய் வு
 ஊ ர்வ
 பர ாம
 க ிட்ட
ப்ப ொரு
 கா ட்சி
 முழு க்க
 வெ ங்க
 பே ருக்கு
 பதி விட்டு
 ஏற்படுத்த ும்
 முதல ீடு
 முடிவு கள்
ல மாக
க்கு ழுவ
 கொண்ட ார்
 அடி த்து
 பிரச்சி னை
 ச ட
 செ ந்தில்
ரி மை
 வேக மாக
 முன்ப ாக
 சமீ பத்தில்
. ஜி
 ச வால
 பய ன்
 கொண்ட ாட
 மோ தல்
 செயல்ப டுத்த
 விஷ யம்
இ தற்காக
வு க்கும்
 த லைய
ும் பி
 ஆ ல
 பி டிக்க
 கட்ச ியில்
ஷ ம்
த்த ான
 பட த்தில்
 உள்ள ாட்சி
 ஆத ார
 ஃ ப
 ம ரியாத
 நினை வு
 அடையாள ம்
ச ம்பர்
 பா ஜ
 அலுவலக த்தில்
தமிழக த்தில்
 அடிக்க டி
 வெள ியு
 பேச்சுவார்த்த ை
 நா ட்டை
 தயார ாக
3 1
ீ ப்
 இ ழு
 வி டுத்து
நீ ங்கள்
 பங்கே ற்க
 பாகி ஸ்தான
" 

ப்ப ன்
ப்பு க்கு
 ஜ ா
.க ே
 கண வர்
 கு ள
 ஐ க்கிய
 இல வச
i on
 இ ல்
ார ாய
 இற ந்த
 இத னை
 சதவீ த
ண்ட ே
பு திய
 இருக்க ிறார்கள்
 அமைச்ச ர்கள்
 கண க்கு
 ஒன்ற ில்
 வல ுவ
ம் மு
ிற ி
 அவ சர
 சு ற்ற
 சட்ட த்தின்
 எதிர் பார்
ப்ப டுத்து
 என ப்
 அவ ருடைய
 அந்த க்
 விள க்கம்
 பழ ைய
ஒ வ்வொரு
க ளுடன்
 ப ான
 அ ழி
டு க்கு
ிக ைய
 திரு த்த
 அறிவி த்த
 மொ ழி
 ஹ ை
ஜி த்
 வை க்கப்பட்ட
 குறை க்க
19 8
 வார ம்
 உற வு
 சே ர்த்த
 ய ாத
 வழி பாடு
ைய ால்
ிக ு
ிக்க ிழமை
 இது போன்ற
 ம ால
 அ மித்
இந்த த்
 தொடர் ச்ச
 கட்ட ண
ந ல
 ப டிக்க
 ஏ ப்ரல்
 வண ிக
டன ான
 பேராசிர ியர்
 எழு தி
 க ன்ன
களை த்
 கிராம த்தில்
 ம ான
 உ ழை
  N
ங்க ில்
வை த்
 தொகு தியில்
 எழுந்த ரு
ச்சே ரி
 உயர் நீதிமன்ற
. மீ
 வீ ட்ட
நாய க்க
 வ ிய
ப்ப தற்காக
 ர யில
ண் மையில்
ரிய ான
 வழங்க ப்பட்டது
ன ்த
 த க்க
 வெ றும்
 அணி க்கு
நே ரம்
 கண்டு பிடிக்க
 வேட்ப ாளர்
  I
ம ணிய
 ப ல்ல
 அனை த்தும்
 வெளியு றவு
அ த்துடன்
ரு ப்த
 சென்ற னர்
4 5
ஞ ்
 ஆ ங்கில
 கு ர
டுக ிறார்
பூ ர்வ
 பதவ ியை
ம ன்
ா ட்
க்கு மார்
ட்ச ிய
 எண்ண ிக்க
 விரும்ப ுக
இதன ிடையே
  .

ச ாம
ம ர
ஸ் வ
 வீ ச
 பண ிகளை
7 5
த ைய
ள ால்
 த ரும்
 வி நிய
 கட்ச ியை
 பிடி த்த
 இரண்ட ாம்
ட ெ
 ம ரு
 ச பா
 அ ப்போது
 எ ப்போது
று வது
ச்ச ெ
விட்ட னர்
 கூட்ட ண
மூ லம்
ிய ிருக்கிறது
 இ தே
 இட ையிலான
 எண்ண ெய்
 நின் று
உ ட
ரோ க்கிய
அத ோடு
ந ாம்
ந்த ைய
 வி டுத்த
 வைர ஸ்
 விக்கெ ட்டு
ண ும்
ப ழ
 போ தும்
கு ரு
 முக்கிய த்துவம்
அ ரசு
 ச ல
ச்ச ூ
 தொ க
ிற்க ும்
ப்பட ாத
 கூறுக ின்றனர்
ப்ட ம்பர்
 வரு வது
 முடிய ாமல்
 வீர ர்
 அபி ஷேகம்
 ஓய் வு
 ம கள்
 குறை வாக
 அ ணை
 பெ றும்
 முக மது
 நிர ூ
இர ண்டு
 த ியாக
வே ல்
 ஒப்ப டை
 வ ல்ல
 ம ய
வர ில்
ப்பூ ர்வ
ார ாம்
 அதி ருப்த
 சி ந்த
 தகவ ல்களை
8 0
 ர வி
கொ ரோனா
 இளைஞ ர்
 பெ ட்ரோ
ாள ர்களுக்கு
 கோ ரிக்க
 வீ தி
 பெய ரை
த ர
 நாட்க ளாக
ம் ப்
ர்க ளுக்கும்
ாத னை
 சென்ற ார்
 ஏற்படுத்த ியது
 போரா ட்டத்தில்
 கடி த
 திட்டமி ட்டு
 ச து
ஸ் ரீ
 பிர ச
 முடி வுக்கு
 நடவடிக்கை களை
முன்ன தாக
a s
ய ின்
 த ப்பி
ில ி
 பய ணி
 தவிர ்க்க
ழும் பு
ண ன்
 க ்
திய ம்
 இற ந்து
 ஆட்ச ியை
 ஒருங்கிணை ப்பாளர்
 வர்த்த க
 மு ற்ற
 செல் போ
ச ம்ப
 அ லை
ன்ற ைய
 செய்ய ப்படும்
 பழ ங்கு
 திரா விட
ீ ன
கு ழந்த
ட னும்
 கோ ரி
 திற ந்து
 வார்த்த ை
 பாலா ஜி
