{
  "version": "1.0",
  "truncation": null,
  "padding": null,
  "added_tokens": [],
  "normalizer": null,
  "pre_tokenizer": {
    "type": "Sequence",
    "pretokenizers": [
      {
        "type": "Split",
        "pattern": {
          "Regex": "[^\\r\\n\\p{L}\\p{N}]?[\\p{Lu}\\p{Lt}\\p{Lm}\\p{Lo}\\p{M}]*[\\p{Ll}\\p{Lm}\\p{Lo}\\p{M}]+|[^\\r\\n\\p{L}\\p{N}]?[\\p{Lu}\\p{Lt}\\p{Lm}\\p{Lo}\\p{M}]+[\\p{Ll}\\p{Lm}\\p{Lo}\\p{M}]*|\\p{N}{1,3}| ?[^\\s\\p{L}\\p{N}]+[\\r\\n/]*|\\s*[\\r\\n]+|\\s+(?!\\S)|\\s+"
        },
        "behavior": "Isolated",
        "invert": false
      }
    ]
  },
  "post_processor": null,
  "decoder": null,
  "model": {
    "type": "BPE",
    "dropout": null,
    "unk_token": null,
    "continuing_subword_prefix": null,
    "end_of_word_suffix": null,
    "fuse_unk": false,
    "byte_fallback": false,
    "ignore_merges": false,
    "vocab": {
      "\n": 0,
      " ": 1,
      "!": 2,
      "\"": 3,
      "#": 4,
      "$": 5,
      "%": 6,
      "&": 7,
      "'": 8,
      "(": 9,
      ")": 10,
      "*": 11,
      "+": 12,
      ",": 13,
      "-": 14,
      ".": 15,
      "/": 16,
      "0": 17,
      "1": 18,
      "2": 19,
      "3": 20,
      "4": 21,
      "5": 22,
      "6": 23,
      "7": 24,
      "8": 25,
      "9": 26,
      ":": 27,
      ";": 28,
      "<": 29,
      "=": 30,
      ">": 31,
      "?": 32,
      "@": 33,
      "A": 34,
      "B": 35,
      "C": 36,
      "D": 37,
      "E": 38,
      "F": 39,
      "G": 40,
      "H": 41,
      "I": 42,
      "J": 43,
      "K": 44,
      "L": 45,
      "M": 46,
      "N": 47,
      "O": 48,
      "P": 49,
      "Q": 50,
      "R": 51,
      "S": 52,
      "T": 53,
      "U": 54,
      "V": 55,
      "W": 56,
      "X": 57,
      "Y": 58,
      "Z": 59,
      "[": 60,
      "\\": 61,
      "]": 62,
      "^": 63,
      "_": 64,
      "`": 65,
      "a": 66,
      "b": 67,
      "c": 68,
      "d": 69,
      "e": 70,
      "f": 71,
      "g": 72,
      "h": 73,
      "i": 74,
      "j": 75,
      "k": 76,
      "l": 77,
      "m": 78,
      "n": 79,
      "o": 80,
      "p": 81,
      "q": 82,
      "r": 83,
      "s": 84,
      "t": 85,
      "u": 86,
      "v": 87,
      "w": 88,
      "x": 89,
      "y": 90,
      "z": 91,
      "{": 92,
      "}": 93,
      "~": 94,
      "£": 95,
      "§": 96,
      "¨": 97,
      "­": 98,
      "®": 99,
      "°": 100,
      "·": 101,
      "½": 102,
      "Á": 103,
      "×": 104,
      "å": 105,
      "é": 106,
      "í": 107,
      "ñ": 108,
      "ô": 109,
      "õ": 110,
      "ö": 111,
      "÷": 112,
      "ł": 113,
      "ō": 114,
      "š": 115,
      "ʻ": 116,
      "إ": 117,
      "ا": 118,
      "د": 119,
      "ر": 120,
      "س": 121,
      "ل": 122,
      "م": 123,
      "ه": 124,
      "و": 125,
      "ي": 126,
      "ं": 127,
      "अ": 128,
      "आ": 129,
      "इ": 130,
      "ई": 131,
      "उ": 132,
      "ए": 133,
      "औ": 134,
      "क": 135,
      "ख": 136,
      "ग": 137,
      "घ": 138,
      "च": 139,
      "छ": 140,
      "ज": 141,
      "ट": 142,
      "ड": 143,
      "ण": 144,
      "त": 145,
      "थ": 146,
      "द": 147,
      "ध": 148,
      "न": 149,
      "प": 150,
      "फ": 151,
      "ब": 152,
      "भ": 153,
      "म": 154,
      "य": 155,
      "र": 156,
      "ल": 157,
      "व": 158,
      "श": 159,
      "ष": 160,
      "स": 161,
      "ह": 162,
      "़": 163,
      "ा": 164,
      "ि": 165,
      "ी": 166,
      "ु": 167,
      "ू": 168,
      "े": 169,
      "ै": 170,
      "ो": 171,
      "ौ": 172,
      "्": 173,
      "ड़": 174,
      "।": 175,
      "અ": 176,
      "આ": 177,
      "ઉ": 178,
      "ઓ": 179,
      "ક": 180,
      "ખ": 181,
      "જ": 182,
      "ટ": 183,
      "ણ": 184,
      "ત": 185,
      "થ": 186,
      "દ": 187,
      "ન": 188,
      "પ": 189,
      "ફ": 190,
      "ભ": 191,
      "મ": 192,
      "ય": 193,
      "ર": 194,
      "લ": 195,
      "વ": 196,
      "સ": 197,
      "ા": 198,
      "િ": 199,
      "ી": 200,
      "ે": 201,
      "ો": 202,
      "્": 203,
      "ஃ": 204,
      "அ": 205,
      "ஆ": 206,
      "இ": 207,
      "ஈ": 208,
      "உ": 209,
      "ஊ": 210,
      "எ": 211,
      "ஏ": 212,
      "ஐ": 213,
      "ஒ": 214,
      "ஓ": 215,
      "ஔ": 216,
      "க": 217,
      "ங": 218,
      "ச": 219,
      "ஜ": 220,
      "ஞ": 221,
      "ட": 222,
      "ண": 223,
      "த": 224,
      "ந": 225,
      "ன": 226,
      "ப": 227,
      "ம": 228,
      "ய": 229,
      "ர": 230,
      "ற": 231,
      "ல": 232,
      "ள": 233,
      "ழ": 234,
      "வ": 235,
      "ஶ": 236,
      "ஷ": 237,
      "ஸ": 238,
      "ஹ": 239,
      "ா": 240,
      "ி": 241,
      "ீ": 242,
      "ு": 243,
      "ூ": 244,
      "ெ": 245,
      "ே": 246,
      "ை": 247,
      "ொ": 248,
      "ோ": 249,
      "ௌ": 250,
      "்": 251,
      "௦": 252,
      "௧": 253,
      "௨": 254,
      "௩": 255,
      "௫": 256,
      "௬": 257,
      "௭": 258,
      "௹": 259,
      "‌": 260,
      "‍": 261,
      "‎": 262,
      "‛": 263,
      "‟": 264,
      "•": 265,
      "″": 266,
      "⁠": 267,
      "₂": 268,
      "€": 269,
      "₹": 270,
      "℅": 271,
      "⏩": 272,
      "●": 273,
      "◾": 274,
      "★": 275,
      "❔": 276,
      "⦁": 277,
      "": 278,
      "": 279,
      "": 280,
      "": 281,
      "": 282,
      "": 283,
      "": 284,
      "�": 285,
      "👇": 286,
      "💥": 287,
      "😂": 288,
      "😊": 289,
      "😐": 290,
      "😲": 291,
      "🛩": 292,
      "்க": 293,
      "்த": 294,
      "ம்": 295,
      "ல்": 296,
      "ன்": 297,
      " ப": 298,
      "க்க": 299,
      "்ட": 300,
      " க": 301,
      "ர்": 302,
      "த்த": 303,
      " வ": 304,
      " ம": 305,
      "ப்": 306,
      ".\n": 307,
      " த": 308,
      "ிய": 309,
      "ும்": 310,
      " ச": 311,
      "ள்": 312,
      "ந்த": 313,
      " அ": 314,
      "ப்ப": 315,
      "து": 316,
      "ில்": 317,
      "ரு": 318,
      "ட்ட": 319,
      " ந": 320,
      " இ": 321,
      " எ": 322,
      "ங்க": 323,
      "ைய": 324,
      "ாக": 325,
      "ற்": 326,
      "தி": 327,
      "ிற": 328,
      "க்கு": 329,
      "ின்": 330,
      "டு": 331,
      "்ச": 332,
      "று": 333,
      "ள்ள": 334,
      " உ": 335,
      "ண்ட": 336,
      "ார்": 337,
      "ிர": 338,
      "ார": 339,
      "த்து": 340,
      "ில": 341,
      " ஆ": 342,
      "ான": 343,
      "டி": 344,
      " மு": 345,
      " செ": 346,
      "வி": 347,
      "ற்ற": 348,
      "ர்க": 349,
      "லை": 350,
      "ிக": 351,
      " என்": 352,
      " வி": 353,
      "ரி": 354,
      "ட்டு": 355,
      "ந்து": 356,
      "ிரு": 357,
      " கு": 358,
      "வு": 359,
      "ால்": 360,
      "ளை": 361,
      " இரு": 362,
      " செய": 363,
      "ச்ச": 364,
      "றி": 365,
      "க்": 366,
      "ாவ": 367,
      "ஸ்": 368,
      " ஒ": 369,
      "த்": 370,
      " ர": 371,
      " போ": 372,
      "ப்பு": 373,
      "னர்": 374,
      "த்தில்": 375,
      "ையில்": 376,
      "னை": 377,
      "ளு": 378,
      "ான்": 379,
      "ால": 380,
      " கொ": 381,
      "ல்ல": 382,
      "மை": 383,
      " மா": 384,
      " பெ": 385,
      " நட": 386,
      "வர்": 387,
      "ாய": 388,
      " தொ": 389,
      "ற்க": 390,
      "க்கும்": 391,
      "ுக": 392,
      " கூ": 393,
      "ர்கள்": 394,
      " வே": 395,
      "மி": 396,
      "வர": 397,
      "ன்ற": 398,
      "ப்பட்ட": 399,
      "ம்ப": 400,
      "ட்ச": 401,
      "ிறது": 402,
      "ாள": 403,
      "ுவ": 404,
      " இந்த": 405,
      " தே": 406,
      "ாத": 407,
      "ற்ப": 408,
      " உள்ள": 409,
      "கு": 410,
      " ஏ": 411,
      "டிய": 412,
      " வெ": 413,
      "ிட": 414,
      "கள்": 415,
      "ண்": 416,
      "ன்ன": 417,
      "ளில்": 418,
      "ிக்க": 419,
      "ின": 420,
      " பே": 421,
      " தெ": 422,
      "ண்டு": 423,
      " என": 424,
      "ங்கள்": 425,
      " பா": 426,
      "ாம": 427,
      " அதி": 428,
      " பிர": 429,
      "ச்": 430,
      "மாக": 431,
      "றை": 432,
      "ட்": 433,
      "ளுக்கு": 434,
      "வே": 435,
      "்கள்": 436,
      " கா": 437,
      "டுத்த": 438,
      " நா": 439,
      "திய": 440,
      "த்தை": 441,
      "தாக": 442,
      " ஒரு": 443,
      "ரச": 444,
      "வில்": 445,
      "மான": 446,
      "்ய": 447,
      " என்று": 448,
      "ணி": 449,
      " மற்ற": 450,
      " வழ": 451,
      " தொட": 452,
      "ரிய": 453,
      " வரு": 454,
      " கோ": 455,
      "டை": 456,
      " செய்த": 457,
      "ிட்ட": 458,
      "ற்று": 459,
      "இந்த": 460,
      "தற்க": 461,
      "ழு": 462,
      " நில": 463,
      "சி": 464,
      " மற்றும்": 465,
      "வை": 466,
      "ள்ளது": 467,
      "மு": 468,
      "ரா": 469,
      "தை": 470,
      " என்ற": 471,
      "்த்த": 472,
      " வர": 473,
      " ஜ": 474,
      "வும்": 475,
      "ன்று": 476,
      "டும்": 477,
      "டன்": 478,
      " அரச": 479,
      "ண்டும்": 480,
      " பொ": 481,
      "பி": 482,
      "ோது": 483,
      "..\n": 484,
      "ாம்": 485,
      "பு": 486,
      " மே": 487,
      "மா": 488,
      "னால்": 489,
      " பு": 490,
      "ையும்": 491,
      "டுக": 492,
      " அவ": 493,
      "தல்": 494,
      "ப்பட்டு": 495,
      " அமை": 496,
      " வீ": 497,
      "ளி": 498,
      " அதிக": 499,
      "ின்ற": 500,
      "நா": 501,
      "ழ்": 502,
      "ளின்": 503,
      "தே": 504,
      " மீ": 505,
      " குறி": 506,
      " வா": 507,
      " செய்ய": 508,
      "னி": 509,
      "ிறார்": 510,
      "மே": 511,
      " கே": 512,
      "ிற்க": 513,
      " நி": 514,
      "ியில்": 515,
      "ிருக்க": 516,
      " நீ": 517,
      " தெரி": 518,
      " தலை": 519,
      " சு": 520,
      " சே": 521,
      "னு": 522,
      "ண்ண": 523,
      "நில": 524,
      "ரை": 525,
      " தொடர்": 526,
      "களை": 527,
      " இருந்த": 528,
      " பல": 529,
      " வருக": 530,
      " என்ப": 531,
      "ையை": 532,
      "டுத்து": 533,
      "வா": 534,
      " மூ": 535,
      " வை": 536,
      " தெரிவி": 537,
      "சிய": 538,
      " வேண்டும்": 539,
      " எதி": 540,
      "ிருந்த": 541,
      "பெ": 542,
      " ஏற்ப": 543,
      " இட": 544,
      "தில்": 545,
      "ிகள்": 546,
      "ாய்": 547,
      "20": 548,
      "பா": 549,
      "ாரண": 550,
      " பய": 551,
      " இருக்க": 552,
      " ட": 553,
      "ார்கள்": 554,
      " நே": 555,
      "ியு": 556,
      "த்தின்": 557,
      "கா": 558,
      " நிற": 559,
      " கட": 560,
      "ய்": 561,
      " பார": 562,
      " ய": 563,
      " சி": 564,
      " து": 565,
      " சொ": 566,
      "முக": 567,
      " சிற": 568,
      " திரு": 569,
      "த்திய": 570,
      " அவர்": 571,
      " அறி": 572,
      "?\n": 573,
      " முதல்": 574,
      "டிக்க": 575,
      "ங்கு": 576,
      "லி": 577,
      "ஸ்ட": 578,
      " தமி": 579,
      "ிற்கு": 580,
      "ரும்": 581,
      "ட்சி": 582,
      "ளிய": 583,
      " ஓ": 584,
      "ங்களில்": 585,
      " இந்திய": 586,
      " வந்த": 587,
      "ட்டி": 588,
      "ள்ளார்": 589,
      "தன்": 590,
      " \"": 591,
      "ங்கள": 592,
      "ப்பட": 593,
      " தீ": 594,
      "ர்வ": 595,
      "லா": 596,
      "தற்கு": 597,
      "வர்க": 598,
      " பி": 599,
      "ஞ்ச": 600,
      "ியை": 601,
      " மக்க": 602,
      " ரா": 603,
      "ஆனால்": 604,
      "ரே": 605,
      "ப்பா": 606,
      "மைய": 607,
      "வது": 608,
      "ர்த": 609,
      "வர்கள்": 610,
      " ஆக": 611,
      " கொண்ட": 612,
      "வில்லை": 613,
      "னா": 614,
      "வ்": 615,
      " வெளிய": 616,
      "லும்": 617,
      "போ": 618,
      "ாது": 619,
      "ங்களை": 620,
      "ருக்கு": 621,
      "ணை": 622,
      " அந்த": 623,
      "க்கிய": 624,
      "லில்": 625,
      "லு": 626,
      "த்தி": 627,
      " நடை": 628,
      "ழக": 629,
      "ோம்": 630,
      " ல": 631,
      "ற்றி": 632,
      "ிக்": 633,
      "ிலும்": 634,
      "ழை": 635,
      " பண": 636,
      "்க்க": 637,
      "ரிக்க": 638,
      "ருத்து": 639,
      "செ": 640,
      " உய": 641,
      "இது": 642,
      "மன்ற": 643,
      "டுக்க": 644,
      " வழங்க": 645,
      " ஹ": 646,
      " இருந்து": 647,
      " தா": 648,
      " சில": 649,
      " அமைச்ச": 650,
      "ேன்": 651,
      "டைய": 652,
      " நிலையில்": 653,
      " சம": 654,
      "ப்பி": 655,
      "ூர்": 656,
      " (": 657,
      "லக": 658,
      "ப்பட்டது": 659,
      "ராக": 660,
      " ஊ": 661,
      " இர": 662,
      " முடி": 663,
      " சந்த": 664,
      "ஷ்": 665,
      "00": 666,
      " கால": 667,
      " தன": 668,
      "ர்ந்த": 669,
      "தும்": 670,
      " முடிய": 671,
      " முன்ன": 672,
      "லம்": 673,
      "விட்ட": 674,
      " அரசு": 675,
      "ும்ப": 676,
      " கூற": 677,
      " பிற": 678,
      "!\n": 679,
      "ிடம்": 680,
      "இத": 681,
      "ரோ": 682,
      "ளும்": 683,
      "ியல்": 684,
      "ப்படும்": 685,
      "கவ": 686,
      " சட்ட": 687,
      "ின்றனர்": 688,
      "மர்": 689,
      " நடைபெ": 690,
      "ியின்": 691,
      "ஸ்த": 692,
      " செய்து": 693,
      "லாம்": 694,
      "ாமல்": 695,
      "தால்": 696,
      "தா": 697,
      "ப்படுக": 698,
      " தி": 699,
      "ர்த்த": 700,
      " தேர்த": 701,
      "ாவில்": 702,
      "ட்டில்": 703,
      "ாவட்ட": 704,
      " பகு": 705,
      "சா": 706,
      " அனு": 707,
      "ாளர்": 708,
      "ிரி": 709,
      "னம்": 710,
      "த்தார்": 711,
      " மோ": 712,
      "ன்ப": 713,
      "ரம்": 714,
      " சா": 715,
      "ங்கி": 716,
      "ப்படி": 717,
      " பதி": 718,
      " மாவட்ட": 719,
      "ரில்": 720,
      " கிட": 721,
      "வுக்கு": 722,
      "ட்க": 723,
      " போல": 724,
      " இது": 725,
      "ன்னை": 726,
      "த்திற்கு": 727,
      "ப்போது": 728,
      "ழி": 729,
      " உள்ளது": 730,
      "கி": 731,
      " மாநில": 732,
      " திட்ட": 733,
      "ியா": 734,
      " ஆண்ட": 735,
      "ந்தது": 736,
      " கை": 737,
      "ல்லை": 738,
      "வரை": 739,
      "ரவ": 740,
      "ாலும்": 741,
      "தம்": 742,
      " விச": 743,
      " கூட்ட": 744,
      "களில்": 745,
      "தான்": 746,
      " தொடர்ப": 747,
      "லங்க": 748,
      " மிக": 749,
      " சீ": 750,
      " கட்ட": 751,
      "ஜக": 752,
      "ியாக": 753,
      "ல்க": 754,
      " அம": 755,
      "வீ": 756,
      "ொரு": 757,
      " பூ": 758,
      " குறித்து": 759,
      " ஆண்டு": 760,
      " அள": 761,
      "ிருந்து": 762,
      " காரண": 763,
      " ஆகிய": 764,
      "டம்": 765,
      "ட்டை": 766,
      "ருக": 767,
      "்ச்ச": 768,
      "..": 769,
      " பொரு": 770,
      " ரூ": 771,
      " இருக்கும்": 772,
      "க்கி": 773,
      " எழு": 774,
      "ந்திர": 775,
      " என்ன": 776,
      "ழந்த": 777,
      "ின்றன": 778,
      "சு": 779,
      "ாவின்": 780,
      "க்கம்": 781,
      " தான்": 782,
      "மும்": 783,
      " அதிகார": 784,
      "றைய": 785,
      "க்கான": 786,
      "ர்ச்ச": 787,
      " நிக": 788,
      ".க": 789,
      " விவ": 790,
      "ப்பை": 791,
      " கொண்டு": 792,
      " முன்": 793,
      " நிறுவ": 794,
      " ஈ": 795,
      " அனை": 796,
      "ிறார்கள்": 797,
      "ள்ளனர்": 798,
      "கர்": 799,
      " திர": 800,
      "ங்": 801,
      "த்திர": 802,
      "ப்பட்டுள்ளது": 803,
      "ங்களுக்கு": 804,
      " உறு": 805,
      "ொண்ட": 806,
      " என்பது": 807,
      "றுக": 808,
      "திக்க": 809,
      " கட்ச": 810,
      " கல": 811,
      " சூ": 812,
      "எஸ்": 813,
      "கம்": 814,
      " மருத்து": 815,
      " பொது": 816,
      " தேதி": 817,
      " கடந்த": 818,
      "ையே": 819,
      " கண": 820,
      "வாக": 821,
      " பின்": 822,
      "ியது": 823,
      " -": 824,
      "ளாக": 825,
      " நெ": 826,
      "க்த": 827,
      " கிடை": 828,
      "ாவது": 829,
      " உட": 830,
      "ப்போ": 831,
      " வருகிறது": 832,
      "ட்ப": 833,
      "ப்படுகிறது": 834,
      " சம்ப": 835,
      " இருப்ப": 836,
      " நீதி": 837,
      " கிர": 838,
      " தர": 839,
      "விர": 840,
      " மேற்க": 841,
      "ணம்": 842,
      " இய": 843,
      " சேர்ந்த": 844,
      " ஆத": 845,
      "தவி": 846,
      "்தான்": 847,
      "வம்": 848,
      " பாஜக": 849,
      " வரும்": 850,
      " தனது": 851,
      "ினார்": 852,
      " அடி": 853,
      " மணி": 854,
      "...\n": 855,
      " என்றும்": 856,
      "வெ": 857,
      "ப்படுத்த": 858,
      "நீ": 859,
      "கார": 860,
      "ையா": 861,
      "மேலும்": 862,
      " ஐ": 863,
      " பேச": 864,
      " இல்லை": 865,
      " கி": 866,
      " மாண": 867,
      " போட்ட": 868,
      "ங்கிர": 869,
      "ஆம்": 870,
      " கூறி": 871,
      " மக்கள்": 872,
      "ம்ம": 873,
      "தல": 874,
      "தியில்": 875,
      " குறை": 876,
      " கரு": 877,
      "ெல்ல": 878,
      "பதி": 879,
      " முக்கிய": 880,
      "வடிக்க": 881,
      " பிரத": 882,
      "துகா": 883,
      " நடவடிக்க": 884,
      "ொள்ள": 885,
      "ெய": 886,
      "ேய": 887,
      "தேச": 888,
      "202": 889,
      "ழ்நா": 890,
      " விள": 891,
      "போது": 892,
      " பழ": 893,
      "கை": 894,
      "த்துக்கு": 895,
      " விர": 896,
      " தெரிவித்து": 897,
      "வரும்": 898,
      "மார்": 899,
      " வரை": 900,
      "ோத": 901,
      " மட்டு": 902,
      " உண": 903,
      "ழ்ச்ச": 904,
      " எதிர்": 905,
      "டுவ": 906,
      " அறிவி": 907,
      "தாகவும்": 908,
      " பர": 909,
      " நோ": 910,
      "ன்க": 911,
      " மீது": 912,
      "ர்க்க": 913,
      " பாதுகா": 914,
      " அமைச்சர்": 915,
      "ாதார": 916,
      "ற்போது": 917,
      " புக": 918,
      " குறிப்ப": 919,
      " தகவ": 920,
      "அந்த": 921,
      " ராஜ": 922,
      "ாரி": 923,
      " '": 924,
      " மூலம்": 925,
      " பெற்ற": 926,
      " நேர": 927,
      " வந்து": 928,
      "ர்ந்து": 929,
      "ரிச": 930,
      " செல்ல": 931,
      " போலீ": 932,
      "யில்": 933,
      " பால": 934,
      " காவ": 935,
      " பட": 936,
      " உரு": 937,
      "\",": 938,
      " தோ": 939,
      "கள": 940,
      "ல்ப": 941,
      "ந்": 942,
      " பெய": 943,
      " ஆண்டுக": 944,
      "ர்களை": 945,
      " தொடர்ந்து": 946,
      " குற்ற": 947,
      "ழுவ": 948,
      "ிருக்கிறது": 949,
      " சொல்ல": 950,
      " அவர": 951,
      " தெரிய": 952,
      "வ்வ": 953,
      "மீ": 954,
      " போன்ற": 955,
      " எந்த": 956,
      " காங்கிர": 957,
      "ர்களுக்கு": 958,
      " தலைவர்": 959,
      " பிறகு": 960,
      "அத": 961,
      " சென்ற": 962,
      " ஆர": 963,
      " டி": 964,
      "றும்": 965,
      "ர்வு": 966,
      "ாகி": 967,
      "க்கள்": 968,
      "ூக": 969,
      " நடவடிக்கை": 970,
      "பர்": 971,
      " என்க": 972,
      " உள்ளிட்ட": 973,
      "முறை": 974,
      "னார்": 975,
      " அல்ல": 976,
      "ையின்": 977,
      "ோர்": 978,
      "என": 979,
      "ஜி": 980,
      " கூறுக": 981,
      "ர்கள": 982,
      "10": 983,
      "ங்கே": 984,
      " இல்ல": 985,
      " இன்று": 986,
      " வேண்ட": 987,
      "க்காக": 988,
      " நிறுவன": 989,
      " வய": 990,
      " தொழ": 991,
      "ராஜ": 992,
      " வில": 993,
      " கூட": 994,
      " பார்த்த": 995,
      " தமிழக": 996,
      " ஷ": 997,
      "ிலிருந்து": 998,
      "க்கூ": 999,
      "ரீ": 1000,
      "ப்பில்": 1001,
      "டா": 1002,
      " அண": 1003,
      "19": 1004,
      "ரின்": 1005,
      "வேறு": 1006,
      "கட": 1007,
      "தற்காக": 1008,
      " நடத்த": 1009,
      " வேலை": 1010,
      "்து": 1011,
      "த்தர": 1012,
      "தான": 1013,
      " போது": 1014,
      " அணி": 1015,
      "ைக்கு": 1016,
      " வக": 1017,
      "ாளர்கள்": 1018,
      " மருத்துவ": 1019,
      "டும்ப": 1020,
      " வாய்": 1021,
      " தூ": 1022,
      "ெரிக்க": 1023,
      "ல்வ": 1024,
      "ிகளை": 1025,
      " முய": 1026,
      " ஸ்ட": 1027,
      " உலக": 1028,
      "ஸ்க": 1029,
      "பார": 1030,
      " விசாரண": 1031,
      "ணைய": 1032,
      " `": 1033,
      "க்கப்பட்ட": 1034,
      " ஏற்படுத்த": 1035,
      " பேசிய": 1036,
      "ோடு": 1037,
      " குழந்த": 1038,
      " கவ": 1039,
      " ஒன்ற": 1040,
      "விட": 1041,
      "ப்பது": 1042,
      " எடுத்து": 1043,
      " கண்ட": 1044,
      "ாள்": 1045,
      "வில": 1046,
      "ர்களின்": 1047,
      "ிருக்கிறார்": 1048,
      "டுப": 1049,
      " வார": 1050,
      " போரா": 1051,
      " காங்கிரஸ்": 1052,
      " வைத்து": 1053,
      " வள": 1054,
      " சந்தி": 1055,
      " ஸ்": 1056,
      " நான்": 1057,
      " கட்சி": 1058,
      "ாவை": 1059,
      " மாற்ற": 1060,
      " பயன்ப": 1061,
      "தற்கான": 1062,
      " மக": 1063,
      "ைகள்": 1064,
      " மத்திய": 1065,
      "படி": 1066,
      " தொடங்க": 1067,
      " வெளி": 1068,
      " இருக்கிறது": 1069,
      " மாத": 1070,
      " அழை": 1071,
      "றிய": 1072,
      "ென": 1073,
      " அல": 1074,
      " செய்": 1075,
      "யில": 1076,
      "தமி": 1077,
      "த்தது": 1078,
      "ேயே": 1079,
      " சமூக": 1080,
      " அது": 1081,
      "ல்வேறு": 1082,
      " சென்று": 1083,
      "ீர்": 1084,
      "ப்பின": 1085,
      " தய": 1086,
      " தேர்தல்": 1087,
      " குடும்ப": 1088,
      "இதனால்": 1089,
      " அவர்கள்": 1090,
      " நிலை": 1091,
      " பெரும்": 1092,
      " அரசியல்": 1093,
      " நினை": 1094,
      " முதல": 1095,
      "ச்சி": 1096,
      " சார்": 1097,
      "ியுள்ளது": 1098,
      "ள்க": 1099,
      "ாங்க": 1100,
      "ப்பட்டுள்ள": 1101,
      " ஆய": 1102,
      "பர": 1103,
      " நிலைய": 1104,
      " வழக்க": 1105,
      "ுக்கு": 1106,
      "ட்டும்": 1107,
      "201": 1108,
      " இரண்டு": 1109,
      " கலந்து": 1110,
      "வின்": 1111,
      " பெரிய": 1112,
      " பேர்": 1113,
      "விட்டு": 1114,
      " நம்ப": 1115,
      " ஆய்": 1116,
      " எண்ண": 1117,
      " நக": 1118,
      "ப்பாக": 1119,
      " பார்க்க": 1120,
      " பிரதமர்": 1121,
      " பல்வேறு": 1122,
      " வழக்கு": 1123,
      " எம்": 1124,
      "மது": 1125,
      " இணை": 1126,
      " மொ": 1127,
      " பகுதி": 1128,
      " அளி": 1129,
      "பிர": 1130,
      " கொள்ள": 1131,
      " நீதிமன்ற": 1132,
      " தின": 1133,
      " தமிழ்நா": 1134,
      "ஷ்ய": 1135,
      "நி": 1136,
      " விழ": 1137,
      " புதிய": 1138,
      "நாய": 1139,
      " காண": 1140,
      "ந்தி": 1141,
      "களுக்கு": 1142,
      " வாழ": 1143,
      "பே": 1144,
      " வழி": 1145,
      " லட்ச": 1146,
      " இலங்க": 1147,
      " நடைபெற்ற": 1148,
      " பக்த": 1149,
      " நடந்த": 1150,
      "ெட்": 1151,
      " கட்டு": 1152,
      " தற்போது": 1153,
      " நிர்வ": 1154,
      "ள்ளி": 1155,
      " கீ": 1156,
      "கோ": 1157,
      "ட்டம்": 1158,
      "ரான": 1159,
      " பிரி": 1160,
      "கடந்த": 1161,
      "தவ": 1162,
      " திரும": 1163,
      " தொடர்பாக": 1164,
      "டுகள்": 1165,
      " அதிமுக": 1166,
      " மீண்டும்": 1167,
      " எடுக்க": 1168,
      "ளுடன்": 1169,
      " இந்தியா": 1170,
      "சிக": 1171,
      " இற": 1172,
      " முறை": 1173,
      " அதிகரி": 1174,
      " பெரு": 1175,
      " கெ": 1176,
      " மட்டுமே": 1177,
      "ையாக": 1178,
      " திமுக": 1179,
      " ஈடுப": 1180,
      " செயல": 1181,
      "ஜ்": 1182,
      " அமெரிக்க": 1183,
      "ட்டிய": 1184,
      "த்துறை": 1185,
      "ல்வி": 1186,
      " நடி": 1187,
      "ிறேன்": 1188,
      "ிட்டு": 1189,
      ".பி": 1190,
      " முதல்வர்": 1191,
      " தெரிவித்தார்": 1192,
      " உத்தர": 1193,
      " மன": 1194,
      " வெற்றி": 1195,
      "யா": 1196,
      "ஒரு": 1197,
      " பெற்று": 1198,
      " அவரது": 1199,
      " தீர்": 1200,
      "வரு": 1201,
      " பெண": 1202,
      " நடந்தது": 1203,
      "ிருந்தார்": 1204,
      "அதே": 1205,
      " பாதுகாப்பு": 1206,
      "டியாக": 1207,
      " கேள்": 1208,
      "சென்னை": 1209,
      "ளுக்கும்": 1210,
      " பொறு": 1211,
      " காரணமாக": 1212,
      "மதி": 1213,
      "சை": 1214,
      " தங்க": 1215,
      " வீர": 1216,
      " பயன்படுத்த": 1217,
      " எல்ல": 1218,
      " ஆம்": 1219,
      "ளுமன்ற": 1220,
      "லோ": 1221,
      "டப்பா": 1222,
      "ஷ்ட": 1223,
      "ிருக்கும்": 1224,
      "நிலையில்": 1225,
      " என்பதை": 1226,
      " வகையில்": 1227,
      "த்தம்": 1228,
      " இருந்தது": 1229,
      " வாக்கு": 1230,
      " நிகழ்ச்ச": 1231,
      " திற": 1232,
      " செயல்ப": 1233,
      "ச்சு": 1234,
      "லிய": 1235,
      " சிறப்பு": 1236,
      " நிர்வாக": 1237,
      "ட்டின்": 1238,
      " நாள": 1239,
      " பாதி": 1240,
      "அதன்": 1241,
      " கூறினார்": 1242,
      "அது": 1243,
      "பட": 1244,
      " இஸ்": 1245,
      " அல்லது": 1246,
      " வைத்த": 1247,
      "ிறோம்": 1248,
      "கொ": 1249,
      " கார": 1250,
      "வான": 1251,
      " ஏற்பட்ட": 1252,
      " வருகின்றனர்": 1253,
      " வருவ": 1254,
      "டைந்த": 1255,
      " ரூப": 1256,
      " என்றார்": 1257,
      " நேற்று": 1258,
      " நிறை": 1259,
      " முடிவு": 1260,
      "இதில்": 1261,
      " கருத்து": 1262,
      " குழு": 1263,
      " தேசிய": 1264,
      "த்துடன்": 1265,
      " கைது": 1266,
      "ல்கள்": 1267,
      " அருக": 1268,
      "யம்": 1269,
      " அனைத்து": 1270,
      "அப்போது": 1271,
      "மையான": 1272,
      " படி": 1273,
      "ளாதார": 1274,
      " நிய": 1275,
      "டப்பாடி": 1276,
      "கிறது": 1277,
      " வெளியே": 1278,
      " செலு": 1279,
      "இந்": 1280,
      "ஸ்ட்": 1281,
      "ினர்": 1282,
      " இன்ன": 1283,
      "ற்ச": 1284,
      "ியும்": 1285,
      "சாய": 1286,
      "ருக்க": 1287,
      "ம்பி": 1288,
      "நே": 1289,
      "தியாக": 1290,
      "கே": 1291,
      "டக": 1292,
      "சார": 1293,
      ".எ": 1294,
      " துறை": 1295,
      " தெரிவித்த": 1296,
      "ையடுத்து": 1297,
      "்ட்": 1298,
      " அறிக்க": 1299,
      " ஆட்ச": 1300,
      " விஷ": 1301,
      "ணுவ": 1302,
      "ியர்": 1303,
      "ற்றை": 1304,
      "ிகி": 1305,
      " தாக்கு": 1306,
      " நாடுக": 1307,
      "மையாக": 1308,
      "-ம்": 1309,
      "தொ": 1310,
      "வன்": 1311,
      "ர்ம": 1312,
      " மாதம்": 1313,
      "பின்": 1314,
      " முடியும்": 1315,
      " சென்னை": 1316,
      "னாதி": 1317,
      "இந்திய": 1318,
      " வச": 1319,
      " கேள்வி": 1320,
      " உருவா": 1321,
      "ளவு": 1322,
      " அதை": 1323,
      " அக": 1324,
      ".மு": 1325,
      " மறு": 1326,
      "லுக்கு": 1327,
      "ச்சை": 1328,
      " மிகவும்": 1329,
      " வல": 1330,
      " சுவ": 1331,
      " கிராம": 1332,
      "றையில்": 1333,
      " ரஷ்ய": 1334,
      " நல்ல": 1335,
      " அலுவ": 1336,
      "ிருப்ப": 1337,
      "ையான": 1338,
      " விடு": 1339,
      " செய்யப்பட்ட": 1340,
      "சிர": 1341,
      "சில": 1342,
      " முழு": 1343,
      "டியோ": 1344,
      "அதி": 1345,
      "ிலேயே": 1346,
      "30": 1347,
      "வர்களுக்கு": 1348,
      " சிறு": 1349,
      " தனி": 1350,
      " குறித்த": 1351,
      "ாகு": 1352,
      "ளம்": 1353,
      " வாய்ப்பு": 1354,
      "ாலின்": 1355,
      " ஃ": 1356,
      "்கு": 1357,
      " தொகு": 1358,
      " முக": 1359,
      "டுப்ப": 1360,
      " பிடி": 1361,
      "திரு": 1362,
      " சோ": 1363,
      "ளா": 1364,
      " பணி": 1365,
      " விமான": 1366,
      "களின்": 1367,
      " பதிவு": 1368,
      " எப்படி": 1369,
      " வாங்க": 1370,
      "விழ": 1371,
      " விசாரணை": 1372,
      "ொண்டு": 1373,
      " பற்றி": 1374,
      "ற்சி": 1375,
      " தேவ": 1376,
      " பார்": 1377,
      "ப்பெ": 1378,
      " முடியாது": 1379,
      " பொருளாதார": 1380,
      "நர்": 1381,
      " காவல": 1382,
      " என்கிறார்": 1383,
      " தவ": 1384,
      " விவகார": 1385,
      "ிலான": 1386,
      "15": 1387,
      "மூ": 1388,
      " அடுத்த": 1389,
      " மருத்துவம": 1390,
      "னித": 1391,
      "இந்நிலையில்": 1392,
      " கோடி": 1393,
      "ாமி": 1394,
      " எடப்பாடி": 1395,
      " தலைமை": 1396,
      " விரு": 1397,
      "பால": 1398,
      "சாமி": 1399,
      "பை": 1400,
      " முழுவ": 1401,
      "ாட்டு": 1402,
      " சாத": 1403,
      "சே": 1404,
      " எதிராக": 1405,
      "ற்றிய": 1406,
      "சன": 1407,
      " விமர்": 1408,
      " சிக்க": 1409,
      " பெண்": 1410,
      "12": 1411,
      " தாக்க": 1412,
      " பழனி": 1413,
      " உரி": 1414,
      "ிருந்தது": 1415,
      "ண்ட்": 1416,
      "ாட": 1417,
      " விட": 1418,
      "ிக்கை": 1419,
      " உற": 1420,
      " தகவல்": 1421,
      "லாக": 1422,
      "அவர்": 1423,
      "குறி": 1424,
      " நடந்து": 1425,
      " கடை": 1426,
      " அங்கு": 1427,
      " பூஜ": 1428,
      " குறிப்பிட": 1429,
      " தெரிவிக்க": 1430,
      " ஆளு": 1431,
      "த்துவ": 1432,
      " மணிக்கு": 1433,
      " ஜனாதி": 1434,
      "மைச்ச": 1435,
      " முன்னாள்": 1436,
      " செய்வ": 1437,
      " தேர்தலில்": 1438,
      " மர": 1439,
      " நாட்க": 1440,
      " பகுதியில்": 1441,
      "தியை": 1442,
      "பிஎஸ்": 1443,
      "ிகளில்": 1444,
      "பல": 1445,
      "ப்ட": 1446,
      " இல": 1447,
      " கேட்ட": 1448,
      " முன்பு": 1449,
      " கொடுத்த": 1450,
      " ஒருவர்": 1451,
      "செய": 1452,
      " பாதிக்க": 1453,
      "இரு": 1454,
      " விவசாய": 1455,
      "ைப்பட": 1456,
      " ஒன்று": 1457,
      " குழந்தை": 1458,
      "ங்களின்": 1459,
      " நிறு": 1460,
      "சார்": 1461,
      "ரோனா": 1462,
      " அதன்": 1463,
      " மதி": 1464,
      " தீவிர": 1465,
      " வாக": 1466,
      "னுக்கு": 1467,
      "மையில்": 1468,
      " மின்": 1469,
      " மெ": 1470,
      " உணவு": 1471,
      " பதவி": 1472,
      " பயண": 1473,
      "நிலை": 1474,
      "ியுள்ளார்": 1475,
      "ீடு": 1476,
      " நடத்தி": 1477,
      "ன்னு": 1478,
      " சார்ப": 1479,
      " பிரச்": 1480,
      " சிகி": 1481,
      "ர்ச்சி": 1482,
      " நாம்": 1483,
      "எனவே": 1484,
      "ஆர்": 1485,
      "ஷே": 1486,
      "த்தால்": 1487,
      " ஆய்வு": 1488,
      "த்துள்ளது": 1489,
      "மோ": 1490,
      " தொழில்": 1491,
      "ஸ்தான்": 1492,
      " டெ": 1493,
      " அத": 1494,
      " நிகழ்": 1495,
      "ார்க": 1496,
      "ஸ்தான": 1497,
      " மூல": 1498,
      ".எஸ்": 1499,
      " பக்தர்கள்": 1500,
      " அரு": 1501,
      "த்திற்க": 1502,
      " உள்ளன": 1503,
      "னே": 1504,
      " அங்க": 1505,
      "லைக்க": 1506,
      " மட்டும்": 1507,
      " ஜெய": 1508,
      " அதிகாரிகள்": 1509,
      " பரி": 1510,
      " ஆர்": 1511,
      "னின்": 1512,
      "மொ": 1513,
      " வைக்க": 1514,
      " கூறிய": 1515,
      " மது": 1516,
      " வங்க": 1517,
      "ியுள்ள": 1518,
      " வேண்டிய": 1519,
      "ப்பே": 1520,
      " எதிர்க": 1521,
      "ந்த்": 1522,
      " கோவில": 1523,
      " வீடியோ": 1524,
      " பாட": 1525,
      ".ஜ": 1526,
      "ர்த்து": 1527,
      " ராணுவ": 1528,
      " உயர்": 1529,
      "ீர": 1530,
      "50": 1531,
      "ுடன்": 1532,
      "வ்வொரு": 1533,
      " இலங்கை": 1534,
      "11": 1535,
      " நடக்க": 1536,
      "தலை": 1537,
      " குறிப்பிட்ட": 1538,
      " கடி": 1539,
      "சன்": 1540,
      "னில்": 1541,
      " நான": 1542,
      " சங்க": 1543,
      "ட்டத்தில்": 1544,
      " தடை": 1545,
      "ரிடம்": 1546,
      " நிதி": 1547,
      "த்தான்": 1548,
      "த்தையும்": 1549,
      " ராம": 1550,
      " சொன்ன": 1551,
      "த்தா": 1552,
      "இதன்": 1553,
      " ஆயிர": 1554,
      " தன்": 1555,
      " செல": 1556,
      " முழுவதும்": 1557,
      "ப்புகள்": 1558,
      " ட்": 1559,
      " மூன்று": 1560,
      " அபி": 1561,
      " காலை": 1562,
      " சூழ": 1563,
      " ஸ்ரீ": 1564,
      "ெல்லி": 1565,
      "ண்டி": 1566,
      " விளையா": 1567,
      "னும்": 1568,
      "ம்மன்": 1569,
      " செல்": 1570,
      " விட்டு": 1571,
      "டியே": 1572,
      "நிதி": 1573,
      " பட்ட": 1574,
      " கன": 1575,
      " வேறு": 1576,
      " பெற": 1577,
      " தமிழ்நாடு": 1578,
      "ன்கள்": 1579,
      " கடு": 1580,
      " கொடுக்க": 1581,
      "பூ": 1582,
      " இடங்களில்": 1583,
      "நான்": 1584,
      " தந்த": 1585,
      "ப்பிர": 1586,
      " காவல்து": 1587,
      " இஸ்ரே": 1588,
      " ஆதரவ": 1589,
      " நேரத்தில்": 1590,
      " ஜன": 1591,
      "200": 1592,
      "000": 1593,
      "ட்கள்": 1594,
      " மேலும்": 1595,
      " தெரிவித்துள்ளார்": 1596,
      " தொழில": 1597,
      "டாளுமன்ற": 1598,
      "க்கெ": 1599,
      "க்கோ": 1600,
      " கொள்க": 1601,
      "கர": 1602,
      " சம்பவம்": 1603,
      " ரூபாய்": 1604,
      "அதில்": 1605,
      " நிர": 1606,
      " விஜ": 1607,
      " செய்யும்": 1608,
      " சிவ": 1609,
      " ஆட்சி": 1610,
      " சுற்று": 1611,
      " மனை": 1612,
      " இத": 1613,
      " உதவி": 1614,
      " உறுதி": 1615,
      " அண்ண": 1616,
      " கல்ல": 1617,
      "ிகளுக்கு": 1618,
      "ெல்லாம்": 1619,
      " ஊழ": 1620,
      " வயது": 1621,
      "ஸ்வர": 1622,
      " ஒப்ப": 1623,
      " போட்டிய": 1624,
      " நு": 1625,
      " லட்சம்": 1626,
      "ந்துள்ளது": 1627,
      " பங்கே": 1628,
      "போல": 1629,
      " விரும்ப": 1630,
      "வருக்கு": 1631,
      " துணை": 1632,
      " பள்ள": 1633,
      " சரிய": 1634,
      "ப்படுவ": 1635,
      " உச்ச": 1636,
      " அலுவலக": 1637,
      "an": 1638,
      " அவரை": 1639,
      "வராக": 1640,
      "பத்தில்": 1641,
      "களும்": 1642,
      " தவிர": 1643,
      " தேர்வு": 1644,
      "ருந்து": 1645,
      "த்தக்க": 1646,
      "ுகள்": 1647,
      " நாள்": 1648,
      "நாட்டு": 1649,
      " உயிரி": 1650,
      " கீழ்": 1651,
      "ம்பர்": 1652,
      "ளைஞ": 1653,
      "ாடு": 1654,
      " சம்பவ": 1655,
      " தொடர்பான": 1656,
      " காரணம்": 1657,
      " யார": 1658,
      " இடையே": 1659,
      " யா": 1660,
      "பொ": 1661,
      " இப்போது": 1662,
      " ஆணைய": 1663,
      " பார்த்து": 1664,
      "ரவு": 1665,
      "விட்டது": 1666,
      " ``": 1667,
      "ளுக்கான": 1668,
      " நாங்கள்": 1669,
      " கோவில்": 1670,
      " ஒரே": 1671,
      "தொட": 1672,
      "வர்களை": 1673,
      " ஜனாதிபதி": 1674,
      "ினால்": 1675,
      "இதையடுத்து": 1676,
      " மோச": 1677,
      " தமிழ": 1678,
      "றுத்த": 1679,
      " அடிப்பட": 1680,
      "க்குறி": 1681,
      " கேட்டு": 1682,
      "த்தக": 1683,
      "ினி": 1684,
      " விழா": 1685,
      " தேவை": 1686,
      " உடல்": 1687,
      " வருகிறார்": 1688,
      " மேற்ப": 1689,
      " யோ": 1690,
      " எதிர்பார": 1691,
      " கூறப்படுகிறது": 1692,
      " ஆலோ": 1693,
      " அடை": 1694,
      "ாட்ட": 1695,
      " கல்வி": 1696,
      "ரசு": 1697,
      " போலீஸ": 1698,
      "இதை": 1699,
      "ரிக்கை": 1700,
      "வரின்": 1701,
      " மாவட்டம்": 1702,
      "லைய": 1703,
      " கோயில": 1704,
      " அளிக்க": 1705,
      "த்திலும்": 1706,
      "மெ": 1707,
      " பிரதேச": 1708,
      "ருக்கும்": 1709,
      " உறுப்பின": 1710,
      " விதி": 1711,
      "ோதனை": 1712,
      " அவருக்கு": 1713,
      " உண்": 1714,
      "ாச": 1715,
      " தங்கள்": 1716,
      "ும்போது": 1717,
      "க்கொண்ட": 1718,
      " அர": 1719,
      "ள்வ": 1720,
      " ஸ்டாலின்": 1721,
      " இரண்ட": 1722,
      "்டர்": 1723,
      "லின்": 1724,
      " ஜூ": 1725,
      "அதை": 1726,
      "த்தனர்": 1727,
      " சுமார்": 1728,
      " வாகன": 1729,
      " மைய": 1730,
      "ரல்": 1731,
      "ர்வதேச": 1732,
      " உத": 1733,
      " இளைஞ": 1734,
      "ப்பின்": 1735,
      " கண்டு": 1736,
      " விஷய": 1737,
      "18": 1738,
      " பேர": 1739,
      " கொலை": 1740,
      "தலில்": 1741,
      "ட்டுக்கு": 1742,
      " சிகிச்சை": 1743,
      "வர்களின்": 1744,
      " இன்னும்": 1745,
      " வீட்டில்": 1746,
      " மேற்கொள்ள": 1747,
      " ஜெ": 1748,
      " போக": 1749,
      "ஷ்ண": 1750,
      " கள": 1751,
      "ியார்": 1752,
      "ழமை": 1753,
      "்களை": 1754,
      " ஏன்": 1755,
      "நீதி": 1756,
      "இதற்கு": 1757,
      " கொரோனா": 1758,
      "ங்கும்": 1759,
      " சார்பில்": 1760,
      " ரயில்": 1761,
      " காந்தி": 1762,
      " மோடி": 1763,
      " கோயில்": 1764,
      "்கா": 1765,
      " உட்ப": 1766,
      "மையை": 1767,
      "ிகள": 1768,
      " நாடாளுமன்ற": 1769,
      " இந்து": 1770,
      "சீ": 1771,
      "ானது": 1772,
      "தாகக்": 1773,
      " வந்தது": 1774,
      " கூட்டணி": 1775,
      " காய": 1776,
      " நடைபெற்றது": 1777,
      " பிரச்னை": 1778,
      " வேட்ப": 1779,
      "ங்களும்": 1780,
      " மட்டும": 1781,
      " அளவில்": 1782,
      "க்கில்": 1783,
      " ஏற்பட்டு": 1784,
      " இணைய": 1785,
      "ம்பெ": 1786,
      " ஏற்க": 1787,
      " மேல்": 1788,
      "தெ": 1789,
      "ற்றில்": 1790,
      " சரி": 1791,
      "க்களை": 1792,
      " சத": 1793,
      "ூட": 1794,
      " பயி": 1795,
      " துவ": 1796,
      "தில்லை": 1797,
      "ம்மா": 1798,
      " முறைய": 1799,
      " கிடைக்க": 1800,
      " புற": 1801,
      "லே": 1802,
      " பந்து": 1803,
      " வட": 1804,
      " விட்ட": 1805,
      " ராகு": 1806,
      " செய்தி": 1807,
      "ங்கிய": 1808,
      "னையில்": 1809,
      "க்கத்தில்": 1810,
      " தமிழ்": 1811,
      "ிடையே": 1812,
      " அழைத்து": 1813,
      "ுள்ள": 1814,
      "ணிய": 1815,
      "முதல்": 1816,
      "தமிழ்நா": 1817,
      " கூறுகிறார்": 1818,
      " அடைய": 1819,
      " கட்சியின்": 1820,
      "14": 1821,
      "ஃப்": 1822,
      "சோ": 1823,
      " எனக்கு": 1824,
      " அருகே": 1825,
      "தோ": 1826,
      " படை": 1827,
      " ஏற்று": 1828,
      " பதவ": 1829,
      " ஒது": 1830,
      " அரசாங்க": 1831,
      " வாழ்க்க": 1832,
      " மத": 1833,
      " திரும்ப": 1834,
      "ல்களை": 1835,
      "க்ரை": 1836,
      " நூ": 1837,
      "மைச்சர்": 1838,
      "ஷன்": 1839,
      " கொடுத்து": 1840,
      "புரம்": 1841,
      "in": 1842,
      "க்கள": 1843,
      " மி": 1844,
      " வெள்ள": 1845,
      "பாடு": 1846,
      "வின": 1847,
      " குடிய": 1848,
      " அப்ப": 1849,
      " பின்னர்": 1850,
      " செயல்": 1851,
      "வ்வா": 1852,
      "ண்ப": 1853,
      "மக்கள்": 1854,
      "நாத": 1855,
      " இறு": 1856,
      " புது": 1857,
      " அனுப்ப": 1858,
      " மனித": 1859,
      "த்தும்": 1860,
      "ருவ": 1861,
      " நப": 1862,
      "த்துக்": 1863,
      "ஞ்சா": 1864,
      " தீர்மான": 1865,
      " அனுமதி": 1866,
      " மண்ட": 1867,
      " வாழ்": 1868,
      " கல்லூ": 1869,
      " டிர": 1870,
      " விரை": 1871,
      " அரசின்": 1872,
      " அற": 1873,
      "ார்த்த": 1874,
      " எனவும்": 1875,
      " பெண்கள்": 1876,
      "தற்போது": 1877,
      "ர்ப்ப": 1878,
      " வகு": 1879,
      " எதிர்க்க": 1880,
      " சிங்": 1881,
      " இன்": 1882,
      " நெருக்க": 1883,
      " ஆலோச": 1884,
      "ாக்": 1885,
      " விலை": 1886,
      "ள்ளன": 1887,
      " செயலாளர்": 1888,
      " என்றால்": 1889,
      " பல்க": 1890,
      "நு": 1891,
      "திகள்": 1892,
      " பரிச": 1893,
      " கிடைக்கும்": 1894,
      " மகி": 1895,
      "சம்": 1896,
      " உள்ளனர்": 1897,
      " காவல்": 1898,
      " செல்வ": 1899,
      "தள": 1900,
      " பரபர": 1901,
      " நம்": 1902,
      "ரம": 1903,
      " ஒவ்வொரு": 1904,
      " பிரச்ச": 1905,
      "றுவ": 1906,
      "வுடன்": 1907,
      "தமிழக": 1908,
      " குறிப்பி": 1909,
      " தயார": 1910,
      " அரசிய": 1911,
      " நிறைவே": 1912,
      " சொந்த": 1913,
      " இல்லாத": 1914,
      " வரலா": 1915,
      "லர்": 1916,
      " அதிபர்": 1917,
      " எது": 1918,
      "பிசி": 1919,
      " சக": 1920,
      " அனும": 1921,
      " கிள": 1922,
      "பின்னர்": 1923,
      "ிகளின்": 1924,
      " பாத": 1925,
      "ப்பாளர்": 1926,
      "சூ": 1927,
      " புகார்": 1928,
      " பணம்": 1929,
      " ரசிக": 1930,
      " செய்தனர்": 1931,
      "க்கொள்ள": 1932,
      " குரு": 1933,
      " வேக": 1934,
      "டுகளை": 1935,
      "ம்பு": 1936,
      " ஜோ": 1937,
      " மக்கள": 1938,
      " சுவாமி": 1939,
      "ன்னி": 1940,
      "க்கிர": 1941,
      " இழ": 1942,
      "வர்கள": 1943,
      "16": 1944,
      "ற்றம்": 1945,
      " எடுத்த": 1946,
      "ர்ப": 1947,
      "த்தைச்": 1948,
      "ர்களும்": 1949,
      " பாதிப்பு": 1950,
      "ாலி": 1951,
      " போராட்ட": 1952,
      " ரீ": 1953,
      " அமைப்பு": 1954,
      " திட்டம்": 1955,
      "ரையா": 1956,
      " மேற்பட்ட": 1957,
      " தொடங்கி": 1958,
      "ப்த": 1959,
      " உரிமை": 1960,
      "13": 1961,
      " மை": 1962,
      " பேச்ச": 1963,
      "நக": 1964,
      " சுக": 1965,
      "ிருஷ்ண": 1966,
      "கன்": 1967,
      "இலங்க": 1968,
      "வுகள்": 1969,
      " குடி": 1970,
      " பை": 1971,
      " வலியு": 1972,
      " குறிப்பிடத்தக்க": 1973,
      "க்கொ": 1974,
      "ியாள": 1975,
      "ாண்ட": 1976,
      " எனக்": 1977,
      "ணா": 1978,
      " ஓபிஎஸ்": 1979,
      " தள": 1980,
      " கண்ண": 1981,
      " வருட": 1982,
      "க்கூடிய": 1983,
      "க்குள்": 1984,
      " பாகி": 1985,
      " நீதிபதி": 1986,
      "ரிக": 1987,
      "ப்பூ": 1988,
      " விற்ப": 1989,
      "ஹி": 1990,
      "ட்டர்": 1991,
      "ிரே": 1992,
      " மாலை": 1993,
      " இருக்கிறார்": 1994,
      "25": 1995,
      "ாரம்": 1996,
      "மாறு": 1997,
      "ுத": 1998,
      "வாள": 1999,
      "களையும்": 2000,
      "த்துள்ளார்": 2001,
      " வருகின்றன": 2002,
      "ியான": 2003,
      ".ஏ": 2004,
      " கைய": 2005,
      " முன்ப": 2006,
      " நாய": 2007,
      " சர்வதேச": 2008,
      "er": 2009,
      " உடன": 2010,
      " மழை": 2011,
      "ன்னீர்": 2012,
      " ஏற்படும்": 2013,
      " ஊடக": 2014,
      " பத்திர": 2015,
      " இரவு": 2016,
      " இயக்கு": 2017,
      "கொண்ட": 2018,
      " குற்றம்": 2019,
      " ஈடுபட்ட": 2020,
      " வெற்ற": 2021,
      " நேரம்": 2022,
      " நல": 2023,
      "த்தீ": 2024,
      "ப்பினர்": 2025,
      " நாடு": 2026,
      " போலீசார்": 2027,
      "விரு": 2028,
      "ில்தான்": 2029,
      " இடத்தில்": 2030,
      "ியே": 2031,
      " என்பதால்": 2032,
      " அதிகமாக": 2033,
      " தொடர்பு": 2034,
      "க்கூட": 2035,
      "லைக்கழக": 2036,
      "மைப்பு": 2037,
      "ர்த்தி": 2038,
      " ஆகியோர்": 2039,
      "நீதிமன்ற": 2040,
      " செய்க": 2041,
      " வேண்டு": 2042,
      "ாதம்": 2043,
      " கண்கா": 2044,
      " திட": 2045,
      " வைர": 2046,
      "ோக": 2047,
      " நடைபெறும்": 2048,
      "17": 2049,
      " காத": 2050,
      " சின்": 2051,
      "ிறு": 2052,
      "100": 2053,
      "24": 2054,
      "டுத்துவ": 2055,
      "ஜா": 2056,
      " சேவை": 2057,
      " கேட்க": 2058,
      " அதற்கு": 2059,
      " ஆப": 2060,
      " செலுத்த": 2061,
      " வரவே": 2062,
      " உள்": 2063,
      "த்தினர்": 2064,
      " பீ": 2065,
      "த்தியில்": 2066,
      "ாரா": 2067,
      "நோ": 2068,
      "மானது": 2069,
      " பழனிசாமி": 2070,
      " அடிப்படையில்": 2071,
      " எதிரான": 2072,
      " அட": 2073,
      "த்தைப்": 2074,
      " மனைவி": 2075,
      "ப்பான": 2076,
      " நடத்திய": 2077,
      " கவன": 2078,
      "ங்கில": 2079,
      "ாமலை": 2080,
      " குற்றச்ச": 2081,
      "ாண": 2082,
      "வினர்": 2083,
      " போலீஸார்": 2084,
      " செல்லும்": 2085,
      "தந்திர": 2086,
      " பங்க": 2087,
      " நகர": 2088,
      " எதிர்ப்பு": 2089,
      "அதற்கு": 2090,
      " இதை": 2091,
      " வெளியிட்டு": 2092,
      "த்தொ": 2093,
      "ராள": 2094,
      "த்திட்ட": 2095,
      "பிற": 2096,
      " கலை": 2097,
      "க்குப்": 2098,
      " பூஜை": 2099,
      " இடை": 2100,
      " ஆசிர": 2101,
      "க்தி": 2102,
      ".எல்": 2103,
      " திட்டமி": 2104,
      "ிலோ": 2105,
      "்த்து": 2106,
      "ப்பட்டுள்ளன": 2107,
      " வழக்கில்": 2108,
      "மார": 2109,
      " ஆளுநர்": 2110,
      " தற்க": 2111,
      "டுவது": 2112,
      "ாடி": 2113,
      "வரி": 2114,
      "ட்டா": 2115,
      "ேஷ்": 2116,
      "ில்லிய": 2117,
      "at": 2118,
      "லாம": 2119,
      "ராட்சி": 2120,
      "க்குழு": 2121,
      " பள்ளி": 2122,
      "தீ": 2123,
      " ரோ": 2124,
      "த்தைக்": 2125,
      " பாரா": 2126,
      " பல்கலைக்கழக": 2127,
      "தியின்": 2128,
      " பிறந்த": 2129,
      " தண்ட": 2130,
      "ிருந்தனர்": 2131,
      " பகுதிகளில்": 2132,
      " காலத்தில்": 2133,
      " விழு": 2134,
      "ாளராக": 2135,
      " நிறுவனம்": 2136,
      "மற்ற": 2137,
      " ஆட்ட": 2138,
      " மூத்த": 2139,
      "விட்டார்": 2140,
      "அதனால்": 2141,
      " ரஷ்யா": 2142,
      " மேம்ப": 2143,
      "டுக்கும்": 2144,
      " ஆரம்பி": 2145,
      "ந்தில்": 2146,
      " போர்": 2147,
      " இடம்": 2148,
      "டல்": 2149,
      " ஆவ": 2150,
      " திருமணம்": 2151,
      " பயணம்": 2152,
      "்களுக்கு": 2153,
      " அதிகம்": 2154,
      " சீன": 2155,
      "ாவும்": 2156,
      "ரக": 2157,
      " காட்ட": 2158,
      "என்": 2159,
      "க்கண": 2160,
      "த்தின": 2161,
      "ன்னுடைய": 2162,
      " அதே": 2163,
      " உற்ப": 2164,
      "ியர்கள்": 2165,
      " பிரதி": 2166,
      "இர": 2167,
      " மறை": 2168,
      " ஆதரவு": 2169,
      " மனு": 2170,
      " போல்": 2171,
      " வெளியிட்ட": 2172,
      "வரது": 2173,
      " யார்": 2174,
      "போல்": 2175,
      " கட்டுப்பா": 2176,
      " மருத்துவமனை": 2177,
      " பெண்ண": 2178,
      "ற்கு": 2179,
      " வெளியாக": 2180,
      "ங்கிணை": 2181,
      " திரைப்பட": 2182,
      "க்கப்பட்டு": 2183,
      "ப்படவில்லை": 2184,
      " இணைந்து": 2185,
      "ரங்க": 2186,
      "ளிக்க": 2187,
      "வற்றை": 2188,
      " பரவ": 2189,
      " உதவ": 2190,
      "க்கே": 2191,
      " கர்": 2192,
      " ஆண்டுகளுக்கு": 2193,
      "விய": 2194,
      "ீர்கள்": 2195,
      "ங்களாக": 2196,
      " எச்ச": 2197,
      " குறிப்பிடத்தக்கது": 2198,
      " திருப்ப": 2199,
      " ,": 2200,
      "நகர்": 2201,
      "ர்களிடம்": 2202,
      ".ப": 2203,
      "எல்": 2204,
      "தையும்": 2205,
      "ஷி": 2206,
      "ப்பட்டன": 2207,
      " நோய": 2208,
      " அவசிய": 2209,
      "நாயக": 2210,
      "ிகை": 2211,
      "ாயம்": 2212,
      " திருவிழ": 2213,
      " நடைபெற": 2214,
      " கூடாது": 2215,
      "க்கை": 2216,
      " இள": 2217,
      " நடைபெற்று": 2218,
      " அளித்த": 2219,
      " வலை": 2220,
      "ன்றி": 2221,
      "டாக": 2222,
      "நுட்ப": 2223,
      " பாலியல்": 2224,
      " செய்தார்": 2225,
      " இதுவரை": 2226,
      "வ்வளவு": 2227,
      " முயற்சி": 2228,
      "சிக்க": 2229,
      " யூ": 2230,
      " தாக்குதல்": 2231,
      " சர்ச்ச": 2232,
      "ளுக்காக": 2233,
      " முன்னே": 2234,
      "on": 2235,
      " திருமண": 2236,
      "தன": 2237,
      " நீண்ட": 2238,
      " நீதிமன்றம்": 2239,
      " செய்யப்பட்டு": 2240,
      " பதில": 2241,
      "அரச": 2242,
      "கால": 2243,
      "ன்பு": 2244,
      " இல்லாமல்": 2245,
      " அதில்": 2246,
      " அடையாள": 2247,
      " நாடுகள்": 2248,
      " சதவீ": 2249,
      " மாணவர்கள்": 2250,
      "க்குறிப்பு": 2251,
      " உட்பட": 2252,
      "40": 2253,
      " டெல்லி": 2254,
      "ொலை": 2255,
      " மாணவி": 2256,
      " இந்தப்": 2257,
      " நீர்": 2258,
      " எஸ்": 2259,
      " விப": 2260,
      "ப்படை": 2261,
      "ள்ளதாக": 2262,
      "மில்": 2263,
      "ெய்": 2264,
      " இடம்பெ": 2265,
      " தனியார்": 2266,
      "ட்டிற்கு": 2267,
      " கூறுகையில்": 2268,
      "ந்திய": 2269,
      "தமாக": 2270,
      " பணியா": 2271,
      " ஆன": 2272,
      "டியில்": 2273,
      " தயாரி": 2274,
      "ங்களிலும்": 2275,
      "படக்குறிப்பு": 2276,
      "தொடர்ந்து": 2277,
      "பிடி": 2278,
      " வசி": 2279,
      " அறிக்கை": 2280,
      " உள்ளார்": 2281,
      " கோரிக்கை": 2282,
      " நீங்கள்": 2283,
      "மணி": 2284,
      "குதி": 2285,
      " பத": 2286,
      " வருமான": 2287,
      "23": 2288,
      " கடும்": 2289,
      " அலங்க": 2290,
      " ஒருங்கிணை": 2291,
      " விசாரி": 2292,
      "பட்ட": 2293,
      " தரிச": 2294,
      " சுகாதார": 2295,
      " பங்கு": 2296,
      "மான்": 2297,
      "ழ்த்த": 2298,
      " போட்டி": 2299,
      " பின்ன": 2300,
      " காட்ச": 2301,
      " இருந்தாலும்": 2302,
      "ிரா": 2303,
      " தலைமைய": 2304,
      " இங்கு": 2305,
      "வ்வாறு": 2306,
      " அழு": 2307,
      " நடக்கும்": 2308,
      "க்கார": 2309,
      " விரி": 2310,
      " நாட்டின்": 2311,
      "ணியில்": 2312,
      " பெயர்": 2313,
      "ஷா": 2314,
      "ன்ஸ்": 2315,
      " உங்கள்": 2316,
      " இருந்தார்": 2317,
      " இஸ்ரேல்": 2318,
      " இப்படி": 2319,
      " சந்தித்து": 2320,
      "பம்": 2321,
      "த்தன": 2322,
      " மாட்ட": 2323,
      " முடியாத": 2324,
      " தொகுதி": 2325,
      " போட்டு": 2326,
      " தாக்கல்": 2327,
      " ஆண்டுகளாக": 2328,
      " மாதி": 2329,
      " எதிர்பார்க்க": 2330,
      "இன்று": 2331,
      " குழுவ": 2332,
      " மாற": 2333,
      " கூட்டம்": 2334,
      " இருப்பதாக": 2335,
      "ழக்கு": 2336,
      "முறைய": 2337,
      " சட்டமன்ற": 2338,
      "ar": 2339,
      "ப்புற": 2340,
      "இதன": 2341,
      " மீதான": 2342,
      " புரி": 2343,
      " வடி": 2344,
      " எரி": 2345,
      "22": 2346,
      " மகிழ்ச்ச": 2347,
      "வைய": 2348,
      " தலைமையில்": 2349,
      "பார்": 2350,
      "ையிலான": 2351,
      " ரெ": 2352,
      " போக்கு": 2353,
      " யு": 2354,
      " ஜி": 2355,
      " உருவாக்க": 2356,
      " நான்கு": 2357,
      " கூடிய": 2358,
      "ஷேகம்": 2359,
      " பலர்": 2360,
      "அவர்கள்": 2361,
      "தார": 2362,
      " வீடு": 2363,
      " எல்லாம்": 2364,
      " நிகழ்ச்சி": 2365,
      ".சி": 2366,
      " தெரிவித்துள்ளது": 2367,
      " எண்ணிக்கை": 2368,
      " விக்": 2369,
      "ரவை": 2370,
      "க்கல்": 2371,
      "யூ": 2372,
      " தண்ண": 2373,
      " நிறுத்த": 2374,
      " கார்": 2375,
      "ங்கா": 2376,
      " மக்களுக்கு": 2377,
      " பிரிவு": 2378,
      "ிகா": 2379,
      " சிலர்": 2380,
      " ஆண்டில்": 2381,
      "ப்பினும்": 2382,
      " ரி": 2383,
      " அன்று": 2384,
      " டீ": 2385,
      "ியுடன்": 2386,
      "ியன்": 2387,
      " ஆரம்ப": 2388,
      " அவர்களின்": 2389,
      "்களில்": 2390,
      " ராகுல்": 2391,
      "ாட்சி": 2392,
      "ாளி": 2393,
      " தலைவர்கள்": 2394,
      " சட்டம்": 2395,
      "உலக": 2396,
      "ரத்தில்": 2397,
      "நாள்": 2398,
      " ஒதுக்க": 2399,
      "ன்னையில்": 2400,
      " உக்ரை": 2401,
      "ானா": 2402,
      " வெடி": 2403,
      " அதிகரித்து": 2404,
      " குறிப்பிட்டு": 2405,
      "ராளமான": 2406,
      " வேல": 2407,
      " அனைவரும்": 2408,
      "இருப்பினும்": 2409,
      "டியை": 2410,
      " முன்னிட்டு": 2411,
      "அதிமுக": 2412,
      "ில்லியன்": 2413,
      " திக": 2414,
      " சந்திர": 2415,
      "வெளி": 2416,
      "ன்களை": 2417,
      " வன்": 2418,
      ".தி": 2419,
      "னவே": 2420,
      " சோதனை": 2421,
      " வெளியிட": 2422,
      "ரேந்திர": 2423,
      " அமைக்க": 2424,
      "த்தே": 2425,
      "ானி": 2426,
      " அனுமதிக்க": 2427,
      " வரி": 2428,
      " வந்தார்": 2429,
      "ஞ்சி": 2430,
      "ரூ": 2431,
      " ஒப்பந்த": 2432,
      " ஆலோசனை": 2433,
      "ெடுக்க": 2434,
      " கூறியுள்ளார்": 2435,
      "ரள": 2436,
      " பலரும்": 2437,
      "றையை": 2438,
      "ிழமை": 2439,
      " தவற": 2440,
      " அளவுக்கு": 2441,
      "தாவது": 2442,
      "ிகளும்": 2443,
      " நியமி": 2444,
      "குறித்து": 2445,
      "அங்கு": 2446,
      "ருடன்": 2447,
      " அறிவு": 2448,
      " மார்": 2449,
      " அமெரிக்கா": 2450,
      "ஜரா": 2451,
      "அதாவது": 2452,
      "ஞர்": 2453,
      "மின்": 2454,
      "வச": 2455,
      " கூடு": 2456,
      "வுன்": 2457,
      " சொல்லி": 2458,
      "யி": 2459,
      " ஆன்": 2460,
      " சுதந்திர": 2461,
      " ஏற்பட்டது": 2462,
      "கிறார்": 2463,
      "தியான": 2464,
      " தகவல்கள்": 2465,
      "ப்படிய": 2466,
      " முக்கியமான": 2467,
      "ன்னீர்செ": 2468,
      "ய்ய": 2469,
      " ஆறு": 2470,
      "இப்போது": 2471,
      " போராட்டம்": 2472,
      "ளவில்": 2473,
      " சர": 2474,
      "ன்றால்": 2475,
      "நாயகர்": 2476,
      " ஆயிரம்": 2477,
      " தொழில்நுட்ப": 2478,
      "),": 2479,
      " பொருட்க": 2480,
      " அடிக்க": 2481,
      " காவல்துறை": 2482,
      ".ஆர்": 2483,
      " மாவட்டத்தில்": 2484,
      "ிலை": 2485,
      " தொலை": 2486,
      "அம": 2487,
      "நிய": 2488,
      "ப்பும்": 2489,
      "ாலையில்": 2490,
      " கடன்": 2491,
      "ங்களையும்": 2492,
      "ிலுள்ள": 2493,
      " கடுமையாக": 2494,
      " ஆர்வ": 2495,
      "விடம்": 2496,
      "``": 2497,
      "கிர": 2498,
      "ரன்": 2499,
      " பதில்": 2500,
      " போன": 2501,
      " ஆண்டுகள்": 2502,
      " அறிமுக": 2503,
      " தரப்பு": 2504,
      "ட்டிக்க": 2505,
      "இதனை": 2506,
      " அறிவிக்க": 2507,
      "ியுள்ளனர்": 2508,
      " கழி": 2509,
      " அனுப": 2510,
      " வான": 2511,
      " கோவிலில்": 2512,
      " குற்றச்சாட்டு": 2513,
      "வால்": 2514,
      " என்னை": 2515,
      " மாறி": 2516,
      "சிங்க": 2517,
      "நாடு": 2518,
      "யர்": 2519,
      " விற்பனை": 2520,
      "ர்மா": 2521,
      "க்ஸ்": 2522,
      "en": 2523,
      " படம்": 2524,
      "வருக்கும்": 2525,
      " மத்தியில்": 2526,
      " ஆராய": 2527,
      " ஒப்பு": 2528,
      " இறுதி": 2529,
      "என்று": 2530,
      "முன்ன": 2531,
      " ஆதி": 2532,
      " மேல": 2533,
      " கிலோ": 2534,
      " தேடி": 2535,
      " வெள": 2536,
      " உயிரிழந்த": 2537,
      " உடனடியாக": 2538,
      "வார": 2539,
      "டுப்பு": 2540,
      " போலீஸ்": 2541,
      "ஜெ": 2542,
      "களைப்": 2543,
      " பாதிக்கப்பட்ட": 2544,
      "க்கால": 2545,
      " கூட்டத்தில்": 2546,
      " மண": 2547,
      " எழுந்த": 2548,
      "சல்": 2549,
      " புதி": 2550,
      "ப்போதும்": 2551,
      " இருப்பது": 2552,
      ".,": 2553,
      ".டி": 2554,
      "பொரு": 2555,
      " முறையில்": 2556,
      " மகன்": 2557,
      "or": 2558,
      "டைந்து": 2559,
      " குறைந்த": 2560,
      "பட்ச": 2561,
      " சை": 2562,
      " ஏராளமான": 2563,
      " அவர்களுக்கு": 2564,
      " சந்தே": 2565,
      " முன்வை": 2566,
      " கிரிக்க": 2567,
      "மடைந்த": 2568,
      "விடும்": 2569,
      " புல": 2570,
      " கவனம்": 2571,
      " முதலமைச்சர்": 2572,
      "நெ": 2573,
      " முறையாக": 2574,
      "வால": 2575,
      " உற்ச": 2576,
      "ஸ்திரே": 2577,
      "21": 2578,
      "பொது": 2579,
      " நகர்": 2580,
      "ண்டை": 2581,
      " தெளி": 2582,
      "றவு": 2583,
      "ரான்": 2584,
      " தாய்": 2585,
      " அம்ப": 2586,
      " சமய": 2587,
      " பண்ண": 2588,
      " ரன்கள்": 2589,
      " பேசி": 2590,
      " பகி": 2591,
      " இவர்": 2592,
      "நாத்": 2593,
      " இருந்தால்": 2594,
      " விளை": 2595,
      "போன்ற": 2596,
      " நீதிமன்றத்தில்": 2597,
      "சாலை": 2598,
      " பற்றிய": 2599,
      "....": 2600,
      "இந்தியா": 2601,
      " இந்தியாவில்": 2602,
      "வந்த": 2603,
      "செய்ய": 2604,
      "க்கூடாது": 2605,
      " சின்ன": 2606,
      " மாநிலம்": 2607,
      " எதுவும்": 2608,
      "ீஸ்": 2609,
      " சமீ": 2610,
      " ஓய்": 2611,
      "என்ன": 2612,
      " கால்": 2613,
      " கான்": 2614,
      " மருத்துவமனையில்": 2615,
      " ஹி": 2616,
      "al": 2617,
      "ும": 2618,
      " வண": 2619,
      " விவகாரம்": 2620,
      " பற": 2621,
      "நாடக": 2622,
      " அனுப்பி": 2623,
      " நண்ப": 2624,
      "டே": 2625,
      " ஈடுபட்டு": 2626,
      " அந்தப்": 2627,
      "த்தனை": 2628,
      " நாட்டில்": 2629,
      "ியம்": 2630,
      " நரேந்திர": 2631,
      "த்ய": 2632,
      "வுக": 2633,
      " பிபிசி": 2634,
      " முடியவில்லை": 2635,
      " சாலை": 2636,
      " மக்களின்": 2637,
      " பணிய": 2638,
      "பாஜக": 2639,
      " இருவரும்": 2640,
      " தேவையான": 2641,
      " கண்காணி": 2642,
      "இவர்": 2643,
      "சர": 2644,
      "ச்சே": 2645,
      " மேற்கொண்ட": 2646,
      " வேண்டாம்": 2647,
      " நிதிய": 2648,
      " ஹெ": 2649,
      " கைப்ப": 2650,
      "நீர்": 2651,
      "ப்பெரிய": 2652,
      "ங்கை": 2653,
      " குழ": 2654,
      " சீனா": 2655,
      "குறிப்பாக": 2656,
      "த்தகைய": 2657,
      "க்கணக்கான": 2658,
      " பகவ": 2659,
      " மார": 2660,
      "ப்பதி": 2661,
      "னோ": 2662,
      " அக்க": 2663,
      "ிட்": 2664,
      " நாட்கள்": 2665,
      " பட்டிய": 2666,
      " கழக": 2667,
      " இந்தியாவின்": 2668,
      " மூன்ற": 2669,
      " டாக": 2670,
      " வகை": 2671,
      "வோ": 2672,
      "ட்பு": 2673,
      " பிரதம": 2674,
      " அப": 2675,
      " காலம்": 2676,
      " ஆகியோ": 2677,
      "ால்தான்": 2678,
      "தற்கும்": 2679,
      " குறிப்பிட்டார்": 2680,
      "ராம": 2681,
      " அதிர்ச்ச": 2682,
      " லா": 2683,
      " பாராளுமன்ற": 2684,
      " சேர்க்க": 2685,
      "வர்களில்": 2686,
      "ுகிறது": 2687,
      "ர்ட": 2688,
      "ஹா": 2689,
      "னாக": 2690,
      " சிர": 2691,
      " தன்னுடைய": 2692,
      "வாதி": 2693,
      " தாய": 2694,
      " நடக்கிறது": 2695,
      " மாற்று": 2696,
      " அதிகாரி": 2697,
      " ஒன்றை": 2698,
      "வாய்": 2699,
      "ற்கை": 2700,
      " காட்டு": 2701,
      "றையினர்": 2702,
      "அவ": 2703,
      "ஞான": 2704,
      "ராஜ்": 2705,
      "ஆக": 2706,
      " காத்த": 2707,
      " மிர": 2708,
      " அவ்": 2709,
      "பிறகு": 2710,
      " தொட": 2711,
      "டுகிறது": 2712,
      " முயற்ச": 2713,
      " ஸ்க": 2714,
      "டர்": 2715,
      " வன": 2716,
      " சிறப்பாக": 2717,
      " நிறைவேற்ற": 2718,
      "-ஆம்": 2719,
      "ப்பிய": 2720,
      " ஆனால்": 2721,
      "ுமா": 2722,
      " நாக": 2723,
      " சேர்ந்து": 2724,
      " விமர்சி": 2725,
      " தற்ப": 2726,
      " அம்மன்": 2727,
      "ங்களது": 2728,
      " பறி": 2729,
      "ாலை": 2730,
      " பால்": 2731,
      "வுகளை": 2732,
      " தான": 2733,
      "ன்மை": 2734,
      "மாள்": 2735,
      "ற்றின்": 2736,
      " நாளை": 2737,
      "நாட்டில்": 2738,
      " ஏற்பட": 2739,
      " ஷா": 2740,
      " ரே": 2741,
      "ளையும்": 2742,
      " பக்க": 2743,
      "னைகள்": 2744,
      " புகைப்பட": 2745,
      "ீரென": 2746,
      "ூரில்": 2747,
      "த்திரை": 2748,
      "ம்தான்": 2749,
      "இல்": 2750,
      "ஸ்லி": 2751,
      " கப்ப": 2752,
      " மிகப்பெரிய": 2753,
      "ருமான": 2754,
      " செய்யப்பட்டது": 2755,
      "மக்கு": 2756,
      "ழும்": 2757,
      "த்தைத்": 2758,
      "புண": 2759,
      " போட்டியில்": 2760,
      " சகோத": 2761,
      "டன": 2762,
      "மிக": 2763,
      "ுவார்த்த": 2764,
      "பய": 2765,
      "ரையில்": 2766,
      "ழில்": 2767,
      " இன": 2768,
      "ிருக்கிறார்கள்": 2769,
      " உயிர": 2770,
      " பேசினார்": 2771,
      " வீரர்கள்": 2772,
      "ானை": 2773,
      "மத்திய": 2774,
      " ப்": 2775,
      " அதனை": 2776,
      " இன்ற": 2777,
      " அவர்களை": 2778,
      " அவரின்": 2779,
      "லலி": 2780,
      "ாண்டு": 2781,
      "த்திலிருந்து": 2782,
      "ாகும்": 2783,
      "ிருப்பது": 2784,
      " கத": 2785,
      " குழந்தைகள்": 2786,
      " மாக": 2787,
      " செய்வது": 2788,
      "க்கொண்டு": 2789,
      "வரத்து": 2790,
      " சட்டச": 2791,
      " நோக்கி": 2792,
      " விஜய": 2793,
      "வியல்": 2794,
      "ப்பூர்": 2795,
      " கும்ப": 2796,
      " தாம": 2797,
      "ல்லா": 2798,
      " மேற்கு": 2799,
      "சர்": 2800,
      "வருக": 2801,
      "மிட": 2802,
      " வார்த்த": 2803,
      "ப்பர்": 2804,
      " சொல்க": 2805,
      "பான்": 2806,
      " உடன்": 2807,
      "ுகளை": 2808,
      " கோயிலில்": 2809,
      "னைய": 2810,
      "வித": 2811,
      " மட்டுமல்ல": 2812,
      " இதில்": 2813,
      " வழங்குவ": 2814,
      "ப்படுகின்றன": 2815,
      "இந்தப்": 2816,
      " மதுரை": 2817,
      "ின்றது": 2818,
      "கூ": 2819,
      "ந்துள்ள": 2820,
      " கல்": 2821,
      " தரு": 2822,
      " ரண": 2823,
      "த்துவம்": 2824,
      " மருந்து": 2825,
      "த்திற்கும்": 2826,
      " யாரும்": 2827,
      " உடை": 2828,
      " செய்தது": 2829,
      " ஆயுத": 2830,
      " அண்ணாமலை": 2831,
      " தொண்ட": 2832,
      " சேர்த்து": 2833,
      " விதிக்க": 2834,
      " ஹோ": 2835,
      " அளவு": 2836,
      " கௌ": 2837,
      "ளித்த": 2838,
      " சிறந்த": 2839,
      " பணிகள்": 2840,
      " எங்கள்": 2841,
      " கொல்ல": 2842,
      "வேண்டும்": 2843,
      " ஆகும்": 2844,
      " பயிற்சி": 2845,
      " போய்": 2846,
      "ராசிர": 2847,
      " நிபுண": 2848,
      "தூ": 2849,
      "காரா": 2850,
      "வாத": 2851,
      "ர்ட்": 2852,
      " வாங்கி": 2853,
      " இயக்க": 2854,
      " மாற்றம்": 2855,
      " அடைந்த": 2856,
      "ற்றும்": 2857,
      "வரா": 2858,
      " தென்": 2859,
      " ஐந்து": 2860,
      " இருக்கிற": 2861,
      " லி": 2862,
      "இப்படி": 2863,
      " தரிசனம்": 2864,
      "புற": 2865,
      " மகா": 2866,
      " பேச்சுவார்த்த": 2867,
      "னையை": 2868,
      " S": 2869,
      "ெழு": 2870,
      " தன்னை": 2871,
      "சிற": 2872,
      " முடிந்த": 2873,
      " எழுதிய": 2874,
      " கணி": 2875,
      "மலை": 2876,
      "ிருக்கின்றனர்": 2877,
      "அப்படி": 2878,
      " எனது": 2879,
      " வழியாக": 2880,
      " செய்தியாள": 2881,
      "ாமா": 2882,
      " விண்ண": 2883,
      " விக்கெ": 2884,
      " குமார்": 2885,
      " மின்சார": 2886,
      " இதற்கு": 2887,
      "ஞ்சம்": 2888,
      " அச்ச": 2889,
      "ப்பம்": 2890,
      "ையோ": 2891,
      " இந்தக்": 2892,
      " ராஜப": 2893,
      " நம்பிக்கை": 2894,
      " கடுமையான": 2895,
      " பாகிஸ்தான்": 2896,
      "த்துள்ள": 2897,
      " விருது": 2898,
      " நடைமுறை": 2899,
      " தடுப்ப": 2900,
      " முருக": 2901,
      "அமெரிக்க": 2902,
      " எனத்": 2903,
      " தேர்": 2904,
      "ழிப்பு": 2905,
      " பிரபல": 2906,
      " சூழ்": 2907,
      " வலியுறு": 2908,
      "27": 2909,
      "60": 2910,
      " திருக்க": 2911,
      "ும்பை": 2912,
      " ட்விட்ட": 2913,
      "ரியா": 2914,
      " தந்தை": 2915,
      "மக்க": 2916,
      " பக்கம்": 2917,
      " இனி": 2918,
      " மாநிலத்தில்": 2919,
      "இதே": 2920,
      " விடுதலை": 2921,
      "-வது": 2922,
      " கும்": 2923,
      " என்கிற": 2924,
      " மொத்த": 2925,
      "ல்வம்": 2926,
      " சசிக": 2927,
      " கிடைத்த": 2928,
      " உயிரிழ": 2929,
      " திருவிழா": 2930,
      "க்ச": 2931,
      " கலா": 2932,
      " பிரச்சி": 2933,
      " பந்துவீ": 2934,
      " வாய": 2935,
      " நிர்வாகிகள்": 2936,
      "ப்பதாக": 2937,
      "கமாக": 2938,
      " நுழை": 2939,
      "es": 2940,
      "ைப்": 2941,
      "ர்களில்": 2942,
      "யு": 2943,
      " அச": 2944,
      " இந்தத்": 2945,
      "அதன்படி": 2946,
      " கருத": 2947,
      "லூர்": 2948,
      " எளி": 2949,
      "நிலைய": 2950,
      " ஆராய்ச்ச": 2951,
      " வளர்ச்சி": 2952,
      "த்தல்": 2953,
      " புர": 2954,
      "வீன": 2955,
      " பாலா": 2956,
      " விவகாரத்தில்": 2957,
      " எதிர்க்கட்ச": 2958,
      " அவை": 2959,
      "ட்ஸ்": 2960,
      " அறிக்கையில்": 2961,
      " வென்ற": 2962,
      "ணு": 2963,
      "மம்": 2964,
      " நகை": 2965,
      " கிடைய": 2966,
      "ற்சிய": 2967,
      " மாநக": 2968,
      "ரியில்": 2969,
      " சுற்றுலா": 2970,
      " தினம்": 2971,
      "்டோ": 2972,
      " அபிவிரு": 2973,
      " சொத்து": 2974,
      " கொள்வ": 2975,
      " பணியில்": 2976,
      " கண்டி": 2977,
      " தொற்று": 2978,
      " ஏற்ற": 2979,
      " எதிர்கால": 2980,
      "த்தூர்": 2981,
      "இதுகுறித்து": 2982,
      "லையில்": 2983,
      " பட்": 2984,
      " ஏற்பா": 2985,
      " உறுப்பினர்": 2986,
      "காங்கிர": 2987,
      " பொதுமக்கள்": 2988,
      "இங்கு": 2989,
      "க்ரே": 2990,
      "199": 2991,
      " துவங்க": 2992,
      "ண்கள்": 2993,
      "-ல்": 2994,
      " சிறுவ": 2995,
      "்துறை": 2996,
      "நேற்று": 2997,
      " முதலில்": 2998,
      " மேற்கொண்டு": 2999,
      " குறித்தும்": 3000,
      " உற்பத்தி": 3001,
      "ஷேக": 3002,
      " வகுப்பு": 3003,
      "ந்தர": 3004,
      "ப்பதற்கு": 3005,
      "ங்கல்": 3006,
      " சூரிய": 3007,
      " ஆண்டுகளில்": 3008,
      "28": 3009,
      "ண்டிய": 3010,
      "மித்": 3011,
      ".ஐ": 3012,
      "26": 3013,
      " தை": 3014,
      " நாட்களுக்கு": 3015,
      " மோதி": 3016,
      " சூழலில்": 3017,
      "இதற்க": 3018,
      " குஜரா": 3019,
      " பேராசிர": 3020,
      " விரைவில்": 3021,
      " கிடையாது": 3022,
      " சப": 3023,
      " குவி": 3024,
      " வழங்கப்படும்": 3025,
      " மாகாண": 3026,
      " A": 3027,
      " வங்கி": 3028,
      "திமுக": 3029,
      " விவர": 3030,
      " தலைவராக": 3031,
      " வியா": 3032,
      " கிரிக்கெட்": 3033,
      "சரி": 3034,
      " அம்மா": 3035,
      "ீன்": 3036,
      " கதை": 3037,
      "குதியில்": 3038,
      "அடுத்த": 3039,
      " படைய": 3040,
      " அமர்": 3041,
      " நாட்டு": 3042,
      " தெரிவித்தனர்": 3043,
      " புரிந்து": 3044,
      " உரிய": 3045,
      " ஏற்படுத்தி": 3046,
      " டை": 3047,
      "அவரது": 3048,
      "டெல்லி": 3049,
      " நிறுவனங்கள்": 3050,
      "பாலான": 3051,
      " நவ": 3052,
      " அந்": 3053,
      " பேருந்து": 3054,
      "ன்னீர்செல்வம்": 3055,
      "...": 3056,
      "சியில்": 3057,
      "திலும்": 3058,
      " கடைசி": 3059,
      "வதற்கு": 3060,
      " அம்": 3061,
      " உங்களுக்கு": 3062,
      " மக்களை": 3063,
      "ந்தர்": 3064,
      " பின்ப": 3065,
      " டாக்டர்": 3066,
      "்டு": 3067,
      " கர": 3068,
      " நிலையத்தில்": 3069,
      " ஆய்வ": 3070,
      "பாபி": 3071,
      "ன்கொ": 3072,
      "பீ": 3073,
      " நபர்": 3074,
      "தைப்": 3075,
      " வர்த்த": 3076,
      " பகுதியை": 3077,
      " தற்கொலை": 3078,
      "ுவை": 3079,
      " நெரு": 3080,
      "இந்தியாவில்": 3081,
      "இஸ்": 3082,
      "னிய": 3083,
      " அதிகரிக்கும்": 3084,
      " திடீரென": 3085,
      "500": 3086,
      "மன": 3087,
      "ழ்க": 3088,
      " தடுக்க": 3089,
      " அருகில்": 3090,
      " ஆவண": 3091,
      " வலைதள": 3092,
      " டா": 3093,
      "ீட்டு": 3094,
      " பெண்க": 3095,
      "அதேபோல": 3096,
      " அருள்": 3097,
      "ந்தார்": 3098,
      " நிற்க": 3099,
      " எனும்": 3100,
      " வந்தனர்": 3101,
      " தொடங்கிய": 3102,
      "பிரத": 3103,
      " ரூபாய": 3104,
      " சதவி": 3105,
      " அம்ம": 3106,
      "தர்": 3107,
      " குடியரசு": 3108,
      " தலைமையிலான": 3109,
      "தோடு": 3110,
      "னல்": 3111,
      " சுய": 3112,
      " வருகிறார்கள்": 3113,
      " தரப்பில்": 3114,
      " ஏற்பட்டுள்ளது": 3115,
      "எம்": 3116,
      "ர்ண": 3117,
      " அரி": 3118,
      " சதவிகி": 3119,
      "வதாக": 3120,
      " இருக்கலாம்": 3121,
      " அறிவிப்பு": 3122,
      " மரண": 3123,
      " மதிப்ப": 3124,
      " இரண்டாவது": 3125,
      "ாந்து": 3126,
      " சிறிய": 3127,
      " விழாவில்": 3128,
      " வட்ட": 3129,
      "ருடைய": 3130,
      " கீழ": 3131,
      " ரத்து": 3132,
      " தெரிக": 3133,
      "ஷ்மீ": 3134,
      " பயன்படுத்தி": 3135,
      "எதி": 3136,
      "ங்களால்": 3137,
      " பேசுக": 3138,
      " மற்றொரு": 3139,
      " அதிகமான": 3140,
      "நாங்கள்": 3141,
      " கொண்டிருந்த": 3142,
      "வார்": 3143,
      " விளக்க": 3144,
      " முதன்": 3145,
      " பேட்ட": 3146,
      "ப்படுத்தி": 3147,
      " முயன்ற": 3148,
      " பரிந்து": 3149,
      "ளே": 3150,
      "ாரு": 3151,
      " வளாக": 3152,
      " செயற்ப": 3153,
      "காராஷ்ட": 3154,
      " கிருஷ்ண": 3155,
      "ரியாத": 3156,
      " மலை": 3157,
      "ினும்": 3158,
      "இந்தச்": 3159,
      " வாக்க": 3160,
      "ாவிற்கு": 3161,
      " அவசியம்": 3162,
      " வசதி": 3163,
      " மார்ச்": 3164,
      "ையிலும்": 3165,
      " டே": 3166,
      "ளுடைய": 3167,
      " நிறைய": 3168,
      " கல்லூரி": 3169,
      " முஸ்லி": 3170,
      " பிரிட்ட": 3171,
      " வெளியாகி": 3172,
      " ஆட்சியில்": 3173,
      " பார்வைய": 3174,
      "ஸின்": 3175,
      "ப்பட்டார்": 3176,
      " நம்பிக்க": 3177,
      " நாளில்": 3178,
      " எங்களுக்கு": 3179,
      "ாளைய": 3180,
      " தொடர்பில்": 3181,
      " ரத்த": 3182,
      "பெற்ற": 3183,
      " உண்டு": 3184,
      " ஏமா": 3185,
      " ரணில்": 3186,
      "ண்க": 3187,
      " வித்திய": 3188,
      " லே": 3189,
      " தெரியவ": 3190,
      "is": 3191,
      "பிடிக்க": 3192,
      " நமது": 3193,
      " பிரே": 3194,
      "களைக்": 3195,
      " ராசி": 3196,
      " அதிர": 3197,
      " பவு": 3198,
      " வீட்டு": 3199,
      "கவின்": 3200,
      " நினைக்க": 3201,
      " வழக்கறி": 3202,
      " மாவட்டங்களில்": 3203,
      "களிலும்": 3204,
      "ுங்கள்": 3205,
      " கம": 3206,
      "ப்பிக்க": 3207,
      " போக்குவரத்து": 3208,
      " பண்ட": 3209,
      " பற்ற": 3210,
      " தேர்ந்த": 3211,
      "ட்ரோ": 3212,
      " அதிகரிக்க": 3213,
      " விபத்து": 3214,
      "ச்செய": 3215,
      " அழ": 3216,
      " நடிகர்": 3217,
      "ூர": 3218,
      " உட்க": 3219,
      " இருக்கு": 3220,
      " சாப்ப": 3221,
      " பெருமாள்": 3222,
      " தெரியவில்லை": 3223,
      "மண": 3224,
      "ழக்க": 3225,
      "பால்": 3226,
      " போட": 3227,
      " சம்பந்த": 3228,
      " நிகழ்ச்சியில்": 3229,
      " ஒத்து": 3230,
      " அரசுக்கு": 3231,
      " தெரியும்": 3232,
      " அழைக்க": 3233,
      " நிர்வாகம்": 3234,
      " கொள்கை": 3235,
      " ஜூலை": 3236,
      "படுத்த": 3237,
      " ஒழு": 3238,
      " சுட்டிக்க": 3239,
      " ரசிகர்கள்": 3240,
      " செய்யப்பட்டுள்ளது": 3241,
      " மாநிலங்களில்": 3242,
      " தொடங்கியது": 3243,
      "ஸில்": 3244,
      " பொறுத்த": 3245,
      " தண்ணீர்": 3246,
      " கூடுதல்": 3247,
      "மிருந்து": 3248,
      " கள்ள": 3249,
      " டால": 3250,
      " சிறை": 3251,
      " அணியின்": 3252,
      " ஆஸ்திரே": 3253,
      " சென்னையில்": 3254,
      " பிரசார": 3255,
      " பரபரப்பை": 3256,
      " தண்டனை": 3257,
      " B": 3258,
      "ஸை": 3259,
      "வேன்": 3260,
      " அவர்கள": 3261,
      "ோதைய": 3262,
      " தட": 3263,
      " உரையா": 3264,
      " விஜய்": 3265,
      "றையும்": 3266,
      " கமி": 3267,
      "ங்களைப்": 3268,
      " வெளிநாட்டு": 3269,
      " விளையாட்டு": 3270,
      "ராட்ச": 3271,
      "டுகளில்": 3272,
      " புகார": 3273,
      " பெற்றோ": 3274,
      " வாழ்க்கை": 3275,
      " விக்ரம": 3276,
      "மிற": 3277,
      " இருக்கின்றன": 3278,
      "ப்பாடு": 3279,
      " பொறுப்பு": 3280,
      "ஸ்வரர்": 3281,
      " ஏற்கனவே": 3282,
      "எல்ஏ": 3283,
      ".வி": 3284,
      " கட்சிய": 3285,
      " சரியாக": 3286,
      " உக்ரைன்": 3287,
      " பண்": 3288,
      " நிச்ச": 3289,
      " நாடுகளில்": 3290,
      " காம": 3291,
      " இஸ்லாம": 3292,
      " பங்கேற்ற": 3293,
      " தெரிகிறது": 3294,
      " வித்தியாச": 3295,
      "விற்கு": 3296,
      " தள்ள": 3297,
      " துப்பா": 3298,
      " குண": 3299,
      "ாளர்களை": 3300,
      " தமிழகத்தில்": 3301,
      "கொள்ள": 3302,
      "மக": 3303,
      "ிங்": 3304,
      "ியம்மன்": 3305,
      " உத்த": 3306,
      " உருவாக": 3307,
      " தமிழ்நாட்டில்": 3308,
      " உண்மை": 3309,
      " சந்தித்த": 3310,
      "டோ": 3311,
      " தனக்கு": 3312,
      "இலங்கை": 3313,
      " பொதுக்குழு": 3314,
      " விலக": 3315,
      " திருவ": 3316,
      " மாணவ": 3317,
      " அவ்வ": 3318,
      " பாக": 3319,
      "விட்டால்": 3320,
      " சரியான": 3321,
      "வையில்": 3322,
      " சக்தி": 3323,
      " ஏற்பாடு": 3324,
      "ாயி": 3325,
      " புத்தக": 3326,
      " சந்திக்க": 3327,
      " விமர்ச": 3328,
      " நியூ": 3329,
      " ஜூன்": 3330,
      " உதய": 3331,
      " பக்கத்தில்": 3332,
      " கம்ப": 3333,
      "ப்ரல்": 3334,
      "ங்கம்": 3335,
      " நட்ச": 3336,
      " ஜே": 3337,
      "ப்படுத்தும்": 3338,
      " செலவு": 3339,
      " சான்": 3340,
      "லாக்க": 3341,
      "ரவரி": 3342,
      " கும்பாபி": 3343,
      " நட்சத்திர": 3344,
      "றையின்": 3345,
      " ஜனநாயக": 3346,
      " வலி": 3347,
      "விக்க": 3348,
      " நிறுவனத்தின்": 3349,
      "சில்": 3350,
      " செல்க": 3351,
      " கூட்டு": 3352,
      "ஞ்சு": 3353,
      " எல்லா": 3354,
      " களமிற": 3355,
      "ரால்": 3356,
      "ப்ரவரி": 3357,
      " எதிர்த்து": 3358,
      " சிலை": 3359,
      " கண்டறிய": 3360,
      " வீட்டுக்கு": 3361,
      " தவறு": 3362,
      " அப்படி": 3363,
      "டுமை": 3364,
      "ர்களாக": 3365,
      "ிருக்கின்றன": 3366,
      " முழுமையாக": 3367,
      " t": 3368,
      "ச்சார": 3369,
      " பேசுவ": 3370,
      " கிழக்கு": 3371,
      " பகிர்ந்து": 3372,
      " கடற்ப": 3373,
      " வழங்கும்": 3374,
      "it": 3375,
      " சுற்றி": 3376,
      "ஸ்டாலின்": 3377,
      "ிகர": 3378,
      " வழங்கி": 3379,
      " கட்சிகள்": 3380,
      " பரிந்துரை": 3381,
      " கையில்": 3382,
      "தமிழ்நாட்டில்": 3383,
      "த்திலேயே": 3384,
      "மாகக்": 3385,
      "பாத்": 3386,
      "ாதாரம்": 3387,
      "மொத்த": 3388,
      "னாலும்": 3389,
      " சொல்": 3390,
      "லைன்": 3391,
      " பிடித்து": 3392,
      " இயக்குநர்": 3393,
      " அபிவிருத்தி": 3394,
      " உயர்த்த": 3395,
      " அறிய": 3396,
      " ஓட்டு": 3397,
      " சாதி": 3398,
      " லெ": 3399,
      "ந்திரன்": 3400,
      " அலங்கார": 3401,
      "ற்பு": 3402,
      " கலந்துரையா": 3403,
      " பஞ்சா": 3404,
      "ந்தா": 3405,
      "க்குச்": 3406,
      " கொண்டனர்": 3407,
      " கடிதம்": 3408,
      " C": 3409,
      "மாகும்": 3410,
      "வர்களும்": 3411,
      " நிலைமை": 3412,
      " மொழ": 3413,
      "ோட": 3414,
      "மாஸ்": 3415,
      " மீன": 3416,
      " பெயரில்": 3417,
      " எம்எல்ஏ": 3418,
      " அங்கீ": 3419,
      "29": 3420,
      "மழை": 3421,
      "ுமி": 3422,
      "நாட்டின்": 3423,
      " வழங்கிய": 3424,
      " ஹே": 3425,
      "றுகிறது": 3426,
      "ரஷ்ய": 3427,
      " தங்களது": 3428,
      "மாண": 3429,
      " செயல்பா": 3430,
      " திகதி": 3431,
      " M": 3432,
      " சினி": 3433,
      " அடுத்து": 3434,
      " எல்லை": 3435,
      " பெரி": 3436,
      "இந்தக்": 3437,
      " தடுப்பூ": 3438,
      "ic": 3439,
      " நன்ற": 3440,
      "விட்": 3441,
      " நேரடியாக": 3442,
      "ையுடன்": 3443,
      " தொகை": 3444,
      " ஆகியவ": 3445,
      "க்கூடும்": 3446,
      " ஆளுந": 3447,
      " நாட்களில்": 3448,
      " மதிப்பு": 3449,
      " ஜெயலலி": 3450,
      "காவ": 3451,
      "ர்களுடன்": 3452,
      " தீர்வு": 3453,
      "செய்த": 3454,
      " நெருக்கடி": 3455,
      "am": 3456,
      "ந்தை": 3457,
      " வித": 3458,
      " பேச்சு": 3459,
      " தீர்ப்பு": 3460,
      " கர்நாடக": 3461,
      "காங்கிரஸ்": 3462,
      "ிருந்தால்": 3463,
      " தம்ப": 3464,
      "த்துள்ளனர்": 3465,
      " உத்தரவு": 3466,
      " சகோதர": 3467,
      " அக்": 3468,
      " ஆடி": 3469,
      " நேரில்": 3470,
      " உறுப்பினர்கள்": 3471,
      " சட்டசபை": 3472,
      "வாய": 3473,
      " தன்ன": 3474,
      " எங்க": 3475,
      " சிறையில்": 3476,
      " திட்டத்தை": 3477,
      "ிருப்பதாக": 3478,
      " பிரதிநிதி": 3479,
      "லத்தில்": 3480,
      "ன்ட்": 3481,
      " வரிச": 3482,
      " எவ்வளவு": 3483,
      "புரி": 3484,
      "ெனவே": 3485,
      "ஏன": 3486,
      " முன்னெ": 3487,
      "்குமார்": 3488,
      " குற்றம்சா": 3489,
      " சந்தேக": 3490,
      "ுந்த": 3491,
      " நின்": 3492,
      " எப்போதும்": 3493,
      " பேட்டி": 3494,
      " மருத்துவர்": 3495,
      "கிரி": 3496,
      "யோ": 3497,
      " அழக": 3498,
      " ஒலி": 3499,
      " ஆகியவை": 3500,
      "ராஜன்": 3501,
      " கட்டி": 3502,
      " சார்ந்த": 3503,
      "இன்ன": 3504,
      " படுக": 3505,
      " வலு": 3506,
      " கேப்ட": 3507,
      "ியைப்": 3508,
      "ங்களைக்": 3509,
      " மொத்தம்": 3510,
      " இடம்பெற்ற": 3511,
      "ள்ளை": 3512,
      " குற்றவாள": 3513,
      "த்திற்காக": 3514,
      " மோசமான": 3515,
      " வகி": 3516,
      " ஒளி": 3517,
      "ப்பட்டனர்": 3518,
      " வீழ்த்த": 3519,
      " ஏற்படுத்தியுள்ளது": 3520,
      " மூலமாக": 3521,
      "தமிழ்நாடு": 3522,
      " சன": 3523,
      "களால்": 3524,
      " பரிசோதனை": 3525,
      "கல்": 3526,
      " வெளியான": 3527,
      " பணத்தை": 3528,
      " மில்லியன்": 3529,
      " சனி": 3530,
      " வழக்கம்": 3531,
      " நடவடிக்கைகள்": 3532,
      "பிரதமர்": 3533,
      " உள": 3534,
      " பெறுவ": 3535,
      "ம்பர": 3536,
      " வருவதாக": 3537,
      " கவுன்": 3538,
      " ரக": 3539,
      "ளிர்": 3540,
      " மீட்க": 3541,
      " ஒன்றாக": 3542,
      "70": 3543,
      " பெரும்பாலான": 3544,
      "சம": 3545,
      "ிர்": 3546,
      " திரி": 3547,
      " அப்பா": 3548,
      "ையைப்": 3549,
      " நோக்க": 3550,
      "பெரும்": 3551,
      ".என்": 3552,
      "ப்பதிவு": 3553,
      " ஒத்துழை": 3554,
      " தெரிந்து": 3555,
      "மொழி": 3556,
      " ரீதியாக": 3557,
      "டித்து": 3558,
      "வக": 3559,
      "ிக்கொண்ட": 3560,
      " சாத்திய": 3561,
      " அணுக": 3562,
      "எந்த": 3563,
      "நட": 3564,
      "க்கர்": 3565,
      " இதன்": 3566,
      "ல்களில்": 3567,
      " நடு": 3568,
      " என்பவர்": 3569,
      "ாரணம்": 3570,
      " செயல்பட்டு": 3571,
      "ென்றால்": 3572,
      " பயங்க": 3573,
      " கலந்துகொண்ட": 3574,
      " வன்முறை": 3575,
      "அனை": 3576,
      " எழுப்ப": 3577,
      "அதேபோல்": 3578,
      " T": 3579,
      "ஜூ": 3580,
      "ையொ": 3581,
      "ிக்கப்பட்ட": 3582,
      " தோல்வ": 3583,
      " தோல்வி": 3584,
      "மாநில": 3585,
      "தேர்த": 3586,
      "போதும்": 3587,
      "த்துக்கும்": 3588,
      "ஸ்டர்": 3589,
      " திரா": 3590,
      " சசிகலா": 3591,
      "சுவ": 3592,
      "ஹ்": 3593,
      " பஞ்ச": 3594,
      " ஓர்": 3595,
      "மில்லை": 3596,
      "்டோபர்": 3597,
      " மற": 3598,
      "ண்மை": 3599,
      "ினம்": 3600,
      " விவசாயிகள்": 3601,
      " அழைத்துச்": 3602,
      " நோய்": 3603,
      " முதலீ": 3604,
      " அரசாங்கம்": 3605,
      " மீன்": 3606,
      "ம்ஸ்": 3607,
      " நிமிட": 3608,
      " உண்ட": 3609,
      "்க்கு": 3610,
      " பொருட்கள்": 3611,
      "ுல்": 3612,
      "க்கட்ட": 3613,
      " ஊழிய": 3614,
      " வடிவ": 3615,
      "ிலிருந்த": 3616,
      " கிரக": 3617,
      " P": 3618,
      "நிக": 3619,
      "ம்த": 3620,
      "டியும்": 3621,
      "புது": 3622,
      " இருப்பதால்": 3623,
      " ஆதரவாக": 3624,
      " விமர்சன": 3625,
      " பிரச்சனை": 3626,
      " மட": 3627,
      " அறு": 3628,
      "வரையும்": 3629,
      " கார்த்த": 3630,
      " நடத்தினர்": 3631,
      " போட்டியிட": 3632,
      " கண்டுபிடி": 3633,
      "ஏற்க": 3634,
      "மல்ல": 3635,
      " ரொ": 3636,
      " கொடுப்ப": 3637,
      "ம்பா": 3638,
      " கடல்": 3639,
      " நிகழ்வு": 3640,
      "தில": 3641,
      " உள்ளே": 3642,
      " கேரள": 3643,
      " சூழல்": 3644,
      " விநாயகர்": 3645,
      " காப்பா": 3646,
      " சிங்க": 3647,
      " உறவின": 3648,
      "ஃப": 3649,
      " விவாத": 3650,
      "கும்": 3651,
      "க்கெட்": 3652,
      " காஷ்மீ": 3653,
      "ம்க": 3654,
      "வட": 3655,
      "ெல்லியில்": 3656,
      " கௌரவ": 3657,
      "திக": 3658,
      "ன்னா": 3659,
      "புர": 3660,
      " திட்டத்தின்": 3661,
      " கவலை": 3662,
      "னியா": 3663,
      "ைக்": 3664,
      "ம்பரம்": 3665,
      " கோவை": 3666,
      "ையைக்": 3667,
      " ஆணையம்": 3668,
      " விக்ரமசிங்க": 3669,
      "சமீ": 3670,
      "ள்வது": 3671,
      " பக்தர்களுக்கு": 3672,
      "லாளர்": 3673,
      " ஆளும்": 3674,
      "ிருக்கலாம்": 3675,
      "அதன": 3676,
      " தீவிரமாக": 3677,
      " மாதிரி": 3678,
      "ண்டர்": 3679,
      "வேளை": 3680,
      " போட்டிகளில்": 3681,
      " பொருட்களை": 3682,
      "35": 3683,
      "கரி": 3684,
      " உள்ளதாக": 3685,
      " சேர்ந்தவர்": 3686,
      " வலியுறுத்த": 3687,
      " மூலாதாரம்": 3688,
      "வரான": 3689,
      " செய்துக": 3690,
      "ாய்வு": 3691,
      " ஊர்வ": 3692,
      " பராம": 3693,
      " கிட்ட": 3694,
      "ப்பொரு": 3695,
      " காட்சி": 3696,
      " முழுக்க": 3697,
      " வெங்க": 3698,
      " பேருக்கு": 3699,
      " பதிவிட்டு": 3700,
      " ஏற்படுத்தும்": 3701,
      " முதலீடு": 3702,
      " முடிவுகள்": 3703,
      "லமாக": 3704,
      "க்குழுவ": 3705,
      " கொண்டார்": 3706,
      " அடித்து": 3707,
      " பிரச்சினை": 3708,
      " சட": 3709,
      " செந்தில்": 3710,
      "ரிமை": 3711,
      " வேகமாக": 3712,
      " முன்பாக": 3713,
      " சமீபத்தில்": 3714,
      ".ஜி": 3715,
      " சவால": 3716,
      " பயன்": 3717,
      " கொண்டாட": 3718,
      " மோதல்": 3719,
      " செயல்படுத்த": 3720,
      " விஷயம்": 3721,
      "இதற்காக": 3722,
      "வுக்கும்": 3723,
      " தலைய": 3724,
      "ும்பி": 3725,
      " ஆல": 3726,
      " பிடிக்க": 3727,
      " கட்சியில்": 3728,
      "ஷம்": 3729,
      "த்தான": 3730,
      " படத்தில்": 3731,
      " உள்ளாட்சி": 3732,
      " ஆதார": 3733,
      " ஃப": 3734,
      " மரியாத": 3735,
      " நினைவு": 3736,
      " அடையாளம்": 3737,
      "சம்பர்": 3738,
      " பாஜ": 3739,
      " அலுவலகத்தில்": 3740,
      "தமிழகத்தில்": 3741,
      " அடிக்கடி": 3742,
      " வெளியு": 3743,
      " பேச்சுவார்த்தை": 3744,
      " நாட்டை": 3745,
      " தயாராக": 3746,
      "31": 3747,
      "ீப்": 3748,
      " இழு": 3749,
      " விடுத்து": 3750,
      "நீங்கள்": 3751,
      " பங்கேற்க": 3752,
      " பாகிஸ்தான": 3753,
      "\"\n": 3754,
      "ப்பன்": 3755,
      "ப்புக்கு": 3756,
      " ஜா": 3757,
      ".கே": 3758,
      " கணவர்": 3759,
      " குள": 3760,
      " ஐக்கிய": 3761,
      " இலவச": 3762,
      "ion": 3763,
      " இல்": 3764,
      "ாராய": 3765,
      " இறந்த": 3766,
      " இதனை": 3767,
      " சதவீத": 3768,
      "ண்டே": 3769,
      "புதிய": 3770,
      " இருக்கிறார்கள்": 3771,
      " அமைச்சர்கள்": 3772,
      " கணக்கு": 3773,
      " ஒன்றில்": 3774,
      " வலுவ": 3775,
      "ம்மு": 3776,
      "ிறி": 3777,
      " அவசர": 3778,
      " சுற்ற": 3779,
      " சட்டத்தின்": 3780,
      " எதிர்பார்": 3781,
      "ப்படுத்து": 3782,
      " எனப்": 3783,
      " அவருடைய": 3784,
      " அந்தக்": 3785,
      " விளக்கம்": 3786,
      " பழைய": 3787,
      "ஒவ்வொரு": 3788,
      "களுடன்": 3789,
      " பான": 3790,
      " அழி": 3791,
      "டுக்கு": 3792,
      "ிகைய": 3793,
      " திருத்த": 3794,
      " அறிவித்த": 3795,
      " மொழி": 3796,
      " ஹை": 3797,
      "ஜித்": 3798,
      " வைக்கப்பட்ட": 3799,
      " குறைக்க": 3800,
      "198": 3801,
      " வாரம்": 3802,
      " உறவு": 3803,
      " சேர்த்த": 3804,
      " யாத": 3805,
      " வழிபாடு": 3806,
      "ையால்": 3807,
      "ிகு": 3808,
      "ிக்கிழமை": 3809,
      " இதுபோன்ற": 3810,
      " மால": 3811,
      " அமித்": 3812,
      "இந்தத்": 3813,
      " தொடர்ச்ச": 3814,
      " கட்டண": 3815,
      "நல": 3816,
      " படிக்க": 3817,
      " ஏப்ரல்": 3818,
      " வணிக": 3819,
      "டனான": 3820,
      " பேராசிரியர்": 3821,
      " எழுதி": 3822,
      " கன்ன": 3823,
      "களைத்": 3824,
      " கிராமத்தில்": 3825,
      " மான": 3826,
      " உழை": 3827,
      " N": 3828,
      "ங்கில்": 3829,
      "வைத்": 3830,
      " தொகுதியில்": 3831,
      " எழுந்தரு": 3832,
      "ச்சேரி": 3833,
      " உயர்நீதிமன்ற": 3834,
      ".மீ": 3835,
      " வீட்ட": 3836,
      "நாயக்க": 3837,
      " விய": 3838,
      "ப்பதற்காக": 3839,
      " ரயில": 3840,
      "ண்மையில்": 3841,
      "ரியான": 3842,
      " வழங்கப்பட்டது": 3843,
      "ன்த": 3844,
      " தக்க": 3845,
      " வெறும்": 3846,
      " அணிக்கு": 3847,
      "நேரம்": 3848,
      " கண்டுபிடிக்க": 3849,
      " வேட்பாளர்": 3850,
      " I": 3851,
      "மணிய": 3852,
      " பல்ல": 3853,
      " அனைத்தும்": 3854,
      " வெளியுறவு": 3855,
      "அத்துடன்": 3856,
      "ருப்த": 3857,
      " சென்றனர்": 3858,
      "45": 3859,
      "ஞ்": 3860,
      " ஆங்கில": 3861,
      " குர": 3862,
      "டுகிறார்": 3863,
      "பூர்வ": 3864,
      " பதவியை": 3865,
      "மன்": 3866,
      "ாட்": 3867,
      "க்குமார்": 3868,
      "ட்சிய": 3869,
      " எண்ணிக்க": 3870,
      " விரும்புக": 3871,
      "இதனிடையே": 3872,
      " .\n": 3873,
      "சாம": 3874,
      "மர": 3875,
      "ஸ்வ": 3876,
      " வீச": 3877,
      " பணிகளை": 3878,
      "75": 3879,
      "தைய": 3880,
      "ளால்": 3881,
      " தரும்": 3882,
      " விநிய": 3883,
      " கட்சியை": 3884,
      " பிடித்த": 3885,
      " இரண்டாம்": 3886,
      "டெ": 3887,
      " மரு": 3888,
      " சபா": 3889,
      " அப்போது": 3890,
      " எப்போது": 3891,
      "றுவது": 3892,
      "ச்செ": 3893,
      "விட்டனர்": 3894,
      " கூட்டண": 3895,
      "மூலம்": 3896,
      "ியிருக்கிறது": 3897,
      " இதே": 3898,
      " இடையிலான": 3899,
      " எண்ணெய்": 3900,
      " நின்று": 3901,
      "உட": 3902,
      "ரோக்கிய": 3903,
      "அதோடு": 3904,
      "நாம்": 3905,
      "ந்தைய": 3906,
      " விடுத்த": 3907,
      " வைரஸ்": 3908,
      " விக்கெட்டு": 3909,
      "ணும்": 3910,
      "பழ": 3911,
      " போதும்": 3912,
      "குரு": 3913,
      " முக்கியத்துவம்": 3914,
      "அரசு": 3915,
      " சல": 3916,
      "ச்சூ": 3917,
      " தொக": 3918,
      "ிற்கும்": 3919,
      "ப்படாத": 3920,
      " கூறுகின்றனர்": 3921,
      "ப்டம்பர்": 3922,
      " வருவது": 3923,
      " முடியாமல்": 3924,
      " வீரர்": 3925,
      " அபிஷேகம்": 3926,
      " ஓய்வு": 3927,
      " மகள்": 3928,
      " குறைவாக": 3929,
      " அணை": 3930,
      " பெறும்": 3931,
      " முகமது": 3932,
      " நிரூ": 3933,
      "இரண்டு": 3934,
      " தியாக": 3935,
      "வேல்": 3936,
      " ஒப்படை": 3937,
      " வல்ல": 3938,
      " மய": 3939,
      "வரில்": 3940,
      "ப்பூர்வ": 3941,
      "ாராம்": 3942,
      " அதிருப்த": 3943,
      " சிந்த": 3944,
      " தகவல்களை": 3945,
      "80": 3946,
      " ரவி": 3947,
      "கொரோனா": 3948,
      " இளைஞர்": 3949,
      " பெட்ரோ": 3950,
      "ாளர்களுக்கு": 3951,
      " கோரிக்க": 3952,
      " வீதி": 3953,
      " பெயரை": 3954,
      "தர": 3955,
      " நாட்களாக": 3956,
      "ம்ப்": 3957,
      "ர்களுக்கும்": 3958,
      "ாதனை": 3959,
      " சென்றார்": 3960,
      " ஏற்படுத்தியது": 3961,
      " போராட்டத்தில்": 3962,
      " கடித": 3963,
      " திட்டமிட்டு": 3964,
      " சது": 3965,
      "ஸ்ரீ": 3966,
      " பிரச": 3967,
      " முடிவுக்கு": 3968,
      " நடவடிக்கைகளை": 3969,
      "முன்னதாக": 3970,
      "as": 3971,
      "யின்": 3972,
      " தப்பி": 3973,
      "ிலி": 3974,
      " பயணி": 3975,
      " தவிர்க்க": 3976,
      "ழும்பு": 3977,
      "ணன்": 3978,
      " க்": 3979,
      "தியம்": 3980,
      " இறந்து": 3981,
      " ஆட்சியை": 3982,
      " ஒருங்கிணைப்பாளர்": 3983,
      " வர்த்தக": 3984,
      " முற்ற": 3985,
      " செல்போ": 3986,
      "சம்ப": 3987,
      " அலை": 3988,
      "ன்றைய": 3989,
      " செய்யப்படும்": 3990,
      " பழங்கு": 3991,
      " திராவிட": 3992,
      "ீன": 3993,
      "குழந்த": 3994,
      "டனும்": 3995,
      " கோரி": 3996,
      " திறந்து": 3997,
      " வார்த்தை": 3998,
      " பாலாஜி": 3999
    },
    "merges": [
      [
        "்",
        "க"
      ],
      [
        "்",
        "த"
      ],
      [
        "ம",
        "்"
      ],
      [
        "ல",
        "்"
      ],
      [
        "ன",
        "்"
      ],
      [
        " ",
        "ப"
      ],
      [
        "க",
        "்க"
      ],
      [
        "்",
        "ட"
      ],
      [
        " ",
        "க"
      ],
      [
        "ர",
        "்"
      ],
      [
        "த",
        "்த"
      ],
      [
        " ",
        "வ"
      ],
      [
        " ",
        "ம"
      ],
      [
        "ப",
        "்"
      ],
      [
        ".",
        "\n"
      ],
      [
        " ",
        "த"
      ],
      [
        "ி",
        "ய"
      ],
      [
        "ு",
        "ம்"
      ],
      [
        " ",
        "ச"
      ],
      [
        "ள",
        "்"
      ],
      [
        "ந",
        "்த"
      ],
      [
        " ",
        "அ"
      ],
      [
        "ப்",
        "ப"
      ],
      [
        "த",
        "ு"
      ],
      [
        "ி",
        "ல்"
      ],
      [
        "ர",
        "ு"
      ],
      [
        "ட",
        "்ட"
      ],
      [
        " ",
        "ந"
      ],
      [
        " ",
        "இ"
      ],
      [
        " ",
        "எ"
      ],
      [
        "ங",
        "்க"
      ],
      [
        "ை",
        "ய"
      ],
      [
        "ா",
        "க"
      ],
      [
        "ற",
        "்"
      ],
      [
        "த",
        "ி"
      ],
      [
        "ி",
        "ற"
      ],
      [
        "க்க",
        "ு"
      ],
      [
        "ி",
        "ன்"
      ],
      [
        "ட",
        "ு"
      ],
      [
        "்",
        "ச"
      ],
      [
        "ற",
        "ு"
      ],
      [
        "ள்",
        "ள"
      ],
      [
        " ",
        "உ"
      ],
      [
        "ண",
        "்ட"
      ],
      [
        "ா",
        "ர்"
      ],
      [
        "ி",
        "ர"
      ],
      [
        "ா",
        "ர"
      ],
      [
        "த்த",
        "ு"
      ],
      [
        "ி",
        "ல"
      ],
      [
        " ",
        "ஆ"
      ],
      [
        "ா",
        "ன"
      ],
      [
        "ட",
        "ி"
      ],
      [
        " ம",
        "ு"
      ],
      [
        " ச",
        "ெ"
      ],
      [
        "வ",
        "ி"
      ],
      [
        "ற்",
        "ற"
      ],
      [
        "ர",
        "்க"
      ],
      [
        "ல",
        "ை"
      ],
      [
        "ி",
        "க"
      ],
      [
        " எ",
        "ன்"
      ],
      [
        " வ",
        "ி"
      ],
      [
        "ர",
        "ி"
      ],
      [
        "ட்ட",
        "ு"
      ],
      [
        "ந்த",
        "ு"
      ],
      [
        "ி",
        "ரு"
      ],
      [
        " க",
        "ு"
      ],
      [
        "வ",
        "ு"
      ],
      [
        "ா",
        "ல்"
      ],
      [
        "ள",
        "ை"
      ],
      [
        " இ",
        "ரு"
      ],
      [
        " செ",
        "ய"
      ],
      [
        "ச",
        "்ச"
      ],
      [
        "ற",
        "ி"
      ],
      [
        "க",
        "்"
      ],
      [
        "ா",
        "வ"
      ],
      [
        "ஸ",
        "்"
      ],
      [
        " ",
        "ஒ"
      ],
      [
        "த",
        "்"
      ],
      [
        " ",
        "ர"
      ],
      [
        " ப",
        "ோ"
      ],
      [
        "ப்ப",
        "ு"
      ],
      [
        "ன",
        "ர்"
      ],
      [
        "த்த",
        "ில்"
      ],
      [
        "ைய",
        "ில்"
      ],
      [
        "ன",
        "ை"
      ],
      [
        "ள",
        "ு"
      ],
      [
        "ா",
        "ன்"
      ],
      [
        "ா",
        "ல"
      ],
      [
        " க",
        "ொ"
      ],
      [
        "ல்",
        "ல"
      ],
      [
        "ம",
        "ை"
      ],
      [
        " ம",
        "ா"
      ],
      [
        " ப",
        "ெ"
      ],
      [
        " ந",
        "ட"
      ],
      [
        "வ",
        "ர்"
      ],
      [
        "ா",
        "ய"
      ],
      [
        " த",
        "ொ"
      ],
      [
        "ற",
        "்க"
      ],
      [
        "க்க",
        "ும்"
      ],
      [
        "ு",
        "க"
      ],
      [
        " க",
        "ூ"
      ],
      [
        "ர்க",
        "ள்"
      ],
      [
        " வ",
        "ே"
      ],
      [
        "ம",
        "ி"
      ],
      [
        "வ",
        "ர"
      ],
      [
        "ன்",
        "ற"
      ],
      [
        "ப்ப",
        "ட்ட"
      ],
      [
        "ம்",
        "ப"
      ],
      [
        "ட",
        "்ச"
      ],
      [
        "ிற",
        "து"
      ],
      [
        "ா",
        "ள"
      ],
      [
        "ு",
        "வ"
      ],
      [
        " இ",
        "ந்த"
      ],
      [
        " த",
        "ே"
      ],
      [
        "ா",
        "த"
      ],
      [
        "ற்",
        "ப"
      ],
      [
        " உ",
        "ள்ள"
      ],
      [
        "க",
        "ு"
      ],
      [
        " ",
        "ஏ"
      ],
      [
        "ட",
        "ிய"
      ],
      [
        " வ",
        "ெ"
      ],
      [
        "ி",
        "ட"
      ],
      [
        "க",
        "ள்"
      ],
      [
        "ண",
        "்"
      ],
      [
        "ன்",
        "ன"
      ],
      [
        "ள",
        "ில்"
      ],
      [
        "ி",
        "க்க"
      ],
      [
        "ி",
        "ன"
      ],
      [
        " ப",
        "ே"
      ],
      [
        " த",
        "ெ"
      ],
      [
        "ண்ட",
        "ு"
      ],
      [
        " எ",
        "ன"
      ],
      [
        "ங்க",
        "ள்"
      ],
      [
        " ப",
        "ா"
      ],
      [
        "ா",
        "ம"
      ],
      [
        " அ",
        "தி"
      ],
      [
        " ப",
        "ிர"
      ],
      [
        "ச",
        "்"
      ],
      [
        "ம",
        "ாக"
      ],
      [
        "ற",
        "ை"
      ],
      [
        "ட",
        "்"
      ],
      [
        "ளு",
        "க்கு"
      ],
      [
        "வ",
        "ே"
      ],
      [
        "்க",
        "ள்"
      ],
      [
        " க",
        "ா"
      ],
      [
        "டு",
        "த்த"
      ],
      [
        " ந",
        "ா"
      ],
      [
        "த",
        "ிய"
      ],
      [
        "த்த",
        "ை"
      ],
      [
        "த",
        "ாக"
      ],
      [
        " ஒ",
        "ரு"
      ],
      [
        "ர",
        "ச"
      ],
      [
        "வ",
        "ில்"
      ],
      [
        "ம",
        "ான"
      ],
      [
        "்",
        "ய"
      ],
      [
        " என்",
        "று"
      ],
      [
        "ண",
        "ி"
      ],
      [
        " ம",
        "ற்ற"
      ],
      [
        " வ",
        "ழ"
      ],
      [
        " தொ",
        "ட"
      ],
      [
        "ர",
        "ிய"
      ],
      [
        " வ",
        "ரு"
      ],
      [
        " க",
        "ோ"
      ],
      [
        "ட",
        "ை"
      ],
      [
        " செய",
        "்த"
      ],
      [
        "ி",
        "ட்ட"
      ],
      [
        "ற்",
        "று"
      ],
      [
        "இ",
        "ந்த"
      ],
      [
        "த",
        "ற்க"
      ],
      [
        "ழ",
        "ு"
      ],
      [
        " ந",
        "ில"
      ],
      [
        "ச",
        "ி"
      ],
      [
        " மற்ற",
        "ும்"
      ],
      [
        "வ",
        "ை"
      ],
      [
        "ள்ள",
        "து"
      ],
      [
        "ம",
        "ு"
      ],
      [
        "ர",
        "ா"
      ],
      [
        "த",
        "ை"
      ],
      [
        " என்",
        "ற"
      ],
      [
        "்த",
        "்த"
      ],
      [
        " வ",
        "ர"
      ],
      [
        " ",
        "ஜ"
      ],
      [
        "வ",
        "ும்"
      ],
      [
        "ன்",
        "று"
      ],
      [
        "ட",
        "ும்"
      ],
      [
        "ட",
        "ன்"
      ],
      [
        " அ",
        "ரச"
      ],
      [
        "ண்ட",
        "ும்"
      ],
      [
        " ப",
        "ொ"
      ],
      [
        "ப",
        "ி"
      ],
      [
        "ோ",
        "து"
      ],
      [
        ".",
        ".\n"
      ],
      [
        "ா",
        "ம்"
      ],
      [
        "ப",
        "ு"
      ],
      [
        " ம",
        "ே"
      ],
      [
        "ம",
        "ா"
      ],
      [
        "ன",
        "ால்"
      ],
      [
        " ப",
        "ு"
      ],
      [
        "ைய",
        "ும்"
      ],
      [
        "டு",
        "க"
      ],
      [
        " அ",
        "வ"
      ],
      [
        "த",
        "ல்"
      ],
      [
        "ப்ப",
        "ட்டு"
      ],
      [
        " அ",
        "மை"
      ],
      [
        " வ",
        "ீ"
      ],
      [
        "ள",
        "ி"
      ],
      [
        " அதி",
        "க"
      ],
      [
        "ின்",
        "ற"
      ],
      [
        "ந",
        "ா"
      ],
      [
        "ழ",
        "்"
      ],
      [
        "ள",
        "ின்"
      ],
      [
        "த",
        "ே"
      ],
      [
        " ம",
        "ீ"
      ],
      [
        " கு",
        "றி"
      ],
      [
        " வ",
        "ா"
      ],
      [
        " செய",
        "்ய"
      ],
      [
        "ன",
        "ி"
      ],
      [
        "ிற",
        "ார்"
      ],
      [
        "ம",
        "ே"
      ],
      [
        " க",
        "ே"
      ],
      [
        "ிற",
        "்க"
      ],
      [
        " ந",
        "ி"
      ],
      [
        "ிய",
        "ில்"
      ],
      [
        "ிரு",
        "க்க"
      ],
      [
        " ந",
        "ீ"
      ],
      [
        " தெ",
        "ரி"
      ],
      [
        " த",
        "லை"
      ],
      [
        " ச",
        "ு"
      ],
      [
        " ச",
        "ே"
      ],
      [
        "ன",
        "ு"
      ],
      [
        "ண்",
        "ண"
      ],
      [
        "ந",
        "ில"
      ],
      [
        "ர",
        "ை"
      ],
      [
        " தொட",
        "ர்"
      ],
      [
        "க",
        "ளை"
      ],
      [
        " இரு",
        "ந்த"
      ],
      [
        " ப",
        "ல"
      ],
      [
        " வரு",
        "க"
      ],
      [
        " என்",
        "ப"
      ],
      [
        "ைய",
        "ை"
      ],
      [
        "டு",
        "த்து"
      ],
      [
        "வ",
        "ா"
      ],
      [
        " ம",
        "ூ"
      ],
      [
        " வ",
        "ை"
      ],
      [
        " தெரி",
        "வி"
      ],
      [
        "ச",
        "ிய"
      ],
      [
        " வே",
        "ண்டும்"
      ],
      [
        " எ",
        "தி"
      ],
      [
        "ிரு",
        "ந்த"
      ],
      [
        "ப",
        "ெ"
      ],
      [
        " ஏ",
        "ற்ப"
      ],
      [
        " இ",
        "ட"
      ],
      [
        "த",
        "ில்"
      ],
      [
        "ிக",
        "ள்"
      ],
      [
        "ாய",
        "்"
      ],
      [
        "2",
        "0"
      ],
      [
        "ப",
        "ா"
      ],
      [
        "ார",
        "ண"
      ],
      [
        " ப",
        "ய"
      ],
      [
        " இரு",
        "க்க"
      ],
      [
        " ",
        "ட"
      ],
      [
        "ார",
        "்கள்"
      ],
      [
        " ந",
        "ே"
      ],
      [
        "ிய",
        "ு"
      ],
      [
        "த்த",
        "ின்"
      ],
      [
        "க",
        "ா"
      ],
      [
        " ந",
        "ிற"
      ],
      [
        " க",
        "ட"
      ],
      [
        "ய",
        "்"
      ],
      [
        " ப",
        "ார"
      ],
      [
        " ",
        "ய"
      ],
      [
        " ச",
        "ி"
      ],
      [
        " த",
        "ு"
      ],
      [
        " ச",
        "ொ"
      ],
      [
        "ம",
        "ுக"
      ],
      [
        " ச",
        "ிற"
      ],
      [
        " த",
        "ிரு"
      ],
      [
        "த்த",
        "ிய"
      ],
      [
        " அ",
        "வர்"
      ],
      [
        " அ",
        "றி"
      ],
      [
        "?",
        "\n"
      ],
      [
        " மு",
        "தல்"
      ],
      [
        "டி",
        "க்க"
      ],
      [
        "ங்க",
        "ு"
      ],
      [
        "ல",
        "ி"
      ],
      [
        "ஸ",
        "்ட"
      ],
      [
        " த",
        "மி"
      ],
      [
        "ிற்க",
        "ு"
      ],
      [
        "ர",
        "ும்"
      ],
      [
        "ட்ச",
        "ி"
      ],
      [
        "ள",
        "ிய"
      ],
      [
        " ",
        "ஓ"
      ],
      [
        "ங்க",
        "ளில்"
      ],
      [
        " இந்த",
        "ிய"
      ],
      [
        " வ",
        "ந்த"
      ],
      [
        "ட்ட",
        "ி"
      ],
      [
        "ள்ள",
        "ார்"
      ],
      [
        "த",
        "ன்"
      ],
      [
        " ",
        "\""
      ],
      [
        "ங்க",
        "ள"
      ],
      [
        "ப்ப",
        "ட"
      ],
      [
        " த",
        "ீ"
      ],
      [
        "ர்",
        "வ"
      ],
      [
        "ல",
        "ா"
      ],
      [
        "தற்க",
        "ு"
      ],
      [
        "வ",
        "ர்க"
      ],
      [
        " ப",
        "ி"
      ],
      [
        "ஞ",
        "்ச"
      ],
      [
        "ிய",
        "ை"
      ],
      [
        " ம",
        "க்க"
      ],
      [
        " ர",
        "ா"
      ],
      [
        "ஆ",
        "னால்"
      ],
      [
        "ர",
        "ே"
      ],
      [
        "ப்ப",
        "ா"
      ],
      [
        "ம",
        "ைய"
      ],
      [
        "வ",
        "து"
      ],
      [
        "ர",
        "்த"
      ],
      [
        "வ",
        "ர்கள்"
      ],
      [
        " ஆ",
        "க"
      ],
      [
        " கொ",
        "ண்ட"
      ],
      [
        "வில்",
        "லை"
      ],
      [
        "ன",
        "ா"
      ],
      [
        "வ",
        "்"
      ],
      [
        " வெ",
        "ளிய"
      ],
      [
        "ல",
        "ும்"
      ],
      [
        "ப",
        "ோ"
      ],
      [
        "ா",
        "து"
      ],
      [
        "ங்க",
        "ளை"
      ],
      [
        "ரு",
        "க்கு"
      ],
      [
        "ண",
        "ை"
      ],
      [
        " அ",
        "ந்த"
      ],
      [
        "க்க",
        "ிய"
      ],
      [
        "ல",
        "ில்"
      ],
      [
        "ல",
        "ு"
      ],
      [
        "த்த",
        "ி"
      ],
      [
        " நட",
        "ை"
      ],
      [
        "ழ",
        "க"
      ],
      [
        "ோ",
        "ம்"
      ],
      [
        " ",
        "ல"
      ],
      [
        "ற்ற",
        "ி"
      ],
      [
        "ிக",
        "்"
      ],
      [
        "ில",
        "ும்"
      ],
      [
        "ழ",
        "ை"
      ],
      [
        " ப",
        "ண"
      ],
      [
        "்க",
        "்க"
      ],
      [
        "ரி",
        "க்க"
      ],
      [
        "ரு",
        "த்து"
      ],
      [
        "ச",
        "ெ"
      ],
      [
        " உ",
        "ய"
      ],
      [
        "இ",
        "து"
      ],
      [
        "ம",
        "ன்ற"
      ],
      [
        "டு",
        "க்க"
      ],
      [
        " வழ",
        "ங்க"
      ],
      [
        " ",
        "ஹ"
      ],
      [
        " இரு",
        "ந்து"
      ],
      [
        " த",
        "ா"
      ],
      [
        " ச",
        "ில"
      ],
      [
        " அமை",
        "ச்ச"
      ],
      [
        "ே",
        "ன்"
      ],
      [
        "ட",
        "ைய"
      ],
      [
        " நில",
        "ையில்"
      ],
      [
        " ச",
        "ம"
      ],
      [
        "ப்ப",
        "ி"
      ],
      [
        "ூ",
        "ர்"
      ],
      [
        " ",
        "("
      ],
      [
        "ல",
        "க"
      ],
      [
        "ப்பட்ட",
        "து"
      ],
      [
        "ர",
        "ாக"
      ],
      [
        " ",
        "ஊ"
      ],
      [
        " இ",
        "ர"
      ],
      [
        " மு",
        "டி"
      ],
      [
        " ச",
        "ந்த"
      ],
      [
        "ஷ",
        "்"
      ],
      [
        "0",
        "0"
      ],
      [
        " க",
        "ால"
      ],
      [
        " த",
        "ன"
      ],
      [
        "ர்",
        "ந்த"
      ],
      [
        "த",
        "ும்"
      ],
      [
        " மு",
        "டிய"
      ],
      [
        " மு",
        "ன்ன"
      ],
      [
        "ல",
        "ம்"
      ],
      [
        "வி",
        "ட்ட"
      ],
      [
        " அரச",
        "ு"
      ],
      [
        "ும்",
        "ப"
      ],
      [
        " கூ",
        "ற"
      ],
      [
        " ப",
        "ிற"
      ],
      [
        "!",
        "\n"
      ],
      [
        "ிட",
        "ம்"
      ],
      [
        "இ",
        "த"
      ],
      [
        "ர",
        "ோ"
      ],
      [
        "ள",
        "ும்"
      ],
      [
        "ிய",
        "ல்"
      ],
      [
        "ப்ப",
        "டும்"
      ],
      [
        "க",
        "வ"
      ],
      [
        " ச",
        "ட்ட"
      ],
      [
        "ின்ற",
        "னர்"
      ],
      [
        "ம",
        "ர்"
      ],
      [
        " நடை",
        "பெ"
      ],
      [
        "ிய",
        "ின்"
      ],
      [
        "ஸ",
        "்த"
      ],
      [
        " செய்த",
        "ு"
      ],
      [
        "ல",
        "ாம்"
      ],
      [
        "ாம",
        "ல்"
      ],
      [
        "த",
        "ால்"
      ],
      [
        "த",
        "ா"
      ],
      [
        "ப்ப",
        "டுக"
      ],
      [
        " த",
        "ி"
      ],
      [
        "ர",
        "்த்த"
      ],
      [
        " தே",
        "ர்த"
      ],
      [
        "ாவ",
        "ில்"
      ],
      [
        "ட்ட",
        "ில்"
      ],
      [
        "ாவ",
        "ட்ட"
      ],
      [
        " ப",
        "கு"
      ],
      [
        "ச",
        "ா"
      ],
      [
        " அ",
        "னு"
      ],
      [
        "ாள",
        "ர்"
      ],
      [
        "ிர",
        "ி"
      ],
      [
        "ன",
        "ம்"
      ],
      [
        "த்த",
        "ார்"
      ],
      [
        " ம",
        "ோ"
      ],
      [
        "ன்",
        "ப"
      ],
      [
        "ர",
        "ம்"
      ],
      [
        " ச",
        "ா"
      ],
      [
        "ங்க",
        "ி"
      ],
      [
        "ப்ப",
        "டி"
      ],
      [
        " ப",
        "தி"
      ],
      [
        " ம",
        "ாவட்ட"
      ],
      [
        "ர",
        "ில்"
      ],
      [
        " க",
        "ிட"
      ],
      [
        "வு",
        "க்கு"
      ],
      [
        "ட",
        "்க"
      ],
      [
        " போ",
        "ல"
      ],
      [
        " இ",
        "து"
      ],
      [
        "ன்",
        "னை"
      ],
      [
        "த்த",
        "ிற்கு"
      ],
      [
        "ப்ப",
        "ோது"
      ],
      [
        "ழ",
        "ி"
      ],
      [
        " உள்ள",
        "து"
      ],
      [
        "க",
        "ி"
      ],
      [
        " மா",
        "நில"
      ],
      [
        " த",
        "ிட்ட"
      ],
      [
        "ிய",
        "ா"
      ],
      [
        " ஆ",
        "ண்ட"
      ],
      [
        "ந்த",
        "து"
      ],
      [
        " க",
        "ை"
      ],
      [
        "ல்",
        "லை"
      ],
      [
        "வர",
        "ை"
      ],
      [
        "ர",
        "வ"
      ],
      [
        "ால",
        "ும்"
      ],
      [
        "த",
        "ம்"
      ],
      [
        " வி",
        "ச"
      ],
      [
        " கூ",
        "ட்ட"
      ],
      [
        "க",
        "ளில்"
      ],
      [
        "த",
        "ான்"
      ],
      [
        " தொடர்",
        "ப"
      ],
      [
        "ல",
        "ங்க"
      ],
      [
        " ம",
        "ிக"
      ],
      [
        " ச",
        "ீ"
      ],
      [
        " க",
        "ட்ட"
      ],
      [
        "ஜ",
        "க"
      ],
      [
        "ிய",
        "ாக"
      ],
      [
        "ல",
        "்க"
      ],
      [
        " அ",
        "ம"
      ],
      [
        "வ",
        "ீ"
      ],
      [
        "ொ",
        "ரு"
      ],
      [
        " ப",
        "ூ"
      ],
      [
        " குறி",
        "த்து"
      ],
      [
        " ஆ",
        "ண்டு"
      ],
      [
        " அ",
        "ள"
      ],
      [
        "ிரு",
        "ந்து"
      ],
      [
        " க",
        "ாரண"
      ],
      [
        " ஆக",
        "ிய"
      ],
      [
        "ட",
        "ம்"
      ],
      [
        "ட்ட",
        "ை"
      ],
      [
        "ரு",
        "க"
      ],
      [
        "்ச",
        "்ச"
      ],
      [
        ".",
        "."
      ],
      [
        " பொ",
        "ரு"
      ],
      [
        " ர",
        "ூ"
      ],
      [
        " இரு",
        "க்கும்"
      ],
      [
        "க்க",
        "ி"
      ],
      [
        " எ",
        "ழு"
      ],
      [
        "ந்த",
        "ிர"
      ],
      [
        " என்",
        "ன"
      ],
      [
        "ழ",
        "ந்த"
      ],
      [
        "ின்ற",
        "ன"
      ],
      [
        "ச",
        "ு"
      ],
      [
        "ாவ",
        "ின்"
      ],
      [
        "க்க",
        "ம்"
      ],
      [
        " த",
        "ான்"
      ],
      [
        "ம",
        "ும்"
      ],
      [
        " அதிக",
        "ார"
      ],
      [
        "ற",
        "ைய"
      ],
      [
        "க்க",
        "ான"
      ],
      [
        "ர்",
        "ச்ச"
      ],
      [
        " ந",
        "ிக"
      ],
      [
        ".",
        "க"
      ],
      [
        " வி",
        "வ"
      ],
      [
        "ப்ப",
        "ை"
      ],
      [
        " கொ",
        "ண்டு"
      ],
      [
        " மு",
        "ன்"
      ],
      [
        " நிற",
        "ுவ"
      ],
      [
        " ",
        "ஈ"
      ],
      [
        " அ",
        "னை"
      ],
      [
        "ிற",
        "ார்கள்"
      ],
      [
        "ள்ள",
        "னர்"
      ],
      [
        "க",
        "ர்"
      ],
      [
        " த",
        "ிர"
      ],
      [
        "ங",
        "்"
      ],
      [
        "த்த",
        "ிர"
      ],
      [
        "ப்பட்டு",
        "ள்ளது"
      ],
      [
        "ங்க",
        "ளுக்கு"
      ],
      [
        " உ",
        "று"
      ],
      [
        "ொ",
        "ண்ட"
      ],
      [
        " என்ப",
        "து"
      ],
      [
        "று",
        "க"
      ],
      [
        "தி",
        "க்க"
      ],
      [
        " க",
        "ட்ச"
      ],
      [
        " க",
        "ல"
      ],
      [
        " ச",
        "ூ"
      ],
      [
        "எ",
        "ஸ்"
      ],
      [
        "க",
        "ம்"
      ],
      [
        " ம",
        "ருத்து"
      ],
      [
        " பொ",
        "து"
      ],
      [
        " தே",
        "தி"
      ],
      [
        " கட",
        "ந்த"
      ],
      [
        "ைய",
        "ே"
      ],
      [
        " க",
        "ண"
      ],
      [
        "வ",
        "ாக"
      ],
      [
        " ப",
        "ின்"
      ],
      [
        "ிய",
        "து"
      ],
      [
        " ",
        "-"
      ],
      [
        "ள",
        "ாக"
      ],
      [
        " ந",
        "ெ"
      ],
      [
        "க",
        "்த"
      ],
      [
        " கிட",
        "ை"
      ],
      [
        "ாவ",
        "து"
      ],
      [
        " உ",
        "ட"
      ],
      [
        "ப்ப",
        "ோ"
      ],
      [
        " வருக",
        "ிறது"
      ],
      [
        "ட்",
        "ப"
      ],
      [
        "ப்படுக",
        "ிறது"
      ],
      [
        " ச",
        "ம்ப"
      ],
      [
        " இரு",
        "ப்ப"
      ],
      [
        " நீ",
        "தி"
      ],
      [
        " க",
        "ிர"
      ],
      [
        " த",
        "ர"
      ],
      [
        "வ",
        "ிர"
      ],
      [
        " மே",
        "ற்க"
      ],
      [
        "ண",
        "ம்"
      ],
      [
        " இ",
        "ய"
      ],
      [
        " சே",
        "ர்ந்த"
      ],
      [
        " ஆ",
        "த"
      ],
      [
        "த",
        "வி"
      ],
      [
        "்த",
        "ான்"
      ],
      [
        "வ",
        "ம்"
      ],
      [
        " பா",
        "ஜக"
      ],
      [
        " வர",
        "ும்"
      ],
      [
        " தன",
        "து"
      ],
      [
        "ின",
        "ார்"
      ],
      [
        " அ",
        "டி"
      ],
      [
        " ம",
        "ணி"
      ],
      [
        ".",
        "..\n"
      ],
      [
        " என்ற",
        "ும்"
      ],
      [
        "வ",
        "ெ"
      ],
      [
        "ப்ப",
        "டுத்த"
      ],
      [
        "ந",
        "ீ"
      ],
      [
        "க",
        "ார"
      ],
      [
        "ைய",
        "ா"
      ],
      [
        "மே",
        "லும்"
      ],
      [
        " ",
        "ஐ"
      ],
      [
        " பே",
        "ச"
      ],
      [
        " இ",
        "ல்லை"
      ],
      [
        " க",
        "ி"
      ],
      [
        " மா",
        "ண"
      ],
      [
        " போ",
        "ட்ட"
      ],
      [
        "ங்க",
        "ிர"
      ],
      [
        "ஆ",
        "ம்"
      ],
      [
        " கூ",
        "றி"
      ],
      [
        " மக்க",
        "ள்"
      ],
      [
        "ம்",
        "ம"
      ],
      [
        "த",
        "ல"
      ],
      [
        "திய",
        "ில்"
      ],
      [
        " கு",
        "றை"
      ],
      [
        " க",
        "ரு"
      ],
      [
        "ெ",
        "ல்ல"
      ],
      [
        "ப",
        "தி"
      ],
      [
        " மு",
        "க்கிய"
      ],
      [
        "வ",
        "டிக்க"
      ],
      [
        " பிர",
        "த"
      ],
      [
        "து",
        "கா"
      ],
      [
        " நட",
        "வடிக்க"
      ],
      [
        "ொ",
        "ள்ள"
      ],
      [
        "ெ",
        "ய"
      ],
      [
        "ே",
        "ய"
      ],
      [
        "தே",
        "ச"
      ],
      [
        "20",
        "2"
      ],
      [
        "ழ்",
        "நா"
      ],
      [
        " வி",
        "ள"
      ],
      [
        "ப",
        "ோது"
      ],
      [
        " ப",
        "ழ"
      ],
      [
        "க",
        "ை"
      ],
      [
        "த்து",
        "க்கு"
      ],
      [
        " வ",
        "ிர"
      ],
      [
        " தெரிவி",
        "த்து"
      ],
      [
        "வர",
        "ும்"
      ],
      [
        "ம",
        "ார்"
      ],
      [
        " வர",
        "ை"
      ],
      [
        "ோ",
        "த"
      ],
      [
        " ம",
        "ட்டு"
      ],
      [
        " உ",
        "ண"
      ],
      [
        "ழ",
        "்ச்ச"
      ],
      [
        " எதி",
        "ர்"
      ],
      [
        "டு",
        "வ"
      ],
      [
        " அறி",
        "வி"
      ],
      [
        "தாக",
        "வும்"
      ],
      [
        " ப",
        "ர"
      ],
      [
        " ந",
        "ோ"
      ],
      [
        "ன",
        "்க"
      ],
      [
        " மீ",
        "து"
      ],
      [
        "ர்க",
        "்க"
      ],
      [
        " பா",
        "துகா"
      ],
      [
        " அமைச்ச",
        "ர்"
      ],
      [
        "ாத",
        "ார"
      ],
      [
        "ற்ப",
        "ோது"
      ],
      [
        " ப",
        "ுக"
      ],
      [
        " குறி",
        "ப்ப"
      ],
      [
        " த",
        "கவ"
      ],
      [
        "அ",
        "ந்த"
      ],
      [
        " ரா",
        "ஜ"
      ],
      [
        "ார",
        "ி"
      ],
      [
        " ",
        "'"
      ],
      [
        " மூ",
        "லம்"
      ],
      [
        " பெ",
        "ற்ற"
      ],
      [
        " நே",
        "ர"
      ],
      [
        " வ",
        "ந்து"
      ],
      [
        "ர்",
        "ந்து"
      ],
      [
        "ரி",
        "ச"
      ],
      [
        " செ",
        "ல்ல"
      ],
      [
        " போல",
        "ீ"
      ],
      [
        "ய",
        "ில்"
      ],
      [
        " ப",
        "ால"
      ],
      [
        " க",
        "ாவ"
      ],
      [
        " ப",
        "ட"
      ],
      [
        " உ",
        "ரு"
      ],
      [
        "\"",
        ","
      ],
      [
        " த",
        "ோ"
      ],
      [
        "க",
        "ள"
      ],
      [
        "ல்",
        "ப"
      ],
      [
        "ந",
        "்"
      ],
      [
        " பெ",
        "ய"
      ],
      [
        " ஆண்ட",
        "ுக"
      ],
      [
        "ர்க",
        "ளை"
      ],
      [
        " தொடர்",
        "ந்து"
      ],
      [
        " கு",
        "ற்ற"
      ],
      [
        "ழ",
        "ுவ"
      ],
      [
        "ிருக்க",
        "ிறது"
      ],
      [
        " சொ",
        "ல்ல"
      ],
      [
        " அ",
        "வர"
      ],
      [
        " தெ",
        "ரிய"
      ],
      [
        "வ்",
        "வ"
      ],
      [
        "ம",
        "ீ"
      ],
      [
        " போ",
        "ன்ற"
      ],
      [
        " எ",
        "ந்த"
      ],
      [
        " கா",
        "ங்கிர"
      ],
      [
        "ர்க",
        "ளுக்கு"
      ],
      [
        " தலை",
        "வர்"
      ],
      [
        " பிற",
        "கு"
      ],
      [
        "அ",
        "த"
      ],
      [
        " செ",
        "ன்ற"
      ],
      [
        " ஆ",
        "ர"
      ],
      [
        " ",
        "டி"
      ],
      [
        "ற",
        "ும்"
      ],
      [
        "ர்",
        "வு"
      ],
      [
        "ாக",
        "ி"
      ],
      [
        "க்க",
        "ள்"
      ],
      [
        "ூ",
        "க"
      ],
      [
        " நடவடிக்க",
        "ை"
      ],
      [
        "ப",
        "ர்"
      ],
      [
        " என",
        "்க"
      ],
      [
        " உள்ள",
        "ிட்ட"
      ],
      [
        "மு",
        "றை"
      ],
      [
        "ன",
        "ார்"
      ],
      [
        " அ",
        "ல்ல"
      ],
      [
        "ைய",
        "ின்"
      ],
      [
        "ோ",
        "ர்"
      ],
      [
        "எ",
        "ன"
      ],
      [
        "ஜ",
        "ி"
      ],
      [
        " கூ",
        "றுக"
      ],
      [
        "ர்க",
        "ள"
      ],
      [
        "1",
        "0"
      ],
      [
        "ங்க",
        "ே"
      ],
      [
        " இ",
        "ல்ல"
      ],
      [
        " இ",
        "ன்று"
      ],
      [
        " வே",
        "ண்ட"
      ],
      [
        "க்க",
        "ாக"
      ],
      [
        " நிறுவ",
        "ன"
      ],
      [
        " வ",
        "ய"
      ],
      [
        " தொ",
        "ழ"
      ],
      [
        "ரா",
        "ஜ"
      ],
      [
        " வ",
        "ில"
      ],
      [
        " கூ",
        "ட"
      ],
      [
        " பார",
        "்த்த"
      ],
      [
        " தமி",
        "ழக"
      ],
      [
        " ",
        "ஷ"
      ],
      [
        "ில",
        "ிருந்து"
      ],
      [
        "க்க",
        "ூ"
      ],
      [
        "ர",
        "ீ"
      ],
      [
        "ப்ப",
        "ில்"
      ],
      [
        "ட",
        "ா"
      ],
      [
        " அ",
        "ண"
      ],
      [
        "1",
        "9"
      ],
      [
        "ர",
        "ின்"
      ],
      [
        "வே",
        "று"
      ],
      [
        "க",
        "ட"
      ],
      [
        "தற்க",
        "ாக"
      ],
      [
        " நட",
        "த்த"
      ],
      [
        " வே",
        "லை"
      ],
      [
        "்த",
        "ு"
      ],
      [
        "த்த",
        "ர"
      ],
      [
        "த",
        "ான"
      ],
      [
        " போ",
        "து"
      ],
      [
        " அ",
        "ணி"
      ],
      [
        "ை",
        "க்கு"
      ],
      [
        " வ",
        "க"
      ],
      [
        "ாள",
        "ர்கள்"
      ],
      [
        " மருத்து",
        "வ"
      ],
      [
        "டும்",
        "ப"
      ],
      [
        " வ",
        "ாய்"
      ],
      [
        " த",
        "ூ"
      ],
      [
        "ெ",
        "ரிக்க"
      ],
      [
        "ல்",
        "வ"
      ],
      [
        "ிக",
        "ளை"
      ],
      [
        " மு",
        "ய"
      ],
      [
        " ",
        "ஸ்ட"
      ],
      [
        " உ",
        "லக"
      ],
      [
        "ஸ",
        "்க"
      ],
      [
        "ப",
        "ார"
      ],
      [
        " விச",
        "ாரண"
      ],
      [
        "ண",
        "ைய"
      ],
      [
        " ",
        "`"
      ],
      [
        "க்க",
        "ப்பட்ட"
      ],
      [
        " ஏற்ப",
        "டுத்த"
      ],
      [
        " பே",
        "சிய"
      ],
      [
        "ோ",
        "டு"
      ],
      [
        " கு",
        "ழந்த"
      ],
      [
        " க",
        "வ"
      ],
      [
        " ஒ",
        "ன்ற"
      ],
      [
        "வி",
        "ட"
      ],
      [
        "ப்ப",
        "து"
      ],
      [
        " எ",
        "டுத்து"
      ],
      [
        " க",
        "ண்ட"
      ],
      [
        "ா",
        "ள்"
      ],
      [
        "வ",
        "ில"
      ],
      [
        "ர்க",
        "ளின்"
      ],
      [
        "ிருக்க",
        "ிறார்"
      ],
      [
        "டு",
        "ப"
      ],
      [
        " வ",
        "ார"
      ],
      [
        " போ",
        "ரா"
      ],
      [
        " காங்கிர",
        "ஸ்"
      ],
      [
        " வை",
        "த்து"
      ],
      [
        " வ",
        "ள"
      ],
      [
        " சந்த",
        "ி"
      ],
      [
        " ",
        "ஸ்"
      ],
      [
        " ந",
        "ான்"
      ],
      [
        " க",
        "ட்சி"
      ],
      [
        "ாவ",
        "ை"
      ],
      [
        " மா",
        "ற்ற"
      ],
      [
        " பய",
        "ன்ப"
      ],
      [
        "தற்க",
        "ான"
      ],
      [
        " ம",
        "க"
      ],
      [
        "ை",
        "கள்"
      ],
      [
        " ம",
        "த்திய"
      ],
      [
        "ப",
        "டி"
      ],
      [
        " தொட",
        "ங்க"
      ],
      [
        " வெ",
        "ளி"
      ],
      [
        " இருக்க",
        "ிறது"
      ],
      [
        " மா",
        "த"
      ],
      [
        " அ",
        "ழை"
      ],
      [
        "ற",
        "ிய"
      ],
      [
        "ெ",
        "ன"
      ],
      [
        " அ",
        "ல"
      ],
      [
        " செய",
        "்"
      ],
      [
        "ய",
        "ில"
      ],
      [
        "த",
        "மி"
      ],
      [
        "த்த",
        "து"
      ],
      [
        "ேய",
        "ே"
      ],
      [
        " சம",
        "ூக"
      ],
      [
        " அ",
        "து"
      ],
      [
        "ல்",
        "வேறு"
      ],
      [
        " செ",
        "ன்று"
      ],
      [
        "ீ",
        "ர்"
      ],
      [
        "ப்ப",
        "ின"
      ],
      [
        " த",
        "ய"
      ],
      [
        " தேர்த",
        "ல்"
      ],
      [
        " கு",
        "டும்ப"
      ],
      [
        "இத",
        "னால்"
      ],
      [
        " அவ",
        "ர்கள்"
      ],
      [
        " நில",
        "ை"
      ],
      [
        " பெ",
        "ரும்"
      ],
      [
        " அரச",
        "ியல்"
      ],
      [
        " நி",
        "னை"
      ],
      [
        " மு",
        "தல"
      ],
      [
        "ச்ச",
        "ி"
      ],
      [
        " ச",
        "ார்"
      ],
      [
        "ியு",
        "ள்ளது"
      ],
      [
        "ள",
        "்க"
      ],
      [
        "ா",
        "ங்க"
      ],
      [
        "ப்பட்டு",
        "ள்ள"
      ],
      [
        " ஆ",
        "ய"
      ],
      [
        "ப",
        "ர"
      ],
      [
        " நில",
        "ைய"
      ],
      [
        " வழ",
        "க்க"
      ],
      [
        "ு",
        "க்கு"
      ],
      [
        "ட்ட",
        "ும்"
      ],
      [
        "20",
        "1"
      ],
      [
        " இர",
        "ண்டு"
      ],
      [
        " கல",
        "ந்து"
      ],
      [
        "வ",
        "ின்"
      ],
      [
        " பெ",
        "ரிய"
      ],
      [
        " பே",
        "ர்"
      ],
      [
        "வி",
        "ட்டு"
      ],
      [
        " ந",
        "ம்ப"
      ],
      [
        " ஆ",
        "ய்"
      ],
      [
        " எ",
        "ண்ண"
      ],
      [
        " ந",
        "க"
      ],
      [
        "ப்ப",
        "ாக"
      ],
      [
        " பார",
        "்க்க"
      ],
      [
        " பிரத",
        "மர்"
      ],
      [
        " ப",
        "ல்வேறு"
      ],
      [
        " வழ",
        "க்கு"
      ],
      [
        " எ",
        "ம்"
      ],
      [
        "ம",
        "து"
      ],
      [
        " இ",
        "ணை"
      ],
      [
        " ம",
        "ொ"
      ],
      [
        " பகு",
        "தி"
      ],
      [
        " அ",
        "ளி"
      ],
      [
        "ப",
        "ிர"
      ],
      [
        " கொ",
        "ள்ள"
      ],
      [
        " நீதி",
        "மன்ற"
      ],
      [
        " த",
        "ின"
      ],
      [
        " தமி",
        "ழ்நா"
      ],
      [
        "ஷ",
        "்ய"
      ],
      [
        "ந",
        "ி"
      ],
      [
        " வி",
        "ழ"
      ],
      [
        " பு",
        "திய"
      ],
      [
        "ந",
        "ாய"
      ],
      [
        " கா",
        "ண"
      ],
      [
        "ந்த",
        "ி"
      ],
      [
        "க",
        "ளுக்கு"
      ],
      [
        " வா",
        "ழ"
      ],
      [
        "ப",
        "ே"
      ],
      [
        " வழ",
        "ி"
      ],
      [
        " ல",
        "ட்ச"
      ],
      [
        " இ",
        "லங்க"
      ],
      [
        " நடைபெ",
        "ற்ற"
      ],
      [
        " ப",
        "க்த"
      ],
      [
        " நட",
        "ந்த"
      ],
      [
        "ெ",
        "ட்"
      ],
      [
        " க",
        "ட்டு"
      ],
      [
        " த",
        "ற்போது"
      ],
      [
        " நி",
        "ர்வ"
      ],
      [
        "ள்ள",
        "ி"
      ],
      [
        " க",
        "ீ"
      ],
      [
        "க",
        "ோ"
      ],
      [
        "ட்ட",
        "ம்"
      ],
      [
        "ர",
        "ான"
      ],
      [
        " பிர",
        "ி"
      ],
      [
        "கட",
        "ந்த"
      ],
      [
        "த",
        "வ"
      ],
      [
        " திரு",
        "ம"
      ],
      [
        " தொடர்ப",
        "ாக"
      ],
      [
        "டு",
        "கள்"
      ],
      [
        " அதி",
        "முக"
      ],
      [
        " மீ",
        "ண்டும்"
      ],
      [
        " எ",
        "டுக்க"
      ],
      [
        "ளு",
        "டன்"
      ],
      [
        " இந்திய",
        "ா"
      ],
      [
        "ச",
        "ிக"
      ],
      [
        " இ",
        "ற"
      ],
      [
        " மு",
        "றை"
      ],
      [
        " அதிக",
        "ரி"
      ],
      [
        " பெ",
        "ரு"
      ],
      [
        " க",
        "ெ"
      ],
      [
        " மட்டு",
        "மே"
      ],
      [
        "ைய",
        "ாக"
      ],
      [
        " தி",
        "முக"
      ],
      [
        " ஈ",
        "டுப"
      ],
      [
        " செய",
        "ல"
      ],
      [
        "ஜ",
        "்"
      ],
      [
        " அம",
        "ெரிக்க"
      ],
      [
        "ட்ட",
        "ிய"
      ],
      [
        "த்து",
        "றை"
      ],
      [
        "ல்",
        "வி"
      ],
      [
        " ந",
        "டி"
      ],
      [
        "ிற",
        "ேன்"
      ],
      [
        "ி",
        "ட்டு"
      ],
      [
        ".",
        "பி"
      ],
      [
        " முதல்",
        "வர்"
      ],
      [
        " தெரிவி",
        "த்தார்"
      ],
      [
        " உ",
        "த்தர"
      ],
      [
        " ம",
        "ன"
      ],
      [
        " வெ",
        "ற்றி"
      ],
      [
        "ய",
        "ா"
      ],
      [
        "ஒ",
        "ரு"
      ],
      [
        " பெ",
        "ற்று"
      ],
      [
        " அவர",
        "து"
      ],
      [
        " தீ",
        "ர்"
      ],
      [
        "வ",
        "ரு"
      ],
      [
        " பெ",
        "ண"
      ],
      [
        " நட",
        "ந்தது"
      ],
      [
        "ிருந்த",
        "ார்"
      ],
      [
        "அ",
        "தே"
      ],
      [
        " பாதுகா",
        "ப்பு"
      ],
      [
        "டிய",
        "ாக"
      ],
      [
        " கே",
        "ள்"
      ],
      [
        "செ",
        "ன்னை"
      ],
      [
        "ளு",
        "க்கும்"
      ],
      [
        " பொ",
        "று"
      ],
      [
        " காரண",
        "மாக"
      ],
      [
        "ம",
        "தி"
      ],
      [
        "ச",
        "ை"
      ],
      [
        " த",
        "ங்க"
      ],
      [
        " வீ",
        "ர"
      ],
      [
        " பயன்ப",
        "டுத்த"
      ],
      [
        " எ",
        "ல்ல"
      ],
      [
        " ஆ",
        "ம்"
      ],
      [
        "ளு",
        "மன்ற"
      ],
      [
        "ல",
        "ோ"
      ],
      [
        "ட",
        "ப்பா"
      ],
      [
        "ஷ",
        "்ட"
      ],
      [
        "ிரு",
        "க்கும்"
      ],
      [
        "நில",
        "ையில்"
      ],
      [
        " என்ப",
        "தை"
      ],
      [
        " வக",
        "ையில்"
      ],
      [
        "த்த",
        "ம்"
      ],
      [
        " இருந்த",
        "து"
      ],
      [
        " வா",
        "க்கு"
      ],
      [
        " நிக",
        "ழ்ச்ச"
      ],
      [
        " த",
        "ிற"
      ],
      [
        " செய",
        "ல்ப"
      ],
      [
        "ச்ச",
        "ு"
      ],
      [
        "ல",
        "ிய"
      ],
      [
        " சிற",
        "ப்பு"
      ],
      [
        " நிர்வ",
        "ாக"
      ],
      [
        "ட்ட",
        "ின்"
      ],
      [
        " ந",
        "ாள"
      ],
      [
        " பா",
        "தி"
      ],
      [
        "அ",
        "தன்"
      ],
      [
        " கூறி",
        "னார்"
      ],
      [
        "அ",
        "து"
      ],
      [
        "ப",
        "ட"
      ],
      [
        " இ",
        "ஸ்"
      ],
      [
        " அல்ல",
        "து"
      ],
      [
        " வை",
        "த்த"
      ],
      [
        "ிற",
        "ோம்"
      ],
      [
        "க",
        "ொ"
      ],
      [
        " க",
        "ார"
      ],
      [
        "வ",
        "ான"
      ],
      [
        " ஏற்ப",
        "ட்ட"
      ],
      [
        " வருக",
        "ின்றனர்"
      ],
      [
        " வரு",
        "வ"
      ],
      [
        "டை",
        "ந்த"
      ],
      [
        " ரூ",
        "ப"
      ],
      [
        " என்ற",
        "ார்"
      ],
      [
        " நே",
        "ற்று"
      ],
      [
        " நிற",
        "ை"
      ],
      [
        " முடி",
        "வு"
      ],
      [
        "இ",
        "தில்"
      ],
      [
        " க",
        "ருத்து"
      ],
      [
        " கு",
        "ழு"
      ],
      [
        " தே",
        "சிய"
      ],
      [
        "த்து",
        "டன்"
      ],
      [
        " கை",
        "து"
      ],
      [
        "ல",
        "்கள்"
      ],
      [
        " அ",
        "ருக"
      ],
      [
        "ய",
        "ம்"
      ],
      [
        " அனை",
        "த்து"
      ],
      [
        "அ",
        "ப்போது"
      ],
      [
        "மைய",
        "ான"
      ],
      [
        " ப",
        "டி"
      ],
      [
        "ள",
        "ாதார"
      ],
      [
        " ந",
        "ிய"
      ],
      [
        "டப்பா",
        "டி"
      ],
      [
        "க",
        "ிறது"
      ],
      [
        " வெளிய",
        "ே"
      ],
      [
        " செ",
        "லு"
      ],
      [
        "இ",
        "ந்"
      ],
      [
        "ஸ்ட",
        "்"
      ],
      [
        "ி",
        "னர்"
      ],
      [
        " இ",
        "ன்ன"
      ],
      [
        "ற்",
        "ச"
      ],
      [
        "ிய",
        "ும்"
      ],
      [
        "ச",
        "ாய"
      ],
      [
        "ரு",
        "க்க"
      ],
      [
        "ம்ப",
        "ி"
      ],
      [
        "ந",
        "ே"
      ],
      [
        "திய",
        "ாக"
      ],
      [
        "க",
        "ே"
      ],
      [
        "ட",
        "க"
      ],
      [
        "ச",
        "ார"
      ],
      [
        ".",
        "எ"
      ],
      [
        " து",
        "றை"
      ],
      [
        " தெரிவி",
        "த்த"
      ],
      [
        "ைய",
        "டுத்து"
      ],
      [
        "்ட",
        "்"
      ],
      [
        " அறி",
        "க்க"
      ],
      [
        " ஆ",
        "ட்ச"
      ],
      [
        " வி",
        "ஷ"
      ],
      [
        "ண",
        "ுவ"
      ],
      [
        "ிய",
        "ர்"
      ],
      [
        "ற்ற",
        "ை"
      ],
      [
        "ிக",
        "ி"
      ],
      [
        " தா",
        "க்கு"
      ],
      [
        " நா",
        "டுக"
      ],
      [
        "மைய",
        "ாக"
      ],
      [
        "-",
        "ம்"
      ],
      [
        "த",
        "ொ"
      ],
      [
        "வ",
        "ன்"
      ],
      [
        "ர்",
        "ம"
      ],
      [
        " மா",
        "தம்"
      ],
      [
        "ப",
        "ின்"
      ],
      [
        " முடிய",
        "ும்"
      ],
      [
        " செ",
        "ன்னை"
      ],
      [
        "னா",
        "தி"
      ],
      [
        "இந்த",
        "ிய"
      ],
      [
        " வ",
        "ச"
      ],
      [
        " கேள்",
        "வி"
      ],
      [
        " உரு",
        "வா"
      ],
      [
        "ள",
        "வு"
      ],
      [
        " அ",
        "தை"
      ],
      [
        " அ",
        "க"
      ],
      [
        ".",
        "மு"
      ],
      [
        " ம",
        "று"
      ],
      [
        "லு",
        "க்கு"
      ],
      [
        "ச்ச",
        "ை"
      ],
      [
        " மிக",
        "வும்"
      ],
      [
        " வ",
        "ல"
      ],
      [
        " ச",
        "ுவ"
      ],
      [
        " கிர",
        "ாம"
      ],
      [
        "ற",
        "ையில்"
      ],
      [
        " ர",
        "ஷ்ய"
      ],
      [
        " ந",
        "ல்ல"
      ],
      [
        " அல",
        "ுவ"
      ],
      [
        "ிரு",
        "ப்ப"
      ],
      [
        "ைய",
        "ான"
      ],
      [
        " வி",
        "டு"
      ],
      [
        " செய்ய",
        "ப்பட்ட"
      ],
      [
        "ச",
        "ிர"
      ],
      [
        "ச",
        "ில"
      ],
      [
        " மு",
        "ழு"
      ],
      [
        "டிய",
        "ோ"
      ],
      [
        "அ",
        "தி"
      ],
      [
        "ில",
        "ேயே"
      ],
      [
        "3",
        "0"
      ],
      [
        "வர்க",
        "ளுக்கு"
      ],
      [
        " சிற",
        "ு"
      ],
      [
        " த",
        "னி"
      ],
      [
        " குறி",
        "த்த"
      ],
      [
        "ாக",
        "ு"
      ],
      [
        "ள",
        "ம்"
      ],
      [
        " வாய்",
        "ப்பு"
      ],
      [
        "ால",
        "ின்"
      ],
      [
        " ",
        "ஃ"
      ],
      [
        "்க",
        "ு"
      ],
      [
        " தொ",
        "கு"
      ],
      [
        " மு",
        "க"
      ],
      [
        "டு",
        "ப்ப"
      ],
      [
        " பி",
        "டி"
      ],
      [
        "தி",
        "ரு"
      ],
      [
        " ச",
        "ோ"
      ],
      [
        "ள",
        "ா"
      ],
      [
        " ப",
        "ணி"
      ],
      [
        " வி",
        "மான"
      ],
      [
        "க",
        "ளின்"
      ],
      [
        " பதி",
        "வு"
      ],
      [
        " எ",
        "ப்படி"
      ],
      [
        " வா",
        "ங்க"
      ],
      [
        "வி",
        "ழ"
      ],
      [
        " விசாரண",
        "ை"
      ],
      [
        "ொ",
        "ண்டு"
      ],
      [
        " ப",
        "ற்றி"
      ],
      [
        "ற்",
        "சி"
      ],
      [
        " தே",
        "வ"
      ],
      [
        " ப",
        "ார்"
      ],
      [
        "ப்ப",
        "ெ"
      ],
      [
        " முடிய",
        "ாது"
      ],
      [
        " பொரு",
        "ளாதார"
      ],
      [
        "ந",
        "ர்"
      ],
      [
        " காவ",
        "ல"
      ],
      [
        " என்க",
        "ிறார்"
      ],
      [
        " த",
        "வ"
      ],
      [
        " விவ",
        "கார"
      ],
      [
        "ில",
        "ான"
      ],
      [
        "1",
        "5"
      ],
      [
        "ம",
        "ூ"
      ],
      [
        " அ",
        "டுத்த"
      ],
      [
        " மருத்துவ",
        "ம"
      ],
      [
        "னி",
        "த"
      ],
      [
        "இந்",
        "நிலையில்"
      ],
      [
        " கோ",
        "டி"
      ],
      [
        "ா",
        "மி"
      ],
      [
        " எ",
        "டப்பாடி"
      ],
      [
        " தலை",
        "மை"
      ],
      [
        " வி",
        "ரு"
      ],
      [
        "ப",
        "ால"
      ],
      [
        "சா",
        "மி"
      ],
      [
        "ப",
        "ை"
      ],
      [
        " மு",
        "ழுவ"
      ],
      [
        "ா",
        "ட்டு"
      ],
      [
        " ச",
        "ாத"
      ],
      [
        "ச",
        "ே"
      ],
      [
        " எதி",
        "ராக"
      ],
      [
        "ற்ற",
        "ிய"
      ],
      [
        "ச",
        "ன"
      ],
      [
        " வி",
        "மர்"
      ],
      [
        " ச",
        "ிக்க"
      ],
      [
        " பெ",
        "ண்"
      ],
      [
        "1",
        "2"
      ],
      [
        " தா",
        "க்க"
      ],
      [
        " பழ",
        "னி"
      ],
      [
        " உ",
        "ரி"
      ],
      [
        "ிருந்த",
        "து"
      ],
      [
        "ண்ட",
        "்"
      ],
      [
        "ா",
        "ட"
      ],
      [
        " வி",
        "ட"
      ],
      [
        "ிக்க",
        "ை"
      ],
      [
        " உ",
        "ற"
      ],
      [
        " தகவ",
        "ல்"
      ],
      [
        "ல",
        "ாக"
      ],
      [
        "அ",
        "வர்"
      ],
      [
        "கு",
        "றி"
      ],
      [
        " நட",
        "ந்து"
      ],
      [
        " க",
        "டை"
      ],
      [
        " அ",
        "ங்கு"
      ],
      [
        " பூ",
        "ஜ"
      ],
      [
        " குறிப்ப",
        "ிட"
      ],
      [
        " தெரிவி",
        "க்க"
      ],
      [
        " ஆ",
        "ளு"
      ],
      [
        "த்து",
        "வ"
      ],
      [
        " மணி",
        "க்கு"
      ],
      [
        " ஜ",
        "னாதி"
      ],
      [
        "மை",
        "ச்ச"
      ],
      [
        " முன்ன",
        "ாள்"
      ],
      [
        " செய்",
        "வ"
      ],
      [
        " தேர்த",
        "லில்"
      ],
      [
        " ம",
        "ர"
      ],
      [
        " நா",
        "ட்க"
      ],
      [
        " பகு",
        "தியில்"
      ],
      [
        "திய",
        "ை"
      ],
      [
        "பி",
        "எஸ்"
      ],
      [
        "ிக",
        "ளில்"
      ],
      [
        "ப",
        "ல"
      ],
      [
        "ப",
        "்ட"
      ],
      [
        " இ",
        "ல"
      ],
      [
        " கே",
        "ட்ட"
      ],
      [
        " முன்",
        "பு"
      ],
      [
        " கொ",
        "டுத்த"
      ],
      [
        " ஒரு",
        "வர்"
      ],
      [
        "செ",
        "ய"
      ],
      [
        " பா",
        "திக்க"
      ],
      [
        "இ",
        "ரு"
      ],
      [
        " விவ",
        "சாய"
      ],
      [
        "ை",
        "ப்பட"
      ],
      [
        " ஒ",
        "ன்று"
      ],
      [
        " குழந்த",
        "ை"
      ],
      [
        "ங்க",
        "ளின்"
      ],
      [
        " நிற",
        "ு"
      ],
      [
        "ச",
        "ார்"
      ],
      [
        "ரோ",
        "னா"
      ],
      [
        " அ",
        "தன்"
      ],
      [
        " ம",
        "தி"
      ],
      [
        " தீ",
        "விர"
      ],
      [
        " வ",
        "ாக"
      ],
      [
        "னு",
        "க்கு"
      ],
      [
        "ம",
        "ையில்"
      ],
      [
        " ம",
        "ின்"
      ],
      [
        " ம",
        "ெ"
      ],
      [
        " உண",
        "வு"
      ],
      [
        " ப",
        "தவி"
      ],
      [
        " பய",
        "ண"
      ],
      [
        "நில",
        "ை"
      ],
      [
        "ியு",
        "ள்ளார்"
      ],
      [
        "ீ",
        "டு"
      ],
      [
        " நட",
        "த்தி"
      ],
      [
        "ன்ன",
        "ு"
      ],
      [
        " சார்",
        "ப"
      ],
      [
        " பிர",
        "ச்"
      ],
      [
        " ச",
        "ிகி"
      ],
      [
        "ர்ச்ச",
        "ி"
      ],
      [
        " நா",
        "ம்"
      ],
      [
        "என",
        "வே"
      ],
      [
        "ஆ",
        "ர்"
      ],
      [
        "ஷ",
        "ே"
      ],
      [
        "த்த",
        "ால்"
      ],
      [
        " ஆய்",
        "வு"
      ],
      [
        "த்து",
        "ள்ளது"
      ],
      [
        "ம",
        "ோ"
      ],
      [
        " தொழ",
        "ில்"
      ],
      [
        "ஸ்த",
        "ான்"
      ],
      [
        " ட",
        "ெ"
      ],
      [
        " அ",
        "த"
      ],
      [
        " நிக",
        "ழ்"
      ],
      [
        "ார",
        "்க"
      ],
      [
        "ஸ்த",
        "ான"
      ],
      [
        " மூ",
        "ல"
      ],
      [
        ".",
        "எஸ்"
      ],
      [
        " பக்த",
        "ர்கள்"
      ],
      [
        " அ",
        "ரு"
      ],
      [
        "த்த",
        "ிற்க"
      ],
      [
        " உள்ள",
        "ன"
      ],
      [
        "ன",
        "ே"
      ],
      [
        " அ",
        "ங்க"
      ],
      [
        "லை",
        "க்க"
      ],
      [
        " ம",
        "ட்டும்"
      ],
      [
        " ஜ",
        "ெய"
      ],
      [
        " அதிகார",
        "ிகள்"
      ],
      [
        " ப",
        "ரி"
      ],
      [
        " ஆ",
        "ர்"
      ],
      [
        "ன",
        "ின்"
      ],
      [
        "ம",
        "ொ"
      ],
      [
        " வை",
        "க்க"
      ],
      [
        " கூற",
        "ிய"
      ],
      [
        " ம",
        "து"
      ],
      [
        " வ",
        "ங்க"
      ],
      [
        "ியு",
        "ள்ள"
      ],
      [
        " வேண்ட",
        "ிய"
      ],
      [
        "ப்ப",
        "ே"
      ],
      [
        " எதி",
        "ர்க"
      ],
      [
        "ந்த",
        "்"
      ],
      [
        " கோ",
        "வில"
      ],
      [
        " வீ",
        "டியோ"
      ],
      [
        " பா",
        "ட"
      ],
      [
        ".",
        "ஜ"
      ],
      [
        "ர்த்த",
        "ு"
      ],
      [
        " ரா",
        "ணுவ"
      ],
      [
        " உய",
        "ர்"
      ],
      [
        "ீ",
        "ர"
      ],
      [
        "5",
        "0"
      ],
      [
        "ு",
        "டன்"
      ],
      [
        "வ்வ",
        "ொரு"
      ],
      [
        " இலங்க",
        "ை"
      ],
      [
        "1",
        "1"
      ],
      [
        " நட",
        "க்க"
      ],
      [
        "த",
        "லை"
      ],
      [
        " குறிப்ப",
        "ிட்ட"
      ],
      [
        " க",
        "டி"
      ],
      [
        "ச",
        "ன்"
      ],
      [
        "ன",
        "ில்"
      ],
      [
        " ந",
        "ான"
      ],
      [
        " ச",
        "ங்க"
      ],
      [
        "ட்ட",
        "த்தில்"
      ],
      [
        " த",
        "டை"
      ],
      [
        "ரி",
        "டம்"
      ],
      [
        " நி",
        "தி"
      ],
      [
        "த்த",
        "ான்"
      ],
      [
        "த்த",
        "ையும்"
      ],
      [
        " ர",
        "ாம"
      ],
      [
        " சொ",
        "ன்ன"
      ],
      [
        "த்த",
        "ா"
      ],
      [
        "இ",
        "தன்"
      ],
      [
        " ஆய",
        "ிர"
      ],
      [
        " த",
        "ன்"
      ],
      [
        " செ",
        "ல"
      ],
      [
        " முழுவ",
        "தும்"
      ],
      [
        "ப்பு",
        "கள்"
      ],
      [
        " ",
        "ட்"
      ],
      [
        " மூ",
        "ன்று"
      ],
      [
        " அ",
        "பி"
      ],
      [
        " கா",
        "லை"
      ],
      [
        " சூ",
        "ழ"
      ],
      [
        " ஸ்",
        "ரீ"
      ],
      [
        "ெல்ல",
        "ி"
      ],
      [
        "ண்ட",
        "ி"
      ],
      [
        " விள",
        "ையா"
      ],
      [
        "ன",
        "ும்"
      ],
      [
        "ம்ம",
        "ன்"
      ],
      [
        " செ",
        "ல்"
      ],
      [
        " வி",
        "ட்டு"
      ],
      [
        "டிய",
        "ே"
      ],
      [
        "நி",
        "தி"
      ],
      [
        " ப",
        "ட்ட"
      ],
      [
        " க",
        "ன"
      ],
      [
        " வே",
        "று"
      ],
      [
        " பெ",
        "ற"
      ],
      [
        " தமிழ்நா",
        "டு"
      ],
      [
        "ன",
        "்கள்"
      ],
      [
        " க",
        "டு"
      ],
      [
        " கொ",
        "டுக்க"
      ],
      [
        "ப",
        "ூ"
      ],
      [
        " இட",
        "ங்களில்"
      ],
      [
        "ந",
        "ான்"
      ],
      [
        " த",
        "ந்த"
      ],
      [
        "ப்ப",
        "ிர"
      ],
      [
        " காவல",
        "்து"
      ],
      [
        " இஸ்",
        "ரே"
      ],
      [
        " ஆத",
        "ரவ"
      ],
      [
        " நேர",
        "த்தில்"
      ],
      [
        " ஜ",
        "ன"
      ],
      [
        "20",
        "0"
      ],
      [
        "00",
        "0"
      ],
      [
        "ட",
        "்கள்"
      ],
      [
        " மே",
        "லும்"
      ],
      [
        " தெரிவித்து",
        "ள்ளார்"
      ],
      [
        " தொழ",
        "ில"
      ],
      [
        "டா",
        "ளுமன்ற"
      ],
      [
        "க்க",
        "ெ"
      ],
      [
        "க்க",
        "ோ"
      ],
      [
        " கொ",
        "ள்க"
      ],
      [
        "க",
        "ர"
      ],
      [
        " சம்ப",
        "வம்"
      ],
      [
        " ரூப",
        "ாய்"
      ],
      [
        "அ",
        "தில்"
      ],
      [
        " ந",
        "ிர"
      ],
      [
        " வி",
        "ஜ"
      ],
      [
        " செய்ய",
        "ும்"
      ],
      [
        " சி",
        "வ"
      ],
      [
        " ஆ",
        "ட்சி"
      ],
      [
        " சு",
        "ற்று"
      ],
      [
        " ம",
        "னை"
      ],
      [
        " இ",
        "த"
      ],
      [
        " உ",
        "தவி"
      ],
      [
        " உறு",
        "தி"
      ],
      [
        " அ",
        "ண்ண"
      ],
      [
        " க",
        "ல்ல"
      ],
      [
        "ிக",
        "ளுக்கு"
      ],
      [
        "ெல்ல",
        "ாம்"
      ],
      [
        " ஊ",
        "ழ"
      ],
      [
        " வய",
        "து"
      ],
      [
        "ஸ்",
        "வர"
      ],
      [
        " ஒ",
        "ப்ப"
      ],
      [
        " போட்ட",
        "ிய"
      ],
      [
        " ந",
        "ு"
      ],
      [
        " லட்ச",
        "ம்"
      ],
      [
        "ந்து",
        "ள்ளது"
      ],
      [
        " ப",
        "ங்கே"
      ],
      [
        "போ",
        "ல"
      ],
      [
        " விர",
        "ும்ப"
      ],
      [
        "வ",
        "ருக்கு"
      ],
      [
        " து",
        "ணை"
      ],
      [
        " ப",
        "ள்ள"
      ],
      [
        " ச",
        "ரிய"
      ],
      [
        "ப்ப",
        "டுவ"
      ],
      [
        " உ",
        "ச்ச"
      ],
      [
        " அலுவ",
        "லக"
      ],
      [
        "a",
        "n"
      ],
      [
        " அ",
        "வரை"
      ],
      [
        "வர",
        "ாக"
      ],
      [
        "ப",
        "த்தில்"
      ],
      [
        "க",
        "ளும்"
      ],
      [
        " த",
        "விர"
      ],
      [
        " தே",
        "ர்வு"
      ],
      [
        "ரு",
        "ந்து"
      ],
      [
        "த்த",
        "க்க"
      ],
      [
        "ுக",
        "ள்"
      ],
      [
        " நா",
        "ள்"
      ],
      [
        "நா",
        "ட்டு"
      ],
      [
        " உய",
        "ிரி"
      ],
      [
        " கீ",
        "ழ்"
      ],
      [
        "ம்ப",
        "ர்"
      ],
      [
        "ளை",
        "ஞ"
      ],
      [
        "ா",
        "டு"
      ],
      [
        " சம்ப",
        "வ"
      ],
      [
        " தொடர்ப",
        "ான"
      ],
      [
        " காரண",
        "ம்"
      ],
      [
        " ய",
        "ார"
      ],
      [
        " இட",
        "ையே"
      ],
      [
        " ய",
        "ா"
      ],
      [
        "ப",
        "ொ"
      ],
      [
        " இ",
        "ப்போது"
      ],
      [
        " ஆ",
        "ணைய"
      ],
      [
        " பார்த்த",
        "ு"
      ],
      [
        "ர",
        "வு"
      ],
      [
        "விட்ட",
        "து"
      ],
      [
        " `",
        "`"
      ],
      [
        "ளு",
        "க்கான"
      ],
      [
        " நா",
        "ங்கள்"
      ],
      [
        " கோ",
        "வில்"
      ],
      [
        " ஒ",
        "ரே"
      ],
      [
        "தொ",
        "ட"
      ],
      [
        "வர்க",
        "ளை"
      ],
      [
        " ஜனாதி",
        "பதி"
      ],
      [
        "ின",
        "ால்"
      ],
      [
        "இத",
        "ையடுத்து"
      ],
      [
        " மோ",
        "ச"
      ],
      [
        " தமி",
        "ழ"
      ],
      [
        "று",
        "த்த"
      ],
      [
        " அடி",
        "ப்பட"
      ],
      [
        "க்கு",
        "றி"
      ],
      [
        " கே",
        "ட்டு"
      ],
      [
        "த்த",
        "க"
      ],
      [
        "ின",
        "ி"
      ],
      [
        " விழ",
        "ா"
      ],
      [
        " தே",
        "வை"
      ],
      [
        " உட",
        "ல்"
      ],
      [
        " வருக",
        "ிறார்"
      ],
      [
        " மே",
        "ற்ப"
      ],
      [
        " ய",
        "ோ"
      ],
      [
        " எதிர்",
        "பார"
      ],
      [
        " கூற",
        "ப்படுகிறது"
      ],
      [
        " ஆ",
        "லோ"
      ],
      [
        " அ",
        "டை"
      ],
      [
        "ா",
        "ட்ட"
      ],
      [
        " க",
        "ல்வி"
      ],
      [
        "ரச",
        "ு"
      ],
      [
        " போலீ",
        "ஸ"
      ],
      [
        "இ",
        "தை"
      ],
      [
        "ரிக்க",
        "ை"
      ],
      [
        "வர",
        "ின்"
      ],
      [
        " மாவட்ட",
        "ம்"
      ],
      [
        "ல",
        "ைய"
      ],
      [
        " கோ",
        "யில"
      ],
      [
        " அள",
        "ிக்க"
      ],
      [
        "த்த",
        "ிலும்"
      ],
      [
        "ம",
        "ெ"
      ],
      [
        " பிர",
        "தேச"
      ],
      [
        "ரு",
        "க்கும்"
      ],
      [
        " உறு",
        "ப்பின"
      ],
      [
        " வி",
        "தி"
      ],
      [
        "ோத",
        "னை"
      ],
      [
        " அவ",
        "ருக்கு"
      ],
      [
        " உ",
        "ண்"
      ],
      [
        "ா",
        "ச"
      ],
      [
        " த",
        "ங்கள்"
      ],
      [
        "ும்ப",
        "ோது"
      ],
      [
        "க்க",
        "ொண்ட"
      ],
      [
        " அ",
        "ர"
      ],
      [
        "ள்",
        "வ"
      ],
      [
        " ஸ்ட",
        "ாலின்"
      ],
      [
        " இர",
        "ண்ட"
      ],
      [
        "்ட",
        "ர்"
      ],
      [
        "ல",
        "ின்"
      ],
      [
        " ஜ",
        "ூ"
      ],
      [
        "அ",
        "தை"
      ],
      [
        "த்த",
        "னர்"
      ],
      [
        " சு",
        "மார்"
      ],
      [
        " வாக",
        "ன"
      ],
      [
        " ம",
        "ைய"
      ],
      [
        "ர",
        "ல்"
      ],
      [
        "ர்வ",
        "தேச"
      ],
      [
        " உ",
        "த"
      ],
      [
        " இ",
        "ளைஞ"
      ],
      [
        "ப்ப",
        "ின்"
      ],
      [
        " க",
        "ண்டு"
      ],
      [
        " விஷ",
        "ய"
      ],
      [
        "1",
        "8"
      ],
      [
        " பே",
        "ர"
      ],
      [
        " கொ",
        "லை"
      ],
      [
        "த",
        "லில்"
      ],
      [
        "ட்டு",
        "க்கு"
      ],
      [
        " சிகி",
        "ச்சை"
      ],
      [
        "வர்க",
        "ளின்"
      ],
      [
        " இன்ன",
        "ும்"
      ],
      [
        " வீ",
        "ட்டில்"
      ],
      [
        " மேற்க",
        "ொள்ள"
      ],
      [
        " ஜ",
        "ெ"
      ],
      [
        " போ",
        "க"
      ],
      [
        "ஷ்",
        "ண"
      ],
      [
        " க",
        "ள"
      ],
      [
        "ிய",
        "ார்"
      ],
      [
        "ழ",
        "மை"
      ],
      [
        "்க",
        "ளை"
      ],
      [
        " ஏ",
        "ன்"
      ],
      [
        "நீ",
        "தி"
      ],
      [
        "இ",
        "தற்கு"
      ],
      [
        " கொ",
        "ரோனா"
      ],
      [
        "ங்க",
        "ும்"
      ],
      [
        " சார்ப",
        "ில்"
      ],
      [
        " ர",
        "யில்"
      ],
      [
        " கா",
        "ந்தி"
      ],
      [
        " மோ",
        "டி"
      ],
      [
        " கோ",
        "யில்"
      ],
      [
        "்க",
        "ா"
      ],
      [
        " உ",
        "ட்ப"
      ],
      [
        "ம",
        "ையை"
      ],
      [
        "ிக",
        "ள"
      ],
      [
        " நா",
        "டாளுமன்ற"
      ],
      [
        " இ",
        "ந்து"
      ],
      [
        "ச",
        "ீ"
      ],
      [
        "ான",
        "து"
      ],
      [
        "தாக",
        "க்"
      ],
      [
        " வந்த",
        "து"
      ],
      [
        " கூட்ட",
        "ணி"
      ],
      [
        " க",
        "ாய"
      ],
      [
        " நடைபெற்ற",
        "து"
      ],
      [
        " பிரச்",
        "னை"
      ],
      [
        " வே",
        "ட்ப"
      ],
      [
        "ங்கள",
        "ும்"
      ],
      [
        " மட்டு",
        "ம"
      ],
      [
        " அள",
        "வில்"
      ],
      [
        "க்க",
        "ில்"
      ],
      [
        " ஏற்ப",
        "ட்டு"
      ],
      [
        " இ",
        "ணைய"
      ],
      [
        "ம்ப",
        "ெ"
      ],
      [
        " ஏ",
        "ற்க"
      ],
      [
        " மே",
        "ல்"
      ],
      [
        "த",
        "ெ"
      ],
      [
        "ற்ற",
        "ில்"
      ],
      [
        " ச",
        "ரி"
      ],
      [
        "க்க",
        "ளை"
      ],
      [
        " ச",
        "த"
      ],
      [
        "ூ",
        "ட"
      ],
      [
        " பய",
        "ி"
      ],
      [
        " த",
        "ுவ"
      ],
      [
        "தில்",
        "லை"
      ],
      [
        "ம்",
        "மா"
      ],
      [
        " மு",
        "றைய"
      ],
      [
        " கிடை",
        "க்க"
      ],
      [
        " பு",
        "ற"
      ],
      [
        "ல",
        "ே"
      ],
      [
        " ப",
        "ந்து"
      ],
      [
        " வ",
        "ட"
      ],
      [
        " வி",
        "ட்ட"
      ],
      [
        " ர",
        "ாகு"
      ],
      [
        " செய்த",
        "ி"
      ],
      [
        "ங்க",
        "ிய"
      ],
      [
        "ன",
        "ையில்"
      ],
      [
        "க்க",
        "த்தில்"
      ],
      [
        " தமி",
        "ழ்"
      ],
      [
        "ிட",
        "ையே"
      ],
      [
        " அழை",
        "த்து"
      ],
      [
        "ு",
        "ள்ள"
      ],
      [
        "ண",
        "ிய"
      ],
      [
        "மு",
        "தல்"
      ],
      [
        "தமி",
        "ழ்நா"
      ],
      [
        " கூறுக",
        "ிறார்"
      ],
      [
        " அ",
        "டைய"
      ],
      [
        " கட்ச",
        "ியின்"
      ],
      [
        "1",
        "4"
      ],
      [
        "ஃ",
        "ப்"
      ],
      [
        "ச",
        "ோ"
      ],
      [
        " என",
        "க்கு"
      ],
      [
        " அருக",
        "ே"
      ],
      [
        "த",
        "ோ"
      ],
      [
        " ப",
        "டை"
      ],
      [
        " ஏ",
        "ற்று"
      ],
      [
        " ப",
        "தவ"
      ],
      [
        " ஒ",
        "து"
      ],
      [
        " அரச",
        "ாங்க"
      ],
      [
        " வாழ",
        "்க்க"
      ],
      [
        " ம",
        "த"
      ],
      [
        " திர",
        "ும்ப"
      ],
      [
        "ல்க",
        "ளை"
      ],
      [
        "க்",
        "ரை"
      ],
      [
        " ந",
        "ூ"
      ],
      [
        "மைச்ச",
        "ர்"
      ],
      [
        "ஷ",
        "ன்"
      ],
      [
        " கொ",
        "டுத்து"
      ],
      [
        "பு",
        "ரம்"
      ],
      [
        "i",
        "n"
      ],
      [
        "க்க",
        "ள"
      ],
      [
        " ம",
        "ி"
      ],
      [
        " வெ",
        "ள்ள"
      ],
      [
        "பா",
        "டு"
      ],
      [
        "வி",
        "ன"
      ],
      [
        " கு",
        "டிய"
      ],
      [
        " அ",
        "ப்ப"
      ],
      [
        " பின்",
        "னர்"
      ],
      [
        " செய",
        "ல்"
      ],
      [
        "வ்",
        "வா"
      ],
      [
        "ண்",
        "ப"
      ],
      [
        "ம",
        "க்கள்"
      ],
      [
        "ந",
        "ாத"
      ],
      [
        " இ",
        "று"
      ],
      [
        " பு",
        "து"
      ],
      [
        " அனு",
        "ப்ப"
      ],
      [
        " ம",
        "னித"
      ],
      [
        "த்த",
        "ும்"
      ],
      [
        "ரு",
        "வ"
      ],
      [
        " ந",
        "ப"
      ],
      [
        "த்து",
        "க்"
      ],
      [
        "ஞ்ச",
        "ா"
      ],
      [
        " தீர்",
        "மான"
      ],
      [
        " அனு",
        "மதி"
      ],
      [
        " ம",
        "ண்ட"
      ],
      [
        " வா",
        "ழ்"
      ],
      [
        " கல்ல",
        "ூ"
      ],
      [
        " ட",
        "ிர"
      ],
      [
        " விர",
        "ை"
      ],
      [
        " அரச",
        "ின்"
      ],
      [
        " அ",
        "ற"
      ],
      [
        "ார",
        "்த்த"
      ],
      [
        " என",
        "வும்"
      ],
      [
        " பெண",
        "்கள்"
      ],
      [
        "த",
        "ற்போது"
      ],
      [
        "ர்",
        "ப்ப"
      ],
      [
        " வ",
        "கு"
      ],
      [
        " எதி",
        "ர்க்க"
      ],
      [
        " சி",
        "ங்"
      ],
      [
        " இ",
        "ன்"
      ],
      [
        " நெ",
        "ருக்க"
      ],
      [
        " ஆலோ",
        "ச"
      ],
      [
        "ாக",
        "்"
      ],
      [
        " வில",
        "ை"
      ],
      [
        "ள்ள",
        "ன"
      ],
      [
        " செயல",
        "ாளர்"
      ],
      [
        " என்ற",
        "ால்"
      ],
      [
        " பல",
        "்க"
      ],
      [
        "ந",
        "ு"
      ],
      [
        "தி",
        "கள்"
      ],
      [
        " ப",
        "ரிச"
      ],
      [
        " கிடை",
        "க்கும்"
      ],
      [
        " ம",
        "கி"
      ],
      [
        "ச",
        "ம்"
      ],
      [
        " உள்ள",
        "னர்"
      ],
      [
        " காவ",
        "ல்"
      ],
      [
        " செ",
        "ல்வ"
      ],
      [
        "த",
        "ள"
      ],
      [
        " பர",
        "பர"
      ],
      [
        " ந",
        "ம்"
      ],
      [
        "ர",
        "ம"
      ],
      [
        " ஒ",
        "வ்வொரு"
      ],
      [
        " பிர",
        "ச்ச"
      ],
      [
        "று",
        "வ"
      ],
      [
        "வு",
        "டன்"
      ],
      [
        "தமி",
        "ழக"
      ],
      [
        " குறி",
        "ப்பி"
      ],
      [
        " தய",
        "ார"
      ],
      [
        " அரச",
        "ிய"
      ],
      [
        " நிறை",
        "வே"
      ],
      [
        " சொ",
        "ந்த"
      ],
      [
        " இல்ல",
        "ாத"
      ],
      [
        " வர",
        "லா"
      ],
      [
        "ல",
        "ர்"
      ],
      [
        " அதி",
        "பர்"
      ],
      [
        " எ",
        "து"
      ],
      [
        "பி",
        "சி"
      ],
      [
        " ச",
        "க"
      ],
      [
        " அனு",
        "ம"
      ],
      [
        " கி",
        "ள"
      ],
      [
        "பின்",
        "னர்"
      ],
      [
        "ிக",
        "ளின்"
      ],
      [
        " ப",
        "ாத"
      ],
      [
        "ப்ப",
        "ாளர்"
      ],
      [
        "ச",
        "ூ"
      ],
      [
        " புக",
        "ார்"
      ],
      [
        " பண",
        "ம்"
      ],
      [
        " ர",
        "சிக"
      ],
      [
        " செய்த",
        "னர்"
      ],
      [
        "க்க",
        "ொள்ள"
      ],
      [
        " கு",
        "ரு"
      ],
      [
        " வே",
        "க"
      ],
      [
        "டுக",
        "ளை"
      ],
      [
        "ம்ப",
        "ு"
      ],
      [
        " ஜ",
        "ோ"
      ],
      [
        " மக்க",
        "ள"
      ],
      [
        " சுவ",
        "ாமி"
      ],
      [
        "ன்ன",
        "ி"
      ],
      [
        "க்க",
        "ிர"
      ],
      [
        " இ",
        "ழ"
      ],
      [
        "வர்க",
        "ள"
      ],
      [
        "1",
        "6"
      ],
      [
        "ற்ற",
        "ம்"
      ],
      [
        " எ",
        "டுத்த"
      ],
      [
        "ர்",
        "ப"
      ],
      [
        "த்தை",
        "ச்"
      ],
      [
        "ர்க",
        "ளும்"
      ],
      [
        " பாதி",
        "ப்பு"
      ],
      [
        "ால",
        "ி"
      ],
      [
        " போரா",
        "ட்ட"
      ],
      [
        " ர",
        "ீ"
      ],
      [
        " அமை",
        "ப்பு"
      ],
      [
        " திட்ட",
        "ம்"
      ],
      [
        "ர",
        "ையா"
      ],
      [
        " மேற்ப",
        "ட்ட"
      ],
      [
        " தொட",
        "ங்கி"
      ],
      [
        "ப",
        "்த"
      ],
      [
        " உரி",
        "மை"
      ],
      [
        "1",
        "3"
      ],
      [
        " ம",
        "ை"
      ],
      [
        " பே",
        "ச்ச"
      ],
      [
        "ந",
        "க"
      ],
      [
        " ச",
        "ுக"
      ],
      [
        "ிரு",
        "ஷ்ண"
      ],
      [
        "க",
        "ன்"
      ],
      [
        "இ",
        "லங்க"
      ],
      [
        "வு",
        "கள்"
      ],
      [
        " கு",
        "டி"
      ],
      [
        " ப",
        "ை"
      ],
      [
        " வல",
        "ியு"
      ],
      [
        " குறிப்பிட",
        "த்தக்க"
      ],
      [
        "க்க",
        "ொ"
      ],
      [
        "ிய",
        "ாள"
      ],
      [
        "ா",
        "ண்ட"
      ],
      [
        " என",
        "க்"
      ],
      [
        "ண",
        "ா"
      ],
      [
        " ஓ",
        "பிஎஸ்"
      ],
      [
        " த",
        "ள"
      ],
      [
        " க",
        "ண்ண"
      ],
      [
        " வரு",
        "ட"
      ],
      [
        "க்கூ",
        "டிய"
      ],
      [
        "க்கு",
        "ள்"
      ],
      [
        " ப",
        "ாகி"
      ],
      [
        " நீதி",
        "பதி"
      ],
      [
        "ர",
        "ிக"
      ],
      [
        "ப்ப",
        "ூ"
      ],
      [
        " வி",
        "ற்ப"
      ],
      [
        "ஹ",
        "ி"
      ],
      [
        "ட்ட",
        "ர்"
      ],
      [
        "ிர",
        "ே"
      ],
      [
        " மா",
        "லை"
      ],
      [
        " இருக்க",
        "ிறார்"
      ],
      [
        "2",
        "5"
      ],
      [
        "ார",
        "ம்"
      ],
      [
        "மா",
        "று"
      ],
      [
        "ு",
        "த"
      ],
      [
        "வ",
        "ாள"
      ],
      [
        "கள",
        "ையும்"
      ],
      [
        "த்து",
        "ள்ளார்"
      ],
      [
        " வருக",
        "ின்றன"
      ],
      [
        "ிய",
        "ான"
      ],
      [
        ".",
        "ஏ"
      ],
      [
        " க",
        "ைய"
      ],
      [
        " மு",
        "ன்ப"
      ],
      [
        " ந",
        "ாய"
      ],
      [
        " ச",
        "ர்வதேச"
      ],
      [
        "e",
        "r"
      ],
      [
        " உட",
        "ன"
      ],
      [
        " ம",
        "ழை"
      ],
      [
        "ன்ன",
        "ீர்"
      ],
      [
        " ஏற்ப",
        "டும்"
      ],
      [
        " ஊ",
        "டக"
      ],
      [
        " ப",
        "த்திர"
      ],
      [
        " இர",
        "வு"
      ],
      [
        " இய",
        "க்கு"
      ],
      [
        "க",
        "ொண்ட"
      ],
      [
        " குற்ற",
        "ம்"
      ],
      [
        " ஈடுப",
        "ட்ட"
      ],
      [
        " வெ",
        "ற்ற"
      ],
      [
        " நே",
        "ரம்"
      ],
      [
        " ந",
        "ல"
      ],
      [
        "த்த",
        "ீ"
      ],
      [
        "ப்பி",
        "னர்"
      ],
      [
        " நா",
        "டு"
      ],
      [
        " போலீ",
        "சார்"
      ],
      [
        "வி",
        "ரு"
      ],
      [
        "ில",
        "்தான்"
      ],
      [
        " இட",
        "த்தில்"
      ],
      [
        "ிய",
        "ே"
      ],
      [
        " என்ப",
        "தால்"
      ],
      [
        " அதிக",
        "மாக"
      ],
      [
        " தொடர்",
        "பு"
      ],
      [
        "க்கூ",
        "ட"
      ],
      [
        "லைக்க",
        "ழக"
      ],
      [
        "மை",
        "ப்பு"
      ],
      [
        "ர்த்த",
        "ி"
      ],
      [
        " ஆகிய",
        "ோர்"
      ],
      [
        "நீதி",
        "மன்ற"
      ],
      [
        " செய",
        "்க"
      ],
      [
        " வே",
        "ண்டு"
      ],
      [
        "ாத",
        "ம்"
      ],
      [
        " கண",
        "்கா"
      ],
      [
        " த",
        "ிட"
      ],
      [
        " வை",
        "ர"
      ],
      [
        "ோ",
        "க"
      ],
      [
        " நடைபெ",
        "றும்"
      ],
      [
        "1",
        "7"
      ],
      [
        " க",
        "ாத"
      ],
      [
        " ச",
        "ின்"
      ],
      [
        "ிற",
        "ு"
      ],
      [
        "1",
        "00"
      ],
      [
        "2",
        "4"
      ],
      [
        "டுத்து",
        "வ"
      ],
      [
        "ஜ",
        "ா"
      ],
      [
        " சே",
        "வை"
      ],
      [
        " கே",
        "ட்க"
      ],
      [
        " அ",
        "தற்கு"
      ],
      [
        " ஆ",
        "ப"
      ],
      [
        " செலு",
        "த்த"
      ],
      [
        " வர",
        "வே"
      ],
      [
        " உ",
        "ள்"
      ],
      [
        "த்தி",
        "னர்"
      ],
      [
        " ப",
        "ீ"
      ],
      [
        "த்த",
        "ியில்"
      ],
      [
        "ார",
        "ா"
      ],
      [
        "ந",
        "ோ"
      ],
      [
        "மான",
        "து"
      ],
      [
        " பழனி",
        "சாமி"
      ],
      [
        " அடிப்பட",
        "ையில்"
      ],
      [
        " எதி",
        "ரான"
      ],
      [
        " அ",
        "ட"
      ],
      [
        "த்தை",
        "ப்"
      ],
      [
        " மனை",
        "வி"
      ],
      [
        "ப்ப",
        "ான"
      ],
      [
        " நட",
        "த்திய"
      ],
      [
        " கவ",
        "ன"
      ],
      [
        "ங்க",
        "ில"
      ],
      [
        "ாம",
        "லை"
      ],
      [
        " குற்ற",
        "ச்ச"
      ],
      [
        "ா",
        "ண"
      ],
      [
        "வி",
        "னர்"
      ],
      [
        " போலீஸ",
        "ார்"
      ],
      [
        " செல்ல",
        "ும்"
      ],
      [
        "த",
        "ந்திர"
      ],
      [
        " ப",
        "ங்க"
      ],
      [
        " நக",
        "ர"
      ],
      [
        " எதிர்",
        "ப்பு"
      ],
      [
        "அ",
        "தற்கு"
      ],
      [
        " இ",
        "தை"
      ],
      [
        " வெளிய",
        "ிட்டு"
      ],
      [
        "த்த",
        "ொ"
      ],
      [
        "ர",
        "ாள"
      ],
      [
        "த்த",
        "ிட்ட"
      ],
      [
        "ப",
        "ிற"
      ],
      [
        " க",
        "லை"
      ],
      [
        "க்கு",
        "ப்"
      ],
      [
        " பூஜ",
        "ை"
      ],
      [
        " இ",
        "டை"
      ],
      [
        " ஆ",
        "சிர"
      ],
      [
        "க்த",
        "ி"
      ],
      [
        ".எ",
        "ல்"
      ],
      [
        " திட்ட",
        "மி"
      ],
      [
        "ில",
        "ோ"
      ],
      [
        "்த்த",
        "ு"
      ],
      [
        "ப்பட்டுள்ள",
        "ன"
      ],
      [
        " வழக்க",
        "ில்"
      ],
      [
        "ம",
        "ார"
      ],
      [
        " ஆளு",
        "நர்"
      ],
      [
        " த",
        "ற்க"
      ],
      [
        "டு",
        "வது"
      ],
      [
        "ா",
        "டி"
      ],
      [
        "வ",
        "ரி"
      ],
      [
        "ட்ட",
        "ா"
      ],
      [
        "ே",
        "ஷ்"
      ],
      [
        "ில்",
        "லிய"
      ],
      [
        "a",
        "t"
      ],
      [
        "ல",
        "ாம"
      ],
      [
        "ரா",
        "ட்சி"
      ],
      [
        "க்கு",
        "ழு"
      ],
      [
        " ப",
        "ள்ளி"
      ],
      [
        "த",
        "ீ"
      ],
      [
        " ர",
        "ோ"
      ],
      [
        "த்தை",
        "க்"
      ],
      [
        " பார",
        "ா"
      ],
      [
        " பல்க",
        "லைக்கழக"
      ],
      [
        "திய",
        "ின்"
      ],
      [
        " பிற",
        "ந்த"
      ],
      [
        " த",
        "ண்ட"
      ],
      [
        "ிருந்த",
        "னர்"
      ],
      [
        " பகுதி",
        "களில்"
      ],
      [
        " கால",
        "த்தில்"
      ],
      [
        " வி",
        "ழு"
      ],
      [
        "ாள",
        "ராக"
      ],
      [
        " நிறுவ",
        "னம்"
      ],
      [
        "ம",
        "ற்ற"
      ],
      [
        " ஆ",
        "ட்ட"
      ],
      [
        " மூ",
        "த்த"
      ],
      [
        "விட்ட",
        "ார்"
      ],
      [
        "அத",
        "னால்"
      ],
      [
        " ரஷ்ய",
        "ா"
      ],
      [
        " மே",
        "ம்ப"
      ],
      [
        "டு",
        "க்கும்"
      ],
      [
        " ஆர",
        "ம்பி"
      ],
      [
        "ந்த",
        "ில்"
      ],
      [
        " போ",
        "ர்"
      ],
      [
        " இட",
        "ம்"
      ],
      [
        "ட",
        "ல்"
      ],
      [
        " ஆ",
        "வ"
      ],
      [
        " திரும",
        "ணம்"
      ],
      [
        " பய",
        "ணம்"
      ],
      [
        "்க",
        "ளுக்கு"
      ],
      [
        " அதிக",
        "ம்"
      ],
      [
        " சீ",
        "ன"
      ],
      [
        "ாவ",
        "ும்"
      ],
      [
        "ர",
        "க"
      ],
      [
        " கா",
        "ட்ட"
      ],
      [
        "எ",
        "ன்"
      ],
      [
        "க்க",
        "ண"
      ],
      [
        "த்த",
        "ின"
      ],
      [
        "ன்னு",
        "டைய"
      ],
      [
        " அ",
        "தே"
      ],
      [
        " உ",
        "ற்ப"
      ],
      [
        "ிய",
        "ர்கள்"
      ],
      [
        " பிர",
        "தி"
      ],
      [
        "இ",
        "ர"
      ],
      [
        " ம",
        "றை"
      ],
      [
        " ஆத",
        "ரவு"
      ],
      [
        " ம",
        "னு"
      ],
      [
        " போ",
        "ல்"
      ],
      [
        " வெளிய",
        "ிட்ட"
      ],
      [
        "வர",
        "து"
      ],
      [
        " ய",
        "ார்"
      ],
      [
        "போ",
        "ல்"
      ],
      [
        " கட்டு",
        "ப்பா"
      ],
      [
        " மருத்துவம",
        "னை"
      ],
      [
        " பெ",
        "ண்ண"
      ],
      [
        "ற்க",
        "ு"
      ],
      [
        " வெளிய",
        "ாக"
      ],
      [
        "ங்கி",
        "ணை"
      ],
      [
        " திர",
        "ைப்பட"
      ],
      [
        "க்க",
        "ப்பட்டு"
      ],
      [
        "ப்பட",
        "வில்லை"
      ],
      [
        " இணை",
        "ந்து"
      ],
      [
        "ர",
        "ங்க"
      ],
      [
        "ள",
        "ிக்க"
      ],
      [
        "வ",
        "ற்றை"
      ],
      [
        " ப",
        "ரவ"
      ],
      [
        " உ",
        "தவ"
      ],
      [
        "க்க",
        "ே"
      ],
      [
        " க",
        "ர்"
      ],
      [
        " ஆண்டுக",
        "ளுக்கு"
      ],
      [
        "வ",
        "ிய"
      ],
      [
        "ீ",
        "ர்கள்"
      ],
      [
        "ங்கள",
        "ாக"
      ],
      [
        " எ",
        "ச்ச"
      ],
      [
        " குறிப்பிடத்தக்க",
        "து"
      ],
      [
        " திரு",
        "ப்ப"
      ],
      [
        " ",
        ","
      ],
      [
        "ந",
        "கர்"
      ],
      [
        "ர்கள",
        "ிடம்"
      ],
      [
        ".",
        "ப"
      ],
      [
        "எ",
        "ல்"
      ],
      [
        "த",
        "ையும்"
      ],
      [
        "ஷ",
        "ி"
      ],
      [
        "ப்பட்ட",
        "ன"
      ],
      [
        " நோ",
        "ய"
      ],
      [
        " அவ",
        "சிய"
      ],
      [
        "நாய",
        "க"
      ],
      [
        "ிக",
        "ை"
      ],
      [
        "ாய",
        "ம்"
      ],
      [
        " திரு",
        "விழ"
      ],
      [
        " நடைபெ",
        "ற"
      ],
      [
        " கூட",
        "ாது"
      ],
      [
        "க்க",
        "ை"
      ],
      [
        " இ",
        "ள"
      ],
      [
        " நடைபெ",
        "ற்று"
      ],
      [
        " அளி",
        "த்த"
      ],
      [
        " வ",
        "லை"
      ],
      [
        "ன்",
        "றி"
      ],
      [
        "ட",
        "ாக"
      ],
      [
        "நு",
        "ட்ப"
      ],
      [
        " பால",
        "ியல்"
      ],
      [
        " செய்த",
        "ார்"
      ],
      [
        " இது",
        "வரை"
      ],
      [
        "வ்வ",
        "ளவு"
      ],
      [
        " முய",
        "ற்சி"
      ],
      [
        "ச",
        "ிக்க"
      ],
      [
        " ய",
        "ூ"
      ],
      [
        " தாக்கு",
        "தல்"
      ],
      [
        " ச",
        "ர்ச்ச"
      ],
      [
        "ளு",
        "க்காக"
      ],
      [
        " முன்ன",
        "ே"
      ],
      [
        "o",
        "n"
      ],
      [
        " திரும",
        "ண"
      ],
      [
        "த",
        "ன"
      ],
      [
        " நீ",
        "ண்ட"
      ],
      [
        " நீதிமன்ற",
        "ம்"
      ],
      [
        " செய்ய",
        "ப்பட்டு"
      ],
      [
        " பதி",
        "ல"
      ],
      [
        "அ",
        "ரச"
      ],
      [
        "க",
        "ால"
      ],
      [
        "ன்",
        "பு"
      ],
      [
        " இல்ல",
        "ாமல்"
      ],
      [
        " அ",
        "தில்"
      ],
      [
        " அடைய",
        "ாள"
      ],
      [
        " நா",
        "டுகள்"
      ],
      [
        " சத",
        "வீ"
      ],
      [
        " மாண",
        "வர்கள்"
      ],
      [
        "க்குறி",
        "ப்பு"
      ],
      [
        " உட்ப",
        "ட"
      ],
      [
        "4",
        "0"
      ],
      [
        " ட",
        "ெல்லி"
      ],
      [
        "ொ",
        "லை"
      ],
      [
        " மாண",
        "வி"
      ],
      [
        " இந்த",
        "ப்"
      ],
      [
        " நீ",
        "ர்"
      ],
      [
        " எ",
        "ஸ்"
      ],
      [
        " வி",
        "ப"
      ],
      [
        "ப்ப",
        "டை"
      ],
      [
        "ள்ள",
        "தாக"
      ],
      [
        "ம",
        "ில்"
      ],
      [
        "ெ",
        "ய்"
      ],
      [
        " இட",
        "ம்பெ"
      ],
      [
        " தன",
        "ியார்"
      ],
      [
        "ட்ட",
        "ிற்கு"
      ],
      [
        " கூறுக",
        "ையில்"
      ],
      [
        "ந்த",
        "ிய"
      ],
      [
        "த",
        "மாக"
      ],
      [
        " பண",
        "ியா"
      ],
      [
        " ஆ",
        "ன"
      ],
      [
        "டிய",
        "ில்"
      ],
      [
        " தய",
        "ாரி"
      ],
      [
        "ங்கள",
        "ிலும்"
      ],
      [
        "பட",
        "க்குறிப்பு"
      ],
      [
        "தொட",
        "ர்ந்து"
      ],
      [
        "பி",
        "டி"
      ],
      [
        " வ",
        "சி"
      ],
      [
        " அறிக்க",
        "ை"
      ],
      [
        " உள்ள",
        "ார்"
      ],
      [
        " கோ",
        "ரிக்கை"
      ],
      [
        " நீ",
        "ங்கள்"
      ],
      [
        "ம",
        "ணி"
      ],
      [
        "கு",
        "தி"
      ],
      [
        " ப",
        "த"
      ],
      [
        " வரு",
        "மான"
      ],
      [
        "2",
        "3"
      ],
      [
        " க",
        "டும்"
      ],
      [
        " அ",
        "லங்க"
      ],
      [
        " ஒரு",
        "ங்கிணை"
      ],
      [
        " விச",
        "ாரி"
      ],
      [
        "ப",
        "ட்ட"
      ],
      [
        " த",
        "ரிச"
      ],
      [
        " சுக",
        "ாதார"
      ],
      [
        " ப",
        "ங்கு"
      ],
      [
        "ம",
        "ான்"
      ],
      [
        "ழ",
        "்த்த"
      ],
      [
        " போ",
        "ட்டி"
      ],
      [
        " பின்",
        "ன"
      ],
      [
        " கா",
        "ட்ச"
      ],
      [
        " இருந்த",
        "ாலும்"
      ],
      [
        "ிர",
        "ா"
      ],
      [
        " தலை",
        "மைய"
      ],
      [
        " இ",
        "ங்கு"
      ],
      [
        "வ்வா",
        "று"
      ],
      [
        " அ",
        "ழு"
      ],
      [
        " நட",
        "க்கும்"
      ],
      [
        "க்க",
        "ார"
      ],
      [
        " வ",
        "ிரி"
      ],
      [
        " நா",
        "ட்டின்"
      ],
      [
        "ண",
        "ியில்"
      ],
      [
        " பெய",
        "ர்"
      ],
      [
        "ஷ",
        "ா"
      ],
      [
        "ன்",
        "ஸ்"
      ],
      [
        " உ",
        "ங்கள்"
      ],
      [
        " இருந்த",
        "ார்"
      ],
      [
        " இஸ்ரே",
        "ல்"
      ],
      [
        " இ",
        "ப்படி"
      ],
      [
        " சந்தி",
        "த்து"
      ],
      [
        "ப",
        "ம்"
      ],
      [
        "த்த",
        "ன"
      ],
      [
        " மா",
        "ட்ட"
      ],
      [
        " முடிய",
        "ாத"
      ],
      [
        " தொகு",
        "தி"
      ],
      [
        " போ",
        "ட்டு"
      ],
      [
        " தாக்க",
        "ல்"
      ],
      [
        " ஆண்டுக",
        "ளாக"
      ],
      [
        " மா",
        "தி"
      ],
      [
        " எதிர்பார",
        "்க்க"
      ],
      [
        "இ",
        "ன்று"
      ],
      [
        " கு",
        "ழுவ"
      ],
      [
        " மா",
        "ற"
      ],
      [
        " கூட்ட",
        "ம்"
      ],
      [
        " இருப்ப",
        "தாக"
      ],
      [
        "ழ",
        "க்கு"
      ],
      [
        "மு",
        "றைய"
      ],
      [
        " சட்ட",
        "மன்ற"
      ],
      [
        "a",
        "r"
      ],
      [
        "ப்பு",
        "ற"
      ],
      [
        "இத",
        "ன"
      ],
      [
        " மீ",
        "தான"
      ],
      [
        " பு",
        "ரி"
      ],
      [
        " வ",
        "டி"
      ],
      [
        " எ",
        "ரி"
      ],
      [
        "2",
        "2"
      ],
      [
        " மகி",
        "ழ்ச்ச"
      ],
      [
        "வ",
        "ைய"
      ],
      [
        " தலை",
        "மையில்"
      ],
      [
        "ப",
        "ார்"
      ],
      [
        "ைய",
        "ிலான"
      ],
      [
        " ர",
        "ெ"
      ],
      [
        " போ",
        "க்கு"
      ],
      [
        " ய",
        "ு"
      ],
      [
        " ஜ",
        "ி"
      ],
      [
        " உருவா",
        "க்க"
      ],
      [
        " நான",
        "்கு"
      ],
      [
        " கூ",
        "டிய"
      ],
      [
        "ஷே",
        "கம்"
      ],
      [
        " பல",
        "ர்"
      ],
      [
        "அ",
        "வர்கள்"
      ],
      [
        "த",
        "ார"
      ],
      [
        " வீ",
        "டு"
      ],
      [
        " எல்ல",
        "ாம்"
      ],
      [
        " நிகழ்ச்ச",
        "ி"
      ],
      [
        ".",
        "சி"
      ],
      [
        " தெரிவித்து",
        "ள்ளது"
      ],
      [
        " எண்ண",
        "ிக்கை"
      ],
      [
        " வ",
        "ிக்"
      ],
      [
        "ர",
        "வை"
      ],
      [
        "க்க",
        "ல்"
      ],
      [
        "ய",
        "ூ"
      ],
      [
        " த",
        "ண்ண"
      ],
      [
        " நிறு",
        "த்த"
      ],
      [
        " க",
        "ார்"
      ],
      [
        "ங்க",
        "ா"
      ],
      [
        " மக்க",
        "ளுக்கு"
      ],
      [
        " பிரி",
        "வு"
      ],
      [
        "ிக",
        "ா"
      ],
      [
        " சில",
        "ர்"
      ],
      [
        " ஆண்ட",
        "ில்"
      ],
      [
        "ப்பின",
        "ும்"
      ],
      [
        " ",
        "ரி"
      ],
      [
        " அ",
        "ன்று"
      ],
      [
        " ட",
        "ீ"
      ],
      [
        "ியு",
        "டன்"
      ],
      [
        "ிய",
        "ன்"
      ],
      [
        " ஆர",
        "ம்ப"
      ],
      [
        " அவ",
        "ர்களின்"
      ],
      [
        "்க",
        "ளில்"
      ],
      [
        " ராகு",
        "ல்"
      ],
      [
        "ா",
        "ட்சி"
      ],
      [
        "ாள",
        "ி"
      ],
      [
        " தலை",
        "வர்கள்"
      ],
      [
        " சட்ட",
        "ம்"
      ],
      [
        "உ",
        "லக"
      ],
      [
        "ர",
        "த்தில்"
      ],
      [
        "நா",
        "ள்"
      ],
      [
        " ஒது",
        "க்க"
      ],
      [
        "ன்ன",
        "ையில்"
      ],
      [
        " உ",
        "க்ரை"
      ],
      [
        "ான",
        "ா"
      ],
      [
        " வெ",
        "டி"
      ],
      [
        " அதிகரி",
        "த்து"
      ],
      [
        " குறிப்பி",
        "ட்டு"
      ],
      [
        "ராள",
        "மான"
      ],
      [
        " வே",
        "ல"
      ],
      [
        " அனை",
        "வரும்"
      ],
      [
        "இரு",
        "ப்பினும்"
      ],
      [
        "டிய",
        "ை"
      ],
      [
        " முன்ன",
        "ிட்டு"
      ],
      [
        "அதி",
        "முக"
      ],
      [
        "ில்லிய",
        "ன்"
      ],
      [
        " த",
        "ிக"
      ],
      [
        " சந்த",
        "ிர"
      ],
      [
        "வெ",
        "ளி"
      ],
      [
        "ன்க",
        "ளை"
      ],
      [
        " வ",
        "ன்"
      ],
      [
        ".",
        "தி"
      ],
      [
        "ன",
        "வே"
      ],
      [
        " ச",
        "ோதனை"
      ],
      [
        " வெளிய",
        "ிட"
      ],
      [
        "ரே",
        "ந்திர"
      ],
      [
        " அமை",
        "க்க"
      ],
      [
        "த்த",
        "ே"
      ],
      [
        "ான",
        "ி"
      ],
      [
        " அனும",
        "திக்க"
      ],
      [
        " வ",
        "ரி"
      ],
      [
        " வந்த",
        "ார்"
      ],
      [
        "ஞ்ச",
        "ி"
      ],
      [
        "ர",
        "ூ"
      ],
      [
        " ஒப்ப",
        "ந்த"
      ],
      [
        " ஆலோச",
        "னை"
      ],
      [
        "ெ",
        "டுக்க"
      ],
      [
        " கூற",
        "ியுள்ளார்"
      ],
      [
        "ர",
        "ள"
      ],
      [
        " பல",
        "ரும்"
      ],
      [
        "ற",
        "ையை"
      ],
      [
        "ி",
        "ழமை"
      ],
      [
        " தவ",
        "ற"
      ],
      [
        " அள",
        "வுக்கு"
      ],
      [
        "த",
        "ாவது"
      ],
      [
        "ிக",
        "ளும்"
      ],
      [
        " நிய",
        "மி"
      ],
      [
        "குறி",
        "த்து"
      ],
      [
        "அ",
        "ங்கு"
      ],
      [
        "ரு",
        "டன்"
      ],
      [
        " அறி",
        "வு"
      ],
      [
        " ம",
        "ார்"
      ],
      [
        " அமெரிக்க",
        "ா"
      ],
      [
        "ஜ",
        "ரா"
      ],
      [
        "அத",
        "ாவது"
      ],
      [
        "ஞ",
        "ர்"
      ],
      [
        "ம",
        "ின்"
      ],
      [
        "வ",
        "ச"
      ],
      [
        " கூ",
        "டு"
      ],
      [
        "வு",
        "ன்"
      ],
      [
        " சொல்ல",
        "ி"
      ],
      [
        "ய",
        "ி"
      ],
      [
        " ஆ",
        "ன்"
      ],
      [
        " சு",
        "தந்திர"
      ],
      [
        " ஏற்பட்ட",
        "து"
      ],
      [
        "க",
        "ிறார்"
      ],
      [
        "திய",
        "ான"
      ],
      [
        " தகவ",
        "ல்கள்"
      ],
      [
        "ப்ப",
        "டிய"
      ],
      [
        " முக்கிய",
        "மான"
      ],
      [
        "ன்னீர்",
        "செ"
      ],
      [
        "ய",
        "்ய"
      ],
      [
        " ஆ",
        "று"
      ],
      [
        "இ",
        "ப்போது"
      ],
      [
        " போரா",
        "ட்டம்"
      ],
      [
        "ள",
        "வில்"
      ],
      [
        " ச",
        "ர"
      ],
      [
        "ன்ற",
        "ால்"
      ],
      [
        "நாய",
        "கர்"
      ],
      [
        " ஆயிர",
        "ம்"
      ],
      [
        " தொழில்",
        "நுட்ப"
      ],
      [
        ")",
        ","
      ],
      [
        " பொரு",
        "ட்க"
      ],
      [
        " அ",
        "டிக்க"
      ],
      [
        " காவல்து",
        "றை"
      ],
      [
        ".",
        "ஆர்"
      ],
      [
        " மாவட்ட",
        "த்தில்"
      ],
      [
        "ில",
        "ை"
      ],
      [
        " தொ",
        "லை"
      ],
      [
        "அ",
        "ம"
      ],
      [
        "ந",
        "ிய"
      ],
      [
        "ப்ப",
        "ும்"
      ],
      [
        "ால",
        "ையில்"
      ],
      [
        " க",
        "டன்"
      ],
      [
        "ங்கள",
        "ையும்"
      ],
      [
        "ில",
        "ுள்ள"
      ],
      [
        " கடு",
        "மையாக"
      ],
      [
        " ஆ",
        "ர்வ"
      ],
      [
        "வி",
        "டம்"
      ],
      [
        "`",
        "`"
      ],
      [
        "க",
        "ிர"
      ],
      [
        "ர",
        "ன்"
      ],
      [
        " ப",
        "தில்"
      ],
      [
        " போ",
        "ன"
      ],
      [
        " ஆண்டுக",
        "ள்"
      ],
      [
        " அறி",
        "முக"
      ],
      [
        " தர",
        "ப்பு"
      ],
      [
        "ட்ட",
        "ிக்க"
      ],
      [
        "இத",
        "னை"
      ],
      [
        " அறிவி",
        "க்க"
      ],
      [
        "ியு",
        "ள்ளனர்"
      ],
      [
        " க",
        "ழி"
      ],
      [
        " அனு",
        "ப"
      ],
      [
        " வ",
        "ான"
      ],
      [
        " கோவில",
        "ில்"
      ],
      [
        " குற்றச்ச",
        "ாட்டு"
      ],
      [
        "வ",
        "ால்"
      ],
      [
        " என்",
        "னை"
      ],
      [
        " மா",
        "றி"
      ],
      [
        "சி",
        "ங்க"
      ],
      [
        "நா",
        "டு"
      ],
      [
        "ய",
        "ர்"
      ],
      [
        " விற்ப",
        "னை"
      ],
      [
        "ர்",
        "மா"
      ],
      [
        "க்",
        "ஸ்"
      ],
      [
        "e",
        "n"
      ],
      [
        " ப",
        "டம்"
      ],
      [
        "வரு",
        "க்கும்"
      ],
      [
        " ம",
        "த்தியில்"
      ],
      [
        " ஆர",
        "ாய"
      ],
      [
        " ஒ",
        "ப்பு"
      ],
      [
        " இறு",
        "தி"
      ],
      [
        "எ",
        "ன்று"
      ],
      [
        "மு",
        "ன்ன"
      ],
      [
        " ஆ",
        "தி"
      ],
      [
        " மே",
        "ல"
      ],
      [
        " க",
        "ிலோ"
      ],
      [
        " தே",
        "டி"
      ],
      [
        " வெ",
        "ள"
      ],
      [
        " உயிரி",
        "ழந்த"
      ],
      [
        " உடன",
        "டியாக"
      ],
      [
        "வ",
        "ார"
      ],
      [
        "டு",
        "ப்பு"
      ],
      [
        " போலீ",
        "ஸ்"
      ],
      [
        "ஜ",
        "ெ"
      ],
      [
        "களை",
        "ப்"
      ],
      [
        " பாதிக்க",
        "ப்பட்ட"
      ],
      [
        "க்க",
        "ால"
      ],
      [
        " கூட்ட",
        "த்தில்"
      ],
      [
        " ம",
        "ண"
      ],
      [
        " எழு",
        "ந்த"
      ],
      [
        "ச",
        "ல்"
      ],
      [
        " பு",
        "தி"
      ],
      [
        "ப்போ",
        "தும்"
      ],
      [
        " இருப்ப",
        "து"
      ],
      [
        ".",
        ","
      ],
      [
        ".",
        "டி"
      ],
      [
        "ப",
        "ொரு"
      ],
      [
        " மு",
        "றையில்"
      ],
      [
        " மக",
        "ன்"
      ],
      [
        "o",
        "r"
      ],
      [
        "டை",
        "ந்து"
      ],
      [
        " குறை",
        "ந்த"
      ],
      [
        "ப",
        "ட்ச"
      ],
      [
        " ச",
        "ை"
      ],
      [
        " ஏ",
        "ராளமான"
      ],
      [
        " அவ",
        "ர்களுக்கு"
      ],
      [
        " சந்த",
        "ே"
      ],
      [
        " முன்",
        "வை"
      ],
      [
        " கிர",
        "ிக்க"
      ],
      [
        "ம",
        "டைந்த"
      ],
      [
        "வி",
        "டும்"
      ],
      [
        " பு",
        "ல"
      ],
      [
        " கவ",
        "னம்"
      ],
      [
        " முதல",
        "மைச்சர்"
      ],
      [
        "ந",
        "ெ"
      ],
      [
        " முறைய",
        "ாக"
      ],
      [
        "வ",
        "ால"
      ],
      [
        " உ",
        "ற்ச"
      ],
      [
        "ஸ்த",
        "ிரே"
      ],
      [
        "2",
        "1"
      ],
      [
        "பொ",
        "து"
      ],
      [
        " ந",
        "கர்"
      ],
      [
        "ண்ட",
        "ை"
      ],
      [
        " தெ",
        "ளி"
      ],
      [
        "ற",
        "வு"
      ],
      [
        "ர",
        "ான்"
      ],
      [
        " த",
        "ாய்"
      ],
      [
        " அ",
        "ம்ப"
      ],
      [
        " சம",
        "ய"
      ],
      [
        " ப",
        "ண்ண"
      ],
      [
        " ர",
        "ன்கள்"
      ],
      [
        " பே",
        "சி"
      ],
      [
        " ப",
        "கி"
      ],
      [
        " இ",
        "வர்"
      ],
      [
        "நா",
        "த்"
      ],
      [
        " இருந்த",
        "ால்"
      ],
      [
        " வி",
        "ளை"
      ],
      [
        "போ",
        "ன்ற"
      ],
      [
        " நீதிமன்ற",
        "த்தில்"
      ],
      [
        "சா",
        "லை"
      ],
      [
        " ப",
        "ற்றிய"
      ],
      [
        "..",
        ".."
      ],
      [
        "இந்த",
        "ியா"
      ],
      [
        " இந்திய",
        "ாவில்"
      ],
      [
        "வ",
        "ந்த"
      ],
      [
        "செய",
        "்ய"
      ],
      [
        "க்கூட",
        "ாது"
      ],
      [
        " சின்",
        "ன"
      ],
      [
        " மாநில",
        "ம்"
      ],
      [
        " எது",
        "வும்"
      ],
      [
        "ீ",
        "ஸ்"
      ],
      [
        " சம",
        "ீ"
      ],
      [
        " ஓ",
        "ய்"
      ],
      [
        "எ",
        "ன்ன"
      ],
      [
        " க",
        "ால்"
      ],
      [
        " க",
        "ான்"
      ],
      [
        " மருத்துவம",
        "னையில்"
      ],
      [
        " ஹ",
        "ி"
      ],
      [
        "a",
        "l"
      ],
      [
        "ு",
        "ம"
      ],
      [
        " வ",
        "ண"
      ],
      [
        " விவகார",
        "ம்"
      ],
      [
        " ப",
        "ற"
      ],
      [
        "நா",
        "டக"
      ],
      [
        " அனு",
        "ப்பி"
      ],
      [
        " ந",
        "ண்ப"
      ],
      [
        "ட",
        "ே"
      ],
      [
        " ஈடுப",
        "ட்டு"
      ],
      [
        " அந்த",
        "ப்"
      ],
      [
        "த்த",
        "னை"
      ],
      [
        " நா",
        "ட்டில்"
      ],
      [
        "ிய",
        "ம்"
      ],
      [
        " ந",
        "ரேந்திர"
      ],
      [
        "த்",
        "ய"
      ],
      [
        "வு",
        "க"
      ],
      [
        " பி",
        "பிசி"
      ],
      [
        " முடிய",
        "வில்லை"
      ],
      [
        " சா",
        "லை"
      ],
      [
        " மக்க",
        "ளின்"
      ],
      [
        " பண",
        "ிய"
      ],
      [
        "பா",
        "ஜக"
      ],
      [
        " இரு",
        "வரும்"
      ],
      [
        " தேவ",
        "ையான"
      ],
      [
        " கண்கா",
        "ணி"
      ],
      [
        "இ",
        "வர்"
      ],
      [
        "ச",
        "ர"
      ],
      [
        "ச்ச",
        "ே"
      ],
      [
        " மேற்க",
        "ொண்ட"
      ],
      [
        " வேண்ட",
        "ாம்"
      ],
      [
        " நி",
        "திய"
      ],
      [
        " ஹ",
        "ெ"
      ],
      [
        " கை",
        "ப்ப"
      ],
      [
        "நீ",
        "ர்"
      ],
      [
        "ப்பெ",
        "ரிய"
      ],
      [
        "ங்க",
        "ை"
      ],
      [
        " கு",
        "ழ"
      ],
      [
        " சீ",
        "னா"
      ],
      [
        "குறி",
        "ப்பாக"
      ],
      [
        "த்தக",
        "ைய"
      ],
      [
        "க்கண",
        "க்கான"
      ],
      [
        " ப",
        "கவ"
      ],
      [
        " ம",
        "ார"
      ],
      [
        "ப்ப",
        "தி"
      ],
      [
        "ன",
        "ோ"
      ],
      [
        " அ",
        "க்க"
      ],
      [
        "ிட",
        "்"
      ],
      [
        " நா",
        "ட்கள்"
      ],
      [
        " ப",
        "ட்டிய"
      ],
      [
        " க",
        "ழக"
      ],
      [
        " இந்திய",
        "ாவின்"
      ],
      [
        " மூ",
        "ன்ற"
      ],
      [
        " ட",
        "ாக"
      ],
      [
        " வ",
        "கை"
      ],
      [
        "வ",
        "ோ"
      ],
      [
        "ட்",
        "பு"
      ],
      [
        " பிரத",
        "ம"
      ],
      [
        " அ",
        "ப"
      ],
      [
        " கால",
        "ம்"
      ],
      [
        " ஆகிய",
        "ோ"
      ],
      [
        "ால",
        "்தான்"
      ],
      [
        "தற்க",
        "ும்"
      ],
      [
        " குறிப்பிட்ட",
        "ார்"
      ],
      [
        "ர",
        "ாம"
      ],
      [
        " அதி",
        "ர்ச்ச"
      ],
      [
        " ",
        "லா"
      ],
      [
        " பாரா",
        "ளுமன்ற"
      ],
      [
        " சே",
        "ர்க்க"
      ],
      [
        "வர்க",
        "ளில்"
      ],
      [
        "ுக",
        "ிறது"
      ],
      [
        "ர",
        "்ட"
      ],
      [
        "ஹ",
        "ா"
      ],
      [
        "ன",
        "ாக"
      ],
      [
        " ச",
        "ிர"
      ],
      [
        " த",
        "ன்னுடைய"
      ],
      [
        "வா",
        "தி"
      ],
      [
        " த",
        "ாய"
      ],
      [
        " நடக்க",
        "ிறது"
      ],
      [
        " மா",
        "ற்று"
      ],
      [
        " அதிகார",
        "ி"
      ],
      [
        " ஒன்ற",
        "ை"
      ],
      [
        "வ",
        "ாய்"
      ],
      [
        "ற்க",
        "ை"
      ],
      [
        " கா",
        "ட்டு"
      ],
      [
        "றைய",
        "ினர்"
      ],
      [
        "அ",
        "வ"
      ],
      [
        "ஞ",
        "ான"
      ],
      [
        "ராஜ",
        "்"
      ],
      [
        "ஆ",
        "க"
      ],
      [
        " கா",
        "த்த"
      ],
      [
        " ம",
        "ிர"
      ],
      [
        " அவ",
        "்"
      ],
      [
        "பிற",
        "கு"
      ],
      [
        " தெ",
        "ாட"
      ],
      [
        "டுக",
        "ிறது"
      ],
      [
        " முய",
        "ற்ச"
      ],
      [
        " ",
        "ஸ்க"
      ],
      [
        "ட",
        "ர்"
      ],
      [
        " வ",
        "ன"
      ],
      [
        " சிற",
        "ப்பாக"
      ],
      [
        " நிறைவே",
        "ற்ற"
      ],
      [
        "-",
        "ஆம்"
      ],
      [
        "ப்ப",
        "ிய"
      ],
      [
        " ஆ",
        "னால்"
      ],
      [
        "ு",
        "மா"
      ],
      [
        " ந",
        "ாக"
      ],
      [
        " சே",
        "ர்ந்து"
      ],
      [
        " விமர்",
        "சி"
      ],
      [
        " த",
        "ற்ப"
      ],
      [
        " அ",
        "ம்மன்"
      ],
      [
        "ங்கள",
        "து"
      ],
      [
        " ப",
        "றி"
      ],
      [
        "ா",
        "லை"
      ],
      [
        " ப",
        "ால்"
      ],
      [
        "வு",
        "களை"
      ],
      [
        " த",
        "ான"
      ],
      [
        "ன்",
        "மை"
      ],
      [
        "மா",
        "ள்"
      ],
      [
        "ற்ற",
        "ின்"
      ],
      [
        " நா",
        "ளை"
      ],
      [
        "நா",
        "ட்டில்"
      ],
      [
        " ஏற்ப",
        "ட"
      ],
      [
        " ஷ",
        "ா"
      ],
      [
        " ர",
        "ே"
      ],
      [
        "ள",
        "ையும்"
      ],
      [
        " ப",
        "க்க"
      ],
      [
        "னை",
        "கள்"
      ],
      [
        " புக",
        "ைப்பட"
      ],
      [
        "ீர",
        "ென"
      ],
      [
        "ூ",
        "ரில்"
      ],
      [
        "த்திர",
        "ை"
      ],
      [
        "ம",
        "்தான்"
      ],
      [
        "இ",
        "ல்"
      ],
      [
        "ஸ்",
        "லி"
      ],
      [
        " க",
        "ப்ப"
      ],
      [
        " மிக",
        "ப்பெரிய"
      ],
      [
        "ரு",
        "மான"
      ],
      [
        " செய்ய",
        "ப்பட்டது"
      ],
      [
        "ம",
        "க்கு"
      ],
      [
        "ழ",
        "ும்"
      ],
      [
        "த்தை",
        "த்"
      ],
      [
        "பு",
        "ண"
      ],
      [
        " போட்ட",
        "ியில்"
      ],
      [
        " சக",
        "ோத"
      ],
      [
        "ட",
        "ன"
      ],
      [
        "ம",
        "ிக"
      ],
      [
        "ுவ",
        "ார்த்த"
      ],
      [
        "ப",
        "ய"
      ],
      [
        "ர",
        "ையில்"
      ],
      [
        "ழ",
        "ில்"
      ],
      [
        " இ",
        "ன"
      ],
      [
        "ிருக்க",
        "ிறார்கள்"
      ],
      [
        " உய",
        "ிர"
      ],
      [
        " பேச",
        "ினார்"
      ],
      [
        " வீர",
        "ர்கள்"
      ],
      [
        "ான",
        "ை"
      ],
      [
        "ம",
        "த்திய"
      ],
      [
        " ப",
        "்"
      ],
      [
        " அத",
        "னை"
      ],
      [
        " இ",
        "ன்ற"
      ],
      [
        " அவ",
        "ர்களை"
      ],
      [
        " அவர",
        "ின்"
      ],
      [
        "ல",
        "லி"
      ],
      [
        "ா",
        "ண்டு"
      ],
      [
        "த்த",
        "ிலிருந்து"
      ],
      [
        "ாக",
        "ும்"
      ],
      [
        "ிரு",
        "ப்பது"
      ],
      [
        " க",
        "த"
      ],
      [
        " குழந்த",
        "ைகள்"
      ],
      [
        " ம",
        "ாக"
      ],
      [
        " செய்",
        "வது"
      ],
      [
        "க்க",
        "ொண்டு"
      ],
      [
        "வர",
        "த்து"
      ],
      [
        " சட்ட",
        "ச"
      ],
      [
        " நோ",
        "க்கி"
      ],
      [
        " விஜ",
        "ய"
      ],
      [
        "வ",
        "ியல்"
      ],
      [
        "ப்ப",
        "ூர்"
      ],
      [
        " க",
        "ும்ப"
      ],
      [
        " த",
        "ாம"
      ],
      [
        "ல்ல",
        "ா"
      ],
      [
        " மேற்க",
        "ு"
      ],
      [
        "ச",
        "ர்"
      ],
      [
        "வ",
        "ருக"
      ],
      [
        "மி",
        "ட"
      ],
      [
        " வார",
        "்த்த"
      ],
      [
        "ப்ப",
        "ர்"
      ],
      [
        " சொ",
        "ல்க"
      ],
      [
        "ப",
        "ான்"
      ],
      [
        " உ",
        "டன்"
      ],
      [
        "ுக",
        "ளை"
      ],
      [
        " கோயில",
        "ில்"
      ],
      [
        "ன",
        "ைய"
      ],
      [
        "வி",
        "த"
      ],
      [
        " மட்டும",
        "ல்ல"
      ],
      [
        " இ",
        "தில்"
      ],
      [
        " வழங்க",
        "ுவ"
      ],
      [
        "ப்படுக",
        "ின்றன"
      ],
      [
        "இந்த",
        "ப்"
      ],
      [
        " மது",
        "ரை"
      ],
      [
        "ின்ற",
        "து"
      ],
      [
        "க",
        "ூ"
      ],
      [
        "ந்து",
        "ள்ள"
      ],
      [
        " க",
        "ல்"
      ],
      [
        " த",
        "ரு"
      ],
      [
        " ர",
        "ண"
      ],
      [
        "த்து",
        "வம்"
      ],
      [
        " ம",
        "ருந்து"
      ],
      [
        "த்திற்க",
        "ும்"
      ],
      [
        " யார",
        "ும்"
      ],
      [
        " உ",
        "டை"
      ],
      [
        " செய்த",
        "து"
      ],
      [
        " ஆய",
        "ுத"
      ],
      [
        " அண்ண",
        "ாமலை"
      ],
      [
        " தொ",
        "ண்ட"
      ],
      [
        " சே",
        "ர்த்து"
      ],
      [
        " வி",
        "திக்க"
      ],
      [
        " ஹ",
        "ோ"
      ],
      [
        " அள",
        "வு"
      ],
      [
        " க",
        "ௌ"
      ],
      [
        "ளி",
        "த்த"
      ],
      [
        " சிற",
        "ந்த"
      ],
      [
        " பண",
        "ிகள்"
      ],
      [
        " எ",
        "ங்கள்"
      ],
      [
        " கொ",
        "ல்ல"
      ],
      [
        "வே",
        "ண்டும்"
      ],
      [
        " ஆக",
        "ும்"
      ],
      [
        " பயி",
        "ற்சி"
      ],
      [
        " போ",
        "ய்"
      ],
      [
        "ரா",
        "சிர"
      ],
      [
        " நி",
        "புண"
      ],
      [
        "த",
        "ூ"
      ],
      [
        "கார",
        "ா"
      ],
      [
        "வ",
        "ாத"
      ],
      [
        "ர",
        "்ட்"
      ],
      [
        " வா",
        "ங்கி"
      ],
      [
        " இய",
        "க்க"
      ],
      [
        " மாற்ற",
        "ம்"
      ],
      [
[...]
