#version: 0.2
  t
  a
h e
i n
r e
o n
 t he
  s
e r
  w
a t
e n
  c
o r
i t
e d
a n
in g
  o
  f
i s
  b
e s
  p
a r
 t o
n d
. 

a l
o u
  in
  h
  m
a s
 o f
  d
 a nd
i c
l e
 t h
o m
i on
i d
i l
en t
  l
  re
s t
v e
  n
o t
 b e
  g
  e
l y
u t
a y
  on
a c
i m
r o
a d
' s
a m
 f or
  he
e t
u r
e l
i g
  S
o w
o l
 th at
v er
  is
 s t
i r
  I
T he
e c
u s
t er
it h
  C
  M
  it
  A
  y
 w h
 w ith
 w as
 a s
at ion
c e
il l
  B
 a l
u n
  "
 a n
 w e
er s
 a t
l d
t h
r a
  T
s e
u l
r i
k e
  P
 h a
a g
 s a
an d
h t
m ent
c h
es t
 c on
he r
p p
at e
, "
c t
i f
o re
r om
re s
  r
 y ou
u m
  R
  H
 sa id
  D
 c om
e ar
o p
or t
 a re
 h is
  v
e m
 ha ve
it y
a in
o c
 h as
o d
e w
  G
  N
 f rom
2 0
 s h
ar t
o s
a b
 e x
  W
re d
es s
 c h
  L
 b y
an t
is t
ou ld
i ve
u st
 p ro
q u
ig ht
  le
u p
  F
 d e
 n ot
as t
 s e
en d
al l
  -
i es
ac k
ou r
  J
i a
 p l
  j
a k
 s u
ou t
n t
 g o
 a b
  E
 th is
ar d
 s p
  or
ec t
i v
o st
i al
  U
. "
r ou
u d
om e
 wh o
" :
 he r
 w he
 w ill
 the y
g e
on g
 w or
o k
 the ir
' t
 b ut
  k
f f
el l
." 

ic e
ic h
in e
 o ut
  K
0 0
 h ad
id e
e p
r y
 c an
 a d
  (
 y ear
 be en
  O
f ter
 s he
a p
 d o
g h
an s
al ly
 in t
c c
  up
 of f
on e
im e
ag e
ou s
u re
 c l
 n e
 al l
 a g
  The
ion s
 m e
 we re
  un
s o
u b
u nd
i e
i p
 m ore
at ed
am e
 ab out
 in c
 a fter
u e
m er
t her
ay s
 wh ich
i ke
b er
a re
 ex p
a ke
or d
ar y
i an
 al so
 on e
 p e
20 2
  us
 o ver
 s o
ver y
ig n
on d
or m
  en
ac e
  im
 com p
op le
id ent
": "
in d
 l o
 re s
 con t
ou nt
i le
 w ould
ac t
 p art
 it s
res s
 re p
 pe ople
i re
I t
 S t
v en
ir st
 p r
ic k
 C h
ic t
 m an
 l ike
 whe n
an ce
 p er
w o
 t r
 re c
ow n
re e
a v
 j ust
ol d
as s
p t
en ce
it e
 d is
ul t
 p ol
 th an
ation s
l o
ar k
," "
 m y
 wor k
is h
 a pp
 n ew
 the re
o se
d ay
he d
f orm
 t ime
 s c
ab le
 be c
le ct
oc k
 a r
um p
 the m
  qu
a il
 a cc
n ing
 int o
T h
in k
 k n
i b
e re
l l
a us
u c
 h im
 g et
 f irst
en s
ou nd
e k
 o ther
am p
il d
o g
  ro
 s ome
ac h
  V
 t wo
as e
 wh at
ic al
 at t
I n
 pl ay
in t
re at
or s
n e
i z
 c ould
ad e
r it
ub l
  '
 p re
 im p
 T r
m ed
 o ur
 b ack
 t e
an c
 you r
w n
H e
 ag ain
r u
an g
 an y
 c o
 year s
1 9
 ad d
n g
it ion
 d ec
i ous
ing s
l ud
t y
 a ct
ol l
  if
a w
 l ast
rou nd
or y
 n o
w e
l and
  und
er v
ig h
aus e
 f e
 a m
at es
 s ec
f ore
ur ing
p e
ot her
it t
 in v
  Y
ur n
res ident
p s
 b o
 T h
a x
ve l
 n ow
c o
 inc lud
 h ow
o v
ment s
en c
 be t
f t
is s
 Tr ump
 d id
W e
id th
at er
w idth
al s
 sh ow
 com m
 und er
 su pp
ver s
ver n
h ing
on s
 w ant
l i
r is
 c ount
ak ing
 I n
 we ek
B ut
 be fore
 b r
 m on
 re m
 f in
 o p
 be ing
 ne ed
. .
ubl ic
{ "
s s
ation al
if e
o int
x t
' re
il y
 whe re
ar g
at ing
 e very
 st ate
 on ly
 d es
in ce
v ent
at h
er t
ou gh
 le ad
a h
f ul
m an
us s
g u
 th ink
 lo ok
ro w
 I s
 rep ort
 t ra
o b
u ch
o ve
 bec ause
ou n
rou gh
1 0
 m ost
re n
a z
al ity
t ing
 s ay
 f am
 in ter
l es
 again st
 N ew
it ies
 con s
 m ake
 e ven
is e
f it
o od
os s
 c all
 the n
 kn ow
 e m
as ter
i ed
  end
 wh ile
 re g
it ed
 m in
 e lect
 a c
w ard
 b l
el f
 to ld
 go vern
20 1
 in d
if f
 he l
ers on
g ht
 I t
a ut
u es
 e ar
 mon th
 th rough
 th ree
  ra
l ed
 m ed
 d own
he n
an k
 d on
 w in
 st art
v ed
a red
i ew
h ip
r am
 m ade
as on
 l ong
 re t
ri b
 de f
 H e
 d uring
al k
 w ar
a ir
 go ing
 con f
 w ell
  ke
ot e
c om
ill ion
 U n
 b u
g g
d u
Th is
' ve
 r ight
u k
ent s
 te am
 c r
 s ur
 se e
 man y
ra el
 s et
an y
e e
 f l
p h
ot h
 off ic
 s ays
} ,
i x
 w ay
}, {"
as ed
o ol
v ing
  $
 as s
  very
5 0
 th ose
ou se
 o wn
 re l
er ing
 c ent
 a round
3 0
 hel p
? 

 h ome
or k
 sh ould
w ay
a u
 d ay
n er
 c ar
al th
00 0
1 2
' m
ter s
  £
at ch
 res p
 supp ort
 ch ild
an ge
 m uch
ot t
as h
oll ow
 t ake
 h igh
r ong
 govern ment
at ive
 s ign
o ot
 w om
ro ss
 s ince
im es
 includ ing
W h
our t
 st ill
le t
 the se
p l
e ver
 p h
at her
ord ing
et s
 go od
mer ic
u res
on t
ect ed
ul ar
/ /
 L e
- b
: //
t ps
 m ay
ow er
ic s
c ed
he s
 M r
 d iff
4 5
ht tps
e red
g an
n ed
o y
 s m
 l aw
p r
 f ound
 Is rael
 wor ld
 in s
A nd
 r un
h n
en er
1 5
1 7
we en
am es
 I nd
l ing
ib le
 inv est
iv es
med ia
le g
i el
if ic
em ber
a j
- t
S he
at t
id en
u al
 count ry
 cont in
 p oint
 f our
 re ally
om et
 g u
 f ollow
 F r
 su ch
4 0
 l ife
s on
 A meric
i k
r ic
 t er
. uk
. co
 for mer
il ity
 bet ween
6 0
b le
 fe el
 ha pp
ad y
ag es
" I
ic es
r c
 c amp
a im
 s erv
is ter
it al
  ent
- y
 p resident
 be l
r at
 s er
 c ap
al e
le ment
is ed
du ct
and s
a ve
 fam ily
ire ct
m s
 add ed
 re f
 t ri
 b ig
ul l
 sec ond
 do es
g et
s rc
l ock
p g
1 8
s h
 le g
. j
. gu
 S h
 in f
.j pg
p er
.gu im
 e ff
ou th
 p erson
m in
is ion
 c ol
 pol it
 p ublic
c on
c er
 p ost
 c are
 M ar
l ine
re t
-y ear
y s
 he ad
 c le
 an n
 g rou
1 1
- f
 B iden
 H ar
qu ality
 b us
 R uss
ri end
 p ut
 g ame
 le ft
e b
in a
 pro v
The y
 is s
 f il
 S c
 g ot
 an other
v es
 s l
 att ack
 g r
 de p
 m il
 J o
 cl aim
od y
n ess
en e
 pr ot
 s y
ut e
m aster
 as k
ist s
 tr ans
i er
 U S
 b est
 ne xt
 l oc
is hed
es p
e x
 st ud
aut o
 A nd
 A l
The re
in ess
 b oth
 s oc
 pl an
ch ool
iel d
 rec ent
 com e
/ im
m ax
 d el
 d et
t on
u ally
ial ly
 f ar
 ex t
/ master
u ro
 o pp
form at
in es
 op en
 m ark
& s
/im g
& fit
& quality
& auto
= max
= format
? width
red it
 s omet
pp ed
or n
ou ght
u g
ant s
) 

 l ot
 he alth
 A r
/ media
e f
re m
 c he
i o
 s ame
em oc
 su b
 to o
 c ur
s elf
 se ason
 sp e
 n um
j ect
 S p
 e vent
k ra
 p ass
 n ear
 d irect
20 0
 f r
ur y
uc k
om m
ur s
in s
 f ind
r al
< /
b e
A s
 in st
1 4
 pl ace
ak es
 ne ver
w ays
ut h
it s
i vers
b ers
a ign
8 5
O n
enc y
' 

ir d
r ation
 to p
a f
 p ri
 m em
ort s
en se
ol og
v ious
 W h
 acc ording
v iew
er i
ion al
 P resident
ec ut
 sp ec
 t ry
 g reat
 d ays
 diff ere
th ing
 m illion
8 0
s ide
 he re
en g
 offic ial
 v ot
c es
d d
 camp aign
re nt
 R ep
 comm un
 p ay
2 5
 st ar
ie f
 b re
iv ing
 med ia
one y
 ad v
1 6
 U K
 p res
 child ren
2 4
. S
- c
i red
 inc re
 pol ice
is m
 wom en
c k
u red
in ed
 us e
 B ut
 rem ain
 re st
 U kra
con om
ter n
 o b
- old
 p rom
 c ourt
 elect ion
 k ill
al d
 ac ross
 f ac
 a ir
 exp l
 v is
c ess
 part y
 f ive
 d ri
aj or
 comp any
- p
 R e
ne y
 f ew
 m iss
g y
 c ase
 n ight
 g ener
 l a
Th at
 did n
 w r
 re le
 w on
 us ed
b r
al f
t en
 s chool
 ke ep
 se en
.. .
- s
 a way
 c re
 P r
 to ok
 s im
 bus iness
 grou p
g ed
ar ge
 be h
itt le
os ed
 month s
 E uro
 m ov
vel op
) ,
 you ng
emoc rat
p le
 e l
 W e
id ay
 al ways
 call ed
or th
ate ly
Y ou
 l ater
  Z
d er
 ar t
 B l
 c ost
 th ings
 somet hing
 r is
 de b
1 3
our s
 c ame
 report ed
 f riend
 h and
 M in
ar ing
 re al
H ow
 h op
 m om
n es
 res ult
i et
 t urn
 dis c
 E ng
 e conom
at ur
ce pt
 m ight
 B rit
 h ard
 bel ie
 ret urn
 s k
st em
 exp eri
od el
 a v
 t alk
 p os
ic ally
 a ff
 g row
 s ix
d uc
 mil it
ag ue
 bu ild
 soc ial
 p ower
 st r
 with out
 pro g
c hed
 qu est
h am
if t
 m ajor
 ann oun
I f
us ed
i ver
A n
 all ow
l ess
ru ct
 m et
 rec ord
F or
' ll
ur ity
 Un ited
 w ent
e le
 lo ve
an n
 re qu
end ing
r ist
u ed
 s w
 d em
 f oot
 un t
 p ast
3 5
 bet ter
 l ittle
 part ic
le y
 differe nt
 f ore
 p op
 st re
 app ro
 e ach
2 2
re ady
st er
os p
 m ove
 d ist
ri es
 imp ort
 his t
 me et
ere st
 f act
 re ce
 al ong
 S he
 b ro
 ha ving
ain ed
i ans
 j ob
C redit
ak en
i ent
 st and
a ff
a pp
b all
 happ en
 Y ork
 e v
on y
 D emocrat
 de velop
 p ress
 v ict
 p oss
 m aking
 h um
id ed
 re ve
S t
 m oney
lo y
W hen
in al
iv en
 op er
o ber
 al ready
9 0
re nd
ain t
 pro duct
 l ess
 c ity
 sy stem
  [
 polit ical
 sa f
 Rep ublic
. '

ar m
i ol
 de al
at s
 de ath
e ad
el t
  est
en n
 ch ange
 cle ar
  ve
' d
 m us
 v ide
 pol ic
are nt
 le t
 fin al
 num ber
b y
 s ing
 work ing
 per form
 wr ote
 unt il
o ok
t he
- d
re st
re en
 M c
 cur rent
az a
ac y
 c or
 in j
 new s
 A n
he ad
 w ater
c ent
 ear ly
at a
iv ed
au gh
ert ain
 o ld
ar s
p ort
 m en
 M ay
 int erest
an e
un e
 C l
 inter n
 c rit
ut es
2 6
p ect
ab ly
uth or
y ing
2 7
ot s
 b all
ut ion
 s it
 al leg
at ter
 Euro pe
 st ri
 v iew
g er
 s ent
 inf l
 h ost
S o
 f ull
am ent
 t imes
" The
 f und
- m
 s um
 loc al
2 8
  X
 th ought
 cont ro
 bec ome
 le vel
 con d
 C ar
3 3
 A m
 ab le
 invest ig
cc ess
  ed
in ing
 se em
 milit ary
ec h
r on
 p ot
anc es
ent ial
 con cer
 c ut
r act
 P h
 c ou
it ing
 ex c
1 00
b s
a i
 follow ing
n ce
B C
 th ird
 s ide
 m ust
 sm all
 pre vious
id d
 t ell
 Har ris
iz ed
at ure
 Ukra ine
li er
b lock
on ald
 ask ed
 app ear
ward s
em pt
" We
 t est
or ld
 cl ose
 f ur
as es
 ch all
 H ouse
 say ing
 S outh
 mem bers
 state ment
 t ax
e g
o x
 Ind ia
 com es
 Americ an
 New s
r ict
 or gan
ir l
 wh y
ort un
 h alf
 ch ang
 P al
ivers ity
 d ra
4 7
 h it
 m ar
end ed
m p
 fil m
he l
 G aza
 h ouse
 h old
ut ure
 J an
 f ood
pl ay
ard s
 to get
 le ast
 toget her
he re
 for m
 e ver
er al
 to day
 f ace
art ment
al ed
 of ten
 S und
 g ive
 Jo hn
r an
u ly
 p ar
 l ist
 v iol
ond on
ent ion
 am ong
 se ver
ond ay
 sh ort
 kn own
 C ity
- w
 t aken
id ence
 get ting
 dec ision
us h
 pro cess
  Q
am s
 f ree
e xt
 A s
 Th is
 P ar
 inv ol
 import ant
 whe ther
m ost
 d ue
 app e
e v
it ions
is on
 A f
 th ing
3 9
el s
 comp et
id er
if ied
 o pt
 n ational
 ag o
st and
 t aking
 ch arg
 su ccess
 M onday
 a uthor
 f ight
 B e
 B r
- l
 l ine
- h
 bo ok
ri ed
3 6
i or
 em p
 f uture
 l ive
 play ers
re w
 do ing
 ris k
 in form
 j o
 sever al
 g ames
 g iven
 p o
 ser ies
 st rong
ues day
g o
 Sund ay
al es
 la un
et ty
 Eng land
ect ion
 vide o
 ch ar
 me an
 Fr iday
 O ct
 like ly
 f ans
 C omm
 man ag
gg est
 c and
 start ed
How ever
A t
 e as
" It
 W ed
c rib
ad es
 lead ers
 mom ent
is ing
 C o
 cl ub
 L ondon
 Russ ia
i um
 b it
 pro ble
ep t
 su ggest
2 1
  ide
" 

 fur ther
 en ough
O ne
 S e
 th ough
 T uesday
 r ul
 p at
 pro p
pp ing
ec hn
 f ail
 A ust
 Y ou
 mark et
 s ol
 f oc
 exp ected
 d one
 v al
 an t
 sec urity
 In st
or ies
 se x
le ments
 H am
ore d
 pro s
le x
 G o
 acc ount
 h ig
 Ch rist
 official s
m y
 w alk
up er
 on ce
  ri
 con st
 rel ations
9 9
nes day
 W est
 d r
 k ind
 The y
 t arg
ubl ished
 week s
 l arge
ro p
id es
at or
 g l
 S w
 are a
 beh ind
 Wed nesday
 w rit
im ate
 re ad
itt ed
 eff ect
 f all
 br ing
2 3
 c ele
in ation
A l
 does n
urs day
 pro f
iss ion
Wh at
u ge
 th reat
) .

 look ing
 cand id
 ch o
 bre ak
on es
 h ours
t s
 contin ue
ir m
 A t
 ro le
og ra
 s us
 play ed
in ian
 cl ass
iz e
 announ ced
 P ol
 su re
& d
 des ign
&d pr
 com ing
2 9
 Th ursday
A fter
er n
 prog ram
 y et
4 8
ord er
 d ata
 sh ared
 A d
lo b
 sign ific
\ "
al if
 m other
 C ol
C h
 F or
 try ing
y l
 c ust
 com ment
 comp let
 w atch
 N ational
as hing
 with in
 off ice
" },{"
it ive
 commun ity
 en g
w h
 h osp
 other s
f or
 P ro
 he art
 t reat
 wom an
 ar rest
l or
 f ire
 us ing
 ind ust
re ed
id s
ill i
 hum an
 W orld
rem e
 c oun
al y
 st ory
e an
 b ody
 Ch ina
 partic ular
 experi ence
 kill ed
 l and
 inter view
 hist ory
enc es
 Min ister
 spec ial
 m ess
ict ure
ens ive
o on
 o cc
4 9
ed eral
her n
n s
 f un
ap s
ight s
 St ate
 point s
 per cent
 imp ro
 pri v
19 9
 t echn
 e qu
 L ab
M r
 imp act
Wh ile
 hop e
b b
ac ed
min ist
 w a
 h om
 be g
av ing
 st ay
atur day
 att empt
 fr ont
d e
st rong
 sa w
 acc ess
a e
ro wn
 re se
f ield
 al most
o ff
 v ote
 b ill
l ic
as k
ty pe
 quest ion
u ary
 p arent
res ent
ress ed
ab ility
 en c
 ear lier
c ast
our se
e or
 ph ot
 en s
 de ep
c hes
r ing
 n ame
 Russ ian
 b ene
 min utes
 st aff
 act iv
 care er
 signific ant
a id
 C on
 j ud
 f av
 l im
 Israel i
 j our
 want ed
um b
lo od
n ers
 sp ok
er man
 p ick
 friend s
qu e
 l ow
  ident
 J une
 a head
in c
 m or
 exp ect
 qu ick
oc i
 S aturday
 des crib
 l ed
3 7
 im m
er a
 t y
 fin anc
 every thing
 iss ues
 h ot
 l ost
 l ate
am ed
us e
 sum mer
 some one
 opp ortun
 c ertain
 M an
ain s
p age
 e mer
 Oct ober
 out side
 reve aled
 polic y
m ber
r or
t ed
 d ou
ver age
o f
 m atch
 I m
 en er
 cou ple
il ar
i ence
u ff
 J uly
6 6
 A pr
as ing
 ro om
  ur
rend ering
 count ries
c il
 Le ague
olog y
s el
it her
 G u
d ot
 g round
ac es
 st ep
 pro ject
 B ar
 me ans
 tr ad
 lead er
ove mber
m odel
 f elt
w ork
op s
 inc ident
 C ourt
 le ar
 cap t
lect ion
 Aust ral
 rese ar
 intern ational
o ke
k y
l er
it ch
 on line
 he ld
 a ge
 relations hip
B lock
 in it
 for ward
 Bl ack
 s on
 D ec
 emp loy
 m ain
 st e
m e
 Mar ch
3 8
I d
 g irl
 belie ve
 S ept
E lements
n a
 N o
 de ad
 ke y
. page
. dot
 c ourse
 S ec
com rendering
 vis it
.dot comrendering
 min ister
5 5
 b illion
, '
 N ovember
 Af ric
h an
! 

 d ied
 D onald
 mus ic
 Jan uary
 to t
 m ult
 av ail
ru gg
 e y
u ation
 show s
 Brit ish
augh ter
8 8
 every one
 leg al
 pres ent
 be gan
 D e
 ar ri
 vot ers
 A ug
 su ff
S h
W ith
lob al
ar ter
ir on
 pr ice
 Apr il
- st
 m akes
ere nce
amp ions
 des p
 contro l
 ener gy
 act ion
 de v
 play ing
 fe at
 N orth
ogra ph
 D ep
 near ly
r up
 was n
un g
od e
 bec ame
 f ig
 cust om
 serv ice
e lement
 C ent
 A ll
e y
 ad minist
itt ing
m l
 sh are
 under stand
 poss ible
iv il
et y
ic ult
 rele ased
 inform ation
al se
  esp
ec ially
 s n
 c aus
ak er
id ing
os ing
- r
 run ning
 targ et
S T
un t
 iss ue
n ot
 or der
ition al
 off er
 Republic an
j oy
 ad m
 w ife
 l oss
end er
 pl ans
3 4
 recent ly
p ris
ick et
 G r
 Un iversity
E lement
 r ace
 alleg ed
 S en
 Th at
 b ar
ot land
 wor d
ul ation
 l at
 fam il
i od
 C ong
 N et
 s our
y n
 ch ief
ashing ton
im s
 go al
 foot ball
c l
 p ur
 build ing
v al
 d am
 R o
 se ven
est s
 a p
 st rugg
ell ing
en al
es c
 pol l
 serv ices
 v ar
 need s
 him self
ru g
ful ly
y le
ac hed
 M s
 dec l
 w ind
5 00
p ar
 a w
F irst
ly mp
 cele br
 ex ecut
a ur
 l iving
med i
 n ation
 ab s
 any thing
g ing
 c ult
iv id
 comp an
 st ates
 f ather
- up
 P l
 direct or
 avail able
 pro per
 A I
p or
re ad
 se ek
d a
at ors
b an
T r
or ing
 l ives
 st op
 resp ond
 lat est
 m ass
 diff icult
 det ail
ent ly
 t em
iet y
 chall eng
4 6
 e ight
ht ml
 act ually
a ul
u el
 G eor
 disc uss
 p le
N o
 f ell
 b ank
 tra vel
  <
 sp ace
 O lymp
 c reat
 prof ess
ive ly
re am
 to ur
 T V
 esp ecially
ir c
 meet ing
 b an
 r ound
 financ ial
 le ave
rib ut
k s
at ic
 G erman
 con v
ro om
ag ram
rou ght
 re d
 en joy
 St ates
ang er
 foc us
 b ad
. com
> ,""
 stud ents
 Lab our
  ...
h old
 c oll
 pot ential
7 8
 s en
 D av
art y
 play er
 Americ a
 per iod
 bene fit
 desp ite
M y
 n on
 so on
 Pal est
oc u
T o
ep end
t o
an a
 d en
 hosp ital
ed d
 l ight
b and
 O r
 pos ition
 con n
 claim ed
 W ashington
ip s
 resp ons
ur al
 ser ious
 f ederal
 exp ert
 Sc otland
duc ed
 m id
 r ate
 co ach
 d i
 ro ad
 st ra
 E d
 Sc ott
 indust ry
on se
 Sept ember
 t it
":" <
 parent s
sel ves
og n
 n et
 S un
er y
 ar gu
 Europe an
 A ss
ap e
 rece ived
 includ e
 mor ning
her s
 el se
 h uge
om in
 E l
 d est
I s
ic le
 A ng
 pro b
cc ording
 complet e
g ency
 C an
 C ount
th ough
 me as
 president ial
at ives
 m is
 I ran
L ast
 sim ilar
l ish
m ing
et t
ct ion
 sing le
n al
 need ed
 prov ide
 Aug ust
is es
al a
 pl at
ir med
 contin ued
3 1
ad a
 compan ies
 en v
 res ident
ib ility
 im medi
 not hing
 pr act
 sec ret
a el
i ec
u le
 prot ect
 qu ite
. T
 h on
 m od
 tri al
 s elf
 Cong ress
b ody
 A b
 s old
 st age
alif orn
H is
 b order
 char ac
6 5
il t
 d aughter
iv al
 tr ack
 Ind ian
a ult
g est
es e
 ne g
D is
 F eb
19 8
 show ed
 O ff
  &
 g old
 rep resent
 m ind
 g lobal
 Wh ite
 Inst agram
4 4
l ight
 c ivil
ar a
 H ow
 reg ion
 person al
att le
S ome
 m ot
7 0
 re ason
 comp l
 lead ing
 c ris
 resp onse
 sh ot
 qu arter
 right s
 s qu
 m ur
 pr ison
 acc used
 report s
 ag ree
 c ross
 claim s
c d
 investig ation
 Im ages
h i
l in
ur ning
 econom y
i ents
du ce
 d rug
 sh oot
 incre ase
aliforn ia
o ver
c a
m b
 bu y
 previous ly
 re view
 Ham as
 plat form
 a ut
 perform ance
re et
 b ased
 M ich
ap er
R E
 S m
 ex amp
 who le
a res
 h ol
 l arg
 M us
 ev idence
 Dep artment
 d ocu
ke y
7 5
 m ent
o e
 n ec
 r ather
ig r
ak ers
ren ch
 is n
idd le
 g ra
 cr im
 pop ular
wh ile
 S y
 ind ivid
 col le
 happen ed
 re ach
 che ck
 hig her
g es
 t w
 add ress
 conf irmed
 remain s
 gener al
 a ud
 long er
k n
 m odel
 rep l
e es
 w rong
 ch ance
 law s
 saf ety
i ber
av y
 work ed
 fore ign
 saf e
3 00
ag ed
 wor th
 h or
us band
 econom ic
6 9
 to wn
ear ch
he st
 ins ide
 Jo e
 sur pris
iron ment
 C up
. </
 g ave
 sus p
- in
 m atter
 any one
 invol ved
4 2
 are as
 rele ase
 s le
 d ro
 crit ic
 K ing
 administ ration
.T ext
 P ark
0 8
 pros ecut
g r
 work ers
 am ount
 Democrat ic
f ect
h a
 dem and
 proble m
 G etty
ip le
end s
 who se
 sit uation
 s uper
 b rought
 d iv
 beg in
ir th
if y
 pri or
 priv ate
or ters
 wh ite
 b as
om ing
 be aut
ch ie
ate g
 result s
en ed
 grow th
o le
z e
 bro ad
s c
 sp ent
 C alifornia
 current ly
 Dec ember
 p ort
 cap ital
 ve h
 D ay
": [
 det er
 vict ory
 or ig
3 2
 J ust
f ord
le ar
em ic
 particular ly
 tot al
 ent ire
 T e
ag n
b ack
il ities
5 8
 press ure
 Par is
 ide a
 cost s
ill s
 O n
6 8
m as
 h ous
 do g
li ament
 c ases
om p
igh b
 B BC
 big gest
 inst ead
re g
ou ra
 W ar
 bo ard
row d
 h usband
 l ab
 G l
 infl u
 The re
f er
 he ard
 com b
- e
 b ra
 pre vent
"},{" _
os ition
ol ly
b a
ock ed
 pre p
al t
ud get
 bl ack
 ter m
re ated
 p ain
 event s
ut in
anc he
enc ed
 ass ist
le v
A ccording
it ness
ist an
ru ary
-t ime
 Fr ance
  z
r ay
ore s
 S o
 p ack
 m at
ra ft
f a
ve red
 tri ed
 resear ch
 m ember
 g un
all ed
 ph one
ow s
 k ids
wo od
rup t
 f ield
 v ia
 examp le
 E x
 St ar
ous ands
' .

l ict
 Ch ar
 ac cept
 spe ak
Dis play
c ome
y a
 rec ogn
 turn ed
 p ublished
 happ y
h ood
 e ither
 K e
 describ ed
ig er
o id
 manag er
 for ces
age ment
6 2
 h ands
 E ast
 ed uc
 Go vern
 pr im
 includ ed
 f ear
is l
 to wards
 bo x
 viol ence
* *
 I f
 E m
 famil ies
 appe ared
 prob ably
 Feb ruary
 con c
 concer ns
 M ed
iz ation
 a verage
0 9
P h
u it
w w
 ext ra
Tr ump
 t akes
 pr ices
3 50
 ens ure
P icture
 kn ew
 how ever
  esc
pp er
 opportun ity
f ort
 p red
 eas y
 Count y
en ing
 e p
 attack s
f b
 F rench
 gr and
 develop ment
 t ro
in o
 pre t
 ph ys
id ge
 ne ighb
 cond itions
itt ee
 want s
il es
 W illi
e ase
 a chie
ning s
 eff orts
 them selves
 p air
ce ment
 sp ot
 resp ect
e ople
id a
 r out
li ed
7 7
s w
 cle an
 med ical
 Ang el
 look ed
f alse
 impro ve
 s ense
ir t
 arrest ed
 g one
 elect ions
 s ound
am b
 br and
 quest ions
 grou ps
 allow ed
 c irc
am a
 chang es
 author ities
et h
 can cer
y pe
 A pp
6 20
N ow
 s ect
 M o
 stri k
 l ack
 Democrat s
 Pol ice
 sen ior
r ast
 b ab
 week end
 appro ach
 Austral ia
 cl imate
 laun ched
 for ce
ud e
 quick ly
 cons um
 ant i
 le aving
 env ironment
d own
 s ong
60 5
A ll
 or d
5 9
 l ink
ad d
 cre ate
 rep e
 P arty
 v o
 Christ mas
 candid ate
  ill
 D r
 conf lict
 major ity
 ter ms
 mov ed
 charg es
T V
 c ause
 b irth
 ag ency
 dr ink
 n ine
ict ed
 help ed
 a id
is c
und red
 reg ular
 set t
 tra ining
 grow ing
 stri ke
 cris is
 p ark
 M or
 Afric a
ic o
-b ased
A P
ul ly
p ly
 d anger
 P at
ry ing
 do ct
6 4
b ur
 O ne
 deb ate
  vers
 g en
 T o
 cl os
 add ing
 dra w
 we ap
ain ing
 dec ided
 post ed
y c
} ]
 pe ace
 cont ract
- g
l a
 int ro
ish ing
 f lo
 l ower
ig ration
en ge
an i
 incre asing
l us
 p iec
 v ol
 cons ider
w here
 c rowd
es tern
ac ing
 spe ech
er c
 S an
The se
 con duct
go ing
 s il
ag ing
 sc ene
 dec ades
ines e
it c
 A ir
m a
ut y
 T imes
 can not
 per fect
 Americ ans
ruct ure
p m
 c am
 p aid
as ons
ens ion
 ex ist
he t
ail y
au ght
-t o
 stud y
 mult iple
 Dav id
n y
 c al
 o il
 r ates
 look s
 team s
 re ady
ill ed
p ir
it er
it iz
ist ic
ress ive
 my self
 am b
I m
 w ide
 ty p
 dou b
 crim inal
ra p
 w ays
ol ute
 B ST
 cont act
 rul es
6 7
 v ill
 win ning
on st
 th ousands
  ess
i que
 f irm
 st at
 ro ck
4 45
6 00
 c ast
 tr ust
f e
ur ies
 Brit ain
 S ch
op e
 t en
ra z
ap an
 co ver
 em b
 treat ment
om b
 J ames
 dis app
 un c
 un f
 cent re
B e
 col lect
 est ab
m ark
on a
ce ed
et er
ist ry
 jour nal
 charac ter
o es
re land
 p ers
 d ate
 D el
ig ital
 C ons
 dis co
 ind epend
 infl ation
 p an
 h ur
 its elf
esp ite
out hern
 follow ed
. ,
= \"
anche ster
a a
 s un
ap t
 execut ive
: 

 m aint
 g iving
 go es
 along side
ampions hip
A T
 w ond
 n orm
air s
h aps
i ers
t r
 work s
 custom ers
 proper ty
o ard
 re b
o o
 end ed
  er
4 00
 be at
 v ac
 four th
 offic ers
 mess age
":[ {"
d f
it ter
 b al
 b ott
un ch
 St reet
 del iver
 f an
 J ack
 part ners
 s ite
 w el
 br other
esp erson
 f air
 em ot
ean while
 immedi ately
7 1
ar ian
 r ange
i res
 b ed
 M e
 R ed
l ike
 sp ort
 leg isl
 fail ed
 for ced
us hed
 k ick
 att ention
 could n
 open ing
 Pr ime
 d ram
il ed
op er
 sp ending
 product s
 K ore
 run s
 invest ment
An other
 level s
 hom es
 s at
 C or
 partic ip
 tit le
ri f
 R oy
 ra ised
 h undred
as ion
 fav our
 Ch inese
 spok esperson
 f ast
is ions
 sur v
 expl ained
 hist or
 product ion
 laun ch
 S erv
 part ner
19 7
erv ative
 enc oura
 he ar
 r ise
 off ers
ib ly
 offic er
 talk ing
> <
 to uch
ve y
 P rem
 se par
ard ian
b d
ent ially
 ab ove
 St e
av es
 get s
O ur
s y
 an im
 go als
ex as
T ype
 b ag
 s ens
 M ark
act ion
 B ro
 we bs
ell ig
is ation
ar i
 re v
 con vers
 tr ue
 a im
 h y
il leg
 an sw
": {"
 sc hed
5 7
it or
 re ached
ess ion
 s we
 st ock
 chall enge
 n atur
 includ es
 start ing
 proble ms
  i
 eff ort
  ver
k en
s et
 L a
 law y
 sl ow
ly ing
 C oun
 D an
 com ments
  ult
 comm on
 Scott ish
 r ad
 def e
 B en
 L os
 stre ng
and er
 bl ock
 m ill
 not ed
 part ies
- a
ac hes
 word s
it ut
8 9
or ney
 b ur
 l ik
 techn ology
 challeng es
i j
 b ase
ri pt
 call s
 feel ing
 jud ge
se qu
ve re
 bo y
 comm it
up reme
 cent ral
 seem s
 Sm ith
 b lood
 sp oke
 bu ilt
8 6
E very
res h
T ok
ing ly
 val ue
 sle ep
 n amed
  illeg
 h ar
 P aul
e ed
we ight
5 2
P ublished
 s ell
 c ard
ar r
 pr ime
 ro ll
 war ned
 polit ics
 s earch
st on
and a
ress ion
 act or
 Ukra inian
 sk in
 resident s
ri ef
 me ant
7 2
 I reland
y an
 c redit
 N iger
 In tern
 b udget
es ter
ort hern
 sex ual
ad ed
 H er
 conf erence
 pos itive
 inj ury
 sa ve
em s
 qu ality
- ter
ag o
 J apan
 am id
 chang ed
 dis p
 sour ce
 Off ice
c b
re es
 we ather
 ke pt
 pret ty
d ated
 R es
 E U
 comp ared
ict ion
 jo ined
N ot
y al
ad ium
ff ic
 ass ault
 ext reme
 n om
 leaders hip
t e
} ,"
 Ch ief
 ref lect
 tri p
 Sec ret
 German y
d o
19 6
 job s
 Ph il
H er
" This
 s al
 M et
 ha ir
 Republic ans
 stra ight
 nec ess
 g reen
 he at
 ex act
 F lor
 cr ime
 Angel es
v an
ort ion
 M art
 M anchester
 B ank
 dis m
 return ed
 f em
ay lor
 us ers
 av oid
n ight
 w at
land s
 dri ve
 ment al
r im
 st o
 W ith
 tr ade
 fund ing
 b ow
ou d
 tra in
e a
 A ct
5 4
u gh
er ry
om en
 M ad
sh ire
 rest aur
 hol iday
b ook
 S ing
ide red
ang u
 reg ul
 iss ued
 sim ply
p en
ou l
 S am
 T exas
igr ants
 c at
 M ur
ra b
com ing
vious ly
 spec ific
 caus ed
 Ass oci
G etty
 re n
 al one
 mur der
 s ales
ent y
im ately
 commun ities
 var ious
 detail s
. m
ous ly
 see ing
 ass oci
A S
as c
 K am
 call ing
 elect ric
 open ed
ener al
 f ra
 M P
 H is
 mov ie
 net work
 bab y
 n orth
 E n
 sc ore
 webs ite
ellig ence
U n
 c itiz
 ind ic
 ra re
 opp osition
 dist rict
 feat ures
 docu ment
M eanwhile
m it
ag er
op h
 incre ased
 school s
ruct ion
 Mich ael
 rem ember
 sign ed
i am
ot i
and emic
 K en
ian ce
 part s
 app oint
 rem ark
 through out
 pass ed
 c ash
om an
ra w
 beh av
 Govern ment
 w ild
ic ed
if ul
 s ust
ast ic
 larg est
am ing
 T ik
 le ague
y ond
az on
c y
 f est
 even ing
 feel s
 ch arge
 cont ent
) .
N ew
 b oss
 g as
 charg ed
 Sen ate
ol ution
 inc red
 ter ror
D espite
u f
er ve
 p ath
 m ater
om s
 bo ost
 ra in
b ed
 G M
 num bers
 hig hest
 hous ing
 M ac
 sp orts
 reg ard
 somet imes
 inj ured
E O
ok ing
 pre m
 think ing
 he avy
 ag reed
 cre ated
H S
U p
re l
il le
anc ed
 cho ice
 Coun cil
ur ch
vent ion
 aff ord
 aw are
-ter m
 on going
 cons idered
 cond ition
 Flor ida
ro y
 - -
 John son
l am
in ary
ve ll
 sh ock
re y
 l if
 rec omm
 rem ov
u gg
it es
 fight ing
? "
e ff
 ch air
J ust
 s outh
 in n
 vict ims
u als
 com fort
anc y
 polic ies
5 6
A N
z z
at ory
 S im
 P utin
 do or
 est im
u x
u ing
 m iddle
ad o
.. .

 sect or
 A lex
 R ober
 off ered
 att end
 appe al
 candid ates
it z
 ad ult
 att ract
an ch
 repe ated
u pp
 deb ut
ar ies
 he aring
 Q ue
 wa it
Is rael
ic les
 cont ribut
J P
 miss ing
 mean ing
M ore
 a ward
 H igh
 ep is
A R
 business es
 reported ly
 pat ients
 educ ation
E ven
 prog ress
m on
or row
rou d
 prov ided
 F in
ick ets
 fac ing
 requ ire
 crit ical
 t rou
all s
 sp l
 U N
gh an
 en for
 Intern ational
5 1
k i
 w itness
 fin ally
 abs olute
 Palest inian
- th
g ia
al ent
 re ality
ro ll
 S upreme
 qu e
 tem per
 prim ary
s p
ar ily
 be yond
 se ats
rou p
 dam age
5 3
 M y
ific ation
re c
 ref er
 sc ored
ash ion
 prom ot
 hot el
" He
ist ed
 coun cil
- A
4 3
B y
E R
 t able
 C am
 R ob
 sc reen
 pass eng
 fig ures
r s
 T w
 sh ift
on n
se a
 sp end
 requ est
 Ph ot
f riend
 T ra
 P ort
os c
 lo ved
ound s
 te xt
' I
- P
p ool
 on es
 ab ility
 show ing
 def in
 fl ight
 fac ed
 Prem ier
 f re
 M ex
ell ed
 would n
 dem onst
m en
 sp read
 add itional
 Th om
 contin ues
 p andemic
 ch amp
 Eng lish
 compet ition
 po or
 emer gency
 l ay
 st orm
ear s
 pro duc
 se at
 em ail
 ob s
 inj uries
 opt ions
 natur al
D uring
ab or
 F ox
 par liament
7 9
i ant
 d ress
 benefit s
 to urn
 al though
 ser ve
r acy
 m ob
 st ation
 we ight
 te en
 cult ure
 shoot ing
il ty
os h
 just ice
 mov ing
Im age
j ected
in ner
 p ul
 v ir
 mil es
p ro
re f
 f lood
 r ule
az ing
 view s
 N ot
 hundred s
A m
r ated
 m ix
 B el
ri an
 He alth
 requ ired
 pl aces
 app lic
ah u
 def ense
 sur round
 own ers
 pop ulation
 certain ly
e al
 f reed
 M od
g round
 sh o
 W ales
 dou ble
 arri ved
c ing
om es
 S oc
> \
 p enal
as hed
ic ation
ak istan
 tell ing
 mill ions
m akers
 d ark
ann el
 ey es
h ib
h let
re ct
 f ully
 bec oming
 ter rit
 prot est
 fig ure
ack ed
iz ing
 Har ry
 rest rict
 watch ing
- M
S ince
b c
ri a
 cont est
 co ol
 stud ent
 pur ch
P ol
it ution
al i
our ces
ip l
ber g
uc lear
 Un ion
 suggest ed
 mass ive
 expert s
 f resh
 re duce
 gu ilty
 serv ed
 ey e
 profess ional
 st ore
ir ing
 at hlet
 her self
 dec ade
 Geor ge
m ers
ic ro
est ic
 mar ried
 init i
b um
 b and
 plan ning
 sub st
F L
 p ush
 j ump
 do z
 co ast
g ent
v est
 C he
h ol
 sc he
 neg oti
a it
f d
it ute
anc ing
I nd
 S er
 W hen
 pro fit
ard en
ite ly
 event ually
 seem ed
 lim ited
 d om
 j ail
ok ed
 jour ney
/ Getty
M any
or ter
 win ner
 Wh at
 Olymp ic
 p od
ill ing
 def end
 dri ving
kn ow
 GM T
 h our
 Le ban
 ann ual
 Serv ice
 sp ark
 def ence
 rece ive
 coun ter
 meas ures
 T om
 so ft
 belie ved
w ell
 p un
 exp and
 prop os
 complete ly
 secret ary
 phys ical
 vers ion
 to ugh
ill a
 T aylor
 r ank
r ick
 fl ag
 How ever
 deter min
 p ict
 re ven
ol f
 R ich
E x
r ight
 s outhern
 c ere
ver t
 compl aint
 squ ad
 vo ice
 f ine
 l angu
 M on
 H olly
 jo in
il ing
 A nt
 deb t
c el
 r ally
 im ag
 let ter
1 20
4 1
M s
b n
 C om
 cl osed
 Comm ission
 beaut iful
r id
r ont
 p icture
 m ist
 ha ven
 ra p
 adm itted
 weap ons
 Kam ala
ո ւ
 f ix
 b rief
ar th
ad ing
 war ning
 orig inal
 Just ice
 mater ial
u ct
 s ort
 M il
 us ually
 ask ing
 oper ations
 alleg ations
 design ed
7 00
 act ions
 wond er
H ar
I N
P ro
k ed
im um
 D ef
 sp ir
pe aking
 supp orters
 writ ing
 wa iting
 seek ing
 agree ment
g n
ur b
ow ers
 O f
 sc en
 Fr anc
 Sp ain
 dri ver
 m ag
 comm itted
 old er
 Car ol
rast ructure
O ther
 d oll
 ab use
" There
ic a
il s
 B JP
 al bum
 t rend
 p roud
 C ap
 O pen
 Roy al
 h arm
 S ir
 G ar
ant ic
 ag g
 over all
 dec isions
 sm art
 spe ed
8 00
 m ount
ur ance
 an aly
um e
 polit ic
 vot es
 Am azon
 sus pect
 phot o
 den ied
- of
S c
 f at
is er
ec ause
 N or
 ex ch
 per haps
 dis play
 App le
1 40
5 47
 t ack
 m ention
 st ated
 st ories
 we aring
 pl ant
emoc racy
 M el
 D is
 high light
edd ing
6 3
ur l
 C EO
ant ly
 fil ed
 Q u
enc ies
 kill ing
 achie ve
 citiz ens
c hers
y m
 B ay
 r ac
 K han
any ahu
 aff ect
 occ ur
 Olymp ics
 pract ice
 illeg al
P eople
U S
us es
 ab ortion
 int elligence
 cons ist
 alleged ly
 mod ern
i pp
or al
 pre c
 fe ature
 put ting
 star s
? "

 s ale
 n ice
em i
 de g
 J ones
olog ical
 talk s
 record s
hel sea
uf act
F rom
 th row
 G reen
 dro pped
 danger ous
f c
z b
 c ry
 S a
 fin ished
know led
b re
i qu
ա ն
 b atter
 g ives
ad s
 individ uals
 cam era
O N
 sub ject
 appear s
 b orn
 n uclear
ab in
 cl ot
 un s
 fin ish
 opt ion
 fem ale
ot a
 S uper
The n
ri al
n o
 c aught
 p itch
 G roup
 F ore
 di agn
 st uff
 dism iss
 d ed
ul ed
 P akistan
 dep artment
 hold ing
 c old
ri age
iv ity
 us er
 lo se
 ac knowled
 ret ail
osc ow
is ters
 p et
 wh om
 G eneral
 sh ut
 mom ents
  ic
 st yle
 win ter
 help ing
 car s
ott en
J o
i ar
er o
 f le
nd er
 st ick
od ay
 G old
 V al
 inf rastructure
 success ful
 tourn ament
 p aper
 l osing
 n ature
im ent
ol a
 ex am
 J ew
 im age
 fe et
 concer n
 employ ees
g ar
m ore
p re
in ians
al ing
oll ah
 may be
 soc iety
 flo or
 b attle
ic ago
ig an
 L ou
 bel ow
 spe aking
 sim ple
 move ment
 girl s
- day
i ation
r ish
 d aily
og le
 stre et
 trad itional
1 30
 wor se
 add ition
 sec ure
 direct ly
 lear n
 respons ible
 colle ge
 norm al
 champ ion
im age
 is land
 inc ome
iz z
 fam ous
 conf idence
 trans fer
 begin ning
I D
ing er
 f uel
 d rop
 l ands
us hing
 are n
 she l
f l
un ning
 W al
 trans port
iver pool
 conn ect
Up dated
 A fter
 G ames
 man ufact
ph y
L ine
l im
 re nt
 P ost
ab les
ud i
 comp lex
 res c
u ke
 am azing
 dep art
k a
 p ra
 H all
 G od
 up d
 supp ly
 fav or
bur gh
in i
 b i
 T ur
 K h
 off ering
 tra vell
 str ateg
 suff ered
D ate
h ouse
 th r
 S al
 pot entially
 veh icle
 independ ent
 sto pped
 p urs
id ers
ate ver
 exp ressed
 know s
 sing er
 aud ience
 veh icles
 Niger ia
B S
 S chool
 k id
ign ed
 att orney
 prot ests
 imm igration
 piec e
O P
j ust
 b od
 young er
 vill age
 Secret ary
' ,
R uss
 t on
 f it
 al tern
 te lev
 car ried
 foc used
 Willi ams
ipl om
w ide
el ess
ate gy
 sh own
 te ac
 power ful
 bro ke
 vict im
 s ize
 f ashion
 d ad
 n ames
im b
 M att
 D on
ant a
 prom pt
 appear ance
 rul ing
 repl ace
 sh op
 opportun ities
 Geor gia
 individ ual
 defe at
 exact ly
b f
 s an
 w edding
 re asons
 plan ned
C reated
n oon
un k
 G re
 sh ip
 F irst
 se a
 miss ed
 clear ly
 Gr and
 answ er
B A
S peaking
d en
it arian
ad or
 your self
 sur ger
 fac es
8 7
ac ity
 B er
 bl ue
 surpris e
 strik es
 disapp oint
 to ol
 d ream
 l uck
 pl enty
 cr uc
 belie ves
 aff ected
 contro vers
 tro ops
- off
 c ities
 M al
 it ems
 A rab
 r an
 H ill
 own er
 concer ned
 Cent er
  ir
- S
 m um
el ly
 M er
os es
 man agement
 system s
- le
u ild
 t ens
 M ike
 sh ares
ud ge
 respond ed
 mat ches
zb ollah
- se
 b at
 C N
ru it
ang ers
 commit ment
- n
S et
m ar
 A g
 v s
 imp lement
 rem ind
 Is land
 win s
 bra in
 dom estic
- and
M O
O ver
 s itting
ot ed
ul ated
 un like
ub e
 Mod i
- sh
T wo
 on to
 N e
 N HS
 ve ter
 manag ed
 fell ow
 ess ential
se mb
 P enn
 ident ified
b on
 with d
 T im
em y
 pl ays
 su it
 ar ch
 Franc is
 t alent
at ures
al ys
ag ues
aster n
rib ute
 str uck
\" >
tr ue
6 1
s enal
 d igital
 com ed
 trans form
f ire
 t icket
 up on
 foot age
 oper ation
 Star mer
 b att
 A ri
ill er
 wor st
ict or
Wh y
 opp on
 cre w
 epis ode
8 3
v a
in cess
 c as
 b ought
 l ived
 re form
 st ress
ec k
 W il
 W ill
we ek
 ris ing
 stand ing
 ret ire
 Pr ince
 str ategy
 project s
1 50
 t ech
 R am
 un ique
 after noon
ang ing
 reg ist
 min ute
B I
g ers
 ad op
 ro b
 ass ess
 cent er
 car ry
ott ed
 vot ing
 eng ine
 Net anyahu
 tw ice
t ime
sy ch
 M oscow
 happ ens
 prov iding
 Afric an
 increasing ly
 emot ional
i pped
 g ift
 M ag
 pl aced
 tr uth
 ro w
 sur f
 Ar t
-p ro
R ep
 comm ittee
 cut s
 Sec urity
m ony
 I I
 ex cept
 sc ient
 em ph
 sur vey
 sust ain
 m ort
 m ach
 d emocracy
 P ress
 Ch icago
 support ing
 sl ight
/ j
9 1
9 7
c are
 to ward
 l ines
 ag ed
li x
 art icle
 walk ing
 drug s
 Mus k
 legisl ation
on ed
 s ister
ri p
 P er
 L aw
 sign s
in als
 M ary
ul a
 W estern
 comm ission
 op in
ative ly
 activ ities
 link ed
 defin itely
- on
. C
9 5
l ines
 s end
 g ar
us ing
 sa v
 dis ease
 It aly
 war m
 high ly
 adv ice
 influ ence
 absolute ly
 freed om
p ired
en ch
 d omin
 F ace
 all ies
ib r
 cent ury
 differe nce
 cor ner
 step s
 decl ared
 Que en
 Carol ina
  rom
H ere
h ar
o ch
y r
 s ides
 l ock
 C r
 r ough
 pre gn
 estab lish
A C
in n
 d iplom
ic it
ro l
if th
 ex erc
 un ion
 cons ult
pl ace
 pros pect
 Del hi
 territ ory
 langu age
us ion
 has n
 start s
 gr ad
 ob ject
 activ ity
 ty pe
 suff ering
  ign
 B ill
 an g
 im ages
 find ing
 poll s
k in
 t im
 Mart in
 Sing h
2 50
 R s
 exp ensive
 keep ing
 Kore a
 Dan iel
 v ice
 se lect
 co al
 hon est
0 7
re as
le ge
dd en
 met h
 prop osed
 Austral ian
ester day
  ­
E ar
 res ources
erv ed
 laws uit
 stat us
w an
am in
 F ar
 int eg
 most ly
 del ay
 adv oc
 disco vered
  #
 b id
ut ers
 sour ces
- B
in ally
 b reat
 be ach
 invest ors
eng th
 miss ion
 stre ets
 house hold
 dev ast
ww w
 behav i
 enfor cement
 f a
ou red
um m
 L iverpool
 Ch ampionship
 than k
 vac c
 Mex ico
  /
it ation
 b on
ar ant
 D ist
 F l
 ra ise
 experi enced
 fund s
 Can ada
" They
- C
A r
R e
en a
 con g
 se vere
 prot ection
 account s
 convers ation
 cruc ial
o or
he ight
 T est
ak ed
 min or
 ent er
 mar riage
 intro duced
 repeated ly
 Holly wood
c f
f lix
ed s
 n ar
ec ond
 B ig
 de als
 V ir
 gr ant
 sche me
- ch
 o dd
ell s
 Sp orts
 writ ten
 bring ing
 phot os
 conv icted
rupt ion
 doub t
 bal ance
 restaur ant
o h
he ll
on ic
it ude
al ian
lud ed
enc ing
Ph ot
 necess ary
G B
I C
 C ov
 con sequ
 pl ed
 than ks
 gu y
 surger y
 t ight
ur t
 S ky
 C helsea
 death s
itc hen
 favour ite
 separ ate
 Leban on
 emph as
 p sych
 m igrants
 M ore
 ch a
 not e
 su dden
 conn ection
n el
w are
 t ask
ud d
 reg ional
 cr icket
 view ers
 large ly
 capt ain
 cere mony
" You
S p
 g ender
 out let
 up coming
 cl in
 un iversity
 rel ated
 Ar senal
 At l
 coll abor
D onald
b it
 we alth
 off ensive
 sc r
In st
 ac qu
-t he
 organ ization
8 4
 h ref
 l ift
ol it
 you th
ades h
 spok es
 sched uled
 Rober t
 telev ision
e z
p et
ic ated
 re act
 e at
 B ow
 v ul
 under st
 big ger
 Comm ittee
 Sw ift
Al though
o ly
 c op
ic ip
 pay ing
 happen ing
 init ially
 Willi am
 doct ors
 passeng ers
 c ro
 g rew
el ine
 govern or
 He zbollah
 conf ident
 Go ogle
 Thom as
M ost
 c ease
 O b
 en h
 elect ed
 ob viously
 gener ation
" A
st s
 hop es
 pur p
 creat ing
  @
0 1
F P
L A
P r
 w all
 b omb
qu ir
out s
mer c
 ar m
co hol
"I f
  €
i ate
ic i
ig ious
 S ar
 S ab
iss ions
 claim ing
 nom ine
 s ad
 K ate
 acc ident
 cr imes
 mark ets
 pres ence
 exc ited
 book s
 Char les
raz il
! "
v is
 c atch
ak h
 And rew
 fr ust
 Ke ir
I S
O r
g en
 B ur
se e
 F ed
 j oint
 app arent
 co ff
 cap acity
 record ed
 cho ose
 lim it
c ont
 t reated
in y
ow ed
ri e
 health y
field s
 lawy er
  era
D o
b our
 l ux
 fre qu
 penal ty
> </
c raft
 b ul
ic ient
 M ax
 gu ys
 vide os
 suggest s
 effect ive
 dest roy
g in
m ine
 M ah
 P et
 lo an
 dec ide
 meas ure
es ters
 B rown
 P M
 N ow
ant age
ber t
 per m
Th ose
 ro yal
 ret urning
 ur ged
 Pl ay
 partners hip
 streng th
it a
 p ushed
 st ret
 G reat
 ins urance
 targ ets
 strugg ling
por ary
}] ,"
d c
 s om
 l iter
 e th
 v an
 J im
 air port
enn is
 lear ned
 fra ud
ra ge
 D en
 v en
 W all
 rep orters
 near by
 vot ed
 Min istry
 bro ken
 sol id
 pod cast
  .
B oth
C C
em p
are n
 St adium
ecut ive
 great er
 remain ing
 ident ity
 ap art
kn own
c he
ic ious
 risk s
 Sw ed
 cele b
merc ial
 l ic
st e
 st ands
 wh atever
pp ers
art s
 loc ation
 plan e
 est ate
 program me
 sold iers
 vul ner
ow ing
 B re
 we ar
ack s
 J on
For mer
 tell s
 target ed
weight ing
d om
ke ep
 D o
 j ury
19 4
 eas ier
 respons ibility
" },"
0 3
g ow
 c yc
 P e
 un able
 hel ps
 conf irm
 emer ged
 Cent ral
 wat ched
 Face book
! "

he w
 b ond
ul f
19 5
 cons ervative
 It alian
yl van
 mess ages
 Tw itter
l ass
 w ish
 no vel
 cult ural
 larg er
 doct or
 ult imately
 bod ies
l ished
 c ateg
 m ale
om a
oc ol
 N FL
 Is lam
idd en
 docu ments
 extreme ly
  ice
9 00
S P
an ish
 f ifth
 g iant
oc al
 pro ceed
 che m
 gl ass
 At t
 Gl as
 incred ible
 estim ated
ind ex
 init ial
 birth day
l ies
s ylvan
z ona
 f alse
 l iber
ir ms
 B y
 r ich
 sp ect
 St ep
az e
ex p
 stand ard
 Se attle
 histor ic
 fest ival
c her
w ise
ol k
 K im
 support ed
 serv ing
 fil ms
 eas ily
 Net flix
  ut
b oard
r ate
 c ru
 I rish
 D irect
 N ations
 ar ms
ound ed
pe g
 cr ash
 remain ed
 stand ards
 threat s
 pick ed
 Soc ial
semb ly
 l ength
ul ate
 sp ring
 tr ig
 sw im
 prosecut ors
 prep ared
 spl it
Pol ice
m ime
 b lo
 an alys
12 4
 point ed
 ball ot
stand ing
/j peg
A I
er m
 to m
 l augh
ut ch
 M a
 sh ar
 act ress
 car rying
 trans ition
uck s
 Sun ak
 Associ ation
sylvan ia
l ad
 d ance
 g arden
 B razil
ct ions
ive red
 V ictor
ang ed
ank s
18 9
 prom ised
 esc al
 bott om
 dram a
 pul led
G o
P l
 p ool
 y ards
 y esterday
 sh aring
 col lection
 Wh ile
 pay ments
 Se a
 Ro ad
 colle agues
 wel come
 behavi our
9 2
j a
 t ickets
 for t
 will ing
 ar med
 ro se
 act ive
 announ cement
 deep ly
l ig
ic ial
 P ri
 P eople
 V ice
19 0
hen s
rib utes
 allow ing
 vol unt
 exist ing
D r
N P
r ad
ar ch
 n orthern
 he ro
 A P
if ying
20 3
 V ance
 set ting
 gu arant
 wind ow
 ren ew
 inn ov
 reven ue
" But
 t urning
he red
 I TV
ri ate
 R af
 app ly
 ent ertain
duct ion
 hop ing
 hosp it
 beaut y
 s ought
 R yan
 not ice
 tra il
 dep loy
 read ing
 conduct ed
Be fore
abin et
p in
 f ired
 C O
 G al
 app rec
 des per
 miss iles
0 6
in ated
 A c
os is
com p
 public ly
 del ivered
 lik es
 meth od
o very
v ille
er ous
 w ood
 W ood
 ar my
 tra ffic
 critic ism
 ord ered
i very
on na
 g ang
 st ab
 C ro
 L ove
 j oy
ell ow
 rep lied
 art ist
 dra ft
ev in
 Christ ian
 clos er
 remov ed
 doll ars
 Lou is
3 28
c ript
i us
er b
 c y
 f ant
 C ont
 al cohol
ain e
 J r
 J am
ak s
 E r
 ra il
 rel ief
 ref used
gy pt
ony m
 ri val
 Dist rict
E l
ri ff
res p
 R od
 leg end
 expl os
 circ um
or ry
ition ally
igh ter
ron es
 small er
 rul ed
 Inst itute
 mot or
 determin ed
 s elling
 p age
 d ry
 S and
 ch ampionship
 E ll
 K ar
 att ended
 add s
ned y
 inst itut
 const ruction
 lear ning
 exch ange
i as
 p en
 he av
 com mercial
ick s
17 1
 fall ing
 occ asion
 typ ically
 Rich ard
 som ew
8 1
 t ast
 supp osed
 rem ove
 fl ights
 Re g
 rece iving
 char ity
 dog s
u a
 b ird
 p aint
 S l
 le aves
 K y
 pr inc
 man age
 tr uly
 Tr ans
 understand ing
 argu ed
- min
or se
 m ax
os en
 k itchen
 Ch ris
 fl at
af e
 fore cast
 cor rect
 Phot ograph
- L
at o
 m arg
 S ome
um n
 exp ress
 co oper
rib le
 air craft
 writ er
 Col lege
 bill s
 maint ain
 Cov id
O R
h att
in em
 h its
 d ie
ra g
 ch ances
 U t
we et
ath an
 wr ite
 propos al
A dd
G A
b ury
 s ession
se x
ri k
 P eter
all ing
 comp lic
duc ing
 Cl ub
 sn ow
 Palest inians
MO RE
 Ari zona
Ear lier
/ b
O h
Y et
d ney
 p ull
 M ont
 H ome
 v ision
ip e
ick ing
 co vered
 inv asion
gu ardian
oss ible
 adv ance
 oper ating
 fail ure
 equ ip
 adult s
 Jew ish
f erence
um an
ab el
erv atives
 direct ion
 human itarian
 Glas gow
A d
D A
O f
m illion
w in
ent ed
ro ad
 C omp
 M iss
 qu iet
 qu alif
 attack ed
 Sp anish
 caus ing
 swe et
 Penn sylvania
9 80
 t end
 p il
el ens
 pro ced
ast s
 can c
rib ution
 gu ard
 Par liament
 visit ors
 Te am
 rout e
 hur t
% ,
C l
f all
m es
in burgh
 pro duced
 br illi
17 2
 prov ides
 walk ed
 strugg le
 strugg led
 piec es
 altern ative
B l
T oday
g age
i est
 c ode
id ency
 g ather
 e ating
 B et
 F ound
 V eg
 bel ong
 second s
 adv antage
 experi ences
 exc lus
- G
A pp
P A
b or
qu ote
 O l
 rec overy
 report ing
 ass ass
 fac ilities
-s c
the guardian
Jo hn
C A
L ike
 p ub
 h ate
 S ur
 v ast
ack ing
og ue
 em br
 del ivery
 dri vers
 cou p
 bas is
 fa ith
 coff ee
- D
. A
E T
U kra
 b ench
 A sh
 L uc
 E th
ach ing
 Mich igan
 estab lished
 spir it
is a
 re jected
 R ec
 G ame
ess ed
 F er
ord s
 ass ets
 intern et
 tax es
ortun ately
 complet ed
 immedi ate
 mur d
 nec k
 Char l
 slight ly
ou g
 m er
 S u
 C le
 M ail
 M iddle
 ch ain
 L ee
 dis s
 fe ed
ps on
 bo ys
12 1
 sy m
 import ance
 sent ence
 attempt ed
oe ing
AT O
 lawy ers
E vent
w hel
id ering
am ily
ol ic
 I nt
 R a
ab ilities
 not es
 ag encies
 br ings
17 0
 Pr incess
 sk ills
 anim als
 opin ion
Inst ead
 circum st
E D
ot ic
ad ow
 st ood
 W omen
 prot esters
cept ion
 short ly
 environment al
 Jack son
. theguardian
D on
L et
 dec line
 organ iz
 aut om
 assist ance
 scen es
g ate
o oth
at i
 R iver
 ch at
 ch urch
 ent ered
 sit es
ask et
 celebr ate
n ces
 n av
 C amp
 The se
 res ol
 cont ain
 co ord
led ge
 ref uge
 reve als
 host ages
 nomine e
8 2
B iden
 to w
 C al
 wor ried
 un it
 sc ale
19 3
 every body
 occ up
 ap olog
 pred ict
 rout ine
 wide ly
 withd raw
" In
a ire
g ment
in ning
 b urn
un ity
 an x
 se asons
 over s
 over t
form ation
 bu ying
 pay ment
iver se
 viol ent
 surround ing
 rough ly
k ins
ա ր
in ct
 b ound
 b ath
ar on
ic ations
 r ing
 R ad
 N ov
 O h
 sur ge
 ref ere
 col our
 pass ing
 Cons ervative
 temper atures
 pict ures
 politic ians
 occur red
h y
in ent
 re duced
 g ain
The ir
 al ert
 T en
 H osp
ell a
ell or
 were n
ollow ing
 vis ited
 profess or
 Ken nedy
ing ham
 p al
 d ig
 d ating
il it
 st ores
 T our
 G ov
end a
und er
ile y
 gu id
 ob t
 develop ed
 sol ution
 Con st
 pan el
 recomm end
 comfort able
F C
p ut
an o
il ly
 G ood
 O ut
 ear ned
 law makers
 mem ory
An y
 allow s
 cor por
 interest ed
 invol ve
 club s
 effect s
}] },{"
- out
u ce
 p ension
 for g
ra in
 J osh
 up set
 rec alled
ale y
 appro ved
 interest ing
 unlike ly
h ab
u ate
v als
am y
and al
 H a
 H ol
 ab and
 E gypt
 ac ad
 invol ving
 ens uring
 Ed inburgh
 model s
rel ated
 equip ment
M ay
 F ederal
ub b
 lead s
 poss ibility
 entire ly
 spokes man
M A
re ll
ri er
 pro duce
 pre fer
 chang ing
 civil ians
 lux ury
7 4
W ell
e ah
ce an
 R aj
 E arth
 sp otted
ord an
ian a
ail s
ens es
ild ren
 Fr ank
 build ings
ann a
 Francis co
 circumst ances
 t ies
 f ly
 S il
 st ake
 r um
 D ev
od es
 G all
iff s
 close ly
 resear chers
 encoura ge
ers ey
 G en
 br ight
 Gu ardian
 vir al
 Cap it
 Veg as
 t ar
 s and
 d u
 d er
 e gg
 J eff
 per man
 bec omes
 govern ments
 ins isted
 Cl ark
 ed ge
yl um
rap y
 athlet es
 regist ered
 consequ ences
P resident
s hip
in son
 s emi
 n ut
ur d
 G OP
 N ic
 N ick
os ure
 L ew
ick en
 back ground
 loc ated
On ce
 interest s
 neighb or
 associ ated
 mob ile
 Dis ney
-min ute
B ecause
 w id
 c red
 K at
pt oms
aster s
 gener ally
 el ig
 art ists
 significant ly
 feat ured
 custom er
  ing
0 2
k er
 t act
 d rones
 L at
 int ense
 qu al
 ro les
 Y ear
 ins pired
 famil iar
 serious ly
 Sy ria
 z one
 aim ed
E N
P S
i os
y o
z a
 s ick
 n ations
 M ic
 sh ots
 J ul
 cont rast
-b ack
 lot s
 decl ined
 Kore an
 doz ens
 clot hes
 coal ition
4 80
ic ing
ac hel
 ex hib
 dep uty
 cond em
 Af ghan
 val ues
 prior ity
 speak s
 cry pt
" That
T ime
 b le
 d inner
 H el
 D igital
 N ATO
 ag ent
 V er
 fac ility
Al so
 sho pping
 vulner able
 s ending
 w ake
 N orthern
 J ose
 us es
 ar r
 act ing
 cons idering
ph one
 great est
 develop ing
 pat ient
 trad ing
 platform s
n ow
at re
 re action
ans as
 bo at
 mark s
pect ive
 Be ach
 Cent re
 ton ight
3 60
3 80
7 6
D P
I T
d b
g ic
it ors
 T es
 v ess
 imp ressive
 cons pir
 attempt s
 regular ly
 journal ists
E C
 f illed
ver se
 T ory
 v ital
ans ion
 un ivers
 res ist
own ed
au g
 contin uing
 news p
 enjoy ed
 consum ers
 afford able
m ates
r ig
ե ր
 M en
 A v
 co verage
 Ind epend
 susp ended
 analys is
9 8
u an
 t ennis
 in quir
 m and
ak a
 tra um
 ent h
 far m
arm a
 An n
 loss es
 charac ters
 Sy dney
 weap on
 purp ose
% .

V ID
i en
r ant
es h
im ary
ad er
el er
 H un
 pro ve
 pl us
Wh o
ivers ary
ogra p
 class ic
 Gu ard
 rap id
 upd ate
 exerc ise
 brilli ant
d ict
v y
 h un
 n omin
 g e
 ad just
 cl ip
 rep ut
 imp ossible
 sub s
 sw ing
 sw itch
 dr one
 eng aged
 bow l
 document ary
 tack le
C ar
L e
L ook
T ube
 c ert
it u
 co ok
 end s
 set s
 expl ain
 miss ile
 effect ively
 neighb our
 Found ation
R A
e en
it ect
is f
 p ushing
 as ylum
 al ive
ra h
 Ch ampions
 return s
 sent enced
 compet itive
 Sa udi
 batter y
 lands c
ste in
7 3
C an
f ast
h or
y e
as y
 S pe
us iness
 C BS
ie v
anc ellor
 act s
 conf ront
 gu ests
 Re al
35 4
 lab or
 remark s
Har ris
8 90
u ine
 n or
 n one
im p
 O sc
 talk ed
 pos itions
 program s
 restrict ions
 retire ment
a uc
ro s
 M un
 H ot
 un us
 think s
 sign ing
40 3
 post s
 direct ed
 el im
 hold s
 expect ations
 challeng ing
 conc luded
 ic onic
" And
 c aut
 b are
 m ut
 S um
 B ob
 min istry
-b e
 found er
ug by
 num erous
 few er
enn y
 exc iting
 organ isation
 ide as
 mid field
 ill ness
 anim al
 Fore ign
 ded icated
 heav ily
" When
6 24
i able
it le
 st adium
 B o
 se es
 ad apt
 acc us
iz es
erv es
 know ledge
 del ight
 author ity
 contribut ed
 trou ble
" S
- F
0 4
E S
b ie
ic ide
 g rown
 A z
 we ak
 P art
 L as
 k il
lo ved
igh ters
ett e
 neg ative
-e lect
 journal ist
 Raf ah
z one
 w est
 e ast
 C elt
 ad vert
 ( £
 ag ents
 play off
 inv ited
 bus y
 requ ires
7 40
9 6
w a
ar ity
 h at
 d iet
 v irt
 sc oring
 rel atively
 Iran ian
 luck y
 CN N
hatt an
 Hosp ital
" }],"
d ca
t hen
w al
 p ace
 g ap
 J udge
ind s
 ear n
 med al
 should n
 Sp ace
 exc ell
 inform ed
 fear s
 wel com
 refer red
 surf ace
elens ky
8 17
 f ake
 in nings
 P ac
um ar
 G i
ust er
ide o
 over whel
 Le g
 ed itor
 drink ing
isc al
 regard ing
 Def ense
m aker
w ar
re al
 b asket
 p ubl
ut er
 st unning
ec e
 J ay
 wor ry
ert ies
 turn s
 compet e
 ban ned
 reach ing
 hous es
 comed y
i op
t ies
 s ection
is an
 b ars
 b orrow
 l it
 C ard
 B ang
se y
 r id
ap ed
aw ay
 organ is
 Man hattan
yn am
iam i
 mention ed
 veter an
exp ected
 institut ions
 Capit ol
 w ave
 c ore
or ial
 f lying
 n arr
 A gency
 B oeing
 R T
 R ock
 adv is
 song s
 typ es
 sustain able
 bon us
c ious
 f ram
is hes
 H ere
 act ors
 ra pe
 rel ax
 rel igious
 fr anch
omm od
 mov es
 list ed
 equ al
 jud ges
 present ed
 imag ine
 Vir gin
 sym ptoms
M an
U nder
 s up
 for get
 S qu
 A li
ear ing
 Ch annel
 tr ick
 dis pl
 my ster
 kn ock
 reg ime
 bel ief
 head s
-f ree
 sl am
 pri ze
 appro p
 test ing
 threat ened
 bas ic
 Val ley
A b
 w ine
 w ider
 c ards
 st or
od d
os ite
 L ive
 L ord
 out fit
 opt im
 Con n
 spok en
 mat ters
 Ste ve
itut ional
 Japan ese
 strateg ic
I A
b ro
er land
it age
ow ered
 st ructure
 was te
 T y
 min isters
 ent ry
 ext ended
 ev ac
 thought s
 ap artment
 Mo ham
 dismiss ed
a is
g ue
 f ill
ar ters
 h all
 m icro
 D ar
 W el
 acc ommod
 back ed
 cr ack
 head ing
 Car l
 relationship s
 mot iv
 conc ert
 Associ ated
 spark ed
 tens ions
M ar
a ed
s econd
or ation
 p ounds
 e ld
 M id
and ed
 D et
 D aily
 sp r
 dem ands
 list en
/ a
r ating
w est
re ams
 c up
im ir
 H en
 ag enda
 un p
 def ensive
 camp us
 leg acy
 che ap
 prom ises
 reve al
-r un
M e
Y es
m osp
u ction
re ens
 s id
 f irms
 S us
 as ide
ra v
 res ign
ish i
 In vest
 ret ired
 Pal ace
Ph one
' It
g s
i pping
l ife
m o
m ond
 f ish
 g olf
et ic
 I P
ul ous
 H y
 rec over
 good s
 fact ors
 contro ll
 beg ins
 comb ined
 rad io
bour ne
 Oh io
D av
h at
 m ir
 A bb
oc ide
 F A
 F rom
 J ordan
 out come
 out do
ific ial
 ann iversary
 Z eal
 dist ance
-m on
ai wan
 quarter back
 broad cast
 resc ue
 tool s
 Direct or
 Ky iv
- H
c an
d is
 y es
 sh ape
 L iber
 E ven
so ft
 follow ers
 far mers
 sub sequ
tern al
 poss ibly
 prop erties
 incident s
 repl aced
 purch ase
 mort gage
 nar row
F ollowing
i xt
 t ied
in ate
 c raft
 l ies
ir a
ec ial
 T wo
 G ab
ist ics
ust ed
 un ve
 In ter
ren ce
 follow s
 pass ion
 pres idency
 ob vious
 strong er
 eng age
 ste pped
 ord ers
 MP s
 mach ine
lad imir
 princ ip
 enth us
z en
or ne
 T or
 F est
 cl osing
 know ing
 end ing
 min imum
 ear nings
 sy mb
 plan et
 dri ven
 impro ved
 stay ing
 phot ograph
 gen uine
 sched ule
 applic ation
Ind ia
 Wal z
 Ob ama
" My
0 5
F r
N e
 a ims
st one
ly n
 an onym
 D es
 pro ved
all as
ost on
ok es
 pr ay
int s
erv ation
10 3
 fl u
 Ar my
 bre aking
app ing
 cut ting
 consum er
raz y
 incred ibly
 teac her
 sudden ly
- related
I V
b l
j o
 t un
 m o
il i
st ate
ut ions
 B oy
 H ag
 D un
 L ake
 pl ot
 int ent
 show c
ath y
 bl ow
15 2
 inst ruct
Sh are
 div or
 Mad rid
 doz en
 Zeal and
O S
m itted
 t rees
at ically
or ado
 S ol
 A ff
ess or
 inc lus
pt ion
 br ut
 fin ance
 ke en
oot ball
 Sh ow
 mus e
 As ia
 ident ify
-r ight
 bank s
 Med ia
Russ ia
 ven ue
 Lew is
- v
G u
N C
 s ight
 as pect
 B a
 work er
 fe es
 We ek
 ple ase
ribut ors
igr ant
 assist ant
 produc er
 initi ative
 wonder ful
 deg rees
 CO VID
b o
ó n
 a f
in ating
 st uck
ate ful
 r ide
 r acing
 se lection
 there fore
 sc ience
 state ments
az z
ric ult
11 1
 ant icip
 hor se
 accept ed
 sil ver
 nom ination
 negoti ations
 sav ings
 nav ig
o ice
w rit
 c iting
 g ym
 ch annel
 K evin
 lo yal
lo ok
 ra ising
 adv anced
 charg ing
 ri ver
 feat uring
 target ing
 creat ive
 Ex p
 esc ape
 acknowled ged
 Sab ha
S im
a wn
i y
he ther
 W ork
 int ended
 The n
int on
 count y
 ins pir
 mark ed
-c alled
 meet ings
 discuss ed
 chair man
 Wil son
 Bow l
/ f
] ,"
t itle
 p it
 A k
est yle
 ch osen
 ( $
are t
 br idge
 gu ess
 put s
 loc ations
olog ist
 sk y
 crit ics
 test s
 Bro ok
 electric ity
 conspir acy
P er
p art
ic an
th ony
ul ations
ag on
 L ong
end ers
 O ld
 V an
oun ced
 head ed
 expl ains
 six th
 fact or
 fail ing
room s
 prosecut ion
 deg ree
 san ctions
 welcom ed
 muse um
g ian
i ences
u ated
 c inem
as hes
 B or
 at mosp
 pl ants
 up gr
 stud ies
 health care
 hard er
 indust rial
 enc oun
 surpris ed
ij ing
upp ort
- led
b ox
l t
l ights
s ecut
 s orry
 B ad
 R ay
 L ok
 pl astic
 ass um
pr imary
 person nel
 dep end
 stud io
 comment ed
 unc ertain
 ver dict
 highlight ed
 arch itect
 cease fire
 elig ible
! !
B rit
E ng
o ir
r as
w ich
on i
 h itting
 M iami
 T ony
ch ing
 do ors
ord ers
 em issions
-p oint
 Re uters
 appear ances
 dev ice
 dev ices
 tour ists
 cas ual
 pregn ant
 destroy ed
 hospit als
 stor age
C onn
T S
c ar
 t ree
il ton
 re in
am m
 S ud
 S pr
 B oard
ra ham
ri ve
ap se
ass ed
 pol ling
 car bon
 US A
emocrat ic
 const itu
-st ar
 comb at
 favor ite
 cha os
 newsp aper
 Independ ent
-mon th
3 35
 t ears
on om
at al
 m aster
ac le
 B al
ch o
 N BA
 L ast
 de leg
 ab road
og an
 disc ount
 appro val
St ar
 deal ing
ron ic
 dra wn
 question ed
 tem porary
 ple as
hold ers
 mix ed
 subst ant
 shar p
pin ned
' The
' We
N A
h ow
 t iny
er ation
at ar
or ious
is her
 d uty
et a
ver ty
 M use
 P A
 D i
 E very
 E conom
 reg ret
 Bl ue
 announ ce
 intern al
block quote
-l ong
 percent age
 celebr ated
 appoint ed
 mist ake
 oppon ents
 odd s
 chem ical
 tom orrow
l an
w ith
 d ates
 sa ved
 R ub
 v ent
ab eth
 W alk
 ch ose
 und ers
 reg ions
 prom ise
 activ ists
 temper ature
 underst ood
 Swed en
 cyc le
 inquir y
D e
M c
v in
w orld
ic ate
 e c
 an c
ag a
res ents
 comp ar
ree k
ass ador
 V ladimir
 elect oral
 bl ame
 gu ide
 po verty
 pack age
umm ary
 reput ation
R es
b ell
v ant
in ter
 he ight
 M at
 T er
 r at
 D od
ew s
gg ed
 cust ody
 capt ured
 dam aged
 z ero
ocol ate
S e
m ate
u ations
 c e
ar io
 e astern
ad i
 M ir
 B oston
 P en
 P ublic
 J en
 K el
 O ver
 int ens
 over night
 offic ially
 child hood
 ter rif
 find s
 Z elensky
 Co oper
 ide al
 pat tern
 argu ment
 pract ices
 restaur ants
 perman ent
it able
 m ine
 M icro
 T ok
 j ur
 all iance
 sc andal
 rem ote
az ine
 em pt
 ear th
 trans p
As ked
 cre am
less ly
 fund ament
 fall en
 techn ical
 deter mine
 sound s
 estim ates
 devast ating
second ary
W here
in ations
at hered
or a
 m outh
 re ject
 st ations
 A h
 P ay
 cl oud
 other wise
igh th
 inst ance
 equ ity
 caus es
 celebr ity
 profess ion
 prep aring
 streng then
 controvers ial
cont ributors
 Step hen
 neighbor hood
6 60
E m
I P
a pped
k o
w orth
 f aster
id ays
 l iqu
 re ducing
 g ro
et her
 S NP
 R oman
em it
 L y
our nal
 E V
 pe ak
 acc omp
 hand ed
 hand le
 aff airs
 perform ed
 perform ances
rict ly
 fun ction
 girl friend
 Te leg
het ic
 regul ations
 diagn osis
= "
E A
ա կ
re hens
 M ass
." "

 sec ured
 expl ore
velop ment
ann y
 mus ical
 cho ices
 Col umb
 road s
 susp ected
 shel ter
 travell ing
 grant ed
" C
t a
 l ie
 g ained
 S k
ol es
ab led
 U p
 dis h
 any where
 keep s
 result ed
 mus c
 Co ast
 eng agement
 detail ed
 sett lement
 Fest ival
- round
s ummary
 the ory
 f iscal
ut ies
ir ty
 I ra
 T ories
and o
 R ose
 W ild
 F il
 J ac
 J ersey
 comp ens
 Ch urch
 des ire
 may or
att ributes
 ent ering
 opp osite
ech an
 Br ad
 room s
 capt ion
 liter ally
Time zone
F A
 w ore
 c ell
im al
 T aiwan
 r aces
20 8
ab s
 ex it
 E lect
 our selves
 feel ings
 vis iting
 jo ining
cast le
 discuss ions
 Air port
 pers pective
 Cons ervatives
 convers ations
 pra ised
 Ac ad
 cooper ation
 Afghan istan
 franch ise
in er
 o w
ot ing
ut ed
 st ability
 M u
 M ount
 R ah
 R angers
 H ay
 N ev
 cl ash
 St ud
 them e
 find ings
-c lass
 complaint s
 diplom atic
- N
- R
L L
w as
 t ie
 a st
an th
 to ll
ad el
am as
ter y
 B est
 H aw
20 9
 W ay
 W ater
 sur ve
 col or
11 4
 prom inent
 host s
 You ng
 dram atic
 narr ative
- he
H E
H aving
S W
p ay
r ations
 w ra
 c ul
 f ought
 h al
 re un
ad ian
el ines
 M iller
 R edd
 G P
 sh out
 E v
 un less
 res olution
Th ree
 some body
 no body
esp read
nes ota
 mot ion
 Victor ia
 anx iety
 unus ual
" s
- -
R C
a un
 f ro
 f asc
 p ock
 g lo
 y ellow
un ior
ul s
 con vention
 R oss
 D own
 W at
 L et
end ment
 su c
 O k
 exp er
com fort
12 5
 mil k
 incre ases
 art ificial
St ill
arm ing
 stay ed
 hor rif
 contact ed
 pict ured
 volunt e
 desper ate
Ukra ine
 landsc ape
5 39
7 80
o j
er on
or ic
 f u
 con ven
 R ee
 sh ocked
 K ent
ass y
 ar gue
 campaign s
 court s
 Ad am
 hom eless
 imm igrants
 var iety
 squ are
** *
 unc lear
 boy friend
itz erland
 Celt ic
 suc ceed
K e
h and
i at
l ong
 t ips
as p
 d ynam
 G and
ess ions
 F ire
 J ean
 V ol
 back ing
 del ays
On ly
24 2
 mov ies
 fore ver
 host ed
-l ike
 Co hen
 const antly
 discuss ion
 conn ected
 Chief s
 max imum
8 20
 t rib
he im
in formation
 s amp
er as
 w estern
 d ial
el a
 H ear
 D eb
 O s
ond uct
ass ing
iz abeth
 br ands
 cons ecutive
 own ed
ever al
40 9
 stre am
 sum mit
48 6
 Col orado
 Pro f
 interview s
 occ as
 priv acy
 lab el
 hy d
 Res earch
 specific ally
R ec
j amin
l aim
t w
 w age
 f ab
 g onna
ow a
 M em
 B ab
 ex cess
 j ack
 E lection
 rep resents
 det ect
 test ed
 test im
 represent ed
 prosecut or
itc hell
9 4
m ad
p oint
u able
il a
 int ention
 res il
 St orm
 fe e
 found ed
 commun ication
 stre aming
 sat isf
bre ak
Dav id
 Muse um
9 3
g a
i h
 t ur
 p owers
 m echan
 l ights
 re li
 be ar
ur a
 A BC
 T own
 con cl
em an
ost er
ge red
 un expected
rat ors
-c ent
 beh alf
 perform ing
 cor ruption
 investig ating
-h our
 lim its
 coll aps
 orig inally
 Sar ah
 wid espread
 Osc ar
- k
/ d
8 60
er ate
al est
 m agn
as er
 S outhern
 I D
 ch ampions
 not ing
 K ap
 fl av
ott e
 serv es
 trans l
 Ar men
 Be ijing
 sol ar
Am ong
 assass ination
- re
W ill
f ile
i ro
 M arg
 A dd
em en
 ch icken
our ce
 K ansas
ap ing
 ne ither
 ro of
 comm and
ric ane
 Sh arma
-f inal
 adv ised
 prom ote
 suggest ing
46 1
 prep are
 inn oc
 award ed
uild ing
Phot ograph
 Att orney
  u
7 17
I M
O C
l adesh
z y
 c os
 H ou
ast ed
 j u
 ( "
ress ing
ick ed
urn ed
enc er
ner gy
ced ented
 gr ateful
 disc rim
 enjoy ing
 answ ers
 pun ish
pre cedented
 teac hers
 scr utin
resp ond
A meric
c aster
 h ole
st ar
ot o
 g athered
 I S
 F amily
ial s
ure r
ub s
 inc or
 over se
 acc ur
 month ly
omet imes
 prot ected
 And erson
 ext rem
 che f
 Ph ill
 appear ing
 Br idge
 For ce
 arri val
 broad er
 Tur key
 oppon ent
 Hun ter
 Acad emy
E n
b ut
b led
ա յ
 t ip
 c abinet
 c razy
 f led
 f itness
 A re
if er
 N AS
 ch ocolate
 out s
 me al
 new ly
ump h
 dep os
 spec ies
 ve get
-w ing
 Pro ject
 tot ally
 proper ly
 achie ved
 cal m
 Mur ray
 material s
 mount ain
 manufact uring
 categ ory
 Eth iop
 organiz ations
 excell ent
 Tok yo
9 39
B ar
 s oul
 p ump
ic y
 A wards
 D utch
 le an
 had n
 O ther
ian o
 act ual
 tra ined
 fl ow
 ins pect
 attack ing
 opp osed
olog ies
 ball s
 As ian
 impro ving
 coll apse
 cross ing
":[{" _
 brother s
 bag s
 agg ressive
 frequ ently
 celeb ration
O ffic
w ick
 t ank
 th ick
 l oud
 S af
 st ruct
 P el
 R w
 H ur
 L u
 St an
 cap able
 leg s
 Ab d
 hor ror
 rare ly
 teen ager
 ang ry
 perm ission
 ing red
 kil omet
 atmosp here
 Ira q
" What
2 25
n ame
 s ac
 b ail
 al t
 r ural
 N ik
 se vent
ord inary
 us ual
 rec k
ons in
 seem ingly
 land ed
 gold en
 Govern or
 bott le
  հ
S m
S outh
b oy
p a
 S on
 C ast
 r amp
 L o
 exp osed
ere my
ax y
 ri vals
aur a
 ple aded
 else where
isc onsin
 kick ed
 Arab ia
 enh ance
 apparent ly
0 99
 m ate
ot al
 be loved
 is ol
 C ath
 M ost
ra id
 H ind
 se qu
ap ers
 count s
ove red
 bl ocked
 invest ments
 ter min
eri or
 sk i
 As sembly
 super mark
 div ision
":[ ],"
 terror ist
 analy sts
 entertain ment
 somew here
2 20
> ,
A M
h it
l aw
ed ing
an es
is emit
 e ase
ac c
 G e
 L ife
 F e
 O ur
 int im
 St rip
 co oking
ov a
 every where
riend ly
 vot er
 compet ing
55 3
 Or gan
 strik ing
 appoint ment
 lif estyle
 vir us
 scient ists
 cong ress
 basket ball
 Virgin ia
h ire
n am
 w ing
 m al
 m ask
 d ying
 l os
 l atter
et ime
ow nt
 D ub
 D allas
 K elly
ink ed
 Tr ust
 In s
 mon it
 sm ooth
 contin ent
 ter rible
 Palest ine
-e lection
 Me ghan
 Islam ic
 approp riate
" So
A D
l ined
 c oc
or ough
 f ruit
 l ying
 B h
ag ers
 H or
 sp aces
 lo b
act ive
av ed
aw a
 Mar c
 det ained
 ob st
 gener ations
 Min nesota
ele ments
 Sw itzerland
 design er
 dead ly
iec e
 represent ing
 Ser ies
 adop ted
keep er
 swim ming
 aband oned
 Tes la
 accus ations
" As
e qu
 s li
 b om
ic op
ut ter
ow ell
ec urity
 T ro
 P S
 con cept
 H ait
 H aley
 D oug
 ch ap
 whe el
 pre par
anc er
ert s
 tra ged
 bl amed
 support s
 ob lig
 friend ly
 hand ling
duc ation
-h alf
bur g
 touch down
 sens itive
 Sim on
 Phot o
 diagn osed
" Our
C O
k m
on ent
 c ited
 to ile
 for med
ol ved
 M S
 B eng
 al ly
ort ed
 N ad
 N ation
 N ight
 F BI
 su gar
 me at
 cont ext
ass ment
 dis aster
 sc ores
ink ing
aw are
gu ard
att ered
 employ ment
 deliver ing
 behav ior
 fant astic
 testim ony
> The
G et
j an
 p hen
il st
 be ating
ag an
 r ushed
 sh ops
 W ol
ep ing
 exp lo
 man if
 acc eler
 bre ad
 air line
 av o
 love ly
 manag ing
 land ing
umb ai
 present er
 arri ve
 tour ism
 buy ers
 sett led
 cam eras
 ess entially
 Alex ander
 Mel bourne
GB T
 collabor ation
 Hen ry
 empt y
R ead
U s
g ender
i ot
l as
l ash
 t ribute
an ning
ic ine
 th rew
 st ressed
 I owa
ag g
 r ugby
 K umar
 me re
It s
 ind ex
 gr ass
 hop ed
iven ess
Ch ina
 friends hip
 dead line
 wind s
 El izabeth
 Atl anta
 Mic hel
 bare ly
" She
2 10
u y
u zz
 t all
 f el
 f ame
 m igration
ay a
 I d
us k
 M any
se ason
 sa ving
 D am
 N ig
 U nder
 she ll
 rec ip
lo g
Th ough
og ether
ank a
 ph ones
rem lin
 spec ulation
 la id
 track s
 Mus lim
 recogn ition
 drink s
 Pat rick
 encoura ged
 hy p
 wat ers
 Mac ron
 aware ness
 refer ring
 owners hip
emp loy
 Ree ves
- J
- W
2 60
r um
it ious
 f lex
 d im
 e lev
am ber
 S aint
 S anta
 con cent
 F und
 F ootball
 not iced
 rec overed
 kn ife
 V en
 add ressed
 fil ing
 del iber
 hope fully
 low est
 soft ware
 Matt hew
 household s
 corpor ate
adel ph
 Gand hi
. N
F ans
Y our
p orts
u its
x it
 m ap
 d reams
st ers
ur rent
 S n
ol en
 C ru
 an ger
 pro hib
elf are
ik a
 former ly
 Sp ecial
 Pr ot
 appro ached
app y
 oper ate
 wind ows
 sil ence
 recomm ended
 passeng er
 consist ent
 unders c
/ ae
a o
r ative
u ous
ar l
 I ll
 C all
 C oll
 y n
 B udget
 P an
 H amp
op her
 F ood
 se ized
ell o
Th ank
 V illa
 ind eed
-f or
 ext ensive
 sol utions
 employ ee
ograph y
 hon or
 prior it
 analy st
 organis ations
 Sud an
 Micro soft
D an
L ab
f ront
r ates
 a wards
it i
 th rown
 S om
 st one
 R os
 E s
 sp ots
 ad vent
 rep orter
row s
let s
 col on
 Pr adesh
 host ing
 food s
 mean while
 ant isemit
 fun ny
 Net her
 pack ed
 disco ver
 stock s
Every one
 fat al
cript ion
 tast e
 guid ance
Eng land
- K
- go
ing e
 to uc
 d rew
am i
 A FP
 sp in
rou s
 K n
 un precedented
 so le
act ions
 St r
lo ad
 qu it
ubl in
 under w
 supp lies
 win ners
 el ite
 Ad minist
 phot ograp
ribut ed
 coach ing
 prison ers
 park ing
 Bro ad
reas ury
 univers ities
O b
S w
l ow
p x
 w alls
 h am
 h idden
 he ll
 T al
if ting
 H ung
ab et
 W isconsin
 ch ips
 E nd
 k iss
 cl ients
 rec ruit
 app s
 att ending
 te le
ris on
 tra ff
 loc als
 Ar gent
uck y
 An thony
 writ es
 break s
 attempt ing
 activ ist
 mult i
-st yle
 tro phy
 cal c
 emb arr
 surv ived
 mag azine
 consist ently
 rom antic
 symb ol
 Aff airs
- T
B est
T A
p ret
v id
w oman
ո ր
ing ton
 f ault
 g ay
im a
 P re
ail ed
ens ions
ren cy
 def ender
 Sh ah
ret t
omm y
enn a
 tit les
 Ben jamin
 remark able
 flood ing
 clot hing
 fle e
 controvers y
 cro re
 Bang ladesh
a ired
it o
 p in
 g ains
 C C
 M itchell
 B as
 P ower
est o
 D ie
 un its
 un known
 exp ansion
 so il
 want ing
 rem em
 New castle
ix el
 ph ase
18 2
-f riendly
ier ce
 real ise
 review s
 slow ly
 necess arily
New s
 Ber lin
 disappoint ed
 innov ation
 exper iment
 s em
 c art
 in her
 h ide
 g all
ut s
ro g
ig en
 T urn
 H outh
 G lobal
 sh adow
 F re
 J ess
 su icide
ap es
 rec ording
ock s
rit ion
10 9
 end orse
ph ones
 ass ert
 Wh y
 bre ast
 met al
 val uable
 prof ile
 Lab or
 Con vention
 Sen ator
 gen ocide
 parliament ary
 Ant on
ibr ary
May be
C o
D C
W hether
m other
r ity
r ance
 c rown
 p up
 l unch
 re ward
st ream
ac ter
 st ating
 C ost
 B all
 B ull
 R ights
 J ournal
 K ir
 lo ves
ven ue
 Sh ar
be at
 bro wn
 form al
 strong ly
 De velopment
 civil ian
 Mor ning
 initi atives
 du o
 outdo or
adelph ia
 Nether lands
  id
- E
B ack
C he
M ich
o a
 s its
om pl
ent le
 st ro
 C ele
 M ajor
 A uthor
 B ra
 r het
 U C
 so vere
 St rictly
pt on
 app lied
 war nings
let e
15 9
17 6
 cap abilities
 mem ories
ann ah
loy d
 coun sel
 Dav is
 hol idays
 pred icted
 maint aining
 surv iv
 lik ed
Russ ian
-pro file
 apprec iate
 obt ained
d og
m un
 a irst
 f ulf
 b es
 l ocked
 g ard
 e ager
 for ms
 B ern
un a
 H ard
ab ad
 can cel
 co aches
ov ic
 end ors
ph ic
 sm oke
 ins ist
 ref erence
18 0
 Re v
 success fully
 walk s
for mer
ask a
 shock ing
 propos als
Ex p
 select ed
 Atl antic
 stret ch
 overwhel ming
 Dod gers
 Hou ston
. )

S ant
b el
l ers
m et
 s ch
 c ock
 n urs
 g ig
 B rian
um ble
 H uman
 ex ternal
 L GBT
 E ducation
 but ter
ure au
 cont em
 te a
 bo ats
 cre ation
 result ing
 hum ans
 men u
 expect ing
 nation wide
 extra ordinary
 particip ants
 Ste ven
 depart ure
 eld er
 traged y
H O
M ark
n ic
á n
 n ative
et ing
el and
 st ages
ir ts
 B ry
 sh irt
 U s
 k ing
 cl im
 dis rupt
 Y our
 def ending
 cap s
 adv iser
 rele vant
 Car ter
 moment um
 describ e
 bad ly
 hon our
 critic ized
 collect ive
 maint ained
 disp ute
 Rober ts
 promot ing
cel ona
 cop y
 unve iled
 Columb ia
- pl
z ing
 t or
in ers
 w elfare
it ure
 f oss
 p ure
us ive
 M umbai
um es
 W ell
 W atch
ub ble
 dis ag
int ed
 any more
 hel icop
 leg it
 inst all
 Re form
br idge
 experi encing
 cor respond
lob ally
 Can adian
 address ing
 Mo ore
 er up
 prem ium
 sho ppers
 profit s
 politic ian
 Gal axy
 tar iffs
 Squ are
 divor ce
 Rw anda
E W
h o
 the rapy
 b arg
 n erv
 g ri
us al
 B ook
 R on
em ed
qu arters
 O K
 un n
 gu est
 str ict
 film ing
 market ing
 All en
 celebr ating
 dest ination
 bas ically
 clean ing
 independ ence
 La ure
 fix ed
 prompt ed
 adop t
 vacc ine
 Const itution
  x
  iron
b al
 t ag
 s alt
or ge
 h ang
ro le
 M A
 A ccording
ul es
 r u
 r all
 D ublin
ew ork
lo om
 sc ared
19 2
 own s
15 6
17 8
 eff icient
 Rep resent
 real ised
 fore st
 let ters
 Cl inton
 sit uations
 Pol it
 bene f
 ur gent
 abs ence
 cross ed
 respect ively
 sat ell
 rad ical
 indic ated
 af raid
0 62
f ather
 the ft
er ies
or ous
 f urn
 f ighters
 m oon
 re ass
 C y
 wh is
 R eb
 D iv
 E nergy
 cl imb
 ag ricult
ang es
ov iet
 bet ting
 found ation
 ext ent
 poss ession
augh ters
port ion
eg a
 News week
-w inning
 jo ke
 Ad ams
 Pro g
 beg un
 deep er
 ground s
reg on
 comb ination
 histor ical
 Mur phy
 Gold en
 breat h
 Hot el
 Walk er
rehens ive
C on
 t weet
 w ickets
 m ood
 l akh
 y ield
 we igh
 T ime
 con ver
ct or
 R ow
 G irl
 G reg
 sh oes
 L uke
 F ort
 E ve
 O pp
ord on
 lo g
 lo ans
ite ment
 no ise
 ind ict
min ster
-f oot
14 1
enn ifer
 Ab u
 demand ing
 port ray
 draw ing
 require ments
 purs ue
 exclus ive
 displ aced
" M
2 40
b i
l ah
m ath
 t ail
 b ol
ion e
 R el
 sp ons
 her itage
 me als
 cont ribute
av al
Th rough
 imp lic
erv ing
 des erve
10 1
10 2
ene z
 che aper
 sw ift
 fund ra
 Co le
bb ed
 describ es
 conv in
 particip ate
 complic ated
 vess el
 encoun ter
 b ull
 d uties
 I N
 C rown
and y
 sh ips
 F air
ub bed
 en orm
 res ort
 back lash
 should er
 inf ect
 And y
 Wh o
 aff air
 South gate
 impact ed
 focus ing
 resident ial
 protect ing
 colle ague
 Med ical
 pil ot
 involve ment
 sevent h
s en
x ic
í a
ի ն
 t ort
he nt
 c ott
 in ev
 h ik
le ase
 e ighth
am il
 A y
 B ru
 N avy
 sh r
 J es
 comp uter
 Ch air
 bl ank
 war rant
40 8
 ent re
 pass es
ann on
 May or
33 6
 Aust in
irm ingham
 fun eral
 impact s
 emer ging
 argu ing
 critic ised
 bab ies
 Phil ipp
 Phil adelphia
 sal ary
 Met a
 Rob inson
otten ham
 deploy ed
Per haps
- owned
J oe
O A
T I
b ing
h ost
m ir
v i
ե լ
on ing
 w ounded
 p ill
ver ning
 C ook
 P itt
ment al
 ex ceed
 L ittle
ard o
 per pet
 sc ream
 V iet
50 1
30 4
 sm ile
 che ese
 sub ur
 kill er
 ball ots
for ce
 equ ally
 suff er
 conv iction
 Just in
 recogn ise
 peace ful
 encoura ging
 rank ed
 upd ates
 replace ment
-le vel
 Jam ie
 exhib ition
Lab our
" P
/ c
T w
k ing
m ission
x y
x imately
 t ent
 t aught
in os
 p ip
ve t
ot he
ay ing
ig ation
 C op
 sa uce
um s
um er
 R ishi
em ail
 G ary
art ed
 after math
old s
 kn ee
 fin ishing
 high lights
 world wide
 person ally
 Russ ell
 night s
 view ed
 investig ate
ams ung
 line up
 Comm un
 ple ased
 dro pping
 vo ices
 perfect ly
 norm ally
 Cam eron
 jail ed
 pet ition
pre ne
 arr ange
 compens ation
 convin ced
O U
r ac
 p ink
 d emocratic
om ed
 for cing
 B ol
un ction
 r ot
 R og
 R achel
 v owed
 G et
 sh all
 L am
 F ern
iv an
 K remlin
 The ir
ious ly
lud ing
ater al
 tra gic
 Mr s
 trans gender
 fac ilit
 fact s
 capt ure
 strik er
 sust ained
IN G
 pregn ancy
 pled ged
-sc ale
 scrutin y
' S
b ling
y ou
he m
 st olen
 A ward
ul ating
 ha bit
ag h
 G a
 F ord
 ag es
 un w
 dec re
 care fully
 spe aker
 sing ing
33 3
 const ruct
 class es
29 5
 special ist
 sn ap
 seek s
 represent atives
 amb assador
 applic ations
 trig gered
 brut al
  ...

O ut
r ors
it ar
it led
 b ump
 p iv
 re ly
 st un
 C ra
 M L
 A cc
 B alt
 N BC
 F red
 J ake
 E ver
 cl ar
 op ens
 ph il
-b acked
 members hip
Ch rist
 poll ution
 phys ically
 reflect ed
 surround ed
bre aking
 Rad io
 liqu id
5 60
E ach
 s ke
an ied
 p or
 be aches
ur i
ol i
ri v
 com eb
ear ly
 L ady
 J eremy
 out rage
 Th ree
 under t
 bl ind
15 3
 invest ing
ik h
 sy mp
 art s
 Bar celona
 main ly
 strugg les
 emot ion
 request ed
 Fore st
 delay ed
 Spe aker
 caut ion
 Pac ific
igen ous
 rhet oric
- known
b ot
 p ed
ar re
nd ra
ro it
 S oviet
 st ance
 C ross
ag en
if orm
 L im
 L and
 cl ient
 man ner
 any way
row ing
ren a
30 1
 person ality
 Sp ort
 hand ful
 exc itement
 const ant
 ur ging
 ur ban
 beat en
 base ball
 rom ance
 liber al
 delight ed
orne ys
 Administ ration
" For
- ed
- lo
2 19
C H
S everal
g or
k ish
t le
 t ired
he ast
 the atre
at oes
 m ad
 d ownt
 e t
 st able
 B ack
 T reasury
ri el
 r ating
um ber
oc ated
 O d
ict ions
 sc reens
 V ill
 imp ressed
 In c
 br on
 ask s
 che st
22 1
 reve aling
 const itutional
 break fast
 Ro hit
 argu ments
 pain ful
 surv ive
Israel i
 witness es
 reform s
Phot o
 bom bs
- week
/ A
5 30
B r
F our
N S
 a ver
in ity
in line
 w aves
 f ed
 d ies
 g lobally
 C as
 we ird
 T op
 R en
 ch ip
 F our
 J ason
 go verning
 O x
 pr ide
 acc ompl
ib ilities
 imp osed
 reg ister
 min i
 long time
 fl owers
 head lines
On line
 str ange
 old est
 Se an
 threat ening
 round s
78 7
 boss es
-se ason
 gather ing
 resol ve
 refuge es
 bath room
 enthus i
 overse as
 Hamp shire
lah oma
7 66
d ale
 b old
 d iverse
 d aughters
 re duction
el d
 S lo
 C irc
 A th
ce ived
 B ecause
 al ign
 D C
ist ent
 j oked
 E ric
 so ap
 tr uck
 sc am
 dec or
 under way
 week ly
alk ing
gg ing
ather ine
15 7
 point ing
 dep th
 fr ame
 mem or
 disc l
 milit ants
 manag ers
 Ham ilton
 gl am
 techn ologies
37 2
 trad ition
 represent ative
 dro ve
 contract s
 cal end
 sport ing
 reflect s
 expand ed
 Com bs
 rac ist
 Ag ain
ici ency
 method s
 egg s
 resist ance
 traum a
- comp
4 47
C ol
o z
r d
r ame
 g ut
 g otten
 e lement
 e lements
ac he
ro id
ur ther
 st ir
ri ers
 W eb
 O regon
int end
rit ies
 Y et
 Y emen
 bl oc
 dep ort
 inst ru
 prom ising
 vis ible
-s p
 str ing
22 8
 fact ory
 Br and
 val id
 Pol and
work s
 ste el
 ple a
ival ent
 popular ity
 check s
 gun s
 rout es
 Mor gan
 er ror
 En ter
pro fit
 proced ure
 collaps ed
 u pper
 lob by
. '
. )
O T
W A
 f inger
 n in
ut ing
 C are
 A ut
 B usiness
 B irmingham
 r ig
 L ions
 L iam
 F ield
 not able
 se ed
 K oh
ure rs
 exp osure
 comp rom
 part ly
 te aching
anc ial
 co vers
 vis its
-s ign
 less ons
 investig ations
36 6
88 4
rup ted
 execut ives
 dest ruction
 On ly
amb ling
 rob ust
 assess ment
 Bre xit
 marg in
 embr ace
 uncertain ty
 anc ient
 discrim ination
 ingred ients
 foss il
 nerv ous
" H
4 38
A re
B et
L a
P ar
S E
] ,
a ven
l abel
o en
u ght
 b urning
 h ired
 l ady
ac cept
 M ot
 B on
 B urn
 B eck
ch an
 con ced
 R ome
 ex ha
ind a
 cont ains
 dis order
 V in
 bet s
 inter im
 med ium
 tri als
 care ful
 ext end
 ris es
 prog ressive
 cor on
 host age
 tax pay
 Q atar
 sol ve
 demand ed
 amb itious
 fair ly
 launch ing
 fest ive
roll ed
 jump ed
ու մ
 proceed ings
 crypt o
 slam med
 fundament al
- inc
M E
l ive
s m
t t
al le
 h ub
 h ung
 g entle
 as sembly
ill ance
 B ell
 T el
 R et
 v ib
 G il
 G un
 N as
ab ama
 L yn
 pl ate
 j ew
nt y
 K ong
 O per
 ne ut
 rec all
ock ing
 V oice
 br anch
 tra ins
led on
 Wh it
 sex ually
 West minster
 treat ments
 priv ile
 hope ful
 div ided
 Em ma
 unf air
 Serv ices
 regard less
 epis odes
imb ledon
 Trans port
 Charl otte
 myster y
 Ethiop ia
 monit oring
 Beng al
 comeb ack
- com
. K
4 33
p es
re p
 c ous
 c ells
is ive
 p osed
ou b
 d ump
 th in
st al
ol is
 A le
th rough
 W in
 L ike
ast ing
 j et
lo se
 acc using
 fil med
 gr id
 Br other
 jud gment
 Count ry
 crim inals
 aud iences
 broad caster
 improve ment
 Thom pson
 rapid ly
 Cath olic
Mich ael
 entre prene
- one
4 25
9 42
I R
M S
Q u
W atch
h as
k es
 o cean
 b orders
 p ose
ar as
 to ug
 d ressed
 re ign
 n ick
ac ular
 H as
 v ibr
 sh ame
ant ed
ick y
 reg ulation
 It s
 bu zz
 inf ection
 cle ared
 dist inct
 invol ves
36 2
 sol o
 read s
 bill ions
 ur ge
 Off ic
 Mus ic
 King dom
 prior ities
 clos ure
 contribut ions
 suspect s
 throw ing
 Mary land
 Daniel s
aren cy
aze era
erb ai
comfort able
 dial ogue
) ;
0 33
6 39
7 21
W est
i ants
 t one
 w ages
or g
al o
 in aug
 d ur
 S her
 G DP
 L A
 j e
 j unior
 comp rehensive
 pr ote
 sc ar
 dec ent
 every day
 ear ning
com es
let on
 Israel is
 tri ps
 Mar sh
ret e
 young est
 requ ests
irl ines
 read ers
 fall s
 Em ily
 doub led
 prompt ing
 tim ing
 integ rity
 midfield er
 Spr ing
 traff icking
Sant is
  +
/ world
5 90
7 50
T ra
p an
v ironment
 l ad
 for th
 I b
 I an
 C ivil
 T oday
 P ad
 D omin
 v it
 N az
 pro be
 E p
 rec ru
co ver
 mon itor
rat or
 sy n
ird s
 met res
 press ures
26 1
 account able
 Ad v
 eng aging
 access ible
 den y
 collect ed
 Mex ican
 CN BC
 establish ment
 Far age
 canc elled
 acad emic
 inspir ation
 resil ience
 intim id
 Author ity
enez uel
" D
5 78
6 19
f ortunately
m m
p ed
w en
y les
ն եր
re ck
 s ib
or i
an ia
 d ict
ic ion
le ep
 re ar
 re hab
ig g
 A rena
 T ri
ul pt
 J ane
ap h
 inc ent
 after wards
ind er
 pre ced
 show er
 def ended
 invest ed
 tri es
 dep ending
 inst itution
 vis a
 organ ised
 Comm on
 For ces
55 7
 adm it
 non profit
69 5
sc ript
 box ing
 Niger ian
 witness ed
 Def ence
 minor ity
olit ical
 mo ist
 aspect s
 profession als
 Saf ety
 Die go
 LGBT Q
- pr
G ood
M or
b dd
 t orn
 c ens
 b oun
ar o
 m os
ur u
