{
  "version": "1.0",
  "truncation": null,
  "padding": null,
  "added_tokens": [],
  "normalizer": null,
  "pre_tokenizer": {
    "type": "Sequence",
    "pretokenizers": [
      {
        "type": "Split",
        "pattern": {
          "Regex": "[^\\r\\n\\p{L}\\p{N}]?[\\p{Lu}\\p{Lt}\\p{Lm}\\p{Lo}\\p{M}]*[\\p{Ll}\\p{Lm}\\p{Lo}\\p{M}]+|[^\\r\\n\\p{L}\\p{N}]?[\\p{Lu}\\p{Lt}\\p{Lm}\\p{Lo}\\p{M}]+[\\p{Ll}\\p{Lm}\\p{Lo}\\p{M}]*|\\p{N}{1,3}| ?[^\\s\\p{L}\\p{N}]+[\\r\\n/]*|\\s*[\\r\\n]+|\\s+(?!\\S)|\\s+"
        },
        "behavior": "Isolated",
        "invert": false
      }
    ]
  },
  "post_processor": null,
  "decoder": null,
  "model": {
    "type": "BPE",
    "dropout": null,
    "unk_token": null,
    "continuing_subword_prefix": null,
    "end_of_word_suffix": null,
    "fuse_unk": false,
    "byte_fallback": false,
    "ignore_merges": false,
    "vocab": {
      "\n": 0,
      " ": 1,
      "!": 2,
      "\"": 3,
      "#": 4,
      "$": 5,
      "%": 6,
      "&": 7,
      "'": 8,
      "(": 9,
      ")": 10,
      "*": 11,
      "+": 12,
      ",": 13,
      "-": 14,
      ".": 15,
      "/": 16,
      "0": 17,
      "1": 18,
      "2": 19,
      "3": 20,
      "4": 21,
      "5": 22,
      "6": 23,
      "7": 24,
      "8": 25,
      "9": 26,
      ":": 27,
      ";": 28,
      "<": 29,
      "=": 30,
      ">": 31,
      "?": 32,
      "@": 33,
      "A": 34,
      "B": 35,
      "C": 36,
      "D": 37,
      "E": 38,
      "F": 39,
      "G": 40,
      "H": 41,
      "I": 42,
      "J": 43,
      "K": 44,
      "L": 45,
      "M": 46,
      "N": 47,
      "O": 48,
      "P": 49,
      "Q": 50,
      "R": 51,
      "S": 52,
      "T": 53,
      "U": 54,
      "V": 55,
      "W": 56,
      "X": 57,
      "Y": 58,
      "Z": 59,
      "[": 60,
      "\\": 61,
      "]": 62,
      "^": 63,
      "_": 64,
      "`": 65,
      "a": 66,
      "b": 67,
      "c": 68,
      "d": 69,
      "e": 70,
      "f": 71,
      "g": 72,
      "h": 73,
      "i": 74,
      "j": 75,
      "k": 76,
      "l": 77,
      "m": 78,
      "n": 79,
      "o": 80,
      "p": 81,
      "q": 82,
      "r": 83,
      "s": 84,
      "t": 85,
      "u": 86,
      "v": 87,
      "w": 88,
      "x": 89,
      "y": 90,
      "z": 91,
      "{": 92,
      "}": 93,
      "~": 94,
      "": 95,
      "": 96,
      "": 97,
      "": 98,
      "": 99,
      "": 100,
      "": 101,
      "": 102,
      "": 103,
      "": 104,
      "¡": 105,
      "¢": 106,
      "£": 107,
      "¦": 108,
      "§": 109,
      "¨": 110,
      "©": 111,
      "ª": 112,
      "­": 113,
      "®": 114,
      "¯": 115,
      "°": 116,
      "±": 117,
      "³": 118,
      "µ": 119,
      "·": 120,
      "º": 121,
      "¼": 122,
      "½": 123,
      "¾": 124,
      "¿": 125,
      "À": 126,
      "Á": 127,
      "Â": 128,
      "Ã": 129,
      "Ä": 130,
      "Å": 131,
      "Ç": 132,
      "È": 133,
      "É": 134,
      "Í": 135,
      "Î": 136,
      "Ò": 137,
      "Ó": 138,
      "Ô": 139,
      "Ö": 140,
      "×": 141,
      "Ø": 142,
      "Ü": 143,
      "ß": 144,
      "à": 145,
      "á": 146,
      "â": 147,
      "ã": 148,
      "ä": 149,
      "å": 150,
      "æ": 151,
      "ç": 152,
      "è": 153,
      "é": 154,
      "ê": 155,
      "ë": 156,
      "ì": 157,
      "í": 158,
      "î": 159,
      "ï": 160,
      "ñ": 161,
      "ò": 162,
      "ó": 163,
      "ô": 164,
      "ö": 165,
      "ø": 166,
      "ù": 167,
      "ú": 168,
      "û": 169,
      "ü": 170,
      "ý": 171,
      "þ": 172,
      "ÿ": 173,
      "ā": 174,
      "ă": 175,
      "ą": 176,
      "Ć": 177,
      "ć": 178,
      "č": 179,
      "Đ": 180,
      "đ": 181,
      "Ē": 182,
      "ē": 183,
      "ė": 184,
      "ę": 185,
      "ğ": 186,
      "ģ": 187,
      "ī": 188,
      "İ": 189,
      "ı": 190,
      "ł": 191,
      "ń": 192,
      "ņ": 193,
      "ň": 194,
      "ō": 195,
      "ř": 196,
      "ś": 197,
      "Ş": 198,
      "ş": 199,
      "Š": 200,
      "š": 201,
      "ţ": 202,
      "ū": 203,
      "ŵ": 204,
      "ŷ": 205,
      "ż": 206,
      "ž": 207,
      "ư": 208,
      "ș": 209,
      "ț": 210,
      "ə": 211,
      "ʔ": 212,
      "ʷ": 213,
      "ʻ": 214,
      "̀": 215,
      "́": 216,
      "̃": 217,
      "̈": 218,
      "О": 219,
      "С": 220,
      "У": 221,
      "а": 222,
      "и": 223,
      "к": 224,
      "н": 225,
      "р": 226,
      "ї": 227,
      "Ա": 228,
      "Բ": 229,
      "Գ": 230,
      "Դ": 231,
      "Ե": 232,
      "Զ": 233,
      "Է": 234,
      "Ը": 235,
      "Թ": 236,
      "Ժ": 237,
      "Ի": 238,
      "Լ": 239,
      "Խ": 240,
      "Ծ": 241,
      "Կ": 242,
      "Հ": 243,
      "Ձ": 244,
      "Ղ": 245,
      "Ճ": 246,
      "Մ": 247,
      "Յ": 248,
      "Ն": 249,
      "Շ": 250,
      "Ո": 251,
      "Չ": 252,
      "Պ": 253,
      "Ջ": 254,
      "Ռ": 255,
      "Ս": 256,
      "Վ": 257,
      "Տ": 258,
      "Ր": 259,
      "Ւ": 260,
      "Փ": 261,
      "Ք": 262,
      "Օ": 263,
      "Ֆ": 264,
      "՛": 265,
      "՝": 266,
      "՞": 267,
      "ա": 268,
      "բ": 269,
      "գ": 270,
      "դ": 271,
      "ե": 272,
      "զ": 273,
      "է": 274,
      "ը": 275,
      "թ": 276,
      "ժ": 277,
      "ի": 278,
      "լ": 279,
      "խ": 280,
      "ծ": 281,
      "կ": 282,
      "հ": 283,
      "ձ": 284,
      "ղ": 285,
      "ճ": 286,
      "մ": 287,
      "յ": 288,
      "ն": 289,
      "շ": 290,
      "ո": 291,
      "չ": 292,
      "պ": 293,
      "ջ": 294,
      "ռ": 295,
      "ս": 296,
      "վ": 297,
      "տ": 298,
      "ր": 299,
      "ց": 300,
      "ւ": 301,
      "փ": 302,
      "ք": 303,
      "օ": 304,
      "ֆ": 305,
      "և": 306,
      "։": 307,
      "฿": 308,
      "ḥ": 309,
      "Ṡ": 310,
      "ṣ": 311,
      "ạ": 312,
      "ả": 313,
      "ầ": 314,
      "ắ": 315,
      "ẹ": 316,
      "ế": 317,
      "ệ": 318,
      "ị": 319,
      "ọ": 320,
      "ố": 321,
      "ộ": 322,
      "ờ": 323,
      "ợ": 324,
      "ừ": 325,
      "ự": 326,
      "ỹ": 327,
      "‌": 328,
      "‍": 329,
      "‐": 330,
      "‑": 331,
      "―": 332,
      "•": 333,
      "․": 334,
      "‬": 335,
      "‭": 336,
      "′": 337,
      "″": 338,
      "‴": 339,
      "›": 340,
      "‼": 341,
      "⁠": 342,
      "⁣": 343,
      "⁤": 344,
      "⁦": 345,
      "⁩": 346,
      "₂": 347,
      "₦": 348,
      "€": 349,
      "₱": 350,
      "₹": 351,
      "℞": 352,
      "™": 353,
      "⅓": 354,
      "⅔": 355,
      "↔": 356,
      "−": 357,
      "⊕": 358,
      "⏳": 359,
      "■": 360,
      "▶": 361,
      "►": 362,
      "◀": 363,
      "●": 364,
      "☀": 365,
      "★": 366,
      "☆": 367,
      "♀": 368,
      "♂": 369,
      "♥": 370,
      "♦": 371,
      "♪": 372,
      "♬": 373,
      "⚽": 374,
      "✅": 375,
      "✔": 376,
      "✨": 377,
      "❌": 378,
      "❤": 379,
      "➡": 380,
      "⭐": 381,
      "・": 382,
      "ﬁ": 383,
      "ﬂ": 384,
      "︎": 385,
      "️": 386,
      "�": 387,
      "𝄒": 388,
      "🇦": 389,
      "🇱": 390,
      "🇳": 391,
      "🇸": 392,
      "🇺": 393,
      "🌪": 394,
      "🌴": 395,
      "🌹": 396,
      "🍓": 397,
      "🍹": 398,
      "🍺": 399,
      "🎁": 400,
      "🎢": 401,
      "🎪": 402,
      "🏆": 403,
      "🏻": 404,
      "🏼": 405,
      "🏽": 406,
      "🏾": 407,
      "🐎": 408,
      "👀": 409,
      "👈": 410,
      "👉": 411,
      "👍": 412,
      "👏": 413,
      "💕": 414,
      "💙": 415,
      "💥": 416,
      "💨": 417,
      "💬": 418,
      "📋": 419,
      "📍": 420,
      "📷": 421,
      "📸": 422,
      "🔥": 423,
      "😂": 424,
      "😅": 425,
      "😆": 426,
      "😊": 427,
      "😍": 428,
      "😢": 429,
      "😭": 430,
      "😮": 431,
      "😱": 432,
      "😳": 433,
      "🙄": 434,
      "🙌": 435,
      "🙏": 436,
      "🚨": 437,
      "🛒": 438,
      "🤎": 439,
      "🤔": 440,
      "🤣": 441,
      "🤦": 442,
      "🤫": 443,
      "🤯": 444,
      "🤵": 445,
      "🤷": 446,
      "🥅": 447,
      "🥇": 448,
      "🥥": 449,
      "🥪": 450,
      "🥹": 451,
      "🥺": 452,
      "🫣": 453,
      " t": 454,
      " a": 455,
      "he": 456,
      "in": 457,
      "re": 458,
      "on": 459,
      " the": 460,
      " s": 461,
      "er": 462,
      " w": 463,
      "at": 464,
      "en": 465,
      " c": 466,
      "or": 467,
      "it": 468,
      "ed": 469,
      "an": 470,
      "ing": 471,
      " o": 472,
      " f": 473,
      "is": 474,
      " b": 475,
      "es": 476,
      " p": 477,
      "ar": 478,
      " to": 479,
      "nd": 480,
      ".\n": 481,
      "al": 482,
      "ou": 483,
      " in": 484,
      " h": 485,
      " m": 486,
      "as": 487,
      " of": 488,
      " d": 489,
      " and": 490,
      "ic": 491,
      "le": 492,
      " th": 493,
      "om": 494,
      "ion": 495,
      "id": 496,
      "il": 497,
      "ent": 498,
      " l": 499,
      " re": 500,
      "st": 501,
      "ve": 502,
      " n": 503,
      "ot": 504,
      " be": 505,
      " g": 506,
      " e": 507,
      "ly": 508,
      "ut": 509,
      "ay": 510,
      " on": 511,
      "ac": 512,
      "im": 513,
      "ro": 514,
      "ad": 515,
      "'s": 516,
      "am": 517,
      " for": 518,
      " he": 519,
      "et": 520,
      "ur": 521,
      "el": 522,
      "ig": 523,
      " S": 524,
      "ow": 525,
      "ol": 526,
      " that": 527,
      "ver": 528,
      " is": 529,
      " st": 530,
      "ir": 531,
      " I": 532,
      "The": 533,
      "ec": 534,
      "us": 535,
      "ter": 536,
      "ith": 537,
      " C": 538,
      " M": 539,
      " it": 540,
      " A": 541,
      " y": 542,
      " wh": 543,
      " with": 544,
      " was": 545,
      " as": 546,
      "ation": 547,
      "ce": 548,
      "ill": 549,
      " B": 550,
      " al": 551,
      "un": 552,
      " \"": 553,
      " an": 554,
      " we": 555,
      "ers": 556,
      " at": 557,
      "ld": 558,
      "th": 559,
      "ra": 560,
      " T": 561,
      "se": 562,
      "ul": 563,
      "ri": 564,
      "ke": 565,
      " P": 566,
      " ha": 567,
      "ag": 568,
      " sa": 569,
      "and": 570,
      "ht": 571,
      "ment": 572,
      "ch": 573,
      "est": 574,
      " con": 575,
      "her": 576,
      "pp": 577,
      "ate": 578,
      ",\"": 579,
      "ct": 580,
      "if": 581,
      "ore": 582,
      "rom": 583,
      "res": 584,
      " r": 585,
      " you": 586,
      "um": 587,
      " R": 588,
      " H": 589,
      " said": 590,
      " D": 591,
      " com": 592,
      "ear": 593,
      "op": 594,
      "ort": 595,
      " are": 596,
      " his": 597,
      " v": 598,
      "em": 599,
      " have": 600,
      "ity": 601,
      "ain": 602,
      "oc": 603,
      " has": 604,
      "od": 605,
      "ew": 606,
      " G": 607,
      " N": 608,
      " from": 609,
      "20": 610,
      " sh": 611,
      "art": 612,
      "os": 613,
      "ab": 614,
      " ex": 615,
      " W": 616,
      "red": 617,
      "ess": 618,
      " ch": 619,
      " L": 620,
      " by": 621,
      "ant": 622,
      "ist": 623,
      "ould": 624,
      "ive": 625,
      "ust": 626,
      " pro": 627,
      "qu": 628,
      "ight": 629,
      " le": 630,
      "up": 631,
      " F": 632,
      " de": 633,
      " not": 634,
      "ast": 635,
      " se": 636,
      "end": 637,
      "all": 638,
      " -": 639,
      "ies": 640,
      "ack": 641,
      "our": 642,
      " J": 643,
      "ia": 644,
      " pl": 645,
      " j": 646,
      "ak": 647,
      " su": 648,
      "out": 649,
      "nt": 650,
      " go": 651,
      " ab": 652,
      " E": 653,
      " this": 654,
      "ard": 655,
      " sp": 656,
      " or": 657,
      "ect": 658,
      "iv": 659,
      "ost": 660,
      "ial": 661,
      " U": 662,
      ".\"": 663,
      "rou": 664,
      "ud": 665,
      "ome": 666,
      " who": 667,
      "\":": 668,
      " her": 669,
      " whe": 670,
      " will": 671,
      " they": 672,
      "ge": 673,
      "ong": 674,
      " wor": 675,
      "ok": 676,
      " their": 677,
      "'t": 678,
      " but": 679,
      " k": 680,
      "ff": 681,
      "ell": 682,
      ".\"\n": 683,
      "ice": 684,
      "ich": 685,
      "ine": 686,
      " out": 687,
      " K": 688,
      "00": 689,
      " had": 690,
      "ide": 691,
      "ep": 692,
      "ry": 693,
      " can": 694,
      " ad": 695,
      " (": 696,
      " year": 697,
      " been": 698,
      " O": 699,
      "fter": 700,
      " she": 701,
      "ap": 702,
      " do": 703,
      "gh": 704,
      "ans": 705,
      "ally": 706,
      " int": 707,
      "cc": 708,
      " up": 709,
      " off": 710,
      "one": 711,
      "ime": 712,
      "age": 713,
      "ous": 714,
      "ure": 715,
      " cl": 716,
      " ne": 717,
      " all": 718,
      " ag": 719,
      " The": 720,
      "ions": 721,
      " me": 722,
      " were": 723,
      " un": 724,
      "so": 725,
      "ub": 726,
      "und": 727,
      "ie": 728,
      "ip": 729,
      " more": 730,
      "ated": 731,
      "ame": 732,
      " about": 733,
      " inc": 734,
      " after": 735,
      "ue": 736,
      "mer": 737,
      "ther": 738,
      "ays": 739,
      " which": 740,
      "ike": 741,
      "ber": 742,
      "are": 743,
      " exp": 744,
      "ake": 745,
      "ord": 746,
      "ary": 747,
      "ian": 748,
      " also": 749,
      " one": 750,
      " pe": 751,
      "202": 752,
      " us": 753,
      " over": 754,
      " so": 755,
      "very": 756,
      "ign": 757,
      "ond": 758,
      "orm": 759,
      " en": 760,
      "ace": 761,
      " im": 762,
      " comp": 763,
      "ople": 764,
      "ident": 765,
      "\":\"": 766,
      "ind": 767,
      " lo": 768,
      " res": 769,
      " cont": 770,
      "ount": 771,
      "ile": 772,
      " would": 773,
      "act": 774,
      " part": 775,
      " its": 776,
      "ress": 777,
      " rep": 778,
      " people": 779,
      "ire": 780,
      "It": 781,
      " St": 782,
      "ven": 783,
      "irst": 784,
      " pr": 785,
      "ick": 786,
      " Ch": 787,
      "ict": 788,
      " man": 789,
      " like": 790,
      " when": 791,
      "ance": 792,
      " per": 793,
      "wo": 794,
      " tr": 795,
      " rec": 796,
      "own": 797,
      "ree": 798,
      "av": 799,
      " just": 800,
      "old": 801,
      "ass": 802,
      "pt": 803,
      "ence": 804,
      "ite": 805,
      " dis": 806,
      "ult": 807,
      " pol": 808,
      " than": 809,
      "ations": 810,
      "lo": 811,
      "ark": 812,
      ",\"\"": 813,
      " my": 814,
      " work": 815,
      "ish": 816,
      " app": 817,
      " new": 818,
      " there": 819,
      "ose": 820,
      "day": 821,
      "hed": 822,
      "form": 823,
      " time": 824,
      " sc": 825,
      "able": 826,
      " bec": 827,
      "lect": 828,
      "ock": 829,
      " ar": 830,
      "ump": 831,
      " them": 832,
      " qu": 833,
      "ail": 834,
      " acc": 835,
      "ning": 836,
      " into": 837,
      "Th": 838,
      "ink": 839,
      " kn": 840,
      "ib": 841,
      "ere": 842,
      "ll": 843,
      "aus": 844,
      "uc": 845,
      " him": 846,
      " get": 847,
      " first": 848,
      "ens": 849,
      "ound": 850,
      "ek": 851,
      " other": 852,
      "amp": 853,
      "ild": 854,
      "og": 855,
      " ro": 856,
      " some": 857,
      "ach": 858,
      " V": 859,
      " two": 860,
      "ase": 861,
      " what": 862,
      "ical": 863,
      " att": 864,
      "In": 865,
      " play": 866,
      "int": 867,
      "reat": 868,
      "ors": 869,
      "ne": 870,
      "iz": 871,
      " could": 872,
      "ade": 873,
      "rit": 874,
      "ubl": 875,
      " '": 876,
      " pre": 877,
      " imp": 878,
      " Tr": 879,
      "med": 880,
      " our": 881,
      " back": 882,
      " te": 883,
      "anc": 884,
      " your": 885,
      "wn": 886,
      "He": 887,
      " again": 888,
      "ru": 889,
      "ang": 890,
      " any": 891,
      " co": 892,
      " years": 893,
      "19": 894,
      " add": 895,
      "ng": 896,
      "ition": 897,
      " dec": 898,
      "ious": 899,
      "ings": 900,
      "lud": 901,
      "ty": 902,
      " act": 903,
      "oll": 904,
      " if": 905,
      "aw": 906,
      " last": 907,
      "round": 908,
      "ory": 909,
      " no": 910,
      "we": 911,
      "land": 912,
      " und": 913,
      "erv": 914,
      "igh": 915,
      "ause": 916,
      " fe": 917,
      " am": 918,
      "ates": 919,
      " sec": 920,
      "fore": 921,
      "uring": 922,
      "pe": 923,
      "other": 924,
      "itt": 925,
      " inv": 926,
      " Y": 927,
      "urn": 928,
      "resident": 929,
      "ps": 930,
      " bo": 931,
      " Th": 932,
      "ax": 933,
      "vel": 934,
      " now": 935,
      "co": 936,
      " includ": 937,
      " how": 938,
      "ov": 939,
      "ments": 940,
      "enc": 941,
      " bet": 942,
      "ft": 943,
      "iss": 944,
      " Trump": 945,
      " did": 946,
      "We": 947,
      "idth": 948,
      "ater": 949,
      "width": 950,
      "als": 951,
      " show": 952,
      " comm": 953,
      " under": 954,
      " supp": 955,
      "vers": 956,
      "vern": 957,
      "hing": 958,
      "ons": 959,
      " want": 960,
      "li": 961,
      "ris": 962,
      " count": 963,
      "aking": 964,
      " In": 965,
      " week": 966,
      "But": 967,
      " before": 968,
      " br": 969,
      " mon": 970,
      " rem": 971,
      " fin": 972,
      " op": 973,
      " being": 974,
      " need": 975,
      "..": 976,
      "ublic": 977,
      "{\"": 978,
      "ss": 979,
      "ational": 980,
      "ife": 981,
      "oint": 982,
      "xt": 983,
      "'re": 984,
      "ily": 985,
      " where": 986,
      "arg": 987,
      "ating": 988,
      " every": 989,
      " state": 990,
      " only": 991,
      " des": 992,
      "ince": 993,
      "vent": 994,
      "ath": 995,
      "ert": 996,
      "ough": 997,
      " lead": 998,
      "ah": 999,
      "ful": 1000,
      "man": 1001,
      "uss": 1002,
      "gu": 1003,
      " think": 1004,
      " look": 1005,
      "row": 1006,
      " Is": 1007,
      " report": 1008,
      " tra": 1009,
      "ob": 1010,
      "uch": 1011,
      "ove": 1012,
      " because": 1013,
      "oun": 1014,
      "rough": 1015,
      "10": 1016,
      " most": 1017,
      "ren": 1018,
      "az": 1019,
      "ality": 1020,
      "ting": 1021,
      " say": 1022,
      " fam": 1023,
      " inter": 1024,
      "les": 1025,
      " against": 1026,
      " New": 1027,
      "ities": 1028,
      " cons": 1029,
      " make": 1030,
      " even": 1031,
      "ise": 1032,
      "fit": 1033,
      "ood": 1034,
      "oss": 1035,
      " call": 1036,
      " then": 1037,
      " know": 1038,
      " em": 1039,
      "aster": 1040,
      "ied": 1041,
      " end": 1042,
      " while": 1043,
      " reg": 1044,
      "ited": 1045,
      " min": 1046,
      " elect": 1047,
      " ac": 1048,
      "ward": 1049,
      " bl": 1050,
      "elf": 1051,
      " told": 1052,
      " govern": 1053,
      "201": 1054,
      " ind": 1055,
      "iff": 1056,
      " hel": 1057,
      "erson": 1058,
      "ght": 1059,
      " It": 1060,
      "aut": 1061,
      "ues": 1062,
      " ear": 1063,
      " month": 1064,
      " through": 1065,
      " three": 1066,
      " ra": 1067,
      "led": 1068,
      " med": 1069,
      " down": 1070,
      "hen": 1071,
      "ank": 1072,
      " don": 1073,
      " win": 1074,
      " start": 1075,
      "ved": 1076,
      "ared": 1077,
      "iew": 1078,
      "hip": 1079,
      "ram": 1080,
      " made": 1081,
      "ason": 1082,
      " long": 1083,
      " ret": 1084,
      "rib": 1085,
      " def": 1086,
      " He": 1087,
      " during": 1088,
      "alk": 1089,
      " war": 1090,
      "air": 1091,
      " going": 1092,
      " conf": 1093,
      " well": 1094,
      " ke": 1095,
      "ote": 1096,
      "com": 1097,
      "illion": 1098,
      " Un": 1099,
      " bu": 1100,
      "gg": 1101,
      "du": 1102,
      "This": 1103,
      "'ve": 1104,
      " right": 1105,
      "uk": 1106,
      "ents": 1107,
      " team": 1108,
      " cr": 1109,
      " sur": 1110,
      " see": 1111,
      " many": 1112,
      "rael": 1113,
      " set": 1114,
      "any": 1115,
      "ee": 1116,
      " fl": 1117,
      "ph": 1118,
      "oth": 1119,
      " offic": 1120,
      " says": 1121,
      "},": 1122,
      "ix": 1123,
      " way": 1124,
      "},{\"": 1125,
      "ased": 1126,
      "ool": 1127,
      "ving": 1128,
      " $": 1129,
      " ass": 1130,
      " very": 1131,
      "50": 1132,
      " those": 1133,
      "ouse": 1134,
      " own": 1135,
      " rel": 1136,
      "ering": 1137,
      " cent": 1138,
      " around": 1139,
      "30": 1140,
      " help": 1141,
      "?\n": 1142,
      " home": 1143,
      "ork": 1144,
      " should": 1145,
      "way": 1146,
      "au": 1147,
      " day": 1148,
      "ner": 1149,
      " car": 1150,
      "alth": 1151,
      "000": 1152,
      "12": 1153,
      "'m": 1154,
      "ters": 1155,
      " £": 1156,
      "atch": 1157,
      " resp": 1158,
      " support": 1159,
      " child": 1160,
      "ange": 1161,
      " much": 1162,
      "ott": 1163,
      "ash": 1164,
      "ollow": 1165,
      " take": 1166,
      " high": 1167,
      "rong": 1168,
      " government": 1169,
      "ative": 1170,
      " sign": 1171,
      "oot": 1172,
      " wom": 1173,
      "ross": 1174,
      " since": 1175,
      "imes": 1176,
      " including": 1177,
      "Wh": 1178,
      "ourt": 1179,
      " still": 1180,
      "let": 1181,
      " these": 1182,
      "pl": 1183,
      "ever": 1184,
      " ph": 1185,
      "ather": 1186,
      "ording": 1187,
      "ets": 1188,
      " good": 1189,
      "meric": 1190,
      "ures": 1191,
      "ont": 1192,
      "ected": 1193,
      "ular": 1194,
      "//": 1195,
      " Le": 1196,
      "-b": 1197,
      "://": 1198,
      "tps": 1199,
      " may": 1200,
      "ower": 1201,
      "ics": 1202,
      "ced": 1203,
      "hes": 1204,
      " Mr": 1205,
      " diff": 1206,
      "45": 1207,
      "https": 1208,
      "ered": 1209,
      "gan": 1210,
      "ned": 1211,
      "oy": 1212,
      " sm": 1213,
      " law": 1214,
      "pr": 1215,
      " found": 1216,
      " Israel": 1217,
      " world": 1218,
      " ins": 1219,
      "And": 1220,
      " run": 1221,
      "hn": 1222,
      "ener": 1223,
      "15": 1224,
      "17": 1225,
      "ween": 1226,
      "ames": 1227,
      " Ind": 1228,
      "ling": 1229,
      "ible": 1230,
      " invest": 1231,
      "ives": 1232,
      "media": 1233,
      "leg": 1234,
      "iel": 1235,
      "ific": 1236,
      "ember": 1237,
      "aj": 1238,
      "-t": 1239,
      "She": 1240,
      "att": 1241,
      "iden": 1242,
      "ual": 1243,
      " country": 1244,
      " contin": 1245,
      " point": 1246,
      " four": 1247,
      " really": 1248,
      "omet": 1249,
      " gu": 1250,
      " follow": 1251,
      " Fr": 1252,
      " such": 1253,
      "40": 1254,
      " life": 1255,
      "son": 1256,
      " Americ": 1257,
      "ik": 1258,
      "ric": 1259,
      " ter": 1260,
      ".uk": 1261,
      ".co": 1262,
      " former": 1263,
      "ility": 1264,
      " between": 1265,
      "60": 1266,
      "ble": 1267,
      " feel": 1268,
      " happ": 1269,
      "ady": 1270,
      "ages": 1271,
      "\"I": 1272,
      "ices": 1273,
      "rc": 1274,
      " camp": 1275,
      "aim": 1276,
      " serv": 1277,
      "ister": 1278,
      "ital": 1279,
      " ent": 1280,
      "-y": 1281,
      " president": 1282,
      " bel": 1283,
      "rat": 1284,
      " ser": 1285,
      " cap": 1286,
      "ale": 1287,
      "lement": 1288,
      "ised": 1289,
      "duct": 1290,
      "ands": 1291,
      "ave": 1292,
      " family": 1293,
      "irect": 1294,
      "ms": 1295,
      " added": 1296,
      " ref": 1297,
      " tri": 1298,
      " big": 1299,
      "ull": 1300,
      " second": 1301,
      " does": 1302,
      "get": 1303,
      "src": 1304,
      "lock": 1305,
      "pg": 1306,
      "18": 1307,
      "sh": 1308,
      " leg": 1309,
      ".j": 1310,
      ".gu": 1311,
      " Sh": 1312,
      " inf": 1313,
      ".jpg": 1314,
      "per": 1315,
      ".guim": 1316,
      " eff": 1317,
      "outh": 1318,
      " person": 1319,
      "min": 1320,
      "ision": 1321,
      " col": 1322,
      " polit": 1323,
      " public": 1324,
      "con": 1325,
      "cer": 1326,
      " post": 1327,
      " care": 1328,
      " Mar": 1329,
      "line": 1330,
      "ret": 1331,
      "-year": 1332,
      "ys": 1333,
      " head": 1334,
      " cle": 1335,
      " ann": 1336,
      " grou": 1337,
      "11": 1338,
      "-f": 1339,
      " Biden": 1340,
      " Har": 1341,
      "quality": 1342,
      " bus": 1343,
      " Russ": 1344,
      "riend": 1345,
      " put": 1346,
      " game": 1347,
      " left": 1348,
      "eb": 1349,
      "ina": 1350,
      " prov": 1351,
      "They": 1352,
      " iss": 1353,
      " fil": 1354,
      " Sc": 1355,
      " got": 1356,
      " another": 1357,
      "ves": 1358,
      " sl": 1359,
      " attack": 1360,
      " gr": 1361,
      " dep": 1362,
      " mil": 1363,
      " Jo": 1364,
      " claim": 1365,
      "ody": 1366,
      "ness": 1367,
      "ene": 1368,
      " prot": 1369,
      " sy": 1370,
      "ute": 1371,
      "master": 1372,
      " ask": 1373,
      "ists": 1374,
      " trans": 1375,
      "ier": 1376,
      " US": 1377,
      " best": 1378,
      " next": 1379,
      " loc": 1380,
      "ished": 1381,
      "esp": 1382,
      "ex": 1383,
      " stud": 1384,
      "auto": 1385,
      " And": 1386,
      " Al": 1387,
      "There": 1388,
      "iness": 1389,
      " both": 1390,
      " soc": 1391,
      " plan": 1392,
      "chool": 1393,
      "ield": 1394,
      " recent": 1395,
      " come": 1396,
      "/im": 1397,
      "max": 1398,
      " del": 1399,
      " det": 1400,
      "ton": 1401,
      "ually": 1402,
      "ially": 1403,
      " far": 1404,
      " ext": 1405,
      "/master": 1406,
      "uro": 1407,
      " opp": 1408,
      "format": 1409,
      "ines": 1410,
      " open": 1411,
      " mark": 1412,
      "&s": 1413,
      "/img": 1414,
      "&fit": 1415,
      "&quality": 1416,
      "&auto": 1417,
      "=max": 1418,
      "=format": 1419,
      "?width": 1420,
      "redit": 1421,
      " somet": 1422,
      "pped": 1423,
      "orn": 1424,
      "ought": 1425,
      "ug": 1426,
      "ants": 1427,
      ")\n": 1428,
      " lot": 1429,
      " health": 1430,
      " Ar": 1431,
      "/media": 1432,
      "ef": 1433,
      "rem": 1434,
      " che": 1435,
      "io": 1436,
      " same": 1437,
      "emoc": 1438,
      " sub": 1439,
      " too": 1440,
      " cur": 1441,
      "self": 1442,
      " season": 1443,
      " spe": 1444,
      " num": 1445,
      "ject": 1446,
      " Sp": 1447,
      " event": 1448,
      "kra": 1449,
      " pass": 1450,
      " near": 1451,
      " direct": 1452,
      "200": 1453,
      " fr": 1454,
      "ury": 1455,
      "uck": 1456,
      "omm": 1457,
      "urs": 1458,
      "ins": 1459,
      " find": 1460,
      "ral": 1461,
      "</": 1462,
      "be": 1463,
      "As": 1464,
      " inst": 1465,
      "14": 1466,
      " place": 1467,
      "akes": 1468,
      " never": 1469,
      "ways": 1470,
      "uth": 1471,
      "its": 1472,
      "ivers": 1473,
      "bers": 1474,
      "aign": 1475,
      "85": 1476,
      "On": 1477,
      "ency": 1478,
      "'\n": 1479,
      "ird": 1480,
      "ration": 1481,
      " top": 1482,
      "af": 1483,
      " pri": 1484,
      " mem": 1485,
      "orts": 1486,
      "ense": 1487,
      "olog": 1488,
      "vious": 1489,
      " Wh": 1490,
      " according": 1491,
      "view": 1492,
      "eri": 1493,
      "ional": 1494,
      " President": 1495,
      "ecut": 1496,
      " spec": 1497,
      " try": 1498,
      " great": 1499,
      " days": 1500,
      " differe": 1501,
      "thing": 1502,
      " million": 1503,
      "80": 1504,
      "side": 1505,
      " here": 1506,
      "eng": 1507,
      " official": 1508,
      " vot": 1509,
      "ces": 1510,
      "dd": 1511,
      " campaign": 1512,
      "rent": 1513,
      " Rep": 1514,
      " commun": 1515,
      " pay": 1516,
      "25": 1517,
      " star": 1518,
      "ief": 1519,
      " bre": 1520,
      "iving": 1521,
      " media": 1522,
      "oney": 1523,
      " adv": 1524,
      "16": 1525,
      " UK": 1526,
      " pres": 1527,
      " children": 1528,
      "24": 1529,
      ".S": 1530,
      "-c": 1531,
      "ired": 1532,
      " incre": 1533,
      " police": 1534,
      "ism": 1535,
      " women": 1536,
      "ck": 1537,
      "ured": 1538,
      "ined": 1539,
      " use": 1540,
      " But": 1541,
      " remain": 1542,
      " rest": 1543,
      " Ukra": 1544,
      "conom": 1545,
      "tern": 1546,
      " ob": 1547,
      "-old": 1548,
      " prom": 1549,
      " court": 1550,
      " election": 1551,
      " kill": 1552,
      "ald": 1553,
      " across": 1554,
      " fac": 1555,
      " air": 1556,
      " expl": 1557,
      " vis": 1558,
      "cess": 1559,
      " party": 1560,
      " five": 1561,
      " dri": 1562,
      "ajor": 1563,
      " company": 1564,
      "-p": 1565,
      " Re": 1566,
      "ney": 1567,
      " few": 1568,
      " miss": 1569,
      "gy": 1570,
      " case": 1571,
      " night": 1572,
      " gener": 1573,
      " la": 1574,
      "That": 1575,
      " didn": 1576,
      " wr": 1577,
      " rele": 1578,
      " won": 1579,
      " used": 1580,
      "br": 1581,
      "alf": 1582,
      "ten": 1583,
      " school": 1584,
      " keep": 1585,
      " seen": 1586,
      "...": 1587,
      "-s": 1588,
      " away": 1589,
      " cre": 1590,
      " Pr": 1591,
      " took": 1592,
      " sim": 1593,
      " business": 1594,
      " group": 1595,
      "ged": 1596,
      "arge": 1597,
      " beh": 1598,
      "ittle": 1599,
      "osed": 1600,
      " months": 1601,
      " Euro": 1602,
      " mov": 1603,
      "velop": 1604,
      "),": 1605,
      " young": 1606,
      "emocrat": 1607,
      "ple": 1608,
      " el": 1609,
      " We": 1610,
      "iday": 1611,
      " always": 1612,
      " called": 1613,
      "orth": 1614,
      "ately": 1615,
      "You": 1616,
      " later": 1617,
      " Z": 1618,
      "der": 1619,
      " art": 1620,
      " Bl": 1621,
      " cost": 1622,
      " things": 1623,
      " something": 1624,
      " ris": 1625,
      " deb": 1626,
      "13": 1627,
      "ours": 1628,
      " came": 1629,
      " reported": 1630,
      " friend": 1631,
      " hand": 1632,
      " Min": 1633,
      "aring": 1634,
      " real": 1635,
      "How": 1636,
      " hop": 1637,
      " mom": 1638,
      "nes": 1639,
      " result": 1640,
      "iet": 1641,
      " turn": 1642,
      " disc": 1643,
      " Eng": 1644,
      " econom": 1645,
      "atur": 1646,
      "cept": 1647,
      " might": 1648,
      " Brit": 1649,
      " hard": 1650,
      " belie": 1651,
      " return": 1652,
      " sk": 1653,
      "stem": 1654,
      " experi": 1655,
      "odel": 1656,
      " av": 1657,
      " talk": 1658,
      " pos": 1659,
      "ically": 1660,
      " aff": 1661,
      " grow": 1662,
      " six": 1663,
      "duc": 1664,
      " milit": 1665,
      "ague": 1666,
      " build": 1667,
      " social": 1668,
      " power": 1669,
      " str": 1670,
      " without": 1671,
      " prog": 1672,
      "ched": 1673,
      " quest": 1674,
      "ham": 1675,
      "ift": 1676,
      " major": 1677,
      " announ": 1678,
      "If": 1679,
      "used": 1680,
      "iver": 1681,
      "An": 1682,
      " allow": 1683,
      "less": 1684,
      "ruct": 1685,
      " met": 1686,
      " record": 1687,
      "For": 1688,
      "'ll": 1689,
      "urity": 1690,
      " United": 1691,
      " went": 1692,
      "ele": 1693,
      " love": 1694,
      "ann": 1695,
      " requ": 1696,
      "ending": 1697,
      "rist": 1698,
      "ued": 1699,
      " sw": 1700,
      " dem": 1701,
      " foot": 1702,
      " unt": 1703,
      " past": 1704,
      "35": 1705,
      " better": 1706,
      " little": 1707,
      " partic": 1708,
      "ley": 1709,
      " different": 1710,
      " fore": 1711,
      " pop": 1712,
      " stre": 1713,
      " appro": 1714,
      " each": 1715,
      "22": 1716,
      "ready": 1717,
      "ster": 1718,
      "osp": 1719,
      " move": 1720,
      " dist": 1721,
      "ries": 1722,
      " import": 1723,
      " hist": 1724,
      " meet": 1725,
      "erest": 1726,
      " fact": 1727,
      " rece": 1728,
      " along": 1729,
      " She": 1730,
      " bro": 1731,
      " having": 1732,
      "ained": 1733,
      "ians": 1734,
      " job": 1735,
      "Credit": 1736,
      "aken": 1737,
      "ient": 1738,
      " stand": 1739,
      "aff": 1740,
      "app": 1741,
      "ball": 1742,
      " happen": 1743,
      " York": 1744,
      " ev": 1745,
      "ony": 1746,
      " Democrat": 1747,
      " develop": 1748,
      " press": 1749,
      " vict": 1750,
      " poss": 1751,
      " making": 1752,
      " hum": 1753,
      "ided": 1754,
      " reve": 1755,
      "St": 1756,
      " money": 1757,
      "loy": 1758,
      "When": 1759,
      "inal": 1760,
      "iven": 1761,
      " oper": 1762,
      "ober": 1763,
      " already": 1764,
      "90": 1765,
      "rend": 1766,
      "aint": 1767,
      " product": 1768,
      " less": 1769,
      " city": 1770,
      " system": 1771,
      " [": 1772,
      " political": 1773,
      " saf": 1774,
      " Republic": 1775,
      ".'\n": 1776,
      "arm": 1777,
      "iol": 1778,
      " deal": 1779,
      "ats": 1780,
      " death": 1781,
      "ead": 1782,
      "elt": 1783,
      " est": 1784,
      "enn": 1785,
      " change": 1786,
      " clear": 1787,
      " ve": 1788,
      "'d": 1789,
      " mus": 1790,
      " vide": 1791,
      " polic": 1792,
      "arent": 1793,
      " let": 1794,
      " final": 1795,
      " number": 1796,
      "by": 1797,
      " sing": 1798,
      " working": 1799,
      " perform": 1800,
      " wrote": 1801,
      " until": 1802,
      "ook": 1803,
      "the": 1804,
      "-d": 1805,
      "rest": 1806,
      "reen": 1807,
      " Mc": 1808,
      " current": 1809,
      "aza": 1810,
      "acy": 1811,
      " cor": 1812,
      " inj": 1813,
      " news": 1814,
      " An": 1815,
      "head": 1816,
      " water": 1817,
      "cent": 1818,
      " early": 1819,
      "ata": 1820,
      "ived": 1821,
      "augh": 1822,
      "ertain": 1823,
      " old": 1824,
      "ars": 1825,
      "port": 1826,
      " men": 1827,
      " May": 1828,
      " interest": 1829,
      "ane": 1830,
      "une": 1831,
      " Cl": 1832,
      " intern": 1833,
      " crit": 1834,
      "utes": 1835,
      "26": 1836,
      "pect": 1837,
      "ably": 1838,
      "uthor": 1839,
      "ying": 1840,
      "27": 1841,
      "ots": 1842,
      " ball": 1843,
      "ution": 1844,
      " sit": 1845,
      " alleg": 1846,
      "atter": 1847,
      " Europe": 1848,
      " stri": 1849,
      " view": 1850,
      "ger": 1851,
      " sent": 1852,
      " infl": 1853,
      " host": 1854,
      "So": 1855,
      " full": 1856,
      "ament": 1857,
      " times": 1858,
      "\"The": 1859,
      " fund": 1860,
      "-m": 1861,
      " sum": 1862,
      " local": 1863,
      "28": 1864,
      " X": 1865,
      " thought": 1866,
      " contro": 1867,
      " become": 1868,
      " level": 1869,
      " cond": 1870,
      " Car": 1871,
      "33": 1872,
      " Am": 1873,
      " able": 1874,
      " investig": 1875,
      "ccess": 1876,
      " ed": 1877,
      "ining": 1878,
      " seem": 1879,
      " military": 1880,
      "ech": 1881,
      "ron": 1882,
      " pot": 1883,
      "ances": 1884,
      "ential": 1885,
      " concer": 1886,
      " cut": 1887,
      "ract": 1888,
      " Ph": 1889,
      " cou": 1890,
      "iting": 1891,
      " exc": 1892,
      "100": 1893,
      "bs": 1894,
      "ai": 1895,
      " following": 1896,
      "nce": 1897,
      "BC": 1898,
      " third": 1899,
      " side": 1900,
      " must": 1901,
      " small": 1902,
      " previous": 1903,
      "idd": 1904,
      " tell": 1905,
      " Harris": 1906,
      "ized": 1907,
      "ature": 1908,
      " Ukraine": 1909,
      "lier": 1910,
      "block": 1911,
      "onald": 1912,
      " asked": 1913,
      " appear": 1914,
      "wards": 1915,
      "empt": 1916,
      "\"We": 1917,
      " test": 1918,
      "orld": 1919,
      " close": 1920,
      " fur": 1921,
      "ases": 1922,
      " chall": 1923,
      " House": 1924,
      " saying": 1925,
      " South": 1926,
      " members": 1927,
      " statement": 1928,
      " tax": 1929,
      "eg": 1930,
      "ox": 1931,
      " India": 1932,
      " comes": 1933,
      " American": 1934,
      " News": 1935,
      "rict": 1936,
      " organ": 1937,
      "irl": 1938,
      " why": 1939,
      "ortun": 1940,
      " half": 1941,
      " chang": 1942,
      " Pal": 1943,
      "iversity": 1944,
      " dra": 1945,
      "47": 1946,
      " hit": 1947,
      " mar": 1948,
      "ended": 1949,
      "mp": 1950,
      " film": 1951,
      "hel": 1952,
      " Gaza": 1953,
      " house": 1954,
      " hold": 1955,
      "uture": 1956,
      " Jan": 1957,
      " food": 1958,
      "play": 1959,
      "ards": 1960,
      " toget": 1961,
      " least": 1962,
      " together": 1963,
      "here": 1964,
      " form": 1965,
      " ever": 1966,
      "eral": 1967,
      " today": 1968,
      " face": 1969,
      "artment": 1970,
      "aled": 1971,
      " often": 1972,
      " Sund": 1973,
      " give": 1974,
      " John": 1975,
      "ran": 1976,
      "uly": 1977,
      " par": 1978,
      " list": 1979,
      " viol": 1980,
      "ondon": 1981,
      "ention": 1982,
      " among": 1983,
      " sever": 1984,
      "onday": 1985,
      " short": 1986,
      " known": 1987,
      " City": 1988,
      "-w": 1989,
      " taken": 1990,
      "idence": 1991,
      " getting": 1992,
      " decision": 1993,
      "ush": 1994,
      " process": 1995,
      " Q": 1996,
      "ams": 1997,
      " free": 1998,
      "ext": 1999,
      " As": 2000,
      " This": 2001,
      " Par": 2002,
      " invol": 2003,
      " important": 2004,
      " whether": 2005,
      "most": 2006,
      " due": 2007,
      " appe": 2008,
      "ev": 2009,
      "itions": 2010,
      "ison": 2011,
      " Af": 2012,
      " thing": 2013,
      "39": 2014,
      "els": 2015,
      " compet": 2016,
      "ider": 2017,
      "ified": 2018,
      " opt": 2019,
      " national": 2020,
      " ago": 2021,
      "stand": 2022,
      " taking": 2023,
      " charg": 2024,
      " success": 2025,
      " Monday": 2026,
      " author": 2027,
      " fight": 2028,
      " Be": 2029,
      " Br": 2030,
      "-l": 2031,
      " line": 2032,
      "-h": 2033,
      " book": 2034,
      "ried": 2035,
      "36": 2036,
      "ior": 2037,
      " emp": 2038,
      " future": 2039,
      " live": 2040,
      " players": 2041,
      "rew": 2042,
      " doing": 2043,
      " risk": 2044,
      " inform": 2045,
      " jo": 2046,
      " several": 2047,
      " games": 2048,
      " given": 2049,
      " po": 2050,
      " series": 2051,
      " strong": 2052,
      "uesday": 2053,
      "go": 2054,
      " Sunday": 2055,
      "ales": 2056,
      " laun": 2057,
      "etty": 2058,
      " England": 2059,
      "ection": 2060,
      " video": 2061,
      " char": 2062,
      " mean": 2063,
      " Friday": 2064,
      " Oct": 2065,
      " likely": 2066,
      " fans": 2067,
      " Comm": 2068,
      " manag": 2069,
      "ggest": 2070,
      " cand": 2071,
      " started": 2072,
      "However": 2073,
      "At": 2074,
      " eas": 2075,
      "\"It": 2076,
      " Wed": 2077,
      "crib": 2078,
      "ades": 2079,
      " leaders": 2080,
      " moment": 2081,
      "ising": 2082,
      " Co": 2083,
      " club": 2084,
      " London": 2085,
      " Russia": 2086,
      "ium": 2087,
      " bit": 2088,
      " proble": 2089,
      "ept": 2090,
      " suggest": 2091,
      "21": 2092,
      " ide": 2093,
      "\"\n": 2094,
      " further": 2095,
      " enough": 2096,
      "One": 2097,
      " Se": 2098,
      " though": 2099,
      " Tuesday": 2100,
      " rul": 2101,
      " pat": 2102,
      " prop": 2103,
      "pping": 2104,
      "echn": 2105,
      " fail": 2106,
      " Aust": 2107,
      " You": 2108,
      " market": 2109,
      " sol": 2110,
      " foc": 2111,
      " expected": 2112,
      " done": 2113,
      " val": 2114,
      " ant": 2115,
      " security": 2116,
      " Inst": 2117,
      "ories": 2118,
      " sex": 2119,
      "lements": 2120,
      " Ham": 2121,
      "ored": 2122,
      " pros": 2123,
      "lex": 2124,
      " Go": 2125,
      " account": 2126,
      " hig": 2127,
      " Christ": 2128,
      " officials": 2129,
      "my": 2130,
      " walk": 2131,
      "uper": 2132,
      " once": 2133,
      " ri": 2134,
      " const": 2135,
      " relations": 2136,
      "99": 2137,
      "nesday": 2138,
      " West": 2139,
      " dr": 2140,
      " kind": 2141,
      " They": 2142,
      " targ": 2143,
      "ublished": 2144,
      " weeks": 2145,
      " large": 2146,
      "rop": 2147,
      "ides": 2148,
      "ator": 2149,
      " gl": 2150,
      " Sw": 2151,
      " area": 2152,
      " behind": 2153,
      " Wednesday": 2154,
      " writ": 2155,
      "imate": 2156,
      " read": 2157,
      "itted": 2158,
      " effect": 2159,
      " fall": 2160,
      " bring": 2161,
      "23": 2162,
      " cele": 2163,
      "ination": 2164,
      "Al": 2165,
      " doesn": 2166,
      "ursday": 2167,
      " prof": 2168,
      "ission": 2169,
      "What": 2170,
      "uge": 2171,
      " threat": 2172,
      ").\n": 2173,
      " looking": 2174,
      " candid": 2175,
      " cho": 2176,
      " break": 2177,
      "ones": 2178,
      " hours": 2179,
      "ts": 2180,
      " continue": 2181,
      "irm": 2182,
      " At": 2183,
      " role": 2184,
      "ogra": 2185,
      " sus": 2186,
      " played": 2187,
      "inian": 2188,
      " class": 2189,
      "ize": 2190,
      " announced": 2191,
      " Pol": 2192,
      " sure": 2193,
      "&d": 2194,
      " design": 2195,
      "&dpr": 2196,
      " coming": 2197,
      "29": 2198,
      " Thursday": 2199,
      "After": 2200,
      "ern": 2201,
      " program": 2202,
      " yet": 2203,
      "48": 2204,
      "order": 2205,
      " data": 2206,
      " shared": 2207,
      " Ad": 2208,
      "lob": 2209,
      " signific": 2210,
      "\\\"": 2211,
      "alif": 2212,
      " mother": 2213,
      " Col": 2214,
      "Ch": 2215,
      " For": 2216,
      " trying": 2217,
      "yl": 2218,
      " cust": 2219,
      " comment": 2220,
      " complet": 2221,
      " watch": 2222,
      " National": 2223,
      "ashing": 2224,
      " within": 2225,
      " office": 2226,
      "\"},{\"": 2227,
      "itive": 2228,
      " community": 2229,
      " eng": 2230,
      "wh": 2231,
      " hosp": 2232,
      " others": 2233,
      "for": 2234,
      " Pro": 2235,
      " heart": 2236,
      " treat": 2237,
      " woman": 2238,
      " arrest": 2239,
      "lor": 2240,
      " fire": 2241,
      " using": 2242,
      " indust": 2243,
      "reed": 2244,
      "ids": 2245,
      "illi": 2246,
      " human": 2247,
      " World": 2248,
      "reme": 2249,
      " coun": 2250,
      "aly": 2251,
      " story": 2252,
      "ean": 2253,
      " body": 2254,
      " China": 2255,
      " particular": 2256,
      " experience": 2257,
      " killed": 2258,
      " land": 2259,
      " interview": 2260,
      " history": 2261,
      "ences": 2262,
      " Minister": 2263,
      " special": 2264,
      " mess": 2265,
      "icture": 2266,
      "ensive": 2267,
      "oon": 2268,
      " occ": 2269,
      "49": 2270,
      "ederal": 2271,
      "hern": 2272,
      "ns": 2273,
      " fun": 2274,
      "aps": 2275,
      "ights": 2276,
      " State": 2277,
      " points": 2278,
      " percent": 2279,
      " impro": 2280,
      " priv": 2281,
      "199": 2282,
      " techn": 2283,
      " equ": 2284,
      " Lab": 2285,
      "Mr": 2286,
      " impact": 2287,
      "While": 2288,
      " hope": 2289,
      "bb": 2290,
      "aced": 2291,
      "minist": 2292,
      " wa": 2293,
      " hom": 2294,
      " beg": 2295,
      "aving": 2296,
      " stay": 2297,
      "aturday": 2298,
      " attempt": 2299,
      " front": 2300,
      "de": 2301,
      "strong": 2302,
      " saw": 2303,
      " access": 2304,
      "ae": 2305,
      "rown": 2306,
      " rese": 2307,
      "field": 2308,
      " almost": 2309,
      "off": 2310,
      " vote": 2311,
      " bill": 2312,
      "lic": 2313,
      "ask": 2314,
      "type": 2315,
      " question": 2316,
      "uary": 2317,
      " parent": 2318,
      "resent": 2319,
      "ressed": 2320,
      "ability": 2321,
      " enc": 2322,
      " earlier": 2323,
      "cast": 2324,
      "ourse": 2325,
      "eor": 2326,
      " phot": 2327,
      " ens": 2328,
      " deep": 2329,
      "ches": 2330,
      "ring": 2331,
      " name": 2332,
      " Russian": 2333,
      " bene": 2334,
      " minutes": 2335,
      " staff": 2336,
      " activ": 2337,
      " career": 2338,
      " significant": 2339,
      "aid": 2340,
      " Con": 2341,
      " jud": 2342,
      " fav": 2343,
      " lim": 2344,
      " Israeli": 2345,
      " jour": 2346,
      " wanted": 2347,
      "umb": 2348,
      "lood": 2349,
      "ners": 2350,
      " spok": 2351,
      "erman": 2352,
      " pick": 2353,
      " friends": 2354,
      "que": 2355,
      " low": 2356,
      " ident": 2357,
      " June": 2358,
      " ahead": 2359,
      "inc": 2360,
      " mor": 2361,
      " expect": 2362,
      " quick": 2363,
      "oci": 2364,
      " Saturday": 2365,
      " describ": 2366,
      " led": 2367,
      "37": 2368,
      " imm": 2369,
      "era": 2370,
      " ty": 2371,
      " financ": 2372,
      " everything": 2373,
      " issues": 2374,
      " hot": 2375,
      " lost": 2376,
      " late": 2377,
      "amed": 2378,
      "use": 2379,
      " summer": 2380,
      " someone": 2381,
      " opportun": 2382,
      " certain": 2383,
      " Man": 2384,
      "ains": 2385,
      "page": 2386,
      " emer": 2387,
      " October": 2388,
      " outside": 2389,
      " revealed": 2390,
      " policy": 2391,
      "mber": 2392,
      "ror": 2393,
      "ted": 2394,
      " dou": 2395,
      "verage": 2396,
      "of": 2397,
      " match": 2398,
      " Im": 2399,
      " ener": 2400,
      " couple": 2401,
      "ilar": 2402,
      "ience": 2403,
      "uff": 2404,
      " July": 2405,
      "66": 2406,
      " Apr": 2407,
      "asing": 2408,
      " room": 2409,
      " ur": 2410,
      "rendering": 2411,
      " countries": 2412,
      "cil": 2413,
      " League": 2414,
      "ology": 2415,
      "sel": 2416,
      "ither": 2417,
      " Gu": 2418,
      "dot": 2419,
      " ground": 2420,
      "aces": 2421,
      " step": 2422,
      " project": 2423,
      " Bar": 2424,
      " means": 2425,
      " trad": 2426,
      " leader": 2427,
      "ovember": 2428,
      "model": 2429,
      " felt": 2430,
      "work": 2431,
      "ops": 2432,
      " incident": 2433,
      " Court": 2434,
      " lear": 2435,
      " capt": 2436,
      "lection": 2437,
      " Austral": 2438,
      " resear": 2439,
      " international": 2440,
      "oke": 2441,
      "ky": 2442,
      "ler": 2443,
      "itch": 2444,
      " online": 2445,
      " held": 2446,
      " age": 2447,
      " relationship": 2448,
      "Block": 2449,
      " init": 2450,
      " forward": 2451,
      " Black": 2452,
      " son": 2453,
      " Dec": 2454,
      " employ": 2455,
      " main": 2456,
      " ste": 2457,
      "me": 2458,
      " March": 2459,
      "38": 2460,
      "Id": 2461,
      " girl": 2462,
      " believe": 2463,
      " Sept": 2464,
      "Elements": 2465,
      "na": 2466,
      " No": 2467,
      " dead": 2468,
      " key": 2469,
      ".page": 2470,
      ".dot": 2471,
      " course": 2472,
      " Sec": 2473,
      "comrendering": 2474,
      " visit": 2475,
      ".dotcomrendering": 2476,
      " minister": 2477,
      "55": 2478,
      " billion": 2479,
      ",'": 2480,
      " November": 2481,
      " Afric": 2482,
      "han": 2483,
      "!\n": 2484,
      " died": 2485,
      " Donald": 2486,
      " music": 2487,
      " January": 2488,
      " tot": 2489,
      " mult": 2490,
      " avail": 2491,
      "rugg": 2492,
      " ey": 2493,
      "uation": 2494,
      " shows": 2495,
      " British": 2496,
      "aughter": 2497,
      "88": 2498,
      " everyone": 2499,
      " legal": 2500,
      " present": 2501,
      " began": 2502,
      " De": 2503,
      " arri": 2504,
      " voters": 2505,
      " Aug": 2506,
      " suff": 2507,
      "Sh": 2508,
      "With": 2509,
      "lobal": 2510,
      "arter": 2511,
      "iron": 2512,
      " price": 2513,
      " April": 2514,
      "-st": 2515,
      " makes": 2516,
      "erence": 2517,
      "ampions": 2518,
      " desp": 2519,
      " control": 2520,
      " energy": 2521,
      " action": 2522,
      " dev": 2523,
      " playing": 2524,
      " feat": 2525,
      " North": 2526,
      "ograph": 2527,
      " Dep": 2528,
      " nearly": 2529,
      "rup": 2530,
      " wasn": 2531,
      "ung": 2532,
      "ode": 2533,
      " became": 2534,
      " fig": 2535,
      " custom": 2536,
      " service": 2537,
      "element": 2538,
      " Cent": 2539,
      " All": 2540,
      "ey": 2541,
      " administ": 2542,
      "itting": 2543,
      "ml": 2544,
      " share": 2545,
      " understand": 2546,
      " possible": 2547,
      "ivil": 2548,
      "ety": 2549,
      "icult": 2550,
      " released": 2551,
      " information": 2552,
      "alse": 2553,
      " esp": 2554,
      "ecially": 2555,
      " sn": 2556,
      " caus": 2557,
      "aker": 2558,
      "iding": 2559,
      "osing": 2560,
      "-r": 2561,
      " running": 2562,
      " target": 2563,
      "ST": 2564,
      "unt": 2565,
      " issue": 2566,
      "not": 2567,
      " order": 2568,
      "itional": 2569,
      " offer": 2570,
      " Republican": 2571,
      "joy": 2572,
      " adm": 2573,
      " wife": 2574,
      " loss": 2575,
      "ender": 2576,
      " plans": 2577,
      "34": 2578,
      " recently": 2579,
      "pris": 2580,
      "icket": 2581,
      " Gr": 2582,
      " University": 2583,
      "Element": 2584,
      " race": 2585,
      " alleged": 2586,
      " Sen": 2587,
      " That": 2588,
      " bar": 2589,
      "otland": 2590,
      " word": 2591,
      "ulation": 2592,
      " lat": 2593,
      " famil": 2594,
      "iod": 2595,
      " Cong": 2596,
      " Net": 2597,
      " sour": 2598,
      "yn": 2599,
      " chief": 2600,
      "ashington": 2601,
      "ims": 2602,
      " goal": 2603,
      " football": 2604,
      "cl": 2605,
      " pur": 2606,
      " building": 2607,
      "val": 2608,
      " dam": 2609,
      " Ro": 2610,
      " seven": 2611,
      "ests": 2612,
      " ap": 2613,
      " strugg": 2614,
      "elling": 2615,
      "enal": 2616,
      "esc": 2617,
      " poll": 2618,
      " services": 2619,
      " var": 2620,
      " needs": 2621,
      " himself": 2622,
      "rug": 2623,
      "fully": 2624,
      "yle": 2625,
      "ached": 2626,
      " Ms": 2627,
      " decl": 2628,
      " wind": 2629,
      "500": 2630,
      "par": 2631,
      " aw": 2632,
      "First": 2633,
      "lymp": 2634,
      " celebr": 2635,
      " execut": 2636,
      "aur": 2637,
      " living": 2638,
      "medi": 2639,
      " nation": 2640,
      " abs": 2641,
      " anything": 2642,
      "ging": 2643,
      " cult": 2644,
      "ivid": 2645,
      " compan": 2646,
      " states": 2647,
      " father": 2648,
      "-up": 2649,
      " Pl": 2650,
      " director": 2651,
      " available": 2652,
      " proper": 2653,
      " AI": 2654,
      "por": 2655,
      "read": 2656,
      " seek": 2657,
      "da": 2658,
      "ators": 2659,
      "ban": 2660,
      "Tr": 2661,
      "oring": 2662,
      " lives": 2663,
      " stop": 2664,
      " respond": 2665,
      " latest": 2666,
      " mass": 2667,
      " difficult": 2668,
      " detail": 2669,
      "ently": 2670,
      " tem": 2671,
      "iety": 2672,
      " challeng": 2673,
      "46": 2674,
      " eight": 2675,
      "html": 2676,
      " actually": 2677,
      "aul": 2678,
      "uel": 2679,
      " Geor": 2680,
      " discuss": 2681,
      " ple": 2682,
      "No": 2683,
      " fell": 2684,
      " bank": 2685,
      " travel": 2686,
      " <": 2687,
      " space": 2688,
      " Olymp": 2689,
      " creat": 2690,
      " profess": 2691,
      "ively": 2692,
      "ream": 2693,
      " tour": 2694,
      " TV": 2695,
      " especially": 2696,
      "irc": 2697,
      " meeting": 2698,
      " ban": 2699,
      " round": 2700,
      " financial": 2701,
      " leave": 2702,
      "ribut": 2703,
      "ks": 2704,
      "atic": 2705,
      " German": 2706,
      " conv": 2707,
      "room": 2708,
      "agram": 2709,
      "rought": 2710,
      " red": 2711,
      " enjoy": 2712,
      " States": 2713,
      "anger": 2714,
      " focus": 2715,
      " bad": 2716,
      ".com": 2717,
      ">,\"\"": 2718,
      " students": 2719,
      " Labour": 2720,
      " ...": 2721,
      "hold": 2722,
      " coll": 2723,
      " potential": 2724,
      "78": 2725,
      " sen": 2726,
      " Dav": 2727,
      "arty": 2728,
      " player": 2729,
      " America": 2730,
      " period": 2731,
      " benefit": 2732,
      " despite": 2733,
      "My": 2734,
      " non": 2735,
      " soon": 2736,
      " Palest": 2737,
      "ocu": 2738,
      "To": 2739,
      "epend": 2740,
      "to": 2741,
      "ana": 2742,
      " den": 2743,
      " hospital": 2744,
      "edd": 2745,
      " light": 2746,
      "band": 2747,
      " Or": 2748,
      " position": 2749,
      " conn": 2750,
      " claimed": 2751,
      " Washington": 2752,
      "ips": 2753,
      " respons": 2754,
      "ural": 2755,
      " serious": 2756,
      " federal": 2757,
      " expert": 2758,
      " Scotland": 2759,
      "duced": 2760,
      " mid": 2761,
      " rate": 2762,
      " coach": 2763,
      " di": 2764,
      " road": 2765,
      " stra": 2766,
      " Ed": 2767,
      " Scott": 2768,
      " industry": 2769,
      "onse": 2770,
      " September": 2771,
      " tit": 2772,
      "\":\"<": 2773,
      " parents": 2774,
      "selves": 2775,
      "ogn": 2776,
      " net": 2777,
      " Sun": 2778,
      "ery": 2779,
      " argu": 2780,
      " European": 2781,
      " Ass": 2782,
      "ape": 2783,
      " received": 2784,
      " include": 2785,
      " morning": 2786,
      "hers": 2787,
      " else": 2788,
      " huge": 2789,
      "omin": 2790,
      " El": 2791,
      " dest": 2792,
      "Is": 2793,
      "icle": 2794,
      " Ang": 2795,
      " prob": 2796,
      "ccording": 2797,
      " complete": 2798,
      "gency": 2799,
      " Can": 2800,
      " Count": 2801,
      "though": 2802,
      " meas": 2803,
      " presidential": 2804,
      "atives": 2805,
      " mis": 2806,
      " Iran": 2807,
      "Last": 2808,
      " similar": 2809,
      "lish": 2810,
      "ming": 2811,
      "ett": 2812,
      "ction": 2813,
      " single": 2814,
      "nal": 2815,
      " needed": 2816,
      " provide": 2817,
      " August": 2818,
      "ises": 2819,
      "ala": 2820,
      " plat": 2821,
      "irmed": 2822,
      " continued": 2823,
      "31": 2824,
      "ada": 2825,
      " companies": 2826,
      " env": 2827,
      " resident": 2828,
      "ibility": 2829,
      " immedi": 2830,
      " nothing": 2831,
      " pract": 2832,
      " secret": 2833,
      "ael": 2834,
      "iec": 2835,
      "ule": 2836,
      " protect": 2837,
      " quite": 2838,
      ".T": 2839,
      " hon": 2840,
      " mod": 2841,
      " trial": 2842,
      " self": 2843,
      " Congress": 2844,
      "body": 2845,
      " Ab": 2846,
      " sold": 2847,
      " stage": 2848,
      "aliforn": 2849,
      "His": 2850,
      " border": 2851,
      " charac": 2852,
      "65": 2853,
      "ilt": 2854,
      " daughter": 2855,
      "ival": 2856,
      " track": 2857,
      " Indian": 2858,
      "ault": 2859,
      "gest": 2860,
      "ese": 2861,
      " neg": 2862,
      "Dis": 2863,
      " Feb": 2864,
      "198": 2865,
      " showed": 2866,
      " Off": 2867,
      " &": 2868,
      " gold": 2869,
      " represent": 2870,
      " mind": 2871,
      " global": 2872,
      " White": 2873,
      " Instagram": 2874,
      "44": 2875,
      "light": 2876,
      " civil": 2877,
      "ara": 2878,
      " How": 2879,
      " region": 2880,
      " personal": 2881,
      "attle": 2882,
      "Some": 2883,
      " mot": 2884,
      "70": 2885,
      " reason": 2886,
      " compl": 2887,
      " leading": 2888,
      " cris": 2889,
      " response": 2890,
      " shot": 2891,
      " quarter": 2892,
      " rights": 2893,
      " squ": 2894,
      " mur": 2895,
      " prison": 2896,
      " accused": 2897,
      " reports": 2898,
      " agree": 2899,
      " cross": 2900,
      " claims": 2901,
      "cd": 2902,
      " investigation": 2903,
      " Images": 2904,
      "hi": 2905,
      "lin": 2906,
      "urning": 2907,
      " economy": 2908,
      "ients": 2909,
      "duce": 2910,
      " drug": 2911,
      " shoot": 2912,
      " increase": 2913,
      "alifornia": 2914,
      "over": 2915,
      "ca": 2916,
      "mb": 2917,
      " buy": 2918,
      " previously": 2919,
      " review": 2920,
      " Hamas": 2921,
      " platform": 2922,
      " aut": 2923,
      " performance": 2924,
      "reet": 2925,
      " based": 2926,
      " Mich": 2927,
      "aper": 2928,
      "RE": 2929,
      " Sm": 2930,
      " examp": 2931,
      " whole": 2932,
      "ares": 2933,
      " hol": 2934,
      " larg": 2935,
      " Mus": 2936,
      " evidence": 2937,
      " Department": 2938,
      " docu": 2939,
      "key": 2940,
      "75": 2941,
      " ment": 2942,
      "oe": 2943,
      " nec": 2944,
      " rather": 2945,
      "igr": 2946,
      "akers": 2947,
      "rench": 2948,
      " isn": 2949,
      "iddle": 2950,
      " gra": 2951,
      " crim": 2952,
      " popular": 2953,
      "while": 2954,
      " Sy": 2955,
      " individ": 2956,
      " colle": 2957,
      " happened": 2958,
      " reach": 2959,
      " check": 2960,
      " higher": 2961,
      "ges": 2962,
      " tw": 2963,
      " address": 2964,
      " confirmed": 2965,
      " remains": 2966,
      " general": 2967,
      " aud": 2968,
      " longer": 2969,
      "kn": 2970,
      " model": 2971,
      " repl": 2972,
      "ees": 2973,
      " wrong": 2974,
      " chance": 2975,
      " laws": 2976,
      " safety": 2977,
      "iber": 2978,
      "avy": 2979,
      " worked": 2980,
      " foreign": 2981,
      " safe": 2982,
      "300": 2983,
      "aged": 2984,
      " worth": 2985,
      " hor": 2986,
      "usband": 2987,
      " economic": 2988,
      "69": 2989,
      " town": 2990,
      "earch": 2991,
      "hest": 2992,
      " inside": 2993,
      " Joe": 2994,
      " surpris": 2995,
      "ironment": 2996,
      " Cup": 2997,
      ".</": 2998,
      " gave": 2999,
      " susp": 3000,
      "-in": 3001,
      " matter": 3002,
      " anyone": 3003,
      " involved": 3004,
      "42": 3005,
      " areas": 3006,
      " release": 3007,
      " sle": 3008,
      " dro": 3009,
      " critic": 3010,
      " King": 3011,
      " administration": 3012,
      ".Text": 3013,
      " Park": 3014,
      "08": 3015,
      " prosecut": 3016,
      "gr": 3017,
      " workers": 3018,
      " amount": 3019,
      " Democratic": 3020,
      "fect": 3021,
      "ha": 3022,
      " demand": 3023,
      " problem": 3024,
      " Getty": 3025,
      "iple": 3026,
      "ends": 3027,
      " whose": 3028,
      " situation": 3029,
      " super": 3030,
      " brought": 3031,
      " div": 3032,
      " begin": 3033,
      "irth": 3034,
      "ify": 3035,
      " prior": 3036,
      " private": 3037,
      "orters": 3038,
      " white": 3039,
      " bas": 3040,
      "oming": 3041,
      " beaut": 3042,
      "chie": 3043,
      "ateg": 3044,
      " results": 3045,
      "ened": 3046,
      " growth": 3047,
      "ole": 3048,
      "ze": 3049,
      " broad": 3050,
      "sc": 3051,
      " spent": 3052,
      " California": 3053,
      " currently": 3054,
      " December": 3055,
      " port": 3056,
      " capital": 3057,
      " veh": 3058,
      " Day": 3059,
      "\":[": 3060,
      " deter": 3061,
      " victory": 3062,
      " orig": 3063,
      "32": 3064,
      " Just": 3065,
      "ford": 3066,
      "lear": 3067,
      "emic": 3068,
      " particularly": 3069,
      " total": 3070,
      " entire": 3071,
      " Te": 3072,
      "agn": 3073,
      "back": 3074,
      "ilities": 3075,
      "58": 3076,
      " pressure": 3077,
      " Paris": 3078,
      " idea": 3079,
      " costs": 3080,
      "ills": 3081,
      " On": 3082,
      "68": 3083,
      "mas": 3084,
      " hous": 3085,
      " dog": 3086,
      "liament": 3087,
      " cases": 3088,
      "omp": 3089,
      "ighb": 3090,
      " BBC": 3091,
      " biggest": 3092,
      " instead": 3093,
      "reg": 3094,
      "oura": 3095,
      " War": 3096,
      " board": 3097,
      "rowd": 3098,
      " husband": 3099,
      " lab": 3100,
      " Gl": 3101,
      " influ": 3102,
      " There": 3103,
      "fer": 3104,
      " heard": 3105,
      " comb": 3106,
      "-e": 3107,
      " bra": 3108,
      " prevent": 3109,
      "\"},{\"_": 3110,
      "osition": 3111,
      "olly": 3112,
      "ba": 3113,
      "ocked": 3114,
      " prep": 3115,
      "alt": 3116,
      "udget": 3117,
      " black": 3118,
      " term": 3119,
      "reated": 3120,
      " pain": 3121,
      " events": 3122,
      "utin": 3123,
      "anche": 3124,
      "enced": 3125,
      " assist": 3126,
      "lev": 3127,
      "According": 3128,
      "itness": 3129,
      "istan": 3130,
      "ruary": 3131,
      "-time": 3132,
      " France": 3133,
      " z": 3134,
      "ray": 3135,
      "ores": 3136,
      " So": 3137,
      " pack": 3138,
      " mat": 3139,
      "raft": 3140,
      "fa": 3141,
      "vered": 3142,
      " tried": 3143,
      " research": 3144,
      " member": 3145,
      " gun": 3146,
      "alled": 3147,
      " phone": 3148,
      "ows": 3149,
      " kids": 3150,
      "wood": 3151,
      "rupt": 3152,
      " field": 3153,
      " via": 3154,
      " example": 3155,
      " Ex": 3156,
      " Star": 3157,
      "ousands": 3158,
      "'.\n": 3159,
      "lict": 3160,
      " Char": 3161,
      " accept": 3162,
      " speak": 3163,
      "Display": 3164,
      "come": 3165,
      "ya": 3166,
      " recogn": 3167,
      " turned": 3168,
      " published": 3169,
      " happy": 3170,
      "hood": 3171,
      " either": 3172,
      " Ke": 3173,
      " described": 3174,
      "iger": 3175,
      "oid": 3176,
      " manager": 3177,
      " forces": 3178,
      "agement": 3179,
      "62": 3180,
      " hands": 3181,
      " East": 3182,
      " educ": 3183,
      " Govern": 3184,
      " prim": 3185,
      " included": 3186,
      " fear": 3187,
      "isl": 3188,
      " towards": 3189,
      " box": 3190,
      " violence": 3191,
      "**": 3192,
      " If": 3193,
      " Em": 3194,
      " families": 3195,
      " appeared": 3196,
      " probably": 3197,
      " February": 3198,
      " conc": 3199,
      " concerns": 3200,
      " Med": 3201,
      "ization": 3202,
      " average": 3203,
      "09": 3204,
      "Ph": 3205,
      "uit": 3206,
      "ww": 3207,
      " extra": 3208,
      "Trump": 3209,
      " takes": 3210,
      " prices": 3211,
      "350": 3212,
      " ensure": 3213,
      "Picture": 3214,
      " knew": 3215,
      " however": 3216,
      " esc": 3217,
      "pper": 3218,
      " opportunity": 3219,
      "fort": 3220,
      " pred": 3221,
      " easy": 3222,
      " County": 3223,
      "ening": 3224,
      " ep": 3225,
      " attacks": 3226,
      "fb": 3227,
      " French": 3228,
      " grand": 3229,
      " development": 3230,
      " tro": 3231,
      "ino": 3232,
      " pret": 3233,
      " phys": 3234,
      "idge": 3235,
      " neighb": 3236,
      " conditions": 3237,
      "ittee": 3238,
      " wants": 3239,
      "iles": 3240,
      " Willi": 3241,
      "ease": 3242,
      " achie": 3243,
      "nings": 3244,
      " efforts": 3245,
      " themselves": 3246,
      " pair": 3247,
      "cement": 3248,
      " spot": 3249,
      " respect": 3250,
      "eople": 3251,
      "ida": 3252,
      " rout": 3253,
      "lied": 3254,
      "77": 3255,
      "sw": 3256,
      " clean": 3257,
      " medical": 3258,
      " Angel": 3259,
      " looked": 3260,
      "false": 3261,
      " improve": 3262,
      " sense": 3263,
      "irt": 3264,
      " arrested": 3265,
      " gone": 3266,
      " elections": 3267,
      " sound": 3268,
      "amb": 3269,
      " brand": 3270,
      " questions": 3271,
      " groups": 3272,
      " allowed": 3273,
      " circ": 3274,
      "ama": 3275,
      " changes": 3276,
      " authorities": 3277,
      "eth": 3278,
      " cancer": 3279,
      "ype": 3280,
      " App": 3281,
      "620": 3282,
      "Now": 3283,
      " sect": 3284,
      " Mo": 3285,
      " strik": 3286,
      " lack": 3287,
      " Democrats": 3288,
      " Police": 3289,
      " senior": 3290,
      "rast": 3291,
      " bab": 3292,
      " weekend": 3293,
      " approach": 3294,
      " Australia": 3295,
      " climate": 3296,
      " launched": 3297,
      " force": 3298,
      "ude": 3299,
      " quickly": 3300,
      " consum": 3301,
      " anti": 3302,
      " leaving": 3303,
      " environment": 3304,
      "down": 3305,
      " song": 3306,
      "605": 3307,
      "All": 3308,
      " ord": 3309,
      "59": 3310,
      " link": 3311,
      "add": 3312,
      " create": 3313,
      " repe": 3314,
      " Party": 3315,
      " vo": 3316,
      " Christmas": 3317,
      " candidate": 3318,
      " ill": 3319,
      " Dr": 3320,
      " conflict": 3321,
      " majority": 3322,
      " terms": 3323,
      " moved": 3324,
      " charges": 3325,
      "TV": 3326,
      " cause": 3327,
      " birth": 3328,
      " agency": 3329,
      " drink": 3330,
      " nine": 3331,
      "icted": 3332,
      " helped": 3333,
      " aid": 3334,
      "isc": 3335,
      "undred": 3336,
      " regular": 3337,
      " sett": 3338,
      " training": 3339,
      " growing": 3340,
      " strike": 3341,
      " crisis": 3342,
      " park": 3343,
      " Mor": 3344,
      " Africa": 3345,
      "ico": 3346,
      "-based": 3347,
      "AP": 3348,
      "ully": 3349,
      "ply": 3350,
      " danger": 3351,
      " Pat": 3352,
      "rying": 3353,
      " doct": 3354,
      "64": 3355,
      "bur": 3356,
      " One": 3357,
      " debate": 3358,
      " vers": 3359,
      " gen": 3360,
      " To": 3361,
      " clos": 3362,
      " adding": 3363,
      " draw": 3364,
      " weap": 3365,
      "aining": 3366,
      " decided": 3367,
      " posted": 3368,
      "yc": 3369,
      "}]": 3370,
      " peace": 3371,
      " contract": 3372,
      "-g": 3373,
      "la": 3374,
      " intro": 3375,
      "ishing": 3376,
      " flo": 3377,
      " lower": 3378,
      "igration": 3379,
      "enge": 3380,
      "ani": 3381,
      " increasing": 3382,
      "lus": 3383,
      " piec": 3384,
      " vol": 3385,
      " consider": 3386,
      "where": 3387,
      " crowd": 3388,
      "estern": 3389,
      "acing": 3390,
      " speech": 3391,
      "erc": 3392,
      " San": 3393,
      "These": 3394,
      " conduct": 3395,
      "going": 3396,
      " sil": 3397,
      "aging": 3398,
      " scene": 3399,
      " decades": 3400,
      "inese": 3401,
      "itc": 3402,
      " Air": 3403,
      "ma": 3404,
      "uty": 3405,
      " Times": 3406,
      " cannot": 3407,
      " perfect": 3408,
      " Americans": 3409,
      "ructure": 3410,
      "pm": 3411,
      " cam": 3412,
      " paid": 3413,
      "asons": 3414,
      "ension": 3415,
      " exist": 3416,
      "het": 3417,
      "aily": 3418,
      "aught": 3419,
      "-to": 3420,
      " study": 3421,
      " multiple": 3422,
      " David": 3423,
      "ny": 3424,
      " cal": 3425,
      " oil": 3426,
      " rates": 3427,
      " looks": 3428,
      " teams": 3429,
      " ready": 3430,
      "illed": 3431,
      "pir": 3432,
      "iter": 3433,
      "itiz": 3434,
      "istic": 3435,
      "ressive": 3436,
      " myself": 3437,
      " amb": 3438,
      "Im": 3439,
      " wide": 3440,
      " typ": 3441,
      " doub": 3442,
      " criminal": 3443,
      "rap": 3444,
      " ways": 3445,
      "olute": 3446,
      " BST": 3447,
      " contact": 3448,
      " rules": 3449,
      "67": 3450,
      " vill": 3451,
      " winning": 3452,
      "onst": 3453,
      " thousands": 3454,
      " ess": 3455,
      "ique": 3456,
      " firm": 3457,
      " stat": 3458,
      " rock": 3459,
      "445": 3460,
      "600": 3461,
      " cast": 3462,
      " trust": 3463,
      "fe": 3464,
      "uries": 3465,
      " Britain": 3466,
      " Sch": 3467,
      "ope": 3468,
      " ten": 3469,
      "raz": 3470,
      "apan": 3471,
      " cover": 3472,
      " emb": 3473,
      " treatment": 3474,
      "omb": 3475,
      " James": 3476,
      " disapp": 3477,
      " unc": 3478,
      " unf": 3479,
      " centre": 3480,
      "Be": 3481,
      " collect": 3482,
      " estab": 3483,
      "mark": 3484,
      "ona": 3485,
      "ceed": 3486,
      "eter": 3487,
      "istry": 3488,
      " journal": 3489,
      " character": 3490,
      "oes": 3491,
      "reland": 3492,
      " pers": 3493,
      " date": 3494,
      " Del": 3495,
      "igital": 3496,
      " Cons": 3497,
      " disco": 3498,
      " independ": 3499,
      " inflation": 3500,
      " pan": 3501,
      " hur": 3502,
      " itself": 3503,
      "espite": 3504,
      "outhern": 3505,
      " followed": 3506,
      ".,": 3507,
      "=\\\"": 3508,
      "anchester": 3509,
      "aa": 3510,
      " sun": 3511,
      "apt": 3512,
      " executive": 3513,
      ":\n": 3514,
      " maint": 3515,
      " giving": 3516,
      " goes": 3517,
      " alongside": 3518,
      "ampionship": 3519,
      "AT": 3520,
      " wond": 3521,
      " norm": 3522,
      "airs": 3523,
      "haps": 3524,
      "iers": 3525,
      "tr": 3526,
      " works": 3527,
      " customers": 3528,
      " property": 3529,
      "oard": 3530,
      " reb": 3531,
      "oo": 3532,
      " ended": 3533,
      " er": 3534,
      "400": 3535,
      " beat": 3536,
      " vac": 3537,
      " fourth": 3538,
      " officers": 3539,
      " message": 3540,
      "\":[{\"": 3541,
      "df": 3542,
      "itter": 3543,
      " bal": 3544,
      " bott": 3545,
      "unch": 3546,
      " Street": 3547,
      " deliver": 3548,
      " fan": 3549,
      " Jack": 3550,
      " partners": 3551,
      " site": 3552,
      " wel": 3553,
      " brother": 3554,
      "esperson": 3555,
      " fair": 3556,
      " emot": 3557,
      "eanwhile": 3558,
      " immediately": 3559,
      "71": 3560,
      "arian": 3561,
      " range": 3562,
      "ires": 3563,
      " bed": 3564,
      " Me": 3565,
      " Red": 3566,
      "like": 3567,
      " sport": 3568,
      " legisl": 3569,
      " failed": 3570,
      " forced": 3571,
      "ushed": 3572,
      " kick": 3573,
      " attention": 3574,
      " couldn": 3575,
      " opening": 3576,
      " Prime": 3577,
      " dram": 3578,
      "iled": 3579,
      "oper": 3580,
      " spending": 3581,
      " products": 3582,
      " Kore": 3583,
      " runs": 3584,
      " investment": 3585,
      "Another": 3586,
      " levels": 3587,
      " homes": 3588,
      " sat": 3589,
      " Cor": 3590,
      " particip": 3591,
      " title": 3592,
      "rif": 3593,
      " Roy": 3594,
      " raised": 3595,
      " hundred": 3596,
      "asion": 3597,
      " favour": 3598,
      " Chinese": 3599,
      " spokesperson": 3600,
      " fast": 3601,
      "isions": 3602,
      " surv": 3603,
      " explained": 3604,
      " histor": 3605,
      " production": 3606,
      " launch": 3607,
      " Serv": 3608,
      " partner": 3609,
      "197": 3610,
      "ervative": 3611,
      " encoura": 3612,
      " hear": 3613,
      " rise": 3614,
      " offers": 3615,
      "ibly": 3616,
      " officer": 3617,
      " talking": 3618,
      "><": 3619,
      " touch": 3620,
      "vey": 3621,
      " Prem": 3622,
      " separ": 3623,
      "ardian": 3624,
      "bd": 3625,
      "entially": 3626,
      " above": 3627,
      " Ste": 3628,
      "aves": 3629,
      " gets": 3630,
      "Our": 3631,
      "sy": 3632,
      " anim": 3633,
      " goals": 3634,
      "exas": 3635,
      "Type": 3636,
      " bag": 3637,
      " sens": 3638,
      " Mark": 3639,
      "action": 3640,
      " Bro": 3641,
      " webs": 3642,
      "ellig": 3643,
      "isation": 3644,
      "ari": 3645,
      " rev": 3646,
      " convers": 3647,
      " true": 3648,
      " aim": 3649,
      " hy": 3650,
      "illeg": 3651,
      " answ": 3652,
      "\":{\"": 3653,
      " sched": 3654,
      "57": 3655,
      "itor": 3656,
      " reached": 3657,
      "ession": 3658,
      " swe": 3659,
      " stock": 3660,
      " challenge": 3661,
      " natur": 3662,
      " includes": 3663,
      " starting": 3664,
      " problems": 3665,
      " i": 3666,
      " effort": 3667,
      " ver": 3668,
      "ken": 3669,
      "set": 3670,
      " La": 3671,
      " lawy": 3672,
      " slow": 3673,
      "lying": 3674,
      " Coun": 3675,
      " Dan": 3676,
      " comments": 3677,
      " ult": 3678,
      " common": 3679,
      " Scottish": 3680,
      " rad": 3681,
      " defe": 3682,
      " Ben": 3683,
      " Los": 3684,
      " streng": 3685,
      "ander": 3686,
      " block": 3687,
      " mill": 3688,
      " noted": 3689,
      " parties": 3690,
      "-a": 3691,
      "aches": 3692,
      " words": 3693,
      "itut": 3694,
      "89": 3695,
      "orney": 3696,
      " bur": 3697,
      " lik": 3698,
      " technology": 3699,
      " challenges": 3700,
      "ij": 3701,
      " base": 3702,
      "ript": 3703,
      " calls": 3704,
      " feeling": 3705,
      " judge": 3706,
      "sequ": 3707,
      "vere": 3708,
      " boy": 3709,
      " commit": 3710,
      "upreme": 3711,
      " central": 3712,
      " seems": 3713,
      " Smith": 3714,
      " blood": 3715,
      " spoke": 3716,
      " built": 3717,
      "86": 3718,
      "Every": 3719,
      "resh": 3720,
      "Tok": 3721,
      "ingly": 3722,
      " value": 3723,
      " sleep": 3724,
      " named": 3725,
      " illeg": 3726,
      " har": 3727,
      " Paul": 3728,
      "eed": 3729,
      "weight": 3730,
      "52": 3731,
      "Published": 3732,
      " sell": 3733,
      " card": 3734,
      "arr": 3735,
      " prime": 3736,
      " roll": 3737,
      " warned": 3738,
      " politics": 3739,
      " search": 3740,
      "ston": 3741,
      "anda": 3742,
      "ression": 3743,
      " actor": 3744,
      " Ukrainian": 3745,
      " skin": 3746,
      " residents": 3747,
      "rief": 3748,
      " meant": 3749,
      "72": 3750,
      " Ireland": 3751,
      "yan": 3752,
      " credit": 3753,
      " Niger": 3754,
      " Intern": 3755,
      " budget": 3756,
      "ester": 3757,
      "orthern": 3758,
      " sexual": 3759,
      "aded": 3760,
      " Her": 3761,
      " conference": 3762,
      " positive": 3763,
      " injury": 3764,
      " save": 3765,
      "ems": 3766,
      " quality": 3767,
      "-ter": 3768,
      "ago": 3769,
      " Japan": 3770,
      " amid": 3771,
      " changed": 3772,
      " disp": 3773,
      " source": 3774,
      " Office": 3775,
      "cb": 3776,
      "rees": 3777,
      " weather": 3778,
      " kept": 3779,
      " pretty": 3780,
      "dated": 3781,
      " Res": 3782,
      " EU": 3783,
      " compared": 3784,
      "iction": 3785,
      " joined": 3786,
      "Not": 3787,
      "yal": 3788,
      "adium": 3789,
      "ffic": 3790,
      " assault": 3791,
      " extreme": 3792,
      " nom": 3793,
      " leadership": 3794,
      "te": 3795,
      "},\"": 3796,
      " Chief": 3797,
      " reflect": 3798,
      " trip": 3799,
      " Secret": 3800,
      " Germany": 3801,
      "do": 3802,
      "196": 3803,
      " jobs": 3804,
      " Phil": 3805,
      "Her": 3806,
      "\"This": 3807,
      " sal": 3808,
      " Met": 3809,
      " hair": 3810,
      " Republicans": 3811,
      " straight": 3812,
      " necess": 3813,
      " green": 3814,
      " heat": 3815,
      " exact": 3816,
      " Flor": 3817,
      " crime": 3818,
      " Angeles": 3819,
      "van": 3820,
      "ortion": 3821,
      " Mart": 3822,
      " Manchester": 3823,
      " Bank": 3824,
      " dism": 3825,
      " returned": 3826,
      " fem": 3827,
      "aylor": 3828,
      " users": 3829,
      " avoid": 3830,
      "night": 3831,
      " wat": 3832,
      "lands": 3833,
      " drive": 3834,
      " mental": 3835,
      "rim": 3836,
      " sto": 3837,
      " With": 3838,
      " trade": 3839,
      " funding": 3840,
      " bow": 3841,
      "oud": 3842,
      " train": 3843,
      "ea": 3844,
      " Act": 3845,
      "54": 3846,
      "ugh": 3847,
      "erry": 3848,
      "omen": 3849,
      " Mad": 3850,
      "shire": 3851,
      " restaur": 3852,
      " holiday": 3853,
      "book": 3854,
      " Sing": 3855,
      "idered": 3856,
      "angu": 3857,
      " regul": 3858,
      " issued": 3859,
      " simply": 3860,
      "pen": 3861,
      "oul": 3862,
      " Sam": 3863,
      " Texas": 3864,
      "igrants": 3865,
      " cat": 3866,
      " Mur": 3867,
      "rab": 3868,
      "coming": 3869,
      "viously": 3870,
      " specific": 3871,
      " caused": 3872,
      " Associ": 3873,
      "Getty": 3874,
      " ren": 3875,
      " alone": 3876,
      " murder": 3877,
      " sales": 3878,
      "enty": 3879,
      "imately": 3880,
      " communities": 3881,
      " various": 3882,
      " details": 3883,
      ".m": 3884,
      "ously": 3885,
      " seeing": 3886,
      " associ": 3887,
      "AS": 3888,
      "asc": 3889,
      " Kam": 3890,
      " calling": 3891,
      " electric": 3892,
      " opened": 3893,
      "eneral": 3894,
      " fra": 3895,
      " MP": 3896,
      " His": 3897,
      " movie": 3898,
      " network": 3899,
      " baby": 3900,
      " north": 3901,
      " En": 3902,
      " score": 3903,
      " website": 3904,
      "elligence": 3905,
      "Un": 3906,
      " citiz": 3907,
      " indic": 3908,
      " rare": 3909,
      " opposition": 3910,
      " district": 3911,
      " features": 3912,
      " document": 3913,
      "Meanwhile": 3914,
      "mit": 3915,
      "ager": 3916,
      "oph": 3917,
      " increased": 3918,
      " schools": 3919,
      "ruction": 3920,
      " Michael": 3921,
      " remember": 3922,
      " signed": 3923,
      "iam": 3924,
      "oti": 3925,
      "andemic": 3926,
      " Ken": 3927,
      "iance": 3928,
      " parts": 3929,
      " appoint": 3930,
      " remark": 3931,
      " throughout": 3932,
      " passed": 3933,
      " cash": 3934,
      "oman": 3935,
      "raw": 3936,
      " behav": 3937,
      " Government": 3938,
      " wild": 3939,
      "iced": 3940,
      "iful": 3941,
      " sust": 3942,
      "astic": 3943,
      " largest": 3944,
      "aming": 3945,
      " Tik": 3946,
      " league": 3947,
      "yond": 3948,
      "azon": 3949,
      "cy": 3950,
      " fest": 3951,
      " evening": 3952,
      " feels": 3953,
      " charge": 3954,
      " content": 3955,
      ").": 3956,
      "New": 3957,
      " boss": 3958,
      " gas": 3959,
      " charged": 3960,
      " Senate": 3961,
      "olution": 3962,
      " incred": 3963,
      " terror": 3964,
      "Despite": 3965,
      "uf": 3966,
      "erve": 3967,
      " path": 3968,
      " mater": 3969,
      "oms": 3970,
      " boost": 3971,
      " rain": 3972,
      "bed": 3973,
      " GM": 3974,
      " numbers": 3975,
      " highest": 3976,
      " housing": 3977,
      " Mac": 3978,
      " sports": 3979,
      " regard": 3980,
      " sometimes": 3981,
      " injured": 3982,
      "EO": 3983,
      "oking": 3984,
      " prem": 3985,
      " thinking": 3986,
      " heavy": 3987,
      " agreed": 3988,
      " created": 3989,
      "HS": 3990,
      "Up": 3991,
      "rel": 3992,
      "ille": 3993,
      "anced": 3994,
      " choice": 3995,
      " Council": 3996,
      "urch": 3997,
      "vention": 3998,
      " afford": 3999,
      " aware": 4000,
      "-term": 4001,
      " ongoing": 4002,
      " considered": 4003,
      " condition": 4004,
      " Florida": 4005,
      "roy": 4006,
      " --": 4007,
      " Johnson": 4008,
      "lam": 4009,
      "inary": 4010,
      "vell": 4011,
      " shock": 4012,
      "rey": 4013,
      " lif": 4014,
      " recomm": 4015,
      " remov": 4016,
      "ugg": 4017,
      "ites": 4018,
      " fighting": 4019,
      "?\"": 4020,
      "eff": 4021,
      " chair": 4022,
      "Just": 4023,
      " south": 4024,
      " inn": 4025,
      " victims": 4026,
      "uals": 4027,
      " comfort": 4028,
      "ancy": 4029,
      " policies": 4030,
      "56": 4031,
      "AN": 4032,
      "zz": 4033,
      "atory": 4034,
      " Sim": 4035,
      " Putin": 4036,
      " door": 4037,
      " estim": 4038,
      "ux": 4039,
      "uing": 4040,
      " middle": 4041,
      "ado": 4042,
      "...\n": 4043,
      " sector": 4044,
      " Alex": 4045,
      " Rober": 4046,
      " offered": 4047,
      " attend": 4048,
      " appeal": 4049,
      " candidates": 4050,
      "itz": 4051,
      " adult": 4052,
      " attract": 4053,
      "anch": 4054,
      " repeated": 4055,
      "upp": 4056,
      " debut": 4057,
      "aries": 4058,
      " hearing": 4059,
      " Que": 4060,
      " wait": 4061,
      "Israel": 4062,
      "icles": 4063,
      " contribut": 4064,
      "JP": 4065,
      " missing": 4066,
      " meaning": 4067,
      "More": 4068,
      " award": 4069,
      " High": 4070,
      " epis": 4071,
      "AR": 4072,
      " businesses": 4073,
      " reportedly": 4074,
      " patients": 4075,
      " education": 4076,
      "Even": 4077,
      " progress": 4078,
      "mon": 4079,
      "orrow": 4080,
      "roud": 4081,
      " provided": 4082,
      " Fin": 4083,
      "ickets": 4084,
      " facing": 4085,
      " require": 4086,
      " critical": 4087,
      " trou": 4088,
      "alls": 4089,
      " spl": 4090,
      " UN": 4091,
      "ghan": 4092,
      " enfor": 4093,
      " International": 4094,
      "51": 4095,
      "ki": 4096,
      " witness": 4097,
      " finally": 4098,
      " absolute": 4099,
      " Palestinian": 4100,
      "-th": 4101,
      "gia": 4102,
      "alent": 4103,
      " reality": 4104,
      "roll": 4105,
      " Supreme": 4106,
      " que": 4107,
      " temper": 4108,
      " primary": 4109,
      "sp": 4110,
      "arily": 4111,
      " beyond": 4112,
      " seats": 4113,
      "roup": 4114,
      " damage": 4115,
      "53": 4116,
      " My": 4117,
      "ification": 4118,
      "rec": 4119,
      " refer": 4120,
      " scored": 4121,
      "ashion": 4122,
      " promot": 4123,
      " hotel": 4124,
      "\"He": 4125,
      "isted": 4126,
      " council": 4127,
      "-A": 4128,
      "43": 4129,
      "By": 4130,
      "ER": 4131,
      " table": 4132,
      " Cam": 4133,
      " Rob": 4134,
      " screen": 4135,
      " passeng": 4136,
      " figures": 4137,
      "rs": 4138,
      " Tw": 4139,
      " shift": 4140,
      "onn": 4141,
      "sea": 4142,
      " spend": 4143,
      " request": 4144,
      " Phot": 4145,
      "friend": 4146,
      " Tra": 4147,
      " Port": 4148,
      "osc": 4149,
      " loved": 4150,
      "ounds": 4151,
      " text": 4152,
      "'I": 4153,
      "-P": 4154,
      "pool": 4155,
      " ones": 4156,
      " ability": 4157,
      " showing": 4158,
      " defin": 4159,
      " flight": 4160,
      " faced": 4161,
      " Premier": 4162,
      " fre": 4163,
      " Mex": 4164,
      "elled": 4165,
      " wouldn": 4166,
      " demonst": 4167,
      "men": 4168,
      " spread": 4169,
      " additional": 4170,
      " Thom": 4171,
      " continues": 4172,
      " pandemic": 4173,
      " champ": 4174,
      " English": 4175,
      " competition": 4176,
      " poor": 4177,
      " emergency": 4178,
      " lay": 4179,
      " storm": 4180,
      "ears": 4181,
      " produc": 4182,
      " seat": 4183,
      " email": 4184,
      " obs": 4185,
      " injuries": 4186,
      " options": 4187,
      " natural": 4188,
      "During": 4189,
      "abor": 4190,
      " Fox": 4191,
      " parliament": 4192,
      "79": 4193,
      "iant": 4194,
      " dress": 4195,
      " benefits": 4196,
      " tourn": 4197,
      " although": 4198,
      " serve": 4199,
      "racy": 4200,
      " mob": 4201,
      " station": 4202,
      " weight": 4203,
      " teen": 4204,
      " culture": 4205,
      " shooting": 4206,
      "ilty": 4207,
      "osh": 4208,
      " justice": 4209,
      " moving": 4210,
      "Image": 4211,
      "jected": 4212,
      "inner": 4213,
      " pul": 4214,
      " vir": 4215,
      " miles": 4216,
      "pro": 4217,
      "ref": 4218,
      " flood": 4219,
      " rule": 4220,
      "azing": 4221,
      " views": 4222,
      " Not": 4223,
      " hundreds": 4224,
      "Am": 4225,
      "rated": 4226,
      " mix": 4227,
      " Bel": 4228,
      "rian": 4229,
      " Health": 4230,
      " required": 4231,
      " places": 4232,
      " applic": 4233,
      "ahu": 4234,
      " defense": 4235,
      " surround": 4236,
      " owners": 4237,
      " population": 4238,
      " certainly": 4239,
      "eal": 4240,
      " freed": 4241,
      " Mod": 4242,
      "ground": 4243,
      " sho": 4244,
      " Wales": 4245,
      " double": 4246,
      " arrived": 4247,
      "cing": 4248,
      "omes": 4249,
      " Soc": 4250,
      ">\\": 4251,
      " penal": 4252,
      "ashed": 4253,
      "ication": 4254,
      "akistan": 4255,
      " telling": 4256,
      " millions": 4257,
      "makers": 4258,
      " dark": 4259,
      "annel": 4260,
      " eyes": 4261,
      "hib": 4262,
      "hlet": 4263,
      "rect": 4264,
      " fully": 4265,
      " becoming": 4266,
      " territ": 4267,
      " protest": 4268,
      " figure": 4269,
      "acked": 4270,
      "izing": 4271,
      " Harry": 4272,
      " restrict": 4273,
      " watching": 4274,
      "-M": 4275,
      "Since": 4276,
      "bc": 4277,
      "ria": 4278,
      " contest": 4279,
      " cool": 4280,
      " student": 4281,
      " purch": 4282,
      "Pol": 4283,
      "itution": 4284,
      "ali": 4285,
      "ources": 4286,
      "ipl": 4287,
      "berg": 4288,
      "uclear": 4289,
      " Union": 4290,
      " suggested": 4291,
      " massive": 4292,
      " experts": 4293,
      " fresh": 4294,
      " reduce": 4295,
      " guilty": 4296,
      " served": 4297,
      " eye": 4298,
      " professional": 4299,
      " store": 4300,
      "iring": 4301,
      " athlet": 4302,
      " herself": 4303,
      " decade": 4304,
      " George": 4305,
      "mers": 4306,
      "icro": 4307,
      "estic": 4308,
      " married": 4309,
      " initi": 4310,
      "bum": 4311,
      " band": 4312,
      " planning": 4313,
      " subst": 4314,
      "FL": 4315,
      " push": 4316,
      " jump": 4317,
      " doz": 4318,
      " coast": 4319,
      "gent": 4320,
      "vest": 4321,
      " Che": 4322,
      "hol": 4323,
      " sche": 4324,
      " negoti": 4325,
      "ait": 4326,
      "fd": 4327,
      "itute": 4328,
      "ancing": 4329,
      "Ind": 4330,
      " Ser": 4331,
      " When": 4332,
      " profit": 4333,
      "arden": 4334,
      "itely": 4335,
      " eventually": 4336,
      " seemed": 4337,
      " limited": 4338,
      " dom": 4339,
      " jail": 4340,
      "oked": 4341,
      " journey": 4342,
      "/Getty": 4343,
      "Many": 4344,
      "orter": 4345,
      " winner": 4346,
      " What": 4347,
      " Olympic": 4348,
      " pod": 4349,
      "illing": 4350,
      " defend": 4351,
      " driving": 4352,
      "know": 4353,
      " GMT": 4354,
      " hour": 4355,
      " Leban": 4356,
      " annual": 4357,
      " Service": 4358,
      " spark": 4359,
      " defence": 4360,
      " receive": 4361,
      " counter": 4362,
      " measures": 4363,
      " Tom": 4364,
      " soft": 4365,
      " believed": 4366,
      "well": 4367,
      " pun": 4368,
      " expand": 4369,
      " propos": 4370,
      " completely": 4371,
      " secretary": 4372,
      " physical": 4373,
      " version": 4374,
      " tough": 4375,
      "illa": 4376,
      " Taylor": 4377,
      " rank": 4378,
      "rick": 4379,
      " flag": 4380,
      " However": 4381,
      " determin": 4382,
      " pict": 4383,
      " reven": 4384,
      "olf": 4385,
      " Rich": 4386,
      "Ex": 4387,
      "right": 4388,
      " southern": 4389,
      " cere": 4390,
      "vert": 4391,
      " complaint": 4392,
      " squad": 4393,
      " voice": 4394,
      " fine": 4395,
      " langu": 4396,
      " Mon": 4397,
      " Holly": 4398,
      " join": 4399,
      "iling": 4400,
      " Ant": 4401,
      " debt": 4402,
      "cel": 4403,
      " rally": 4404,
      " imag": 4405,
      " letter": 4406,
      "120": 4407,
      "41": 4408,
      "Ms": 4409,
      "bn": 4410,
      " Com": 4411,
      " closed": 4412,
      " Commission": 4413,
      " beautiful": 4414,
      "rid": 4415,
      "ront": 4416,
      " picture": 4417,
      " mist": 4418,
      " haven": 4419,
      " rap": 4420,
      " admitted": 4421,
      " weapons": 4422,
      " Kamala": 4423,
      "ու": 4424,
      " fix": 4425,
      " brief": 4426,
      "arth": 4427,
      "ading": 4428,
      " warning": 4429,
      " original": 4430,
      " Justice": 4431,
      " material": 4432,
      "uct": 4433,
      " sort": 4434,
      " Mil": 4435,
      " usually": 4436,
      " asking": 4437,
      " operations": 4438,
      " allegations": 4439,
      " designed": 4440,
      "700": 4441,
      " actions": 4442,
      " wonder": 4443,
      "Har": 4444,
      "IN": 4445,
      "Pro": 4446,
      "ked": 4447,
      "imum": 4448,
      " Def": 4449,
      " spir": 4450,
      "peaking": 4451,
      " supporters": 4452,
      " writing": 4453,
      " waiting": 4454,
      " seeking": 4455,
      " agreement": 4456,
      "gn": 4457,
      "urb": 4458,
      "owers": 4459,
      " Of": 4460,
      " scen": 4461,
      " Franc": 4462,
      " Spain": 4463,
      " driver": 4464,
      " mag": 4465,
      " committed": 4466,
      " older": 4467,
      " Carol": 4468,
      "rastructure": 4469,
      "Other": 4470,
      " doll": 4471,
      " abuse": 4472,
      "\"There": 4473,
      "ica": 4474,
      "ils": 4475,
      " BJP": 4476,
      " album": 4477,
      " trend": 4478,
      " proud": 4479,
      " Cap": 4480,
      " Open": 4481,
      " Royal": 4482,
      " harm": 4483,
      " Sir": 4484,
      " Gar": 4485,
      "antic": 4486,
      " agg": 4487,
      " overall": 4488,
      " decisions": 4489,
      " smart": 4490,
      " speed": 4491,
      "800": 4492,
      " mount": 4493,
      "urance": 4494,
      " analy": 4495,
      "ume": 4496,
      " politic": 4497,
      " votes": 4498,
      " Amazon": 4499,
      " suspect": 4500,
      " photo": 4501,
      " denied": 4502,
      "-of": 4503,
      "Sc": 4504,
      " fat": 4505,
      "iser": 4506,
      "ecause": 4507,
      " Nor": 4508,
      " exch": 4509,
      " perhaps": 4510,
      " display": 4511,
      " Apple": 4512,
      "140": 4513,
      "547": 4514,
      " tack": 4515,
      " mention": 4516,
      " stated": 4517,
      " stories": 4518,
      " wearing": 4519,
      " plant": 4520,
      "emocracy": 4521,
      " Mel": 4522,
      " Dis": 4523,
      " highlight": 4524,
      "edding": 4525,
      "63": 4526,
      "url": 4527,
      " CEO": 4528,
      "antly": 4529,
      " filed": 4530,
      " Qu": 4531,
      "encies": 4532,
      " killing": 4533,
      " achieve": 4534,
      " citizens": 4535,
      "chers": 4536,
      "ym": 4537,
      " Bay": 4538,
      " rac": 4539,
      " Khan": 4540,
      "anyahu": 4541,
      " affect": 4542,
      " occur": 4543,
      " Olympics": 4544,
      " practice": 4545,
      " illegal": 4546,
      "People": 4547,
      "US": 4548,
      "uses": 4549,
      " abortion": 4550,
      " intelligence": 4551,
      " consist": 4552,
      " allegedly": 4553,
      " modern": 4554,
      "ipp": 4555,
      "oral": 4556,
      " prec": 4557,
      " feature": 4558,
      " putting": 4559,
      " stars": 4560,
      "?\"\n": 4561,
      " sale": 4562,
      " nice": 4563,
      "emi": 4564,
      " deg": 4565,
      " Jones": 4566,
      "ological": 4567,
      " talks": 4568,
      " records": 4569,
      "helsea": 4570,
      "ufact": 4571,
      "From": 4572,
      " throw": 4573,
      " Green": 4574,
      " dropped": 4575,
      " dangerous": 4576,
      "fc": 4577,
      "zb": 4578,
      " cry": 4579,
      " Sa": 4580,
      " finished": 4581,
      "knowled": 4582,
      "bre": 4583,
      "iqu": 4584,
      "ան": 4585,
      " batter": 4586,
      " gives": 4587,
      "ads": 4588,
      " individuals": 4589,
      " camera": 4590,
      "ON": 4591,
      " subject": 4592,
      " appears": 4593,
      " born": 4594,
      " nuclear": 4595,
      "abin": 4596,
      " clot": 4597,
      " uns": 4598,
      " finish": 4599,
      " option": 4600,
      " female": 4601,
      "ota": 4602,
      " Super": 4603,
      "Then": 4604,
      "rial": 4605,
      "no": 4606,
      " caught": 4607,
      " pitch": 4608,
      " Group": 4609,
      " Fore": 4610,
      " diagn": 4611,
      " stuff": 4612,
      " dismiss": 4613,
      " ded": 4614,
      "uled": 4615,
      " Pakistan": 4616,
      " department": 4617,
      " holding": 4618,
      " cold": 4619,
      "riage": 4620,
      "ivity": 4621,
      " user": 4622,
      " lose": 4623,
      " acknowled": 4624,
      " retail": 4625,
      "oscow": 4626,
      "isters": 4627,
      " pet": 4628,
      " whom": 4629,
      " General": 4630,
      " shut": 4631,
      " moments": 4632,
      " ic": 4633,
      " style": 4634,
      " winter": 4635,
      " helping": 4636,
      " cars": 4637,
      "otten": 4638,
      "Jo": 4639,
      "iar": 4640,
      "ero": 4641,
      " fle": 4642,
      "nder": 4643,
      " stick": 4644,
      "oday": 4645,
      " Gold": 4646,
      " Val": 4647,
      " infrastructure": 4648,
      " successful": 4649,
      " tournament": 4650,
      " paper": 4651,
      " losing": 4652,
      " nature": 4653,
      "iment": 4654,
      "ola": 4655,
      " exam": 4656,
      " Jew": 4657,
      " image": 4658,
      " feet": 4659,
      " concern": 4660,
      " employees": 4661,
      "gar": 4662,
      "more": 4663,
      "pre": 4664,
      "inians": 4665,
      "aling": 4666,
      "ollah": 4667,
      " maybe": 4668,
      " society": 4669,
      " floor": 4670,
      " battle": 4671,
      "icago": 4672,
      "igan": 4673,
      " Lou": 4674,
      " below": 4675,
      " speaking": 4676,
      " simple": 4677,
      " movement": 4678,
      " girls": 4679,
      "-day": 4680,
      "iation": 4681,
      "rish": 4682,
      " daily": 4683,
      "ogle": 4684,
      " street": 4685,
      " traditional": 4686,
      "130": 4687,
      " worse": 4688,
      " addition": 4689,
      " secure": 4690,
      " directly": 4691,
      " learn": 4692,
      " responsible": 4693,
      " college": 4694,
      " normal": 4695,
      " champion": 4696,
      "image": 4697,
      " island": 4698,
      " income": 4699,
      "izz": 4700,
      " famous": 4701,
      " confidence": 4702,
      " transfer": 4703,
      " beginning": 4704,
      "ID": 4705,
      "inger": 4706,
      " fuel": 4707,
      " drop": 4708,
      " lands": 4709,
      "ushing": 4710,
      " aren": 4711,
      " shel": 4712,
      "fl": 4713,
      "unning": 4714,
      " Wal": 4715,
      " transport": 4716,
      "iverpool": 4717,
      " connect": 4718,
      "Updated": 4719,
      " After": 4720,
      " Games": 4721,
      " manufact": 4722,
      "phy": 4723,
      "Line": 4724,
      "lim": 4725,
      " rent": 4726,
      " Post": 4727,
      "ables": 4728,
      "udi": 4729,
      " complex": 4730,
      " resc": 4731,
      "uke": 4732,
      " amazing": 4733,
      " depart": 4734,
      "ka": 4735,
      " pra": 4736,
      " Hall": 4737,
      " God": 4738,
      " upd": 4739,
      " supply": 4740,
      " favor": 4741,
      "burgh": 4742,
      "ini": 4743,
      " bi": 4744,
      " Tur": 4745,
      " Kh": 4746,
      " offering": 4747,
      " travell": 4748,
      " strateg": 4749,
      " suffered": 4750,
      "Date": 4751,
      "house": 4752,
      " thr": 4753,
      " Sal": 4754,
      " potentially": 4755,
      " vehicle": 4756,
      " independent": 4757,
      " stopped": 4758,
      " purs": 4759,
      "iders": 4760,
      "atever": 4761,
      " expressed": 4762,
      " knows": 4763,
      " singer": 4764,
      " audience": 4765,
      " vehicles": 4766,
      " Nigeria": 4767,
      "BS": 4768,
      " School": 4769,
      " kid": 4770,
      "igned": 4771,
      " attorney": 4772,
      " protests": 4773,
      " immigration": 4774,
      " piece": 4775,
      "OP": 4776,
      "just": 4777,
      " bod": 4778,
      " younger": 4779,
      " village": 4780,
      " Secretary": 4781,
      "',": 4782,
      "Russ": 4783,
      " ton": 4784,
      " fit": 4785,
      " altern": 4786,
      " telev": 4787,
      " carried": 4788,
      " focused": 4789,
      " Williams": 4790,
      "iplom": 4791,
      "wide": 4792,
      "eless": 4793,
      "ategy": 4794,
      " shown": 4795,
      " teac": 4796,
      " powerful": 4797,
      " broke": 4798,
      " victim": 4799,
      " size": 4800,
      " fashion": 4801,
      " dad": 4802,
      " names": 4803,
      "imb": 4804,
      " Matt": 4805,
      " Don": 4806,
      "anta": 4807,
      " prompt": 4808,
      " appearance": 4809,
      " ruling": 4810,
      " replace": 4811,
      " shop": 4812,
      " opportunities": 4813,
      " Georgia": 4814,
      " individual": 4815,
      " defeat": 4816,
      " exactly": 4817,
      "bf": 4818,
      " san": 4819,
      " wedding": 4820,
      " reasons": 4821,
      " planned": 4822,
      "Created": 4823,
      "noon": 4824,
      "unk": 4825,
      " Gre": 4826,
      " ship": 4827,
      " First": 4828,
      " sea": 4829,
      " missed": 4830,
      " clearly": 4831,
      " Grand": 4832,
      " answer": 4833,
      "BA": 4834,
      "Speaking": 4835,
      "den": 4836,
      "itarian": 4837,
      "ador": 4838,
      " yourself": 4839,
      " surger": 4840,
      " faces": 4841,
      "87": 4842,
      "acity": 4843,
      " Ber": 4844,
      " blue": 4845,
      " surprise": 4846,
      " strikes": 4847,
      " disappoint": 4848,
      " tool": 4849,
      " dream": 4850,
      " luck": 4851,
      " plenty": 4852,
      " cruc": 4853,
      " believes": 4854,
      " affected": 4855,
      " controvers": 4856,
      " troops": 4857,
      "-off": 4858,
      " cities": 4859,
      " Mal": 4860,
      " items": 4861,
      " Arab": 4862,
      " ran": 4863,
      " Hill": 4864,
      " owner": 4865,
      " concerned": 4866,
      " Center": 4867,
      " ir": 4868,
      "-S": 4869,
      " mum": 4870,
      "elly": 4871,
      " Mer": 4872,
      "oses": 4873,
      " management": 4874,
      " systems": 4875,
      "-le": 4876,
      "uild": 4877,
      " tens": 4878,
      " Mike": 4879,
      " shares": 4880,
      "udge": 4881,
      " responded": 4882,
      " matches": 4883,
      "zbollah": 4884,
      "-se": 4885,
      " bat": 4886,
      " CN": 4887,
      "ruit": 4888,
      "angers": 4889,
      " commitment": 4890,
      "-n": 4891,
      "Set": 4892,
      "mar": 4893,
      " Ag": 4894,
      " vs": 4895,
      " implement": 4896,
      " remind": 4897,
      " Island": 4898,
      " wins": 4899,
      " brain": 4900,
      " domestic": 4901,
      "-and": 4902,
      "MO": 4903,
      "Over": 4904,
      " sitting": 4905,
      "oted": 4906,
      "ulated": 4907,
      " unlike": 4908,
      "ube": 4909,
      " Modi": 4910,
      "-sh": 4911,
      "Two": 4912,
      " onto": 4913,
      " Ne": 4914,
      " NHS": 4915,
      " veter": 4916,
      " managed": 4917,
      " fellow": 4918,
      " essential": 4919,
      "semb": 4920,
      " Penn": 4921,
      " identified": 4922,
      "bon": 4923,
      " withd": 4924,
      " Tim": 4925,
      "emy": 4926,
      " plays": 4927,
      " suit": 4928,
      " arch": 4929,
      " Francis": 4930,
      " talent": 4931,
      "atures": 4932,
      "alys": 4933,
      "agues": 4934,
      "astern": 4935,
      "ribute": 4936,
      " struck": 4937,
      "\\\">": 4938,
      "true": 4939,
      "61": 4940,
      "senal": 4941,
      " digital": 4942,
      " comed": 4943,
      " transform": 4944,
      "fire": 4945,
      " ticket": 4946,
      " upon": 4947,
      " footage": 4948,
      " operation": 4949,
      " Starmer": 4950,
      " batt": 4951,
      " Ari": 4952,
      "iller": 4953,
      " worst": 4954,
      "ictor": 4955,
      "Why": 4956,
      " oppon": 4957,
      " crew": 4958,
      " episode": 4959,
      "83": 4960,
      "va": 4961,
      "incess": 4962,
      " cas": 4963,
      " bought": 4964,
      " lived": 4965,
      " reform": 4966,
      " stress": 4967,
      "eck": 4968,
      " Wil": 4969,
      " Will": 4970,
      "week": 4971,
      " rising": 4972,
      " standing": 4973,
      " retire": 4974,
      " Prince": 4975,
      " strategy": 4976,
      " projects": 4977,
      "150": 4978,
      " tech": 4979,
      " Ram": 4980,
      " unique": 4981,
      " afternoon": 4982,
      "anging": 4983,
      " regist": 4984,
      " minute": 4985,
      "BI": 4986,
      "gers": 4987,
      " adop": 4988,
      " rob": 4989,
      " assess": 4990,
      " center": 4991,
      " carry": 4992,
      "otted": 4993,
      " voting": 4994,
      " engine": 4995,
      " Netanyahu": 4996,
      " twice": 4997,
      "time": 4998,
      "sych": 4999,
      " Moscow": 5000,
      " happens": 5001,
      " providing": 5002,
      " African": 5003,
      " increasingly": 5004,
      " emotional": 5005,
      "ipped": 5006,
      " gift": 5007,
      " Mag": 5008,
      " placed": 5009,
      " truth": 5010,
      " row": 5011,
      " surf": 5012,
      " Art": 5013,
      "-pro": 5014,
      "Rep": 5015,
      " committee": 5016,
      " cuts": 5017,
      " Security": 5018,
      "mony": 5019,
      " II": 5020,
      " except": 5021,
      " scient": 5022,
      " emph": 5023,
      " survey": 5024,
      " sustain": 5025,
      " mort": 5026,
      " mach": 5027,
      " democracy": 5028,
      " Press": 5029,
      " Chicago": 5030,
      " supporting": 5031,
      " slight": 5032,
      "/j": 5033,
      "91": 5034,
      "97": 5035,
      "care": 5036,
      " toward": 5037,
      " lines": 5038,
      " aged": 5039,
      "lix": 5040,
      " article": 5041,
      " walking": 5042,
      " drugs": 5043,
      " Musk": 5044,
      " legislation": 5045,
      "oned": 5046,
      " sister": 5047,
      "rip": 5048,
      " Per": 5049,
      " Law": 5050,
      " signs": 5051,
      "inals": 5052,
      " Mary": 5053,
      "ula": 5054,
      " Western": 5055,
      " commission": 5056,
      " opin": 5057,
      "atively": 5058,
      " activities": 5059,
      " linked": 5060,
      " definitely": 5061,
      "-on": 5062,
      ".C": 5063,
      "95": 5064,
      "lines": 5065,
      " send": 5066,
      " gar": 5067,
      "using": 5068,
      " sav": 5069,
      " disease": 5070,
      " Italy": 5071,
      " warm": 5072,
      " highly": 5073,
      " advice": 5074,
      " influence": 5075,
      " absolutely": 5076,
      " freedom": 5077,
      "pired": 5078,
      "ench": 5079,
      " domin": 5080,
      " Face": 5081,
      " allies": 5082,
      "ibr": 5083,
      " century": 5084,
      " difference": 5085,
      " corner": 5086,
      " steps": 5087,
      " declared": 5088,
      " Queen": 5089,
      " Carolina": 5090,
      " rom": 5091,
      "Here": 5092,
      "har": 5093,
      "och": 5094,
      "yr": 5095,
      " sides": 5096,
      " lock": 5097,
      " Cr": 5098,
      " rough": 5099,
      " pregn": 5100,
      " establish": 5101,
      "AC": 5102,
      "inn": 5103,
      " diplom": 5104,
      "icit": 5105,
      "rol": 5106,
      "ifth": 5107,
      " exerc": 5108,
      " union": 5109,
      " consult": 5110,
      "place": 5111,
      " prospect": 5112,
      " Delhi": 5113,
      " territory": 5114,
      " language": 5115,
      "usion": 5116,
      " hasn": 5117,
      " starts": 5118,
      " grad": 5119,
      " object": 5120,
      " activity": 5121,
      " type": 5122,
      " suffering": 5123,
      " ign": 5124,
      " Bill": 5125,
      " ang": 5126,
      " images": 5127,
      " finding": 5128,
      " polls": 5129,
      "kin": 5130,
      " tim": 5131,
      " Martin": 5132,
      " Singh": 5133,
      "250": 5134,
      " Rs": 5135,
      " expensive": 5136,
      " keeping": 5137,
      " Korea": 5138,
      " Daniel": 5139,
      " vice": 5140,
      " select": 5141,
      " coal": 5142,
      " honest": 5143,
      "07": 5144,
      "reas": 5145,
      "lege": 5146,
      "dden": 5147,
      " meth": 5148,
      " proposed": 5149,
      " Australian": 5150,
      "esterday": 5151,
      " ­": 5152,
      "Ear": 5153,
      " resources": 5154,
      "erved": 5155,
      " lawsuit": 5156,
      " status": 5157,
      "wan": 5158,
      "amin": 5159,
      " Far": 5160,
      " integ": 5161,
      " mostly": 5162,
      " delay": 5163,
      " advoc": 5164,
      " discovered": 5165,
      " #": 5166,
      " bid": 5167,
      "uters": 5168,
      " sources": 5169,
      "-B": 5170,
      "inally": 5171,
      " breat": 5172,
      " beach": 5173,
      " investors": 5174,
      "ength": 5175,
      " mission": 5176,
      " streets": 5177,
      " household": 5178,
      " devast": 5179,
      "www": 5180,
      " behavi": 5181,
      " enforcement": 5182,
      " fa": 5183,
      "oured": 5184,
      "umm": 5185,
      " Liverpool": 5186,
      " Championship": 5187,
      " thank": 5188,
      " vacc": 5189,
      " Mexico": 5190,
      " /": 5191,
      "itation": 5192,
      " bon": 5193,
      "arant": 5194,
      " Dist": 5195,
      " Fl": 5196,
      " raise": 5197,
      " experienced": 5198,
      " funds": 5199,
      " Canada": 5200,
      "\"They": 5201,
      "-C": 5202,
      "Ar": 5203,
      "Re": 5204,
      "ena": 5205,
      " cong": 5206,
      " severe": 5207,
      " protection": 5208,
      " accounts": 5209,
      " conversation": 5210,
      " crucial": 5211,
      "oor": 5212,
      "height": 5213,
      " Test": 5214,
      "aked": 5215,
      " minor": 5216,
      " enter": 5217,
      " marriage": 5218,
      " introduced": 5219,
      " repeatedly": 5220,
      " Hollywood": 5221,
      "cf": 5222,
      "flix": 5223,
      "eds": 5224,
      " nar": 5225,
      "econd": 5226,
      " Big": 5227,
      " deals": 5228,
      " Vir": 5229,
      " grant": 5230,
      " scheme": 5231,
      "-ch": 5232,
      " odd": 5233,
      "ells": 5234,
      " Sports": 5235,
      " written": 5236,
      " bringing": 5237,
      " photos": 5238,
      " convicted": 5239,
      "ruption": 5240,
      " doubt": 5241,
      " balance": 5242,
      " restaurant": 5243,
      "oh": 5244,
      "hell": 5245,
      "onic": 5246,
      "itude": 5247,
      "alian": 5248,
      "luded": 5249,
      "encing": 5250,
      "Phot": 5251,
      " necessary": 5252,
      "GB": 5253,
      "IC": 5254,
      " Cov": 5255,
      " consequ": 5256,
      " pled": 5257,
      " thanks": 5258,
      " guy": 5259,
      " surgery": 5260,
      " tight": 5261,
      "urt": 5262,
      " Sky": 5263,
      " Chelsea": 5264,
      " deaths": 5265,
      "itchen": 5266,
      " favourite": 5267,
      " separate": 5268,
      " Lebanon": 5269,
      " emphas": 5270,
      " psych": 5271,
      " migrants": 5272,
      " More": 5273,
      " cha": 5274,
      " note": 5275,
      " sudden": 5276,
      " connection": 5277,
      "nel": 5278,
      "ware": 5279,
      " task": 5280,
      "udd": 5281,
      " regional": 5282,
      " cricket": 5283,
      " viewers": 5284,
      " largely": 5285,
      " captain": 5286,
      " ceremony": 5287,
      "\"You": 5288,
      "Sp": 5289,
      " gender": 5290,
      " outlet": 5291,
      " upcoming": 5292,
      " clin": 5293,
      " university": 5294,
      " related": 5295,
      " Arsenal": 5296,
      " Atl": 5297,
      " collabor": 5298,
      "Donald": 5299,
      "bit": 5300,
      " wealth": 5301,
      " offensive": 5302,
      " scr": 5303,
      "Inst": 5304,
      " acqu": 5305,
      "-the": 5306,
      " organization": 5307,
      "84": 5308,
      " href": 5309,
      " lift": 5310,
      "olit": 5311,
      " youth": 5312,
      "adesh": 5313,
      " spokes": 5314,
      " scheduled": 5315,
      " Robert": 5316,
      " television": 5317,
      "ez": 5318,
      "pet": 5319,
      "icated": 5320,
      " react": 5321,
      " eat": 5322,
      " Bow": 5323,
      " vul": 5324,
      " underst": 5325,
      " bigger": 5326,
      " Committee": 5327,
      " Swift": 5328,
      "Although": 5329,
      "oly": 5330,
      " cop": 5331,
      "icip": 5332,
      " paying": 5333,
      " happening": 5334,
      " initially": 5335,
      " William": 5336,
      " doctors": 5337,
      " passengers": 5338,
      " cro": 5339,
      " grew": 5340,
      "eline": 5341,
      " governor": 5342,
      " Hezbollah": 5343,
      " confident": 5344,
      " Google": 5345,
      " Thomas": 5346,
      "Most": 5347,
      " cease": 5348,
      " Ob": 5349,
      " enh": 5350,
      " elected": 5351,
      " obviously": 5352,
      " generation": 5353,
      "\"A": 5354,
      "sts": 5355,
      " hopes": 5356,
      " purp": 5357,
      " creating": 5358,
      " @": 5359,
      "01": 5360,
      "FP": 5361,
      "LA": 5362,
      "Pr": 5363,
      " wall": 5364,
      " bomb": 5365,
      "quir": 5366,
      "outs": 5367,
      "merc": 5368,
      " arm": 5369,
      "cohol": 5370,
      "\"If": 5371,
      " €": 5372,
      "iate": 5373,
      "ici": 5374,
      "igious": 5375,
      " Sar": 5376,
      " Sab": 5377,
      "issions": 5378,
      " claiming": 5379,
      " nomine": 5380,
      " sad": 5381,
      " Kate": 5382,
      " accident": 5383,
      " crimes": 5384,
      " markets": 5385,
      " presence": 5386,
      " excited": 5387,
      " books": 5388,
      " Charles": 5389,
      "razil": 5390,
      "!\"": 5391,
      "vis": 5392,
      " catch": 5393,
      "akh": 5394,
      " Andrew": 5395,
      " frust": 5396,
      " Keir": 5397,
      "IS": 5398,
      "Or": 5399,
      "gen": 5400,
      " Bur": 5401,
      "see": 5402,
      " Fed": 5403,
      " joint": 5404,
      " apparent": 5405,
      " coff": 5406,
      " capacity": 5407,
      " recorded": 5408,
      " choose": 5409,
      " limit": 5410,
      "cont": 5411,
      " treated": 5412,
      "iny": 5413,
      "owed": 5414,
      "rie": 5415,
      " healthy": 5416,
      "fields": 5417,
      " lawyer": 5418,
      " era": 5419,
      "Do": 5420,
      "bour": 5421,
      " lux": 5422,
      " frequ": 5423,
      " penalty": 5424,
      "></": 5425,
      "craft": 5426,
      " bul": 5427,
      "icient": 5428,
      " Max": 5429,
      " guys": 5430,
      " videos": 5431,
      " suggests": 5432,
      " effective": 5433,
      " destroy": 5434,
      "gin": 5435,
      "mine": 5436,
      " Mah": 5437,
      " Pet": 5438,
      " loan": 5439,
      " decide": 5440,
      " measure": 5441,
      "esters": 5442,
      " Brown": 5443,
      " PM": 5444,
      " Now": 5445,
      "antage": 5446,
      "bert": 5447,
      " perm": 5448,
      "Those": 5449,
      " royal": 5450,
      " returning": 5451,
      " urged": 5452,
      " Play": 5453,
      " partnership": 5454,
      " strength": 5455,
      "ita": 5456,
      " pushed": 5457,
      " stret": 5458,
      " Great": 5459,
      " insurance": 5460,
      " targets": 5461,
      " struggling": 5462,
      "porary": 5463,
      "}],\"": 5464,
      "dc": 5465,
      " som": 5466,
      " liter": 5467,
      " eth": 5468,
      " van": 5469,
      " Jim": 5470,
      " airport": 5471,
      "ennis": 5472,
      " learned": 5473,
      " fraud": 5474,
      "rage": 5475,
      " Den": 5476,
      " ven": 5477,
      " Wall": 5478,
      " reporters": 5479,
      " nearby": 5480,
      " voted": 5481,
      " Ministry": 5482,
      " broken": 5483,
      " solid": 5484,
      " podcast": 5485,
      " .": 5486,
      "Both": 5487,
      "CC": 5488,
      "emp": 5489,
      "aren": 5490,
      " Stadium": 5491,
      "ecutive": 5492,
      " greater": 5493,
      " remaining": 5494,
      " identity": 5495,
      " apart": 5496,
      "known": 5497,
      "che": 5498,
      "icious": 5499,
      " risks": 5500,
      " Swed": 5501,
      " celeb": 5502,
      "mercial": 5503,
      " lic": 5504,
      "ste": 5505,
      " stands": 5506,
      " whatever": 5507,
      "ppers": 5508,
      "arts": 5509,
      " location": 5510,
      " plane": 5511,
      " estate": 5512,
      " programme": 5513,
      " soldiers": 5514,
      " vulner": 5515,
      "owing": 5516,
      " Bre": 5517,
      " wear": 5518,
      "acks": 5519,
      " Jon": 5520,
      "Former": 5521,
      " tells": 5522,
      " targeted": 5523,
      "weighting": 5524,
      "dom": 5525,
      "keep": 5526,
      " Do": 5527,
      " jury": 5528,
      "194": 5529,
      " easier": 5530,
      " responsibility": 5531,
      "\"},\"": 5532,
      "03": 5533,
      "gow": 5534,
      " cyc": 5535,
      " Pe": 5536,
      " unable": 5537,
      " helps": 5538,
      " confirm": 5539,
      " emerged": 5540,
      " Central": 5541,
      " watched": 5542,
      " Facebook": 5543,
      "!\"\n": 5544,
      "hew": 5545,
      " bond": 5546,
      "ulf": 5547,
      "195": 5548,
      " conservative": 5549,
      " Italian": 5550,
      "ylvan": 5551,
      " messages": 5552,
      " Twitter": 5553,
      "lass": 5554,
      " wish": 5555,
      " novel": 5556,
      " cultural": 5557,
      " larger": 5558,
      " doctor": 5559,
      " ultimately": 5560,
      " bodies": 5561,
      "lished": 5562,
      " categ": 5563,
      " male": 5564,
      "oma": 5565,
      "ocol": 5566,
      " NFL": 5567,
      " Islam": 5568,
      "idden": 5569,
      " documents": 5570,
      " extremely": 5571,
      " ice": 5572,
      "900": 5573,
      "SP": 5574,
      "anish": 5575,
      " fifth": 5576,
      " giant": 5577,
      "ocal": 5578,
      " proceed": 5579,
      " chem": 5580,
      " glass": 5581,
      " Att": 5582,
      " Glas": 5583,
      " incredible": 5584,
      " estimated": 5585,
      "index": 5586,
      " initial": 5587,
      " birthday": 5588,
      "lies": 5589,
      "sylvan": 5590,
      "zona": 5591,
      " false": 5592,
      " liber": 5593,
      "irms": 5594,
      " By": 5595,
      " rich": 5596,
      " spect": 5597,
      " Step": 5598,
      "aze": 5599,
      "exp": 5600,
      " standard": 5601,
      " Seattle": 5602,
      " historic": 5603,
      " festival": 5604,
      "cher": 5605,
      "wise": 5606,
      "olk": 5607,
      " Kim": 5608,
      " supported": 5609,
      " serving": 5610,
      " films": 5611,
      " easily": 5612,
      " Netflix": 5613,
      " ut": 5614,
      "board": 5615,
      "rate": 5616,
      " cru": 5617,
      " Irish": 5618,
      " Direct": 5619,
      " Nations": 5620,
      " arms": 5621,
      "ounded": 5622,
      "peg": 5623,
      " crash": 5624,
      " remained": 5625,
      " standards": 5626,
      " threats": 5627,
      " picked": 5628,
      " Social": 5629,
      "sembly": 5630,
      " length": 5631,
      "ulate": 5632,
      " spring": 5633,
      " trig": 5634,
      " swim": 5635,
      " prosecutors": 5636,
      " prepared": 5637,
      " split": 5638,
      "Police": 5639,
      "mime": 5640,
      " blo": 5641,
      " analys": 5642,
      "124": 5643,
      " pointed": 5644,
      " ballot": 5645,
      "standing": 5646,
      "/jpeg": 5647,
      "AI": 5648,
      "erm": 5649,
      " tom": 5650,
      " laugh": 5651,
      "utch": 5652,
      " Ma": 5653,
      " shar": 5654,
      " actress": 5655,
      " carrying": 5656,
      " transition": 5657,
      "ucks": 5658,
      " Sunak": 5659,
      " Association": 5660,
      "sylvania": 5661,
      "lad": 5662,
      " dance": 5663,
      " garden": 5664,
      " Brazil": 5665,
      "ctions": 5666,
      "ivered": 5667,
      " Victor": 5668,
      "anged": 5669,
      "anks": 5670,
      "189": 5671,
      " promised": 5672,
      " escal": 5673,
      " bottom": 5674,
      " drama": 5675,
      " pulled": 5676,
      "Go": 5677,
      "Pl": 5678,
      " pool": 5679,
      " yards": 5680,
      " yesterday": 5681,
      " sharing": 5682,
      " collection": 5683,
      " While": 5684,
      " payments": 5685,
      " Sea": 5686,
      " Road": 5687,
      " colleagues": 5688,
      " welcome": 5689,
      " behaviour": 5690,
      "92": 5691,
      "ja": 5692,
      " tickets": 5693,
      " fort": 5694,
      " willing": 5695,
      " armed": 5696,
      " rose": 5697,
      " active": 5698,
      " announcement": 5699,
      " deeply": 5700,
      "lig": 5701,
      "icial": 5702,
      " Pri": 5703,
      " People": 5704,
      " Vice": 5705,
      "190": 5706,
      "hens": 5707,
      "ributes": 5708,
      " allowing": 5709,
      " volunt": 5710,
      " existing": 5711,
      "Dr": 5712,
      "NP": 5713,
      "rad": 5714,
      "arch": 5715,
      " northern": 5716,
      " hero": 5717,
      " AP": 5718,
      "ifying": 5719,
      "203": 5720,
      " Vance": 5721,
      " setting": 5722,
      " guarant": 5723,
      " window": 5724,
      " renew": 5725,
      " innov": 5726,
      " revenue": 5727,
      "\"But": 5728,
      " turning": 5729,
      "hered": 5730,
      " ITV": 5731,
      "riate": 5732,
      " Raf": 5733,
      " apply": 5734,
      " entertain": 5735,
      "duction": 5736,
      " hoping": 5737,
      " hospit": 5738,
      " beauty": 5739,
      " sought": 5740,
      " Ryan": 5741,
      " notice": 5742,
      " trail": 5743,
      " deploy": 5744,
      " reading": 5745,
      " conducted": 5746,
      "Before": 5747,
      "abinet": 5748,
      "pin": 5749,
      " fired": 5750,
      " CO": 5751,
      " Gal": 5752,
      " apprec": 5753,
      " desper": 5754,
      " missiles": 5755,
      "06": 5756,
      "inated": 5757,
      " Ac": 5758,
      "osis": 5759,
      "comp": 5760,
      " publicly": 5761,
      " delivered": 5762,
      " likes": 5763,
      " method": 5764,
      "overy": 5765,
      "ville": 5766,
      "erous": 5767,
      " wood": 5768,
      " Wood": 5769,
      " army": 5770,
      " traffic": 5771,
      " criticism": 5772,
      " ordered": 5773,
      "ivery": 5774,
      "onna": 5775,
      " gang": 5776,
      " stab": 5777,
      " Cro": 5778,
      " Love": 5779,
      " joy": 5780,
      "ellow": 5781,
      " replied": 5782,
      " artist": 5783,
      " draft": 5784,
      "evin": 5785,
      " Christian": 5786,
      " closer": 5787,
      " removed": 5788,
      " dollars": 5789,
      " Louis": 5790,
      "328": 5791,
      "cript": 5792,
      "ius": 5793,
      "erb": 5794,
      " cy": 5795,
      " fant": 5796,
      " Cont": 5797,
      " alcohol": 5798,
      "aine": 5799,
      " Jr": 5800,
      " Jam": 5801,
      "aks": 5802,
      " Er": 5803,
      " rail": 5804,
      " relief": 5805,
      " refused": 5806,
      "gypt": 5807,
      "onym": 5808,
      " rival": 5809,
      " District": 5810,
      "El": 5811,
      "riff": 5812,
      "resp": 5813,
      " Rod": 5814,
      " legend": 5815,
      " explos": 5816,
      " circum": 5817,
      "orry": 5818,
      "itionally": 5819,
      "ighter": 5820,
      "rones": 5821,
      " smaller": 5822,
      " ruled": 5823,
      " Institute": 5824,
      " motor": 5825,
      " determined": 5826,
      " selling": 5827,
      " page": 5828,
      " dry": 5829,
      " Sand": 5830,
      " championship": 5831,
      " Ell": 5832,
      " Kar": 5833,
      " attended": 5834,
      " adds": 5835,
      "nedy": 5836,
      " institut": 5837,
      " construction": 5838,
      " learning": 5839,
      " exchange": 5840,
      "ias": 5841,
      " pen": 5842,
      " heav": 5843,
      " commercial": 5844,
      "icks": 5845,
      "171": 5846,
      " falling": 5847,
      " occasion": 5848,
      " typically": 5849,
      " Richard": 5850,
      " somew": 5851,
      "81": 5852,
      " tast": 5853,
      " supposed": 5854,
      " remove": 5855,
      " flights": 5856,
      " Reg": 5857,
      " receiving": 5858,
      " charity": 5859,
      " dogs": 5860,
      "ua": 5861,
      " bird": 5862,
      " paint": 5863,
      " Sl": 5864,
      " leaves": 5865,
      " Ky": 5866,
      " princ": 5867,
      " manage": 5868,
      " truly": 5869,
      " Trans": 5870,
      " understanding": 5871,
      " argued": 5872,
      "-min": 5873,
      "orse": 5874,
      " max": 5875,
      "osen": 5876,
      " kitchen": 5877,
      " Chris": 5878,
      " flat": 5879,
      "afe": 5880,
      " forecast": 5881,
      " correct": 5882,
      " Photograph": 5883,
      "-L": 5884,
      "ato": 5885,
      " marg": 5886,
      " Some": 5887,
      "umn": 5888,
      " express": 5889,
      " cooper": 5890,
      "rible": 5891,
      " aircraft": 5892,
      " writer": 5893,
      " College": 5894,
      " bills": 5895,
      " maintain": 5896,
      " Covid": 5897,
      "OR": 5898,
      "hatt": 5899,
      "inem": 5900,
      " hits": 5901,
      " die": 5902,
      "rag": 5903,
      " chances": 5904,
      " Ut": 5905,
      "weet": 5906,
      "athan": 5907,
      " write": 5908,
      " proposal": 5909,
      "Add": 5910,
      "GA": 5911,
      "bury": 5912,
      " session": 5913,
      "sex": 5914,
      "rik": 5915,
      " Peter": 5916,
      "alling": 5917,
      " complic": 5918,
      "ducing": 5919,
      " Club": 5920,
      " snow": 5921,
      " Palestinians": 5922,
      "MORE": 5923,
      " Arizona": 5924,
      "Earlier": 5925,
      "/b": 5926,
      "Oh": 5927,
      "Yet": 5928,
      "dney": 5929,
      " pull": 5930,
      " Mont": 5931,
      " Home": 5932,
      " vision": 5933,
      "ipe": 5934,
      "icking": 5935,
      " covered": 5936,
      " invasion": 5937,
      "guardian": 5938,
      "ossible": 5939,
      " advance": 5940,
      " operating": 5941,
      " failure": 5942,
      " equip": 5943,
      " adults": 5944,
      " Jewish": 5945,
      "ference": 5946,
      "uman": 5947,
      "abel": 5948,
      "ervatives": 5949,
      " direction": 5950,
      " humanitarian": 5951,
      " Glasgow": 5952,
      "Ad": 5953,
      "DA": 5954,
      "Of": 5955,
      "million": 5956,
      "win": 5957,
      "ented": 5958,
      "road": 5959,
      " Comp": 5960,
      " Miss": 5961,
      " quiet": 5962,
      " qualif": 5963,
      " attacked": 5964,
      " Spanish": 5965,
      " causing": 5966,
      " sweet": 5967,
      " Pennsylvania": 5968,
      "980": 5969,
      " tend": 5970,
      " pil": 5971,
      "elens": 5972,
      " proced": 5973,
      "asts": 5974,
      " canc": 5975,
      "ribution": 5976,
      " guard": 5977,
      " Parliament": 5978,
      " visitors": 5979,
      " Team": 5980,
      " route": 5981,
      " hurt": 5982,
      "%,": 5983,
      "Cl": 5984,
      "fall": 5985,
      "mes": 5986,
      "inburgh": 5987,
      " produced": 5988,
      " brilli": 5989,
      "172": 5990,
      " provides": 5991,
      " walked": 5992,
      " struggle": 5993,
      " struggled": 5994,
      " pieces": 5995,
      " alternative": 5996,
      "Bl": 5997,
      "Today": 5998,
      "gage": 5999,
      "iest": 6000,
      " code": 6001,
      "idency": 6002,
      " gather": 6003,
      " eating": 6004,
      " Bet": 6005,
      " Found": 6006,
      " Veg": 6007,
      " belong": 6008,
      " seconds": 6009,
      " advantage": 6010,
      " experiences": 6011,
      " exclus": 6012,
      "-G": 6013,
      "App": 6014,
      "PA": 6015,
      "bor": 6016,
      "quote": 6017,
      " Ol": 6018,
      " recovery": 6019,
      " reporting": 6020,
      " assass": 6021,
      " facilities": 6022,
      "-sc": 6023,
      "theguardian": 6024,
      "John": 6025,
      "CA": 6026,
      "Like": 6027,
      " pub": 6028,
      " hate": 6029,
      " Sur": 6030,
      " vast": 6031,
      "acking": 6032,
      "ogue": 6033,
      " embr": 6034,
      " delivery": 6035,
      " drivers": 6036,
      " coup": 6037,
      " basis": 6038,
      " faith": 6039,
      " coffee": 6040,
      "-D": 6041,
      ".A": 6042,
      "ET": 6043,
      "Ukra": 6044,
      " bench": 6045,
      " Ash": 6046,
      " Luc": 6047,
      " Eth": 6048,
      "aching": 6049,
      " Michigan": 6050,
      " established": 6051,
      " spirit": 6052,
      "isa": 6053,
      " rejected": 6054,
      " Rec": 6055,
      " Game": 6056,
      "essed": 6057,
      " Fer": 6058,
      "ords": 6059,
      " assets": 6060,
      " internet": 6061,
      " taxes": 6062,
      "ortunately": 6063,
      " completed": 6064,
      " immediate": 6065,
      " murd": 6066,
      " neck": 6067,
      " Charl": 6068,
      " slightly": 6069,
      "oug": 6070,
      " mer": 6071,
      " Su": 6072,
      " Cle": 6073,
      " Mail": 6074,
      " Middle": 6075,
      " chain": 6076,
      " Lee": 6077,
      " diss": 6078,
      " feed": 6079,
      "pson": 6080,
      " boys": 6081,
      "121": 6082,
      " sym": 6083,
      " importance": 6084,
      " sentence": 6085,
      " attempted": 6086,
      "oeing": 6087,
      "ATO": 6088,
      " lawyers": 6089,
      "Event": 6090,
      "whel": 6091,
      "idering": 6092,
      "amily": 6093,
      "olic": 6094,
      " Int": 6095,
      " Ra": 6096,
      "abilities": 6097,
      " notes": 6098,
      " agencies": 6099,
      " brings": 6100,
      "170": 6101,
      " Princess": 6102,
      " skills": 6103,
      " animals": 6104,
      " opinion": 6105,
      "Instead": 6106,
      " circumst": 6107,
      "ED": 6108,
      "otic": 6109,
      "adow": 6110,
      " stood": 6111,
      " Women": 6112,
      " protesters": 6113,
      "ception": 6114,
      " shortly": 6115,
      " environmental": 6116,
      " Jackson": 6117,
      ".theguardian": 6118,
      "Don": 6119,
      "Let": 6120,
      " decline": 6121,
      " organiz": 6122,
      " autom": 6123,
      " assistance": 6124,
      " scenes": 6125,
      "gate": 6126,
      "ooth": 6127,
      "ati": 6128,
      " River": 6129,
      " chat": 6130,
      " church": 6131,
      " entered": 6132,
      " sites": 6133,
      "asket": 6134,
      " celebrate": 6135,
      "nces": 6136,
      " nav": 6137,
      " Camp": 6138,
      " These": 6139,
      " resol": 6140,
      " contain": 6141,
      " coord": 6142,
      "ledge": 6143,
      " refuge": 6144,
      " reveals": 6145,
      " hostages": 6146,
      " nominee": 6147,
      "82": 6148,
      "Biden": 6149,
      " tow": 6150,
      " Cal": 6151,
      " worried": 6152,
      " unit": 6153,
      " scale": 6154,
      "193": 6155,
      " everybody": 6156,
      " occup": 6157,
      " apolog": 6158,
      " predict": 6159,
      " routine": 6160,
      " widely": 6161,
      " withdraw": 6162,
      "\"In": 6163,
      "aire": 6164,
      "gment": 6165,
      "inning": 6166,
      " burn": 6167,
      "unity": 6168,
      " anx": 6169,
      " seasons": 6170,
      " overs": 6171,
      " overt": 6172,
      "formation": 6173,
      " buying": 6174,
      " payment": 6175,
      "iverse": 6176,
      " violent": 6177,
      " surrounding": 6178,
      " roughly": 6179,
      "kins": 6180,
      "ար": 6181,
      "inct": 6182,
      " bound": 6183,
      " bath": 6184,
      "aron": 6185,
      "ications": 6186,
      " ring": 6187,
      " Rad": 6188,
      " Nov": 6189,
      " Oh": 6190,
      " surge": 6191,
      " refere": 6192,
      " colour": 6193,
      " passing": 6194,
      " Conservative": 6195,
      " temperatures": 6196,
      " pictures": 6197,
      " politicians": 6198,
      " occurred": 6199,
      "hy": 6200,
      "inent": 6201,
      " reduced": 6202,
      " gain": 6203,
      "Their": 6204,
      " alert": 6205,
      " Ten": 6206,
      " Hosp": 6207,
      "ella": 6208,
      "ellor": 6209,
      " weren": 6210,
      "ollowing": 6211,
      " visited": 6212,
      " professor": 6213,
      " Kennedy": 6214,
      "ingham": 6215,
      " pal": 6216,
      " dig": 6217,
      " dating": 6218,
      "ilit": 6219,
      " stores": 6220,
      " Tour": 6221,
      " Gov": 6222,
      "enda": 6223,
      "under": 6224,
      "iley": 6225,
      " guid": 6226,
      " obt": 6227,
      " developed": 6228,
      " solution": 6229,
      " Const": 6230,
      " panel": 6231,
      " recommend": 6232,
      " comfortable": 6233,
      "FC": 6234,
      "put": 6235,
      "ano": 6236,
      "illy": 6237,
      " Good": 6238,
      " Out": 6239,
      " earned": 6240,
      " lawmakers": 6241,
      " memory": 6242,
      "Any": 6243,
      " allows": 6244,
      " corpor": 6245,
      " interested": 6246,
      " involve": 6247,
      " clubs": 6248,
      " effects": 6249,
      "}]},{\"": 6250,
      "-out": 6251,
      "uce": 6252,
      " pension": 6253,
      " forg": 6254,
      "rain": 6255,
      " Josh": 6256,
      " upset": 6257,
      " recalled": 6258,
      "aley": 6259,
      " approved": 6260,
      " interesting": 6261,
      " unlikely": 6262,
      "hab": 6263,
      "uate": 6264,
      "vals": 6265,
      "amy": 6266,
      "andal": 6267,
      " Ha": 6268,
      " Hol": 6269,
      " aband": 6270,
      " Egypt": 6271,
      " acad": 6272,
      " involving": 6273,
      " ensuring": 6274,
      " Edinburgh": 6275,
      " models": 6276,
      "related": 6277,
      " equipment": 6278,
      "May": 6279,
      " Federal": 6280,
      "ubb": 6281,
      " leads": 6282,
      " possibility": 6283,
      " entirely": 6284,
      " spokesman": 6285,
      "MA": 6286,
      "rell": 6287,
      "rier": 6288,
      " produce": 6289,
      " prefer": 6290,
      " changing": 6291,
      " civilians": 6292,
      " luxury": 6293,
      "74": 6294,
      "Well": 6295,
      "eah": 6296,
      "cean": 6297,
      " Raj": 6298,
      " Earth": 6299,
      " spotted": 6300,
      "ordan": 6301,
      "iana": 6302,
      "ails": 6303,
      "enses": 6304,
      "ildren": 6305,
      " Frank": 6306,
      " buildings": 6307,
      "anna": 6308,
      " Francisco": 6309,
      " circumstances": 6310,
      " ties": 6311,
      " fly": 6312,
      " Sil": 6313,
      " stake": 6314,
      " rum": 6315,
      " Dev": 6316,
      "odes": 6317,
      " Gall": 6318,
      "iffs": 6319,
      " closely": 6320,
      " researchers": 6321,
      " encourage": 6322,
      "ersey": 6323,
      " Gen": 6324,
      " bright": 6325,
      " Guardian": 6326,
      " viral": 6327,
      " Capit": 6328,
      " Vegas": 6329,
      " tar": 6330,
      " sand": 6331,
      " du": 6332,
      " der": 6333,
      " egg": 6334,
      " Jeff": 6335,
      " perman": 6336,
      " becomes": 6337,
      " governments": 6338,
      " insisted": 6339,
      " Clark": 6340,
      " edge": 6341,
      "ylum": 6342,
      "rapy": 6343,
      " athletes": 6344,
      " registered": 6345,
      " consequences": 6346,
      "President": 6347,
      "ship": 6348,
      "inson": 6349,
      " semi": 6350,
      " nut": 6351,
      "urd": 6352,
      " GOP": 6353,
      " Nic": 6354,
      " Nick": 6355,
      "osure": 6356,
      " Lew": 6357,
      "icken": 6358,
      " background": 6359,
      " located": 6360,
      "Once": 6361,
      " interests": 6362,
      " neighbor": 6363,
      " associated": 6364,
      " mobile": 6365,
      " Disney": 6366,
      "-minute": 6367,
      "Because": 6368,
      " wid": 6369,
      " cred": 6370,
      " Kat": 6371,
      "ptoms": 6372,
      "asters": 6373,
      " generally": 6374,
      " elig": 6375,
      " artists": 6376,
      " significantly": 6377,
      " featured": 6378,
      " customer": 6379,
      " ing": 6380,
      "02": 6381,
      "ker": 6382,
      " tact": 6383,
      " drones": 6384,
      " Lat": 6385,
      " intense": 6386,
      " qual": 6387,
      " roles": 6388,
      " Year": 6389,
      " inspired": 6390,
      " familiar": 6391,
      " seriously": 6392,
      " Syria": 6393,
      " zone": 6394,
      " aimed": 6395,
      "EN": 6396,
      "PS": 6397,
      "ios": 6398,
      "yo": 6399,
      "za": 6400,
      " sick": 6401,
      " nations": 6402,
      " Mic": 6403,
      " shots": 6404,
      " Jul": 6405,
      " contrast": 6406,
      "-back": 6407,
      " lots": 6408,
      " declined": 6409,
      " Korean": 6410,
      " dozens": 6411,
      " clothes": 6412,
      " coalition": 6413,
      "480": 6414,
      "icing": 6415,
      "achel": 6416,
      " exhib": 6417,
      " deputy": 6418,
      " condem": 6419,
      " Afghan": 6420,
      " values": 6421,
      " priority": 6422,
      " speaks": 6423,
      " crypt": 6424,
      "\"That": 6425,
      "Time": 6426,
      " ble": 6427,
      " dinner": 6428,
      " Hel": 6429,
      " Digital": 6430,
      " NATO": 6431,
      " agent": 6432,
      " Ver": 6433,
      " facility": 6434,
      "Also": 6435,
      " shopping": 6436,
      " vulnerable": 6437,
      " sending": 6438,
      " wake": 6439,
      " Northern": 6440,
      " Jose": 6441,
      " uses": 6442,
      " arr": 6443,
      " acting": 6444,
      " considering": 6445,
      "phone": 6446,
      " greatest": 6447,
      " developing": 6448,
      " patient": 6449,
      " trading": 6450,
      " platforms": 6451,
      "now": 6452,
      "atre": 6453,
      " reaction": 6454,
      "ansas": 6455,
      " boat": 6456,
      " marks": 6457,
      "pective": 6458,
      " Beach": 6459,
      " Centre": 6460,
      " tonight": 6461,
      "360": 6462,
      "380": 6463,
      "76": 6464,
      "DP": 6465,
      "IT": 6466,
      "db": 6467,
      "gic": 6468,
      "itors": 6469,
      " Tes": 6470,
      " vess": 6471,
      " impressive": 6472,
      " conspir": 6473,
      " attempts": 6474,
      " regularly": 6475,
      " journalists": 6476,
      "EC": 6477,
      " filled": 6478,
      "verse": 6479,
      " Tory": 6480,
      " vital": 6481,
      "ansion": 6482,
      " univers": 6483,
      " resist": 6484,
      "owned": 6485,
      "aug": 6486,
      " continuing": 6487,
      " newsp": 6488,
      " enjoyed": 6489,
      " consumers": 6490,
      " affordable": 6491,
      "mates": 6492,
      "rig": 6493,
      "եր": 6494,
      " Men": 6495,
      " Av": 6496,
      " coverage": 6497,
      " Independ": 6498,
      " suspended": 6499,
      " analysis": 6500,
      "98": 6501,
      "uan": 6502,
      " tennis": 6503,
      " inquir": 6504,
      " mand": 6505,
      "aka": 6506,
      " traum": 6507,
      " enth": 6508,
      " farm": 6509,
      "arma": 6510,
      " Ann": 6511,
      " losses": 6512,
      " characters": 6513,
      " Sydney": 6514,
      " weapon": 6515,
      " purpose": 6516,
      "%.\n": 6517,
      "VID": 6518,
      "ien": 6519,
      "rant": 6520,
      "esh": 6521,
      "imary": 6522,
      "ader": 6523,
      "eler": 6524,
      " Hun": 6525,
      " prove": 6526,
      " plus": 6527,
      "Who": 6528,
      "iversary": 6529,
      "ograp": 6530,
      " classic": 6531,
      " Guard": 6532,
      " rapid": 6533,
      " update": 6534,
      " exercise": 6535,
      " brilliant": 6536,
      "dict": 6537,
      "vy": 6538,
      " hun": 6539,
      " nomin": 6540,
      " ge": 6541,
      " adjust": 6542,
      " clip": 6543,
      " reput": 6544,
      " impossible": 6545,
      " subs": 6546,
      " swing": 6547,
      " switch": 6548,
      " drone": 6549,
      " engaged": 6550,
      " bowl": 6551,
      " documentary": 6552,
      " tackle": 6553,
      "Car": 6554,
      "Le": 6555,
      "Look": 6556,
      "Tube": 6557,
      " cert": 6558,
      "itu": 6559,
      " cook": 6560,
      " ends": 6561,
      " sets": 6562,
      " explain": 6563,
      " missile": 6564,
      " effectively": 6565,
      " neighbour": 6566,
      " Foundation": 6567,
      "RA": 6568,
      "een": 6569,
      "itect": 6570,
      "isf": 6571,
      " pushing": 6572,
      " asylum": 6573,
      " alive": 6574,
      "rah": 6575,
      " Champions": 6576,
      " returns": 6577,
      " sentenced": 6578,
      " competitive": 6579,
      " Saudi": 6580,
      " battery": 6581,
      " landsc": 6582,
      "stein": 6583,
      "73": 6584,
      "Can": 6585,
      "fast": 6586,
      "hor": 6587,
      "ye": 6588,
      "asy": 6589,
      " Spe": 6590,
      "usiness": 6591,
      " CBS": 6592,
      "iev": 6593,
      "ancellor": 6594,
      " acts": 6595,
      " confront": 6596,
      " guests": 6597,
      " Real": 6598,
      "354": 6599,
      " labor": 6600,
      " remarks": 6601,
      "Harris": 6602,
      "890": 6603,
      "uine": 6604,
      " nor": 6605,
      " none": 6606,
      "imp": 6607,
      " Osc": 6608,
      " talked": 6609,
      " positions": 6610,
      " programs": 6611,
      " restrictions": 6612,
      " retirement": 6613,
      "auc": 6614,
      "ros": 6615,
      " Mun": 6616,
      " Hot": 6617,
      " unus": 6618,
      " thinks": 6619,
      " signing": 6620,
      "403": 6621,
      " posts": 6622,
      " directed": 6623,
      " elim": 6624,
      " holds": 6625,
      " expectations": 6626,
      " challenging": 6627,
      " concluded": 6628,
      " iconic": 6629,
      "\"And": 6630,
      " caut": 6631,
      " bare": 6632,
      " mut": 6633,
      " Sum": 6634,
      " Bob": 6635,
      " ministry": 6636,
      "-be": 6637,
      " founder": 6638,
      "ugby": 6639,
      " numerous": 6640,
      " fewer": 6641,
      "enny": 6642,
      " exciting": 6643,
      " organisation": 6644,
      " ideas": 6645,
      " midfield": 6646,
      " illness": 6647,
      " animal": 6648,
      " Foreign": 6649,
      " dedicated": 6650,
      " heavily": 6651,
      "\"When": 6652,
      "624": 6653,
      "iable": 6654,
      "itle": 6655,
      " stadium": 6656,
      " Bo": 6657,
      " sees": 6658,
      " adapt": 6659,
      " accus": 6660,
      "izes": 6661,
      "erves": 6662,
      " knowledge": 6663,
      " delight": 6664,
      " authority": 6665,
      " contributed": 6666,
      " trouble": 6667,
      "\"S": 6668,
      "-F": 6669,
      "04": 6670,
      "ES": 6671,
      "bie": 6672,
      "icide": 6673,
      " grown": 6674,
      " Az": 6675,
      " weak": 6676,
      " Part": 6677,
      " Las": 6678,
      " kil": 6679,
      "loved": 6680,
      "ighters": 6681,
      "ette": 6682,
      " negative": 6683,
      "-elect": 6684,
      " journalist": 6685,
      " Rafah": 6686,
      "zone": 6687,
      " west": 6688,
      " east": 6689,
      " Celt": 6690,
      " advert": 6691,
      " (£": 6692,
      " agents": 6693,
      " playoff": 6694,
      " invited": 6695,
      " busy": 6696,
      " requires": 6697,
      "740": 6698,
      "96": 6699,
      "wa": 6700,
      "arity": 6701,
      " hat": 6702,
      " diet": 6703,
      " virt": 6704,
      " scoring": 6705,
      " relatively": 6706,
      " Iranian": 6707,
      " lucky": 6708,
      " CNN": 6709,
      "hattan": 6710,
      " Hospital": 6711,
      "\"}],\"": 6712,
      "dca": 6713,
      "then": 6714,
      "wal": 6715,
      " pace": 6716,
      " gap": 6717,
      " Judge": 6718,
      "inds": 6719,
      " earn": 6720,
      " medal": 6721,
      " shouldn": 6722,
      " Space": 6723,
      " excell": 6724,
      " informed": 6725,
      " fears": 6726,
      " welcom": 6727,
      " referred": 6728,
      " surface": 6729,
      "elensky": 6730,
      "817": 6731,
      " fake": 6732,
      " innings": 6733,
      " Pac": 6734,
      "umar": 6735,
      " Gi": 6736,
      "uster": 6737,
      "ideo": 6738,
      " overwhel": 6739,
      " Leg": 6740,
      " editor": 6741,
      " drinking": 6742,
      "iscal": 6743,
      " regarding": 6744,
      " Defense": 6745,
      "maker": 6746,
      "war": 6747,
      "real": 6748,
      " basket": 6749,
      " publ": 6750,
      "uter": 6751,
      " stunning": 6752,
      "ece": 6753,
      " Jay": 6754,
      " worry": 6755,
      "erties": 6756,
      " turns": 6757,
      " compete": 6758,
      " banned": 6759,
      " reaching": 6760,
      " houses": 6761,
      " comedy": 6762,
      "iop": 6763,
      "ties": 6764,
      " section": 6765,
      "isan": 6766,
      " bars": 6767,
      " borrow": 6768,
      " lit": 6769,
      " Card": 6770,
      " Bang": 6771,
      "sey": 6772,
      " rid": 6773,
      "aped": 6774,
      "away": 6775,
      " organis": 6776,
      " Manhattan": 6777,
      "ynam": 6778,
      "iami": 6779,
      " mentioned": 6780,
      " veteran": 6781,
      "expected": 6782,
      " institutions": 6783,
      " Capitol": 6784,
      " wave": 6785,
      " core": 6786,
      "orial": 6787,
      " flying": 6788,
      " narr": 6789,
      " Agency": 6790,
      " Boeing": 6791,
      " RT": 6792,
      " Rock": 6793,
      " advis": 6794,
      " songs": 6795,
      " types": 6796,
      " sustainable": 6797,
      " bonus": 6798,
      "cious": 6799,
      " fram": 6800,
      "ishes": 6801,
      " Here": 6802,
      " actors": 6803,
      " rape": 6804,
      " relax": 6805,
      " religious": 6806,
      " franch": 6807,
      "ommod": 6808,
      " moves": 6809,
      " listed": 6810,
      " equal": 6811,
      " judges": 6812,
      " presented": 6813,
      " imagine": 6814,
      " Virgin": 6815,
      " symptoms": 6816,
      "Man": 6817,
      "Under": 6818,
      " sup": 6819,
      " forget": 6820,
      " Squ": 6821,
      " Ali": 6822,
      "earing": 6823,
      " Channel": 6824,
      " trick": 6825,
      " displ": 6826,
      " myster": 6827,
      " knock": 6828,
      " regime": 6829,
      " belief": 6830,
      " heads": 6831,
      "-free": 6832,
      " slam": 6833,
      " prize": 6834,
      " approp": 6835,
      " testing": 6836,
      " threatened": 6837,
      " basic": 6838,
      " Valley": 6839,
      "Ab": 6840,
      " wine": 6841,
      " wider": 6842,
      " cards": 6843,
      " stor": 6844,
      "odd": 6845,
      "osite": 6846,
      " Live": 6847,
      " Lord": 6848,
      " outfit": 6849,
      " optim": 6850,
      " Conn": 6851,
      " spoken": 6852,
      " matters": 6853,
      " Steve": 6854,
      "itutional": 6855,
      " Japanese": 6856,
      " strategic": 6857,
      "IA": 6858,
      "bro": 6859,
      "erland": 6860,
      "itage": 6861,
      "owered": 6862,
      " structure": 6863,
      " waste": 6864,
      " Ty": 6865,
      " ministers": 6866,
      " entry": 6867,
      " extended": 6868,
      " evac": 6869,
      " thoughts": 6870,
      " apartment": 6871,
      " Moham": 6872,
      " dismissed": 6873,
      "ais": 6874,
      "gue": 6875,
      " fill": 6876,
      "arters": 6877,
      " hall": 6878,
      " micro": 6879,
      " Dar": 6880,
      " Wel": 6881,
      " accommod": 6882,
      " backed": 6883,
      " crack": 6884,
      " heading": 6885,
      " Carl": 6886,
      " relationships": 6887,
      " motiv": 6888,
      " concert": 6889,
      " Associated": 6890,
      " sparked": 6891,
      " tensions": 6892,
      "Mar": 6893,
      "aed": 6894,
      "second": 6895,
      "oration": 6896,
      " pounds": 6897,
      " eld": 6898,
      " Mid": 6899,
      "anded": 6900,
      " Det": 6901,
      " Daily": 6902,
      " spr": 6903,
      " demands": 6904,
      " listen": 6905,
      "/a": 6906,
      "rating": 6907,
      "west": 6908,
      "reams": 6909,
      " cup": 6910,
      "imir": 6911,
      " Hen": 6912,
      " agenda": 6913,
      " unp": 6914,
      " defensive": 6915,
      " campus": 6916,
      " legacy": 6917,
      " cheap": 6918,
      " promises": 6919,
      " reveal": 6920,
      "-run": 6921,
      "Me": 6922,
      "Yes": 6923,
      "mosp": 6924,
      "uction": 6925,
      "reens": 6926,
      " sid": 6927,
      " firms": 6928,
      " Sus": 6929,
      " aside": 6930,
      "rav": 6931,
      " resign": 6932,
      "ishi": 6933,
      " Invest": 6934,
      " retired": 6935,
      " Palace": 6936,
      "Phone": 6937,
      "'It": 6938,
      "gs": 6939,
      "ipping": 6940,
      "life": 6941,
      "mo": 6942,
      "mond": 6943,
      " fish": 6944,
      " golf": 6945,
      "etic": 6946,
      " IP": 6947,
      "ulous": 6948,
      " Hy": 6949,
      " recover": 6950,
      " goods": 6951,
      " factors": 6952,
      " controll": 6953,
      " begins": 6954,
      " combined": 6955,
      " radio": 6956,
      "bourne": 6957,
      " Ohio": 6958,
      "Dav": 6959,
      "hat": 6960,
      " mir": 6961,
      " Abb": 6962,
      "ocide": 6963,
      " FA": 6964,
      " From": 6965,
      " Jordan": 6966,
      " outcome": 6967,
      " outdo": 6968,
      "ificial": 6969,
      " anniversary": 6970,
      " Zeal": 6971,
      " distance": 6972,
      "-mon": 6973,
      "aiwan": 6974,
      " quarterback": 6975,
      " broadcast": 6976,
      " rescue": 6977,
      " tools": 6978,
      " Director": 6979,
      " Kyiv": 6980,
      "-H": 6981,
      "can": 6982,
      "dis": 6983,
      " yes": 6984,
      " shape": 6985,
      " Liber": 6986,
      " Even": 6987,
      "soft": 6988,
      " followers": 6989,
      " farmers": 6990,
      " subsequ": 6991,
      "ternal": 6992,
      " possibly": 6993,
      " properties": 6994,
      " incidents": 6995,
      " replaced": 6996,
      " purchase": 6997,
      " mortgage": 6998,
      " narrow": 6999,
      "Following": 7000,
      "ixt": 7001,
      " tied": 7002,
      "inate": 7003,
      " craft": 7004,
      " lies": 7005,
      "ira": 7006,
      "ecial": 7007,
      " Two": 7008,
      " Gab": 7009,
      "istics": 7010,
      "usted": 7011,
      " unve": 7012,
      " Inter": 7013,
      "rence": 7014,
      " follows": 7015,
      " passion": 7016,
      " presidency": 7017,
      " obvious": 7018,
      " stronger": 7019,
      " engage": 7020,
      " stepped": 7021,
      " orders": 7022,
      " MPs": 7023,
      " machine": 7024,
      "ladimir": 7025,
      " princip": 7026,
      " enthus": 7027,
      "zen": 7028,
      "orne": 7029,
      " Tor": 7030,
      " Fest": 7031,
      " closing": 7032,
      " knowing": 7033,
      " ending": 7034,
      " minimum": 7035,
      " earnings": 7036,
      " symb": 7037,
      " planet": 7038,
      " driven": 7039,
      " improved": 7040,
      " staying": 7041,
      " photograph": 7042,
      " genuine": 7043,
      " schedule": 7044,
      " application": 7045,
      "India": 7046,
      " Walz": 7047,
      " Obama": 7048,
      "\"My": 7049,
      "05": 7050,
      "Fr": 7051,
      "Ne": 7052,
      " aims": 7053,
      "stone": 7054,
      "lyn": 7055,
      " anonym": 7056,
      " Des": 7057,
      " proved": 7058,
      "allas": 7059,
      "oston": 7060,
      "okes": 7061,
      " pray": 7062,
      "ints": 7063,
      "ervation": 7064,
      "103": 7065,
      " flu": 7066,
      " Army": 7067,
      " breaking": 7068,
      "apping": 7069,
      " cutting": 7070,
      " consumer": 7071,
      "razy": 7072,
      " incredibly": 7073,
      " teacher": 7074,
      " suddenly": 7075,
      "-related": 7076,
      "IV": 7077,
      "bl": 7078,
      "jo": 7079,
      " tun": 7080,
      " mo": 7081,
      "ili": 7082,
      "state": 7083,
      "utions": 7084,
      " Boy": 7085,
      " Hag": 7086,
      " Dun": 7087,
      " Lake": 7088,
      " plot": 7089,
      " intent": 7090,
      " showc": 7091,
      "athy": 7092,
      " blow": 7093,
      "152": 7094,
      " instruct": 7095,
      "Share": 7096,
      " divor": 7097,
      " Madrid": 7098,
      " dozen": 7099,
      " Zealand": 7100,
      "OS": 7101,
      "mitted": 7102,
      " trees": 7103,
      "atically": 7104,
      "orado": 7105,
      " Sol": 7106,
      " Aff": 7107,
      "essor": 7108,
      " inclus": 7109,
      "ption": 7110,
      " brut": 7111,
      " finance": 7112,
      " keen": 7113,
      "ootball": 7114,
      " Show": 7115,
      " muse": 7116,
      " Asia": 7117,
      " identify": 7118,
      "-right": 7119,
      " banks": 7120,
      " Media": 7121,
      "Russia": 7122,
      " venue": 7123,
      " Lewis": 7124,
      "-v": 7125,
      "Gu": 7126,
      "NC": 7127,
      " sight": 7128,
      " aspect": 7129,
      " Ba": 7130,
      " worker": 7131,
      " fees": 7132,
      " Week": 7133,
      " please": 7134,
      "ributors": 7135,
      "igrant": 7136,
      " assistant": 7137,
      " producer": 7138,
      " initiative": 7139,
      " wonderful": 7140,
      " degrees": 7141,
      " COVID": 7142,
      "bo": 7143,
      "ón": 7144,
      " af": 7145,
      "inating": 7146,
      " stuck": 7147,
      "ateful": 7148,
      " ride": 7149,
      " racing": 7150,
      " selection": 7151,
      " therefore": 7152,
      " science": 7153,
      " statements": 7154,
      "azz": 7155,
      "ricult": 7156,
      "111": 7157,
      " anticip": 7158,
      " horse": 7159,
      " accepted": 7160,
      " silver": 7161,
      " nomination": 7162,
      " negotiations": 7163,
      " savings": 7164,
      " navig": 7165,
      "oice": 7166,
      "writ": 7167,
      " citing": 7168,
      " gym": 7169,
      " channel": 7170,
      " Kevin": 7171,
      " loyal": 7172,
      "look": 7173,
      " raising": 7174,
      " advanced": 7175,
      " charging": 7176,
      " river": 7177,
      " featuring": 7178,
      " targeting": 7179,
      " creative": 7180,
      " Exp": 7181,
      " escape": 7182,
      " acknowledged": 7183,
      " Sabha": 7184,
      "Sim": 7185,
      "awn": 7186,
      "iy": 7187,
      "hether": 7188,
      " Work": 7189,
      " intended": 7190,
      " Then": 7191,
      "inton": 7192,
      " county": 7193,
      " inspir": 7194,
      " marked": 7195,
      "-called": 7196,
      " meetings": 7197,
      " discussed": 7198,
      " chairman": 7199,
      " Wilson": 7200,
      " Bowl": 7201,
      "/f": 7202,
      "],\"": 7203,
      "title": 7204,
      " pit": 7205,
      " Ak": 7206,
      "estyle": 7207,
      " chosen": 7208,
      " ($": 7209,
      "aret": 7210,
      " bridge": 7211,
      " guess": 7212,
      " puts": 7213,
      " locations": 7214,
      "ologist": 7215,
      " sky": 7216,
      " critics": 7217,
      " tests": 7218,
      " Brook": 7219,
      " electricity": 7220,
      " conspiracy": 7221,
      "Per": 7222,
      "part": 7223,
      "ican": 7224,
      "thony": 7225,
      "ulations": 7226,
      "agon": 7227,
      " Long": 7228,
      "enders": 7229,
      " Old": 7230,
      " Van": 7231,
      "ounced": 7232,
      " headed": 7233,
      " explains": 7234,
      " sixth": 7235,
      " factor": 7236,
      " failing": 7237,
      "rooms": 7238,
      " prosecution": 7239,
      " degree": 7240,
      " sanctions": 7241,
      " welcomed": 7242,
      " museum": 7243,
      "gian": 7244,
      "iences": 7245,
      "uated": 7246,
      " cinem": 7247,
      "ashes": 7248,
      " Bor": 7249,
      " atmosp": 7250,
      " plants": 7251,
      " upgr": 7252,
      " studies": 7253,
      " healthcare": 7254,
      " harder": 7255,
      " industrial": 7256,
      " encoun": 7257,
      " surprised": 7258,
      "ijing": 7259,
      "upport": 7260,
      "-led": 7261,
      "box": 7262,
      "lt": 7263,
      "lights": 7264,
      "secut": 7265,
      " sorry": 7266,
      " Bad": 7267,
      " Ray": 7268,
      " Lok": 7269,
      " plastic": 7270,
      " assum": 7271,
      "primary": 7272,
      " personnel": 7273,
      " depend": 7274,
      " studio": 7275,
      " commented": 7276,
      " uncertain": 7277,
      " verdict": 7278,
      " highlighted": 7279,
      " architect": 7280,
      " ceasefire": 7281,
      " eligible": 7282,
      "!!": 7283,
      "Brit": 7284,
      "Eng": 7285,
      "oir": 7286,
      "ras": 7287,
      "wich": 7288,
      "oni": 7289,
      " hitting": 7290,
      " Miami": 7291,
      " Tony": 7292,
      "ching": 7293,
      " doors": 7294,
      "orders": 7295,
      " emissions": 7296,
      "-point": 7297,
      " Reuters": 7298,
      " appearances": 7299,
      " device": 7300,
      " devices": 7301,
      " tourists": 7302,
      " casual": 7303,
      " pregnant": 7304,
      " destroyed": 7305,
      " hospitals": 7306,
      " storage": 7307,
      "Conn": 7308,
      "TS": 7309,
      "car": 7310,
      " tree": 7311,
      "ilton": 7312,
      " rein": 7313,
      "amm": 7314,
      " Sud": 7315,
      " Spr": 7316,
      " Board": 7317,
      "raham": 7318,
      "rive": 7319,
      "apse": 7320,
      "assed": 7321,
      " polling": 7322,
      " carbon": 7323,
      " USA": 7324,
      "emocratic": 7325,
      " constitu": 7326,
      "-star": 7327,
      " combat": 7328,
      " favorite": 7329,
      " chaos": 7330,
      " newspaper": 7331,
      " Independent": 7332,
      "-month": 7333,
      "335": 7334,
      " tears": 7335,
      "onom": 7336,
      "atal": 7337,
      " master": 7338,
      "acle": 7339,
      " Bal": 7340,
      "cho": 7341,
      " NBA": 7342,
      " Last": 7343,
      " deleg": 7344,
      " abroad": 7345,
      "ogan": 7346,
      " discount": 7347,
      " approval": 7348,
      "Star": 7349,
      " dealing": 7350,
      "ronic": 7351,
      " drawn": 7352,
      " questioned": 7353,
      " temporary": 7354,
      " pleas": 7355,
      "holders": 7356,
      " mixed": 7357,
      " substant": 7358,
      " sharp": 7359,
      "pinned": 7360,
      "'The": 7361,
      "'We": 7362,
      "NA": 7363,
      "how": 7364,
      " tiny": 7365,
      "eration": 7366,
      "atar": 7367,
      "orious": 7368,
      "isher": 7369,
      " duty": 7370,
      "eta": 7371,
      "verty": 7372,
      " Muse": 7373,
      " PA": 7374,
      " Di": 7375,
      " Every": 7376,
      " Econom": 7377,
      " regret": 7378,
      " Blue": 7379,
      " announce": 7380,
      " internal": 7381,
      "blockquote": 7382,
      "-long": 7383,
      " percentage": 7384,
      " celebrated": 7385,
      " appointed": 7386,
      " mistake": 7387,
      " opponents": 7388,
      " odds": 7389,
      " chemical": 7390,
      " tomorrow": 7391,
      "lan": 7392,
      "with": 7393,
      " dates": 7394,
      " saved": 7395,
      " Rub": 7396,
      " vent": 7397,
      "abeth": 7398,
      " Walk": 7399,
      " chose": 7400,
      " unders": 7401,
      " regions": 7402,
      " promise": 7403,
      " activists": 7404,
      " temperature": 7405,
      " understood": 7406,
      " Sweden": 7407,
      " cycle": 7408,
      " inquiry": 7409,
      "De": 7410,
      "Mc": 7411,
      "vin": 7412,
      "world": 7413,
      "icate": 7414,
      " ec": 7415,
      " anc": 7416,
      "aga": 7417,
      "resents": 7418,
      " compar": 7419,
      "reek": 7420,
      "assador": 7421,
      " Vladimir": 7422,
      " electoral": 7423,
      " blame": 7424,
      " guide": 7425,
      " poverty": 7426,
      " package": 7427,
      "ummary": 7428,
      " reputation": 7429,
      "Res": 7430,
      "bell": 7431,
      "vant": 7432,
      "inter": 7433,
      " height": 7434,
      " Mat": 7435,
      " Ter": 7436,
      " rat": 7437,
      " Dod": 7438,
      "ews": 7439,
      "gged": 7440,
      " custody": 7441,
      " captured": 7442,
      " damaged": 7443,
      " zero": 7444,
      "ocolate": 7445,
      "Se": 7446,
      "mate": 7447,
      "uations": 7448,
      " ce": 7449,
      "ario": 7450,
      " eastern": 7451,
      "adi": 7452,
      " Mir": 7453,
      " Boston": 7454,
      " Pen": 7455,
      " Public": 7456,
      " Jen": 7457,
      " Kel": 7458,
      " Over": 7459,
      " intens": 7460,
      " overnight": 7461,
      " officially": 7462,
      " childhood": 7463,
      " terrif": 7464,
      " finds": 7465,
      " Zelensky": 7466,
      " Cooper": 7467,
      " ideal": 7468,
      " pattern": 7469,
      " argument": 7470,
      " practices": 7471,
      " restaurants": 7472,
      " permanent": 7473,
      "itable": 7474,
      " mine": 7475,
      " Micro": 7476,
      " Tok": 7477,
      " jur": 7478,
      " alliance": 7479,
      " scandal": 7480,
      " remote": 7481,
      "azine": 7482,
      " empt": 7483,
      " earth": 7484,
      " transp": 7485,
      "Asked": 7486,
      " cream": 7487,
      "lessly": 7488,
      " fundament": 7489,
      " fallen": 7490,
      " technical": 7491,
      " determine": 7492,
      " sounds": 7493,
      " estimates": 7494,
      " devastating": 7495,
      "secondary": 7496,
      "Where": 7497,
      "inations": 7498,
      "athered": 7499,
      "ora": 7500,
      " mouth": 7501,
      " reject": 7502,
      " stations": 7503,
      " Ah": 7504,
      " Pay": 7505,
      " cloud": 7506,
      " otherwise": 7507,
      "ighth": 7508,
      " instance": 7509,
      " equity": 7510,
      " causes": 7511,
      " celebrity": 7512,
      " profession": 7513,
      " preparing": 7514,
      " strengthen": 7515,
      " controversial": 7516,
      "contributors": 7517,
      " Stephen": 7518,
      " neighborhood": 7519,
      "660": 7520,
      "Em": 7521,
      "IP": 7522,
      "apped": 7523,
      "ko": 7524,
      "worth": 7525,
      " faster": 7526,
      "idays": 7527,
      " liqu": 7528,
      " reducing": 7529,
      " gro": 7530,
      "ether": 7531,
      " SNP": 7532,
      " Roman": 7533,
      "emit": 7534,
      " Ly": 7535,
      "ournal": 7536,
      " EV": 7537,
      " peak": 7538,
      " accomp": 7539,
      " handed": 7540,
      " handle": 7541,
      " affairs": 7542,
      " performed": 7543,
      " performances": 7544,
      "rictly": 7545,
      " function": 7546,
      " girlfriend": 7547,
      " Teleg": 7548,
      "hetic": 7549,
      " regulations": 7550,
      " diagnosis": 7551,
      "=\"": 7552,
      "EA": 7553,
      "ակ": 7554,
      "rehens": 7555,
      " Mass": 7556,
      ".\"\"\n": 7557,
      " secured": 7558,
      " explore": 7559,
      "velopment": 7560,
      "anny": 7561,
      " musical": 7562,
      " choices": 7563,
      " Columb": 7564,
      " roads": 7565,
      " suspected": 7566,
      " shelter": 7567,
      " travelling": 7568,
      " granted": 7569,
      "\"C": 7570,
      "ta": 7571,
      " lie": 7572,
      " gained": 7573,
      " Sk": 7574,
      "oles": 7575,
      "abled": 7576,
      " Up": 7577,
      " dish": 7578,
      " anywhere": 7579,
      " keeps": 7580,
      " resulted": 7581,
      " musc": 7582,
      " Coast": 7583,
      " engagement": 7584,
      " detailed": 7585,
      " settlement": 7586,
      " Festival": 7587,
      "-round": 7588,
      "summary": 7589,
      " theory": 7590,
      " fiscal": 7591,
      "uties": 7592,
      "irty": 7593,
      " Ira": 7594,
      " Tories": 7595,
      "ando": 7596,
      " Rose": 7597,
      " Wild": 7598,
      " Fil": 7599,
      " Jac": 7600,
      " Jersey": 7601,
      " compens": 7602,
      " Church": 7603,
      " desire": 7604,
      " mayor": 7605,
      "attributes": 7606,
      " entering": 7607,
      " opposite": 7608,
      "echan": 7609,
      " Brad": 7610,
      " rooms": 7611,
      " caption": 7612,
      " literally": 7613,
      "Timezone": 7614,
      "FA": 7615,
      " wore": 7616,
      " cell": 7617,
      "imal": 7618,
      " Taiwan": 7619,
      " races": 7620,
      "208": 7621,
      "abs": 7622,
      " exit": 7623,
      " Elect": 7624,
      " ourselves": 7625,
      " feelings": 7626,
      " visiting": 7627,
      " joining": 7628,
      "castle": 7629,
      " discussions": 7630,
      " Airport": 7631,
      " perspective": 7632,
      " Conservatives": 7633,
      " conversations": 7634,
      " praised": 7635,
      " Acad": 7636,
      " cooperation": 7637,
      " Afghanistan": 7638,
      " franchise": 7639,
      "iner": 7640,
      " ow": 7641,
      "oting": 7642,
      "uted": 7643,
      " stability": 7644,
      " Mu": 7645,
      " Mount": 7646,
      " Rah": 7647,
      " Rangers": 7648,
      " Hay": 7649,
      " Nev": 7650,
      " clash": 7651,
      " Stud": 7652,
      " theme": 7653,
      " findings": 7654,
      "-class": 7655,
      " complaints": 7656,
      " diplomatic": 7657,
      "-N": 7658,
      "-R": 7659,
      "LL": 7660,
      "was": 7661,
      " tie": 7662,
      " ast": 7663,
      "anth": 7664,
      " toll": 7665,
      "adel": 7666,
      "amas": 7667,
      "tery": 7668,
      " Best": 7669,
      " Haw": 7670,
      "209": 7671,
      " Way": 7672,
      " Water": 7673,
      " surve": 7674,
      " color": 7675,
      "114": 7676,
      " prominent": 7677,
      " hosts": 7678,
      " Young": 7679,
      " dramatic": 7680,
      " narrative": 7681,
      "-he": 7682,
      "HE": 7683,
      "Having": 7684,
      "SW": 7685,
      "pay": 7686,
      "rations": 7687,
      " wra": 7688,
      " cul": 7689,
      " fought": 7690,
      " hal": 7691,
      " reun": 7692,
      "adian": 7693,
      "elines": 7694,
      " Miller": 7695,
      " Redd": 7696,
      " GP": 7697,
      " shout": 7698,
      " Ev": 7699,
      " unless": 7700,
      " resolution": 7701,
      "Three": 7702,
      " somebody": 7703,
      " nobody": 7704,
      "espread": 7705,
      "nesota": 7706,
      " motion": 7707,
      " Victoria": 7708,
      " anxiety": 7709,
      " unusual": 7710,
      "\"s": 7711,
      "--": 7712,
      "RC": 7713,
      "aun": 7714,
      " fro": 7715,
      " fasc": 7716,
      " pock": 7717,
      " glo": 7718,
      " yellow": 7719,
      "unior": 7720,
      "uls": 7721,
      " convention": 7722,
      " Ross": 7723,
      " Down": 7724,
      " Wat": 7725,
      " Let": 7726,
      "endment": 7727,
      " suc": 7728,
      " Ok": 7729,
      " exper": 7730,
      "comfort": 7731,
      "125": 7732,
      " milk": 7733,
      " increases": 7734,
      " artificial": 7735,
      "Still": 7736,
      "arming": 7737,
      " stayed": 7738,
      " horrif": 7739,
      " contacted": 7740,
      " pictured": 7741,
      " volunte": 7742,
      " desperate": 7743,
      "Ukraine": 7744,
      " landscape": 7745,
      "539": 7746,
      "780": 7747,
      "oj": 7748,
      "eron": 7749,
      "oric": 7750,
      " fu": 7751,
      " conven": 7752,
      " Ree": 7753,
      " shocked": 7754,
      " Kent": 7755,
      "assy": 7756,
      " argue": 7757,
      " campaigns": 7758,
      " courts": 7759,
      " Adam": 7760,
      " homeless": 7761,
      " immigrants": 7762,
      " variety": 7763,
      " square": 7764,
      "***": 7765,
      " unclear": 7766,
      " boyfriend": 7767,
      "itzerland": 7768,
      " Celtic": 7769,
      " succeed": 7770,
      "Ke": 7771,
      "hand": 7772,
      "iat": 7773,
      "long": 7774,
      " tips": 7775,
      "asp": 7776,
      " dynam": 7777,
      " Gand": 7778,
      "essions": 7779,
      " Fire": 7780,
      " Jean": 7781,
      " Vol": 7782,
      " backing": 7783,
      " delays": 7784,
      "Only": 7785,
      "242": 7786,
      " movies": 7787,
      " forever": 7788,
      " hosted": 7789,
      "-like": 7790,
      " Cohen": 7791,
      " constantly": 7792,
      " discussion": 7793,
      " connected": 7794,
      " Chiefs": 7795,
      " maximum": 7796,
      "820": 7797,
      " trib": 7798,
      "heim": 7799,
      "information": 7800,
      " samp": 7801,
      "eras": 7802,
      " western": 7803,
      " dial": 7804,
      "ela": 7805,
      " Hear": 7806,
      " Deb": 7807,
      " Os": 7808,
      "onduct": 7809,
      "assing": 7810,
      "izabeth": 7811,
      " brands": 7812,
      " consecutive": 7813,
      " owned": 7814,
      "everal": 7815,
      "409": 7816,
      " stream": 7817,
      " summit": 7818,
      "486": 7819,
      " Colorado": 7820,
      " Prof": 7821,
      " interviews": 7822,
      " occas": 7823,
      " privacy": 7824,
      " label": 7825,
      " hyd": 7826,
      " Research": 7827,
      " specifically": 7828,
      "Rec": 7829,
      "jamin": 7830,
      "laim": 7831,
      "tw": 7832,
      " wage": 7833,
      " fab": 7834,
      " gonna": 7835,
      "owa": 7836,
      " Mem": 7837,
      " Bab": 7838,
      " excess": 7839,
      " jack": 7840,
      " Election": 7841,
      " represents": 7842,
      " detect": 7843,
      " tested": 7844,
      " testim": 7845,
      " represented": 7846,
      " prosecutor": 7847,
      "itchell": 7848,
      "94": 7849,
      "mad": 7850,
      "point": 7851,
      "uable": 7852,
      "ila": 7853,
      " intention": 7854,
      " resil": 7855,
      " Storm": 7856,
      " fee": 7857,
      " founded": 7858,
      " communication": 7859,
      " streaming": 7860,
      " satisf": 7861,
      "break": 7862,
      "David": 7863,
      " Museum": 7864,
      "93": 7865,
      "ga": 7866,
      "ih": 7867,
      " tur": 7868,
      " powers": 7869,
      " mechan": 7870,
      " lights": 7871,
      " reli": 7872,
      " bear": 7873,
      "ura": 7874,
      " ABC": 7875,
      " Town": 7876,
      " concl": 7877,
      "eman": 7878,
      "oster": 7879,
      "gered": 7880,
      " unexpected": 7881,
      "rators": 7882,
      "-cent": 7883,
      " behalf": 7884,
      " performing": 7885,
      " corruption": 7886,
      " investigating": 7887,
      "-hour": 7888,
      " limits": 7889,
      " collaps": 7890,
      " originally": 7891,
      " Sarah": 7892,
      " widespread": 7893,
      " Oscar": 7894,
      "-k": 7895,
      "/d": 7896,
      "860": 7897,
      "erate": 7898,
      "alest": 7899,
      " magn": 7900,
      "aser": 7901,
      " Southern": 7902,
      " ID": 7903,
      " champions": 7904,
      " noting": 7905,
      " Kap": 7906,
      " flav": 7907,
      "otte": 7908,
      " serves": 7909,
      " transl": 7910,
      " Armen": 7911,
      " Beijing": 7912,
      " solar": 7913,
      "Among": 7914,
      " assassination": 7915,
      "-re": 7916,
      "Will": 7917,
      "file": 7918,
      "iro": 7919,
      " Marg": 7920,
      " Add": 7921,
      "emen": 7922,
      " chicken": 7923,
      "ource": 7924,
      " Kansas": 7925,
      "aping": 7926,
      " neither": 7927,
      " roof": 7928,
      " command": 7929,
      "ricane": 7930,
      " Sharma": 7931,
      "-final": 7932,
      " advised": 7933,
      " promote": 7934,
      " suggesting": 7935,
      "461": 7936,
      " prepare": 7937,
      " innoc": 7938,
      " awarded": 7939,
      "uilding": 7940,
      "Photograph": 7941,
      " Attorney": 7942,
      " u": 7943,
      "717": 7944,
      "IM": 7945,
      "OC": 7946,
      "ladesh": 7947,
      "zy": 7948,
      " cos": 7949,
      " Hou": 7950,
      "asted": 7951,
      " ju": 7952,
      " (\"": 7953,
      "ressing": 7954,
      "icked": 7955,
      "urned": 7956,
      "encer": 7957,
      "nergy": 7958,
      "cedented": 7959,
      " grateful": 7960,
      " discrim": 7961,
      " enjoying": 7962,
      " answers": 7963,
      " punish": 7964,
      "precedented": 7965,
      " teachers": 7966,
      " scrutin": 7967,
      "respond": 7968,
      "Americ": 7969,
      "caster": 7970,
      " hole": 7971,
      "star": 7972,
      "oto": 7973,
      " gathered": 7974,
      " IS": 7975,
      " Family": 7976,
      "ials": 7977,
      "urer": 7978,
      "ubs": 7979,
      " incor": 7980,
      " overse": 7981,
      " accur": 7982,
      " monthly": 7983,
      "ometimes": 7984,
      " protected": 7985,
      " Anderson": 7986,
      " extrem": 7987,
      " chef": 7988,
      " Phill": 7989,
      " appearing": 7990,
      " Bridge": 7991,
      " Force": 7992,
      " arrival": 7993,
      " broader": 7994,
      " Turkey": 7995,
      " opponent": 7996,
      " Hunter": 7997,
      " Academy": 7998,
      "En": 7999,
      "but": 8000,
      "bled": 8001,
      "այ": 8002,
      " tip": 8003,
      " cabinet": 8004,
      " crazy": 8005,
      " fled": 8006,
      " fitness": 8007,
      " Are": 8008,
      "ifer": 8009,
      " NAS": 8010,
      " chocolate": 8011,
      " outs": 8012,
      " meal": 8013,
      " newly": 8014,
      "umph": 8015,
      " depos": 8016,
      " species": 8017,
      " veget": 8018,
      "-wing": 8019,
      " Project": 8020,
      " totally": 8021,
      " properly": 8022,
      " achieved": 8023,
      " calm": 8024,
      " Murray": 8025,
      " materials": 8026,
      " mountain": 8027,
      " manufacturing": 8028,
      " category": 8029,
      " Ethiop": 8030,
      " organizations": 8031,
      " excellent": 8032,
      " Tokyo": 8033,
      "939": 8034,
      "Bar": 8035,
      " soul": 8036,
      " pump": 8037,
      "icy": 8038,
      " Awards": 8039,
      " Dutch": 8040,
      " lean": 8041,
      " hadn": 8042,
      " Other": 8043,
      "iano": 8044,
      " actual": 8045,
      " trained": 8046,
      " flow": 8047,
      " inspect": 8048,
      " attacking": 8049,
      " opposed": 8050,
      "ologies": 8051,
      " balls": 8052,
      " Asian": 8053,
      " improving": 8054,
      " collapse": 8055,
      " crossing": 8056,
      "\":[{\"_": 8057,
      " brothers": 8058,
      " bags": 8059,
      " aggressive": 8060,
      " frequently": 8061,
      " celebration": 8062,
      "Offic": 8063,
      "wick": 8064,
      " tank": 8065,
      " thick": 8066,
      " loud": 8067,
      " Saf": 8068,
      " struct": 8069,
      " Pel": 8070,
      " Rw": 8071,
      " Hur": 8072,
      " Lu": 8073,
      " Stan": 8074,
      " capable": 8075,
      " legs": 8076,
      " Abd": 8077,
      " horror": 8078,
      " rarely": 8079,
      " teenager": 8080,
      " angry": 8081,
      " permission": 8082,
      " ingred": 8083,
      " kilomet": 8084,
      " atmosphere": 8085,
      " Iraq": 8086,
      "\"What": 8087,
      "225": 8088,
      "name": 8089,
      " sac": 8090,
      " bail": 8091,
      " alt": 8092,
      " rural": 8093,
      " Nik": 8094,
      " sevent": 8095,
      "ordinary": 8096,
      " usual": 8097,
      " reck": 8098,
      "onsin": 8099,
      " seemingly": 8100,
      " landed": 8101,
      " golden": 8102,
      " Governor": 8103,
      " bottle": 8104,
      " հ": 8105,
      "Sm": 8106,
      "South": 8107,
      "boy": 8108,
      "pa": 8109,
      " Son": 8110,
      " Cast": 8111,
      " ramp": 8112,
      " Lo": 8113,
      " exposed": 8114,
      "eremy": 8115,
      "axy": 8116,
      " rivals": 8117,
      "aura": 8118,
      " pleaded": 8119,
      " elsewhere": 8120,
      "isconsin": 8121,
      " kicked": 8122,
      " Arabia": 8123,
      " enhance": 8124,
      " apparently": 8125,
      "099": 8126,
      " mate": 8127,
      "otal": 8128,
      " beloved": 8129,
      " isol": 8130,
      " Cath": 8131,
      " Most": 8132,
      "raid": 8133,
      " Hind": 8134,
      " sequ": 8135,
      "apers": 8136,
      " counts": 8137,
      "overed": 8138,
      " blocked": 8139,
      " investments": 8140,
      " termin": 8141,
      "erior": 8142,
      " ski": 8143,
      " Assembly": 8144,
      " supermark": 8145,
      " division": 8146,
      "\":[],\"": 8147,
      " terrorist": 8148,
      " analysts": 8149,
      " entertainment": 8150,
      " somewhere": 8151,
      "220": 8152,
      ">,": 8153,
      "AM": 8154,
      "hit": 8155,
      "law": 8156,
      "eding": 8157,
      "anes": 8158,
      "isemit": 8159,
      " ease": 8160,
      "acc": 8161,
      " Ge": 8162,
      " Life": 8163,
      " Fe": 8164,
      " Our": 8165,
      " intim": 8166,
      " Strip": 8167,
      " cooking": 8168,
      "ova": 8169,
      " everywhere": 8170,
      "riendly": 8171,
      " voter": 8172,
      " competing": 8173,
      "553": 8174,
      " Organ": 8175,
      " striking": 8176,
      " appointment": 8177,
      " lifestyle": 8178,
      " virus": 8179,
      " scientists": 8180,
      " congress": 8181,
      " basketball": 8182,
      " Virginia": 8183,
      "hire": 8184,
      "nam": 8185,
      " wing": 8186,
      " mal": 8187,
      " mask": 8188,
      " dying": 8189,
      " los": 8190,
      " latter": 8191,
      "etime": 8192,
      "ownt": 8193,
      " Dub": 8194,
      " Dallas": 8195,
      " Kelly": 8196,
      "inked": 8197,
      " Trust": 8198,
      " Ins": 8199,
      " monit": 8200,
      " smooth": 8201,
      " continent": 8202,
      " terrible": 8203,
      " Palestine": 8204,
      "-election": 8205,
      " Meghan": 8206,
      " Islamic": 8207,
      " appropriate": 8208,
      "\"So": 8209,
      "AD": 8210,
      "lined": 8211,
      " coc": 8212,
      "orough": 8213,
      " fruit": 8214,
      " lying": 8215,
      " Bh": 8216,
      "agers": 8217,
      " Hor": 8218,
      " spaces": 8219,
      " lob": 8220,
      "active": 8221,
      "aved": 8222,
      "awa": 8223,
      " Marc": 8224,
      " detained": 8225,
      " obst": 8226,
      " generations": 8227,
      " Minnesota": 8228,
      "elements": 8229,
      " Switzerland": 8230,
      " designer": 8231,
      " deadly": 8232,
      "iece": 8233,
      " representing": 8234,
      " Series": 8235,
      " adopted": 8236,
      "keeper": 8237,
      " swimming": 8238,
      " abandoned": 8239,
      " Tesla": 8240,
      " accusations": 8241,
      "\"As": 8242,
      "equ": 8243,
      " sli": 8244,
      " bom": 8245,
      "icop": 8246,
      "utter": 8247,
      "owell": 8248,
      "ecurity": 8249,
      " Tro": 8250,
      " PS": 8251,
      " concept": 8252,
      " Hait": 8253,
      " Haley": 8254,
      " Doug": 8255,
      " chap": 8256,
      " wheel": 8257,
      " prepar": 8258,
      "ancer": 8259,
      "erts": 8260,
      " traged": 8261,
      " blamed": 8262,
      " supports": 8263,
      " oblig": 8264,
      " friendly": 8265,
      " handling": 8266,
      "ducation": 8267,
      "-half": 8268,
      "burg": 8269,
      " touchdown": 8270,
      " sensitive": 8271,
      " Simon": 8272,
      " Photo": 8273,
      " diagnosed": 8274,
      "\"Our": 8275,
      "CO": 8276,
      "km": 8277,
      "onent": 8278,
      " cited": 8279,
      " toile": 8280,
      " formed": 8281,
      "olved": 8282,
      " MS": 8283,
      " Beng": 8284,
      " ally": 8285,
      "orted": 8286,
      " Nad": 8287,
      " Nation": 8288,
      " Night": 8289,
      " FBI": 8290,
      " sugar": 8291,
      " meat": 8292,
      " context": 8293,
      "assment": 8294,
      " disaster": 8295,
      " scores": 8296,
      "inking": 8297,
      "aware": 8298,
      "guard": 8299,
      "attered": 8300,
      " employment": 8301,
      " delivering": 8302,
      " behavior": 8303,
      " fantastic": 8304,
      " testimony": 8305,
      ">The": 8306,
      "Get": 8307,
      "jan": 8308,
      " phen": 8309,
      "ilst": 8310,
      " beating": 8311,
      "agan": 8312,
      " rushed": 8313,
      " shops": 8314,
      " Wol": 8315,
      "eping": 8316,
      " explo": 8317,
      " manif": 8318,
      " acceler": 8319,
      " bread": 8320,
      " airline": 8321,
      " avo": 8322,
      " lovely": 8323,
      " managing": 8324,
      " landing": 8325,
      "umbai": 8326,
      " presenter": 8327,
      " arrive": 8328,
      " tourism": 8329,
      " buyers": 8330,
      " settled": 8331,
      " cameras": 8332,
      " essentially": 8333,
      " Alexander": 8334,
      " Melbourne": 8335,
      "GBT": 8336,
      " collaboration": 8337,
      " Henry": 8338,
      " empty": 8339,
      "Read": 8340,
      "Us": 8341,
      "gender": 8342,
      "iot": 8343,
      "las": 8344,
      "lash": 8345,
      " tribute": 8346,
      "anning": 8347,
      "icine": 8348,
      " threw": 8349,
      " stressed": 8350,
      " Iowa": 8351,
      "agg": 8352,
      " rugby": 8353,
      " Kumar": 8354,
      " mere": 8355,
      "Its": 8356,
      " index": 8357,
      " grass": 8358,
      " hoped": 8359,
      "iveness": 8360,
      "China": 8361,
      " friendship": 8362,
      " deadline": 8363,
      " winds": 8364,
      " Elizabeth": 8365,
      " Atlanta": 8366,
      " Michel": 8367,
      " barely": 8368,
      "\"She": 8369,
      "210": 8370,
      "uy": 8371,
      "uzz": 8372,
      " tall": 8373,
      " fel": 8374,
      " fame": 8375,
      " migration": 8376,
      "aya": 8377,
      " Id": 8378,
      "usk": 8379,
      " Many": 8380,
      "season": 8381,
      " saving": 8382,
      " Dam": 8383,
      " Nig": 8384,
      " Under": 8385,
      " shell": 8386,
      " recip": 8387,
      "log": 8388,
      "Though": 8389,
      "ogether": 8390,
      "anka": 8391,
      " phones": 8392,
      "remlin": 8393,
      " speculation": 8394,
      " laid": 8395,
      " tracks": 8396,
      " Muslim": 8397,
      " recognition": 8398,
      " drinks": 8399,
      " Patrick": 8400,
      " encouraged": 8401,
      " hyp": 8402,
      " waters": 8403,
      " Macron": 8404,
      " awareness": 8405,
      " referring": 8406,
      " ownership": 8407,
      "employ": 8408,
      " Reeves": 8409,
      "-J": 8410,
      "-W": 8411,
      "260": 8412,
      "rum": 8413,
      "itious": 8414,
      " flex": 8415,
      " dim": 8416,
      " elev": 8417,
      "amber": 8418,
      " Saint": 8419,
      " Santa": 8420,
      " concent": 8421,
      " Fund": 8422,
      " Football": 8423,
      " noticed": 8424,
      " recovered": 8425,
      " knife": 8426,
      " Ven": 8427,
      " addressed": 8428,
      " filing": 8429,
      " deliber": 8430,
      " hopefully": 8431,
      " lowest": 8432,
      " software": 8433,
      " Matthew": 8434,
      " households": 8435,
      " corporate": 8436,
      "adelph": 8437,
      " Gandhi": 8438,
      ".N": 8439,
      "Fans": 8440,
      "Your": 8441,
      "ports": 8442,
      "uits": 8443,
      "xit": 8444,
      " map": 8445,
      " dreams": 8446,
      "sters": 8447,
      "urrent": 8448,
      " Sn": 8449,
      "olen": 8450,
      " Cru": 8451,
      " anger": 8452,
      " prohib": 8453,
      "elfare": 8454,
      "ika": 8455,
      " formerly": 8456,
      " Special": 8457,
      " Prot": 8458,
      " approached": 8459,
      "appy": 8460,
      " operate": 8461,
      " windows": 8462,
      " silence": 8463,
      " recommended": 8464,
      " passenger": 8465,
      " consistent": 8466,
      " undersc": 8467,
      "/ae": 8468,
      "ao": 8469,
      "rative": 8470,
      "uous": 8471,
      "arl": 8472,
      " Ill": 8473,
      " Call": 8474,
      " Coll": 8475,
      " yn": 8476,
      " Budget": 8477,
      " Pan": 8478,
      " Hamp": 8479,
      "opher": 8480,
      " Food": 8481,
      " seized": 8482,
      "ello": 8483,
      "Thank": 8484,
      " Villa": 8485,
      " indeed": 8486,
      "-for": 8487,
      " extensive": 8488,
      " solutions": 8489,
      " employee": 8490,
      "ography": 8491,
      " honor": 8492,
      " priorit": 8493,
      " analyst": 8494,
      " organisations": 8495,
      " Sudan": 8496,
      " Microsoft": 8497,
      "Dan": 8498,
      "Lab": 8499,
      "front": 8500,
      "rates": 8501,
      " awards": 8502,
      "iti": 8503,
      " thrown": 8504,
      " Som": 8505,
      " stone": 8506,
      " Ros": 8507,
      " Es": 8508,
      " spots": 8509,
      " advent": 8510,
      " reporter": 8511,
      "rows": 8512,
      "lets": 8513,
      " colon": 8514,
      " Pradesh": 8515,
      " hosting": 8516,
      " foods": 8517,
      " meanwhile": 8518,
      " antisemit": 8519,
      " funny": 8520,
      " Nether": 8521,
      " packed": 8522,
      " discover": 8523,
      " stocks": 8524,
      "Everyone": 8525,
      " fatal": 8526,
      "cription": 8527,
      " taste": 8528,
      " guidance": 8529,
      "England": 8530,
      "-K": 8531,
      "-go": 8532,
      "inge": 8533,
      " touc": 8534,
      " drew": 8535,
      "ami": 8536,
      " AFP": 8537,
      " spin": 8538,
      "rous": 8539,
      " Kn": 8540,
      " unprecedented": 8541,
      " sole": 8542,
      "actions": 8543,
      " Str": 8544,
      "load": 8545,
      " quit": 8546,
      "ublin": 8547,
      " underw": 8548,
      " supplies": 8549,
      " winners": 8550,
      " elite": 8551,
      " Administ": 8552,
      " photograp": 8553,
      "ributed": 8554,
      " coaching": 8555,
      " prisoners": 8556,
      " parking": 8557,
      " Broad": 8558,
      "reasury": 8559,
      " universities": 8560,
      "Ob": 8561,
      "Sw": 8562,
      "low": 8563,
      "px": 8564,
      " walls": 8565,
      " ham": 8566,
      " hidden": 8567,
      " hell": 8568,
      " Tal": 8569,
      "ifting": 8570,
      " Hung": 8571,
      "abet": 8572,
      " Wisconsin": 8573,
      " chips": 8574,
      " End": 8575,
      " kiss": 8576,
      " clients": 8577,
      " recruit": 8578,
      " apps": 8579,
      " attending": 8580,
      " tele": 8581,
      "rison": 8582,
      " traff": 8583,
      " locals": 8584,
      " Argent": 8585,
      "ucky": 8586,
      " Anthony": 8587,
      " writes": 8588,
      " breaks": 8589,
      " attempting": 8590,
      " activist": 8591,
      " multi": 8592,
      "-style": 8593,
      " trophy": 8594,
      " calc": 8595,
      " embarr": 8596,
      " survived": 8597,
      " magazine": 8598,
      " consistently": 8599,
      " romantic": 8600,
      " symbol": 8601,
      " Affairs": 8602,
      "-T": 8603,
      "Best": 8604,
      "TA": 8605,
      "pret": 8606,
      "vid": 8607,
      "woman": 8608,
      "որ": 8609,
      "ington": 8610,
      " fault": 8611,
      " gay": 8612,
      "ima": 8613,
      " Pre": 8614,
      "ailed": 8615,
      "ensions": 8616,
      "rency": 8617,
      " defender": 8618,
      " Shah": 8619,
      "rett": 8620,
      "ommy": 8621,
      "enna": 8622,
      " titles": 8623,
      " Benjamin": 8624,
      " remarkable": 8625,
      " flooding": 8626,
      " clothing": 8627,
      " flee": 8628,
      " controversy": 8629,
      " crore": 8630,
      " Bangladesh": 8631,
      "aired": 8632,
      "ito": 8633,
      " pin": 8634,
      " gains": 8635,
      " CC": 8636,
      " Mitchell": 8637,
      " Bas": 8638,
      " Power": 8639,
      "esto": 8640,
      " Die": 8641,
      " units": 8642,
      " unknown": 8643,
      " expansion": 8644,
      " soil": 8645,
      " wanting": 8646,
      " remem": 8647,
      " Newcastle": 8648,
      "ixel": 8649,
      " phase": 8650,
      "182": 8651,
      "-friendly": 8652,
      "ierce": 8653,
      " realise": 8654,
      " reviews": 8655,
      " slowly": 8656,
      " necessarily": 8657,
      "News": 8658,
      " Berlin": 8659,
      " disappointed": 8660,
      " innovation": 8661,
      " experiment": 8662,
      " sem": 8663,
      " cart": 8664,
      " inher": 8665,
      " hide": 8666,
      " gall": 8667,
      "uts": 8668,
      "rog": 8669,
      "igen": 8670,
      " Turn": 8671,
      " Houth": 8672,
      " Global": 8673,
      " shadow": 8674,
      " Fre": 8675,
      " Jess": 8676,
      " suicide": 8677,
      "apes": 8678,
      " recording": 8679,
      "ocks": 8680,
      "rition": 8681,
      "109": 8682,
      " endorse": 8683,
      "phones": 8684,
      " assert": 8685,
      " Why": 8686,
      " breast": 8687,
      " metal": 8688,
      " valuable": 8689,
      " profile": 8690,
      " Labor": 8691,
      " Convention": 8692,
      " Senator": 8693,
      " genocide": 8694,
      " parliamentary": 8695,
      " Anton": 8696,
      "ibrary": 8697,
      "Maybe": 8698,
      "Co": 8699,
      "DC": 8700,
      "Whether": 8701,
      "mother": 8702,
      "rity": 8703,
      "rance": 8704,
      " crown": 8705,
      " pup": 8706,
      " lunch": 8707,
      " reward": 8708,
      "stream": 8709,
      "acter": 8710,
      " stating": 8711,
      " Cost": 8712,
      " Ball": 8713,
      " Bull": 8714,
      " Rights": 8715,
      " Journal": 8716,
      " Kir": 8717,
      " loves": 8718,
      "venue": 8719,
      " Shar": 8720,
      "beat": 8721,
      " brown": 8722,
      " formal": 8723,
      " strongly": 8724,
      " Development": 8725,
      " civilian": 8726,
      " Morning": 8727,
      " initiatives": 8728,
      " duo": 8729,
      " outdoor": 8730,
      "adelphia": 8731,
      " Netherlands": 8732,
      " id": 8733,
      "-E": 8734,
      "Back": 8735,
      "Che": 8736,
      "Mich": 8737,
      "oa": 8738,
      " sits": 8739,
      "ompl": 8740,
      "entle": 8741,
      " stro": 8742,
      " Cele": 8743,
      " Major": 8744,
      " Author": 8745,
      " Bra": 8746,
      " rhet": 8747,
      " UC": 8748,
      " sovere": 8749,
      " Strictly": 8750,
      "pton": 8751,
      " applied": 8752,
      " warnings": 8753,
      "lete": 8754,
      "159": 8755,
      "176": 8756,
      " capabilities": 8757,
      " memories": 8758,
      "annah": 8759,
      "loyd": 8760,
      " counsel": 8761,
      " Davis": 8762,
      " holidays": 8763,
      " predicted": 8764,
      " maintaining": 8765,
      " surviv": 8766,
      " liked": 8767,
      "Russian": 8768,
      "-profile": 8769,
      " appreciate": 8770,
      " obtained": 8771,
      "dog": 8772,
      "mun": 8773,
      " airst": 8774,
      " fulf": 8775,
      " bes": 8776,
      " locked": 8777,
      " gard": 8778,
      " eager": 8779,
      " forms": 8780,
      " Bern": 8781,
      "una": 8782,
      " Hard": 8783,
      "abad": 8784,
      " cancel": 8785,
      " coaches": 8786,
      "ovic": 8787,
      " endors": 8788,
      "phic": 8789,
      " smoke": 8790,
      " insist": 8791,
      " reference": 8792,
      "180": 8793,
      " Rev": 8794,
      " successfully": 8795,
      " walks": 8796,
      "former": 8797,
      "aska": 8798,
      " shocking": 8799,
      " proposals": 8800,
      "Exp": 8801,
      " selected": 8802,
      " Atlantic": 8803,
      " stretch": 8804,
      " overwhelming": 8805,
      " Dodgers": 8806,
      " Houston": 8807,
      ".)\n": 8808,
      "Sant": 8809,
      "bel": 8810,
      "lers": 8811,
      "met": 8812,
      " sch": 8813,
      " cock": 8814,
      " nurs": 8815,
      " gig": 8816,
      " Brian": 8817,
      "umble": 8818,
      " Human": 8819,
      " external": 8820,
      " LGBT": 8821,
      " Education": 8822,
      " butter": 8823,
      "ureau": 8824,
      " contem": 8825,
      " tea": 8826,
      " boats": 8827,
      " creation": 8828,
      " resulting": 8829,
      " humans": 8830,
      " menu": 8831,
      " expecting": 8832,
      " nationwide": 8833,
      " extraordinary": 8834,
      " participants": 8835,
      " Steven": 8836,
      " departure": 8837,
      " elder": 8838,
      " tragedy": 8839,
      "HO": 8840,
      "Mark": 8841,
      "nic": 8842,
      "án": 8843,
      " native": 8844,
      "eting": 8845,
      "eland": 8846,
      " stages": 8847,
      "irts": 8848,
      " Bry": 8849,
      " shirt": 8850,
      " Us": 8851,
      " king": 8852,
      " clim": 8853,
      " disrupt": 8854,
      " Your": 8855,
      " defending": 8856,
      " caps": 8857,
      " adviser": 8858,
      " relevant": 8859,
      " Carter": 8860,
      " momentum": 8861,
      " describe": 8862,
      " badly": 8863,
      " honour": 8864,
      " criticized": 8865,
      " collective": 8866,
      " maintained": 8867,
      " dispute": 8868,
      " Roberts": 8869,
      " promoting": 8870,
      "celona": 8871,
      " copy": 8872,
      " unveiled": 8873,
      " Columbia": 8874,
      "-pl": 8875,
      "zing": 8876,
      " tor": 8877,
      "iners": 8878,
      " welfare": 8879,
      "iture": 8880,
      " foss": 8881,
      " pure": 8882,
      "usive": 8883,
      " Mumbai": 8884,
      "umes": 8885,
      " Well": 8886,
      " Watch": 8887,
      "ubble": 8888,
      " disag": 8889,
      "inted": 8890,
      " anymore": 8891,
      " helicop": 8892,
      " legit": 8893,
      " install": 8894,
      " Reform": 8895,
      "bridge": 8896,
      " experiencing": 8897,
      " correspond": 8898,
      "lobally": 8899,
      " Canadian": 8900,
      " addressing": 8901,
      " Moore": 8902,
      " erup": 8903,
      " premium": 8904,
      " shoppers": 8905,
      " profits": 8906,
      " politician": 8907,
      " Galaxy": 8908,
      " tariffs": 8909,
      " Square": 8910,
      " divorce": 8911,
      " Rwanda": 8912,
      "EW": 8913,
      "ho": 8914,
      " therapy": 8915,
      " barg": 8916,
      " nerv": 8917,
      " gri": 8918,
      "usal": 8919,
      " Book": 8920,
      " Ron": 8921,
      "emed": 8922,
      "quarters": 8923,
      " OK": 8924,
      " unn": 8925,
      " guest": 8926,
      " strict": 8927,
      " filming": 8928,
      " marketing": 8929,
      " Allen": 8930,
      " celebrating": 8931,
      " destination": 8932,
      " basically": 8933,
      " cleaning": 8934,
      " independence": 8935,
      " Laure": 8936,
      " fixed": 8937,
      " prompted": 8938,
      " adopt": 8939,
      " vaccine": 8940,
      " Constitution": 8941,
      " x": 8942,
      " iron": 8943,
      "bal": 8944,
      " tag": 8945,
      " salt": 8946,
      "orge": 8947,
      " hang": 8948,
      "role": 8949,
      " MA": 8950,
      " According": 8951,
      "ules": 8952,
      " ru": 8953,
      " rall": 8954,
      " Dublin": 8955,
      "ework": 8956,
      "loom": 8957,
      " scared": 8958,
      "192": 8959,
      " owns": 8960,
      "156": 8961,
      "178": 8962,
      " efficient": 8963,
      " Represent": 8964,
      " realised": 8965,
      " forest": 8966,
      " letters": 8967,
      " Clinton": 8968,
      " situations": 8969,
      " Polit": 8970,
      " benef": 8971,
      " urgent": 8972,
      " absence": 8973,
      " crossed": 8974,
      " respectively": 8975,
      " satell": 8976,
      " radical": 8977,
      " indicated": 8978,
      " afraid": 8979,
      "062": 8980,
      "father": 8981,
      " theft": 8982,
      "eries": 8983,
      "orous": 8984,
      " furn": 8985,
      " fighters": 8986,
      " moon": 8987,
      " reass": 8988,
      " Cy": 8989,
      " whis": 8990,
      " Reb": 8991,
      " Div": 8992,
      " Energy": 8993,
      " climb": 8994,
      " agricult": 8995,
      "anges": 8996,
      "oviet": 8997,
      " betting": 8998,
      " foundation": 8999,
      " extent": 9000,
      " possession": 9001,
      "aughters": 9002,
      "portion": 9003,
      "ega": 9004,
      " Newsweek": 9005,
      "-winning": 9006,
      " joke": 9007,
      " Adams": 9008,
      " Prog": 9009,
      " begun": 9010,
      " deeper": 9011,
      " grounds": 9012,
      "regon": 9013,
      " combination": 9014,
      " historical": 9015,
      " Murphy": 9016,
      " Golden": 9017,
      " breath": 9018,
      " Hotel": 9019,
      " Walker": 9020,
      "rehensive": 9021,
      "Con": 9022,
      " tweet": 9023,
      " wickets": 9024,
      " mood": 9025,
      " lakh": 9026,
      " yield": 9027,
      " weigh": 9028,
      " Time": 9029,
      " conver": 9030,
      "ctor": 9031,
      " Row": 9032,
      " Girl": 9033,
      " Greg": 9034,
      " shoes": 9035,
      " Luke": 9036,
      " Fort": 9037,
      " Eve": 9038,
      " Opp": 9039,
      "ordon": 9040,
      " log": 9041,
      " loans": 9042,
      "itement": 9043,
      " noise": 9044,
      " indict": 9045,
      "minster": 9046,
      "-foot": 9047,
      "141": 9048,
      "ennifer": 9049,
      " Abu": 9050,
      " demanding": 9051,
      " portray": 9052,
      " drawing": 9053,
      " requirements": 9054,
      " pursue": 9055,
      " exclusive": 9056,
      " displaced": 9057,
      "\"M": 9058,
      "240": 9059,
      "bi": 9060,
      "lah": 9061,
      "math": 9062,
      " tail": 9063,
      " bol": 9064,
      "ione": 9065,
      " Rel": 9066,
      " spons": 9067,
      " heritage": 9068,
      " meals": 9069,
      " contribute": 9070,
      "aval": 9071,
      "Through": 9072,
      " implic": 9073,
      "erving": 9074,
      " deserve": 9075,
      "101": 9076,
      "102": 9077,
      "enez": 9078,
      " cheaper": 9079,
      " swift": 9080,
      " fundra": 9081,
      " Cole": 9082,
      "bbed": 9083,
      " describes": 9084,
      " convin": 9085,
      " participate": 9086,
      " complicated": 9087,
      " vessel": 9088,
      " encounter": 9089,
      " bull": 9090,
      " duties": 9091,
      " IN": 9092,
      " Crown": 9093,
      "andy": 9094,
      " ships": 9095,
      " Fair": 9096,
      "ubbed": 9097,
      " enorm": 9098,
      " resort": 9099,
      " backlash": 9100,
      " shoulder": 9101,
      " infect": 9102,
      " Andy": 9103,
      " Who": 9104,
      " affair": 9105,
      " Southgate": 9106,
      " impacted": 9107,
      " focusing": 9108,
      " residential": 9109,
      " protecting": 9110,
      " colleague": 9111,
      " Medical": 9112,
      " pilot": 9113,
      " involvement": 9114,
      " seventh": 9115,
      "sen": 9116,
      "xic": 9117,
      "ía": 9118,
      "ին": 9119,
      " tort": 9120,
      "hent": 9121,
      " cott": 9122,
      " inev": 9123,
      " hik": 9124,
      "lease": 9125,
      " eighth": 9126,
      "amil": 9127,
      " Ay": 9128,
      " Bru": 9129,
      " Navy": 9130,
      " shr": 9131,
      " Jes": 9132,
      " computer": 9133,
      " Chair": 9134,
      " blank": 9135,
      " warrant": 9136,
      "408": 9137,
      " entre": 9138,
      " passes": 9139,
      "annon": 9140,
      " Mayor": 9141,
      "336": 9142,
      " Austin": 9143,
      "irmingham": 9144,
      " funeral": 9145,
      " impacts": 9146,
      " emerging": 9147,
      " arguing": 9148,
      " criticised": 9149,
      " babies": 9150,
      " Philipp": 9151,
      " Philadelphia": 9152,
      " salary": 9153,
      " Meta": 9154,
      " Robinson": 9155,
      "ottenham": 9156,
      " deployed": 9157,
      "Perhaps": 9158,
      "-owned": 9159,
      "Joe": 9160,
      "OA": 9161,
      "TI": 9162,
      "bing": 9163,
      "host": 9164,
      "mir": 9165,
      "vi": 9166,
      "ել": 9167,
      "oning": 9168,
      " wounded": 9169,
      " pill": 9170,
      "verning": 9171,
      " Cook": 9172,
      " Pitt": 9173,
      "mental": 9174,
      " exceed": 9175,
      " Little": 9176,
      "ardo": 9177,
      " perpet": 9178,
      " scream": 9179,
      " Viet": 9180,
      "501": 9181,
      "304": 9182,
      " smile": 9183,
      " cheese": 9184,
      " subur": 9185,
      " killer": 9186,
      " ballots": 9187,
      "force": 9188,
      " equally": 9189,
      " suffer": 9190,
      " conviction": 9191,
      " Justin": 9192,
      " recognise": 9193,
      " peaceful": 9194,
      " encouraging": 9195,
      " ranked": 9196,
      " updates": 9197,
      " replacement": 9198,
      "-level": 9199,
      " Jamie": 9200,
      " exhibition": 9201,
      "Labour": 9202,
      "\"P": 9203,
      "/c": 9204,
      "Tw": 9205,
      "king": 9206,
      "mission": 9207,
      "xy": 9208,
      "ximately": 9209,
      " tent": 9210,
      " taught": 9211,
      "inos": 9212,
      " pip": 9213,
      "vet": 9214,
      "othe": 9215,
      "aying": 9216,
      "igation": 9217,
      " Cop": 9218,
      " sauce": 9219,
      "ums": 9220,
      "umer": 9221,
      " Rishi": 9222,
      "email": 9223,
      " Gary": 9224,
      "arted": 9225,
      " aftermath": 9226,
      "olds": 9227,
      " knee": 9228,
      " finishing": 9229,
      " highlights": 9230,
      " worldwide": 9231,
      " personally": 9232,
      " Russell": 9233,
      " nights": 9234,
      " viewed": 9235,
      " investigate": 9236,
      "amsung": 9237,
      " lineup": 9238,
      " Commun": 9239,
      " pleased": 9240,
      " dropping": 9241,
      " voices": 9242,
      " perfectly": 9243,
      " normally": 9244,
      " Cameron": 9245,
      " jailed": 9246,
      " petition": 9247,
      "prene": 9248,
      " arrange": 9249,
      " compensation": 9250,
      " convinced": 9251,
      "OU": 9252,
      "rac": 9253,
      " pink": 9254,
      " democratic": 9255,
      "omed": 9256,
      " forcing": 9257,
      " Bol": 9258,
      "unction": 9259,
      " rot": 9260,
      " Rog": 9261,
      " Rachel": 9262,
      " vowed": 9263,
      " Get": 9264,
      " shall": 9265,
      " Lam": 9266,
      " Fern": 9267,
      "ivan": 9268,
      " Kremlin": 9269,
      " Their": 9270,
      "iously": 9271,
      "luding": 9272,
      "ateral": 9273,
      " tragic": 9274,
      " Mrs": 9275,
      " transgender": 9276,
      " facilit": 9277,
      " facts": 9278,
      " capture": 9279,
      " striker": 9280,
      " sustained": 9281,
      "ING": 9282,
      " pregnancy": 9283,
      " pledged": 9284,
      "-scale": 9285,
      " scrutiny": 9286,
      "'S": 9287,
      "bling": 9288,
      "you": 9289,
      "hem": 9290,
      " stolen": 9291,
      " Award": 9292,
      "ulating": 9293,
      " habit": 9294,
      "agh": 9295,
      " Ga": 9296,
      " Ford": 9297,
      " ages": 9298,
      " unw": 9299,
      " decre": 9300,
      " carefully": 9301,
      " speaker": 9302,
      " singing": 9303,
      "333": 9304,
      " construct": 9305,
      " classes": 9306,
      "295": 9307,
      " specialist": 9308,
      " snap": 9309,
      " seeks": 9310,
      " representatives": 9311,
      " ambassador": 9312,
      " applications": 9313,
      " triggered": 9314,
      " brutal": 9315,
      " ...\n": 9316,
      "Out": 9317,
      "rors": 9318,
      "itar": 9319,
      "itled": 9320,
      " bump": 9321,
      " piv": 9322,
      " rely": 9323,
      " stun": 9324,
      " Cra": 9325,
      " ML": 9326,
      " Acc": 9327,
      " Balt": 9328,
      " NBC": 9329,
      " Fred": 9330,
      " Jake": 9331,
      " Ever": 9332,
      " clar": 9333,
      " opens": 9334,
      " phil": 9335,
      "-backed": 9336,
      " membership": 9337,
      "Christ": 9338,
      " pollution": 9339,
      " physically": 9340,
      " reflected": 9341,
      " surrounded": 9342,
      "breaking": 9343,
      " Radio": 9344,
      " liquid": 9345,
      "560": 9346,
      "Each": 9347,
      " ske": 9348,
      "anied": 9349,
      " por": 9350,
      " beaches": 9351,
      "uri": 9352,
      "oli": 9353,
      "riv": 9354,
      " comeb": 9355,
      "early": 9356,
      " Lady": 9357,
      " Jeremy": 9358,
      " outrage": 9359,
      " Three": 9360,
      " undert": 9361,
      " blind": 9362,
      "153": 9363,
      " investing": 9364,
[...]
