{"\n":0," ":1,"!":2,"\"":3,"#":4,"$":5,"%":6,"&":7,"'":8,"(":9,")":10,"*":11,"+":12,",":13,"-":14,".":15,"/":16,"0":17,"1":18,"2":19,"3":20,"4":21,"5":22,"6":23,"7":24,"8":25,"9":26,":":27,";":28,"=":29,">":30,"?":31,"@":32,"A":33,"B":34,"C":35,"D":36,"E":37,"F":38,"G":39,"H":40,"I":41,"J":42,"K":43,"L":44,"M":45,"N":46,"O":47,"P":48,"Q":49,"R":50,"S":51,"T":52,"U":53,"V":54,"W":55,"X":56,"Y":57,"Z":58,"[":59,"\\":60,"]":61,"^":62,"_":63,"`":64,"a":65,"b":66,"c":67,"d":68,"e":69,"f":70,"g":71,"h":72,"i":73,"j":74,"k":75,"l":76,"m":77,"n":78,"o":79,"p":80,"q":81,"r":82,"s":83,"t":84,"u":85,"v":86,"w":87,"x":88,"y":89,"z":90,"~":91,"":92,"":93,"":94,"":95,"¡":96,"£":97,"¥":98,"¦":99,"¨":100,"¬":101,"­":102,"®":103,"°":104,"²":105,"·":106,"¸":107,"º":108,"¼":109,"½":110,"¾":111,"Â":112,"Ä":113,"Å":114,"Ç":115,"É":116,"Î":117,"Ñ":118,"Ö":119,"×":120,"Ø":121,"Û":122,"Ü":123,"ß":124,"à":125,"á":126,"â":127,"ã":128,"ä":129,"å":130,"æ":131,"ç":132,"è":133,"é":134,"ê":135,"ë":136,"í":137,"î":138,"ï":139,"ñ":140,"ó":141,"ö":142,"ø":143,"ù":144,"ú":145,"û":146,"ü":147,"ć":148,"ē":149,"Ğ":150,"ğ":151,"İ":152,"ı":153,"ł":154,"Ş":155,"ş":156,"ƒ":157,"ə":158,"ˆ":159,"̆":160,"̇":161,"̈":162,"̧":163,";":164,"α":165,"μ":166,"Л":167,"а":168,"е":169,"к":170,"н":171,"о":172,"п":173,"с":174,"т":175,"у":176,"і":177,"ا":178,"ة":179,"ح":180,"د":181,"ر":182,"س":183,"غ":184,"ق":185,"ل":186,"م":187,"ن":188,"و":189,"ي":190,"‎":191,"‏":192,"•":193,"‫":194,"‬":195,"′":196,"″":197,"›":198,"€":199,"™":200,"∂":201,"■":202,"◊":203,"●":204,"☮":205,"⭐":206,"️":207,"�":208,"🇷":209,"🇹":210,"🏆":211,"🏻":212,"👍":213,"👑":214,"💋":215,"💧":216,"💰":217,"😁":218,"😊":219,"🙏":220,"n ":221,"e ":222,"ar":223,"a ":224,"er":225,"i ":226,"an":227,"ı ":228,".\n":229,"il":230,"in":231,"al":232,", ":233,"ın":234,"k ":235,"ir":236,"de":237,"an ":238,"lar":239,"el":240,"ay":241,"et":242,"en":243,"in ":244,"da ":245,"as":246,"ak":247,"or":248,"iy":249,"ol":250,"de ":251,"u ":252,"at":253,"am":254,"ler":255,"aş":256,"dı":257,"es":258,"ek":259,"di":260,"ur":261,"ın ":262,"un":263,"ıl":264,"is":265,"on":266,"en ":267,"ve ":268,"bir":269,"em":270,"im":271,"ul":272,"ür":273,"iz":274,"ey":275,"iş":276,"ah":277,"ap":278,"bir ":279,"az":280,"ün":281,"ır":282,"ak ":283,"ör":284,"ik":285," y":286," k":287,"ağ":288,"ab":289,"du":290,"ad":291,"ön":292,"ış":293,"ık":294,"um":295,"ım":296,"it":297,"ac":298," s":299,"ında ":300,"den ":301,"'n":302," b":303,"iç":304,"ed":305,"üz":306,"dan ":307,"le ":308,"ini ":309,"ec":310,"ını ":311,"ıy":312,"aç":313,"ek ":314,"ız":315,"di.\n":316,"ti":317,"er ":318,"ine ":319,"lan":320,"ev":321,"inde ":322,"la ":323,"st":324,"tı":325,"av":326,"un ":327," g":328,"ül":329,"eş":330,"yap":331," m":332,"ik ":333," d":334,"iyor":335,"ına ":336,"adı":337,"uz":338,"baş":339,"ile ":340,"af":341," ve ":342,"li ":343,"oğ":344,"ası ":345,"uş":346,"alar":347,"inin ":348,"kar":349,"ut":350,"ver":351,"lı":352,"ları ":353,"ez":354,"ü ":355,"iler":356,"ist":357,"ğı ":358,"gel":359,"gör":360,"öz":361,"ği ":362,"a, ":363," t":364,"esi ":365,"uy":366,"için ":367,"üm":368,"üy":369,"us":370,"on ":371,"ının ":372,"bu ":373,"bul":374,"Tür":375,"ok":376,"oldu":377,"eç":378,"ün ":379,"et ":380,"ıs":381,"leri ":382,"ından ":383,"iye ":384,"lam":385,"ki ":386,"i, ":387,"dır":388,"bil":389,"dı.\n":390,"op":391,"oy":392,"üş":393,"lı ":394,"ço":395,"ıyor":396,"ük":397,"om":398,"eler":399,"kon":400,"öy":401,"len":402,"ib":403,"aya ":404,"ma ":405,"kan":406,"20":407," h":408,"Türk":409,"tar":410,"olar":411,"id":412,"ede":413,"son":414,"ter":415," de":416," B":417,"ih":418,"olm":419,"çık":420,"ken":421,"ip":422,"öl":423,"ta ":424,"ger":425,"eğ":426,"ya ":427,"aki ":428,"te ":429,"if":430,"ade":431,"art":432," A":433,"olduğ":434," S":435," K":436,"e, ":437,"unu ":438,"ı, ":439,"dir":440,"bel":441,"çok ":442,"uk":443,"gü":444,"tir":445,"ların ":446,"ce ":447,"ot":448,"ilm":449,"yar":450,"eh":451,"kal":452,"Bu ":453,"geç":454,"ada ":455," T":456,"var":457,"li":458,"'nin ":459,"kad":460,"iye":461,"olarak ":462," M":463,"lem":464,"alış":465,"man":466,"ep":467,"aha ":468,"mas":469,"ti.\n":470,"diğ":471,"iyor.\n":472,"acak":473,"etm":474,"'da ":475,"daki ":476,"ık ":477,"sür":478,"iyle ":479,"değ":480,"le":481,"ük ":482,"tı.\n":483,"at ":484,"dur":485,"imiz":486,"bulun":487,"yan":488,"çek":489,"lar ":490,"ro":491,"lik":492,"üzer":493,"tır":494,"ise ":495,"'de ":496,"çalış":497,"deki ":498,"inden ":499,"laş":500,"olan ":501,"up":502,"201":503,"An":504,"uşt":505,"eye ":506,"lık ":507,"belir":508,"ılan ":509,"kay":510,"önem":511,"ildi.\n":512,"aber":513,"alt":514,"asında ":515,"ar ":516,"im ":517,"doğ":518,"lay":519,"ic":520," yıl":521,"eden ":522,"ması ":523,"ort":524,"ıyla ":525,"yon":526,"kul":527,"eni ":528,"ımız":529,"dev":530,"erk":531,"am ":532,"ra ":533,"os":534,"lu":535,"..":536,"'y":537,"san":538,"Türkiye":539,"'ın ":540,", \"":541," yap":542,"karş":543,"diği ":544,"Er":545,"açık":546,"ans":547,"leş":548,"yaş":549,"dik":550,"'in ":551,"alan":552,"acağ":553,"mış":554,"kur":555,"ibi ":556,"gil":557,"Baş":558,"üc":559,"el ":560,"gün":561,"tr":562,"lik ":563,"abil":564,"por":565,": ":566,"ark":567,"yak":568,"üğ":569,"di ":570,"esi":571,"dür":572,"larını ":573," p":574,"daha ":575,"uç":576,"lerin ":577,"ladı":578,"tan":579,"top":580,"ilen ":581,"unda ":582,"isi ":583,"söy":584,"sor":585,"ef":586,"ğr":587,"yön":588,"ayı ":589," G":590,"iyet":591,"let":592,"'nın ":593,"eb":594,"ıyor.\n":595,"yüz":596,"yon ":597,"mak ":598,"bak":599,"üt":600,"lat":601,"gir":602,"ğını ":603,"düş":604,"hal":605,"der":606,"ler ":607,"lu ":608,"ecek":609,"alın":610,"lerini ":611," mil":612,"kanı ":613,"ca ":614,"kat":615,"\" ":616,"mes":617,"ayr":618,"üs":619,"ama ":620,"büy":621,"yer":622,"unun ":623,"tal":624,"00":625,"ten ":626,"Al":627,"lara ":628,"uyor":629,"yıl":630,"dığı ":631,"iz ":632," D":633,"ir.\n":634," H":635,"etk":636,"inc":637,"sonra ":638,"kullan":639,"du.\n":640,"sağ":641,"gö":642,"ard":643,"tak":644,"dem":645,"ülk":646,"an, ":647,"tan ":648,"zam":649,"malar":650,"kap":651,"Cum":652,"ne ":653,"?\n":654,"and":655,"tığı ":656,"una ":657,"cu":658,"taş":659,"ındaki ":660,"etir":661,"hur":662," ed":663,"miş":664,"alı ":665,"AB":666,"ıt":667,"tek":668,"ley":669,"terör":670,"Ar":671,"tür":672,"sah":673,"\" de":674,"ede ":675," bir ":676,"gerek":677,"eri ":678,"İst":679,"sal":680,"acak.\n":681,"gul":682,"öğr":683," ile ":684,"gr":685,"cak ":686,"gen":687,"şek":688,"ilk ":689," bin ":690,"açıklam":691,"üyor":692,"olduğu ":693,"olduğunu ":694,"yol":695," ol":696,"getir":697,"da, ":698,"ven":699,"azet":700,"üks":701,"Bir":702,"duğ":703,"ekt":704,"acak ":705,"taraf":706,"Cumhur":707,"eden":708,"'a ":709,"böl":710,"Öz":711,"hak":712,"ıp":713,"larının ":714," E":715,"den":716,"uştur":717,"etim":718,"say":719,"üp":720,"arak ":721,"vur":722,"ster":723,"ya":724,"güt":725,"düz":726,"me ":727,"esinde ":728,"ilgil":729,"eceğ":730,"büyük ":731,"Türkiye ":732,"yapıl":733,"asyon":734,"anbul":735,"mey":736,"göz":737,"hay":738,"dar":739,"gün ":740,"yüzde ":741," f":742,"İstanbul":743,"cı ":744,"maya ":745,"iyi ":746,"tiğ":747,"par":748,"erek ":749,"oyun":750," yaş":751,"10":752,"kiş":753,"gi ":754,"aat":755,"anı ":756,"uz.\n":757,"iniz":758,"ub":759,"lığ":760,"in, ":761,"mek ":762,"ana ":763,"larda ":764,"şeh":765,"sun":766,"tem":767,"liğ":768,"son ":769,"mak":770,"üç":771,"Bak":772,"olay":773,"enin ":774,"sa ":775,"pol":776,"15":777,"ebil":778,"tut":779,"erb":780,"'ye ":781,"adan ":782," P":783," tar":784,"iki ":785,"eği ":786,"has":787,"lık":788,"cu ":789,"ısı ":790,"yeni ":791,"dım":792," Y":793,"istem":794,"...\n":795,"ayan ":796,"ığ":797,"ask":798,"u.\n":799,"19":800,"bağ":801,"üst":802,"ecek ":803,"eli ":804,"lere ":805,"ilgili ":806,"İl":807,"oz":808,"ardından ":809,", b":810,"ılar":811,"atır":812,"iğ":813,"devam ":814,"met ":815,"örgüt":816,"öyle ":817,"o ":818,"Sur":819,"öğren":820,"ayn":821,"ahç":822,"İn":823,"har":824,"lerinin ":825,"etti.\n":826,"dış":827,"ileri ":828,"Ay":829,"önce ":830,"indeki ":831,"neden":832,"ıldı.\n":833,"sav":834,"sev":835,"aray":836,"bol":837,"belirt":838,"yapılan ":839,"ET":840,"pro":841,"vr":842," kon":843,"ig":844,"diğini ":845,"kadar":846,"yer ":847,"erkez":848,"lar.\n":849,"sır":850,"söyle":851,"yaz":852,"\" dedi.\n":853,"bek":854,"düzen":855,"siz":856,"ip ":857,"gibi ":858,"İs":859,"\" d":860,"Türk ":861,"t ":862,"ken, ":863,"iyat":864,"ade ":865,"değil":866,"larına ":867,"gerçek":868,"si ":869,"mal":870,"iliş":871,"iyas":872,"leri":873,"Kar":874,"yas":875,"sat":876,"ınız":877,"leştir":878,"durum":879,"aj":880,"arasında ":881,"arı ":882,"dü":883,"Ak":884,"her ":885," milyon ":886," kiş":887,"lerine ":888,"uh":889,"'e ":890,"sız":891,"ABD":892,"pr":893,"da":894,"şey":895,"mesi ":896,"ünde ":897,"lendir":898,"sil":899,"üdür":900,"göster":901,"ser":902,"met":903,"göre ":904,"elik ":905,"amam":906,"oyn":907,"duy":908,"söz":909,"!\n":910,"ahal":911,"lığı ":912,"insan":913,"irk":914,"may":915,"ladı.\n":916,"birlik":917,"ım ":918,"maz":919,"Or":920,"dün":921,"de, ":922,"hem":923,"tes":924,"ail":925,"görev":926,"i ve ":927,"anın ":928,"oğlu":929,"lüğ":930,"kor":931,"liği ":932,"uk ":933,"Erdoğ":934,"um.\n":935,"önemli ":936,"'nde ":937,"a'":938,"gelen ":939,"okt":940,"oper":941,"işim":942,"ecek.\n":943,"iştir":944,"mil":945,"çıkar":946,"yal":947,"lerde ":948,"ücade":949,"Rus":950,"karşı ":951,"oldu.\n":952,"od":953,"dest":954,") ":955,"se ":956,"zor":957,"uyor.\n":958,"şekil":959,"vat":960,"u, ":961,"kaz":962,"dön":963," kar":964,"'un ":965,"ın, ":966,"önc":967,"maç":968," Baş":969,"Haber":970,"tık":971,"it ":972,"iler ":973,"man ":974,"yüks":975,"alan ":976,"Gen":977," baş":978,"akik":979,"- S":980,"FET":981,"kaç":982,"saldır":983,"uştu.\n":984,"ilerin ":985,"ilişk":986,"kem":987,"hayat":988,"var.\n":989,"FETÖ":990,"iyet ":991,"duğu ":992,"vrup":993,"\".":994,"ili ":995,"han":996,"azır":997,"eleri ":998,"ank":999," bu ":1000,"Gazet":1001,"özel":1002,"est":1003,"ı'n":1004,"uygul":1005,"biz":1006,"faz":1007,"usu ":1008,"al ":1009,"dim":1010,"lir":1011,"oş":1012,"ov":1013,"adı.\n":1014,"asıl":1015,"esine ":1016,"tiği ":1017,"yay":1018,"Türkiye'nin ":1019,"utbol":1020,"inci ":1021,"Cumhurbaş":1022,"iden ":1023,"güven":1024," (":1025,"'den ":1026,"kan ":1027,"cez":1028,"içinde ":1029,"larında ":1030,"üne ":1031,"a'nın ":1032,"urul":1033,"uğ":1034,"kr":1035,"kam":1036,"asına ":1037,"rak":1038,"düğ":1039,"Yıl":1040,"tarafından ":1041,"bulunan ":1042,"ulaş":1043,"andaş":1044,"tü":1045,"kim":1046,"re ":1047,"azı ":1048,"ektör":1049,"dık":1050,"ust":1051," gör":1052,"a'da ":1053,"tüm":1054,"kes":1055,"sın":1056,"oc":1057,"anda ":1058,"lar, ":1059,"ett":1060,"karşıl":1061,"dis":1062," olm":1063,"ant":1064,"görüş":1065,"rah":1066,"lerinde ":1067,"şekilde ":1068,"üzerine ":1069,"ak, ":1070," ay":1071,"tel":1072,"spor":1073,"urum":1074,"birlikte ":1075,"anan ":1076,"ılı ":1077,"ifade ":1078,"dönem":1079,"zaman ":1080,"det":1081,"eyi ":1082,"mam":1083,"larla ":1084,"- ":1085,"ıc":1086,"altına ":1087,"yaptığı ":1088,"İş":1089,"değer":1090," örgüt":1091,"12":1092,"mer":1093,"lah":1094,"be ":1095,"ırak":1096,"30":1097,"sam":1098,"oj":1099,"ir ":1100,"lü ":1101,"yen":1102,"ifade":1103,"düşün":1104,"KK":1105,"raf":1106,"konuş":1107,"güç":1108,"Bur":1109,"leri\n":1110,"mem":1111,"söyledi.\n":1112,"anlat":1113,"adece ":1114,"polis":1115,"per":1116,"ıda ":1117,"git":1118,"eti ":1119,"alat":1120,"içer":1121,"lanan ":1122,"ken ":1123,"vey":1124,"erör":1125,"erek":1126,"'nun ":1127,"kadar ":1128,"ece ":1129,"iddi":1130,"kayb":1131,"for":1132,"'dan ":1133," son":1134,"Avrup":1135,"aynı ":1136,"dığını ":1137,"hazır":1138,"dığ":1139,"adığı ":1140,"ekip":1141," ş":1142,"lenen ":1143,"men":1144,"iver":1145,"ı ve ":1146,"geçir":1147," de ":1148,"esi\n":1149," gibi ":1150,"hav":1151,"haf":1152,"AR":1153,"çev":1154,"hiç":1155,"likle ":1156,"bölg":1157,"AK":1158,"Ad":1159,"Fen":1160,"doğr":1161,"edef":1162," O":1163,"Gün":1164,"din":1165,"dav":1166,"ugün ":1167," C":1168,"edil":1169,"yür":1170,"tamam":1171,"layan ":1172,"fark":1173,"veya ":1174," değ":1175,"mücade":1176," yer":1177,"vatandaş":1178,"ka ":1179,"sit":1180,"200":1181,"fazla ":1182,"iyar":1183," taraf":1184,"lardan ":1185,"kıs":1186,"ada, ":1187,"karar":1188,"kır":1189,"ımı ":1190,"asını ":1191,"me":1192,"kab":1193,"),":1194,"'te ":1195,"11":1196,"ortaya ":1197,"AN":1198,"ran":1199,"ök":1200,"res":1201,"aları ":1202," ver":1203,"ob":1204,"Gazetesi\n":1205,"ahkem":1206,"dü.\n":1207,"erbahç":1208,"eşik":1209,"Fenerbahç":1210,"ted":1211,"usunda ":1212,"bur":1213,"bar":1214,"dol":1215,"tır.\n":1216,"oloj":1217,"Kon":1218,"fa":1219,"ent":1220,"etkil":1221," ar":1222,"nedeniyle ":1223,"seç":1224,"eşiktaş":1225,"ok ":1226,"PKK":1227,"operasyon":1228,"esini ":1229,"iv":1230,"'ta ":1231,"cü ":1232," Ş":1233,"Em":1234,"esinin ":1235,"aat ":1236,"dır.\n":1237,"ilç":1238,"iste":1239,"mi ":1240,": \"":1241," gün":1242," sür":1243,"konuştu.\n":1244,"mut":1245,"üyor.\n":1246,"Başkanı ":1247,"katıl":1248,"men ":1249,"re":1250,"itim":1251,"üküm":1252,"Ankar":1253,"haber":1254,"ağır":1255,"sin":1256,"meye ":1257," kal":1258,":\n":1259,"edec":1260,"önder":1261,"ağı ":1262,"alatas":1263,"acağı ":1264,"alatasaray":1265,"ag":1266,"bilg":1267,"evl":1268,"tiğini ":1269,"ilmesi ":1270,"üzere ":1271,"ler, ":1272,"larımız":1273," al":1274,"sonr":1275,"Biz":1276,"50":1277,"Tr":1278,"irket":1279,"kö":1280,"cuk":1281,"Has":1282," gel":1283,"sen":1284,"hakk":1285,"her":1286,"harek":1287,"Ün":1288,"muz":1289,"iz.\n":1290,"takım":1291,"şu ":1292,"amp":1293,"çalışmalar":1294,"çocuk":1295,"iyon":1296,"abilir":1297,"osyal":1298,"undan ":1299,"yaklaş":1300,"işlem":1301,"yönelik ":1302,"masını ":1303,"aştır":1304,"uc":1305,"uv":1306,"iht":1307,"Beşiktaş":1308,"14":1309,"ER":1310,"ında, ":1311,"day":1312,"isim":1313,"başar":1314,"Yar":1315,"eler ":1316," yar":1317,"ben":1318,"urt":1319,"\"n":1320,"yardım":1321,"Mil":1322,"Hal":1323,"\" diye ":1324,"kaldır":1325,"geçen ":1326,"omb":1327,"Ancak ":1328,"okul":1329," hal":1330,"las":1331,"acağını ":1332,"..\n":1333,"ilik ":1334,"kadaş":1335,"ılı":1336,"eceği ":1337,"16":1338,"Galatasaray":1339,"i'nin ":1340,"pat":1341,"El":1342,"isinde ":1343," F":1344,"mez":1345," Haber":1346,"As":1347,"göre, ":1348,"iversit":1349,"Dün":1350,"gerçekleştir":1351,"leyen ":1352,"masına ":1353,"ara ":1354,"alık ":1355,"'deki ":1356,"rağ":1357,"mek":1358,"'ne ":1359,"nasıl":1360,"okr":1361,"etic":1362,"trol":1363,"futbol":1364,"pay":1365," maç":1366,"tığ":1367,"ıya ":1368,"ız.\n":1369,"'i ":1370,"anlaş":1371,"larından ":1372,"altına alın":1373,"ahall":1374,"atırım":1375,"tah":1376,"18":1377,"sel":1378,"Cumhurbaşkanı ":1379,"lerinden ":1380,"mü":1381,"çocu":1382,"üph":1383,". ":1384,"ünün ":1385,"Başbak":1386,"\"ın ":1387,"lü":1388,"leri, ":1389,"araç":1390,"atış":1391,"ütün ":1392,"yet":1393,"ülen ":1394,"tekn":1395,"elik":1396,"tarih":1397,"lerden ":1398,"üzerinde ":1399,"kurul":1400,"can":1401,"HP":1402,"Türkiye'de ":1403,"oğlu ":1404,"onom":1405,"üdürlüğ":1406,"kend":1407," Tem":1408,"lid":1409,"tek ":1410,"ize ":1411,"bildir":1412,"ber":1413," milyar":1414,"hedef":1415,"tutuk":1416,"eled":1417,"kazan":1418," dakik":1419,"iyoruz.\n":1420,"atı ":1421,"Bakan":1422,"17":1423,"landı.\n":1424,"lerle ":1425,"sadece ":1426,"imi ":1427,"gram":1428,"tık ":1429," yılında ":1430," \"":1431," olarak ":1432,"eyen ":1433,"acı ":1434," lir":1435,"teş":1436,"adır":1437,"ele ":1438,"tı ":1439,"mayı ":1440,"On":1441,"vek":1442," bul":1443,"an ve ":1444,"mak için ":1445," tarafından ":1446,"'ya ":1447,"eki ":1448,"bas":1449,"25":1450,"siyas":1451,"kapsam":1452,"tep":1453,"tat":1454,"girişim":1455," ç":1456," say":1457,"Lig":1458,"ölüm":1459,"ilere ":1460,"alı":1461,"görün":1462,"rol":1463,"adam":1464,"ibar":1465,"lum":1466,"ancak ":1467,"eceğini ":1468," için ":1469,"tur":1470,"ettiği ":1471,"Genel":1472,"13":1473,"ım.\n":1474,"adde":1475,"lantı":1476,"plan":1477,"arası ":1478,"terör örgüt":1479,"aman ":1480,"yer al":1481," saat":1482,"ekonom":1483,"anlam":1484,"amaz":1485,"bin":1486,"i.\n":1487,"ları, ":1488,"ilmiş":1489," yaşındaki ":1490,"gönder":1491,"adım":1492,"üven":1493,"sistem":1494,"geldi.\n":1495,"ide ":1496,"ucu ":1497,"suç":1498,"Es":1499," Temmuz":1500,"meler":1501,"lis":1502,"obil":1503,"gid":1504,"ünü":1505,"vet":1506,"ümüz":1507,"of":1508,"uzun ":1509," Ar":1510,"asyon ":1511," etm":1512,"kendi ":1513,"unları ":1514,"...":1515,"kez":1516,"gan":1517," n":1518,"Dem":1519,"silah":1520,"atıl":1521,"eder":1522,"Ama ":1523,"ide":1524,"asının ":1525," sor":1526,"ehmet ":1527,"lerimiz":1528,"şehir":1529,"mıştı.\n":1530,"proj":1531,"k.\n":1532,"ıf":1533,"eci ":1534,"manın ":1535,"a ve ":1536," N":1537,"ing":1538,"aban":1539,"deş":1540,"ısında ":1541,"rek":1542,"im.\n":1543,"adığını ":1544,"suz":1545,"ins":1546,"ince ":1547,"aldır":1548,"bırak":1549,"eks":1550," yön":1551,"Hak":1552,"azar":1553,"biri ":1554,"ılık ":1555,"oğraf":1556,"öğrenc":1557,"kabul":1558,"bey":1559," daha ":1560,"cih":1561,"hat":1562,"en, ":1563,"millet":1564,"'yi ":1565,"olmak ":1566,"ası":1567,"itibar":1568,"yok":1569,"dan":1570,"devlet":1571,"alarında ":1572,"ıcı ":1573,"değerlendir":1574,"mu":1575,"itir":1576,"bazı ":1577," kişi ":1578,"ünü ":1579,"ret":1580," TL":1581," tarih":1582,"luğ":1583,"edilen ":1584,"afa ":1585,"kendis":1586,"terörist":1587,"ilişkin ":1588,"çi ":1589,"çıktı.\n":1590,"ölg":1591,"his":1592,"il ":1593,"paylaş":1594,"İz":1595,"esi, ":1596," Başkanı ":1597,"an'ın ":1598,"sık":1599,"ilg":1600,"ann":1601,"eg":1602,"şirket":1603,"isti":1604,"üb":1605,"ekli ":1606,"değiş":1607,"Suriye":1608,"müş":1609,"otom":1610,"açıl":1611," da ":1612,"tedav":1613,"olur":1614,"uyla ":1615,"tir.\n":1616,"oğlu, ":1617,"DE":1618,"hiz":1619,"başlat":1620,"geliş":1621,"du ":1622,"dağ":1623," kul":1624,"hız":1625,"esi'nde ":1626,"eski ":1627,"ağr":1628,"muş":1629,"nak":1630,"kent":1631,"diğer ":1632,"başka ":1633,"ını, ":1634,"edildi.\n":1635,"Terör":1636,"verdi.\n":1637,"Doğ":1638,"iyorum.\n":1639,"siniz":1640,"belirten ":1641,"hep":1642,"bab":1643,"orum":1644,"izin ":1645,"ünk":1646,"oluştur":1647,"net":1648,"kontrol":1649,"neden ":1650,"sey":1651," kur":1652,"erj":1653,", bu ":1654,"avaş":1655,"olduk":1656,"ıca ":1657,"şöyle ":1658,"kat ":1659,"han ":1660,"ült":1661,"hes":1662,"cel":1663,"izi ":1664,"DA":1665,"görül":1666,"kız":1667,"Par":1668,"gol":1669,", S":1670,"bulunduğu ":1671,"'ı ":1672,"çe ":1673,"arkadaş":1674,"doğru ":1675,"dün ":1676,"güvenlik ":1677,"üyük":1678,"öldür":1679,"Den":1680,"En":1681,"lük ":1682,"erkes":1683,"luk ":1684,"sak":1685," diye ":1686,", M":1687,"olu ":1688,"yüksek ":1689,"edi":1690,"dolar":1691,"Pro":1692,"onu ":1693,"Eğ":1694,"ya da ":1695,"mir":1696,"ini, ":1697,"omut":1698,"u'n":1699,"ça ":1700,"sürdür":1701,"hangi ":1702,"uslar":1703,"Ben ":1704,"dil":1705,"ali ":1706,"teh":1707,"pan":1708,"çöz":1709,"yatırım":1710,"lak":1711,"soruştur":1712,"dir.\n":1713,"edi ":1714,"uygulam":1715,"ülkeler":1716,"yaklaşık ":1717,"ekn":1718,"farklı ":1719,"çıkan ":1720,"ost":1721," kad":1722,"masının ":1723,"incel":1724,"ılması ":1725,"çar":1726,"ers":1727," gö":1728,"tör":1729,"konu":1730,"dül":1731," edil":1732,"tesp":1733,"Avrupa ":1734,"az ":1735,"lama ":1736,"Ah":1737,"film":1738,"engel":1739," sır":1740,"olis":1741,"adığ":1742,"İngil":1743,"etin ":1744,"imz":1745,"bile ":1746,"sez":1747,"adın ":1748,"ateş":1749,"ikinci ":1750,"ültür":1751,"genç":1752,"ihtiy":1753,"part":1754,"zaman":1755,"inan":1756,"e ve ":1757,"uslararası ":1758,"dikkat ":1759,"kil":1760,"üf":1761,"ast":1762,"24":1763,"seb":1764,"'daki ":1765,"a'ya ":1766,"artış":1767,"rağmen ":1768,"100":1769,"oluş":1770,"ılığ":1771,"abz":1772,"rar":1773," sah":1774,"ziyar":1775,"koy":1776,"sınır":1777,"fin":1778,"Son ":1779,"gazet":1780,"imdi ":1781,"özcü ":1782,"otoğraf":1783," R":1784,"yüksel":1785,"yapan ":1786,"ler.\n":1787,"asker":1788,"tab":1789,"adık":1790,"Üniversit":1791,"alarda ":1792,"erken ":1793,"birçok ":1794,"su ":1795,"şam":1796,"bir şey":1797,"ayas":1798," Ç":1799,"dız":1800,"hastan":1801,"yaşam":1802,"larıyla ":1803,"süre ":1804,"eğitim":1805,"kol":1806,"Tur":1807,"diz":1808,"sar":1809,"ses":1810,"özcü Gazetesi\n":1811,"Kay":1812,"- Sözcü Gazetesi\n":1813,"İL":1814," gün ":1815,"ici ":1816,"açıklamada, ":1817,"vurgul":1818,"Zaman ":1819,"i'nde ":1820,"beklen":1821,"Mehmet ":1822,"elç":1823,"zar":1824,"dana ":1825,"isyon":1826,"Top":1827,"diş":1828,"Yıldır":1829,"inde":1830," V":1831,"akım":1832,"altında ":1833,"aliyet":1834,"yanın ":1835," top":1836,"destek ":1837,"Haberleri\n":1838,"Ön":1839,"bulundu.\n":1840,"Os":1841,"abilir.\n":1842,"Müdürlüğ":1843,"tığını ":1844,"bomb":1845,"işleri ":1846,"ünc":1847,"ebilir":1848," c":1849,"AT":1850,"e'nin ":1851,"nokt":1852,"yaşan":1853,"ustafa ":1854,"şekl":1855,"ya'da ":1856,"Dav":1857,"merkez":1858,"hen":1859,"alık":1860," Haberleri\n":1861," dolar":1862,"iyorum":1863,"22":1864,"toplam":1865,"dı ":1866,"AŞ":1867,"bağlı ":1868,"iği ":1869,"mar":1870,"aber ":1871,"inde, ":1872,"ete ":1873,"ek, ":1874,"umuz":1875,"a.\n":1876,"adı ":1877,"Bakanı ":1878," karş":1879,"evlet ":1880,"ıları ":1881,"Uz":1882,"sosyal":1883,"abah":1884,"ya'nın ":1885,"tas":1886,"AL":1887,"hüküm":1888,"aldı.\n":1889,"aday":1890,"isini ":1891,"artır":1892,"darbe ":1893,"indir":1894,"yoğ":1895,"ü, ":1896,"mek için ":1897,"hakkında ":1898,"gür":1899,"alg":1900,"leriyle ":1901,"min":1902,"mücadele ":1903,"CHP":1904,"konusunda ":1905,"güz":1906,"Hav":1907,"ekted":1908,"a da ":1909,"isinin ":1910,"savun":1911,"elek":1912," hak":1913,"aktar":1914,"üzerinden ":1915,"car":1916,"med":1917,"del":1918,"yürüt":1919,"bugün ":1920,"ram":1921,"; ":1922,"\" diye konuştu.\n":1923,"uğr":1924,"Alman":1925,"aların ":1926,"geri ":1927,"merik":1928,"a M":1929,"sun ":1930,"Türkiye'ye ":1931,"tik":1932,"karar ":1933," bel":1934,"genel":1935,"kür":1936,"yakın ":1937," yüz":1938,"yeniden ":1939,"onun ":1940,"oç":1941," kap":1942,"yönetim":1943,"ediyor.\n":1944,"tük":1945,"başladı.\n":1946,"İN":1947," kay":1948,"gözaltına alın":1949,"şüph":1950,"niyet ":1951,"ünden ":1952,"adır.\n":1953,"anlar":1954,"rans":1955," dedi.\n":1956,"40":1957,"andır":1958,"lul":1959," sağ":1960,"21":1961,"cısı ":1962,"ı.\n":1963,"uvvet":1964,"bölüm":1965,"Bunun ":1966,"bet":1967,"abzon":1968," haf":1969,"ugün":1970,"üvenlik ":1971,"ma":1972,"amay":1973,"lendi.\n":1974,"arac":1975,"enel":1976,"urulu ":1977,"Geç":1978,"og":1979,"Başbakan ":1980,"ı'nın ":1981,"fiyat":1982,"başvur":1983,"yem":1984,"ile getir":1985,"Ör":1986," geç":1987,"ıyoruz.\n":1988,"23":1989,"yada ":1990,"mız":1991,"dikkat":1992,"Yeni ":1993,"yayın":1994,"Yıldırım":1995,"Ab":1996,"apor":1997,"asındaki ":1998,"eşit":1999,"ren":2000,"sok":2001,"iş ":2002,"dim.\n":2003,"tiv":2004,"kapsamında ":2005,"idir.\n":2006,"Yap":2007,"kayde":2008,"ris":2009,"hafta ":2010,"veril":2011,"le, ":2012,"telef":2013,"Hastan":2014,"fer":2015,"' ":2016,"tan sonra ":2017,"esiyle ":2018,"ladığı ":2019,"tart":2020," değil":2021," Şub":2022,"Mar":2023,"niyet":2024,"eylem":2025,"cev":2026,"mo":2027,"savaş":2028,"oran":2029,"ülke ":2030,"halk":2031,"iyoruz":2032,"belirter":2033," aç":2034," An":2035,"belirtildi.\n":2036,"ınca ":2037,"landır":2038,"Suriye ":2039,"ı'nda ":2040,"dah":2041,"ampiyon":2042,"Br":2043,"mev":2044,"götür":2045,"ani ":2046,"eme ":2047,"Daha ":2048," düz":2049,"uf":2050,"tiğimiz":2051,"tartış":2052," sev":2053,"laştır":2054,"Gül":2055,"yağ":2056,"dik.\n":2057,"tif":2058,"karşılaş":2059,"otomobil":2060,"Bun":2061,"izm":2062," Al":2063,"kullandı.\n":2064,"Gaz":2065,"eştir":2066,"okras":2067,"elim":2068," kaz":2069,"böyle ":2070,"yine ":2071,"araştır":2072,"itik":2073,"sı ":2074,"yerine ":2075,"başkan":2076,".,":2077,"sonuç":2078,"Ken":2079,"elerin ":2080,"Devlet ":2081,"luk":2082," yapıl":2083,"dile getir":2084,"sahip":2085,"içerisinde ":2086," göster":2087,"San":2088,"bütün ":2089,"en büyük ":2090,"olum":2091,"artık ":2092,"ettik":2093,"yum":2094,"siniz.\n":2095," olan ":2096,"olması ":2097," ger":2098,"kişi ":2099,"Ol":2100,"ch":2101,"e getir":2102,"ift":2103,"kav":2104,"rahat":2105,"Şeh":2106,"da.\n":2107,"Tar":2108,"özellikle ":2109,"tespit":2110,"meydana ":2111,"dikkat çek":2112,"Bil":2113,"hatır":2114,"mişti.\n":2115,"ci ":2116,"gar":2117,"yaptı.\n":2118,"dan, ":2119,"er, ":2120,"alam":2121," saldır":2122,"fotoğraf":2123,"müz":2124,"üçük ":2125,"hey":2126,"anların ":2127,"savc":2128,"sahip ":2129,"verdiği ":2130,"etmek ":2131,"belirtti.\n":2132,"oyuncu":2133,"ilerine ":2134,"asıyla ":2135,"teki ":2136,"saat":2137," kil":2138,"Rusya ":2139,"Der":2140,"Kan":2141,"alim":2142,"dahal":2143,"Ben":2144,"inş":2145,"ledi.\n":2146," kat":2147,"destek":2148,"ihr":2149,"kararı ":2150,"grup":2151,"veren ":2152," med":2153,"Trabzon":2154," kullan":2155,"En ":2156,"Amerik":2157,"satış":2158,"düzenlenen ":2159,"gerçekleş":2160,"kısa ":2161,"öğrenildi.\n":2162,"konom":2163,"ını kayb":2164,"BM":2165," konusu ":2166,"ıyı ":2167," gerek":2168,"yaralan":2169,"Bar":2170,"dönüş":2171,"- Zaman ":2172,"- Zaman Gazetesi\n":2173,"kaydet":2174," at":2175,"leri - Zaman Gazetesi\n":2176," düş":2177,"Ahmet ":2178,"para ":2179,"sol":2180,"Olay":2181,"iler.\n":2182,"Cumhurbaşkan":2183,"bayr":2184,"fır":2185,"bilin":2186,"dikleri ":2187," İ":2188,"trans":2189,"hastal":2190,"Fenerbahçe ":2191,"leme ":2192,"Özel":2193,"aret ":2194,"Cumhuriyet ":2195,"Ayr":2196,"'nün ":2197,"yakalan":2198,"ektedir.\n":2199,"program":2200,"Çünk":2201," ama ":2202,"geler":2203,"çocuğ":2204,"madan ":2205,"li bir ":2206,"Her ":2207,"büyük bir ":2208,"gun ":2209,"dı\n":2210,"adaki ":2211,"devr":2212,"Bey":2213,"Ali ":2214,"28":2215,"elediy":2216,"kom":2217,"etti":2218,"Cumhuriyet":2219,"atik ":2220,"Frans":2221,"- Spor":2222,"- Spor Haberleri\n":2223,"ilerinin ":2224,"yer alan ":2225,"bor":2226,"ı\"n":2227,"mahkem":2228,"ödem":2229,"cid":2230,"van":2231,"elere ":2232,"iliğ":2233,"otur":2234,"şeklinde ":2235,".'":2236,"can ":2237,"esel":2238,"\" s":2239,"ham":2240,"toplantı":2241,"sağlık ":2242,"e'de ":2243,"yarg":2244,"'u ":2245,"amac":2246,"Hay":2247,"taki ":2248," bil":2249,"hizmet":2250,"herkes":2251,"köy":2252,"lı bir ":2253,"mak ist":2254,"lif":2255,"kas":2256,"liy":2257,"dışında ":2258,"Mustafa ":2259,"uzey":2260," yıl ":2261,"üsü ":2262," terör":2263,"eng":2264,"gündem":2265," dönem":2266," durum":2267,"r.":2268,"u'nun ":2269," san":2270," var":2271,"kut":2272,"a çık":2273,"ayet":2274,"oyunc":2275,"açık ":2276,"maya çalış":2277,"Ağ":2278,"ır.\n":2279,"üretim":2280,"ört":2281,"iler, ":2282,"ılıç":2283,"diğimiz":2284,"Kür":2285,"elde ":2286,"Son":2287,"atç":2288,"uyar":2289,"alınan ":2290,"en bir ":2291," dün":2292,"hiçbir ":2293,"Ser":2294,"ümk":2295,"IŞ":2296,"muh":2297,"öyl":2298,"yakın":2299,"faaliyet":2300,"duğunu ":2301,"TL":2302,"ner":2303,"kurum":2304,"ayın ":2305," merkez":2306,"Erdoğan":2307,"in.\n":2308,"özel ":2309,"çevr":2310,"Fet":2311," ki ":2312,"ları ve ":2313,"bit":2314,"ens":2315,"60":2316,"Ül":2317,"inter":2318,"hem de ":2319,"ahs":2320,"önceki ":2321,"Av":2322,"fir":2323," bırak":2324,"ilerini ":2325,"'yı ":2326,"27":2327,"dük":2328,"ine, ":2329,"ivil":2330,"kurtar":2331," ken":2332," pu":2333,"mesini ":2334,"cam":2335,"gal":2336,"bakır":2337,"elektr":2338,"mada ":2339,"çarp":2340,"cen":2341,"edi.\n":2342,"dum":2343,"Antal":2344,"Allah":2345,"bun":2346,"teknik ":2347,"ge ":2348,"YD":2349," dev":2350,"diklerini ":2351,"Az":2352," L":2353,"ayrıl":2354,"Ul":2355,"tü.\n":2356,"İzmir":2357,"ıların ":2358,"int":2359,"duk":2360,"bunu ":2361,"kı ":2362,"giy":2363,"la, ":2364,"edeki ":2365,"ump":2366,". dakik":2367,"hava ":2368,"ı sır":2369,"eclis":2370,"dam":2371,"kullanıl":2372,"yana ":2373,"Spor":2374,"enerj":2375,"imizin ":2376,"Ankara ":2377," ise ":2378,"Hol":2379,"ulan ":2380,"ürün":2381," bulun":2382,"Har":2383,"huk":2384,"uzak":2385,"üyük ":2386,"rapor":2387," yol":2388,"şehit":2389,"Deniz":2390,"Demir":2391,"esinden ":2392,"yaşanan ":2393,"İlk ":2394,"ya, ":2395,"Fat":2396,"bir ar":2397,"iyarbakır":2398," met":2399,"Merkez":2400,"altı ":2401,"acağız.\n":2402,"sorum":2403,"askeri ":2404,"EN":2405,"26":2406,"laz":2407,"mağ":2408,"etkis":2409,"iddia ":2410,"çiz":2411,", K":2412,"lerce ":2413,"ması gerek":2414,"makt":2415,"kın":2416,"şunları ":2417,"ri ":2418,"sevk ":2419,"adına ":2420,"benz":2421,"çocuk ":2422,"aşır":2423,"önetim":2424,"akşam":2425," yak":2426,"kit":2427,"Davut":2428," -":2429,"Mahall":2430,"bank":2431,"ceza ":2432,"İç":2433,"andar":2434," yaz":2435,"ıp ":2436,"ten sonra ":2437,"FA":2438,"sezon ":2439,")\n":2440," v":2441,"eleştir":2442,"değiştir":2443,"AK P":2444,"ı-":2445," pro":2446,"Genç":2447,"AS":2448,"\" ifade":2449,"insan ":2450,"olmak üzere ":2451,"ası, ":2452,"zamanda ":2453,"ısına ":2454,"esi'ne ":2455,"hayatını kayb":2456,"unuz":2457,"ait":2458,"abancı ":2459,"boz":2460,"ullah":2461,"İşte ":2462,"Milli ":2463,"edilm":2464,"silc":2465,"i'n":2466,"İk":2467,"EŞ":2468,"alım":2469,"Ev":2470,"IN":2471,"mesaj":2472,"\" diy":2473,"boş":2474,"\",":2475,"çatış":2476,"öne ":2477,"kardeş":2478,"lül":2479,"İD":2480,"an K":2481,"kenin ":2482," Mart":2483,"OR":2484,"pek ":2485,"Çok ":2486,"amız":2487,"müdahal":2488,"ı'na ":2489,"ırken, ":2490," tut":2491,"sayıda ":2492,"29":2493,"br":2494,"saat ":2495,"dönemde ":2496,"vekili ":2497,"mad":2498,"ko":2499,"organ":2500," yok":2501,"meyi ":2502,"okun":2503,"önemli bir ":2504,"diğer":2505,"imizi ":2506,"yeni bir ":2507,"Eur":2508,"def":2509,"toplum":2510,"Sav":2511,"bask":2512,"lek":2513,"erbest":2514,"let ":2515,"duyur":2516,"hiss":2517,"Sar":2518,"arti ":2519," Genel":2520,"Trabzonspor":2521,"anlı":2522,"birbir":2523,"ile ilgili ":2524,"yanı sır":2525,"üper ":2526,"ha":2527,"Yardım":2528,"tav":2529,"ona ":2530,"başladı":2531,"ığın":2532,"mac":2533,"ısını ":2534,"lig":2535,"199":2536,"alet":2537,"muhal":2538,"Diyarbakır":2539,"Gök":2540,"rik":2541,"ısından ":2542,"ın.\n":2543,"önünde ":2544,"İlç":2545,"soruşturma ":2546,"Gör":2547,"Oy":2548,"oh":2549,"Dev":2550,"Polis":2551,"500":2552,"tay":2553,"anlar ":2554,"çalışma ":2555,"siyasi ":2556,"dünya ":2557,"üdürü ":2558," iş":2559,"İstanbul'da ":2560,"emiz":2561,"sorun":2562,"kapat":2563,"di, ":2564,"diye ":2565,"en çok ":2566,"hangi bir ":2567,"orta ":2568,"değil, ":2569,"dışı ":2570,"Dünya ":2571,"Kur":2572,"kir":2573,"ıç":2574,"şid":2575,"mümk":2576,"isine ":2577,"oyunca ":2578,"kaynak":2579,"edecek":2580,"siy":2581,"Büyük":2582,"ayy":2583,"başlayan ":2584,"acaktır.\n":2585,"acağız":2586,"elen":2587,"sonucu ":2588,"di\n":2589,"tercih":2590,"ciddi ":2591,"DP":2592,"ES":2593,"aldığı ":2594,"an bir ":2595,"gelir":2596,"yoğun ":2597,"kadın":2598," har":2599,"uluslararası ":2600,"ticar":2601,"uyu ":2602,"un, ":2603,"yat":2604,"is ":2605,"seçim":2606,"kolay":2607,"ettiğini ":2608,"45":2609," der":2610,"inç":2611,"lediği ":2612,"alara ":2613,"fes":2614,"kadın ":2615,"ma, ":2616,"bilgi ":2617,"günü ":2618,"mel":2619,"ortak ":2620,"İslam":2621,"asından ":2622,"yıl ":2623,"taraftar":2624,"itibaren ":2625,"olacak.\n":2626,"lider":2627,"Erdoğan ":2628,"Ayrıca ":2629,"ecep":2630,"ısının ":2631,"dolayı ":2632,"iye, ":2633," lira ":2634,"akat":2635,"lo":2636,"u ve ":2637,"mıştır.\n":2638,"ele geçir":2639,"ubu ":2640,"lar ve ":2641,"değil.\n":2642,"uygun ":2643,"ii ":2644,"ilah":2645,"Yun":2646,"bes":2647,"başı ":2648,"uygulan":2649,"Ber":2650,"'li ":2651," ser":2652,"e.\n":2653,"sonrası ":2654,"giriş":2655,"ısıyla ":2656,"elerinin ":2657," fiyat":2658,"'ün ":2659,"erli ":2660,"Hat":2661,"Kal":2662,"lim ":2663,"ur.\n":2664,"rak ":2665,"ilik":2666,"ılık":2667,"ımızı ":2668,"sektör":2669," kr":2670," yerine ":2671," sistem":2672,"basın ":2673,"emal":2674,"mesine ":2675,"kişinin ":2676,"ay ":2677,"avuk":2678,"üret":2679," Bak":2680,"piyas":2681,"Mer":2682,"maları ":2683,"ks":2684,"ayd":2685,"yarış":2686,"ımız ":2687,"kah":2688,"istan":2689,"uya ":2690,"oloji ":2691,"talep":2692,"Başkan":2693,"hemen ":2694,"istih":2695,"esi'n":2696,"Gr":2697,"ıma ":2698,"cenaz":2699," Mil":2700,"düny":2701,"35":2702,"ediyor":2703,"Söz":2704,"Sağ":2705,"çoğ":2706,"Osman":2707,"Örgüt":2708,"çeşit":2709,"adet":2710,"boy":2711,"madı.\n":2712,"kalan ":2713,"erek, ":2714,"nit":2715,"Dış":2716,"küçük ":2717,"çağr":2718,"elediye ":2719,"İR":2720,"ayyip ":2721,"lüm":2722,"ı\n":2723,"birliği ":2724,"Erdoğan, ":2725,"bunun ":2726,"ödül":2727,"in ve ":2728,"tasar":2729,"başlay":2730,"oktor":2731,"ıyorum.\n":2732,"söyl":2733,"önlem":2734,"örn":2735,"adlı ":2736,"vekil":2737,"konomi ":2738,"şart":2739,"ayıs":2740,"ması, ":2741,"ait ":2742,"şehit ":2743,"kırmız":2744,"'tan ":2745,"öner":2746,"öğretm":2747,"verilen ":2748,"söyleyen ":2749,"arbe ":2750,"TÜ":2751,"istik":2752," hakk":2753,"90":2754,"tik ":2755,"Ort":2756,"Üniversitesi ":2757,"liğini ":2758,"çözüm":2759,"At":2760,"ye ":2761,"geliştir":2762,"tedavi ":2763,"adem":2764,"teklif":2765,"ben ":2766,"ark ":2767,"yaptık":2768,"Kaz":2769,"Per":2770,"cil":2771,"sa, ":2772,"IR":2773,"arak, ":2774,"in'in ":2775,"aba ":2776,"ene ":2777,"sağlam":2778,"ud":2779," üy":2780,"AY":2781,"ücret":2782,"hesap":2783," Kurulu ":2784,"la":2785,"ülkenin ":2786,"antep":2787,"kıy":2788,"uar":2789,"öv":2790,"başına ":2791,"tehdi":2792,"İngilter":2793,"ej":2794,"eviz":2795,"lerini kullandı.\n":2796,"i\n":2797,"sel ":2798,"gec":2799,"lim":2800,"yi ":2801,"ıdır.\n":2802,"zat":2803,"ekl":2804,"ek için ":2805,"alarının ":2806,"resmi ":2807,"sini ":2808,"siz ":2809,"ormal":2810,"alarını ":2811,"kış":2812,"çek ":2813,"omet":2814,"edeceğ":2815,"ması için ":2816,"anları ":2817,"çok sayıda ":2818," oldu.\n":2819,"traf":2820,"i?\n":2821," doğ":2822,"Recep":2823,"karış":2824," gr":2825,"koş":2826,"Bakanlığ":2827,"tü ":2828,"tatür":2829,"terör örgütü ":2830,"şik":2831,"ihrac":2832,"Bugün ":2833,"akıl":2834,"esn":2835," sonr":2836,"Sam":2837,"list":2838,"yanı sıra ":2839,"min ":2840,"o, ":2841,"HDP":2842,"gece ":2843,"söylem":2844,"\"S":2845,"nı ":2846,"Gel":2847,"meden ":2848," hay":2849,"'la ":2850,"sem":2851,"çift":2852,"abilm":2853," tel":2854,"pazar":2855," gol":2856,"UR":2857,"lak ":2858,"ıldığı ":2859,"sı":2860,"zem":2861,"darbe girişim":2862,"Yak":2863,"Zir":2864," yan":2865,"oyuncu ":2866,"O ":2867,"PYD":2868,"dal":2869,"ij":2870,"mayan ":2871,"verildi.\n":2872,"parç":2873,"hatırlat":2874,"70":2875,"iantep":2876," kan":2877,"demir":2878,"Yılmaz":2879,"Şu ":2880,"IŞİD":2881,"Anad":2882,"sas":2883,"ündeki ":2884," milyar dolar":2885,"SK":2886,"sivil":2887,"yurt":2888,"ırken ":2889,"one ":2890,"edir":2891,"forman":2892,"dı, ":2893,"sırasında ":2894,"hareket":2895,"açıkladı.\n":2896,"andarma ":2897,"mı ":2898,"alama ":2899,"eşi ":2900,"eğin ":2901,"çalışan ":2902,"cevap":2903,"Kom":2904,"Şub":2905,"'ten ":2906,"Şimdi ":2907,"manı ":2908,"Af":2909,"lış":2910,"ref":2911,"sig":2912,"İK":2913," yen":2914,"evi ":2915,"etmiş":2916,"açıklama ":2917,"sur":2918,"sabah":2919,"toplan":2920,"değişik":2921,"başlam":2922,"nedenle ":2923,"tüğ":2924," sın":2925,"internet":2926,"ow":2927,"amı ":2928,"yaşayan ":2929,"niyet Müdürlüğ":2930," Kar":2931,"süreç":2932," edilen ":2933,"toplam ":2934," göz":2935,"inizi ":2936,"ekipleri ":2937," il":2938,"ayrı ":2939,"cum":2940,"eve ":2941,"özgür":2942,"Kır":2943,"başında ":2944,"İki ":2945,"etkili ":2946,"darb":2947," kişinin ":2948,"ığı ":2949,"yanında ":2950,"operasyon ":2951,"düşünüyor":2952,"bilgiye ":2953,"yetkil":2954,"etrol":2955,"amaç":2956,"konuda ":2957,"Yüks":2958,"a'daki ":2959," olduğunu ":2960,"soy":2961,"eknik ":2962,"İT":2963,". dakikada ":2964,"imize ":2965,"Alt":2966," kazan":2967,"en önemli ":2968,"nin ":2969,"düğü ":2970,"Biz ":2971,"daha fazla ":2972,"Ne ":2973,"e-":2974,"letm":2975,"net ":2976,"en ve ":2977,"masıyla ":2978,"Man":2979,"mek ist":2980,"sanız":2981,"dair":2982,"edebil":2983,", T":2984,"Koç":2985,"diy":2986,"elerde ":2987,"rej":2988,"ihtiyaç":2989,"Bel":2990,"EM":2991,"inin, ":2992,"yandan ":2993," hale getir":2994,"şark":2995,"durdur":2996,"tutuklan":2997,"mült":2998,"serbest":2999,"istan ":3000,"iliyor.\n":3001,"temiz":3002,"üldü.\n":3003,"ekonomik ":3004,"üyle ":3005,"EL":3006,"ek, \"":3007,"sık ":3008,"ön ":3009,"dıkları ":3010,"ortaya çık":3011,"üper Lig":3012," has":3013,"Suriy":3014,"herhangi bir ":3015,"İY":3016,"ler\n":3017,"milli ":3018,"İr":3019,". D":3020,"Bahç":3021,"poz":3022,"düşür":3023,"İd":3024,"ılar ":3025,"unut":3026,"masında ":3027,"tüm ":3028,"amacıyla ":3029,"St":3030,"mer ":3031,"ork":3032,"amel":3033,"ler ve ":3034,"demokras":3035," etti.\n":3036,"Mur":3037,"san ":3038,"ılmış":3039,"dünyanın ":3040,"Ot":3041,"avuş":3042,"Fatih":3043,"ayında ":3044,"obüs":3045,"air":3046,"giz":3047,"gül":3048,"ak için ":3049,"la ilgili ":3050," den":3051," sektör":3052,"yarat":3053,"canlı ":3054,"leri ve ":3055,"yok.\n":3056,"Muh":3057,"tam ":3058," kes":3059,"bugün":3060,"yıldız":3061,"ıdan ":3062,"ılan":3063,"alarına ":3064,"hast":3065,"addes":3066,"şiddet":3067,"lıklı ":3068,"kuruluş":3069,"bir araya ":3070,"kâ":3071,"ıştı.\n":3072,"teslim ":3073,"uğu ":3074,"Ek":3075,"aret":3076,"asın":3077,"bu yana ":3078,"Ob":3079," kurul":3080,"DAEŞ":3081,"al, ":3082,"alarak ":3083,"güzel":3084,"bat":3085," bölg":3086,"Yardımcısı ":3087,"Futbol":3088,"beraber":3089,"dip":3090,"iktar":3091,"olmayan ":3092," belir":3093,"Yaş":3094,"İtal":3095,"akta ":3096," Ak":3097,"yanıt":3098," Başkan":3099,"sıkın":3100,"Prof":3101,"Gaziantep":3102," Haberleri - Zaman Gazetesi\n":3103,"EK":3104,"ST":3105,"lıyor.\n":3106,"ılıçdar":3107,"80":3108,"fer ":3109,"akt":3110,"işi ":3111,"korum":3112,"Val":3113,"ivar":3114,"anış":3115," yapan ":3116,"Kam":3117," kez":3118,"sağlan":3119,"büyüm":3120,"ıyoruz":3121,"ücü ":3122,"üslüm":3123,"elerini ":3124,"imza ":3125,"giden ":3126,"lük":3127,"rail":3128,"anım":3129," Em":3130,"sırada ":3131,"emey":3132,"ışı ":3133,"Dur":3134,"Ham":3135,"i'ne ":3136,"ang":3137,"anayas":3138," sit":3139,"kurt":3140,"çer":3141," Dün":3142,"Eğitim":3143,"tehlik":3144,"yaspor":3145,"kork":3146," söz":3147," Belediy":3148,"sığın":3149,"an B":3150,"uldu.\n":3151,"artesi ":3152,"tren":3153,"ces":3154,"akika ":3155,"Özellikle ":3156,"gi":3157,"lında ":3158,"tec":3159,"usul":3160,"ylül":3161,"eral":3162,"olmay":3163,"istedi.\n":3164,"gazetec":3165,"31":3166,"ehir":3167,"kaydetti.\n":3168,"?\"":3169,"bin ":3170,"birkaç":3171,"ebilir.\n":3172,"çeşitli ":3173,"eyin ":3174,"bildirildi.\n":3175,"ılığı ":3176," seviy":3177,"Kürt":3178," olduğu ":3179,"Dir":3180,"konuşt":3181,"finans":3182,"şans":3183,"anlığ":3184,"ular":3185,"vüc":3186,"Öte ":3187,"ur ":3188,"bir şekilde ":3189," Tayyip ":3190,"duruş":3191," milyon dolar":3192,"Halep":3193,"futbolcu":3194,"henüz":3195,"sosyal med":3196," yönetim":3197,"kart":3198,"esi'nin ":3199,"beyaz":3200,"tip":3201,"anlık ":3202,"burada ":3203,"nam":3204,"Genel M":3205,"yan ":3206,"İb":3207,"olacak":3208,"ime ":3209,"incelem":3210,"Kul":3211,"dey":3212,"önüne ":3213," diy":3214,"bulunuyor.\n":3215,"ifade etti.\n":3216,"xx":3217,"arasındaki ":3218,"verilm":3219,"ON":3220,"kov":3221,"üniversit":3222,"olmadığını ":3223,"ımızın ":3224,"Bir ":3225,"Güney":3226,"sebep":3227,"daha önce ":3228,"prot":3229," Nis":3230,"kayded":3231,"bay":3232,"cut":3233,"kayıt":3234,", bir ":3235,"imde ":3236,"hareket ":3237,"nız":3238," ifade":3239,"AM":3240,"ri":3241,"larca ":3242,"ağa ":3243,"ifade eden ":3244,"ziyaret ":3245,"Meclis":3246,", B":3247,"otor":3248," yağ":3249,"lar da ":3250,"Başkan ":3251,"iştir.\n":3252,"öncesi ":3253,"Kup":3254,"ekib":3255,"ılarak ":3256,"İsrail":3257,"ümüzdeki ":3258,"kaf":3259,"Burada ":3260,"u'nda ":3261," Mayıs":3262,"ayrıca ":3263,"cin":3264,"aralarında ":3265,"performan":3266,"\"B":3267,"yur":3268,"enf":3269,"iyorlar.\n":3270,"göç":3271,"ma ve ":3272,"taleb":3273,"yık":3274,"Cen":3275,"ilerek ":3276,"yapılacak ":3277,"duyg":3278,"isimli ":3279,"Kr":3280," ya da ":3281,"mümkün ":3282,"i ile ":3283,"ettir":3284,"mesinin ":3285,"geniş":3286,"tepki ":3287,"Su":3288,"Tüm":3289,"evine ":3290,"kendisine ":3291,"LAR":3292,"Sin":3293,"zir":3294,"dur.\n":3295,"ew":3296,"öp":3297,"ücr":3298,"ruh":3299,"arken ":3300,"a'dan ":3301,"başarılı ":3302," sez":3303,"oğlu'nun ":3304,"irken, ":3305,"zorun":3306,"elerine ":3307,"politik":3308,"Bakan ":3309,"In":3310,"atif":3311,"em ":3312,"deniz":3313,"ya'ya ":3314,"olayısıyla ":3315,"telefon":3316,"söz konusu ":3317,"erim":3318,"eyr":3319,"hesab":3320," saat ":3321,"alanda ":3322,"taz":3323,"şah":3324,"ikti":3325," - ":3326,"sözleş":3327,"yok ":3328,"eyle ":3329,"iyordu.\n":3330," edildi.\n":3331,"sunuz":3332,"Millet":3333,"haber ":3334,"kültür":3335,"sef":3336,"azir":3337," gerçek":3338,"Çünkü ":3339,"Bölg":3340,"ü ve ":3341,"asım":3342,"dik ":3343," yıllık ":3344," Gül":3345,"yılın ":3346,"bölgede ":3347,"Kad":3348,"uçak":3349,"yöntem":3350,"gez":3351,"Şah":3352,"kamu ":3353,"Göz":3354,"yabancı ":3355," hat":3356,"beri ":3357,"de bu ":3358,"disi ":3359,"ılmaz":3360,"geçmiş":3361,"person":3362,"a Mahkem":3363,"dık.\n":3364,"maktadır.\n":3365,"Yen":3366,"Bakanlığı ":3367,"Suriye'de ":3368,"aden":3369,": B":3370,"Kız":3371,"mektedir.\n":3372," hakkında ":3373,"iniz ":3374,"li ve ":3375,"isten":3376,"Alman ":3377,"Sosyal":3378,"gelecek ":3379,"Anayas":3380,"'s":3381,"söyley":3382,"etkin":3383,"sürec":3384,"Erdoğan'ın ":3385,"Recep Tayyip ":3386,"Kemal":3387,"açısından ":3388,"ilçesinde ":3389,"ilet":3390,"emez":3391,"eşil":3392,"uyum":3393," var.\n":3394,"li, ":3395,"mail":3396," seç":3397,"ibiyet":3398," yılı ":3399,"tekrar":3400,"- G":3401,"gaz":3402,"meş":3403,"esindeki ":3404,"emniyet":3405," tak":3406,"Tab":3407,"hükümet":3408,"etkisiz":3409,"enc":3410,"di: \"":3411," sonra ":3412,"çerçev":3413,"Hüs":3414,"ü b":3415,"üye ":3416,"Aynı ":3417,"önetim Kurulu ":3418,"er ve ":3419,"taşıy":3420,"dr":3421,"fark ":3422,"lan ":3423,"şimdi ":3424,"asit":3425,"halinde ":3426,"ilk kez":3427,"Irak":3428,"dar ":3429,"hap":3430,"sınız":3431,"öğ":3432,"en iyi ":3433,"umar":3434,"tı\n":3435,"ıyorum":3436,"sürekli ":3437,"vaz":3438,"orm":3439,"durumu ":3440,"Hollan":3441," Dünya ":3442,"arka ":3443,"olumsuz":3444,"Yani ":3445,"yük":3446,"ildiği ":3447,"hayata ":3448,"rahatsız":3449,"Et":3450," gazet":3451,"düşük ":3452,"temel":3453,"asyonu ":3454,"Bin":3455,"tarihi ":3456,"34":3457,"red":3458,"ları ile ":3459,"çıkış":3460,"tık.\n":3461,"anlatan ":3462,"olojik ":3463,"görüntü":3464,"Dern":3465,"Kap":3466,"menin ":3467,"ların":3468," Ö":3469,"İM":3470,"oyu ":3471,"yu":3472,"anam":3473,"idar":3474,"FETÖ'nün ":3475,"Kim":3476,"lığını ":3477,"yanlış":3478,"YP":3479,"Prof. D":3480,"Kö":3481,"normal":3482,"lar b":3483,"ortam":3484,"Can":3485,"ekkür":3486,"ilerden ":3487,"sağlay":3488," değer":3489," dakika ":3490," tarihinde ":3491,"Buna ":3492,"ga ":3493,"birliğ":3494,"form":3495,"su":3496,"anlay":3497,"gerektiğini ":3498," bin lir":3499,"azal":3500,"ABD'nin ":3501," Aralık ":3502,"ziyaret":3503,"Komut":3504,"gın ":3505,"ise, ":3506," Bank":3507,"enerji ":3508,"Vat":3509,"liye ":3510,"ayır":3511," kim":3512,"im için ":3513,"giren ":3514,"gerekç":3515,"Mahkem":3516,"eceğiz.\n":3517,"elektrik ":3518,"beb":3519,"ılara ":3520,"e gel":3521,"abak":3522,"buluş":3523,"elerinde ":3524,"öyle":3525,"plas":3526,"di ve ":3527,"ustos":3528,"Bunu ":3529,"Uluslararası ":3530,"ia ":3531,"mür":3532,"Türkiye'yi ":3533,"kamer":3534,"şüphel":3535,"ere ":3536,"eyn":3537,"Bor":3538,"ı\"":3539,"da bir ":3540,"el Haber":3541,"patlay":3542,"Ve ":3543,"olabil":3544,"final":3545,"A.":3546,"Atatür":3547,"büt":3548,"yorum":3549,"bildirdi.\n":3550,"Dışişleri ":3551,"İbrah":3552,"i, \"":3553,"güzel ":3554,"itik ":3555," mens":3556,"iyor, ":3557," tem":3558,"ülkede ":3559,"DEAŞ":3560," arasında ":3561,"sebeb":3562,"kim ":3563,"wit":3564,"takip":3565,"AP":3566,"udi ":3567,"ilgi ":3568,"ettiğ":3569," Ocak ":3570,"üncel Haber":3571,"üncel Haberler\n":3572,"ak ve ":3573,"sonunda ":3574,"saldırı ":3575,"soru":3576,"zarar":3577," kilomet":3578,"Cez":3579,"fil":3580,"atör":3581,"esi ve ":3582,"geçti.\n":3583,"Geçen ":3584,"fırsat":3585,"önül":3586,"ları da ":3587,"olduğuna ":3588,"Fer":3589,"en'in ":3590," Mahall":3591,"ros":3592,"ıp, ":3593,"ayar":3594,"den, ":3595,"konuşan ":3596,"Bat":3597,"ha ":3598,"a, \"":3599,"gide":3600,"meleri ":3601,"undaki ":3602,"belirterek, \"":3603,"silahlı ":3604,"EFA":3605,"gib":3606,"ortaya çıktı.\n":3607,"bilgiye göre, ":3608,"Pol":3609,"Sev":3610,"cep":3611,"o'nun ":3612,"oyun ":3613,"kalp":3614,"mamız":3615,"Müslüm":3616,"baz":3617,"sim":3618,"iz, ":3619,"ölç":3620,"osu ":3621,"oldukça ":3622,"Vol":3623,"kü":3624,"org":3625,"doktor":3626,"ism":3627,"işaret ":3628,"yarar":3629,"espor":3630," yıldır":3631,"Trump":3632,"Cumhuriyet Baş":3633,"ılıyor.\n":3634,"utlu ":3635,"leri arasında ":3636," Ağ":3637," edilm":3638," eden ":3639,"a'yı ":3640,"bana ":3641,"i\" ":3642,"ı\" ":3643,"esel ":3644,"üksel":3645,"bize ":3646,"gider":3647,"bekleniyor.\n":3648,"Uy":3649,"kaldı.\n":3650,"arbe girişim":3651,"etkisiz hale getir":3652,"'le ":3653,"Eş":3654,"ug":3655,"ayla ":3656,"ika ":3657,"fik":3658,"dek":3659,"isyon ":3660,"öylece ":3661,"yaptır":3662,"sahibi ":3663,"serv":3664,"ektörü ":3665,"aliman":3666,"UEFA":3667,"lin":3668,"bir süre ":3669,"bal":3670,"he ":3671,"bağlan":3672,"ücadele ":3673,"Devlet":3674,"cul":3675,"paş":3676,"sayısı ":3677,"andı.\n":3678,"iyon ":3679," yeni ":3680," taş":3681,"daha sonra ":3682,"meyen ":3683,"müt":3684,"sab":3685,"ayet ":3686,"devam ediyor.\n":3687," saatlerinde ":3688,"AK Parti ":3689,"çab":3690,"lar için ":3691,"cezası ":3692,"aram":3693,"str":3694,"300":3695,"Cem":3696,"sik":3697,"eyim":3698," dest":3699,"İnş":3700,"kendisini ":3701,"di:\n":3702,"ede, ":3703," Eylül":3704,"PD":3705,"allah":3706,"asında, ":3707,"otobüs":3708,"a\n":3709,"na ":3710,"öden":3711,"ert":3712,"enler ":3713,"36":3714,"Sal":3715,"iliği ":3716,"ıyorlar.\n":3717,"lenmesi ":3718,"Türkiye, ":3719,"ders":3720,"Nur":3721,"Yas":3722,"an'da ":3723,"bulans":3724," telef":3725,"ım, ":3726,"lazım.\n":3727,"Kuvvet":3728,"madığı ":3729,"aşam":3730," hem":3731,"ımıza ":3732,"zorunda ":3733,"ni ":3734,"a er":3735,"ınan ":3736,"biraz":3737,"Araştır":3738,"hakem":3739,"AH":3740,"Ch":3741,"van ":3742,"laka ":3743," Şubat ":3744," Ay":3745,"görüşmeler":3746,"haft":3747,"AD":3748,"yarın ":3749,"lik ve ":3750,"İspan":3751,"adr":3752,"evinde ":3753,"yol aç":3754,"endir":3755,"ımda ":3756,"mış.\n":3757,"sayg":3758,"başka bir ":3759,"idir":3760,"yans":3761,"yaptığı açıklamada, ":3762,"güçlü ":3763,"ihtim":3764,"eğini ":3765,"kurmay":3766,"PKK'":3767," savaş":3768,"Aş":3769,"Açık":3770,"Oğ":3771," dön":3772," Gr":3773," üst":3774,"ba ":3775,"kuzey":3776,"İh":3777,"asla ":3778,"ılaş":3779,"maması ":3780,"Cam":3781,"e'ye ":3782,"rar ":3783,"Çalış":3784," güç":3785,"İnsan":3786,"oluşan ":3787,"Hüküm":3788,"Jandarma ":3789,"enlerin ":3790,"amadı.\n":3791,"ult":3792," bek":3793,"luğu ":3794," hafta ":3795,"(T":3796," Merkez":3797," milyon":3798,"gerekli ":3799,"Anadolu ":3800,"teşekkür":3801,"ald":3802,"usal":3803,"on D":3804," Avrup":3805,"İstanbul ":3806,"ı?\n":3807,"gerçek ":3808,"yapıldı.\n":3809,"cü":3810," mü":3811,"talim":3812,"şampiyon":3813," takım":3814,"ediği ":3815,"oto":3816,"yayım":3817,"Sul":3818,"bah":3819,"bekl":3820,"her şey":3821,"Cumhurbaşkanı Recep Tayyip ":3822," haft":3823,"avukat":3824,"Ger":3825,"etim ":3826,"tamamen ":3827,"cihaz":3828,"09":3829,"don":3830,"unu, ":3831,"isi, ":3832,"davran":3833,"fa ":3834," bölüm":3835,"alar ":3836,"ıyor, ":3837,"beled":3838,"İsmail":3839,"ding":3840," muh":3841,"sonrasında ":3842,"risk":3843,"enler":3844,"ti ":3845,"vak":3846,"yokt":3847," suç":3848,"ava ":3849,"görüyor":3850,"oynay":3851,"diğinde ":3852,"insanların ":3853,"ocuk":3854,"cak":3855,"bölgeler":3856,"198":3857,"kendini ":3858,"Ülk":3859,"' de":3860,"Mes":3861,"ıyordu.\n":3862,"düğünü":3863,"e: ":3864," tan":3865,"kalk":3866,"devam eden ":3867,"katılım":3868,"transfer ":3869,"ile birlikte ":3870,"ortak":3871,"iyi bir ":3872,"Fil":3873,"Gür":3874,"Mu":3875,"blem":3876,"pas":3877,"bağım":3878,"ilmişti.\n":3879,"imza at":3880,"MHP":3881,"dost":3882,"not":3883,"nef":3884,"büyük":3885,"hızlı ":3886,"eğit":3887,"belli ":3888,"yazılı ":3889,"tığımız":3890,"kitap":3891,"kaydedildi.\n":3892,"ından, ":3893," başkan":3894," düzen":3895," devam ":3896,"32":3897,"kın ":3898,"pp":3899,"Ömer ":3900,"ull":3901,"kayn":3902,"olup":3903,"emur":3904,"izley":3905,"işç":3906,"başta ":3907,"günü":3908,"onların ":3909,"ahat":3910,"başlan":3911,"tanım":3912,"polis ":3913,"Bayr":3914,"İZ":3915,"Şen":3916,"ve bu ":3917,"Türkiye'deki ":3918,"hizmet ":3919,"model":3920,"'lik ":3921,"Sel":3922,"iptal":3923,"vurgulayan ":3924,"elediye Başkanı ":3925,"nes":3926,"dahil":3927,"BMM":3928,"Cumhuriyet Başsavc":3929," Gün":3930,"hazırlan":3931,"çevir":3932,"ilan ":3933,"akar":3934," kayb":3935,"\".\n":3936,"k, ":3937,"kuş":3938,"aktör":3939,"olun":3940,"vardı.\n":3941,"Ph":3942,"ilerle ":3943,"leri ile ":3944,"- Son D":3945,"rejim":3946,"- Son Dakika ":3947," hap":3948,"rakam":3949,"dava ":3950,"medi.\n":3951,"siyaset":3952,"anne ":3953,"ünlü ":3954," bin":3955,"içi ":3956,"ne kadar":3957,"Re":3958,"yardımcı ":3959,"tahmin ":3960,"gur":3961,"hik":3962,"tam":3963,"iyat ":3964,"bomba ":3965,"Euro":3966,"sunuz.\n":3967,"muhalif":3968,"- Güncel Haberler\n":3969,"ilaç":3970,"in bir ":3971,"unma ":3972,"um ":3973," mes":3974," her ":3975,"li.\n":3976,"aynı zamanda ":3977,"Oper":3978,"dakik":3979,"ihl":3980,"sürede ":3981,"şunları söyle":3982,"iktidar":3983,"Yol":3984,"dört":3985,"İran":3986,"olmaz":3987," olay":3988,"bizim":3989,"abilirsiniz.\n":3990,"Hava ":3991," Şubat":3992," düzey":3993," yok.\n":3994,"e Müdürlüğ":3995," dil":3996,"çok daha ":3997,"mak üzere ":3998,"ceza":3999,"Suriyeli ":4000,"atın ":4001,"temsilc":4002,"düzenlen":4003," karar":4004,"ortaya koy":4005,"müs":4006,"açıklan":4007,"İngiliz":4008," yüzde ":4009,"performans":4010,"YPG":4011,"Kültür":4012,"akla ":4013,"konut":4014,"ne":4015,"atej":4016," söy":4017,"İsv":4018,"Hem":4019," Kon":4020,"belirlendi.\n":4021,"Rusya'nın ":4022," Cez":4023,"PKK'nın ":4024,"Sah":4025,"aile ":4026,"te, ":4027,"Çocuk":4028,"Üst":4029,"el, ":4030,"de bir ":4031,"düğü":4032,"Öte yandan ":4033," U":4034,"Fır":4035," bur":4036," Bir":4037,"terör saldır":4038,"abir":4039,"hâ":4040,"alet ":4041,"altın ":4042,"yönetic":4043,"Diğ":4044,"miktar":4045,"75":4046,"ocu":4047,"petrol":4048,"eliğ":4049,"orada ":4050,"uzur":4051,"altını ":4052,"görevl":4053,"mücadel":4054,"dum.\n":4055,"unsur":4056,"kulüb":4057,"abilecek ":4058,"daha da ":4059,"düzenlem":4060,"Abd":4061,") ve ":4062,"ter ":4063,"İH":4064,"endiş":4065,"ması ve ":4066,"haline ":4067,"oğlu, \"":4068,"IM":4069,"ulmuş":4070,"uzman":4071,"ileri, ":4072,"katıldı.\n":4073,"ediliyor.\n":4074,"antren":4075,"etmeye ":4076,"mak, ":4077,"dıktan sonra ":4078,"Sayın ":4079,"ambulans":4080,"yaşadığı ":4081,"karar ver":4082,"Irak ":4083,"beş":4084,"fayd":4085,"Şim":4086,"anak":4087," kız":4088,"imiz ":4089,"kulüp":4090,"kriz":4091,"mevcut":4092,"39":4093,"üsü":4094,"gerekiyor.\n":4095,"pek":4096,"tih":4097," olur":4098,"hatta ":4099,"meydana geldi.\n":4100,"Yunan":4101,"ameliyat":4102,"geçtiğimiz":4103,"Arab":4104," r":4105,"u\n":4106,"im, ":4107,"içine ":4108,"güncel":4109,"kamu":4110,"olumlu ":4111,"eser":4112,"yalnız":4113,"serbest bırak":4114,"UN":4115,"buna ":4116,"anlara ":4117," par":4118,"dos":4119,"ederek ":4120," mağ":4121,"ülkem":4122,"Mücadele ":4123," bağ":4124," Sur":4125,"Bu ar":4126," polis":4127,"IK":4128,"Tem":4129,"yitir":4130,"zeng":4131,"işe ":4132,"ınızı ":4133,"mamış":4134,"lin ":4135," dur":4136,"yani ":4137,"açıklamada ":4138,"liğe ":4139,"ekipleri, ":4140,"Sor":4141,"tım.\n":4142,"App":4143,"Kat":4144,"Haber\n":4145,"üncü":4146,"Li":4147,"cılar":4148,"kuvvet":4149,"asın ":4150,"irken ":4151,"karşı karş":4152,"birim":4153,"ecektir.\n":4154,"erek, \"":4155,"tamamlan":4156,"çalışmaları ":4157,"Hüseyin ":4158,"(D":4159,"Mal":4160,"şem":4161,"iyeti ":4162,"takip ":4163,"tül":4164,"derece ":4165,"- Son Dakika Haber\n":4166,"Üç":4167,"ilk":4168," milyon lir":4169,"müdahale ":4170,"Sadece ":4171," kır":4172," gir":4173,"maların ":4174,"öyle bir ":4175,"kredi ":4176,"heyec":4177," Millet":4178,"Bay":4179,"Öğr":4180,"anal":4181," getir":4182,"kullanılan ":4183,"Dr.":4184,"Mo":4185,"yatır":4186,"ladık":4187,"güvenlik güç":4188,"olsun":4189,"yerleş":4190,"addesi ":4191,"böyle bir ":4192,"hukuk":4193,"dikten sonra ":4194,"tanıt":4195,"gözaltına alındı.\n":4196,"Pr":4197,"boğ":4198,"biz ":4199,"pu":4200,"konu ":4201,"yönetm":4202,"kullandığı ":4203," Ekonomi ":4204,"Sağlık ":4205,"dokun":4206,"üncü ":4207,"dım.\n":4208,"oğlu'n":4209,"33":4210,"de.\n":4211,"gerek ":4212," Tr":4213,"Karş":4214,"forma ":4215,"i\"":4216,"sub":4217,"alç":4218,"aklan":4219,"ısır":4220,"lament":4221," görün":4222," hayat":4223,"lâ":4224,"senin ":4225,"lı, ":4226,"dıklarını ":4227,"barış":4228,"Ankara'da ":4229,"Prof. Dr.":4230,"bitir":4231,"İyi ":4232,"olmadığı ":4233,"ler için ":4234,"Her":4235,"i'de ":4236,"üler":4237," yer ":4238,"leri de ":4239," Kurul":4240,"Hep":4241,"New":4242,"Vak":4243,"abı ":4244,"mesel":4245," şüph":4246,"tepk":4247,"takım ":4248,"babası ":4249," diye konuştu.\n":4250,"mit":4251,"Yapılan ":4252,"ordu":4253,"olsa ":4254," dav":4255,"abiliyor.\n":4256,"yıllık ":4257,"mutlu ":4258,"Genelkurmay":4259,"muştu.\n":4260,"oynam":4261," olmak ":4262,"ortadan ":4263," fark":4264,"dığında ":4265,"larımızın ":4266,"Sok":4267,"gayr":4268,"başkent":4269,"lu, ":4270,"mış, ":4271,"yere ":4272,"hastalık":4273,"edecek.\n":4274,"ucu":4275,"adını ":4276," Ağustos":4277,"Büyük ":4278,"ar, ":4279,"i de ":4280,"anlığı ":4281,"\" şeklinde ":4282,"yürütülen ":4283,"kurtul":4284,"Saray":4285,"hak ":4286,"lac":4287,"ton":4288,"enen ":4289," hedef":4290,"laşık ":4291,"Şehit":4292," proj":4293,"eyt":4294," güvenlik ":4295,"görülen ":4296,"geril":4297,"vuruş":4298,"oynan":4299,"gerçekleştirilen ":4300," el":4301,"Bal":4302,"soğ":4303,"geldiği ":4304,"direktör":4305,"lığına ":4306," konusunda ":4307,"Hiç":4308,"boyunca ":4309,"aktan ":4310," biz":4311,"\" ifadelerini kullandı.\n":4312,"düm":4313,"diler.\n":4314,"bilgil":4315," San":4316,"antaj":4317,"açılış":4318,"tören":4319,"zaten ":4320," Dünya Haberleri\n":4321,"inen ":4322," mu":4323,"geliyor.\n":4324,"edey":4325,"Gündem":4326," Z":4327,"büm":4328,"ikat":4329,"alındı.\n":4330,"65":4331,"Dar":4332,"İŞ":4333,"anlattı.\n":4334," puan ":4335,"ban":4336,"do":4337,"mark":4338,"udan ":4339,"sakat":4340,"Eğer ":4341," harek":4342,"Tan":4343,"enek":4344,"yerde ":4345,"hakim":4346," Öz":4347,"ınc":4348," yılda ":4349,"korun":4350,"öldürül":4351,"ullahç":4352,"38":4353,"Bağ":4354,"Kor":4355,"ai ":4356,"yürüy":4357,"Takım":4358,"gem":4359,"ışık":4360," Kul":4361,"Rom":4362,"mah":4363,"arama ":4364,"depr":4365,"oranı ":4366," kaç":4367,"etmesi ":4368,"luluk ":4369,"Bank":4370," mo":4371,"adet ":4372,"ler de ":4373,"türlü ":4374,"Bul":4375,"CE":4376,"IL":4377,"madı":4378,"ak, \"":4379,"oya ":4380," sonrası ":4381,"Bab":4382,"ına, ":4383,"emekli ":4384,"ılarını ":4385,"k ve ":4386,"alanı ":4387,"tıkları ":4388,"televiz":4389,"meye çalış":4390,"benim":4391,"M.":4392,"Tek":4393,"TBMM":4394,"oku":4395,"ice ":4396,"kop":4397,"şim":4398,"ine göre ":4399,"sonuc":4400,"ABD'de ":4401,"detay":4402,"mağdur":4403,"karşısında ":4404,"liğinde ":4405,"Harek":4406," metre ":4407,"öne sür":4408,"unda, ":4409,"önümüzdeki ":4410,"ilerde ":4411,"sınav":4412,"Kılıçdar":4413,"duk.\n":4414," Büyük":4415," Kal":4416," yaptı.\n":4417,"hayal":4418," Ekonomi Haberleri\n":4419," Örgüt":4420,"Dün ":4421,"Kuzey":4422,"seri ":4423,"kara ":4424,"ivert":4425,"lideri ":4426,"müşter":4427,"onları ":4428," tes":4429,"çıkarıl":4430,"okratik ":4431,"Bütün ":4432,"Part":4433,"enç":4434,"işti.\n":4435,"ağan":4436,"evr":4437,"erkek ":4438,"daha çok ":4439," günü ":4440,"kötü ":4441,"u'na ":4442,"Bazı ":4443,"sona er":4444,"olmam":4445,"alandır":4446,"rakip":4447,"Teknik ":4448,"kum":4449,"çeyr":4450,"arz":4451,"ayi ":4452,"en az ":4453,"acaklarını ":4454,"acak olan ":4455,"indey":4456,"İkinci ":4457,"UL":4458,"azalt":4459,"elerle ":4460," millet":4461,"trafik ":4462,"Film":4463,"Tak":4464,"ry":4465,"sine ":4466,"yo":4467,"akter":4468,"iyer":4469,"rekor":4470," terörist":4471,"aziran ":4472," alan ":4473,"Koc":4474,"a-":4475,"bahs":4476,"fen":4477,"süz":4478," kam":4479,"katkı ":4480,"LER":4481,"bi ":4482,"madığını ":4483," memur":4484,"diği, ":4485,"alanında ":4486,"beni ":4487,"i-":4488,"itap":4489,"için, ":4490,"edel":4491,"otel":4492,"gösterdi.\n":4493,"olur.\n":4494,"zarar ":4495,"maaş":4496,"başkanlık ":4497,"borç":4498,"AKP":4499,"Kıs":4500,"mekt":4501,"sak ":4502,"yası ":4503,"işk":4504,"ev sah":4505,"uştur.\n":4506,"gidec":4507," Er":4508,"Naz":4509,"TV":4510,"a ile ":4511,"lenme ":4512,"doğum":4513,"yerleştir":4514," sıralarında ":4515,"55":4516,"Fak":4517,"imha ":4518,"mesinde ":4519,"general":4520,"üfus":4521,"siyah":4522,"ED":4523,"ash":4524,"uyla ilgili ":4525,"istihbar":4526," kıs":4527,"hafif":4528,"annesi ":4529," terör örgüt":4530,"plasman":4531,"mis":4532,"da bu ":4533,"unc":4534,"seviy":4535,"masının ardından ":4536," kapsam":4537,"telefon ":4538," ek":4539,"37":4540,"ekiz":4541,"edav":4542,"sürüc":4543,"patlam":4544,"elikle ":4545,"\" diyerek ":4546,"s ":4547," gal":4548," pol":4549,"kampan":4550,"gitti.\n":4551,"ru ":4552," sav":4553," yaşan":4554," kardeş":4555,"ullahçı ":4556,"Güvenlik ":4557,"mur":4558,"Çelik":4559,"Çavuş":4560,"oluyor.\n":4561," ben":4562,"etkisi ":4563,"Haberleri - Zaman Gazetesi\n":4564,"kaçır":4565," kadar":4566,"kup":4567,"tılı ":4568,"lardır":4569,"Yaz":4570,"an S":4571," yaşında ":4572,"makam":4573," ayında ":4574,"kaldırıl":4575,"dın ":4576,"okum":4577,"\" den":4578,"problem":4579,"Port":4580,", D":4581," kurum":4582,"abrik":4583,"üzel":4584,"kamp":4585,"Adan":4586,"'si ":4587,"Silah":4588,"vide":4589,"Çocu":4590,"acılık ":4591,"gören ":4592,"Cer":4593,"Met":4594,"ret ":4595,"i çek":4596,"aket":4597,"aklı ":4598,"iyle, ":4599,"memn":4600,"mens":4601,"istediği ":4602,"abanc":4603,"beklent":4604,"'taki ":4605,"OL":4606,"Tıp":4607,"zer":4608,"akç":4609," satış":4610,"avuz":4611,"kişilerin ":4612," - Sözcü Gazetesi\n":4613," oran":4614,"ie ":4615,"uda ":4616,"Şır":4617,"ertel":4618,"larındaki ":4619,"lığa ":4620,"şehr":4621,"hem ":4622,"AV":4623,"Caddes":4624,"peş":4625,"Çağ":4626,"aslında ":4627," kent":4628,"çıkart":4629,"ilmesi için ":4630," adet":4631,"Fin":4632,"Twit":4633,"Şampiyon":4634,"devlet ":4635,"sanatç":4636," fa":4637,"özellik":4638,"yurt ":4639,"pil":4640,"ven ":4641," ki, ":4642," ay ":4643,"Emniyet Müdürlüğ":4644,"ihracat":4645,"şirk":4646,"emin ":4647,"abet":4648,"manız":4649,"güney":4650,"dağıt":4651,"eli":4652,"elt":4653,"adres":4654,"ezil":4655,"masından ":4656,"belirlen":4657," Güvenlik ":4658,"miştir.\n":4659,"hastaneye ":4660,"ivarında ":4661,"Yüz":4662,"din ":4663,"gin ":4664,"paz":4665,"Çin":4666," bit":4667," tur":4668,"lıkla ":4669,"tıklarını ":4670,"adamı ":4671,"eksik":4672,"edip":4673,"44":4674,"biç":4675,"cüsü ":4676,"sap":4677,"alay":4678,"evde ":4679,"mutlaka ":4680,"Ağır":4681,"Obam":4682," Avrupa ":4683,"altını çiz":4684,"tor":4685,"attığı ":4686,"uzak ":4687,"günlük ":4688,"yıllarda ":4689,"ileri sür":4690,"olduklarını ":4691,"kaydeden ":4692,"aşırı ":4693,"PDY":4694,"anız":4695,"asar":4696,"bir kez":4697,"ları için ":4698,"altyap":4699,"yapılan açıklamada, ":4700,"muhalef":4701,"Ey":4702,"Yön":4703,"döv":4704,"olabilir.\n":4705," boyunca ":4706,"Kayser":4707,"mültec":4708,"Ukr":4709,"lom":4710,"nö":4711,"vazgeç":4712,"'teki ":4713,"F.":4714,"sin ":4715,"ortalama ":4716,"ulaştı.\n":4717,"şikayet":4718,"Sür":4719,"ilerinden ":4720,"güc":4721,"düşüş":4722,"sahn":4723,"teknoloj":4724,"ihtiyac":4725,"47":4726,"dök":4727,"açılan ":4728,"ezz":4729,"konum":4730," konuş":4731,"dünyada ":4732,"bundan ":4733,"ürr":4734,"\" olarak ":4735,"bizi ":4736,"meydana gelen ":4737,"iPh":4738,"ki":4739,"terk ":4740,"197":4741,"tedbir":4742," yaralan":4743,"zirv":4744,"\"ı ":4745,"unla ":4746,"Arap":4747,"renk":4748,"ağanüst":4749,"beğ":4750,"cem":4751,"tuğ":4752,"ılarının ":4753,"eker":4754,"abl":4755," ber":4756,"tı, ":4757,"tern":4758,"oynanan ":4759,"ı'ndan ":4760,"izin ver":4761,"Ukrayn":4762,"Artık ":4763,"Ayd":4764,"Atatürk ":4765,"Jap":4766,"namaz":4767,"İm":4768,"olsun ":4769,"onik ":4770,"uçağ":4771,"ebo":4772,"girdi.\n":4773,"Açıklam":4774,"Mü":4775,"cins":4776,"oluyor":4777," kayn":4778,"adoğ":4779,"ısız":4780,"katılan ":4781,"İstanbul'a ":4782,"eğitim ":4783,"Tel":4784,"Ver":4785,"io":4786," yetkil":4787," darbe girişim":4788," ve \"":4789," yaptığı ":4790,"vurguladı.\n":4791,"kırmızı ":4792,"tehdit":4793,"46":4794,"Gir":4795,"eir":4796,"huzur":4797,"eceğiz":4798,"nasıl ":4799,"dünyaya ":4800,"Kah":4801,"Sez":4802,"e kadar":4803,"ayıf":4804,"ebb":4805,"ığın ":4806,"sert":4807,"maçta ":4808,"harekete ":4809,"elikop":4810,"Proj":4811,"OK":4812,"amayan ":4813,"emekl":4814," kö":4815,"sunul":4816,"Yarg":4817,"Ortadoğ":4818,"Suudi ":4819,"Van ":4820,"ediğini ":4821,"yaya ":4822,"başkanı ":4823,"topu ":4824,"devam etti":4825,"yeter":4826," milyar ":4827,"ten":4828,"ale ":4829,"ulmaz":4830,"gereken ":4831," görüş":4832," soruştur":4833,"adrid":4834," sen":4835,"avantaj":4836,"acak, ":4837,"olduğu gibi ":4838,"eceğine ":4839,"maçında ":4840,"FETÖ/":4841,"transfer":4842,"\" diyen ":4843,"karşı karşıya ":4844,"AC":4845,"Güm":4846,"olacak ":4847,"rum":4848,"ınday":4849,"izmet":4850,"işletm":4851,"belirtilen ":4852,"Ask":4853,"\" suç":4854,"sevk edildi.\n":4855,"kel":4856,"işin ":4857,"Cuma ":4858,"faiz":4859,"dile getiren ":4860,"inşa ":4861," Nisan ":4862,"ves":4863,"günlerde ":4864,"yönet":4865,"mesiyle ":4866,"milletvekil":4867,"organiz":4868,"irc":4869,"imin ":4870,"ite ":4871,"Bu nedenle ":4872,"yolu ":4873,"maçı ":4874," sürec":4875,"kaldırıldı.\n":4876," maçında ":4877,"Kil":4878,"i'":4879,"onay":4880,"üley":4881,"çalıştır":4882,"Emre ":4883,"tecr":4884," sezon":4885,"önetim Kurulu Başkanı ":4886,"gerekçesiyle ":4887,"gun":4888," yay":4889," AB":4890,"leşme ":4891,"Birliği ":4892,"durumunda ":4893,"ıcak":4894,"bölge ":4895," Temmuz ":4896,"galibiyet":4897,"pek çok ":4898," kilometre ":4899,"- Dünya Haberleri\n":4900,"eor":4901,"ildiğini ":4902,"ne kadar ":4903," sonuç":4904,"takımın ":4905," değil.\n":4906,"Tabii ":4907,"rest":4908,"ıdır":4909,"şöyle":4910," büyük ":4911,"Türkiye'den ":4912,"sorun ":4913,"ığa ":4914,"Bizim":4915,"yer alıyor.\n":4916,"Önc":4917,"yerine getir":4918,"48":4919,"key":4920,"ırsız":4921," haber":4922,"mış ":4923,"erbay":4924,"fiz":4925,"ton ":4926,"Ür":4927,"birinci ":4928,"ağıt":4929,"ım ve ":4930,"ının ardından ":4931,"dışar":4932,"Beyaz":4933,"saspor":4934,"Car":4935,"Herkes":4936,"in, \"":4937,"ek ve ":4938,"için de ":4939,"omuz":4940,"maya devam ":4941,"dayan":4942,"Yıldırım, ":4943,"Daha sonra ":4944,"Gö":4945,"sp":4946,"aca ":4947,"bizim ":4948,"hayata geçir":4949,"-beyaz":4950,"dini ":4951,"olmuş":4952,"Erz":4953,"Böylece ":4954,"OB":4955,"kıl":4956,"çı ":4957,"birey":4958,"acebo":4959,"yapar":4960,"vergi ":4961,"usunu ":4962,"vardır.\n":4963,"grub":4964,"hayır":4965,"lık, ":4966,"yayın ":4967,"defa ":4968,"01":4969,"mat":4970,"İS":4971,"şif":4972," son ":4973," plak":4974,"uçuş":4975,"kabul etm":4976,"mensup":4977,"dak":4978,"mec":4979,"miyor.\n":4980,"karşılık ":4981,"parti ":4982,"toplantıs":4983,"personel":4984,"Müz":4985,"Nec":4986,"Suç":4987,"etik ":4988,"ordin":4989,"ıyla, ":4990,"inin ardından ":4991,"veriş":4992,"abileceği ":4993,"sorgul":4994,"miş.\n":4995,"İlçe ":4996,"sizlik ":4997,"adıklarını ":4998,"dile getirdi.\n":4999,"konuştu":5000,"Belç":5001,"ü'nün ":5002,", P":5003,"ımın ":5004,"uyoruz.\n":5005,"400":5006,"Mah":5007,"him":5008,"se, ":5009,"üzerindeki ":5010,"Birleş":5011,"Türkiye Kup":5012,"FETÖ'":5013," kuruş":5014," J":5015,"02":5016,"Kurul":5017,"skor":5018,"ay, ":5019,"önde ":5020,"adeta ":5021,"satın ":5022," yıl önce ":5023,"Mahallesi ":5024,"cumhur":5025,"Volkan ":5026,"Savaş":5027,"tin ":5028,"er.\n":5029," yet":5030," bilg":5031," mev":5032,"üyesi ":5033,"idin ":5034,"diğini, ":5035,"larımızı ":5036,"Hasan ":5037,"anlamda ":5038,"Gündem Haberleri - Zaman Gazetesi\n":5039,"eur":5040,"lup":5041,"en yüksek ":5042,"üretic":5043,"usuna ":5044," Süper Lig":5045,"oskov":5046,"150":5047,"ının, ":5048,"asım ":5049,"adli ":5050,"lemeye ":5051,"taşın":5052,"tutuklandı.\n":5053,"Muham":5054,"yararlan":5055,"Iş":5056,"eyalet":5057,"isteyen ":5058,"geçiş":5059,"Enerj":5060,"çerçevesinde ":5061,"Musul":5062,"OS":5063,"adi":5064,"ki, ":5065,"rag":5066,"ilecek.\n":5067,"akl":5068,"yarı ":5069," Tur":5070,"mesi, ":5071,"ya'dan ":5072,"şu anda ":5073,"internet sit":5074,"İran ":5075,"AZ":5076,"Kurum":5077,"der ":5078,"ser ":5079,"abet ":5080," gec":5081,"ıyor\n":5082,"Bu durum":5083,"erkek":5084,"hazırlanan ":5085," nokt":5086,"Terör Örgüt":5087,"Hastanesi'ne ":5088,": S":5089,"Feder":5090,"anlı ":5091,"ismi ":5092,"umut":5093," hiç":5094,"toprak":5095,"sayesinde ":5096,"Yıldız":5097,"Sonra ":5098,"Derneği ":5099,"Taş":5100,"sul":5101,"en fazla ":5102,"iyorlar":5103,"abileceğini ":5104,"olay yerine ":5105,"sonraki ":5106,"kendilerine ":5107,"bette ":5108,"dikkati çek":5109,"Murat":5110,"FETÖ/PDY":5111,"Maç":5112,"Okul":5113,"madde":5114," siyas":5115,"ip, ":5116,"yüzden ":5117,"düşen ":5118,"maktan ":5119," veya ":5120,"Don":5121,"dı ve ":5122,"içindeki ":5123,"lede ":5124,"acağına ":5125,"kısm":5126,"binlerce ":5127,"Ker":5128,"otiv":5129,"çağır":5130," yür":5131,"edilmesi ":5132,"usuf":5133,"Erk":5134,"maya başladı.\n":5135,"köpr":5136," yardım":5137,"Almanya ":5138,"Sen":5139,"işbirliği ":5140," büy":5141,"var, ":5142,"layarak ":5143,"ödeme ":5144,"Ekonomi ":5145,"Saldır":5146," olması ":5147,"güçlendir":5148,"Eski ":5149,"eksiyon":5150,"bilinen ":5151,"İddi":5152,"Kurt":5153,"e;":5154,"al M":5155,"ıldığını ":5156,"ema ":5157,"temsil":5158," arkadaş":5159," kadar ":5160," toplum":5161,"Çar":5162,"iyor\n":5163,"halde ":5164,"olduğunu söyledi.\n":5165,"destek ver":5166,"cı, ":5167,"eda ":5168,"ÜN":5169,"sonuna ":5170,"eğe ":5171,"ova ":5172,"Güneş":5173," karşısında ":5174,"nik":5175,"saç":5176,"çal":5177,"ihan":5178," yapımı ":5179,"mesi için ":5180,"ı\"nın ":5181,"servis":5182,"Bu arada ":5183," ülk":5184,"Can ":5185,"G.":5186,"lok":5187,"olacağını ":5188,"okuy":5189,"katk":5190,"kesin":5191,"ifade edildi.\n":5192,"Avust":5193,"Gökhan ":5194,"stratej":5195,"AA":5196,"Dolayısıyla ":5197,"Kart":5198,"Sabah":5199,"keş":5200,"psik":5201,"ayak":5202,"ahtar":5203,"öncesinde ":5204,"döneminde ":5205,"vatandaşların ":5206,"doldur":5207,"Vatandaş":5208,"aşağ":5209,"imar":5210,"proje ":5211,"inşaat":5212,"söylüyor":5213,"val":5214,"ağına ":5215," Komut":5216,"edildiği ":5217,"edecek ":5218,"futbolcu ":5219,"yer aldığı ":5220,"giderek ":5221,"Paris":5222,"Fransız":5223," '":5224,"şer":5225,"emeyen ":5226,"ını yitir":5227,"uklu ":5228,"taşım":5229,"sokak":5230,"tival":5231,"taşıyan ":5232,"Düz":5233,"Res":5234,"madığ":5235,"akadem":5236,"iklet":5237,"alarla ":5238,"temas":5239,"örgütün ":5240,"kesint":5241,"Bek":5242,"ı: ":5243,"at, ":5244," yem":5245,"ital":5246,"itam":5247,"kanal":5248,"dışına ":5249,"Karaden":5250,"davet ":5251,"sistemi ":5252,"yaralandı.\n":5253,"Osmanlı":5254,"Yüksek ":5255,"bağımsız":5256,"Boz":5257,"daş":5258,"arti":5259,"esin":5260,"im ve ":5261,"eyh":5262,"ören":5263,"liğine ":5264,"yenil":5265,"Fenerbahçe'nin ":5266," Emniyet Müdürlüğ":5267,",\n":5268,": A":5269,"EC":5270,"zayıf":5271,"imizde ":5272," futbol":5273,"liğin ":5274,"yasal":5275,"çocukların ":5276,"akıllı ":5277,"Aç":5278,"Yine ":5279,"gın":5280,"öde":5281,"adliy":5282,"alardan ":5283,"iğe ":5284,"değildir.\n":5285,"lidir.\n":5286,"Cumhuriyet Başsavcılığ":5287,"DI":5288,"Facebo":5289,"Mel":5290,"tı ve ":5291,"albüm":5292,"aykır":5293,"et, ":5294,"ekte ":5295,"ünlüğ":5296,"kadro":5297,"yönünde ":5298,"merak ":5299,"katıldığı ":5300,"Beşiktaş'ın ":5301,"Azerbay":5302,"diplom":5303,"Yeşil":5304,"ıntı":5305,"eli, ":5306," mi?\n":5307,"ısı, ":5308," Toto":5309,"soru ":5310,"takdir":5311," olacak.\n":5312,"şöyle devam etti":5313,"sarı-":5314,"ullahçı Terör Örgüt":5315,"bu":5316,"iydi.\n":5317," değiş":5318,"Dünyanın ":5319,"'ın, ":5320,"- Ekonomi Haberleri\n":5321,"ındır":5322,"ünlü":5323,"ıyor ve ":5324,"yoğun":5325,"yemek ":5326,"lacivert":5327,"bir kez daha ":5328,"03":5329,"Haf":5330,"dör":5331,"etbol":5332,"ik, ":5333,"ıştır":5334," güven":5335,"geldiğini ":5336,"lığının ":5337,"sene ":5338,"dukları ":5339,"cevap ver":5340," hastal":5341,"Müdürü ":5342,"ta":5343,"Üs":5344,"şu":5345,"iyor ve ":5346," Kurum":5347,"turist":5348,"turizm":5349,"Bugün":5350,"Lon":5351,"udu":5352,"iyil":5353,"terörle ":5354,"Otom":5355,"hus":5356,"iir":5357,"slan":5358,"âr":5359,"akşehir":5360,"attı.\n":5361,"oyuna ":5362,"lıkları ":5363," yerinde ":5364,"Cumhurbaşkanlığı ":5365," kor":5366," sun":5367,"olmadığ":5368,"Bursaspor":5369,"Onun ":5370,"Şu anda ":5371,"Batı ":5372,"Far":5373,"rom":5374,"deplasman":5375,"emir":5376,"ağında ":5377," tal":5378,"kayıp":5379," per":5380,"ullah Gül":5381,"yaptıkları ":5382,"Uğ":5383,"kus":5384,"vir":5385,"aylık ":5386,"tılar.\n":5387,"inin de ":5388,"bilir":5389," hazır":5390," Kasım":5391,"eceklerini ":5392,"kullanıc":5393,"rekar":5394,"özgürlüğ":5395,"Suudi Arab":5396," öl":5397,"bıç":5398,"oda ":5399,"Çak":5400,"ınar":5401,"ekret":5402,"en az":5403," bak":5404,"kurulan ":5405,"ihtiyacı ":5406,"şembe ":5407,"edeyse ":5408," plakalı ":5409,"Belediy":5410,"Le":5411,"ı da ":5412," Kor":5413," Top":5414,"ettin ":5415,"bölgeye ":5416,"mediği ":5417,"Ligi'nde ":5418,"pozisyon":5419,"41":5420,"arttır":5421,"diğine ":5422,"'da, ":5423,"TSK":5424,"pen":5425,"onlara ":5426,"alarından ":5427,"kendim":5428,"kapatıl":5429,"her zaman ":5430,"hukuk ":5431," program":5432," ifadelerini kullandı.\n":5433,"Ma":5434,"ina ":5435,"larını, ":5436," sadece ":5437," silah":5438," mak":5439," tekn":5440,"Özgür":5441,"iyatro":5442,"iddianam":5443,"şüpheli ":5444,"belirterek, ":5445,"sosyal medya ":5446," öğrenc":5447,".K":5448,"Dair":5449,"Sın":5450,"neler":5451,"yalı ":5452,"aktif":5453,"ity":5454,"lemek ":5455,"ne yap":5456,"dığı, ":5457,"etkilen":5458,"kaydetti":5459,"duyurdu.\n":5460,"Samsun":5461,"mülteci ":5462,". ve ":5463,"Peki ":5464,"SY":5465,"Yer":5466,"süt":5467,"şam ":5468,"erv":5469,"ales":5470,"tatil":5471,"Uzun ":5472,"indirim":5473,"Büyükşehir":5474,"koşul":5475," çek":5476,"A ":5477,"Pat":5478,"Ramaz":5479,"Ter":5480,"itibarıyla ":5481,"dahi ":5482,"Binali ":5483,"Operasyon":5484,"'inci ":5485,"08":5486,"Ac":5487,"lint":5488,"vade":5489,"elinde ":5490,"Suriye'deki ":5491,"özel bir ":5492,"protest":5493,"\"de ":5494,"Değ":5495,"EB":5496,"hoc":5497,"sen ":5498,"sıcak":5499,"çap":5500,"ıd":5501,"an'a ":5502,"imkan":5503,"tutul":5504,"anlamına ":5505,"savunma ":5506,"ticari ":5507,"49":5508,"ı ile ":5509,"gördük":5510,"eğlen":5511,"belirlenen ":5512,"esi.\n":5513,"alı ve ":5514,"son derece ":5515,"sınıf":5516,"danış":5517,"olursa ":5518,"Amerikan ":5519,"forma giy":5520,"Go":5521,"gu ":5522,"er'in ":5523,"ata ":5524," genel":5525,"diğiniz":5526,"yolcul":5527,"Özel ":5528," kontrol":5529,"operasyonda ":5530,"ivas":5531," telefon":5532,"Fik":5533,"mede ":5534,"ÜR":5535,"faiye ":5536,"teşv":5537,"devletin ":5538,"Doğu ":5539,"Ülkem":5540,"Komisyon":5541,"ternatif":5542,"iyan":5543,"yılda ":5544,"196":5545,"yer aldı.\n":5546,"ATO":5547," muhabir":5548,"lek ":5549," ter":5550,"malarını ":5551,"sizin ":5552,"Osman ":5553,"Barcel":5554,"esi'ndeki ":5555,"Şube Müdürlüğ":5556,"New Y":5557,"Bül":5558,"Han":5559,"Kı":5560,"Selç":5561,"gin":5562,"macı ":5563,"Öy":5564,"uyr":5565," Bur":5566,"lik, ":5567,"Osmanlı ":5568,"tehdit ":5569,"Yaklaşık ":5570,"Di":5571,"elem":5572,"bakım":5573,"lığın ":5574,"ilçesi ":5575,"itibariyle ":5576,"başlattı.\n":5577,"Pers":5578,"cılık ":5579,"erken, ":5580," tüm":5581," Spor":5582,"açıklandı.\n":5583,"yaşay":5584,"tanın ":5585,"toprağ":5586," aylık ":5587,"faiz ":5588,"anlıur":5589,"Araştırma ":5590,"TC":5591,"liyor.\n":5592,"ü'ne ":5593,"ları":5594,"etik":5595,"ekim":5596," yas":5597,"lanıyor.\n":5598," gönder":5599,"beli ":5600,"varsa ":5601,"bulunduğunu ":5602,"mekte ":5603," maçta ":5604,"Çünkü":5605,"sıcak ":5606,"Kızıl":5607,"Ciz":5608,"yiy":5609,"i için ":5610,"başkan ":5611,"olmaya ":5612," kişilik ":5613,"saldırıda ":5614,"istediğini ":5615,"ihraç":5616,"herkesin ":5617,"başkenti ":5618," operasyon":5619,"elerinden ":5620,"kalit":5621,"Türkiye ile ":5622," sırasında ":5623,"Davutoğlu, ":5624,"Ligi ":5625,"42":5626,"e kadar ":5627,"anla ":5628,"le ilgili ":5629,"202":5630,"size ":5631,"Bizim ":5632,"İçişleri ":5633,". (":5634,"85":5635,"Men":5636,"me, ":5637,"etraf":5638,"sürpr":5639,", \"Bu ":5640,"ebek":5641,"Türkiye Cumhuriyet":5642,"odaf":5643,"beraber ":5644,"lerimizi ":5645,"cenaze ":5646,"Aile ":5647,"ta, ":5648,"teb":5649,"ekr":5650," yatırım":5651," kol":5652,"yanına ":5653,"mak ve ":5654,"açıklamalarda ":5655,"Fenerbahçe, ":5656,"Örn":5657,"Daha önce ":5658,"Genel Müdürlüğ":5659,"\"Bu ":5660,"dok":5661,"lisi ":5662,"pot":5663,"Üy":5664,"alel ":5665,"belki ":5666,"ilginç":5667,"başlatılan ":5668,"Hatta ":5669,"yavaş":5670,"ayda ":5671,"aya göre, ":5672,"gözyaş":5673,"yeterli ":5674,"reklam":5675,"Brezil":5676,"Feth":5677,"Sarı-":5678,"Direktörü ":5679,"Od":5680,"Yusuf":5681,"es ":5682,"dist":5683," bomb":5684,"afet":5685,"uçak ":5686,"Ard":5687,"makta ":5688,"tüketic":5689,"halkın ":5690," Mart ":5691,"anlayış":5692,"Oğuz":5693," Kulüb":5694,"edin":5695,"olarak, ":5696,"çalışan":5697,"İlk":5698,"kesim":5699,"dığımız":5700,"genelinde ":5701,"şunları kaydetti":5702,"600":5703,"Ok":5704,"ekibi ":5705,"birinin ":5706,"ithal":5707,"kar yağ":5708,"oks":5709,"leniyor.\n":5710,"etmey":5711,"tespit ":5712,"gari ":5713,"gizli ":5714,"Sil":5715,"pop":5716,"de \"":5717," bun":5718,"oför":5719,"nöbet":5720,"Kol":5721,"Süper Lig":5722,"bon":5723,"Ödül":5724,"oğaz":5725,"çok önem":5726,"sanat":5727,"düştü.\n":5728,"ester ":5729,"iletişim":5730,"Mus":5731,"Tah":5732,"zaf":5733,"çünk":5734,"eydan":5735," bor":5736,"etme ":5737,"tesis":5738,"Hakan ":5739,"talimat":5740,"güncellem":5741," olmak üzere ":5742,"iPhone ":5743,"cüm":5744,"Şanlıur":5745,"aran":5746,"esas":5747,"lı terörist":5748,"eleri, ":5749,"ecek, ":5750," film":5751,"asker ":5752,"adıkları ":5753,"Geçtiğimiz":5754,"yayınlanan ":5755,"patlayıcı ":5756,"rik ":5757,"tez":5758,"u'da ":5759,"ilecek ":5760,"atur":5761,"'yu ":5762,"yerini ":5763,"Öztür":5764,"düzenlediği ":5765,"kritik ":5766,"Adalet ":5767,"doğrudan ":5768,"yaşamını yitir":5769,"süreçte ":5770," mensup":5771,"Edin":5772,"Tic":5773,"Wash":5774,"i yap":5775,"ların, ":5776,"ılım":5777,"belg":5778,"Aren":5779,"oynadığı ":5780,"Tarih":5781,"mahkeme ":5782,"Savunma ":5783,"Fırat":5784,"Silahlı ":5785,"43":5786,"gisi ":5787,"Şirket":5788,"ında.\n":5789,"ürün ":5790,"duvar":5791,"abilecek.\n":5792," DE":5793,"olduğu için ":5794,"Eskiş":5795,"dikkat çeken ":5796,"Antalya ":5797,"sıkıntı":5798," gerçekleştir":5799,"yuvar":5800,"Fakat":5801,"Put":5802,"nüfus":5803," koy":5804,"ası ve ":5805,"ları arasında ":5806,"ukur":5807,"inize ":5808,"yüksek":5809,"kısa sürede ":5810," sınır":5811,"Washing":5812,"'ü ":5813,"hayr":5814,"viz":5815,"ây":5816,"isayar":5817,"beklenen ":5818,"insani ":5819,"ulaştır":5820,"hızla ":5821," karşılaş":5822,"uğraş":5823,"Oyun":5824," ettiği ":5825,"RT":5826,"gönül":5827,"emesi ":5828,"evlen":5829," gib":5830,"bakan ":5831,"sağlıklı ":5832,"miş ":5833,"şöyle konuştu":5834,"luluğ":5835,"teknik direktör":5836," Ceza Mahkem":5837,"anakkal":5838,"Am":5839,"miyor":5840,"se":5841,"Şüph":5842,"ise \"":5843,"gerçekten ":5844,"koruy":5845,"çıkardı.\n":5846,"kazandır":5847,"gelişmeler":5848,"Terörle ":5849,"Terör örgüt":5850,"istikrar":5851,": K":5852,"Nus":5853,"Yan":5854,"iyah":5855,"olabilir":5856," kamp":5857,"oyunu ":5858,"kapalı ":5859," şart":5860,"lantıs":5861,"istik ":5862,"heyet":5863,"örnek ":5864,"anayasa ":5865," Toto Süper Lig":5866,"PS":5867,"zih":5868,"Çet":5869,"lerindeki ":5870,"lerince ":5871,"tıp":5872,"eği, ":5873,"Erdem":5874,"halk ":5875,"genin ":5876,"hassas":5877,"görevli ":5878,"oyuncusu ":5879," Bakanı ":5880," hapis ":5881,"Mard":5882,"hüc":5883,"a kadar":5884,"larınız":5885,"ün, ":5886,"ağa çık":5887," ediyor.\n":5888," bin TL":5889,"hendis":5890,"AK Parti":5891,"adliyeye ":5892,"irse ":5893,"üny":5894,"abul":5895,"acil":5896,"oğl":5897," Per":5898,"sınız.\n":5899,"Uğur":5900,"alesef":5901,"Dil":5902,"O'":5903,"numar":5904,"siyon":5905,"lardaki ":5906,"kendisi ":5907,"ler arasında ":5908,"ıca, ":5909,"Esad":5910,"07":5911,"HA":5912,"Vodaf":5913,"rab":5914,"te":5915,"akşam ":5916,"güneş":5917,"latform":5918,"dern":5919,"tekrar ":5920,"dolandır":5921,"anlaşma ":5922,"yayınlan":5923,"yargılan":5924,"çoğu ":5925," grup":5926,"ihtimal":5927," model":5928,"elikopter":5929,"Kayn":5930,"dalı ":5931,"çok iyi ":5932,"acak ve ":5933," Ekim ":5934," Başkan ":5935,"agaz":5936,"demokrasi ":5937," l":5938,": M":5939,"Kaç":5940,"m.\n":5941,"atar":5942,"ık, ":5943,"çalışması ":5944,"doğrult":5945,"Almanya'da ":5946,"yağış":5947,"sini kullandı.\n":5948,"UM":5949,"a: ":5950,"r. ":5951,"atan ":5952,"alışveriş":5953,"yola ":5954,"bağır":5955,"kesin ":5956,"düşünc":5957,"inde.\n":5958,"Merkez Bank":5959," mesaj":5960,"Dİ":5961,"lor":5962,"meler ":5963,"nın ":5964,"ünüz":5965,"geçici ":5966,"abileceğ":5967,"Avrupa'da ":5968,"hisar":5969," devlet":5970,"Dışişleri Bakanı ":5971,"Ail":5972,"Tekn":5973,"bür":5974,"e'":5975,"aladı.\n":5976,"ekten ":5977," plan":5978,"yerinde ":5979,"Alınan ":5980,"ülkemiz":5981,"sever":5982,"rakib":5983,"gözaltına alınan ":5984,"ceza sah":5985,"i'nden ":5986,"Söz konusu ":5987," beraber":5988,"Ko":5989,"TI":5990,"ho":5991,"lılık":5992,"alıyor.\n":5993,"du\n":5994,"yaptığ":5995," tük":5996,"bu yıl":5997,"elerden ":5998,"konuk ":5999,"And":6000,"uşturucu ":6001," sayısı ":6002,"adım.\n":6003,"seyr":6004," bin lira ":6005,"250":6006,"ke ":6007,"vet ":6008,"ir, ":6009,"ağlık ":6010,"umu ":6011,"acak\n":6012,"ılar, ":6013,"Suriye'nin ":6014,"ebilirsiniz.\n":6015,"alimanı ":6016,"Hayat":6017," belirt":6018,"hoş":6019,"ord":6020,"oldu ":6021,"birik":6022," müz":6023,"götürüldü.\n":6024,"Ardından ":6025,"\"da ":6026,"Bundan ":6027,"Sır":6028,"gu":6029,"gah":6030,"inli ":6031,"alel":6032,"esinde, ":6033,"esi ile ":6034,"olduğunu, ":6035,"arkasında ":6036,"hala ":6037,"ya'daki ":6038,"sergil":6039,"mek, ":6040,"alı.\n":6041,"sığınmac":6042,"teşekkür ed":6043,"Ban":6044,"hed":6045,"unca ":6046,"başl":6047,"gelen":6048,"olduğumuz":6049,"Ann":6050,"sahaya ":6051,"insanın ":6052,"Başbakanı ":6053,"terör örgütü":6054,"müsabak":6055," adet ":6056,"59":6057,"e'yi ":6058,"alma ":6059,"daha iyi ":6060,"ı'nı ":6061,"geçen yıl":6062," kendi ":6063,"bir araya gel":6064,"Çin ":6065," böl":6066,"dan sonra ":6067,"kapasit":6068,"graf":6069," milyon TL":6070,"Dündar":6071," Temmuz'da ":6072,"inceleme ":6073,"şamba ":6074,"Bunların ":6075,"dikkat çekti.\n":6076,"Benim":6077,"Aydın":6078,"hac":6079,"yla ":6080,"şaşır":6081,"derec":6082,"ebilecek ":6083,"uygulama ":6084," görev":6085,"Avrupa'nın ":6086,"Adana ":6087,"tahliye ":6088," geçir":6089,"ferans":6090,"Soy":6091,"com":6092,"ü'n":6093,"şe ":6094,"esk":6095,"ağaç":6096," Bey":6097,"olan bir ":6098,"devam":6099,"temel ":6100,"üst düzey":6101,"kabul edil":6102,"Fetullahçı Terör Örgüt":6103,"düşünüyorum.\n":6104,"vücut":6105,"İbrahim":6106,"Edinilen ":6107,"ly":6108,"mıyor":6109,"raz":6110,"ti, ":6111,"ister":6112,"Bu da ":6113,"yapıldığı ":6114,"yazar":6115,"Konyaspor":6116," sırada ":6117,"çocuğun ":6118,"Diğer ":6119," as":6120,"66":6121,"HY":6122,"Joh":6123,"Sİ":6124,"ı'":6125,"olan":6126,"alar, ":6127,"değişim":6128,"ınız.\n":6129,"ettiklerini ":6130,"Milletvekili ":6131," artış":6132,"bahç":6133,"ral":6134,"Çev":6135,"imkâ":6136,"geride ":6137,"ise yüzde ":6138,"doğu ":6139,"aracın ":6140,"dikkate ":6141,"fesyon":6142,"Yüksek":6143,"Vakf":6144,"dalg":6145,"za ":6146,"anma ":6147," sok":6148," bile ":6149,"taşı":6150,"liğinin ":6151,"kimse ":6152,"futbolc":6153,"amaz.\n":6154,"bunların ":6155," W":6156," TV":6157,"ası.\n":6158,"Bunun üzerine ":6159," değerlendir":6160,"zarar ver":6161,"Pazar":6162,"Tek ":6163,"şub":6164,"atılan ":6165,"ler yap":6166,"lerin, ":6167,"mış ve ":6168,"sorunu ":6169,"türlü":6170,"noktada ":6171,"ettik.\n":6172,"',":6173,"Sey":6174,"i'ye ":6175,"rast":6176,"aten ":6177,"eler, ":6178,"olmasına ":6179,"maçın ":6180,"rahmet":6181,"geri dön":6182,"ettikleri ":6183,"büyüme ":6184,"İbrahim ":6185,"; \"":6186,"NATO":6187,"ou":6188,"qu":6189,"isinden ":6190,"ulması ":6191,"evin ":6192," tek":6193,"olmasını ":6194,"gerekir.\n":6195,"gram ":6196,"acak bir ":6197,"İnsan ":6198,"Ordu":6199,"larımıza ":6200," maçı ":6201,"gönderildi.\n":6202,"sorumlu ":6203,"esnaf":6204,"şahıs":6205," seçim":6206,"zorunda kal":6207,"üleyman ":6208,"Eskişehir":6209,"irade":6210,"aya göre ":6211,"kanser":6212," Ad":6213,"yakından ":6214,"yasa ":6215,"ovic":6216," yönetic":6217,"ılığıyla ":6218,"dönüştür":6219,"çocuğu ":6220,"Kadın":6221,"belediye ":6222,"Portekiz":6223," şeklinde ":6224,"seyi ":6225,"Çanakkal":6226,"lardı.\n":6227,"amet":6228,"usunun ":6229," hes":6230,"ladığ":6231,"yeri ":6232," milyon Euro":6233,"Cumhurbaşkanı Erdoğan":6234,"itiraf":6235,"bombalı ":6236,"müzak":6237," hem de ":6238,"sonucunda ":6239,"Gal":6240,"TE":6241,"a gel":6242,"ası'nda ":6243,"'nin, ":6244,"başk":6245,"lığında ":6246,"dığını, ":6247,"mediğini ":6248,"kötü":6249,"lerimizin ":6250,"sahip çık":6251," Genel Başkanı ":6252,"Salih":6253," duy":6254,"OM":6255,"yen ":6256,"İB":6257,"isim ":6258,"ır, ":6259," bunu ":6260," bank":6261,"omp":6262,"polise ":6263," Yar":6264,"bağış":6265,"milletin ":6266,"oldukları ":6267,"'in, ":6268,"53":6269,"Ri":6270,"mi?\n":6271,"araz":6272,"ükle":6273,"memlek":6274,". haft":6275,"port":6276," hav":6277,"sürüyor.\n":6278,"sağlayan ":6279,"Burs":6280,"Galatasaray'ın ":6281,"ciddi bir ":6282,"boyut":6283," üyesi ":6284,"İnşallah":6285,"67":6286,"GK":6287,"motor":6288,"ıydı.\n":6289,"bu durum":6290,"İstanbul'un ":6291,"hastanede ":6292,"maruz":6293,"Havaliman":6294," fiyatı ":6295," politik":6296,"57":6297,"kü ":6298,"mobil":6299,"po":6300,"rob":6301,"yerli ":6302,"uğur":6303,"dığına ":6304,"Brüksel":6305,"neredeyse ":6306,"toprağa ":6307,"Sem":6308,"tef":6309,"olduğunun ":6310,"otos":6311,"mesaf":6312,"olduğunu belirten ":6313,"düğünü ":6314,"hep ":6315,"adıköy":6316,"Murat ":6317,"' d":6318,"120":6319,"Sivas":6320,"mor":6321,"piş":6322,"tim.\n":6323,"alternatif":6324,"olma ":6325,"dılar.\n":6326,"istey":6327,"uyk":6328," hız":6329,"kural":6330,", bugün ":6331," durumda.\n":6332,"aykırı ":6333,"Vodafone ":6334,"agazin ":6335,"\"K":6336,"Sab":6337,"Yavuz":6338,"mada, ":6339,"a gir":6340,"dij":6341,"du, ":6342,"istan'ın ":6343,"ich":6344,"Orta ":6345,"sigort":6346,"\" şeklinde konuştu.\n":6347,"pilot":6348," içinde ":6349,"-Gündem Haberleri - Zaman Gazetesi\n":6350,"112":6351,"Mart":6352,"Zor":6353,"vic":6354,"üde ":6355,"ağın ":6356,"yapım":6357,"üme ":6358,"laşma ":6359,"iyetini ":6360,"Grup":6361,"tazmin":6362,", H":6363,"asız":6364," teş":6365,"iyede ":6366,"yang":6367,"öğretim":6368,"gre ":6369," günü":6370,"görülüyor.\n":6371,"önceki gün ":6372," kapsamında ":6373," oranında ":6374,"AA muhabir":6375,"52":6376,"we":6377,"elal":6378,"olağanüst":6379,"ü ile ":6380,"tanış":6381,"göz ":6382,"üçük":6383,"her gün ":6384,"insanları ":6385,"Rus ":6386,"desteği ":6387,"sinir":6388,"kendilerini ":6389,"tutuklu ":6390,"raman":6391,"tartışma ":6392,"çatışmalar":6393,"Bah":6394,"ülkeye ":6395,"açıklamalar":6396,"duğumuz":6397,"ığında ":6398,"mücadelede ":6399," araç":6400,"kendine ":6401,"biri olan ":6402,"ülkelerin ":6403,"risk ":6404,"tespit edilen ":6405,"mak isteyen ":6406,"söylüyor.\n":6407," kuruluş":6408,"davranış":6409,"Ağır Ceza Mahkem":6410,"cinsel ":6411,"-ı ":6412,". bölüm":6413,"GS":6414,"lilik ":6415,"Çay":6416,", C":6417,"isiyle ":6418,"imp":6419,"ıyız.\n":6420,"laması ":6421,"ihal":6422,"kaleci ":6423,"mış ol":6424,"tanı":6425,"dern ":6426,"Karab":6427,"kaçın":6428,"tepe ":6429,"egor":6430,"baba ":6431,"müzik ":6432,"Ekonom":6433,"Siz":6434,"fak":6435,"vah":6436,"a göre ":6437,"her türlü ":6438," Ocak":6439,"etmişti.\n":6440,"ortadan kaldır":6441,"Goog":6442,"müyor":6443,"rad":6444,"İdar":6445,"e gir":6446,"etiyle ":6447,"bu konuda ":6448,"lendiği ":6449,"tarak ":6450,"ya ve ":6451,"ne zaman ":6452," En":6453,"Karak":6454,"memur":6455,"Emniyet ":6456,"brıs":6457,"\"te ":6458,"Tut":6459,"şahs":6460,"ınd":6461,"emiş":6462,"iter":6463,"açıldı.\n":6464,"yapıyor.\n":6465," tedav":6466,"opag":6467," St":6468,"otop":6469,"kaldığı ":6470,"miş, ":6471,"iniz.\n":6472,"görüldü.\n":6473,"aktadır.\n":6474,"subay":6475,"Lis":6476,"lob":6477,"ediyoruz.\n":6478,"uzman ":6479,"diğim":6480," pay":6481,"derin":6482,"dü\n":6483,"yürür":6484," Aralık":6485,"tüket":6486,"Holding":6487,"aydın":6488," Milli ":6489,"\" denildi.\n":6490,"Medi":6491,"Pek":6492,"Tal":6493,"Tuğ":6494,"a­":6495,"gam":6496,"reh":6497,"tac":6498,"esiz":6499,"urken ":6500,"unluğ":6501,"onda ":6502,"izle":6503,"lanma ":6504,"ükm":6505,"çıktığı ":6506,"ansiy":6507," piyas":6508,"etmek için ":6509,"uzaklaştır":6510," en":6511," art":6512,"ht":6513,"ze ":6514,"deneyim":6515,"malıdır.\n":6516,"men, ":6517,"algaz":6518,"araştırma ":6519," Güneş":6520,"beğen":6521," iç":6522,"Kasım":6523,"ruf":6524,"el'in ":6525,"unç":6526," git":6527," hüküm":6528,"cezalandır":6529,"Turizm":6530,"Kir":6531,"Seç":6532,"lılık ":6533,"mıyor.\n":6534,"ıza ":6535," Sekret":6536,"lar arasında ":6537,"yönlendir":6538,"halen ":6539,"kişiler ":6540,"olayın ":6541,"okrat":6542,"koal":6543,"ligde ":6544,"-i ":6545,"mahall":6546,"ekç":6547,"adık.\n":6548,"istis":6549,"aya gel":6550," Belediye Başkanı ":6551,"çok sev":6552,"sin.\n":6553,"suç ":6554,"kızı ":6555,"küresel ":6556,"belirterek ":6557,"gerçekleşti.\n":6558,"The ":6559,"Zaten ":6560,"bunları ":6561,"zan":6562,"zanlı":6563," mı?\n":6564," tat":6565,"sahte ":6566,"lığı, ":6567,", biz":6568,"sevgil":6569," OL":6570,"faaliyet göster":6571,"81":6572,"Jos":6573,"MS":6574,"fabrik":6575,"mül":6576,"sinin ":6577,"şar":6578,"aka ":6579,"ün.\n":6580," sık":6581,"yapmak ":6582," dar":6583," hep":6584,"ukuk ":6585,"ardından, ":6586,"yapılacak.\n":6587,"Ben de ":6588,"Son güncellem":6589,"tik.\n":6590,"İlçesi'nde ":6591,"Yönetm":6592," ABD":6593,"Son güncelleme: ":6594,"!..\n":6595,"Aj":6596,"Uç":6597,"s, ":6598,"tu.\n":6599,"ında":6600,"leri için ":6601," Mehmet ":6602,"Albayr":6603,"uyorum.\n":6604,"odrum":6605,"yardım ":6606,"yetiştir":6607,"canlandır":6608,"kabul ":6609,"Turk":6610,"benzer ":6611,"Manis":6612,"Beş":6613,"Mev":6614,"Rob":6615,"fi":6616,"komut":6617,"our":6618,"ar.\n":6619,"aklar":6620,"lerini, ":6621,"isyen":6622,"karakter":6623,"lenin ":6624,"sonu ":6625," yaşam":6626,"yasının ":6627,"Eğer":6628,"yükselt":6629,"Gençler":6630,"İsveç":6631,"51":6632,"Rak":6633,"ge":6634,"rez":6635,"çök":6636,"işte ":6637,"duyar":6638,"ileriyle ":6639,"acağım":6640,"mali ":6641," şirket":6642," liradan ":6643,"ası\n":6644,"kırmızılı ":6645,"yoktur.\n":6646,"başlang":6647,") ile ":6648,"ban ":6649,"bedel":6650," Hol":6651,"takv":6652,"takımı ":6653," gelir":6654,"Aslında ":6655,"nasıl bir ":6656,"anlaşıl":6657,"Taraf":6658," döneminde ":6659,"elendir":6660," farklı ":6661,"Erzurum":6662," ik":6663,"Sig":6664,"Yönetim":6665,"kaş":6666,"vef":6667,"alıp":6668,"und":6669,"adi ":6670,"adayı ":6671,"itfaiye ":6672,"iber":6673," Ab":6674,"acaktır":6675,"açıklaması ":6676," Ekim":6677,", bur":6678,"gösteren ":6679,"chester ":6680,"TÜR":6681,"No":6682,"biy":6683,"dek ":6684," Müdürü ":6685,"bakan":6686,"sağlığı ":6687,"ilgilen":6688,"Akhisar":6689," başvur":6690," Temmuz darbe girişim":6691,"uzun süre ":6692,"iddia edilen ":6693,"ihlal":6694,"deprem":6695,"56":6696,"AĞ":6697,"Siyas":6698,"fez":6699,"eniz":6700,"imam":6701," yüksel":6702,"ağız":6703,"inde bulun":6704,"buldu.\n":6705," Kay":6706,"ne de ":6707,"Aydın ":6708,"görev yap":6709,"bölgedeki ":6710,"uzun sür":6711,"tespit edildi.\n":6712,"yargıl":6713,"değişiklik ":6714,"yürüyüş":6715,"deplasmanda ":6716,"06":6717,"58":6718,"EY":6719,"Merk":6720,"ci, ":6721,"fon":6722,"liliğ":6723,"enn":6724,"ispor":6725,"aları, ":6726,"doğal":6727,"gibi bir ":6728,"ABD ":6729,"gösteriyor.\n":6730,"tüf":6731,"mez.\n":6732,"öğretmen":6733," tane ":6734,"nefes":6735,"Kilis":6736,"FF":6737,"liyet":6738,"ell":6739,"esir":6740," yorum":6741," kıy":6742,"veriyor.\n":6743," Kö":6744,"etmez":6745," pr":6746,"teknoloji ":6747,"teşebb":6748,"ası'nın ":6749,"sokağa çık":6750,"yansıt":6751,"ürriyet":6752,"cemaat":6753," çok ":6754,"' diye ":6755,"MİT":6756,"fel":6757,"e karşı ":6758,"amir":6759,"olarak da ":6760,"efer":6761,"yolcu ":6762,"dair ":6763," taraftar":6764,"kontrol ":6765,"devreye ":6766,"birbirine ":6767,"Filist":6768,"Abdullah":6769,".com":6770,"72":6771,"Mac":6772,"tına ":6773,"şut":6774,"arab":6775,"aracı ":6776,"dık ":6777," bar":6778," gid":6779," Beşiktaş":6780,"imizden ":6781,"düşman":6782,"fazl":6783," sahibi ":6784,"etti\n":6785,"gidip":6786,"patlayıc":6787,"hikay":6788,"restor":6789,"78":6790,"HK":6791,"Ust":6792,"iyade ":6793,"üzün":6794,"olmas":6795,"devam edeceğ":6796,"bilgileri ":6797,"hepsi ":6798,"incelen":6799,"aktaran ":6800,"kavg":6801,"Oysa ":6802,"Afrik":6803," Mayıs ":6804,"Silahlı Kuvvet":6805,"Bana ":6806,"Kurulu ":6807,"Mak":6808,"Mısır":6809,"ax":6810,"cer":6811,"rok":6812,"ars":6813,"ekran":6814,"on, ":6815,"yaparak ":6816,"gerç":6817,"ortaj":6818,"000":6819,"ince, ":6820,"oynayan ":6821,"test":6822,"farkı ":6823,"ersin ":6824,"Uzman ":6825,"mevz":6826,"reform":6827,"etkinlik":6828,"şunları söyledi: \"":6829," alın":6830,"âh":6831,"ek.\n":6832,"birisi ":6833,"avüz":6834,"belirtiliyor.\n":6835,"altına alındı.\n":6836,"paşa ":6837,"teşvik ":6838,"çat":6839,"ıdaki ":6840,"ılacak.\n":6841,"iss":6842,"uzat":6843," teh":6844,"ma yas":6845," Sul":6846,"trib":6847,"ılarına ":6848,"itiraz":6849,"yükseldi.\n":6850,"Barış":6851,"öportaj":6852,"F.Bahç":6853,"\"D":6854,"Kadın ":6855,"e\n":6856,"übeli ":6857,"olayı ":6858,"ının da ":6859," Kasım ":6860," Dış":6861,"demokratik ":6862,"denetim":6863,"ebiliyor.\n":6864,"hasta ":6865," Yılmaz":6866,"maliyet":6867,"benim ":6868,"luluk":6869," kilo":6870," doğr":6871,"Kral":6872,"deksi ":6873,"\" ve \"":6874,"fatur":6875,"hücr":6876,"mon":6877,"ÖR":6878,"bir gün ":6879,"polis, ":6880,"iddiasıyla ":6881," sayılı ":6882,"çözül":6883,"kurtarıl":6884," tutuk":6885,"sebebiyle ":6886,"fikir":6887,"düm.\n":6888,"Yargıt":6889,". m":6890,"Belediye Başkanı ":6891,"Lİ":6892,"Say":6893,"Yay":6894,"uvar":6895,"alak":6896,"imen":6897,"lamaya ":6898,"konusu ":6899,"yönel":6900,"ıtı ":6901,"Burak ":6902,"Bursa ":6903,"ilçe ":6904,"refer":6905,"IZ":6906,"Köy":6907,"Moskov":6908,"gesi ":6909,"relik ":6910,"soh":6911,"larım":6912,"ıklı ":6913,"stand":6914,"geleceğ":6915,"diren":6916,"mış bir ":6917,"düzey":6918,"ortaya çıkar":6919,"dolu ":6920,"ümüzde ":6921,"ültesi ":6922,"yatırımc":6923,"merkezi ":6924,"medya ":6925,"Yunanistan":6926,"Belçik":6927,"Nasıl":6928,"Pak":6929,"Yurt":6930,"alım.\n":6931,"deks":6932,"aması ":6933,"ür.\n":6934,"omez":6935," Sok":6936,"süreci ":6937,"yerel":6938,"üçüncü ":6939," kararı ":6940,"sonra, ":6941," liraya ":6942," vitam":6943,"Büyükelç":6944,"İsviç":6945,"Japon":6946,"54":6947,";\n":6948,"Gar":6949,"ahh":6950,"ağab":6951," sene ":6952,"ini de ":6953,"başladığı ":6954,"eğiyle ":6955,"olan ve ":6956,"ayrıldı.\n":6957," Haziran ":6958,"etkin ":6959,"Türkiye ve ":6960,"İstih":6961,"sözlerini ":6962,"oşk":6963,"Haz":6964,"Sistem":6965,"YA":6966,"dam ":6967,"malı ":6968,"tey":6969,"şef":6970,"an, \"":6971,"isi":6972,"adal":6973," boz":6974,"stat":6975,"başından ":6976,"uyuşturucu ":6977,"kalab":6978,"incir":6979,"ilk yar":6980,"değerli ":6981,"memiş":6982,"ekiplerinin ":6983,"bilgilere ":6984,"Demirtaş":6985,"Mahallesi'nde ":6986,"madde ":6987," Belediyespor":6988," dönüş":6989,"vel":6990,"yalan":6991,"Şer":6992,"iya ":6993,"ünel":6994,"ağını ":6995,"adam ":6996," tamam":6997,"kalkış":6998,"haksız":6999,"kaza ":7000,"hazırlık":7001,"İngiltere ":7002,"'l":7003,"76":7004,"ette ":7005,"ons":7006,"landığı ":7007," mas":7008,"kişis":7009,"kimlik ":7010," sayesinde ":7011,"delil":7012,"firmalar":7013,"abilmek için ":7014,"Köpr":7015,"Nusay":7016,"TT":7017,"o'":7018,"alacak":7019,"bulut":7020,"olmadan ":7021,"ımızda ":7022,"Cumartesi ":7023,"dışarı ":7024,"ABD'li ":7025,"Orhan ":7026," başar":7027," günlerde ":7028,"görüntül":7029,"Hollandalı ":7030,"olumsuz ":7031,"Nih":7032,"Tes":7033,"Umut":7034,"buz":7035,"vas":7036,"lerdeki ":7037," tab":7038,"lamış":7039,"bilim":7040,"lı ve ":7041,"güven ":7042,"ilmesini ":7043,"isi ve ":7044,"düzenlendi.\n":7045," Val":7046,"hayatını kaybetti.\n":7047,"üniversite ":7048,"hesabından ":7049," Büyükşehir":7050," dışı ":7051,"cilik ":7052,"çok":7053,"iyorsunuz":7054,"lamak ":7055,"ı, \"":7056,"kadr":7057," Yıl":7058,"asketbol":7059,"ecek olan ":7060,"insanlar":7061,"şirketin ":7062,"kavuş":7063,"satışa ":7064," sınav":7065," temsilc":7066,"Şimşek":7067,"Tol":7068,"Yem":7069,"sk":7070,"sıf":7071,"etle ":7072,"ediler.\n":7073,"alarıyla ":7074,"ihb":7075,"epe ":7076," yıldız":7077,"ansı ":7078,"sayısının ":7079,"bölgesinde ":7080,"kısmı ":7081,"Faruk ":7082,"Evet":7083,"coğraf":7084," köy":7085,"ağının ":7086,"tihar":7087,"la birlikte ":7088,"liam":7089,"yakıt":7090," bin dolar":7091,"harc":7092,"sizi ":7093,"sözlerine ":7094,"aktardı.\n":7095,"saatlerinde ":7096," Belediyesi ":7097,"yukar":7098,"televizyon ":7099,"Açıklamada, ":7100,"Gümüş":7101," zaman":7102,"Cih":7103,"DU":7104,"ave ":7105,"kı":7106,"el M":7107,"da \"":7108,"ediyorum.\n":7109,"aff":7110,"oldu\n":7111,"konus":7112,"kanın ":7113,"karşısına ":7114,"malzem":7115,"Karar":7116,"gündeme ":7117,"Antalyaspor":7118,"akşam saatlerinde ":7119,"saygı ":7120,"toplantısında ":7121,"'de, ":7122,"79":7123,"Ast":7124,"City":7125,"DK":7126,"Siyah":7127,"o M":7128,"aralık":7129,"bir k":7130," man":7131," ve bu ":7132," Has":7133," Pro":7134,"rol ":7135,"lerimize ":7136,"du ve ":7137,"idari ":7138,"aşkın ":7139,"edilmiş":7140," mey":7141," mus":7142,"malı.\n":7143,"görüşme ":7144,"memesi ":7145,"Hakkar":7146,"paylaştı.\n":7147,"İzmir'de ":7148,"öğretmen ":7149,"Anadol":7150,"neij":7151,"memnun":7152,"Şırnak":7153,"68":7154,"LI":7155,"Mesel":7156,"Ner":7157,"bis":7158,"gıda ":7159,"jandarma ":7160,"vil":7161,"enleri ":7162,"işadam":7163,"ahat ":7164,"için":7165,"yangın ":7166,"sanık ":7167," ederek ":7168,"kişiye ":7169,"yazı ":7170,"\" diyor.\n":7171,"hane ":7172,"haberi ":7173,"farklı bir ":7174,"Kendi ":7175,"Spor Toto Süper Lig":7176,"baskı ":7177,"PKK'lı terörist":7178," Milletvekili ":7179," galibiyet":7180,"potansiy":7181,"69":7182,"E.":7183,"Parti ":7184,"tın":7185,"den sonra ":7186,"avro":7187,"verim":7188,"artan ":7189,"ların da ":7190,"ladığını ":7191,"gözaltına ":7192,"dolaş":7193,"işlemleri ":7194,"Elek":7195,"mekten ":7196,"Başbakan Yardımcısı ":7197,"ı\"na ":7198,"mahkemeye ":7199,"\" söz":7200,"örnek":7201,"öğle ":7202,"Müslüman ":7203,"misaf":7204,"Çocuk ":7205,"-beyazlı ":7206,"05":7207,"Lev":7208,"Mün":7209,"TIR":7210,"des":7211,"enlere ":7212,"amış":7213,"urken, ":7214,"ılmasına ":7215,"getirildi.\n":7216,"me ve ":7217,") -":7218,"güçlü":7219,"kilat":7220,"Ziraat ":7221,"ularak ":7222,"Karadeniz":7223,"Yah":7224,"YOR":7225,"şun":7226,"arş":7227,"bir de ":7228,"ırh":7229,"diğim ":7230,"düştüğ":7231,"üç ":7232,"yapılan açıklam":7233,"Halk ":7234,"Demokras":7235,"uygulaması ":7236,"ı\"nda ":7237,"hâlâ":7238,"şirketi ":7239,"Muhammed":7240,"Un":7241,"iade ":7242,"nedir":7243,"saha ":7244,"ömür":7245,"ettiğimiz":7246,"ates":7247,"ulus":7248," boy":7249," büyük":7250,"gelecek":7251,"günde ":7252,"yapılması ":7253,"zaman zaman ":7254,"polis memur":7255," aldı.\n":7256,"çocukları ":7257," Feder":7258,"Devlet Başkanı ":7259,"Davutoğlu ":7260,"sefer":7261,"çeyrek ":7262,"Balık":7263,"Düş":7264,"mav":7265,"niş":7266,"ww":7267,"ilim":7268,"ol Güneş":7269,"bir sür":7270,"bir durum":7271,"açıdan ":7272," dah":7273,"ilmez":7274,"man, ":7275,"lar ile ":7276," yılından ":7277,"alanan ":7278,"tanın":7279,"Alp":7280,"kullanım":7281,"sahada ":7282,"liği, ":7283,"kararını ":7284,"haberine ":7285,"Benim ":7286,"Anayasa Mahkem":7287,"Bülent":7288,"\"ün ":7289,"Rapor":7290,"ane ":7291,"ink":7292,"irti":7293," Ah":7294," Kılıçdar":7295,"manlık ":7296,"söylen":7297,"incisi ":7298,"kullanan ":7299,"Türk Silahlı Kuvvet":7300,"tedavisi ":7301,"sevk edilen ":7302,"bilgiler ":7303,"Koca":7304,"kesinlikle ":7305,"Öyle ":7306,"Süleyman ":7307,"THY":7308,"Yet":7309,"ati":7310,"onlar":7311,"işim ":7312,"bu kadar":7313,"kanıt":7314,"kadının ":7315,"bakıl":7316,"devam etm":7317,"görevi ":7318,"milyon":7319,"önceden ":7320,"ARA":7321,"lasyon ":7322,"elikli ":7323," gerekiyor.\n":7324,"belediy":7325,"ev sahip":7326,"Barcelon":7327,"imenkul":7328,"Elektr":7329,"Gol":7330,"fi ":7331,"kin ":7332,"udur.\n":7333,"Üm":7334,"çay":7335,"olacağı ":7336,"birini ":7337,"birleştir":7338,"e, \"":7339," Müdürlüğ":7340,"parlament":7341,"şehir ":7342,"düzenledi.\n":7343,"çevres":7344,"çalışmalarını ":7345,"paylaşım":7346,"Twitter":7347,"Dan":7348,"Hin":7349,"cir":7350,"lusu ":7351,"el yapımı ":7352,"in yuvar":7353,"uncu ":7354,"eme":7355,"uma ":7356," yılının ":7357,"gerektiğ":7358,"eden, ":7359," for":7360,"inizin ":7361,"Akdeniz":7362,"içeren ":7363,"Beşiktaş, ":7364,"adım at":7365,"İzm":7366,"Başbakan Ahmet ":7367," Trump":7368," paylaş":7369,"lüks":7370,"eline ":7371,"aşk":7372," bey":7373," mücade":7374," mesel":7375,"konuyla ilgili ":7376,"sanay":7377,"efsan":7378,"ılardan ":7379,"bekle":7380,"vatan ":7381," süren ":7382,"hakkı ":7383,"şu ifade":7384,"karar verdi.\n":7385,"karıştır":7386,"sıkıntı ":7387,"sorularını ":7388,"puan ":7389,"şöyle:\n":7390,"al Madrid":7391,"SO":7392,"Yal":7393,"ödey":7394,"ikili ":7395,"dun ":7396," mer":7397," tr":7398,"Bu konuda ":7399,"lerin de ":7400,"olduğunu ve ":7401,"bölücü ":7402,"lıktan ":7403,"iler ve ":7404,"hiç ":7405," yarg":7406,"teşem":7407,"ateşkes":7408,"Kanun":7409,"etkisiyle ":7410," sergil":7411,"ablus":7412," alan":7413,"Ef":7414,"Meh":7415,"Zeyn":7416,"dö":7417,"e'den ":7418,"anını ":7419,"azartesi ":7420,"'nci ":7421," Bar":7422,"olmak":7423,"olduğu, ":7424,"yüzünden ":7425,"patlama ":7426,"sürdürül":7427,"kınma ":7428,"i'ni ":7429,"i'ndeki ":7430,"sözleşme ":7431,"şunları kaydetti:\n":7432,"Bilg":7433,"Kadıköy":7434,"öf":7435,"alkol":7436,"larda, ":7437,"enk":7438,"konul":7439,"\" adlı ":7440,"sahne ":7441," frag":7442,"kazanan ":7443," halinde ":7444,"lazım":7445,"Kırmız":7446," hastan":7447,"olup olm":7448,"Osmanlıspor":7449," ancak ":7450,"S.":7451,"UZ":7452,"hırsız":7453,"iyiz.\n":7454,"geliyor":7455," her":7456,"eğer ":7457,"inden sonra ":7458,"dik, ":7459," pazar":7460," konus":7461,"Organ":7462,"Önce ":7463,"fiyatı ":7464,"Hastanesi ":7465,"yakalandı.\n":7466,"duklarını ":7467," krizi ":7468,"Sözcüsü ":7469,"darbe girişimi ":7470," kesim":7471,"Komutanı ":7472," mensubu ":7473,"şunları söyledi:\n":7474," - Spor Haberleri\n":7475,"bec":7476,"anti":7477,"lardır.\n":7478,"ler tarafından ":7479,"yapacağı ":7480," Kom":7481,"ecekler":7482,"hakaret":7483,"o da ":7484,"vatandaşlar":7485,"şu an ":7486,"ampiyon ":7487,"Onur":7488,"Esed":7489,"atılım":7490,"yaşandı.\n":7491,"yağmur":7492,"internet ":7493,"hain":7494," mağlup":7495,"soğuk ":7496,"LAN":7497,"dü ":7498,"mara ":7499,"sarı ":7500,"Çık":7501,", N":7502,"ong":7503," yokt":7504,"adıyla ":7505,"başarı ":7506,"idor":7507,"yerden ":7508,"makla ":7509,"bekleyen ":7510,"ınızda ":7511,"görev yapan ":7512,"ifade ed":7513,"ması gerektiğini ":7514,"edebilir":7515,"organizasyon":7516,"Sen ":7517,"olacaktır.\n":7518,"onur":7519,"aport":7520," spor":7521,"avr":7522,"adı'n":7523,"ısın":7524,"bulundur":7525,"Anahtar":7526,"ülkeyi ":7527,"Arda ":7528," fir":7529,"diğini söyledi.\n":7530,"Emniyet":7531,"seniz":7532,"mayı başar":7533,"suçlam":7534," TL'den ":7535,"ılması için ":7536,"ektedir":7537,"yaralanan ":7538," Mart'ta ":7539,"Savc":7540,"İYE":7541,"redde":7542,"Bölüm":7543,"ivr":7544,"rük ":7545,"röportaj":7546,"tap":7547,"uki ":7548,"ü'nde ":7549,"alı, ":7550,"de de ":7551,"ıyız":7552,"if ":7553,"talık ":7554," Hal":7555,"leyi ":7556,"etkiley":7557,"müştü.\n":7558,"uğrul":7559,"Real Madrid":7560,"Böyle ":7561,"Is":7562,"Tor":7563,"kin":7564,"kafa ":7565," sayı ":7566," mi ":7567," mal":7568,"istiyor":7569," Bul":7570,"eğine ":7571,"ilmesine ":7572,"süren ":7573,"iyle ilgili ":7574," Yönetim Kurulu Başkanı ":7575,"se de ":7576," başka ":7577,"özelliği ":7578,"burg":7579,"patlat":7580,"bölümünde ":7581,"aracılığıyla ":7582,"Başbakan Binali ":7583,"sosyal medyada ":7584,"Fakat ":7585," yayın":7586,"Alınan bilgiye göre, ":7587," asker":7588,"(S":7589,"mük":7590,"nez":7591,"almak ":7592,"almak için ":7593,"ınç":7594,"lerde, ":7595,"iber ":7596,"santr":7597,"bakış":7598,"Kara ":7599,"her iki ":7600,"maz.\n":7601,"ilişkiler":7602,"Toplum":7603,"gerçekleşen ":7604,"hain ":7605,"istihdam":7606,"esnasında ":7607,"biçimde ":7608,"!\"":7609,"):":7610,"Med":7611,"nak ":7612,"veda ":7613,"ary":7614,"alır":7615,"ikli ":7616,"açığa ":7617,"lıların ":7618," hava ":7619,"lemek için ":7620," oluştur":7621,"sayf":7622,"ettim.\n":7623,"Manchester ":7624," teknoloj":7625,"Türkiye Cumhuriyeti ":7626,"Ege ":7627,"Mevl":7628,"sın ":7629,"tv":7630,"Öl":7631,"intihar":7632,"estival":7633,"emi ":7634,"azen ":7635,"örgü":7636,"eğinde ":7637,"Erol":7638,"maya başladı":7639,"lider ":7640,"istifa ":7641,"başvuru ":7642,"Şanlıurf":7643,"Kent":7644,"UT":7645,"civarında ":7646,"ney":7647,"ind":7648,"izespor":7649," kut":7650,"adı ve ":7651,"ışık ":7652,"um, ":7653," seb":7654,"kayg":7655,"ortasında ":7656,"ücü":7657,"kullanarak ":7658,"yolda ":7659,"tutar":7660,"sert ":7661,"terör örgütüne ":7662,"cell":7663,"banka ":7664,"ele geçirildi.\n":7665,"başlamış":7666,"suik":7667,"bilgilendir":7668,"77":7669,"?.\n":7670,"Boğaz":7671,"aw":7672,"mahal":7673,"mı?\n":7674,"siye ":7675,"aspor":7676,"istan, ":7677," Kan":7678,"masın":7679,"sun.\n":7680,"kaçan ":7681,"yaptığı konuş":7682,"düşünül":7683,"DEN":7684,"beslen":7685,"meşin yuvar":7686,"Donald":7687,"Ticaret ":7688,"O'su ":7689," İl":7690,"he":7691,"les":7692,"raman ":7693,"arasın":7694,"dıy":7695," koş":7696," Kelim":7697,"İstik":7698,"larla ilgili ":7699,". -":7700,"Kendis":7701," düşün":7702,"Belki ":7703,"Sinan ":7704,"Üyesi ":7705," adlı ":7706,"CI":7707,"OĞ":7708,"Tos":7709,"hid":7710,"log":7711,"ood":7712,"voc":7713,"yeşil":7714,"ü\n":7715,"deli ":7716,"ami ":7717,"ılmasını ":7718,"işaret":7719,"ağz":7720," bugün ":7721,"ını da ":7722," din":7723,"ezar":7724,"geleri ":7725,"ler ile ":7726,"sahib":7727,"beklem":7728," arac":7729,"Cumhurbaşkanı Erdoğan ":7730,"ederken, ":7731,"Fransa ":7732,"yargı ":7733,"değişiklik":7734,"sık sık ":7735,"İYOR":7736," Mahallesi ":7737," Suriye ":7738,"Şampiyonlar ":7739," makin":7740,"otosiklet":7741,"Böyle bir ":7742,"Hır":7743,"Metin ":7744,"Var":7745,"Vali ":7746,"gan ":7747,"mi":7748,"nok":7749,"şiş":7750,"aktiv":7751,"birden ":7752,"birleş":7753,"ına göre ":7754,"göreve ":7755,"Ert":7756,"el bir ":7757,"göğ":7758,"yolcu":7759,"mek üzere ":7760," PKK":7761,"dığını söyledi.\n":7762,"Adli ":7763,"operasyonu ":7764," yaralı":7765,"Hakim":7766,"Suriye'ye ":7767,"Paralel ":7768,"sakin":7769,"Önümüzdeki ":7770," kanat":7771,"İtalyan ":7772,"zengin":7773,"iyileş":7774," Dışişleri ":7775,"İzmir ":7776,"Ocak ":7777,"Pen":7778,"cak, ":7779,"ent ":7780," sal":7781," müdür":7782," miktar":7783," Bab":7784,"ülkeler ":7785,"ana kadar":7786,"mak.\n":7787,"odol":7788,"kimsenin ":7789,"karşılan":7790,"Türkiye Kupası ":7791,"Anahtar Kelim":7792,"Malat":7793,"i olarak ":7794,"alkış":7795,"et ve ":7796,"le birlikte ":7797,"ik ve ":7798,"afaz":7799," Mustafa ":7800,"üzerine, ":7801,"altındaki ":7802,"ilk defa ":7803,"deniz ":7804,"gözlem":7805," konut":7806,"odaklan":7807,"esinin ardından ":7808," geliş":7809,"başarısız":7810,"organize ":7811,"serbest bırakıldı.\n":7812,"televizyon":7813,"İstihbar":7814,". ile ":7815,": T":7816,"a\"":7817,"dolayısıyla ":7818,"ÖZ":7819,"i bir ":7820,"anında ":7821,"ilir":7822,"izde ":7823,"eygam":7824,"ikna ":7825,"ısındaki ":7826," Bu ":7827," yapılan ":7828,"ecekleri ":7829,"meslek":7830,"üçüncü":7831,"ınız ":7832,"Orada ":7833,"İşleri ":7834,"Günlük ":7835,"tamamladı.\n":7836,"Cumhurbaşkanı Erdoğan, ":7837,"ası\"n":7838,"programı ":7839,"nited":7840,"toplant":7841,"Suriyel":7842,"İnşaat":7843,"Kartal":7844,"Otomobil":7845,"dolandırıc":7846,"muyor":7847,"meli ":7848,"e de ":7849,"e ile ":7850,"etleri ":7851,"atan":7852,"ılır":7853,"yaptığını ":7854,"uzan":7855,"li'nin ":7856," bir şekilde ":7857,"getirdi.\n":7858,"ecek bir ":7859,"mesi ve ":7860,"meye başladı.\n":7861,"sahip.\n":7862,"Obama ":7863,"Genel Müdürü ":7864,"gibi, ":7865,"Terörle Mücadele ":7866,"teşebbüs":7867," ilç":7868,"Din":7869,"Fran":7870,"bet ":7871,"feder":7872,"lıyor":7873,"şeye ":7874,"izler":7875,"yapıyor":7876,"kariyer":7877,"lı.\n":7878,"gördüğ":7879," tek ":7880,"Bu yüzden ":7881,"yıllardır":7882,"gerektir":7883,"görevlendir":7884,"gittiği ":7885,"PKK'ya ":7886,"otomatik ":7887,"yaşandığı ":7888,"oturan ":7889,"avukatı ":7890,"toplantı ":7891,"ölçüde ":7892,"Soruştur":7893,"eytin":7894," kampan":7895," çocuk ":7896,"Dağ":7897,"Mas":7898,"SAB":7899,"bö":7900,"park":7901,"tuk":7902,"an önce ":7903,"oranda ":7904,"stit":7905," mı ":7906," hizmet":7907,"etmem":7908," para ":7909," El":7910,"195":7911,"iğer":7912,"güvenli ":7913,"ortaya çıkan ":7914,"dayız.\n":7915,"Altın":7916," Türk ":7917,"Bit":7918,"Gönül":7919,"helikopter":7920,"uları ":7921,"atlat":7922,"işçi ":7923,"işbirliğ":7924," kans":7925," kurulu ":7926,"tarz":7927," Sal":7928,"doğan ":7929,"Birçok ":7930,"ABD'ye ":7931,"propag":7932,"uygulanan ":7933,"ılığını ":7934,"başlatıldı.\n":7935," derece ":7936,"antrenman":7937,"Enerji ":7938,"HAL":7939,"Kem":7940,"i: ":7941,"muştur.\n":7942,"saf":7943,"oyunun ":7944,"çıkıyor.\n":7945,"acakları ":7946,"lub":7947,"sonra da ":7948,", bunun ":7949,"içeris":7950,"Avrupa'ya ":7951," arasındaki ":7952,"bilgisayar":7953,"arkadaşı ":7954,"Aziz ":7955,"evizyon":7956," milyar dolarlık ":7957,"cinayet":7958,"güzel bir ":7959,"tahmin ediliyor.\n":7960,"Emniyet Müdürlüğü ":7961,"Birleşmiş":7962,"Londr":7963,"Selçuk ":7964,"Mec":7965,"Yur":7966,"Yağ":7967,"neler ":7968,"netic":7969,"paket":7970,"açtı.\n":7971," Kap":7972,"efen":7973," Hak":7974,"sermay":7975," sonucu ":7976," yarat":7977," sorun":7978,"öğrenci ":7979,"Parlament":7980,"araştırmalar":7981,"ması gereken ":7982,"kâr":7983," diyerek ":7984," milyon lira ":7985," şüpheli ":7986,"Van Pers":7987,"Avustur":7988,"Dk.\n":7989,"United":7990,"andan ":7991,"ayakta ":7992," kadın ":7993,"land":7994," tep":7995,"up, ":7996,"toplu ":7997,"getiren ":7998,"dışındaki ":7999,"re'de ":8000," saatleri arasında ":8001," numar":8002,"muş.\n":8003,"oluşturul":8004,"logan":8005,"yalnızca ":8006,"Resmi ":8007,"Örneğin ":8008,"doğrultusunda ":8009,"800":8010,"Alan":8011,"Hac":8012,"ÜZ":8013,"olası ":8014,"bir önceki ":8015,"abor":8016,"sürük":8017,"leyerek ":8018,"ock":8019,"dönemin ":8020," günlük ":8021,"İLG":8022,"ASI":8023,"soruşturma kapsamında ":8024,"esi'nden ":8025,"Zirv":8026,"Eğitim ve ":8027,"emez.\n":8028,"Kısa ":8029,"OBİ":8030,"Fikret ":8031," İstanbul":8032,"04":8033,"EZ":8034,"Güç":8035,"Lim":8036,"Tat":8037,"post":8038,"yor":8039,"zırh":8040,"öt":8041,"asgari ":8042," kav":8043," kalan ":8044,"konser":8045,"lenmiş":8046," hey":8047,"ihbar":8048," Af":8049," Teknik ":8050," Eur":8051,"mek ve ":8052," yarış":8053," sayf":8054,"halkı ":8055,"maddi ":8056,"Biz de ":8057,"tecavüz":8058,"ülkemizin ":8059,"Genelkurmay Başkan":8060,"(FETÖ":8061,".tr":8062,"Güzel":8063,"Kav":8064,"lev":8065,"lov":8066,"rac":8067,"Çift":8068,"ulusal":8069," kir":8070,"abını ":8071,"Arkadaş":8072,"tıktan sonra ":8073,"havaliman":8074,"Başbakan":8075,"eder.\n":8076,"eksiyon ":8077,"tüketim":8078,"Spor Haberleri - Zaman Gazetesi\n":8079,"bozul":8080,"kadınların ":8081,"görüyoruz.\n":8082,"sokağa çıkma yas":8083,"62":8084,"63":8085,"BA":8086,"Mersin ":8087,"Yalç":8088,"faktör":8089,"nükle":8090,"sek ":8091,"e göre ":8092,"anlar, ":8093,"ayol":8094,"iyim":8095,"birer ":8096,"işlet":8097,"ikap":8098,"bilm":8099," Atatür":8100,"değinen ":8101,"topla ":8102,"derb":8103," Demir":8104,"terör ":8105,"getirilen ":8106,"yapılıyor.\n":8107,"lıkta ":8108,"192":8109," kişiyi ":8110,"insanlar ":8111,"insanlara ":8112," gören ":8113,"konuşma ":8114,"sinem":8115,"teröristlerin ":8116," civarında ":8117,"tavır":8118,"Başkanlık ":8119,"cep telefon":8120,"Diğer":8121,"mesinde bulundu.\n":8122,"AA muhabirine ":8123,"! - Sözcü Gazetesi\n":8124,"Oz":8125,"anak ":8126,"itr":8127,"olmuştu.\n":8128,"ıyla ilgili ":8129,"büyüy":8130,"ebileceğini ":8131,"hasar":8132,"üstüne ":8133,"o zaman ":8134,"saldırılar":8135," sonunda ":8136,"hazırlık ":8137,"Program":8138,"iyorum, ":8139,"diğimiz ":8140,"Görüş":8141,"gecik":8142," sonrasında ":8143,"hatırlatan ":8144," müdahal":8145,"Sulh":8146,"zengin ":8147,"TÜRK":8148,"Pan":8149,"Tun":8150,"Yatırım":8151,"tuz":8152,"inal":8153,"indi.\n":8154,"eli.\n":8155,"lerin":8156,"gördü.\n":8157,"esi de ":8158," Boz":8159,"çok önemli ":8160,"sanık":8161,"tank":8162,"Özdemir":8163,"sa da ":8164," Pol":8165,"lisans":8166,"Deniz ":8167,"dizi ":8168,"yürüttüğ":8169,"küresel":8170,"Abdül":8171,"garant":8172,"toplantısı ":8173,"izleyic":8174,". haftasında ":8175,"maruz kal":8176,"cerrah":8177,"99":8178,"Mon":8179,"Yok":8180,"o ve ":8181,"şir":8182,"arken, ":8183,"eliği ":8184,"elidir.\n":8185,"ork ":8186,"ekle ":8187,"işler":8188," tah":8189,"imiz, ":8190,"karşın ":8191,"mek istem":8192,"lerinin ardından ":8193,"yasak":8194,"görevini ":8195," Başakşehir":8196,"kamyon":8197,"sın.\n":8198,"konuşul":8199,"doğrul":8200,"adım ":8201,"Almanya'nın ":8202,"Bunun için ":8203,"Kulüb":8204,"önüne geç":8205," Grub":8206," soruşturması ":8207,"John ":8208,"standart":8209,"Gez":8210,"Göl":8211,"Yür":8212,"`n":8213,"civar":8214,"diler":8215,"luy":8216,"lar\n":8217,"ikram":8218," yine ":8219," km":8220," sat":8221," Kültür":8222,"vardır":8223,"Türkiye-":8224,"o R":8225,"değerlendirmeler":8226," kadın":8227,"En İyi ":8228,"oyuncunun ":8229,"Euro ":8230,"cuma ":8231,"anımsat":8232,"mesinin ardından ":8233,"virüs":8234,"Şüphel":8235,"Birleşmiş Millet":8236,"Zam":8237,"kök":8238,"sa":8239,"sinde ":8240,"ü\"n":8241,"İST":8242,"ari ":8243,"aşağı ":8244,"izlen":8245,"ası için ":8246,"göre;":8247,"ibe ":8248," Ser":8249,"toplanan ":8250,"ecek ve ":8251,"profesyon":8252,"prim":8253," gün önce ":8254," sınıf":8255," Şubat'ta ":8256,"Cerablus":8257," Emniyet Müdürlüğü ":8258,"61":8259,"Hoc":8260,"Mic":8261,"altı":8262,"aya, ":8263,"bu kez":8264,"edeli ":8265,"up ":8266,"hale getir":8267,"AB ":8268,"ilgilendir":8269,"paralel":8270,"kaçak ":8271,"güvenliği ":8272,"Hakem":8273,"Doğan ":8274,"kardeşi ":8275,"İlçesi ":8276,"kahv":8277,"sigorta ":8278,"yayımlanan ":8279,"Bür":8280,"ka":8281,"üler ":8282,"almış":8283,"elbette ":8284,"ayak ":8285,"dı!\n":8286,"itan":8287,"eşlik ":8288," tören":8289,"eleriyle ":8290,"kan, ":8291," yıl sonra ":8292,"malarına ":8293,"larının da ":8294,"üsteş":8295,"ileri ve ":8296,"kred":8297,"tabl":8298,"hükümetin ":8299,"sivil toplum":8300,"tipi ":8301,"biraz daha ":8302," değişik":8303,"müzaker":8304,"Hindist":8305,"' dedi.\n":8306,"82":8307,"Danış":8308,"ÜK":8309,"öm":8310,"İ H":8311,"el kon":8312,"oradan ":8313,"isan ":8314,"emem":8315,"imkanı ":8316," dün ":8317,"icra ":8318,"park ":8319,"lıklar":8320,"yapılan yazılı ":8321,"polisin ":8322,"ön plan":8323,"Kemal Kılıçdar":8324,"Rieker":8325,"Beni ":8326,"Ceng":8327,"Clint":8328,"Wil":8329,"balık":8330,"laf":8331,"payı ":8332,"yayı ":8333,"şoför":8334,"ekim ":8335," yeri ":8336,"dua ":8337,"ada.\n":8338,"itesi ":8339,"kent ":8340,"çok fazla ":8341,"alanına ":8342,"yönündeki ":8343,"leyici ":8344,"yola çık":8345,"Özbek":8346,"hayvan":8347,"duyurul":8348,"geçen hafta ":8349,"götürül":8350,"Bunlar":8351,"Sonuç":8352," mu?\n":8353,"mektup":8354,"G.Saray":8355,"Çakır":8356,"Bol":8357,"Hil":8358,"Tok":8359,"sus":8360,"tim":8361,"çiç":8362,"ıda, ":8363,"eklen":8364,"di: ":8365,"edir ":8366,"ası ile ":8367,"buluştur":8368," Bölg":8369," AL":8370," Av":8371,"bulunduğ":8372,"yansı":8373,"çalıştığı ":8374," Hav":8375,"Orman ":8376,"ailesinin ":8377,"uğunu ":8378,"altına alınan ":8379,"tek bir ":8380,"zamanlarda ":8381,"luluğu ":8382," sağlık ":8383,"riski ":8384,"dahil ":8385," yandan ":8386,"cezaevine ":8387," Birliği ":8388,"Küçük ":8389,"Mut":8390,"ham ":8391,"şı ":8392,"ilave ":8393,"at ve ":8394,"en düşük ":8395,"yaptı":8396,"yarım":8397," ile ilgili ":8398," olacak":8399,"hakları ":8400,"Rusya":8401,"hiçbir şey":8402," derec":8403,"bütç":8404," destek ":8405,"Kıbrıs":8406,"95":8407,"Hey":8408,"Mat":8409,"e'deki ":8410,"t, ":8411,"zincir":8412,"çıl":8413,"e geç":8414,"ekledi.\n":8415,"ikil":8416,"yapmış":8417," dol":8418,"kartı ":8419,"bu tür":8420,"bu yıl ":8421,"likte ":8422,"mak iste":8423,"ecekler.\n":8424,"açıklamasında ":8425,"rahat ":8426,"Advoc":8427,"ucuz":8428,"yeten":8429,"Yıldırım'ın ":8430,"Gülen'in ":8431,"inşallah":8432,"komisyon":8433,"elektronik ":8434,"teknik adam":8435,"Ulusal":8436,"akşamı ":8437,"toplumun ":8438,"toplumsal":8439,"Zira ":8440,"Cenev":8441," Eylül ":8442,"ihtimali ":8443,"(Dk.\n":8444,"oynanacak ":8445,"Samsung":8446,"Hen":8447,"lezz":8448,"tım":8449,"u ile ":8450,"işini ":8451,"adalet":8452,"lanmış":8453,"lıca ":8454,"ması bekleniyor.\n":8455,"halka ":8456,"kapan":8457,"bölün":8458,"gözaltı ":8459,"kişiyi ":8460,"iğit":8461,"harcam":8462,"davet":8463,"kısıt":8464,"Ankara'ya ":8465,"takıma ":8466,"kazandı.\n":8467,"üretimi ":8468,"\" ifadesini kullandı.\n":8469,"Yunus":8470," sistemi ":8471,"zorunlu ":8472,"kulübün ":8473," faaliyet":8474,"Boy":8475,"CİH":8476,"Tim":8477,"can, ":8478,"feri ":8479,"gen ":8480,"meni ":8481,"ran ":8482,"rüz":8483,"elinden ":8484,"etki ":8485,"ondan ":8486,"iş yap":8487,"ıkları ":8488,"inde bulunan ":8489,"eşy":8490,"okol":8491,"terap":8492,"çok büyük ":8493,"lara karşı ":8494,"döndü.\n":8495,"tüm dün":8496,"anlattı":8497," sorum":8498,"dağ, ":8499,"yatırım yap":8500,"Turg":8501," bildir":8502,"çatışma ":8503," serv":8504,"istihdam ":8505,"cenazesi ":8506,"parçası ":8507,"Altın ":8508,"şansı ":8509,"Düzen":8510,"OT":8511,"Tör":8512,"fayda ":8513,"lav":8514,"o dönem":8515,"o kadar ":8516,"ye":8517,"ın ardından ":8518," ses":8519," tasar":8520,"leri tarafından ":8521,"el olarak ":8522,"ayrılan ":8523,"uyoruz":8524,"erber":8525,"eli bir ":8526,"İnter":8527,"insanlık ":8528,"mezar":8529," etmek ":8530,"seyahat":8531,"tabii ":8532," kriz":8533," burada ":8534,"adli kontrol":8535," uçak":8536,"'a, ":8537,"Fir":8538,"Kış":8539,"MA":8540,"UK":8541,"aokul":8542,"gü ":8543,"kok":8544,"koz":8545,"sön":8546,"ıb":8547,"aşa ":8548,"ine ilişkin ":8549,"sta":8550," gen":8551," gece ":8552," devr":8553,"belgeler":8554," Mar":8555,"kur R":8556,"ecektir":8557," bin kişi ":8558,"Bakır":8559,", bun":8560,"ınıza ":8561,"maç ":8562,"disip":8563,"ağır ":8564,"ucusu ":8565,"kaldırılan ":8566,"Aslan":8567,"toplantıda ":8568,"ihtiyaç duy":8569,"bağlantılı ":8570,"tihar ":8571,"Vodafone Aren":8572,"örgüte ":8573,"89":8574,"BI":8575,"Güven":8576,"Min":8577,"Park":8578,"Rah":8579,"Şük":8580,"aleyh":8581,"aşı ":8582," kit":8583," tür":8584," dem":8585,"eğinin ":8586," AK":8587,"alışkan":8588,"doğalgaz":8589,"ana kadar ":8590,"Kardeş":8591,"dü, ":8592," geldi.\n":8593,"genellikle ":8594,"tespit edil":8595," yakın":8596,"amaçlı ":8597," Nisan'da ":8598,"Ceza":8599,"stratejik ":8600,"şöyle devam etti:\n":8601,"Zeynep":8602," çık":8603,"? ":8604,"Cin":8605,"Pet":8606,"Sakar":8607,"şunu ":8608,"arasına ":8609,"est ":8610,"en son ":8611," yok ":8612,"adyum":8613,"bu sezon ":8614,"derin ":8615,"sağlık":8616," edilmesi ":8617,"enin ardından ":8618,"şeyi ":8619,"ıcı, ":8620,"Parç":8621,"elekom":8622," kendis":8623,"koordin":8624,"ticaret":8625,"sigara ":8626,"durdurul":8627,"dokunulmaz":8628,"ordus":8629,"Kayserispor":8630,"fizik":8631,"Mahmut":8632,"dijital":8633,".Ş":8634,"71":8635,"Dolar":8636,"Piyas":8637,"Tasar":8638,"aul":8639,"ric":8640,"tuzak":8641,"lar yap":8642,"elim.\n":8643,"'nın, ":8644," böyle ":8645,"nedeni ":8646,"gerçekleştirdiği ":8647,"mekan":8648,"berg":8649,"terör örgütünün ":8650,"noktasında ":8651," yüzden ":8652,"atçı ":8653,"hukuki ":8654,"şidde":8655,"talebi ":8656,"ACAK":8657," gecesi ":8658,"Çarşamba ":8659,"Turkcell":8660,"Cev":8661,"Kül":8662,"line ":8663,"ru":8664,"vize ":8665,"çaba ":8666,"erlendir":8667,"ıncı ":8668,"lara, ":8669,"in de ":8670,"di?\n":8671,"eman":8672," yüks":8673,"evden ":8674," dir":8675,"kanser ":8676," Amerik":8677,"açıkça ":8678,"Başar":8679,"sorunları ":8680,"alınarak ":8681,"türk":8682,"Bir sür":8683,"İstanbul'daki ":8684,"kimi ":8685,"acağını söyledi.\n":8686,"ikinci yar":8687," kend":8688," bulunuyor.\n":8689,"sanız, ":8690,"enfl":8691,"ücret ":8692,"altını çizen ":8693,"FETÖ'cü":8694,"Edir":8695,"Esen":8696,"Quar":8697,"niye ":8698,"rem":8699,"arak, \"":8700,"ekleri ":8701,"bir grup":8702,"eciler ":8703,"ine karşı ":8704,"eşliğinde ":8705,"istasyon":8706,"aya çalış":8707,"kalıcı ":8708,"Anne ":8709,"mak istem":8710,"düzelt":8711,"bağlantı":8712,"zorlan":8713,"rafik ":8714,"planlanan ":8715,"Hakk":8716,"öğrencilerin ":8717,"Havalimanı ":8718,"Geçmiş":8719,"modern ":8720,"çevresinde ":8721,"Fetullah Gül":8722,"uzaklaş":8723," diyen ":8724,"telefonla ":8725,"Mahkeme ":8726,"buluşan ":8727,"Twitter ":8728,"Ramazan ":8729,"Fırat Kal":8730," Holding":8731,"?'":8732,"Ateş":8733,"BC":8734,"EV":8735,"Of":8736,"lib":8737,"çif":8738,", L":8739,"adlandır":8740," taz":8741,"olmayı ":8742,"Bu sırada ":8743,"roid":8744,"ansiyon":8745,"abilen ":8746,"üsabak":8747,"kapsay":8748,"Arslan":8749,"temin ":8750,"yasına ":8751,"Ünlü":8752,"okrat ":8753,"Avrupa Birliği ":8754,"Antalya'da ":8755,"çoğun":8756," grub":8757," kanal":8758,"Öte yan":8759,"güçlü bir ":8760,"Askeri ":8761," sezonunda ":8762,"şifr":8763,"önde gelen ":8764,".A":8765,".D":8766,"Akar":8767,"Flor":8768,"amadığı ":8769," kıl":8770," bilen ":8771,"üzül":8772,"yakal":8773," Der":8774,"taraftan ":8775,"vurgu ":8776,"ailesine ":8777,"İşletm":8778,"ekiplerince ":8779," verdi.\n":8780,"çalışmalarına ":8781,"Şehit ":8782,"hastalık ":8783,"Gaziantepspor":8784,"Hükümet":8785,"zersiz":8786,"Facebook ":8787," Sultan ":8788,"Mesela ":8789,"CİHAN":8790,"Bi":8791,"Basın ":8792,"ca, ":8793,"koc":8794,"oları ":8795,"biri.\n":8796,"açtığı ":8797," genç":8798,"iyorsunuz.\n":8799,"başlıyor.\n":8800," ve S":8801,"kalb":8802,"kadros":8803,"değer ":8804,"kayyum":8805,"olduğu ve ":8806,"yapılan":8807,"savcı ":8808,"edeceği ":8809,"Ünlü ":8810," çap":8811,"Terörist":8812,"kolaylaştır":8813,"enflasyon ":8814,"şampiyonluk ":8815,"endişe ":8816,"Çocuğ":8817,"İstikl":8818,"Quares":8819,"Gülen ":8820,"Teş":8821,"şiir":8822,"ay'ın ":8823,"endi.\n":8824,"ekler":8825,"isabet ":8826,"bir başka ":8827,"Türkmen":8828,"yaralı ":8829,"'yla ":8830,"girdiği ":8831," Devlet ":8832," sonuc":8833,"Ancak bu ":8834,"tek başına ":8835,"suzluk ":8836,"ılığa ":8837,"Bilim":8838,"bayrak":8839,"bilinç":8840,"koruma ":8841,"reddet":8842,"bahar":8843,"Partisi ":8844,"Finans":8845," yürüt":8846,"keşf":8847," dönüşüm":8848,"Donald Trump":8849," ağr":8850,"'lık ":8851,"TFF":8852,"taç":8853,"yede":8854,"ilirken, ":8855,"ator":8856,"en de ":8857,"örfez":8858," ki":8859,"gelmiş":8860,"geleceği ":8861,"ilmiştir.\n":8862," yaptır":8863,"sağlıyor.\n":8864,"dim, ":8865,"etti ":8866,"yaptığı açıklamada ":8867,"vatandaşı ":8868," Şampiyon":8869,"kapsamında, ":8870,"iyoruz\" dedi.\n":8871,"şirket ":8872,"keyif":8873,"sonuna kadar":8874,"Şube Müdürlüğü ":8875," Başkan Yardımcısı ":8876,"misafir":8877," az":8878,"Cey":8879,"Pas":8880,"US":8881,"fiyat ":8882,"nik ":8883,"aldıkları ":8884,"bir tan":8885," kom":8886,"konsol":8887,"mesl":8888,"iz de ":8889,"\" değ":8890,"çevre ":8891," çünk":8892,"İngiliz ":8893,"Olay, ":8894,"lı bir şekilde ":8895,"benzeri ":8896,"Milli Eğitim":8897,"sabah saatlerinde ":8898,"işaret eden ":8899,"ladıkları ":8900,"Can Dündar":8901,").\n":8902,"700":8903,"Hedef":8904,"Selim":8905,"e\"":8906,"Çam":8907,"ıyan ":8908,"üstünde ":8909,"sıra ":8910,"yazdı.\n":8911,"mayacak.\n":8912,"Dünyada ":8913,"neden olan ":8914,"sürdürdü":8915," değil, ":8916,"herkese ":8917,"şehit olan ":8918,"Direktör":8919,"hikây":8920,"olsun.\n":8921," Ağustos ":8922,"\" suçundan ":8923,"tecrübeli ":8924,"açıklamalarda bulundu.\n":8925,"ceza sahası ":8926,"Çaykur R":8927," nedeniyle ":8928,"ci":8929,"e\" ":8930,"ılarda ":8931,"şen":8932,"ak.\n":8933,"ess":8934,"oğul":8935,"istiyorum.\n":8936,"tarif":8937,"çekiliş":8938,"Başka ":8939,"tür.\n":8940,"pol Başakşehir":8941,"düzenli ":8942,"zorlu ":8943,"yetiş":8944,"Bakanlar":8945,"off":8946,"Marmara ":8947,"Allah'tan ":8948,"damar":8949,"çizg":8950," doğum":8951,"Çelik, ":8952,"73":8953,"Fed":8954,"Mav":8955,"Zar":8956,"fuar":8957,"rot":8958,"şük":8959," kuş":8960," baz":8961,"özür":8962,"üşter":8963,"olmaktan ":8964,"Araç":8965,"siz kal":8966,"metrekar":8967,"cezasına ":8968,"ulaşan ":8969,"buradan ":8970,"Mustafa Koç":8971,"mağaz":8972,"istikamet":8973,"PYD'nin ":8974,"Dursun ":8975,"vücud":8976,"Fern":8977," Grubu ":8978," üste ":8979,"impiyat":8980,"yürürlüğ":8981,"86":8982,"Dön":8983,"Fu":8984,"sek":8985,"yasında ":8986,"Çiç":8987,"alıyor":8988,"olog":8989,"ürken, ":8990,"işar":8991,"bir açıklama ":8992," sey":8993," bütün ":8994," mahkem":8995,"oğun ":8996,"istiyoruz.\n":8997," hiss":8998,"lex":8999,"'yle ":9000,"yakalama ":9001,"yüzlerce ":9002,"lara göre ":9003,"eli ve ":9004,"durumda ":9005,"dönen ":9006,"ı'ndaki ":9007,"Bize ":9008,"rağmen, ":9009,"Fatma ":9010,"ticaret ":9011,"tasarruf":9012,"cinsel":9013,"İspanyol":9014,"nesil":9015,"Apple ":9016," girişim":9017,"Hiçbir ":9018," hareket":9019,"lacivertl":9020," musunuz":9021,"Öte yandan, ":9022,"mik":9023,"nuv":9024,"rı ":9025,"sip":9026,"sat ":9027,"çavuş":9028,"elini ":9029,"emedi.\n":9030,"adil":9031,"ına kadar":9032,"idi ":9033,"olmadı.\n":9034,"yaralı":9035,"çeken ":9036," Gök":9037,"ecek\n":9038,"üss":9039,"etkisini ":9040," eder":9041,"vurdu.\n":9042,"görevden ":9043,"öncelikle ":9044,"selam":9045,"alıdır.\n":9046,"yoksa ":9047,"üfür":9048," puanla ":9049,"Yunan ":9050,"Perşembe ":9051,"sıv":9052," yeniden ":9053,"hapis ":9054,"ismini ":9055,"memnun ":9056,"Facebook":9057,"hediye ":9058,"sıfır":9059,"-G":9060,"83":9061,"Yönetim Kurulu Başkanı ":9062,"a\" ":9063,"küç":9064,"nih":9065,"ograf":9066,"tok":9067,"zehir":9068,"onsor":9069,"onlarca ":9070,"emr":9071," bana ":9072," bask":9073,"ısrar":9074,"ukuk":9075,"oturum":9076,"likleri ":9077,"alındığı ":9078," ile birlikte ":9079,"istemiyle ":9080,"çıkarılan ":9081,"iler için ":9082,"mezun ":9083,"ingöl":9084,"kendisinin ":9085,"seyirc":9086," Bakanlığ":9087,"Sahil":9088,"kar yağışı ":9089,"kuz":9090,"tetik":9091,"zi ":9092,"almaya ":9093,"öngör":9094,"ında da ":9095,"okur":9096,"gereği ":9097,"çekim":9098,"önem taş":9099," yıla kadar":9100,"ımız, ":9101,"ansız":9102,"kişiler":9103,"devam etti.\n":9104,"ailenin ":9105,"Rusya, ":9106,"dığını ve ":9107," yerinden ":9108,"evlilik ":9109," Aren":9110,"ilgisi ":9111,"yükselen ":9112,"Uzmanı ":9113,"dönüşüm":9114,"Olay yerine ":9115,"şehit düş":9116,"Polis, ":9117,"ksüz":9118,"Şu an ":9119,"Valisi ":9120,"gurur":9121,"sürpriz":9122," asist":9123,"Semih":9124,"Adli Tıp":9125,"Laz":9126,"OHAL":9127,"T.":9128,"Tunc":9129,"Ulu":9130,"Yayın ":9131,"diyor":9132,"how":9133,"platform":9134,"tis":9135,"enter":9136,"lerdir.\n":9137," kah":9138," bazı ":9139,"ederken ":9140," gem":9141," Az":9142,"değeri ":9143,"lık ve ":9144,"'ın da ":9145," pat":9146,"gözden ":9147,"Karac":9148,"insanı ":9149," yerde ":9150,"randev":9151,"Cumhurbaşkanı Erdoğan'ın ":9152," yöntem":9153,"hızlandır":9154,"Kayseri ":9155,"Diyarbakır'da ":9156,"Komutanlığ":9157," savun":9158,"Azerbaycan ":9159," Ocak'ta ":9160," Sekreteri ":9161,"Taraftar":9162," ayrı ":9163,"\" baş":9164,"(K":9165,"Bu, ":9166,"Diz":9167,"Ec":9168,"Kuş":9169,"plak":9170,"İt":9171,"aken":9172,"imet":9173,"uluk ":9174,"apol":9175,"gelişim":9176," Ali ":9177," Saray":9178,"öğretim ":9179,"olduğunu söyleyen ":9180,"polisi ":9181,"yazık ":9182,"Kongr":9183," TL\n":9184,"hayatını kaybeden ":9185,"siyon ":9186,"Uygul":9187,"İhrac":9188,"Muhal":9189,"kaynak ":9190,"OP":9191,"Rab":9192,"Tam":9193,"güm":9194,"haz":9195,"iade":9196,"y C":9197,"şampiyon ":9198,"olan, ":9199,"dit":9200,"imle ":9201,"iz ve ":9202," güc":9203,"ları tarafından ":9204,"yaral":9205,"değil ":9206,"leri'nde ":9207,"Konya ":9208,"bıraktı.\n":9209,"eksik ":9210,"seyir":9211,"genç kız":9212,"eğitimi ":9213,"maalesef":9214,"bayram":9215,"Görün":9216,"başlayacak.\n":9217,"O zaman ":9218,"aralarında bulunduğu ":9219," kaynak":9220,"Washington":9221,"suç duyur":9222,"SABAH":9223,"64":9224,"DAN":9225,"Hz":9226,"Mor":9227,"Tay":9228,"Telekom":9229,"lise ":9230,"skan":9231,"zek":9232,"intik":9233,"ola ":9234,"ın ve ":9235,"onar":9236,"ulu ":9237," sosyal":9238," sefer":9239," büt":9240," mut":9241," tartış":9242,"lam ":9243," hast":9244,"ölen ":9245,"erkesi ":9246,"acağımız":9247,"uyordu.\n":9248,"ilk olarak ":9249," oluyor.\n":9250,"hakaret ":9251,"ebileceği ":9252,"194":9253,"dönüm":9254,"ettiler.\n":9255,"hazırladığı ":9256,"alığı ":9257,"Fransa'da ":9258,"tavsiye ":9259,"küçük bir ":9260," gol at":9261,"özgürlük":9262,"henüz ":9263,"duygu":9264,"ortamda ":9265,"Sultan":9266,"faydalan":9267,"ınca, ":9268,"dördün":9269,"rezerv":9270,"irtibat":9271,"'lı ":9272,"(B":9273,"De":9274,"cunun ":9275,"pit":9276,"ÜL":9277,"çağ":9278,"İpek ":9279,"şok":9280," bine ":9281,"lanarak ":9282,"ihmal":9283,"olmuştur.\n":9284,"geçer":9285,"üzere, ":9286,"Ermen":9287,"ayrım":9288,"olduğunu belirtti.\n":9289,"yer verildi.\n":9290,"hayatını ":9291,"operasyonlarda ":9292,"değerlendiren ":9293,"Sonr":9294,"tasarım":9295,"cilt":9296,"ev sahibi ":9297,"Edinilen bilgiye göre, ":9298,"referan":9299,"adı'nda ":9300,"-C":9301,"Num":9302,"dakika ":9303,"füz":9304,"hükm":9305,"za":9306," kabul":9307," bize ":9308,"ile görüş":9309,"üyeleri ":9310,"konuyu ":9311," As":9312,"çekti.\n":9313,"yaşadı.\n":9314,"vurul":9315," fotoğraf":9316," gibi bir ":9317,"mutf":9318,"Galatasaray'da ":9319,"kapsamda ":9320,"sıkı ":9321,"kilit":9322,"halkının ":9323,"cami":9324,"İngiltere'de ":9325,"şiddetli ":9326,"ahattin ":9327,"Birleşik ":9328,"euro":9329,"psikolojik ":9330,"ayakkab":9331,"New York":9332,"istismar":9333,"başlangıç":9334," Köpr":9335,"yapılan açıklamaya göre, ":9336,"ev sahipliği ":9337," okul":9338,"Bodrum":9339,"Jo":9340,"Jam":9341,"KOBİ":9342,"nan ":9343,"çel":9344,"eral ":9345,"isyen ":9346," biç":9347,"evinin ":9348,"eşinin ":9349,"verg":9350,"oyunda ":9351,"lediğini ":9352,"yakalam":9353,"toprak ":9354,"bakar":9355,"yerlerde ":9356,"kapı ":9357,"Birliğ":9358,"söylediği ":9359,"ilişki ":9360," başta ":9361,"Konut":9362,"sinyal":9363," geliştir":9364,"yaklaşım":9365,"Asya ":9366,"istif":9367,"Milli Takım":9368,"orku ":9369,"gazetecilerin ":9370,"Muhar":9371,"Şenol Güneş":9372," ay önce ":9373,"terörle mücadele ":9374," taleb":9375,"haberine göre, ":9376,"Kas":9377,"ker":9378,"kelim":9379,"Öksüz":9380,"el ve ":9381,"bir daha ":9382," kart":9383,"duran ":9384,"belirsiz":9385,"Ergen":9386,"sorg":9387,"sorunun ":9388,"gösterdiği ":9389,"zorluk":9390,"FETÖ'ye ":9391,"geçirdi.\n":9392,"adığımız":9393,"seslen":9394,"muhafaz":9395,"Yılmaz, ":9396,"Kamu ":9397,"Atatürk":9398,"Maliye ":9399,"uyruklu ":9400," Yardım":9401,"sorularını yanıt":9402,"Belediye ":9403,"FI":9404,"Kaf":9405,"Koz":9406,"Mem":9407,"SA":9408,"batı ":9409,"diniz":9410,"motosiklet":9411,"asp":9412,"akrab":9413,"aşk ":9414,"bir dönem":9415,"ach":9416," boş":9417,"başsağlığı ":9418,"acaklar.\n":9419," Gülen ":9420,"rakibi ":9421,"Onu ":9422,"neden oldu.\n":9423,"sınırlı ":9424," kayde":9425," merkezine ":9426,"istan'da ":9427,"düşürül":9428,"Fatih T":9429,"gazetecilere ":9430,"yılın aynı ":9431,"Sosyal med":9432," Mahallesi'nde ":9433,"lacivertli ":9434,"suikast":9435,"Eğitim ve Araştırma ":9436,"Çaykur Rizespor":9437," işlem":9438,"'üncü":9439,") Başkanı ":9440,"dat":9441,"kuc":9442,"inle ":9443,"intihar ":9444,", son ":9445,"ini ve ":9446,"lanması ":9447,"iftir":9448,"ortalam":9449,"alana ":9450,"isi de ":9451,"AB'nin ":9452,"ABER":9453,"meyve ":9454,"iğin ":9455,"hayatı ":9456," milyar TL":9457,"basit":9458," katıldı.\n":9459," yakalan":9460,"ımız var.\n":9461,"Başkanlığı ":9462," bölgesinde ":9463," şüphel":9464,"şimdi":9465,"yolculuğ":9466," meydana ":9467," oy":9468,"(M":9469,"Dep":9470,"Ne":9471,"Ruh":9472,"Sch":9473,"Zey":9474,"düst":9475,"i'den ":9476,"jant":9477,"pah":9478,", A":9479,"akış":9480,"unu":9481,"isar":9482,"apart":9483,"ır ve ":9484,"inde de ":9485," mark":9486,"utan":9487,"istiyor.\n":9488,"için bir ":9489,"eleri ve ":9490," Kı":9491,"geçerli ":9492,"ick ":9493,"eceğim":9494,"olay yerinde ":9495,"sevg":9496,"sözde ":9497,"mühendis":9498,"hedefi ":9499,"şirketlerin ":9500,"konularda ":9501,"ateş ":9502,"zamanla ":9503,"Amerika ":9504,"Bakanlığı, ":9505," milyon dolarlık ":9506,"göçmen":9507,"antrenör":9508,"do-":9509,"video":9510,"\"H":9511,"'ü":9512,"By":9513,"E ":9514,"Efen":9515,"Gec":9516,"Pal":9517,"Sak":9518,"Str":9519,"somut":9520,"y ":9521,"Şiş":9522,"aldık.\n":9523,"ın da ":9524,"izlem":9525," dam":9526,"oldu, ":9527," KAR":9528," yıldan ":9529,"andil":9530," olur.\n":9531,"ebilecek.\n":9532,"tutum":9533,"düzenleme ":9534,"Rusya'ya ":9535,"tamamlay":9536,"dayanış":9537,"biri de ":9538,"otomotiv":9539,"şöyle sürdürdü":9540,"Hayvan":9541," Bakanlığı ":9542,"Kulüp":9543,"muhalefet ":9544,"akademisyen":9545,"New York ":9546,"Akhisar Belediyespor":9547,"Gü":9548,"şet":9549,"alacak.\n":9550,"enler, ":9551,"aci":9552,"ti\n":9553,"biliyor":9554," Kur":9555,"ladı\n":9556,"malara ":9557,"devam ettir":9558,"larına göre ":9559,"durumunun ":9560,"Aks":9561,"ilişkileri ":9562,"geçirdiği ":9563,"mücadelenin ":9564,"lasik ":9565,"Elaz":9566,"luğa ":9567,"kilo ":9568,"Uzman":9569,"CHP'li ":9570,"dikkatli ":9571," Anad":9572,"Cumhuriyetçi ":9573,"Erdoğan'a ":9574,"ligin ":9575,"haline getir":9576,"istihbarat":9577,"Mevlüt":9578,"zırhlı ":9579,"130":9580,"Caddesi ":9581,"Darbe girişim":9582,"Sa":9583,"Som":9584,"co":9585,"han, ":9586,"maş":9587,"o kadar":9588,"tiyatro":9589,"zul":9590,"ÖN":9591,"iyice ":9592," yavaş":9593,"abilmesi için ":9594," sabah":9595,"ında bir ":9596,"Ana ":9597," Galatasaray":9598,"şehidin ":9599,"ebilir ":9600,", bunu ":9601,"arayış":9602,"saldırıya ":9603,"saldırıyı ":9604,"özel sektör":9605,"oğlu ve ":9606,"ekonomi ":9607,"sürdürüyor.\n":9608,"askerlerin ":9609,"Kur'":9610,"Pereir":9611,"Bayram":9612,"AVM":9613," yaralandı.\n":9614,"Teknoloji ":9615,"Portekizli ":9616,"Elazığ":9617,"88":9618,"Böyl":9619,"Doktor":9620,"Zaf":9621,"ber ":9622,"hor":9623,"nem":9624,"çet":9625,"şok ":9626,"amacı ":9627,"ur, ":9628," kas":9629,"adir":9630,"edir.\n":9631,"alarca ":9632,"kanlı ":9633,"Türkçe ":9634," Sar":9635,"ması.\n":9636,"ayrıca, ":9637,"lığıyla ":9638,"devam ediyor":9639,"belirtiyor.\n":9640,"çıkarıldı.\n":9641," gündür":9642,"haberine göre ":9643," Fak":9644,"gönderilen ":9645,"egzersiz":9646,"ülkelerde ":9647,"edeceğiz.\n":9648,"cesedi ":9649,"ugay":9650," Ceza ":9651,"Apple":9652,"Karşılaş":9653," terörist ":9654,"döviz":9655,"dikkati çeken ":9656,"Kerry":9657,"yenilen":9658," şeklinde konuştu.\n":9659," zamanlı ":9660,"neijder":9661," yaralı\n":9662,"Ya ":9663,"amıyor":9664,"ılmıştı.\n":9665," kaf":9666," kod":9667,"ilerleyen ":9668," ton ":9669,"bu kadar ":9670,"altının ":9671,"ortada ":9672,"devir":9673,"yıldır":9674,"sayiş":9675,"yapılandır":9676,"meydan":9677,"erbest ":9678,"yapılan aram":9679,"sinema ":9680," hale gel":9681,"gönderdi.\n":9682,"tabi ":9683,"yürüten ":9684,"yürütül":9685,"Bunlar ":9686,"fotoğrafı ":9687,"Erdoğan, \"":9688,"iddia edildi.\n":9689,"Berat":9690,"Ceza ":9691,"Trump'ın ":9692," beklen":9693,"dakikalarda ":9694,"Göç":9695,"Avustral":9696,"Terör örgütü ":9697,"oğlunun ":9698," Ahmet ":9699,"Advocaat":9700,"stagram":9701,"Fernand":9702," çalış":9703," adına ":9704,"Fa":9705,"Neden ":9706,"Sol":9707,"Tayyip ":9708,"Ulaştır":9709,"dak ":9710,"ier ":9711,"len ":9712,"ron":9713,"Çek":9714,"ahür":9715,"içinden ":9716,"iç savaş":9717," geri ":9718,"yapı ":9719,"verdiğini ":9720,"gördüğü ":9721,"çekilen ":9722,"Erkan ":9723,"yolunu ":9724,"da, \"":9725,"meyv":9726,"parayı ":9727,"Erdoğan ve ":9728,"dığım":9729,"edilecek.\n":9730,"benzer":9731,"önlemleri ":9732,"kıyafet":9733,"sabah ":9734,"mekte olan ":9735,"olağanüstü ":9736,"söndür":9737,"\"i ":9738,"TRT":9739,"biyat":9740,"mart":9741,"nav":9742,"übe ":9743,"esidir.\n":9744,"bir çok ":9745,"yaparken ":9746,"uta ":9747,"verilmesi ":9748,"bilet":9749,"opol":9750,"iye'de ":9751,"çekil":9752,"Eren ":9753,"acağım.\n":9754,"bölgenin ":9755,"ABD Başkanı ":9756,"dönük ":9757," görül":9758,"karşılıklı ":9759,"vatandaşın ":9760,"Ünal":9761,"mektir.\n":9762,"tutuklanan ":9763,"sıkış":9764,"ateş aç":9765,"inanç":9766," sahip":9767,"Avuk":9768,"Grub":9769,"sağlamak ":9770," ila ":9771," hatt":9772,"yaptırım":9773,"bölgelerde ":9774,"Sokak":9775,"Obama'nın ":9776," bölgeler":9777,"vicdan":9778,"Münih":9779,"İLGİL":9780," rejim":9781,"Ekr":9782,"Muğ":9783,"illa ":9784,"alev":9785,"ırk":9786," su ":9787," beni ":9788,"açan ":9789," günde ":9790,"ülüğ":9791," ma":9792,"biliyoruz.\n":9793,"durul":9794,"alınması ":9795," Dur":9796,"denet":9797,"kişilik ":9798,"191":9799,"yazdığı ":9800," başlat":9801,"- Sağlık ":9802,"köken":9803,"araçların ":9804,"tek tek ":9805,"milletvekili ":9806,"ağrı ":9807,"bağlı olarak ":9808,"çarptır":9809,"ürünleri ":9810,"Polis ":9811,"AYM":9812,"IŞİD'in ":9813," sezon ":9814,"Sevgil":9815,"Üstelik ":9816,"çünkü ":9817,"Uzman Çavuş":9818,"\"e ":9819,"Hürriyet":9820,"TA":9821,"mini ":9822,"ocak ":9823,"zann":9824,"İ ":9825,"İpek":9826,", R":9827,"lerdi.\n":9828," yat":9829,"içeri ":9830,"ediyorum":9831,"evinden ":9832,"ilerimiz":9833,"bu şekilde ":9834,"bilim ":9835,"dir?\n":9836,"alanlarda ":9837,"kurduğu ":9838," poz":9839,"açıklamasını ":9840,"deng":9841,"sun, ":9842," başkanı ":9843,"gittik":9844,"barikat":9845,"Yarış":9846,"projenin ":9847,"Parti":9848,"gazeteci ":9849,"Merkezi ":9850,"mek isteyen ":9851,"Futbol Feder":9852,"başta olmak üzere ":9853,"Cumhuriyet Başsavcılığı ":9854,"mahkum":9855,"olursa olsun ":9856,"şöyle konuştu:\n":9857,"ülkemizde ":9858," Aralık'ta ":9859,"axy":9860," lideri ":9861,"-Spor Haberleri - Zaman Gazetesi\n":9862,"Petrol":9863,"Su ":9864,"Tuz":9865,"Yorum":9866,"büny":9867,"şak":9868,"da da ":9869,"başlandı.\n":9870," Bay":9871,"etmeyi ":9872,"ması sonucu ":9873,"açıklayan ":9874,"taks":9875,"salon":9876,"yolunda ":9877,"İlişk":9878,"yazıl":9879," kişiden ":9880," karakter":9881,"kimliği ":9882,"mücadeleyi ":9883,"uygulamaya ":9884,"mevk":9885,"ekipleri tarafından ":9886,"kamera ":9887,"UEFA Avrupa ":9888,"Vakıf":9889,"Darb":9890," hapis cezası ":9891,"Android":9892,"74":9893,"DV":9894,"Hız":9895,"Kut":9896,"bo":9897,"ceb":9898,"liyor":9899,"pl":9900,"çant":9901,"asus":9902,"amak ":9903,"adde ":9904,"stres":9905,"vermey":9906,"lılar, ":9907,"ü de ":9908,"özüm":9909,"oyol":9910,"ibüs":9911,"belirledi.\n":9912,"erkan ":9913,"letic":9914,"Bir de ":9915,"sunulan ":9916,"devam edecek.\n":9917,"Ayşe ":9918,"Akıl":9919,"mayın.\n":9920,"millet ":9921,"karara ":9922,"buraya ":9923,"Konuş":9924,"Konsey":9925,"çocuklara ":9926,"beyin ":9927,"fiyatları ":9928," kullanıl":9929,"hamile ":9930,"dünyanın en ":9931,"finansal":9932," person":9933,"zafer":9934,"faaliyet gösteren ":9935,"Fırat Kalkanı ":9936,"Fi":9937,"mahs":9938,"marka ":9939,"iyiz":9940,"iyot":9941,"aşan ":9942,"birine ":9943,"inde bir ":9944,"esi için ":9945,"uyorlar.\n":9946,"sayıl":9947,"parator":9948,"mesi üzerine ":9949,"hayati ":9950,"FETÖ ile ":9951,"ekiplerine ":9952,"Galatasaray, ":9953,"El Bab":9954,"mez, ":9955,"Başbakanlık ":9956,"hatt":9957,"muay":9958," VE":9959," toplantı":9960,"verilecek.\n":9961,"Marmar":9962,"Rusya ile ":9963,"İçer":9964,"boşan":9965,"yaptık.\n":9966,"yüklü ":9967,"Hava Kuvvet":9968,"adikal":9969,"şöyle devam etti: \"":9970,"AF":9971,"Nit":9972,"fet":9973,"sak, ":9974,"ı'da ":9975,"ano":9976,"lar tarafından ":9977,"elli ":9978,"ayağa ":9979,"amıyor.\n":9980,"ler'in ":9981,"işten ":9982," yolu ":9983,"eş zamanlı ":9984,"başrol":9985,"ından sonra ":9986,"kanun":9987,"diğiniz ":9988,"Başakşehir":9989,"mesinden ":9990,"meslek ":9991," bir şey":9992," olsun ":9993,"üstlen":9994,"devam ettiği ":9995,"mayla ":9996,"Orgeneral":9997,"operasyonlar":9998," haline ":9999,"görünce ":10000,"gol at":10001," gün sonra ":10002,"birbirinden ":10003,"Şahin ":10004,"Sosyal Güvenlik ":10005,"Gerçek":10006,"CEO'su ":10007,"Obama, ":10008,"FETÖ'cü ":10009,"cumhurbaşkan":10010,"Ekonomi Haberleri - Zaman Gazetesi\n":10011,"protesto ":10012,"imkân":10013,"ihbarı ":10014,"Balıkesir":10015,"Organize ":10016,"Arda Tur":10017,"\"M":10018,"\"in ":10019,"Hizmet":10020,"Kork":10021,"Piy":10022,"küt":10023,"liliği ":10024,"mos":10025,"slan ":10026,"tabanc":10027,"çak":10028,"etap":10029,"oraya ":10030,"lere, ":10031,"ırsa ":10032,"ikte ":10033,"ada":10034,"ecr":10035,"edes":10036,"ken, \"":10037,"uk, ":10038,"masaya ":10039,"etmek":10040,"Ancak, ":10041,"sanayi ":10042,"kurban ":10043,"tanık":10044,"lerini de ":10045,"ebileceğ":10046,"ileri de ":10047,"bekley":10048,"Ordu ":10049,"bizim için ":10050,"kimin ":10051,"okula ":10052," halk":10053,"olmak için ":10054,"filmi ":10055,"genç ":10056,"amayacak.\n":10057,"Devlet Hastanesi'ne ":10058,"Sanayi ":10059,"hastalığı ":10060,"mahkemece ":10061,"sembol":10062,"sığınmacı ":10063,"tepki gösterdi.\n":10064," gerçekleş":10065,"Bölgede ":10066,"Öğrenc":10067,"Ukrayna ":10068," talep":10069,"Medipol Başakşehir":10070,"nedir?\n":10071,"polis memuru ":10072," mücadel":10073,"O da ":10074,"Sorum":10075,"TK":10076,"dolay":10077,"rö":10078,"ÖSO":10079,"çisi ":10080,"ü\"":10081,"amadı":10082,"aş, ":10083,"işgal":10084,"abon":10085," bas":10086,"yapacak.\n":10087,"vererek ":10088,"gücü ":10089,"lar ise ":10090,"demek ":10091,"olduğu belirtildi.\n":10092,"'a karşı ":10093,"lere karşı ":10094,"meme ":10095,"ivil ":10096,"mek.\n":10097,"adımlar ":10098,"gidiyor.\n":10099,"oluşturduğu ":10100,"imzalan":10101,"bir araya geldi.\n":10102,"Cenk ":10103,"tepki göster":10104,"Aynı zamanda ":10105,"emeklilik ":10106,"Suçlarla ":10107,"tebrik ":10108,"vizyon":10109,"koalisyon ":10110,"AA muhabirine yaptığı açıklamada, ":10111,") tarafından ":10112,"E-":10113,"Gomez":10114,"Keş":10115,"POR":10116,"Peygam":10117,"rin ":10118,"rist":10119,"tuğu ":10120,"Üz":10121,"çilerin ":10122,"atay":10123,"ler s":10124,"biraz ":10125," madde":10126,"us ":10127,"konuya ":10128," BİR":10129,"ken, b":10130,"ilmesi, ":10131,"Bu yıl":10132,"ladık.\n":10133,"ebek ":10134,"alı bir ":10135,"sahil":10136,"olduğu öğrenildi.\n":10137,"kırıl":10138," milyar lir":10139,"abzon ":10140,"otomobilin ":10141,"Kend":10142,"amızda ":10143,"basın mensup":10144,"piyasaya ":10145,"darbec":10146,"zarar gör":10147,"fırsatı ":10148,"müttef":10149,"Cami":10150,"Sultan ":10151,"Cumhurbaşkanı Recep Tayyip Erdoğan, ":10152,"olmaz.\n":10153,"dört ":10154," Pereir":10155,"gözaltına aldı.\n":10156,"\"den ":10157,"Dr. ":10158,"Nev":10159,"Rüz":10160,"Yetkil":10161,"gıd":10162,"vok":10163,"Çelik ":10164,"alog":10165,"di!\n":10166,"abi ":10167," bab":10168," mahall":10169,"ü için ":10170,"gelecek.\n":10171,"gelir ":10172,"usu, ":10173,"çıkacak.\n":10174,"olduğum":10175,"acak?\n":10176,"eden bir ":10177,"mıştır":10178,"ütf":10179,"Artv":10180,"inizde ":10181,"ılarla ":10182,"burn":10183,"çocuklar":10184,"geçen yıl ":10185,"tutuklama ":10186," dakikada ":10187,"sürdüren ":10188,"koltuğ":10189,"maya çalışan ":10190,"nerede ":10191,"bir arada ":10192,"ullah Gülen ":10193,"besin":10194,"suretiyle ":10195,"Yenikap":10196,"ise, \"":10197,"takdirde ":10198,"kusur":10199,"Çevre ":10200,"Ajans":10201,"Ertuğrul":10202,"Fey":10203,"Ur":10204,"ain ":10205,"hitap":10206,"i'yi ":10207,"suyu ":10208,"a geç":10209,"aldığını ":10210,"ektif":10211,"stil":10212," Tar":10213," Muh":10214,"açıklanan ":10215,"tand":10216,"gerektiği ":10217," olabilir.\n":10218,"getirdiği ":10219,"son dönemde ":10220,"adan sonra ":10221,"devam ettiğini ":10222,"birlikte, ":10223,"Yılın ":10224," görevl":10225,"kararın ":10226,"abiliriz.\n":10227,"Elbette ":10228,"mayı plan":10229,"gelişme ":10230,"babasının ":10231,"şeklindeki ":10232,"CHP'nin ":10233,"hizmeti ":10234,"nitelendir":10235,"gidiş":10236,"göçmen ":10237,"istendi.\n":10238,"pasaport":10239," davran":10240,"vuruşunda ":10241,"Önceki ":10242,"110":10243,"Bos":10244,"Kab":10245,"SGK":10246,"Vey":10247,"hat ":10248,"kül":10249,"leh":10250,"meclis":10251,"desi ":10252,"oluşt":10253,"iş dün":10254,"azar ":10255," komut":10256," güzel":10257,"istism":10258,"çok zor":10259,"'in de ":10260,"kuru ":10261,"\" dediği ":10262,"açıklamıştı.\n":10263,"deney":10264,"arayol":10265,"Türk Telekom":10266,"ailesi ":10267,"resim":10268,"Fenerbahçe'de ":10269,"isimleri ":10270,"yardımc":10271,"anlaşmaya ":10272,"mühim":10273,"devleti ":10274,"kilomet":10275,"Devlet Hastan":10276,"kavram":10277,"hiçbir zaman ":10278,"bozuk":10279,"gazi ":10280,"encer":10281,"oğlu'na ":10282,"sürücü":10283,"Meteor":10284,"Çanakkale ":10285,"kişisel":10286,"\" yaz":10287,"350":10288,"Gu":10289,"Hukuk ":10290,"SU":10291,"Satış":10292,"dans":10293,"ota ":10294,"çirk":10295,"Şark":10296,"in'e ":10297,"bir anda ":10298,"bir an önce ":10299,"ünce ":10300," kolay":10301,"iyorsa ":10302,"uyan":10303,"iba":10304,"gergin":10305,"yaşat":10306," Har":10307,"iki ülke ":10308,"ığının ":10309,"pres":10310,"oynadı.\n":10311,"lığı ve ":10312,"hayatta ":10313,"al olarak ":10314,"kims":10315,"ıda bulun":10316,"kaybetm":10317,"Halk":10318,"gerçekleştirdi.\n":10319,"binanın ":10320," kişi gözaltına alındı.\n":10321,"seyahat ":10322," toplantıs":10323,"Rusya ve ":10324,"piyasa ":10325,"bazen ":10326,"harekete geç":10327,"Odası ":10328," tazmin":10329," Türkiye ":10330,"\"\n":10331,"Kiş":10332,"Napol":10333,"Star":10334,"bot":10335,"nas":10336,"naf":10337,"rit":10338,"suy":10339,"sch":10340,"all":10341,"amet ":10342,"lerken ":10343," giy":10344,"özet":10345,"ifor":10346,"çok önemli bir ":10347,"diğinin ":10348,"altından ":10349,"büyüt":10350," DA":10351," Dem":10352,"Arjant":10353,"sal ":10354,"denk ":10355,"sırt":10356,"maça ":10357,"davanın ":10358,"edildiğini ":10359,"Ankara'daki ":10360,"işlemi ":10361,"eceğini söyledi.\n":10362," diye sor":10363,"hükümeti ":10364,"iyoruz, ":10365,"Şehir":10366,"tercih ":10367,"ur duy":10368," telefonu ":10369,"Abdul":10370,"Adana'da ":10371,"İçişleri Bakanı ":10372,"Merkez Bankası ":10373,"İLGİLİ H":10374,"CK":10375,"O yüzden ":10376,"Tük":10377,"ân":10378,"ayeti ":10379,"enz":10380,"ekmek ":10381,"unt":10382,"itor":10383," bakım":10384," bekl":10385,"ik bir ":10386," derb":10387,"inin en ":10388,"vermiş":10389,"vermek ":10390,"olduğundan ":10391," Kuvvet":10392,"Anlaş":10393,"ması üzerine ":10394,"devre ":10395,"lıkların ":10396,"190":10397,"ılarında ":10398,"ABD, ":10399,"geçiren ":10400,"gönderdiği ":10401,"Hakları ":10402,"güvenlik kamer":10403,"dizisi ":10404,"toplamda ":10405,"yönetim kurulu ":10406,"ufak ":10407,"transferi ":10408,"festival":10409,"Halep'te ":10410,"Yasin ":10411,"bekliyor.\n":10412,"olay yerine gelen ":10413,"şöyle konuştu: \"":10414," sokak":10415,"tazminat":10416,"roket":10417,"mevzu":10418," çıkar":10419,"Kamp":10420,"Otel":10421,"Sp":10422,"Tep":10423,"h ":10424,"müdür":10425,"ver ":10426,"Çukur":10427,"şun ":10428,"as ":10429,"asl":10430,"lerinizi ":10431,"birinc":10432,"izni ":10433,"işyer":10434,"ine ve ":10435,"olduk.\n":10436,"ife ":10437,"likten ":10438,"layık ":10439,"gündüz":10440,"grubu ":10441,"den.\n":10442,"ajans":10443,"saldırının ":10444," olmay":10445,"işlem gör":10446,"isimlerin ":10447,"rekabet":10448,"Gazi ":10449,"kavga ":10450,"oyuncuların ":10451,"Cumhurbaşkanımız":10452,"Anayasa ":10453,"elektrik kesint":10454,"finale ":10455," hiçbir ":10456," hastalık":10457,"Üss":10458,"penaltı ":10459," tercih":10460,"AK Parti'nin ":10461,"uyku ":10462,"İLGİLİ HABER":10463,"(xx":10464,"Eg":10465,"Gerek":10466,"Net":10467,"So":10468,"Stat":10469,"ce, ":10470,"car ":10471,"y, ":10472,"er, \"":10473,"anlardan ":10474,"an\"ın ":10475,"isi'nin ":10476,"ikol":10477,"lanet":10478,"ülü":10479,"ilerek, ":10480,"gelir.\n":10481," traf":10482,"ıyorsunuz":10483,"ması ile ":10484,"iz bir ":10485,"dışından ":10486,"satıl":10487,"her türlü":10488,"'e karşı ":10489,"ABD ve ":10490,"ABD Dışişleri ":10491,"prom":10492," ayda ":10493,"ifadesi ":10494," Os":10495,"tedbir ":10496," Şen":10497,"mutab":10498," kaldır":10499,"köş":10500,"sebz":10501,"savundu.\n":10502,"raporu ":10503,"ücreti ":10504,"Şırnak ":10505,"agazin Haberleri\n":10506,"milyonlarca ":10507," soruşturması kapsamında ":10508,"lezzet":10509,". yüz":10510,"Asayiş":10511,"Def":10512,"Nor":10513,"a!\n":10514,"doy":10515,"liyoruz.\n":10516,"rem ":10517,"ÖK":10518,"çadır":10519,"alerj":10520,"eklem":10521," yum":10522," han":10523," Ber":10524,"eğer":10525,"otob":10526,"topar":10527,"sayede ":10528,"son yıllarda ":10529," tarz":10530,"düzenleyen ":10531,"mayın":10532,"maz, ":10533,"Genel ":10534,"Gazetesi ":10535,"karşılay":10536,"iddiaları ":10537,"hakkını ":10538,"melerini ":10539,"kez ":10540,"öldürülen ":10541,"bölümde ":10542," geçen ":10543,"cevabı ":10544,"Ulus":10545,"Davutoğlu'nun ":10546,"mümkün.\n":10547,"yaptıklarını ":10548,"listesinde ":10549,"enfeksiyon":10550,"sürecinde ":10551,"Eto'":10552,"Cumhurbaşkanı Recep Tayyip Erdoğan'ın ":10553,"İsmail K":10554,"etmeye çalış":10555,"yatırım ":10556,"biz de ":10557,"istihbarat ":10558,"Kurtulmuş":10559,"aborat":10560,"Bakırköy":10561,".Y":10562,"Co":10563,"Diyan":10564,"Küçük":10565,"La ":10566,"göl":10567,"hiş":10568,"loj":10569,"otik ":10570,"ti ve ":10571,"ı!\n":10572,"Şam":10573,"atta ":10574,"imden ":10575," bayr":10576,"landığını ":10577,"yaptığımız":10578," müsabak":10579,"veri ":10580,"ilerinde ":10581,"tarım":10582,"çıkarak ":10583,"geriye ":10584,"daha az":10585,"lere göre ":10586,"değildir":10587,"Burcu ":10588,"görünüm":10589," tarihi ":10590,"engelli ":10591,"sezonun ":10592,"hastane ":10593,"adı altında ":10594,"Şehidin ":10595,"sahip olan ":10596,"Serdar":10597,"bugüne kadar":10598,"ihlal ":10599,"tanıtım":10600,"altyapı ":10601,"mecbur":10602,"İddianam":10603,"Bank ":10604,"şahsın ":10605,"kalabalık ":10606,"enflasyon":10607,"Suçlarla Mücadele ":10608," uygulam":10609,"Bas":10610,"Fark":10611,"II":10612,"i!\n":10613,"koç":10614,"tüp":10615,"Çank":10616,"çöp":10617,"şebek":10618,"arasında, ":10619,"ester":10620,"izn":10621,"edi ve ":10622," mümk":10623,"uzlaş":10624,"geler ":10625,"buluşt":10626,"ıyorlar":10627,"çekilm":10628,"günden ":10629,"uçağı ":10630,"uyor, ":10631," ediyor":10632,"parça ":10633,"yasak ":10634,"operatör":10635,"araçla ":10636,"dan.\n":10637," tarihli ":10638,"filmin ":10639,"yakın bir ":10640," Antal":10641,"sahip ol":10642,"Kanal":10643," kategor":10644,"kurtarma ":10645,"Grubu ":10646,"pozit":10647,"Irak'ta ":10648,"görevlisi ":10649,"gayrimenkul":10650,"ağabey":10651," Afrik":10652,"\" değerlendir":10653," ilçesinde ":10654,"84":10655,"A'nın ":10656,"Diy":10657,"pak":10658,"veç":10659,"çu ":10660,"ölen":10661,"an'dan ":10662,"lerinde, ":10663,"un.\n":10664,"iş ve ":10665,"steri ":10666,"aları ve ":10667,"gelin":10668,"uyandır":10669,"leri kullan":10670,"kanun ":10671," Müz":10672,"lediklerini ":10673,"önem ver":10674,"önemli.\n":10675,"günün ":10676,"iyetle ":10677," Hazir":10678,"yaygın ":10679,"ulaşıl":10680,"karşılığında ":10681,"mamak ":10682,"yenilik":10683,"vatandaşlara ":10684,"Onların ":10685,"Esk":10686,"hata ":10687,"asıdır.\n":10688,"çarş":10689,"yönetimi ":10690,"renk ":10691,"Ayrıca, ":10692,"yakalanan ":10693,"Her şey":10694,"sorumlusu ":10695,"unuzu ":10696,"bru ":10697,"protokol":10698,"ilk kez ":10699,"Geçen yıl":10700,"haftada ":10701,"yansım":10702,"Temsilc":10703,"heyecan ":10704,"ladıklarını ":10705,"oranı yüzde ":10706," milletvekil":10707,"şehrin ":10708,"yoğunlaş":10709,"toprağa verildi.\n":10710," sebeb":10711,"propagand":10712,"'ini ":10713,". hafta ":10714,"Bo":10715,"Efes":10716,"Meydan":10717,"Rek":10718,"ill":10719,"infaz":10720,"ir ve ":10721,"ama, ":10722,"gelerek ":10723," MİL":10724," yılın ":10725,"Aralık ":10726,"Kara":10727,"Orman":10728," başkan ":10729,"dönemi ":10730,"ilçesine ":10731,"oruma ":10732,"ılığın ":10733,"noktaya ":10734,"iş adam":10735," yapılan":10736," kilo ":10737," sanatç":10738,"Denizli ":10739,"ılık, ":10740,"üretilen ":10741,"kayıtlı ":10742,"vakit":10743,"muhaliflerin ":10744,"temsilcisi ":10745,"kuvvetli ":10746,"Teknik Direktör":10747,"Asker":10748,"SYK":10749,"ekrana ":10750,"Vakfı ":10751," hesap":10752," darb":10753," fragmanı ":10754,"'e, ":10755,"Eylül":10756,"Lok":10757,"Rum":10758,"Sun":10759,"YON":10760,"Yönetim Kurulu ":10761,"ce":10762,"kaya ":10763,"yah":10764,"ü.\n":10765,"illi ":10766,"ilot":10767,"ilir.\n":10768,"al ve ":10769,"elin ":10770,"esince ":10771," yük":10772,"için.\n":10773,"evlerinde ":10774,"oldum.\n":10775,"kadına ":10776,": Parç":10777,"katliam":10778,"etkileri ":10779,"makin":10780," YAP":10781,"lerinin de ":10782,"barın":10783,"seçen":10784,"tahr":10785,"gelişmeler ":10786,"ülkelerine ":10787,"müzik":10788," kazandı.\n":10789,"sebebi ":10790,"miting":10791,"sponsor":10792," sonucunda ":10793,"Ak ":10794,"Sim":10795,"cay":10796,"hip":10797,"ideki ":10798,"anahtar":10799,"de bulunan ":10800," kitap":10801," mek":10802,"yakış":10803,"sağladı.\n":10804," edilmiş":10805," Eğ":10806,"kişi, ":10807,"olayla ilgili ":10808,"leri'nin ":10809,"anın ardından ":10810,"yaygın":10811,"gittiğ":10812,"kaybı ":10813,"dı - Sözcü Gazetesi\n":10814," kayıt":10815," gereken ":10816,"mak istey":10817,"gündeme gel":10818,"elde edilen ":10819,"ması gerekiyor.\n":10820," Genel Müdürü ":10821,"Dünya Haberleri - Zaman Gazetesi\n":10822,"Buna göre ":10823,"Komutanlığı ":10824,"bütünlüğ":10825,"Polon":10826,"düzenlenecek ":10827,"kampanya ":10828,"sahneye ":10829,"Telef":10830," tatil":10831,"Tolga ":10832," kanattan ":10833,"Dik":10834,"Doç":10835,"LE":10836,"YK":10837,"rüt":10838,"uca ":10839,"­r":10840,"çalın":10841,"ığını ":10842,"lar bu ":10843,"dı?\n":10844," sivil":10845,"verecek.\n":10846,"bulan ":10847,"kalem":10848," Mur":10849,"kaya, ":10850,"layacak.\n":10851,"üstünlüğ":10852,"üst üste ":10853,"Akif":10854,"sızın ":10855,"mesi bekleniyor.\n":10856,"maçlarda ":10857,"eleri ile ":10858,"ock ":10859,"dönemlerde ":10860," yere ":10861,"Biz bu ":10862,"çalışmalarının ":10863,"mekle ":10864,"etici ":10865,"tahmin":10866,"uzun vade":10867," göç":10868,"inanc":10869,"inanılmaz":10870,"Üniversitesi'nde ":10871,"Yıldırım ":10872,"maden ":10873,"Benz":10874," merkezinde ":10875,"beslenme ":10876,"Berlin":10877,"dünyadaki ":10878,"gecesi ":10879,"larına, ":10880,"Kimse ":10881,"bir süre sonra ":10882,"Müezz":10883,"iyileştir":10884,"Sınır":10885,"Google ":10886," endeksi ":10887,"yedek ":10888,"Ez":10889,"Haber ":10890,"Ir":10891,"Tam ":10892,"herkesi ":10893,"i;":10894,"lılığı ":10895,"muyor.\n":10896,"o A":10897,"yüküm":10898,"y's":10899,"zev":10900,"arındır":10901,"erişim":10902,"larında, ":10903,"bir \"":10904," sem":10905,"aya kadar":10906,"Türkç":10907," Sav":10908,"yarısı ":10909,"kalec":10910,"lar var.\n":10911,"güne ":10912,"yüzüne ":10913,"ayrıntı":10914," Doğ":10915,"ardı ":10916,"Türkiye ekonom":10917,"bağlam":10918,"zorla ":10919,"memiz":10920,"yürüm":10921,"140":10922,"geçen gün ":10923,"egem":10924,"u'ndan ":10925,"ülkelere ":10926,"partinin ":10927,"a Mahall":10928," geril":10929,"Fransa'nın ":10930," dünya ":10931,"Hatay":10932,"Afgan":10933,"yıldızı ":10934,"Instagram":10935,"Hollanda":10936,"Caner ":10937," dönüm":10938,"Ülke ":10939,"İngilizce ":10940," Trabzon":10941," kamer":10942,"dışarıda ":10943,"husus":10944,"MSF":10945,"şarj":10946,"Macar":10947,". kez":10948,"Ka":10949,"Ven":10950,"kis":10951,"iste ":10952," test":10953," At":10954,"sana ":10955," part":10956,"top ":10957,"ükspor":10958,"ilişkilerin ":10959," (CİHAN":10960,"krizi ":10961," Ot":10962,"müj":10963," bulutlu ":10964,"umuzu ":10965,"hükümet ":10966,"algı ":10967," Ankara ":10968,"Amerikalı ":10969,"bors":10970,"çarptı.\n":10971," metr":10972,"maktadır":10973,"ben de ":10974,"evizyon ":10975,"vücudu":10976,"Bölge ":10977,"Gümrük ":10978," malzem":10979,"nokta ":10980," üzerinde ":10981,"Fo":10982,"IP":10983,"Tedav":10984,"bek ":10985,"cı":10986,"süs":10987,"serbest ":10988,"zi":10989,"di.":10990,"en yakın ":10991,"birlik ":10992," gez":10993,"yapmaya ":10994,"ilerlem":10995,"ister ":10996," tüf":10997," haber ":10998,"öly":10999,"acağını, ":11000,"günümüz":11001,"abilir ":11002,"yönde ":11003,"yıllar ":11004,"denize ":11005,"olayda ":11006,"devam edecek":11007,"şeyler":11008,"polis ve ":11009,"resmen ":11010,"burun ":11011,"takımda ":11012,"ele alın":11013,"suzluk":11014,"oluşturulan ":11015,"İLER":11016," merkezi ":11017,"teklifi ":11018,"Şubat ":11019,"tam olarak ":11020,"Valiliğ":11021,"tehlikeli ":11022,"ekibi, ":11023," Mayıs'ta ":11024,"iktidar ":11025,"her şeyi ":11026,"Azerbaycan":11027,"Sınav":11028,"Silop":11029,"geride bırak":11030," Ekim'de ":11031," büyüklüğ":11032," paylaşım":11033," Komisyon":11034," Teknik Direktörü ":11035,"Sulh Ceza ":11036,"Adli Tıp Kurum":11037," İş":11038,"Op":11039,"Sün":11040,"TEM":11041,"iev":11042,"küfür":11043,"lil":11044,"meden":11045,"yük ":11046,"Ümit":11047,"âyet":11048,"çukur":11049,"Şem":11050,"aldıklarını ":11051,"iri ":11052,"en.\n":11053,"aksine ":11054,"olasıl":11055,"birlik ve ":11056,"ürken ":11057,"izah":11058," sin":11059,"tıcı ":11060," da, ":11061,"eph":11062," yaparak ":11063,"tan, ":11064,"İstanbul Büyükşehir":11065,"üdür.\n":11066,"tamamı ":11067,"bilgisi ":11068,"Hastal":11069,"gerçekleştiren ":11070,"tığı, ":11071,"oluşuyor.\n":11072," değildir.\n":11073," kredi ":11074,"çağrısı ":11075," ilde ":11076,"müte":11077,"maması için ":11078,"olunca ":11079,"Caddesi'nde ":11080,"Onun için ":11081,"Süper Lig'de ":11082,"Van Persi":11083,"Allah'tan rahmet":11084,"yazık ki ":11085," ev":11086,"'N":11087,"Cans":11088,"Durum":11089,"For":11090,"Faz":11091,"Küb":11092,"What":11093,"ray":11094,"rü ":11095,"sep":11096,"ukar":11097,"Üzer":11098,"an'ı ":11099,"dep":11100,"larken ":11101,"lerine, ":11102," bunun ":11103," dalg":11104,"geleni ":11105,"kanaat":11106,"idam ":11107,"çıkıp":11108,"geçiyor.\n":11109,"inden fazla ":11110,"terörün ":11111,"gerekse ":11112,"general ":11113,"şeker":11114,"şeker ":11115,"Birinci ":11116,"haklı ":11117,"kişilere ":11118,"mek iste":11119,"Konseyi ":11120," Temmuz gecesi ":11121,"ılık ve ":11122,", Mehmet ":11123,"yumur":11124,"gündeme getir":11125,"muhteşem":11126,"başladığını ":11127,"fesör":11128,"emniyetteki ":11129,"Hollanda ":11130,"bütçe ":11131,"Kültür ve ":11132,"heyecan":11133,"tecrüb":11134,"kendimi ":11135,"hücum":11136,"Resmi Gazet":11137," Politik":11138,"Giz":11139,"ba":11140,"mimar":11141,"taban":11142,"antik ":11143,"aldığ":11144,"de, \"":11145,"ayım":11146,"izmet ":11147,"iştah":11148," bizi ":11149," trans":11150," Sin":11151,"geçtiği ":11152,"belirlem":11153," yılları arasında ":11154,"acağının ":11155," fır":11156,"larına yönelik ":11157,"iler de ":11158,"bulunan ve ":11159,"dinam":11160,"PKK, ":11161,"aştırma ":11162,"asının ardından ":11163,"öğrencisi ":11164,"değişen ":11165,"dilek":11166,"Son olarak ":11167,"dizinin ":11168,"Önem":11169,"Hayır":11170," bulundu.\n":11171," metrekar":11172,"boşalt":11173,"Diyarbakır'ın ":11174,"basın toplantısında ":11175,"Başkanlığ":11176,"açıklama yapan ":11177,"ayrı bir ":11178,"Duruş":11179,"Başkan Yardımcısı ":11180,"Şahin, ":11181,"Prof. Dr. ":11182,"kaynağı ":11183,"hâkim":11184,"petrol fiyat":11185,"renkli ":11186,"çok önemli.\n":11187,"Öztürk":11188,"adliyeye sevk edildi.\n":11189,"Kasımpaş":11190,"gerçeği ":11191,"anak yağış":11192,"Alex":11193,"Bunları ":11194,"Yang":11195,"edik":11196,"fakat":11197,"sin, ":11198,"satır":11199,", Türkiye'nin ":11200,"ası'na ":11201,"izledi.\n":11202," boyu ":11203," mis":11204,"verilerine ":11205,"ma kararı ":11206,"ters":11207,"eğen":11208,"uk.\n":11209,"önemlidir.\n":11210,"yaşlı ":11211,"larını da ":11212,"hale gel":11213,"üyoruz.\n":11214,"hayv":11215,"yapılan açıklamada ":11216,"sız ":11217,"'den fazla ":11218,"ARI":11219,"Adliy":11220,"mutluluk ":11221,"lerinden biri ":11222," sayısının ":11223,"alıcı ":11224,"başlattığı ":11225,"kız ":11226,"ılması ve ":11227," edildiği ":11228,"inanıyorum.\n":11229,"muhat":11230,"FAD":11231,"brek ":11232,"Trabzonspor'un ":11233," Emniyet ":11234,"emeyecek.\n":11235,"performansı ":11236,"LARI":11237,"Devletin ":11238,"Aşk ":11239,"katılımıyla ":11240,"Öğretm":11241,"Genelkurmay Başkanı ":11242,"Kurumu ":11243," siyasi ":11244," Komutanlığ":11245,"Üskü":11246,"kar yağış":11247,"Washington ":11248,"olmasına rağmen ":11249,"robot":11250,"sözlerini şöyle sürdürdü":11251,"yapılan yazılı açıklamada, ":11252,"cezasına çarptır":11253,"-Ekonomi Haberleri - Zaman Gazetesi\n":11254,". sırada ":11255,"Bingöl":11256,"CN":11257,"Lib":11258,"Vek":11259,"dadır.\n":11260,"sos":11261,"ılacak ":11262,"bir yıl":11263,"bir yandan ":11264,"ine de ":11265,"bulaş":11266,"kenar":11267," Gür":11268,"lara da ":11269,"uyorum":11270,"malarının ":11271,"cu, ":11272,"sahasında ":11273,"açıklamaları ":11274,"Birkaç":11275,"ajı ":11276," değiştir":11277," veren ":11278,"sindir":11279," aldığı ":11280,". *":11281,"teşhis":11282,"Esra ":11283,"tikten sonra ":11284," sağlan":11285,"Allah'ın ":11286,"sorumluluk ":11287,"kitl":11288,"İngiltere'nin ":11289,"hatırlattı.\n":11290,"Cenaz":11291,"uyumlu ":11292,"Hemen ":11293,"gayret":11294,"Oğuzhan ":11295,"topla buluşan ":11296,"Yoksa ":11297,"yakalama kararı ":11298,"referandum":11299,"Ergenek":11300,"C.":11301,"Dakik":11302,"IYOR":11303,"Psik":11304,"dra ":11305,"gar ":11306,"horm":11307,"kump":11308,"maden":11309,"çeş":11310,"Şii ":11311,"anst":11312,"aldı":11313,"ir P":11314,"elindeki ":11315,"akın ":11316,"atıldı.\n":11317,"imini ":11318,"uluş":11319,"işadamı ":11320," ya ":11321," ko":11322,"ibiyet ":11323,"kale ":11324,"iyebilir":11325,"lar nedeniyle ":11326,"derg":11327,"dere ":11328,"takıl":11329,"yoluna ":11330,"duyul":11331,"sözleri ":11332,"mayı hedef":11333," kulüb":11334,"kentin ":11335,"kentte ":11336,"zamanında ":11337," Çavuş":11338,"merkezli ":11339," kaydet":11340,"bölümü ":11341,"Yıldırım, \"":11342," Ankar":11343,"inşaat ":11344,"kısa süre ":11345,"muhtemel":11346,"Azez":11347,"İkti":11348,"kapattı.\n":11349,"zemin ":11350,"canlı bomba ":11351,"şüphelilerin ":11352," Eylül'de ":11353,"ışıklık ":11354,"etrafında ":11355,"SİAD":11356,"Yargıtay":11357," vitamini ":11358,"mükem":11359,"Bir süre ":11360,"orku Konyaspor":11361,"Fatih Terim":11362," ne ":11363,"\"a ":11364,"Bost":11365,"HSYK":11366,"Ney":11367,"Sc":11368,"Ton":11369,"bu.\n":11370,"ein":11371,"e; ":11372,"yadaki ":11373,"ÜŞ":11374,"ât":11375,"üce ":11376,"inden, ":11377,"emek ":11378,"azi ":11379," yani ":11380," kork":11381,"ağı, ":11382,"önündeki ":11383,"ittif":11384," bilm":11385,"ına gir":11386,"adı, ":11387,"uz, ":11388,"vermeye ":11389,"kadan ":11390,"kadın, ":11391,"değin":11392,"zamanı ":11393,"hakim ":11394,", bazı ":11395,"serg":11396,"desteğiyle ":11397,"usta ":11398,"ente":11399," Şah":11400," gündem":11401," kalit":11402,"çalışmaların ":11403,"sel dönüşüm":11404,"lerle ilgili ":11405,"tabur":11406,"sokak ":11407," gerekç":11408,"madan önce ":11409,"yer alan haber":11410,"çatışmada ":11411,"ekibinin ":11412,"imza attı.\n":11413," söylem":11414,"diplomatik ":11415,"çapında ":11416,"gördük.\n":11417,"hep birlikte ":11418,"vefat ":11419,", burada ":11420,"bulutlu, ":11421," dahil":11422," numaralı ":11423,"Hz.\n":11424,"FIFA":11425,"Zeybek":11426,"Müezzin":11427,"Celal":11428,"DER":11429,"Fotoğraf":11430,"Pap":11431,"bar ":11432,"cek ":11433,"je":11434,"ku":11435,"los":11436,"mi, ":11437,"radikal":11438,"toz":11439,"tünel":11440,"yeş":11441,"aranan ":11442,"amadığını ":11443,"emiz ":11444,"ital ":11445," su":11446,"karanlık ":11447,"belli bir ":11448,"ması":11449,"ledikleri ":11450,"os An":11451,"miş ve ":11452,"teröre ":11453," bin kişinin ":11454," kişi, ":11455,"kaçakç":11456," olmaz":11457,"düşünce ":11458,"abilir, ":11459," kadro":11460,"rağmen kurtarıl":11461,"kasab":11462,"dük.\n":11463," yaklaşık ":11464,"kahram":11465,"larının, ":11466,"büyüklüğ":11467," riba":11468,"Caddesi, ":11469," Komutanı ":11470," Kasım'da ":11471,"tüketici ":11472," Kulübü ":11473,"tezahür":11474,"Fetullahçı Terör Örgütü'nün ":11475,"otopsi ":11476,"Peki, ":11477,"uzantı":11478,"(FETÖ)":11479,"Piyang":11480,"aboratuvar":11481," ede":11482,"Böl":11483,"Cr":11484,"Cap":11485,"Je":11486,"Kılıç":11487,"LG":11488,"Lens":11489,"Sektör":11490,"Trafik ":11491,"Zon":11492,"adis":11493,"basına ":11494,"cek":11495,"ein ":11496,"soyun":11497,"an T":11498,"akc":11499,"aks":11500,"ori ":11501," kültür":11502,"ası da ":11503,"alarındaki ":11504,"esi olarak ":11505,"on ve ":11506,"bu nedenle ":11507," hac":11508,"sürece ":11509,"çektiği ":11510,"üzergah":11511,"'ye, ":11512,"demek":11513,"lere yönelik ":11514,"sevgi ":11515,"yer ver":11516,"yazılım":11517,"Aktü":11518,"haftanın ":11519,"kırsal":11520,"barındır":11521,"Emin ":11522," sürüc":11523,"tığına ":11524,"Genel Kurul":11525,"basın toplantısı ":11526,"Merc":11527,"ladim":11528,"ameliyat ":11529,"Güneydoğ":11530,"ruhsat":11531,"geçmişte ":11532,"Buna göre, ":11533,"bütün":11534,"çabuk ":11535," Grup":11536,"vakıf":11537," kırık":11538,"Prem":11539,"Kuzey Kor":11540,"Kahraman":11541,"Öncelikle ":11542,"Beyaz Saray":11543,"Bekir":11544,"en azından ":11545," borç":11546,"Gençlerbirliği ":11547," Bulut":11548,"gözaltı kararı ":11549,"Turgut":11550," içerisinde ":11551," uçağ":11552,"\" gibi ":11553,"- T":11554,"Ağr":11555,"Ebru ":11556,"Haziran ":11557,"Mit":11558,"Umar":11559,"bez":11560,"fiş":11561,"i) ":11562,"tüye ":11563,"udur":11564,"yadan ":11565,"inans":11566,"larınızı ":11567,"ırı ":11568,"ilerin, ":11569,"istan ve ":11570," Kılıç":11571,"masraf":11572,"bulundu":11573,"günler":11574,"yönelt":11575,"yerine, ":11576,"sağladığı ":11577,"ülkeleri ":11578,"terör olay":11579,"yapıldığını ":11580,", ben ":11581,"ılarıyla ":11582,"ilişkisi ":11583,"meniz":11584,"tamamlandı.\n":11585," süreci ":11586,"hakkındaki ":11587,"her yıl":11588,"180":11589,"gidiyor":11590,"oluşturuyor.\n":11591,"sezon":11592,"tabut":11593,"arack ":11594,"oyuncu, ":11595,"Mersin":11596,"şartları ":11597,"ücretsiz ":11598,"Gözaltına alınan ":11599,"Politik":11600,"Hükümet ":11601,"tığımızda ":11602,"şimdiye ":11603,"ertelen":11604,"Belçika ":11605,"Özel Harek":11606,"Çetin":11607,"Mardin ":11608,"ü'nden ":11609,"İnsan Hakları ":11610,"Evet, ":11611,"Soruşturma ":11612,"Gece ":11613,"LU":11614,"Mey":11615,"Vüc":11616,"kör":11617,"o'ya ":11618,"u\" ":11619,"yoz":11620,"al'ın ":11621,"el koy":11622,"endeks":11623,"atları ":11624,"isi'nde ":11625," kat ":11626,"ağan ":11627,"adan, ":11628,"ederek, ":11629,"kart ":11630,"isti ":11631,"üm ":11632,"iddet":11633,"son, ":11634,"ifre ":11635," Savaş":11636,"manevi ":11637,"Angel":11638,"Ercan ":11639,"yaşıyor.\n":11640,"dür.\n":11641,"bakanlık ":11642,"Alev":11643,"meyen bir ":11644," yaşınday":11645,"durumlarda ":11646,"odasına ":11647,"estetik ":11648,"etti ve ":11649,"spor ":11650,"menf":11651,"havadan ":11652,"tahsil":11653," milyar lira ":11654,"kabul etti.\n":11655," kurtar":11656,"şöyle de":11657,"sürdürdü.\n":11658,"ülkelerinin ":11659,"sars":11660," durumda ":11661,"ürünlerin ":11662,"iddia etti.\n":11663,"ksiyon":11664,"çağrı ":11665,"ijer":11666,"A.Ş":11667,"Mesut":11668,"dakikada ":11669,"ambulansla ":11670,"grubun ":11671,"sarı-kırmızılı ":11672,"nişan":11673," koşul":11674,"Aktüel M":11675,"Barack ":11676,"H.":11677,"Kos":11678,"Kerim":11679,"Ro":11680,"Seb":11681,"danı ":11682,"fail":11683,"muk":11684,"sün":11685,"tiler.\n":11686,"çi, ":11687,"çelik ":11688,"a ulaş":11689,"ınar ":11690,"olanlar":11691,"amın ":11692,"lerinin, ":11693,"ima ":11694,"bir hafta ":11695," sig":11696,"verir":11697,"bu hafta ":11698,"kongr":11699,"çıktığını ":11700," Man":11701,"belirley":11702,"büyü":11703,"Alış":11704,"zaman, ":11705,"yer veril":11706,"lerine göre ":11707,") - ":11708,"kemik ":11709,"düğün ":11710," aydır":11711," Ode":11712,"kendileri ":11713,"basın":11714," saatlik ":11715,"giderken ":11716," kulüp":11717,"kentinde ":11718,"tören ":11719,"engellen":11720,"David":11721,"şüphelen":11722," Alman":11723,"Kanun ":11724,"hizmete ":11725,"nereye ":11726,"kitab":11727,"mesajı ":11728,"Devr":11729,"meden önce ":11730,"tehlike ":11731," söz konusu ":11732,"an Bayr":11733,"cesed":11734,"aşamasında ":11735,"başkanlık sistem":11736," ekran":11737,"yeterince ":11738,"Mender":11739,"yasa dışı ":11740,"İdaresi ":11741,"tribün":11742,"Nusaybin":11743,"sözlerine ekledi.\n":11744,"akende ":11745,"itor Pereir":11746,"900":11747,"Be":11748,"Dam":11749,"Dum":11750,"idi":11751,"lağı ":11752,"morg":11753,"o'yu ":11754,"çor":11755,"eriş":11756,"ileceği ":11757,"larınca ":11758,"etinin ":11759,"uzmanı ":11760,"gelenek":11761,"konferans":11762,"artıyor.\n":11763," AN":11764,"kalma ":11765," Taş":11766,"önemi ":11767,"Erdal":11768,"Ermeni ":11769,"yolun ":11770," Es":11771,"saydı ":11772,"ılarından ":11773,"İnan":11774,"durumun ":11775,"hayatına ":11776,"Trans":11777,"uvvet ":11778,"müf":11779,"Demokratik ":11780,"luğun ":11781,"müştür.\n":11782,"dilekç":11783,"hastanın ":11784,"vurgulandı.\n":11785,"acağız\" dedi.\n":11786,"boyun ":11787,"Atletic":11788,"Şubesi ":11789,"düşünüyorum":11790,"şarkı ":11791,"taziye ":11792,"görüntüleri ":11793,"Derneğ":11794,"Bulgar":11795,"Fakültesi ":11796,"Yüzde ":11797,"Gires":11798,"Ortadoğu ":11799,"Muhammet ":11800,"köprü":11801," plakalı otomobil":11802,"PSS":11803,"Ekonomik ":11804,"cezalandırıl":11805,"Elektrik ":11806,"Fetullah Gülen'in ":11807,"do-mav":11808," asker ":11809,"' olarak ":11810,") S":11811,"Gıda ":11812,"Qu":11813,"UŞ":11814,"Vladim":11815,"bard":11816,"böyl":11817,"caz":11818,"İf":11819,"Şaf":11820,"infil":11821,"ayolu ":11822,"eyerek ":11823,"iş, ":11824," yurt":11825," katıl":11826,"umuzun ":11827," sar":11828,"aya gir":11829,"geçerek ":11830,"varil":11831,"tanık ":11832,"ülkedeki ":11833,"olduğunu düşün":11834,"yoluyla ":11835,"acak şekilde ":11836,"düzel":11837," konu":11838,"leri'n":11839,"ım için ":11840,"bulunan bir ":11841,"ekipler, ":11842," şark":11843,"ağırlıklı ":11844,"köp":11845,"dayalı ":11846,"masına rağmen ":11847,"futbol ":11848,"ofis":11849,"komşu":11850,"madal":11851,"değişikliği ":11852," Karab":11853,"bilgiye göre ":11854,"ziyaret etti.\n":11855,"hesabı ":11856,"soruları ":11857,"kalp krizi ":11858,"İran'ın ":11859,"nikof":11860," ölü\n":11861,"eğlence ":11862,"bakımından ":11863,"Cizre ":11864,"ation":11865,"aktivit":11866,"odols":11867,"Fernanda":11868," o":11869,"Kes":11870,"Mek":11871,"Saf":11872,"Tartış":11873,"Yüc":11874,"Yerli ":11875,"dük ":11876,"hekim":11877,"rüy":11878,"sis":11879,"şap":11880,"almıştı.\n":11881,"ire ":11882,"akları ":11883,"aklık ":11884,"en iy":11885,"emniyet ":11886,"işsiz":11887,"ikleri ":11888," kuvvet":11889,"önlen":11890,"adık ":11891,"alar ve ":11892,"karn":11893,"ombar":11894,"ölü":11895," AR":11896," A.Ş":11897," Serv":11898,"ilmesinin ":11899,"Bu tür":11900," Takım":11901,"bulunul":11902,"çektir":11903,"Türkiye için ":11904,"İstanbul, ":11905,"sunuyor.\n":11906,", bütün ":11907,"iğine ":11908,"öğrenilen ":11909,"ınızın ":11910,"tamamlam":11911,"Trabzon ":11912,"çalışmalara ":11913,"tahliy":11914,"yok, ":11915,"paylaştığı ":11916,"gelişen ":11917," kapasit":11918,"Devlet Bahç":11919,"saatlerde ":11920,"desteklem":11921," yıl içinde ":11922,"Kaza ":11923,"rejimi ":11924,"Kadir":11925," Bankası ":11926,"miktarda ":11927,"olsun, ":11928,"geriledi.\n":11929,"pazar ":11930,"Paris'te ":11931,"Suudi Arabistan ":11932,"cüml":11933,"Bursa'da ":11934,"sohbet ":11935,"Günlük Yorum":11936,"Hayvancılık ":11937,"Günlük Yorumu\n":11938," şekilde ":11939," aday":11940," üzerinden ":11941,"DHA":11942,"Evr":11943,"EDE":11944,"F-":11945,"MAN":11946,"Sh":11947,"ain":11948,"flaş":11949,"lip":11950,"lıyoruz.\n":11951,"plan ":11952,"viv":11953,"Çatış":11954,"ele":11955,"ordu ":11956,"atmos":11957,"onald":11958,"ünde, ":11959,"ikiye ":11960,"ady":11961," siz":11962," bes":11963,"adışı ":11964,"uydu.\n":11965,"çıktı":11966,"diğeri ":11967,"ımızdan ":11968,"\" demişti.\n":11969,"gerekir":11970,"gerekiyor":11971,"parmak ":11972,"sunduğu ":11973,"son olarak ":11974,"harika ":11975,"Akın ":11976,"mayacağını ":11977,"vatan":11978,"iler tarafından ":11979,"Gazetec":11980,"özel harek":11981,"larla birlikte ":11982,"içeride ":11983,"kaybeden ":11984,"oban":11985,"seçilen ":11986,". isimli ":11987,"girişimc":11988,"ideal":11989,"ıcı bir ":11990,"sarf":11991,"Bununla ":11992,"dikkat çekiyor.\n":11993,"Fenerbahçe ile ":11994," durumu ":11995,"ESİ":11996,"Kazada ":11997,"Samsun ":11998,"çiftç":11999,"düşünüyoruz.\n":12000,"Ekip":12001,"İtalya ":12002,"Güney Kor":12003,"Irak'ın ":12004,"bebek":12005,"trafik kaz":12006,"yurt dışında ":12007,"şikayetçi ":12008,"Albayrak, ":12009,"Alper ":12010," Atatürk ":12011,"adli kontrol şart":12012," Şampiyonlar ":12013,"skandal":12014," pozisyon":12015,"'\n":12016,"'üncü ":12017,"92":12018,"AFAD":12019,"BUL":12020,"Cün":12021,"Dest":12022,"Fr":12023,"Hanım":12024,"LA":12025,"Nak":12026,"Normal":12027,"Sed":12028,"Tamam":12029,"jandar":12030,"o ile ":12031,"Öğ":12032,"işver":12033,"ülü ":12034,"ına ilişkin ":12035,"lıdır.\n":12036,"geldiğinde ":12037,"bulutlu ":12038,"sonlandır":12039,"ihale ":12040,"olduğunda ":12041,"ehr":12042,"sürücü ":12043,"yakalay":12044,"mak amacıyla ":12045,"genel ":12046,"tutan ":12047,"lıklarını ":12048,", ben":12049,"yasını ":12050," kişiye ":12051,"metse ":12052,"görevine ":12053,"saldırıları ":12054,"160":12055,"tığında ":12056,"tarihinde ":12057,"oğlu ile ":12058,"öğrencilere ":12059," TL'ye ":12060,"kendisinden ":12061,"egül":12062,"değişik ":12063,"maraş":12064,"Kenan ":12065,"biliniyor.\n":12066,"uyarınca ":12067,"ihracat ":12068,"cumartesi ":12069,"kamu kurum":12070,"istenen ":12071,"gibi.\n":12072," devam ediyor.\n":12073,"depres":12074,"Tabii ki ":12075,"şeref":12076,"Oktay":12077,"nöbetçi ":12078," yüksek ":12079," Fakültesi ":12080,"\"...":12081,"Cel":12082,"Duy":12083,"Körfez":12084,"Kandil":12085,"Toy":12086,"Zeng":12087,"i­":12088,"twe":12089,"u'ya ":12090,"aladığı ":12091,"etleme ":12092,"aslan":12093,"diven":12094,"ikinc":12095,"yapıyoruz.\n":12096,"Bu sezon ":12097," Ter":12098,"olan bu ":12099,"son ver":12100,"üste ":12101,"fazlas":12102,"ıcısı ":12103,"obj":12104,"eler ve ":12105,"benim için ":12106,"anlaşması ":12107,"Ligde ":12108,"Demokrat ":12109," sorusuna ":12110," kişi yaralandı.\n":12111,"tablo":12112,"Toplantı":12113,"ebiliriz.\n":12114,"Yapılan":12115,"eylemi ":12116,"oyuncuları ":12117,"Milli Piyang":12118,"yanı sıra, ":12119,"başlayacak ":12120," yanıt":12121,"mümkün değil.\n":12122,"sürecin ":12123,"meşru ":12124,"Borsa ":12125,"ülerek ":12126," Sanat ":12127,"Tanr":12128," kısa ":12129,"Erzinc":12130,"Açık ":12131,"forma giyen ":12132," tüketim":12133,"arasında.\n":12134," başta olmak üzere ":12135," Yardımcısı ":12136,"Zongul":12137,"'S":12138,"HR":12139,"Ren":12140,"Rıza ":12141,"Sos":12142,"Yabancı ":12143,"dilik ":12144,"tüs":12145,"çiğ":12146,"İlet":12147,"alp":12148,"larımı ":12149,"oradaki ":12150,"bir kişi ":12151,"adının ":12152,"geldi ":12153,"kalın":12154,"çalışıyor.\n":12155,"ica ":12156,"ansiyon ":12157," pan":12158,"yıllar":12159," Eş":12160,"İstanbul'dan ":12161,"şehri ":12162,"ıları, ":12163,"yalan ":12164,"Rusya'dan ":12165," başına ":12166,"ekip, ":12167,"havaya ":12168,"Bizi ":12169,"bina ":12170," tarihleri arasında ":12171,"muş, ":12172,"partisi ":12173," VAR":12174,"oranla ":12175,"Tarım ve ":12176,"savcılık ":12177,"çatışmaların ":12178,"sektöründe ":12179,"şarkıcı ":12180,"atörü ":12181,"sabit":12182,"lenmesi için ":12183,"bireysel":12184," mevz":12185," yemek ":12186,"Patlam":12187,"Kızılay":12188,"Brezilyalı ":12189,"www":12190,"sivil toplum kuruluş":12191,"İnternet":12192," Üniversitesi ":12193,"'er":12194,"87":12195,"Kel":12196,"Paş":12197,"diyet":12198,"va ":12199,"zeytin":12200,"Çol":12201,"çey":12202,"arayan ":12203,"ilip":12204,"iner":12205,"deh":12206,"da bulunduğu ":12207,"ler: ":12208,"işine ":12209,"ımdan ":12210," bini ":12211,"evlerine ":12212," diyor.\n":12213,"karak":12214,"veriyor":12215,"verdikleri ":12216,"geleceğini ":12217,"gördüm.\n":12218,"omotiv":12219,"direkt":12220,"süresi ":12221,"yerel ":12222,"kaps":12223," oluş":12224,"eceğimiz":12225,"lığından ":12226,"193":12227,"diğini ve ":12228,"İsmet ":12229,"Kars":12230,"amamış":12231,"kaçtı.\n":12232," sonuna ":12233,"ekiplerinden ":12234,"hiç kim":12235,"obez":12236," artık ":12237,"Emekl":12238,"ilçesindeki ":12239,"mezhep":12240,"ölümüne ":12241,"ülkelerden ":12242,"kilo":12243,"seslendir":12244,"tasf":12245,"verildiği ":12246,"Çünkü b":12247,"bunlar":12248,"madan, ":12249,"kahraman ":12250,"nitelik":12251,"şehit oldu.\n":12252,"yurtdışına ":12253," belirlen":12254," seviyesinde ":12255,"Genel Müdür":12256,"Vatan ":12257,"fikr":12258,"İspanya ":12259,"talimatı ":12260,"(DHA":12261,"bundan sonra ":12262," büyüm":12263,"aydınlat":12264,"koalisyon":12265," doğrult":12266,"İstihbarat ":12267,"Riekerin":12268,"suç duyurusunda ":12269,"www.":12270," ülke ":12271,"AÇ":12272,"Basketbol":12273,"Dört":12274,"Ex":12275,"Gün ":12276,"Hacı ":12277,"TS":12278,"bal, ":12279,"falan ":12280,"madık":12281,"o K":12282,"uel ":12283,"u: ":12284,"yabanc":12285,"ÜY":12286,"asa ":12287,"un'un ":12288,"işsizlik ":12289,"bir kısm":12290,"olması, ":12291,"yara ":12292,"li'de ":12293,"çekin":12294,"arkasına ":12295,"lerini ve ":12296,"yer yer ":12297," Ham":12298," olabilir":12299,"denil":12300,"paranın ":12301," Par":12302," Yap":12303,"çıkardığı ":12304," sonu ":12305,"tamamlayan ":12306,"farkında ":12307,"harekat":12308,"gerçekleştirildi.\n":12309,"tığını, ":12310,"sistemin ":12311,"deşifre ":12312,"hakkında bilgi ":12313," yüzünden ":12314,"amayacağını ":12315,"sonuçları ":12316,"yaralandığı ":12317,"Allah ":12318,"Harp":12319," yoluyla ":12320,"meyi başar":12321,"giriş yap":12322,"Halep'in ":12323,"drom":12324,"yoktu.\n":12325,"faydalı ":12326," parç":12327," görüntü":12328,"öne sürülen ":12329," tespit":12330,"ECEK":12331," artışla ":12332," değerlendirmesinde bulundu.\n":12333,"pişir":12334,"ahhüt":12335,"Kırmızı ":12336,"yaptığı konuşmada, ":12337,"sermaye ":12338,"Hillar":12339,"infilak ":12340,"vivor":12341," otomobil":12342,"'Y":12343,"'lerin ":12344,"360":12345,"Th":12346,"balık ":12347,"hi ":12348,"hır":12349,"idim":12350,"mektedir":12351,"rat":12352,"y'nin ":12353,"yetk":12354,"ildi\n":12355,"alayan ":12356,"as, ":12357,"olanların ":12358,"aşkın":12359,"ve Sosyal":12360," kür":12361,"abol":12362,"ız, ":12363,"lant":12364," mi":12365," darbe ":12366,"buluyor.\n":12367," AŞ":12368,"olarak gör":12369,"eye gir":12370,"acağı, ":12371,"vuran ":12372,"ya'yı ":12373,"prens":12374,"a'da, ":12375,"uygulay":12376,"kimyasal":12377,"aynı şekilde ":12378,"Emine ":12379,"Ankara'nın ":12380,"senary":12381,"Enstit":12382,"Mehmet Top":12383," cam":12384,"mücadele eden ":12385,"CHP Genel Başkanı ":12386," sağlay":12387,"hastalığın ":12388,"borc":12389," kenar":12390,"kullanıldığı ":12391,"Gökç":12392,"soruşturma başlat":12393,"terör örgütü PKK":12394," sözleş":12395,"hapis":12396,"riskini ":12397,"Selahattin ":12398,"hazırlanıyor.\n":12399,"Temmuz":12400,"Roman":12401," kısm":12402,"Güvenlik güç":12403,"insani yardım":12404,"lılıkla ":12405," teklif":12406,"Büyükelçisi ":12407,"yukarı ":12408,"öfk":12409,"Zarrab":12410,"sipar":12411,"'luk ":12412,"750":12413,"B.":12414,"Hâ":12415,"Mir":12416,"Mark":12417,"Nil":12418,"Pazartesi ":12419,"i)":12420,"lus":12421,"lılığ":12422,"te.\n":12423,"çığ":12424,"İc":12425,"arada ":12426,"oluk ":12427,"amaya ":12428,"iz\" dedi.\n":12429,"itim ":12430,"acın ":12431," mı":12432," dağ":12433,"oğu ":12434,"alar.\n":12435,"verici ":12436," teknik ":12437,"ısınız.\n":12438,"yarıda ":12439,"ise bu ":12440,"ortağı ":12441,"topa ":12442,"kategor":12443,"demir ":12444,"olduğunu bil":12445," oluyor":12446,"hayvan ":12447," faz":12448," yaşandı.\n":12449,"temin":12450,"İlhan ":12451,"iğini ":12452,"malıyız.\n":12453,"Karam":12454,"leştirme ":12455,"karşılığı ":12456,"gittiğini ":12457,"menaj":12458,"havuz":12459,"kararlaştır":12460,"ANBUL":12461,"ağırlık ":12462," yaralı ":12463,"yardımcısı ":12464,"hedef alan ":12465," çift":12466,"anlamı ":12467,"minibüs":12468,"sağlık kontrol":12469,"hayatını kaybettiği ":12470,"defn":12471,"Savcı ":12472,"esi'nde, ":12473,"unutul":12474,"bugüne kadar ":12475,"sefer ":12476,"bebek ":12477,"bağlantı ":12478," söyledi.\n":12479,"bank ":12480,"sona erdi.\n":12481,"Hangi ":12482,"belki de ":12483,"çünkü":12484,"hücre ":12485,"devreye gir":12486,"Nusaybin ":12487,"Demokrasi ":12488,"Unut":12489,"Manchester United":12490,"ByL":12491,"rövan":12492,"Doç.\n":12493,"'inin ":12494,"Adem":12495,"Darbe ":12496,"Fuar":12497,"Haş":12498,"Kans":12499,"Mezar":12500,"Para ":12501,"lit":12502,"tiy":12503,"u\"":12504,"yör":12505,"yetkili ":12506,"Çeş":12507,"Çin'in ":12508,"arasından ":12509,"elden ":12510,"eli'nin ":12511,"eniz ":12512,"olanlar ":12513,"ılış":12514,"isabet":12515,"onunla ":12516,"yapacağız.\n":12517," dok":12518,"alardaki ":12519,"kandır":12520," Belediye ":12521,"eğilim":12522,"iflas":12523,"arttı.\n":12524,"çok büyük bir ":12525,"olarak bilinen ":12526,"tırman":12527," yıllarında ":12528,"abiliyor":12529,"mak zorun":12530,"bakanı ":12531,"olduğu bir ":12532,"hayat ":12533,"lıklarının ":12534,"arayarak ":12535,"Karad":12536,"gösterilen ":12537,"sözü ":12538,"öncülüğ":12539," şu ":12540," artarak ":12541," sürüyor.\n":12542,"işlemlerinin ardından ":12543,"Beşiktaş'ta ":12544,"isimler ":12545,"Halil":12546,"Galatasaray Ode":12547,"lerden biri ":12548,"Ama bu ":12549,"ing ":12550,"luğunu ":12551," VER":12552,"gürült":12553,"Devlet Yapılan":12554,"Amerika'da ":12555,"yakınlarında ":12556,"Ülkenin ":12557," tutar":12558,"tavr":12559,"ücretsiz":12560,"DAEŞ'in ":12561," Emre ":12562,"Güneydoğu ":12563,"duygusal":12564,"çerçevede ":12565,"PKK'lı":12566,"Yunanistan ":12567,"geçtiğimiz günlerde ":12568,"muhalefet":12569,"Eyüp":12570,"sonuna kadar ":12571,"Cihan ":12572,"göğüs":12573,"profesyonel":12574,"os Angel":12575,"-Dünya Haberleri - Zaman Gazetesi\n":12576,"93":12577,"Kasım ":12578,"Lir":12579,"Pınar":12580,"West":12581,"Zeki ":12582,"auta ":12583,"can ve ":12584,"gal ":12585,"mus":12586,"öh":12587,"a çıkar":12588,"in'de ":12589,", '":12590,"elçi ":12591,"ak'ın ":12592,"iyad":12593,"es, ":12594,"ont":12595,"onlar ":12596,"ike ":12597," yık":12598,"ımla ":12599," str":12600,"iç ":12601,"ever":12602," gül":12603,"uzay":12604," tanım":12605,"bulduğu ":12606,"konv":12607," Acil":12608,"acaklar":12609,"layıp":12610,"acağınız":12611,"yakaladı.\n":12612,"bakter":12613,"yerlere ":12614," ediyoruz.\n":12615,"leyic":12616,"olduğunu vurgulayan ":12617,"sayısını ":12618,", bab":12619,"diğini belirten ":12620,"tüm müdahal":12621,"'dan sonra ":12622,"Millet ":12623,"okulu ":12624," çağr":12625,"olduktan sonra ":12626,"sessiz":12627," kayıp":12628," İÇ":12629,"basketbol":12630,"sanız ":12631," Akadem":12632,"korku ":12633,"Sinem":12634,"ettiği, ":12635," yıldır ":12636,"ADI":12637,"yalnız bırak":12638,"ülkemize ":12639,"oğlu'nu ":12640," Ağustos'ta ":12641,"Kılıçdaroğlu ":12642,"Sezon ":12643,"Işık":12644,"kusuz":12645,"bıçak":12646,"İlker ":12647," mensuplarının ":12648,"Galaxy":12649,"Tutuk":12650,"Anahtar Kelime":12651,"asgari ücret":12652,"Mevlüt Çavuş":12653," öncesi ":12654,"BAŞ":12655,"Est":12656,"IS":12657,"Nijer":12658,"Tiyatro":12659,"a)":12660,"dram":12661,"faci":12662,"mol":12663,"ıst":12664,"asır":12665,"ekip ":12666,"unun, ":12667,"ılıyor":12668,"on'ın ":12669," yazar":12670," kalın":12671," buna ":12672,"ek üzere ":12673,"oğlum":12674,"gelip":12675,"görme ":12676,"oyraz":12677,"kanseri ":12678,"idman":12679," Sağlık ":12680,"ların yüzde ":12681,"....":12682,"tane ":12683," Gazet":12684,"sağlar.\n":12685,"türk ":12686,"olduğunu belirterek, \"":12687,"ABD'deki ":12688,"Rusya'da ":12689,"güvenliğini ":12690,"kaldırıldığı ":12691,"Galatasaray'a ":12692,"kurulu ":12693,"tutuksuz":12694,"edici ":12695,"üfenk":12696,"ziyareti ":12697,"Olağanüst":12698,"kısa zamanda ":12699,"haml":12700,"amızı ":12701,"koca ":12702,"Ortak ":12703,"edeceğini ":12704,"trafiğe ":12705," grubu ":12706,"söylemek ":12707,"pozisyon ":12708,"İdman":12709,"futbolcu, ":12710,"ekibin ":12711,"etkisiz hale getirildi.\n":12712,"müthiş":12713,"Cumhurbaşkanı Recep Tayyip Erdoğan ":12714,"dosy":12715," milyon liralık ":12716,"Mood":12717," milletvekili ":12718," köpr":12719,"hayırlı ":12720,"futbolcunun ":12721,"düzeyde ":12722,"cilik ve ":12723,"ulusi ":12724,"Henüz":12725,"Külliy":12726,"Mavi ":12727," musunuz?\n":12728,"Sulh Ceza Hakim":12729,"metse Ol":12730,"\"inci ":12731,"'DE":12732,"94":12733,"Adıy":12734,"EF":12735,"Jac":12736,"Kaya ":12737,"Kitap":12738,"La":12739,"Mis":12740,"Tören":12741,"böylece ":12742,"ladı ":12743,"madı ":12744,"peyn":12745,"th":12746,"tuv":12747,"vakt":12748,"çam":12749,"atma ":12750,"isip":12751,"ine yönelik ":12752,"görsel":12753," Bağ":12754,"eye çalış":12755,"ımız var":12756," peş":12757,"mak zorunda kal":12758," Dir":12759,"kullanımı ":12760,"taşer":12761,"denin ":12762,"göze ":12763,"oyundan ":12764,"Ayş":12765,"nedeniyle, ":12766,"sıralam":12767,"ulaşım":12768," olmadığını ":12769,"ifadesinde ":12770,"dığının ":12771,"hafız":12772,"davası ":12773,"tedir":12774,"larımızla ":12775,"isimler":12776,"anlaşıldı.\n":12777,"adamın ":12778,"ilmiş.\n":12779,"artışı ":12780,"aktarıldı.\n":12781,"karşılaşma ":12782,"fırsat ":12783,"devrim":12784,"etti, ":12785,"diklerini söyledi.\n":12786,"defalarca ":12787,"birbirlerine ":12788,"esi'ni ":12789,"HDP'li ":12790,"yurtdışında ":12791,"korkunç":12792," ifadesini kullandı.\n":12793,"ceph":12794,"Kültür Haberleri - Zaman Gazetesi\n":12795,"analiz":12796,"Proje ":12797,"internet sitesinden ":12798,"Büyükşehir Belediye Başkanı ":12799,"Komisyonu ":12800,"Oyuncu":12801,"terör örgütü mensubu ":12802,"Eskişehirspor":12803," Valisi ":12804,"o Madrid":12805,"bakış aç":12806,"meşin yuvarlak ":12807,"şiddet ":12808,"Olay yerine gelen ":12809,"randevu ":12810," Anadolu ":12811,"birlik ve beraber":12812," lazım.\n":12813," Jandarma ":12814,"Büt":12815,"Dol":12816,"Ku":12817,"LIK":12818,"Müsteş":12819,"hür":12820,"ier":12821,"idi.\n":12822,"k.":12823,"kod":12824,"mu ":12825,"num":12826,"sivil ":12827,"tüy":12828,"ini":12829,", G":12830,"larken, ":12831,"işley":12832,"acı":12833,"ına da ":12834,"olmasının ":12835,"kalkın":12836,"yanındaki ":12837,"önemine ":12838,"ortamı ":12839," bin Euro":12840," bin metrekar":12841,"tutun":12842,"Survivor":12843,"dış ":12844,"dış politik":12845,"yazdır":12846,"görevlis":12847,"lü bir ":12848,"havalandır":12849,"dinlem":12850,"davada ":12851,"çocuklarının ":12852,"masını istedi.\n":12853,"\"nin ":12854," halde ":12855,"masına yönelik ":12856,"öğrencileri ":12857,"Gülen":12858,"Sanat":12859,"kısa sür":12860,"komş":12861,"duktan sonra ":12862," - G":12863," Genel Sekreteri ":12864,"emizde ":12865," fiyatı: ":12866,"Ekim ":12867," kez ":12868,"usulsüz":12869,"İsrail'in ":12870," gazetec":12871,"cep telefonu ":12872,"oynayacağı ":12873," kentinde ":12874," kuruş, ":12875,"ihanet ":12876,"eğlenc":12877,"zihniyet":12878,"Brüksel'de ":12879,"vahş":12880," Yıldır":12881,"Şırnak'ta ":12882,"avrov":12883,"Ziraat Türkiye Kupası ":12884,"bakıldığında ":12885,"el yapımı patlayıcı ":12886,"neticesinde ":12887,"Cezaev":12888,"mekaniz":12889,"Ju":12890,"KAN":12891,"Mahal":12892,"Mimar":12893,"PK":12894,"Ses":12895,"Saat":12896,"fın":12897,"ix":12898,"jür":12899,"nis":12900,"sh":12901,"sekiz":12902,"wood":12903,"Çetin ":12904,"şov":12905,"arsa ":12906,"iyan ":12907,"dı:\n":12908,"di\" dedi.\n":12909,"isay":12910," yiy":12911,"dan fazla ":12912,"er ile ":12913,"tıb":12914,"istiyorum":12915,"ının yüzde ":12916,"lamenter":12917,"idrar":12918," Kür":12919,"yaşama ":12920,"düştü":12921,"'a kadar":12922,"larda da ":12923,"İl Emniyet Müdürlüğü ":12924,"Türk bayr":12925,"duruma ":12926,"oynat":12927,"anlatıyor.\n":12928,"Avrupa'daki ":12929,"tamamlanan ":12930,"kararına ":12931,"Fenerbahçe'ye ":12932,"seçim ":12933,"yardımıyla ":12934," lira, ":12935,"edi, ":12936,"cevabını ":12937,"rahatlat":12938,"Bilgi ":12939,"satış fiyatı ":12940," düşüş":12941,"INA":12942,"mümkün":12943,"niteliğ":12944,"Sinema ":12945,"sağlayacak ":12946,"olabileceğini ":12947,"anne ve ":12948,"Operasyon ":12949,"yerleşim":12950,"yönetmen ":12951," bizim":12952,"gideceğ":12953,"Federasyonu ":12954," berabere ":12955,"olağanüstü":12956,"alakalı ":12957,"y Clint":12958,"Norveç":12959,"Mercedes":12960,"ve Sosyal Politik":12961," ettiğini ":12962," inç":12963,"98":12964,"Hik":12965,"Hazır":12966,"Müdür":12967,"OG":12968,"Serbest":12969,"Tİ":12970,"aade ":12971,"dom":12972,"ku ":12973,"o'da ":12974,"pir":12975,"yedi ":12976,"ern ":12977,"alım ":12978,"akın":12979,"lerim":12980,"umur":12981," sak":12982,"üzel ":12983,"ıyak":12984,"afi ":12985,"li olan ":12986,"üyüş":12987,"lamaları ":12988,"lı olarak ":12989," Koc":12990,"var ":12991,"iye.\n":12992,"diğinden ":12993,"Türkiye'":12994,"yaşadıklarını ":12995,"isi ile ":12996,"malarda ":12997," Ev":12998,"maktır.\n":12999,"iki gün ":13000," Yaş":13001,"koridor":13002,"dığını belirten ":13003,"Konya'da ":13004,"masına neden ":13005,"kazanç":13006,"muaf":13007,"u'nu ":13008,"Suriye ve ":13009,"Bunlardan ":13010,"sevk edil":13011,"bankacılık ":13012,"tavsiy":13013,"başladık":13014," harit":13015,"sektörün ":13016,"darbe girişiminin ":13017,"Kredi ":13018,"genişlet":13019,"söyleyerek ":13020,"Gerçek ":13021,"dondur":13022,"takip eden ":13023,"önümüzdeki günlerde ":13024,"dikkati çekti.\n":13025,"Londra ":13026,"dikkate alın":13027,"Tuğgeneral":13028,"Gençlerbirliğ":13029,"HKP":13030,"efsane ":13031,"Meclisi ":13032,"Danıştay":13033," Köprüsü":13034,"Muharrem ":13035,"Premier ":13036,"\"ye ":13037,"&#":13038,"Bazen ":13039,"BBC":13040,"Dal":13041,"Gi":13042,"Ho":13043,"Hani ":13044,"Ilı":13045,"MK":13046,"cıların ":13047,"tit":13048,"ÖSY":13049,"ar ve ":13050,"ine":13051,"unda":13052,"isc":13053,"imkan ":13054,"imalat":13055,"dular.\n":13056," gaz":13057,"karayol":13058,"gelmesi ":13059,"Türkmen ":13060,"ider":13061,"edebiyat":13062," Moskov":13063,"iyle birlikte ":13064,"kurşun ":13065,"eceksiniz.\n":13066,"larına da ":13067,"her bir ":13068,"ailelerine ":13069,"korkut":13070,"bizden ":13071,"ANK":13072,"Konuyla ilgili ":13073,"masını engel":13074," sorunu ":13075,"teröristin ":13076,"dün gece ":13077,"edik ":13078,"filmde ":13079,"adı verilen ":13080,"ALI":13081,"bunlara ":13082,"Aziz":13083,"meli.\n":13084,"ortak bir ":13085,"Berlin ":13086,"kahve ":13087,"temizlen":13088,"tam bir ":13089,"hastaların ":13090,"beraberinde ":13091,"korumak için ":13092,"zararlı ":13093,"Çalışma ":13094," Merkezi ":13095," hapis":13096,"gurur duy":13097," olurken, ":13098,"kamuoyuna ":13099,"Bu arada, ":13100," benz":13101,"pazartesi ":13102,"Çin'de ":13103,"Eylem":13104,"Belediyesi ":13105,"Google":13106,"Yalçın ":13107,"özür dil":13108,"Asayiş Şub":13109," vatandaş":13110," öne ":13111,"\" yorum":13112,"/TL":13113,"96":13114,"Avr":13115,"Baz":13116,"GB":13117,"Sarı ":13118,"casus":13119,"gı ":13120,"iet":13121,"alacak ":13122,"larsa ":13123,"leriniz":13124,"iklim":13125,"ına kadar ":13126,"başlar.\n":13127,"karac":13128,"ü olarak ":13129," tav":13130,"edek":13131," BAŞ":13132,"vardı ":13133,"kayy":13134," yapıldı.\n":13135,"Ersoy":13136,"yüzünü":13137,"gök":13138,"gözler ":13139,"ileri ile ":13140,"yasal ":13141,"karşı çık":13142,"anti ":13143,"görüşül":13144," aylarında ":13145,"anlatıyor":13146,"operasyonda, ":13147,"Emir":13148,"meye çalışan ":13149,"ilmesi ve ":13150,"seniz ":13151," Festival":13152,"ümüzün ":13153," soru":13154," TL, ":13155,"tedaviye ":13156,"golle ":13157,"konudaki ":13158,"Avrupa Birliğ":13159,"zamandır":13160,"eğitime ":13161," gün içinde ":13162,"İNE":13163,"mızı ":13164," dönemi ":13165,"Serg":13166,"Erdoğan\"ın ":13167,"Harun ":13168,"sorumluluğ":13169,"Yaşanan ":13170,"ıyoruz, ":13171,"bebeğin ":13172,"Bayraktar":13173,"cezaevinde ":13174," mağdur":13175,"sanatçı ":13176,"uzak dur":13177,"Daire ":13178," genelinde ":13179,"dokuz":13180,"Kaçakç":13181,"teşekkür ediyorum.\n":13182,"kaşığı ":13183,"nefes al":13184,"Şimşek, ":13185,"konusundaki ":13186,"Hırvat":13187,"sokağa çıkma yasağı ":13188,"şimdiden ":13189,"o Amir":13190,"taburcu ":13191,"Tarım ve Hayvancılık ":13192,"Moody's":13193," ayı ":13194,"Baba ":13195,"CA":13196,"CÜ":13197,"EX":13198,"KCK":13199,"Lu":13200,"MB":13201,"War":13202,"Yanal":13203,"aid":13204,"fit":13205,"zat ":13206,"çil":13207,"aldığımız":13208,"old":13209,"amon":13210,"ın bir ":13211,"en üst":13212,"birinde ":13213,"uzatıl":13214,"uzunluğ":13215,"vermişti.\n":13216,"üyelerinin ":13217," defa ":13218," Tat":13219,"var mı?\n":13220,"im de ":13221," yıl boyunca ":13222,"ler ise ":13223,"alınacak ":13224,"ama bu ":13225,"Ar-G":13226," Pazar":13227,"ısı ve ":13228," Yönetim Kurulu ":13229,"savcısı ":13230,"Türk millet":13231,"şeyleri ":13232,"irketi ":13233,"milyar":13234,"rakam ":13235,"sporcu":13236,"içerisine ":13237,"seçilmiş":13238,"agu":13239,"takımının ":13240,"Halis":13241,"hedef al":13242,"görünüyor.\n":13243,"öğrenciler":13244,"milletimizin ":13245,"değerlendirme ":13246,"egatif":13247,"ateşe ":13248,"merkezinde ":13249," katlı ":13250," İST":13251,"yakalanması için ":13252,"firma ":13253," bulunan ":13254,"çalışma başlattı.\n":13255,"Dünya Savaş":13256,"geliştirilen ":13257,"siz bir ":13258,"darbeye ":13259,"Kamer":13260," seviyesine ":13261," yönetimindeki ":13262," desteği ":13263,"yaptığı açıklamada, \"":13264,"bekliyoruz.\n":13265," suçundan ":13266,"büyükelç":13267," düzenlem":13268,"yönetmen":13269," tesis":13270,"saptan":13271," siyaset":13272,"gözyaşı ":13273," DEĞ":13274,"hayran":13275,"moral":13276," Sokak":13277,"Ümran":13278,"Cengiz":13279,"Rabb":13280,"düstr":13281,"Bomb":13282,"Coşk":13283,"PF":13284,"Soğ":13285,"Sizin ":13286,"fed":13287,"io ":13288,"mod":13289,"na":13290,"nur":13291,"oug":13292,"seni ":13293,"süp":13294,"sığ":13295,"yl":13296,"erim.\n":13297,"an-ı ":13298,"alaş":13299,"alılar":13300,"alacağı ":13301,"asya ":13302,"astr":13303,"ura ":13304,"ılır.\n":13305,"en bu ":13306," kok":13307,"ağından ":13308,"ımsız":13309," ders":13310," dair":13311,"istat":13312,"isteği ":13313," Koç":13314," Tic":13315,"altın":13316,"sanki ":13317,"larını ve ":13318,"ayrın":13319,"taşıyor.\n":13320,"AB'ye ":13321,"genc":13322,"yollarını ":13323,"yapılmış":13324,"makamı ":13325,"ebilmek için ":13326,"Akşam":13327,"görev al":13328,"Haberleşme ":13329,"dık, ":13330,"görüştüğ":13331,"Buradan ":13332,"dığında, ":13333,"Adam":13334,"seçenek":13335,"senar":13336,"planı ":13337,"ekonomiye ":13338,"değerlendirdi.\n":13339,"Suriye'den ":13340,"Engin ":13341,"yaklaşık yüzde ":13342," kadros":13343,"dizisinde ":13344,"yumuş":13345,"Ağbal, ":13346,"yakınları ":13347,"Kalkınma ":13348,"çözüm ":13349,"şikâyet":13350,"şiddetle ":13351,"sıkınt":13352,"olabileceği ":13353,"hayal kırık":13354,"müşteri ":13355,"Teknik direktör":13356,"işkin":13357,"Japon ":13358,"kırmızı kart":13359,"internet sitesinde ":13360,"Değiş":13361,"Tarihi ":13362,"memleketi ":13363,"Ağır Ceza Mahkemesi'nde ":13364,"Levent":13365,"Paralel Devlet Yapılan":13366,"cerrahi ":13367,"yansıdı.\n":13368,"yürürlüğe gir":13369,"gözden geçir":13370,"ü\"ne ":13371,"mutabakat":13372,"isiplin ":13373," üzerine ":13374,"Amed":13375,"A Milli ":13376,"EÇ":13377,"Hes":13378,"Kuz":13379,"Los Angel":13380,"Mid":13381,"Sow":13382,"dinde ":13383,"iel":13384,"mün":13385,"an bu ":13386,"ati ":13387,"dib":13388,"una, ":13389,"ikr":13390,"ine gir":13391," mült":13392," dağıt":13393,"li olarak ":13394,"oylam":13395," Kır":13396,"çok şey":13397,"otoyol":13398,"geçtiğini ":13399," Meclis":13400,"leden ":13401,"belirli ":13402,"doğur":13403," yapıyor.\n":13404,"ansör":13405,"yaşadıkları ":13406,"tren ":13407,"yakında ":13408,"tanınan ":13409,"derhal":13410,"Albay":13411,"anda, ":13412,"alı günü ":13413,"yasaklan":13414,"insana ":13415,"tescil":13416,"milit":13417," olmuş":13418,"operasyonların ":13419,"Ankara, ":13420,"ağır yaralan":13421,"evliliğ":13422,"Cumhurbaşkanı Tayyip ":13423,"DAŞ":13424,"öldürüldü.\n":13425,"ATA":13426,"indirimi ":13427,"Hastanesi'nde ":13428,"yine de ":13429,"heykel":13430,"kurumsal":13431,"amızın ":13432,"acağız, ":13433,"istan'a ":13434,"çağrısında ":13435,"önlemi ":13436,"şikayet ":13437,"ihracatı ":13438,"söylemişti.\n":13439," sektöründe ":13440,"Dışişleri Bakanlığı ":13441,"polis ekipleri ":13442,"dosya ":13443," duruş":13444,"altını çizdi.\n":13445," sonuçları ":13446,"Volkan Demir":13447,"Barcelona ":13448,"Cizre'de ":13449," lit":13450,"F.Bahçe ":13451,"sohbet":13452," bozuk":13453,"Tesis":13454,"Anahtar Kelime: ":13455,"nükleer ":13456,"etapta ":13457,"Üsküdar":13458,"ir Put":13459,"Vladimir Put":13460," önde ":13461,"Geri ":13462,"Nac":13463,"lilerin ":13464,"Çevr":13465,"ı' ":13466,"e göre, ":13467,"eleme ":13468,"amadığ":13469,"abey":13470,"acı, ":13471," bedeli ":13472,"tic":13473,"evet":13474,"karg":13475," temiz":13476,"buluştu.\n":13477,"oy ver":13478," herkes":13479," Bal":13480,"olmanın ":13481," Say":13482,"kala ":13483,"çalışmaya ":13484,"gününde ":13485,"ler var.\n":13486,"\" isimli ":13487,"ama ve ":13488,"tekin ":13489,"olduğunu ifade eden ":13490," olacağını ":13491,"duğum":13492,"İstanbul Haberleri\n":13493,"ığına ":13494," konum":13495,"iyatr":13496,"satılan ":13497,"silvan":13498,"hang":13499,"eleri de ":13500,"ova'da ":13501,"asıllı ":13502,"vatandaşlar, ":13503," sürdür":13504,"köpek":13505,"ında, \"":13506,"sisteme ":13507," daha sonra ":13508,"sınırları ":13509," hakkı ":13510,"amayarak ":13511,"araca ":13512,"sokağa ":13513," Allah":13514," kazandır":13515,"Her gün ":13516,"hamil":13517,"sorumlu":13518,"ait bir ":13519,"başladığ":13520,"kaynaklanan ":13521,"ait olduğu ":13522,"darbeci ":13523,"tutuklanarak ":13524,"yanıt ver":13525,"namazı ":13526,"otorit":13527,"personeli ":13528,"'sinin ":13529," ÖN":13530,"ordusu ":13531,"törenle ":13532," kaçır":13533,"olmaması ":13534,"siyah-beyazlı ":13535,"Girişim":13536,"anlamına gel":13537,"Silivr":13538,"Dışişleri Bakanı Mevlüt Çavuş":13539,"fonksiyon":13540,"Yunanistan'a ":13541,"Nihat ":13542,"kadroya ":13543,"Mehmet":13544,"becer":13545,"ifade ederek, \"":13546,"Boğaziçi ":13547,"kayyum at":13548,"Berat Al":13549,"Vekili ":13550," x":13551,"EH":13552,"O dönem":13553,"Ref":13554,"TAN":13555,"Vir":13556,"coşk":13557,"gâh":13558,"ld":13559,"lar s":13560,"da bulun":13561,"oluştu.\n":13562,"u da ":13563,"unla ilgili ":13564,"online ":13565,"iş yer":13566,"ahlak":13567,"ikamet ":13568,"acım":13569,"iç ve ":13570,"edilmişti.\n":13571,"ek olarak ":13572,"yapmak için ":13573," dolu ":13574,"için \"":13575,"ümit":13576,"ısınız":13577,"konunun ":13578,"iyebil":13579,"acaktı.\n":13580,"arkasından ":13581,"tanı ":13582,"sorul":13583,"bakanlığ":13584,"una göre ":13585,"üphan":13586,"eceğim.\n":13587,"üçünc":13588,"üstün ":13589,", bugün":13590,"düzenley":13591,"lerine yönelik ":13592,"maya, ":13593,"yayıl":13594,"kriter":13595,"Adnan ":13596,"mutluy":13597,"kök ":13598,"Beşiktaş'a ":13599,"urtulmuş":13600,"tatör":13601,"sistemini ":13602,"silahla ":13603,"millete ":13604,"izin verilm":13605,"Oscar":13606," karşıl":13607,"Kendisi ":13608,"Sanay":13609,"Olimpiyat":13610,"Mustafa Kemal":13611,"çevredeki ":13612,"İzmir'in ":13613,"sorumluluk":13614,"ilik, ":13615," doğru ":13616,"Otobüs":13617," yönetimi ":13618,"Kullan":13619,"haber verdi.\n":13620," takımı ":13621," kilometrelik ":13622,"organ ":13623,"ertesi ":13624,"lik ve Spor":13625,"mücadelesi ":13626,"evruz":13627,"Çavuşoğlu, ":13628,"OKİ":13629,"cumhuriyet":13630,"Işık ":13631,"nikah":13632,"Kaynaklar":13633,"Seçim":13634," tehdi":13635," kanser":13636,"Hakkında ":13637,"İktidar":13638,"morguna ":13639,"\"N":13640,"\"T":13641,"\"un ":13642,".)":13643,"AG":13644,"Cor":13645,"Diş":13646,"Fur":13647,"FBI":13648,"KDV":13649,"Peş":13650,"RU":13651,"Saat ":13652,"beden":13653,"ciler ":13654,"faf":13655,"lının ":13656,"rev":13657,"set":13658,"sesi ":13659,"tüsü ":13660,"vit":13661,"a yakın ":13662,"ataş":13663,"unuzun ":13664,"unvan":13665,"on'un ":13666,"işken":13667,"bir kısmı ":13668,"ünde.\n":13669,"ikisi ":13670," sant":13671," bür":13672," bedel":13673," motor":13674,"uyarı ":13675," Bayr":13676,"kenara ":13677,"eğmen ":13678,"kaleme ":13679,"row":13680,"'ya, ":13681,"mak zorunda ":13682,"her geçen gün ":13683,"metro":13684,"mayın ":13685,"mayacağı ":13686,"ulaştığı ":13687," şampiyon":13688,"Fenerbahçeli ":13689,"kötül":13690," maçının ":13691,"tığımız ":13692,". ise ":13693,"araçta ":13694,"tarihe ":13695,"sadece bir ":13696,"vekkil":13697,"adamları ":13698," Vak":13699,"amayınca ":13700,"sokakta ":13701,"sonuçlan":13702,"meydana gel":13703,"bayrak ":13704,"Avni ":13705,"uzaktan ":13706," yaklaş":13707,"kapatılan ":13708," televizyon":13709,"diyalog":13710,"zirve ":13711,"hükümetinin ":13712,"bazıları ":13713,"talimat ":13714,"nefret":13715,"ameliyatı ":13716,"Sokak, ":13717," faiz":13718,"adrese ":13719,"Kayseri'de ":13720,"dökül":13721,"Aydın, ":13722,"uçağın ":13723,"Açıklamada ":13724,"Gökhan Gönül":13725,"Erdem Gül":13726,"şaşırt":13727,"Merkel":13728," gider":13729,"Kocaeli ":13730," mümkün ":13731,"Atletico Madrid":13732," İÇİN":13733," isimli ":13734,"\"Bir":13735,"Amel":13736,"Acil":13737,"BİT":13738,"Riz":13739,"Torku Konyaspor":13740,"İp":13741,"alm":13742,", (DHA":13743,"ın, \"":13744,"asansör":13745,"de bulunduğu ":13746,"esine, ":13747,"ekley":13748,"iklik ":13749,"iklerin ":13750," sab":13751,"eck":13752,"evlat":13753," mez":13754,"ıyorsunuz.\n":13755,"Bu kapsamda ":13756,"masına, ":13757,"Başta ":13758," Gaz":13759,"hale ":13760,"lu bir ":13761,"üsü, ":13762," Hay":13763,"gerekçe ":13764,"açıklamasında, ":13765,"haklarında ":13766,"hayli ":13767," fil":13768,"ısı ile ":13769,", bar":13770,"provok":13771," milyon Euro ":13772,"lerine karşı ":13773,"lerde bulun":13774,"desteğini ":13775,"saldırg":13776,"düğüm":13777,"tümör":13778,"Avrupalı ":13779,"bölgeden ":13780,"bölgesel":13781,"medim.\n":13782," geliyor.\n":13783,"okulda ":13784,"lastik ":13785,"anlaşmanın ":13786,"araçları ":13787,"anlamında ":13788,"Doğuş":13789,"Engel":13790,"saklan":13791,"oluşum":13792,"indedir.\n":13793,"savunan ":13794,"yemek":13795,"yayınlandı.\n":13796,"Mario":13797,"karşılaşmada ":13798,"lukla ":13799,"yumr":13800,"destekley":13801,"destekleyen ":13802,"komisyon ":13803,"üretim ":13804,"sigar":13805,"mek istey":13806,"yarattığı ":13807," Başkanvekili ":13808,"sebeple ":13809," hemen ":13810," haftada ":13811," başkanlık ":13812,"detaylı ":13813,"Teknik Direktörü ":13814,"ürriyet ":13815,"Enerji ve ":13816,"Bu durumda ":13817,"Maalesef":13818,"Dieg":13819,"ithalat":13820,"tespit etti.\n":13821,"Adalet Bakanı ":13822,"Robin ":13823,"bisiklet":13824," boyut":13825," tril":13826,"redded":13827," sosyal med":13828,"James":13829,"Organize Suçlarla Mücadele ":13830,"Diyanet ":13831," ad":13832,"'ta, ":13833,"Div":13834,"Emen":13835,"Ley":13836,"LİK":13837,"Mc":13838,"Motor":13839,"Nisan ":13840,"Plan":13841,"Se":13842,"TMSF":13843,"Wind":13844,"a;":13845,"gay":13846,"gat":13847,"h, ":13848,"kun":13849,"spek":13850,"zam ":13851,"­n":13852,"Ölüm":13853,"ıv":13854,"Şans":13855,"şık ":13856,"alist":13857,", yeni ":13858,"oran ":13859,"edilerek ":13860,"av tüf":13861," maliyet":13862,"iyor ":13863,"ileride ":13864,"uydu":13865,"lamak için ":13866," BİN":13867,"geçişi ":13868," Meydan":13869,"doğal ":13870,"doğusunda ":13871,"yönetim ":13872," Gomez":13873,"gösteri ":13874,"genetik ":13875," olsun":13876," olsa ":13877,"dengel":13878,"yapılacağı ":13879,"gözük":13880,"üstü ":13881,"İncir":13882,"beklediği ":13883,"zor bir ":13884,"bilgiler":13885,"bilgisini ":13886,"daydı.\n":13887,"\"nın ":13888,"masına ilişkin ":13889,"ilgisini ":13890,"nakl":13891,"oluşturdu.\n":13892,"soruşturmanın ":13893," ediliyor.\n":13894,"astro":13895,"ılığında ":13896,"yükseliş":13897,"destek veren ":13898,"Almanya'ya ":13899,"lulu ":13900," Anayas":13901,"Rusya Devlet Başkanı ":13902,"Benf":13903,"Erdoğan'ı ":13904,"giyen ":13905,"sorunların ":13906,"söylediler.\n":13907,"örneği ":13908,"Kaza, ":13909,"Şube ":13910,"temizlik ":13911,"hastalar":13912,"Kamu":13913,"olmayacak.\n":13914,"sözleşmesi ":13915,"personel ":13916,"yüklen":13917,"Geçen hafta ":13918,"bir süre önce ":13919,"dört bir ":13920,"YPG'nin ":13921,"Hepsi ":13922,"Erkek ":13923,"okuyan ":13924,"Açılış":13925,"Genel Müdürlüğü ":13926,"Afrika ":13927,"bilgilere göre, ":13928,"Astsubay":13929," yargılan":13930,"Hillary Clint":13931,"rövanş":13932,"Olağanüstü ":13933,"'sı ":13934,"'te, ":13935,"BP":13936,"Del":13937,"Gam":13938,"Gur":13939,"Hayr":13940,"Kud":13941,"Mağ":13942,"Tom":13943,"kağıt":13944,"ötür":13945,"arj":13946,"elle ":13947,"akâr":13948,"olamaz":13949,"ung":13950,"ılırken, ":13951,"eylül":13952,"edon":13953," dost":13954,"ları nedeniyle ":13955,"görür":13956," Bür":13957,"Bu yıl ":13958," TIR":13959,"diğin ":13960,
[...]
