{
  "version": "1.0",
  "truncation": null,
  "padding": null,
  "added_tokens": [
    {
      "id": 10000,
      "content": "[UNK]",
      "single_word": false,
      "lstrip": false,
      "rstrip": false,
      "normalized": false,
      "special": true
    }
  ],
  "normalizer": null,
  "pre_tokenizer": {
    "type": "Sequence",
    "pretokenizers": [
      {
        "type": "Split",
        "pattern": {
          "Regex": "\\p{N}{1,3}| ?[^\\s\\p{L}\\p{N}]{2,}[\\r\\n/]*| +(?!\\S)"
        },
        "behavior": "Isolated",
        "invert": false
      }
    ]
  },
  "post_processor": null,
  "decoder": null,
  "model": {
    "type": "BPE",
    "dropout": null,
    "unk_token": null,
    "continuing_subword_prefix": null,
    "end_of_word_suffix": null,
    "fuse_unk": false,
    "byte_fallback": false,
    "ignore_merges": false,
    "vocab": {
      "\n": 0,
      " ": 1,
      "!": 2,
      "\"": 3,
      "#": 4,
      "$": 5,
      "%": 6,
      "&": 7,
      "'": 8,
      "(": 9,
      ")": 10,
      "*": 11,
      "+": 12,
      ",": 13,
      "-": 14,
      ".": 15,
      "/": 16,
      "0": 17,
      "1": 18,
      "2": 19,
      "3": 20,
      "4": 21,
      "5": 22,
      "6": 23,
      "7": 24,
      "8": 25,
      "9": 26,
      ":": 27,
      ";": 28,
      "<": 29,
      "=": 30,
      ">": 31,
      "?": 32,
      "@": 33,
      "A": 34,
      "B": 35,
      "C": 36,
      "D": 37,
      "E": 38,
      "F": 39,
      "G": 40,
      "H": 41,
      "I": 42,
      "J": 43,
      "K": 44,
      "L": 45,
      "M": 46,
      "N": 47,
      "O": 48,
      "P": 49,
      "Q": 50,
      "R": 51,
      "S": 52,
      "T": 53,
      "U": 54,
      "V": 55,
      "W": 56,
      "X": 57,
      "Y": 58,
      "Z": 59,
      "[": 60,
      "\\": 61,
      "]": 62,
      "^": 63,
      "_": 64,
      "`": 65,
      "a": 66,
      "b": 67,
      "c": 68,
      "d": 69,
      "e": 70,
      "f": 71,
      "g": 72,
      "h": 73,
      "i": 74,
      "j": 75,
      "k": 76,
      "l": 77,
      "m": 78,
      "n": 79,
      "o": 80,
      "p": 81,
      "q": 82,
      "r": 83,
      "s": 84,
      "t": 85,
      "u": 86,
      "v": 87,
      "w": 88,
      "x": 89,
      "y": 90,
      "z": 91,
      "~": 92,
      "": 93,
      "": 94,
      "": 95,
      "": 96,
      "£": 97,
      "§": 98,
      "¨": 99,
      "©": 100,
      "¬": 101,
      "­": 102,
      "®": 103,
      "°": 104,
      "±": 105,
      "²": 106,
      "³": 107,
      "µ": 108,
      "·": 109,
      "º": 110,
      "½": 111,
      "¾": 112,
      "Á": 113,
      "Ä": 114,
      "Å": 115,
      "È": 116,
      "É": 117,
      "Í": 118,
      "Ó": 119,
      "Ö": 120,
      "×": 121,
      "Ú": 122,
      "Ü": 123,
      "ß": 124,
      "à": 125,
      "á": 126,
      "â": 127,
      "ã": 128,
      "ä": 129,
      "å": 130,
      "æ": 131,
      "ç": 132,
      "è": 133,
      "é": 134,
      "ê": 135,
      "ë": 136,
      "ì": 137,
      "í": 138,
      "î": 139,
      "ï": 140,
      "ð": 141,
      "ñ": 142,
      "ò": 143,
      "ó": 144,
      "ô": 145,
      "õ": 146,
      "ö": 147,
      "ø": 148,
      "ú": 149,
      "û": 150,
      "ü": 151,
      "ý": 152,
      "ÿ": 153,
      "ă": 154,
      "ą": 155,
      "Ć": 156,
      "ć": 157,
      "Č": 158,
      "č": 159,
      "Đ": 160,
      "đ": 161,
      "ę": 162,
      "ı": 163,
      "ł": 164,
      "ń": 165,
      "ň": 166,
      "Ő": 167,
      "ő": 168,
      "ř": 169,
      "Ś": 170,
      "ś": 171,
      "ş": 172,
      "Š": 173,
      "š": 174,
      "Ţ": 175,
      "ţ": 176,
      "Ť": 177,
      "ť": 178,
      "ů": 179,
      "Ű": 180,
      "ű": 181,
      "ż": 182,
      "Ž": 183,
      "ž": 184,
      "ș": 185,
      "˝": 186,
      "λ": 187,
      "ї": 188,
      "ה": 189,
      "ו": 190,
      "י": 191,
      "‒": 192,
      "†": 193,
      "•": 194,
      "‬": 195,
      "‭": 196,
      "″": 197,
      "€": 198,
      "−": 199,
      "∗": 200,
      "≤": 201,
      "": 202,
      "": 203,
      "ﬁ": 204,
      "ﬂ": 205,
      " a": 206,
      "sz": 207,
      "el": 208,
      "t ": 209,
      " a ": 210,
      "en": 211,
      "gy": 212,
      ", ": 213,
      "et": 214,
      "s ": 215,
      "er": 216,
      "k ": 217,
      "i ": 218,
      ".\n": 219,
      "an": 220,
      "at": 221,
      "al": 222,
      "a ": 223,
      "or": 224,
      "z ": 225,
      "ár": 226,
      "in": 227,
      "em": 228,
      "on": 229,
      "ol": 230,
      "ál": 231,
      "eg": 232,
      "ny": 233,
      "e ": 234,
      " m": 235,
      "ez": 236,
      "ás": 237,
      " k": 238,
      "ek": 239,
      "és": 240,
      " az ": 241,
      "ér": 242,
      "ar": 243,
      "ég": 244,
      "ak": 245,
      "es": 246,
      "egy": 247,
      "ho": 248,
      "cs": 249,
      "án": 250,
      "ot": 251,
      "bb": 252,
      "en ": 253,
      "ül": 254,
      "ik": 255,
      "ág": 256,
      "ít": 257,
      "és ": 258,
      "ok": 259,
      "él": 260,
      "il": 261,
      " t": 262,
      "ap": 263,
      "ek ": 264,
      "ban": 265,
      "kö": 266,
      "szer": 267,
      "is": 268,
      " v": 269,
      "ed": 270,
      "hogy": 271,
      "én": 272,
      "át": 273,
      " f": 274,
      ", hogy": 275,
      "os": 276,
      "agy": 277,
      "oz": 278,
      "is ": 279,
      "ék": 280,
      "ak ": 281,
      "szt": 282,
      "ad": 283,
      "ut": 284,
      "nem": 285,
      ", a": 286,
      "om": 287,
      "A ": 288,
      "ett": 289,
      "it": 290,
      "am": 291,
      "ól": 292,
      " sz": 293,
      "ség": 294,
      "ig": 295,
      "ét": 296,
      "et ": 297,
      "int": 298,
      "meg": 299,
      " az": 300,
      "ul": 301,
      "ell": 302,
      "ó ": 303,
      "og": 304,
      "ság": 305,
      "ány": 306,
      "es ": 307,
      "aj": 308,
      "áll": 309,
      "ény": 310,
      "le": 311,
      "ép": 312,
      " h": 313,
      "iz": 314,
      "az": 315,
      "ely": 316,
      "ag": 317,
      "ott": 318,
      "ész": 319,
      ", a ": 320,
      "év": 321,
      ", m": 322,
      "tö": 323,
      "áz": 324,
      "id": 325,
      "elő": 326,
      "ni": 327,
      "ok ": 328,
      "os ": 329,
      "ben": 330,
      "fel": 331,
      "ő ": 332,
      "as": 333,
      "köz": 334,
      "ai ": 335,
      "ám": 336,
      "hat": 337,
      "ent": 338,
      "ben ": 339,
      "- ": 340,
      "kor": 341,
      "be": 342,
      "ja": 343,
      "end": 344,
      "ki": 345,
      "leg": 346,
      "val": 347,
      " al": 348,
      "ett ": 349,
      "un": 350,
      "ind": 351,
      "ott ": 352,
      "ől": 353,
      "het": 354,
      "at ": 355,
      "ci": 356,
      "ön": 357,
      "ás ": 358,
      "jel": 359,
      "ik ": 360,
      "ban ": 361,
      "ák": 362,
      ", am": 363,
      " meg": 364,
      "tt": 365,
      "od": 366,
      "ált": 367,
      "ill": 368,
      "ért": 369,
      "an ": 370,
      "ír": 371,
      "ét ": 372,
      " a m": 373,
      "vez": 374,
      "ta": 375,
      "re": 376,
      "Az ": 377,
      "ra ": 378,
      "ond": 379,
      " a k": 380,
      "re ": 381,
      " kö": 382,
      "art": 383,
      "ber": 384,
      "ud": 385,
      " n": 386,
      " p": 387,
      "int ": 388,
      "rend": 389,
      "ter": 390,
      "ur": 391,
      "elm": 392,
      "olt": 393,
      "ab": 394,
      "át ": 395,
      "el ": 396,
      "öl": 397,
      "oly": 398,
      "nem ": 399,
      ", hogy ": 400,
      "ör": 401,
      ": ": 402,
      "ont": 403,
      "vet": 404,
      "szág": 405,
      "20": 406,
      "nak ": 407,
      "te": 408,
      "án ": 409,
      "egy ": 410,
      "agyar": 411,
      "ir": 412,
      "nak": 413,
      "ssz": 414,
      "bb ": 415,
      "ov": 416,
      "ák ": 417,
      "kez": 418,
      "ország": 419,
      "Sz": 420,
      " a v": 421,
      "ta ": 422,
      "on ": 423,
      " a h": 424,
      "iv": 425,
      "al ": 426,
      "nek ": 427,
      ", d": 428,
      " a f": 429,
      "ök": 430,
      "ja ": 431,
      "ra": 432,
      "ár ": 433,
      "nek": 434,
      "unk": 435,
      "ej": 436,
      "új": 437,
      ", h": 438,
      "us": 439,
      "ember": 440,
      "áb": 441,
      "ün": 442,
      "ev": 443,
      "esz": 444,
      " ad": 445,
      " a t": 446,
      "úl": 447,
      " a sz": 448,
      "uk": 449,
      "olg": 450,
      "ügy": 451,
      "pr": 452,
      ", és ": 453,
      "alm": 454,
      "tt ": 455,
      "ív": 456,
      "tat": 457,
      "ább": 458,
      "mány": 459,
      "erül": 460,
      "aszt": 461,
      "hoz": 462,
      "áj": 463,
      "ep": 464,
      " - ": 465,
      " köz": 466,
      "asz": 467,
      "éd": 468,
      "ály": 469,
      "um": 470,
      " ak": 471,
      "nap": 472,
      "t.\n": 473,
      "hely": 474,
      "av": 475,
      "nagy": 476,
      "éz": 477,
      "isz": 478,
      "őr": 479,
      "koz": 480,
      "sem": 481,
      "biz": 482,
      "ot ": 483,
      "tör": 484,
      "for": 485,
      "it ": 486,
      "mer": 487,
      "össz": 488,
      "szám": 489,
      "jár": 490,
      "iszt": 491,
      " a p": 492,
      " for": 493,
      "i k": 494,
      "im": 495,
      "tet": 496,
      "vezet": 497,
      "ól ": 498,
      "ony": 499,
      "öv": 500,
      "tel": 501,
      "ellen": 502,
      "jelent": 503,
      "ért ": 504,
      ", amely": 505,
      "ció": 506,
      "els": 507,
      "zet": 508,
      "ajd": 509,
      "ód": 510,
      "iat": 511,
      "illi": 512,
      "rész": 513,
      "ch": 514,
      "ély": 515,
      ", az ": 516,
      "ük": 517,
      "a.\n": 518,
      "ín": 519,
      "ők": 520,
      " száz": 521,
      "mény": 522,
      "est": 523,
      "ában": 524,
      "len": 525,
      "ítás": 526,
      "vár": 527,
      "ki ": 528,
      "érd": 529,
      " ar": 530,
      "szerint": 531,
      "tart": 532,
      "ig ": 533,
      "ém": 534,
      "sor": 535,
      "t m": 536,
      "alék": 537,
      "fog": 538,
      "ez ": 539,
      "ked": 540,
      "ék ": 541,
      " fel": 542,
      ", de ": 543,
      "ját": 544,
      "nál": 545,
      "ebb": 546,
      "obb": 547,
      "szerint ": 548,
      "ug": 549,
      "us ": 550,
      " (": 551,
      "kép": 552,
      "ző": 553,
      "és a ": 554,
      "por": 555,
      "mű": 556,
      "gy ": 557,
      "ór": 558,
      "eszt": 559,
      "ók": 560,
      "gyan": 561,
      "olt ": 562,
      " a b": 563,
      "y ": 564,
      "tal": 565,
      "vis": 566,
      " százalék": 567,
      "szak": 568,
      "lát": 569,
      "eln": 570,
      "e.\n": 571,
      "ős": 572,
      "i m": 573,
      "tár": 574,
      "lehet": 575,
      "csak ": 576,
      "er ": 577,
      "utat": 578,
      "200": 579,
      "tek": 580,
      "ilág": 581,
      "aság": 582,
      "t a ": 583,
      "több": 584,
      "vagy": 585,
      " -": 586,
      " év": 587,
      "után": 588,
      " egy": 589,
      "vény": 590,
      "eh": 591,
      "ható": 592,
      " milli": 593,
      "kül": 594,
      ", hogy a ": 595,
      " ki": 596,
      "be ": 597,
      " és ": 598,
      "let": 599,
      "ött": 600,
      "e a ": 601,
      "ád": 602,
      "ának ": 603,
      "igaz": 604,
      "eny": 605,
      " d": 606,
      "st": 607,
      "ob": 608,
      "gat": 609,
      "ikai ": 610,
      "íz": 611,
      "ával": 612,
      "a, ": 613,
      "ént ": 614,
      "uró": 615,
      "utó": 616,
      "vég": 617,
      "ic": 618,
      "kal": 619,
      "zés": 620,
      "volt": 621,
      "old": 622,
      "emény": 623,
      "lesz": 624,
      " b": 625,
      "ac": 626,
      "kormány": 627,
      "19": 628,
      "ház": 629,
      "ében": 630,
      "árt": 631,
      "ang": 632,
      "állam": 633,
      "zs": 634,
      "vál": 635,
      " azon": 636,
      "Magyar": 637,
      "idő": 638,
      "ég ": 639,
      "as ": 640,
      "kap": 641,
      "követ": 642,
      "ogat": 643,
      "azd": 644,
      "ított": 645,
      "ből": 646,
      " alap": 647,
      "ási ": 648,
      "fő": 649,
      "t, ": 650,
      "ról": 651,
      "ről": 652,
      "ében ": 653,
      "vas": 654,
      "eng": 655,
      "van": 656,
      "a m": 657,
      "ped": 658,
      "tan": 659,
      " tud": 660,
      "lan": 661,
      " mind": 662,
      "ily": 663,
      "ni ": 664,
      "eket ": 665,
      ") ": 666,
      "okat ": 667,
      "én ": 668,
      "ei ": 669,
      "énz": 670,
      "elem": 671,
      "kör": 672,
      "ver": 673,
      "ló": 674,
      "eket": 675,
      "élet": 676,
      "csap": 677,
      "elt": 678,
      "bizt": 679,
      "őj": 680,
      "eset": 681,
      " kor": 682,
      "ület": 683,
      "tén": 684,
      "ában ": 685,
      "né": 686,
      "),": 687,
      "első": 688,
      " an": 689,
      "ják": 690,
      " azt ": 691,
      " s": 692,
      "dön": 693,
      "pont": 694,
      "jelen": 695,
      "ött ": 696,
      "eb": 697,
      "csak": 698,
      "ési ": 699,
      "ugyan": 700,
      "abb": 701,
      "étel": 702,
      "ára ": 703,
      "ász": 704,
      "dí": 705,
      "a a ": 706,
      "port": 707,
      "ai": 708,
      "Nem": 709,
      "véd": 710,
      "áció": 711,
      "ismer": 712,
      "fi": 713,
      "ók ": 714,
      "öz": 715,
      " tö": 716,
      "ette ": 717,
      "ján": 718,
      "tak": 719,
      "gazd": 720,
      "ének ": 721,
      " forint": 722,
      "jog": 723,
      "ba ": 724,
      "e, ": 725,
      ", mer": 726,
      "árom": 727,
      "ése ": 728,
      ", ak": 729,
      "any": 730,
      "ajn": 731,
      "nél": 732,
      "00": 733,
      " is ": 734,
      "eres": 735,
      "bel": 736,
      " l": 737,
      "ondta": 738,
      "tud": 739,
      "ec": 740,
      "An": 741,
      "érték": 742,
      " el": 743,
      "Az": 744,
      "ális ": 745,
      "olit": 746,
      "őd": 747,
      "cs ": 748,
      "ők ": 749,
      "esen ": 750,
      "Egy": 751,
      "elnök": 752,
      "osz": 753,
      "foly": 754,
      "okat": 755,
      " az a": 756,
      "adás": 757,
      "201": 758,
      "kell": 759,
      "ajt": 760,
      "te ": 761,
      "het ": 762,
      "op": 763,
      " ez": 764,
      "A m": 765,
      "ni.\n": 766,
      "öld": 767,
      "ovább": 768,
      "szab": 769,
      "oln": 770,
      "hal": 771,
      "?\n": 772,
      "árd": 773,
      "áv": 774,
      "hozz": 775,
      ". ": 776,
      "hoz ": 777,
      "Ez": 778,
      "emel": 779,
      "mind": 780,
      "szín": 781,
      "oszt": 782,
      " alk": 783,
      "ered": 784,
      "uk ": 785,
      "ére ": 786,
      "ikor": 787,
      "illet": 788,
      "mag": 789,
      "vel": 790,
      "üz": 791,
      "A k": 792,
      "iniszt": 793,
      "ást ": 794,
      "ós": 795,
      "ani": 796,
      "uróp": 797,
      "o ": 798,
      "ve ": 799,
      "űn": 800,
      " kap": 801,
      ", az": 802,
      "állal": 803,
      "lak": 804,
      "ból": 805,
      " fog": 806,
      "SZ": 807,
      "almaz": 808,
      "szerep": 809,
      "fej": 810,
      "ia ": 811,
      "fél": 812,
      "nyug": 813,
      "úgy": 814,
      "ítés": 815,
      "ran": 816,
      "izs": 817,
      ", hogy az ": 818,
      "von": 819,
      "ing": 820,
      "csol": 821,
      "Cs": 822,
      "ük ": 823,
      "kol": 824,
      "egész": 825,
      "ne": 826,
      "óság": 827,
      "atkoz": 828,
      "rendszer": 829,
      "ót": 830,
      "ult": 831,
      "ip": 832,
      "ünk": 833,
      "ása ": 834,
      "vált": 835,
      "szem": 836,
      "díj": 837,
      " a s": 838,
      " kell": 839,
      " val": 840,
      "lt": 841,
      "rendőr": 842,
      "eked": 843,
      "lat": 844,
      "arad": 845,
      "izet": 846,
      "nyil": 847,
      "edd": 848,
      " több": 849,
      "cí": 850,
      " tör": 851,
      "őz": 852,
      "miat": 853,
      "és az ": 854,
      "hol": 855,
      "árm": 856,
      "által": 857,
      "őség": 858,
      "kel": 859,
      " K": 860,
      "is.\n": 861,
      "Or": 862,
      "ette": 863,
      "besz": 864,
      "ink": 865,
      "gond": 866,
      "rá": 867,
      "erm": 868,
      " vég": 869,
      "enny": 870,
      "ezet": 871,
      "óz": 872,
      "i t": 873,
      "köd": 874,
      "íg": 875,
      "up": 876,
      " a leg": 877,
      "ként ": 878,
      "ös": 879,
      "ások ": 880,
      "unk ": 881,
      " M": 882,
      " tart": 883,
      "ést ": 884,
      "át.\n": 885,
      "Gy": 886,
      "ist": 887,
      "hez ": 888,
      "gazdaság": 889,
      "lap": 890,
      "ásár": 891,
      "ex": 892,
      "éter": 893,
      " volt": 894,
      "form": 895,
      "dönt": 896,
      "út": 897,
      "alom": 898,
      "i, ": 899,
      "ozat": 900,
      "lehet ": 901,
      "ög": 902,
      "jobb": 903,
      "ván": 904,
      "két ": 905,
      "kész": 906,
      ", aki ": 907,
      "10": 908,
      "ásod": 909,
      " B": 910,
      "et.\n": 911,
      "éld": 912,
      ", aki": 913,
      "dul": 914,
      "har": 915,
      "omb": 916,
      "izsg": 917,
      "ökk": 918,
      "hető": 919,
      "árs": 920,
      " szám": 921,
      "and": 922,
      "ilyen ": 923,
      " r": 924,
      "érdek": 925,
      "ne ": 926,
      "kod": 927,
      "ef": 928,
      "ök ": 929,
      "pénz": 930,
      "dolg": 931,
      "valam": 932,
      "va ": 933,
      " az egy": 934,
      "A t": 935,
      "lam": 936,
      " nagy": 937,
      " már": 938,
      "esít": 939,
      "játék": 940,
      "-es ": 941,
      " a B": 942,
      "hasz": 943,
      "kerül": 944,
      "usz": 945,
      "jut": 946,
      "szerű": 947,
      "oll": 948,
      "ivat": 949,
      "ezt": 950,
      "így": 951,
      "állít": 952,
      "kal ": 953,
      "ják ": 954,
      "nő": 955,
      "ib": 956,
      "erc": 957,
      "pi": 958,
      "ilm": 959,
      " szem": 960,
      " alat": 961,
      " a magyar": 962,
      "len ": 963,
      "enc": 964,
      " vál": 965,
      "oztat": 966,
      "biztos": 967,
      "ács": 968,
      "után ": 969,
      "lal": 970,
      "úly": 971,
      ", mint": 972,
      "ások": 973,
      "esség": 974,
      "választ": 975,
      "Magyarország": 976,
      "nyom": 977,
      "ri": 978,
      "jöv": 979,
      "sik": 980,
      "vissz": 981,
      "tak ": 982,
      "történ": 983,
      "ülés": 984,
      "óg": 985,
      "ős ": 986,
      "..": 987,
      "csökk": 988,
      "of": 989,
      "ve": 990,
      "ikus ": 991,
      "ium": 992,
      "jegy": 993,
      "ont ": 994,
      "nyer": 995,
      "álat": 996,
      " a F": 997,
      " kez": 998,
      "idesz": 999,
      "város": 1000,
      "polit": 1001,
      "In": 1002,
      "gg": 1003,
      "voln": 1004,
      "ben.\n": 1005,
      " mond": 1006,
      "ram": 1007,
      "15": 1008,
      " a r": 1009,
      " hely": 1010,
      "osság": 1011,
      "től": 1012,
      "intéz": 1013,
      "ével": 1014,
      " nem": 1015,
      "cég": 1016,
      "a-": 1017,
      "ban.\n": 1018,
      "oldal": 1019,
      "csal": 1020,
      "cél": 1021,
      " van": 1022,
      "nak.\n": 1023,
      "már": 1024,
      "term": 1025,
      "sok": 1026,
      " milliárd": 1027,
      "erős": 1028,
      "gyű": 1029,
      "i sz": 1030,
      "ost ": 1031,
      "\" -": 1032,
      "ámogat": 1033,
      "jó": 1034,
      "ták": 1035,
      "eml": 1036,
      "El": 1037,
      "csolat": 1038,
      " mag": 1039,
      ", ez": 1040,
      "Al": 1041,
      "olyan": 1042,
      "eredmény": 1043,
      " am": 1044,
      "hon": 1045,
      "csapat": 1046,
      "eni": 1047,
      "ób": 1048,
      "elj": 1049,
      "egít": 1050,
      "pedig": 1051,
      "oh": 1052,
      "ub": 1053,
      ", ha ": 1054,
      "t az ": 1055,
      "seny": 1056,
      "a az ": 1057,
      "ester": 1058,
      " vagy": 1059,
      "előtt ": 1060,
      " a n": 1061,
      " a köz": 1062,
      "világ": 1063,
      "ét.\n": 1064,
      "udap": 1065,
      ", de": 1066,
      "A f": 1067,
      "ült ": 1068,
      " akkor": 1069,
      ", hogy m": 1070,
      "eti ": 1071,
      "kezd": 1072,
      "állap": 1073,
      "határ": 1074,
      " volt ": 1075,
      "súly": 1076,
      "anem": 1077,
      "ós ": 1078,
      "ik.\n": 1079,
      "óta ": 1080,
      "omány": 1081,
      "ábor": 1082,
      "elv": 1083,
      "ül ": 1084,
      ", mert ": 1085,
      "viselő": 1086,
      "tor": 1087,
      "ker": 1088,
      "ocs": 1089,
      "öt": 1090,
      "ón": 1091,
      "mér": 1092,
      "all": 1093,
      "ozás": 1094,
      "pár": 1095,
      "ú ": 1096,
      "ajnok": 1097,
      "pály": 1098,
      "bír": 1099,
      "issz": 1100,
      "visz": 1101,
      "ünk ": 1102,
      "avaz": 1103,
      "egyed": 1104,
      "olyan ": 1105,
      "ember ": 1106,
      "szerző": 1107,
      "urópai ": 1108,
      "etlen": 1109,
      "i h": 1110,
      "ass": 1111,
      "zel": 1112,
      "igazgat": 1113,
      " a l": 1114,
      "első ": 1115,
      "szolg": 1116,
      "társ": 1117,
      " még": 1118,
      "előtt": 1119,
      "jan": 1120,
      " a d": 1121,
      "últ ": 1122,
      "MN": 1123,
      "vány": 1124,
      "üntet": 1125,
      "orv": 1126,
      "en k": 1127,
      "érf": 1128,
      ", amikor": 1129,
      "ogy": 1130,
      "ogram": 1131,
      "elmi ": 1132,
      " mű": 1133,
      "cso": 1134,
      "sér": 1135,
      "ek.\n": 1136,
      "rendel": 1137,
      ", hanem": 1138,
      "iniszter": 1139,
      "en.\n": 1140,
      "vétel": 1141,
      "ett.\n": 1142,
      ", majd": 1143,
      "beszél": 1144,
      "tól": 1145,
      "használ": 1146,
      "mad": 1147,
      "áss": 1148,
      "tek ": 1149,
      "\".\n": 1150,
      " S": 1151,
      "szint": 1152,
      "ükség": 1153,
      "indul": 1154,
      "30": 1155,
      "nemzet": 1156,
      "áz ": 1157,
      "ügg": 1158,
      "ottság": 1159,
      "alál": 1160,
      "ltség": 1161,
      "oc": 1162,
      "ául": 1163,
      "bet": 1164,
      "gyak": 1165,
      "felelő": 1166,
      "rendez": 1167,
      "ebb ": 1168,
      "merikai ": 1169,
      "lét": 1170,
      " hat": 1171,
      "osan": 1172,
      "bizony": 1173,
      " T": 1174,
      "obb ": 1175,
      "ason": 1176,
      "érdés": 1177,
      "ent ": 1178,
      "ülön": 1179,
      "mell": 1180,
      "még": 1181,
      ", s": 1182,
      "dolgoz": 1183,
      "inek ": 1184,
      "tovább": 1185,
      "ors": 1186,
      "A v": 1187,
      "!\n": 1188,
      "el.\n": 1189,
      "épp": 1190,
      " a M": 1191,
      "18": 1192,
      "etlen ": 1193,
      "éldául": 1194,
      "föld": 1195,
      " az M": 1196,
      "igy": 1197,
      "olvas": 1198,
      "ei": 1199,
      "szeret": 1200,
      ", mint ": 1201,
      "kön": 1202,
      "óv": 1203,
      " akar": 1204,
      "hozzá": 1205,
      "fizet": 1206,
      "éb": 1207,
      "incs ": 1208,
      " adat": 1209,
      " már ": 1210,
      "ern": 1211,
      "nyv": 1212,
      "ikus": 1213,
      "lép": 1214,
      "12": 1215,
      "játsz": 1216,
      "munk": 1217,
      "nek.\n": 1218,
      "ónap": 1219,
      "áltat": 1220,
      "ossz": 1221,
      "telj": 1222,
      "pedig ": 1223,
      " kezd": 1224,
      "erg": 1225,
      "hány": 1226,
      "úz": 1227,
      " ped": 1228,
      " éves ": 1229,
      "Nagy": 1230,
      "ru": 1231,
      "ess": 1232,
      ", vagy": 1233,
      "szor": 1234,
      " közöl": 1235,
      "ször": 1236,
      " F": 1237,
      ", illet": 1238,
      "MNO": 1239,
      "miatt ": 1240,
      "amat": 1241,
      "övet": 1242,
      "enn": 1243,
      "győz": 1244,
      "juk": 1245,
      "ról ": 1246,
      "ták ": 1247,
      "kormányz": 1248,
      "uszt": 1249,
      " a hely": 1250,
      "adó": 1251,
      "okoz": 1252,
      "ek köz": 1253,
      "hossz": 1254,
      "tr": 1255,
      "egyik ": 1256,
      "iai ": 1257,
      ", akkor": 1258,
      "osan ": 1259,
      "tér": 1260,
      " millió": 1261,
      "i f": 1262,
      "ord": 1263,
      "nyugdíj": 1264,
      ", ahol": 1265,
      "tag": 1266,
      " a fel": 1267,
      "erek": 1268,
      "vizsg": 1269,
      "együ": 1270,
      "jelenleg": 1271,
      "szervez": 1272,
      "így ": 1273,
      "ájék": 1274,
      "irány": 1275,
      "ezés": 1276,
      "udapest": 1277,
      ", k": 1278,
      " P": 1279,
      "következ": 1280,
      "segít": 1281,
      "család": 1282,
      " H": 1283,
      "-ben ": 1284,
      "t meg": 1285,
      "hét": 1286,
      "erő": 1287,
      "külön": 1288,
      "érkez": 1289,
      "szerd": 1290,
      " azonban": 1291,
      "való": 1292,
      "ivel": 1293,
      "jelöl": 1294,
      "törvény": 1295,
      "ásodik ": 1296,
      "par": 1297,
      "ak.\n": 1298,
      " autó": 1299,
      "itel": 1300,
      "ment": 1301,
      "vállal": 1302,
      "dr": 1303,
      "tött": 1304,
      "úgy ": 1305,
      "ja.\n": 1306,
      "vesz": 1307,
      "on.\n": 1308,
      " az E": 1309,
      " L": 1310,
      "MNO - ": 1311,
      "ügyi ": 1312,
      "leszt": 1313,
      "ező": 1314,
      "éről": 1315,
      " kész": 1316,
      "euró": 1317,
      "hez": 1318,
      "talál": 1319,
      " kör": 1320,
      " nap": 1321,
      "törtö": 1322,
      "sem ": 1323,
      "ütörtö": 1324,
      " azonban ": 1325,
      "ja a ": 1326,
      "itk": 1327,
      "volt ": 1328,
      "három": 1329,
      "ati ": 1330,
      " mint ": 1331,
      "mond": 1332,
      "gel": 1333,
      "onság": 1334,
      "ös ": 1335,
      ", hisz": 1336,
      "hív": 1337,
      "oci": 1338,
      "ulajd": 1339,
      "16": 1340,
      "ból ": 1341,
      "is meg": 1342,
      "korább": 1343,
      " két ": 1344,
      "ivatal": 1345,
      "25": 1346,
      "aton": 1347,
      "ott.\n": 1348,
      "ából": 1349,
      "csökkent": 1350,
      "polg": 1351,
      "hang": 1352,
      "semm": 1353,
      " kerül": 1354,
      "rendőrség": 1355,
      " alak": 1356,
      "elés": 1357,
      "ió": 1358,
      "i.\n": 1359,
      "ot.\n": 1360,
      " azt m": 1361,
      ").\n": 1362,
      "ha ": 1363,
      "gól": 1364,
      " kép": 1365,
      "Er": 1366,
      "költség": 1367,
      "ájékoztat": 1368,
      "ű ": 1369,
      "gondol": 1370,
      "észet": 1371,
      "zár": 1372,
      "majd": 1373,
      "ológ": 1374,
      "reg": 1375,
      "kén": 1376,
      "iskol": 1377,
      "enek": 1378,
      "11": 1379,
      "alak": 1380,
      "elet": 1381,
      "le ": 1382,
      "keres": 1383,
      "aját ": 1384,
      "gép": 1385,
      "tó": 1386,
      "tam": 1387,
      "olc": 1388,
      "nem tud": 1389,
      "program": 1390,
      "re.\n": 1391,
      "per": 1392,
      "ított ": 1393,
      "össze": 1394,
      "növ": 1395,
      "épít": 1396,
      " kormány": 1397,
      "bajnok": 1398,
      "szabály": 1399,
      " arra": 1400,
      "már ": 1401,
      "lag": 1402,
      "hi": 1403,
      " alatt ": 1404,
      "csütörtö": 1405,
      "magyar": 1406,
      "lehetőség": 1407,
      "szabad": 1408,
      "at.\n": 1409,
      "című": 1410,
      "hu": 1411,
      " kapcsolat": 1412,
      ", és": 1413,
      "ása": 1414,
      "en a ": 1415,
      ")\n": 1416,
      " vezet": 1417,
      " szól": 1418,
      ", mi": 1419,
      "tett": 1420,
      "nyilatkoz": 1421,
      "est ": 1422,
      "éső": 1423,
      "- és ": 1424,
      " a vál": 1425,
      "szerződ": 1426,
      " vár": 1427,
      " történ": 1428,
      "ulajdon": 1429,
      "abb ": 1430,
      "ének": 1431,
      "csat": 1432,
      "Mind": 1433,
      " magyar": 1434,
      " mondta ": 1435,
      "gyal": 1436,
      "di": 1437,
      "úr": 1438,
      " pr": 1439,
      "elek": 1440,
      " foly": 1441,
      "ába ": 1442,
      "hagy": 1443,
      "üt": 1444,
      " még ": 1445,
      "ább ": 1446,
      "ür": 1447,
      "Meg": 1448,
      "Köz": 1449,
      "cím": 1450,
      "figy": 1451,
      " ezer": 1452,
      "ide": 1453,
      " korább": 1454,
      "pl": 1455,
      "ong": 1456,
      " vissz": 1457,
      "közl": 1458,
      "nyilván": 1459,
      " G": 1460,
      "utóbb": 1461,
      "utol": 1462,
      "ra.\n": 1463,
      "Ny": 1464,
      " munk": 1465,
      ", ami ": 1466,
      "ló ": 1467,
      "janu": 1468,
      "17": 1469,
      " vált": 1470,
      "ánd": 1471,
      "enged": 1472,
      "Ar": 1473,
      "ító": 1474,
      "ull": 1475,
      "a, a ": 1476,
      "dél": 1477,
      "ült": 1478,
      "ívül": 1479,
      "éss": 1480,
      "14": 1481,
      "ozz": 1482,
      "br": 1483,
      "Mi": 1484,
      "acs": 1485,
      "font": 1486,
      "ly": 1487,
      "övetség": 1488,
      "például": 1489,
      "fr": 1490,
      "éj": 1491,
      "milli": 1492,
      "ni a ": 1493,
      "assz": 1494,
      "áról": 1495,
      "értelm": 1496,
      "emlék": 1497,
      "i a ": 1498,
      "más": 1499,
      "gyűl": 1500,
      "ekkel": 1501,
      "Am": 1502,
      "egyen": 1503,
      "nem t": 1504,
      " egy ": 1505,
      "Szer": 1506,
      "szerint a ": 1507,
      " né": 1508,
      "jt": 1509,
      "lalkoz": 1510,
      "terület": 1511,
      "erj": 1512,
      "orosz": 1513,
      "javas": 1514,
      " nem ": 1515,
      "ista ": 1516,
      "gyakor": 1517,
      " arra ": 1518,
      "őv": 1519,
      "űz": 1520,
      " adó": 1521,
      "abd": 1522,
      ", akik ": 1523,
      "sp": 1524,
      " azért ": 1525,
      "jövő": 1526,
      " forint ": 1527,
      "ések ": 1528,
      "esebb": 1529,
      "ném": 1530,
      "rat": 1531,
      "csoport": 1532,
      "e-": 1533,
      "idej": 1534,
      "éntek": 1535,
      "ik a ": 1536,
      "lás": 1537,
      "lin": 1538,
      "árnap": 1539,
      " a világ": 1540,
      "esen": 1541,
      "nev": 1542,
      "e az ": 1543,
      "A sz": 1544,
      "ható ": 1545,
      " pont": 1546,
      "észt": 1547,
      " azt": 1548,
      " C": 1549,
      "lőd": 1550,
      "emelked": 1551,
      "elmúlt ": 1552,
      "Nemzet": 1553,
      "itt ": 1554,
      "essz": 1555,
      "okkal": 1556,
      "főn": 1557,
      "ert": 1558,
      "obl": 1559,
      "prób": 1560,
      "nélkül": 1561,
      "ró": 1562,
      "hat ": 1563,
      "é ": 1564,
      " alkot": 1565,
      "50": 1566,
      "lov": 1567,
      "úsz": 1568,
      "ezett": 1569,
      ", s ": 1570,
      ", mely": 1571,
      "állítás": 1572,
      "ranci": 1573,
      "eztet": 1574,
      "nagyobb": 1575,
      "ítani": 1576,
      "Ál": 1577,
      " szak": 1578,
      "ant": 1579,
      ", egy": 1580,
      "iség": 1581,
      "ző ": 1582,
      "fordul": 1583,
      "rég": 1584,
      "ói ": 1585,
      "fogad": 1586,
      "ője ": 1587,
      " R": 1588,
      " kil": 1589,
      "13": 1590,
      "ették": 1591,
      "hatóság": 1592,
      ".,": 1593,
      ", valam": 1594,
      "a meg": 1595,
      "eljár": 1596,
      "biztonság": 1597,
      "vél": 1598,
      "omm": 1599,
      "gazdasági ": 1600,
      "piac": 1601,
      "néz": 1602,
      "vezető": 1603,
      "ult ": 1604,
      "inform": 1605,
      "ték": 1606,
      ", így": 1607,
      "a\n": 1608,
      "Br": 1609,
      "arc": 1610,
      "szervezet": 1611,
      "oblém": 1612,
      "egyei ": 1613,
      "úja": 1614,
      "itány": 1615,
      "atlan": 1616,
      "közi ": 1617,
      "elmondta": 1618,
      " any": 1619,
      "iatal": 1620,
      "igazgató": 1621,
      "kr": 1622,
      "állás": 1623,
      " az új": 1624,
      " leg": 1625,
      "haj": 1626,
      "nyolc": 1627,
      "ajtó": 1628,
      "ven": 1629,
      "ard": 1630,
      " a munk": 1631,
      "hát": 1632,
      "műv": 1633,
      "\" - ": 1634,
      "túl": 1635,
      "utols": 1636,
      "ában.\n": 1637,
      " az ország": 1638,
      "it.\n": 1639,
      "i meg": 1640,
      "ain": 1641,
      ", míg": 1642,
      "működ": 1643,
      "ében.\n": 1644,
      "gyerek": 1645,
      "valy": 1646,
      "je ": 1647,
      ", ami": 1648,
      " más": 1649,
      "be.\n": 1650,
      "ús": 1651,
      " azz": 1652,
      "európai ": 1653,
      "port ": 1654,
      "mód": 1655,
      "-ben": 1656,
      "27": 1657,
      " százalékos ": 1658,
      "ának": 1659,
      "Ha ": 1660,
      "kis": 1661,
      "En": 1662,
      "gyors": 1663,
      " D": 1664,
      "érint": 1665,
      "érz": 1666,
      "talan": 1667,
      "jó ": 1668,
      "min": 1669,
      "hír": 1670,
      "ális": 1671,
      "SZP": 1672,
      "li": 1673,
      "bank": 1674,
      " hét": 1675,
      "Ist": 1676,
      "otor": 1677,
      "land": 1678,
      "etem": 1679,
      "rep": 1680,
      "ázat": 1681,
      "összeg": 1682,
      "személy": 1683,
      "ollár": 1684,
      "ált ": 1685,
      "fek": 1686,
      "előre ": 1687,
      "támogat": 1688,
      ": a ": 1689,
      "öt ": 1690,
      "eddig": 1691,
      "ével ": 1692,
      " be": 1693,
      "körül": 1694,
      "őt ": 1695,
      "bal": 1696,
      "gyerm": 1697,
      "i és ": 1698,
      "199": 1699,
      "sok ": 1700,
      " alá": 1701,
      "eség": 1702,
      "négy": 1703,
      "ark": 1704,
      "sikerül": 1705,
      " amerikai ": 1706,
      "újt": 1707,
      "rendelkez": 1708,
      "ását ": 1709,
      "onc": 1710,
      " perc": 1711,
      "íz ": 1712,
      "Orb": 1713,
      "ése": 1714,
      "iatt ": 1715,
      " arról": 1716,
      "incs": 1717,
      "lő": 1718,
      "könyv": 1719,
      "ism": 1720,
      "ay": 1721,
      "Ez ": 1722,
      "juk ": 1723,
      "ozó": 1724,
      "nevez": 1725,
      " három": 1726,
      "őzés": 1727,
      "színű": 1728,
      " a meg": 1729,
      "lév": 1730,
      "ással": 1731,
      "tekint": 1732,
      " aján": 1733,
      "verseny": 1734,
      "még ": 1735,
      "rom": 1736,
      "\" ": 1737,
      "Fidesz": 1738,
      "nyit": 1739,
      " szab": 1740,
      "szól": 1741,
      "enet": 1742,
      "vásár": 1743,
      "ni, ": 1744,
      " minden": 1745,
      "párt": 1746,
      ": \"": 1747,
      "elég": 1748,
      "negyed": 1749,
      " marad": 1750,
      "Zs": 1751,
      "áros": 1752,
      "van ": 1753,
      "ehér": 1754,
      "ján ": 1755,
      "bizottság": 1756,
      "ort": 1757,
      "te a ": 1758,
      "ennyi": 1759,
      "ilyen": 1760,
      "lett": 1761,
      "ek, ": 1762,
      "helyzet": 1763,
      "egy k": 1764,
      "ideg": 1765,
      "24": 1766,
      "ion": 1767,
      "orn": 1768,
      "erseny": 1769,
      "cik": 1770,
      "száz": 1771,
      "óri": 1772,
      " szerint ": 1773,
      "kel ": 1774,
      "ített ": 1775,
      "ítél": 1776,
      "amp": 1777,
      "éves ": 1778,
      "\",": 1779,
      "szükség": 1780,
      "önkormányz": 1781,
      "együtt": 1782,
      "af": 1783,
      "egészség": 1784,
      "utc": 1785,
      "haz": 1786,
      "ármester": 1787,
      "bar": 1788,
      "uni": 1789,
      "sen": 1790,
      "elt ": 1791,
      "között": 1792,
      " V": 1793,
      "eleg": 1794,
      "tiszt": 1795,
      "ülő": 1796,
      "vit": 1797,
      "en az ": 1798,
      "ére": 1799,
      "ítan": 1800,
      "az ": 1801,
      "ta a ": 1802,
      "óviv": 1803,
      " abb": 1804,
      "utas": 1805,
      "közel": 1806,
      "ogyaszt": 1807,
      "át, ": 1808,
      "rossz": 1809,
      "raj": 1810,
      "bűn": 1811,
      "ik, ": 1812,
      "ekben ": 1813,
      " fő": 1814,
      " hónap": 1815,
      "ba": 1816,
      "ót ": 1817,
      "ock": 1818,
      " és a ": 1819,
      "ew": 1820,
      "ó t": 1821,
      "tatás": 1822,
      "ost": 1823,
      "átlag": 1824,
      "jav": 1825,
      "ereszt": 1826,
      "forr": 1827,
      "telen": 1828,
      "ája ": 1829,
      " anny": 1830,
      " J": 1831,
      "osztály": 1832,
      " pedig": 1833,
      "uc": 1834,
      "va": 1835,
      "irod": 1836,
      " alapján": 1837,
      "adat": 1838,
      "Európ": 1839,
      "hason": 1840,
      "űr": 1841,
      " az A": 1842,
      "követő": 1843,
      "onn": 1844,
      "anyol": 1845,
      "mutat": 1846,
      "okban": 1847,
      " minden ": 1848,
      "ham": 1849,
      ", mind": 1850,
      "problém": 1851,
      "érfi": 1852,
      " az állam": 1853,
      "lament": 1854,
      "akkor": 1855,
      " tovább": 1856,
      "26": 1857,
      "án.\n": 1858,
      " A": 1859,
      "ugyanis ": 1860,
      "elnök ": 1861,
      "ács ": 1862,
      "szön": 1863,
      "tervez": 1864,
      "ellem": 1865,
      " a fő": 1866,
      "ékeny": 1867,
      "ettek ": 1868,
      " alkalmaz": 1869,
      "neh": 1870,
      " mondta": 1871,
      "több ": 1872,
      " a mag": 1873,
      "ső": 1874,
      " az elő": 1875,
      "A B": 1876,
      " való": 1877,
      "ések": 1878,
      "között ": 1879,
      "eccs": 1880,
      "eket.\n": 1881,
      "TI": 1882,
      " telj": 1883,
      "inkább": 1884,
      "rak": 1885,
      "ára": 1886,
      " mell": 1887,
      "ja, ": 1888,
      "ecs": 1889,
      "jön": 1890,
      "leges ": 1891,
      "ást": 1892,
      "forg": 1893,
      "lik": 1894,
      "et, ": 1895,
      "ezte": 1896,
      " millió ": 1897,
      "anyag": 1898,
      "öm": 1899,
      "néhány": 1900,
      "film": 1901,
      "hall": 1902,
      " a P": 1903,
      " működ": 1904,
      "- közöl": 1905,
      "i-": 1906,
      "izm": 1907,
      "chn": 1908,
      "úg": 1909,
      " majd": 1910,
      "körny": 1911,
      "ját ": 1912,
      " a K": 1913,
      " az ember": 1914,
      "harmad": 1915,
      "kev": 1916,
      "ációs ": 1917,
      "40": 1918,
      "két": 1919,
      "asztal": 1920,
      "onz": 1921,
      "ah": 1922,
      "orm": 1923,
      "érium": 1924,
      "ító ": 1925,
      "orvos": 1926,
      "tött ": 1927,
      " azt mondta": 1928,
      "II": 1929,
      "osabb": 1930,
      "ebru": 1931,
      "marad": 1932,
      "ezt ": 1933,
      "veszt": 1934,
      "ésőbb": 1935,
      "íván": 1936,
      "ozott ": 1937,
      ", illetve ": 1938,
      "más ": 1939,
      "egyéb": 1940,
      "ó, ": 1941,
      "fejleszt": 1942,
      "ipar": 1943,
      "nép": 1944,
      "nep": 1945,
      "ését ": 1946,
      "Szab": 1947,
      "tétel": 1948,
      "volna ": 1949,
      "költségvet": 1950,
      ", amit ": 1951,
      "if": 1952,
      " követ": 1953,
      "nincs ": 1954,
      "ann": 1955,
      " a két ": 1956,
      "minden": 1957,
      "öd": 1958,
      " a T": 1959,
      "Ch": 1960,
      "bor": 1961,
      "enci": 1962,
      " szerint": 1963,
      "lub": 1964,
      "err": 1965,
      "övid": 1966,
      "22": 1967,
      "almas ": 1968,
      "kutat": 1969,
      "kit": 1970,
      "legal": 1971,
      " fej": 1972,
      "bíróság": 1973,
      "igény": 1974,
      "vissza": 1975,
      "büntet": 1976,
      "ésre ": 1977,
      "ből ": 1978,
      "áld": 1979,
      "intézmény": 1980,
      "bíz": 1981,
      " annak ": 1982,
      "atív": 1983,
      " mód": 1984,
      "zett ": 1985,
      "köl": 1986,
      "gáz": 1987,
      "oj": 1988,
      "saját ": 1989,
      "élkül": 1990,
      "meg.\n": 1991,
      "erenc": 1992,
      "okat.\n": 1993,
      "Egyes": 1994,
      "-as ": 1995,
      "emok": 1996,
      " kev": 1997,
      " fél": 1998,
      " adott ": 1999,
      " N": 2000,
      "nök": 2001,
      "a (": 2002,
      ", de a ": 2003,
      "inisztérium": 2004,
      "sért": 2005,
      "kötel": 2006,
      "ban, ": 2007,
      " a H": 2008,
      "víz": 2009,
      "-f": 2010,
      "inál": 2011,
      "rem": 2012,
      "ség ": 2013,
      "tem": 2014,
      "kér": 2015,
      " a S": 2016,
      "állított": 2017,
      "ünnep": 2018,
      "es, ": 2019,
      " azzal": 2020,
      "Mar": 2021,
      "ógy": 2022,
      " az első": 2023,
      " fordul": 2024,
      "21": 2025,
      "rek": 2026,
      "lep": 2027,
      "Állam": 2028,
      "Ország": 2029,
      "iac": 2030,
      "kőzés": 2031,
      "tám": 2032,
      " vél": 2033,
      "env": 2034,
      " elő": 2035,
      "íl": 2036,
      " visz": 2037,
      "ika ": 2038,
      "gyermek": 2039,
      "által ": 2040,
      " az ügy": 2041,
      "ott, ": 2042,
      "ich": 2043,
      "ették ": 2044,
      " mér": 2045,
      "ivel ": 2046,
      "érfi ": 2047,
      "nagyobb ": 2048,
      "ecember ": 2049,
      " azok": 2050,
      "tiz": 2051,
      "enek ": 2052,
      "hajt": 2053,
      "ció ": 2054,
      ".hu": 2055,
      "ok.\n": 2056,
      "iderül": 2057,
      "Bal": 2058,
      "szavaz": 2059,
      "szolgáltat": 2060,
      "enz": 2061,
      "ezett ": 2062,
      "A leg": 2063,
      " talál": 2064,
      "ozó ": 2065,
      "üzlet": 2066,
      "De ": 2067,
      "föl": 2068,
      "vonal": 2069,
      "beteg": 2070,
      "23": 2071,
      "jól": 2072,
      "minden ": 2073,
      "alap": 2074,
      "ellen ": 2075,
      "városi ": 2076,
      "ásra ": 2077,
      "információ": 2078,
      "jának ": 2079,
      "ben a ": 2080,
      "intern": 2081,
      "org": 2082,
      "ánt": 2083,
      "részlet": 2084,
      "bár": 2085,
      " kis": 2086,
      "nak a ": 2087,
      ", meg": 2088,
      "armad": 2089,
      "100": 2090,
      "épviselő": 2091,
      "lány": 2092,
      "gyárt": 2093,
      "csapat ": 2094,
      "ow": 2095,
      "vel ": 2096,
      "Egy ": 2097,
      "tóber": 2098,
      "politikai ": 2099,
      "pal": 2100,
      "fektet": 2101,
      " ter": 2102,
      "en, ": 2103,
      "ászló": 2104,
      "fut": 2105,
      " százalékkal ": 2106,
      " hang": 2107,
      "ából ": 2108,
      "csütörtökön": 2109,
      "esély": 2110,
      "ottak ": 2111,
      "cser": 2112,
      "ozg": 2113,
      "részt ": 2114,
      "emutat": 2115,
      "on, ": 2116,
      "ellenőr": 2117,
      " közl": 2118,
      "encs": 2119,
      " külön": 2120,
      "ános ": 2121,
      " milliárd forint": 2122,
      "Le": 2123,
      "utaz": 2124,
      "elér": 2125,
      "ta.\n": 2126,
      "hiány": 2127,
      "játékos": 2128,
      "ársaság": 2129,
      " anyag": 2130,
      "séget ": 2131,
      "apitány": 2132,
      "ra is ": 2133,
      "titk": 2134,
      "ennek ": 2135,
      "enved": 2136,
      "-e ": 2137,
      "Jobb": 2138,
      "rány": 2139,
      "ület ": 2140,
      " tan": 2141,
      "csú": 2142,
      " világ": 2143,
      ", még": 2144,
      " valam": 2145,
      "ház ": 2146,
      "lég": 2147,
      "atok ": 2148,
      "mellett ": 2149,
      "energ": 2150,
      ", akik": 2151,
      " a választ": 2152,
      "gar": 2153,
      "ezte ": 2154,
      " táv": 2155,
      "köt": 2156,
      "det": 2157,
      "a és ": 2158,
      "ság ": 2159,
      "ával ": 2160,
      " a pénz": 2161,
      " szint": 2162,
      ". - ": 2163,
      "i s": 2164,
      "folyam": 2165,
      "gyógy": 2166,
      " százalékkal": 2167,
      "ím": 2168,
      "tön": 2169,
      "kom": 2170,
      " a szak": 2171,
      "eit ": 2172,
      "ia": 2173,
      "gyeng": 2174,
      " az el": 2175,
      "alk": 2176,
      "nem is ": 2177,
      " c": 2178,
      "ést": 2179,
      "ellát": 2180,
      "én.\n": 2181,
      "ához ": 2182,
      "csom": 2183,
      "arács": 2184,
      "émet": 2185,
      "ítvány": 2186,
      ", hogy meg": 2187,
      "fok": 2188,
      "part": 2189,
      "zen": 2190,
      "új ": 2191,
      " a Fidesz": 2192,
      "osítás": 2193,
      "során": 2194,
      "arácsony": 2195,
      "péntek": 2196,
      "i b": 2197,
      "ését": 2198,
      "ölt": 2199,
      "viszont ": 2200,
      "Györ": 2201,
      "ó k": 2202,
      "ózs": 2203,
      "arab": 2204,
      "ozás ": 2205,
      "rt": 2206,
      "szerepl": 2207,
      "eteg": 2208,
      "ki.\n": 2209,
      "növeked": 2210,
      "árt ": 2211,
      "belül": 2212,
      "on k": 2213,
      "veszély": 2214,
      " választ": 2215,
      "ocial": 2216,
      "ens": 2217,
      "Magyar ": 2218,
      "ein": 2219,
      "itt": 2220,
      "jelentős ": 2221,
      "sék": 2222,
      "óval": 2223,
      " a kormány": 2224,
      "polgármester": 2225,
      " törvény": 2226,
      " ór": 2227,
      "ok, ": 2228,
      "apasztal": 2229,
      "edv": 2230,
      "gal": 2231,
      "avar": 2232,
      "javaslat": 2233,
      "lel": 2234,
      "att": 2235,
      "ára.\n": 2236,
      "uház": 2237,
      "október": 2238,
      "lem": 2239,
      "áp": 2240,
      "ísér": 2241,
      "Rend": 2242,
      "jobb ": 2243,
      "legy": 2244,
      "közül": 2245,
      "ről ": 2246,
      "tanul": 2247,
      "esítmény": 2248,
      " az id": 2249,
      "ford": 2250,
      "kedd": 2251,
      "- t": 2252,
      "urg": 2253,
      "vezető ": 2254,
      "Ind": 2255,
      "talált": 2256,
      "ként": 2257,
      "ségi ": 2258,
      "ait": 2259,
      "rec": 2260,
      "órház": 2261,
      "...": 2262,
      "ezer": 2263,
      "számol": 2264,
      "internet": 2265,
      " a V": 2266,
      "eddig ": 2267,
      " a D": 2268,
      "endég": 2269,
      "Andr": 2270,
      "-ban": 2271,
      "íróság": 2272,
      "volt.\n": 2273,
      "hallgat": 2274,
      "olcs": 2275,
      "érvény": 2276,
      "pril": 2277,
      "köszön": 2278,
      "ostan": 2279,
      "össze ": 2280,
      "28": 2281,
      "álló ": 2282,
      "sze ": 2283,
      "ezz": 2284,
      " túl": 2285,
      "bejelent": 2286,
      " két": 2287,
      " a ki": 2288,
      "időszak": 2289,
      " millió forint": 2290,
      " alkotmány": 2291,
      "társaság": 2292,
      "-én": 2293,
      " személy": 2294,
      "éből": 2295,
      "ékony": 2296,
      "odell": 2297,
      "számít": 2298,
      "készül": 2299,
      "utolsó ": 2300,
      ", K": 2301,
      "utal": 2302,
      " a mű": 2303,
      "óra ": 2304,
      "út ": 2305,
      "erősít": 2306,
      "lott": 2307,
      "ekben": 2308,
      "adásul": 2309,
      "e, a ": 2310,
      "perc": 2311,
      "eni ": 2312,
      "A M": 2313,
      "érdem": 2314,
      "Új": 2315,
      "nagyon ": 2316,
      "rel": 2317,
      "csup": 2318,
      "log": 2319,
      "rál": 2320,
      "nagy ": 2321,
      "üzd": 2322,
      "készít": 2323,
      " az egyik ": 2324,
      "-K": 2325,
      "vá": 2326,
      ", hogy h": 2327,
      " között": 2328,
      "A h": 2329,
      "udapesti ": 2330,
      "ampány": 2331,
      "terem": 2332,
      " a par": 2333,
      " arány": 2334,
      "eszköz": 2335,
      "ügym": 2336,
      "foglal": 2337,
      " elnök": 2338,
      "eit": 2339,
      "zet ": 2340,
      "gyil": 2341,
      "Gábor": 2342,
      ", amelyek ": 2343,
      "lett ": 2344,
      "tesz": 2345,
      "utóbbi ": 2346,
      " vesz": 2347,
      " pedig ": 2348,
      "en meg": 2349,
      "-k": 2350,
      "Itt": 2351,
      "több mint ": 2352,
      "gyakorlat": 2353,
      "olasz": 2354,
      "éssel": 2355,
      "a - ": 2356,
      "állapot": 2357,
      " az elmúlt ": 2358,
      "almi ": 2359,
      "siker": 2360,
      "enger": 2361,
      "vizsgál": 2362,
      " I": 2363,
      "valy ": 2364,
      " mint": 2365,
      " tag": 2366,
      "os, ": 2367,
      "ett, ": 2368,
      "tavaly": 2369,
      "próbál": 2370,
      "befektet": 2371,
      "részt": 2372,
      "gol": 2373,
      "január ": 2374,
      "nak, ": 2375,
      "Nemzeti ": 2376,
      " is": 2377,
      "ba.\n": 2378,
      "Orbán ": 2379,
      "féle ": 2380,
      "rán": 2381,
      "ák.\n": 2382,
      "gel ": 2383,
      "terv": 2384,
      "őket ": 2385,
      "folyamat": 2386,
      "ozott": 2387,
      "védelmi ": 2388,
      "Zolt": 2389,
      "nyelv": 2390,
      "döntő": 2391,
      "Egyesült ": 2392,
      "ou": 2393,
      "ítás ": 2394,
      " \"": 2395,
      "ball": 2396,
      "ept": 2397,
      "i kell": 2398,
      "Vik": 2399,
      "ilag": 2400,
      "sorozat": 2401,
      "i fel": 2402,
      "New": 2403,
      "adó ": 2404,
      "helyett": 2405,
      ", ezért ": 2406,
      "Ol": 2407,
      "ás.\n": 2408,
      "acsony": 2409,
      "ejt": 2410,
      "men": 2411,
      "Ak": 2412,
      "MSZP": 2413,
      "olim": 2414,
      "str": 2415,
      "lom": 2416,
      "észak": 2417,
      "KV": 2418,
      "okban ": 2419,
      "átor": 2420,
      "otthon": 2421,
      "uh": 2422,
      "uz": 2423,
      "iss": 2424,
      "St": 2425,
      "a is ": 2426,
      "asárnap": 2427,
      "eresked": 2428,
      ", hiszen ": 2429,
      "vonatkoz": 2430,
      "t, a ": 2431,
      "almas": 2432,
      "60": 2433,
      "urcs": 2434,
      ", mert": 2435,
      "ugyanakkor": 2436,
      "üzem": 2437,
      "sége ": 2438,
      "megfelelő": 2439,
      "teh": 2440,
      "telen ": 2441,
      "ándor": 2442,
      "függ": 2443,
      "ték ": 2444,
      " véd": 2445,
      "egyre ": 2446,
      "- mondta ": 2447,
      " mutat": 2448,
      "örög": 2449,
      "ákat ": 2450,
      "szk": 2451,
      "cselek": 2452,
      " Sz": 2453,
      "veg": 2454,
      "ulás": 2455,
      "ni az ": 2456,
      "Mik": 2457,
      "ná": 2458,
      "Ant": 2459,
      "ombat": 2460,
      "nemzetközi ": 2461,
      "rövid": 2462,
      "esek ": 2463,
      " körül": 2464,
      "ápril": 2465,
      "Világ": 2466,
      "bocs": 2467,
      "jelentette ": 2468,
      "Ig": 2469,
      "jük": 2470,
      "Péter": 2471,
      " nev": 2472,
      "este ": 2473,
      "éppen ": 2474,
      "mai ": 2475,
      ", valamint": 2476,
      "eged": 2477,
      "először": 2478,
      "hoz.\n": 2479,
      "i p": 2480,
      "ellene ": 2481,
      " az autó": 2482,
      "polgár": 2483,
      "elep": 2484,
      "szerepel": 2485,
      "kil": 2486,
      "i K": 2487,
      "ilt": 2488,
      "bevétel": 2489,
      " foglalkoz": 2490,
      "újabb": 2491,
      "barát": 2492,
      "amer": 2493,
      "pénztár": 2494,
      "ommun": 2495,
      "István": 2496,
      "táv": 2497,
      " hasz": 2498,
      " akad": 2499,
      "tól ": 2500,
      " hal": 2501,
      "könny": 2502,
      "szervezet ": 2503,
      "kérd": 2504,
      "erd": 2505,
      " le": 2506,
      "e\n": 2507,
      "und": 2508,
      " ezer ": 2509,
      "vélemény": 2510,
      "nem volt ": 2511,
      "őket": 2512,
      "intézked": 2513,
      " nő": 2514,
      "ráj": 2515,
      "idéz": 2516,
      " -,": 2517,
      "igyelm": 2518,
      "Val": 2519,
      "étől": 2520,
      "list": 2521,
      "erre ": 2522,
      "ométer": 2523,
      "csökken": 2524,
      "ét, ": 2525,
      "sport": 2526,
      ", hogy k": 2527,
      "felé": 2528,
      "29": 2529,
      "DF": 2530,
      "fal": 2531,
      "mel": 2532,
      "egyver": 2533,
      " van ": 2534,
      "izál": 2535,
      " akt": 2536,
      " az amerikai ": 2537,
      "ezek": 2538,
      "esemény": 2539,
      "rád": 2540,
      "indok": 2541,
      "Pr": 2542,
      "inak ": 2543,
      "ileg": 2544,
      "ait ": 2545,
      "he ": 2546,
      "vev": 2547,
      "- ír": 2548,
      "ja az ": 2549,
      "éz ": 2550,
      " font": 2551,
      "Egyesült Állam": 2552,
      " ellen": 2553,
      "ax": 2554,
      "fed": 2555,
      "jól ": 2556,
      "ére.\n": 2557,
      "cius ": 2558,
      "hető ": 2559,
      "szig": 2560,
      "észség": 2561,
      "hir": 2562,
      "ő t": 2563,
      "i az ": 2564,
      "történet": 2565,
      "kívül": 2566,
      "gyanús": 2567,
      "line ": 2568,
      "écs": 2569,
      "vizsgálat": 2570,
      "álló": 2571,
      " az MTI": 2572,
      "emokrat": 2573,
      "bér": 2574,
      "inan": 2575,
      " szükség": 2576,
      "újra ": 2577,
      "nem k": 2578,
      "közép": 2579,
      "erület": 2580,
      "Viktor": 2581,
      "Biz": 2582,
      "jú": 2583,
      "...\n": 2584,
      " a G": 2585,
      "ért.\n": 2586,
      "viszony": 2587,
      "eget": 2588,
      "ekkel ": 2589,
      "ármaz": 2590,
      " a magyar ": 2591,
      "csomag": 2592,
      "evez": 2593,
      "ft": 2594,
      "let ": 2595,
      "bajnokság": 2596,
      "sorban": 2597,
      "buk": 2598,
      "na ": 2599,
      "t és ": 2600,
      "anat": 2601,
      "ekre ": 2602,
      "emberek ": 2603,
      " nov": 2604,
      "fő ": 2605,
      "íció": 2606,
      "efon": 2607,
      "azai ": 2608,
      "telep": 2609,
      "kori ": 2610,
      "képp": 2611,
      "szél": 2612,
      "együtt ": 2613,
      "öbb": 2614,
      "ásával": 2615,
      "ik az ": 2616,
      "irat": 2617,
      "lenne ": 2618,
      "szabadság": 2619,
      "ira ": 2620,
      ", amelynek ": 2621,
      " több ": 2622,
      "ulajdonos": 2623,
      "atárs": 2624,
      "nagyon": 2625,
      "Zrt": 2626,
      "gyilk": 2627,
      "erős ": 2628,
      "egy év": 2629,
      "ényeg": 2630,
      ", a m": 2631,
      "ással ": 2632,
      "olaj": 2633,
      "ben, ": 2634,
      " egyik ": 2635,
      "ását": 2636,
      "képzel": 2637,
      "hozzát": 2638,
      "vér": 2639,
      "ő, ": 2640,
      "ánc": 2641,
      "súlyoz": 2642,
      "ers": 2643,
      "ánk": 2644,
      "test": 2645,
      "tev": 2646,
      "nek a ": 2647,
      "ics ": 2648,
      "get": 2649,
      "ésének ": 2650,
      "olgáltat": 2651,
      "folytat": 2652,
      "-ban ": 2653,
      "vezetőj": 2654,
      "lan ": 2655,
      "ument": 2656,
      "látogat": 2657,
      "természet": 2658,
      "jelölt": 2659,
      "fér": 2660,
      " között ": 2661,
      "ugyanis": 2662,
      "ette hozzá": 2663,
      " folytat": 2664,
      " fogalmaz": 2665,
      "uniós ": 2666,
      "íp": 2667,
      "okkal ": 2668,
      " az al": 2669,
      "vasárnap": 2670,
      "inn": 2671,
      "közleked": 2672,
      "ezzel": 2673,
      "eset ": 2674,
      "A F": 2675,
      "színűleg": 2676,
      "Itthon": 2677,
      "oss": 2678,
      "ecember": 2679,
      "róf": 2680,
      "Sch": 2681,
      "árul": 2682,
      "oni ": 2683,
      "A magyar": 2684,
      "ésére ": 2685,
      " közel": 2686,
      "hosszú": 2687,
      "árgyal": 2688,
      "egyszer": 2689,
      "kellett ": 2690,
      "t is ": 2691,
      ", hogy a k": 2692,
      ", amely ": 2693,
      "őt": 2694,
      "em ": 2695,
      "ülés ": 2696,
      "-re ": 2697,
      "35": 2698,
      "Budapest": 2699,
      "Re": 2700,
      "gyűjt": 2701,
      "éhez ": 2702,
      "meg ": 2703,
      "azdaság": 2704,
      "ják.\n": 2705,
      "beruház": 2706,
      "ózsef": 2707,
      "hivatal": 2708,
      "egyes ": 2709,
      "okument": 2710,
      "terj": 2711,
      "jelentős": 2712,
      "rancia ": 2713,
      "árfolyam": 2714,
      "eknek ": 2715,
      "ulat": 2716,
      "összesen ": 2717,
      "segítség": 2718,
      " szabad": 2719,
      "szenved": 2720,
      "ismét ": 2721,
      "Ugyan": 2722,
      "cikk": 2723,
      "közöl": 2724,
      "Nem ": 2725,
      "Uni": 2726,
      "bemutat": 2727,
      "dig": 2728,
      "ij": 2729,
      "ral": 2730,
      "szerencs": 2731,
      "techn": 2732,
      " a for": 2733,
      "újság": 2734,
      " négy": 2735,
      " kül": 2736,
      " film": 2737,
      "Index": 2738,
      "mint": 2739,
      "eksz": 2740,
      " a hét": 2741,
      "állapod": 2742,
      "január": 2743,
      "okra ": 2744,
      "ette a ": 2745,
      "ttil": 2746,
      ".),": 2747,
      " aut": 2748,
      ", ám": 2749,
      "tak.\n": 2750,
      "31": 2751,
      "tanács": 2752,
      "képviselő": 2753,
      "szület": 2754,
      " és": 2755,
      "váj": 2756,
      "önt": 2757,
      "áldozat": 2758,
      "becs": 2759,
      "Tam": 2760,
      "ekt": 2761,
      "visel": 2762,
      "apír": 2763,
      " vállal": 2764,
      "hetetlen": 2765,
      "ekkor": 2766,
      "Itthon: ": 2767,
      "enni": 2768,
      "unk.\n": 2769,
      "lévő ": 2770,
      "h ": 2771,
      "védelm": 2772,
      "es.\n": 2773,
      "egyelőre ": 2774,
      "ánt ": 2775,
      "ett a ": 2776,
      "ására ": 2777,
      "adalom": 2778,
      "ingat": 2779,
      "elfogad": 2780,
      "onf": 2781,
      " a második ": 2782,
      " most ": 2783,
      ", mivel": 2784,
      "repülő": 2785,
      "részvény": 2786,
      "cselekmény": 2787,
      "ott a ": 2788,
      "önny": 2789,
      "kocs": 2790,
      "országi ": 2791,
      "hasonló": 2792,
      "üd": 2793,
      ", M": 2794,
      " akár": 2795,
      " a szem": 2796,
      "Rendőr": 2797,
      "szeretn": 2798,
      "labd": 2799,
      "el a ": 2800,
      "egyszerű": 2801,
      "45": 2802,
      "ó.\n": 2803,
      "ókat ": 2804,
      "kett": 2805,
      "tűn": 2806,
      "útt": 2807,
      "ától": 2808,
      " dollár": 2809,
      "Bar": 2810,
      "húz": 2811,
      "var": 2812,
      "inf": 2813,
      " függ": 2814,
      "ro": 2815,
      "ósság": 2816,
      "jában": 2817,
      "eken ": 2818,
      "ikai": 2819,
      " a kis": 2820,
      "-kor": 2821,
      "és m": 2822,
      "épület": 2823,
      "tab": 2824,
      "nyújt": 2825,
      "últ": 2826,
      "lám": 2827,
      "gyel": 2828,
      " sem": 2829,
      "einek ": 2830,
      "hib": 2831,
      "P-": 2832,
      "bőv": 2833,
      "szerzés": 2834,
      " pénz": 2835,
      "ója ": 2836,
      "ői ": 2837,
      "őkapitány": 2838,
      ": az ": 2839,
      "jellem": 2840,
      "ve a ": 2841,
      " verseny": 2842,
      "volna": 2843,
      "kín": 2844,
      ", és a ": 2845,
      "izen": 2846,
      "ázs": 2847,
      "édi": 2848,
      "rag": 2849,
      "otta ": 2850,
      "ta meg": 2851,
      "És ": 2852,
      "érdeklőd": 2853,
      "hónap": 2854,
      "rit": 2855,
      "Német": 2856,
      "írás": 2857,
      "enntart": 2858,
      " abban": 2859,
      "jai ": 2860,
      "ottak": 2861,
      "olimpi": 2862,
      "oknak ": 2863,
      "séges ": 2864,
      " alapján ": 2865,
      "ólag": 2866,
      "tek.\n": 2867,
      "iniszterelnök": 2868,
      "ek között ": 2869,
      ", nem": 2870,
      "alék ": 2871,
      "esül": 2872,
      "ek a ": 2873,
      " tal": 2874,
      "erősöd": 2875,
      "hitel": 2876,
      "amar": 2877,
      "Már": 2878,
      "különb": 2879,
      "inc": 2880,
      " szín": 2881,
      "értelmű": 2882,
      "80": 2883,
      "hábor": 2884,
      "csúcs": 2885,
      "szír": 2886,
      "t ki": 2887,
      " más ": 2888,
      " következ": 2889,
      "iről": 2890,
      "négy ": 2891,
      "német ": 2892,
      "at, ": 2893,
      "szerint az ": 2894,
      "foglalkoz": 2895,
      "é.\n": 2896,
      "egyik": 2897,
      "A s": 2898,
      "ás, ": 2899,
      "Az E": 2900,
      "in ": 2901,
      "kar": 2902,
      "eum": 2903,
      "é t": 2904,
      "öző": 2905,
      "évek ": 2906,
      "bocsát": 2907,
      "ka ": 2908,
      "A b": 2909,
      " a polit": 2910,
      "ező ": 2911,
      "ataszt": 2912,
      "adás ": 2913,
      "level": 2914,
      "nyi ": 2915,
      "lenn": 2916,
      "ományos ": 2917,
      "létre": 2918,
      "dob": 2919,
      ", hogy n": 2920,
      "i képviselő": 2921,
      "földi ": 2922,
      " vissza": 2923,
      "szerez": 2924,
      "beszéd": 2925,
      "ra, ": 2926,
      "e (": 2927,
      ", ahogy": 2928,
      "inanszír": 2929,
      "ébe ": 2930,
      "kért": 2931,
      "zék": 2932,
      " kedd": 2933,
      "iköz": 2934,
      "okon": 2935,
      "ellenére ": 2936,
      "ot, ": 2937,
      "város ": 2938,
      "émet ": 2939,
      " kiv": 2940,
      "most ": 2941,
      "döntött": 2942,
      "nőtt": 2943,
      "találkoz": 2944,
      "olta": 2945,
      "íts": 2946,
      "éter ": 2947,
      "látsz": 2948,
      "inkább ": 2949,
      "Nép": 2950,
      "i munk": 2951,
      "ogatott ": 2952,
      "our": 2953,
      "ást.\n": 2954,
      "uty": 2955,
      "ja meg": 2956,
      "198": 2957,
      " akart": 2958,
      "armadik ": 2959,
      "lass": 2960,
      "pan": 2961,
      "erv": 2962,
      "ügynök": 2963,
      "And": 2964,
      " Y": 2965,
      "dollár": 2966,
      " a vég": 2967,
      "ásokat ": 2968,
      " kom": 2969,
      "csill": 2970,
      "válasz": 2971,
      "csak a ": 2972,
      "vét": 2973,
      "olog": 2974,
      "ésével": 2975,
      "zés ": 2976,
      "szakasz": 2977,
      "takar": 2978,
      "szív": 2979,
      "esebb ": 2980,
      "vállalkoz": 2981,
      "ox": 2982,
      "pont ": 2983,
      "szolgál": 2984,
      "okumentum": 2985,
      "mi": 2986,
      "ően ": 2987,
      " után": 2988,
      "egy f": 2989,
      "hatatlan": 2990,
      " nélkül": 2991,
      "obil": 2992,
      "Ed": 2993,
      "lu": 2994,
      ", an": 2995,
      "várható": 2996,
      "hosszabb": 2997,
      "MNO - K": 2998,
      "zett": 2999,
      "otó": 3000,
      " term": 3001,
      "spanyol": 3002,
      "kérdés": 3003,
      "tény": 3004,
      "oktat": 3005,
      " vizsg": 3006,
      "felelős": 3007,
      "edző": 3008,
      "haszn": 3009,
      "ezték": 3010,
      "tized": 3011,
      "Mint ": 3012,
      "irt": 3013,
      "politik": 3014,
      "kény": 3015,
      "kell ": 3016,
      "\" - mondta ": 3017,
      "egény": 3018,
      "ásának ": 3019,
      "Ber": 3020,
      " miatt ": 3021,
      " fizet": 3022,
      "sal": 3023,
      "idék": 3024,
      "illetve ": 3025,
      "atasztróf": 3026,
      " g": 3027,
      "arúg": 3028,
      "jármű": 3029,
      "jelentkez": 3030,
      "párt ": 3031,
      " kezdőd": 3032,
      ", illetve": 3033,
      "Ferenc": 3034,
      "ics": 3035,
      "kan": 3036,
      "iány": 3037,
      "György": 3038,
      "On": 3039,
      "ország ": 3040,
      "ert ": 3041,
      " támogat": 3042,
      "is, ": 3043,
      "re, ": 3044,
      "számára ": 3045,
      "Orbán Viktor": 3046,
      "ván ": 3047,
      "ánál": 3048,
      "hétfőn": 3049,
      "és meg": 3050,
      ", valamint ": 3051,
      "ékenység": 3052,
      " a C": 3053,
      ", hogy \"": 3054,
      ", ha": 3055,
      "Országos ": 3056,
      "bárm": 3057,
      "obban": 3058,
      " angol": 3059,
      "Gazdaság": 3060,
      " ah": 3061,
      "-i ": 3062,
      "ma ": 3063,
      "ágy": 3064,
      "járat": 3065,
      " kell ": 3066,
      "szerződés": 3067,
      " hír": 3068,
      "jelenlegi ": 3069,
      "vájc": 3070,
      "eli ": 3071,
      "A T": 3072,
      "ból.\n": 3073,
      "ockázat": 3074,
      "magas": 3075,
      "újabb ": 3076,
      " hagy": 3077,
      "hez.\n": 3078,
      "szakért": 3079,
      "éssel ": 3080,
      "ráadásul": 3081,
      "rid": 3082,
      "ben meg": 3083,
      "harc": 3084,
      "bek": 3085,
      "reng": 3086,
      "ban is ": 3087,
      "ugy": 3088,
      " a g": 3089,
      "esítés": 3090,
      "csod": 3091,
      "észeti ": 3092,
      "ősz": 3093,
      " a fej": 3094,
      ", amelyet ": 3095,
      "engedély": 3096,
      ", amit": 3097,
      "korábbi ": 3098,
      "ingatlan": 3099,
      "nal": 3100,
      "ettel": 3101,
      " készül": 3102,
      "qu": 3103,
      " a \"": 3104,
      " a kérdés": 3105,
      "örtön": 3106,
      "teljes ": 3107,
      "seb": 3108,
      "ája": 3109,
      "lás ": 3110,
      " kit": 3111,
      "ak, ": 3112,
      "küld": 3113,
      "keresked": 3114,
      "elev": 3115,
      " az első ": 3116,
      "lakosság": 3117,
      "sikerült ": 3118,
      "90": 3119,
      "ga ": 3120,
      "anak ": 3121,
      "áros ": 3122,
      "vagy ": 3123,
      " alatt": 3124,
      "Fel": 3125,
      "ner": 3126,
      "áig": 3127,
      "szok": 3128,
      "olv": 3129,
      "prof": 3130,
      "eur": 3131,
      "fogyaszt": 3132,
      "tett ": 3133,
      "tént ": 3134,
      "ezon": 3135,
      "építés": 3136,
      "idén": 3137,
      "központ": 3138,
      "nek, ": 3139,
      "jobban": 3140,
      "Hír": 3141,
      "burg": 3142,
      "szolgálat": 3143,
      "ainak ": 3144,
      "jon": 3145,
      "oy": 3146,
      " méter": 3147,
      "termék": 3148,
      "gyűlés": 3149,
      "környezet": 3150,
      " a ház": 3151,
      "ek között": 3152,
      " másik ": 3153,
      "László": 3154,
      "nyár": 3155,
      "esetben ": 3156,
      "70": 3157,
      "de ": 3158,
      "uális ": 3159,
      " az MTI-": 3160,
      "A K": 3161,
      "panyol": 3162,
      "enk": 3163,
      "ani ": 3164,
      " min": 3165,
      "sel": 3166,
      "is el": 3167,
      "jövő ": 3168,
      "ash": 3169,
      "ászló ": 3170,
      "ekről": 3171,
      "valak": 3172,
      " ment": 3173,
      "nál ": 3174,
      " azért": 3175,
      "előny": 3176,
      "igazság": 3177,
      "ateg": 3178,
      "ozat ": 3179,
      " származ": 3180,
      "éve ": 3181,
      "lenne": 3182,
      "ay ": 3183,
      "akor": 3184,
      "csoport ": 3185,
      "nov": 3186,
      "országban": 3187,
      " több mint ": 3188,
      ", S": 3189,
      "egy t": 3190,
      "feltétel": 3191,
      "ő k": 3192,
      "ebrec": 3193,
      "olvasható": 3194,
      "zaj": 3195,
      "ettek": 3196,
      "valós": 3197,
      "jogszabály": 3198,
      "rab": 3199,
      "ó f": 3200,
      "elkövet": 3201,
      "szerv": 3202,
      "nem v": 3203,
      "ben az ": 3204,
      "mellett": 3205,
      "Ennek ": 3206,
      "eik": 3207,
      "ba kerül": 3208,
      "ösen ": 3209,
      " amely": 3210,
      " kapcsolatos ": 3211,
      ", a k": 3212,
      " kellett ": 3213,
      "éjszak": 3214,
      " ember": 3215,
      "tő": 3216,
      "óban": 3217,
      " E": 3218,
      "atal": 3219,
      "vezér": 3220,
      "miatt": 3221,
      ".:": 3222,
      "poz": 3223,
      " ha ": 3224,
      "ebruár ": 3225,
      "József": 3226,
      "au": 3227,
      "egy h": 3228,
      "éli ": 3229,
      "adék": 3230,
      "ellent": 3231,
      "nem lehet ": 3232,
      " a szám": 3233,
      "szinte ": 3234,
      ", hiszen": 3235,
      " alakul": 3236,
      "ler": 3237,
      "halál": 3238,
      "orvát": 3239,
      "nevezett ": 3240,
      "Kor": 3241,
      "ásik ": 3242,
      "politikus": 3243,
      " lesz": 3244,
      "faj": 3245,
      "állat": 3246,
      "Jobbik ": 3247,
      " szavaz": 3248,
      " polit": 3249,
      " százalék ": 3250,
      "ahely": 3251,
      " alacsony": 3252,
      "urális ": 3253,
      " a pály": 3254,
      " annak": 3255,
      "közlemény": 3256,
      "Tan": 3257,
      "fény": 3258,
      "Inter": 3259,
      "nyilvánosság": 3260,
      "Per": 3261,
      "ezért ": 3262,
      "köszönhető": 3263,
      "Rom": 3264,
      "se ": 3265,
      "rendkívül": 3266,
      "eredet": 3267,
      "pill": 3268,
      "darab": 3269,
      " a kül": 3270,
      "igazol": 3271,
      "oha ": 3272,
      "Index - ": 3273,
      "szerdán": 3274,
      "-főkapitány": 3275,
      "elsősorban": 3276,
      "eni.\n": 3277,
      "zavar": 3278,
      "szövetség": 3279,
      "elés ": 3280,
      "Sándor": 3281,
      "avaly": 3282,
      "tom": 3283,
      ", B": 3284,
      "idő ": 3285,
      "befoly": 3286,
      "ivatkoz": 3287,
      "anc": 3288,
      " megy": 3289,
      "i mag": 3290,
      "úzeum": 3291,
      "interj": 3292,
      "ején": 3293,
      "udapest ": 3294,
      "b-": 3295,
      "rad": 3296,
      "atér": 3297,
      "zetes ": 3298,
      " arról ": 3299,
      "korábban": 3300,
      "izmus": 3301,
      " megjelen": 3302,
      " nek": 3303,
      " a piac": 3304,
      "ülönb": 3305,
      " használ": 3306,
      "jából": 3307,
      "rög": 3308,
      "ású": 3309,
      ", a B": 3310,
      "elte ": 3311,
      " Yor": 3312,
      " akció": 3313,
      "MNO - P": 3314,
      "son": 3315,
      "endő": 3316,
      " kilométer": 3317,
      "kin": 3318,
      "ast": 3319,
      "szempont": 3320,
      "ígér": 3321,
      "Igaz": 3322,
      "Ér": 3323,
      "előre": 3324,
      "terh": 3325,
      "tárgyal": 3326,
      "ebruár": 3327,
      "ütt": 3328,
      "egyetem": 3329,
      "ológiai ": 3330,
      "ennyire ": 3331,
      "legalább": 3332,
      "millió": 3333,
      "Attil": 3334,
      " a kap": 3335,
      " néz": 3336,
      "Magyarországon": 3337,
      "dal": 3338,
      "berg": 3339,
      "\" - mondta": 3340,
      "Nap": 3341,
      "péld": 3342,
      "ökö": 3343,
      "látható": 3344,
      " szemben": 3345,
      "eresztül": 3346,
      "t el": 3347,
      "egy-": 3348,
      " az alap": 3349,
      " korábban": 3350,
      "biztonsági ": 3351,
      "kot": 3352,
      "esed": 3353,
      " alig": 3354,
      "tabil": 3355,
      "Leg": 3356,
      "ers ": 3357,
      " kiderül": 3358,
      "A P": 3359,
      "összes ": 3360,
      "során ": 3361,
      "igen ": 3362,
      "döntés": 3363,
      "utball": 3364,
      "mérsék": 3365,
      "következő ": 3366,
      "lop": 3367,
      " szület": 3368,
      "ik meg": 3369,
      "rendezvény": 3370,
      "ival": 3371,
      "jában ": 3372,
      "Orosz": 3373,
      "fehér": 3374,
      "elleg": 3375,
      "önkormányzat": 3376,
      "Ad": 3377,
      "jával": 3378,
      "reform": 3379,
      "győzt": 3380,
      " az MSZP": 3381,
      "urcsány": 3382,
      "Hozz": 3383,
      "i ki": 3384,
      "álóz": 3385,
      " másod": 3386,
      "t már": 3387,
      " bel": 3388,
      "Szerint": 3389,
      " alkal": 3390,
      ", mert a ": 3391,
      "ünk.\n": 3392,
      "ándék": 3393,
      " csak ": 3394,
      "Kr": 3395,
      "jég": 3396,
      "hom": 3397,
      "halad": 3398,
      "cég ": 3399,
      "ít ": 3400,
      "ek meg": 3401,
      " akár ": 3402,
      "elektr": 3403,
      "űzolt": 3404,
      "Bár": 3405,
      "ff": 3406,
      "rang": 3407,
      "ínai ": 3408,
      "lehetett ": 3409,
      "Fő": 3410,
      ", sz": 3411,
      "akat ": 3412,
      " határ": 3413,
      "név": 3414,
      " szóviv": 3415,
      " a magán": 3416,
      "óc": 3417,
      "tömeg": 3418,
      "ük.\n": 3419,
      "ról.\n": 3420,
      "osztr": 3421,
      "nehez": 3422,
      "-től": 3423,
      " az év": 3424,
      "om ": 3425,
      " növ": 3426,
      " neh": 3427,
      "áját ": 3428,
      "Egyetem": 3429,
      "keret": 3430,
      "500": 3431,
      "ehet": 3432,
      "lez": 3433,
      "elől": 3434,
      "közben ": 3435,
      " a város": 3436,
      "díja": 3437,
      "rancia": 3438,
      "csinál": 3439,
      "ente ": 3440,
      "portál": 3441,
      "ötö": 3442,
      "New Yor": 3443,
      "je": 3444,
      "erre": 3445,
      "ek szerint ": 3446,
      " a szab": 3447,
      "többség": 3448,
      "hirdet": 3449,
      "ha": 3450,
      "ották": 3451,
      " a br": 3452,
      ".)\n": 3453,
      "ach": 3454,
      "ok és ": 3455,
      "ebben": 3456,
      "egyébként ": 3457,
      "löv": 3458,
      "lényeg": 3459,
      "állom": 3460,
      "Car": 3461,
      "ső ": 3462,
      "index": 3463,
      " szabály": 3464,
      "szerk": 3465,
      " és az ": 3466,
      "i el": 3467,
      "egyetlen ": 3468,
      " vez": 3469,
      "ennyiség": 3470,
      "Több": 3471,
      " nincs ": 3472,
      "-főkapitányság": 3473,
      "onal": 3474,
      "ezer ": 3475,
      " magas": 3476,
      ", miután": 3477,
      "Laj": 3478,
      "aik": 3479,
      "ió ": 3480,
      "zöld": 3481,
      " az O": 3482,
      "ack": 3483,
      "ábl": 3484,
      "300": 3485,
      "ancs": 3486,
      "lenül": 3487,
      "csatlak": 3488,
      "ípus": 3489,
      "tán": 3490,
      "ocialista ": 3491,
      ", miköz": 3492,
      "ajtót": 3493,
      "Gyurcsány": 3494,
      "vel ez": 3495,
      "nincs": 3496,
      "ződ": 3497,
      "reggel": 3498,
      " át": 3499,
      " által": 3500,
      "-én ": 3501,
      " százaléka ": 3502,
      "32": 3503,
      "a: ": 3504,
      "örös": 3505,
      "csatorn": 3506,
      "nok": 3507,
      "vág": 3508,
      "áni": 3509,
      "sors": 3510,
      "busz": 3511,
      "pad": 3512,
      "elleni ": 3513,
      "ították": 3514,
      " sik": 3515,
      " ahhoz": 3516,
      "iek ": 3517,
      "vil": 3518,
      ", f": 3519,
      "eres ": 3520,
      "öveg": 3521,
      "jöved": 3522,
      "eptember": 3523,
      "hull": 3524,
      "jött": 3525,
      "et a ": 3526,
      "orr": 3527,
      "is fel": 3528,
      "tartalmaz": 3529,
      "t mind": 3530,
      "tanulmány": 3531,
      "derül": 3532,
      "államtitk": 3533,
      "ismert ": 3534,
      "autó": 3535,
      ", hogy a t": 3536,
      "követően ": 3537,
      "ezés ": 3538,
      "töz": 3539,
      "korlát": 3540,
      "LM": 3541,
      "erről": 3542,
      "ól.\n": 3543,
      " arany": 3544,
      " dolg": 3545,
      "elnöke ": 3546,
      "lat ": 3547,
      "nyal": 3548,
      " a kez": 3549,
      "biztosítás": 3550,
      " könyv": 3551,
      "része ": 3552,
      "esti ": 3553,
      "hoz kép": 3554,
      " ezer forint": 3555,
      "Ki": 3556,
      "Ro": 3557,
      "nyugdíjpénztár": 3558,
      "ó-": 3559,
      " tér": 3560,
      "ek és ": 3561,
      "ák meg": 3562,
      "prém": 3563,
      "maguk": 3564,
      "ategóri": 3565,
      " euró": 3566,
      "tév": 3567,
      "át a ": 3568,
      "ill.\n": 3569,
      "hozzáj": 3570,
      "jóval": 3571,
      "száll": 3572,
      "tölt": 3573,
      "proj": 3574,
      "ekint": 3575,
      "lakás": 3576,
      "Ebb": 3577,
      "gr": 3578,
      "nyi": 3579,
      "nyíl": 3580,
      " a film": 3581,
      "hozott ": 3582,
      "lós ": 3583,
      " a helyszín": 3584,
      "A köz": 3585,
      "hivatkoz": 3586,
      ", H": 3587,
      " van sz": 3588,
      "ul ": 3589,
      "Elő": 3590,
      "ommunik": 3591,
      "mal": 3592,
      "anak": 3593,
      ", a sz": 3594,
      "országban ": 3595,
      " arc": 3596,
      "rajz": 3597,
      ") - ": 3598,
      "lott ": 3599,
      "t fel": 3600,
      "ekv": 3601,
      " pár": 3602,
      "válság": 3603,
      ", majd ": 3604,
      "csupán": 3605,
      " a parlament": 3606,
      "le.\n": 3607,
      "ta az ": 3608,
      "nemzeti ": 3609,
      " cent": 3610,
      ", így ": 3611,
      " mi": 3612,
      "előz": 3613,
      " kics": 3614,
      "oszk": 3615,
      " volt.\n": 3616,
      " prób": 3617,
      "hess": 3618,
      "kék": 3619,
      "nő ": 3620,
      "te.\n": 3621,
      "napi ": 3622,
      "őket.\n": 3623,
      "fontos": 3624,
      "kölcs": 3625,
      "energi": 3626,
      "34": 3627,
      "tapasztal": 3628,
      "éri": 3629,
      "ebből": 3630,
      "Csab": 3631,
      "iplom": 3632,
      "láb": 3633,
      " az ad": 3634,
      ", a f": 3635,
      "őrizet": 3636,
      "36": 3637,
      " kérdés": 3638,
      "ázis": 3639,
      "állami ": 3640,
      " az Európai ": 3641,
      " ker": 3642,
      "közös": 3643,
      "belül ": 3644,
      "s-": 3645,
      "sajtó": 3646,
      " vád": 3647,
      "elmond": 3648,
      "összet": 3649,
      "beli ": 3650,
      "Dun": 3651,
      "Né": 3652,
      "zel ": 3653,
      "szóviv": 3654,
      "sokkal": 3655,
      "-án": 3656,
      "-ig": 3657,
      "Még": 3658,
      "red": 3659,
      "akar": 3660,
      "iss ": 3661,
      "A d": 3662,
      "helyen ": 3663,
      "ját.\n": 3664,
      "figyelm": 3665,
      "egyház": 3666,
      "ésőbb ": 3667,
      "Zoltán": 3668,
      "benn": 3669,
      "bert ": 3670,
      " azt mond": 3671,
      "pat": 3672,
      "adott ": 3673,
      "írt ": 3674,
      "a már": 3675,
      "alakítás": 3676,
      "ajtótájékoztat": 3677,
      "A fel": 3678,
      "Így": 3679,
      "ította ": 3680,
      "egymás": 3681,
      " például": 3682,
      "összef": 3683,
      " a helyzet": 3684,
      "persze ": 3685,
      "űv": 3686,
      "bank ": 3687,
      "említ": 3688,
      ", de az ": 3689,
      "DSZ": 3690,
      "vett ": 3691,
      "elképzel": 3692,
      " vasárnap": 3693,
      "helyi ": 3694,
      " néhány": 3695,
      "euró ": 3696,
      "Sport ": 3697,
      "jük ": 3698,
      "zat": 3699,
      "hogy ": 3700,
      ", hogy a m": 3701,
      "közvet": 3702,
      "BL": 3703,
      "egyértelmű": 3704,
      "nia ": 3705,
      " a figyelm": 3706,
      "Szabó ": 3707,
      "jelentés": 3708,
      ", P": 3709,
      "ésb": 3710,
      "ukció": 3711,
      "délután": 3712,
      "; ": 3713,
      "U-": 3714,
      "Azt ": 3715,
      "Em": 3716,
      "pót": 3717,
      "érm": 3718,
      "idén ": 3719,
      "nak az ": 3720,
      "változat": 3721,
      "április ": 3722,
      "bi": 3723,
      "vill": 3724,
      "űt": 3725,
      " a L": 3726,
      "töl": 3727,
      "közt": 3728,
      "ttól": 3729,
      "végül": 3730,
      "ajnok ": 3731,
      "népszerű": 3732,
      "Mad": 3733,
      "ank": 3734,
      "évben ": 3735,
      " a kép": 3736,
      " mindig ": 3737,
      "ennyi ": 3738,
      "ood": 3739,
      " tiszt": 3740,
      "ista": 3741,
      "nem h": 3742,
      "helyszín": 3743,
      "hit": 3744,
      "kapcsolat": 3745,
      "seg": 3746,
      "eltér": 3747,
      "gondolkod": 3748,
      "ozik": 3749,
      "kir": 3750,
      "kedv": 3751,
      "ísérlet": 3752,
      "igo": 3753,
      "ügyelet": 3754,
      "iak": 3755,
      "til": 3756,
      "áram": 3757,
      " a hír": 3758,
      "hazai ": 3759,
      "- mondta": 3760,
      "ail": 3761,
      "ő h": 3762,
      "ened": 3763,
      "orú": 3764,
      "A H": 3765,
      " azt a ": 3766,
      "lesz ": 3767,
      "ják a ": 3768,
      "parlament": 3769,
      "A meg": 3770,
      "Géz": 3771,
      "esek": 3772,
      "ította": 3773,
      "ulturális ": 3774,
      "isták ": 3775,
      "súlyos ": 3776,
      "-os ": 3777,
      "motor": 3778,
      "erenci": 3779,
      "anad": 3780,
      "t már ": 3781,
      "voltak": 3782,
      "Hozzát": 3783,
      "37": 3784,
      "olás": 3785,
      "brit ": 3786,
      ":\n": 3787,
      "száz ": 3788,
      "átum": 3789,
      "Két ": 3790,
      "Mag": 3791,
      "air": 3792,
      "ezni": 3793,
      "ellett ": 3794,
      "nek az ": 3795,
      "elemző": 3796,
      "biztos ": 3797,
      " szóló ": 3798,
      "Orbán": 3799,
      "lék": 3800,
      "A S": 3801,
      "prod": 3802,
      " a bal": 3803,
      "hét ": 3804,
      "fel.\n": 3805,
      "milliárd": 3806,
      "i (": 3807,
      " mérték": 3808,
      "ovács ": 3809,
      "csillag": 3810,
      "kíván": 3811,
      "ontt": 3812,
      " könny": 3813,
      "va.\n": 3814,
      "szállít": 3815,
      "kedvez": 3816,
      "nyilatkozat": 3817,
      "újságír": 3818,
      "ona ": 3819,
      "éni ": 3820,
      "feladat": 3821,
      " a szín": 3822,
      "etek ": 3823,
      "ilap": 3824,
      " a párt": 3825,
      "Bizottság": 3826,
      "-t": 3827,
      ". d": 3828,
      "ő.\n": 3829,
      "lesz.\n": 3830,
      "197": 3831,
      "bizonyít": 3832,
      " közlemény": 3833,
      "internetes ": 3834,
      ".-": 3835,
      " a hazai ": 3836,
      "győzelm": 3837,
      "na": 3838,
      "álm": 3839,
      "és k": 3840,
      ", hogy a f": 3841,
      "örök": 3842,
      " a tan": 3843,
      "csolód": 3844,
      "tehát ": 3845,
      "Online ": 3846,
      "szerkeszt": 3847,
      "BC": 3848,
      "óta": 3849,
      "esett ": 3850,
      "forgalom": 3851,
      "Rendőr-főkapitányság": 3852,
      "sokat ": 3853,
      "ina ": 3854,
      "ban a ": 3855,
      "A p": 3856,
      "Az M": 3857,
      "csak az ": 3858,
      "Im": 3859,
      "son ": 3860,
      "éseket ": 3861,
      "körülmény": 3862,
      " viszont ": 3863,
      "baj": 3864,
      "ih": 3865,
      "omp": 3866,
      "Szövetség": 3867,
      "rendőrök ": 3868,
      "eljes ": 3869,
      "33": 3870,
      "tuk": 3871,
      " azok ": 3872,
      "van.\n": 3873,
      "változtat": 3874,
      "pp": 3875,
      "akad": 3876,
      " tűn": 3877,
      " költség": 3878,
      "sérül": 3879,
      "ellenzék": 3880,
      "öző ": 3881,
      " nagyobb": 3882,
      "jegyzés": 3883,
      " találkoz": 3884,
      "gyer": 3885,
      " azokat": 3886,
      " század": 3887,
      "további ": 3888,
      "Mich": 3889,
      "teremt": 3890,
      "-e": 3891,
      "ete": 3892,
      " múl": 3893,
      "ja, hogy ": 3894,
      "ebben ": 3895,
      "miatt.\n": 3896,
      " közölte": 3897,
      "A kormány": 3898,
      "lít": 3899,
      "aként ": 3900,
      "idei ": 3901,
      "országos ": 3902,
      "oldog": 3903,
      "nél ": 3904,
      "Győr": 3905,
      "ellenőrzés": 3906,
      "áció ": 3907,
      "szül": 3908,
      "origo": 3909,
      "ésben ": 3910,
      "utt": 3911,
      "on is ": 3912,
      "legalább ": 3913,
      "tét": 3914,
      "ekez": 3915,
      "egy sz": 3916,
      "jelleg": 3917,
      "akció": 3918,
      "is a ": 3919,
      "ségek ": 3920,
      "ával.\n": 3921,
      " mindig": 3922,
      "úgynevezett ": 3923,
      "juttat": 3924,
      "kezdőd": 3925,
      "Var": 3926,
      "mos": 3927,
      "méter": 3928,
      "t kap": 3929,
      "áló": 3930,
      "egy p": 3931,
      "itív": 3932,
      "be a ": 3933,
      "többször": 3934,
      "bizonyos ": 3935,
      "usztrál": 3936,
      "Amikor": 3937,
      "minc": 3938,
      "fiatal": 3939,
      "vád": 3940,
      " hát": 3941,
      "hatás": 3942,
      "ung": 3943,
      "izmus ": 3944,
      "Jel": 3945,
      " mellett ": 3946,
      "áról ": 3947,
      "élt": 3948,
      "tehet": 3949,
      " forg": 3950,
      " képviselő": 3951,
      "ológi": 3952,
      "harmadik ": 3953,
      " forduló": 3954,
      "János ": 3955,
      "civil": 3956,
      " milliárd forint ": 3957,
      "P ": 3958,
      "avaly ": 3959,
      "íd": 3960,
      "jelentette": 3961,
      "őként ": 3962,
      "iniszterelnök ": 3963,
      "együttműköd": 3964,
      "ener": 3965,
      " tájékoztat": 3966,
      "ital": 3967,
      "győzelem": 3968,
      " ap": 3969,
      "szerdán ": 3970,
      "százalék": 3971,
      "DN": 3972,
      "ey": 3973,
      "papír": 3974,
      "sztráj": 3975,
      "évi ": 3976,
      " a verseny": 3977,
      "-,": 3978,
      "- a ": 3979,
      "-s ": 3980,
      "e és ": 3981,
      "teszt": 3982,
      "műsor": 3983,
      "vannak ": 3984,
      "baleset": 3985,
      "ához": 3986,
      "megold": 3987,
      " a három": 3988,
      "végén": 3989,
      "ője.\n": 3990,
      "ést.\n": 3991,
      "való ": 3992,
      "strat": 3993,
      "195": 3994,
      "mérték": 3995,
      " agg": 3996,
      "ott az ": 3997,
      "bevezet": 3998,
      "ősít": 3999,
      "ecsk": 4000,
      "Lig": 4001,
      "Un": 4002,
      "szav": 4003,
      "elni": 4004,
      "inél": 4005,
      "urkol": 4006,
      "ók.\n": 4007,
      "[origo": 4008,
      "stratég": 4009,
      "ven ": 4010,
      "áris ": 4011,
      ", hogy nem": 4012,
      "ába": 4013,
      "telefon": 4014,
      "várium": 4015,
      "ibor": 4016,
      "valószínűleg": 4017,
      "TV": 4018,
      ", nem ": 4019,
      " az adó": 4020,
      "száml": 4021,
      "jelenti": 4022,
      "ését.\n": 4023,
      "illeték": 4024,
      "kotmány": 4025,
      "Tim": 4026,
      "bont": 4027,
      ", hogy t": 4028,
      "reag": 4029,
      " a vállal": 4030,
      "vezetője ": 4031,
      "előtti ": 4032,
      "Joh": 4033,
      "Pál": 4034,
      "had": 4035,
      "ie ": 4036,
      "omat": 4037,
      "esetleg": 4038,
      "jogos": 4039,
      "általán ": 4040,
      "-A": 4041,
      "és.\n": 4042,
      " alkalomm": 4043,
      "US": 4044,
      "gyár": 4045,
      "igen": 4046,
      "ulcs": 4047,
      " a foly": 4048,
      "árty": 4049,
      "gazdag": 4050,
      "nyugat": 4051,
      " a Sz": 4052,
      "Antik": 4053,
      ". kerül": 4054,
      "konc": 4055,
      "A G": 4056,
      "felvétel": 4057,
      "legnagyobb": 4058,
      "ögött": 4059,
      " amikor": 4060,
      "és a k": 4061,
      "előd": 4062,
      "hatnak ": 4063,
      "avállal": 4064,
      "enyeget": 4065,
      " fogad": 4066,
      " szemben ": 4067,
      "bűncselekmény": 4068,
      "Kín": 4069,
      "legyen": 4070,
      "Az A": 4071,
      "artóz": 4072,
      "eljárás ": 4073,
      ", a M": 4074,
      "úli": 4075,
      "emelt ": 4076,
      " óta ": 4077,
      "ron": 4078,
      " második ": 4079,
      "ezek ": 4080,
      "számos ": 4081,
      " válasz": 4082,
      "gyűlés ": 4083,
      "Id": 4084,
      "énny": 4085,
      "kifej": 4086,
      "ezték ": 4087,
      "gyógyszer": 4088,
      "ügynökség": 4089,
      "rup": 4090,
      "elvény": 4091,
      "ban meg": 4092,
      ", azt ": 4093,
      "ideszes ": 4094,
      " november ": 4095,
      ".B": 4096,
      "Vagy": 4097,
      "th": 4098,
      "áki": 4099,
      "hat.\n": 4100,
      "asonló": 4101,
      "ipari ": 4102,
      "ügyminiszter": 4103,
      "TE": 4104,
      "tájékoztat": 4105,
      " miat": 4106,
      "ektor": 4107,
      "szerkez": 4108,
      "lex": 4109,
      ", L": 4110,
      "oknak": 4111,
      ", ad": 4112,
      "tavaly ": 4113,
      "aszkod": 4114,
      " a bíróság": 4115,
      "et is ": 4116,
      "áját": 4117,
      "közölte": 4118,
      "összefügg": 4119,
      " vit": 4120,
      "iméter": 4121,
      "kelet": 4122,
      "lováki": 4123,
      "befolyás": 4124,
      ", T": 4125,
      "ban\n": 4126,
      "ották ": 4127,
      "eviz": 4128,
      "- közölte": 4129,
      "Antikvárium": 4130,
      " W": 4131,
      ".c": 4132,
      "sszony": 4133,
      "édiat": 4134,
      "isztán": 4135,
      "Ezt ": 4136,
      "38": 4137,
      "olni": 4138,
      "ok meg": 4139,
      "rendőrök": 4140,
      "Online Antikvárium": 4141,
      "Online Antikvárium - ": 4142,
      "ink ": 4143,
      "aját": 4144,
      "ajnal": 4145,
      "kereszt": 4146,
      "dék": 4147,
      "elyik ": 4148,
      "örvény": 4149,
      " a föld": 4150,
      "Alkotmány": 4151,
      "erjed": 4152,
      "érdemes ": 4153,
      "ereg": 4154,
      "otrány": 4155,
      ", ha a ": 4156,
      "úgy vél": 4157,
      "tól.\n": 4158,
      " készült ": 4159,
      " von": 4160,
      " szél": 4161,
      "újra": 4162,
      "éppen": 4163,
      "ociális ": 4164,
      "bajnok ": 4165,
      "kik": 4166,
      "uguszt": 4167,
      "teljesítmény": 4168,
      "érkezett ": 4169,
      " korábban ": 4170,
      "Cím": 4171,
      "Ön": 4172,
      "felhasznál": 4173,
      ": M": 4174,
      "eket, ": 4175,
      "kötelezett": 4176,
      "júni": 4177,
      " első": 4178,
      "zi": 4179,
      "anch": 4180,
      " a társ": 4181,
      "sérülés": 4182,
      "arcel": 4183,
      "komoly": 4184,
      "jött ": 4185,
      " kutat": 4186,
      "elmi": 4187,
      "ölcs": 4188,
      "jutott ": 4189,
      "-ra ": 4190,
      "cig": 4191,
      "edvez": 4192,
      "benz": 4193,
      "ákat": 4194,
      "látvány": 4195,
      "lehetőv": 4196,
      "be v": 4197,
      "letartóz": 4198,
      "viszont": 4199,
      "e meg": 4200,
      "esnek ": 4201,
      " társ": 4202,
      "kapitány": 4203,
      "a már ": 4204,
      " azt is ": 4205,
      "hez kép": 4206,
      "választás": 4207,
      "Eg": 4208,
      "ront": 4209,
      "ty": 4210,
      "zi ": 4211,
      "üld": 4212,
      "oda": 4213,
      "uk.\n": 4214,
      " alkalm": 4215,
      "lament ": 4216,
      "Nyug": 4217,
      " közleked": 4218,
      "- tette hozzá": 4219,
      "ózkod": 4220,
      "jobban ": 4221,
      " nagyon ": 4222,
      "Ha": 4223,
      " később": 4224,
      "levél": 4225,
      "helyett ": 4226,
      "ában, ": 4227,
      "vári ": 4228,
      " magyaráz": 4229,
      "ötöd": 4230,
      "cel": 4231,
      "fg": 4232,
      "hass": 4233,
      "éig": 4234,
      "álkod": 4235,
      "itás": 4236,
      "ölgy": 4237,
      "ről.\n": 4238,
      " annyira ": 4239,
      "Pet": 4240,
      "ihar": 4241,
      "ános": 4242,
      "ette.\n": 4243,
      "et kap": 4244,
      "ni fog": 4245,
      "ani.\n": 4246,
      "Par": 4247,
      "áig ": 4248,
      "onkr": 4249,
      "Az első": 4250,
      "rank": 4251,
      "korábban ": 4252,
      "egészségügyi ": 4253,
      "Vas": 4254,
      " a rendőrség": 4255,
      "ese ": 4256,
      "épül": 4257,
      "jelzés": 4258,
      ", amelyek": 4259,
      "tartás": 4260,
      "elték": 4261,
      "aival": 4262,
      " kapott ": 4263,
      "ingt": 4264,
      "150": 4265,
      "ba, ": 4266,
      "áf": 4267,
      "ezt a ": 4268,
      " az egész": 4269,
      "A Fidesz": 4270,
      " azóta ": 4271,
      "uló ": 4272,
      "ába.\n": 4273,
      "meccs": 4274,
      "A D": 4275,
      "kiadás": 4276,
      "jára ": 4277,
      "járul": 4278,
      "árólag": 4279,
      "súlyozta": 4280,
      "tevékenység": 4281,
      "László ": 4282,
      "bár ": 4283,
      "mondta": 4284,
      "ároly": 4285,
      "000": 4286,
      "állítólag": 4287,
      "biztosít": 4288,
      " című": 4289,
      "Ob": 4290,
      "ént": 4291,
      "omsz": 4292,
      "ugr": 4293,
      "időben ": 4294,
      ", azon": 4295,
      "\"-": 4296,
      "Bel": 4297,
      " a nagy": 4298,
      "esél": 4299,
      "et és ": 4300,
      "évtized": 4301,
      "fontos ": 4302,
      " terület": 4303,
      "irály": 4304,
      " szóló": 4305,
      "december ": 4306,
      "tette ": 4307,
      "ác": 4308,
      "szerzett ": 4309,
      "ettem": 4310,
      "ogatott": 4311,
      " a cs": 4312,
      "196": 4313,
      "üzemel": 4314,
      " várható": 4315,
      "fegyver": 4316,
      "t k": 4317,
      "izárólag": 4318,
      " a múlt ": 4319,
      "ovább ": 4320,
      " sajtó": 4321,
      "változ": 4322,
      "-án ": 4323,
      "Kar": 4324,
      "férf": 4325,
      "A rendőrség": 4326,
      ", hogy egy ": 4327,
      " dönt": 4328,
      ". század": 4329,
      "moz": 4330,
      "ő f": 4331,
      ", D": 4332,
      "ellen.\n": 4333,
      "időjár": 4334,
      "a miatt ": 4335,
      " a rég": 4336,
      "ültség": 4337,
      "idején": 4338,
      "echn": 4339,
      "végre": 4340,
      "A két ": 4341,
      "István ": 4342,
      "költségvetési ": 4343,
      "Tud": 4344,
      "dokumentum": 4345,
      "A C": 4346,
      "érdekében": 4347,
      "szerda ": 4348,
      "regény": 4349,
      "irodalom": 4350,
      "Címkék": 4351,
      "Vég": 4352,
      "gal ": 4353,
      "robban": 4354,
      "vendég": 4355,
      "szó": 4356,
      "okon ": 4357,
      "ulmány": 4358,
      "ereség": 4359,
      "okat, ": 4360,
      " végén": 4361,
      "sokkal ": 4362,
      "senki ": 4363,
      "gyilkosság": 4364,
      "55": 4365,
      "köv": 4366,
      "éntek ": 4367,
      "ítása ": 4368,
      " a BKV": 4369,
      "énk": 4370,
      " a harmadik ": 4371,
      "tartott ": 4372,
      "be kerül": 4373,
      "ből.\n": 4374,
      "érintett ": 4375,
      "(a ": 4376,
      "után.\n": 4377,
      "teljesen ": 4378,
      " korábbi ": 4379,
      "fontosabb": 4380,
      "ítani.\n": 4381,
      ", hogy egy": 4382,
      "Horvát": 4383,
      "Ily": 4384,
      "iós ": 4385,
      "Az új": 4386,
      "ivál": 4387,
      "i tag": 4388,
      " március ": 4389,
      "Il": 4390,
      "atot ": 4391,
      "elő ": 4392,
      "kics": 4393,
      "t még": 4394,
      "ókat": 4395,
      ".)": 4396,
      "io ": 4397,
      "ete ": 4398,
      "onlap": 4399,
      " tám": 4400,
      " ház": 4401,
      "el is ": 4402,
      " kifej": 4403,
      " adatok ": 4404,
      "figyelem": 4405,
      "Nemzetközi ": 4406,
      "lovák ": 4407,
      "cserél": 4408,
      "úra ": 4409,
      ", ez ": 4410,
      "ett az ": 4411,
      "os k": 4412,
      "oltak ": 4413,
      "NA": 4414,
      "t\n": 4415,
      "legnagyobb ": 4416,
      " par": 4417,
      ", akkor ": 4418,
      " kevesebb": 4419,
      "szak ": 4420,
      "eként ": 4421,
      "cégek ": 4422,
      "mérkőzés": 4423,
      "szintén": 4424,
      "iak ": 4425,
      "vad": 4426,
      "szol": 4427,
      ", mivel ": 4428,
      "állampolgár": 4429,
      " hétfőn": 4430,
      "lassz": 4431,
      "elfog": 4432,
      "akt": 4433,
      "akoz": 4434,
      "olták": 4435,
      "esetében ": 4436,
      ", azaz ": 4437,
      " a saját ": 4438,
      "Bíróság": 4439,
      "Is": 4440,
      "a, az ": 4441,
      "gl": 4442,
      "rog": 4443,
      "szal": 4444,
      "erej": 4445,
      "költ": 4446,
      "hatja": 4447,
      " megold": 4448,
      "ugál": 4449,
      "a mind": 4450,
      "úti ": 4451,
      "hav": 4452,
      "Úgy": 4453,
      "e is ": 4454,
      "ez a ": 4455,
      " kötel": 4456,
      " péntek": 4457,
      " azonnal": 4458,
      "oper": 4459,
      "ógép": 4460,
      " él": 4461,
      "-es": 4462,
      "jap": 4463,
      "ítő": 4464,
      " hivatal": 4465,
      "tatiszt": 4466,
      "off": 4467,
      ", ezért": 4468,
      " óra ": 4469,
      "tunk ": 4470,
      "Én": 4471,
      "ors ": 4472,
      "sem tud": 4473,
      "fogalmaz": 4474,
      "man": 4475,
      "uj": 4476,
      "enki ": 4477,
      ", és az ": 4478,
      ", hogy a sz": 4479,
      "beszerzés": 4480,
      "Az ügy": 4481,
      "örül": 4482,
      "elevíz": 4483,
      "Kap": 4484,
      "ésre": 4485,
      "entr": 4486,
      "oda ": 4487,
      " körny": 4488,
      "ára, ": 4489,
      "előbb": 4490,
      "önség": 4491,
      " éve ": 4492,
      ", hanem ": 4493,
      "utolsó": 4494,
      "Tamás ": 4495,
      "dor": 4496,
      "ech": 4497,
      "uzs": 4498,
      " form": 4499,
      "194": 4500,
      "SZDSZ": 4501,
      " nagyon": 4502,
      "nemzetköz": 4503,
      "enként ": 4504,
      "legjobb": 4505,
      "cius": 4506,
      "előtt.\n": 4507,
      "Világ: ": 4508,
      "ugyan ": 4509,
      "ráci": 4510,
      "-M": 4511,
      "üveg": 4512,
      "szór": 4513,
      "ságot ": 4514,
      "iniszter ": 4515,
      " mintegy ": 4516,
      "infl": 4517,
      "omszéd": 4518,
      "fesz": 4519,
      "i jog": 4520,
      "ának.\n": 4521,
      "ítélet": 4522,
      " haz": 4523,
      "helyez": 4524,
      "eddigi ": 4525,
      "atlan ": 4526,
      "álat ": 4527,
      " az a ": 4528,
      "stíl": 4529,
      "esetén": 4530,
      "De": 4531,
      "ráz": 4532,
      "án k": 4533,
      "iget": 4534,
      "Kft": 4535,
      "mozg": 4536,
      "szerb": 4537,
      "ukt": 4538,
      "jelölt ": 4539,
      "Zrt.": 4540,
      " az él": 4541,
      "elly": 4542,
      "üket ": 4543,
      ", akinek ": 4544,
      "ombaton": 4545,
      "jövőre ": 4546,
      "tal ": 4547,
      "Észak": 4548,
      "szich": 4549,
      "elismer": 4550,
      " dél": 4551,
      "a miat": 4552,
      "jutott": 4553,
      "igazgatója ": 4554,
      "Hozzátette": 4555,
      "Sport": 4556,
      "o (": 4557,
      "ását.\n": 4558,
      "írta": 4559,
      " a hát": 4560,
      "ünet": 4561,
      "kapcs": 4562,
      " akkor ": 4563,
      "beszélget": 4564,
      "semmi ": 4565,
      "elh": 4566,
      "éséről": 4567,
      "gyanú": 4568,
      "pénzügyi ": 4569,
      "Európa ": 4570,
      "tulajdon": 4571,
      "őmérsék": 4572,
      "t (": 4573,
      "ingy": 4574,
      "izg": 4575,
      "években ": 4576,
      ", már": 4577,
      "ben is ": 4578,
      "ki a ": 4579,
      "álták": 4580,
      " a víz": 4581,
      "usok": 4582,
      "színész": 4583,
      "Int": 4584,
      "jából ": 4585,
      "óm": 4586,
      "szép": 4587,
      "szob": 4588,
      "heti": 4589,
      "áltak ": 4590,
      "öröm": 4591,
      "ták.\n": 4592,
      "környék": 4593,
      " veszély": 4594,
      " akadály": 4595,
      "Budapest ": 4596,
      "der": 4597,
      "la": 4598,
      "rám": 4599,
      " pály": 4600,
      "Ir": 4601,
      "kőz": 4602,
      "álta ": 4603,
      "országok ": 4604,
      "lakó": 4605,
      "400": 4606,
      "Dél": 4607,
      "MF": 4608,
      "ukor": 4609,
      "orvég": 4610,
      "érség": 4611,
      "csúsz": 4612,
      "hatnak": 4613,
      "endő ": 4614,
      "onyol": 4615,
      ", mert az ": 4616,
      "érzék": 4617,
      "támad": 4618,
      "függeszt": 4619,
      "ellentét": 4620,
      "ss": 4621,
      "öny": 4622,
      "olta ": 4623,
      "Szeged": 4624,
      "ivatal ": 4625,
      " város": 4626,
      "lepet": 4627,
      "39": 4628,
      "eci": 4629,
      "ő sz": 4630,
      " attól": 4631,
      "el, ": 4632,
      "ol ": 4633,
      "csütörtök ": 4634,
      "júli": 4635,
      "só": 4636,
      "tíz ": 4637,
      "anélkül": 4638,
      " meccs": 4639,
      " tíz": 4640,
      "énél": 4641,
      "oskod": 4642,
      " a test": 4643,
      " különb": 4644,
      "leked": 4645,
      "ni kell": 4646,
      "oog": 4647,
      "elte": 4648,
      "többi ": 4649,
      "te meg": 4650,
      "ezőny": 4651,
      "kisebb": 4652,
      "át és ": 4653,
      "ájának ": 4654,
      "összeh": 4655,
      " az any": 4656,
      "drág": 4657,
      "oló": 4658,
      "is k": 4659,
      "ik majd": 4660,
      "lehetne ": 4661,
      "Tibor": 4662,
      "ael ": 4663,
      "dig ": 4664,
      "rist": 4665,
      "adalmi ": 4666,
      "értes": 4667,
      "olgár": 4668,
      "száma ": 4669,
      "ponti ": 4670,
      "75": 4671,
      "Sim": 4672,
      "eit.\n": 4673,
      "ian": 4674,
      "rág": 4675,
      "et az ": 4676,
      "inek": 4677,
      "interjú": 4678,
      "osztrák ": 4679,
      "ros": 4680,
      "vár ": 4681,
      " fok": 4682,
      "leveg": 4683,
      "eszprém": 4684,
      "Hat": 4685,
      "fiz": 4686,
      "áló ": 4687,
      "ektől": 4688,
      ", mond": 4689,
      "ása szerint ": 4690,
      " a rom": 4691,
      "indult ": 4692,
      "tizen": 4693,
      "András ": 4694,
      "felelősség": 4695,
      "ashingt": 4696,
      "ten": 4697,
      "t, hogy ": 4698,
      "élemény": 4699,
      " tesz": 4700,
      "sztár": 4701,
      "ákkal": 4702,
      "képes ": 4703,
      "eztek ": 4704,
      "kezdemény": 4705,
      "John": 4706,
      "Har": 4707,
      "szűn": 4708,
      "azil": 4709,
      " közép": 4710,
      "általános ": 4711,
      " arra, hogy ": 4712,
      "művész": 4713,
      " rész": 4714,
      "Európai ": 4715,
      "áci": 4716,
      " ab": 4717,
      "el az ": 4718,
      "en fel": 4719,
      "ettől": 4720,
      " a pár": 4721,
      "enyh": 4722,
      "továbbra is ": 4723,
      " folyamat": 4724,
      ". december ": 4725,
      "ut ": 4726,
      "ruh": 4727,
      " mérkőzés": 4728,
      " az idei ": 4729,
      "norm": 4730,
      " a R": 4731,
      "icc": 4732,
      "van szükség": 4733,
      "ekete ": 4734,
      "iskolc": 4735,
      " kapcsolatban": 4736,
      "jellemző": 4737,
      "odern": 4738,
      " a két": 4739,
      "olgármester": 4740,
      "Angel": 4741,
      "anchester": 4742,
      "-m": 4743,
      "ey ": 4744,
      "an meg": 4745,
      "olja": 4746,
      "egym": 4747,
      "álland": 4748,
      "MNO - BL": 4749,
      "emlékeztet": 4750,
      "44": 4751,
      "fenntart": 4752,
      "láz": 4753,
      "köny": 4754,
      "Magyar K": 4755,
      "nyomoz": 4756,
      " azzal ": 4757,
      "onferenci": 4758,
      "ian ": 4759,
      "ennél": 4760,
      "ank ": 4761,
      "ésé": 4762,
      "est.\n": 4763,
      "át is ": 4764,
      "ukat ": 4765,
      " közep": 4766,
      "i kap": 4767,
      "órum": 4768,
      "terjed": 4769,
      ". év": 4770,
      "megy": 4771,
      "rát": 4772,
      " ahogy": 4773,
      "vannak": 4774,
      "ofőr": 4775,
      "ismét": 4776,
      "ostani ": 4777,
      "december": 4778,
      "ens ": 4779,
      "or ": 4780,
      "i miniszter": 4781,
      "elmiszer": 4782,
      "Obam": 4783,
      "Ár": 4784,
      "ennek": 4785,
      " keres": 4786,
      "állt ": 4787,
      "nál.\n": 4788,
      "bele": 4789,
      " lit": 4790,
      " a legjobb": 4791,
      "Kovács ": 4792,
      "diplom": 4793,
      "mar": 4794,
      " figy": 4795,
      "het.\n": 4796,
      "Gyul": 4797,
      "bajnoki ": 4798,
      " kisebb": 4799,
      ". perc": 4800,
      "tette": 4801,
      "egyes": 4802,
      "szerdai ": 4803,
      "önkormányzat ": 4804,
      "betegség": 4805,
      "tunk": 4806,
      "izra": 4807,
      "jai": 4808,
      "ője": 4809,
      "fejlőd": 4810,
      "olimpiai ": 4811,
      " a nap": 4812,
      "emp": 4813,
      " km": 4814,
      "es k": 4815,
      "otta": 4816,
      "benne": 4817,
      "hetetlen ": 4818,
      "ismertet": 4819,
      " arra, hogy": 4820,
      "A V": 4821,
      "benne ": 4822,
      "forgat": 4823,
      "42": 4824,
      "ásos ": 4825,
      "végig": 4826,
      " segít": 4827,
      "honlap": 4828,
      "RT": 4829,
      " az ár": 4830,
      "ánk ": 4831,
      "am ": 4832,
      " vagy ": 4833,
      " Ferenc": 4834,
      "Jan": 4835,
      "rév": 4836,
      "eknek": 4837,
      "akat": 4838,
      "előzetes ": 4839,
      "udvar": 4840,
      ", hogy nem ": 4841,
      ": B": 4842,
      "édes": 4843,
      " ant": 4844,
      " új": 4845,
      "ozni": 4846,
      "ellép": 4847,
      "beny": 4848,
      "óknak ": 4849,
      "pillanat": 4850,
      "demokrat": 4851,
      "eknél": 4852,
      " hiány": 4853,
      " adta ": 4854,
      "eltűn": 4855,
      "kellene ": 4856,
      "opr": 4857,
      "szent": 4858,
      "elik": 4859,
      "i M": 4860,
      "adalm": 4861,
      "utat ": 4862,
      "ó és ": 4863,
      "azin": 4864,
      "raf": 4865,
      "ebo": 4866,
      "abdarúg": 4867,
      "48": 4868,
      "férfi": 4869,
      "remény": 4870,
      "sk": 4871,
      "viz": 4872,
      "úd": 4873,
      " megyei ": 4874,
      " föl": 4875,
      "idős": 4876,
      "író": 4877,
      " a mér": 4878,
      "ondoni ": 4879,
      "gazdálkod": 4880,
      "teljesít": 4881,
      "FC": 4882,
      "car": 4883,
      "óban ": 4884,
      "szeg": 4885,
      "egyeztet": 4886,
      "ika": 4887,
      "éve": 4888,
      "kor ": 4889,
      "indult": 4890,
      "érte ": 4891,
      "berend": 4892,
      " adósság": 4893,
      "elemzés": 4894,
      "ollár ": 4895,
      " mindenki ": 4896,
      "nehéz ": 4897,
      " szinte ": 4898,
      "irtok": 4899,
      "Sport Géz": 4900,
      "46": 4901,
      "ritk": 4902,
      "esk": 4903,
      "osok ": 4904,
      "hetnek ": 4905,
      " a helyi ": 4906,
      "erőszak": 4907,
      "piaci ": 4908,
      "pénteken ": 4909,
      "Sport Géza - ": 4910,
      "bl": 4911,
      "üsz": 4912,
      "enő": 4913,
      ", milyen ": 4914,
      "hatalmas ": 4915,
      " helyzet": 4916,
      "fokú": 4917,
      "király": 4918,
      "üzemeltet": 4919,
      "stílus": 4920,
      ". hely": 4921,
      "Megyei ": 4922,
      "Tör": 4923,
      "soha ": 4924,
      "ű, ": 4925,
      " a német ": 4926,
      "ötlet": 4927,
      "millió ": 4928,
      "Ugyanakkor": 4929,
      "stabil": 4930,
      "es-": 4931,
      " lak": 4932,
      "ultúr": 4933,
      "Ho": 4934,
      "Iz": 4935,
      "i, a ": 4936,
      "menet": 4937,
      " ki ": 4938,
      "A szak": 4939,
      "állomány": 4940,
      "közös ": 4941,
      " kialak": 4942,
      "Csak": 4943,
      "volna.\n": 4944,
      "- közölte ": 4945,
      "október ": 4946,
      "Hogy": 4947,
      "K ": 4948,
      " auguszt": 4949,
      "álkoz": 4950,
      "leg ": 4951,
      " a párt ": 4952,
      " történt ": 4953,
      "hamar": 4954,
      "nal ": 4955,
      "űköd": 4956,
      "ons": 4957,
      "en is ": 4958,
      " ver": 4959,
      "cion": 4960,
      "rejt": 4961,
      "Brit": 4962,
      "e M": 4963,
      "tartalm": 4964,
      "nyert ": 4965,
      "i szint": 4966,
      " annyit ": 4967,
      "gyanúsított": 4968,
      "ítja": 4969,
      "ilabd": 4970,
      "lev": 4971,
      "hatja ": 4972,
      "kezelés": 4973,
      "szereplő": 4974,
      ", mint a ": 4975,
      "használat": 4976,
      "idegen": 4977,
      "mel ": 4978,
      "óbb": 4979,
      ", F": 4980,
      ", G": 4981,
      "élő ": 4982,
      " felm": 4983,
      " halál": 4984,
      "i támogat": 4985,
      "Magyarországon ": 4986,
      " műsor": 4987,
      "gépkocs": 4988,
      "tervezett ": 4989,
      "vidék": 4990,
      " moz": 4991,
      "felj": 4992,
      " a mai ": 4993,
      "ural": 4994,
      "merikai": 4995,
      " lét": 4996,
      "értékesít": 4997,
      "ermészet": 4998,
      "politikus ": 4999,
      "- közölte a ": 5000,
      "Mivel": 5001,
      "bék": 5002,
      "vitel": 5003,
      "elk": 5004,
      ", egy ": 5005,
      "elmarad": 5006,
      "ellenfel": 5007,
      "en kívül": 5008,
      "atonai ": 5009,
      "eljárás": 5010,
      "ombaton ": 5011,
      "écsi ": 5012,
      "lig": 5013,
      "é vál": 5014,
      "talán": 5015,
      "lós": 5016,
      ", ahol ": 5017,
      "ológus": 5018,
      "Alkotmánybíróság": 5019,
      " élet": 5020,
      "t, és ": 5021,
      ", R": 5022,
      "er-": 5023,
      "okból": 5024,
      "járműv": 5025,
      "Az a": 5026,
      " az MDF": 5027,
      "ezzel ": 5028,
      "sziget": 5029,
      " után ": 5030,
      ".H": 5031,
      "rel ": 5032,
      "eli": 5033,
      "előző": 5034,
      " lép": 5035,
      "módosítás": 5036,
      "csupán ": 5037,
      "49": 5038,
      " az Egyesült Állam": 5039,
      "énk ": 5040,
      ", mi ": 5041,
      "lenni": 5042,
      "vagyon": 5043,
      "ávol": 5044,
      "nyugati ": 5045,
      "dik": 5046,
      "finanszír": 5047,
      "je.\n": 5048,
      "őn": 5049,
      "nyúj": 5050,
      "okról": 5051,
      "ukat": 5052,
      "okozott ": 5053,
      " az előző ": 5054,
      "emokráci": 5055,
      "oktatási ": 5056,
      "rögz": 5057,
      "és a t": 5058,
      "felső": 5059,
      " azt is": 5060,
      "felelős ": 5061,
      "nehéz": 5062,
      "41": 5063,
      "A-": 5064,
      "Bor": 5065,
      "eim": 5066,
      "sereg": 5067,
      "üv": 5068,
      ", ki": 5069,
      "ik, a ": 5070,
      "indítvány": 5071,
      "zsid": 5072,
      "oft": 5073,
      "ek\n": 5074,
      "esett": 5075,
      " teh": 5076,
      "eléged": 5077,
      "56": 5078,
      " a W": 5079,
      ", csak ": 5080,
      "e szerint ": 5081,
      " az élet": 5082,
      " tárgyal": 5083,
      "ity": 5084,
      " november": 5085,
      "Madrid": 5086,
      "Ped": 5087,
      "dolog": 5088,
      " küzd": 5089,
      " az euró": 5090,
      "on belül": 5091,
      "fiú": 5092,
      "továbbá": 5093,
      " ajánlat": 5094,
      "férfi ": 5095,
      "vide": 5096,
      " a cég": 5097,
      "ja, a ": 5098,
      " nép": 5099,
      ": K": 5100,
      "jelent meg": 5101,
      "jogi ": 5102,
      "pályáz": 5103,
      " került ": 5104,
      "hatóságok ": 5105,
      "axim": 5106,
      "Népszabadság": 5107,
      "elkövetett ": 5108,
      " előtt ": 5109,
      "-Sz": 5110,
      "SC": 5111,
      "Tovább": 5112,
      "olt m": 5113,
      "és a m": 5114,
      "egyű": 5115,
      "isk": 5116,
      " feladat": 5117,
      "háború": 5118,
      " kar": 5119,
      "uth": 5120,
      "önmag": 5121,
      "iszap": 5122,
      "ött.\n": 5123,
      "ján.\n": 5124,
      "A kutat": 5125,
      "Csak ": 5126,
      "ével.\n": 5127,
      "eai ": 5128,
      " tíz ": 5129,
      "adt ": 5130,
      "ására.\n": 5131,
      "következő": 5132,
      "ideig": 5133,
      "krit": 5134,
      "április": 5135,
      "vész": 5136,
      "öszt": 5137,
      "üs": 5138,
      "onstr": 5139,
      " valak": 5140,
      "ásáról": 5141,
      "uszon": 5142,
      "Péter ": 5143,
      "ek - ": 5144,
      " vel": 5145,
      "hatékony": 5146,
      " a fiatal": 5147,
      "rész, ": 5148,
      "egyedül": 5149,
      " munkatárs": 5150,
      "kedden ": 5151,
      "zott ": 5152,
      "ekből": 5153,
      " víz": 5154,
      "sorban ": 5155,
      "remél": 5156,
      "képpen ": 5157,
      "rengeteg": 5158,
      "Oroszország": 5159,
      "\"a ": 5160,
      "Össz": 5161,
      "önyv": 5162,
      " tette hozzá": 5163,
      "be, ": 5164,
      "újítás": 5165,
      "voltak ": 5166,
      "acebo": 5167,
      "házy ": 5168,
      "óth": 5169,
      "gyakorlatilag": 5170,
      "ás után": 5171,
      "Az O": 5172,
      "merik": 5173,
      ", illetve a ": 5174,
      "rekord": 5175,
      "terjeszt": 5176,
      "jelentősen ": 5177,
      "projek": 5178,
      ") -": 5179,
      "65": 5180,
      "Ste": 5181,
      "tar": 5182,
      "öp": 5183,
      "egység": 5184,
      "ellett": 5185,
      "hatalom": 5186,
      "üzenet": 5187,
      ", akit ": 5188,
      "LMP": 5189,
      "-helyett": 5190,
      "Minisztérium": 5191,
      "óra": 5192,
      "egyet": 5193,
      " vis": 5194,
      "ható.\n": 5195,
      "ajnos ": 5196,
      "sokszor": 5197,
      "között.\n": 5198,
      "-európai ": 5199,
      "vir": 5200,
      "ó sz": 5201,
      "árny": 5202,
      "inom": 5203,
      " tény": 5204,
      "is az ": 5205,
      "ben\n": 5206,
      "ügyvéd": 5207,
      "i kép": 5208,
      "bizonytalan": 5209,
      "forgalm": 5210,
      "ügyminisztérium": 5211,
      "járulék": 5212,
      "áért ": 5213,
      ", J": 5214,
      "atart": 5215,
      "how": 5216,
      "ától ": 5217,
      "a mag": 5218,
      "elepülés": 5219,
      "Debrec": 5220,
      "elefon": 5221,
      " haj": 5222,
      "uss": 5223,
      " a beteg": 5224,
      "ick": 5225,
      "úton": 5226,
      "Real ": 5227,
      "Alap": 5228,
      "fáj": 5229,
      "sim": 5230,
      ", el": 5231,
      " kett": 5232,
      "ére, ": 5233,
      "is ki": 5234,
      "ref": 5235,
      "nak tart": 5236,
      "ők.\n": 5237,
      "Nyom": 5238,
      "\" - nyilatkoz": 5239,
      " gól": 5240,
      "görög": 5241,
      " máj": 5242,
      "cseh": 5243,
      "ozs": 5244,
      " forintos ": 5245,
      "Ezzel": 5246,
      "nyert": 5247,
      " millió forint ": 5248,
      "György ": 5249,
      "i H": 5250,
      "ésével ": 5251,
      "élő": 5252,
      " hív": 5253,
      ", és meg": 5254,
      "i magyar": 5255,
      "ismeretlen ": 5256,
      " való ": 5257,
      ", amikor ": 5258,
      " fontos ": 5259,
      " centiméter": 5260,
      "Oly": 5261,
      "ezen ": 5262,
      ", más": 5263,
      "ívül ": 5264,
      "Magyar T": 5265,
      "oldali ": 5266,
      "friss": 5267,
      "elmondta:": 5268,
      "dek": 5269,
      "hord": 5270,
      " a jövő": 5271,
      "etsz": 5272,
      "ezd": 5273,
      " a különb": 5274,
      " a szavaz": 5275,
      "III": 5276,
      "Jobbik": 5277,
      " hogy": 5278,
      "Most ": 5279,
      "belő": 5280,
      "o-": 5281,
      "zal": 5282,
      "ÁV": 5283,
      "egatív": 5284,
      "ején ": 5285,
      "lengyel": 5286,
      "volt a ": 5287,
      "eredeti ": 5288,
      ", hogy ne ": 5289,
      "a, hogy ": 5290,
      "puszt": 5291,
      "r. ": 5292,
      "tur": 5293,
      "anci": 5294,
      "a k": 5295,
      "ette, ": 5296,
      "ázs ": 5297,
      "feleség": 5298,
      "egyik leg": 5299,
      "jon ": 5300,
      "lus": 5301,
      "íthat": 5302,
      "amb": 5303,
      " a vád": 5304,
      "vel.\n": 5305,
      "vonul": 5306,
      "úttal": 5307,
      "Francia": 5308,
      "atol": 5309,
      "oks": 5310,
      "élet ": 5311,
      "ában\n": 5312,
      "órium": 5313,
      "csütörtöki ": 5314,
      "Minden ": 5315,
      "ereskedelmi ": 5316,
      "47": 5317,
      "GD": 5318,
      "Len": 5319,
      "húsz": 5320,
      "hálóz": 5321,
      "esszor": 5322,
      " fiatal": 5323,
      "hozam": 5324,
      "allgat": 5325,
      "ürd": 5326,
      "negyedév": 5327,
      "Zsolt": 5328,
      "költségvetés": 5329,
      "Intéz": 5330,
      "-sz": 5331,
      "Hol": 5332,
      "Ham": 5333,
      "János": 5334,
      "rét": 5335,
      "érzés": 5336,
      "os.\n": 5337,
      "A R": 5338,
      "Szak": 5339,
      " a forg": 5340,
      "részét ": 5341,
      "erced": 5342,
      " a személy": 5343,
      "elektron": 5344,
      "bán": 5345,
      "modell": 5346,
      "osabb ": 5347,
      "befizet": 5348,
      " aki ": 5349,
      "összek": 5350,
      "i mér": 5351,
      "hozzátette": 5352,
      "--": 5353,
      "TO": 5354,
      "ier ": 5355,
      " kisz": 5356,
      "énz ": 5357,
      "onta ": 5358,
      "járó ": 5359,
      "ack ": 5360,
      " van.\n": 5361,
      " a válság": 5362,
      "hasonló ": 5363,
      "Olasz": 5364,
      "Unit": 5365,
      ". november ": 5366,
      "va a ": 5367,
      " a vissz": 5368,
      ", amelyet": 5369,
      "fogás": 5370,
      "elnökség": 5371,
      "Mih": 5372,
      "szervezetek ": 5373,
      "lévő": 5374,
      "szükséges ": 5375,
      "ítani ": 5376,
      " teljes ": 5377,
      "földön": 5378,
      "- írja a ": 5379,
      "sebesség": 5380,
      "üssz": 5381,
      "e van": 5382,
      "szerűen ": 5383,
      "250": 5384,
      "erjeszt": 5385,
      "lemond": 5386,
      "MNO - KA ": 5387,
      "államtitkár": 5388,
      " idő": 5389,
      "B ": 5390,
      "börtön": 5391,
      "később": 5392,
      "lemény": 5393,
      "rajt": 5394,
      ", V": 5395,
      "Az elmúlt ": 5396,
      "övetkez": 5397,
      "Fotó": 5398,
      "hisz": 5399,
      "ütt ": 5400,
      "etr": 5401,
      "egyáltalán ": 5402,
      " tizen": 5403,
      "ék.\n": 5404,
      "nem sz": 5405,
      "meg a ": 5406,
      "beszámol": 5407,
      " a férfi": 5408,
      "láthat": 5409,
      "lehet.\n": 5410,
      "ehhez ": 5411,
      "eltek ": 5412,
      "játékos ": 5413,
      "igazgatóság": 5414,
      ", vagyis ": 5415,
      "lőtt": 5416,
      " további ": 5417,
      ", annak ": 5418,
      ".rész, ": 5419,
      "Rá": 5420,
      "po": 5421,
      " honlap": 5422,
      "ja, hogy": 5423,
      " a vizsg": 5424,
      "kapott ": 5425,
      " a közép": 5426,
      "Erd": 5427,
      " a főváros": 5428,
      "Andre": 5429,
      " vezér": 5430,
      "ösztön": 5431,
      "Mint": 5432,
      "bonyol": 5433,
      "eiről": 5434,
      "sí": 5435,
      "okból ": 5436,
      "ilenc": 5437,
      "át, a ": 5438,
      "adók ": 5439,
      ", most ": 5440,
      "ét és ": 5441,
      " de ": 5442,
      " alapvet": 5443,
      "század": 5444,
      " millió euró": 5445,
      "kölcsön": 5446,
      "édiatörvény": 5447,
      "aut": 5448,
      "fest": 5449,
      "lek": 5450,
      "t, hogy": 5451,
      "ővárosi ": 5452,
      "emet": 5453,
      "ásra": 5454,
      "valóság": 5455,
      " nevez": 5456,
      "következt": 5457,
      " kilenc": 5458,
      "úttal ": 5459,
      "Be": 5460,
      "ca ": 5461,
      "fot": 5462,
      "nem kell": 5463,
      "előadás": 5464,
      "ondon": 5465,
      "tárgy": 5466,
      "zsd": 5467,
      "huny": 5468,
      "Miklós ": 5469,
      " másodperc": 5470,
      "Dav": 5471,
      "Három": 5472,
      "vegy": 5473,
      " test": 5474,
      "usi ": 5475,
      " milliárd dollár": 5476,
      "janak ": 5477,
      "osan meg": 5478,
      "munkatárs": 5479,
      " ajándék": 5480,
      "Zsolt ": 5481,
      "Gazdaság: ": 5482,
      "-t ": 5483,
      "-ös ": 5484,
      "aw": 5485,
      "deviz": 5486,
      "üm": 5487,
      "gyel ": 5488,
      "íteni": 5489,
      "felmér": 5490,
      "asság": 5491,
      "dől": 5492,
      "mi ": 5493,
      "szét": 5494,
      "en\n": 5495,
      " fut": 5496,
      "tök": 5497,
      "ok is ": 5498,
      "ív ": 5499,
      " közös": 5500,
      "sorozat ": 5501,
      "került ": 5502,
      "Zoltán ": 5503,
      "43": 5504,
      "fogy": 5505,
      "pár ": 5506,
      "Év": 5507,
      "oktatás": 5508,
      ", a K": 5509,
      "előző ": 5510,
      "indított": 5511,
      " a kutat": 5512,
      "ódott ": 5513,
      ", hogy mi": 5514,
      "rakció": 5515,
      "orma-": 5516,
      "oszkv": 5517,
      "lett.\n": 5518,
      "erék": 5519,
      "atórium": 5520,
      " modell": 5521,
      "ítják": 5522,
      ", ar": 5523,
      " het": 5524,
      "előfordul": 5525,
      "ák, ": 5526,
      ", amíg": 5527,
      ", akár": 5528,
      "szerepet ": 5529,
      " független": 5530,
      "a, hogy": 5531,
      "tulajdonos": 5532,
      " a N": 5533,
      "ok\n": 5534,
      " az alkotmány": 5535,
      "neki": 5536,
      " a teljes ": 5537,
      " számára ": 5538,
      "Nagy-": 5539,
      " költségvet": 5540,
      "SE": 5541,
      "Sh": 5542,
      "szeretné": 5543,
      "forrás": 5544,
      "les": 5545,
      "lán": 5546,
      " agy": 5547,
      "szerz": 5548,
      " vet": 5549,
      "et meg": 5550,
      "üket": 5551,
      "választási ": 5552,
      "győztes ": 5553,
      "Sok": 5554,
      "ait.\n": 5555,
      "ónak ": 5556,
      "oló ": 5557,
      " kik": 5558,
      "vala": 5559,
      "sem.\n": 5560,
      " forr": 5561,
      " a bel": 5562,
      "kormány ": 5563,
      "ismeret": 5564,
      " is meg": 5565,
      " László": 5566,
      "labdarúg": 5567,
      "kényszer": 5568,
      "boly": 5569,
      "roh": 5570,
      "öz ": 5571,
      "ügyészség": 5572,
      "tartoz": 5573,
      "válogatott ": 5574,
      "esetében": 5575,
      "ugyanaz": 5576,
      "enekül": 5577,
      " tervez": 5578,
      "- m": 5579,
      "második ": 5580,
      "zét": 5581,
      "ébe": 5582,
      "online ": 5583,
      "egyar": 5584,
      "csont": 5585,
      "nem m": 5586,
      "bert": 5587,
      "terr": 5588,
      "Szám": 5589,
      "iatal ": 5590,
      "A második ": 5591,
      "A világ": 5592,
      "jelenleg ": 5593,
      "alkot": 5594,
      "Van": 5595,
      "je, ": 5596,
      "olf": 5597,
      "ásban ": 5598,
      "egyez": 5599,
      "ékes": 5600,
      "közben": 5601,
      "entő": 5602,
      "indított ": 5603,
      " közvet": 5604,
      "részben ": 5605,
      "ombat ": 5606,
      " számol": 5607,
      " komoly": 5608,
      "kórház": 5609,
      "zió": 5610,
      "egy m": 5611,
      " száz ": 5612,
      "agóg": 5613,
      " a város ": 5614,
      "készítés": 5615,
      "alálkoz": 5616,
      "onzerv": 5617,
      "Németország": 5618,
      "ésbé": 5619,
      "kötelezettség": 5620,
      "- az ": 5621,
      "Mester": 5622,
      "fenn": 5623,
      "üst": 5624,
      "közep": 5625,
      "irán": 5626,
      " százalékra ": 5627,
      "változás": 5628,
      "ollég": 5629,
      "Varga ": 5630,
      "United": 5631,
      "elkerül": 5632,
      "csin": 5633,
      "vall": 5634,
      " a fog": 5635,
      "ódik": 5636,
      "abban": 5637,
      "védő ": 5638,
      " reg": 5639,
      "ütem": 5640,
      "német": 5641,
      "módos": 5642,
      "kevesebb": 5643,
      "Akkor": 5644,
      " fogalmazott": 5645,
      "november": 5646,
      " ország": 5647,
      "empl": 5648,
      "ás, a ": 5649,
      " a haj": 5650,
      " többször": 5651,
      "álláspont": 5652,
      "eresztény": 5653,
      "120": 5654,
      "boldog": 5655,
      "din": 5656,
      "kéz": 5657,
      "lés": 5658,
      "só ": 5659,
      "tus": 5660,
      "Ág": 5661,
      "ekre": 5662,
      "ak a ": 5663,
      "befej": 5664,
      " per": 5665,
      "ot is ": 5666,
      " együtt": 5667,
      " tartott ": 5668,
      "szintén ": 5669,
      "ütköz": 5670,
      "mintegy ": 5671,
      "cigány": 5672,
      "Ráadásul": 5673,
      " ló": 5674,
      "(M": 5675,
      "riv": 5676,
      "űk": 5677,
      "és a sz": 5678,
      "ágaz": 5679,
      "nem akar": 5680,
      " hét ": 5681,
      "kezelő": 5682,
      "ivár": 5683,
      "idős ": 5684,
      " program": 5685,
      "orosz ": 5686,
      "foglalkoztat": 5687,
      ". forduló": 5688,
      "Ab": 5689,
      "Fran": 5690,
      "gum": 5691,
      "tán ": 5692,
      " figyelm": 5693,
      "omoly": 5694,
      "tehető": 5695,
      " a tovább": 5696,
      "édia ": 5697,
      "ávid": 5698,
      "forduló": 5699,
      "résztvev": 5700,
      "a szerint ": 5701,
      " voln": 5702,
      " szép": 5703,
      "megállapod": 5704,
      "i mind": 5705,
      "említett ": 5706,
      " magán": 5707,
      "partner": 5708,
      ".V": 5709,
      "MDF": 5710,
      "tük": 5711,
      "árad": 5712,
      " kim": 5713,
      "om.\n": 5714,
      "A lap": 5715,
      "hetett ": 5716,
      "abin": 5717,
      " történet": 5718,
      " vállalkoz": 5719,
      "takarítás": 5720,
      "sel ": 5721,
      "sug": 5722,
      " kér": 5723,
      "arát": 5724,
      "nia": 5725,
      "végez": 5726,
      "a még": 5727,
      " Megyei ": 5728,
      "ublik": 5729,
      "szerződés ": 5730,
      " magyar ": 5731,
      "követően": 5732,
      "szereplő ": 5733,
      "MNO - PL": 5734,
      "rúg": 5735,
      "za ": 5736,
      "elég ": 5737,
      "ári": 5738,
      "árk": 5739,
      "em.\n": 5740,
      "ítő ": 5741,
      ", mint am": 5742,
      "intézet": 5743,
      "álisan ": 5744,
      "IMF": 5745,
      "Mart": 5746,
      "Port": 5747,
      "sajtótájékoztat": 5748,
      " apr": 5749,
      " a kor": 5750,
      "iként ": 5751,
      " vásár": 5752,
      "ének.\n": 5753,
      "itás ": 5754,
      ", hogy ez": 5755,
      "ek közül": 5756,
      "másik ": 5757,
      " megjelent ": 5758,
      " a figyelmet": 5759,
      "pil": 5760,
      "öb": 5761,
      "oknál": 5762,
      " ne ": 5763,
      "ájában": 5764,
      "ése szerint ": 5765,
      "Az amerikai ": 5766,
      " nemzet": 5767,
      "jóvá": 5768,
      ", vagy ": 5769,
      "egykori ": 5770,
      "sztal": 5771,
      " szolg": 5772,
      "ányi ": 5773,
      "ényszer": 5774,
      "év ": 5775,
      "közé": 5776,
      "tav": 5777,
      "tehát": 5778,
      "embert ": 5779,
      "avéd": 5780,
      "esetben": 5781,
      "munka": 5782,
      "reklám": 5783,
      "höz ": 5784,
      "eződ": 5785,
      "élmény": 5786,
      " február": 5787,
      "számolt": 5788,
      " a bűn": 5789,
      "fői ": 5790,
      "világbajnokság": 5791,
      "Mihály": 5792,
      "FK": 5793,
      "web": 5794,
      "övezet": 5795,
      "ata ": 5796,
      "edik ": 5797,
      "nem lesz": 5798,
      "ovic": 5799,
      "állított ": 5800,
      "nyilvánosságra ": 5801,
      "-ig ": 5802,
      "Nov": 5803,
      "Th": 5804,
      "aul": 5805,
      "jö": 5806,
      "egnap": 5807,
      "en belül": 5808,
      "A L": 5809,
      "szerint.\n": 5810,
      "háztart": 5811,
      "főleg": 5812,
      "esetleges ": 5813,
      "dísz": 5814,
      " a sport": 5815,
      "Ered": 5816,
      "magyar ": 5817,
      "üzemanyag": 5818,
      "ea ": 5819,
      "fű": 5820,
      "tim": 5821,
      "tíz": 5822,
      "tuk ": 5823,
      ", Sz": 5824,
      "ig tart": 5825,
      "es és ": 5826,
      "hetnek": 5827,
      "ellenére": 5828,
      "ciós ": 5829,
      "eccs ": 5830,
      "emelte": 5831,
      "döntés ": 5832,
      " magas ": 5833,
      "magasabb": 5834,
      "Britan": 5835,
      "-n": 5836,
      "Mat": 5837,
      "lő ": 5838,
      "szüntet": 5839,
      "elad": 5840,
      " párt": 5841,
      "rav": 5842,
      "ebben az ": 5843,
      "visszav": 5844,
      "rendezett ": 5845,
      "é tesz": 5846,
      "-B": 5847,
      "-nek ": 5848,
      ".F": 5849,
      "gent": 5850,
      "on\n": 5851,
      "áty": 5852,
      "- olvasható": 5853,
      "ügyész": 5854,
      " közös ": 5855,
      "szólal": 5856,
      " a brit ": 5857,
      "zárt": 5858,
      "csőd": 5859,
      " február ": 5860,
      "nemcsak ": 5861,
      ", a leg": 5862,
      " a klub": 5863,
      "ában is ": 5864,
      "aiak ": 5865,
      "usz ": 5866,
      " vezető": 5867,
      " aztán": 5868,
      "információk": 5869,
      " halad": 5870,
      "i alap": 5871,
      "kár": 5872,
      "óan": 5873,
      "ása.\n": 5874,
      "évvel ez": 5875,
      "ámadás": 5876,
      "öltöz": 5877,
      ", hogy ez ": 5878,
      "ovics ": 5879,
      "időpont": 5880,
      "áról.\n": 5881,
      "gyerekek ": 5882,
      " az állami ": 5883,
      "hullám": 5884,
      "ötödik ": 5885,
      " illetve ": 5886,
      "gát": 5887,
      "eken": 5888,
      "ta fel": 5889,
      ", ha az ": 5890,
      "helyzet ": 5891,
      "esztivál": 5892,
      ". január ": 5893,
      "exik": 5894,
      "valamint": 5895,
      "támadás": 5896,
      "The ": 5897,
      "küzd": 5898,
      "csend": 5899,
      "ettel ": 5900,
      "Cseh": 5901,
      " szemben.\n": 5902,
      "játszott": 5903,
      "valószínű": 5904,
      "óriási ": 5905,
      "Nagy-Britan": 5906,
      "se": 5907,
      "sch": 5908,
      "á vál": 5909,
      "ápl": 5910,
      "ához.\n": 5911,
      " kíván": 5912,
      "élelmiszer": 5913,
      " hitel": 5914,
      "közel ": 5915,
      "heti ": 5916,
      "Az egyik ": 5917,
      "járt ": 5918,
      "szerinte ": 5919,
      "védelem": 5920,
      " forintot ": 5921,
      "átlagos ": 5922,
      " politikai ": 5923,
      "Kriszt": 5924,
      "New York ": 5925,
      "onttal": 5926,
      "Jelen": 5927,
      "íj": 5928,
      "ütött": 5929,
      "arn": 5930,
      " szeptember": 5931,
      "állt": 5932,
      "nie ": 5933,
      "hatn": 5934,
      " köt": 5935,
      "ják az ": 5936,
      "gondolt": 5937,
      " voltak ": 5938,
      "tavalyi ": 5939,
      "Hét": 5940,
      "Tal": 5941,
      "ral ": 5942,
      "gyors ": 5943,
      "ettség": 5944,
      " százalékát ": 5945,
      " a legnagyobb": 5946,
      "érdekében ": 5947,
      "határozat": 5948,
      "ológia ": 5949,
      "iskola ": 5950,
      "település": 5951,
      " aki": 5952,
      "erny": 5953,
      " motor": 5954,
      "ésnek ": 5955,
      " föld": 5956,
      "nem tart": 5957,
      " negyed": 5958,
      "rand": 5959,
      "létez": 5960,
      "hátrány": 5961,
      "legyen ": 5962,
      "egy évvel": 5963,
      "New York": 5964,
      " a szabad": 5965,
      "Fehér": 5966,
      "botrány": 5967,
      "hű": 5968,
      "mann": 5969,
      "ran ": 5970,
      " a család": 5971,
      ", \"": 5972,
      "okba ": 5973,
      "adal": 5974,
      ", mit ": 5975,
      " pont ": 5976,
      "ovj": 5977,
      " a hang": 5978,
      ", amelyben ": 5979,
      "igazgatási ": 5980,
      " fejleszt": 5981,
      "lelk": 5982,
      "Eh": 5983,
      "Jos": 5984,
      "iába ": 5985,
      "ww": 5986,
      "ásnak ": 5987,
      "nie": 5988,
      " név": 5989,
      "ta el": 5990,
      " a szél": 5991,
      "jelent ": 5992,
      " forintra ": 5993,
      "diák": 5994,
      " millió dollár": 5995,
      "ecskem": 5996,
      ": m": 5997,
      "kos ": 5998,
      "y-": 5999,
      " asszony": 6000,
      " kis ": 6001,
      "- B": 6002,
      "odor": 6003,
      " azt jelenti": 6004,
      "Ezért ": 6005,
      " válogatott ": 6006,
      "Minden": 6007,
      "vágy": 6008,
      "Lajos ": 6009,
      "oftver": 6010,
      "57": 6011,
      "Cl": 6012,
      "Gr": 6013,
      "ger": 6014,
      " tavaly": 6015,
      "évente ": 6016,
      "álta": 6017,
      " a véd": 6018,
      "történt ": 6019,
      "tudat": 6020,
      "magát": 6021,
      "Európa-": 6022,
      "Intern": 6023,
      " van szó": 6024,
      "Lev": 6025,
      "e volt": 6026,
      "oka": 6027,
      " tár": 6028,
      "számára": 6029,
      "ni kezd": 6030,
      "uper": 6031,
      "ják meg": 6032,
      "pályázat": 6033,
      " kapcsolatban ": 6034,
      " szakasz": 6035,
      " természet": 6036,
      "Sp": 6037,
      "iban": 6038,
      "tál": 6039,
      "örny": 6040,
      ", hol": 6041,
      "erült ": 6042,
      "ultak ": 6043,
      "ásokkal": 6044,
      "asonló ": 6045,
      "ébként ": 6046,
      " történelmi ": 6047,
      "gyalog": 6048,
      "vásárol": 6049,
      "önkormányzati ": 6050,
      "javul": 6051,
      " közötti ": 6052,
      " a forint": 6053,
      " növeked": 6054,
      "Di": 6055,
      "ko": 6056,
      "kelt": 6057,
      "vg": 6058,
      "ezen": 6059,
      "nem fog": 6060,
      "legfelj": 6061,
      "sikeres": 6062,
      "speci": 6063,
      "vonatkozó ": 6064,
      "Michael ": 6065,
      "kup": 6066,
      "sáv": 6067,
      "ésű": 6068,
      "élvez": 6069,
      "on és ": 6070,
      "elni ": 6071,
      "vissza ": 6072,
      " problém": 6073,
      " viszony": 6074,
      " kicsit ": 6075,
      "arcelon": 6076,
      "benzin": 6077,
      "-j": 6078,
      ", fel": 6079,
      " mozg": 6080,
      "sági ": 6081,
      "hatott ": 6082,
      " megállap": 6083,
      "álták ": 6084,
      " azonos": 6085,
      "tudomány": 6086,
      "opp": 6087,
      "magán": 6088,
      "semmis": 6089,
      "rajong": 6090,
      " nőtt": 6091,
      "85": 6092,
      "Vál": 6093,
      "Ám": 6094,
      "elején": 6095,
      " miniszterelnök": 6096,
      " a társaság": 6097,
      "női ": 6098,
      "errar": 6099,
      ") és ": 6100,
      "Gu": 6101,
      "NSZ": 6102,
      "dem": 6103,
      "gener": 6104,
      "érj": 6105,
      " tonn": 6106,
      "aján": 6107,
      "években": 6108,
      "napilap": 6109,
      "kapcsolód": 6110,
      "úgy tűn": 6111,
      "figyel": 6112,
      "javaslat ": 6113,
      "Tisz": 6114,
      "kóz": 6115,
      "za": 6116,
      "en, a ": 6117,
      "ényi ": 6118,
      "kialak": 6119,
      " a min": 6120,
      "nem lát": 6121,
      "szakmai ": 6122,
      "tudom": 6123,
      "exuális ": 6124,
      "sokan": 6125,
      "ették.\n": 6126,
      "repülőgép": 6127,
      "vg.hu": 6128,
      "51": 6129,
      "lit": 6130,
      "lánc": 6131,
      "tém": 6132,
      "tenger": 6133,
      "ese": 6134,
      "iszony": 6135,
      "ódott": 6136,
      "képzés": 6137,
      " mindössze ": 6138,
      "hosszú táv": 6139,
      " is.\n": 6140,
      "NB": 6141,
      "PE": 6142,
      "S-": 6143,
      "ébb": 6144,
      "ezr": 6145,
      "ozási ": 6146,
      "- jelentette ": 6147,
      " a vár": 6148,
      "őknek ": 6149,
      "igazi ": 6150,
      "ismerős": 6151,
      "ipp": 6152,
      "isták": 6153,
      "egészségügy": 6154,
      "költségvetés ": 6155,
      "kilenc": 6156,
      "ingyen": 6157,
      "%-": 6158,
      "ust": 6159,
      "szaki ": 6160,
      "csaknem ": 6161,
      "etlenség": 6162,
      "dolgozó": 6163,
      "nyolcad": 6164,
      "román": 6165,
      "attint": 6166,
      "pozíció": 6167,
      "állomás": 6168,
      " az Európai Uni": 6169,
      "bizonyíték": 6170,
      "Fej": 6171,
      "elkezd": 6172,
      "enek.\n": 6173,
      "etű": 6174,
      " kérd": 6175,
      "ek az ": 6176,
      "ése.\n": 6177,
      "okk": 6178,
      "ban az ": 6179,
      "ettek.\n": 6180,
      " hat ": 6181,
      "cip": 6182,
      "ás miatt ": 6183,
      "jelen ": 6184,
      "érte": 6185,
      "öreg": 6186,
      "ódszer": 6187,
      "A fő": 6188,
      "parancs": 6189,
      " készít": 6190,
      "semmi": 6191,
      "teher": 6192,
      "Károly": 6193,
      "Pár": 6194,
      "io": 6195,
      "tél": 6196,
      "szed": 6197,
      "szim": 6198,
      "álni": 6199,
      "nyereség": 6200,
      ", hogy a h": 6201,
      "otth": 6202,
      "idolg": 6203,
      " a férf": 6204,
      "i kész": 6205,
      "nőtt ": 6206,
      "Magyarország ": 6207,
      ", ső": 6208,
      "legyőz": 6209,
      "Természet": 6210,
      "dám": 6211,
      "lél": 6212,
      "nyar": 6213,
      "ezért": 6214,
      "igh": 6215,
      " péld": 6216,
      "ője, ": 6217,
      "ögött ": 6218,
      "reggel ": 6219,
      "távol": 6220,
      "ígéret": 6221,
      "fgan": 6222,
      "onkrét ": 6223,
      " O": 6224,
      "ler ": 6225,
      " a törvény": 6226,
      "nem f": 6227,
      "nemrég": 6228,
      "Az első ": 6229,
      "nagyság": 6230,
      " azonos ": 6231,
      " számít": 6232,
      "sérült ": 6233,
      "ából.\n": 6234,
      "éjjel": 6235,
      "Spanyol": 6236,
      "aim": 6237,
      "blog": 6238,
      "ítés ": 6239,
      "ity ": 6240,
      " hav": 6241,
      "Szil": 6242,
      " a francia ": 6243,
      "epció": 6244,
      "ick ": 6245,
      "elték ": 6246,
      " számolt ": 6247,
      "Szabolcs": 6248,
      "eszközök": 6249,
      "bukkan": 6250,
      " a szabály": 6251,
      "Hal": 6252,
      "va, ": 6253,
      "ok - ": 6254,
      "írja": 6255,
      "tak a ": 6256,
      " a sajtó": 6257,
      "elvesz": 6258,
      "összecsap": 6259,
      " a munka": 6260,
      "társasági ": 6261,
      "uhan": 6262,
      "sztrájk": 6263,
      "letartóztatás": 6264,
      "oogle ": 6265,
      "onzervatív": 6266,
      "600": 6267,
      "Itt ": 6268,
      "co": 6269,
      "ph": 6270,
      "típus": 6271,
      "ántúl": 6272,
      "ban, a ": 6273,
      "edzés": 6274,
      "ni, hogy ": 6275,
      "udai ": 6276,
      "jelentőség": 6277,
      "talan ": 6278,
      " dön": 6279,
      " sok": 6280,
      "andátum": 6281,
      "ommunikációs ": 6282,
      "!!": 6283,
      "Dávid": 6284,
      "Zal": 6285,
      "rák": 6286,
      "eleti ": 6287,
      " szív": 6288,
      "észre": 6289,
      "jelezte": 6290,
      " a fogyaszt": 6291,
      " a tud": 6292,
      "pontos ": 6293,
      "ására": 6294,
      " nagy ": 6295,
      ", miután ": 6296,
      "frikai ": 6297,
      " teljesít": 6298,
      " aktív": 6299,
      "eink": 6300,
      "ion ": 6301,
      "sújt": 6302,
      "e B": 6303,
      "este": 6304,
      "bban": 6305,
      " vas": 6306,
      "nem kap": 6307,
      "A W": 6308,
      "megállap": 6309,
      " a vált": 6310,
      "Nemzet ": 6311,
      "fokozat": 6312,
      "szeretnék ": 6313,
      " lehet ": 6314,
      "sej": 6315,
      "üszk": 6316,
      "okra": 6317,
      " tavaly ": 6318,
      "ig.\n": 6319,
      "ét, a ": 6320,
      "nik ": 6321,
      " a másik ": 6322,
      "részvétel": 6323,
      "t mag": 6324,
      "ajnai ": 6325,
      "hető.\n": 6326,
      ", mint az ": 6327,
      "éről.\n": 6328,
      ", miért ": 6329,
      " az új ": 6330,
      "onflik": 6331,
      "98": 6332,
      "FT": 6333,
      "ót.\n": 6334,
      " mos": 6335,
      "os Angel": 6336,
      "felügy": 6337,
      " a kar": 6338,
      " közel ": 6339,
      "fél év": 6340,
      "ása szerint": 6341,
      "célja": 6342,
      " kezdemény": 6343,
      "hosszú ": 6344,
      " négy ": 6345,
      " a politikai ": 6346,
      "pozitív": 6347,
      "fajta ": 6348,
      "terror": 6349,
      "-as": 6350,
      "n ": 6351,
      "t ad": 6352,
      "zik": 6353,
      ", C": 6354,
      "érez": 6355,
      " tekint": 6356,
      "utak": 6357,
      "örös ": 6358,
      "ot kap": 6359,
      "járt": 6360,
      ", az A": 6361,
      ", de nem ": 6362,
      "következmény": 6363,
      "énekes": 6364,
      "esen meg": 6365,
      "fejlesztési ": 6366,
      "ellenzéki ": 6367,
      "a M": 6368,
      "esen k": 6369,
      "emberek": 6370,
      "életét ": 6371,
      "egészen ": 6372,
      " a spanyol": 6373,
      "ohány": 6374,
      "lépett ": 6375,
      "különös": 6376,
      "ivatalos ": 6377,
      "repülőtér": 6378,
      "kőzés ": 6379,
      "halm": 6380,
      " mély": 6381,
      " a más": 6382,
      "onyi ": 6383,
      "lehetős": 6384,
      " ezr": 6385,
      "biztosan ": 6386,
      " a nev": 6387,
      " módos": 6388,
      "múl": 6389,
      "sze": 6390,
      "szelvény": 6391,
      "ezeket": 6392,
      "és, ": 6393,
      "ére a ": 6394,
      "193": 6395,
      "beszélt": 6396,
      "baleset ": 6397,
      "negyedik ": 6398,
      "Korább": 6399,
      " Al": 6400,
      "Mi ": 6401,
      "jós": 6402,
      "hogyan": 6403,
      "megbíz": 6404,
      "felül": 6405,
      " a bajnok": 6406,
      "től.\n": 6407,
      " ajánl": 6408,
      " alkalommal": 6409,
      "52": 6410,
      "58": 6411,
      "eik ": 6412,
      "mély": 6413,
      "zó ": 6414,
      "em, ": 6415,
      " tav": 6416,
      "ogtat": 6417,
      ", három": 6418,
      "ókkal": 6419,
      "stad": 6420,
      "ították ": 6421,
      " tudós": 6422,
      " a dél": 6423,
      "Arsen": 6424,
      "on kívül": 6425,
      "gyűlési képviselő": 6426,
      "Persze ": 6427,
      "Kat": 6428,
      "ier": 6429,
      "kockázat": 6430,
      "ráció": 6431,
      "tábor": 6432,
      "őre ": 6433,
      "arag": 6434,
      " az angol": 6435,
      ", már ": 6436,
      " a motor": 6437,
      "ukr": 6438,
      ", és m": 6439,
      "végén ": 6440,
      " bajnok": 6441,
      "nyugod": 6442,
      " az EU": 6443,
      "gyűlési ": 6444,
      "Aki ": 6445,
      "da ": 6446,
      "fagy": 6447,
      "t egy ": 6448,
      "ást, ": 6449,
      "arr": 6450,
      " piac": 6451,
      " a vendég": 6452,
      "ézilabd": 6453,
      "vezetés": 6454,
      "képesség": 6455,
      "vereség": 6456,
      " számos ": 6457,
      "állítás ": 6458,
      "vállalat": 6459,
      "utcai ": 6460,
      "veszteség": 6461,
      "létrehoz": 6462,
      "vájci ": 6463,
      "DNP": 6464,
      "95": 6465,
      "Görög": 6466,
      "bú": 6467,
      "iú": 6468,
      "wit": 6469,
      "on meg": 6470,
      "olják": 6471,
      "ok a ": 6472,
      "utód": 6473,
      "tanú": 6474,
      "orvát ": 6475,
      "regiszt": 6476,
      " teljesítmény": 6477,
      "lezár": 6478,
      "Néhány": 6479,
      "Izra": 6480,
      ".K": 6481,
      "Ph": 6482,
      "kés": 6483,
      "lor": 6484,
      "éh": 6485,
      "éhez": 6486,
      "alép": 6487,
      " kedv": 6488,
      " kellene ": 6489,
      "ni, hogy": 6490,
      "ov (": 6491,
      "vers": 6492,
      "orsod": 6493,
      " adatai ": 6494,
      "usztri": 6495,
      "gondolat": 6496,
      " szakért": 6497,
      "óriás": 6498,
      "büntető": 6499,
      "derül ki": 6500,
      "szerkezet": 6501,
      " által ": 6502,
      "]-": 6503,
      "d ": 6504,
      "ás\n": 6505,
      "ésére": 6506,
      "és sz": 6507,
      "ban van": 6508,
      "osod": 6509,
      "meghatár": 6510,
      "elők ": 6511,
      "niuk": 6512,
      "közül ": 6513,
      "zser": 6514,
      "o R": 6515,
      " alakult ": 6516,
      " négyzet": 6517,
      " keret": 6518,
      " szóló törvény": 6519,
      "Gól": 6520,
      "e szerint": 6521,
      "ot, a ": 6522,
      "sztor": 6523,
      " hib": 6524,
      "észet ": 6525,
      "író ": 6526,
      "bizalm": 6527,
      "őkkel": 6528,
      "létszám": 6529,
      "rosszabb": 6530,
      "A ki": 6531,
      "futó": 6532,
      "ó\n": 6533,
      " férf": 6534,
      "ét a ": 6535,
      "kifizet": 6536,
      " a hitel": 6537,
      " a tart": 6538,
      "igazán": 6539,
      " nagyobb ": 6540,
      "közösség": 6541,
      "tiltak": 6542,
      "fganisztán": 6543,
      "Sem": 6544,
      "klub": 6545,
      "a P": 6546,
      "olum": 6547,
      ", al": 6548,
      " az adat": 6549,
      "leginkább": 6550,
      "áját.\n": 6551,
      "i kapitány": 6552,
      "volt, ": 6553,
      "körzet": 6554,
      "jelenség": 6555,
      "általában": 6556,
      "ták a ": 6557,
      " Tam": 6558,
      "héten ": 6559,
      "akadály": 6560,
      "de": 6561,
      "lím": 6562,
      "sőség": 6563,
      "éseket": 6564,
      "egy másik ": 6565,
      "iki": 6566,
      "szeres ": 6567,
      "ita ": 6568,
      " hamar": 6569,
      "izt": 6570,
      ", mag": 6571,
      ", mikor": 6572,
      " nincs": 6573,
      " tudom": 6574,
      "A munk": 6575,
      "általában ": 6576,
      "érkező ": 6577,
      " távol": 6578,
      " automat": 6579,
      "Tanács ": 6580,
      "gyerek ": 6581,
      "eteor": 6582,
      "mennyiség": 6583,
      "tűz": 6584,
      "szán": 6585,
      " a be": 6586,
      " kelet": 6587,
      " fény": 6588,
      "it, ": 6589,
      "önként": 6590,
      "ontr": 6591,
      "ügyfel": 6592,
      " milliárd euró": 6593,
      " a negyed": 6594,
      "ötven": 6595,
      "szeretne ": 6596,
      "tagja": 6597,
      "irányítás": 6598,
      "nevű": 6599,
      " körülmény": 6600,
      "Gyurcsány Ferenc": 6601,
      " Z": 6602,
      "Rich": 6603,
      "ián": 6604,
      "mester": 6605,
      "akod": 6606,
      "egymás ": 6607,
      "en el": 6608,
      "korú": 6609,
      "ellenes ": 6610,
      "nyerte": 6611,
      " autópály": 6612,
      " nappal": 6613,
      " mellett": 6614,
      " vélemény": 6615,
      " vizsgálat": 6616,
      "jövedelem": 6617,
      " ill.\n": 6618,
      "Eszt": 6619,
      "Hagy": 6620,
      "Ró": 6621,
      "nők ": 6622,
      "tábl": 6623,
      "zón": 6624,
      "Ádám": 6625,
      "szék": 6626,
      "aték": 6627,
      "illeg": 6628,
      " veszt": 6629,
      "A N": 6630,
      "évé": 6631,
      "illanat": 6632,
      "berális ": 6633,
      "Szlováki": 6634,
      "ukat.\n": 6635,
      "órák": 6636,
      "ította a ": 6637,
      " mindkét ": 6638,
      " korlát": 6639,
      " lap": 6640,
      "A másik ": 6641,
      " magam": 6642,
      " változ": 6643,
      "orvosi ": 6644,
      "Real Madrid": 6645,
      "64": 6646,
      "Dom": 6647,
      "Van ": 6648,
      "mit": 6649,
      "man ": 6650,
      "i B": 6651,
      "atos ": 6652,
      " az utolsó ": 6653,
      " tapasztal": 6654,
      "elők": 6655,
      "nak, a ": 6656,
      "igazán ": 6657,
      "végre ": 6658,
      "időben": 6659,
      "ence ": 6660,
      "\" - tette hozzá": 6661,
      " az előző": 6662,
      "Külön": 6663,
      "fur": 6664,
      "i, hogy ": 6665,
      "lad": 6666,
      "Ügy": 6667,
      "en (": 6668,
      " terjed": 6669,
      "adósság": 6670,
      "ográ": 6671,
      " sok ": 6672,
      "ése után": 6673,
      " a legtöbb": 6674,
      "volna a ": 6675,
      " a lég": 6676,
      "éből.\n": 6677,
      "-koreai ": 6678,
      "53": 6679,
      "Tóth": 6680,
      "i\n": 6681,
      "lo": 6682,
      "mit ": 6683,
      "tenni": 6684,
      "szándék": 6685,
      "et, a ": 6686,
      "ezs": 6687,
      "ásban": 6688,
      " az adott ": 6689,
      "töm": 6690,
      "Szín": 6691,
      " addig": 6692,
      "i majd": 6693,
      "anyar": 6694,
      "rendszervált": 6695,
      "gondoskod": 6696,
      "úton ": 6697,
      " teljesen ": 6698,
      "gyűjtemény": 6699,
      "eredetileg": 6700,
      "jét ": 6701,
      "ti ": 6702,
      "vi": 6703,
      "vette ": 6704,
      "a B": 6705,
      "nyúl": 6706,
      "iket ": 6707,
      "be az ": 6708,
      "iver": 6709,
      " a tag": 6710,
      "ilyen k": 6711,
      ", hogy milyen ": 6712,
      "ilyenkor": 6713,
      "üzleti ": 6714,
      "- tájékoztat": 6715,
      " a vállalkoz": 6716,
      "levegő": 6717,
      "Qu": 6718,
      "gárd": 6719,
      "nék": 6720,
      "ítja ": 6721,
      "szerelm": 6722,
      "szerte ": 6723,
      "át az ": 6724,
      "evíz": 6725,
      "televíz": 6726,
      ", azaz": 6727,
      "üggetlen ": 6728,
      "így is ": 6729,
      "hozzájárul": 6730,
      "e: ": 6731,
      "net": 6732,
      "ner ": 6733,
      "vent": 6734,
      "Ör": 6735,
      " a nyugdíj": 6736,
      "ation": 6737,
      "korong": 6738,
      "ai, ": 6739,
      "gyakran": 6740,
      ", sőt ": 6741,
      "Nagyon ": 6742,
      "családi ": 6743,
      "úgy döntött": 6744,
      "három ": 6745,
      " a világ leg": 6746,
      "hajland": 6747,
      "álisan": 6748,
      "parlamenti ": 6749,
      "ékesfehér": 6750,
      "tovább ": 6751,
      "úra": 6752,
      "szerző ": 6753,
      " a hol": 6754,
      " a fal": 6755,
      "usban": 6756,
      "talán ": 6757,
      "lehetséges ": 6758,
      " forinttal": 6759,
      "tudós": 6760,
      "visszatér": 6761,
      " képes ": 6762,
      "főnök": 6763,
      " továbbra is ": 6764,
      "Magyar Nemzet ": 6765,
      "benyújt": 6766,
      "hős": 6767,
      "vív": 6768,
      "ően": 6769,
      "osár": 6770,
      "ide ": 6771,
      "Az MSZP": 6772,
      " többet ": 6773,
      " módon": 6774,
      "jövedelm": 6775,
      ".com": 6776,
      "értesülés": 6777,
      "uralkod": 6778,
      "Ge": 6779,
      "Washingt": 6780,
      "bes": 6781,
      "tüntet": 6782,
      "yom": 6783,
      " később ": 6784,
      "ek, a ": 6785,
      "ota ": 6786,
      "át\n": 6787,
      "legjobb ": 6788,
      " köl": 6789,
      "örg": 6790,
      "számú": 6791,
      "vezetők ": 6792,
      "egész ": 6793,
      "kormányzati ": 6794,
      "repül": 6795,
      " vizsgál": 6796,
      "bőr": 6797,
      "rov": 6798,
      ", A": 6799,
      "eret": 6800,
      "ál ": 6801,
      "álás": 6802,
      "ek szerint": 6803,
      "A l": 6804,
      "irdet": 6805,
      "illiam": 6806,
      "zsák": 6807,
      " sér": 6808,
      " nem tud": 6809,
      "ergely": 6810,
      " szerint a ": 6811,
      "Cap": 6812,
      "ve.\n": 6813,
      "éig ": 6814,
      " mennyiség": 6815,
      "ítható": 6816,
      "és után": 6817,
      " szok": 6818,
      "ő és ": 6819,
      " a karácsony": 6820,
      "usk": 6821,
      "játék ": 6822,
      "én is ": 6823,
      "ai.\n": 6824,
      " az aut": 6825,
      "gyűj": 6826,
      "ennyiben ": 6827,
      "Szabad": 6828,
      "Országgyűlés ": 6829,
      "EU-": 6830,
      "iP": 6831,
      "orod": 6832,
      "emleg": 6833,
      "olás ": 6834,
      " mi ": 6835,
      "ekhez ": 6836,
      "izár": 6837,
      "érték ": 6838,
      "ontin": 6839,
      "t mond": 6840,
      "házi ": 6841,
      "minőség": 6842,
      "onnan": 6843,
      " minőség": 6844,
      "Attila ": 6845,
      "őmérséklet": 6846,
      "Ger": 6847,
      "víz ": 6848,
      "ektár": 6849,
      "eső": 6850,
      "en és ": 6851,
      " férfi": 6852,
      "adta": 6853,
      "igur": 6854,
      "tatási ": 6855,
      "szakad": 6856,
      "kerék": 6857,
      "rendelet": 6858,
      " St": 6859,
      "olvasó": 6860,
      "szky ": 6861,
      "ancou": 6862,
      "Dem": 6863,
      "Kis": 6864,
      "aur": 6865,
      "iban ": 6866,
      "mat": 6867,
      "ohol": 6868,
      "pir": 6869,
      "vin": 6870,
      "elé": 6871,
      " a cél": 6872,
      "omment": 6873,
      "séges": 6874,
      ", a P": 6875,
      " a kész": 6876,
      "ünch": 6877,
      "192": 6878,
      "belép": 6879,
      ", mintha ": 6880,
      "Chels": 6881,
      ", hogy ha ": 6882,
      "felől": 6883,
      "emiatt ": 6884,
      "nyak": 6885,
      " az orosz": 6886,
      "ek is ": 6887,
      "áll.\n": 6888,
      ", még ": 6889,
      "ni, és ": 6890,
      " a fél": 6891,
      " a tár": 6892,
      "ukrán": 6893,
      "főbb ": 6894,
      " az aján": 6895,
      "pénzt ": 6896,
      "tették ": 6897,
      "ifjú": 6898,
      " aktiv": 6899,
      "nyílt ": 6900,
      " úgy": 6901,
      "ck": 6902,
      "ménny": 6903,
      "vat": 6904,
      "onvéd": 6905,
      "A nagy": 6906,
      "ét is ": 6907,
      " a kocs": 6908,
      " a kínai ": 6909,
      "Szal": 6910,
      "unk, ": 6911,
      "ot és ": 6912,
      "viselet": 6913,
      "lesznek ": 6914,
      "vele ": 6915,
      "ünk, ": 6916,
      "pedig a ": 6917,
      "csopor": 6918,
      " aláír": 6919,
      "ionális ": 6920,
      "Más": 6921,
      "jen ": 6922,
      "pal ": 6923,
      "inősít": 6924,
      "edék": 6925,
      "elmélet": 6926,
      " adóz": 6927,
      "tartó ": 6928,
      "arket": 6929,
      " valószínűleg": 6930,
      " nevű": 6931,
      "kereskedelmi ": 6932,
      "-kormány": 6933,
      "Os": 6934,
      "cent": 6935,
      "kó": 6936,
      "süt": 6937,
      "ásról": 6938,
      "áns ": 6939,
      "ozók ": 6940,
      " szolgáltat": 6941,
      "korrup": 6942,
      "értek ": 6943,
      " a hagy": 6944,
      "um ": 6945,
      " ford": 6946,
      "lesz a ": 6947,
      "o M": 6948,
      "erceg": 6949,
      " változat": 6950,
      "ideje ": 6951,
      "jövő év": 6952,
      "tökélet": 6953,
      " állam": 6954,
      "Ek": 6955,
      "Munk": 6956,
      "Ír": 6957,
      "ái ": 6958,
      "eladás": 6959,
      "onk": 6960,
      "on a ": 6961,
      "ésről": 6962,
      " futball": 6963,
      "idény": 6964,
      "ungar": 6965,
      ", amelly": 6966,
      "őriz": 6967,
      "ódi ": 6968,
      "ugyancsak ": 6969,
      "ajnokok ": 6970,
      "bírság": 6971,
      "asonl": 6972,
      "semmilyen ": 6973,
      " órakor": 6974,
      "segítségével": 6975,
      "Tanács": 6976,
      "Nyugat": 6977,
      "David": 6978,
      "bázis": 6979,
      "i adat": 6980,
      "jak": 6981,
      "poszt": 6982,
      "ux": 6983,
      "zenek": 6984,
      "óf": 6985,
      "szállított": 6986,
      "et ad": 6987,
      "anap": 6988,
      "onat": 6989,
      "és miatt ": 6990,
      " szövetség": 6991,
      "összegyű": 6992,
      "főváros": 6993,
      "ette meg": 6994,
      "egészít": 6995,
      " akkori ": 6996,
      "MW": 6997,
      "Nek": 6998,
      "Vill": 6999,
      "váz": 7000,
      "éért ": 7001,
      "arminc": 7002,
      "ajnál": 7003,
      "ák a ": 7004,
      ": H": 7005,
      "édia": 7006,
      "avatkoz": 7007,
      "órak": 7008,
      "döntet": 7009,
      "ismerte": 7010,
      "gólt ": 7011,
      "gondolom": 7012,
      "ezetten ": 7013,
      "Árp": 7014,
      "atolikus ": 7015,
      "ára a ": 7016,
      " az idő": 7017,
      "egyéni ": 7018,
      "A Sz": 7019,
      " a haz": 7020,
      "neki ": 7021,
      "eszély": 7022,
      "jelentést ": 7023,
      "t még ": 7024,
      " darab": 7025,
      "olnár ": 7026,
      "illetve": 7027,
      "ing ": 7028,
      "Indi": 7029,
      "érkezett": 7030,
      " arra, hogy a ": 7031,
      "ürg": 7032,
      "atasztrófavéd": 7033,
      ", miközben": 7034,
      "végrehajt": 7035,
      "i kapcsolat": 7036,
      "-S": 7037,
      "negatív": 7038,
      "égy": 7039,
      "ené": 7040,
      "emat": 7041,
      " karácsony": 7042,
      "akter": 7043,
      "áns": 7044,
      ", hogy fel": 7045,
      " azon ": 7046,
      " a ment": 7047,
      "napokban": 7048,
      "órház ": 7049,
      "című ": 7050,
      "huz": 7051,
      "venni": 7052,
      " előtt": 7053,
      "Jam": 7054,
      "Már ": 7055,
      "iet": 7056,
      "vid": 7057,
      "Így ": 7058,
      "ája.\n": 7059,
      "ans": 7060,
      "azon": 7061,
      "re a ": 7062,
      " a hét ": 7063,
      ", amelyeket ": 7064,
      "elsej": 7065,
      "lenül ": 7066,
      " éves": 7067,
      "végül ": 7068,
      "hoz hasonló": 7069,
      " alkohol": 7070,
      "föld - ": 7071,
      "ei.\n": 7072,
      "park": 7073,
      " haszn": 7074,
      " a forint ": 7075,
      "MNO - KN": 7076,
      "Carl": 7077,
      "C-": 7078,
      "i a": 7079,
      "sít": 7080,
      "svéd": 7081,
      "csoly": 7082,
      "app": 7083,
      "ott meg": 7084,
      "Szint": 7085,
      "t mutat": 7086,
      "ockáz": 7087,
      "energia": 7088,
      "Érdek": 7089,
      "díjas ": 7090,
      "kicsit ": 7091,
      "'s ": 7092,
      "54": 7093,
      "68": 7094,
      "800": 7095,
      "Föld": 7096,
      "RFK": 7097,
      "e, hogy ": 7098,
      "jének ": 7099,
      "kísér": 7100,
      "rob": 7101,
      "állás ": 7102,
      " a képviselő": 7103,
      "napos ": 7104,
      "obbant": 7105,
      "harminc": 7106,
      "jegyző": 7107,
      ", melynek ": 7108,
      " abban ": 7109,
      "köztük ": 7110,
      "révén": 7111,
      "Fotó: ": 7112,
      "Eredmény": 7113,
      "Bank ": 7114,
      "junk ": 7115,
      "kiderül": 7116,
      "yn": 7117,
      "i rész": 7118,
      "ot a ": 7119,
      "adék ": 7120,
      "integ": 7121,
      "felett": 7122,
      "kivál": 7123,
      " a mind": 7124,
      " német ": 7125,
      "egy olyan ": 7126,
      "ása után": 7127,
      " az emberek ": 7128,
      "kötelező": 7129,
      "természetesen ": 7130,
      " nehéz ": 7131,
      "BKV": 7132,
      "birtok": 7133,
      "Úgy ": 7134,
      "intenz": 7135,
      " közül": 7136,
      " forgat": 7137,
      " feltétel": 7138,
      "végzett ": 7139,
      " elején": 7140,
      "folyó": 7141,
      "riaszt": 7142,
      "ták meg": 7143,
      " vezető ": 7144,
      "lepő": 7145,
      "futball": 7146,
      " a műsor": 7147,
      "Hírek - ": 7148,
      " próbál": 7149,
      "- tette hozzá.\n": 7150,
      "ajnokok Lig": 7151,
      "59": 7152,
      "kampány": 7153,
      "oz ": 7154,
      " az [origo": 7155,
      "esi ": 7156,
      "egyetlen": 7157,
      "án, ": 7158,
      " fed": 7159,
      "évek": 7160,
      "hatalm": 7161,
      "hatály": 7162,
      "nak meg": 7163,
      " a szocial": 7164,
      ", de m": 7165,
      "óként ": 7166,
      "elnevez": 7167,
      " br": 7168,
      "ése szerint": 7169,
      " elnöke ": 7170,
      "köszönhetően ": 7171,
      "kapitányság": 7172,
      "vadász": 7173,
      "\"A ": 7174,
      "pát": 7175,
      "óan ": 7176,
      "s (": 7177,
      "áson": 7178,
      " kívül": 7179,
      " hol": 7180,
      " húz": 7181,
      "ban és ": 7182,
      "áltak": 7183,
      "vezet ": 7184,
      " a kórház": 7185,
      ", az E": 7186,
      " tömeg": 7187,
      "ásokra ": 7188,
      "igyek": 7189,
      ", minden": 7190,
      "valaki ": 7191,
      "):": 7192,
      "bo": 7193,
      "ret": 7194,
      "atott ": 7195,
      "nemcsak": 7196,
      "oldal ": 7197,
      "olvashat": 7198,
      ", hiszen a ": 7199,
      " változtat": 7200,
      "lovén": 7201,
      " a kapcsolat": 7202,
      "Ok": 7203,
      "belső": 7204,
      "cz": 7205,
      "másod": 7206,
      " a csapat": 7207,
      "ena": 7208,
      "esc": 7209,
      "egyven": 7210,
      "ik, hogy ": 7211,
      ", a C": 7212,
      "értesít": 7213,
      "abor": 7214,
      " a szül": 7215,
      "obális ": 7216,
      "ombati ": 7217,
      "történet ": 7218,
      "ítanak ": 7219,
      "nyújtott ": 7220,
      "elektrom": 7221,
      ", miközben ": 7222,
      "67": 7223,
      "fi ": 7224,
      "sal ": 7225,
      "ezár": 7226,
      "ásokat": 7227,
      "aks": 7228,
      "egykor": 7229,
      " finanszír": 7230,
      "kielég": 7231,
      "kibocsát": 7232,
      ", aminek ": 7233,
      "írta ": 7234,
      " a meccs": 7235,
      "rej": 7236,
      "nem csak ": 7237,
      "ába, ": 7238,
      "képvisel": 7239,
      " százalékot ": 7240,
      " a legjobb ": 7241,
      "rich": 7242,
      " visszatér": 7243,
      "egy kis ": 7244,
      "telenség": 7245,
      ", minden ": 7246,
      "Balázs ": 7247,
      " milliárd forintot ": 7248,
      "díjat ": 7249,
      "üszöb": 7250,
      " sor": 7251,
      "\"\n": 7252,
      "Mc": 7253,
      "Som": 7254,
      "Tar": 7255,
      "Ukr": 7256,
      "uf": 7257,
      " az I": 7258,
      "abri": 7259,
      " a vásár": 7260,
      " többség": 7261,
      "i tiszt": 7262,
      " március": 7263,
      "elveszt": 7264,
      "igyeksz": 7265,
      "juk.\n": 7266,
      "gyorsan": 7267,
      "gyorsan ": 7268,
      "rögzít": 7269,
      "Ágn": 7270,
      "Gord": 7271,
      "Nic": 7272,
      "dup": 7273,
      "u ": 7274,
      "szánt ": 7275,
      "t - ": 7276,
      "gyüm": 7277,
      "hogyan ": 7278,
      "épület ": 7279,
      "évben": 7280,
      "kij": 7281,
      " a halál": 7282,
      "ájában ": 7283,
      " vannak ": 7284,
      "afut": 7285,
      "közötti ": 7286,
      "ekkora ": 7287,
      "L-": 7288,
      "a, és ": 7289,
      "tol": 7290,
      "elked": 7291,
      "októl": 7292,
      "iltak": 7293,
      ", a Fidesz": 7294,
      "ok között ": 7295,
      "fel ": 7296,
      " alul": 7297,
      "egy olyan": 7298,
      " a vélemény": 7299,
      "eket is ": 7300,
      "értékel": 7301,
      " végén ": 7302,
      "vándor": 7303,
      " helyett ": 7304,
      "ötét": 7305,
      " Gábor": 7306,
      "Nyír": 7307,
      "eljárást ": 7308,
      "atlanul": 7309,
      "bejelentette": 7310,
      "előrejelzés": 7311,
      " szóvivője ": 7312,
      "örösiszap": 7313,
      "66": 7314,
      "Láz": 7315,
      "Nincs ": 7316,
      "hegy": 7317,
      "kis ": 7318,
      "rett": 7319,
      "eni, ": 7320,
      "inak": 7321,
      "ez az ": 7322,
      "át, és ": 7323,
      "ult.\n": 7324,
      "otta a ": 7325,
      "os és ": 7326,
      "nekem": 7327,
      " a térség": 7328,
      "szakember": 7329,
      "ében, ": 7330,
      ", akit": 7331,
      "Ezek": 7332,
      "Ezek ": 7333,
      "holland": 7334,
      "eztem": 7335,
      "gyakran ": 7336,
      "Központi ": 7337,
      "javítás": 7338,
      " valószínű": 7339,
      " autó ": 7340,
      ". kerület": 7341,
      "ecskemét": 7342,
      "Lar": 7343,
      "Pénz": 7344,
      "elhagy": 7345,
      " a bank": 7346,
      "okban.\n": 7347,
      "advány": 7348,
      "ki, ": 7349,
      " a már": 7350,
      "epp": 7351,
      ", de ez ": 7352,
      " százalékos": 7353,
      "többet ": 7354,
      "időn": 7355,
      "ték.\n": 7356,
      "ellenőriz": 7357,
      "indokol": 7358,
      "becsl": 7359,
      "Imre ": 7360,
      " alkalommal ": 7361,
      "passz": 7362,
      "hová": 7363,
      "ülly": 7364,
      "átalakítás": 7365,
      " fogyaszt": 7366,
      "indít": 7367,
      "ás és ": 7368,
      "odik ": 7369,
      "usban ": 7370,
      " a tény": 7371,
      "ókerület": 7372,
      "ítottak ": 7373,
      " végül": 7374,
      "érdekes ": 7375,
      " alatt.\n": 7376,
      " akarja ": 7377,
      "ekkel.\n": 7378,
      "idején ": 7379,
      " millió forintot ": 7380,
      "Bizt": 7381,
      "Bár ": 7382,
      "KB": 7383,
      "Mil": 7384,
      "Múlt": 7385,
      "bány": 7386,
      "bolt": 7387,
      "kamat": 7388,
      " konc": 7389,
      "ardi": 7390,
      " töl": 7391,
      "átalak": 7392,
      "itársaság": 7393,
      "évre ": 7394,
      "ok szerint ": 7395,
      "ért felelős ": 7396,
      "191": 7397,
      " volt, ": 7398,
      "jegyezte": 7399,
      " a nép": 7400,
      "áború": 7401,
      "megfelelően ": 7402,
      "szenvedett ": 7403,
      "csatlakoz": 7404,
      "Ott": 7405,
      "Sok ": 7406,
      "ce ": 7407,
      "ni k": 7408,
      "ork": 7409,
      "ésére.\n": 7410,
      " alig ": 7411,
      " meg.\n": 7412,
      "vagyunk": 7413,
      "verzió": 7414,
      "Antal": 7415,
      " alkalmas": 7416,
      "hangulat": 7417,
      " szakember": 7418,
      "vásárl": 7419,
      "ítanak": 7420,
      "kilométer": 7421,
      "infláció": 7422,
      "Lengyel": 7423,
      "sos": 7424,
      "sír": 7425,
      "sburg": 7426,
      "ó m": 7427,
      "ali": 7428,
      "orl": 7429,
      " tulajdon": 7430,
      " vendég": 7431,
      " a szolgáltat": 7432,
      "imir": 7433,
      "őkén": 7434,
      "tartani": 7435,
      "stb": 7436,
      "ni és ": 7437,
      "védő": 7438,
      "andr": 7439,
      "mondani": 7440,
      "ertőz": 7441,
      "ucat": 7442,
      " azt mondta:": 7443,
      "Állami ": 7444,
      "sikeres ": 7445,
      "hivatalos ": 7446,
      "vétel ": 7447,
      "tényleg": 7448,
      " származó ": 7449,
      "november ": 7450,
      " született ": 7451,
      "onald": 7452,
      "nyire ": 7453,
      "léktalan": 7454,
      "tavasz": 7455,
      "-e a ": 7456,
      "irend": 7457,
      "És": 7458,
      "ető": 7459,
      "er (": 7460,
      "i V": 7461,
      "onet": 7462,
      "ésben": 7463,
      "ed B": 7464,
      "ábító": 7465,
      "hozta ": 7466,
      "helyezett ": 7467,
      "többsége ": 7468,
      "értékű": 7469,
      ", aztán": 7470,
      "továbbra ": 7471,
      "szerződést ": 7472,
      "acsk": 7473,
      "emlékez": 7474,
      " szintén": 7475,
      "olcsóbb": 7476,
      "folyamatosan ": 7477,
      "szerencsét": 7478,
      "berendezés": 7479,
      "+ ": 7480,
      "-amer": 7481,
      "érv": 7482,
      "ikl": 7483,
      "jelző": 7484,
      "real": 7485,
      "olták ": 7486,
      "Szent ": 7487,
      " a férfi ": 7488,
      " a tárgyal": 7489,
      "számára.\n": 7490,
      "eltség": 7491,
      "keleti ": 7492,
      "állítani": 7493,
      " mondja ": 7494,
      "erősebb": 7495,
      "MNB": 7496,
      " készített ": 7497,
      "onnal": 7498,
      " tanul": 7499,
      "rendkívüli ": 7500,
      "rögtön": 7501,
      ". kerületi ": 7502,
      "japán": 7503,
      "PEH": 7504,
      " ügy": 7505,
      " oldal": 7506,
      "ója": 7507,
      ", ill.\n": 7508,
      "éséhez ": 7509,
      "okr": 7510,
      "ok, a ": 7511,
      "A \"": 7512,
      "amos": 7513,
      "agu": 7514,
      " a külön": 7515,
      " kötött ": 7516,
      "tervezet": 7517,
      "iránt": 7518,
      " a tém": 7519,
      "lengyel ": 7520,
      "tek a ": 7521,
      " december": 7522,
      "lanul": 7523,
      " mindent ": 7524,
      "ette az ": 7525,
      "pih": 7526,
      "sokan ": 7527,
      "igazgató ": 7528,
      "hagyomány": 7529,
      "vásárlás": 7530,
      "futam": 7531,
      "veszélyes ": 7532,
      "biztosítási ": 7533,
      "ekvő ": 7534,
      "anélküliség": 7535,
      "anchester ": 7536,
      "Tor": 7537,
      "jót": 7538,
      "kat ": 7539,
      "zak": 7540,
      "elind": 7541,
      "et, és ": 7542,
      "in (": 7543,
      "áshoz ": 7544,
      "ést, ": 7545,
      "üly": 7546,
      " harmad": 7547,
      "ki az ": 7548,
      "ált.\n": 7549,
      "re is ": 7550,
      "olgálat": 7551,
      "őkép": 7552,
      "rendszeresen ": 7553,
      "egyensúly": 7554,
      "gyorsabb": 7555,
      " alkalmazott": 7556,
      "egyetért": 7557,
      "IF": 7558,
      "kárty": 7559,
      "lav": 7560,
      "meleg": 7561,
      "űnik ": 7562,
      "anak.\n": 7563,
      "ini ": 7564,
      "arch": 7565,
      "bevon": 7566,
      " megfelelő": 7567,
      "egy rész": 7568,
      " a volt ": 7569,
      "i kérdés": 7570,
      " a budapesti ": 7571,
      "ica ": 7572,
      " sport": 7573,
      "pénzügy": 7574,
      "határozott ": 7575,
      "i hír": 7576,
      "ként a ": 7577,
      " a forgalom": 7578,
      "Árpád": 7579,
      "aid": 7580,
      "sincs ": 7581,
      "art ": 7582,
      "szer ": 7583,
      " szor": 7584,
      "ám ": 7585,
      "hetik ": 7586,
      " kötet": 7587,
      "nak és ": 7588,
      "jelentés ": 7589,
      "volt az ": 7590,
      "színvonal": 7591,
      " tartózkod": 7592,
      "Nagy ": 7593,
      " kedden ": 7594,
      " alacsonyabb": 7595,
      "Robert ": 7596,
      "réteg": 7597,
      "lehetősen ": 7598,
      "Múlt-kor": 7599,
      ". március ": 7600,
      "69": 7601,
      "88": 7602,
      "szezon": 7603,
      "a szerint": 7604,
      "ezi": 7605,
      " a szív": 7606,
      "napján": 7607,
      "üket.\n": 7608,
      " évre ": 7609,
      "követő ": 7610,
      "körében ": 7611,
      "ése miatt ": 7612,
      "nyugdíjrendszer": 7613,
      "tagjai ": 7614,
      "ással.\n": 7615,
      "onzor": 7616,
      "garanci": 7617,
      "Zrt. ": 7618,
      "panasz": 7619,
      "oxid": 7620,
      "portál - ": 7621,
      "Címkék:": 7622,
      " történelmi portál - ": 7623,
      "Ukrajn": 7624,
      "Múlt-kor történelmi portál - ": 7625,
      "Dr. ": 7626,
      "fék": 7627,
      "tit": 7628,
      "tilt": 7629,
      "zék ": 7630,
      "enj": 7631,
      "ezred": 7632,
      "akkal": 7633,
      "egyeb": 7634,
      "csk": 7635,
      "inter": 7636,
      "urn": 7637,
      "kezel": 7638,
      "ábráz": 7639,
      "pressz": 7640,
      "napja": 7641,
      " a bér": 7642,
      " súly": 7643,
      "intézet ": 7644,
      "csatár": 7645,
      "garant": 7646,
      "kötvény": 7647,
      "pénteken": 7648,
      "vezetője.\n": 7649,
      " színész": 7650,
      "projekt": 7651,
      "fontosabb ": 7652,
      "stratégi": 7653,
      "gyanúja ": 7654,
      " első ": 7655,
      "- amely": 7656,
      "Bul": 7657,
      "Hajd": 7658,
      "Reg": 7659,
      "üh": 7660,
      "szár": 7661,
      "elhuny": 7662,
      "okol": 7663,
      "nem ad": 7664,
      "udarc": 7665,
      ": S": 7666,
      " felelő": 7667,
      "órás ": 7668,
      "ával, ": 7669,
      "icit": 7670,
      "általán": 7671,
      " tartoz": 7672,
      " a Fővárosi ": 7673,
      "brazil": 7674,
      " a pénztár": 7675,
      "technikai ": 7676,
      ", addig": 7677,
      "június ": 7678,
      " környezet": 7679,
      "Nagy-Britanni": 7680,
      "huzam": 7681,
      " csapat": 7682,
      "Ju": 7683,
      "Tr": 7684,
      "bab": 7685,
      "karácsony": 7686,
      "tők": 7687,
      "ú, ": 7688,
      "győ": 7689,
      "erkölcs": 7690,
      "e C": 7691,
      "felel": 7692,
      "ában és ": 7693,
      "mindig": 7694,
      "mindent ": 7695,
      "iptom": 7696,
      "választás ": 7697,
      ", ezzel": 7698,
      "például ": 7699,
      "rosszul": 7700,
      " magasabb": 7701,
      "édesany": 7702,
      "+ K": 7703,
      "Kedd": 7704,
      "erem": 7705,
      "on túl": 7706,
      "ét, és ": 7707,
      " hazai ": 7708,
      "ni, de ": 7709,
      "hatnak.\n": 7710,
      " közzét": 7711,
      "pontosan": 7712,
      "elnöke.\n": 7713,
      "választások ": 7714,
      "eiben ": 7715,
      "játszott ": 7716,
      "különösen ": 7717,
      "valóban ": 7718,
      " munkahely": 7719,
      " aztán ": 7720,
      "módszer": 7721,
      " maradt ": 7722,
      ", akiknek ": 7723,
      "Jelenleg": 7724,
      "Pal": 7725,
      "budapesti ": 7726,
      "hő": 7727,
      "hideg": 7728,
      "mal ": 7729,
      "sofőr": 7730,
      "yk": 7731,
      "zott": 7732,
      "szün": 7733,
      "akozás": 7734,
      "ilozó": 7735,
      " part": 7736,
      "tern": 7737,
      "nak majd": 7738,
      "tartózkod": 7739,
      "ókat.\n": 7740,
      " évvel ez": 7741,
      " azonnal ": 7742,
      "jának": 7743,
      "optim": 7744,
      "ennyit ": 7745,
      "útvonal": 7746,
      " rossz": 7747,
      "drám": 7748,
      "Közép": 7749,
      "vizsgálat ": 7750,
      "Miklós": 7751,
      "kínál": 7752,
      "várhatóan ": 7753,
      "vájci f": 7754,
      "hoz képest ": 7755,
      "reagál": 7756,
      "-Z": 7757,
      ". (": 7758,
      "Gal": 7759,
      "Tö": 7760,
      "X-": 7761,
      "statiszt": 7762,
      "elet ": 7763,
      " a lap": 7764,
      "a S": 7765,
      "a és a ": 7766,
      "és a f": 7767,
      "ítva ": 7768,
      " tev": 7769,
      " tulajdonos": 7770,
      "ulás ": 7771,
      ", ami m": 7772,
      "írja a ": 7773,
      "ta, hogy ": 7774,
      " köb": 7775,
      " a túl": 7776,
      "számítás": 7777,
      "óról": 7778,
      " együtt ": 7779,
      "történt": 7780,
      "erősen ": 7781,
      "en keresztül": 7782,
      "tevékeny": 7783,
      " múlva ": 7784,
      "jellegű": 7785,
      "anchester United": 7786,
      "Még ": 7787,
      "Míg": 7788,
      "aik ": 7789,
      "fell": 7790,
      " kin": 7791,
      "ot ad": 7792,
      " techn": 7793,
      "A cég": 7794,
      " a megy": 7795,
      " a szezon": 7796,
      "i minisztérium": 7797,
      "letölt": 7798,
      "\" - fogalmaz": 7799,
      " visszav": 7800,
      "ayern": 7801,
      "Zsuzs": 7802,
      "likk": 7803,
      "olvaj": 7804,
      "segély": 7805,
      "lekedési ": 7806,
      "Múlt-kor történelmi portál - Hírek - ": 7807,
      "D-": 7808,
      "e, hogy": 7809,
      "katon": 7810,
      "sár": 7811,
      "özés": 7812,
      "szegény": 7813,
      "ánia ": 7814,
      "kiállítás": 7815,
      "indiai ": 7816,
      "járó": 7817,
      "ódos": 7818,
      "óknak": 7819,
      "többek között": 7820,
      "eket és ": 7821,
      "Ang": 7822,
      "Ann": 7823,
      " helyen ": 7824,
      "ón ": 7825,
      " arról, hogy ": 7826,
      " a parlament ": 7827,
      "eptember ": 7828,
      "tapasztalat": 7829,
      " a társadalom": 7830,
      "beszerzési ": 7831,
      "Mesterházy ": 7832,
      "Pat": 7833,
      "ine ": 7834,
      "nyal ": 7835,
      "ási k": 7836,
      " kés": 7837,
      " húsz": 7838,
      "ta, ": 7839,
      "erületi ": 7840,
      ", amelyben": 7841,
      "ni tud": 7842,
      "tak, ": 7843,
      "döntő ": 7844,
      "eredmények": 7845,
      "talanul": 7846,
      "Balog": 7847,
      " fontos": 7848,
      "szakértők ": 7849,
      "ikiLe": 7850,
      "Vol": 7851,
      "aink": 7852,
      "hid": 7853,
      "och": 7854,
      "e el": 7855,
      " az európai ": 7856,
      "ek fel": 7857,
      " szenved": 7858,
      " azt az ": 7859,
      "ázz": 7860,
      "közönség": 7861,
      "korcsoly": 7862,
      "vallás": 7863,
      "örd": 7864,
      " a büntet": 7865,
      "követel": 7866,
      " foglal": 7867,
      "hozzá.\n": 7868,
      "lesztési ": 7869,
      "éről ": 7870,
      "ozza": 7871,
      "régi ": 7872,
      "nyitott ": 7873,
      "átlagosan ": 7874,
      " fejlőd": 7875,
      "remek": 7876,
      "strukt": 7877,
      "kedvezmény": 7878,
      "(K": 7879,
      "-nyugdíjpénztár": 7880,
      ". és ": 7881,
      "62": 7882,
      "Amerik": 7883,
      "Bél": 7884,
      "kinek ": 7885,
      "ma": 7886,
      "sh": 7887,
      "a van": 7888,
      " az utóbbi ": 7889,
      " az összes ": 7890,
      "szerezte ": 7891,
      "átus ": 7892,
      ", a T": 7893,
      "beavatkoz": 7894,
      "jelz": 7895,
      "országgyűlési képviselő": 7896,
      "unkció": 7897,
      "össze.\n": 7898,
      "vezetés ": 7899,
      "ában a ": 7900,
      " Kft": 7901,
      "től ": 7902,
      "i hát": 7903,
      "épített ": 7904,
      "utasítás": 7905,
      "Christ": 7906,
      "részvények ": 7907,
      "vezérigazgató": 7908,
      "őrizetbe v": 7909,
      "produkció": 7910,
      "Egészség": 7911,
      "700": 7912,
      "iben ": 7913,
      "ire ": 7914,
      "já": 7915,
      "a után": 7916,
      "a volt": 7917,
      "ásai ": 7918,
      " kampány": 7919,
      "egyén": 7920,
      "án\n": 7921,
      " hisz": 7922,
      ", a F": 7923,
      "ő is ": 7924,
      " megbíz": 7925,
      "nak is ": 7926,
      " a szükség": 7927,
      "tartozó ": 7928,
      " felé": 7929,
      "ók, ": 7930,
      " bor": 7931,
      "okat is ": 7932,
      " lett": 7933,
      "kollég": 7934,
      "valami ": 7935,
      " a közel": 7936,
      "parkol": 7937,
      "tóbb": 7938,
      "délután ": 7939,
      "frakció": 7940,
      "- írja": 7941,
      "Mint mondta": 7942,
      "önyör": 7943,
      "Dáni": 7944,
      "Két": 7945,
      "fenyeget": 7946,
      "lés ": 7947,
      "londoni ": 7948,
      "rug": 7949,
      "és a p": 7950,
      "est m": 7951,
      " tett ": 7952,
      "amu": 7953,
      "leír": 7954,
      "hatják": 7955,
      "ban lévő ": 7956,
      "prom": 7957,
      "helyre": 7958,
      "imn": 7959,
      " milliós ": 7960,
      "külföld": 7961,
      "idők ": 7962,
      "esetre ": 7963,
      " annyi ": 7964,
      " módon ": 7965,
      "hez képest ": 7966,
      "egyaránt ": 7967,
      "ed Bull": 7968,
      "Vár": 7969,
      "Veszprém": 7970,
      "cáf": 7971,
      "disz": 7972,
      "saját": 7973,
      "t, hogy a ": 7974,
      "szenny": 7975,
      "a fel": 7976,
      "nem fel": 7977,
      "entrál": 7978,
      ": L": 7979,
      "egy új": 7980,
      "nagykövet": 7981,
      "ük a ": 7982,
      "esztend": 7983,
      "i tulajdon": 7984,
      " szempont": 7985,
      ", hogy mi ": 7986,
      " kormányz": 7987,
      "jövőben ": 7988,
      "fejlesztés": 7989,
      " módosítás": 7990,
      "Egyesült Államok ": 7991,
      "közlekedési ": 7992,
      " belül": 7993,
      " km/": 7994,
      "72": 7995,
      "William": 7996,
      "bem": 7997,
      "február ": 7998,
      "hajnal": 7999,
      "szöveg": 8000,
      "szombaton": 8001,
      "t jelent": 8002,
      " miniszterelnök ": 8003,
      "átad": 8004,
      " fenyeget": 8005,
      "ogn": 8006,
      ", hogy el": 8007,
      "nek meg": 8008,
      "unkat": 8009,
      "almat ": 8010,
      "ellenfél": 8011,
      "tek, ": 8012,
      "enyeg": 8013,
      "ártér": 8014,
      "honn": 8015,
      "orvos ": 8016,
      " műv": 8017,
      "hangsúlyozta": 8018,
      "záró": 8019,
      "fekv": 8020,
      "gyermek ": 8021,
      "Újp": 8022,
      "folyamatosan": 8023,
      " védelm": 8024,
      " alatti ": 8025,
      "illetékes ": 8026,
      "witter": 8027,
      "ontroll": 8028,
      "-ben.\n": 8029,
      "Jap": 8030,
      "merül": 8031,
      "sé": 8032,
      "tánc": 8033,
      "erk": 8034,
      "onst": 8035,
      "ás-": 8036,
      "egy hónap": 8037,
      "ik, hogy": 8038,
      "adsereg": 8039,
      " hajnal": 8040,
      "ért, ": 8041,
      "abizt": 8042,
      "nem ismer": 8043,
      "eszm": 8044,
      "merény": 8045,
      "tetsz": 8046,
      "többen ": 8047,
      "a mellett ": 8048,
      "tak az ": 8049,
      "választások": 8050,
      "található": 8051,
      "építő": 8052,
      "plusz": 8053,
      "visszaes": 8054,
      " tanulmány": 8055,
      "figyelmeztet": 8056,
      "izraeli ": 8057,
      "63": 8058,
      "=\"": 8059,
      "Paul": 8060,
      "Víz": 8061,
      "űz ": 8062,
      " kedvez": 8063,
      "egy v": 8064,
      "ás meg": 8065,
      "on (": 8066,
      "ja el": 8067,
      "ódó ": 8068,
      "végz": 8069,
      "elsősorban ": 8070,
      " saját ": 8071,
      "jelenet": 8072,
      " lett ": 8073,
      "térség": 8074,
      "semmit ": 8075,
      " munka": 8076,
      "délelőtt ": 8077,
      "minim": 8078,
      "vásárló": 8079,
      " tanács": 8080,
      " a színész": 8081,
      ", azonban": 8082,
      "onfliktus": 8083,
      "Görögország": 8084,
      " áll": 8085,
      "XI": 8086,
      "gomb": 8087,
      "ster": 8088,
      "íli": 8089,
      "erény": 8090,
      "cső": 8091,
      " az az ": 8092,
      "ben, a ": 8093,
      "irat ": 8094,
      "ehet ": 8095,
      "nyomán": 8096,
      "gyengül": 8097,
      "hozzátéve": 8098,
      "bővül": 8099,
      " termék": 8100,
      "Szerinte ": 8101,
      "onttal ": 8102,
      "uttó ": 8103,
      "kapcsán": 8104,
      "üsszel": 8105,
      "Jul": 8106,
      "Mal": 8107,
      "pul": 8108,
      "ton": 8109,
      "á vált": 8110,
      "őleg": 8111,
      "gyar": 8112,
      "a el": 8113,
      "ású ": 8114,
      " vette ": 8115,
      "átsz": 8116,
      " hektár": 8117,
      "ben van": 8118,
      " polgármester": 8119,
      " a vér": 8120,
      " a vas": 8121,
      ", az MSZP": 8122,
      "játssz": 8123,
      "nál is ": 8124,
      "csak egy ": 8125,
      " bűn": 8126,
      "kormányfő": 8127,
      "válogatott": 8128,
      ") Gól": 8129,
      "nél.\n": 8130,
      " válság": 8131,
      "nyomozás ": 8132,
      " a közlemény": 8133,
      "dolgozó ": 8134,
      " anyagi ": 8135,
      "-Kor": 8136,
      "szolgálat ": 8137,
      "Csaba ": 8138,
      "japán ": 8139,
      "július ": 8140,
      "-amerikai ": 8141,
      "-nak ": 8142,
      "61": 8143,
      "Eur": 8144,
      "kai ": 8145,
      "sajnos ": 8146,
      "ária ": 8147,
      " az olasz": 8148,
      " tölt": 8149,
      "isebb": 8150,
      "utak ": 8151,
      " az, hogy ": 8152,
      " hasonló": 8153,
      "elő.\n": 8154,
      "öng": 8155,
      " a vill": 8156,
      "tatott ": 8157,
      "fia ": 8158,
      "értéke ": 8159,
      " hatalmas ": 8160,
      "tagja ": 8161,
      "zárt ": 8162,
      " százalékkal csökkent": 8163,
      "tanácsadó": 8164,
      "Lajos": 8165,
      "büszk": 8166,
      "laz": 8167,
      "pszich": 8168,
      "ík": 8169,
      " a következő ": 8170,
      "ezent": 8171,
      "otal": 8172,
      "ni, a ": 8173,
      "val ": 8174,
      "Az el": 8175,
      "el és ": 8176,
      "ra, a ": 8177,
      "usok ": 8178,
      "A mag": 8179,
      "nyomozás": 8180,
      "szoros ": 8181,
      " László ": 8182,
      "növény": 8183,
      " ezer forint ": 8184,
      "fontosság": 8185,
      "Szerencs": 8186,
      " legal": 8187,
      "own": 8188,
      "gyenge ": 8189,
      "technik": 8190,
      "Az Európai ": 8191,
      "ommunikáció": 8192,
      "Horváth": 8193,
      "onetáris ": 8194,
      " olyan": 8195,
      "09": 8196,
      "DA": 8197,
      "Kol": 8198,
      "Utóbb": 8199,
      "bul": 8200,
      "cukor": 8201,
      "i al": 8202,
      " a több": 8203,
      "alíció": 8204,
      " kéz": 8205,
      "enti ": 8206,
      "ik el": 8207,
      "tartomány": 8208,
      " - mondta ": 8209,
      " bet": 8210,
      "eck": 8211,
      "történelem": 8212,
      "induló ": 8213,
      "tették": 8214,
      "területén": 8215,
      "onnan ": 8216,
      "egyszerűen ": 8217,
      "Címkék: ": 8218,
      "RTL": 8219,
      "előzetes letartóztatás": 8220,
      "elektronikus ": 8221,
      "emleget": 8222,
      "gyümölcs": 8223,
      " A ": 8224,
      " csak": 8225,
      "87": 8226,
      "Ver": 8227,
      "bak": 8228,
      "a T": 8229,
      "ásában": 8230,
      "csúz": 8231,
      "okhoz ": 8232,
      " fős ": 8233,
      "ékhely": 8234,
      " az ar": 8235,
      "ajon": 8236,
      "izz": 8237,
      "astr": 8238,
      "hatunk ": 8239,
      "ja majd": 8240,
      "ájuk": 8241,
      "i két ": 8242,
      "zetes": 8243,
      " felhasznál": 8244,
      " egyszer": 8245,
      "stáb": 8246,
      "március ": 8247,
      " akart ": 8248,
      "ikusan": 8249,
      "iskolai ": 8250,
      " a munkahely": 8251,
      "érzékeny": 8252,
      "cikk ": 8253,
      ", mégis ": 8254,
      "jelentette be": 8255,
      "keretében ": 8256,
      "anadai ": 8257,
      "elemzők ": 8258,
      "rankfur": 8259,
      "bajnoki cím": 8260,
      "sugár": 8261,
      "-en ": 8262,
      "eivel": 8263,
      "sincs": 8264,
      "wood": 8265,
      "e - ": 8266,
      " ma ": 8267,
      "aktor": 8268,
      "ess ": 8269,
      "odr": 8270,
      "nak tűn": 8271,
      "ja fel": 8272,
      "vezeték": 8273,
      "ében a ": 8274,
      "lószelvény": 8275,
      "Azért ": 8276,
      "rá.\n": 8277,
      "politika ": 8278,
      ", ezt ": 8279,
      "kezdet": 8280,
      "dolgozók ": 8281,
      "Miért ": 8282,
      "költöz": 8283,
      "Kapusok": 8284,
      ". percben ": 8285,
      "130": 8286,
      "Los Angel": 8287,
      "aci": 8288,
      "lök": 8289,
      "xc": 8290,
      "xd": 8291,
      "őzsd": 8292,
      "ása, ": 8293,
      "aks ": 8294,
      "élked": 8295,
      "nia.\n": 8296,
      "kora ": 8297,
      "terület ": 8298,
      "tej": 8299,
      " felett": 8300,
      " évben ": 8301,
      "gatóság": 8302,
      "eltávol": 8303,
      "Ez a ": 8304,
      "szerű ": 8305,
      "tak meg": 8306,
      " még nem ": 8307,
      "pártok ": 8308,
      "forgalmaz": 8309,
      " viszont": 8310,
      " hangsúlyoz": 8311,
      "eink ": 8312,
      " elleni ": 8313,
      "különböző": 8314,
      "ésbé ": 8315,
      "Végül": 8316,
      "Janu": 8317,
      "ercedes ": 8318,
      "-jelölt": 8319,
      "iát": 8320,
      "pap": 8321,
      "elvár": 8322,
      " az is": 8323,
      " férfi ": 8324,
      "adém": 8325,
      "séggel": 8326,
      "lef": 8327,
      "évvel": 8328,
      "vallom": 8329,
      "ákat.\n": 8330,
      " a kampány": 8331,
      "irk": 8332,
      ", hely": 8333,
      " a baj": 8334,
      "180": 8335,
      "zárkóz": 8336,
      "emelkedett": 8337,
      "okkal.\n": 8338,
      "informat": 8339,
      "harmados ": 8340,
      "szigorú": 8341,
      "idő szerint ": 8342,
      "méteres ": 8343,
      "befolyásol": 8344,
      "Franciaország": 8345,
      "ábítószer": 8346,
      " Cs": 8347,
      "A következ": 8348,
      "Sal": 8349,
      "hárm": 8350,
      "i adó": 8351,
      "rap": 8352,
      "t, az ": 8353,
      "ókönyv": 8354,
      " agr": 8355,
      "ars": 8356,
      "arány": 8357,
      "kötött": 8358,
      "nem.\n": 8359,
      ", ami a ": 8360,
      " felhív": 8361,
      "ének meg": 8362,
      "oldalon": 8363,
      "csapatok ": 8364,
      "Erre ": 8365,
      " prof": 8366,
      "front": 8367,
      "telenül": 8368,
      "errel": 8369,
      "csütörtökön ": 8370,
      "András": 8371,
      "vonatkozó": 8372,
      "lasszikus ": 8373,
      " létre": 8374,
      "iverpo": 8375,
      " ez ": 8376,
      "86": 8377,
      "Ahogy": 8378,
      "Bajnai ": 8379,
      "Ne ": 8380,
      "XV": 8381,
      "bomb": 8382,
      "híd": 8383,
      "ry": 8384,
      "ressz": 8385,
      "üsp": 8386,
      ", N": 8387,
      "eri ": 8388,
      "ik, és ": 8389,
      "itális ": 8390,
      "agn": 8391,
      "Az állam": 8392,
      "nem sikerül": 8393,
      "t majd": 8394,
      "időt ": 8395,
      "mindig ": 8396,
      "mindkét ": 8397,
      "hetően ": 8398,
      "világbajnok": 8399,
      ", hogy még": 8400,
      "ozzák": 8401,
      "Először": 8402,
      "üllyed": 8403,
      ");": 8404,
      "Múzeum": 8405,
      "i ad": 8406,
      "jában.\n": 8407,
      "tass": 8408,
      "vettek ": 8409,
      "enisz": 8410,
      "gyönyör": 8411,
      " kín": 8412,
      "ari": 8413,
      "oknak.\n": 8414,
      "ek szám": 8415,
      "én, ": 8416,
      "leh": 8417,
      "kit ": 8418,
      "ik és ": 8419,
      "át meg": 8420,
      "nem ért": 8421,
      "ever": 8422,
      " a tenger": 8423,
      "áján": 8424,
      "helyezés": 8425,
      "sem volt ": 8426,
      "leny": 8427,
      "sorol": 8428,
      " a legnagyobb ": 8429,
      "A tan": 8430,
      "határoz": 8431,
      "janak": 8432,
      "lépés": 8433,
      " Attil": 8434,
      "kétszer": 8435,
      "kutató": 8436,
      "elérhető": 8437,
      "növekedés ": 8438,
      " az egyik leg": 8439,
      "hosszabbítás": 8440,
      "okros ": 8441,
      "89": 8442,
      "a:": 8443,
      "ix": 8444,
      "lend": 8445,
      "met": 8446,
      "mán": 8447,
      "miniszter": 8448,
      "mezőny": 8449,
      "nék ": 8450,
      "rik": 8451,
      "vb-": 8452,
      "szombaton ": 8453,
      "ley": 8454,
      "felfüggeszt": 8455,
      "áltam": 8456,
      "nek tart": 8457,
      "ökélet": 8458,
      " a szomszéd": 8459,
      "utáni ": 8460,
      "zsír": 8461,
      "okat és ": 8462,
      " forinton ": 8463,
      " végig": 8464,
      "történelmi ": 8465,
      "Alons": 8466,
      "asszony": 8467,
      "körülbelül ": 8468,
      "ennyiben": 8469,
      "közelebb": 8470,
      "Magyar Nemzeti ": 8471,
      "elfogadott ": 8472,
      "egy-két ": 8473,
      " dolgoz": 8474,
      "Pedig": 8475,
      "Ha a ": 8476,
      "Rem": 8477,
      "Seb": 8478,
      "UX": 8479,
      "VB": 8480,
      "dán": 8481,
      "ment ": 8482,
      "rén": 8483,
      "és a h": 8484,
      "csel": 8485,
      " tel": 8486,
      " fr": 8487,
      ", hogyan ": 8488,
      " azután": 8489,
      "tas ": 8490,
      "nem áll": 8491,
      "te az ": 8492,
      " a polgármester": 8493,
      "immár": 8494,
      "be is ": 8495,
      "időre ": 8496,
      "értékelés": 8497,
      "halaszt": 8498,
      "mindössze ": 8499,
      " az egyes ": 8500,
      " a néz": 8501,
      " hatály": 8502,
      "régió": 8503,
      "közelít": 8504,
      "először ": 8505,
      "Ilyen ": 8506,
      "Obama ": 8507,
      "Hogy ": 8508,
      "zenekar": 8509,
      "EU": 8510,
      "Kev": 8511,
      "Rog": 8512,
      "nők": 8513,
      "out": 8514,
      "pak": 8515,
      "tel ": 8516,
      "uny": 8517,
      "á t": 8518,
      "gyök": 8519,
      "ikr": 8520,
      "kötet": 8521,
      "ozíció": 8522,
      "A német ": 8523,
      "jait ": 8524,
      "leges": 8525,
      "evecs": 8526,
      "nap ": 8527,
      "ai-": 8528,
      " elér": 8529,
      " a BBC": 8530,
      "rierj": 8531,
      "viszon": 8532,
      "tettek ": 8533,
      "együttes ": 8534,
      " a választási ": 8535,
      "Budapesten ": 8536,
      " miért ": 8537,
      " keletkez": 8538,
      "08": 8539,
      "Mos": 8540,
      "SV": 8541,
      "bol": 8542,
      "demokráci": 8543,
      "ean": 8544,
      "eid": 8545,
      "nának": 8546,
      "űk ": 8547,
      "ene ": 8548,
      "gyull": 8549,
      " kategóri": 8550,
      "élett": 8551,
      "állod": 8552,
      " harmadik ": 8553,
      "izáció": 8554,
      "előír": 8555,
      "ja\n": 8556,
      "legend": 8557,
      "egy ilyen ": 8558,
      "ják, ": 8559,
      "Ezt": 8560,
      "társadalmi ": 8561,
      " mégis ": 8562,
      "Miután": 8563,
      " arra is": 8564,
      "források ": 8565,
      " milliárd forintos ": 8566,
      "lux": 8567,
      " méteres ": 8568,
      "stadion": 8569,
      "76": 8570,
      "??": 8571,
      "Gar": 8572,
      "Rad": 8573,
      "Sar": 8574,
      "TP": 8575,
      "ei m": 8576,
      "péntek ": 8577,
      "szó ": 8578,
      "ath": 8579,
      "ese.\n": 8580,
      " szó": 8581,
      "ra és ": 8582,
      "nak\n": 8583,
      " a támogat": 8584,
      "umor": 8585,
      "művel": 8586,
      "voltak.\n": 8587,
      " maga ": 8588,
      "gépjármű": 8589,
      "hajtan": 8590,
      " abból": 8591,
      " a politikus": 8592,
      " az MTI-vel.\n": 8593,
      "ellentmond": 8594,
      "Ebből": 8595,
      "Intézet ": 8596,
      "def": 8597,
      "jen": 8598,
      "mail": 8599,
      "őt.\n": 8600,
      "árver": 8601,
      "emellett ": 8602,
      "ást a ": 8603,
      "esked": 8604,
      "csuk": 8605,
      ", a S": 8606,
      " meghal": 8607,
      "irág": 8608,
      "nekik ": 8609,
      " a tér": 8610,
      "ügyfél": 8611,
      "ősítés": 8612,
      "államok ": 8613,
      "jelenlét": 8614,
      "Aztán": 8615,
      " az amerikai": 8616,
      "rank ": 8617,
      "vonz": 8618,
      "készült ": 8619,
      "valamint ": 8620,
      "biztosító": 8621,
      "választott ": 8622,
      " a növ": 8623,
      " a labd": 8624,
      "MNO - W": 8625,
      "ként.\n": 8626,
      "lehetőséget ": 8627,
      "rendelkező ": 8628,
      "ifik": 8629,
      " hangsúlyozta": 8630,
      " az idén": 8631,
      "befektetők ": 8632,
      " küld": 8633,
      "hoz képest": 8634,
      "Emlék": 8635,
      " környék": 8636,
      "echan": 8637,
      "háztartási ": 8638,
      "Li": 8639,
      "ee": 8640,
      "hó": 8641,
      "iba ": 8642,
      "kísérlet": 8643,
      "mon": 8644,
      "zuhan": 8645,
      "ésében ": 8646,
      " az át": 8647,
      "ikat ": 8648,
      "szerény": 8649,
      "iság": 8650,
      " fenn": 8651,
      ", hogyan": 8652,
      "uta": 8653,
      "hetik": 8654,
      "ttest": 8655,
      "napokban ": 8656,
      "y M": 8657,
      "esetén ": 8658,
      "értékesítés": 8659,
      " elej": 8660,
      "Azon": 8661,
      "hozzáfér": 8662,
      "kormányzat": 8663,
      " vezetője ": 8664,
      "egészséges ": 8665,
      "hamis": 8666,
      " millió forintos ": 8667,
      "ommunista ": 8668,
      "professzor": 8669,
      "tehetség": 8670,
      " függetlenül": 8671,
      " nyelv": 8672,
      "Col": 8673,
      "iák": 8674,
      "kategóri": 8675,
      "to": 8676,
      "Élet": 8677,
      "űzés": 8678,
      "orb": 8679,
      " kir": 8680,
      "ésük": 8681,
      "ish": 8682,
      " fiz": 8683,
      "ozitív": 8684,
      "is lehet": 8685,
      "étkez": 8686,
      "ás után ": 8687,
      "értesül": 8688,
      "ra kerül": 8689,
      "eves ": 8690,
      "asztási ": 8691,
      "fogadás": 8692,
      "elnöke": 8693,
      " az agy": 8694,
      "\" - jelentette ": 8695,
      "versenyző": 8696,
      " azoknak": 8697,
      " a Dun": 8698,
      "produk": 8699,
      " augusztus ": 8700,
      "A több": 8701,
      "A törvény": 8702,
      "Tom": 8703,
      "nök ": 8704,
      "sejt": 8705,
      "győr": 8706,
      "csön": 8707,
      " tév": 8708,
      " vide": 8709,
      "adar": 8710,
      " harc": 8711,
      "felhív": 8712,
      "raszt": 8713,
      "járól": 8714,
      "onyh": 8715,
      "ával és ": 8716,
      "utóbb ": 8717,
      "jobboldal": 8718,
      "olly": 8719,
      "oldalán": 8720,
      "elvet ": 8721,
      "nem tudott ": 8722,
      " először": 8723,
      "gyártó ": 8724,
      "árfolyama ": 8725,
      "becsül": 8726,
      "lehetővé tesz": 8727,
      "illegális ": 8728,
      " Magyarország": 8729,
      "110": 8730,
      "78": 8731,
      "Mit ": 8732,
      "divat": 8733,
      "döbb": 8734,
      "ibb": 8735,
      "kál": 8736,
      "kizárólag": 8737,
      "lista ": 8738,
      ", úgy": 8739,
      "ári ": 8740,
      " milyen ": 8741,
      "ezők ": 8742,
      "eső ": 8743,
      "ild": 8744,
      " szét": 8745,
      "sága ": 8746,
      " megkérd": 8747,
      "öltö": 8748,
      "avart": 8749,
      "csapadék": 8750,
      " elég": 8751,
      "ivatty": 8752,
      "nyert a ": 8753,
      " akkor is ": 8754,
      "torn": 8755,
      "rendező": 8756,
      "okozott": 8757,
      "Nyil": 8758,
      " pontot ": 8759,
      "művészeti ": 8760,
      "tekintet": 8761,
      "erősítette": 8762,
      "ázsiai ": 8763,
      "erősödött": 8764,
      " jog": 8765,
      "- tud": 8766,
      "Bl": 8767,
      "Hivatal": 8768,
      "Kom": 8769,
      "hold": 8770,
      "jeg": 8771,
      "t, amely": 8772,
      "ve, ": 8773,
      "écs ": 8774,
      "ervez": 8775,
      "i szám": 8776,
      " mer": 8777,
      " messz": 8778,
      "áson ": 8779,
      "ekezés": 8780,
      "ikat": 8781,
      "ikum": 8782,
      "és és ": 8783,
      "ozása ": 8784,
      "uló": 8785,
      " a megyei ": 8786,
      " a mostani ": 8787,
      "rendű": 8788,
      ": F": 8789,
      "202": 8790,
      " a szok": 8791,
      ", hogy a kormány": 8792,
      "ice ": 8793,
      "Az al": 8794,
      " alkalmas ": 8795,
      " a reg": 8796,
      "Aleksz": 8797,
      " a közös": 8798,
      "társadalom": 8799,
      " azonban nem ": 8800,
      "nyilatkozott": 8801,
      " a válasz": 8802,
      "bronz": 8803,
      "Való": 8804,
      "Napi ": 8805,
      " a kezd": 8806,
      "stratégiai ": 8807,
      "opron": 8808,
      "\" - nyilatkozta ": 8809,
      "- vagy": 8810,
      "Jack": 8811,
      "Molnár ": 8812,
      "finom": 8813,
      "ínek": 8814,
      " a gyerek": 8815,
      "atmár": 8816,
      " az \"": 8817,
      "érem": 8818,
      "ozód": 8819,
      "ul.\n": 8820,
      " a pont": 8821,
      "aira ": 8822,
      "opter": 8823,
      "szerepelt": 8824,
      "díjaz": 8825,
      " végre": 8826,
      "pályás ": 8827,
      "ezőgazdasági ": 8828,
      "nyolcvan": 8829,
      "működtet": 8830,
      "seny ": 8831,
      " József": 8832,
      " a fővárosi ": 8833,
      "olimp": 8834,
      "ossuth": 8835,
      "atasztrófa ": 8836,
      " azért, mert ": 8837,
      "index ": 8838,
      "iskun": 8839,
      " Megyei Rendőr-főkapitányság": 8840,
      "ancouver": 8841,
      "Könyv": 8842,
      "fürd": 8843,
      "később ": 8844,
      "rokon": 8845,
      "sm": 8846,
      "tap": 8847,
      "tlét": 8848,
      "óján": 8849,
      "ököl": 8850,
      "őbb": 8851,
      "szellem": 8852,
      ", bár": 8853,
      "ései ": 8854,
      "amin": 8855,
      " meg is ": 8856,
      "őről": 8857,
      "isztikai ": 8858,
      "i kutat": 8859,
      "végzett": 8860,
      "élete ": 8861,
      "csak akkor": 8862,
      "Ezzel ": 8863,
      "egészen": 8864,
      "világbajnok ": 8865,
      "Szeret": 8866,
      ", amiért ": 8867,
      "bankok ": 8868,
      "enetrend": 8869,
      "ciklus": 8870,
      " a főváros ": 8871,
      "kevésbé": 8872,
      " terh": 8873,
      "viszonylag": 8874,
      "gyilkos ": 8875,
      "rengés ": 8876,
      "jövő évi ": 8877,
      "űzoltók ": 8878,
      "NATO": 8879,
      "donság": 8880,
      "dleges ": 8881,
      "iós": 8882,
      "t, de ": 8883,
      "vett": 8884,
      "Épp": 8885,
      "ébe.\n": 8886,
      "öszön": 8887,
      "szög": 8888,
      "elej": 8889,
      "ero": 8890,
      "ültet": 8891,
      "ét\n": 8892,
      "észek ": 8893,
      "hatják ": 8894,
      " meglepet": 8895,
      "értelem": 8896,
      "elmúlt": 8897,
      "vagyok": 8898,
      " tartomány": 8899,
      "döntőj": 8900,
      "gyűr": 8901,
      "pályán": 8902,
      " főváros": 8903,
      "próbálkoz": 8904,
      " foglalkozó ": 8905,
      "különböző ": 8906,
      "miért ": 8907,
      "bekerül": 8908,
      "que ": 8909,
      " van szó.\n": 8910,
      "töltött": 8911,
      "Magyar Köz": 8912,
      "Olaszország": 8913,
      "jóváhagy": 8914,
      "96": 8915,
      "jár ": 8916,
      "jekt": 8917,
      "lagy": 8918,
      "robbant": 8919,
      "show": 8920,
      "Úja": 8921,
      ", sem": 8922,
      "egély": 8923,
      " mit ": 8924,
      "ezelőtt ": 8925,
      "ése, ": 8926,
      " típus": 8927,
      "adász": 8928,
      "amat ": 8929,
      "ben és ": 8930,
      "oltak": 8931,
      "tartalék": 8932,
      "időszak ": 8933,
      "kapott": 8934,
      "ította meg": 8935,
      " alapító": 8936,
      "életlen": 8937,
      "ásoknak ": 8938,
      " vagyok ": 8939,
      "drog": 8940,
      "dics": 8941,
      " a munkavállal": 8942,
      "Balaton": 8943,
      "információk ": 8944,
      " a pénzügyi ": 8945,
      "veszélyeztet": 8946,
      "könnyű": 8947,
      "lenne a ": 8948,
      "várhatóan": 8949,
      "Románi": 8950,
      "óce": 8951,
      "ideiglen": 8952,
      "Ausztri": 8953,
      "Bud": 8954,
      "Char": 8955,
      "Ne": 8956,
      "ia, ": 8957,
      "junk": 8958,
      "jenek": 8959,
      "vöz": 8960,
      "szál": 8961,
      "szkij": 8962,
      "i rendszer": 8963,
      " kg": 8964,
      "éria ": 8965,
      "ot\n": 8966,
      "ik, hogy a ": 8967,
      " tém": 8968,
      " társaság": 8969,
      "nem az ": 8970,
      "A három": 8971,
      " szül": 8972,
      " szig": 8973,
      "megjelen": 8974,
      " hall": 8975,
      "nie.\n": 8976,
      "ok miatt ": 8977,
      "hetőség": 8978,
      " a hib": 8979,
      "emberi ": 8980,
      "számított": 8981,
      " kijelentette": 8982,
      "ádió": 8983,
      "tanács ": 8984,
      "ból, ": 8985,
      "miatt a ": 8986,
      "A férfi ": 8987,
      "hosszabb ": 8988,
      " a feladat": 8989,
      "ásait ": 8990,
      "frik": 8991,
      " majd ": 8992,
      "kedden": 8993,
      " aktuális ": 8994,
      " egyik leg": 8995,
      "évek óta ": 8996,
      "Igazgatóság": 8997,
      "üggetlen Hír": 8998,
      "James ": 8999,
      "-d": 9000,
      "ESZ": 9001,
      "ónak": 9002,
      "elf": 9003,
      "i T": 9004,
      "ekul": 9005,
      "ekre.\n": 9006,
      "amion": 9007,
      "integy ": 9008,
      "le a ": 9009,
      " hajt": 9010,
      "niai ": 9011,
      "kisz": 9012,
      "indítás": 9013,
      ", de még": 9014,
      "lehető ": 9015,
      "csak egy": 9016,
      " végéig": 9017,
      " az egyetlen ": 9018,
      "ezt az ": 9019,
      "A film": 9020,
      "nyugdíjas": 9021,
      "mentes ": 9022,
      "rendőrség.\n": 9023,
      "ológus ": 9024,
      ", mire ": 9025,
      "Mark ": 9026,
      "viselked": 9027,
      "hoz képest.\n": 9028,
      " a folyamat": 9029,
      "elikopter": 9030,
      "FM": 9031,
      "Tavaly": 9032,
      "a) ": 9033,
      "lok": 9034,
      "lim": 9035,
      "rém": 9036,
      "sw": 9037,
      "tlan": 9038,
      "ísért": 9039,
      " a jog": 9040,
      "ítési ": 9041,
      "megvalós": 9042,
      "ulat ": 9043,
      " pl": 9044,
      "olyg": 9045,
      " a szint": 9046,
      "őrzés": 9047,
      "töröl": 9048,
      "imád": 9049,
      "ében meg": 9050,
      "zsar": 9051,
      " labdarúg": 9052,
      " az egyetem": 9053,
      "Első": 9054,
      "óvod": 9055,
      " éves kor": 9056,
      "öt év": 9057,
      "remek ": 9058,
      "itthon": 9059,
      "óval ": 9060,
      "fordult": 9061,
      "született ": 9062,
      "lenne.\n": 9063,
      "luenz": 9064,
      "radik": 9065,
      " szóvivője.\n": 9066,
      " mértékben ": 9067,
      "esküv": 9068,
      "74": 9069,
      "Vasárnap": 9070,
      "dollár ": 9071,
      "fellép": 9072,
      "höz": 9073,
      "ián ": 9074,
      "nom": 9075,
      " a nemzetközi ": 9076,
      "a K": 9077,
      "ore ": 9078,
      "ezüst": 9079,
      "eking": 9080,
      "csek": 9081,
      "ek mellett ": 9082,
      "banki ": 9083,
      "ékely": 9084,
      "legutóbb": 9085,
      "hetjük": 9086,
      "re, a ": 9087,
      "Szem": 9088,
      "Szombat": 9089,
      " azt állított": 9090,
      "ességében ": 9091,
      " kezel": 9092,
      "A vizsg": 9093,
      "okozta ": 9094,
      "művészet": 9095,
      ", míg ": 9096,
      "együttes": 9097,
      "uck": 9098,
      "attal ": 9099,
      "ápol": 9100,
      "beruházás ": 9101,
      " kilométeres ": 9102,
      " nehez": 9103,
      "[origo]": 9104,
      "nyújtan": 9105,
      "osárlabd": 9106,
      "05": 9107,
      "Pan": 9108,
      "SA": 9109,
      "Vélemény": 9110,
      "aúj": 9111,
      "február": 9112,
      "ája, ": 9113,
      " men": 9114,
      "ot, és ": 9115,
      " fenntart": 9116,
      "osnak ": 9117,
      "A g": 9118,
      "itől": 9119,
      "fel a ": 9120,
      "feled": 9121,
      "felejt": 9122,
      "bevet": 9123,
      "nek tűn": 9124,
      "részesed": 9125,
      "élyes ": 9126,
      "tartott": 9127,
      "többek között ": 9128,
      " bemutat": 9129,
      "eltilt": 9130,
      "rier": 9131,
      " helyett": 9132,
      " akkor is": 9133,
      "i hang": 9134,
      " Sándor": 9135,
      "óvat": 9136,
      ", hiszen az ": 9137,
      "utca ": 9138,
      "Európában": 9139,
      "gyanúsított ": 9140,
      "technológi": 9141,
      "éjszakai ": 9142,
      "Megyei Rendőr-főkapitányság": 9143,
      "Erdély": 9144,
      "emplom": 9145,
      "-Ber": 9146,
      "77": 9147,
      "C ": 9148,
      "e, az ": 9149,
      "jenek ": 9150,
      "milyen ": 9151,
      "rez": 9152,
      "el-": 9153,
      "eld": 9154,
      "i ár": 9155,
      " az internet": 9156,
      "otenci": 9157,
      "ülöp": 9158,
      " tehet": 9159,
      "hatvan": 9160,
      "ta, hogy": 9161,
      "nem csak": 9162,
      " a vit": 9163,
      " a szövetség": 9164,
      "ukra ": 9165,
      "édium": 9166,
      "őrök ": 9167,
      "össze a ": 9168,
      "a még ": 9169,
      ", akár ": 9170,
      "tudományos ": 9171,
      "ünket": 9172,
      "általa ": 9173,
      " Br": 9174,
      "jegybank ": 9175,
      " milliárdos ": 9176,
      " Sch": 9177,
      ", vagyis": 9178,
      "kormányzat ": 9179,
      "erőmű": 9180,
      "egyenlít": 9181,
      " másfél": 9182,
      " működő ": 9183,
      " az idén ": 9184,
      "emokratikus ": 9185,
      "atalin": 9186,
      "őmérséklet ": 9187,
      "- vél": 9188,
      ": h": 9189,
      "Kül": 9190,
      "kon": 9191,
      "mint ": 9192,
      "mögött": 9193,
      "áért": 9194,
      "éc": 9195,
      "szállítás": 9196,
      "s - ": 9197,
      "ásra.\n": 9198,
      " az is ": 9199,
      "ok alapján": 9200,
      " vett ": 9201,
      "írja ": 9202,
      "nek, a ": 9203,
      "190": 9204,
      "nevet": 9205,
      " helyszín": 9206,
      "csapata ": 9207,
      "építkez": 9208,
      "nyilvánvaló": 9209,
      "haza": 9210,
      ", akiket ": 9211,
      "fordít": 9212,
      "rádió": 9213,
      "ketten ": 9214,
      "kezdődött": 9215,
      "civil ": 9216,
      "elhár": 9217,
      " ellen ": 9218,
      "-a": 9219,
      "-nél": 9220,
      "lis": 9221,
      "rég ": 9222,
      " krit": 9223,
      "oth": 9224,
      "ek el": 9225,
      " vill": 9226,
      " fegyver": 9227,
      "ja, hogy a ": 9228,
      "hetünk ": 9229,
      " megállapod": 9230,
      "reakció": 9231,
      " a vagy": 9232,
      "láttam": 9233,
      " egyelőre ": 9234,
      "tudott ": 9235,
      " ezt ": 9236,
      " végre ": 9237,
      " részt": 9238,
      "érdekében.\n": 9239,
      " az együtt": 9240,
      " a német": 9241,
      "méret": 9242,
      " a lány": 9243,
      "eire ": 9244,
      "elmondta: ": 9245,
      "információi ": 9246,
      "nem kíván": 9247,
      "influenz": 9248,
      "ragad": 9249,
      "szolgálati ": 9250,
      "nyáron": 9251,
      " költségvetési ": 9252,
      "ovjet ": 9253,
      "ternatív": 9254,
      " cím": 9255,
      "(B": 9256,
      ". február ": 9257,
      "Lap": 9258,
      "Mert ": 9259,
      "Rég": 9260,
      "Tiszt": 9261,
      "ei, ": 9262,
      "áh": 9263,
      "i A": 9264,
      " keresztül": 9265,
      "ektr": 9266,
      "A hét": 9267,
      "ázott ": 9268,
      "niük": 9269,
      "jainak ": 9270,
      "jelez": 9271,
      "részben": 9272,
      " bal": 9273,
      " börtön": 9274,
      "ése után ": 9275,
      "Csütörtö": 9276,
      " a Budapesti ": 9277,
      "szervezett ": 9278,
      "elet-": 9279,
      ", amire ": 9280,
      "kisebb ": 9281,
      " a választások ": 9282,
      "mened": 9283,
      "üdzs": 9284,
      "900": 9285,
      "Kiss ": 9286,
      "Lu": 9287,
      "Mer": 9288,
      "Mond": 9289,
      "iek": 9290,
      "la ": 9291,
      "tük ": 9292,
      "éch": 9293,
      ", ráadásul": 9294,
      "szerzett": 9295,
      "edül": 9296,
      "izárt": 9297,
      "központ ": 9298,
      "kivétel": 9299,
      " alól": 9300,
      "ban él": 9301,
      "álta a ": 9302,
      " a hal": 9303,
      "tartó": 9304,
      " kifizet": 9305,
      "lesz az ": 9306,
      "zseb": 9307,
      " azt írta": 9308,
      "elnöke, ": 9309,
      " Budapest": 9310,
      "történtek": 9311,
      "ergom": 9312,
      " ponton ": 9313,
      "nélkül ": 9314,
      "minősít": 9315,
      "személyes ": 9316,
      "ítélt ": 9317,
      "ünnepség": 9318,
      "érvényes ": 9319,
      "számítógép": 9320,
      "válaszol": 9321,
      "MNO - PK ": 9322,
      "töltött ": 9323,
      "Több ": 9324,
      "\"Az ": 9325,
      "99": 9326,
      "Jó ": 9327,
      "hab": 9328,
      "mez": 9329,
      "zk": 9330,
      "ökor": 9331,
      "álom": 9332,
      " kény": 9333,
      "íti": 9334,
      " frakció": 9335,
      "ólyom": 9336,
      "ellop": 9337,
      " köszön": 9338,
      "nappal": 9339,
      "i kar": 9340,
      "sorrend": 9341,
      "látható ": 9342,
      "zsde ": 9343,
      "ról, ": 9344,
      "tanár": 9345,
      "bele ": 9346,
      "A mű": 9347,
      "ták, ": 9348,
      "ötven ": 9349,
      "ogramm": 9350,
      "160": 9351,
      "összefoglal": 9352,
      "című film": 9353,
      "140": 9354,
      "gyűlöl": 9355,
      "területi ": 9356,
      "talanság": 9357,
      "nevezte": 9358,
      "tisztelet": 9359,
      "Schm": 9360,
      "nincsenek ": 9361,
      " sikerül": 9362,
[...]
