{"\n":0," ":1,"!":2,"\"":3,"#":4,"$":5,"%":6,"&":7,"'":8,"(":9,")":10,"*":11,"+":12,",":13,"-":14,".":15,"/":16,"0":17,"1":18,"2":19,"3":20,"4":21,"5":22,"6":23,"7":24,"8":25,"9":26,":":27,";":28,"<":29,"=":30,">":31,"?":32,"@":33,"A":34,"B":35,"C":36,"D":37,"E":38,"F":39,"G":40,"H":41,"I":42,"J":43,"K":44,"L":45,"M":46,"N":47,"O":48,"P":49,"Q":50,"R":51,"S":52,"T":53,"U":54,"V":55,"W":56,"X":57,"Y":58,"Z":59,"[":60,"\\":61,"]":62,"^":63,"_":64,"`":65,"a":66,"b":67,"c":68,"d":69,"e":70,"f":71,"g":72,"h":73,"i":74,"j":75,"k":76,"l":77,"m":78,"n":79,"o":80,"p":81,"q":82,"r":83,"s":84,"t":85,"u":86,"v":87,"w":88,"x":89,"y":90,"z":91,"~":92,"":93,"":94,"":95,"":96,"£":97,"§":98,"¨":99,"©":100,"¬":101,"­":102,"®":103,"°":104,"±":105,"²":106,"³":107,"µ":108,"·":109,"º":110,"½":111,"¾":112,"Á":113,"Ä":114,"Å":115,"È":116,"É":117,"Í":118,"Ó":119,"Ö":120,"×":121,"Ú":122,"Ü":123,"ß":124,"à":125,"á":126,"â":127,"ã":128,"ä":129,"å":130,"æ":131,"ç":132,"è":133,"é":134,"ê":135,"ë":136,"ì":137,"í":138,"î":139,"ï":140,"ð":141,"ñ":142,"ò":143,"ó":144,"ô":145,"õ":146,"ö":147,"ø":148,"ú":149,"û":150,"ü":151,"ý":152,"ÿ":153,"ă":154,"ą":155,"Ć":156,"ć":157,"Č":158,"č":159,"Đ":160,"đ":161,"ę":162,"ı":163,"ł":164,"ń":165,"ň":166,"Ő":167,"ő":168,"ř":169,"Ś":170,"ś":171,"ş":172,"Š":173,"š":174,"Ţ":175,"ţ":176,"Ť":177,"ť":178,"ů":179,"Ű":180,"ű":181,"ż":182,"Ž":183,"ž":184,"ș":185,"˝":186,"λ":187,"ї":188,"ה":189,"ו":190,"י":191,"‒":192,"†":193,"•":194,"‬":195,"‭":196,"″":197,"€":198,"−":199,"∗":200,"≤":201,"":202,"":203,"ﬁ":204,"ﬂ":205," a":206,"sz":207,"el":208,"et":209,"en":210," m":211,"gy":212," k":213,"er":214,".\n":215,"at":216,"an":217," h":218,"al":219," t":220," v":221,"és":222,"ek":223,"or":224," sz":225," az":226,"ár":227,"in":228,"em":229,"on":230," f":231,"ol":232,"ál":233,"ak":234," n":235,"ás":236,"eg":237,"es":238,"án":239,"ez":240,"is":241,"tt":242,"ér":243,"ok":244," l":245,"ik":246,"én":247," el":248,"ar":249," b":250,"ég":251,"cs":252,"os":253,"egy":254," p":255,"bb":256,"át":257," és":258,"ül":259,"ett":260,"oz":261,"ít":262,"ág":263," s":264,"él":265,"il":266,"ap":267," j":268,"ét":269," egy":270," r":271," kö":272," meg":273,"ogy":274,"int":275,"ban":276,"ed":277,"ék":278,"ott":279," is":280," hogy":281,"ben":282,"it":283,"agy":284," d":285,"szt":286,"ad":287,"ut":288,"om":289," -":290," nem":291,"am":292,"as":293,"ól":294,"ség":295,"ig":296,"ul":297,"ni":298," szer":299," cs":300,"ja":301,"ra":302,"ta":303,"ák":304,"og":305,"ány":306,"re":307,"áll":308,"ény":309,"ép":310," M":311,"aj":312,"áz":313,"ai":314," köz":315," fel":316,"az":317," ki":318,"ely":319,"év":320,"nak":321,"iz":322,"ért":323,"ot":324,"ent":325,"ész":326,"ag":327,"ör":328,"ság":329,"id":330," le":331,"nk":332," am":333,"ám":334,"het":335,"ny":336,"olt":337," B":338,"nek":339,"ől":340," S":341,"end":342," al":343,"Az":344," ak":345,"ci":346,"ell":347," ez":348,"ind":349," (":350,"ált":351,"ön":352,"ök":353,"us":354," K":355,"hat":356," be":357,"ill":358,"od":359," A":360," ny":361,"szer":362,"ír":363,"art":364," ú":365,"öl":366,"ond":367,"ont":368," g":369,"ud":370,"len":371," gy":372," év":373," áll":374,"ur":375,"ev":376,"uk":377,"ab":378,"ők":379,"unk":380,"ber":381,"av":382,"oly":383," F":384," szerint":385,"te":386,"ös":387,"ók":388," de":389,"ezet":390," ut":391," for":392,"ött":393," volt":394,"20":395,"szág":396," P":397,"agyar":398," c":399,"vet":400,"ov":401," kor":402,"att":403," leg":404," jel":405,"ában":406," G":407," T":408,"öbb":409,"ország":410,"esz":411,"ep":412," már":413," elő":414,"ej":415,"est":416," rend":417," E":418,"ős":419,"iv":420,"öz":421,"ir":422,"erül":423,"ább":424,"ük":425," id":426,"kor":427," N":428,"ert":429,"ént":430," mind":431," ér":432," H":433,"ba":434," ad":435,"ember":436,"atás":437," L":438," több":439,"úl":440," hely":441,"ében":442," val":443," C":444,"kal":445,"olg":446,"ügy":447,"aszt":448," nagy":449,"val":450,"zet":451,"ív":452," még":453,"mány":454,"eket":455,"áj":456," er":457,"elm":458," mi":459,"éd":460,"asz":461,"ós":462," azt":463,"ály":464,"árt":465," szám":466,"ette":467,"um":468," R":469," \"":470," V":471,"elő":472,"obb":473,"ára":474," csak":475," kell":476,"ia":477,"őr":478,"eszt":479,"ebb":480," lehet":481,"kez":482," száz":483,"koz":484," kap":485,"okat":486,"éz":487," D":488,"ítás":489,"öv":490," tud":491," amely":492," van":493," mint":494," tör":495,"össz":496,"isz":497,"iszt":498," tart":499,"ót":500," más":501," vagy":502,"ése":503,"ort":504,"ból":505," es":506,"ony":507," sem":508," ter":509," két":510,"be":511," I":512," mag":513,"illi":514,"ajd":515,"ód":516,"alm":517,"ső":518,"alék":519," vég":520,"hoz":521," J":522," vál":523,"im":524,"tet":525,"ély":526,"ch":527," ar":528," össz":529,"mény":530," él":531," ellen":532,"ának":533,"ve":534," fog":535,"ín":536," új":537," mond":538,"ják":539,"ató":540," biz":541," Sz":542," százalék":543,"ém":544," pr":545,"ést":546," kép":547,"ző":548,"ított":549," magyar":550,"eh":551,"nök":552,"ról":553,"ug":554," át":555,"ult":556,"íz":557," z":558,"op":559,"edig":560,"ei":561,"elt":562," u":563,"ást":564,"na":565,"nál":566,"ére":567," O":568,"ór":569,"leg":570,"eres":571,"ható":572," szem":573,"eny":574,"áros":575," pedig":576,"je":577,"ikai":578," ért":579," milli":580,"ének":581," jelent":582," tel":583," kül":584," ha":585,"200":586," után":587,"ilág":588," ig":589,"aság":590,"abb":591," ol":592,"esen":593,"vény":594," rész":595,"ési":596,"enn":597," azon":598,"ünk":599," forint":600,"ása":601,"ost":602," hat":603," hoz":604,"ani":605," mű":606,"tak":607," munk":608,"ád":609,"áci":610," kör":611,"va":612," nap":613,"ült":614," kez":615,"ával":616,"gyan":617," minden":618," vis":619," majd":620,"kö":621," í":622,"ked":623,"let":624,"árs":625," e":626,"ális":627,"ob":628,"lan":629,"emény":630,"uró":631," kormány":632," lesz":633,"vezet":634,"ások":635,"19":636,"ján":637,"őz":638,"őt":639,"nap":640," ember":641,"azd":642,"jel":643," ü":644,"önt":645," em":646," an":647,"ang":648," első":649," vezet":650," alap":651,"ház":652,"ből":653,"énz":654," miatt":655,"dés":656," tal":657," követ":658,"Ez":659,"eng":660,"köz":661," in":662,"ily":663," szak":664,"hez":665,"áb":666,"ről":667," ill":668,"olyan":669,"etlen":670," között":671," úgy":672,"ölt":673," ö":674," bel":675," ország":676,"ikus":677," vissz":678,"for":679," ugyan":680,"fi":681,"mű":682," hét":683," aki":684," állam":685,"fel":686," így":687," ok":688,"ló":689,"),":690," fi":691," elm":692," Z":693," tört":694," mert":695,"erült":696," ügy":697," ját":698," né":699," kis":700,"any":701,"ilyen":702,"ers":703," foly":704," mondta":705," olyan":706," sok":707,"ések":708,"osan":709," ind":710," min":711,"ezett":712,"Sz":713,"ic":714,"edd":715,"ási":716," világ":717," akkor":718,"ász":719,"atok":720,"ták":721,"étel":722,"öld":723,"atal":724," Magyar":725," ír":726,"őv":727,"ajt":728,"ovább":729," sor":730,"által":731,"tat":732," lát":733,"kel":734,"óz":735,"árom":736,"nyi":737," int":738,"ként":739,"00":740,"eb":741,"eti":742," ép":743,"ki":744,"íj":745,"ossz":746," egyik":747,"ács":748,"olit":749," kész":750," igaz":751,"mer":752," azonban":753,"árd":754,"un":755,"osz":756," kér":757,"201":758," vált":759,"tel":760,"ajn":761," választ":762," ah":763," tovább":764,"ével":765," tám":766,"all":767,"st":768,"?\n":769," ár":770,"utó":771,"eni":772," ami":773,"oszt":774," bizt":775," mell":776," i":777," jog":778," szab":779,"szak":780," valam":781,"azdaság":782,"pont":783,"atkoz":784,"áv":785," fér":786,"űn":787,"ület":788,"ikor":789,"ező":790," kezd":791,"pr":792," pénz":793," W":794," tan":795," hozz":796," idő":797,"uróp":798,"hető":799,"lt":800,"állal":801," eset":802," érd":803," most":804," ir":805,"ün":806," való":807," csap":808,"ran":809,"ván":810," által":811,"old":812," jó":813,"arad":814," elnök":815," illet":816,"ját":817,"izs":818,"ört":819," telj":820,"fog":821,"ati":822,"esít":823,"jt":824,"jár":825,"izet":826," vár":827,"-ben":828,"egész":829,"lő":830,"eked":831,"ata":832," An":833," három":834,"hely":835,"-es":836,"csol":837," dönt":838," nev":839,"and":840," fej":841,"ing":842," ó":843," rendőr":844," hi":845,"incs":846," külön":847," jár":848,"elem":849," arra":850,"ító":851,"árm":852,"port":853," korább":854,"fő":855,"véd":856,"enek":857,"juk":858," visz":859,"elmi":860,"oll":861," ered":862,"oló":863," előtt":864,"vis":865," pont":866," élet":867," sik":868,"SZ":869,"tek":870,"up":871,"ri":872," jelen":873,"atot":874,"adás":875,"alom":876,"ését":877,"kép":878," per":879,"zel":880,"kül":881," nyil":882,"ög":883,"ter":884,"ivel":885," ker":886," cí":887,"ck":888," egész":889," szerep":890," dolg":891,"olna":892,"tatás":893,"Egy":894,"10":895," polit":896," millió":897," szint":898,"éld":899,"izsg":900,"díj":901,"ozó":902,"últ":903,"le":904,"-t":905,"ozott":906," besz":907,"sal":908," cég":909," éves":910,"utat":911,"kod":912," volna":913," kapcsol":914,"eli":915,"ített":916,"ökk":917,"szerű":918,"éter":919," gond":920,"arm":921,"omb":922,"lam":923,"ef":924,"üt":925,"ekt":926,"lal":927," gyer":928,"atlan":929," történ":930,"rend":931,"ilm":932,"úly":933,"ába":934," mér":935," ezt":936," talál":937,"enc":938,"őség":939,"vel":940," érdek":941," kon":942," illetve":943," fő":944,"ozás":945," alatt":946,"ajnok":947," másod":948," fél":949,"esség":950,"ári":951," öt":952,"ője":953,"oh":954," hal":955,"inek":956," term":957,"író":958," ezer":959,"kol":960,"..":961," lak":962,"ogat":963,"ció":964," költ":965,"jelent":966," péld":967," mellett":968,"usz":969,"ütt":970,"ából":971,"gg":972," Or":973," tag":974," akik":975,"adó":976,"asznál":977," párt":978," milliárd":979,"vas":980,"iai":981,"után":982," kom":983,"ram":984,"ezte":985,"idesz":986,"15":987," társ":988," szó":989,"osság":990," amikor":991,"of":992,"orv":993,"dul":994," hó":995," vissza":996,"erikai":997," seg":998," nyug":999,"szín":1000,"erseny":1001,"elet":1002," játék":1003," jöv":1004,"ip":1005,"ors":1006," négy":1007,"ant":1008,"erület":1009,"áció":1010," rendszer":1011,"észt":1012," von":1013,"Nem":1014," érték":1015,"enne":1016,"ec":1017," en":1018,"form":1019,"gel":1020," közl":1021," hang":1022,"áról":1023," Gy":1024," Á":1025,"zs":1026,"iszter":1027," men":1028,"kot":1029,"izsgál":1030,"émet":1031," haz":1032,"élkül":1033," nemzet":1034,"uár":1035," szól":1036," ott":1037,"udap":1038,"udapest":1039,"ex":1040,"sel":1041," gazdaság":1042," törvény":1043," mód":1044,"anem":1045," ő":1046," tár":1047,"íg":1048,"ánt":1049,"nél":1050," együtt":1051," férfi":1052,"ölte":1053,"ink":1054," par":1055,"omány":1056,"ték":1057,"aton":1058,"ester":1059," biztos":1060,"ub":1061," vállal":1062," alkal":1063,"ülés":1064,"anak":1065,"almaz":1066," U":1067,"urópai":1068," nő":1069,"ocs":1070," tav":1071," jav":1072,"vez":1073," képvis":1074,"ását":1075,"ass":1076,"zés":1077," üz":1078," kil":1079," lett":1080," következ":1081,"séges":1082," nagyon":1083," amerikai":1084,"tal":1085," nyom":1086,"ábor":1087," marad":1088," csökk":1089,"avaz":1090," túl":1091," ház":1092," nincs":1093," keres":1094," Al":1095," vesz":1096," hanem":1097," jobb":1098,"ügyi":1099," bet":1100,"ne":1101," csal":1102,"lat":1103," pály":1104," Magyarország":1105,"gató":1106,"ió":1107,"üntet":1108," dél":1109," cél":1110,"eken":1111,"köd":1112,"vány":1113," ilyen":1114,"ób":1115,"tart":1116,"ogram":1117,"oport":1118," eredmény":1119,"ozat":1120,"ekben":1121," hisz":1122,"aly":1123,"ették":1124," személy":1125," erős":1126," vél":1127,"pen":1128,"őket":1129,"\".\n":1130,"ist":1131," figy":1132," össze":1133,"ason":1134,"-e":1135,"ája":1136," bef":1137," véd":1138,"30":1139,"ügg":1140," hiv":1141," megy":1142," azért":1143," közölte":1144,"eddig":1145,"ank":1146," rá":1147,"ául":1148," kerül":1149," ór":1150,"ton":1151," hír":1152," ism":1153," lép":1154,"rit":1155,"elés":1156," verseny":1157," nek":1158," szük":1159," autó":1160," kív":1161," helyzet":1162,"hon":1163,"éri":1164,"ottság":1165," szín":1166,"aját":1167,"uszt":1168,"ezés":1169,"éb":1170," segít":1171,"öm":1172,"!\n":1173,"ekkel":1174," körül":1175,"őd":1176," kev":1177,"18":1178,"enni":1179,"ítés":1180,"Ha":1181,"só":1182,"szám":1183,"ern":1184,"ítani":1185," szolg":1186,"lát":1187," kar":1188,"akor":1189,"úz":1190,"erg":1191," vas":1192," második":1193," itt":1194," ahol":1195,"armad":1196," növ":1197," viszont":1198,"fél":1199," Fidesz":1200,"12":1201,"dal":1202," elv":1203," akar":1204," Cs":1205," kés":1206,"ontos":1207,"lék":1208," szerző":1209," eddig":1210," ezért":1211," csapat":1212,"ess":1213," lét":1214,"okban":1215,"NO":1216,"tól":1217," költség":1218,"esebb":1219,"ista":1220," annak":1221," ment":1222,"ha":1223," város":1224,"övet":1225,"ékoz":1226," nélkül":1227,"zett":1228," kam":1229," film":1230," st":1231,"nyv":1232," kapcsolat":1233," kiv":1234,"öt":1235," felt":1236," hónap":1237," jövő":1238," hozzá":1239," Egy":1240,"nagy":1241," szeret":1242,"ően":1243," foglal":1244," bizony":1245,"MNO":1246," közel":1247,"ettek":1248,"ször":1249,"észet":1250,"ord":1251," százalékkal":1252,"út":1253,"ika":1254,"szab":1255," például":1256,"ac":1257,"elnök":1258," határ":1259,"föld":1260,"íróság":1261,"ította":1262," jelenleg":1263," saját":1264," forg":1265," arról":1266,"eit":1267," vezető":1268," te":1269," alkalm":1270,"ájékoz":1271,"arc":1272," sajt":1273," ugyanis":1274,"ogatás":1275," valamint":1276,"bbi":1277,"ségi":1278," szerd":1279,"hány":1280," reg":1281," tavaly":1282,"elked":1283," miniszter":1284," Nem":1285," intéz":1286,"éről":1287," megh":1288,"alak":1289," amit":1290," óta":1291,"cia":1292,"égi":1293," jut":1294,"érték":1295," vizsgál":1296," negy":1297," olvas":1298,"örtök":1299,"ütörtök":1300,"ásár":1301," elmond":1302," szabad":1303," család":1304,"leszt":1305,"közi":1306,"oci":1307," táv":1308,"ver":1309," került":1310," alapján":1311,"otta":1312,"ark":1313," kérdés":1314,"ottak":1315,"ulajd":1316," alak":1317,"16":1318," pár":1319,"sor":1320," any":1321," mely":1322," tiszt":1323,"újt":1324,"25":1325," ismer":1326," játsz":1327,"ulajdon":1328,"ozz":1329," bal":1330," korábban":1331," kit":1332,"ológ":1333," közös":1334,").\n":1335," másik":1336,"itk":1337," számára":1338,"séget":1339," tér":1340," hiszen":1341," hason":1342,"iac":1343,"ró":1344," beszél":1345," megsz":1346,"sége":1347," hétfő":1348,"-ban":1349,"okkal":1350,"tár":1351,"lás":1352,"inak":1353,"jobb":1354,"űz":1355,"-k":1356," kedd":1357," In":1358,"11":1359,"essz":1360,"ús":1361,"ttal":1362," lap":1363,"olc":1364,"zal":1365," á":1366,"telen":1367,"itel":1368,"őváros":1369," győz":1370," ked":1371," jól":1372," megv":1373," ma":1374," perc":1375,"mi":1376," út":1377,"lag":1378," pént":1379," terület":1380,"ari":1381," csütörtök":1382," című":1383," szabály":1384,")\n":1385," hát":1386," közül":1387," euró":1388," felh":1389," program":1390," néz":1391," elt":1392,"gyű":1393," szavaz":1394," jegy":1395,"fej":1396," hossz":1397," gondol":1398," működ":1399," lehetőség":1400," százalékos":1401,"hu":1402," képviselő":1403," ör":1404," neh":1405," oldal":1406,"nagyobb":1407," hagy":1408," irány":1409," Nemzet":1410,"ánd":1411,"ay":1412,"mér":1413,"ib":1414," doll":1415," lenne":1416,"vétel":1417,"ard":1418," használ":1419," or":1420," gól":1421,"assz":1422," nyilatkoz":1423," azok":1424,"ítél":1425," önk":1426,"ron":1427,"ához":1428,"új":1429," fordul":1430," tárgy":1431,"csak":1432," akár":1433," késő":1434," folyam":1435," Budapest":1436," harmad":1437,"17":1438,"ics":1439,"súly":1440,"enged":1441,"ekint":1442,"ással":1443," ne":1444,"ókat":1445," jan":1446,"előtt":1447,"14":1448,"igaz":1449,"ull":1450,"von":1451," csökkent":1452," legnagyobb":1453," legjobb":1454," ön":1455,"jük":1456,"tor":1457," kut":1458," száll":1459," kl":1460," történt":1461,"zi":1462," fiatal":1463," míg":1464,"lament":1465," nyilván":1466,"rás":1467," fizet":1468,"Mind":1469," néhány":1470,"ésre":1471," kellett":1472," dec":1473," egym":1474," utol":1475,"acs":1476," tulajdon":1477,"nő":1478," bűn":1479," érkez":1480," hivatal":1481," során":1482,"ment":1483," szemben":1484,"jabb":1485," nyugdíj":1486," oszt":1487," elmúlt":1488," december":1489,"áló":1490,"ich":1491," magas":1492,"almas":1493," alkot":1494," rendel":1495," csoport":1496,"abd":1497," megáll":1498," aján":1499,"eztet":1500," jelentős":1501,"tó":1502,"árnap":1503," német":1504," test":1505," rendőrség":1506,"ly":1507,"ásra":1508," tíz":1509," megt":1510," aut":1511,"obl":1512," amelyek":1513,"ején":1514," nagyobb":1515,"50":1516," szervezet":1517," gyerek":1518,"sági":1519,"bán":1520," azzal":1521," legy":1522," víz":1523,"ói":1524,"erm":1525,"lik":1526,"eset":1527,"rel":1528," foglalkoz":1529," ebb":1530," cím":1531," moz":1532," elem":1533,"né":1534,"ong":1535,"13":1536," elég":1537,".,":1538," tett":1539," egyéb":1540," elmondta":1541," korábbi":1542," nép":1543," megk":1544," megfel":1545,"ah":1546," haj":1547,"ene":1548," hatás":1549," közt":1550," körny":1551,"eget":1552,"ános":1553," elfog":1554,"ítása":1555,"lés":1556,"Cs":1557,"zék":1558,"ászló":1559,"oblém":1560,"bajnok":1561,"itány":1562," els":1563,"nem":1564,"land":1565,"alt":1566," mutat":1567," negyed":1568,"ormány":1569," részt":1570," hasonló":1571," gyors":1572,"biz":1573," szél":1574," ezzel":1575,"rt":1576,"öd":1577," munka":1578,"El":1579," fut":1580,"ih":1581," fontos":1582,"-én":1583," gazdasági":1584,"eccs":1585,"etem":1586," ál":1587," tesz":1588,"elte":1589,"nny":1590," vannak":1591,"ezni":1592," sp":1593," re":1594,"jában":1595," zs":1596," változ":1597," terv":1598,"ma":1599," bár":1600," mivel":1601,"ítja":1602," dolgoz":1603," gyakor":1604,"iség":1605," szoci":1606," mindig":1607,"27":1608,"ormányz":1609,"okr":1610,"oda":1611," hiány":1612,"lin":1613," idén":1614,"Meg":1615,"ven":1616,"kőz":1617," rom":1618," parlament":1619," ám":1620,"ro":1621," tájékoz":1622," Köz":1623," Fer":1624," And":1625," január":1626," támogatás":1627,"SZP":1628," érint":1629,"talan":1630," abb":1631," föld":1632,"ovember":1633," költségvet":1634,"ssz":1635," eljár":1636," teh":1637,"esült":1638,"éssel":1639," polg":1640," kín":1641," ink":1642,"-f":1643,"lov":1644," sport":1645,"eknek":1646," fran":1647,"ákat":1648," alá":1649," elnöke":1650," bank":1651,"tam":1652," teljesít":1653," problém":1654," rossz":1655,"ock":1656," hazai":1657,"ür":1658," adó":1659," ész":1660,"átt":1661,"199":1662," rep":1663," tanul":1664,"üz":1665," kid":1666," voltak":1667," emlék":1668," inform":1669," javas":1670," gyan":1671," szen":1672,"évő":1673," teljes":1674,"áját":1675," adott":1676," vasárnap":1677,"lap":1678," sér":1679," nyolc":1680," MT":1681," kapott":1682,"ete":1683,"imp":1684," tekint":1685," László":1686," közép":1687," Ist":1688," utolsó":1689," rendelkez":1690,"ejt":1691," inkább":1692," vel":1693," megb":1694," É":1695,"-as":1696," Ch":1697,"ították":1698,"úsz":1699,"ali":1700,"óbál":1701," csat":1702,"arát":1703,"li":1704,"jának":1705,"viv":1706," MSZP":1707," adat":1708,"nia":1709," különb":1710,"óta":1711,"okon":1712," felel":1713,"aki":1714," legal":1715,"sze":1716,"leges":1717," folytat":1718,"ehér":1719," kereszt":1720,"son":1721,"éj":1722,"színű":1723,"jai":1724," további":1725,"gyel":1726,"ítette":1727,"min":1728,"olta":1729,"De":1730," főváros":1731," őket":1732,"ítő":1733," esz":1734,"úr":1735,"24":1736,"követ":1737,"ait":1738," vád":1739,"sér":1740," tette":1741," könny":1742," fogy":1743," nemzetközi":1744," egyes":1745,"\",":1746," várható":1747," sikerült":1748," gyerm":1749,"ogatott":1750,"mel":1751,"érium":1752,"atos":1753,"ekre":1754," köt":1755," önkormányz":1756,"ismer":1757," magát":1758," piac":1759," kötel":1760,"uh":1761," november":1762," újra":1763," figyelm":1764,"oknak":1765,"éhez":1766,"ion":1767,"lak":1768," bajnok":1769,"iss":1770," szomb":1771,"orvos":1772,"mal":1773," súly":1774,"ón":1775,"ülő":1776," fr":1777,"he":1778,"ens":1779,"előre":1780," ennek":1781," politikai":1782," harmadik":1783," tény":1784," magán":1785," kat":1786,"adt":1787,"erc":1788," kedv":1789," elk":1790," hall":1791," találkoz":1792,"itt":1793,"jegy":1794,"ációs":1795," megfelelő":1796,"almi":1797," milyen":1798," St":1799,"ságot":1800,"tató":1801," vit":1802," állami":1803," készült":1804," sajtó":1805," orosz":1806," megállap":1807," meccs":1808," felad":1809," utó":1810," vez":1811," elh":1812," éppen":1813," gép":1814," ber":1815," ismert":1816," Péter":1817,"ármester":1818," alkalmaz":1819,"anyol":1820,"ozta":1821,"otor":1822," átlag":1823," méd":1824,"szik":1825," zár":1826," szolgált":1827,"ebr":1828,"jét":1829,"mények":1830," kisebb":1831," mik":1832,"akkor":1833,"26":1834,"ikl":1835,"ew":1836," ezek":1837," utc":1838,"vezető":1839," következő":1840,"űr":1841,"szolg":1842,"eség":1843,"esek":1844," hol":1845," függ":1846," enged":1847," állap":1848," belül":1849,"enz":1850," szület":1851,"akat":1852," kih":1853," lev":1854," fok":1855,"áp":1856,"ukat":1857," rendez":1858,"nn":1859," talált":1860,"ecs":1861," könyv":1862," politikus":1863," európai":1864,"utt":1865,"orn":1866," szükség":1867,"milli":1868,"anyag":1869," István":1870,"től":1871,"olni":1872," indul":1873," mintegy":1874," emelked":1875,"foly":1876,"osítás":1877," éve":1878," játékos":1879,"ébe":1880,"elni":1881,"elek":1882,"állítás":1883," Ál":1884," közleked":1885,"edett":1886,"ellem":1887,"chn":1888,"mus":1889,"úg":1890," dr":1891,"dő":1892,"Szer":1893,"szor":1894,"erős":1895,"atív":1896," hon":1897,"gat":1898,"ka":1899," közlemény":1900,"40":1901," mérkőz":1902,"ím":1903,"ésére":1904," bíróság":1905," Zs":1906,"ották":1907,"cius":1908," szóló":1909,"inál":1910," ítél":1911," képest":1912," anyag":1913,"erj":1914,"Azt":1915," legalább":1916," Nagy":1917," telep":1918," mod":1919," nyert":1920," erre":1921," őr":1922,"ánk":1923,"ektet":1924,"nal":1925," növeked":1926,"hatnak":1927,"heti":1928," gyermek":1929,"övid":1930," forintot":1931," tűn":1932,"22":1933," veszély":1934,"órház":1935," bizton":1936," kívül":1937," szerdán":1938," beteg":1939," hív":1940," megl":1941," miniszterelnök":1942,"gal":1943," lévő":1944," Ny":1945," végén":1946,"ow":1947," helyen":1948," később":1949," újabb":1950," amelyet":1951," ható":1952," írja":1953," helyi":1954," helyett":1955," hitel":1956,"lom":1957," megold":1958," felelős":1959,"af":1960," évvel":1961," tárgyal":1962," halál":1963," múlt":1964," neki":1965," ellenére":1966,"isztérium":1967,"mond":1968,"emokr":1969," hétfőn":1970,"nev":1971,"uc":1972," számít":1973," valószínű":1974," sokkal":1975," tap":1976,"nok":1977,"lott":1978,"pénz":1979,"Itt":1980," elér":1981," bír":1982,"védelmi":1983," elleni":1984," én":1985,"ógy":1986," igazgató":1987,"csi":1988,"jon":1989,"csap":1990,"enk":1991,"21":1992,"alap":1993," büntet":1994,"özben":1995," föl":1996," Európ":1997,"ezték":1998,"ezt":1999," kedden":2000," tiz":2001," vásár":2002,"ikk":2003,"hetetlen":2004,"aszn":2005,"nd":2006," emberek":2007,"ennyi":2008,"uház":2009,"kori":2010," üt":2011," fenn":2012," egyre":2013," dollár":2014,"apitány":2015,"öző":2016,"nyit":2017,"oj":2018," Bal":2019," Er":2020,"földi":2021," MTI":2022," form":2023,"Am":2024,"polg":2025,"éből":2026,".hu":2027,"álaszt":2028," Állam":2029," válasz":2030," természet":2031,"-re":2032," fejleszt":2033,"etes":2034," Y":2035,"ese":2036," ahogy":2037,"23":2038," este":2039," tűz":2040,"hatja":2041," összeg":2042,"város":2043,"ettel":2044," üzlet":2045,"ebruár":2046,"gép":2047," egyetlen":2048," egyelőre":2049,"sék":2050,"encs":2051,"ezer":2052,"ózs":2053," időszak":2054," üzem":2055," évben":2056," folyamat":2057,"100":2058," utóbbi":2059,"orban":2060,"őleg":2061," Ország":2062," szóviv":2063,"nnep":2064," bem":2065," tanács":2066,"fizet":2067," egyébként":2068," kény":2069,"tóber":2070," bejelent":2071," március":2072,"asztal":2073,"ide":2074,"okra":2075,"országban":2076," válság":2077," részlet":2078," szintén":2079,"-kor":2080," iskol":2081," ismét":2082,"határ":2083," igen":2084,"vári":2085," intern":2086,"úcs":2087," uni":2088," követően":2089," Ferenc":2090,"országi":2091,"áig":2092," létre":2093," társad":2094," kíván":2095," igény":2096," csütörtökön":2097," let":2098," nehéz":2099,"inc":2100,"Nagy":2101,"eged":2102," fogyaszt":2103,"etet":2104," Európai":2105,"tr":2106,"szön":2107," szív":2108,"ékeny":2109," ünnep":2110,"pály":2111," pénteken":2112,"-v":2113,"tag":2114," rég":2115," Gábor":2116,"ázs":2117," fogad":2118,"övetség":2119,"áni":2120," Orbán":2121," vállalkoz":2122,"örgy":2123," kik":2124," helyszín":2125," készül":2126," bizottság":2127,"dig":2128,"vár":2129,"rány":2130,"íteni":2131,"ilis":2132," vet":2133,"nyug":2134," erő":2135,"ft":2136,"olás":2137,"endég":2138," ford":2139," szig":2140," egyszer":2141," ham":2142," gáz":2143," jelentette":2144," kí":2145," mérték":2146,"endő":2147,"Mi":2148," tölt":2149,"elv":2150," nyer":2151," végül":2152,"ral":2153," iz":2154," rövid":2155," műv":2156," egyen":2157," annyi":2158," fin":2159," megyei":2160," til":2161," díj":2162," szinte":2163," társaság":2164," forduló":2165," abban":2166,"ítvány":2167,"-i":2168,"mag":2169," barát":2170," Tam":2171,"ácsony":2172," ver":2173," di":2174," hosszú":2175," vonatkoz":2176,"-s":2177,"fr":2178," először":2179," tudja":2180," raj":2181," amelynek":2182,"műv":2183,"arab":2184," tehát":2185," tév":2186,"ézet":2187," kórház":2188," esély":2189," ebben":2190,"-K":2191," fogalmaz":2192," egyszerű":2193,"hogy":2194," bor":2195,"lovák":2196," kett":2197,"izmus":2198," évek":2199,"ásban":2200,"utató":2201," hatóság":2202,"jából":2203,"oni":2204," álló":2205,"obbik":2206,"-m":2207," ide":2208," szerv":2209,"ársaság":2210," brit":2211,"ői":2212,"száz":2213,"bert":2214," miután":2215," végre":2216," viszony":2217,"hetnek":2218," szakember":2219," nyújt":2220," hib":2221," szerződés":2222,"űjt":2223," Br":2224,"ird":2225," kormányz":2226,"-án":2227,"rész":2228," mit":2229,"urg":2230," délután":2231,"pal":2232,"vált":2233," ed":2234,"ere":2235," nyit":2236," kir":2237,"éseket":2238,"ulás":2239,"line":2240," fény":2241,"En":2242," február":2243,"álni":2244," ellenőr":2245,"...":2246,"több":2247," vélemény":2248,"isták":2249,"ködés":2250," alkotmány":2251,"Mint":2252,"la":2253," veszt":2254," október":2255,"dönt":2256,"őben":2257,"álat":2258," baleset":2259," X":2260,"ann":2261,"féle":2262,"ilag":2263," maga":2264," szép":2265," felk":2266," többi":2267,"üket":2268,"28":2269," előző":2270," feltétel":2271," kért":2272,"ésben":2273," vezetője":2274," vendég":2275," próbál":2276," éj":2277,"mun":2278," szakért":2279," kifej":2280," Ar":2281," utas":2282," továbbra":2283," György":2284," orvos":2285,"kezd":2286,"upán":2287," hangsúly":2288," lány":2289," Jobbik":2290," kapcsolatban":2291,"Magyar":2292,"etében":2293," kéz":2294," teljesen":2295,"pány":2296,"uz":2297," part":2298," mégis":2299," Magyarországon":2300,"adásul":2301," arány":2302," idei":2303," egészség":2304," otthon":2305,"Új":2306," töm":2307," lem":2308," elfogad":2309,"ékony":2310,"ept":2311,"hetően":2312," Vik":2313,"ama":2314," műsor":2315," világbajnok":2316," része":2317,"olja":2318," állít":2319," kevés":2320," legyen":2321,"ától":2322," áld":2323," befektet":2324," János":2325,"ork":2326," elkövet":2327,"avar":2328," érdem":2329,"szabad":2330," kics":2331,"éli":2332,"igazgató":2333," labd":2334," jelenlegi":2335,"polit":2336," port":2337," gyeng":2338,"Er":2339,"ügymin":2340," konc":2341," komoly":2342," reggel":2343,"szk":2344,"-B":2345," EU":2346," értelm":2347,"prilis":2348," vele":2349," szocial":2350,"erek":2351," kérd":2352,"ásokat":2353,"dött":2354," polgármester":2355,"za":2356,"érd":2357,"ilk":2358," szükséges":2359," szenv":2360," kult":2361," rendőrök":2362," haszn":2363,"osabb":2364," közben":2365,"vonal":2366," kiem":2367," kellene":2368,"emp":2369," Zrt":2370," férf":2371," kiad":2372," tartott":2373," energ":2374," Szab":2375," lel":2376," Nemzeti":2377," esetben":2378," ci":2379,"hajt":2380,"ándor":2381,"gatás":2382," motor":2383," utaz":2384," száma":2385,"És":2386," ezen":2387," semm":2388," szerepel":2389,"acsony":2390,"oc":2391," miért":2392,"efon":2393," szok":2394," kevesebb":2395," persze":2396," Zolt":2397," ül":2398," forintos":2399," médi":2400,"enger":2401,"etek":2402," előre":2403," benne":2404,"álló":2405,"ősorban":2406," keresked":2407," tev":2408,"ására":2409,"ségek":2410,"sága":2411," cikk":2412," pályáz":2413," környezet":2414,"KV":2415," válogatott":2416,"ga":2417,"nie":2418," poz":2419,"-nek":2420,"60":2421," érvény":2422,"ívül":2423," íg":2424,"észség":2425," segítség":2426,"nék":2427,"urcs":2428," jelölt":2429," támogat":2430," alig":2431,"attal":2432," ing":2433," ugyanakkor":2434,"ozni":2435," semmi":2436," rem":2437,"mai":2438,"rán":2439," pl":2440," gazd":2441," olimp":2442,"orvát":2443,"íti":2444," csupán":2445,"örög":2446,"apitányság":2447,"ou":2448," kialak":2449,"ná":2450," közvet":2451,"atták":2452," köszön":2453," Egyesült":2454,"iskol":2455," százaléka":2456,"rendszer":2457," karácsony":2458," intézmény":2459," fegy":2460,"ockáz":2461," Tamás":2462,"uló":2463," tagja":2464," Az":2465,"ánc":2466," akt":2467," gyanús":2468," eszköz":2469," újság":2470," francia":2471," tet":2472," kampány":2473,"két":2474,"Ezt":2475,"fer":2476," pénzügyi":2477," mög":2478," BKV":2479," összesen":2480," héten":2481," rek":2482," tanulmány":2483," vett":2484,"ileg":2485," különös":2486,"ball":2487," bér":2488,"hatatlan":2489,"ővel":2490,"ian":2491,"org":2492," Rend":2493,"ey":2494," hogyan":2495," New":2496," talán":2497,"ina":2498," lég":2499," legtöbb":2500," szempont":2501,"adék":2502,"omag":2503," kezdőd":2504," érdekében":2505,"elők":2506,"enki":2507,"ésével":2508," bőv":2509," Zoltán":2510,"enci":2511," -,":2512," gyógy":2513," jobban":2514,"szabály":2515," ell":2516," dok":2517," termék":2518," épület":2519," szül":2520," csökken":2521,"atárs":2522," április":2523,"eleg":2524,"29":2525," küz":2526,"anács":2527," indult":2528,"ona":2529," mindenki":2530," Pr":2531," név":2532,"gyűlés":2533,"DF":2534,"eje":2535,"elmű":2536," kilom":2537,"-ig":2538,"onn":2539," indok":2540," forr":2541," írta":2542,"zők":2543," központ":2544,"élet":2545," techn":2546,"ódott":2547," aztán":2548,"...\n":2549," est":2550,"íp":2551,"óri":2552,"ármaz":2553," tevékeny":2554," pill":2555,"ozik":2556," ezelőtt":2557," klub":2558,"örös":2559," siker":2560," katon":2561," elkép":2562,"álták":2563," döntött":2564," meglep":2565,"észeti":2566,"ítottak":2567,"beli":2568,"gol":2569,"engyel":2570,"átette":2571,"átor":2572," gyárt":2573," Viktor":2574,"men":2575," uniós":2576," w":2577," lény":2578," modell":2579,"ulat":2580,"ast":2581," Mar":2582," irod":2583,"róf":2584,"kívül":2585," bárm":2586,"ólag":2587,"akt":2588," állás":2589," intézked":2590," elsősorban":2591," het":2592," fal":2593,"raj":2594," állt":2595," Józs":2596,"Itthon":2597," elején":2598,"ument":2599,"get":2600," hav":2601," mer":2602," kiz":2603," épít":2604," fot":2605,"szervezet":2606," ex":2607," im":2608," Sch":2609,"oha":2610,"ségét":2611,"ományos":2612,"ezon":2613,"irdet":2614,"-sz":2615,"van":2616," sőt":2617," maradt":2618," vagyis":2619," látt":2620,"éni":2621," tulajdonos":2622,"gazdaság":2623,"se":2624,"ései":2625," állapot":2626," felf":2627," olasz":2628,"víz":2629," Fran":2630," közötti":2631,"rál":2632,"ódik":2633,"tatási":2634," keresztül":2635,"ner":2636,"ágy":2637," vagyok":2638," származ":2639,"35":2640,"énk":2641,"ezik":2642," évi":2643," egyed":2644," különböző":2645," tapasztal":2646," kísér":2647,"uális":2648," esemény":2649,"örtén":2650," vezér":2651,"io":2652," számos":2653," nemzeti":2654,"Ugyan":2655,"éves":2656," péntek":2657,"ansz":2658,"iről":2659,"zetes":2660,"par":2661," MDF":2662," felé":2663," lehetett":2664," külföldi":2665," kockáz":2666,"éteres":2667,"ásával":2668,"ila":2669," mozg":2670," spanyol":2671,"Ak":2672," módon":2673," József":2674,".),":2675," Att":2676,"31":2677,"óban":2678,"ású":2679," akad":2680," jutott":2681,"ítják":2682," munkatárs":2683," András":2684,"sért":2685," nemcsak":2686,"oldal":2687," str":2688,"iaci":2689," tervez":2690,"őként":2691," honlap":2692,"értelmű":2693,"ocsát":2694," magyaráz":2695,"álta":2696,"apír":2697," közé":2698," óra":2699,"log":2700,"íl":2701,"usok":2702," Kr":2703," nőtt":2704,"örvény":2705," had":2706," ellát":2707," akart":2708," esetében":2709," bek":2710,"udapesti":2711,"Ennek":2712,"II":2713,"váj":2714,"ésének":2715," list":2716,"andó":2717,"jára":2718," azaz":2719," alacsony":2720," szolgáltatás":2721," eml":2722,"sem":2723,"ereség":2724,"jelen":2725,"űt":2726," ap":2727,"emt":2728,"áson":2729," egykori":2730,"rec":2731," Hír":2732,"45":2733,"ekkor":2734,"idék":2735," szakasz":2736," Uni":2737,"zik":2738," közep":2739,"ozza":2740," súlyos":2741,"óg":2742,"olták":2743," kutatás":2744,"Gy":2745," darab":2746,"lőd":2747," bele":2748,"erő":2749," teljesítmény":2750," valami":2751," felhasznál":2752,"jut":2753,"rom":2754," pénzt":2755,"eptember":2756,"Így":2757," vill":2758,"akar":2759," visszat":2760,"óval":2761,"szint":2762," valaki":2763," kilenc":2764," dokument":2765," ők":2766," mély":2767," budapesti":2768,"őle":2769," történet":2770,"-h":2771," terj":2772," Rendőr":2773,"jával":2774," demokr":2775,"ente":2776,"nyire":2777," szor":2778," azokat":2779,"ékes":2780,"meg":2781,"oy":2782,"atikus":2783," mérkőzés":2784," szóvivője":2785," lényeg":2786,"Bár":2787,"ekv":2788," Sándor":2789," adatok":2790," képes":2791," független":2792," tém":2793," egyetem":2794,"óknak":2795," addig":2796," lakosság":2797," Európa":2798,"rák":2799," régi":2800,"oltak":2801," években":2802," Sp":2803,"zó":2804,"eteg":2805," eur":2806,"und":2807," jött":2808," megjelent":2809,"sa":2810,"elik":2811," felv":2812," kezdemény":2813," kínai":2814," okoz":2815,"bel":2816,"csoport":2817,"ival":2818,"80":2819,"millió":2820," lass":2821," jellem":2822," cent":2823," se":2824," végzett":2825,"fordul":2826,"fok":2827," vér":2828,"eztek":2829," dob":2830," színész":2831,"egény":2832," egyértelmű":2833," Kft":2834," El":2835," ahhoz":2836," fell":2837," fogalmazott":2838,"ler":2839,"szem":2840," kár":2841," múl":2842,"akció":2843,"atokat":2844," szezon":2845," megm":2846," nevű":2847," beruház":2848,"aként":2849,"evő":2850," ideg":2851,"iklós":2852,"úra":2853," nők":2854," kapcsolatos":2855,"ivatal":2856,"anszír":2857," ülés":2858,"eum":2859,"ítése":2860,"össze":2861,"ung":2862,"ója":2863,"elen":2864," szerencs":2865," idején":2866,"Ind":2867,"erv":2868," Megy":2869," rendkívül":2870," tudott":2871," osztály":2872," Le":2873," tömeg":2874," többször":2875," nehez":2876,"vég":2877," hajt":2878," gyűjt":2879," angol":2880," tizen":2881," vonatkozó":2882," férfit":2883,"kör":2884,"elték":2885,"ie":2886,"198":2887," Ö":2888,"rid":2889,"nyal":2890,"atott":2891," Német":2892,"eik":2893,"einek":2894,"zése":2895,"éig":2896," Biz":2897,"ocsi":2898,"párt":2899," járt":2900," Re":2901," tartalmaz":2902," támad":2903,"our":2904,"olog":2905," érkezett":2906,"lési":2907," sokat":2908," részvény":2909," választási":2910,"ack":2911,"ham":2912,"orm":2913,"ővé":2914," valószínűleg":2915,"ásának":2916," becs":2917,"jelölt":2918," mögött":2919," választások":2920,"edik":2921,"ash":2922,"ideg":2923,"eltek":2924,"cselek":2925," valóban":2926," elképzel":2927,"era":2928," nál":2929,"obil":2930," mindent":2931,"Még":2932," tr":2933," napon":2934,"tiz":2935," kutat":2936,"ósság":2937," szombaton":2938,"Több":2939,"oss":2940," rög":2941," árfoly":2942," gyakorlat":2943," titk":2944," jön":2945," korlát":2946,"émi":2947," született":2948,"-A":2949," húsz":2950,"arúg":2951,"irt":2952,"asztróf":2953," módos":2954," szeptember":2955," esett":2956," Ol":2957,"enes":2958," látható":2959," döntés":2960," akit":2961," mai":2962," felett":2963,"Már":2964,"ust":2965,"ájuk":2966," olvasható":2967," megbíz":2968," buk":2969," meghatár":2970," század":2971," ingatlan":2972,"ájában":2973," országos":2974,"gaz":2975,"tunk":2976," fed":2977,"urális":2978,"étt":2979," forgalom":2980,"ánál":2981," oda":2982,"ajos":2983," sorozat":2984,"ce":2985," nyelv":2986," élő":2987," ellenzék":2988,"de":2989,"ológiai":2990," lő":2991," tudta":2992," senki":2993," Attila":2994,"-ra":2995," kárt":2996," teszt":2997," szerk":2998," utal":2999," előny":3000," tudom":3001," tartja":3002," dokumentum":3003,"ölcs":3004," őt":3005," Zsolt":3006,"részt":3007," megny":3008," női":3009," hivatalos":3010," teszi":3011," csúcs":3012,"usban":3013,"evíz":3014,"tatta":3015," ráadásul":3016,"ca":3017,"ff":3018,"qu":3019,"úgy":3020,"keres":3021,"Or":3022,"fl":3023,"sp":3024,"vállal":3025," hatalmas":3026,"Csak":3027,"íció":3028," miközben":3029," Megyei":3030,"90":3031," korr":3032,"ultak":3033," kommun":3034," parlamenti":3035," kiderült":3036,"jön":3037," kelet":3038,"atát":3039,"őkapitányság":3040,"str":3041,"ezi":3042,"\"A":3043,"kr":3044,"ódó":3045,"étől":3046," Országos":3047,"70":3048," megszer":3049," szerzett":3050," Bar":3051," küzd":3052,"álja":3053," Min":3054," jelentkez":3055,"esül":3056,"ttól":3057," krit":3058," pan":3059," beszélt":3060," futball":3061," megállapod":3062,"almat":3063," összes":3064,"gyek":3065,"osztály":3066," bűncselek":3067,"zott":3068," azóta":3069," mondja":3070," költségvetési":3071," várhatóan":3072,"-n":3073," embert":3074," országban":3075,"ier":3076,"écs":3077,"olcs":3078,"ellett":3079," idéz":3080,"úttal":3081," terh":3082," kicsit":3083,"áért":3084," vide":3085," megjelen":3086," alk":3087," tudni":3088," együttmű":3089," tűnik":3090,"utatás":3091," esetén":3092,"örtön":3093,"Úgy":3094,"ái":3095," legf":3096," tartó":3097," arany":3098,"burg":3099," eljárás":3100," pillan":3101,"bil":3102,"lét":3103," engedély":3104,"ancs":3105," feny":3106," többet":3107," többek":3108,"onal":3109," telefon":3110," folyamatosan":3111,"Két":3112,"akoz":3113,"eszél":3114," Ant":3115,"ítették":3116," sajtót":3117,".:":3118,"jen":3119," ról":3120,"itás":3121,"lődés":3122," felső":3123," forin":3124,"-os":3125,"gr":3126," koll":3127," harc":3128," térség":3129," eddigi":3130,"nyugdíj":3131," alkalom":3132," távol":3133," tur":3134," mindössze":3135,"aba":3136,"Most":3137," ab":3138," megelő":3139," jogszabály":3140," tenni":3141," befoly":3142,"óra":3143,"ítva":3144," ellent":3145,"már":3146," egyet":3147,"úli":3148,"Index":3149," op":3150,"titk":3151," Miklós":3152," méter":3153,"arl":3154," felmér":3155," feleség":3156," Mol":3157,"jének":3158," br":3159,"hetik":3160,"ovács":3161," Rom":3162," vizsgálat":3163," hamar":3164,"ekről":3165," fiz":3166,"áború":3167," nyilvánosság":3168," ének":3169," elekt":3170,"ity":3171,"Le":3172,"alk":3173," vegy":3174," BL":3175,"tized":3176," ur":3177," dolgozó":3178,"emet":3179,"úzeum":3180," York":3181,"janak":3182," lez":3183,"apán":3184," megerős":3185," akinek":3186," tájékoztatás":3187," ég":3188,"edt":3189," munkav":3190," fenntart":3191,"au":3192,"iában":3193,"Ny":3194,"ry":3195,"állam":3196," at":3197,"elmet":3198,"nökség":3199,"vá":3200," mut":3201," végig":3202," szereplő":3203,"szolgált":3204,"sen":3205," egyéni":3206,"ota":3207,"tuk":3208,"eként":3209," jelenti":3210,"-főkapitányság":3211," forinttal":3212,"ax":3213,"man":3214,"pár":3215," elb":3216," hivatkoz":3217,"-től":3218," annyira":3219," [":3220,"Sport":3221,"eznek":3222,"illag":3223,"néz":3224,"általán":3225," Új":3226,"ebben":3227,"játék":3228,"vájci":3229," figyelem":3230," kilométer":3231," szöv":3232,"rag":3233,"tabil":3234," előzetes":3235," környék":3236," észak":3237," javaslat":3238,"if":3239,"ereg":3240,"éve":3241,"polgár":3242,"una":3243,"ikat":3244,"áltak":3245," amelyben":3246," szerződ":3247," informáci":3248," menny":3249," éjszak":3250," módszer":3251," ajánl":3252," assz":3253," szövet":3254," tudós":3255," szakmai":3256," önkormányzat":3257,"izál":3258," proj":3259,"urcsány":3260,"MP":3261,"álóz":3262," seb":3263," mostani":3264," román":3265," zaj":3266," nyilatkozta":3267," költségvetés":3268,"ij":3269,"hatják":3270," cégek":3271," negyedik":3272,"iát":3273," vette":3274," meghal":3275,"Hozz":3276,"önyv":3277," fidesz":3278," idős":3279," egymás":3280,"ezz":3281,"inte":3282," Lig":3283," vagyon":3284," vagyunk":3285,"ontosabb":3286," biztonsági":3287,"mód":3288,"anad":3289," szom":3290,"olják":3291," Lajos":3292," igazság":3293,"ázis":3294,"lenül":3295," mindkét":3296," azonos":3297," időben":3298," óri":3299," finanszír":3300," hatóságok":3301,"500":3302," börtön":3303,"hetett":3304,"jog":3305," lenni":3306,"elj":3307,"atban":3308," baj":3309," belső":3310,"ián":3311,"világ":3312," évtized":3313,"-egy":3314,"lám":3315," beszám":3316,".)\n":3317,"nline":3318," húz":3319,"orú":3320," felül":3321," részét":3322," hit":3323," sokan":3324,"Hogy":3325,"kék":3326," cser":3327,"berg":3328," település":3329,"hol":3330,"séggel":3331,"raz":3332," Mad":3333," ügyben":3334," érintett":3335,"ügyminiszter":3336," ígér":3337," különösen":3338,"ore":3339," fehér":3340," sí":3341,"Ezek":3342," munkahely":3343," visszav":3344," örök":3345,"nevezett":3346," ős":3347,"ker":3348,"égy":3349," kin":3350," elad":3351," jég":3352,"osok":3353," Nép":3354,"ípus":3355,"SA":3356," máj":3357,"elleg":3358," hull":3359," bevezet":3360," eh":3361,"300":3362,"Ar":3363," fővárosi":3364," népszerű":3365,"Magyarország":3366," szlovák":3367," figyelmet":3368,"32":3369,"ötte":3370,"tatott":3371,"tette":3372," hosszabb":3373," biztonság":3374," elé":3375," legutó":3376," Egyetem":3377," szex":3378," egyáltalán":3379,"ándék":3380,"-b":3381," szét":3382," tervezett":3383,"enet":3384," Man":3385,"szerep":3386,"ítását":3387,"oszk":3388,"ox":3389," mező":3390,"okból":3391," dolog":3392," legk":3393," államtitk":3394," igyek":3395," információ":3396," rak":3397," dí":3398," Budapesten":3399," internet":3400," szervez":3401,"szabadság":3402," agy":3403," hí":3404," kijelent":3405," évre":3406," számító":3407," történelmi":3408," lakás":3409,"hess":3410,"űk":3411,"szel":3412,"Minden":3413," rendezvény":3414," labdarúg":3415," Kár":3416," Inter":3417," kateg":3418,"DP":3419,"eltet":3420," sért":3421," bevétel":3422,"ick":3423,"helyett":3424," zárt":3425," jóval":3426," konz":3427," legfontosabb":3428," Im":3429," hangsúlyozta":3430," kísérlet":3431,"ach":3432," emberi":3433," minőség":3434," általában":3435," interj":3436," szocialista":3437," pontosan":3438," őrizet":3439," egyedül":3440,"Ebb":3441,"éért":3442," agg":3443," erről":3444," jövőre":3445," természetesen":3446,"ciós":3447,"ekete":3448," óv":3449," tavalyi":3450,"34":3451," felvétel":3452,"iplom":3453," testület":3454,"fér":3455," robb":3456," gar":3457," lesznek":3458," bizonyos":3459," érdemes":3460,"36":3461,"etett":3462,"adta":3463," épp":3464," tehet":3465," magasabb":3466,"szó":3467,"élt":3468," azonnal":3469,"hang":3470,"nőtt":3471,"Világ":3472," hideg":3473,"valós":3474," lehetne":3475," maguk":3476,"ford":3477," kib":3478," folyó":3479," kutató":3480," kötelező":3481,"zési":3482," svájci":3483," rab":3484,"bizt":3485,"Ki":3486,"öny":3487," Ber":3488," pontos":3489," található":3490," király":3491,"-M":3492," csinál":3493,"örök":3494," küld":3495," kényszer":3496," busz":3497,"őzs":3498," ekkor":3499," várt":3500," tudják":3501," összef":3502,"felé":3503," jövőben":3504," Bizottság":3505," csomag":3506," level":3507,"igo":3508," sikeres":3509," egészen":3510,"inkább":3511,"perc":3512,"gyűlési":3513," tűzolt":3514," sajtótájékoz":3515,"DSZ":3516,"áns":3517,"ainak":3518," Ind":3519," repül":3520," sérült":3521," csatlak":3522," lit":3523," kutatók":3524,"vil":3525,"üst":3526,"ozók":3527," közölt":3528," helyre":3529," hozott":3530," tenger":3531," bíz":3532," For":3533," Géz":3534," jogi":3535," jármű":3536,"bé":3537,"ood":3538,"tes":3539," hátt":3540,"ism":3541,"hatott":3542,"foglal":3543," találtak":3544,"rá":3545,"ónak":3546," tor":3547,"ine":3548," megvalós":3549," nyí":3550,"ítási":3551,"bíróság":3552,"utas":3553," felügy":3554," prod":3555," nekik":3556,"ítható":3557," fogja":3558," edző":3559,"ételt":3560," jöved":3561," igazán":3562,"hi":3563,"áris":3564," kormányfő":3565,"képpen":3566,"film":3567," dev":3568,"alma":3569,"álisan":3570," készített":3571," piaci":3572,"adik":3573,"ciót":3574,"egyen":3575,"veszt":3576,"áron":3577," soha":3578,"ákkal":3579," bev":3580," kapcs":3581," igazgatója":3582," internetes":3583," szándék":3584," arc":3585,"37":3586," szór":3587,"onc":3588," elismer":3589,"ula":3590,"szerző":3591," érz":3592," adta":3593," úgynevezett":3594," friss":3595,":\n":3596,"An":3597,"nének":3598," kont":3599,"átum":3600," Val":3601,"szaki":3602," célja":3603," alakul":3604," vág":3605,"ilt":3606," Pet":3607," zen":3608," családi":3609," Géza":3610," mes":3611," gyak":3612," többség":3613,"ajnos":3614," menet":3615," negyedév":3616," szenved":3617," fest":3618," poszt":3619,"idő":3620," minős":3621,"Al":3622,"attak":3623," idők":3624,"ítást":3625," játszott":3626," megvált":3627," Vas":3628," zöld":3629," feladat":3630,"faj":3631,"eri":3632,"élemény":3633," prof":3634," infl":3635," áldoz":3636," meleg":3637," Tim":3638," tudnak":3639," napokban":3640," beszéd":3641," társadalmi":3642,"úk":3643,"ilap":3644," köny":3645," szerinte":3646," Tanács":3647," igazi":3648," elkész":3649,"ekvő":3650," érzék":3651,"197":3652," társadalom":3653," segítségével":3654,".-":3655," vad":3656," egészségügyi":3657,"hatunk":3658," tartóz":3659," róla":3660,"odik":3661,"Ezzel":3662," mobil":3663," szav":3664," szolgál":3665," Bel":3666," forrás":3667,"ájának":3668," magyarországi":3669,"gazdasági":3670," fideszes":3671," ehhez":3672,"harmad":3673," hő":3674," lengyel":3675,"kezett":3676," ebből":3677," kötött":3678,"33":3679,"Sok":3680,"rab":3681,"ondoni":3682,"ulcs":3683," Pál":3684," délelőtt":3685," pil":3686," Ad":3687," részben":3688," döntő":3689,"-Sz":3690,"ásos":3691,"érte":3692,"usi":3693,"BC":3694," harm":3695," megtal":3696," diplom":3697," kétszer":3698,"usztrál":3699," diák":3700,"belül":3701," ára":3702,"atta":3703,"ital":3704,"oldali":3705,"-nak":3706,"Em":3707," Bank":3708,"oldog":3709,"Mivel":3710,"úni":3711," kal":3712,"okról":3713," választók":3714,"kotmány":3715," mennyiség":3716," attól":3717,"ozása":3718," átalak":3719,"ebrec":3720,"res":3721,"nyel":3722," ri":3723," megf":3724,"itív":3725," feld":3726," The":3727," ismeretlen":3728," jelentősen":3729,"var":3730," LMP":3731," Szer":3732," minisztérium":3733," Központ":3734,"ener":3735,"íték":3736," KA":3737,"ered":3738," Kín":3739," Tib":3740," Államok":3741," köszönhetően":3742," remény":3743," vége":3744," általános":3745," visszatér":3746,"ium":3747," működés":3748,"osszabb":3749," életét":3750," erősöd":3751," létrehoz":3752,"origo":3753," időt":3754," keretében":3755,"onnan":3756," sajtótájékoztató":3757,"Elő":3758,"ael":3759,"co":3760,"kan":3761,"tan":3762,"eleti":3763," láb":3764,"ozást":3765,"forg":3766,"-,":3767,"enként":3768," szob":3769," meggy":3770,"ökkent":3771,"zések":3772,"olv":3773,"195":3774," eny":3775," szék":3776," elők":3777," ezeket":3778,"ennél":3779," osztrák":3780,"Amikor":3781," éd":3782,"Online":3783,"anc":3784,"abban":3785,"com":3786,"odott":3787,"ünket":3788," civil":3789,"hagy":3790,"igy":3791,"nának":3792," elsz":3793,"ítan":3794,"őknek":3795," leginkább":3796,"várium":3797," téli":3798,"onttal":3799,"olf":3800," kim":3801,"nyom":3802," Világ":3803," forintra":3804," értékesít":3805," megfelelően":3806," stabil":3807," köl":3808," felsz":3809," mintha":3810,"ádió":3811,"házy":3812," eredeti":3813," of":3814,"bev":3815,"takar":3816," köztük":3817," hasonlóan":3818," elkezd":3819," állampolgár":3820," alkalommal":3821,"haj":3822,"ror":3823,"atók":3824," úton":3825,"oft":3826,"vesz":3827,"ini":3828,"artóz":3829," egyház":3830," csaknem":3831," munkan":3832," tényleg":3833," Antik":3834," ölt":3835,"Per":3836," papír":3837,"ügynökség":3838," prób":3839,"kodó":3840,"fejleszt":3841,"pénzt":3842,"Val":3843," vitt":3844," Mich":3845,"ivat":3846," írt":3847,"ennyiben":3848," felkész":3849,"ságban":3850," Th":3851,"atait":3852," reag":3853," reform":3854,"társ":3855," vizsg":3856,"hatók":3857," napi":3858," Cl":3859,"-vel":3860," vereség":3861,"esi":3862," Ro":3863," országgyűlési":3864,"upa":3865," bü":3866," Sh":3867," Szent":3868," százalékát":3869," hétvég":3870," Gyurcsány":3871,"úti":3872,".B":3873,"dék":3874,"sé":3875,"ásai":3876," londoni":3877," sincs":3878," jogos":3879,"arcel":3880,"jebb":3881,"red":3882,"ásnak":3883,"ara":3884,"ogató":3885," közz":3886," akció":3887," Orosz":3888," gólt":3889," font":3890,"issz":3891," bot":3892," rang":3893," megpr":3894,"ova":3895," hátrány":3896," katasztróf":3897,"Hozzátette":3898,"écsi":3899,"elése":3900," löv":3901," cig":3902," minim":3903," mértékben":3904,"szich":3905,"ektől":3906,"-p":3907," kemény":3908,"íts":3909,"ítik":3910,"edv":3911," felnőtt":3912," kezelés":3913," haza":3914," Antikvárium":3915,"munk":3916,"üv":3917," tagjai":3918,"38":3919," mikor":3920," szár":3921," megrend":3922,"bank":3923," szabadság":3924," működik":3925," portál":3926,"ilkosság":3927," szöveg":3928,"-d":3929,"öp":3930," tök":3931," védelm":3932," felhív":3933," tiltak":3934," összefügg":3935," kapcsán":3936," sztr":3937," kisz":3938,"ölgy":3939,"élyes":3940,"köt":3941," havi":3942," Mil":3943," önkormányzati":3944," emelkedett":3945," gyógyszer":3946,"ásában":3947,"esztő":3948," szerda":3949,"fokú":3950," lőtt":3951," kommunik":3952,"Köz":3953," hirdet":3954," Főváros":3955,"uguszt":3956," esetleg":3957," férfiak":3958," rajta":3959," asszony":3960," vörös":3961," közön":3962,"évén":3963,"ence":3964," ütköz":3965," idegen":3966,"krét":3967,"da":3968,"ákban":3969," feljelent":3970," eltér":3971," gyakran":3972,"cz":3973," benn":3974," kötet":3975," előbb":3976," munkát":3977,"közel":3978,"höz":3979,"adók":3980,"ítására":3981," hozzát":3982," együttes":3983," sérül":3984,"jén":3985," szövetség":3986,"énnyel":3987," jelleg":3988," SZ":3989," lehetővé":3990," zavar":3991,"hatóság":3992," Csaba":3993," kamat":3994," gyorsan":3995,"ecsk":3996," letartóz":3997," íz":3998," mindenk":3999}