{
  "version": "1.0",
  "truncation": null,
  "padding": null,
  "added_tokens": [
    {
      "id": 25000,
      "content": "[UNK]",
      "single_word": false,
      "lstrip": false,
      "rstrip": false,
      "normalized": false,
      "special": true
    }
  ],
  "normalizer": null,
  "pre_tokenizer": {
    "type": "Sequence",
    "pretokenizers": [
      {
        "type": "Split",
        "pattern": {
          "Regex": "\\p{N}{1,3}| ?[^\\s\\p{L}\\p{N}]{2,}[\\r\\n/]*| +(?!\\S)"
        },
        "behavior": "Isolated",
        "invert": false
      }
    ]
  },
  "post_processor": null,
  "decoder": null,
  "model": {
    "type": "BPE",
    "dropout": null,
    "unk_token": null,
    "continuing_subword_prefix": null,
    "end_of_word_suffix": null,
    "fuse_unk": false,
    "byte_fallback": false,
    "ignore_merges": false,
    "vocab": {
      "\n": 0,
      " ": 1,
      "!": 2,
      "\"": 3,
      "#": 4,
      "$": 5,
      "%": 6,
      "&": 7,
      "'": 8,
      "(": 9,
      ")": 10,
      "*": 11,
      "+": 12,
      ",": 13,
      "-": 14,
      ".": 15,
      "/": 16,
      "0": 17,
      "1": 18,
      "2": 19,
      "3": 20,
      "4": 21,
      "5": 22,
      "6": 23,
      "7": 24,
      "8": 25,
      "9": 26,
      ":": 27,
      ";": 28,
      "<": 29,
      "=": 30,
      ">": 31,
      "?": 32,
      "@": 33,
      "A": 34,
      "B": 35,
      "C": 36,
      "D": 37,
      "E": 38,
      "F": 39,
      "G": 40,
      "H": 41,
      "I": 42,
      "J": 43,
      "K": 44,
      "L": 45,
      "M": 46,
      "N": 47,
      "O": 48,
      "P": 49,
      "Q": 50,
      "R": 51,
      "S": 52,
      "T": 53,
      "U": 54,
      "V": 55,
      "W": 56,
      "X": 57,
      "Y": 58,
      "Z": 59,
      "[": 60,
      "\\": 61,
      "]": 62,
      "_": 63,
      "`": 64,
      "a": 65,
      "b": 66,
      "c": 67,
      "d": 68,
      "e": 69,
      "f": 70,
      "g": 71,
      "h": 72,
      "i": 73,
      "j": 74,
      "k": 75,
      "l": 76,
      "m": 77,
      "n": 78,
      "o": 79,
      "p": 80,
      "q": 81,
      "r": 82,
      "s": 83,
      "t": 84,
      "u": 85,
      "v": 86,
      "w": 87,
      "x": 88,
      "y": 89,
      "z": 90,
      "~": 91,
      "£": 92,
      "©": 93,
      "­": 94,
      "°": 95,
      "·": 96,
      "º": 97,
      "¼": 98,
      "½": 99,
      "Á": 100,
      "×": 101,
      "â": 102,
      "æ": 103,
      "đ": 104,
      "ơ": 105,
      "ư": 106,
      "ʼ": 107,
      "́": 108,
      "α": 109,
      "β": 110,
      "،": 111,
      "؛": 112,
      "؟": 113,
      "ء": 114,
      "آ": 115,
      "أ": 116,
      "ؤ": 117,
      "إ": 118,
      "ئ": 119,
      "ا": 120,
      "ب": 121,
      "ت": 122,
      "ث": 123,
      "ج": 124,
      "ح": 125,
      "خ": 126,
      "د": 127,
      "ذ": 128,
      "ر": 129,
      "ز": 130,
      "س": 131,
      "ش": 132,
      "ص": 133,
      "ض": 134,
      "ط": 135,
      "ظ": 136,
      "ع": 137,
      "غ": 138,
      "ف": 139,
      "ق": 140,
      "ل": 141,
      "م": 142,
      "ن": 143,
      "ه": 144,
      "و": 145,
      "ى": 146,
      "ي": 147,
      "ً": 148,
      "َ": 149,
      "ُ": 150,
      "ِ": 151,
      "ّ": 152,
      "ٓ": 153,
      "ٰ": 154,
      "ٹ": 155,
      "پ": 156,
      "چ": 157,
      "ڈ": 158,
      "ڑ": 159,
      "ڕ": 160,
      "ژ": 161,
      "ک": 162,
      "گ": 163,
      "ڵ": 164,
      "ں": 165,
      "ھ": 166,
      "ہ": 167,
      "ۆ": 168,
      "ی": 169,
      "ێ": 170,
      "ے": 171,
      "۔": 172,
      "ە": 173,
      "ँ": 174,
      "ं": 175,
      "ः": 176,
      "अ": 177,
      "आ": 178,
      "इ": 179,
      "ई": 180,
      "उ": 181,
      "ऊ": 182,
      "ए": 183,
      "ऐ": 184,
      "ऑ": 185,
      "ओ": 186,
      "औ": 187,
      "क": 188,
      "ख": 189,
      "ग": 190,
      "घ": 191,
      "च": 192,
      "छ": 193,
      "ज": 194,
      "झ": 195,
      "ञ": 196,
      "ट": 197,
      "ठ": 198,
      "ड": 199,
      "ढ": 200,
      "ण": 201,
      "त": 202,
      "थ": 203,
      "द": 204,
      "ध": 205,
      "न": 206,
      "प": 207,
      "फ": 208,
      "ब": 209,
      "भ": 210,
      "म": 211,
      "य": 212,
      "र": 213,
      "ल": 214,
      "व": 215,
      "श": 216,
      "ष": 217,
      "स": 218,
      "ह": 219,
      "़": 220,
      "ा": 221,
      "ि": 222,
      "ी": 223,
      "ु": 224,
      "ू": 225,
      "ृ": 226,
      "े": 227,
      "ै": 228,
      "ॉ": 229,
      "ो": 230,
      "ौ": 231,
      "्": 232,
      "ड़": 233,
      "ढ़": 234,
      "।": 235,
      "॥": 236,
      "०": 237,
      "२": 238,
      "४": 239,
      "ঃ": 240,
      "অ": 241,
      "আ": 242,
      "এ": 243,
      "ও": 244,
      "ক": 245,
      "গ": 246,
      "চ": 247,
      "জ": 248,
      "ট": 249,
      "ড": 250,
      "ত": 251,
      "দ": 252,
      "ধ": 253,
      "ন": 254,
      "প": 255,
      "ফ": 256,
      "ব": 257,
      "ভ": 258,
      "ম": 259,
      "য": 260,
      "র": 261,
      "ল": 262,
      "শ": 263,
      "স": 264,
      "হ": 265,
      "়": 266,
      "া": 267,
      "ি": 268,
      "ী": 269,
      "ু": 270,
      "ে": 271,
      "ৈ": 272,
      "ো": 273,
      "্": 274,
      "য়": 275,
      "ৰ": 276,
      "ৱ": 277,
      "ଁ": 278,
      "ଂ": 279,
      "ଃ": 280,
      "ଅ": 281,
      "ଆ": 282,
      "ଇ": 283,
      "ଈ": 284,
      "ଉ": 285,
      "ଏ": 286,
      "ଓ": 287,
      "କ": 288,
      "ଖ": 289,
      "ଗ": 290,
      "ଘ": 291,
      "ଙ": 292,
      "ଚ": 293,
      "ଛ": 294,
      "ଜ": 295,
      "ଝ": 296,
      "ଞ": 297,
      "ଟ": 298,
      "ଠ": 299,
      "ଡ": 300,
      "ଢ": 301,
      "ଣ": 302,
      "ତ": 303,
      "ଥ": 304,
      "ଦ": 305,
      "ଧ": 306,
      "ନ": 307,
      "ପ": 308,
      "ଫ": 309,
      "ବ": 310,
      "ଭ": 311,
      "ମ": 312,
      "ଯ": 313,
      "ର": 314,
      "ଲ": 315,
      "ଳ": 316,
      "ଵ": 317,
      "ଶ": 318,
      "ଷ": 319,
      "ସ": 320,
      "ହ": 321,
      "଼": 322,
      "ା": 323,
      "ି": 324,
      "ୀ": 325,
      "ୁ": 326,
      "ୂ": 327,
      "ୃ": 328,
      "େ": 329,
      "ୈ": 330,
      "ୋ": 331,
      "ୌ": 332,
      "୍": 333,
      "ଡ଼": 334,
      "ୟ": 335,
      "୦": 336,
      "୧": 337,
      "୨": 338,
      "୩": 339,
      "୪": 340,
      "୫": 341,
      "୬": 342,
      "୭": 343,
      "୮": 344,
      "୯": 345,
      "ୱ": 346,
      "அ": 347,
      "ஆ": 348,
      "இ": 349,
      "உ": 350,
      "ஊ": 351,
      "எ": 352,
      "ஏ": 353,
      "க": 354,
      "ங": 355,
      "ச": 356,
      "ஜ": 357,
      "ட": 358,
      "ண": 359,
      "த": 360,
      "ந": 361,
      "ன": 362,
      "ப": 363,
      "ம": 364,
      "ய": 365,
      "ர": 366,
      "ற": 367,
      "ல": 368,
      "ள": 369,
      "வ": 370,
      "ஸ": 371,
      "ா": 372,
      "ி": 373,
      "ீ": 374,
      "ு": 375,
      "ூ": 376,
      "ெ": 377,
      "ே": 378,
      "ை": 379,
      "ொ": 380,
      "ோ": 381,
      "்": 382,
      "ఁ": 383,
      "ం": 384,
      "ః": 385,
      "అ": 386,
      "ఆ": 387,
      "ఇ": 388,
      "ఈ": 389,
      "ఉ": 390,
      "ఊ": 391,
      "ఋ": 392,
      "ఎ": 393,
      "ఏ": 394,
      "ఐ": 395,
      "ఒ": 396,
      "ఓ": 397,
      "ఔ": 398,
      "క": 399,
      "ఖ": 400,
      "గ": 401,
      "ఘ": 402,
      "ఙ": 403,
      "చ": 404,
      "ఛ": 405,
      "జ": 406,
      "ఝ": 407,
      "ఞ": 408,
      "ట": 409,
      "ఠ": 410,
      "డ": 411,
      "ఢ": 412,
      "ణ": 413,
      "త": 414,
      "థ": 415,
      "ద": 416,
      "ధ": 417,
      "న": 418,
      "ప": 419,
      "ఫ": 420,
      "బ": 421,
      "భ": 422,
      "మ": 423,
      "య": 424,
      "ర": 425,
      "ఱ": 426,
      "ల": 427,
      "ళ": 428,
      "వ": 429,
      "శ": 430,
      "ష": 431,
      "స": 432,
      "హ": 433,
      "ఽ": 434,
      "ా": 435,
      "ి": 436,
      "ీ": 437,
      "ు": 438,
      "ూ": 439,
      "ృ": 440,
      "ౄ": 441,
      "ె": 442,
      "ే": 443,
      "ై": 444,
      "ొ": 445,
      "ో": 446,
      "ౌ": 447,
      "్": 448,
      "ౖ": 449,
      "౦": 450,
      "౧": 451,
      "౩": 452,
      "౪": 453,
      "౬": 454,
      "౹": 455,
      "ಂ": 456,
      "ಃ": 457,
      "ಅ": 458,
      "ಆ": 459,
      "ಇ": 460,
      "ಈ": 461,
      "ಉ": 462,
      "ಊ": 463,
      "ಎ": 464,
      "ಏ": 465,
      "ಐ": 466,
      "ಒ": 467,
      "ಓ": 468,
      "ಔ": 469,
      "ಕ": 470,
      "ಖ": 471,
      "ಗ": 472,
      "ಘ": 473,
      "ಚ": 474,
      "ಛ": 475,
      "ಜ": 476,
      "ಝ": 477,
      "ಞ": 478,
      "ಟ": 479,
      "ಠ": 480,
      "ಡ": 481,
      "ಢ": 482,
      "ಣ": 483,
      "ತ": 484,
      "ಥ": 485,
      "ದ": 486,
      "ಧ": 487,
      "ನ": 488,
      "ಪ": 489,
      "ಫ": 490,
      "ಬ": 491,
      "ಭ": 492,
      "ಮ": 493,
      "ಯ": 494,
      "ರ": 495,
      "ಲ": 496,
      "ಳ": 497,
      "ವ": 498,
      "ಶ": 499,
      "ಷ": 500,
      "ಸ": 501,
      "ಹ": 502,
      "ಾ": 503,
      "ಿ": 504,
      "ೀ": 505,
      "ು": 506,
      "ೂ": 507,
      "ೃ": 508,
      "ೆ": 509,
      "ೇ": 510,
      "ೈ": 511,
      "ೊ": 512,
      "ೋ": 513,
      "ೌ": 514,
      "್": 515,
      "ം": 516,
      "അ": 517,
      "ആ": 518,
      "ഇ": 519,
      "ഈ": 520,
      "എ": 521,
      "ഒ": 522,
      "ക": 523,
      "ഗ": 524,
      "ങ": 525,
      "ച": 526,
      "ജ": 527,
      "ട": 528,
      "ഡ": 529,
      "ണ": 530,
      "ത": 531,
      "ദ": 532,
      "ധ": 533,
      "ന": 534,
      "പ": 535,
      "ബ": 536,
      "ഭ": 537,
      "മ": 538,
      "യ": 539,
      "ര": 540,
      "റ": 541,
      "ല": 542,
      "ള": 543,
      "ഴ": 544,
      "വ": 545,
      "ശ": 546,
      "ഷ": 547,
      "സ": 548,
      "ാ": 549,
      "ി": 550,
      "ീ": 551,
      "ു": 552,
      "ൂ": 553,
      "ൃ": 554,
      "െ": 555,
      "േ": 556,
      "ൈ": 557,
      "ൊ": 558,
      "ോ": 559,
      "്": 560,
      "ൗ": 561,
      "ൻ": 562,
      "ർ": 563,
      "ൽ": 564,
      "ൾ": 565,
      "ả": 566,
      "ầ": 567,
      "ậ": 568,
      "ệ": 569,
      "ố": 570,
      "ớ": 571,
      "ờ": 572,
      "ở": 573,
      "ợ": 574,
      "ứ": 575,
      "‌": 576,
      "‍": 577,
      "‎": 578,
      "‏": 579,
      "‑": 580,
      "‒": 581,
      "•": 582,
      "‪": 583,
      "‫": 584,
      "‬": 585,
      "‭": 586,
      "′": 587,
      "″": 588,
      "⁠": 589,
      "⁪": 590,
      "⁫": 591,
      "⁬": 592,
      "⁭": 593,
      "⁯": 594,
      "€": 595,
      "₹": 596,
      "⃣": 597,
      "∙": 598,
      "≠": 599,
      "▪": 600,
      "►": 601,
      "◆": 602,
      "◉": 603,
      "●": 604,
      "★": 605,
      "☛": 606,
      "♥": 607,
      "♦": 608,
      "✳": 609,
      "❌": 610,
      "➡": 611,
      "➦": 612,
      "⦁": 613,
      "️": 614,
      "ﹰ": 615,
      "🇪": 616,
      "🇬": 617,
      "🇮": 618,
      "🇳": 619,
      "🌹": 620,
      "🏼": 621,
      "👇": 622,
      "👉": 623,
      "👊": 624,
      "👋": 625,
      "👌": 626,
      "💐": 627,
      "💚": 628,
      "💥": 629,
      "💪": 630,
      "🔥": 631,
      "🔴": 632,
      "🔸": 633,
      "🔹": 634,
      "😂": 635,
      "😉": 636,
      "😊": 637,
      "😜": 638,
      "😞": 639,
      "😠": 640,
      "😡": 641,
      "😥": 642,
      "🙂": 643,
      "🙏": 644,
      "🚩": 645,
      "🤜": 646,
      "🤭": 647,
      "ు ": 648,
      "‌‌": 649,
      "ి ": 650,
      "్ ": 651,
      "ార": 652,
      ".\n": 653,
      "్ర": 654,
      "ో ": 655,
      "న్": 656,
      "‌‌‌‌": 657,
      "ా ": 658,
      "ిం": 659,
      "ర్": 660,
      "స్": 661,
      "ాల": 662,
      "న్న": 663,
      "ం ": 664,
      "్ల": 665,
      "్య": 666,
      "ు.\n": 667,
      "ుల": 668,
      "ిక": 669,
      "ని ": 670,
      "ప్ర": 671,
      "న ": 672,
      "లో ": 673,
      "చే": 674,
      "ీ ": 675,
      "ి.\n": 676,
      "ే ": 677,
      "్ట": 678,
      "‌‌‌‌‌‌‌‌": 679,
      "ుం": 680,
      "కు ": 681,
      "గా ": 682,
      "ని": 683,
      "స్త": 684,
      "క్": 685,
      "ాన": 686,
      "వి": 687,
      "ున్న": 688,
      "ాయ": 689,
      "ంద": 690,
      "ుక": 691,
      " క": 692,
      "ెల": 693,
      "్‌": 694,
      "ను ": 695,
      "ుత": 696,
      "రా": 697,
      "్ప": 698,
      "రి": 699,
      "లు ": 700,
      " మ": 701,
      " స": 702,
      "ంత": 703,
      "ాం": 704,
      "ర్ ": 705,
      " ప": 706,
      "స్ ": 707,
      "ిన ": 708,
      "ెం": 709,
      " వ": 710,
      "ంట": 711,
      "ప్ప": 712,
      "న్ ": 713,
      "ులు ": 714,
      "ల్ల": 715,
      "చార": 716,
      "ిత": 717,
      " అ": 718,
      "వా": 719,
      "‌‌‌‌‌‌‌‌‌‌‌‌‌‌‌‌": 720,
      "ట్ట": 721,
      "ికి ": 722,
      "్వ": 723,
      "మా": 724,
      "ంలో ": 725,
      "డి": 726,
      "పో": 727,
      "ట్ల": 728,
      "ంగా ": 729,
      "చ్": 730,
      "్త": 731,
      "చి ": 732,
      "ట్ ": 733,
      "ద్": 734,
      "ీస": 735,
      "చేస": 736,
      "..\n": 737,
      "రు": 738,
      "లో": 739,
      "డు ": 740,
      "పై": 741,
      "తో ": 742,
      "ున్నార": 743,
      "ామ": 744,
      "క్ష": 745,
      "తెల": 746,
      " ప్ర": 747,
      "క్క": 748,
      "ల్ ": 749,
      " న": 750,
      "ండ": 751,
      "ాద": 752,
      "్మ": 753,
      "రో": 754,
      "డ్": 755,
      "ేశ": 756,
      "ేద": 757,
      "ు,": 758,
      "ాడ": 759,
      "స్ట": 760,
      "వార": 761,
      "ాట": 762,
      "ిన": 763,
      "ాలు ": 764,
      "ళ్ల": 765,
      "డా ": 766,
      "ంగ": 767,
      "కూ": 768,
      "చె": 769,
      "పె": 770,
      "చ్చ": 771,
      "ి,": 772,
      "గ్ర": 773,
      "్యా": 774,
      "న్ని ": 775,
      " త": 776,
      "సీ": 777,
      "ిస్త": 778,
      "త్త": 779,
      "న్నార": 780,
      "గు": 781,
      "ద్ద": 782,
      "వర": 783,
      "ష్ట": 784,
      "్,": 785,
      "కో": 786,
      "పార": 787,
      " బ": 788,
      "సి": 789,
      "కా": 790,
      "ానికి ": 791,
      "నే ": 792,
      "డి ": 793,
      "కొ": 794,
      "స్థ": 795,
      " ఆ": 796,
      "దు": 797,
      "ేం": 798,
      "టీ": 799,
      "రె": 800,
      "తి": 801,
      "వే": 802,
      "కార": 803,
      "రు ": 804,
      "చేస్త": 805,
      "కి ": 806,
      "ాగ": 807,
      "మార": 808,
      "మ్మ": 809,
      "త్ర": 810,
      "చేశ": 811,
      " జ": 812,
      "ువ": 813,
      "‌‌‌‌‌‌‌‌‌‌‌‌‌‌‌‌‌‌‌‌‌‌‌‌‌‌‌‌‌‌‌‌": 814,
      "లి": 815,
      " వి": 816,
      "్స": 817,
      "చేయ": 818,
      "ుగ": 819,
      "ిల్ల": 820,
      "ొం": 821,
      "నిర్": 822,
      "తి ": 823,
      "కే": 824,
      " ద": 825,
      "ఉన్న": 826,
      "నే": 827,
      " ఎ": 828,
      "డ్ ": 829,
      "ట్లు ": 830,
      " ర": 831,
      "కూడా ": 832,
      "ుడు ": 833,
      "అయ": 834,
      "సం": 835,
      "్లో ": 836,
      "చేశార": 837,
      "చెప్ప": 838,
      "లేద": 839,
      "మి": 840,
      "పీ ": 841,
      "తెలి": 842,
      "మె": 843,
      "యా": 844,
      "ీల": 845,
      "ంతో ": 846,
      "ది ": 847,
      "టి ": 848,
      "ికార": 849,
      "గ్ ": 850,
      "రాజ": 851,
      "చాల": 852,
      "వర్": 853,
      "ేక": 854,
      "రిగ": 855,
      "ద్ర": 856,
      "ోం": 857,
      "కు": 858,
      "భార": 859,
      "డం ": 860,
      "అధ": 861,
      "ాక": 862,
      "బీ": 863,
      "వె": 864,
      " చ": 865,
      " ఇ": 866,
      "్గ": 867,
      "బా": 868,
      "ైన ": 869,
      "భుత": 870,
      "ుకో": 871,
      "క్ర": 872,
      "ులో ": 873,
      "ంత్ర": 874,
      "దేశ": 875,
      "20": 876,
      "అంద": 877,
      "యం ": 878,
      "ము": 879,
      "పాట": 880,
      "తీస": 881,
      "వాల": 882,
      " శ": 883,
      "పే": 884,
      "టి": 885,
      " గ": 886,
      "మీ": 887,
      "వీ": 888,
      "అవ": 889,
      "చిన ": 890,
      "వై": 891,
      "ద్య": 892,
      "ర్య": 893,
      "భుత్వ": 894,
      "ది": 895,
      "డ్డ": 896,
      "ేష": 897,
      "యో": 898,
      "పీ": 899,
      "తీ": 900,
      "రోజ": 901,
      "లోని ": 902,
      "వ్య": 903,
      "మో": 904,
      "ష్ట్ర": 905,
      "ఒక": 906,
      "పు ": 907,
      "అన": 908,
      "దని ": 909,
      " కో": 910,
      "లకు ": 911,
      "పడ": 912,
      "ఉంట": 913,
      "పాల": 914,
      "ఆయ": 915,
      "రాష్ట్ర": 916,
      "వచ్చ": 917,
      "బ్": 918,
      "ఉంద": 919,
      "పూ": 920,
      "క్ట": 921,
      "ధ్య": 922,
      " ల": 923,
      "సం ": 924,
      "వాత": 925,
      "ల్": 926,
      "పు": 927,
      "త్య": 928,
      "న్నిక": 929,
      "లను ": 930,
      "ాణ": 931,
      "ంచ": 932,
      "ులకు ": 933,
      "ఉండ": 934,
      "చూ": 935,
      "య్య": 936,
      "ఆర్": 937,
      "ాజ": 938,
      "టీ ": 939,
      "..": 940,
      "ాన్ని ": 941,
      "ైన": 942,
      "ెస్ ": 943,
      "డియ": 944,
      "పార్ట": 945,
      "కర": 946,
      "ుతున్న": 947,
      "ంది ": 948,
      "ర్త": 949,
      "టిక": 950,
      "ేవ": 951,
      "ార్": 952,
      "ఖ్య": 953,
      "రుగ": 954,
      "మర": 955,
      "ంధ": 956,
      "లా ": 957,
      "కల": 958,
      "తం ": 959,
      "డీ": 960,
      "జే": 961,
      "ల్లో ": 962,
      "కాల": 963,
      "పాటు ": 964,
      " హ": 965,
      "పోయ": 966,
      "అధికార": 967,
      "ాల్లో ": 968,
      "్న": 969,
      "ద్ధ": 970,
      "పరి": 971,
      "దుకు ": 972,
      "బాద": 973,
      "ుకు": 974,
      "మొ": 975,
      "ీం": 976,
      "ట్ర": 977,
      "ం,": 978,
      "పోల": 979,
      "దీ": 980,
      "ులను ": 981,
      "ర్శ": 982,
      "పెట్ట": 983,
      "ా,": 984,
      "చి": 985,
      "ుకు ": 986,
      "వహ": 987,
      "డ్డి ": 988,
      "ుగా ": 989,
      "నీ": 990,
      " సం": 991,
      "ాలను ": 992,
      "ుకున్న": 993,
      " ఏ": 994,
      "సార": 995,
      "టు ": 996,
      "న్య": 997,
      "ఇప్ప": 998,
      "సమ": 999,
      "జీ": 1000,
      "రీ": 1001,
      "మంత్ర": 1002,
      "శ్ర": 1003,
      "మూ": 1004,
      "క్ ": 1005,
      "బ్బ": 1006,
      "సు": 1007,
      "ఎస్ ": 1008,
      "ావ": 1009,
      "ియ": 1010,
      "ఆయన ": 1011,
      "ర్ల": 1012,
      "చెప్పార": 1013,
      "‌‌‌‌‌‌‌‌‌‌‌‌‌‌‌‌‌‌‌‌‌‌‌‌‌‌‌‌‌‌‌‌‌‌‌‌‌‌‌‌‌‌‌‌‌‌‌‌‌‌‌‌‌‌‌‌‌‌‌‌‌‌‌‌": 1014,
      "తెలంగ": 1015,
      "తెలంగాణ": 1016,
      "ితే ": 1017,
      "స్ప": 1018,
      "్‌‌": 1019,
      "ప్రభుత్వ": 1020,
      "వారం ": 1021,
      "ాలో ": 1022,
      "మైన ": 1023,
      "ీ,": 1024,
      "అభ": 1025,
      "ంద్ర": 1026,
      "ిల": 1027,
      "ంప": 1028,
      "ాన్ ": 1029,
      "గ్రెస్ ": 1030,
      "రం ": 1031,
      "హై": 1032,
      "వడ": 1033,
      "సా": 1034,
      "ర్చ": 1035,
      "్యూ": 1036,
      "కట": 1037,
      "చేసిన ": 1038,
      "తన ": 1039,
      "?\n": 1040,
      "తెలిపార": 1041,
      "గ్గ": 1042,
      "తర": 1043,
      "జా": 1044,
      "ఈ ": 1045,
      "రిక": 1046,
      "్స్ ": 1047,
      "జరిగ": 1048,
      "ల ": 1049,
      "డు": 1050,
      "తమ": 1051,
      "దు ": 1052,
      "్‌‌‌‌": 1053,
      "ర్వాత": 1054,
      "ఆర్ ": 1055,
      "హి": 1056,
      "ూప": 1057,
      "బంధ": 1058,
      "ాలని ": 1059,
      "బాబ": 1060,
      "రి ": 1061,
      "నా": 1062,
      "యంలో ": 1063,
      "ర్థ": 1064,
      "ష్": 1065,
      "ుతున్నార": 1066,
      "గత": 1067,
      "రెడ్డి ": 1068,
      "రై": 1069,
      "వస్త": 1070,
      "భారత": 1071,
      "ెల్ల": 1072,
      "మాన": 1073,
      "పా": 1074,
      "పట్ట": 1075,
      "ాఖ": 1076,
      "న్స్ ": 1077,
      "ధా": 1078,
      "ెట్ ": 1079,
      "ఈ స": 1080,
      "ూ ": 1081,
      "స్ట్ ": 1082,
      "ఎం ": 1083,
      "ఎన్నిక": 1084,
      "ంటే ": 1085,
      "సో": 1086,
      "జ్ ": 1087,
      "జన": 1088,
      "ిలో ": 1089,
      "వెళ్ల": 1090,
      "రే": 1091,
      "కాన": 1092,
      "ామని ": 1093,
      "కాశ": 1094,
      " ని": 1095,
      "జిల్ల": 1096,
      "తీసుక": 1097,
      "స్థాన": 1098,
      "ివ": 1099,
      "పోలీస": 1100,
      "నిప": 1101,
      "మ్మెల": 1102,
      "కలి": 1103,
      " కార": 1104,
      "సి ": 1105,
      "మంత్రి ": 1106,
      "మే ": 1107,
      "క్కడ": 1108,
      "ిని ": 1109,
      " భ": 1110,
      "క్కువ": 1111,
      "చంద్ర": 1112,
      " ఉ": 1113,
      "దే ": 1114,
      "వ్వ": 1115,
      "ూ.": 1116,
      "నిర్వహ": 1117,
      "బో": 1118,
      "ాలకు ": 1119,
      "సర": 1120,
      "నిమ": 1121,
      "ప్ ": 1122,
      "జయ": 1123,
      "ి..\n": 1124,
      " ఫ": 1125,
      " వే": 1126,
      "సె": 1127,
      "రాబాద": 1128,
      "అన్నార": 1129,
      "చాలా ": 1130,
      "ం.\n": 1131,
      "సమా": 1132,
      "ఏర్": 1133,
      "ర్లు ": 1134,
      "వేశ": 1135,
      "క్త": 1136,
      "అల": 1137,
      "ప్త": 1138,
      "ప్రజ": 1139,
      "ఎం": 1140,
      "సూ": 1141,
      "కీ": 1142,
      "మే": 1143,
      "ు\n": 1144,
      " పో": 1145,
      "ోగ": 1146,
      "ట్లాడ": 1147,
      "పార్టీ ": 1148,
      "ున్నాయ": 1149,
      "తెలు": 1150,
      "లోకి ": 1151,
      "రావ": 1152,
      "అని ": 1153,
      "మన": 1154,
      "\"\"": 1155,
      "ఇం": 1156,
      "అయితే ": 1157,
      "ు..\n": 1158,
      "సాగ": 1159,
      "నా ": 1160,
      "బీజే": 1161,
      "క్రమ": 1162,
      "విష": 1163,
      " సమ": 1164,
      "మాత్ర": 1165,
      "వచ్": 1166,
      "జీ ": 1167,
      "మ్ ": 1168,
      "దరాబాద": 1169,
      "దిన ": 1170,
      "కె": 1171,
      "వ్యా": 1172,
      "10": 1173,
      "వల": 1174,
      ", ": 1175,
      "టె": 1176,
      "యి": 1177,
      "నియ": 1178,
      "ార్ట": 1179,
      "ుడ": 1180,
      " అని ": 1181,
      "కోసం ": 1182,
      "ేషన్ ": 1183,
      "సభ": 1184,
      "యూ": 1185,
      "గుర": 1186,
      "ెక్ట": 1187,
      "యోగ": 1188,
      "మ్మెల్య": 1189,
      "లేక": 1190,
      "లే": 1191,
      "ంభ": 1192,
      "నగ": 1193,
      "బ్ల": 1194,
      "ారా ": 1195,
      "త్స": 1196,
      "వర్గ": 1197,
      "అంత": 1198,
      " మంది ": 1199,
      "ుల్లో ": 1200,
      "ప్పుడు ": 1201,
      "ైం": 1202,
      "ే,": 1203,
      "్‌‌‌‌‌‌‌‌": 1204,
      "ఫ్ ": 1205,
      "లీ": 1206,
      " కే": 1207,
      "నేత": 1208,
      "చేర": 1209,
      "ాను ": 1210,
      "లక్ష": 1211,
      "న్స": 1212,
      "గుర్త": 1213,
      "మాట్లాడ": 1214,
      "స్య": 1215,
      "షన్ ": 1216,
      "ు:": 1217,
      "రగ": 1218,
      "పోత": 1219,
      "202": 1220,
      "డానికి ": 1221,
      "ఇంట": 1222,
      "దార": 1223,
      "జగ": 1224,
      "ుకోవాల": 1225,
      "గ్రామ": 1226,
      "ుకున్నార": 1227,
      "బర్ ": 1228,
      "షన": 1229,
      "పై ": 1230,
      "దర్శ": 1231,
      "ఆమె": 1232,
      "హైదరాబాద": 1233,
      "డీ ": 1234,
      "ప్ల": 1235,
      "నిర్ణ": 1236,
      "కోర్": 1237,
      "మార్": 1238,
      "ఆరో": 1239,
      "చేస్తున్నార": 1240,
      "బాబు ": 1241,
      "బి": 1242,
      "నాల": 1243,
      "స్స": 1244,
      "దే": 1245,
      "రకు ": 1246,
      "ర్వ": 1247,
      "హిళ": 1248,
      " ప్రభుత్వ": 1249,
      "ప్రకట": 1250,
      "లోనే ": 1251,
      "ా..\n": 1252,
      " కొ": 1253,
      "బ్ర": 1254,
      "కార్య": 1255,
      "దా": 1256,
      "రియ": 1257,
      " ک": 1258,
      "త్ ": 1259,
      " పరి": 1260,
      "కొన": 1261,
      "సీఎం ": 1262,
      "విధ": 1263,
      "నం ": 1264,
      "పి": 1265,
      "దల": 1266,
      "ళ్లు ": 1267,
      "ంలోని ": 1268,
      "స్వా": 1269,
      "ారంభ": 1270,
      "ప్రభుత్వం ": 1271,
      "ప్రస్త": 1272,
      "ిక్ ": 1273,
      "హార": 1274,
      "ానే ": 1275,
      "సారి ": 1276,
      "ాయక": 1277,
      "ద్యోగ": 1278,
      "డంతో ": 1279,
      "సంబంధ": 1280,
      " నే": 1281,
      "ుల్ ": 1282,
      "ినట్లు ": 1283,
      "తొ": 1284,
      "ూర": 1285,
      "డ్ర": 1286,
      "సై": 1287,
      "ట్టు ": 1288,
      "వ్యక్": 1289,
      "అమ": 1290,
      "చేసి ": 1291,
      "సే": 1292,
      " ఎన్నిక": 1293,
      "గి": 1294,
      "ముఖ్య": 1295,
      "కుమార": 1296,
      "ాత": 1297,
      "దన": 1298,
      "ును ": 1299,
      "తీయ": 1300,
      " సీ": 1301,
      "రాజకీ": 1302,
      "మం": 1303,
      " వార": 1304,
      "స్థిత": 1305,
      "ఆర్ఎస్ ": 1306,
      "పంచ": 1307,
      " లక్ష": 1308,
      "ుగు ": 1309,
      "చ్ ": 1310,
      "అను": 1311,
      "ంటూ": 1312,
      "అవకాశ": 1313,
      "ష్ణ": 1314,
      "కృ": 1315,
      "చేస్తున్న": 1316,
      "ోట": 1317,
      "ఎమ్మెల్య": 1318,
      "నెల": 1319,
      " పె": 1320,
      "భాగ": 1321,
      "చెబ": 1322,
      "బె": 1323,
      " వ్య": 1324,
      "ఉన్నాయ": 1325,
      " రా": 1326,
      "వల్ల": 1327,
      "తర్వాత": 1328,
      " పార్ట": 1329,
      "చ్చార": 1330,
      "గెల": 1331,
      "మి ": 1332,
      "ష్ ": 1333,
      "కొత్త": 1334,
      "్వారా ": 1335,
      "ఘట": 1336,
      "ఒక్క": 1337,
      "నకు ": 1338,
      "పెద్ద": 1339,
      "ాప": 1340,
      " సి": 1341,
      "ఆర": 1342,
      "త్వ": 1343,
      "ఎల": 1344,
      "00": 1345,
      "రాజకీయ": 1346,
      "కి": 1347,
      "ఎక్కువ": 1348,
      " క్ర": 1349,
      "ర్మ": 1350,
      "ర్భ": 1351,
      "చాలని ": 1352,
      "ీసీ ": 1353,
      "ధార": 1354,
      "ఇక": 1355,
      "ిస్తున్న": 1356,
      "ప్రస్తుత": 1357,
      "ిక్": 1358,
      "ఇవ్వ": 1359,
      " కోట్ల": 1360,
      "ప్రారంభ": 1361,
      "ధర": 1362,
      "నూ": 1363,
      "వరకు ": 1364,
      "పేర్": 1365,
      "ఇచ్చ": 1366,
      "డియా ": 1367,
      "ఇది ": 1368,
      " బీ": 1369,
      " ఈ": 1370,
      "రుగుత": 1371,
      "సహ": 1372,
      "ైనా ": 1373,
      "ంటి ": 1374,
      "పల్ల": 1375,
      "టార": 1376,
      "రోజు ": 1377,
      "బీజేపీ ": 1378,
      "చారం ": 1379,
      "తె": 1380,
      "డె": 1381,
      "అయ్య": 1382,
      "వన్ ": 1383,
      "శ్రీ": 1384,
      "...\n": 1385,
      "బయ": 1386,
      "రంగ": 1387,
      "ులతో ": 1388,
      "వి ": 1389,
      "కనిప": 1390,
      "ిస్తున్నార": 1391,
      "ిగా ": 1392,
      " విష": 1393,
      "19": 1394,
      "ినా ": 1395,
      "కేసీ": 1396,
      "పూర్": 1397,
      "పోలీసులు ": 1398,
      "ున ": 1399,
      "కేస": 1400,
      "వాడ": 1401,
      "స్తున్నార": 1402,
      "కాద": 1403,
      "ఉన్నార": 1404,
      "స్ట్ర": 1405,
      "ంపై": 1406,
      "నె": 1407,
      "పొ": 1408,
      "ేమ": 1409,
      "భా": 1410,
      "ే.\n": 1411,
      "వ్ర": 1412,
      "యత": 1413,
      "జి": 1414,
      "ధికార": 1415,
      "ఇప్పుడు ": 1416,
      "భారీ ": 1417,
      "హె": 1418,
      "తప్ప": 1419,
      "ణం ": 1420,
      "ార్థ": 1421,
      "అభ్య": 1422,
      "ోని ": 1423,
      " స్": 1424,
      "ఢిల్ల": 1425,
      "ంత్ ": 1426,
      "ప్రధా": 1427,
      "రీ ": 1428,
      "వారు ": 1429,
      "ఫి": 1430,
      "కోర": 1431,
      "తల": 1432,
      "మోద": 1433,
      "ాయం ": 1434,
      "ణ్ ": 1435,
      "భూ": 1436,
      "బ్య": 1437,
      " (": 1438,
      "వడం ": 1439,
      "ے ": 1440,
      "ుబ": 1441,
      "రైత": 1442,
      "చన": 1443,
      "మరో ": 1444,
      "అత": 1445,
      "డే": 1446,
      "డిప": 1447,
      "‌‌‌‌‌‌‌‌‌‌‌‌‌‌‌‌‌‌‌‌‌‌‌‌‌‌‌‌‌‌‌‌‌‌‌‌‌‌‌‌‌‌‌‌‌‌‌‌‌‌‌‌‌‌‌‌‌‌‌‌‌‌‌‌‌‌‌‌‌‌‌‌‌‌‌‌‌‌‌‌‌‌‌‌‌‌‌‌‌‌‌‌‌‌‌‌‌‌‌‌‌‌‌‌‌‌‌‌‌‌‌‌‌‌‌‌‌‌‌‌‌‌‌‌‌‌‌‌": 1448,
      "టీడీ": 1449,
      "యోజ": 1450,
      "ుతున్నాయ": 1451,
      "అప్ప": 1452,
      "గ్య": 1453,
      "ీలక": 1454,
      "రేవ": 1455,
      "ప్రతి": 1456,
      "ఫో": 1457,
      " కూ": 1458,
      "201": 1459,
      "ెలుగ": 1460,
      "ుకుని ": 1461,
      " తర్వాత": 1462,
      "వెల్ల": 1463,
      "లేదని ": 1464,
      "అస": 1465,
      "మాద": 1466,
      "రోజుల": 1467,
      " ము": 1468,
      "రాల": 1469,
      "స్తున్న": 1470,
      " వై": 1471,
      "అధికారులు ": 1472,
      "ారె": 1473,
      "ప్రస్తుతం ": 1474,
      "వడంతో ": 1475,
      "ితో ": 1476,
      "మల": 1477,
      " కార్య": 1478,
      "ఆరోప": 1479,
      "ప్రశ": 1480,
      "ిత్ర": 1481,
      "విద్య": 1482,
      "ృద్ధ": 1483,
      "ైల": 1484,
      "ోకి ": 1485,
      "్.\n": 1486,
      "ట్టి ": 1487,
      "ుతో ": 1488,
      "ౌం": 1489,
      "ఈ మ": 1490,
      "కే ": 1491,
      "రామ": 1492,
      "ప్రత్య": 1493,
      "గో": 1494,
      "పాల్గ": 1495,
      "యోజక": 1496,
      "నిమా ": 1497,
      "తగ్గ": 1498,
      "ఎవర": 1499,
      "శాఖ": 1500,
      "్లు ": 1501,
      " కోసం ": 1502,
      "లి ": 1503,
      "జగన్ ": 1504,
      " గంట": 1505,
      "కర్": 1506,
      "వారి ": 1507,
      "చంద్రబాబు ": 1508,
      "ఎదు": 1509,
      "ఏర్పాటు ": 1510,
      "విత": 1511,
      " మంత్ర": 1512,
      "పని": 1513,
      "టికే ": 1514,
      "ాది ": 1515,
      "బ్ ": 1516,
      "్‌‌‌‌‌‌‌‌‌‌‌‌‌‌‌‌": 1517,
      "చేయాల": 1518,
      "ణంగా ": 1519,
      " రాష్ట్ర": 1520,
      "15": 1521,
      "వివర": 1522,
      "మహిళ": 1523,
      "ృష్ట": 1524,
      "దిత": 1525,
      "వీ ": 1526,
      "ుకొ": 1527,
      "ఎస": 1528,
      "గ్": 1529,
      "పద": 1530,
      " శా": 1531,
      "ందర్భ": 1532,
      "రూ": 1533,
      " ఓ": 1534,
      "పథ": 1535,
      "రెడ్డ": 1536,
      "వేద": 1537,
      "ారని ": 1538,
      "నీ ": 1539,
      " కు": 1540,
      "టర్ ": 1541,
      "ర్స": 1542,
      "కారం ": 1543,
      "మహ": 1544,
      "షల్ ": 1545,
      "వాద": 1546,
      "సాయ": 1547,
      "న్ల": 1548,
      "మీ ": 1549,
      "కొన్ని ": 1550,
      "ఇంద": 1551,
      "పార్టీ": 1552,
      "భావ": 1553,
      "కేసీఆర్ ": 1554,
      "జార": 1555,
      "ఎన్నికల": 1556,
      "యోజకవర్గ": 1557,
      "చారణ": 1558,
      "తెలిప": 1559,
      "జ్": 1560,
      "గ్రహ": 1561,
      "జిల్లా ": 1562,
      "చడం ": 1563,
      "ను": 1564,
      "ారు ": 1565,
      "న్యూ": 1566,
      "వద్ద": 1567,
      "ే..\n": 1568,
      "్..\n": 1569,
      "వచ్చే": 1570,
      "విజయ": 1571,
      "అభ్యర్థ": 1572,
      "బాల": 1573,
      "ాయని ": 1574,
      "సీపీ ": 1575,
      "కం": 1576,
      "కానీ ": 1577,
      "ాక్ట": 1578,
      "బీఆర్ఎస్ ": 1579,
      "శా": 1580,
      "సర్": 1581,
      "లై": 1582,
      "తే": 1583,
      "ీర": 1584,
      " తేద": 1585,
      " వెలుగ": 1586,
      "శ్": 1587,
      "వాస": 1588,
      "ండల": 1589,
      "లు": 1590,
      "తెలిస": 1591,
      "ి.": 1592,
      "అవకాశం ": 1593,
      " జిల్ల": 1594,
      "కలిసి ": 1595,
      "ఉప": 1596,
      "జూ": 1597,
      "మొత్త": 1598,
      "వరి ": 1599,
      " అధికార": 1600,
      " అభ": 1601,
      "ی ": 1602,
      "ంశ": 1603,
      "విడు": 1604,
      "యత్న": 1605,
      "కర్ ": 1606,
      " మధ్య": 1607,
      "ాహ": 1608,
      "సాధ": 1609,
      "వర్ష": 1610,
      "వ్యక్తం ": 1611,
      "ా?\n": 1612,
      "ో,": 1613,
      "పాల్గొ": 1614,
      "టే ": 1615,
      "మాత్రం ": 1616,
      "వుత": 1617,
      "జె": 1618,
      "ద్వారా ": 1619,
      "లతో ": 1620,
      "కుట": 1621,
      "వ్ ": 1622,
      "రేవంత్ ": 1623,
      "స్థాయ": 1624,
      "ఎస్": 1625,
      "ఉద్యోగ": 1626,
      "కుల": 1627,
      "టై": 1628,
      "్సి ": 1629,
      "పర": 1630,
      "తు": 1631,
      "వచ్చిన ": 1632,
      "తో": 1633,
      " డ": 1634,
      "యువ": 1635,
      "అన్ని ": 1636,
      " కేస": 1637,
      "కొనసాగ": 1638,
      "వాహ": 1639,
      "చేసే ": 1640,
      "ాగా ": 1641,
      " వ్యా": 1642,
      "దర": 1643,
      "నాయక": 1644,
      "ార్ ": 1645,
      "ప్ట": 1646,
      "నిర్ణయ": 1647,
      "ప్రదేశ": 1648,
      "వెల్లడ": 1649,
      "మర్శ": 1650,
      "క్స": 1651,
      "చేయాలని ": 1652,
      "డో ": 1653,
      "అంట": 1654,
      "30": 1655,
      "చేపట్ట": 1656,
      "కీలక": 1657,
      "12": 1658,
      "అక్కడ": 1659,
      " ప్రభుత్వం ": 1660,
      "ఆఫ": 1661,
      "ధాన": 1662,
      "టం ": 1663,
      "కాక": 1664,
      "జరిగిన ": 1665,
      "వారికి ": 1666,
      "ం\n": 1667,
      "వేస": 1668,
      "పేట": 1669,
      "నర": 1670,
      "పుల": 1671,
      "మని ": 1672,
      "బయట": 1673,
      "మొద": 1674,
      "్రీ": 1675,
      " మీ": 1676,
      " అవ": 1677,
      "ంలోకి ": 1678,
      "టాయ": 1679,
      "బు": 1680,
      "అనే ": 1681,
      "మరో": 1682,
      " సభ": 1683,
      "ర్స్ ": 1684,
      "ేది ": 1685,
      "టో": 1686,
      "కోర్టు ": 1687,
      "మా ": 1688,
      "ివృద్ధ": 1689,
      "రణ": 1690,
      "ెస": 1691,
      "ఎమ్మెల్యే ": 1692,
      "ందర్భంగా ": 1693,
      "అన్న": 1694,
      "కు చ": 1695,
      " వరకు ": 1696,
      "ేశ్వ": 1697,
      "ఫల": 1698,
      "తీవ్ర": 1699,
      "అరె": 1700,
      "మధ్య": 1701,
      "సిద్ధ": 1702,
      "సూచ": 1703,
      "తెలుస": 1704,
      "ానని ": 1705,
      "!\n": 1706,
      "లువ": 1707,
      " నెల": 1708,
      "మాణ": 1709,
      "ట్స్ ": 1710,
      "న్లు ": 1711,
      "అభి": 1712,
      "మ్యా": 1713,
      "ొచ్చ": 1714,
      "డ్ల": 1715,
      "చర్య": 1716,
      "ాక్ ": 1717,
      "ఉందని ": 1718,
      "త్రి ": 1719,
      "ాం.\n": 1720,
      "హైదరాబాద్ ": 1721,
      "తాజ": 1722,
      " శాతం ": 1723,
      "బై": 1724,
      "ోళ": 1725,
      " ప్రజ": 1726,
      "పోర్": 1727,
      "ప్రత్యేక": 1728,
      "ఇప్పటికే ": 1729,
      "పేర్కొ": 1730,
      "ాగే ": 1731,
      "తన": 1732,
      "అవుత": 1733,
      "50": 1734,
      "ల్స్ ": 1735,
      "ండ్ర": 1736,
      "చూప": 1737,
      "లేదా ": 1738,
      "మంది ": 1739,
      "తో పాటు ": 1740,
      "ష్టం ": 1741,
      "లా": 1742,
      "ాటక": 1743,
      "మాజీ ": 1744,
      "స్టు ": 1745,
      "కూడ": 1746,
      "కట్ట": 1747,
      " పే": 1748,
      "ూ.\n": 1749,
      "ం న": 1750,
      "మాత్రమే ": 1751,
      "ంతరం ": 1752,
      "చేసుక": 1753,
      "ఎంద": 1754,
      "రాశ": 1755,
      "మూడు ": 1756,
      "వ తేద": 1757,
      "వత్స": 1758,
      "విక": 1759,
      "స్పంద": 1760,
      "క్ల": 1761,
      "అధ్య": 1762,
      "అయిత": 1763,
      "సీ ": 1764,
      " శాఖ": 1765,
      "భారత్ ": 1766,
      "ంబ": 1767,
      "ూడ": 1768,
      "పోటీ ": 1769,
      "్:": 1770,
      "చాడ": 1771,
      "జరగ": 1772,
      "రువ": 1773,
      "ఈ సి": 1774,
      " కాల": 1775,
      "్సిన ": 1776,
      "యాన్ని ": 1777,
      "పన": 1778,
      " మా": 1779,
      "కుమార్ ": 1780,
      "డ్డార": 1781,
      "పంప": 1782,
      "మృ": 1783,
      "మెరిక": 1784,
      "ుతూ": 1785,
      "ఆదేశ": 1786,
      "ప్పటిక": 1787,
      "బల": 1788,
      "షల్ మీ": 1789,
      "ిద": 1790,
      "డిమ": 1791,
      "ాదా": 1792,
      "చుకో": 1793,
      "టీడీపీ ": 1794,
      "తెలియ": 1795,
      "చడ": 1796,
      "ఫ్ర": 1797,
      "డాది ": 1798,
      "చర్చ": 1799,
      "లె": 1800,
      "చెబుతున్నార": 1801,
      "ిణ": 1802,
      "ఇస్త": 1803,
      "అమ్మ": 1804,
      "ూరు ": 1805,
      "ప్రమాద": 1806,
      "కృష్ణ": 1807,
      "ముగ": 1808,
      "నిధ": 1809,
      "ప్తంగా ": 1810,
      "ెల్ ": 1811,
      "పక్ష": 1812,
      "నిర్మ": 1813,
      "తలు ": 1814,
      "కమి": 1815,
      "దిగ": 1816,
      "అర్": 1817,
      "ీన": 1818,
      "న్సి": 1819,
      "11": 1820,
      "టర్ల": 1821,
      " ట": 1822,
      "తాను ": 1823,
      "ోద": 1824,
      "్యం ": 1825,
      "ప్రతి ": 1826,
      " దేశ": 1827,
      "విజ": 1828,
      " రూప": 1829,
      "అత్య": 1830,
      "బ్లీ ": 1831,
      "పవన్ ": 1832,
      " మె": 1833,
      "),": 1834,
      "్⁬": 1835,
      "యాణ": 1836,
      "ర్గ": 1837,
      "ైత": 1838,
      "ాజెక్ట": 1839,
      "రిజ": 1840,
      "ాలతో ": 1841,
      "హా": 1842,
      " కూడా ": 1843,
      "కన": 1844,
      "కా ": 1845,
      "ఎలా ": 1846,
      "కం ": 1847,
      "ున": 1848,
      "్-": 1849,
      "నిలి": 1850,
      "టిని ": 1851,
      "ఉత్త": 1852,
      "పీలో ": 1853,
      "సిన ": 1854,
      " వీ": 1855,
      "ప్రపంచ": 1856,
      "ాళ": 1857,
      "ీస్ ": 1858,
      "దీని": 1859,
      "బ్బంద": 1860,
      "రల్ ": 1861,
      "క్స్ ": 1862,
      "లియ": 1863,
      "ీలో ": 1864,
      " పోల": 1865,
      "పరిస్థిత": 1866,
      "మొత్తం ": 1867,
      "నట": 1868,
      "ప్రశ్న": 1869,
      "ంతో": 1870,
      "ఆల": 1871,
      "హిత": 1872,
      "ఉద": 1873,
      "తెలుస్త": 1874,
      "జో": 1875,
      "క్తి ": 1876,
      "నగర": 1877,
      "య్యార": 1878,
      "చేయడం ": 1879,
      "పలు ": 1880,
      "నియోజకవర్గ": 1881,
      "రుప": 1882,
      "గురు ": 1883,
      " రాజ": 1884,
      "వెళ": 1885,
      "వైపు ": 1886,
      " మంద": 1887,
      "పేర్కొన్నార": 1888,
      "ినే": 1889,
      "బాధ": 1890,
      "సంస్థ": 1891,
      "డిని ": 1892,
      "జాతీయ": 1893,
      "చుక": 1894,
      "రీక్ష": 1895,
      "కామ": 1896,
      "ండ్ ": 1897,
      "టున్నార": 1898,
      "దో ": 1899,
      "సమావేశ": 1900,
      "్యంలో ": 1901,
      "ం..\n": 1902,
      "విచారణ": 1903,
      "దరు ": 1904,
      "స్థానిక": 1905,
      "గొ": 1906,
      "ిప": 1907,
      "్లో": 1908,
      " మంత్రి ": 1909,
      "వరణ": 1910,
      "ర్యాద": 1911,
      "ఇచ్చార": 1912,
      "ముఖ": 1913,
      "ుకే ": 1914,
      "పెరిగ": 1915,
      "నేక": 1916,
      "రూప": 1917,
      "పిల్ల": 1918,
      "ప్రయత్న": 1919,
      "14": 1920,
      "ا ": 1921,
      "ీగా ": 1922,
      " లక్షల": 1923,
      "కోర్ట": 1924,
      "పూర్తి ": 1925,
      "వేదిక": 1926,
      "చూడ": 1927,
      "బాద్ ": 1928,
      "ంతా ": 1929,
      "పర్య": 1930,
      "అధ్యక్ష": 1931,
      "విమర్శ": 1932,
      "టనే ": 1933,
      "అదే ": 1934,
      "తిర": 1935,
      "ు న": 1936,
      "ుగో": 1937,
      "ల్ప": 1938,
      "ీసీ": 1939,
      "పూర్ ": 1940,
      "న్యాయ": 1941,
      "ఎన్": 1942,
      "పల్లి ": 1943,
      "క్య": 1944,
      " తీ": 1945,
      "చో": 1946,
      " పార్టీ ": 1947,
      "రువాత": 1948,
      "గ్గర": 1949,
      "దన్నార": 1950,
      "స్టే": 1951,
      " వేల": 1952,
      "పరిశ": 1953,
      "పడుత": 1954,
      "గల": 1955,
      "త్మ": 1956,
      "సమస్య": 1957,
      " ఆయ": 1958,
      "దల ": 1959,
      "రవ": 1960,
      "శ్వ": 1961,
      "ూల": 1962,
      "ందోళ": 1963,
      "డియాలో ": 1964,
      "ర్యా": 1965,
      "ుకునే ": 1966,
      "రావు ": 1967,
      "ప్రధాని ": 1968,
      "త ": 1969,
      "ద్ ": 1970,
      "డిగ": 1971,
      "కంపె": 1972,
      "కొట్ట": 1973,
      "ాదాపు ": 1974,
      "ిస్తార": 1975,
      " మొ": 1976,
      "కపో": 1977,
      "టో ": 1978,
      "ప్రా": 1979,
      "పాద": 1980,
      " సమా": 1981,
      "చిన": 1982,
      "దేవ": 1983,
      "నలు ": 1984,
      "ిపోయ": 1985,
      " చి": 1986,
      "మోదు ": 1987,
      "ప్పుడ": 1988,
      "జరుగుత": 1989,
      "హత్య": 1990,
      "ెళ్ల": 1991,
      "మీద": 1992,
      "ು ": 1993,
      "సోషల్ మీ": 1994,
      "an": 1995,
      "బోత": 1996,
      "వంత": 1997,
      "క్యా": 1998,
      "్ళ": 1999,
      "డై": 2000,
      "ంజ": 2001,
      "కల్ప": 2002,
      "బడ": 2003,
      "ుకోవాలని ": 2004,
      "ంధ్ర": 2005,
      "టీఆర్ ": 2006,
      "సంగ": 2007,
      "దాడ": 2008,
      "్డ": 2009,
      "ికంగా ": 2010,
      "ర్ష": 2011,
      "కులు ": 2012,
      "ేషన": 2013,
      "వంటి ": 2014,
      "18": 2015,
      " పరుగ": 2016,
      "దూ": 2017,
      "నలో ": 2018,
      "రాష్ట్రంలో ": 2019,
      "సమయంలో ": 2020,
      "ాటు ": 2021,
      "ాల్ ": 2022,
      "చు": 2023,
      "అలాగే ": 2024,
      "ఇల": 2025,
      "టున్న": 2026,
      "అడ": 2027,
      "మొదల": 2028,
      "ు.": 2029,
      "నో": 2030,
      "ర్ర": 2031,
      "ఇటీ": 2032,
      "లపై": 2033,
      "24": 2034,
      "ఇద్ద": 2035,
      "ుక్ర": 2036,
      "25": 2037,
      " సమయంలో ": 2038,
      "మంచి ": 2039,
      "తాజాగా ": 2040,
      "చిత": 2041,
      " రూపాయ": 2042,
      "బంగ": 2043,
      "రాయ": 2044,
      "ానిక": 2045,
      "వాళ్ల": 2046,
      "భవ": 2047,
      " ఎన్నికల్లో ": 2048,
      "భక్త": 2049,
      "ఆడ": 2050,
      "ఓట": 2051,
      "భాగంగా ": 2052,
      "మండల": 2053,
      "వ్యాఖ్య": 2054,
      "తార": 2055,
      "ి?\n": 2056,
      "ప్రజలు ": 2057,
      "రుణ": 2058,
      "రక్ష": 2059,
      "17": 2060,
      "పత్ర": 2061,
      "గౌ": 2062,
      "విస్త": 2063,
      "ఇదే ": 2064,
      "నిల": 2065,
      "పి ": 2066,
      "ఇందులో ": 2067,
      "్‌‌‌‌‌‌‌‌‌‌‌‌‌‌‌‌‌‌‌‌‌‌‌‌‌‌‌‌‌‌‌‌": 2068,
      "ధీ": 2069,
      "రెక్ట": 2070,
      "హామ": 2071,
      "ఉపయోగ": 2072,
      "ీవ": 2073,
      "్లమ": 2074,
      "లలో ": 2075,
      "వడానికి ": 2076,
      "అమెరిక": 2077,
      "్‌,": 2078,
      " సమస్య": 2079,
      "మత": 2080,
      "వేయ": 2081,
      "హాజ": 2082,
      "డియో": 2083,
      "అనేక": 2084,
      "200": 2085,
      " బీజే": 2086,
      "విద్యార్థ": 2087,
      "ిల్ ": 2088,
      "ఇలా ": 2089,
      "ికె": 2090,
      "వైసీపీ ": 2091,
      "అనంతరం ": 2092,
      " ష": 2093,
      "ివృద్ధి ": 2094,
      "నిర్ణయం ": 2095,
      "ు\"": 2096,
      "గతంలో ": 2097,
      "మళ్ల": 2098,
      "విడుదల ": 2099,
      "ేశ్ ": 2100,
      "డబ్బ": 2101,
      "రిగి ": 2102,
      "నేను ": 2103,
      "ిట": 2104,
      "పని ": 2105,
      "తిరేక": 2106,
      "ఫె": 2107,
      "ాలలో ": 2108,
      "నిజ": 2109,
      "ఇచ్చిన ": 2110,
      "అంటే ": 2111,
      " ఆరో": 2112,
      "దాదాపు ": 2113,
      "జై": 2114,
      "ాలోని ": 2115,
      "ి\"": 2116,
      "ిస్తే ": 2117,
      "ఫొ": 2118,
      "ానీ ": 2119,
      "ఇతర": 2120,
      "నున్నార": 2121,
      "వర్ ": 2122,
      "పథ్యంలో ": 2123,
      "వెల": 2124,
      "అది ": 2125,
      "చేశాడ": 2126,
      "నేతలు ": 2127,
      "వేల": 2128,
      "చెల్ల": 2129,
      "గళ": 2130,
      "మై": 2131,
      "ుకున": 2132,
      "తరల": 2133,
      "పైగా ": 2134,
      "గా": 2135,
      "ఈ ప": 2136,
      "రస": 2137,
      "ుల ": 2138,
      "ేష్ ": 2139,
      " మూ": 2140,
      "జారీ ": 2141,
      "చర్యలు ": 2142,
      "బ్బంది ": 2143,
      "16": 2144,
      "ా.\n": 2145,
      "ప్రయాణ": 2146,
      "రిలీ": 2147,
      "టంతో ": 2148,
      " సా": 2149,
      "తా": 2150,
      "యు": 2151,
      "యాత్ర": 2152,
      "ి..": 2153,
      "చేసుకున్న": 2154,
      "రాత్రి ": 2155,
      "ఆది": 2156,
      "్\n": 2157,
      "ౌల": 2158,
      "చ్చే": 2159,
      "ఎంత": 2160,
      "సభ్య": 2161,
      "ఫలిత": 2162,
      "పాక": 2163,
      "రా ": 2164,
      "తెలంగాణలో ": 2165,
      "కలిగ": 2166,
      "పాల్గొన్నార": 2167,
      "ే అవకాశం ": 2168,
      " విద్య": 2169,
      "ముఖ్యమంత్రి ": 2170,
      "ఈ ప్ర": 2171,
      "కళ": 2172,
      "ారెడ్డి ": 2173,
      "కలెక్ట": 2174,
      " ఏళ్ల": 2175,
      "కనిపిస్త": 2176,
      "మైన": 2177,
      "కారణ": 2178,
      " పోలీస": 2179,
      "ర్ప": 2180,
      "నుక": 2181,
      "ంలోనే ": 2182,
      "శు": 2183,
      "నికి ": 2184,
      "వస్థ": 2185,
      "టా ": 2186,
      "ంగా మార": 2187,
      "చడానికి ": 2188,
      " కి": 2189,
      "వాళ": 2190,
      "కర్త": 2191,
      "ోత్స": 2192,
      "13": 2193,
      "భద్ర": 2194,
      "ీకి ": 2195,
      "ుడ్ ": 2196,
      "రాహ": 2197,
      "కార్యక్రమ": 2198,
      "నగర్ ": 2199,
      " م": 2200,
      "పెడ": 2201,
      " ఐ": 2202,
      " సు": 2203,
      "ద్దత": 2204,
      "డియో ": 2205,
      "ు..": 2206,
      "యాద": 2207,
      "ఎక్కువగా ": 2208,
      "ఉదయం ": 2209,
      " ا": 2210,
      "గానే ": 2211,
      "బీ ": 2212,
      " సభ్య": 2213,
      "یں": 2214,
      "చర": 2215,
      "ఢిల్లీ ": 2216,
      "నార": 2217,
      "ఇక్కడ": 2218,
      "ణాటక": 2219,
      "నియోగ": 2220,
      "వారిని ": 2221,
      "ఉంటాయ": 2222,
      " హై": 2223,
      " పరిస్థిత": 2224,
      "హీ": 2225,
      "ారం ": 2226,
      "పల": 2227,
      "నాయ": 2228,
      " చంద్ర": 2229,
      "పక్క": 2230,
      "ి:": 2231,
      "తిగా ": 2232,
      "ప్రదేశ్ ": 2233,
      "టా": 2234,
      "డర్ ": 2235,
      "గంట": 2236,
      " పా": 2237,
      "ల్డ్ ": 2238,
      "ఘటన ": 2239,
      "మంచ": 2240,
      " మి": 2241,
      "ంగళ": 2242,
      "ఫిర్యాద": 2243,
      "షే": 2244,
      "ఫై": 2245,
      "సినిమా ": 2246,
      "ఆఫీస": 2247,
      "ఆఫ్ ": 2248,
      "కమ": 2249,
      "రిస్త": 2250,
      "ాలపై": 2251,
      " సంస్థ": 2252,
      "చై": 2253,
      "పాడ": 2254,
      " అంద": 2255,
      "ప్": 2256,
      "ఆ తర్వాత": 2257,
      "లోక": 2258,
      "ఇటీవల": 2259,
      "తుల": 2260,
      "న్నీ ": 2261,
      "డాక్ట": 2262,
      "వ్యవహ": 2263,
      " అస": 2264,
      "భార్య": 2265,
      " వె": 2266,
      "్యాణ్ ": 2267,
      " మహిళ": 2268,
      "తయ": 2269,
      " మే": 2270,
      "మిత": 2271,
      "క్షన్ ": 2272,
      "పండ": 2273,
      " బా": 2274,
      "దో": 2275,
      "ధీ ": 2276,
      "ల్లి ": 2277,
      "నియర్ ": 2278,
      "ధ్వ": 2279,
      " సంవత్స": 2280,
      "యూని": 2281,
      "తొల": 2282,
      "ాము ": 2283,
      "ఆంధ్ర": 2284,
      "చీ": 2285,
      "దగ్గర": 2286,
      "ా..": 2287,
      "ఎన్నికల్లో ": 2288,
      " ఖ": 2289,
      "నిర్మాణ": 2290,
      "క్కడి ": 2291,
      "క్రియ": 2292,
      "గ్రెస": 2293,
      "గాల": 2294,
      "కావాల": 2295,
      "అంచ": 2296,
      "ఎంపీ ": 2297,
      "లో ఉన్న": 2298,
      "వ్యాప్తంగా ": 2299,
      "సమాచార": 2300,
      "ఎమ్మెల్యే": 2301,
      "వ్యక్తం చేశార": 2302,
      "తిక": 2303,
      " కోట్లు ": 2304,
      "శివ": 2305,
      "త్వర": 2306,
      "అమలు ": 2307,
      "చిన్న": 2308,
      " తి": 2309,
      "ట్రా": 2310,
      "పీకి ": 2311,
      "టూ": 2312,
      "శి": 2313,
      "నంద": 2314,
      "చాయ": 2315,
      "శార": 2316,
      "సరి": 2317,
      "ీలు ": 2318,
      " కార్యక్రమ": 2319,
      "డే ": 2320,
      "ిక్ష": 2321,
      "గా మార": 2322,
      "ల న": 2323,
      "చేసుకో": 2324,
      "ప్రధాన ": 2325,
      "ులపై": 2326,
      "నిమా": 2327,
      "అందుకే ": 2328,
      "య్యాయ": 2329,
      "జ్ర": 2330,
      "గాయ": 2331,
      " సె": 2332,
      "కేటాయ": 2333,
      "ర్న": 2334,
      "దృష్ట": 2335,
      " ఒక": 2336,
      "్నం ": 2337,
      "ఇండియా ": 2338,
      " జిల్లా ": 2339,
      "స్క": 2340,
      "చల": 2341,
      "ూ..\n": 2342,
      "ప్రాజెక్ట": 2343,
      "మిళ": 2344,
      "చూస": 2345,
      "ఏపీ ": 2346,
      "స్టార్ ": 2347,
      "పర్యట": 2348,
      "గిల": 2349,
      "ంక": 2350,
      "ామన్నార": 2351,
      "దక్క": 2352,
      "సమీ": 2353,
      "తీసుకో": 2354,
      " వర": 2355,
      "ుకొని ": 2356,
      "రెడ్": 2357,
      "రాన": 2358,
      "గెలు": 2359,
      "పరిశీల": 2360,
      "ఆందోళ": 2361,
      " బి": 2362,
      "మన ": 2363,
      "ేయ": 2364,
      "ణి ": 2365,
      "తిని ": 2366,
      " దాడ": 2367,
      " మో": 2368,
      "మళ్లీ ": 2369,
      "ముల": 2370,
      "ేలా ": 2371,
      "ణలు ": 2372,
      "తెలుగు ": 2373,
      "ఉండాల": 2374,
      "ಿ ": 2375,
      "కంగా ": 2376,
      "ఈ సందర్భంగా ": 2377,
      "పట": 2378,
      " ఏడాది ": 2379,
      " కుట": 2380,
      "సెల": 2381,
      "డిగా ": 2382,
      "ాజీ ": 2383,
      "లభ": 2384,
      "రుగుతున్న": 2385,
      "సేన ": 2386,
      "కోరార": 2387,
      "మంద": 2388,
      "ఎందుకు ": 2389,
      " పు": 2390,
      " అవకాశ": 2391,
      "నాలు ": 2392,
      "ఏం ": 2393,
      "సినిమ": 2394,
      " డి": 2395,
      "చిత్ర": 2396,
      "దొ": 2397,
      " పాల": 2398,
      "తిరిగి ": 2399,
      "తొలి ": 2400,
      "విషయం ": 2401,
      "చూస్త": 2402,
      "అంటూ": 2403,
      "డిపోయ": 2404,
      " సంఖ్య": 2405,
      "సోమ": 2406,
      "ధి ": 2407,
      "సంద": 2408,
      " మార": 2409,
      "నున్న": 2410,
      "ొప్ప": 2411,
      "గెలి": 2412,
      "జీవ": 2413,
      "తక్కువ": 2414,
      "22": 2415,
      " శ్రీ": 2416,
      "ుబాట": 2417,
      "ఫ్ట": 2418,
      "కాలు ": 2419,
      "్)": 2420,
      " జీ": 2421,
      "డుక": 2422,
      "దేశంలో ": 2423,
      "వ్యతిరేక": 2424,
      "షనల్ ": 2425,
      "ఆరోగ్య": 2426,
      "ాయణ": 2427,
      "ఆర్థ": 2428,
      "ట్లను ": 2429,
      "‌‌‌‌‌‌‌‌‌‌‌‌‌‌‌‌‌‌‌‌‌‌‌‌‌‌‌‌‌‌‌‌‌‌‌‌‌‌‌‌‌‌‌‌‌‌‌‌‌‌‌‌‌‌‌‌‌‌‌‌‌‌‌‌‌‌‌‌‌‌‌‌‌‌‌‌‌‌‌‌‌‌‌‌‌‌‌‌‌‌‌‌‌‌‌‌‌‌‌‌‌‌‌‌‌‌‌‌‌‌‌‌‌‌‌‌‌‌‌‌‌‌‌‌‌‌‌‌‌‌‌‌‌‌‌‌‌‌‌‌‌‌‌‌‌‌‌‌‌‌‌‌‌‌‌‌‌‌‌‌‌‌‌‌‌‌‌‌‌‌‌‌‌‌‌‌‌‌‌‌‌‌‌‌‌‌‌‌‌‌‌‌‌‌‌‌‌‌‌‌‌‌‌‌‌‌‌‌‌‌‌‌‌‌‌‌‌‌‌‌‌‌‌‌‌‌‌‌‌‌‌‌‌‌‌‌‌‌‌‌‌‌‌‌‌‌‌‌‌‌‌‌‌‌‌‌": 2430,
      "శం": 2431,
      " తన ": 2432,
      "రేవంత్ రెడ్డి ": 2433,
      "మాట": 2434,
      "స్పష్టం ": 2435,
      "జ్ఞ": 2436,
      "ో..\n": 2437,
      "తిరు": 2438,
      "నాగ": 2439,
      "్మిక": 2440,
      "రాలు ": 2441,
      " భూ": 2442,
      "పెళ్ల": 2443,
      "40": 2444,
      "ఈ క్ర": 2445,
      "ర్లను ": 2446,
      "మంలో ": 2447,
      "ాయి ": 2448,
      " గ్రామ": 2449,
      "ఆశ": 2450,
      "రద్ద": 2451,
      "గురు": 2452,
      "తీసుకున్న": 2453,
      "కాగ": 2454,
      "అవసర": 2455,
      "డైరెక్ట": 2456,
      "జిల్లాలో ": 2457,
      "వ‌": 2458,
      "మరణ": 2459,
      "ఎదుర్": 2460,
      "ప్రచారం ": 2461,
      "అధికారంలోకి ": 2462,
      "టర": 2463,
      " టీ": 2464,
      "తా ": 2465,
      "సోషల్ మీడియాలో ": 2466,
      "వైద్య": 2467,
      "పుర": 2468,
      "రిలో ": 2469,
      " నేపథ్యంలో ": 2470,
      "తను ": 2471,
      "್‌": 2472,
      "అయిన ": 2473,
      ") ": 2474,
      "అనుక": 2475,
      "స్త్ర": 2476,
      "గ్రెస్ పార్టీ ": 2477,
      "కొనుగో": 2478,
      "ప్పటికీ ": 2479,
      "ఈ విష": 2480,
      "వినియోగ": 2481,
      "గ్స్ ": 2482,
      "నవ": 2483,
      "త్తి": 2484,
      "బాధ్య": 2485,
      "నాలుగు ": 2486,
      " ముఖ్య": 2487,
      "ఆగ": 2488,
      "మంగళ": 2489,
      "కేవల": 2490,
      " ఇంట": 2491,
      " జరిగ": 2492,
      "ఉంటే ": 2493,
      "చ్చి ": 2494,
      "ేశార": 2495,
      "స్థాయిలో ": 2496,
      " పాటు ": 2497,
      " స్థాన": 2498,
      "జిక": 2499,
      "ండ్ల": 2500,
      "పుణ": 2501,
      "డవ": 2502,
      "దుల": 2503,
      "నమ్మ": 2504,
      "సిక": 2505,
      "ధి": 2506,
      "మార్ప": 2507,
      "నని ": 2508,
      "పరీక్ష": 2509,
      " పూ": 2510,
      "చెన్న": 2511,
      "దువ": 2512,
      "పిల": 2513,
      "శుక్ర": 2514,
      "రియు ": 2515,
      " జా": 2516,
      "తాల్లో ": 2517,
      "ఉండే ": 2518,
      "సేవ": 2519,
      "ాయి": 2520,
      "ండి ": 2521,
      "చని": 2522,
      "సర్వ": 2523,
      "మొదటి ": 2524,
      " ద్వారా ": 2525,
      "తంలో ": 2526,
      "కేవలం ": 2527,
      "సాద": 2528,
      " ప్రతి": 2529,
      "్వే ": 2530,
      " బ్య": 2531,
      "రాజ్ ": 2532,
      "అడ్డ": 2533,
      "ావరణ": 2534,
      "ప్రవేశ": 2535,
      "శాల": 2536,
      "స్వామి ": 2537,
      "శ్రీని": 2538,
      "తనకు ": 2539,
      "స్వ": 2540,
      "డ్జ": 2541,
      "అందుబాట": 2542,
      "మాట్లాడుత": 2543,
      "చేయడ": 2544,
      "వంద": 2545,
      "ాస్త": 2546,
      "లక్ష్మ": 2547,
      "ఇంకా ": 2548,
      "ఫోన్ ": 2549,
      "వాన్ని ": 2550,
      "పోస్ట": 2551,
      "క్టో": 2552,
      "ప్రొ": 2553,
      "ానం ": 2554,
      " మాజీ ": 2555,
      "త్తు ": 2556,
      "ద్రం ": 2557,
      "ష్య": 2558,
      "రుస": 2559,
      "దీని ": 2560,
      " నెల ": 2561,
      "ిటీ ": 2562,
      "ర్మి": 2563,
      "గుల": 2564,
      "ికార్": 2565,
      "విషయ": 2566,
      "వచ్చి ": 2567,
      " ఆయన ": 2568,
      "ఆద": 2569,
      "రుతో ": 2570,
      "ఎంప": 2571,
      "భయ": 2572,
      "చారని ": 2573,
      "ామన": 2574,
      "ఫిక": 2575,
      "పార్లమ": 2576,
      "దేశం ": 2577,
      "అరెస్ట్ ": 2578,
      "దర్ ": 2579,
      "హు": 2580,
      "100": 2581,
      "నల": 2582,
      "బుల్ ": 2583,
      "ోయ": 2584,
      "సార్లు ": 2585,
      "్\"": 2586,
      "ర్తి ": 2587,
      "ర్మన్ ": 2588,
      "నాథ": 2589,
      "రిలీజ్ ": 2590,
      "క్షిణ": 2591,
      "జ్రాయ": 2592,
      "ఫ్యా": 2593,
      "పూర": 2594,
      " చిత్ర": 2595,
      "యిల్ ": 2596,
      "మద్దత": 2597,
      "ాస": 2598,
      "పైన ": 2599,
      "ూ,": 2600,
      " అధ్య": 2601,
      "చేస్తార": 2602,
      "కరణ": 2603,
      " బీజేపీ ": 2604,
      " ఎం": 2605,
      "డిక": 2606,
      "తరువాత": 2607,
      "లోనూ": 2608,
      "లు చేశార": 2609,
      "జయ్ ": 2610,
      "ట్లో ": 2611,
      " ఉన్న": 2612,
      " జన": 2613,
      "వ్యక్త": 2614,
      "చుకున్న": 2615,
      "మోదీ ": 2616,
      "బూ": 2617,
      " మర": 2618,
      "ంగ్ల": 2619,
      "బీఐ": 2620,
      "లేని ": 2621,
      "గూడ": 2622,
      "ుడి ": 2623,
      "ికిత": 2624,
      "హెచ్చ": 2625,
      "స్థల": 2626,
      "అంశ": 2627,
      "ఎల్ ": 2628,
      "శుభ": 2629,
      "అవి": 2630,
      "పేర్క": 2631,
      "వైరల్ ": 2632,
      "కర్ణాటక": 2633,
      "రాహుల్ ": 2634,
      "ఆలో": 2635,
      "ీట్ ": 2636,
      "పాత్ర": 2637,
      "మరోసారి ": 2638,
      "ఏపీలో ": 2639,
      "తాము ": 2640,
      "ిపై": 2641,
      "స్కూ": 2642,
      "కష్ట": 2643,
      "తిలో ": 2644,
      "ఎంతో ": 2645,
      "ఫ్ల": 2646,
      "భర్త": 2647,
      "సిద్ద": 2648,
      "కౌ": 2649,
      "లక్ష్య": 2650,
      " పెద్ద": 2651,
      "విజయం ": 2652,
      "చినట్లు ": 2653,
      "రమ": 2654,
      " అనే ": 2655,
      "ఆధార": 2656,
      "ಲ್": 2657,
      "గ్రూప": 2658,
      "ఇంత": 2659,
      "చేస్తూ": 2660,
      "ులోకి ": 2661,
      "ుతార": 2662,
      "ానికి చ": 2663,
      "ాల న": 2664,
      "రిప": 2665,
      "చంద్రబాబ": 2666,
      "ఎన్న": 2667,
      "ేట": 2668,
      "బట్టి ": 2669,
      "డియా": 2670,
      "పేరు ": 2671,
      "వెళ్త": 2672,
      "ేక్ ": 2673,
      "ర్యాప్త": 2674,
      "ంబర్ ": 2675,
      "ఆస": 2676,
      "నను ": 2677,
      "ు?\n": 2678,
      "21": 2679,
      "ر ": 2680,
      "ెబ్బ": 2681,
      "ధ్యా": 2682,
      "ి న": 2683,
      "హ్మ": 2684,
      "అందులో ": 2685,
      "అభివృద్ధి ": 2686,
      " ఎన్నికల": 2687,
      "ామ్ ": 2688,
      "ినీ ": 2689,
      "ిస్తూ": 2690,
      "స్పె": 2691,
      "రైల": 2692,
      "ఫొటో ": 2693,
      "ీ..\n": 2694,
      "న్ను ": 2695,
      "ట్": 2696,
      "మవుత": 2697,
      " మార్": 2698,
      "భావి": 2699,
      "చేయడానికి ": 2700,
      "కెట్ ": 2701,
      "ల్లు ": 2702,
      " -": 2703,
      "ీన ": 2704,
      "23": 2705,
      "తిన": 2706,
      "ప్రద": 2707,
      "పెట్టార": 2708,
      "త్": 2709,
      "మీరు ": 2710,
      "పోతే ": 2711,
      "సమాచారం ": 2712,
      "ర్వే": 2713,
      "సరం ": 2714,
      "పం": 2715,
      "డ్డు ": 2716,
      "రాజ్య": 2717,
      "వాల్ ": 2718,
      "వార్త": 2719,
      "టి న": 2720,
      "కథ": 2721,
      "కొన్న": 2722,
      " వద్ద": 2723,
      "ప్రాణ": 2724,
      "హీరో": 2725,
      "చలేద": 2726,
      " ఎమ్మెల్య": 2727,
      "వ్యాపార": 2728,
      "రికి ": 2729,
      "ప్రజల": 2730,
      "తెర": 2731,
      "భారీ వర్ష": 2732,
      "మ్యాచ్ ": 2733,
      "పాల్ప": 2734,
      "ిత్ ": 2735,
      " ప్రధా": 2736,
      "స్వామ": 2737,
      "భావం ": 2738,
      "ఖర్చ": 2739,
      " రోజ": 2740,
      " కల": 2741,
      " కమి": 2742,
      "ంత్రం ": 2743,
      "వెళ్లి ": 2744,
      " కొత్త": 2745,
      "బుధ": 2746,
      "రుగా ": 2747,
      "ినేత": 2748,
      "ేఖ": 2749,
      "రావాల": 2750,
      "సుప్ర": 2751,
      "షియ": 2752,
      "కారణంగా ": 2753,
      "ప్రాయ": 2754,
      "కోల్ప": 2755,
      "ీలను ": 2756,
      " తెలంగాణ": 2757,
      "తీర్": 2758,
      "డ్రై": 2759,
      "గ్రహం ": 2760,
      "ికిత్స": 2761,
      "రుత": 2762,
      "నివారం ": 2763,
      "కూట": 2764,
      "వివిధ": 2765,
      " గంటలకు ": 2766,
      "28": 2767,
      "అర్థ": 2768,
      "ఎన": 2769,
      "సౌ": 2770,
      " కా": 2771,
      " ఇతర": 2772,
      "అనేది ": 2773,
      "ికెట్ ": 2774,
      "షి ": 2775,
      "సల": 2776,
      "కంట": 2777,
      "సియ": 2778,
      "ీలకు ": 2779,
      "దీనికి ": 2780,
      "అయ్యార": 2781,
      " గంటల": 2782,
      "ధిక": 2783,
      "ేస": 2784,
      " ఇం": 2785,
      "ఆర్థిక": 2786,
      "స్టో": 2787,
      "రికీ ": 2788,
      "ar": 2789,
      "పడ్డ": 2790,
      "ీన్ ": 2791,
      "చేసిన": 2792,
      "యిన్ ": 2793,
      "చనున్నార": 2794,
      "ఆత్మ": 2795,
      "తంగా ": 2796,
      "పోలీస్ ": 2797,
      " రో": 2798,
      "ిగ": 2799,
      " ప్రకట": 2800,
      "వ తేదీ ": 2801,
      "ఇద్దరు ": 2802,
      "కంటే ": 2803,
      "డ్యూ": 2804,
      "‌ర": 2805,
      " సో": 2806,
      "బాధిత": 2807,
      "ర్లకు ": 2808,
      "బయటకు ": 2809,
      "ఫిర్యాదు ": 2810,
      "మోహ": 2811,
      " \"": 2812,
      "చేసుకున్నార": 2813,
      " సంఘ": 2814,
      " లో": 2815,
      "కుడు ": 2816,
      "రుగు": 2817,
      " అన": 2818,
      "స్సు ": 2819,
      "బీసీ ": 2820,
      "యే ": 2821,
      "ీని ": 2822,
      "నిస్త": 2823,
      "పోలీసుల": 2824,
      "దితర": 2825,
      "సాధార": 2826,
      "లువు": 2827,
      "ం:": 2828,
      "నర్ ": 2829,
      "డ్స్ ": 2830,
      " చర్య": 2831,
      "డా": 2832,
      " పొ": 2833,
      "ామా ": 2834,
      "దుగా ": 2835,
      "వ్యూ": 2836,
      " రాజకీయ": 2837,
      "వాట": 2838,
      "విన": 2839,
      "భారీగా ": 2840,
      "చ్చిన ": 2841,
      "ఏర్పడ": 2842,
      "శుక్రవారం ": 2843,
      "చుకున్నార": 2844,
      "ైవే": 2845,
      "బిత": 2846,
      "ోనే ": 2847,
      "క్షేమ": 2848,
      " ఆర్థ": 2849,
      "ళ్ళ": 2850,
      "గురువారం ": 2851,
      "దూర": 2852,
      "వాయ": 2853,
      "డి\n": 2854,
      "క్యూ": 2855,
      "భారతీయ": 2856,
      "ేశ్వర": 2857,
      "పడ్డార": 2858,
      "చేస్తే ": 2859,
      "మనం ": 2860,
      "ఇబ్బంద": 2861,
      "టే": 2862,
      " అంశ": 2863,
      "యుద్ధ": 2864,
      "సోమవారం ": 2865,
      "ఈ సినిమా ": 2866,
      "వో ": 2867,
      "స్టేషన్ ": 2868,
      "ఫార": 2869,
      "నాకు ": 2870,
      "అధినేత": 2871,
      "బాగా ": 2872,
      "ಲ್ಲ": 2873,
      "ిర": 2874,
      "పోర్ట": 2875,
      " లో ": 2876,
      "ిమ": 2877,
      "తొలగ": 2878,
      "రీర": 2879,
      " నీ": 2880,
      " ధ": 2881,
      "అండ్ ": 2882,
      "ఫైన": 2883,
      "శో": 2884,
      "ఖాస్త": 2885,
      "అంటున్నార": 2886,
      "ోల": 2887,
      "జు": 2888,
      "ి\n": 2889,
      "చేస్తామని ": 2890,
      "ాల్ల": 2891,
      " అను": 2892,
      "ర్యాల": 2893,
      "ద్వ": 2894,
      "హా ": 2895,
      "హాజర": 2896,
      "కన్న": 2897,
      " అధికారులు ": 2898,
      "్‍": 2899,
      "గ్రత్త": 2900,
      "ఎక్కడ": 2901,
      "బాగ": 2902,
      "ిక్క": 2903,
      "పనులు ": 2904,
      "కొనుగోలు ": 2905,
      "ర్ట": 2906,
      "బ్యాట": 2907,
      "వ తేదీన ": 2908,
      "ఎండ": 2909,
      "కేటీఆర్ ": 2910,
      " ఉద్యోగ": 2911,
      "27": 2912,
      "ేట్ ": 2913,
      "టీలో ": 2914,
      "వినిప": 2915,
      " బాల": 2916,
      " మ్యా": 2917,
      "పడుతున్నార": 2918,
      "దెబ్బ": 2919,
      "న్యం ": 2920,
      "వాళ్లు ": 2921,
      "పాల్ ": 2922,
      "వచ్చాయ": 2923,
      "తీసుకున్నార": 2924,
      "న్మ": 2925,
      "గణ": 2926,
      "ంగానే ": 2927,
      " వర్గ": 2928,
      " రంగ": 2929,
      "జీవిత": 2930,
      " ఆర్థిక": 2931,
      "డాల": 2932,
      "నిర్మా": 2933,
      "ముద్ర": 2934,
      "ెలి": 2935,
      "ఎఫ": 2936,
      "అవసరం ": 2937,
      "కాపాడ": 2938,
      "డగ": 2939,
      "త్ప": 2940,
      "26": 2941,
      " సీఎం ": 2942,
      "మరియు ": 2943,
      " దా": 2944,
      "్యాల": 2945,
      "బ సభ్య": 2946,
      "వాటిని ": 2947,
      "రుస్త": 2948,
      "ై ": 2949,
      "డిస": 2950,
      " నాయక": 2951,
      "పోయార": 2952,
      "ఈ సమ": 2953,
      "చట్ట": 2954,
      "బోర్": 2955,
      "తమిళ": 2956,
      "అతని ": 2957,
      "జర్ ": 2958,
      "పాయ": 2959,
      "కలెక్టర్ ": 2960,
      "స్టర్ ": 2961,
      " వాట": 2962,
      "హ్ల": 2963,
      "పూజ": 2964,
      "పరిస్థితి ": 2965,
      "చేసినట్లు ": 2966,
      "కేసులో ": 2967,
      "టికెట్ ": 2968,
      "షా ": 2969,
      "ప్రే": 2970,
      "పోరా": 2971,
      "అభిమాన": 2972,
      "మంగళవారం ": 2973,
      "పిలు": 2974,
      "కంప": 2975,
      "ان": 2976,
      "తీసుకొ": 2977,
      " చర్చ": 2978,
      "తేల": 2979,
      "ప్టె": 2980,
      "తల్ల": 2981,
      "స్ల": 2982,
      "విక్ర": 2983,
      "అడిగ": 2984,
      "ఆట": 2985,
      "సర్కార": 2986,
      "ర్యాప్తు ": 2987,
      "ెట": 2988,
      "నాడు ": 2989,
      " య": 2990,
      "ప్రముఖ": 2991,
      " రైత": 2992,
      "మాట్లాడార": 2993,
      "విడుదల": 2994,
      "ృం": 2995,
      "శిక్ష": 2996,
      "ాడని ": 2997,
      "సెప్ట": 2998,
      "మిష": 2999,
      "ఆదివారం ": 3000,
      " శ్ర": 3001,
      "ఐదు ": 3002,
      "్సీ ": 3003,
      "శ్ ": 3004,
      "మరోవైపు ": 3005,
      "అధ్యక్షుడు ": 3006,
      "జన్ ": 3007,
      "విడ": 3008,
      "డో": 3009,
      "వన": 3010,
      "ఆంధ్రప్రదేశ్ ": 3011,
      "ఎస్స": 3012,
      "ంలో ఉన్న": 3013,
      "అత్యంత": 3014,
      "నాట": 3015,
      "అక్రమ": 3016,
      "ిన్న": 3017,
      "ఈ నెల ": 3018,
      " کے ": 3019,
      "ోటీస": 3020,
      "పెరుగుత": 3021,
      "నామ": 3022,
      "చేసార": 3023,
      "ాడు ": 3024,
      "వాస్ ": 3025,
      " అధ్యక్ష": 3026,
      "శనివారం ": 3027,
      "ఉంచ": 3028,
      " ఒ": 3029,
      "ఇజ్రాయ": 3030,
      "ుపై": 3031,
      "బొ": 3032,
      "నాయకులు ": 3033,
      "ుల్ల": 3034,
      "ితంగా ": 3035,
      "సిటీ ": 3036,
      "సహా ": 3037,
      "హామీ ": 3038,
      "ాకు ": 3039,
      " అన్నార": 3040,
      "క్షణ": 3041,
      "సిడ": 3042,
      "ఇండియ": 3043,
      "రిత్ర": 3044,
      "కార్యాల": 3045,
      "డిపడ్డార": 3046,
      "ీవుడ్ ": 3047,
      "తాగ": 3048,
      "లిగ": 3049,
      "డాక్టర్ ": 3050,
      "ఇండ": 3051,
      "టువ": 3052,
      "ఈ క్రమంలో ": 3053,
      "ఈ ర": 3054,
      "స్వీ": 3055,
      "ప్రకారం ": 3056,
      "కార్యకర్త": 3057,
      "మార్గ": 3058,
      "ళ్లలో ": 3059,
      " రోజుల": 3060,
      "ుల న": 3061,
      " సూ": 3062,
      "పురం ": 3063,
      "యోజన": 3064,
      " మండల": 3065,
      " రి": 3066,
      "తులు ": 3067,
      "నిక": 3068,
      "రిని ": 3069,
      "మ్మడి ": 3070,
      "త్తి ": 3071,
      "స్ట్రే": 3072,
      " పరుగులు ": 3073,
      "ర్ణ": 3074,
      " ఏర్": 3075,
      "చక": 3076,
      "లేవ": 3077,
      "ہ ": 3078,
      "తీ ": 3079,
      "ఈసారి ": 3080,
      "ితం ": 3081,
      "దక్షిణ": 3082,
      "మాల": 3083,
      " కేసులో ": 3084,
      "ీ.\n": 3085,
      "సీనియర్ ": 3086,
      " తీవ్ర": 3087,
      " పట్ట": 3088,
      "ఎయి": 3089,
      "వేగ": 3090,
      "వాతావరణ": 3091,
      "ఆహార": 3092,
      "దిల": 3093,
      "ఫీ ": 3094,
      "ంతోష": 3095,
      "ు\"\"": 3096,
      "లువురు ": 3097,
      "తో కలిసి ": 3098,
      "మారు ": 3099,
      " అభ్య": 3100,
      "డ్ చేశార": 3101,
      "జూన్ ": 3102,
      "یں ": 3103,
      "కాలే": 3104,
      "పోయిన ": 3105,
      "నిరస": 3106,
      "అదు": 3107,
      "డిన": 3108,
      "ధ్యాహ": 3109,
      "్యాన్ని ": 3110,
      "బర": 3111,
      "స్పష్ట": 3112,
      " పార": 3113,
      "ధరలు ": 3114,
      "ండ్రి ": 3115,
      "సమీప": 3116,
      "అంబ": 3117,
      "మల్ల": 3118,
      "ప్రజలకు ": 3119,
      " విచారణ": 3120,
      "పరిష్": 3121,
      "60": 3122,
      "ులుగా ": 3123,
      "్పొ": 3124,
      "గుర్తు ": 3125,
      "విజయం సాధ": 3126,
      "ನ್": 3127,
      "మ్మెల్సీ ": 3128,
      " ట్ర": 3129,
      "నమోద": 3130,
      "‌ల": 3131,
      "డం లేద": 3132,
      "దాని": 3133,
      "ఎంట": 3134,
      "షర్మి": 3135,
      "సుపత్ర": 3136,
      "నియమ": 3137,
      " విజయ": 3138,
      "ు నమోదు ": 3139,
      "కవిత": 3140,
      "కు సంబంధ": 3141,
      "శ్రమ": 3142,
      "ూపర్ ": 3143,
      "విషయంలో ": 3144,
      "దీనిపై": 3145,
      "తిరుమల": 3146,
      "ఆరు ": 3147,
      " వల్ల": 3148,
      "ముఖ్యంగా ": 3149,
      " అభి": 3150,
      "మానం ": 3151,
      "రళ": 3152,
      " మీద": 3153,
      "వార్": 3154,
      "తీసుకెళ్ల": 3155,
      "పూర్తిగా ": 3156,
      "అక్టో": 3157,
      "నేడు ": 3158,
      " గో": 3159,
      "వైఎస్ ": 3160,
      "డర": 3161,
      "బ్ద": 3162,
      "చారు ": 3163,
      "చోట": 3164,
      "రువు ": 3165,
      " సమావేశ": 3166,
      "తికి ": 3167,
      " స్ట": 3168,
      "చడంతో ": 3169,
      "ెత్త": 3170,
      "అలా ": 3171,
      "ప‌": 3172,
      " బ్ర": 3173,
      "రద్దు ": 3174,
      "ఫీ": 3175,
      "یا ": 3176,
      "బౌల": 3177,
      "వస": 3178,
      "in": 3179,
      "పడి ": 3180,
      "ట్ లో ": 3181,
      " కిలో": 3182,
      " నియోజకవర్గ": 3183,
      "యానికి ": 3184,
      " పడ": 3185,
      "al": 3186,
      "తమకు ": 3187,
      " బీఆర్ఎస్ ": 3188,
      "29": 3189,
      "ప్రతిపక్ష": 3190,
      " ఆరోగ్య": 3191,
      "టిలో ": 3192,
      "ాబాద్ ": 3193,
      " అంత": 3194,
      "ిస్తామని ": 3195,
      "భక్తులు ": 3196,
      "మాజిక": 3197,
      " తమ": 3198,
      "ఎందుక": 3199,
      "పెళ్లి ": 3200,
      "ೆ ": 3201,
      " ప్రత్య": 3202,
      "బుధవారం ": 3203,
      "అద": 3204,
      " ఎకర": 3205,
      "జాగ్రత్త": 3206,
      ", మ": 3207,
      "ప్రేమ": 3208,
      "అధికారుల": 3209,
      "అమెరికా ": 3210,
      "నమోదు ": 3211,
      "ొక్క": 3212,
      "కు చేర": 3213,
      "సైతం ": 3214,
      "ాయ్ ": 3215,
      " తర": 3216,
      "వరద": 3217,
      " వ్యాఖ్య": 3218,
      "పంట": 3219,
      "విశాఖ": 3220,
      " ది": 3221,
      "చోటు ": 3222,
      "చీఫ్ ": 3223,
      "టువంటి ": 3224,
      " సహ": 3225,
      "కంపెనీ ": 3226,
      "యూనివర్": 3227,
      " జగ": 3228,
      "లైన్ ": 3229,
      "ತ್": 3230,
      "ొద్ద": 3231,
      "ಿದ": 3232,
      "చేశారని ": 3233,
      "వస్తే ": 3234,
      " యువ": 3235,
      "500": 3236,
      "తోపాటు ": 3237,
      "సన": 3238,
      "సంవత్స": 3239,
      "ల్ని ": 3240,
      "జల": 3241,
      "విష్య": 3242,
      "ద్దేశ": 3243,
      "్యు": 3244,
      "అసలు ": 3245,
      " అవకాశం ": 3246,
      "చికిత్స": 3247,
      "ధిలో ": 3248,
      "కొద్ద": 3249,
      " ఫో": 3250,
      "రాక": 3251,
      "షె": 3252,
      "ీ)": 3253,
      "సాయంత్రం ": 3254,
      "కోర్టులో ": 3255,
      "క్యాప్": 3256,
      "ఈరోజు ": 3257,
      "హో": 3258,
      "ప్రజా": 3259,
      "ంగా ఉండ": 3260,
      "అభ్యర్థి ": 3261,
      "వరకూ": 3262,
      "పుట్ట": 3263,
      "్యూటీ ": 3264,
      " పోలీసులు ": 3265,
      "నారాయణ": 3266,
      "జిన": 3267,
      "ారి ": 3268,
      "ఆలోచ": 3269,
      " అయ": 3270,
      "దాఖ": 3271,
      "ంగా ఉంట": 3272,
      "ముగ్": 3273,
      "సుల": 3274,
      "ీ:": 3275,
      "విశ": 3276,
      "వస్తున్న": 3277,
      "మతి ": 3278,
      "ాల్సి ": 3279,
      "ప్రియ": 3280,
      "టెక్": 3281,
      " రాశ": 3282,
      "ధ్వర్య": 3283,
      "దా ": 3284,
      "పేద": 3285,
      " పథ": 3286,
      " నగ": 3287,
      "టికీ ": 3288,
      "ిస్తున్నాయ": 3289,
      "మీటర్ల": 3290,
      " పాత్ర": 3291,
      "అంగ": 3292,
      "తాల": 3293,
      "సేక": 3294,
      "కావడంతో ": 3295,
      "వీడియో ": 3296,
      "నీయ": 3297,
      "ఇన్": 3298,
      "లో క": 3299,
      "దిన": 3300,
      "ాష్ట్ర": 3301,
      "ఎన్నికలు ": 3302,
      "ీరో ": 3303,
      "ోన్న": 3304,
      "ప్రిల్ ": 3305,
      "కొడ": 3306,
      "టీమ": 3307,
      "యాక్ట": 3308,
      "ద్యం ": 3309,
      "చైర్మన్ ": 3310,
      "అక్కడి ": 3311,
      "వరుస": 3312,
      "టీసీ ": 3313,
      "టరీ ": 3314,
      "ిపోత": 3315,
      " కం": 3316,
      " ఆమె": 3317,
      "చాలా మంది ": 3318,
      "త్వం ": 3319,
      "ఇవాళ": 3320,
      "గడ": 3321,
      "ఈ మే": 3322,
      "జనసేన ": 3323,
      "దీన్ని ": 3324,
      "ఇంట్లో ": 3325,
      " తీస": 3326,
      " దీ": 3327,
      "ି ": 3328,
      " ..\n": 3329,
      "చర్ ": 3330,
      " చట్ట": 3331,
      "నై": 3332,
      "తదితర": 3333,
      "మంట": 3334,
      "ి\"\"": 3335,
      " పెట్ట": 3336,
      "క‌": 3337,
      "వాణ": 3338,
      "జరిగే ": 3339,
      "కోల్పోయ": 3340,
      "పుత": 3341,
      "ిస": 3342,
      " చిన్న": 3343,
      "క్ సభ": 3344,
      "కళ్యాణ్ ": 3345,
      "లో ర": 3346,
      "పిటి": 3347,
      "వర్త": 3348,
      " మాత్ర": 3349,
      " గుర": 3350,
      "టాల": 3351,
      "ర్జాతీయ": 3352,
      "దరఖాస్త": 3353,
      "లు\n": 3354,
      "హారాష్ట్ర": 3355,
      "తెచ్చ": 3356,
      " అల": 3357,
      "పూర్త": 3358,
      "ట్వ": 3359,
      " సర్": 3360,
      "నేషనల్ ": 3361,
      "లేదన": 3362,
      "వీడియో": 3363,
      "సుక": 3364,
      "ప్రసాద": 3365,
      "వివే": 3366,
      "గవర్": 3367,
      "ీయ": 3368,
      "ు)": 3369,
      "డైరెక్టర్ ": 3370,
      "ప్రె": 3371,
      "ప్తి ": 3372,
      "కెప్టె": 3373,
      "బెట్ట": 3374,
      "ూట": 3375,
      "నిఖ": 3376,
      "వేస్త": 3377,
      "పెట్టి ": 3378,
      "బే": 3379,
      "ాట్ ": 3380,
      " బంగ": 3381,
      "ోత్సవ": 3382,
      "ీత": 3383,
      "ఐపీ": 3384,
      "నివేదిక": 3385,
      "మండిపడ్డార": 3386,
      "పోవడంతో ": 3387,
      "సంజయ్ ": 3388,
      "ఇన": 3389,
      "్వే": 3390,
      "ఆయనకు ": 3391,
      "రీస": 3392,
      "వేత్త": 3393,
      "ఘటన": 3394,
      "ిస్ ": 3395,
      "ధాన్య": 3396,
      " భారత": 3397,
      "బహి": 3398,
      "తయారు ": 3399,
      "ళ్లను ": 3400,
      "స్థాయి ": 3401,
      " పిల్ల": 3402,
      "ంల": 3403,
      "బట్ట": 3404,
      "విదేశ": 3405,
      "ఇవ్వాలని ": 3406,
      "కార్మిక": 3407,
      "విధంగా ": 3408,
      "ిన్ ": 3409,
      " పద": 3410,
      "నడు": 3411,
      "ಿಯ": 3412,
      "ాద్ర": 3413,
      "గం ": 3414,
      "ులోని ": 3415,
      "ద్భుత": 3416,
      "ఉచిత": 3417,
      "కడ": 3418,
      "దశ": 3419,
      "ప్పు ": 3420,
      "ఓటు ": 3421,
      "ెర": 3422,
      "పార్టీలో ": 3423,
      ", క": 3424,
      "ొక": 3425,
      " విధ": 3426,
      "ిదండ్ర": 3427,
      "ువు ": 3428,
      "అయినా ": 3429,
      "తగ": 3430,
      "సన్న": 3431,
      "ులు\n": 3432,
      "70": 3433,
      "ఉత్తర": 3434,
      "ఆందోళన ": 3435,
      "క్యాప్షన": 3436,
      "ఎప్పుడ": 3437,
      "లుగా ": 3438,
      "్‌‌‌‌‌‌‌‌‌‌‌‌‌‌‌‌‌‌‌‌‌‌‌‌‌‌‌‌‌‌‌‌‌‌‌‌‌‌‌‌‌‌‌‌‌‌‌‌‌‌‌‌‌‌‌‌‌‌‌‌‌‌‌‌": 3439,
      "రాజీన": 3440,
      "ల్డ": 3441,
      "సూర్య": 3442,
      "ీకర": 3443,
      " పన": 3444,
      "ఏంట": 3445,
      "ిటీ": 3446,
      "ప్రధాన": 3447,
      "నుమ": 3448,
      "కనీస": 3449,
      "ఈ మేరకు ": 3450,
      "ఈ ఏడాది ": 3451,
      "ార్జ": 3452,
      " ఆధార": 3453,
      "ప్రేక్ష": 3454,
      " చె": 3455,
      "ఇంటికి ": 3456,
      "రైతులు ": 3457,
      "మేక": 3458,
      "లేదన్నార": 3459,
      "ప్రమాదం ": 3460,
      "టెడ్ ": 3461,
      "ధ్యాహ్నం ": 3462,
      "మిక": 3463,
      "మోహన్ ": 3464,
      "డబ్బులు ": 3465,
      "అండ": 3466,
      "సృష్ట": 3467,
      " పై": 3468,
      "సంత": 3469,
      "మోడీ ": 3470,
      "అందుబాటులో ": 3471,
      "మ‌": 3472,
      "ుత్ ": 3473,
      "ఎక్క": 3474,
      "ందుకు ": 3475,
      "నోటీస": 3476,
      "టెస్ట్ ": 3477,
      "మ్యాచ": 3478,
      "రం": 3479,
      "వయ": 3480,
      "జట్ట": 3481,
      "పల్ ": 3482,
      "రే ": 3483,
      "కార్": 3484,
      "వెన": 3485,
      "చివరి ": 3486,
      " వీడియో": 3487,
      "అనుకూల": 3488,
      "లోన": 3489,
      "వేళ": 3490,
      "దళ": 3491,
      "ాన్స్ ": 3492,
      "ాలు కు": 3493,
      "ఏర్పా": 3494,
      "ఎంపిక": 3495,
      "తి చ": 3496,
      "చుట్ట": 3497,
      "బ్యా": 3498,
      " తే": 3499,
      "కొనసాగుత": 3500,
      " ఆరోప": 3501,
      "పోటీ": 3502,
      "సమర్ప": 3503,
      "స్పష్టం చేశార": 3504,
      "ధ్వర్యంలో ": 3505,
      "శేఖ": 3506,
      "స్\n": 3507,
      "అరెస్టు ": 3508,
      " చంద్రబాబు ": 3509,
      "ఒప్ప": 3510,
      "ాల్సిన ": 3511,
      "అంచనా ": 3512,
      "31": 3513,
      "చార్": 3514,
      "ఇప్పటి": 3515,
      "నాథ్ ": 3516,
      "ra": 3517,
      " ప్ల": 3518,
      "వేశార": 3519,
      " ఎల": 3520,
      "హాల": 3521,
      " R": 3522,
      "స్ర": 3523,
      " మందికి ": 3524,
      "ాస్ ": 3525,
      " విషయంలో ": 3526,
      " రె": 3527,
      "కప్ ": 3528,
      " తొ": 3529,
      "గమన": 3530,
      " వర్ష": 3531,
      "ನ್ನ": 3532,
      "్యామ": 3533,
      "న్యాయం ": 3534,
      " డీ": 3535,
      "దీ ": 3536,
      "్..": 3537,
      "పడుతున్న": 3538,
      "ఎంపీ": 3539,
      "తెలుగు": 3540,
      "నిధులు ": 3541,
      "మద్దతు ": 3542,
      "ము ": 3543,
      "టిఫిక": 3544,
      "స్పత్ర": 3545,
      "స్థానంలో ": 3546,
      "పాకిస్త": 3547,
      "ఉన్నట్లు ": 3548,
      "రైల్వే ": 3549,
      "జరుగుతున్న": 3550,
      "ఫిక్ ": 3551,
      "ాలన": 3552,
      "వచ్చార": 3553,
      "చెబుత": 3554,
      "గళూర": 3555,
      "హెచ్చర": 3556,
      "నీల": 3557,
      "వృ": 3558,
      "సంతోష": 3559,
      "రోజులు ": 3560,
      "హైకోర్టు ": 3561,
      "కెక్క": 3562,
      " కొన": 3563,
      " నేత": 3564,
      "వసాయ": 3565,
      "మరి ": 3566,
      "ار": 3567,
      "ఖమ్మ": 3568,
      "హౌ": 3569,
      "జ్య": 3570,
      "దాట": 3571,
      "దనే ": 3572,
      "బంద": 3573,
      "తీసుకోవాల": 3574,
      " ఆల": 3575,
      "ారెడ్డ": 3576,
      " చే": 3577,
      "కు మ": 3578,
      "ంటూ ": 3579,
      "పోస్ట్ ": 3580,
      "స్ట్రేలియ": 3581,
      " వస్త": 3582,
      " کی ": 3583,
      "తనను ": 3584,
      "ఘన": 3585,
      " తరువాత": 3586,
      "మార్చి ": 3587,
      "రక్షణ": 3588,
      "కూటమి ": 3589,
      "పలువురు ": 3590,
      "‌న": 3591,
      "కు ర": 3592,
      " వారి ": 3593,
      "న్సిపల్ ": 3594,
      "కు వెళ్ల": 3595,
      "రామ్ ": 3596,
      "ఓపె": 3597,
      "ఫొటో క్యాప్షన": 3598,
      "و ": 3599,
      "లు కూడా ": 3600,
      " ఆఫ": 3601,
      "రాజు ": 3602,
      "ఒకే ": 3603,
      "ియా ": 3604,
      " ఫి": 3605,
      "యిన": 3606,
      "హరీ": 3607,
      "ుని ": 3608,
      " కారణంగా ": 3609,
      "చేస్తున్నారని ": 3610,
      "సారిగా ": 3611,
      "తయార": 3612,
      "పర్ ": 3613,
      "లాభ": 3614,
      "దాడి ": 3615,
      "పాఠ": 3616,
      "ే..": 3617,
      "లో అ": 3618,
      "విశ్వ": 3619,
      "ఉమ్మడి ": 3620,
      "మత్త": 3621,
      "మీట": 3622,
      "అభిప్రాయ": 3623,
      "ట్లుగా ": 3624,
      "దర్శి ": 3625,
      "విజయవాడ": 3626,
      "నిన్న": 3627,
      "ాత్మ": 3628,
      "పార్టీకి ": 3629,
      " నిర్వహ": 3630,
      " ఎత్త": 3631,
      "ఆరోపణలు ": 3632,
      "45": 3633,
      "హెల": 3634,
      " దృష్ట": 3635,
      "ుప": 3636,
      " వా": 3637,
      "ణామ": 3638,
      "సందర్భంగా ": 3639,
      " అత": 3640,
      "బోయే ": 3641,
      "చోట్ల": 3642,
      "ఇంగ్ల": 3643,
      " ప్రకారం ": 3644,
      " వ్యక్తి ": 3645,
      "ీక": 3646,
      "దాని ": 3647,
      " గు": 3648,
      "తీసుకోవాలని ": 3649,
      "ఖాత": 3650,
      " సంబంధ": 3651,
      "ఎన్నో ": 3652,
      "జైల": 3653,
      "న్\n": 3654,
      "టెస్ట": 3655,
      "ఆమోద": 3656,
      "పై క": 3657,
      "పార్": 3658,
      " ఈ ": 3659,
      "దుక": 3660,
      "దర్యాప్తు ": 3661,
      "రుష": 3662,
      "స్థాన్ ": 3663,
      "ఇప్పటి ": 3664,
      "ులు కూడా ": 3665,
      "ు...\n": 3666,
      "వరంగ": 3667,
      "తెలంగాణ రాష్ట్ర": 3668,
      " వ్యవస్థ": 3669,
      "ఆహ": 3670,
      "ౌర": 3671,
      "సిస్ట": 3672,
      "న్సీ ": 3673,
      "ప్రయాణిక": 3674,
      "జుల": 3675,
      "జరా": 3676,
      "ుధ": 3677,
      "్ట్ ": 3678,
      "వ్యవస్థ": 3679,
      " నాట": 3680,
      "ట.\n": 3681,
      "నాడ": 3682,
      "ల్ లో ": 3683,
      "సంఘ": 3684,
      " ప్రజలు ": 3685,
      "కూడిన ": 3686,
      "ట్రో": 3687,
      "బడి ": 3688,
      "మరిక": 3689,
      " కారణ": 3690,
      "నేతల": 3691,
      "మహిళా ": 3692,
      "రేషన్ ": 3693,
      " ప్రచార": 3694,
      "చెప్త": 3695,
      "పున": 3696,
      "రీస్ ": 3697,
      "వంట": 3698,
      " మహ": 3699,
      "షి": 3700,
      "సుమారు ": 3701,
      "విషయం తెలిస": 3702,
      "େ ": 3703,
      "000": 3704,
      "చాలామ": 3705,
      "వీర": 3706,
      "ప్లాన్ ": 3707,
      "ఇష్ట": 3708,
      "మయ్య": 3709,
      "రిన ": 3710,
      "తేల్": 3711,
      "చేలా ": 3712,
      "ారిటీ ": 3713,
      " పవన్ ": 3714,
      "ుకోవడం ": 3715,
      "యత్": 3716,
      " వ్యాప్తంగా ": 3717,
      "35": 3718,
      "సీఐ": 3719,
      " కుమార": 3720,
      "రును ": 3721,
      "ద్యమ": 3722,
      "పార్టీల": 3723,
      "ائ": 3724,
      "హ్య": 3725,
      "రోడ్డు ": 3726,
      "దీప": 3727,
      "పెట్టిన ": 3728,
      "కమిషన": 3729,
      "హత్య ": 3730,
      "ఎక్స": 3731,
      " దర్శ": 3732,
      "ధానం ": 3733,
      "బిల్ల": 3734,
      "వ్యక్తి ": 3735,
      " బల": 3736,
      "వెనుక": 3737,
      "డ్జెట్ ": 3738,
      "నష్ట": 3739,
      "హిత్ ": 3740,
      "మండలం ": 3741,
      " దాడి ": 3742,
      "లోకే": 3743,
      " ఎమ్మెల్యే ": 3744,
      "స్పీ": 3745,
      "ుతాయ": 3746,
      "నీటి ": 3747,
      "స్పిట": 3748,
      "రాజీనామా ": 3749,
      "ర్ లో ": 3750,
      "అయిన": 3751,
      "రోజుల్లో ": 3752,
      "పడిన ": 3753,
      "ోగ్ర": 3754,
      "ీసీసీ ": 3755,
      " బె": 3756,
      " లె": 3757,
      " మరో ": 3758,
      "అప్పగ": 3759,
      "జారీ చేస": 3760,
      ", అ": 3761,
      "ఉం": 3762,
      "హం ": 3763,
      "సంచల": 3764,
      "భే": 3765,
      "విమాన": 3766,
      "ట్వి": 3767,
      "బిన": 3768,
      "రూ ": 3769,
      "అనిప": 3770,
      "బెయిల్ ": 3771,
      "తీవ్రంగా ": 3772,
      " కంపె": 3773,
      "గా ఉన్న": 3774,
      "చెప్పిన ": 3775,
      "ఊహ": 3776,
      "శర్మ": 3777,
      "ి...\n": 3778,
      " వయ": 3779,
      " విమర్శ": 3780,
      "80": 3781,
      "కాబట్టి ": 3782,
      "పోలీసులకు ": 3783,
      "ంపై ": 3784,
      "ఈడీ ": 3785,
      "ఈ నేపథ్యంలో ": 3786,
      "ాభ": 3787,
      " జూ": 3788,
      "పోర్ట్ ": 3789,
      "సీబీఐ": 3790,
      "రేట్ ": 3791,
      "స్థానం ": 3792,
      "నాలుగ": 3793,
      "మృత": 3794,
      ", వెలుగ": 3795,
      " కె": 3796,
      "కమిటీ ": 3797,
      "కల్యాణ్ ": 3798,
      " మాట్లాడ": 3799,
      "ఉపా": 3800,
      "ఉంటార": 3801,
      "కేసీఆర": 3802,
      "ಲ್ಲಿ ": 3803,
      "రార": 3804,
      "శరీర": 3805,
      "ಾರ": 3806,
      " పీ": 3807,
      "ళ్లకు ": 3808,
      "కార్పొ": 3809,
      "ుబడ": 3810,
      "స్తు ": 3811,
      " వివర": 3812,
      " హె": 3813,
      "ట్రాక్ట": 3814,
      "బాట": 3815,
      "రుగుతున్నాయ": 3816,
      "th": 3817,
      "మణ": 3818,
      "ిటి": 3819,
      "ప్రచార": 3820,
      " విలువ": 3821,
      "ావు ": 3822,
      "ప్రయత్": 3823,
      "ట్లలో ": 3824,
      " ఆర్": 3825,
      "జనం ": 3826,
      "కెట": 3827,
      " విద్యార్థ": 3828,
      " అభ్యర్థ": 3829,
      "చగ": 3830,
      "చయ": 3831,
      "ల్య": 3832,
      "రుద్యోగ": 3833,
      " హైదరాబాద": 3834,
      "ప్ర‌": 3835,
      "అర్హ": 3836,
      " మోద": 3837,
      "కోహ్ల": 3838,
      "పేరుతో ": 3839,
      "రైతులకు ": 3840,
      "ఇచ్చే": 3841,
      "ఓడ": 3842,
      "یک": 3843,
      "ఆనంద": 3844,
      "జా ": 3845,
      " క్య": 3846,
      "క్రికెట్ ": 3847,
      "వో": 3848,
      "సంప్రద": 3849,
      " ప్రత్యేక": 3850,
      "ఇన్ ": 3851,
      "రికార్": 3852,
      "కంపెనీ": 3853,
      "టికి ": 3854,
      "ధు": 3855,
      "ాకర్ ": 3856,
      "అనుమత": 3857,
      "శ్చి": 3858,
      "గళూరు ": 3859,
      "ద్యా": 3860,
      "చూసి ": 3861,
      "చేపట్టార": 3862,
      "ఆసుపత్ర": 3863,
      "జరుప": 3864,
      "శ్రీనివాస్ ": 3865,
      "సు ": 3866,
      "న్లను ": 3867,
      "ంగా ఉంద": 3868,
      " లే": 3869,
      "డిప్యూటీ ": 3870,
      "وی": 3871,
      "కండ": 3872,
      " కథ": 3873,
      "ఏప్రిల్ ": 3874,
      "కేజ": 3875,
      "రత": 3876,
      "జగన": 3877,
      "లెక్క": 3878,
      "అగ్ర": 3879,
      "పరిగ": 3880,
      "బండి ": 3881,
      "టీఆర": 3882,
      "డం వల్ల": 3883,
      "లేఖ": 3884,
      "ఎమ్మెల్సీ ": 3885,
      "మిన": 3886,
      "వాసం ": 3887,
      "్యాణ": 3888,
      "మూవీ ": 3889,
      "లక్షల": 3890,
      "ఇబ్బందులు ": 3891,
      "నిద్ర": 3892,
      "చెప్పుకొ": 3893,
      "షేర్ ": 3894,
      "అక్టోబర్ ": 3895,
      "డ్లు ": 3896,
      "్ని ": 3897,
      "టార్గ": 3898,
      "వ్యతిరేకంగా ": 3899,
      "యర్ ": 3900,
      "కుడ": 3901,
      "భుత్": 3902,
      " శాత": 3903,
      "దిర": 3904,
      "పరిమిత": 3905,
      "పాత": 3906,
      "అవినీ": 3907,
      "రిజర్వే": 3908,
      "ఏమ": 3909,
      "టానికి ": 3910,
      "ధర్": 3911,
      "ినప్పుడు ": 3912,
      "మాట్లాడుతూ": 3913,
      "ఇన్న": 3914,
      "యాల": 3915,
      "ుష": 3916,
      "్లోనే ": 3917,
      "అతను ": 3918,
      "బస్స": 3919,
      "య్ ": 3920,
      "మ్మి": 3921,
      "ాప్ ": 3922,
      "ఖర్చు ": 3923,
      "జర": 3924,
      "బీసీ": 3925,
      " కొన్ని ": 3926,
      "ఉద్దేశ": 3927,
      "పతి ": 3928,
      "ప్రైవే": 3929,
      "ీ-": 3930,
      "ాలు ఉన్నాయ": 3931,
      "ట్రాఫిక్ ": 3932,
      "క్కు ": 3933,
      "నీరు ": 3934,
      "పులోకి ": 3935,
      "ిదా ": 3936,
      "స్తార": 3937,
      "ానన": 3938,
      "న్యూఢిల్ల": 3939,
      "ఈ మూ": 3940,
      "er": 3941,
      "ిక్స": 3942,
      " ఎక్కువ": 3943,
      "తీసుకు": 3944,
      "రాలేద": 3945,
      "ఎగ్": 3946,
      " ముఖ్యమంత్రి ": 3947,
      "చెన్నై": 3948,
      "బీస": 3949,
      "ికర": 3950,
      " మం": 3951,
      " ప్రధాన ": 3952,
      "ముగ్గురు ": 3953,
      "ుడిగా ": 3954,
      "తొలి": 3955,
      " కంటే ": 3956,
      " ప్రశ": 3957,
      "టికె": 3958,
      "అంతర్జాతీయ": 3959,
      "జమా": 3960,
      "బార": 3961,
      "మండ": 3962,
      "క్రీ": 3963,
      "ిలీ ": 3964,
      "దర్శన": 3965,
      "దేళ్ల": 3966,
      " కామ": 3967,
      "లక్ష్యంగా ": 3968,
      " చర్యలు ": 3969,
      "డుగ": 3970,
      "్సి ఉంట": 3971,
      "ఉత్ప": 3972,
      "ున్నట్లు ": 3973,
      "ఎత్త": 3974,
      "సొ": 3975,
      "సీసీ ": 3976,
      "ుడిని ": 3977,
      "on": 3978,
      " లీ": 3979,
      "కీ ": 3980,
      "దైనా ": 3981,
      "పది ": 3982,
      "ని చెప్పార": 3983,
      " సినిమా ": 3984,
      " జరిగిన ": 3985,
      "ైనిక": 3986,
      " పరుగుల": 3987,
      "గా ఉండ": 3988,
      "ఎదుర్క": 3989,
      "షర్మిల": 3990,
      "ఎఫ్ ": 3991,
      "క్షే": 3992,
      "చెయ్య": 3993,
      "వేసి ": 3994,
      "అక": 3995,
      "ఇద": 3996,
      "డగా ": 3997,
      "తెల్ల": 3998,
      "సిబ్బంది ": 3999,
      "ువుల": 4000,
      "కార్యక్రమంలో ": 4001,
      "గాన": 4002,
      "లిస్ట": 4003,
      "సహాయ": 4004,
      " ಮ": 4005,
      "కపోవడంతో ": 4006,
      "రాహుల్ గ": 4007,
      "వది": 4008,
      "نے ": 4009,
      "దన్న": 4010,
      "బుల": 4011,
      "కోల": 4012,
      "సాధ్య": 4013,
      "అప్ర": 4014,
      "తాయ": 4015,
      "హీరో ": 4016,
      "జన ": 4017,
      "న్షన్ ": 4018,
      "డెవల": 4019,
      "నెలల": 4020,
      "ನ್ನು ": 4021,
      "శ్చిమ": 4022,
      "దాన": 4023,
      "మ్యూ": 4024,
      "సూపర్ ": 4025,
      "కాస్త": 4026,
      "మిని ": 4027,
      " వారు ": 4028,
      "పట్ల": 4029,
      "మ్స్ ": 4030,
      "ం చేస": 4031,
      "నివాస": 4032,
      "చేయక": 4033,
      "చేయనున్నార": 4034,
      "మంచి": 4035,
      "బహిరంగ": 4036,
      "స్నే": 4037,
      " కృ": 4038,
      "కూర్చ": 4039,
      "అమిత్ ": 4040,
      "కనీసం ": 4041,
      "ఖాళ": 4042,
      "గెలిప": 4043,
      "రాశి ": 4044,
      "ఆగస్టు ": 4045,
      "కుమ": 4046,
      "సాగుత": 4047,
      "రైతు ": 4048,
      " మార్ప": 4049,
      "అదుపులోకి ": 4050,
      " యూ": 4051,
      " వీడియో ": 4052,
      "ుక్ ": 4053,
      "ిస్తాయ": 4054,
      "జరగన": 4055,
      "ధీనం ": 4056,
      "చదువ": 4057,
      " నాల": 4058,
      "గొట్ట": 4059,
      "ہے": 4060,
      "కస్ట": 4061,
      "వైసీ": 4062,
      "శ్రీ ": 4063,
      "అమరావ": 4064,
      "రాణ": 4065,
      "ుకున్నాడ": 4066,
      "లేకపోయ": 4067,
      "ఇజ్రాయెల్ ": 4068,
      "ల్స": 4069,
      "వీల": 4070,
      " ఇద్ద": 4071,
      "మాన్ని ": 4072,
      "వరల్డ్ ": 4073,
      "గ్ లో ": 4074,
      "పున ": 4075,
      " భద్ర": 4076,
      "ట్స": 4077,
      "ఫర్ ": 4078,
      "భవిష్య": 4079,
      "ుల కోసం ": 4080,
      "కారు ": 4081,
      " ఇప్పుడు ": 4082,
      "శ్రయ": 4083,
      "పట్టణ": 4084,
      "దారులు ": 4085,
      "అడుగ": 4086,
      "ఈ సమయంలో ": 4087,
      "జామ": 4088,
      "మధ్యాహ్నం ": 4089,
      " పరీక్ష": 4090,
      "పెరగ": 4091,
      " పోస్ట": 4092,
      "ఇంటి ": 4093,
      "స్వాధీనం ": 4094,
      "థియ": 4095,
      " ప్రా": 4096,
      " س": 4097,
      "ఉత్స": 4098,
      "ేజ్ ": 4099,
      "సోద": 4100,
      "లేర": 4101,
      "గిరి ": 4102,
      "sh": 4103,
      "మూడో ": 4104,
      "డటంతో ": 4105,
      " సై": 4106,
      "చ్చితంగా ": 4107,
      " రై": 4108,
      "అధిక": 4109,
      "199": 4110,
      " ఛ": 4111,
      "నియా ": 4112,
      "గాహ": 4113,
      "సంపాద": 4114,
      "భూమ": 4115,
      "నిబంధ": 4116,
      "ైతే ": 4117,
      "ంగా ఉన్న": 4118,
      "జిల్లాల్లో ": 4119,
      "వ్యాఖ్యాన": 4120,
      "ాలు\n": 4121,
      " బో": 4122,
      "సరైన ": 4123,
      " క్రితం ": 4124,
      "చూడాల": 4125,
      "మహారాష్ట్ర": 4126,
      "್ರ": 4127,
      "ఏర్పాట్లు ": 4128,
      "ఇవి ": 4129,
      "ప్రమాణ": 4130,
      "సిటీ": 4131,
      "చెప్పాల": 4132,
      "మిగిల": 4133,
      "విధాన": 4134,
      "అట": 4135,
      " వాహ": 4136,
      " అమ్మ": 4137,
      "అంతా ": 4138,
      " మొత్త": 4139,
      "ఈ కార్యక్రమ": 4140,
      " రూపాయల": 4141,
      "శ్రీనివాస": 4142,
      "రిట": 4143,
      "గ్రూప్ ": 4144,
      "డాద": 4145,
      "కేసు ": 4146,
      "ిణీ ": 4147,
      "రోగ": 4148,
      "గ్రే": 4149,
      "రోడ్డ": 4150,
      " క్ల": 4151,
      "ఆయన": 4152,
      "నాభ": 4153,
      "సమావేశం ": 4154,
      "!!\n": 4155,
      "జీల": 4156,
      "మీడియా ": 4157,
      "ుతున్నారని ": 4158,
      " భాగ": 4159,
      "కేసులు ": 4160,
      "లియన్ ": 4161,
      "చవచ్చ": 4162,
      "వరి": 4163,
      "నిపుణ": 4164,
      "ఈ మ్యా": 4165,
      "చేపట్టిన ": 4166,
      "వేదికగా ": 4167,
      " మూడు ": 4168,
      "90": 4169,
      "ఖాయ": 4170,
      "ష్ప": 4171,
      "ే అవకాశ": 4172,
      "ఇంటర్": 4173,
      " విషయం ": 4174,
      "నవంబర్ ": 4175,
      "ీర్ ": 4176,
      "స్తులు ": 4177,
      "కృషి ": 4178,
      "త్వరలో ": 4179,
      "a ": 4180,
      "గా ఉంట": 4181,
      "పరిగణ": 4182,
      "ఫోట": 4183,
      "చి ర": 4184,
      "సేకర": 4185,
      " వికె": 4186,
      " ప్రారంభ": 4187,
      " రైల": 4188,
      " ఉత్త": 4189,
      "సాధారణ": 4190,
      "షెడ్యూ": 4191,
      " మోదీ ": 4192,
      "అదన": 4193,
      " నె": 4194,
      "టీటీ": 4195,
      "స్టేట్ ": 4196,
      "రకాల": 4197,
      "వేడుక": 4198,
      "తి తెలిస": 4199,
      "ధాని ": 4200,
      "రియా ": 4201,
      " సినిమ": 4202,
      "గంటల": 4203,
      "వ్యవహర": 4204,
      "ఫ్ట్ ": 4205,
      "ట్యా": 4206,
      "తకు ": 4207,
      "సినిమా": 4208,
      "మీడియా": 4209,
      "ఎస్పీ ": 4210,
      "మృతి చ": 4211,
      "నిలిచ": 4212,
      "ట్వీట్ ": 4213,
      "డ్య": 4214,
      "భావిస్తున్నార": 4215,
      "చాలామంది ": 4216,
      "నలు": 4217,
      "పులు ": 4218,
      "విచార": 4219,
      "ాయన": 4220,
      "గుజరా": 4221,
      "సంక్షేమ": 4222,
      "ತ್ತ": 4223,
      "చంప": 4224,
      " సేవ": 4225,
      "ఇబ్బంది ": 4226,
      "దానికి ": 4227,
      "లిక్": 4228,
      " నాగ": 4229,
      "ాలు కూడా ": 4230,
      "క్ట్ర": 4231,
      "జిల్లాలోని ": 4232,
      "ఢిల్లీలో ": 4233,
      "ఒత్తి": 4234,
      "ోగ్య": 4235,
      " సమయం ": 4236,
      "డికల్ ": 4237,
      "చరిత్ర": 4238,
      "ేనే ": 4239,
      "ోర": 4240,
      "లో జరిగిన ": 4241,
      "స్థాప": 4242,
      "రేగ": 4243,
      "రిజర్వ": 4244,
      "ఆహ్వ": 4245,
      "ఇప్పటివరకు ": 4246,
      "ికా ": 4247,
      "డర్లు ": 4248,
      "ట్లకు ": 4249,
      "జామా": 4250,
      " కేసీ": 4251,
      "పదవ": 4252,
      "బద్ధ": 4253,
      "ఆర్టీసీ ": 4254,
      "నాద": 4255,
      "స‌": 4256,
      "ర్\n": 4257,
      "ద్ర ప్రభుత్వం ": 4258,
      "సభలో ": 4259,
      "ే అవకాశం ఉంద": 4260,
      "మ్ర": 4261,
      "సా ": 4262,
      "‌కు ": 4263,
      "స్క్ర": 4264,
      "లోక్ సభ": 4265,
      "మొదలు": 4266,
      "అతి": 4267,
      "మద్యం ": 4268,
      "తీసుకుని ": 4269,
      " కాలంలో ": 4270,
      "పవన్ కళ్యాణ్ ": 4271,
      "తల్లిదండ్ర": 4272,
      "ానా ": 4273,
      "ఉండగ": 4274,
      "కాలంలో ": 4275,
      "ం..": 4276,
      "బరి": 4277,
      " నిమిష": 4278,
      "కొత్తగా ": 4279,
      "ఆలయ": 4280,
      "సత్య": 4281,
      "వారిలో ": 4282,
      "కాలం ": 4283,
      "భావిస్త": 4284,
      "రోజులుగా ": 4285,
      "ఎవరు ": 4286,
      "భుత్వాన్ని ": 4287,
      "తూ": 4288,
      "తండ్రి ": 4289,
      "రష్య": 4290,
      "ಾಗ": 4291,
      "అందుకు ": 4292,
      "హారం ": 4293,
      "కన్": 4294,
      "నడ": 4295,
      "చేరుక": 4296,
      " విషయ": 4297,
      " میں ": 4298,
      "ఆ ": 4299,
      "గ్ల": 4300,
      "సన్ ": 4301,
      "వరం ": 4302,
      "మేరకు ": 4303,
      "త్వరలోనే ": 4304,
      "ృత": 4305,
      " వాత": 4306,
      " ప్రాజెక్ట": 4307,
      "ామని చెప్పార": 4308,
      "ఆస్పత్ర": 4309,
      "దైన ": 4310,
      " పర్య": 4311,
      "కార్డ": 4312,
      "ది\n": 4313,
      " వైసీపీ ": 4314,
      "ను కూడా ": 4315,
      " వారికి ": 4316,
      "వివాహ": 4317,
      "కూల": 4318,
      "మెద": 4319,
      "రెడ్డి\n": 4320,
      "పాల్పడ": 4321,
      "వాస్త": 4322,
      "ుకోవడానికి ": 4323,
      "కేసు నమోదు ": 4324,
      "జూరు ": 4325,
      "ధిలోని ": 4326,
      "ృహ": 4327,
      "రోహిత్ ": 4328,
      "బ్రవరి ": 4329,
      "చేస్తున్నట్లు ": 4330,
      "తెలుసుక": 4331,
      "కో ": 4332,
      "లే ": 4333,
      " నో": 4334,
      "ఆయా ": 4335,
      "తమంది ": 4336,
      "ష్ణోగ్ర": 4337,
      "కట్ ": 4338,
      "పై అ": 4339,
      " ప్రయత్న": 4340,
      "ున్నాయని ": 4341,
      "శ్వాస": 4342,
      "ఫ్యాన్స్ ": 4343,
      "ఏదైనా ": 4344,
      "కాయ": 4345,
      " సమీ": 4346,
      "సమయం ": 4347,
      "రేప": 4348,
      " వ్యాపార": 4349,
      "ప్రయత్నం ": 4350,
      "సందర్శ": 4351,
      "ఆప": 4352,
      "దాన్ని ": 4353,
      "సుర": 4354,
      "పోలీసు ": 4355,
      "ఐటీ ": 4356,
      "డిలో ": 4357,
      "ఒక్కో ": 4358,
      "నామిన": 4359,
      "ద‌": 4360,
      "ీట": 4361,
      "రావడంతో ": 4362,
      "కారణం ": 4363,
      " నిర్ణయ": 4364,
      "గ్స": 4365,
      "ికార్డ": 4366,
      "తీసుకువ": 4367,
      "హెచ": 4368,
      "అద్భుత": 4369,
      "పేర": 4370,
      "పాలన ": 4371,
      "చౌ": 4372,
      "తుక": 4373,
      "ధన": 4374,
      "్'": 4375,
      "ాలుగా ": 4376,
      " సంగ": 4377,
      "త్రి": 4378,
      "నేరుగా ": 4379,
      " పోష": 4380,
      "సామ": 4381,
      "ವಿ": 4382,
      "కావడం ": 4383,
      " శి": 4384,
      "ఎన్టీఆర్ ": 4385,
      "ప్రదర్శ": 4386,
      "బీజేపీ": 4387,
      "దొర": 4388,
      "లోకేష్ ": 4389,
      "మార్కెట్ ": 4390,
      "ఏర్పాటు చేసిన ": 4391,
      "అందరూ": 4392,
      "సెక్ర": 4393,
      " వార్త": 4394,
      "బాధ్యత": 4395,
      " پ": 4396,
      "అల్ల": 4397,
      "ఎక్స్ ": 4398,
      "తనిఖ": 4399,
      "దం ": 4400,
      "ప్రభ": 4401,
      " ప్రస్త": 4402,
      "తెరకెక్క": 4403,
      "జట్టు ": 4404,
      "కేజ్రీ": 4405,
      "یو": 4406,
      "టర్లు ": 4407,
      "లో భాగంగా ": 4408,
      " మార్గ": 4409,
      "క్షేత్ర": 4410,
      "ା ": 4411,
      "ఎన్ ": 4412,
      "ఖాన్ ": 4413,
      "గూ": 4414,
      "ినంద": 4415,
      "కాన్ని ": 4416,
      "ువ్వ": 4417,
      "రైలు ": 4418,
      "స్కర": 4419,
      "టెక్నాల": 4420,
      "వసూ": 4421,
      "ుత్త": 4422,
      "రిజి": 4423,
      "కాదని ": 4424,
      " ಸ": 4425,
      "ఖండ": 4426,
      "పుని": 4427,
      "గతా ": 4428,
      " బాధ": 4429,
      "ఆధ్వర్యంలో ": 4430,
      "పియ": 4431,
      "మన్ ": 4432,
      "ాబాద": 4433,
      " తప్ప": 4434,
      "కాగా ": 4435,
      " రూపాయలు ": 4436,
      "ఏక": 4437,
      "షన్లు ": 4438,
      "అయో": 4439,
      "భూమి ": 4440,
      "నిమి": 4441,
      "విరా": 4442,
      "దని చెప్పార": 4443,
      "సామాజిక": 4444,
      "దేహ": 4445,
      "బంగారం ": 4446,
      "జున్ ": 4447,
      "75": 4448,
      "సముద్ర": 4449,
      "ర్డ్ ": 4450,
      "ల్లా ": 4451,
      " ఆందోళ": 4452,
      "టిక్": 4453,
      "మూల": 4454,
      "తోనే ": 4455,
      "వాయిదా ": 4456,
      "రిస": 4457,
      "జన్మ": 4458,
      "నిఫె": 4459,
      " రే": 4460,
      "ర్లతో ": 4461,
      "దారి ": 4462,
      "అప్రమత్త": 4463,
      "జేశార": 4464,
      "హద్ద": 4465,
      "అవి ": 4466,
      "హాస్పిట": 4467,
      "చిక్క": 4468,
      "ేవార": 4469,
      "కాలను ": 4470,
      " అధ్యక్షుడు ": 4471,
      "తెలుగుదేశం ": 4472,
      "న్నా ": 4473,
      "విభ": 4474,
      " వ్యవహ": 4475,
      "అరెస్ట": 4476,
      "ా:": 4477,
      "ౌన్ ": 4478,
      "ప్రభా": 4479,
      "సీఎం జగన్ ": 4480,
      "ళ్త": 4481,
      "ిపేట": 4482,
      "ప్రసంగ": 4483,
      "క్షలు ": 4484,
      "ఏర్పాటు చేశార": 4485,
      "నిస్తున్నార": 4486,
      "మంత్రిగా ": 4487,
      "ఈ ఘటన ": 4488,
      "జనవరి ": 4489,
      "మంజూరు ": 4490,
      "రుపతి ": 4491,
      " సంఘం ": 4492,
      "త‌": 4493,
      "ర్ట్ ": 4494,
      "ర్మన": 4495,
      "రైతుల": 4496,
      "ఎస్సీ ": 4497,
      " ఓవర్": 4498,
      "‌‌‌‌‌‌‌‌‌‌‌‌‌‌‌‌‌‌‌‌‌‌‌‌‌‌‌‌‌‌‌‌‌‌‌‌‌‌‌‌‌‌‌‌‌‌‌‌‌‌‌‌‌‌‌‌‌‌‌‌‌‌‌‌‌‌‌‌‌‌‌‌‌‌‌‌‌‌‌‌‌‌‌‌‌‌‌‌‌‌‌‌‌‌‌‌‌‌‌‌‌‌‌‌‌‌‌‌‌‌‌‌‌‌‌‌‌‌‌‌‌‌‌‌‌‌‌‌‌‌‌‌‌‌‌‌‌‌‌‌‌‌‌‌‌‌‌‌‌‌‌‌‌‌‌‌‌‌‌‌‌‌‌‌‌‌‌‌‌‌‌‌‌‌‌‌‌‌‌‌‌‌‌‌‌‌‌‌‌‌‌‌‌‌‌‌‌‌‌‌‌‌‌‌‌‌‌‌‌‌‌‌‌‌‌‌‌‌‌‌‌‌‌‌‌‌‌‌‌‌‌‌‌‌‌‌‌‌‌‌‌‌‌‌‌‌‌‌‌‌‌‌‌‌‌‌‌‌‌‌‌‌‌‌‌‌‌‌‌‌‌‌‌‌‌‌‌‌‌‌‌‌‌‌‌‌‌‌‌‌‌‌‌‌‌‌‌‌‌‌‌‌‌‌‌‌‌‌‌‌‌‌‌‌‌‌‌‌‌‌‌‌‌‌‌‌‌‌‌‌‌‌‌‌‌‌‌‌‌‌‌‌‌‌‌‌‌‌‌‌‌‌‌‌‌‌‌‌‌‌‌‌‌‌‌‌‌‌‌‌‌‌‌‌‌‌‌‌‌‌‌‌‌‌‌‌‌‌‌‌‌‌‌‌‌‌‌‌‌‌‌‌‌‌‌‌‌‌‌‌‌‌‌‌‌‌‌‌‌‌‌‌‌‌‌‌‌‌‌‌‌‌‌‌‌‌‌‌‌‌‌‌‌‌‌‌‌‌‌‌‌‌‌‌‌‌‌‌‌‌‌‌‌‌‌‌‌‌‌‌‌‌‌‌‌‌‌‌‌‌‌‌‌‌‌‌‌‌‌‌‌‌‌‌‌‌‌‌‌‌‌‌‌‌‌‌‌‌‌‌‌‌": 4499,
      "ఆన": 4500,
      "వెలుగ": 4501,
      "ేజ": 4502,
      " కీలక": 4503,
      "ద్రంలో ": 4504,
      " లేక": 4505,
      "ال": 4506,
      "ం\"": 4507,
      "ఆకట్ట": 4508,
      "ర్బ": 4509,
      " ప్రకార": 4510,
      " స్వీ": 4511,
      "రెడ్డికి ": 4512,
      "మరి": 4513,
      "రావడం ": 4514,
      "లుదే": 4515,
      "చడంలో ": 4516,
      "బంగ్ల": 4517,
      " దు": 4518,
      " నిర్మాణ": 4519,
      "s ": 4520,
      "అప్పుడు ": 4521,
      "కౌన్సి": 4522,
      "ఎయిర్ ": 4523,
      "ఠా": 4524,
      "ప్రీ": 4525,
      "చేయడంతో ": 4526,
      " పార్టీల": 4527,
      "కూడద": 4528,
      "మ్య": 4529,
      "మాస్ ": 4530,
      "ణాళ": 4531,
      "మాస": 4532,
      "డుగు": 4533,
      "ఎవరూ": 4534,
      "ే అవకాశం ఉందని ": 4535,
      "చైనా ": 4536,
      "లబ్": 4537,
      "ర్క": 4538,
      "స్మ": 4539,
      "ప్రకార": 4540,
      "ినట్టు ": 4541,
      "శాతం ": 4542,
      "వాహన": 4543,
      "గ్న": 4544,
      "మయ్యార": 4545,
      "్‎": 4546,
      " అంటూ": 4547,
      "సును ": 4548,
      "సీఎం కేసీఆర్ ": 4549,
      "త్వంలో ": 4550,
      " పరిస్థితి ": 4551,
      "షేధ": 4552,
      "್ದ": 4553,
      "శంకర్ ": 4554,
      "గాహన ": 4555,
      " చేశార": 4556,
      "ఆగ్రహం ": 4557,
      "చంద": 4558,
      "జు ": 4559,
      "బం ": 4560,
      "ౌన": 4561,
      "ర్ఘ": 4562,
      "్త్ ": 4563,
      "పైకి ": 4564,
      "టిజ": 4565,
      " నియ": 4566,
      "వ్యక్తం చేస్తున్నార": 4567,
      "నిర్మాణం ": 4568,
      "ప్రెసిడ": 4569,
      "చుకోవాల": 4570,
      " సాయ": 4571,
      "కాన్": 4572,
      "ఉందన": 4573,
      "ుకునే": 4574,
      "పోతున్నార": 4575,
      "అయ్యాయ": 4576,
      "ం)": 4577,
      "పీసీసీ ": 4578,
      "భో": 4579,
      "పోష": 4580,
      "ష్ఠ": 4581,
      "ఆమె ": 4582,
      "న్యూస్ ": 4583,
      " ప్రజల": 4584,
      " ప్రమాద": 4585,
      "తిగత": 4586,
      "రేపు ": 4587,
      " సంఖ్యలో ": 4588,
      "అని": 4589,
      "రంలో ": 4590,
      "ం కు": 4591,
      " విమాన": 4592,
      "ప్రజా ": 4593,
      "మేము ": 4594,
      "హెచ్": 4595,
      "సెలవ": 4596,
      " జీవిత": 4597,
      "చనిపోయ": 4598,
      "చర్ల": 4599,
      "జిల": 4600,
      "టల్ ": 4601,
      "ీల్లో ": 4602,
      "క్కి ": 4603,
      "రాష్ట్రాల్లో ": 4604,
      "చిరం": 4605,
      "రామయ్య": 4606,
      "నిర్ణయం తీసుక": 4607,
      "హర": 4608,
      " ప్రపంచ": 4609,
      "బీజేపీకి ": 4610,
      "కెమె": 4611,
      "కిషన్ ": 4612,
      "ు-": 4613,
      "రిత": 4614,
      "డేళ్ల": 4615,
      "ఉత్తర్వ": 4616,
      "టార్గెట్ ": 4617,
      "ంతర": 4618,
      "క్రికె": 4619,
      "ప్రభుత్వానికి ": 4620,
      "వాదం ": 4621,
      "గవర్నర్ ": 4622,
      "శేఖర్ ": 4623,
      "ఆస్ట్రేలియ": 4624,
      "చుకుని ": 4625,
      "ా...\n": 4626,
      "ప్రి": 4627,
      "ప్రెస్ ": 4628,
      " పైన ": 4629,
      "్⁭": 4630,
      "రుద్ధ": 4631,
      " ఉప": 4632,
      "చని ": 4633,
      "షన్ల": 4634,
      "సరఫ": 4635,
      "ఆమెను ": 4636,
      "చర్యలు తీసుక": 4637,
      "ఇప్పటి వరకు ": 4638,
      " చేస": 4639,
      " యా": 4640,
      "am": 4641,
      "చినా ": 4642,
      "ధాన్యం ": 4643,
      " బాధ్య": 4644,
      "పరిష్కర": 4645,
      "ఎందుకంటే ": 4646,
      "33": 4647,
      " ఇప్ప": 4648,
      "దేశవ్యాప్తంగా ": 4649,
      "ఎన్డీ": 4650,
      "ఐపీఎల్ ": 4651,
      "విలువ": 4652,
      " అమెరిక": 4653,
      "కూతు": 4654,
      "ఇచ్చి ": 4655,
      "షూట": 4656,
      "ావర": 4657,
      "రోడ్ల": 4658,
      "ువులు ": 4659,
      "చేశారు ": 4660,
      "కిల్ ": 4661,
      "టైటి": 4662,
      "ఫస్ట్ ": 4663,
      "మర్": 4664,
      "ో..": 4665,
      "్రీ ": 4666,
      "స్టూడ": 4667,
      "ఆర్ఎస": 4668,
      "కలిపి ": 4669,
      "వివరాలు ": 4670,
      "డియన్స్ ": 4671,
      "విజయ్ ": 4672,
      "ప్రాధాన్య": 4673,
      "చెల": 4674,
      "కోట్ల": 4675,
      "హైడ్ర": 4676,
      "కాదు ": 4677,
      "భాష": 4678,
      "అధికారులు తెలిపార": 4679,
      " పేరుతో ": 4680,
      "సోషల్ మీడియా ": 4681,
      " సంవత్సరాల": 4682,
      "షియల్ ": 4683,
      ": ": 4684,
      "మేనే": 4685,
      "దాఖలు ": 4686,
      "పే ": 4687,
      "ం కోసం ": 4688,
      " తగ్గ": 4689,
      "మహిళల": 4690,
      "క్సెస్ ": 4691,
      "పట్న": 4692,
      "ఈ బ": 4693,
      "స్టార": 4694,
      "కూల్": 4695,
      "ేషన్ల": 4696,
      "జాబ్ ": 4697,
      "ఫొటో": 4698,
      "విశేష": 4699,
      "యిన ": 4700,
      "విప": 4701,
      "క్షన": 4702,
      "మిట": 4703,
      "అందరికీ ": 4704,
      "ణాళిక": 4705,
      "నల్ల": 4706,
      "ౌక": 4707,
      " పని": 4708,
      "రుడు ": 4709,
      "వర్క": 4710,
      "విద్యుత్ ": 4711,
      "ప్రత్యేకంగా ": 4712,
      " పార్లమ": 4713,
      ", స": 4714,
      "శ్రీల": 4715,
      "బిడ్డ": 4716,
      "బయలుదే": 4717,
      "వంతంగా ": 4718,
      "ور": 4719,
      "గే": 4720,
      "ఫున ": 4721,
      "నిరుద్యోగ": 4722,
      " ఫల": 4723,
      "ఆరోపణ": 4724,
      "మొదట": 4725,
      "ରେ ": 4726,
      "మాకు ": 4727,
      "కాళ": 4728,
      "మోసం ": 4729,
      "సమయ": 4730,
      "రెడ్డిని ": 4731,
      "షో": 4732,
      "ులు చెబుతున్నార": 4733,
      "వెళ్లార": 4734,
      "చేరార": 4735,
      "దారు": 4736,
      "నెలక": 4737,
      "హెచ్ ": 4738,
      "నియోజకవర్గంలో ": 4739,
      "ఆ పార్టీ ": 4740,
      "వెస్ట": 4741,
      "నీళ్లు ": 4742,
      "ఇండస్ట్ర": 4743,
      "శగా ": 4744,
      "ే...\n": 4745,
      "ారీ ": 4746,
      "డిపై": 4747,
      " ప్రభావం ": 4748,
      "మొక్క": 4749,
      "పవన్ కల్యాణ్ ": 4750,
      "బాధ్యతలు ": 4751,
      "సర్కార్ ": 4752,
      "e ": 4753,
      "ప్యా": 4754,
      "వీటిని ": 4755,
      "వైర": 4756,
      "ప్రతినిధ": 4757,
      "అందుబాటులోకి ": 4758,
      " కిలోమీటర్ల": 4759,
      "ఫుల్ ": 4760,
      "స్కృ": 4761,
      "విభాగ": 4762,
      "వ్యవసాయ": 4763,
      "పార్టీలు ": 4764,
      "గౌరవ": 4765,
      "ొప్పున ": 4766,
      " సర్వ": 4767,
      "ిత్వ": 4768,
      "చేయగ": 4769,
      "టిక్ ": 4770,
      "కర్ష": 4771,
      "దిగార": 4772,
      "నాయుడు ": 4773,
      "వేగంగా ": 4774,
      "దరఖాస్తు ": 4775,
      ", ప": 4776,
      "ఏఐ": 4777,
      "దుప": 4778,
      " ఇది ": 4779,
      "అందిస్త": 4780,
      "వస్తున్నాయ": 4781,
      " రాహ": 4782,
      "తెలియజే": 4783,
      "పిల్లల": 4784,
      "ధర్మ": 4785,
      "ఫే": 4786,
      "షాక్ ": 4787,
      "రిటై": 4788,
      " మాట": 4789,
      "పోవడం ": 4790,
      " అభివృద్ధి ": 4791,
      "సమస్యలు ": 4792,
      "ఖమ్మం ": 4793,
      " గ్ర": 4794,
      " ధర": 4795,
      "టాప": 4796,
      "హనుమ": 4797,
      "వైఎస్": 4798,
      "కలుగ": 4799,
      " కార్యకర్త": 4800,
      "ముగి": 4801,
      "యాదవ్ ": 4802,
      "సర్వే ": 4803,
      "ట్యూ": 4804,
      "ముస్ల": 4805,
      "ఏర్పాట": 4806,
      " నేతలు ": 4807,
      "ిస్తున్నట్లు ": 4808,
      " డబ్బ": 4809,
      "ಿಸ": 4810,
      "వీస్ ": 4811,
      "డెన్ ": 4812,
      "తల్లి ": 4813,
      " పరిణామ": 4814,
      "సమావేశంలో ": 4815,
      "ఇండియన్ ": 4816,
      " నిర్": 4817,
      "జరుగుతున్నాయ": 4818,
      "షా": 4819,
      "వాటి ": 4820,
      "ఎదురు": 4821,
      " ఎంపీ ": 4822,
      " చేసిన ": 4823,
      "అంతేక": 4824,
      "శాస్త్ర": 4825,
      "బ్లీ ఎన్నికల్లో ": 4826,
      "ప్రయత్నాలు ": 4827,
      "ా\"": 4828,
      "లు నిర్వహ": 4829,
      "వస్తాయ": 4830,
      "అనుమతి ": 4831,
      "ఈ కేసులో ": 4832,
      "రఘ": 4833,
      "దేశంలోని ": 4834,
      "దారుల": 4835,
      "వేదన ": 4836,
      "గొప్ప": 4837,
      " ప్రస్తుత": 4838,
      "సీపీ": 4839,
      "కేరళ": 4840,
      "రాష్ట్ర ప్రభుత్వం ": 4841,
      "ప్రస్తావ": 4842,
      "తాజా ": 4843,
      "ఏకంగా ": 4844,
      "నేది ": 4845,
      "ోన": 4846,
      "ల్లోకి ": 4847,
      "్వర": 4848,
      "బీబీసీ": 4849,
      "చూస్తున్నార": 4850,
      "తీసుకొచ్చ": 4851,
      "విద్యార్థులు ": 4852,
      " రాశి ": 4853,
      "షాప": 4854,
      " జాబిత": 4855,
      "నక": 4856,
      "ప్రయోజన": 4857,
      " అప్ప": 4858,
      "క్రి": 4859,
      "దీప్ ": 4860,
      "ేశ్వర్ ": 4861,
      "కావాలని ": 4862,
      "వసర": 4863,
      "విగ్రహ": 4864,
      " కర్": 4865,
      "చాల్సిన ": 4866,
      "ప్రతిపాద": 4867,
      "ురాల": 4868,
      "್ಯ": 4869,
      "ఒకరు ": 4870,
      "ఘటనలో ": 4871,
      "ఆదేశాలు ": 4872,
      " తీర్": 4873,
      "గంగ": 4874,
      "ುವ": 4875,
      "స్తుల": 4876,
      "రోజున ": 4877,
      "చాట": 4878,
      "ಿಕ": 4879,
      " ప్రచారం ": 4880,
      "కోట": 4881,
      "కాలేద": 4882,
      "క్తికర": 4883,
      "పొత్త": 4884,
      "బోర్డు ": 4885,
      "డల": 4886,
      "వీరి": 4887,
      "ఈ సినిమా": 4888,
      "ఆన్ ": 4889,
      "పాన్ ": 4890,
      "మోస": 4891,
      "నిర్వహణ": 4892,
      " వేళ": 4893,
      "అర": 4894,
      "ాల మధ్య": 4895,
      " పంప": 4896,
      "ికి తరల": 4897,
      "వేసిన ": 4898,
      "తదితరులు ": 4899,
      "కరో": 4900,
      "టామని ": 4901,
      "ీణ": 4902,
      "ూం": 4903,
      "విజ్ఞ": 4904,
      "శ్రే": 4905,
      "ఆహ్వాన": 4906,
      "గర్ ": 4907,
      "డ్ప": 4908,
      "వచ్చని ": 4909,
      "గ్యార": 4910,
      "ఎదుర": 4911,
      " జిల్లాలో ": 4912,
      "ఎటువంటి ": 4913,
      "నో ": 4914,
      "కమిషన్ ": 4915,
      " సాధ": 4916,
      " \"\"": 4917,
      "ఏడు ": 4918,
      "కులకు ": 4919,
      "చక్క": 4920,
      "ిస్తూ ": 4921,
      "ఎన్నికల ": 4922,
      "ట్విట్ట": 4923,
      ", న": 4924,
      "వంశ": 4925,
      "అయోధ్య": 4926,
      "ఆశ్రయ": 4927,
      "షాక": 4928,
      "ఈ సమా": 4929,
      " ప్రజలకు ": 4930,
      "ాద్రి ": 4931,
      "ద్ర మోదీ ": 4932,
      "ఒకవేళ": 4933,
      "నీర": 4934,
      "పదవి ": 4935,
      "అవసరమైన ": 4936,
      " బ్యాట": 4937,
      "పిలుపుని": 4938,
      "హామీ ఇచ్చార": 4939,
      "చయిత": 4940,
      "చెప్పుకొచ్చార": 4941,
      "పరుగ": 4942,
      "యంగా ": 4943,
      "్రో": 4944,
      "రాన్ని ": 4945,
      "స్టేషన": 4946,
      " జరుగుత": 4947,
      "ాకాల": 4948,
      "వరుసగా ": 4949,
      "ాస్ట": 4950,
      "ప్రయోగ": 4951,
      " కనిప": 4952,
      "పరమైన ": 4953,
      "స్థానికులు ": 4954,
      "రుణమా": 4955,
      "రానున్న": 4956,
      "రావాలని ": 4957,
      "అర్థం ": 4958,
      "గతి ": 4959,
      "ీమ": 4960,
      " పండ": 4961,
      "తెలుగ": 4962,
      " ఆద": 4963,
      "చేస్తున్నాయ": 4964,
      "ఒకటి ": 4965,
      "మార్పులు ": 4966,
      "టీటీడీ ": 4967,
      "ର ": 4968,
      "రహ": 4969,
      "డ్స": 4970,
      " డై": 4971,
      "యాదవ": 4972,
      "చోటు": 4973,
      " क": 4974,
      "స్కో": 4975,
      "జాత": 4976,
      "దర్శక": 4977,
      "జ‌": 4978,
      "జాబిత": 4979,
      "పండుగ": 4980,
      "ఏడాది ": 4981,
      "ఇప్పటికీ ": 4982,
      "వెళ్లిన ": 4983,
      "మహిళలు ": 4984,
      " వరకూ": 4985,
      " ప్రధాని ": 4986,
      "నోటీసులు ": 4987,
      "గరే": 4988,
      "లైన": 4989,
      "ప్రభావం ": 4990,
      "టివ్ ": 4991,
      "ప్రజలను ": 4992,
      " రామ": 4993,
      "సోషల్ మీడియాలో వైరల్ ": 4994,
      "బండి సంజయ్ ": 4995,
      "అంతేకాద": 4996,
      "ఖాన": 4997,
      "వన్": 4998,
      "ై,": 4999,
      " హత్య": 5000,
      "ుబడి ": 5001,
      " పాఠ": 5002,
      "ఆసక్తి ": 5003,
      "ాల్లోని ": 5004,
      " స్థాయిలో ": 5005,
      "ఎన్ని ": 5006,
      "సైనిక": 5007,
      "‌ని ": 5008,
      "గురి ": 5009,
      "మీకు ": 5010,
      "ట్రంప": 5011,
      "బ్లిక్ ": 5012,
      " కేసులు ": 5013,
      "ల్లు అర్": 5014,
      "బు ": 5015,
      "రో ": 5016,
      " ముగ": 5017,
      "చి క": 5018,
      "జరిగాయ": 5019,
      "ార్ట్ ": 5020,
      "బైల్ ": 5021,
      "36": 5022,
      "మన్నార": 5023,
      "ి-": 5024,
      "నిలు": 5025,
      "కావ": 5026,
      " విధాన": 5027,
      "మెజ": 5028,
      "అత్యధిక": 5029,
      "ఫెస": 5030,
      "ేల": 5031,
      "ైన్ ": 5032,
      " గౌ": 5033,
      "గ్రామంలో ": 5034,
      "ఫలితాలు ": 5035,
      "వే ": 5036,
      "స్క్ ": 5037,
      "వార్డ": 5038,
      " లక్షలు ": 5039,
      "జ్యో": 5040,
      " ప్రశ్న": 5041,
      "కప్ప": 5042,
      "దగ్గ": 5043,
      "రవే": 5044,
      "శ్మ": 5045,
      "ీతో ": 5046,
      " సార": 5047,
      " ఎత్తున ": 5048,
      "48": 5049,
      "ام": 5050,
      "ాలంటే ": 5051,
      "ానికి సంబంధ": 5052,
      " రద్ద": 5053,
      "కుక్క": 5054,
      "ఈ రోజు ": 5055,
      "ఈ సినిమ": 5056,
      "బోతున్నార": 5057,
      "స్పెషల్ ": 5058,
      "కెప్టెన్ ": 5059,
      "దళిత": 5060,
      "వరంగల్ ": 5061,
      "- ": 5062,
      "గట్ట": 5063,
      "ఫుడ్ ": 5064,
      "ೆಯ": 5065,
      " ప్రయోజన": 5066,
      " ఇబ్బంద": 5067,
      "టికల్ ": 5068,
      "నాని ": 5069,
      " కలెక్ట": 5070,
      "వాతావరణ శాఖ": 5071,
      "నర్": 5072,
      "సినీ ": 5073,
      "్ లో ": 5074,
      "చేసుకుని ": 5075,
      "స్టా": 5076,
      " వ్యక్త": 5077,
      "భేటీ ": 5078,
      "గాజ": 5079,
      "టాడ": 5080,
      "తాలు ": 5081,
      " అన్న": 5082,
      "డేట": 5083,
      "సాధారణంగా ": 5084,
      "300": 5085,
      "చబడ": 5086,
      "పడిపోయ": 5087,
      "పూర్వ": 5088,
      "ెన్స్ ": 5089,
      "్గా ": 5090,
      "క్వ": 5091,
      " బంత": 5092,
      "సిబ్బంద": 5093,
      "య్యి ": 5094,
      "జనరల్ ": 5095,
      "డేట్ ": 5096,
      "రోజుల పాటు ": 5097,
      "అభ్యర్థులు ": 5098,
      "వ్యవహార": 5099,
      "ురాలు ": 5100,
      " ఇవ్వ": 5101,
      "అధికారులను ": 5102,
      " వైద్య": 5103,
      "చుకోవడం ": 5104,
      "పాకిస్తాన్ ": 5105,
      "55": 5106,
      "el": 5107,
      "పోవడ": 5108,
      "ట్రల్ ": 5109,
      "సార్ ": 5110,
      "కోరుక": 5111,
      " ఉండ": 5112,
      "ୁ ": 5113,
      "ఈ చిత్ర": 5114,
      "నివార": 5115,
      " అని ఆయన ": 5116,
      "మార్క": 5117,
      "దావరి ": 5118,
      "డ్రగ్స్ ": 5119,
      " కృష్ణ": 5120,
      "బెల్ల": 5121,
      "శ్య": 5122,
      "ప్రోత్స": 5123,
      "చూసిన ": 5124,
      " లక్ష్మ": 5125,
      "ఉన్నాయని ": 5126,
      "ప్రారంభం ": 5127,
      " సంవత్సరం ": 5128,
      "వాస్తవ": 5129,
      "డానే ": 5130,
      "ధర్ ": 5131,
      "ులలో ": 5132,
      " నట": 5133,
      "రోజుకు ": 5134,
      "పును ": 5135,
      "బెదిర": 5136,
      "వందల": 5137,
      " లెక్క": 5138,
      "at": 5139,
      "అప": 5140,
      "రుణ్ ": 5141,
      "మిగతా ": 5142,
      "్సి ఉంద": 5143,
      "బయటపడ": 5144,
      "సిద్ధం ": 5145,
      "మిగిలిన ": 5146,
      "ری": 5147,
      "అతి ": 5148,
      "బడ్జెట్ ": 5149,
      "ంటున్నార": 5150,
      "చేసుకోవాల": 5151,
      "టీడీప": 5152,
      "అప్పటి ": 5153,
      "ంస": 5154,
      "పం ": 5155,
      "పర్స": 5156,
      "్),": 5157,
      "రినీ ": 5158,
      " ఎన్": 5159,
      " రాయ": 5160,
      "రాష్ట్రంలోని ": 5161,
      "బ్రి": 5162,
      " జగన్ ": 5163,
      "అంగీకర": 5164,
      "లిక్కర్ ": 5165,
      "అగ్": 5166,
      "జీవి ": 5167,
      "ఒక్కసారిగా ": 5168,
      " మ్యాచ": 5169,
      " కేసీఆర్ ": 5170,
      "ఉల్ల": 5171,
      "బల్ ": 5172,
      "సమ్మ": 5173,
      "చూస్తున్న": 5174,
      "గిపోయ": 5175,
      "పిల్లలు ": 5176,
      " మ్యాచ్ ": 5177,
      "స్వీకర": 5178,
      "ఒప్పంద": 5179,
      " చెప్ప": 5180,
      "en": 5181,
      "ులైన ": 5182,
      "గా ఉంద": 5183,
      " కళ": 5184,
      " సందర్భంగా ": 5185,
      "మెరుగు": 5186,
      "సోసియ": 5187,
      "ఒంట": 5188,
      "ుట": 5189,
      " వచ్చ": 5190,
      "పక్కన ": 5191,
      " చాలా ": 5192,
      " లేదా ": 5193,
      " కర": 5194,
      "చేయలేద": 5195,
      " దగ్గర": 5196,
      " చూ": 5197,
      "దీర్ఘ": 5198,
      " సంద": 5199,
      "క్రె": 5200,
      "నెరవే": 5201,
      "మహబూ": 5202,
      "విని ": 5203,
      " ఆది": 5204,
      "తి\n": 5205,
      "వర్ణ": 5206,
      "ుతున్నట్లు ": 5207,
      "త క": 5208,
      " ప్రయాణ": 5209,
      "సీమ": 5210,
      "ాకర": 5211,
      " کر": 5212,
      "సేన": 5213,
      "అదే సమయంలో ": 5214,
      "స్నేహిత": 5215,
      "రక్త": 5216,
      "ా-": 5217,
      "రాస": 5218,
      " వంటి ": 5219,
      "అనుకున్న": 5220,
      "గిరి": 5221,
      "చోటు చేసుక": 5222,
      "్లేష": 5223,
      "మున్సిపల్ ": 5224,
      "అధికారి ": 5225,
      " వేడుక": 5226,
      "అంతే": 5227,
      "స్వామి": 5228,
      "ావరణం ": 5229,
      "డూ": 5230,
      "ులే ": 5231,
      "చే అవకాశం ": 5232,
      "రిసి": 5233,
      "రిస్తున్నార": 5234,
      "అభినంద": 5235,
      "మాను ": 5236,
      "బ్లాక్ ": 5237,
      "చిత్త": 5238,
      "ఫార్మ": 5239,
      "అభిమానులు ": 5240,
      "జస్ట": 5241,
      "వృద్ధ": 5242,
      "ిరెడ్డి ": 5243,
      "ర్టు ": 5244,
      "సీబీ ": 5245,
      "దిగా ": 5246,
      "మరీ ": 5247,
      "సమాధానం ": 5248,
      "పనిచేస్త": 5249,
      "ేశ్వరం ": 5250,
      " ప్రకటన ": 5251,
      "ఓట్లు ": 5252,
      "డికి ": 5253,
      "పన్న": 5254,
      "ాపూర్ ": 5255,
      "స్తే ": 5256,
      "డియం ": 5257,
      " తాజ": 5258,
      "గుట్ట": 5259,
      "లిస్ట్ ": 5260,
      "ట్రో ": 5261,
      " పోరా": 5262,
      "రియల్ ": 5263,
      "ఫిబ్రవరి ": 5264,
      "ంతోపాటు ": 5265,
      "మీడియాతో ": 5266,
      "ంలోనూ": 5267,
      "ఆవి": 5268,
      "స్థిర": 5269,
      "గౌడ": 5270,
      "ఈ ప్రమాద": 5271,
      "నున్నట్లు ": 5272,
      "స్కూల్ ": 5273,
      ", జ": 5274,
      "భువ": 5275,
      "మౌ": 5276,
      "యన": 5277,
      "ళి ": 5278,
      "లో కూడా ": 5279,
      "ాకా ": 5280,
      "అక్కడే ": 5281,
      "ఆ సమయంలో ": 5282,
      "భగ": 5283,
      "ాల కోసం ": 5284,
      ", వ": 5285,
      "ఎర్ర": 5286,
      "ప్రతీ ": 5287,
      "మాన్య": 5288,
      "ఆమెకు ": 5289,
      "పిలి": 5290,
      "198": 5291,
      "గ్గు": 5292,
      " డిగ్ర": 5293,
      "ఫ్యాక్ట": 5294,
      "ఇది": 5295,
      "మవ": 5296,
      "ುದ": 5297,
      "మెరుగ": 5298,
      "ఎన్నికలకు ": 5299,
      "కూర": 5300,
      "ానికి చేర": 5301,
      "వేధ": 5302,
      "పురుష": 5303,
      "పరిధిలో ": 5304,
      " వేల ": 5305,
      "అర్ధ": 5306,
      "డబ్బు ": 5307,
      " మాత్రం ": 5308,
      "వివేక్ ": 5309,
      "ات": 5310,
      "ہو": 5311,
      "బస్సు ": 5312,
      "కి చ": 5313,
      "అధికారం ": 5314,
      "విమర్శలు ": 5315,
      "సాన": 5316,
      "ದ ": 5317,
      "ర్యం ": 5318,
      " సాగ": 5319,
      "రాష్ట్రాల": 5320,
      "డీకే ": 5321,
      "పాల్గొన": 5322,
      "విడుదల చేస": 5323,
      "విక్రయ": 5324,
      "ర్ధ": 5325,
      "సంఖ్య": 5326,
      "చాలన": 5327,
      "ఎవరైనా ": 5328,
      " పంచ": 5329,
      " ప్రైవే": 5330,
      "ఎంసీ ": 5331,
      "పెద్దగా ": 5332,
      "పొత్తు ": 5333,
      "‌ర‌": 5334,
      "పిటిషన్ ": 5335,
      "ఇర": 5336,
      "టమి": 5337,
      "నిరసన ": 5338,
      "ప్రసాద్ ": 5339,
      " బంగారం ": 5340,
      "ప్రేక్షకుల": 5341,
      "ఖర": 5342,
      "టిడిప": 5343,
      "ుడికి ": 5344,
      "బిజె": 5345,
      "ఘటనలు ": 5346,
      " సమస్యలు ": 5347,
      " లోక": 5348,
      "99": 5349,
      "చేర్చ": 5350,
      "విడ్ ": 5351,
      "ట్టుగా ": 5352,
      "రోధ": 5353,
      "ద్ర మో": 5354,
      "అధికారిక": 5355,
      "150": 5356,
      "లభిస్త": 5357,
      "34": 5358,
      "ఫ్యామ": 5359,
      "సాల": 5360,
      "ಕ್": 5361,
      " వేద": 5362,
      "కార్త": 5363,
      "ులో ఉన్న": 5364,
      " శివ": 5365,
      "గ్గు ": 5366,
      "పరిశో": 5367,
      " మేరకు ": 5368,
      "ా..?\n": 5369,
      "اس": 5370,
      "ఇస్తున్న": 5371,
      "ఎల్": 5372,
      "సరిక": 5373,
      "ీలోని ": 5374,
      "ರ್": 5375,
      "ికీ ": 5376,
      " పాట": 5377,
      "ుకోసం ": 5378,
      "అందుక": 5379,
      "కరమైన ": 5380,
      "నీలో ": 5381,
      "ామని తెలిపార": 5382,
      "ప్రాణాలు ": 5383,
      ", ఆ": 5384,
      "ఊర": 5385,
      "గె": 5386,
      "ి)": 5387,
      "ూరి ": 5388,
      "ಗಳ": 5389,
      "ుతూ ": 5390,
      "చిపోయ": 5391,
      "డును ": 5392,
      "కార్యదర్శి ": 5393,
      "మాజీ మంత్రి ": 5394,
      "తగిన ": 5395,
      "పశ్చిమ": 5396,
      "ొత్త": 5397,
      " సామ": 5398,
      "ట్లతో ": 5399,
      "రుచ": 5400,
      " తమిళ": 5401,
      " ఎవర": 5402,
      "అనార": 5403,
      "ాణ్య": 5404,
      "రేట": 5405,
      "విషయాన్ని ": 5406,
      " రాష్ట్రంలో ": 5407,
      "ంతోనే ": 5408,
      "ినేని ": 5409,
      "సర్వీస": 5410,
      "తేద": 5411,
      "నిపై": 5412,
      "క్తిని ": 5413,
      "వెళ్లిపోయ": 5414,
      "ప్రధాని నర": 5415,
      " జనసేన ": 5416,
      "ంతృ": 5417,
      " పని ": 5418,
      " జో": 5419,
      "పరిచ": 5420,
      " భా": 5421,
      "దేవర": 5422,
      "ాల్లోకి ": 5423,
      "ఎప్పుడు ": 5424,
      "ోనూ": 5425,
      "వాదన": 5426,
      "క్కుల": 5427,
      "గెలిచిన ": 5428,
      "ిక్స్ ": 5429,
      "నివస": 5430,
      "విష్ణ": 5431,
      "కుట్ర": 5432,
      "త్యం ": 5433,
      "మరొక": 5434,
      "ప్లేయ": 5435,
      " کا ": 5436,
      "ఇందుకు ": 5437,
      "ప్రతి ఒక్క": 5438,
      "ఆదాయం ": 5439,
      "సియా ": 5440,
      "పోలీస్ స్టేషన్ ": 5441,
      "కమిషనర్ ": 5442,
      " రైల్వే ": 5443,
      "గర్భ": 5444,
      "దండ": 5445,
      " అంచ": 5446,
      "చెప్పాడ": 5447,
      "వాలని ": 5448,
      "సమే ": 5449,
      "మనో": 5450,
      "నేతృ": 5451,
      " పెరిగ": 5452,
      "వార్తలు ": 5453,
      " ఆఫీస": 5454,
      "బినెట్ ": 5455,
      "ఈ మ్యాచ్ ": 5456,
      "ad": 5457,
      "ఈ వి": 5458,
      "చల్ ": 5459,
      "నాన": 5460,
      "సీఎ": 5461,
      "గుణంగా ": 5462,
      "మార్ట": 5463,
      "చేశాయ": 5464,
      "సోర్స": 5465,
      "నియంత్ర": 5466,
      " లక్షల ": 5467,
      "ానికే ": 5468,
      "సమాచారం అంద": 5469,
      "ొట్ట": 5470,
      "ంటీ": 5471,
      " ఆలో": 5472,
      "త్రిక": 5473,
      "అధికారులకు ": 5474,
      "ంబర": 5475,
      "సరిగా ": 5476,
      "అక్కడి న": 5477,
      " కోర్టు ": 5478,
      "బ్రహ్మ": 5479,
      "కలిగి ": 5480,
      "నలుగురు ": 5481,
      "ନ୍": 5482,
      "ఈవ": 5483,
      "షేక్ ": 5484,
      "ప్రో": 5485,
      "ిత్యాల": 5486,
      "చెక్ ": 5487,
      "రోజూ": 5488,
      "న్సిపాల": 5489,
      "బోతున్న": 5490,
      "టాప్ ": 5491,
      "ఉద్యమ": 5492,
      " జట్ట": 5493,
      " సంక్షేమ": 5494,
      "జారీ చేశార": 5495,
      "ఫెసర్ ": 5496,
      " ఉంట": 5497,
      "గ్మ": 5498,
      "చండ": 5499,
      "జియ": 5500,
      "బరు ": 5501,
      "ాన ": 5502,
      "ేళ్ల": 5503,
      "మెడికల్ ": 5504,
      "వర్మ": 5505,
      "ార్డ": 5506,
      "సంగతి తెలిస": 5507,
      "సభ్యులు ": 5508,
      "ఈ సమావేశ": 5509,
      "భిన్న": 5510,
      "ప్రభుత్వాన్ని ": 5511,
      "ీల్": 5512,
      "దని తెలిపార": 5513,
      " కార్యాల": 5514,
      "టోర్": 5515,
      "సంచలన ": 5516,
      "ఖాళీ ": 5517,
      "ఆడియన్స్ ": 5518,
      "ారాయణ": 5519,
      "తో పాట": 5520,
      "సీఎం రేవంత్ ": 5521,
      "పార్టీని ": 5522,
      " కేసు ": 5523,
      "దిగిన ": 5524,
      "బరిలోకి ": 5525,
      "భవన్ ": 5526,
      "‌ను ": 5527,
      "నిమాను ": 5528,
      "అందజే": 5529,
      "ఒకట": 5530,
      "గిల్ ": 5531,
      "క్యూరి": 5532,
      "పోరాడ": 5533,
      "కేజ్రీవాల్ ": 5534,
      "బంగ్లాద": 5535,
      "చైన": 5536,
      "లం ": 5537,
      "ాన్న": 5538,
      "ిక్త": 5539,
      "చేసినా ": 5540,
      "మార్చ": 5541,
      "ఆటగా": 5542,
      "ఎప్పుడూ": 5543,
      "ఎనిమి": 5544,
      "ఐదు": 5545,
      "ఢీ": 5546,
      "బహు": 5547,
      "చి పోటీ ": 5548,
      " ప్రతి ": 5549,
      "యాణం ": 5550,
      "ర్చ్ ": 5551,
      "బీజేప": 5552,
      "న్సర్ ": 5553,
      "జైలు ": 5554,
      "హాజరయ్యార": 5555,
      " విలువైన ": 5556,
      "32": 5557,
      "ధికంగా ": 5558,
      "ా\n": 5559,
      "చేతిలో ": 5560,
      " తల్ల": 5561,
      "ద్దె": 5562,
      "సిల": 5563,
      "దుర్": 5564,
      "ఉండటంతో ": 5565,
      " హీ": 5566,
      " ఏపీ ": 5567,
      " కార్మిక": 5568,
      "ఇవ్వాల": 5569,
      "వార్డు ": 5570,
      " తెలిప": 5571,
      "ri": 5572,
      "ఛార్": 5573,
      "సాయం ": 5574,
      "హోట": 5575,
      "యోగం ": 5576,
      "గుర్తు": 5577,
      " కొద్ద": 5578,
      "ఎమ్మెల్యేలు ": 5579,
      "హౌస్ ": 5580,
      "ఎంచ": 5581,
      "జరిప": 5582,
      "డబుల్ ": 5583,
      "ికల్ ": 5584,
      "మహిళలకు ": 5585,
      "పంపిణీ ": 5586,
      "దీనిని ": 5587,
      " రాహుల్ ": 5588,
      " P": 5589,
      " ..": 5590,
      "అటు ": 5591,
      "వాన": 5592,
      "ం ప": 5593,
      "గుడ్ ": 5594,
      "ాగ్ ": 5595,
      " పార్టీకి ": 5596,
      "సహకర": 5597,
      "పాల్గొన్న": 5598,
      "హైదరాబాద్ లో ": 5599,
      " మొద": 5600,
      "ఆవేదన ": 5601,
      "ఏదో ": 5602,
      "్.": 5603,
      "సీట్లు ": 5604,
      "చేస్తూ ": 5605,
      " విడు": 5606,
      "కేతిక": 5607,
      "ుడే ": 5608,
      "టిఫికేషన్ ": 5609,
      " రెడ్డి ": 5610,
      "చేరిన ": 5611,
      " దశ": 5612,
      "దారులకు ": 5613,
      " సీట్లు ": 5614,
      "ఉన్నారని ": 5615,
      "పనిచేస్తున్న": 5616,
      "ధ్వం": 5617,
      "ంపేట": 5618,
      "గఢ": 5619,
      "చం": 5620,
      "జమ": 5621,
      "రణ్ ": 5622,
      "వా ": 5623,
      " పాక": 5624,
      " జట్టు ": 5625,
      " ఎంప": 5626,
      "ష్కర": 5627,
      " సమయ": 5628,
      " ఒక్క": 5629,
      "ay": 5630,
      "ఆశ్": 5631,
      "యిల": 5632,
      "ಗೆ ": 5633,
      "నిని ": 5634,
      " మాన": 5635,
      " ఆస": 5636,
      "నేపథ్యంలో ": 5637,
      "సమాజ": 5638,
      "శ్రేణ": 5639,
      "గడి": 5640,
      "జరి": 5641,
      "పుష్ప": 5642,
      "వెళ్లే ": 5643,
      "ివి ": 5644,
      "ఫోన": 5645,
      "నమ": 5646,
      "తిప్ప": 5647,
      "వెన్యూ": 5648,
      "దని అన్నార": 5649,
      " భర్త": 5650,
      "నాయకుల": 5651,
      "చుర": 5652,
      "మార్పు ": 5653,
      "ఆధారంగా ": 5654,
      " ఇద్దరు ": 5655,
      " చేయ": 5656,
      "అహ్మ": 5657,
      "ిష్ట": 5658,
      "విద్యా": 5659,
      "ప్పటి న": 5660,
      "దుర్గ": 5661,
      "ద్రిక్త": 5662,
      " నేతల": 5663,
      "గ్యుల": 5664,
      "పాకి": 5665,
      " దృష్టి ": 5666,
      "దస్తు ": 5667,
      "పద్": 5668,
      "న్సీ": 5669,
      "ర్హ": 5670,
      " రేవ": 5671,
      "న్యాయమూ": 5672,
      "పాదయాత్ర": 5673,
      " కమిటీ ": 5674,
      "అమిత్ షా ": 5675,
      "డర్ల": 5676,
      "ప్య": 5677,
      "చ్ఛ": 5678,
      "తలెత్త": 5679,
      "రేవంత": 5680,
      "డాతో ": 5681,
      "టాలీవుడ్ ": 5682,
      "ఐఏ": 5683,
      "శైల": 5684,
      "రుగు ": 5685,
      "ంపల్లి ": 5686,
      "38": 5687,
      "దయ": 5688,
      "మటి": 5689,
      "ేద్": 5690,
      "సీఎం": 5691,
      "పేపర్ ": 5692,
      " గొ": 5693,
      "వచ్చిన": 5694,
      "య్యే ": 5695,
      "ప్రకటన ": 5696,
      "కఠ": 5697,
      "గా నట": 5698,
      "అవుతున్న": 5699,
      "తీర": 5700,
      "పరిధిలోని ": 5701,
      "పెద్ద ఎత్తున ": 5702,
      "వికె": 5703,
      " సోషల్ మీ": 5704,
      "అప్ల": 5705,
      "సచి": 5706,
      "ారు": 5707,
      "డిశ": 5708,
      " బంధ": 5709,
      "గ్రెస్ ప్రభుత్వం ": 5710,
      "శాబ్ద": 5711,
      "స్టేడియ": 5712,
      "తాధికార": 5713,
      " S": 5714,
      "ఫిల": 5715,
      "పోతున్న": 5716,
      "నల్గ": 5717,
      " ఉంద": 5718,
      "ఓడిపోయ": 5719,
      "బదిల": 5720,
      "స్తీ": 5721,
      "రాధ": 5722,
      " వెల్ల": 5723,
      "లియా": 5724,
      "ెక్ట్ ": 5725,
      "బ్ల్యూ": 5726,
      "నెల ": 5727,
      "అంటూ ": 5728,
      "కోర్టుకు ": 5729,
      "ఆసక్తికర": 5730,
      "వ్యూహ": 5731,
      "ಡಿಯ": 5732,
      "హిట్ ": 5733,
      "అన్నీ ": 5734,
      "ప్రాజెక్టు ": 5735,
      "నాభా ": 5736,
      "గుజరాత్ ": 5737,
      "re": 5738,
      "రాగ": 5739,
      "ంతి ": 5740,
      "రోడ్ ": 5741,
      "ద్రాబాద్ ": 5742,
      "జీలు ": 5743,
      "పోలీసులు తెలిపార": 5744,
      "కంఠ": 5745,
      "ఓటమి ": 5746,
      "వ్యాఖ్యలు ": 5747,
      "థియే": 5748,
      "బుక్ ": 5749,
      "షీ": 5750,
      "్‌‌‌‌‌‌‌‌‌‌‌‌‌‌‌‌‌‌‌‌‌‌‌‌‌‌‌‌‌‌‌‌‌‌‌‌‌‌‌‌‌‌‌‌‌‌‌‌‌‌‌‌‌‌‌‌‌‌‌‌‌‌‌‌‌‌‌‌‌‌‌‌‌‌‌‌‌‌‌‌‌‌‌‌‌‌‌‌‌‌‌‌‌‌‌‌‌‌‌‌‌‌‌‌‌‌‌‌‌‌‌‌‌‌‌‌‌‌‌‌‌‌‌‌‌‌‌‌": 5751,
      "స్పద": 5752,
      "ితో పాటు ": 5753,
      "ప్రధాని మోదీ ": 5754,
      "హాజరు ": 5755,
      "చేసుకోవచ్చ": 5756,
      "తీసుకోవడం ": 5757,
      "ہے۔": 5758,
      "పరిశోధ": 5759,
      "జర్న": 5760,
      "ేన": 5761,
      " కట్ట": 5762,
      "కుప్ప": 5763,
      "పాటి ": 5764,
      "పెట్టుబడ": 5765,
      "మానవ": 5766,
      "భారీ వర్షాలు కు": 5767,
      "రష్యా ": 5768,
      "37": 5769,
      "తాలకు ": 5770,
      "నున్నాయ": 5771,
      "నడిప": 5772,
      "భ్ర": 5773,
      "నిజామా": 5774,
      " కానీ ": 5775,
      " ప్రక్రియ": 5776,
      "డ్డం ": 5777,
      "అవ్వ": 5778,
      "హాట్ ": 5779,
      "షెడ్యూల్ ": 5780,
      "ఈవో ": 5781,
      "చుకున": 5782,
      " చరిత్ర": 5783,
      "ఒక ": 5784,
      "అంతకుమ": 5785,
      "అప్పట్లో ": 5786,
      "శిక్షణ": 5787,
      "ాత్మక": 5788,
      " వ్యవహార": 5789,
      " హీరో": 5790,
      "ఆకర్ష": 5791,
      "త్యా": 5792,
      "రికార్డ": 5793,
      " దేవ": 5794,
      "తెగ": 5795,
      "పూర్తి": 5796,
      "తీర్పు ": 5797,
      "ఓట్ల": 5798,
      "గార": 5799,
      "టన్న": 5800,
      "ెళ్త": 5801,
      "వితం ": 5802,
      "ితి ": 5803,
      " ఆత్మ": 5804,
      "వీరి ": 5805,
      "అభివృద్ధ": 5806,
      " సిబ్బంది ": 5807,
      "ఒత్తిడి ": 5808,
      "శ్రీలంక": 5809,
      "కత": 5810,
      "జిక్ ": 5811,
      "కు తరల": 5812,
      "చెరువ": 5813,
      "చడం లేద": 5814,
      "భక్తుల": 5815,
      "ఫైనల్ ": 5816,
      " తొలి ": 5817,
      "జులై ": 5818,
      ", బ": 5819,
      "ఈ అ": 5820,
      "చరణ": 5821,
      "ొన్న": 5822,
      "డ్జె": 5823,
      "ఆయనను ": 5824,
      " హామ": 5825,
      "వర్గాలు ": 5826,
      "దిత్య": 5827,
      "విచారణకు ": 5828,
      " జాతీయ": 5829,
      "సరఫరా ": 5830,
      "42": 5831,
      "ం-": 5832,
      "అల్లు అర్": 5833,
      "కలు ": 5834,
      "గ్ క": 5835,
      "బీబీసీ ": 5836,
      " గణ": 5837,
      "జిల్లాల": 5838,
      " పనులు ": 5839,
      "హరీశ్ ": 5840,
      "୍ର": 5841,
      "గతం ": 5842,
      "పత": 5843,
      "నినాద": 5844,
      "పాలని ": 5845,
      "మార్కెట": 5846,
      "సమీక్ష": 5847,
      " మంచి ": 5848,
      "ఇవ": 5849,
      "వేస్తున్నార": 5850,
      "హార్ ": 5851,
      "ప్రశ్": 5852,
      "ప్రమాణ స్వీ": 5853,
      "అక్క": 5854,
      "డల్ ": 5855,
      "విఫల": 5856,
      " జీవ": 5857,
      " దిన": 5858,
      "సీఎం రేవంత్ రెడ్డి ": 5859,
      "పంచాయ": 5860,
      " శాఖ మంత్రి ": 5861,
      "కపోవడం ": 5862,
      " اس": 5863,
      "పట్నం ": 5864,
      "పాఠశాల": 5865,
      "పవర్ ": 5866,
      "మిల్ల": 5867,
      "ం జరిగ": 5868,
      "చిన్నార": 5869,
      "జెన్సీ ": 5870,
      "మొదటి": 5871,
      " వాతావరణ": 5872,
      "డంలో ": 5873,
      "నాలను ": 5874,
      "రచయిత": 5875,
      "హరణ": 5876,
      " కుల": 5877,
      "రిన": 5878,
      " విభాగ": 5879,
      " గాయ": 5880,
      "ఎలక్ట్ర": 5881,
      " అవసర": 5882,
      "్లోనూ": 5883,
      "చూస్తే ": 5884,
      "బ సభ్యులు ": 5885,
      " କ": 5886,
      "ل ": 5887,
      "ైర్మన్ ": 5888,
      "ಂದ": 5889,
      " నవ": 5890,
      " ఆట": 5891,
      "కార్ ": 5892,
      "చెప్పి ": 5893,
      "దిద్ద": 5894,
      "పడే ": 5895,
      "వ్యక్తిగత": 5896,
      " వైపు ": 5897,
      "ఈ విషయాన్ని ": 5898,
      "కోహ్లీ ": 5899,
      "అవినీతి ": 5900,
      "కరోనా ": 5901,
      "షన్స్ ": 5902,
      "ిన తర్వాత": 5903,
      "రుకు ": 5904,
      "తిన్న": 5905,
      "అవుతున్నాయ": 5906,
      "సునీ": 5907,
      "్‌‌‌‌,": 5908,
      "అనుగుణంగా ": 5909,
      "బంగార": 5910,
      "ప్రైవేట్ ": 5911,
      "ప్రోత్సహ": 5912,
      "de": 5913,
      "st": 5914,
      "ಸ್": 5915,
      "ప్రక్రియ": 5916,
      "రిగా ": 5917,
      "ఉండద": 5918,
      " అభివృద్ధ": 5919,
      " క్యారె": 5920,
      "39": 5921,
      "vi": 5922,
      "అసోసియ": 5923,
      "చేస్తానని ": 5924,
      "ఉన్న ": 5925,
      " రోజుల్లో ": 5926,
      "మృతదేహ": 5927,
      "పిలుపునిచ్చార": 5928,
      "పర్": 5929,
      "ముక": 5930,
      "ిత్త": 5931,
      " ప్రేమ": 5932,
      "సీటు ": 5933,
      "లిమి": 5934,
      " దూ": 5935,
      "బీఆర": 5936,
      "దిగు": 5937,
      "గతే": 5938,
      "దర్శనం ": 5939,
      " کو ": 5940,
      "దొరిక": 5941,
      "వ్యక్తులు ": 5942,
      "44": 5943,
      "وں": 5944,
      "లో ఆ": 5945,
      "ుకోవడ": 5946,
      " కోర్ట": 5947,
      "డ్రో": 5948,
      "వద్దని ": 5949,
      "లోనూ ": 5950,
      " A": 5951,
      "ఏడాద": 5952,
      "కులను ": 5953,
      "నారా ": 5954,
      "‌ర్ ": 5955,
      " ప్రసాద": 5956,
      "స్టీ ": 5957,
      " భక్త": 5958,
      "సంబంధం ": 5959,
      " కేసు నమోదు ": 5960,
      "కపోవడ": 5961,
      "త్కంఠ": 5962,
      "ఇస్ర": 5963,
      "గడ్డ": 5964,
      "నిషేధ": 5965,
      "గ్రెస్ లో ": 5966,
      "సాయి ": 5967,
      " నాటికి ": 5968,
      "అంతేకాదు ": 5969,
      "జర్స్ ": 5970,
      "తగా ": 5971,
      "భరో": 5972,
      "మయ": 5973,
      "న్నది ": 5974,
      " వాద": 5975,
      "పోలిస్తే ": 5976,
      " నిపుణ": 5977,
      "ిస్తున్నారని ": 5978,
      "ఈ విషయం ": 5979,
      "ఆత్మహత్య": 5980,
      "యుద్ధం ": 5981,
      "నడుస్త": 5982,
      "ఇక్కడి ": 5983,
      "నిరా": 5984,
      "రాబోయే ": 5985,
      "త్తా ": 5986,
      "్‌‌,": 5987,
      "సాగర్ ": 5988,
      "అమల": 5989,
      "ిస్తున్నాడ": 5990,
      "మంచిద": 5991,
      "స్వయంగా ": 5992,
      "ఆలోచన": 5993,
      "బహిరంగ సభ": 5994,
      "త,": 5995,
      "స్యం ": 5996,
      "విత్ర": 5997,
      "పోట": 5998,
      "పేర్కొన్న": 5999,
      "గొడవ": 6000,
      "ొద్దని ": 6001,
      "ಿದ್ದ": 6002,
      "ిద్ద": 6003,
      "పరిశ్రమ": 6004,
      "తరఫున ": 6005,
      " ఉపా": 6006,
      "కర్నూ": 6007,
      "ఎన్నికల ప్రచార": 6008,
      "పోర్టు ": 6009,
      " చంద్రబాబ": 6010,
      "ఘటనపై": 6011,
      "రిజిస్ట్ర": 6012,
      "రిసిల్ల": 6013,
      "ధ్ర": 6014,
      "వాది ": 6015,
      "వారిపై": 6016,
      "సీతార": 6017,
      "మే కాక": 6018,
      " వేలు ": 6019,
      "చెబుతున్న": 6020,
      " కోట్లతో ": 6021,
      "జ్జ": 6022,
      " సామాజిక": 6023,
      "ఈ విషయ": 6024,
      "స్వామ్య": 6025,
      "గుర్తు చేశార": 6026,
      "నర్స": 6027,
      "ఫా": 6028,
      "బర్": 6029,
      "ందరికీ ": 6030,
      "లేదంటే ": 6031,
      "ార్హ": 6032,
      "తొమ్మి": 6033,
      "ప్రపంచవ్యాప్తంగా ": 6034,
      "దాడులు ": 6035,
      "ఓపెన్ ": 6036,
      "65": 6037,
      "నొప్ప": 6038,
      "యా ": 6039,
      "హ్ర": 6040,
      "లో ఒక": 6041,
      " వెళ్ల": 6042,
      " అక్కడ": 6043,
      "లోపు ": 6044,
      "ేషన్లు ": 6045,
      "సైడ్ ": 6046,
      "సహజ": 6047,
      "వెళ్ళ": 6048,
      " మహిళా ": 6049,
      " కర్ణాటక": 6050,
      "\"\n": 6051,
      "400": 6052,
      "గన": 6053,
      "సందర్భ": 6054,
      "సక్సెస్ ": 6055,
      "ూర్ ": 6056,
      "నిర": 6057,
      "ఈ మూవీ ": 6058,
      "ఖరారు ": 6059,
      " వేదిక": 6060,
      "ఆపర": 6061,
      "హయ": 6062,
      "ాన్స": 6063,
      "విన్న": 6064,
      "సంభవ": 6065,
      "పేల": 6066,
      " మండలం ": 6067,
      "వాణా ": 6068,
      "ఘనంగా ": 6069,
      "విజ్ఞప్తి ": 6070,
      "నష్టం ": 6071,
      "పదే ": 6072,
      " ఆశ": 6073,
      " మొదల": 6074,
      "ఇదే సమయంలో ": 6075,
      "వెనక్కి ": 6076,
      "ప్రయత్నిస్త": 6077,
      " ను ": 6078,
      "ఏపీ": 6079,
      "ఘోర": 6080,
      "ప్రవీ": 6081,
      "కు గుర": 6082,
      "్తె": 6083,
      "మంలోనే ": 6084,
      " క్రికెట్ ": 6085,
      "స్తున్నట్లు ": 6086,
      "ఇస్తామని ": 6087,
      "యూనివర్సిటీ ": 6088,
      " ఫిర్యాద": 6089,
      " విమర్శలు ": 6090,
      " బాధిత": 6091,
      "చిరంజీవి ": 6092,
      "చోటుచేసుక": 6093,
      "గ్యా": 6094,
      "భర": 6095,
      "హాయ": 6096,
      "ుర": 6097,
      " మన": 6098,
      "సురక్ష": 6099,
      "కరిస్త": 6100,
      " క్యా": 6101,
      "వర్గాల": 6102,
      " పరిష్": 6103,
      "అభ్యర్థుల": 6104,
      "బాలీవుడ్ ": 6105,
      "జీవితంలో ": 6106,
      "తాత": 6107,
      "నన్ను ": 6108,
      "ేటి ": 6109,
      " గి": 6110,
      "వీరు ": 6111,
      "ఈ సారి ": 6112,
      " వ్యతిరేక": 6113,
      "డేటా ": 6114,
      "ఎదురు ": 6115,
      "బాలిక": 6116,
      "వెలువ": 6117,
      "మద్దతుగా ": 6118,
      " విధంగా ": 6119,
      "ఫోటో": 6120,
      "రుణమాఫీ ": 6121,
      "టల": 6122,
      "బానికి ": 6123,
      " కన్న": 6124,
      "చి తప్ప": 6125,
      " ప్రజా": 6126,
      "ాడ్ ": 6127,
      "ధర ర": 6128,
      "ులతో కలిసి ": 6129,
      "చర్చలు ": 6130,
      "దీనివల్ల": 6131,
      " తిరు": 6132,
      "చ‌": 6133,
      "ణాలు ": 6134,
      "ాశ": 6135,
      "చేత": 6136,
      "క్వార": 6137,
      "రాజధాని ": 6138,
      " చెల్ల": 6139,
      "చిన తర్వాత": 6140,
      "రేఖ": 6141,
      "ముగిస": 6142,
      " మందిని ": 6143,
      "రమణ": 6144,
      "తెలుగుదేశం పార్టీ ": 6145,
      "ఆస్ట్రేలియా ": 6146,
      "సులో ": 6147,
      "ాం..\n": 6148,
      " అడుగ": 6149,
      " తయ": 6150,
      " ఆగ": 6151,
      "బీఆర్ఎస": 6152,
      "వీటి ": 6153,
      "ధ్యాయ": 6154,
      "కాల్ప": 6155,
      "అనుమాన": 6156,
      " కు ": 6157,
      "ఏమీ ": 6158,
      "ఏమిట": 6159,
      "ో...\n": 6160,
      " సెల": 6161,
      "వాటర్ ": 6162,
      " తాను ": 6163,
      "వరీ ": 6164,
      "అంతే ": 6165,
      "ఇటీవలే ": 6166,
      " నాయకులు ": 6167,
      "దానిని ": 6168,
      "అరవ": 6169,
      "ఆస్త": 6170,
      "త ప": 6171,
      "ీకరణ": 6172,
      "విసి": 6173,
      "ాం\"": 6174,
      " వచ్చే": 6175,
      "్మి": 6176,
      "్యాక": 6177,
      " తు": 6178,
      "సిటీలో ": 6179,
      " ఆదేశ": 6180,
      " చొప్పున ": 6181,
      "మొబైల్ ": 6182,
      "హైకమ": 6183,
      "లై ": 6184,
      "బీబీసీతో ": 6185,
      " టీడీపీ ": 6186,
      "పాలు ": 6187,
      "పాక్ ": 6188,
      " కాన": 6189,
      "రాత్ర": 6190,
      "మార్ ": 6191,
      " ఇండ": 6192,
      "ముని": 6193,
      "కాల్ ": 6194,
      "కాలంగా ": 6195,
      "ఆర్ ఎస్ ": 6196,
      "కలిస": 6197,
      "ప్రొఫెసర్ ": 6198,
      "డ్రైవర్ ": 6199,
      "ఫిర్యాదు చేశార": 6200,
      "డబ్ల్యూ": 6201,
      "తాడ": 6202,
      "ూనే ": 6203,
      "ర్ గా ": 6204,
      "వర్క్ ": 6205,
      "న్యూజిల": 6206,
      "బదిలీ ": 6207,
      "یا": 6208,
      "े ": 6209,
      "ి క": 6210,
      "ప్రమో": 6211,
      "వివాద": 6212,
      " వంద": 6213,
      "న్ రెడ్డి ": 6214,
      "డిజి": 6215,
      "సీట్ల": 6216,
      "రెగ్యుల": 6217,
      "లిపోయ": 6218,
      " దూర": 6219,
      "యాక్షన్ ": 6220,
      "ఉందన్నార": 6221,
      " లై": 6222,
      "ఉండేద": 6223,
      " పోటీ ": 6224,
      "సంబంధిత": 6225,
      "అవినా": 6226,
      " నాలుగు ": 6227,
      "హసీ": 6228,
      "ుట్ ": 6229,
      "న్లకు ": 6230,
      "ాలున్నాయ": 6231,
      "నిమిష": 6232,
      "అలాగ": 6233,
      " ఎంపీ": 6234,
      "ఈ కార్యక్రమంలో ": 6235,
      " డైరెక్ట": 6236,
      "గ‌": 6237,
      "జమ్మ": 6238,
      "థ్ర": 6239,
      "దాల": 6240,
      "ప్రాయం ": 6241,
      "సిరీస్ ": 6242,
      " జై": 6243,
      "కేటీఆర": 6244,
      "పార్ట్ ": 6245,
      " క్యారెట్ల": 6246,
      "జాన": 6247,
      "ఫూ": 6248,
      "క్షంలో ": 6249,
      "అవుతున్నార": 6250,
      " కూట": 6251,
      "ఉద్యోగుల": 6252,
      "మణి": 6253,
      "మటిరెడ్డి ": 6254,
      "41": 6255,
      "ఒకే": 6256,
      "బ్యూ": 6257,
      " అది ": 6258,
      "వాలయ": 6259,
      "సాక్ష": 6260,
      " పూజ": 6261,
      "కార్యకర్తలు ": 6262,
      " ఆధారంగా ": 6263,
      " హైదరాబాద్ ": 6264,
      "రికార్డు ": 6265,
      "ట్రంప్ ": 6266,
      "న\n": 6267,
      "స్పూ": 6268,
      "స్వల": 6269,
      "రావడ": 6270,
      " సర": 6271,
      "ట్లేద": 6272,
      "తిరిగ": 6273,
      " జరగ": 6274,
      "రాష్ట్రం ": 6275,
      "బ్లీలో ": 6276,
      "సైబర్ ": 6277,
      "దితుడు ": 6278,
      "ొచ్చని ": 6279,
      "వికెట్ ": 6280,
      "ఎంట్రీ ": 6281,
      "అదనపు ": 6282,
      "వీరిద్ద": 6283,
      "ఈ సినిమాలో ": 6284,
      "టిడిపి ": 6285,
      "AL": 6286,
      "జం ": 6287,
      "మో ": 6288,
      "ుస్త": 6289,
      "రెడీ ": 6290,
      " దే": 6291,
      "వర్షాలు కు": 6292,
      "సరిహద్ద": 6293,
      "ఎద్ద": 6294,
      "ల్ట": 6295,
      "శె": 6296,
      "ను ప": 6297,
      "రిమ": 6298,
      " మై": 6299,
      " అవి": 6300,
      " నష్ట": 6301,
      "ినల్ ": 6302,
      "గ్రీన్ ": 6303,
      " బయ": 6304,
      "యాజమా": 6305,
      "య్యాడ": 6306,
      "కాల్": 6307,
      "మంత్రులు ": 6308,
      "పొన్న": 6309,
      "ఆఫీస్ ": 6310,
      "కూడదని ": 6311,
      "నిధి ": 6312,
      "అరెస్ట్ చేశార": 6313,
      "ప్రధానంగా ": 6314,
      " పర్యట": 6315,
      "ین": 6316,
      "కస్ ": 6317,
      "గామ": 6318,
      "ఘా ": 6319,
      "ాకు చ": 6320,
      "నిస్టే": 6321,
      "ఉండగా ": 6322,
      "రిక్": 6323,
      "197": 6324,
      "ఉద్యోగాలు ": 6325,
      "గౌడ్ ": 6326,
      "ఈ క్రమంలోనే ": 6327,
      "49": 6328,
      "ور ": 6329,
      "ର୍": 6330,
      "ొన్ని ": 6331,
      "ೊಂ": 6332,
      "ంతో పాటు ": 6333,
      "నీటిని ": 6334,
      " నిధ": 6335,
      "ాలకు చ": 6336,
      "రంగంలోకి ": 6337,
      "బ్లీ ఎన్నికల": 6338,
      "పడ్డాయ": 6339,
      "క్యూరిటీ ": 6340,
      "కచ్చితంగా ": 6341,
      "మిత్ర": 6342,
      "ాచల": 6343,
      "ిక్ర": 6344,
      "ామిక": 6345,
      " ప్రదేశ": 6346,
      "వేత": 6347,
      " జే": 6348,
      "పెట్టుక": 6349,
      " వేగ": 6350,
      "వలస": 6351,
      " సినిమా": 6352,
      "రామకృష్ణ": 6353,
      "భవన": 6354,
      "చార్జ": 6355,
      "వసూలు ": 6356,
      " ఫలిత": 6357,
      "ేద్కర్ ": 6358,
      "గతేడాది ": 6359,
      "ఈసీ ": 6360,
      "వడ్డ": 6361,
      "ిశ్ర": 6362,
      " శు": 6363,
      "అవగాహన ": 6364,
      "రాష్ట్ర ప్రభుత్వ": 6365,
      "బ్జ": 6366,
      "కలం ": 6367,
      " పెళ్ల": 6368,
      "తప్పని": 6369,
      "ాది మంది ": 6370,
      "అభ్యర్థిగా ": 6371,
      "గెలుపు ": 6372,
      " ఎకరాల": 6373,
      "ం.": 6374,
      "రంగా ": 6375,
      " బిల్ల": 6376,
      "ేవా ": 6377,
      "సెస": 6378,
      "మాట్లాడిన ": 6379,
      "అనుభవ": 6380,
      "రూమ్ ": 6381,
      "కౌన్సిల": 6382,
      "ti": 6383,
      "ఆ తరువాత": 6384,
      "ఏటా ": 6385,
      "మట్ట": 6386,
      "సవాల్ ": 6387,
      "ికే ": 6388,
      " మంచ": 6389,
      "ాలు నిర్వహ": 6390,
      " గత": 6391,
      "రాబాద్ ": 6392,
      "ప్రాతి": 6393,
      "నిజం ": 6394,
      "ఆదిలా": 6395,
      "ఫొటో సోర్స": 6396,
      " ఏర్పాటు ": 6397,
      "కొడుకు ": 6398,
      "తు ": 6399,
      "వుల": 6400,
      "వల ": 6401,
      "ేజీ ": 6402,
      "విడి": 6403,
      "ికి చేర": 6404,
      "పైనే ": 6405,
      "ర్లలో ": 6406,
      " మీటర్ల": 6407,
      "కంట్రో": 6408,
      "అనుకూలంగా ": 6409,
      "వదిలే": 6410,
      "ఉగ్ర": 6411,
      "గిక": 6412,
      "చద": 6413,
      "డాక": 6414,
      "నడి": 6415,
      "బాడ": 6416,
      "భట్టి ": 6417,
      "మయ్యాయ": 6418,
      "యనం ": 6419,
      "ఉండటం ": 6420,
      "డీఎస్ ": 6421,
      "దుకు సిద్ధ": 6422,
      " ఏండ్ల": 6423,
      "లేకపోవడంతో ": 6424,
      "కిడ్": 6425,
      "ఫైర్ ": 6426,
      "మాట్లాడుతూ ": 6427,
      "ఉత్తర్వులు ": 6428,
      " ప్రస్తుతం ": 6429,
      "ీ..": 6430,
      "ప్రభావ": 6431,
      "విపక్ష": 6432,
      " ప్రముఖ": 6433,
      " త్వర": 6434,
      "మ్మల్ని ": 6435,
      " రూ": 6436,
      "సూచన": 6437,
      "ూరులో ": 6438,
      " పార్టీలు ": 6439,
      "రాశుల": 6440,
      " మూవీ ": 6441,
      "ఆంధ్రప్రదేశ": 6442,
      "సమీపంలో ": 6443,
      "అనారోగ్య": 6444,
      "ధృ": 6445,
      "ైవ": 6446,
      " మరో": 6447,
      " పలు ": 6448,
      "మాన ": 6449,
      "డీకి ": 6450,
      "ుకుపోయ": 6451,
      " వ్యవ": 6452,
      "ధారణ": 6453,
      "వైద్యులు ": 6454,
      "ద్వార": 6455,
      " న్యాయ": 6456,
      " మీ ": 6457,
      " అరె": 6458,
      " ప్రొ": 6459,
      "అందజేశార": 6460,
      "మేనిఫె": 6461,
      " పరిశో": 6462,
      "తెలుసుకున్న": 6463,
      "సంస్థలు ": 6464,
      " సుప్ర": 6465,
      "దృష్టిలో ": 6466,
      "సినిమాలు ": 6467,
      "ఘర్ష": 6468,
      "తప్పుడు ": 6469,
      "రిల": 6470,
      "న్ (": 6471,
      " అన్ని ": 6472,
      "టీవీ ": 6473,
      "మెగా ": 6474,
      "రీలు ": 6475,
      "నూతన ": 6476,
      "వచ్చే ఎన్నికల్లో ": 6477,
      " ప్రతిపక్ష": 6478,
      "ఆదాయ": 6479,
      "కొద్ది ": 6480,
      "స్పీకర్ ": 6481,
      "మరిన్ని ": 6482,
      "Ch": 6483,
      "టాక్ ": 6484,
      "ఫామ్ ": 6485,
      "లో ఓ": 6486,
      "చారన": 6487,
      " ద్వ": 6488,
      "బిగ్ ": 6489,
      "పిటీ": 6490,
      " ఎన్నికలు ": 6491,
      "టైమ్ ": 6492,
      "కోర్టును ": 6493,
      " భారీ ": 6494,
      "AD": 6495,
      "చగా ": 6496,
      "దంప": 6497,
      "ప్రణాళిక": 6498,
      " పంట": 6499,
      "వేరే ": 6500,
      "ూపర": 6501,
      " ఫై": 6502,
      "లక్ష్యం ": 6503,
      "తప్పక": 6504,
      "సమీపంలోని ": 6505,
      "୍ୟ": 6506,
      "ఇళ్ల": 6507,
      "ఫాల": 6508,
      "గ్ కు ": 6509,
      "పుగా ": 6510,
      "ుకున్నాయ": 6511,
      "రాజ్యసభ": 6512,
      " ఇండియా ": 6513,
      "ఇజ్రాయెల": 6514,
      "గంజ": 6515,
      "డడంతో ": 6516,
      "హీన": 6517,
      "న్మోహన్ ": 6518,
      " పాయ": 6519,
      "దేశానికి ": 6520,
      "తీసుకునే ": 6521,
      "ఏర్పాటు చేస": 6522,
      "నగరంలో ": 6523,
      "ర్యావరణ": 6524,
      " సమాచార": 6525,
      "విడుదల చేశార": 6526,
      " ಆ": 6527,
      "ఆక": 6528,
      "ట్య": 6529,
      "క్వాల": 6530,
      " వచ్చిన ": 6531,
      " ఫ్ర": 6532,
      "సాగు ": 6533,
      " వారిని ": 6534,
      " అధికారుల": 6535,
      "అంటార": 6536,
      "శివకుమార్ ": 6537,
      "వెళ్తున్న": 6538,
      "గరేణి ": 6539,
      "ంఘ": 6540,
      "ఇరు ": 6541,
      "దులు ": 6542,
      "పులో ": 6543,
      "ాశ్ర": 6544,
      "న్యా": 6545,
      "ర్పు ": 6546,
      " విజ": 6547,
      "రాజీ": 6548,
      "రాష్ట్రవ్యాప్తంగా ": 6549,
      "లేన": 6550,
      "భూకంప": 6551,
      " రాజ్య": 6552,
      "పర్యవే": 6553,
      "పలికార": 6554,
      "స్పష్టం చేస": 6555,
      " రోజులు ": 6556,
      " ب": 6557,
      "గ్లో": 6558,
      "చాన": 6559,
      "పుడు ": 6560,
      "ుట్ట": 6561,
      "క్సి": 6562,
      "సీత": 6563,
      " రహ": 6564,
      "తీశార": 6565,
      "పుస్త": 6566,
      "లీస్ ": 6567,
      "రగాయ": 6568,
      "దర్శకుడు ": 6569,
      "సేపు ": 6570,
      "వల్లే ": 6571,
      "పూర్ణ": 6572,
      "కనుగ": 6573,
      "వంతమైన ": 6574,
      " సమస్యలను ": 6575,
      "విద్యార్థులకు ": 6576,
      "త్వరగా ": 6577,
      "గులేటి ": 6578,
      "వంటివి ": 6579,
      "ఇస్తున్నార": 6580,
      " కష్ట": 6581,
      " మద్దత": 6582,
      "ర్ ను ": 6583,
      "లోపల": 6584,
      "ానికి గుర": 6585,
      "రెన్స్ ": 6586,
      "చూశ": 6587,
      "క్రమంగా ": 6588,
      "పథకం ": 6589,
      "దేవి ": 6590,
      "and": 6591,
      "బడిన ": 6592,
      "చర్యలు తీసుకోవాలని ": 6593,
      "భద్రత": 6594,
      " మేర": 6595,
      " భూమ": 6596,
      "కాలేజీ": 6597,
      "దుపరి ": 6598,
      "జస్టిస్ ": 6599,
      "ak": 6600,
      "ఉప్ప": 6601,
      "టూరు ": 6602,
      "డుగు ": 6603,
      "న‌": 6604,
      "ಾಡ": 6605,
      "చేవార": 6606,
      " అత్య": 6607,
      "కల్యాణ": 6608,
      "చనున్న": 6609,
      "ఎవరికి ": 6610,
      "ర్యాపేట": 6611,
      "కమ్యూ": 6612,
      " ఆరోపణలు ": 6613,
      "చుకోవాలని ": 6614,
      "దిల్ల": 6615,
      "ిహిత": 6616,
      " విదేశ": 6617,
      "ుకోవచ్చ": 6618,
      " శిక్ష": 6619,
      "ార్ద": 6620,
      "నాయకుడు ": 6621,
      "అదానీ ": 6622,
      " తేడాతో ": 6623,
      "విరాట్ ": 6624,
      "SO": 6625,
      "పౌ": 6626,
      "లక": 6627,
      "ಿರ": 6628,
      "ు క": 6629,
      "క్ష్మ": 6630,
      "ుతున్నాడ": 6631,
      "అధికారికంగా ": 6632,
      "తరపున ": 6633,
      "ప్రత్యక్ష": 6634,
      "డ్జి ": 6635,
      "స్పష్టంగా ": 6636,
      "ంగా ఉండాలని ": 6637,
      "కార్పొరేషన్ ": 6638,
      "గర": 6639,
      "చల్ల": 6640,
      "దుత": 6641,
      "నువ్వ": 6642,
      " అమ": 6643,
      " ప్రాణ": 6644,
      "ాటా ": 6645,
      " ఎదు": 6646,
      "ద్ర ప్రభుత్వ": 6647,
      "చంద్రయ": 6648,
      " పోలీస్ ": 6649,
      "యూట్యూ": 6650,
      " کیا ": 6651,
      "వివరాలను ": 6652,
      "ేశ్వరి ": 6653,
      "ప్పటికప్పుడు ": 6654,
      "వేయాలని ": 6655,
      "చంద్రబాబుకు ": 6656,
      "ఉపాధి ": 6657,
      "డిప్యూటీ సీఎం ": 6658,
      "శక్తి ": 6659,
      "క్తి": 6660,
      "ుకి ": 6661,
      "మెట్రో ": 6662,
      "దని ఆయన ": 6663,
      "ఉంటున్న": 6664,
      "చివర": 6665,
      "కృత": 6666,
      "ారెడ్": 6667,
      "వివరాల": 6668,
      "ఎదుర్కో": 6669,
      "విక్రమార్క": 6670,
      "అక్రమంగా ": 6671,
      "ిత్వ శాఖ": 6672,
      "46": 6673,
      "లాగ": 6674,
      "ా అని ": 6675,
      "ం కూడా ": 6676,
      " మృ": 6677,
      "సమర్థ": 6678,
      "ప్లే": 6679,
      "సినిమాలో ": 6680,
      "అధికారంలోకి వచ్చిన ": 6681,
      "సిద్దిపేట": 6682,
      "హీరోయిన్ ": 6683,
      "కలుగుత": 6684,
      " స్థల": 6685,
      "or": 6686,
      "ा ": 6687,
      "ఖై": 6688,
      "శాఖ మంత్రి ": 6689,
      "నిలదీ": 6690,
      "సభ్యుల": 6691,
      "ఎమ్మెల్యేల": 6692,
      " వ్యాఖ్యలు చేశార": 6693,
      " వికెట్లు ": 6694,
      "డ్జెట": 6695,
      "డీసీ": 6696,
      "పసు": 6697,
      "హరి": 6698,
      "ె.": 6699,
      " సల": 6700,
      "ాజి": 6701,
      " కోట్లకు ": 6702,
      "ప్రతిష్ట": 6703,
      "చంద్రబాబు నాయుడు ": 6704,
      "అత్యధికంగా ": 6705,
      " లక్షల మంది ": 6706,
      "ఆశీ": 6707,
      "ویڈ": 6708,
      "తొలిసారి ": 6709,
      "ఉత్పత్తి ": 6710,
      "ఆన్ లైన్ ": 6711,
      "ఆశ్చర్య": 6712,
      "తంత్ర": 6713,
      "ధై": 6714,
      "బరువు ": 6715,
      "హక్క": 6716,
      "ర్జ": 6717,
      "స్కర్ ": 6718,
      "రిగ్గా ": 6719,
      " పేరు ": 6720,
      "విజన్ ": 6721,
      "విద్యార్థుల": 6722,
      "తీసుకొని ": 6723,
      "ہیں": 6724,
      "స్కామ": 6725,
      " బౌల": 6726,
      " రకాల": 6727,
      "నాశ": 6728,
      " లక్ష్య": 6729,
      "పథ్య": 6730,
      "వరల్డ్ కప్ ": 6731,
      "మొదలుపెట్ట": 6732,
      "47": 6733,
      "ఛార్జ": 6734,
      "థమిక": 6735,
      "సగ": 6736,
      "ిలోని ": 6737,
      "ప్రకాశ": 6738,
      "్టర్ ": 6739,
      "డిట్ ": 6740,
      "ళ్లీ ": 6741,
      "సీరియ": 6742,
      "యాప్ ": 6743,
      " ఇన": 6744,
      "రోజు": 6745,
      "ట్రైల": 6746,
      "అనుచర": 6747,
      "్సి వచ్చ": 6748,
      "యువత": 6749,
      "ైతన్య": 6750,
      "ఇందులో భాగంగా ": 6751,
      "ధీమా ": 6752,
      " పట్టణ": 6753,
      "కొద్ది": 6754,
      "షిప్ ": 6755,
      "కూల్చి": 6756,
      "పరుగులు ": 6757,
      "85": 6758,
      "om": 6759,
      "ణ్య": 6760,
      "ూ..": 6761,
      "ోభ": 6762,
      "ం క": 6763,
      "ప్రై": 6764,
      "్‌-": 6765,
      " పక్ష": 6766,
      "కోణ": 6767,
      "ువులను ": 6768,
      " దళ": 6769,
      "అవకాశాలు ": 6770,
      "శ్రీవారి ": 6771,
      "నిల్వ": 6772,
      "ఎమ్మెల్యేగా ": 6773,
      " ఎమ్మెల్యే": 6774,
      "జాగ్రత్తలు ": 6775,
      " హెచ్చ": 6776,
      "అంతేకాక": 6777,
      "ାଇ": 6778,
      "ా న": 6779,
      " ప్రియ": 6780,
      "చెత్త": 6781,
      "టీమ్ ": 6782,
      " ఎయి": 6783,
      "తుది ": 6784,
      "రాశార": 6785,
      "రిజన ": 6786,
      " అభిమాన": 6787,
      " నగర": 6788,
      "పరిచయం ": 6789,
      "କ ": 6790,
      "గుల్ ": 6791,
      "నలను ": 6792,
      "నివ్వ": 6793,
      "నిరోధ": 6794,
      " మరియు ": 6795,
      "డిషనల్ ": 6796,
      "లోపే": 6797,
      "ఎంసీ": 6798,
      " అని అన్నార": 6799,
      "రాజకీయంగా ": 6800,
      "భక్తులకు ": 6801,
      "పెడుత": 6802,
      " డిస": 6803,
      "గెలిచి ": 6804,
      "వాట్స": 6805,
      "అతిపెద్ద": 6806,
      "విపరీ": 6807,
      "రిక్ష": 6808,
      "ଥି": 6809,
      "లూ": 6810,
      "శర": 6811,
      "పై న": 6812,
      "గురి": 6813,
      "ఉండి ": 6814,
      "దాహరణ": 6815,
      "నెలలో ": 6816,
      "చెబుతున్నాయ": 6817,
      "త్వంలోని ": 6818,
      "అమెరికాలో ": 6819,
      "హెచ్చరిక": 6820,
      " మొత్తం ": 6821,
      "తదితరులు పాల్గొన్నార": 6822,
      " తెలిపార": 6823,
      "ఇండ్ల": 6824,
      "దావ": 6825,
      "పాన": 6826,
      "వు ": 6827,
      "‌లు ": 6828,
      "టీని ": 6829,
      "నిర్వాహ": 6830,
      "యాళ": 6831,
      "చాలన్నార": 6832,
      "దిలో ": 6833,
      "మార్కె": 6834,
      "బలమైన ": 6835,
      "డోసారి ": 6836,
      "కార్యాలయంలో ": 6837,
      "్యుమ": 6838,
      "విల": 6839,
      "ంట్ ": 6840,
      "కేజీ ": 6841,
      "క్రమాన్ని ": 6842,
      "డుసార్లు ": 6843,
      "పరంగా ": 6844,
      " వ్యాధ": 6845,
      "దూరం ": 6846,
      "వాళ్ళ": 6847,
      "ఆఫీసర్లు ": 6848,
      "తొలుత": 6849,
      "జామున ": 6850,
      "ప్రాధాన్యత": 6851,
      " نے ": 6852,
      "a)": 6853,
      "హిక": 6854,
      "ాఫ్ర": 6855,
      "గ్రా": 6856,
      "కాని ": 6857,
      " ఆంధ్ర": 6858,
      "పేస": 6859,
      "స్వాగతం ": 6860,
      "సేప": 6861,
      "గోపాల్ ": 6862,
      "ఉద్యోగం ": 6863,
      "క్రియేట్ ": 6864,
      "ప్రభాస్ ": 6865,
      " ಪ": 6866,
      "EAD": 6867,
      "ఆక్రమ": 6868,
      "తాక": 6869,
      "ధో": 6870,
      "మని": 6871,
      "డిపోత": 6872,
      "డ్ లో ": 6873,
      "పడత": 6874,
      "నెట": 6875,
      "ఇస్తార": 6876,
      "ీసీఐ": 6877,
      " హైకోర్టు ": 6878,
      "మంటలు ": 6879,
      "స్వాధీనం చేసుకున్నార": 6880,
      "బిజెపి ": 6881,
      "చుత": 6882,
      "ఛాన": 6883,
      "ేరు ": 6884,
      "కు కూడా ": 6885,
      " వరంగ": 6886,
      " శుక్ర": 6887,
      "వీన్ ": 6888,
      "ఇవ్వక": 6889,
      "చేయాలన": 6890,
      "ప్రవేశపెట్ట": 6891,
      "ధ్వంసం ": 6892,
      "ఆదిత్య": 6893,
      "ఎవరి": 6894,
      "కంలో ": 6895,
      "చక్ర": 6896,
      "జంత": 6897,
      "దట": 6898,
      "ివర్గ": 6899,
      "ీ\n": 6900,
      "ುತ್ತ": 6901,
      " కలి": 6902,
      "తిథ": 6903,
      " దో": 6904,
      "పూడి ": 6905,
      "నియన్ ": 6906,
      "ార్టీ ": 6907,
      "్‌‌‌‌‌‌‌‌,": 6908,
      "ముఖ్యమైన ": 6909,
      "నెట్ట": 6910,
      " స్కూ": 6911,
      "రాశిలో ": 6912,
      "ప్పుడే ": 6913,
      " పథకాల": 6914,
      " రేవంత్ ": 6915,
      "ALSO": 6916,
      "ఎల్ల": 6917,
      "గార్": 6918,
      "జ్ల": 6919,
      "దశాబ్ద": 6920,
      "ేల్ ": 6921,
      "ైట్ ": 6922,
      "రిపోర్ట": 6923,
      "వారు": 6924,
      "చ్చి": 6925,
      " నివేదిక": 6926,
      " ఉద్యమ": 6927,
      "మొదలు ": 6928,
      " సెప్ట": 6929,
      " ఇంట్లో ": 6930,
      "ఆత్మహత్య ": 6931,
      "ోత్సవం ": 6932,
      "హరీష్ ": 6933,
      "సీఐడీ ": 6934,
      "ష్ణోగ్రతలు ": 6935,
      "గ్యారంట": 6936,
      "ಡಿಯೋ": 6937,
      "చరీ ": 6938,
      "జిత": 6939,
      "డుకు ": 6940,
      "వైప": 6941,
      "అధికారంలో ఉన్న": 6942,
      "కెరీ": 6943,
      "ఇవ్వడం ": 6944,
      "ులతో పాటు ": 6945,
      "స్పందన ": 6946,
      "విడత": 6947,
      "నాలుగో ": 6948,
      " బంతుల్లో ": 6949,
      "చది": 6950,
      "స్మా": 6951,
      "ాలే ": 6952,
      "ట్ గా ": 6953,
      " విభ": 6954,
      "చెప్పాలని ": 6955,
      "జగిత్యాల": 6956,
      "బ్రేక్ ": 6957,
      "పెరిగాయ": 6958,
      "ిశ్రామిక": 6959,
      "స్తామని ": 6960,
      " మరణ": 6961,
      "చేస్తారని ": 6962,
      " ఇజ్రాయ": 6963,
      "ఉండాలని ": 6964,
      "బంధు ": 6965,
      "మనకు ": 6966,
      "ఇంజ": 6967,
      "ప్రశంస": 6968,
      "ోదా ": 6969,
      "ంగా మారుత": 6970,
      "ఎయిర": 6971,
      "అశ్": 6972,
      "మధు": 6973,
      "ా)": 6974,
      "ాపాల": 6975,
      "ని అన్నార": 6976,
      " కాద": 6977,
      "ంగ్ ": 6978,
      "ిస్తారని ": 6979,
      " జల": 6980,
      " ఎస్": 6981,
      " గెల": 6982,
      "వీరికి ": 6983,
      "బిల్డ": 6984,
      "జిట్ ": 6985,
      "ఉద్యోగులు ": 6986,
      "పోరాటం ": 6987,
      " పాఠశాల": 6988,
      "కంట్రోల్ ": 6989,
      "ఎగు": 6990,
      "రన్ ": 6991,
      " రాత్రి ": 6992,
      "నెటిజ": 6993,
      "చుకోవడానికి ": 6994,
      " వరల్డ్ ": 6995,
      "భర్తీ ": 6996,
      " READ": 6997,
      " ఓవర్లలో ": 6998,
      "ముగిసిన ": 6999,
      " పరిశోధ": 7000,
      "ం...\n": 7001,
      "నాటక": 7002,
      "పక": 7003,
      "బాయ": 7004,
      "ిపో": 7005,
      "స్కీ": 7006,
      " పి": 7007,
      "వార్న": 7008,
      "సిట్ట": 7009,
      "ువా ": 7010,
      "మానసిక": 7011,
      " గంటల న": 7012,
      "ెలిజె": 7013,
      "సంవత్సరాల": 7014,
      " విషయం తెలిస": 7015,
      " పంచాయ": 7016,
      "అదృష్ట": 7017,
      "అడుగు": 7018,
      "ఖర్గ": 7019,
      "తండ్ర": 7020,
      "దంటూ": 7021,
      "ిరి ": 7022,
      "ెస్ట్ ": 7023,
      "ప్రభావి": 7024,
      "వీటిలో ": 7025,
      "టెక్ ": 7026,
      "కీలక పాత్ర": 7027,
      "తెలియని ": 7028,
      "ిట్యూ": 7029,
      "పాకిస్తాన": 7030,
      "డెవలప": 7031,
      "ఎనిమిది ": 7032,
      "భరోసా ": 7033,
      " ಕ": 7034,
      "నంబర్ ": 7035,
      "బౌ": 7036,
      "ొమ్మ": 7037,
      " నాయ": 7038,
      "వార్ ": 7039,
      "సీజన్ ": 7040,
      "ద్ర హ": 7041,
      "పీఎస్ ": 7042,
      "తీరు ": 7043,
      "పాలనలో ": 7044,
      "కలకలం ": 7045,
      "ఈ ఘటనలో ": 7046,
      "ప్లె": 7047,
      "కోరుతున్నార": 7048,
      "గోదావరి ": 7049,
      "విస్తర": 7050,
      "శుభ్ర": 7051,
      " సూర్య": 7052,
      " వ్యాఖ్యలు ": 7053,
      " ఆరోపణ": 7054,
      " వెల్లడ": 7055,
      "ALSO READ": 7056,
      "ఈనెల ": 7057,
      "ఖిల": 7058,
      "దరి ": 7059,
      "ఉన్నతాధికార": 7060,
      "ార్క్ ": 7061,
      "సరా ": 7062,
      "రాజకీయాలు ": 7063,
      "వర్షాలు ": 7064,
      "భద్రతా ": 7065,
      "దోష": 7066,
      " కమిషన": 7067,
      "పిటిషన": 7068,
      " అతని ": 7069,
      " రాహుల్ గ": 7070,
      "షేక": 7071,
      "సవ": 7072,
      "ెవర": 7073,
      "కు క": 7074,
      "సంజయ": 7075,
      "ద్ర మంత్రి ": 7076,
      "కలాపాల": 7077,
      "మూడ": 7078,
      "ఘటనా ": 7079,
      "విజయాన్ని ": 7080,
      "కనిపిస్తున్నాయ": 7081,
      " వాటిని ": 7082,
      "సర్కారు ": 7083,
      "హెల్త్ ": 7084,
      "అల్లు అర్జున్ ": 7085,
      "ప్రవీణ్ ": 7086,
      " '": 7087,
      "చలేదని ": 7088,
      "చుకునే ": 7089,
      "జాల": 7090,
      "ల్లోనే ": 7091,
      " వివాహ": 7092,
      "క్రై": 7093,
      "ియల్ ": 7094,
      " జిల్లాల్లో ": 7095,
      "కంప్ల": 7096,
      "శాస్త్రవేత్త": 7097,
      " ನ": 7098,
      "77": 7099,
      "s:": 7100,
      "ఆరు": 7101,
      "ఎక్": 7102,
      "బదుల": 7103,
      "మంత": 7104,
      "ీల్ ": 7105,
      "్రి": 7106,
      "ప్రయాణం ": 7107,
      "చేతుల": 7108,
      "మీదుగా ": 7109,
      " అని చెప్పార": 7110,
      " పెరుగుత": 7111,
      " క్రికె": 7112,
      "నిధుల": 7113,
      "ి...": 7114,
      "అభిప్రాయపడ్డార": 7115,
      "వెలుగులోకి ": 7116,
      "స్మార": 7117,
      "ుకూల": 7118,
      " మైన": 7119,
      "న్నారు ": 7120,
      " ఆహార": 7121,
      "దుగానే ": 7122,
      "దుపాయ": 7123,
      "నేర్చ": 7124,
      "వాలంటీ": 7125,
      " హా": 7126,
      " ఉద": 7127,
      "సర్వే": 7128,
      " మీడియా ": 7129,
      "నియోజకవర్గాల్లో ": 7130,
      " ఖర్చ": 7131,
      "అంచనాలు ": 7132,
      "సంవత్సరం ": 7133,
      "కంపెనీలు ": 7134,
      "it": 7135,
      "ఇరు": 7136,
      "తాన్ని ": 7137,
      "ానంద": 7138,
      "రిస్తున్న": 7139,
      " అదే ": 7140,
      "వేణ": 7141,
      " ఇంద": 7142,
      " ఇటీ": 7143,
      "డ్డూ": 7144,
      "పల్లిలో ": 7145,
      "నరస": 7146,
      "ప్రొడ": 7147,
      "ప్రభాకర్ ": 7148,
      "ఆగ్రహం వ్యక్తం చేశార": 7149,
      " గుర్త": 7150,
      "నన": 7151,
      "పౌర": 7152,
      "బండ": 7153,
      "బాలకు ": 7154,
      "ల కోసం ": 7155,
      "సస్ప": 7156,
      "ౌట": 7157,
      " సూపర్ ": 7158,
      "క్షమా": 7159,
      "ాద్ ": 7160,
      "కుడి ": 7161,
      "వాలను ": 7162,
      "పీని ": 7163,
      "స్యంగా ": 7164,
      "చాలని కోరార": 7165,
      "జరగనున్న": 7166,
      " దేశంలో ": 7167,
      "స్టేట": 7168,
      " గంటల వరకు ": 7169,
      " తాజాగా ": 7170,
      "ఊపి": 7171,
      "ఎడ": 7172,
      "గేమ": 7173,
      "నతో ": 7174,
      "మంతా ": 7175,
      " సౌ": 7176,
      " సంత": 7177,
      " వ్యూ": 7178,
      " బై": 7179,
      "తిరుపతి ": 7180,
      "ఇంజిన": 7181,
      "చేస్తున్నాడ": 7182,
      "గ్\n": 7183,
      "లెవ": 7184,
      "టున్నారని ": 7185,
      "కోల్పో": 7186,
      "తమిళనాడ": 7187,
      "బొమ్మ": 7188,
      "డెవలప్ ": 7189,
      "అదుపులోకి తీసుకున్నార": 7190,
      "కాళేశ్వరం ": 7191,
      "ప్రేక్షకుల మ": 7192,
      " స్థాయ": 7193,
      "ెస్ట": 7194,
      "ಾವ": 7195,
      " ఇల": 7196,
      "ఒకసారి ": 7197,
      "కాదన": 7198,
      "తగ్గుత": 7199,
      "బైక్ ": 7200,
      "విచారణ ": 7201,
      "చికిత్స ప": 7202,
      "లియన్ డాల": 7203,
      "నామినేషన్ ": 7204,
      "ఇదిలా ": 7205,
      "ప్రమాణ స్వీకారం ": 7206,
      "తట్ట": 7207,
      "పడిన": 7208,
      "వంగ": 7209,
      "షో ": 7210,
      "సప్ల": 7211,
      " వినియోగ": 7212,
      "బీజేపీలో ": 7213,
      "కుమారుడు ": 7214,
      "శాసన": 7215,
      "బలంగా ": 7216,
      " విద్యుత్ ": 7217,
      " దాని ": 7218,
      "నాటి ": 7219,
      "కడప": 7220,
      "టికెట్లు ": 7221,
      "తెల్లవారు": 7222,
      "టిక్కెట్ ": 7223,
      "టైటిల్ ": 7224,
      "ఎద్దేవా ": 7225,
      " రోజు ": 7226,
      "لی": 7227,
      "టున్నాయ": 7228,
      "్వా": 7229,
      "ందున ": 7230,
      " క్యూ": 7231,
      " అంటే ": 7232,
      "ినట్ల": 7233,
      "చేస్తాయ": 7234,
      "య్యం ": 7235,
      " వారం ": 7236,
      "అభ్యర్థులను ": 7237,
      " డాక్ట": 7238,
      "కంపెనీల": 7239,
      " ವ": 7240,
      "ئے ": 7241,
      "అశో": 7242,
      "బుల్ల": 7243,
      "షిక": 7244,
      "అధికంగా ": 7245,
      " చో": 7246,
      "పాస్ ": 7247,
      " ఉత్ప": 7248,
      "లీడర్లు ": 7249,
      "గ్రామ్ ": 7250,
      "నెలల్లో ": 7251,
      "కొత్తగూడ": 7252,
      "మరో ర": 7253,
      "ుతూనే ": 7254,
      "చర్చనీయ": 7255,
      "వంతం ": 7256,
      "పర్యటన ": 7257,
      " స్థానాల్లో ": 7258,
      "వైఎస్ జగన్ ": 7259,
      "ాల్సి ఉంద": 7260,
      " స్వామి ": 7261,
      "43": 7262,
      "66": 7263,
      "తలను ": 7264,
      "మేష": 7265,
      "సతీ": 7266,
      "రాగానే ": 7267,
      "కొన్నార": 7268,
      "రెచ్చ": 7269,
      " జంట": 7270,
      "కుస్థాప": 7271,
      "రాష్ట్రానికి ": 7272,
      "రాష్ట్రపతి ": 7273,
      "వచ్చాక": 7274,
      "ల్కా": 7275,
      "కాలిక": 7276,
      "మంత్రుల": 7277,
      "కటేశ్వర": 7278,
      " నిబంధ": 7279,
      "గ్రామానికి చ": 7280,
      "అప్పటికే ": 7281,
      "క్లారిటీ ": 7282,
      "ఇటీవల ": 7283,
      "వాళ్లకు ": 7284,
      "చంద్రబాబును ": 7285,
      "విశ్లేష": 7286,
      "విదేశీ ": 7287,
      "గమనార్హ": 7288,
      "ఇస్రో ": 7289,
      "అణ": 7290,
      "ఏడు": 7291,
      "టూ ": 7292,
      "ఫేక్ ": 7293,
      "రన": 7294,
      "రాము": 7295,
      "వీరిలో ": 7296,
      "ార్ధ": 7297,
      " వ్యవసాయ": 7298,
      "ప్రమాదంలో ": 7299,
      "గెలుప": 7300,
      " పూర్తి ": 7301,
      "శుభాక": 7302,
      "త్వం వహ": 7303,
      "కార్డు ": 7304,
      "ఉల్లంఘ": 7305,
      " చెప్పార": 7306,
      "59": 7307,
      "ରି": 7308,
      "వుతున్నాయ": 7309,
      "సబ్ ": 7310,
      "ుగు": 7311,
      "ర్లో ": 7312,
      "ాలి ": 7313,
      "ఉన్నా ": 7314,
      "నేర": 7315,
      "పడుతున్నాయ": 7316,
      "సామాన్య": 7317,
      " వ్యక్": 7318,
      "ఢిల్లీకి ": 7319,
      "రామర్శ": 7320,
      " శాస్త్ర": 7321,
      " కాలం ": 7322,
      "్సిన అవసరం ": 7323,
      "చరణ్ ": 7324,
      "టమిన్ ": 7325,
      "అసోసియేషన్ ": 7326,
      " ಅ": 7327,
      " నిర్ణయం ": 7328,
      ", హ": 7329,
      "ఇసుక": 7330,
      "ఈ వీడియో": 7331,
      "ఏసీ ": 7332,
      "ధున": 7333,
      "సెట్ ": 7334,
      " మళ్లీ ": 7335,
      " సత్య": 7336,
      "కోమటిరెడ్డి ": 7337,
      " రికార్": 7338,
      "పేరును ": 7339,
      "తీర్చ": 7340,
      "మోదీ": 7341,
      "పాతం ": 7342,
      "దార్ ": 7343,
      "196": 7344,
      "అతనికి ": 7345,
      "ప్రత్యర్థ": 7346,
      "పదార్థ": 7347,
      "జిల్లా క": 7348,
      "జైన్ ": 7349,
      "దీనికి సంబంధ": 7350,
      "కెప్టెన": 7351,
      " మందికి పైగా ": 7352,
      " డిగ్రీల": 7353,
      "మెరుగైన ": 7354,
      "వివేక్ వ": 7355,
      "చన ": 7356,
      "ార్ల": 7357,
      " తల": 7358,
      " దర్యాప్తు ": 7359,
      " గవర్": 7360,
      "పీడ": 7361,
      "పెట్టుకుని ": 7362,
      "క్రమంలో ": 7363,
      " పరిధిలో ": 7364,
      "బాలకృష్ణ": 7365,
      "అన్నది ": 7366,
      "తెలియద": 7367,
      " నీరు ": 7368,
      "ఎండీ ": 7369,
      "స్పష్టత": 7370,
      "జాగ్రత్తగా ": 7371,
      "మెదక్ ": 7372,
      "గడ్డం ": 7373,
      "వని ": 7374,
      "వీస": 7375,
      "విల్ ": 7376,
      " సాయం ": 7377,
      "చేసే": 7378,
      " ఎమ్మెల్సీ ": 7379,
      "మెన్ ": 7380,
      "సూచిస్తున్నార": 7381,
      "వ్యాఖ్యలు చేశార": 7382,
      "ఆఫీసర్ ": 7383,
      " సంవత్సరంలో ": 7384,
      "ఉత్పత్త": 7385,
      "టెక్నాలజీ ": 7386,
      "ہم": 7387,
      "కప": 7388,
      "శీల": 7389,
      "స్కిల్ ": 7390,
      "్లోకి ": 7391,
      "ున్నా ": 7392,
      " అక్రమ": 7393,
      " తదితర": 7394,
      "ట్రే": 7395,
      "పెడుతున్నార": 7396,
      " లోక్ సభ": 7397,
      "రోహిత్ శర్మ": 7398,
      "తనిఖీ ": 7399,
      "ab": 7400,
      "ఒల": 7401,
      "ధిప": 7402,
      " కవిత": 7403,
      "మ్మద్ ": 7404,
      "సాని ": 7405,
      " ఫ్ల": 7406,
      " వేధ": 7407,
      "విషాద": 7408,
      "వర్షం ": 7409,
      "చేసే అవకాశం ": 7410,
      "జరుపుక": 7411,
      " سے ": 7412,
      "ఎప్పటికప్పుడు ": 7413,
      "డక": 7414,
      "పబ్లిక్ ": 7415,
      "బద్ద": 7416,
      "సరిగ్గా ": 7417,
      "హే": 7418,
      " దక్షిణ": 7419,
      "వర్స్ ": 7420,
      "అనంత": 7421,
      "తరగతి ": 7422,
      "ఢిల్లీలోని ": 7423,
      " వరద": 7424,
      " కొనుగో": 7425,
      "తల్లిదండ్రులు ": 7426,
      "ప్రెస": 7427,
      "లోప": 7428,
      "స్టిట్యూ": 7429,
      "ినాడ": 7430,
      "ఉంటాయని ": 7431,
      " లాభ": 7432,
      "పొలి": 7433,
      " కార్యదర్శి ": 7434,
      "పనులను ": 7435,
      " సమాచారం ": 7436,
      "వెలుగు ": 7437,
      " తిరుపతి ": 7438,
      "ఎంపీగా ": 7439,
      "పాకిస్థాన్ ": 7440,
      " యూని": 7441,
      "52": 7442,
      "58": 7443,
      "600": 7444,
      "ic": 7445,
      "ol": 7446,
      "గలు ": 7447,
      "నిరూప": 7448,
      " కాక": 7449,
      " అండ": 7450,
      "ట్ ను ": 7451,
      "సీనియ": 7452,
      " విశాఖ": 7453,
      "వస్తున్నార": 7454,
      "సహాయక": 7455,
      "వాదులు ": 7456,
      " సంస్థల": 7457,
      "దృష్టి ": 7458,
      "దృష్టికి ": 7459,
      "చూసుక": 7460,
      "శంకర": 7461,
      "దూరంగా ": 7462,
      " జూన్ ": 7463,
      "నిజామాబాద్ ": 7464,
      "ఐక్య": 7465,
      "ఒడిశ": 7466,
      "ఖండ్ ": 7467,
      "వేర": 7468,
      "నేయ": 7469,
      "నాన్న": 7470,
      "కార్యదర్శ": 7471,
      "కేసుల": 7472,
      " ఓట": 7473,
      "ానని చెప్పార": 7474,
      "నిలిపి": 7475,
      "ఉత్తమ": 7476,
      "పరిస్థితులు ": 7477,
      "చేసుకున్నాడ": 7478,
      " ఇబ్బందులు ": 7479,
      "స్వల్ప": 7480,
      "అథ": 7481,
      "గృహ": 7482,
      "చుకొని ": 7483,
      "డైల": 7484,
      "ప్స్ ": 7485,
      "లో ఉంద": 7486,
      "ుకుత": 7487,
      "డ్\n": 7488,
      "చేయన": 7489,
      " రీ": 7490,
      "గ్రామాల్లో ": 7491,
      "ప్లే ": 7492,
      "మండలంలోని ": 7493,
      "ఇచ్చిన హామ": 7494,
      "లక్ష్మి ": 7495,
      "అంబేద్కర్ ": 7496,
      "మేకర్స్ ": 7497,
      " కంపెనీ ": 7498,
      "అనిల్ ": 7499,
      "నిలుస్త": 7500,
      "ఘటనా స్థల": 7501,
      "అసిస్ట": 7502,
      "దుతున్నార": 7503,
      "ఫీల": 7504,
      "ాళ్ల": 7505,
      "రాసిన ": 7506,
      " వృద్ధ": 7507,
      " వీర": 7508,
      "మారుత": 7509,
      "పెట్టుకున్న": 7510,
      "చివరకు ": 7511,
      "ఇక ": 7512,
      "ులతో కూడిన ": 7513,
      "సర్పంచ": 7514,
      "కలిగిస్త": 7515,
      "ట్రాన్స్ ": 7516,
      "మందికి ": 7517,
      "ఫ్టీ ": 7518,
      "అభివృద్ధి చ": 7519,
      "అధినేత చంద్రబాబు ": 7520,
      " రైతు ": 7521,
      "సులభ": 7522,
      "జైలుకు ": 7523,
      "చెప్తున్నార": 7524,
      "ట్వీట్ చేశార": 7525,
      "తుకమ్మ": 7526,
      "స్టేడియంలో ": 7527,
      "మాయ": 7528,
      "ీప్ ": 7529,
      "నిరాశ": 7530,
      " కన": 7531,
      "స్టో ": 7532,
      "గుప్ప": 7533,
      "ల్క": 7534,
      "ముఖ్యమంత్రిగా ": 7535,
      "అనుసర": 7536,
      "కిలో": 7537,
      "సినిమాల": 7538,
      " ఇంటర్": 7539,
      " ఒత్తి": 7540,
      "ట్రోల్ ": 7541,
      "ఫ్యామిలీ ": 7542,
      "ag": 7543,
      "ండి": 7544,
      "శరీ": 7545,
      "షల": 7546,
      "ీ\"": 7547,
      "ందరూ": 7548,
      " నమ్మ": 7549,
      "పెరుగుతున్న": 7550,
      "కోటి ": 7551,
      "సిఆర్ ": 7552,
      "కారులు ": 7553,
      "వీట": 7554,
      "పిల్ ": 7555,
      " సిద్ధ": 7556,
      "తెరి": 7557,
      "195": 7558,
      "నిర్ణయాలు ": 7559,
      "ఫలితం ": 7560,
      "డాక్టర్లు ": 7561,
      "గ్రేటర్ ": 7562,
      "నిపుణులు ": 7563,
      "56": 7564,
      "a:": 7565,
      "బెల": 7566,
      "రౌ": 7567,
      "సెస్ ": 7568,
      "ేనని ": 7569,
      "ర్డ": 7570,
      " సిక్స": 7571,
      " అనేక": 7572,
      "తో ఆ": 7573,
      "సిఫ": 7574,
      "టీకి ": 7575,
      "క్రో": 7576,
      "డీస్ ": 7577,
      "పరిహారం ": 7578,
      "దుకు ప్రయత్న": 7579,
      "ట్రి": 7580,
      " భవిష్య": 7581,
      "రాజకీయం ": 7582,
      "తప్పు ": 7583,
      "బ్యాల": 7584,
      "కర్నాటక": 7585,
      "ఇందుకోసం ": 7586,
      "జూనియర్ ": 7587,
      "జూలై ": 7588,
      "పిల్లలకు ": 7589,
      " ఏర్పాట": 7590,
      ").\n": 7591,
      "120": 7592,
      "కంగ": 7593,
      "నలకు ": 7594,
      "మద్ద": 7595,
      "ుమ": 7596,
      "ెన్స": 7597,
      "ికి వెళ్ల": 7598,
      "మామి": 7599,
      "లోత": 7600,
      "ాము": 7601,
      "చాలనే ": 7602,
      "ధ్యం ": 7603,
      " సీనియర్ ": 7604,
      "ితో కలిసి ": 7605,
      "ప్రధాని మోడీ ": 7606,
      "కార్యాలయం ": 7607,
      "ాత్మకంగా ": 7608,
      "ప్రయాణికులు ": 7609,
      "ವಿಡಿಯೋ": 7610,
      "జ్యోతి": 7611,
      " తిరుమల": 7612,
      "ఓటర్ల": 7613,
      "జార్": 7614,
      "తదుపరి ": 7615,
      "దామ": 7616,
      "సరి ": 7617,
      "హాలో ": 7618,
      "ప్రవర్త": 7619,
      "నిత్యం ": 7620,
      "క్వా": 7621,
      " కంట": 7622,
      "్తీ ": 7623,
      "చేసుకునే ": 7624,
      " బ్ల": 7625,
      "కావడ": 7626,
      "ద్రంలోని ": 7627,
      "ేషన్స్ ": 7628,
      "య్య,": 7629,
      "భారతదేశ": 7630,
      "బ్రిట": 7631,
      " నేడు ": 7632,
      "ఎవరి ": 7633,
      "ఉద్యోగులకు ": 7634,
      "ఆదేశాల": 7635,
      "కారణమని ": 7636,
      "సెక్రటరీ ": 7637,
      " ఇప్పటికే ": 7638,
      "హాట్ టాప": 7639,
      " #": 7640,
      "క ": 7641,
      "పద్ధ": 7642,
      "బస్త": 7643,
      "యి ": 7644,
      "లసీమ": 7645,
      "హూ": 7646,
      "హక్కు ": 7647,
      "ానికి ర": 7648,
      "రాజస్థాన్ ": 7649,
      "చాల్సి ఉంట": 7650,
      "పూట": 7651,
      "ార్క": 7652,
      "దారిత": 7653,
      "గ్రామీణ": 7654,
      " శాతం మంది ": 7655,
      "రూపాయ": 7656,
      "మాటలు ": 7657,
      " అయితే ": 7658,
      "ప్రభావితం ": 7659,
      " న ": 7660,
      "51": 7661,
      "మ్స": 7662,
      "ుల్ని ": 7663,
      " మండ": 7664,
      "డు రోజుల": 7665,
      " తె": 7666,
      "చేశామని ": 7667,
      "చేయండ": 7668,
      "ఒకర": 7669,
      "మేనని ": 7670,
      "చూపిస్త": 7671,
      " శ్రీని": 7672,
      " B": 7673,
      " .\n": 7674,
      "ी ": 7675,
      "ବା": 7676,
      "చామని ": 7677,
      "ణ్": 7678,
      "లాల్ ": 7679,
      "ృశ్య": 7680,
      "ాల వల్ల": 7681,
      "ాను": 7682,
      "చి బయటకు ": 7683,
      "త్తులో ": 7684,
      "కోచ": 7685,
      "వేర్ ": 7686,
      "కేబినెట్ ": 7687,
      "అందరి ": 7688,
      " నిరస": 7689,
      "వచ్చే అవకాశం ": 7690,
      "్సి వస్త": 7691,
      " శ్రీనివాస": 7692,
      " సోమ": 7693,
      "నాటికి ": 7694,
      "మరికొన్ని ": 7695,
      "ఆవేదన వ్యక్తం చేశార": 7696,
      "ئی ": 7697,
      "డెలి": 7698,
      "తమ్మ": 7699,
      "మికి ": 7700,
      "డిగ్ర": 7701,
      "పై దాడి ": 7702,
      "సీస్ ": 7703,
      "తమను ": 7704,
      "అలవా": 7705,
      "డెడ్ ": 7706,
      "తేజ": 7707,
      " నెలలో ": 7708,
      "సమస్యల": 7709,
      " పుట్ట": 7710,
      "కర్ణాటకలో ": 7711,
      "తిరుమలలో ": 7712,
      " దిశగా ": 7713,
      "అండగా ": 7714,
      "వికెట్లు ": 7715,
      " M": 7716,
      "డుత": 7717,
      "డటం ": 7718,
      "ే\n": 7719,
      " అక్టో": 7720,
      "సిపి ": 7721,
      "పు ప": 7722,
      "దుకు క": 7723,
      "కలిశార": 7724,
      "మేలు ": 7725,
      "మనుష": 7726,
      "సైట": 7727,
      " ఎన్నికలకు ": 7728,
      "సహాయం ": 7729,
      "పొడిగ": 7730,
      "మహేష్ ": 7731,
      "వుతాయ": 7732,
      "చినట్టు ": 7733,
      " ఖమ్మ": 7734,
      "వినిపిస్తున్నాయ": 7735,
      "జినెస్ ": 7736,
      "ే అవకాశమ": 7737,
      "గూగుల్ ": 7738,
      "సీతారామ": 7739,
      "ಿರುವ": 7740,
      "చగల": 7741,
      "నచ్చ": 7742,
      "రజ": 7743,
      "ర‌": 7744,
      "ాలయ": 7745,
      "ానన్నార": 7746,
      "ాం,": 7747,
      "రుపై": 7748,
      "తిరుప": 7749,
      "నేని ": 7750,
      "ట్లు తెలుస్త": 7751,
      "ప్రభుత్వంలో ": 7752,
      "చేసిన వ్యాఖ్య": 7753,
      "మంత్రి కేటీఆర్ ": 7754,
      "సరత్తు ": 7755,
      "సెక్యూరిటీ ": 7756,
      " కేటాయ": 7757,
      " చిన్నార": 7758,
      "కళా": 7759,
      "ఆరోగ్యం ": 7760,
      "కిషన్ రెడ్డి ": 7761,
      ".\"\n": 7762,
      "ec": 7763,
      "تھ": 7764,
      "ేర": 7765,
      "విలో ": 7766,
      " కి ": 7767,
      " మనో": 7768,
      "లోడ్ ": 7769,
      "వారీ ": 7770,
      "వేచి ": 7771,
      " ఇండ్ల": 7772,
      "ధ్యక్ష": 7773,
      "పు\n": 7774,
      "వస్తాయని ": 7775,
      "జనసే": 7776,
      "ఎక్కువ మంది ": 7777,
      "ఓటర్లు ": 7778,
      "మిత్ ": 7779,
      "చనిపోయార": 7780,
      "బ సభ్యుల": 7781,
      " ప్రైవేట్ ": 7782,
      "ఐదుగురు ": 7783,
      "డిజిటల్ ": 7784,
      " కూటమి ": 7785,
      "54": 7786,
      "57": 7787,
      "ఎలక్ష": 7788,
      "డీస": 7789,
      "దుతార": 7790,
      "ిసార్లు ": 7791,
      "ీతం ": 7792,
      "స్వాత": 7793,
      "ీ న": 7794,
      " అంగ": 7795,
      "ముక్క": 7796,
      " హెల": 7797,
      "సమాన": 7798,
      "నియామ": 7799,
      "పై స్పంద": 7800,
      "కిరణ్ ": 7801,
      "వినోద": 7802,
      "నిర్మాత": 7803,
      "ఎఫ్": 7804,
      "ఉచితంగా ": 7805,
      "ఎక్కడా ": 7806,
      "అనిపిస్త": 7807,
      "ఎన్డీఏ": 7808,
      "250": 7809,
      "ai": 7810,
      "ఉదాహరణ": 7811,
      "ఏరియ": 7812,
      "జామ్ ": 7813,
      "ణకు ": 7814,
      "సలు ": 7815,
      "ిడి ": 7816,
      "్వత్రిక": 7817,
      "రుడ": 7818,
      " నూ": 7819,
      "ాన్ని ప": 7820,
      "స్థానాల్లో ": 7821,
      " కార్పొ": 7822,
      "నెలకొన్న": 7823,
      "అభ్యర్": 7824,
      "నిలిచార": 7825,
      "యుక్త": 7826,
      " میں": 7827,
      "క్షమాప": 7828,
      "ధునిక": 7829,
      "తక": 7830,
      "హమాస్ ": 7831,
      " ఇన్": 7832,
      "బాస్ ": 7833,
      "దిశగా ": 7834,
      "ఫోర్స్ ": 7835,
      "బుద్ధ": 7836,
      "ుక్రె": 7837,
      "శంకుస్థాప": 7838,
      " అనంతరం ": 7839,
      " ఎకరాల్లో ": 7840,
      "ఇన్వెస్ట": 7841,
      "తొమ్మిది ": 7842,
      "అమర": 7843,
      "తానికి ": 7844,
      "మ్": 7845,
      "లు అంద": 7846,
      "ువల్ ": 7847,
      " చీ": 7848,
      "వాతావరణం ": 7849,
      "పై ఉన్న": 7850,
      "టారని ": 7851,
      "పొల": 7852,
      "తెలుసుకున్నార": 7853,
      "కు చేరుక": 7854,
      " నిమిషాల": 7855,
      " ಎ": 7856,
      "گیا ": 7857,
      "ఇంద్ర": 7858,
      "కడు": 7859,
      "గడు": 7860,
      "బంలో ": 7861,
      "బడ్డ": 7862,
      " అంబ": 7863,
      "వాటిలో ": 7864,
      " ఇచ్చ": 7865,
      "పేస్ ": 7866,
      "మొన్న": 7867,
      "పెట్టాల": 7868,
      "జరిగితే ": 7869,
      "చెబుతార": 7870,
      "చనున్నట్లు ": 7871,
      "శ్చ": 7872,
      "ాళాఖ": 7873,
      "విచారణ జ": 7874,
      "విద్యార్థి ": 7875,
      " పరిస్థితులు ": 7876,
      " రోడ్డు ": 7877,
      "di": 7878,
      "ఉత్కంఠ": 7879,
      "త్న": 7880,
      "మైనా ": 7881,
      "ిడ": 7882,
      "ోపాటు ": 7883,
      "ను ప్రారంభ": 7884,
      "చి మాట్లాడ": 7885,
      "క్షన్ల": 7886,
      " రక్షణ": 7887,
      " చికిత్స": 7888,
      "పీఎస్సీ ": 7889,
      "దని చెబుతున్నార": 7890,
      "పరిణామ": 7891,
      "అడ్మి": 7892,
      " సంవత్సర": 7893,
      "గెలిచ": 7894,
      "సౌక": 7895,
      "హాజరుక": 7896,
      " ఉత్తర": 7897,
      "అరు": 7898,
      "ఏజ": 7899,
      "దుతున్న": 7900,
      "బలోపే": 7901,
      "ాని ": 7902,
      "ొర": 7903,
      "ం ఉంద": 7904,
      "పోల్": 7905,
      " నా ": 7906,
      "ాది": 7907,
      "ేశాడ": 7908,
      "ళ్లతో ": 7909,
      "తీసి ": 7910,
      "డిపాజి": 7911,
      "యోజక వర్గ": 7912,
      "వివరణ": 7913,
      "సర్వీస్ ": 7914,
      " దాడులు ": 7915,
      " స్థానంలో ": 7916,
      "సిద్దం ": 7917,
      " కమిషన్ ": 7918,
      "ఆలోచన ": 7919,
      " కొనసాగుత": 7920,
      "అమరావతి ": 7921,
      "లబ్ధి": 7922,
      "ہے ": 7923,
      "ుమూ": 7924,
      "ోహ": 7925,
      "ారావ": 7926,
      "రావడానికి ": 7927,
      " ఎస్స": 7928,
      "పుచ్చ": 7929,
      " ఏళ్లు ": 7930,
      "జీని ": 7931,
      " ఫీ": 7932,
      "కెన": 7933,
      " పార్టీలో ": 7934,
      "బంగారు ": 7935,
      "చుకున్నాడ": 7936,
      "వినిపిస్త": 7937,
      "తమిళనాడు ": 7938,
      "బంగ్లాదేశ్ ": 7939,
      " డిమ": 7940,
      " స్థానిక": 7941,
      "అక్ష": 7942,
      "ఫర": 7943,
      "సన ": 7944,
      "ాథ": 7945,
      "స్ధ": 7946,
      "ప్రచుర": 7947,
      "లో మ": 7948,
      "లో స": 7949,
      "చి వచ్చిన ": 7950,
      "రాజమ": 7951,
      "పడక": 7952,
      "ఉండట": 7953,
      "కలె": 7954,
      "తెలంగాణకు ": 7955,
      " సిబ్బంద": 7956,
      "రామచంద్ర": 7957,
      "పోర్ట్స్ ": 7958,
      "పలు ప్ర": 7959,
      "ఈ పథ": 7960,
      "్యుయ": 7961,
      "యాక్ట్ ": 7962,
      "రఘు": 7963,
      "క్వార్ట": 7964,
      " శ్రీనివాస్ ": 7965,
      "ంవల్ల": 7966,
      "ఈవీ": 7967,
      "గర్": 7968,
      "పుల్ ": 7969,
      "ే:": 7970,
      "విలీ": 7971,
      " మల్ల": 7972,
      "చెక్క": 7973,
      "ుగానే ": 7974,
      " దాదాపు ": 7975,
      "వర్ధ": 7976,
      "వెబ్ ": 7977,
      " చని": 7978,
      "తీస్త": 7979,
      "పడతాయ": 7980,
      "వచ్చినట్లు ": 7981,
      "ట్రైన": 7982,
      "సమాధాన": 7983,
      "వ్యాధ": 7984,
      "అతన్ని ": 7985,
      "ఫోర్స": 7986,
      "బాల్ ": 7987,
      " అధికారి ": 7988,
      "తుమ్మ": 7989,
      "నియోజకవర్గం ": 7990,
      "నోటిఫికేషన్ ": 7991,
      "ఆర్థికంగా ": 7992,
      " అభిప్రాయ": 7993,
      " సహాయ": 7994,
      "ఎంపిక ": 7995,
      "చెలరేగ": 7996,
      "(A": 7997,
      "78": 7998,
      "ند": 7999,
      "గి ": 8000,
      "డ్యా": 8001,
      "నాణ్య": 8002,
      "ల మధ్య": 8003,
      "హాల్ ": 8004,
      "ಂಬ": 8005,
      "ులోనే ": 8006,
      "చేర్": 8007,
      "నివాళ": 8008,
      "ను క": 8009,
      " ఆగ్రహం ": 8010,
      "తీసిన ": 8011,
      "లోని ఓ": 8012,
      "చిరుత": 8013,
      "ుకు సంబంధ": 8014,
      "డు\n": 8015,
      "ఎంఐ": 8016,
      "ఎలాగ": 8017,
      "యాదాద్రి ": 8018,
      "పంజాబ్ ": 8019,
      "వ తేదీ వరకు ": 8020,
      "వైసీపీకి ": 8021,
      "అద్భుతమైన ": 8022,
      "ఆకట్టుక": 8023,
      "ಂದು ": 8024,
      "అస్స": 8025,
      "టిన": 8026,
      "ఫండ": 8027,
      "బ‌": 8028,
      "బంత": 8029,
      "ాతో ": 8030,
      "ో-": 8031,
      "్సీ": 8032,
      "నివాసం ": 8033,
      "కాబట్ట": 8034,
      " ఆర": 8035,
      " ఆధ్వర్యంలో ": 8036,
      " ఆస్ట్రేలియ": 8037,
      " రక్త": 8038,
      "బీఆర్ ఎస్ ": 8039,
      "టివి ": 8040,
      "ల్\n": 8041,
      "తరలి": 8042,
      "జాబ": 8043,
      "జగదీ": 8044,
      "రాజకీయాల్లో ": 8045,
      "భూముల": 8046,
      "ఎవరికీ ": 8047,
      "న్యాయవాది ": 8048,
      " తో ": 8049,
      "దంట": 8050,
      "నల్ ": 8051,
      "రీల": 8052,
      "ెలు ": 8053,
      " సంచ": 8054,
      " పట్ల": 8055,
      "క్షన్స్ ": 8056,
      " తనకు ": 8057,
      "గుణ": 8058,
      "కానిస్టే": 8059,
      " జయ": 8060,
      " విస్త": 8061,
      " వివిధ": 8062,
      " చుట్ట": 8063,
      "కరకాల": 8064,
      "ర్త్ ": 8065,
      " ఫొ": 8066,
      " క్రీ": 8067,
      "ముగియ": 8068,
      "చేసినట్టు ": 8069,
      "శేఖర": 8070,
      "un": 8071,
      "ఇటు ": 8072,
      "ఉద్రిక్త": 8073,
      "ఎకర": 8074,
      "డిన ": 8075,
      "తాలను ": 8076,
      "పులకు ": 8077,
      "బుక": 8078,
      "ి'": 8079,
      "్వి": 8080,
      " మా ": 8081,
      " అయ్య": 8082,
      "సీజ్ ": 8083,
      "కోస": 8084,
      "ువల్ల": 8085,
      " వివాద": 8086,
      "మిషన్ ": 8087,
      "డీఏ": 8088,
      "హైకోర్టులో ": 8089,
      "కాదశ": 8090,
      "కొనసాగుతున్న": 8091,
      "తిరుమ": 8092,
      " మార్చి ": 8093,
      "ప్రధానమంత్రి ": 8094,
      "మేకర్స": 8095,
      "ఏమైనా ": 8096,
      " టె": 8097,
      "um": 8098,
      "رو": 8099,
      "రాడ": 8100,
      " సన్న": 8101,
      " పం": 8102,
      " ప్రే": 8103,
      "ర్యాన": 8104,
      "సుఖ": 8105,
      "గ్రెస్ పార్టీలో ": 8106,
      "మ్మెల్సీ": 8107,
      "వచ్ఛ": 8108,
      " کو": 8109,
      "ఒక్కొక్క": 8110,
      "అప్పుడే ": 8111,
      "పనిచేశార": 8112,
      "ఇస్తే ": 8113,
      "పండ్ల": 8114,
      "ప్రాజెక్ట్ ": 8115,
      "పాల్పడ్డ": 8116,
      " మాత్రమే ": 8117,
      "ఆమోదం ": 8118,
      "దుకాణ": 8119,
      "తేల్చి ": 8120,
      "కస్టమ": 8121,
      "హాస్పిటల్ ": 8122,
      "ట్విట్టర్ ": 8123,
      "నేతృత్వంలోని ": 8124,
      "కోర్టును ఆశ్రయ": 8125,
      "یہ ": 8126,
      "కండ్ ": 8127,
      "కపోతే ": 8128,
      "దానం ": 8129,
      "సూపర": 8130,
      "చే ప్రయత్న": 8131,
      "ుకుల": 8132,
      "మెత్త": 8133,
      "దేశాల": 8134,
      "పీఐ": 8135,
      "జీగా ": 8136,
      "గ్రెస్ కు ": 8137,
      "ఇంటెలిజె": 8138,
      "దేనని ": 8139,
      "పిఠా": 8140,
      "కామారెడ్డి ": 8141,
      " వేల కోట్ల": 8142,
      " ఇండియ": 8143,
      " వాళ్ల": 8144,
      " సమీప": 8145,
      "కూతురు ": 8146,
      " అవినీ": 8147,
      "పిటీషన్ ": 8148,
      "ఎద్దేవా చేశార": 8149,
      "as": 8150,
      "ఈ క": 8151,
      "ఈ సం": 8152,
      "తామ": 8153,
      "హర్ష": 8154,
      "ా?": 8155,
      "స్తరు ": 8156,
      "పైల": 8157,
      "ానికి మ": 8158,
      " ఆసుపత్ర": 8159,
      "వేల ": 8160,
      "వచ్చినా ": 8161,
      " లేఖ": 8162,
      "రీలో ": 8163,
      "సుప": 8164,
      "భారతదేశంలో ": 8165,
      "జ్ లో ": 8166,
      "ివ్ ": 8167,
      "దితులు ": 8168,
      "మృతి\n": 8169,
      " పురుష": 8170,
      " విజయవాడ": 8171,
      "శరీరంలో ": 8172,
      " నియామ": 8173,
      " తల్లిదండ్ర": 8174,
      "భట్టి విక్రమార్క": 8175,
      "నాశనం ": 8176,
      "నెల్ల": 8177,
      "పర్వ": 8178,
      "మైతే ": 8179,
      "లైన ": 8180,
      "ళం ": 8181,
      "హస్త": 8182,
      "స్ఫూ": 8183,
      "చే ": 8184,
      " సమ్మ": 8185,
      "ాం\"\"": 8186,
      "స్టాల": 8187,
      " బడ్జెట్ ": 8188,
      "రెడ్ ": 8189,
      "నిర్ధార": 8190,
      "అలర్ట్ ": 8191,
      " గ్రాముల": 8192,
      "చేయడంలో ": 8193,
      "ఆహారం ": 8194,
      "దానిపై": 8195,
      "పార్క": 8196,
      "అటవీ ": 8197,
      "డీకే శివకుమార్ ": 8198,
      "ఒకేసారి ": 8199,
      "ఆం": 8200,
      "ఆటో": 8201,
      "టప్పుడు ": 8202,
      "నవ్వ": 8203,
      "వరిలో ": 8204,
      "ೈರ": 8205,
      "న్నర": 8206,
      " కస్ట": 8207,
      "గుడి": 8208,
      " బార": 8209,
      "ముట్ట": 8210,
      "మున్సిపాల": 8211,
      "రోజా ": 8212,
      "తెలంగాణ ప్రభుత్వం ": 8213,
      "సాగు": 8214,
      " ఫోట": 8215,
      "వ్యాప": 8216,
      "సైజ్ ": 8217,
      "కొనసాగుతున్నాయ": 8218,
      "మాజీ ఎమ్మెల్యే ": 8219,
      "ఈ సమస్య": 8220,
      "వరంగల": 8221,
      "ఢీకొట్ట": 8222,
      " పాకిస్త": 8223,
      "లిమిటెడ్ ": 8224,
      "ప్రాతిని": 8225,
      "తెల్లవారుజామున ": 8226,
      "ir": 8227,
      "ఓవర్": 8228,
      "శిల": 8229,
      "ದಲ್ಲಿ ": 8230,
      "ికాప": 8231,
      "విరుద్ధ": 8232,
      " పేద": 8233,
      " ఆ తర్వాత": 8234,
      "కారులో ": 8235,
      " చూప": 8236,
      "ఉండడంతో ": 8237,
      "సుధ": 8238,
      "బోధ": 8239,
      " ఎన్నికల ": 8240,
      " వారీగా ": 8241,
      "డెన": 8242,
      "అయ్యాడ": 8243,
      "కార్మికుల": 8244,
      "గళూరులో ": 8245,
      " సోషల్ మీడియాలో ": 8246,
      "نگ": 8247,
      "ఈ ఎన్నికల్లో ": 8248,
      "గజ": 8249,
      "గై": 8250,
      "గాల్ ": 8251,
      "చీ ": 8252,
      "డలో ": 8253,
      "శని ": 8254,
      "ు'": 8255,
      "ెడ్డి ": 8256,
      "ం నిర్వహ": 8257,
      "నితీ": 8258,
      " పత్ర": 8259,
      " వంట": 8260,
      "చి కూడా ": 8261,
      "లోగా ": 8262,
      "తో సహా ": 8263,
      " భవ": 8264,
      "వ్యక్తమ": 8265,
      "గిపోత": 8266,
      "ఇవ్వలేద": 8267,
      " ఓట్లు ": 8268,
      "ఇంది": 8269,
      " తేదీల్లో ": 8270,
      "హాస్ట": 8271,
      "చిత్రం ": 8272,
      "యూనివర్సిటీ": 8273,
      " ఆందోళన ": 8274,
      "، ": 8275,
      "గలిగ": 8276,
      "వుతున్న": 8277,
      "ే?\n": 8278,
      "స్న": 8279,
      "స్వి": 8280,
      "న్నే ": 8281,
      " కల్ప": 8282,
      "చేసుకోవాలని ": 8283,
      " జరుగుతున్న": 8284,
      "చెప్పే ": 8285,
      "వలన ": 8286,
      "న్యూస": 8287,
      "చేపట్టాలని ": 8288,
      " మెద": 8289,
      "చేయడం వల్ల": 8290,
      " సమస్యల": 8291,
      "రిలీజ": 8292,
      " కొనసాగ": 8293,
      "తెలంగాణ రాష్ట్రంలో ": 8294,
      "వన్డే ": 8295,
      "ఆపరేషన్ ": 8296,
      " ఇటీవల": 8297,
      " ସ": 8298,
      "68": 8299,
      "దుకే ": 8300,
      "పలు": 8301,
      "పవన": 8302,
      "లక్": 8303,
      "శాయ": 8304,
      "సుకు": 8305,
      "ుపు ": 8306,
      "ొన్నార": 8307,
      "ವನ್ನು ": 8308,
      " సే": 8309,
      "మాస్టర్ ": 8310,
      "ాజ్ ": 8311,
      "లేకపోతే ": 8312,
      "నగరం ": 8313,
      "పల్లె": 8314,
      "ుతో పాటు ": 8315,
      "ౌలిక": 8316,
      "ట్రాన్స": 8317,
      "పురంలో ": 8318,
      "డియాకు ": 8319,
      "వాటికి ": 8320,
      "తేలిక": 8321,
      " సమావేశంలో ": 8322,
      "పేదలకు ": 8323,
      "ద్ర మోడీ ": 8324,
      " ಬ": 8325,
      " స్థాయి ": 8326,
      "72": 8327,
      "ఔట": 8328,
      "టినీ ": 8329,
      "ఫు": 8330,
      "బియ": 8331,
      "సెల్ ": 8332,
      "ం చేశార": 8333,
      "క్సిడ": 8334,
      "చేస్తామన్నార": 8335,
      "పేర్లు ": 8336,
      "రాష్ట్ర వ్యాప్తంగా ": 8337,
      "ఉండేలా ": 8338,
      "పోయే ": 8339,
      "ల గుర": 8340,
      " ఫ్యా": 8341,
      "ఇంటర్ ": 8342,
      "పెద్దపల్లి ": 8343,
      "ఇక ఈ": 8344,
      "194": 8345,
      "దితులను ": 8346,
      " ఓటు ": 8347,
      "చూడాలని ": 8348,
      "క్యాన్సర్ ": 8349,
      "ఫలితంగా ": 8350,
      "అధికారంలోకి వస్తే ": 8351,
      "స్పెక్ట": 8352,
      "త్న ": 8353,
      "వ తేదీ న": 8354,
      "అడిగి ": 8355,
      "కాలేజీ ": 8356,
      "చుట్టూ": 8357,
      " ఎంపిక": 8358,
      "అజ": 8359,
      "ఓవర్ ": 8360,
      "టౌన": 8361,
      "ఫామ": 8362,
      "ప్రతీ": 8363,
      "లో ఆయన ": 8364,
      "రాకపో": 8365,
      " అంట": 8366,
      " విన": 8367,
      "చెప్పడం ": 8368,
      "మూసి": 8369,
      "ఈ సీ": 8370,
      "కృతి ": 8371,
      "ధర ": 8372,
      "రంగారెడ్డి ": 8373,
      "తెలిపిన ": 8374,
      "అత్యవసర": 8375,
      "కలిగిన ": 8376,
      "నాయక్ ": 8377,
      " ఆదాయం ": 8378,
      "ంతృప్త": 8379,
      " మద్దతు ": 8380,
      " ఊ": 8381,
      "అదే": 8382,
      "అరుణ": 8383,
      "అవార్డ": 8384,
      "ఏసీబీ ": 8385,
      "గల్ల": 8386,
      "జంట": 8387,
      "తగిల": 8388,
      "ె,": 8389,
      "్‌\n": 8390,
      " మంగళ": 8391,
      "ంగా ఉందని ": 8392,
      "పై ప": 8393,
      "క్షోభ": 8394,
      " బస్స": 8395,
      " ఎలా ": 8396,
      "ది క": 8397,
      "మీర": 8398,
      "చిన విషయం తెలిస": 8399,
      "కుమార్తె": 8400,
      " సీట్ల": 8401,
      "మహా": 8402,
      "శ్వాసం ": 8403,
      "బయటికి ": 8404,
      " భూమి ": 8405,
      " చట్టం ": 8406,
      "పియన్ ": 8407,
      " శుభ": 8408,
      " డ్ర": 8409,
      "وائ": 8410,
      "ఇల్లు ": 8411,
      "జాయ": 8412,
      "లండ": 8413,
      "ేస్త": 8414,
      "‌లో ": 8415,
      " తక్కువ": 8416,
      "ద్దీన్ ": 8417,
      "సిరీస": 8418,
      "సిగ్న": 8419,
      " విద్యా": 8420,
      "కలగ": 8421,
      "బెస్ట్ ": 8422,
      "ప్రారంభమ": 8423,
      "మొత్తంగా ": 8424,
      "విడుదల చేసిన ": 8425,
      "భావిస్తున్న": 8426,
      " తీసుక": 8427,
      "చార్జ్ ": 8428,
      "పద్మ": 8429,
      "గ్యాస్ ": 8430,
      "పార్ట్ మ": 8431,
      "సీతక్క": 8432,
      ", ర": 8433,
      ", గ": 8434,
      "ఏళ్ల": 8435,
      "మాన్ ": 8436,
      "యొక్క": 8437,
      "ಿಂ": 8438,
      " కావ": 8439,
      "ాం:": 8440,
      "మాని": 8441,
      "పారిపోయ": 8442,
      "టీచ": 8443,
      "ీలతో ": 8444,
      "ద్రాబాద": 8445,
      "వెబ": 8446,
      "కల్వ": 8447,
      "డీవో ": 8448,
      "చిల": 8449,
      "పొర": 8450,
      "పత్రం ": 8451,
      "జీవో ": 8452,
      " జనవరి ": 8453,
      "చుట్టు": 8454,
      "ఓపెన": 8455,
      "ఆసుపత్రిలో ": 8456,
      "వాదనలు ": 8457,
      " ఉదయం ": 8458,
      "డౌన్ ": 8459,
      "రూర": 8460,
      "‌న ": 8461,
      "చి ఆ": 8462,
      "స్టర": 8463,
      "ాలు అంద": 8464,
      " తల్లి ": 8465,
      "లిలో ": 8466,
      " ఇన్ ": 8467,
      "అవమాన": 8468,
      "లకు పైగా ": 8469,
      "ప్రపంచంలోనే ": 8470,
      "ేటప్పుడు ": 8471,
      "ప్రదాయ": 8472,
      "అరెస్టు చేశార": 8473,
      "ాల్సిన అవసరం ": 8474,
      " వాహన": 8475,
      "తూర్పు ": 8476,
      "భోజనం ": 8477,
      "తెలుగులో ": 8478,
      ")\n": 8479,
      "ଙ୍": 8480,
      "పచ్చ": 8481,
      "బాయ్ ": 8482,
      "ాన్": 8483,
      "ుల మధ్య": 8484,
      "ంలో భాగంగా ": 8485,
      "వారితో ": 8486,
      "సిస్ ": 8487,
      "సంకే": 8488,
      "మెసే": 8489,
      "బీర్ ": 8490,
      "పరిసర": 8491,
      "జీర్ణ": 8492,
      "జీవితం ": 8493,
      "అనుమానం ": 8494,
      "ఫ్రీ ": 8495,
      "మంచు ": 8496,
      "లక్ష్మీ": 8497,
      "లక్ష్మీ ": 8498,
      " మాజీ మంత్రి ": 8499,
      " కంపెనీ": 8500,
      "అదనంగా ": 8501,
      " సాయంత్రం ": 8502,
      " అమెరికా ": 8503,
      " సర్వే ": 8504,
      "పర్యవేక్ష": 8505,
      "హాట్ టాపిక్ ": 8506,
      "۔\n": 8507,
      "ఘన ": 8508,
      "పది": 8509,
      "సున్న": 8510,
      "క్సీ": 8511,
      "రు\n": 8512,
      "కోసమే ": 8513,
      "ఆర్టి": 8514,
      "ాలను కూడా ": 8515,
      "న్యవాద": 8516,
      " నెలల": 8517,
      " పేర్": 8518,
      "పనుల": 8519,
      "ఉదయ": 8520,
      "తయారు": 8521,
      "మాసనం ": 8522,
      "సరికాద": 8523,
      "తాత్": 8524,
      "పసుపు ": 8525,
      " د": 8526,
      "କୁ ": 8527,
      "ఆప్": 8528,
      "ఓటీ": 8529,
      "టర్": 8530,
      "పరామర్శ": 8531,
      "రవాణా ": 8532,
      "సబ": 8533,
      "హ్యా": 8534,
      "ಾನ": 8535,
      "లో కనిప": 8536,
      "చేతులు ": 8537,
      "ందుక": 8538,
      "ితులు ": 8539,
      "వాదా": 8540,
      " ప్రి": 8541,
      "వేర్వే": 8542,
      "అధిష్ట": 8543,
      "వైస్ ": 8544,
      "ఆయుధ": 8545,
      " హి": 8546,
      "బెడ్ ": 8547,
      "టీడీపీ": 8548,
      "మధ్యలో ": 8549,
      " ప్రజలను ": 8550,
      "గెలుస్త": 8551,
      " పాలన ": 8552,
      "చనిపోయిన ": 8553,
      "ఏర్పడిన ": 8554,
      "కేశ": 8555,
      "కిలో ": 8556,
      "గల్ ": 8557,
      "జున": 8558,
      "ుడి": 8559,
      "ేని ": 8560,
      "್ಟ": 8561,
      "ారెక్ట": 8562,
      " ప్ర‌": 8563,
      " బు": 8564,
      "కార్ల": 8565,
      " ఇంగ్ల": 8566,
      "ఆర్డర్ ": 8567,
      " హయ": 8568,
      "ట్రోల": 8569,
      "ఇప్పుడ": 8570,
      "తొక్క": 8571,
      "ముఖ్యమంత్ర": 8572,
      "ఇచ్చాడ": 8573,
      " స్పె": 8574,
      " మంత్రిత్వ శాఖ": 8575,
      "నిలబెట్ట": 8576,
      " వెనుక": 8577,
      "తీసుకొచ్చార": 8578,
      "హౌస": 8579,
      "మంచిర్యాల": 8580,
      " జాబితాలో ": 8581,
      " తెలంగాణలో ": 8582,
      "(S": 8583,
      "لا": 8584,
      "ంకర": 8585,
      "దాకా ": 8586,
      "రష": 8587,
      "ీప": 8588,
      "ేసి ": 8589,
      " గ్యా": 8590,
      "దని ఆరోప": 8591,
      "మూవీ": 8592,
      " విషయాన్ని ": 8593,
      "అతడు ": 8594,
      " వేల మంది ": 8595,
      "జైల్లో ": 8596,
      "గాలి ": 8597,
      "తికూల": 8598,
      "రెడ్డి": 8599,
      "దీపావ": 8600,
      "బీసీసీఐ": 8601,
      " కలెక్టర్ ": 8602,
      "ఛార్జ్ ": 8603,
      " చేస్త": 8604,
      "టాటా ": 8605,
      "యుక్రె": 8606,
      "ష్ర": 8607,
      "సీసీ": 8608,
      "ిజ్య": 8609,
      "ికల": 8610,
      "విన్ ": 8611,
      " మృత": 8612,
      "ికి చ": 8613,
      "మావ": 8614,
      "్మాన్ ": 8615,
      "రెవెన్యూ": 8616,
      " విశ": 8617,
      " ఎంత": 8618,
      "అయిపోయ": 8619,
      "వైయ": 8620,
      "పెట్టాలని ": 8621,
      "సమక్షంలో ": 8622,
      " పరిశ్రమ": 8623,
      " నేపథ్య": 8624,
      "శ్రీధర్ ": 8625,
      "అప్పటి న": 8626,
      "చడమే ": 8627,
      "జోన్ ": 8628,
      "ాయిలు ": 8629,
      "జరగనున్నాయ": 8630,
      "ఇంటర్నేషనల్ ": 8631,
      "టిక్కె": 8632,
      " బయట": 8633,
      " ಹ": 8634,
      "--": 8635,
      "ఆ ప్ర": 8636,
      "తరు": 8637,
      "బన్ ": 8638,
      "్/": 8639,
      "ೆ.": 8640,
      "ికక్కడ": 8641,
      "ని తెలిపార": 8642,
      "ున్నర": 8643,
      "ాయర్ ": 8644,
      "ాయిల": 8645,
      "ఉన్నాడ": 8646,
      " ఇంటి ": 8647,
      "కలసి ": 8648,
      " హో": 8649,
      "ిల్స": 8650,
      " వేస": 8651,
      "లేటెస్ట్ ": 8652,
      "దేళ్లలో ": 8653,
      "పనిచేసే ": 8654,
      "ఫలితాలను ": 8655,
      "రుస్తాయని ": 8656,
      "ing": 8657,
      "డాక్యుమ": 8658,
      "ఘర్షణ": 8659,
      "గ్లోబల్ ": 8660,
      "ాళాఖాత": 8661,
      "69": 8662,
      "ఖచ్చితంగా ": 8663,
      "చే అవకాశ": 8664,
      " కలిగ": 8665,
      " పున": 8666,
      " వాయ": 8667,
      " ప్రభా": 8668,
      "త్తుల": 8669,
      "త్తీస": 8670,
      "లేదు ": 8671,
      "ద్రానికి ": 8672,
      "సెగ్మ": 8673,
      "నిర్ణయాన్ని ": 8674,
      "డ్రా ": 8675,
      "స్థితిలో ": 8676,
      "కోరుతూ": 8677,
      "బ్యార": 8678,
      "ఆడిన ": 8679,
      "సీనియర్ నేత": 8680,
      "తీసుకెళ్లార": 8681,
      " కిలోల": 8682,
      " Re": 8683,
      "అమరావత": 8684,
      " గొడవ": 8685,
      "ఈ అంశ": 8686,
      "ఐఆర్ ": 8687,
      "కమైన ": 8688,
      "జరీ ": 8689,
      "పదేళ్ల": 8690,
      "ుక్క": 8691,
      "ట్టే ": 8692,
      "కాష్ ": 8693,
      "వేచ్ఛ": 8694,
      "యాబె": 8695,
      "గ్రెస్ నేత": 8696,
      "రగోళ": 8697,
      "మండి": 8698,
      "రంగు ": 8699,
      "ాహి ": 8700,
      "తక్కువగా ": 8701,
      "భారీ వర్షాల": 8702,
      " రైతులు ": 8703,
      "వెనక": 8704,
      "పార్క్ ": 8705,
      " పవన్ కళ్యాణ్ ": 8706,
      "సంప్రదాయ": 8707,
      "రిజర్వ్ ": 8708,
      "దారుణ": 8709,
      " ఆదాయ": 8710,
      "సానుకూల": 8711,
      " N": 8712,
      "ఈ ద": 8713,
      "ఈ వీడియో ": 8714,
      "ఐసీసీ ": 8715,
      "టన్ ": 8716,
      "నపై": 8717,
      "పుతున్నార": 8718,
      "భి": 8719,
      "షభ": 8720,
      "హాలు ": 8721,
      "్క": 8722,
      "్...\n": 8723,
      "విజే": 8724,
      "ాయామ": 8725,
      " వహ": 8726,
      " అల్ల": 8727,
      "చేసుకున": 8728,
      "మెజార": 8729,
      "వీలు ": 8730,
      "డీజీ": 8731,
      "దీక్ష": 8732,
      "నిర్వహిస్తున్న": 8733,
      "అల్ప": 8734,
      "వర్గం ": 8735,
      "రంగంలో ": 8736,
      " స్నే": 8737,
      "విద్యా ": 8738,
      "ఆలయంలో ": 8739,
      "అడ్వ": 8740,
      "మొదలైన ": 8741,
      "గాయాల": 8742,
      "తెలుగు రాష్ట్రాల్లో ": 8743,
      "పరీక్షలు ": 8744,
      " ప్రకటనలో ": 8745,
      " పదార్థ": 8746,
      "డ్యుక": 8747,
      "భువనగ": 8748,
      "పెట్టుబడులు ": 8749,
      "కమ్యూని": 8750,
      "ఎలి": 8751,
      "ఎమో": 8752,
      "ఔట్ ": 8753,
      "చలేక": 8754,
      "తమైన ": 8755,
      "హర్ ": 8756,
      "వివ": 8757,
      " అక": 8758,
      "ామ్న": 8759,
      " నష్టం ": 8760,
      "వేడి ": 8761,
      "అయి": 8762,
      "మంత్రివర్గ": 8763,
      "అలీ ": 8764,
      " సిద్ద": 8765,
      " కూతు": 8766,
      "న్లలో ": 8767,
      "లైఫ్ ": 8768,
      "కీలకమైన ": 8769,
      "రూపంలో ": 8770,
      "ప్రాథమిక": 8771,
      "ఆఫ్ ఇండియా ": 8772,
      "వ్యవహరిస్త": 8773,
      "సందే": 8774,
      "నాగార్జ": 8775,
      "ఈ విషయంలో ": 8776,
      "వ్యూలో ": 8777,
      "ఆందోళన చ": 8778,
      "వాయిదా వేస": 8779,
      "ప్రారంభం కాన": 8780,
      " భాష": 8781,
      " పరిష్కార": 8782,
      " భారతీయ": 8783,
      "ఛైర్మన్ ": 8784,
      "డమే ": 8785,
      "పావ": 8786,
      "హాద": 8787,
      "్ఞ": 8788,
      "‌న్ ": 8789,
      "కు వెళ్లి ": 8790,
      "విమానం ": 8791,
      "ందరగోళ": 8792,
      " కౌ": 8793,
      "రాఘ": 8794,
      " అర": 8795,
      "ాలు చేశార": 8796,
      "తిపై": 8797,
      "గత ఏడాది ": 8798,
      "ివేశ": 8799,
      "సెక్షన్ ": 8800,
      "ప్లాన": 8801,
      "అత్యా": 8802,
      " వైరల్ ": 8803,
      "పనిచేసిన ": 8804,
      "జరగక": 8805,
      "వేయాల": 8806,
      "విషయాలు ": 8807,
      "దర్ రెడ్డి ": 8808,
      "మ్యూజిక్ ": 8809,
      "వంశీ": 8810,
      " రద్దీ ": 8811,
      "రాజీవ్ ": 8812,
      "64": 8813,
      "జట్లు ": 8814,
      "డంత": 8815,
      "మగ": 8816,
      "యితే ": 8817,
      "వదుల": 8818,
      "సదరు ": 8819,
      "హేమ": 8820,
      "నిగా ": 8821,
      "క్తిగా ": 8822,
      " పక్క": 8823,
      " బ్యా": 8824,
      "రెస్ప": 8825,
      "వేముల": 8826,
      "అవుట్ ": 8827,
      " హరీ": 8828,
      "నిర్వహిస్తున్నార": 8829,
      "చాలని డిమ": 8830,
      "బ్ నగర్ ": 8831,
      "లతో పాటు ": 8832,
      "సిద్ధరామయ్య": 8833,
      "నటుడు ": 8834,
      " పాల్గ": 8835,
      " సంఖ్య ": 8836,
      " చిత్రం ": 8837,
      "ళ్ళీ ": 8838,
      "సన్నిహిత": 8839,
      "జట్టులో ": 8840,
      "బ్యాక్ ": 8841,
      "అర్హత": 8842,
      "సహాయపడుత": 8843,
      "భవిష్యత్ ": 8844,
      "వివాహం ": 8845,
      "క్రికెట": 8846,
      "మేనేజ": 8847,
      "బయలుదేరి ": 8848,
      " మొదటి ": 8849,
      "నిరాకర": 8850,
      "నిలదీశార": 8851,
      "67": 8852,
      "ur": 8853,
      "ఘాట": 8854,
      "చాక": 8855,
      "్డ్ ": 8856,
      "స్కార": 8857,
      "ులా ": 8858,
      " మన ": 8859,
      "ట్ న": 8860,
      "వారంతా ": 8861,
      "డా పోయ": 8862,
      " ఏడాద": 8863,
      " కారు ": 8864,
      "ాలకు సంబంధ": 8865,
      "యూజ": 8866,
      "ినట్లు తెలుస్త": 8867,
      " మున్సిపల్ ": 8868,
      "ప్రయత్నిస్తున్నార": 8869,
      "పదవికి ": 8870,
      "ఆస్పత్రిలో ": 8871,
      "దొరక": 8872,
      "ుకునేలా ": 8873,
      "ఇరాన్ ": 8874,
      "సౌకర్య": 8875,
      " ن": 8876,
      " చేసి ": 8877,
      " భారత్ ": 8878,
      "డట": 8879,
      "నాన్ ": 8880,
      "యర": 8881,
      "యల్ ": 8882,
      "రంజ": 8883,
      "లన": 8884,
      "లో చేర": 8885,
      "చారిత్ర": 8886,
      "స్టులు ": 8887,
      "వెయ్యి ": 8888,
      " ఇదే ": 8889,
      " హీరో ": 8890,
      "నీళ్ల": 8891,
      "కటస్వామి ": 8892,
      "అయ్యే ": 8893,
      "చేయాలన్నార": 8894,
      "ుకొన": 8895,
      "అభిప్రాయం ": 8896,
      "ప్రపంచంలో ": 8897,
      "వాళ్లను ": 8898,
      "నిజానికి ": 8899,
      "భద్రాచల": 8900,
      "చేసుకోవడం ": 8901,
      "సినిమాల్లో ": 8902,
      "హీరోగా ": 8903,
      "ద్వాల": 8904,
      " అత్యా": 8905,
      " పండుగ": 8906,
      "స్మార్ట్ ": 8907,
      "హూర్త": 8908,
      " C": 8909,
      "800": 8910,
      "అన్": 8911,
      "డొ": 8912,
      "డీల": 8913,
      "మున్న": 8914,
      "లన ": 8915,
      "షిప": 8916,
      " పిటి": 8917,
      "ెం,": 8918,
      "పైనా ": 8919,
      "భారం ": 8920,
      " నిల": 8921,
      " భావ": 8922,
      "లీక్ ": 8923,
      "హెడ్ ": 8924,
      "ఈ మధ్య": 8925,
      "తాగు": 8926,
      " పోలీసుల": 8927,
      " ఇంకా ": 8928,
      "కార్యాలయ": 8929,
      " అయిన ": 8930,
      "జైలులో ": 8931,
      "అయినప్పటికీ ": 8932,
      "టికెట్ల": 8933,
      "జమ్మూ": 8934,
      " విజయం ": 8935,
      " నిర్మ": 8936,
      " ఢిల్లీ ": 8937,
      ".c": 8938,
      "بھ": 8939,
      "అరిక": 8940,
      "ఏపీకి ": 8941,
      "ఫ్లో": 8942,
      "రొ": 8943,
      "రవి ": 8944,
      "వదిల": 8945,
      "ుడిపై": 8946,
      "క్షత్ర": 8947,
      "కోరిక": 8948,
      "కోచ్ ": 8949,
      " ఎఫ": 8950,
      "వెన్న": 8951,
      "వైఎస": 8952,
      "ియర్ ": 8953,
      "ఆయన అన్నార": 8954,
      "తరచూ": 8955,
      "మేర": 8956,
      "భాగంగానే ": 8957,
      " క్రమంలో ": 8958,
      "ప్రతినిధులు ": 8959,
      "ఎస్ఐ": 8960,
      " మీరు ": 8961,
      "తెలియక": 8962,
      " రాజధాని ": 8963,
      "పిల్లలను ": 8964,
      " అందుకే ": 8965,
      "దక్షిణాఫ్ర": 8966,
      " ఆలోచన": 8967,
      "ew": 8968,
      "دی": 8969,
      "జడ్ప": 8970,
      "ఫ్యూ": 8971,
      "మన్న": 8972,
      "మావో": 8973,
      "దుర": 8974,
      "అనూ": 8975,
      "దని క": 8976,
      " హోట": 8977,
      "సోనియా ": 8978,
      " నిజామా": 8979,
      "నెలకొ": 8980,
      "మరోవైప": 8981,
      "డ్లను ": 8982,
      "ఈ సినిమాను ": 8983,
      "పుణ్య": 8984,
      "స్వతంత్ర": 8985,
      "కన్నా ": 8986,
      "ఫిల్మ": 8987,
      "హసీల్": 8988,
      " వరల్డ్ కప్ ": 8989,
      "అద్ద": 8990,
      "అవార్డు ": 8991,
      "జైన": 8992,
      "టగి": 8993,
      "నటి ": 8994,
      "లిక": 8995,
      "ని క": 8996,
      "ఆర్మీ ": 8997,
      "రైజర్స్ ": 8998,
      "జనగామ": 8999,
      " నేను ": 9000,
      "రూమ": 9001,
      "నగరంలోని ": 9002,
      "పెరిగిన ": 9003,
      "సమస్యలను ": 9004,
      "డిగడ్డ": 9005,
      "దేవ్ ": 9006,
      " పరిస్థితుల్లో ": 9007,
      "సిద్దరామయ్య": 9008,
      "రీసె": 9009,
      " ఆలయ": 9010,
      "సాధ్యం ": 9011,
      " కార్యకర్తలు ": 9012,
      " ముగ్": 9013,
      "ନ୍ତ": 9014,
      "న్యాయమూర్తి ": 9015,
      "విజ్ఞప్తి చేశార": 9016,
      "అవినాష్ ": 9017,
      "అం": 9018,
      "ఈ వ": 9019,
      "వణ": 9020,
      "వాలు ": 9021,
      "ారన": 9022,
      "ారావు ": 9023,
      "న్లో ": 9024,
      "న్ల ": 9025,
      "కు పంప": 9026,
      "ితమైన ": 9027,
      " బంగ్ల": 9028,
      "ఉన్నత": 9029,
      "మోడ": 9030,
      "పూల": 9031,
      "కలు": 9032,
      "సాఫ": 9033,
      "హిల్స్ ": 9034,
      "సూర్యాపేట": 9035,
      " کی": 9036,
      "జిల్ ": 9037,
      "భూమి": 9038,
      "చేయాలనే ": 9039,
      "తెలిపాడ": 9040,
      "చడం వల్ల": 9041,
      "వాహనాల": 9042,
      " సమాజ": 9043,
      "దాదాపు ర": 9044,
      "ు...": 9045,
      "పిలుస్తార": 9046,
      "కార్యకర్తల": 9047,
      "మల్లికార్": 9048,
      "గళూరులోని ": 9049,
      "మినహాయ": 9050,
      "పర్సన్ ": 9051,
      "హరీశ్ రావు ": 9052,
      " లేద": 9053,
      "53": 9054,
      "జనాభా ": 9055,
      "యజమా": 9056,
      "స్నా": 9057,
      "ాల గుర": 9058,
      " మరిక": 9059,
      "స్టార్ట్ ": 9060,
      " ఇక్కడ": 9061,
      "ముద్ద": 9062,
      " గతంలో ": 9063,
      "నెలలు ": 9064,
      "రంగం ": 9065,
      "స్ట్రీమ": 9066,
      "ఎవరో ": 9067,
      " అవగాహన ": 9068,
      "తనపై": 9069,
      "నిలిచిన ": 9070,
      "నియోజకవర్గం న": 9071,
      "దూసుక": 9072,
      "కౌశ": 9073,
      " మార్కెట్ ": 9074,
      " సహకార": 9075,
      "దాఖలు చేశార": 9076,
      "కార్మికులు ": 9077,
      " ఎలక్ట్ర": 9078,
      "భూములు ": 9079,
      "తనిఖీలు ": 9080,
      "ర్బంగా ": 9081,
      "దారుణంగా ": 9082,
      "థ్రిల్ల": 9083,
      "ంక్షన్ ": 9084,
      "గాను ": 9085,
      "జమాన": 9086,
      "నెట్ ": 9087,
      "బరిలో ": 9088,
      "్లా ": 9089,
      "ినంత": 9090,
      "్యాచరణ": 9091,
      "గుప్త": 9092,
      "కొట్టి ": 9093,
      "దేశాలు ": 9094,
      "ఆయన్ను ": 9095,
      " ల్య": 9096,
      "శ్రమల": 9097,
      "గత ": 9098,
      "బ్లీ": 9099,
      "చేరుకున్నార": 9100,
      "డెపోట": 9101,
      "ఆరోపిస్తున్నార": 9102,
      "కే పరిమిత": 9103,
      "మాజీ సీఎం ": 9104,
      "కొట్టి": 9105,
      " పోలీసు ": 9106,
      "ఆందోళనకు ": 9107,
      "త్వాన్ని ": 9108,
      " వివరాలు ": 9109,
      "థియేట": 9110,
      "నకిలీ ": 9111,
      "కఠిన ": 9112,
      "నువ్వు ": 9113,
      "ఖరి ": 9114,
      "లంచ": 9115,
      "హోద": 9116,
      "ా!\n": 9117,
      "ిః": 9118,
      "ీమ్ ": 9119,
      "తో కూడిన ": 9120,
      "స్టె": 9121,
      " రష్య": 9122,
      "మురళ": 9123,
      "టిఫ": 9124,
      "ల్ఫ్ ": 9125,
      "ఆయన తెలిపార": 9126,
      "చేసిన తర్వాత": 9127,
      "మహా ": 9128,
      "చూపుత": 9129,
      "గంటలకు ": 9130,
      "పండగ": 9131,
      "అడ్డుక": 9132,
      "కంటే ఎక్కువ": 9133,
      "ిమినల్ ": 9134,
      "దెబ్బతిన్న": 9135,
      "అభిమానుల": 9136,
      "ఆసుపత్రికి తరల": 9137,
      " సార్లు ": 9138,
      "రుచుకు": 9139,
      "కీలక పాత్ర పోష": 9140,
      "ఆ దేశ": 9141,
      "నుగ": 9142,
      "భరణ": 9143,
      "ಿಗೆ ": 9144,
      "క్\n": 9145,
      "ిత ప్ర": 9146,
      "వారే ": 9147,
      " తరగ": 9148,
      "ది అని ": 9149,
      "అందుకున్న": 9150,
      "ఒకప్పుడు ": 9151,
      "ఈ నిర్ణయం ": 9152,
      " کہ": 9153,
      "టీడీపీకి ": 9154,
      " జిల్లాలోని ": 9155,
      "తీవ్రమైన ": 9156,
      "చుకోవడ": 9157,
      "నిలిచిపోయ": 9158,
      "ఉత్తరా": 9159,
      "ఈ ప్రాజెక్ట": 9160,
      " అందులో ": 9161,
      "గాయపడిన ": 9162,
      "పుట్టిన ": 9163,
      "సంఘం ": 9164,
      "ఉపాధ్యాయ": 9165,
      "భువన": 9166,
      " విడుదల": 9167,
      "డెలివరీ ": 9168,
      " K": 9169,
      "63": 9170,
      "అంజ": 9171,
      "కమల": 9172,
      "ధన్యవాద": 9173,
      "సిన": 9174,
      " వెల": 9175,
      " అనార": 9176,
      " నర": 9177,
      "కారుల": 9178,
      "చేయవచ్చ": 9179,
      "జీవన్ ": 9180,
      "రీకి ": 9181,
      "ంపల్ల": 9182,
      "గ్రెస్ పార్టీకి ": 9183,
      " ఫైన": 9184,
      "బీఆర్ఎస్ పార్టీ ": 9185,
      "రేవంత్ రెడ్డ": 9186,
      "జ్ఞాన": 9187,
      "అడుగులు ": 9188,
      "గుజరాత": 9189,
      "హైడ్రా ": 9190,
      "ویڈیو": 9191,
      "62": 9192,
      "ଛି ": 9193,
      "అబ్బ": 9194,
      "అడిషనల్ ": 9195,
      "ఏది ": 9196,
      "డెల": 9197,
      "తృ": 9198,
      "తాన": 9199,
      "దమ్మ": 9200,
      "ోలు ": 9201,
      "న్షన": 9202,
      "లో ఉన్నార": 9203,
      "సిఫార": 9204,
      " చోట": 9205,
      " లభ": 9206,
      "టికెట": 9207,
      "నేతలకు ": 9208,
      "అనుబంధ": 9209,
      "నాయకు": 9210,
      "స్కూల": 9211,
      " శ్రీ ": 9212,
      "నమోదయ్యాయ": 9213,
      "సామర్థ": 9214,
      "را": 9215,
      "ఆసియా ": 9216,
      "ఈ ఆ": 9217,
      "డప": 9218,
      "తులకు ": 9219,
      "ల్యా": 9220,
      "న్సర": 9221,
      "గా గుర్త": 9222,
      " మే ": 9223,
      "చ్చాడ": 9224,
      "ఉండొచ్చ": 9225,
      "ుగా మార": 9226,
      "సుదీర్ఘ": 9227,
      "రేటు ": 9228,
      "పోలీసులను ": 9229,
      "సభకు ": 9230,
      "తిరస్కర": 9231,
      "బాధితులు ": 9232,
      " మహబూ": 9233,
      "రిజర్వేషన్లు ": 9234,
      "స్క్రీన్ ": 9235,
      "అప్లిక": 9236,
      "సీరియస్ ": 9237,
      "వాదాస్పద": 9238,
      "କ୍": 9239,
      "అంక": 9240,
      "ఎస్టీ ": 9241,
      "టితో ": 9242,
      "బి ": 9243,
      "లాల": 9244,
      "ల ద్వారా ": 9245,
      "ోన్నార": 9246,
      "్ఘ": 9247,
      "‌డ": 9248,
      "ి చ": 9249,
      "ికి": 9250,
      "ని ఆరోప": 9251,
      "లో తన ": 9252,
      "చి వచ్చే": 9253,
      "చేసేలా ": 9254,
      "పాప": 9255,
      "నిర్వహిస్త": 9256,
      "రావు\n": 9257,
      " కొట్ట": 9258,
      "నూనె": 9259,
      "ఏర్పాటు చేసి ": 9260,
      " రాష్ట్రాల": 9261,
      "ాహ్మ": 9262,
      "హైదరాబాద్ లోని ": 9263,
      " ప్రజా ": 9264,
      "దాడికి ": 9265,
      "గెలిచార": 9266,
      "ఆనంద్ ": 9267,
      "సత్యనారాయణ": 9268,
      "అర్ధరాత్రి ": 9269,
      "ఈ సమావేశంలో ": 9270,
      "యూట్యూబ్ ": 9271,
      " స్టార్ ": 9272,
      "అఫ": 9273,
      "జట్ల": 9274,
      "టౌన్ ": 9275,
      "లీ ": 9276,
      " వార్": 9277,
      "న్ స": 9278,
      "రుస్తున్న": 9279,
      " బొ": 9280,
      "సిట": 9281,
      "ద్రాల": 9282,
      " ఇంజ": 9283,
      "సమంత": 9284,
      "పాస": 9285,
      " భవన": 9286,
      "లీడర్ ": 9287,
      "ఎదుట": 9288,
      "న్యూయ": 9289,
      "బుమ్ర": 9290,
      "ఇద్దరూ": 9291,
      "ఫలితాల": 9292,
      "ప్రచారం జరుగుత": 9293,
      " బాలిక": 9294,
      "ాల్సి ఉంట": 9295,
      " వివరాలను ": 9296,
      "ఉత్సవాల": 9297,
      "పీసీసీ చీఫ్ ": 9298,
      "కార్తీక": 9299,
      "డెవలప్ మ": 9300,
      " చేసే ": 9301,
      "ଡି": 9302,
      "క గ": 9303,
      "టులో ": 9304,
      "థో": 9305,
      "స్వస్థ": 9306,
      "ద్ర మంత్ర": 9307,
      "చూశార": 9308,
      " హోదా ": 9309,
      "జీహెచ్": 9310,
      "బాధపడుతున్న": 9311,
      "రాయలసీమ": 9312,
      " విద్యా ": 9313,
      "వినియోగం ": 9314,
      "అడ్డుకున్నార": 9315,
      "కౌన్సిల్ ": 9316,
      "సెలవు ": 9317,
      "కెమెర": 9318,
      "చక్కెర": 9319,
      " కళా": 9320,
      " మరోసారి ": 9321,
      " శుక్రవారం ": 9322,
      "تے ": 9323,
      "سے ": 9324,
      "र ": 9325,
      "ర్చి ": 9326,
      "్లె": 9327,
      "ర్ (": 9328,
      " వృ": 9329,
      "వేలు ": 9330,
      " ద్ర": 9331,
      "ఉన్నప్పుడు ": 9332,
      "ది కాద": 9333,
      "గ్ స": 9334,
      "వెచ్చ": 9335,
      "వెస్ట్ ": 9336,
      "ఉంటున్నార": 9337,
      "ఆర్డి": 9338,
      "కలుప": 9339,
      "సురేఖ": 9340,
      "తమ్ ": 9341,
      "ష్కరణ": 9342,
      "బిఆర్ఎస్ ": 9343,
      "బ్రె": 9344,
      "అధ్యయనం ": 9345,
      "అధ్యక్షుడిగా ": 9346,
      "ుల గుర": 9347,
      "తాబ్ద": 9348,
      " ఐదు ": 9349,
      " ان": 9350,
      "చైర్మన": 9351,
      " ఏర్పా": 9352,
      "‌ల‌": 9353,
      "రిజర్వేషన్ ": 9354,
      "వైరల": 9355,
      " ప్రయాణిక": 9356,
      "బరిలోకి దిగ": 9357,
      "విపరీతంగా ": 9358,
      "సుపత్రి ": 9359,
      " యాత్ర": 9360,
      "et": 9361,
      "అప్": 9362,
      "అఖిల": 9363,
      "వుతున్నార": 9364,
      "ವರ": 9365,
      "కు వ్యతిరేకంగా ": 9366,
      " వరుస": 9367,
      "పోస్టు ": 9368,
      "ుకోలేక": 9369,
      "చాలని సూచ": 9370,
      "త్మిక": 9371,
      "ీవుడ": 9372,
      "వారిని దర్శ": 9373,
      "గాయపడ్డార": 9374,
      " ఒప్ప": 9375,
      " దీక్ష": 9376,
      " వాతావరణం ": 9377,
      "గుర్తుచేశార": 9378,
      "ట్రైలర్ ": 9379,
      "61": 9380,
      "79": 9381,
      "ఓడి": 9382,
      "చైతన్య": 9383,
      "థిల": 9384,
      "పడి": 9385,
      "రవి": 9386,
      "స్వచ్ఛ": 9387,
      "్యా ": 9388,
      "ప్రిల": 9389,
      "్‌..\n": 9390,
      " ప్యా": 9391,
      "కొడుక": 9392,
      " ఎన": 9393,
      "టిస్ ": 9394,
      " హక్క": 9395,
      "పోయినా ": 9396,
      "పెట్టే ": 9397,
      "ఇండియాలో ": 9398,
      "దిన ఓ": 9399,
      "యూనియన్ ": 9400,
      "అంతర": 9401,
      "పెద్ద సంఖ్యలో ": 9402,
      "ఆరంభ": 9403,
      "చాలని నిర్ణయ": 9404,
      " అధికారులకు ": 9405,
      "జెన్సీ": 9406,
      "ఇద్దరి ": 9407,
      " పోలీసులకు ": 9408,
      "రాహుల": 9409,
      "పంపార": 9410,
      " సూచన": 9411,
      "వీడియోలు ": 9412,
      "రోడ్డుపై": 9413,
      "దాఖలు చేసిన ": 9414,
      "మృతదేహాన్ని ": 9415,
      "అశోక్ ": 9416,
      "700": 9417,
      "کھ": 9418,
      "ంలేద": 9419,
      "డ,": 9420,
      "తండ": 9421,
      "తలకు ": 9422,
      "దస్స": 9423,
      "ుపేట": 9424,
      "చేరిక": 9425,
      "స్తూ": 9426,
      " ప్రధాన": 9427,
      "కొల్ల": 9428,
      "రీని ": 9429,
      "కానున్నార": 9430,
      "చేరుకున్న": 9431,
      "అన్ని రకాల": 9432,
      "స్టేడియం ": 9433,
      "ang": 9434,
      "రుణంలో ": 9435,
      "పెడితే ": 9436,
      " జనతా ": 9437,
      "ుపవ": 9438,
      "శెట్టి ": 9439,
      " పెళ్లి ": 9440,
      "وائر": 9441,
      " T": 9442,
      "AI": 9443,
      "ପ୍ର": 9444,
      "ఈఓ": 9445,
      "క్యం ": 9446,
      "తంలోని ": 9447,
      "బా ": 9448,
      "మామ": 9449,
      "పోటు ": 9450,
      "స్టేషన్ల": 9451,
      " బహి": 9452,
      "సిట్ ": 9453,
      " ఎండ": 9454,
      "చాలా": 9455,
      "ాన్ని కూడా ": 9456,
      "పోయిన": 9457,
      "ష్క": 9458,
      "అలె": 9459,
      " కేటీఆర్ ": 9460,
      " స్పీ": 9461,
      "భూష": 9462,
      "చేయాలని డిమ": 9463,
      "మధ్యంతర": 9464,
      "టర్లలో ": 9465,
      " దేశాల": 9466,
      "ప్రశ్నలు ": 9467,
      "్లోన": 9468,
      "నిలబడ": 9469,
      " శ్రీల": 9470,
      " అలాగే ": 9471,
      "ప్రమాదం జరిగ": 9472,
      "ఖాతాలో ": 9473,
      "ాభి": 9474,
      "దేవరక": 9475,
      "నిరోధక": 9476,
      "పొలిటికల్ ": 9477,
      "ରା": 9478,
      "చర్మ": 9479,
      "తాల న": 9480,
      "దాయ": 9481,
      "షుగ": 9482,
      "ర్జీ ": 9483,
      "రియా": 9484,
      "ాలు ప": 9485,
      " బుధ": 9486,
      "తిరుగుత": 9487,
      "ద్రంగా ": 9488,
      "అందువల్ల": 9489,
      " కోట": 9490,
      "పాలస్తీ": 9491,
      "కర్ర": 9492,
      "ఆయన చెప్పార": 9493,
      " నిరుద్యోగ": 9494,
      "తీసుకెళ్త": 9495,
[...]
