#version: 0.2
‌ ‌
ా ర
. 

  ప
న ి
న ్
్ ర
ర ్
స ్
  క
  వ
ల ు
ం ద
‌‌ ‌‌
ల ో
  మ
  చ
  అ
  స
ల ్
క ు
ార ు
్ య
ట ్
న్ న
ం చ
  త
  ర
గ ా
క ్
న ు
ంద ి
త ు
 ప ్ర
ా ల
‌‌‌‌ ‌‌‌‌
 చ ే
ి ంచ
  ఆ
డ ి
  బ
ం ట
డ ు
ర ి
ం త
  ఉ
ి న
  న
క ి
ప ్
ా య
  జ
ల ి
త ్
ర ు
  ఎ
  ఇ
ార ్
 వ ి
డ ్
  ద
  గ
ట ి
ల ా
ట ు
ం లో
ం గ
స ు
ం గా
ప్ ప
ట ీ
న్న ారు
ద ్
త ి
మ ా
  ని
డ ా
త ో
స్ తు
చ ్
య ా
వ ా
‌‌‌‌‌‌‌‌ ‌‌‌‌‌‌‌‌
స ి
 ర ా
ష ్
న ే
న్ ని
  స్
  ల
చ్ చ
గ ు
్య ా
  భ
ద ి
ర ా
స్ త
ం డ
  హ
. .

ాయ ి
 చ ె
ద ు
ి క
మ ్
క ా
 క ా
ంద ు
 త ె
ళ ్
  శ
ప ు
క్ ష
ే శ
ె ం
ప ీ
  ను
న ా
వ ి
  ఏ
 క ో
ల్ లో
ప ై
స ీ
మ ి
ల కు
వ ు
ార ం
  ఈ
్ర ి
ి ంది
  ఫ
ల ీ
ని కి
ె ట్
ల ను
ంత ో
 క ూ
 వ ె
ార ి
ంచ ి
ప ో
 క ొ
 ప ో
 మ ా
ట ్ర
క ో
  లో
 క ే
 క ు
ి ల్
ర ో
ించ ారు
ా మ
ంగ ్
 స ం
 త ీ
క్ క
 స ి
 ప ా
 మ ు
బ ా
ల ే
ె స్
ప ్ర
ా లు
బ ్
ి త
ద్ ద
‌‌‌‌‌‌‌‌‌‌‌‌‌‌‌‌ ‌‌‌‌‌‌‌‌‌‌‌‌‌‌‌‌
ప ా
 కూ డా
ై న
 ను ంచి
్ వ
మ్ మ
 చే శ
డ ం
 ఉ న్న
ద ీ
ట్ లు
త ం
 అ ధ
క ే
క ొ
న ీ
 వ ే
ంద ్ర
 ని ర్
స్తు న్న
  డ
ె డ్
 ల ే
ప్ప ు
ష న్
బ ు
  ఒ
ఆ ర్
గ ్
 చే య
వ ే
ట ర్
స ిన
య ం
సు కు
 గ ు
 స ీ
జ ు
 ప ె
ట్ ట
 స మ
 తె లి
త ్ర
ాల ని
ంట ి
ంద ని
య ో
త్ త
ల్ ల
త్ వ
 ప ార్
జ ీ
 ప్ర భ
ద ా
 వ ా
ంట ు
 చె ప్ప
గ ి
న ం
ర ీ
ప ి
ెడ్ డి
జ ్
 వ ్య
తు న్న
ం డి
వ ీ
 బ ీ
స ం
  ఓ
  ట
ందు కు
 ర ో
 న ే
 చేశ ారు
2 0
 ప రి
 వ చ్చ
ూ ర్
య ్య
ఎ స్
  (
డ ీ
 ర ూ
ంట ే
ించ ిన
స్ థ
ం ధ
ం డ్
 పార్ టీ
 అధ ిక
 అ వ
త ా
మ ు
ార ని
ద ్య
వ ర్
ష్ ట్ర
 ప్రభ ు
య న
ార ా
మ ె
 క ార
జ ా
ళ్ ల
 ప ే
‌ లో
ర ే
్ర ీ
ా డు
 స ా
 భ ార
ె ల్
 వ ై
ించ ి
ధ ా
ె ల
 మ ీ
వ ర
 అ ని
 బ ా
మ ే
 ప్ర ా
స ే
త ్య
ాల ి
ద ేశ
క ్ర
న్ని క
ె క్
క ీ
తో ంది
ెం ట్
ధ ి
ద ే
  గా
ర ం
హ ి
 ప్రభు త్వ
ాల ను
. .
స ా
ు లు
జ ే
 అ భ
 చే సి
ంత ్రి
  య
ం ప
  ష
చ ి
 తెలి ప
ట్ టు
రు గు
 చ ూ
య ి
 ఉ ండ
ిత ే
ఎ ం
 జ రి
ధ ్య
్ర ెస్
్ర ా
స్తు న్నారు
వా త
 చే సిన
క్ కు
ష్ ట
 ద ా
కో వ
 ఎ న్నిక
 ఆ యన
 శ ా
ఖ ్య
 త న
ంగ ్రెస్
ఫ ్
ల తో
మ ైన
 ప్ర క
య ంలో
ప్పు డు
ం డా
 వ ర
త ీ
 రా ష్ట్ర
య ే
 ఒ క
 మ ొ
ర్ శ
 స్ థ
బా ద్
ప్ప టి
 మ ంది
క ర
న్ స్
బ ీ
క ర్
 క ి
 జ ిల్
 ర ెడ్డి
డ ంతో
ం బ
 న ా
ించ ింది
 కో సం
 పో లీ
 రో జు
 ర ి
య ితే
వ ారం
  టీ
లు గు
‌‌‌‌‌‌‌‌‌‌‌‌‌‌‌‌‌‌‌‌‌‌‌‌‌‌‌‌‌‌‌‌ ‌‌‌‌‌‌‌‌‌‌‌‌‌‌‌‌‌‌‌‌‌‌‌‌‌‌‌‌‌‌‌‌
ంగా ణ
  ఖ
సు లు
  డి
న్ య
 చ ి
 మ ార్
  ధ
ర్ థ
ు కు
 వ ీ
మ ో
 జిల్ లా
 వి ష
శ ్
 స మా
 చెప్ప ారు
 స్ ట
ట్ ల
 రా జ
 వ ర్
ల్ లి
కు ండా
మ ీ
ద ని
? 

 ఇ చ్చ
ర్ చ
 తెలిప ారు
్య ూ
ాల ా
 కా ంగ్రెస్
 అ ను
 మ ూ
ామ ని
 మ ే
 మ ో
ర్ వాత
 భ ా
 స ు
క ూ
 ర ై
 తీ సుకు
ంట ూ
లో ని
 ప ెట్
ే వ
 కార ్య
ర్ య
 ప్రభుత్వ ం
వ హ
జే పీ
 మ ె
 జరి గ
అ యితే
డా నికి
 వ ారి
జ ి
పో య
తు న్నారు
 చే స్త
 ప ొ
ు ల
 స ె
 క లి
 అధిక ారు
ని మా
 వ్య క్
 ఉ ంది
 ఏ ర్
బ ంధ
ించ ే
 త ర్వాత
తు లు
ా న
డ ే
వ ్
 అ న్నారు
 త ి
గ ్ర
చ ే
 అ నే
శ ా
ాల కు
 త ే
 ప ై
 పా టు
లా ంటి
ట న
 వ ్యా
 ప ు
 ప్ర జ
 మ ంత్రి
మ ార్
మ్మ ెల్
ణ ా
  ఐ
 ఆ రో
ట ో
 సి నిమా
పా టు
 ఉ ంటు
 హ ై
ట ా
ళ్ లు
 త ా
హ ా
తు ంది
ల ం
ట్ లా
ర్ టు
  యా
 నే త
స్ తోంది
క్కు వ
ెం డు
 మా త్ర
బ్ బ
 ల క్ష
బా బు
 స్ ప
కా శ
గ ొ
 స ో
ంది న
ద్ ధ
రా బాద్
 ప్ర తి
కు లు
 ఎ మ్మెల్
ట్ టి
 గ ్ర
 తీ సు
 బీ జేపీ
 జ ా
 కే ంద్ర
వ ్వ
డ్ డ
త్ స
 చ ంద్ర
 త ో
 మా ట్లా
గ ే
 ప ని
ె న్
 ద ేశ
" "
ర్ లు
 చ ాలా
 శ ్రీ
 అభ ి
స్తు ంది
 త మ
దీ ంతో
‌ కు
 స భ
 వె ళ్
 న ెల
ద ల
1 0
 చే సుకు
ద రాబాద్
వ రి
 అవ కాశ
వ ేశ
 ద ి
 తె ల
గ్ గ
 సీ ఎం
ంత ్
ీ ల
 వి జ
 చె ందిన
 స ర్
మ ెంట్
 వర కు
ాయ ని
స ారి
త ే
 తెల ంగాణ
 చే స్తున్న
 జ ీ
స్త ే
 ప్రా ంత
  ఘ
‌ ను
త ూ
 ప ి
  ట్ర
 మ ధ్య
ణ ి
చ ారం
 సం బంధ
క ెట్
 చేసి ంది
ర్ యా
ర్ కొ
ప ే
ల లో
 స ూ
 క ్ర
 ఎ ం
 గు ర్
చ ార
 ర ెండు
 కే సు
 తె లు
ంద ర్
వ ై
 ప ూర్
ంది ంచ
20 2
బ ర్
 నిర్ వహ
ల పై
స్ ట్
 న ాయ
ణ ్
స్ య
 ఎమ్మెల్ యే
 అ స
 మ ి
త్ తు
 పోలీ సులు
 త ర
 ప్ర ధా
ార ీ
 పా ల్
ణ ం
 అధికారు లు
గ ం
గ ర్
ూ రు
 నిర్ ణ
 సమ యంలో
 మ రో
ై నా
ే షన్
హి ళ
ఆర్ ఎస్
ష ి
 గు ర
క పో
గ న్
 ఆ మె
ం పు
ృ ష్
  ک
ు డు
ంద ే
క్ స్
 బ ి
 ర ె
త ్రి
ారం భ
డి యా
 ద ్వ
 బ ్యా
ిన ా
ంలో ని
హ ్
 త ొ
 ఆ ర్
క్క డ
ద్య ో
వ న్
 క ని
 న ీ
క ాల
ప ించ
 చే సే
 క ార్
ా ం
 ప్ర ారంభ
 క ల
న ూ
 ము ఖ్య
  "
నా లు
 గ ంట
లో కి
 మ రి
యో జ
 హ ా
 ఎ క్కువ
సీ ఆర్
స్ ట
 అభ ్య
 బ ె
గ ో
 క ాల
లే దు
 భార ీ
 క ్
శ ి
 చంద్ర బాబు
ఫ ీ
చ్చ ు
ం ట్
ని ంచ
 పె ద్ద
కా నీ
ా న్
 కొ త్త
 ఇ వ్వ
ద ్ర
 గ ె
ర్ మ
 అ వు
డి న
 య ూ
మ ంత్రి
బ ో
0 0
త ంగా
 ఫ ో
 పే ర్కొ
 శ ి
 ద్వ ారా
 చె బు
స్థ ి
 మ హిళ
 మ ్యా
 మీ డియా
 ఏర్ పాటు
 ము ందు
క్ర మ
 య ు
ిల్ లీ
. ..

 భ ూ
భ ా
 అ య
 ప్రక ట
ాయ ం
 అ ంత
రు కు
ర ూ
 స ై
 అ మ
సీ పీ
ంద ో
 జ న
 జ గన్
 క ల్
  న్య
 అ ర
 జ రుగు
 అ య్య
 ఉంటు ంది
క ం
న ర్
స్త ూ
 కా వ
 రాజ కీ
 ప ్
తీ య
 ద ీ
వా ల్
త ర
 వచ్చ ిన
 కార ణ
 అవకాశ ం
 సమ స్య
ల్ స్
1 9
ెస్ ట్
 కు టు
వ ారి
 పెట్ ట
మ ని
య ర్
  లా
స్తు తం
 ఎన్నిక ల
 అ ంద
ను న్న
ట ం
ార్ థ
ంత ్ర
 ఫ ి
త న
 రూ ప
 పో టీ
క ంగా
 సా ధ
 జరిగ ిన
 స్థ ా
 ప్ర త్య
 వి ద్య
ప ూర్
 వ ల్ల
ంట ారు
ా ల్లో
 పూర్ తి
 ఆరో ప
 వె లుగు
 బ య
క ె
ఢ ిల్లీ
 పరి స్థి
గ త
 ప్ర మా
ం జ
 శా ఖ
 అధ ్య
ద ం
స్ టు
య ు
వ ్ర
 ధ ర
య న్
ల ై
టి ంగ్
సి ంది
త లు
ించ ుకు
ందు లో
య త్
డీ పీ
 చే స్తున్నారు
 ప లు
 లే దు
 సం స్థ
హ ై
 కొ న
ెక్ టర్
‌‌‌‌‌‌‌‌‌‌‌‌‌‌‌‌‌‌‌‌‌‌‌‌‌‌‌‌‌‌‌‌‌‌‌‌‌‌‌‌‌‌‌‌‌‌‌‌‌‌‌‌‌‌‌‌‌‌‌‌‌‌‌‌ ‌‌‌‌‌‌‌‌‌‌‌‌‌‌‌‌‌‌‌‌‌‌‌‌‌‌‌‌‌‌‌‌‌‌‌‌‌‌‌‌‌‌‌‌‌‌‌‌‌‌‌‌‌‌‌‌‌‌‌‌‌‌‌‌
ఇ క
 అభ్య ర్థ
వ ం
20 1
 కే సీఆర్
 ఎ దు
 మ ార
 పాల్ గొ
ద్ ధి
డి యో
 అధిక ార
 ర ేవ
ంట ర్
 డ ీ
 చే ప
  -
 స హ
 వ ద్ద
 ఉ ప
 తీ వ్ర
ండి యా
న్న ా
 ష ా
ప ంచ
 ఆ ధ
 పే రు
 ర ే
్య ం
హ ు
 స ందర్
 వె ల్ల
య ్
త్ తి
తు ల
 ప్ర యత్
ర గ
తున్న ాయి
 మా జీ
లు గా
 కలి సి
 ఎన్నిక ల్లో
 ఉ ద్యో
 న మో
ష ల్
 క మి
జ ర్
 మ ండ
 వి చార
 ఎం పీ
యోజ క
 బీ ఆర్ఎస్
మ ై
యో గ
 వర్ ష
వ ృ
స్త ారు
దేశ ్
 క ె
 అ ం
ర ణ
 సమా వేశ
త ెల
 తే దీ
ప ర్
 వి డు
తెల ంగాణ
 మ న
 చ ర్య
 కొన సా
 క ్యా
 అ త
 గుర ించి
హ ం
 క ీల
 రేవ ంత్
స ర్
1 5
స ర
 మ ంచి
 ఎ స్
ా నికి
ద ర్శ
 గ ో
ంగ ళ
  టి
 ఉ ందని
 కొ న్ని
 కు మార్
 మాత్ర ం
 పరి శ
  ,
 చ ర్చ
 ని యోజక
బ్ లీ
 భా గ
క్ తి
ప్పటి కే
ప ె
 ప ాల
 ఉ న్నారు
 విడు దల
 మ్యా చ్
 ప ట్ట
ిల్ ల
 ప్ర శ్
మా ండ్
 వచ్చ ే
 ఉన్న ాయి
త్ తం
 శా తం
డ్ డు
 వె ళ్ల
మ ర్శ
 ప్రత్య ే
 వెల్ల డ
 ఉ ంట
 గ్ర ామ
రా లు
 చ ో
 మొ ద
ార ెడ్డి
 వి వర
 ద ు
 త ప్ప
 న ో
ద్ దు
 వ ారు
 అధ్య క్ష
 ఒ క్క
ంటు న్న
ో ర్
ప ల్లి
 బ ు
ను న్నారు
 మాత్ర మే
కో ర్టు
 కుటు ంబ
 వీ డియో
 సందర్ భ
ర ల్
ష్ట ం
 మ హ
ించ ాలని
ప ెట్
 ప ీ
 వ్యక్ తం
  లి
ంటు న్నారు
న ల్
  ఛ
 క ంప
 న ె
 రా వ
ద న
 అ న్ని
 నియోజక వర్
ెం బ్లీ
హై దరాబాద్
ఇ ది
క్ష న్
 ద ూ
డా ది
 హ ి
గ ిన
 మూ డు
ిన ీ
లో నే
 ప్రభ ా
లి ంగ్
ాల తో
ర ెడ్డి
 సభ ్య
 విచార ణ
 ఇ న్
 విష యం
వ ో
 భార త్
 చేయ ాలని
ప డు
వ ల
 సూ చ
 వ్యక్ తి
ర ారు
వ ె
 మాట్లా డు
 వి ధ
దీ ని
 ఘ టన
ధ ిక
 ప ద
3 0
ప డ్డ
1 2
 శ ు
ను ంది
అ లా
ె నీ
 హ ె
 కో ట్ల
 హై దరాబాద్
ది క
ా న్ని
 వ ెం
 ఎ లా
రో జు
 రాజకీ య
న ంత
 వి మర్శ
 వ ంటి
 చే సు
 ను ండి
 వే ల
రి గి
ించ ు
 టీ డీపీ
 కీల క
గ్ గు
 ఆ దేశ
ామ ు
 ఉండ ే
టీ ఆర్
 సమా చారం
మ ూ
 ల ీ
ిన ే
 ప వన్
ేశ ారు
 సందర్భ ంగా
ంలో కి
కపో వ
ించ డం
 లక్ష ల
ాన ని
  ఊ
ట ే
 ప ం
 జ ో
ృ తి
  ا
 హ ో
కు న్న
 ప ూ
 ప్రక ారం
వృ ద్ధి
 ప ను
 గ త
! 

జ న్
 ఎ న్
 ఇ ప్పుడు
బ్బ ంది
 ప్రధా న
 ద ర్శ
  డా
ట మి
 భార త
 సం ఘ
ెం బర్
కు ల
త్ మ
 మీ ద
 అ మ్మ
 అ ర్
క్ టర్
మ ొ
 బయ ట
బ ి
క్క డి
టి ని
వి త
 కి ంద
 కంప ెనీ
క ల్
 డ ై
 వి ని
 వ ార్
 చ ిత
5 0
 చేయ డం
స్ ట్ర
 ఇ ంటి
స్ ప
 వై సీపీ
 అస ెంబ్లీ
ప్పటి కీ
యా లు
 ముఖ్య మంత్రి
 కో ర్టు
రి కా
లి చ
న్న ీ
ంత ా
ృష్ ణ
 లే దని
 పోలీ సు
ే మ
ీ రో
గ ్య
 ఇ ది
భ ార
వ త్స
తు ందని
 నేత లు
 ఏ పీ
 లే దా
 ప్రజ లు
 చర్య లు
ట క
ై న్
 ప్రత్యే క
బ్ బు
 నిర్ మా
 యు వ
జ ెక్
వు లు
స్ వా
 కా దు
‌ గా
ల్ సి
ద ారు
 ద గ్గ
 ప్ర యా
రా ష్ట్ర
 వ్య వ
 అ ందించ
గా నే
డు గు
స భ
 చేప ట్ట
 సం వత్స
 ఎ లాంటి
 త రు
ంధ ీ
భ ు
్య ంలో
 ఆ ల
 పె ంచ
 జ రగ
 పని చే
యా న్ని
ళ న
 పెట్ టు
 ఉ ద
త ాయి
 గుర్ త
స్ సు
 ప్ లా
‌ తో
ంద న్నారు
ప్ తంగా
త్ వా
 ప ర్య
మ రో
 ప రుగు
ంత ి
ేశ ్వ
 అ ందు
 అ త్య
 స్ వా
ప్ర దేశ్
నించ ారు
య ూ
 పేర్కొ న్నారు
ల్ డ్
 వారి కి
ప్ర స్తుతం
  م
1 1
 ప్రధా ని
ప థ
 న గ
 సి ద్ధ
చ ు
జా గా
ర కు
ండ ో
 సో షల్
) ,
 ర ంగ
 కో ట్లు
వ ారు
 ఆ ఫీ
 హ ీరో
 ఏ డాది
 అభి వృద్ధి
 స ే
ళ్ లి
న్ సి
త ారు
శ ్వ
 వెళ్ లి
 జ ై
జ న
 డి మాండ్
 ఉ త్త
స ె
దా పు
 తెలిప ింది
 న ాలు
స్త ామని
 చెబు తున్నారు
 క్ర మ
టి కి
 తీసు కోవ
ప్ ట
 ఇ తర
ల ర్
 ఇ ండియా
ల్ లు
ఫ ి
ూ డ
 దా డి
ప డి
ర ె
 మో దీ
 తెలి య
 అ ంటూ
 సంబంధ ించిన
న ని
 చే రుకు
 ఇచ్చ ిన
అ ంత
 ర ు
ంట నే
 అమ లు
లే దని
 వచ్చ ి
ామ ీ
ప డ
స ై
 రోజు ల
క ార్
 విజ య
 స్థ ాయి
 ట ై
ందో ళన
మ య్య
 విద్య ార్థ
 క ్రి
 తొ లి
  ఢిల్లీ
స్తున్న ాయి
 పరిస్థి తి
రీ క్ష
ప ొ
ు లకు
 ఇ ద్ద
ఒ క
 త గ్గ
ప క్ష
 మాట్లాడు తూ
 వెం క
ర ై
రి కి
 ప ిల్ల
 ఆ ర్థ
 ప్రా జెక్
 భాగ ంగా
కు డు
 క ర్
ేశ ్
మె రికా
 వ్య వహ
 చి న్న
చ ంద్ర
నంత రం
వ ్యా
ఆ యన
 క ౌ
1 4
 బ ల
 ప డు
స న
 మూ వీ
ద్ ది
 నే పథ
 కారణ ంగా
 కని పి
క్ ష్
భ ి
 జ ూ
 నమో దు
 ఆర్థ ిక
డ ర్
ని క
తు లకు
కొ చ్చ
 ట ా
ఎ ల్
 ఇ ం
 జరిగ ింది
శా ఖ
 అయ ిన
కొ ని
 విష యంలో
ప ార్
గా లు
 వ్యా ఖ్య
డ ని
ంధ ్ర
 నిర్ణ యం
 పె రుగు
 జ ారీ
 అం శ
క్ష ణ
 జ ట్టు
 గా ంధీ
‌ లు
 అ ంచ
ంద రు
క్ష ి
 గంట ల
ాల ీ
క ారు
పోయ ిన
ార ో
లు పు
 ప్ర పంచ
 తి రు
 వచ్చ ింది
 ప థ
ట్ స్
 నేపథ ్యంలో
ప తి
 ఆ ఫ్
ార్ డు
 రూప ాయ
 రా వు
పే ట
 సమ ీ
అ ందు
పడ్డ ారు
డ ో
 ఫ ్యా
a n
సే న
 మొ త్తం
 కే ట
‌ ,
రి క
ొ టో
ర్యా దు
  లు
ాయ ్
 స ొ
కా ంగ్రెస్
అలా గే
ధ ు
 అ న్న
 కేసు లో
 గ ొ
ట ంతో
 వ స్తు
 లే కుండా
 మాట్లా డ
 పా త్ర
 స రి
 భ క్
ాల పై
1 8
 ఆ శ
 ఇచ్చ ారు
  ہ
 బ్యా ం
 గ ౌ
 తెలి సి
 ఫో న్
చ ర్
 తె లుగు
బా టు
 చ ీ
 ల ె
 డ బ్బు
 చ ై
 హ ామీ
 స్ట ార్
 స్ వ
హు ల్
 డ ్ర
స్త ా
ర ంగా
 ఫి ర్యాదు
మ వు
ించే ందుకు
 అనే క
రా జ
 అ ంటే
కా లు
ంబ ర్
ఇ ప్పుడు
2 4
2 5
ర ంలో
 ప డి
 ప్ర చారం
ాల లో
క ార
 తా ను
ని వా
 ఆ ందోళన
లు వ
 గుర్ తు
 ప రీక్ష
 ఎక్కువ గా
ంట ీ
 ని య
బ డి
 క ళ
ని యర్
ంద ా
పోయ ింది
య ిల్
 వ ార
1 7
‌లో ని
 ట్ర ా
 పె రి
వ న
స ో
 మ ద్ద
వర ణ
ర్చ ు
 ర ిక
 సి ంగ్
స్ తో
 నిర్ణ య
 హా జ
 చిత ్ర
రు వు
 చూ డ
ద ో
న లు
య ల్
 బ ో
 ఫ లి
 త య
20 0
 మార్ పు
న్న ు
ండ గా
 రా మ
 ప ంప
 యూ ని
వా డ
 సం ఖ్య
 ఆరోప ణ
 వి వా
ెస్ టు
మ ారు
 బా ధ్య
 త ు
వై పు
 తరు వాత
తి రే
 మీడియా లో
త్వ ం
 చేసు కోవ
ను గో
మ ల
ళ్ లీ
 పాల్గొ న్నారు
ణ ాలు
త ె
 క్రమ ంలో
 ఆ ది
 తెలు స్తోంది
 ద ొ
 ఖ ా
 కార్య క్రమ
 స్ట ేషన్
చ ుకు
 చేస్త ూ
 స ర
 ఉ ంటే
 దగ్గ ర
 మరి ంత
ష నల్
 చ ట్ట
పెట్ ట
‌ పై
 రాష్ట్ర ంలో
జ ూ
్ర ే
 అభ్యర్థ ి
 కొనసా గు
యి న్
ర్మ న్
వ చ్చ
స ార్
స్ టర్
 జిల్లా లో
 త ల
 వ్య తిరే
 డ ే
 మే రకు
 అ ంది
 శ్రీ నివా
 ఆరోప ించారు
బు ల్
ప రి
ాల ే
1 6
 కాల ే
ళ ి
 నిర్ మ
 డ ె
ము ఖ
ట్టు కు
ిక ెట్
 దా దాపు
ప్ర తి
వి ధ
 ప్ర ి
రా వు
 తెలిసి ందే
 వై ఎస్
ల్ సిన
ట ల్
 వై ద్య
 న్య ాయ
పోయ ారు
డి గా
 ప్రభు త్వా
ప్ర ీ
న గర్
ఖ ా
  ట్
సీ సీ
 త ల్లి
 నాయ కులు
1 3
 అధ్యక్ష ుడు
ఏ పీ
ప ాల
 న్య ూ
టీ వల
 లో ని
 ఎ ందుకు
గ ంలో
 ప్రక టన
 ర ీ
 టి కెట్
త ను
 కొ ంత
 డా క్టర్
 అర ెస్ట్
 తీ ర్
 రి లీ
  '
గా ల
 ఎ ంత
 డై ర
 క థ
న్య ూ
 మద్ద తు
ణా టక
ی ں
్ర ో
 ప్ర జా
 స్థ ాన
 సి బ్బంది
 అ న
ట రీ
స్త ాయి
 వా తా
 వెల్లడ ించారు
హ న
మా న
 స ౌ
 బ ంగ
ార ణ
రే షన్
 దా ని
 క ంటే
ార ాయ
బీ సీ
 హై కోర్టు
 ఆ లో
 గ ్రా
 రా హుల్
శ ారు
జ య్
ే ందుకు
్య ార
 వె ంటనే
 ద ృష్
డు కు
 ప డ
 ని ల
 కల ెక్టర్
 చేసుకు న్న
క ారం
ఇ ందులో
‌ ల
స్థ ా
 వై రల్
ఎ న్
 స ేవ
బ ్ర
 కా కుండా
 బ ిల్
ె న్స్
టర్ ల
ండ ర్
 కొ నుగో
ಲ ್
 విజ యం
 నాలు గు
 కే టీఆర్
ం ప్
న ో
 ప్రాజెక్ టు
ంగళ ూరు
 ప ైన
స్ టి
 చ ా
 కమి టీ
 లో క్
ంధ్ర ప్రదేశ్
ద ాలు
 కో రారు
 చో టు
 స ాయ
 ఆ స
 చ ు
క్ కి
 కో ల్
చ ిత
ంద ్
 తీసుకు న్న
  థ
మ ంది
వర కు
మా ను
 తి రిగి
ణ ు
 అవ స
బ ె
 ఉప యోగ
అందు కే
ళ్ ళ
 భా వి
్య ు
డి ని
 ద ే
అ దే
 ఏ ం
 వ్యా ప
వ లం
ర ్ర
 మార ింది
స ూ
 ల ై
ల్ వే
ాల ంటే
 ప్ర స్తుతం
 భ ర్
 పార్ ల
 ఉ త్
 పరి ధి
ం తు
 స ంగ
 ఆధ ార
 అ ది
 న మ్మ
టర్ లు
కూ ల
 ఉద యం
 అ మెరికా
నే ందుకు
 ప ంచ
 హె చ్చ
ై ంది
కర ణ
ై ర్
 స్ప ందించ
 ప్రాంత ాల్లో
యా నికి
 సూచ ించారు
శ ు
 అ డుగు
 మొద టి
గ ింది
 రా శి
 పను లు
 వ ిన
గి రి
 ఉ ంచ
ల్ లా
 ఇ లా
ప ్రి
 ప్ర ొ
థ ్
 మొ దల
డి ంగ్
 ఏ ళ్ల
 స్ట ే
య్య ారు
ించ ా
 పోలీ స్
ర ంగ
ష ే
మ్ స్
 నిర్ వ
 త క్కువ
ామ న్నారు
 మ ై
 మ ళ్లీ
వ్యా ప్తంగా
 హ త్య
మా న్
ల్ ని
 ఐ దు
డ ంలో
 ని ర
ی ا
బీ జేపీ
 సా గు
 రా త్రి
 చ ని
న్న ాయి
క్ర మా
 చేశ ాడు
2 2
శ ే
 శి వ
 మ ృతి
ష ా
 కి లో
హ ె
రి యా
ప ం
 అ తి
 బ ాల
జ ్ర
ర్ స్
ెం డ్
 ఇ ప్పటికే
పా ల్
తి లో
 ఇ దే
 ష ే
 జా తీయ
‌‌‌‌‌‌‌‌‌‌‌‌‌‌‌‌‌‌‌‌‌‌‌‌‌‌‌‌‌‌‌‌‌‌‌‌‌‌‌‌‌‌‌‌‌‌‌‌‌‌‌‌‌‌‌‌‌‌‌‌‌‌‌‌‌‌‌‌‌‌‌‌‌‌‌‌‌‌‌‌‌‌‌‌‌‌‌‌‌‌‌‌‌‌‌‌‌‌‌‌‌‌‌‌‌‌‌‌‌‌‌‌‌‌‌‌‌‌‌‌‌‌‌‌‌‌‌‌ ‌‌‌‌‌‌‌‌‌‌‌‌‌‌‌‌‌‌‌‌‌‌‌‌‌‌‌‌‌‌‌‌‌‌‌‌‌‌‌‌‌‌‌‌‌‌‌‌‌‌‌‌‌‌‌‌‌‌‌‌‌‌‌‌‌‌‌‌‌‌‌‌‌‌‌‌‌‌‌‌‌‌‌‌‌‌‌‌‌‌‌‌‌‌‌‌‌‌‌‌‌‌‌‌‌‌‌‌‌‌‌‌‌‌‌‌‌‌‌‌‌‌‌‌‌‌‌‌
స్త ాన్
కోవ డం
 స్ప ష్టం
 ప్ర వేశ
 బ ౌ
 చె ప్పు
 భార ్య
 గె లి
 ఫ ు
 ము గి
 రె ండో
 ఉంట ాయి
 అవస రం
ద న్నారు
 స ంచ
 క ట్ట
కా గా
 కార్య కర్
కి ంగ్
 మ ండి
 మా ట
ధ ులు
ండ ్రి
త రు
4 0
 మార్ కెట్
 తర ల
  پ
ర్ ట్
 అను మ
తు లను
 రో డ్డు
 వర్ష ాలు
ఇ ప్పటికే
 స ంద
 ఆ ద
 ప్రజ ల
 తెలు సుకు
 ప్రకట ించారు
 ఆలో చ
ష ్య
 వి కెట్
క ృష్ణ
 గ ి
వ చ్చు
ప్రీ ం
 రిలీ జ్
 ఆస క్తి
 పో రా
వ ంత
 చె ల్ల
స్వా మి
  س
 అందు బాటు
ఎ న్నిక
్య ాల
 కొనుగో లు
స ెస్
 జన సేన
మై ంది
 తొ ల
 మ ారు
అ ని
 ఉద్యో గు
 ఇద్ద రు
 క ష్ట
 అ ల
ించ ాడు
 సమ యం
 పై గా
 మరి యు
ృ త
 ప్ర ే
 ఫ ్
ంట్ లో
 వ్యాఖ్య లు
స న్
ించ డానికి
ండ ీ
 పరుగు లు
న ంగా
డ మే
ా ను
ర గా
 వి ధా
 తె ర
ీ ర్
 భ ద్ర
మ న
ప్ తు
 ము ందుకు
 అధికార ంలోకి
 ఎ క్స్
 వే య
ద ్యా
 ద ో
 ఆరో గ్య
సి టీ
 గంట లకు
కొ న్ని
క్ర వారం
 కార్య ాల
 వెంక ట
జ ిక
 కా నీ
నా న్ని
క్ త
ల క్ష
 కొ ందరు
 నిర్వ హి
 నిర్వహ ించారు
క్ టో
చ్చ ి
 స్ కూ
అ నంతరం
 కూ టమి
 మో డీ
త మ
 ఇ బ్బ
 స్ వీ
స్తు ందని
 పె ళ్లి
మ వారం
ర్ మి
 అ ప్ప
ండ్ ల
 వై పు
వ రు
 పా ట
రా వ
పో వ
చ ూ
చ ె
రా జ్
వు డ్
 సంబంధ ించి
ని ంగ్
 బ ై
 వారి ని
వ ్య
న ె
 ఎ ంతో
 వివర ించారు
 రా జీ
ప్ర భు
 పరి ష్
తా జాగా
ండ ే
10 0
 ఇ ంటర్
ంగ ల్
ణ ీ
 ప్ర ై
 వే దిక
 పెట్ టి
 ఇబ్బ ందు
 మరో సారి
ప ించారు
 మ రణ
 ఎ వర
లా ండ్
 అభి ప్ర
 క ారు
 రై ల్వే
తి ని
ారి టీ
 ప్రజ లకు
 చై ర్మన్
ారాయ ణ
హ న్
‌ ర్
 ని లిచ
కొ త్త
 డైర ెక్టర్
‌ ని
టీ సీ
 కా ల్
ో త్స
 అ డి
ిన ట్లు
మి ళ
 కార్య క్రమా
 ఉంటు ందని
శ ్రీ
 అధ ినే
 సీ నియర్
 మ ర
లి యా
లే క
ంత్ర ం
జ్ ఞ
 భూ మి
 ఫ ా
 పో స్టు
 కని పించ
 త ్వ
 జరిగ ే
 పరిశ ీల
 రో డ్
 న రే
 ఫలి త
యి ర్
 అ క్కడ
ధా ని
.. .
 చేస్త ే
 ఆ హ
 రోజు ల్లో
ారా న్ని
ప ూ
ప్ షన్
 ప్రశ్ నించారు
ప డిన
 ప్ లే
ము ఖ్య
 కేంద్ర ం
 చేసే ందుకు
 ప్రమా దం
 వ స్తున్న
 ఇం కా
 ఇ ప్పటి
 సర్ వే
 అవ సర
 మండ ల
 వ స్తే
జ్ర ాయ
ప్పు డ
త ల
టి లో
 తన కు
 అ క్కడి
 ని వే
తున్న ారని
 బ స్సు
గ ల
 ఆ త్మ
 నమో ద
ంట ో
 అ ండ్
 శ్రీనివా స్
వా ళ
పు రం
గ్ర హం
ాల నే
ె బ్బ
ర్యా ప్తు
2 1
ండ ్ర
 నే ను
 తీసు కె
 వ ృ
 బయట కు
 ఫ ీ
 పేరు తో
న్సి ప
మ రి
 ల క్ష్
 ఎ వరి
ంగళ వారం
 దీ ని
 గ్ర ూ
 పేర్కొ ంది
ర ాల
 అ దే
ను క
గ ్రా
రు గా
రు పు
 అనే ది
మ ిక
 చే రి
 కే సులు
 న గర్
 జై లు
ొ చ్చు
 ని ంది
ని వారం
 చేయ డానికి
 పూ జ
దు పు
నా డు
 బా గా
బీ ఐ
గ ూడ
 అ ప్
 సు ప్రీం
మ్ మి
 పాల న
 సొ ంత
2 3
ఎ ఫ్
్రి య
 ర ద్దు
ట్ర ో
 జ ే
హ్ మ
 ప్రమా ద
ృ ష్ట
 కేట ాయ
ు లను
 బా ధ
చంద్ర బాబు
 అ ందుకు
ళ్ లకు
 ప క్క
 ఆరోపణ లు
 చే స
 యా ద
 అ ర్థ
 పో లింగ్
 నా గ
కపోవ డంతో
భ వ
 అయ్య ారు
 బ ోర్
దేశ ం
 ఏర్ పా
 స ెల
జ్రాయ ెల్
ల్ యా
హె చ్
ం క
ాలీ వుడ్
ం కర్
పో యి
 తేదీ న
 అంచ నా
న ాల
ని యా
 చీ ఫ్
 వి స్త
ంలో నే
క ౌ
 క్ర ికెట్
 అధినే త
దర్శ ి
 చేశ ారని
కొ ండ
జ ం
 ఎన్నిక లు
్యూ టీ
 మండ లం
డి కి
 వి విధ
 జరుగు తున్న
రీ స్
 వ్యవ స్థ
 కొ ట్ట
 గా య
మ ర్
 వి లువ
కూ డ
 స హా
 సం క్ష
 రై తు
స్థ ాన్
 రి జర్
మరో వైపు
సు ప
 కల్ యా
2 8
 త ప్పు
కి త్స
 ఓ వర్
 సా మా
 ద క్క
 ప్ర స
 న డు
 అభి మాను
అంత ే
a r
 ద ాడు
 అత ని
్ర మ
 ద ర్యాప్తు
 త గ్
ాల న్నారు
రి కీ
ట్ర ా
ించిన ట్లు
ళ్ల లో
రు వారం
ం క్
 బ ొ
ఆ మె
 ద ేవ
పు ణ
కు లకు
ణ ంలో
 సభ్య ులు
 సం జయ్
ప్ప ి
 పి టి
 పా కి
 వ రు
 బ ్
డ్ జ
 త ది
 విమర్శ ించారు
కపో తే
మా నం
గత ంలో
ఫ ొటో
ల్లో కి
 సహ ాయ
ప్ తి
 పో స్ట్
 కే వలం
భ ూ
 తయ ారు
 పార్టీ కి
 వర కూ
 స ూర్
 మాట్లాడ ారు
 జరి గి
స ాయ
 ప్ర ముఖ
జా తీయ
గా యి
 ఎ న్న
 కళ ్యా
ించ ారని
 ఆ ట
స్త ్ర
 మొద లు
 పద వి
 వాతా వరణ
  ب
 ఎ త్తు
్య ంగా
డ వ
 పం పి
ళ్ లను
ించ ాలి
 విధ ంగా
 న ట
 నెల కొ
  లాంటి
బ ట్టి
న ంద
 జ ి
ం స
జ ె
 ఎదు ర్కొ
ధ ్యా
 వి వ
వాల్ సి
 నివే దిక
 కర్ ణాటక
ం బా
ద్ద ీ
 మ ంత్ర
 ఆ ప
 ని లి
 చేస్త ామని
 చి వరి
ధ వారం
స్తున్న ారని
 ఓ టు
 రై తులు
ಲ್ ಲ
 స ంతో
బ ిత
 ప ర్
 సమస్య లు
శ ాల
 చే రు
వు ల
 లే ని
 ఎమ్మెల్ సీ
 కావ డంతో
ట్ లను
డ్జ ెట్
 ప ంట
 గె లు
కే ంద్ర
 బా ధి
 కా పా
 ప్రాంత ంలో
ನ ್
 అ యితే
ఖా స్తు
 ప్రభా వం
 పర్య టన
దు లు
 చేసిన ట్లు
 ప్రకట ించింది
ప్రి ల్
 త ాము
 ని మి
 ک ے
 ప్రయా ణి
 దా ఖ
 అర ెస్టు
రి య
 వి క్ర
వా స
గ్ర త్త
 వ య
లి ం
బీ ఆర్ఎస్
స్ట్ర ే
  و
2 7
 అ డ్డు
 క ృష్ణ
 మా న
 బిల్ లు
 నిర సన
ఠ ా
 మంది కి
 ఇ లాంటి
 తీసు కో
వ ంటి
 రోజు లు
 బంగ ారం
వ ాల
 స్థాయి లో
ర స్
 ఇవ్వ ాలని
గ తి
 క ప్
 ట ె
ై ల్
క్ ట్
 గ ే
 అత్య ంత
2 6
సీ ఎం
 ఆ గ
 రై లు
 ఖ ర్చు
ం పై
 ర ాయ
ిక ా
నా నికి
 ప్లా న్
 అ క్రమ
 ద శ
సి డ
 భారీ గా
ప ర
ర ెండు
 కా మెంట్
వారి కి
 అ ంటున్నారు
ము ందు
 మండి పడ్డారు
 భా వ
 సమీ ప
క్టో బర్
 పిటి షన్
డు క
దేశ ంలో
స ెంబర్
 అ ంగ
ెన్ సీ
ిత ంగా
 చి కిత్స
ర్ ల
 ఆ సుప
 డ్ర ై
అ స
లి క
 ము గ్గు
ంప ిక
 కళ్యా ణ్
 క విత
 ద ెబ్బ
స్తున్న ట్లు
 ఆ రు
 బ ంధ
 హ క్కు
ప్ర జ
ండ్ లు
న్ లు
 ట ్యా
 వర ద
 అ లా
మ్మ డి
కోవ ాలని
 భూ ము
ర ఖాస్తు
ొ క
 ప ట్టు
 జిల్లా ల్లో
వ ల్ల
 చేయ ాలి
 క్ ష
బ డు
 మ ెంట్
 బ ్ర
యో గం
 నరే ంద్ర
  ن
గా ల్లో
టి వ్
  ಮ
ఇ దే
టి ఫ
 తె చ్చ
 పార్టీ లో
ప్ట ెంబర్
మి త్
 భక్ తులు
గ ారు
ౌ న్
నా మా
య్య ాయి
 బా బు
భార త్
 ఉన్న ట్లు
 విమర్శ లు
ఫ ా
య ిన
ంగ ి
ంగ్ స్
ు త్
 స ార్
 ک ی
న్న ాడు
 వి ద్యా
 విని యోగ
ళ ీ
 బీ బీసీ
పార్ టీ
 ఇ ంట్లో
 ప్రతి పక్ష
ార న్నారు
 విష యాన్ని
 వెళ్ లే
 ఇబ్బందు లు
ె డ
 م یں
ల న
‌ న
‌ మెంట్
 అ డ్
య ్యా
లి యన్
 శ రీ
 జా గ్రత్త
 అ యి
 గె లిచ
 తీర్ పు
 ఎ ంపిక
 సి రీస్
 నో టీ
 గత ంలో
రి త్ర
 ఒ కే
 తా జాగా
 బ హి
 పా ఠ
 సాయ ంత్రం
 ప్రై వే
ార నే
 వా టిని
య న్స్
 రిక ార్డు
ంబ ై
 అవకాశ ాలు
 ఎదు రు
 ఉ పా
య ంగా
హ త్య
 సమావేశ ం
కపోవ డం
ప్ర ద
 బె యిల్
 చేస ారు
సి ంగ్
 సై తం
రి లో
 వచ్చ ాయి
 అధిక ారి
 సూ పర్
 పలు వు
ంచ ే
 ష ర్మి
 పూర్తి గా
వ ంబర్
అ ధిక
 వే డుక
 కు రి
 ఉండ గా
 జీ విత
  ల్యా
 చే స్తు
 న ష్ట
 న టి
 ల భ
ండ ె
భార త
 స్వా మి
 సె ంటర్
 రూప ొ
ించు కో
వ ార
పో యా
క ంటే
 ము న్సిప
 జీ వి
ఫ ు
ర ించారు
 వే గ
ర ణ్
డు తున్న
 సి టీ
 చేసుకు న్నారు
 వ ంద
 కో రు
ధ్యా హ్
ఫ ర్
 ధర లు
 గ్రా మా
 క ంట
 సమ ర్
 బ ్రి
డ్ స్
 న ామ
తా ను
కోవ డానికి
 కార్ మి
 స్థా నిక
 ఇంటి కి
 అ దుపు
 ఎ యిర్
 మహిళ ా
6 0
ఇ లా
ర వ
 ల ైన్
 బె ంగళూరు
 స్థాన ంలో
  ت
 ఆ క
  ಸ
అ ందులో
ది రి
 ట్ వీ
హ ీ
నా థ్
 ప్ర యోజ
 ట ెక్
పె ద్ద
 గ వర్
 కార్య దర్శి
క ల
ంటు ంది
ించ నున్నారు
తి కి
 జా బిత
టు వంటి
 ప ౌ
 కల్యా ణ్
  د
  ج
  .

 చెప్ప ిన
రాష్ట్ర ంలో
 ప ది
రే ట్
 అభిప్ర ాయ
 ప్ర ేమ
ష్ ణ
 తీసు కొచ్చ
 తెలు సు
 బీ సీ
ఖ ీ
కు మార్
 ఆరో గ
 డబ్బు లు
 బ ృ
 తీసుకు న్నారు
శ ్ర
i n
ఫ ె
బ ూ
 ద క్షి
 పొ ంద
ణ ంగా
 క్ ల
ంద నే
a l
 ద రఖాస్తు
ల క్
2 9
 చ ొ
 ఇ బ్బంది
 ప్రా ధా
 బ డ్జెట్
 మీ రు
ే స్
న్ యం
ట్ లో
పా ద
 ఇచ్చ ింది
 సుప్రీం కోర్టు
ತ ್
ర్ యంలో
మ హ
కు న్నారు
రా నికి
 సి ద్ద
ష ం
 క మ
 క ృ
రా మ
 స్ప ష్ట
 పార్టీ ల
 చేస్త ారు
 పార్ల మెంట్
ఫి క్
్యా న్ని
 తమ కు
 ఆ డ
ంప ల్లి
 ప్రే క్ష
 క ర
 చ రిత్ర
 ఇ జ్రాయెల్
యా ల్లో
మ్మ ం
ష నర్
 వి దేశ
ెట్ టి
 న డి
 జూ న్
 త ండ్రి
 శ క్తి
అ ది
క ్యూ
ಿ ದ
ారు లు
 ప్ర చార
కే ష్
తెలంగాణ లో
5 00
ద ్రా
స రి
 ఇ క్కడ
 తీ రు
ద్ద ని
ద్య ం
 కని ప
వి ష్య
 ప త్ర
 వ ాయి
 కాలే జీ
క రి
వ ల్
దు వు
ద్ద ేశ
కా ం
 చే ర
టి ల్
ప్ట ెన్
 లె క్క
 భర్ త
 వరు స
  R
ఖ ్యా
రి ంగ్
్వ ర్యంలో
  ವ
 ఇ ండి
 పార్టీ లు
హి త్
 వ్యా ప్తంగా
 యా త్ర
 హ ు
 ఇచ్చ ి
 ప ్యా
ిన ేషన్
కు లను
 ఇ టీవల
ఖ ర్
ట న్
 వ స్తుంది
 హ రీ
 మార్ చ
ట ెడ్
 భార తీయ
 పలువు రు
 వ ది
 ఆ న్
 గుర్ తి
 క్యా ప్షన్
 సీ ట్లు
ఫ్ ట్
 మార్ చి
 కార్ పొ
స్ట్రే లియా
త ొ
و ر
గ ్రీ
సా ద్
 ప్రయత్ నం
 కో ట్
 రాజీ నామా
 కలి గి
ంద ం
సార్ లు
‌ సభ
 పోలీసు లకు
‌ ర
 న ూ
దీ నికి
 నిర్వహ ించిన
 లా భ
 వి భా
 కా దని
క్క డే
 అంత ర్
 గ్రూ ప్
 యాద వ్
 తెలి సింది
 కార ణం
 కార్ డు
 ప ెం
 ఆధ ్వర్యంలో
 ఉత్ ప
కే సీఆర్
 సంక్ష ేమ
ధ్యాహ్ నం
ం డు
 న ై
 నీ టి
 బాధ్య త
 నీ రు
జ ిల్
రా త్రి
 శు క్రవారం
 ఒక టి
 స్ప ె
 తెలంగాణ లో
 ఆ స్ప
రి ని
నే ను
  ..

తు ల్లో
వే ల
 శు భ
 హాజ ర
మ న్
 మ హా
 భ య
 చేస్తున్న ారని
 ట్వీ ట్
 చే యా
 సర్ వీ
 త మిళ
 లే ఖ
ఏపీ లో
త ాయని
వి ద్య
నున్న ాయి
 అందుబాటు లో
 వా టి
న్న ై
 కమి షన్
 గ ణ
 ఫ ై
 స్ట ా
 ఉండ ాలని
 అ ద్
 యు ద్ధ
 క న్
ంగ ు
 భ ే
 ఫ ొటో
పో లీ
ారా ష్ట్ర
 చూ ప
 అను కూల
 నెల ల
 తీవ్ర ంగా
స్త ాయని
 గుర్త ించారు
 స్థ ి
 పొ ందు
 పం డు
 తొల గ
 ఆసుప త్రి
మొ ద
పడి ంది
 యూని వర్
 స ామ
 త ిన
 ఆ ంధ్రప్రదేశ్
ం శ
ఫ ్ర
కోవ ాలి
ఎన్నిక ల
దీని పై
ల్ చ
ا ن
ల ిన
 ఆ మో
లే ని
 ఉన్న ా
 నియ మ
ఆ ది
మ్మ ు
 విష య
 దాఖ లు
 ఉ ద్య
 ని పుణ
 వర ల్డ్
 పొ త్తు
య ింది
ించ ాయి
 ఉన్న ాయని
 మ ారి
వే త్త
 కాల ంలో
 చే స్తోంది
 తీసుకోవ ాలని
 ప్రతి ని
 ష ో
వాల్ సిన
 జ గ
 సో మవారం
 వివ రాలు
రా జు
ಿ ಯ
 అ ప్పు
 నే డు
 కుటు ంబా
డ త
దా ని
 సమావేశ ంలో
ద ండ్ర
.. ?

ళ ం
 ప్రక ్రియ
 ధ ర్
 స్థా ని
ో న్
 రా జ్
 అధికార ిక
ల్ చి
గా నికి
క్ కో
పు లు
 ఫ ్ర
 వెల్లడ ించింది
 షే ర్
 నిమి ష
7 0
గొ ండ
ا ر
ష ్యా
ెం ట్లు
ష ణ
 వ న్
 వ్య ూ
 రాష్ట్ర ాల్లో
 క న
నా ల్లో
 స ంత
 స బ్
అ త
మ ూర్
ర లో
 ఆ గ్రహం
 ఉ చిత
 షర్మి ల
ౌ ండ్
ట ్రి
 చ ైనా
 జ రుపు
 సామా జిక
 ఆ డి
 వె న
 ఉ ద్దేశ
 ఒ త్తి
 పూర్ త
 చే స్తుంది
ించ డంతో
 సి ంగ
ం హ
 విద్య ుత్
ద ్రి
 ప్ర ో
 వి శ్వ
 సినిమా లో
పోయ ాయి
లై న్
 తగ్ గి
 ర వి
 ఇ ంట
 వి వే
 ని రా
వా సం
 రి పో
ేవ ారు
 ని జ
 సీ జన్
ಲ್ಲ ಿ
 ఆధార ంగా
స్ క
రా ల్లో
పీ ఎల్
 వే సి
 నా కు
కు ంటే
లా క్
గు లు
డ్ డా
 ఖ ాన్
 ఆత్మ హత్య
ో ధ
 వర్ష ం
 హాజ రు
 క స్ట
 ని బంధ
 స్ పీ
ఇ టీవల
స్ పి
హ్ వా
3 1
ం భ
ం కు
థ ి
 వె నుక
 దేశ ంలో
 సంఘ ం
 ప్రభుత్వా నికి
 స త్య
కు ని
 అవ ినీ
స్తో ందని
 ఆదేశ ించారు
r a
ఇ ప్పటి
 కు రు
ంప ే
 గ ్యా
స్త ారని
 ہ ے
ారా నికి
తు డు
 బ ండి
మా నా
ప్ర పంచ
ంద్ర ా
నున్న ట్లు
 అ రు
 లే క
 బ్యాం క్
కు నే
లి క్
ెక్ ట్
 రావ డం
 రూపాయ లు
 కిలో మీ
ನ್ ನ
 చ దువు
 అ నంతరం
లి ంది
 ఎ గ్
 వా హన
 దృష్ టి
ేశ్వ ర
 భే టీ
చ్చ ని
 చూ సి
 వర ంగల్
 ఇచ్చ ే
సిడ ెంట్
వ ని
 ప దే
 ఐ టీ
షి యల్
 వేదిక గా
త మైన
 వె బ్
వే షన్
బో యే
 ఫో టో
  گ
ం నగర్
ల ాల
 అ మిత్
ణ ్య
వ ్యూ
 శ ర్మ
 మూ డో
 ప ారి
గ్ర హ
 అనుమ తి
డ ప
 స్ నే
 కార్యక్రమ ంలో
 ఏర్పా ట్లు
 ర హ
 పంపి ణీ
ర మ
 ప ట్ల
వా హ
 గ ్
 ఆలోచ న
 ఇ ండ
సు లో
తో ందని
ంగ్ లా
ారా వు
 కల్ పించ
తి క
్రీ న్
 ముగ్గు రు
 ఎ క
 ప్రయత్ ని
త కు
ప్ర ా
 వా హ
 బ ్రా
 జ య
రు గ
 షా క్
 బహి రంగ
 కృ షి
జ ార్
కర ించారు
తె లుగు
 ఆది వారం
 బోర్ డు
 ఇ ంజ
 సమా ధా
 క్రి తం
అ క్కడ
ధ ీ
తరు లు
 అద్ భు
 అ డ
 ద ారి
 వా దన
 ఆయన కు
 మె డి
ంచ ు
వా లు
 సీ బీఐ
 తర లి
 గుర్తి ంపు
 వి శాఖ
దా నికి
ెక్ ట
 హి ంద
ంచ ్
టా నికి
ట్టి ంది
 వ్యతిరే క
అంతే కా
ని మ
 సభ లో
 పెట్ట ారు
 ఎన్న ో
గ ీ
ే ష్
 రూపాయ ల
4 5
గ ణ
 రా జు
 ఫ ైన
స్ట ే
ట్ట ే
 చెప్ప ింది
రీ ంనగర్
 ఓ డి
 అవ ార్డు
 అయ ింది
దారు లు
 క ్రీ
 ఇ ంత
 శ నివారం
ముఖ్య ంగా
 వ్యా ఖ్యా
 న్యూ స్
 ర ాలే
చ్చ ారు
 కూ డిన
 కొ ద్ది
క్క ర్
 క నీ
కో సం
శ్ చి
 ప్రారంభ ించారు
‌ క
స్తు లు
కే షన్
 ఉండ ాలి
సారి గా
 మార్పు లు
 సీ త
తి రు
ణా నికి
 ఎ ల్
  ನ
యా త్ర
 పో ష
ా డని
 అ ల్
 ఆ హ్వా
 ఎ వరు
 ది గు
హ్ లీ
ార్ గ
 సం ప్రద
ంట ాయి
 వచ్చ ారు
 ఫ్యా న్స్
  A
 ప్ర ె
బ్ర వరి
ట్ట ిన
ಂ ದ
 వా ళ్లు
 అయ్య ింది
 సంగ తి
హ ార్
  ఔ
జ రా
 క ీ
 ఈ డీ
 ఆఫీ సర్
 ఆస్ప త్రి
 మహిళ లు
 మ ంగళవారం
 గ ర్
 సంవత్స రం
ాయి ంట్
 ద ారు
 అయ ినా
 ఇ క
 బీ ఆర్
వ్ వు
00 0
ద ర
 వ డ్
వి ట్
 అవు తుంది
ాల ామ
లి కి
ష ీ
 మ ంజ
ాల ంటూ
 సీ పీ
తు ండ
 కు మారు
గ్ స్
3 5
 ఇ ంగ్
 ను ంచే
జీ వి
ప డే
 స ృష్ట
 గు రువారం
 ష ూ
ఇ లాంటి
క్ష లు
జు న్
 సర్ కార్
 వెళ్ల ిన
 ఎన్ టీఆర్
ప్పుడ ూ
న ంలో
్య ో
 వ్యతిరే కంగా
 సమ ు
 తి రుగు
 గవర్ నర్
ద ైనా
 చ ౌ
 చ ార్
 పరిధి లో
ెడ ్యూ
ఆ ంధ్రప్రదేశ్
 వ ేశారు
 తల్లి దండ్ర
ద రు
 కామెంట్ స్
 లో కేష్
 ఎమ్మెల్యే లు
 అత్య ధిక
ాలామ ంది
ట్ నం
 బా గు
 కావ డం
 సంఘ టన
స ర్లు
హ ో
ౌ స్
ిక ేషన్
 వాయి దా
ట ్యూ
 తరల ించారు
ొ క్క
 ప్ర దర్శ
 ని రు
 ప్రశ్ న
ا ئ
 సాధ ారణ
పడు తుంది
 రు ణ
వర ం
 దు ర్
జ గన్
స్ టా
టీ డీపీ
 చె ప్
 మొ త్త
 ది శ
8 0
 శ ్రే
ఎం సీ
త ్యా
 కా న్
 గు ండె
 అర్థ ం
ప ్యూటీ
 క ్యూ
తున్న ట్లు
 జిల్లా లోని
 ప్రారంభ ం
మా ని
య్య ి
ెక్ స్
 కమి షనర్
ಾ ರ
 మ నం
 సీ ఐ
య్య ే
 చూ సిన
హా న్ని
 వి శ్
 ట్ర ై
 సీ టు
దా వరి
 పరిశ ోధ
t h
ల ూ
న్న ది
ించుకు న్నారు
కర ించ
 అంద రూ
 జాబిత ా
 అ ప్ర
న్న ే
 రా మ్
 అ వి
 అ ంబ
 భ విష్య
 రై తులకు
ర వే
 వా డ
కి ల్
శ్ చ
ی ک
ార్ డ్
మ హిళ
వా ళ్లు
 ఒ ప్ప
ఎస్ సీ
న్ మ
ర్ చి
 చె ంద
 ప్రయత్ నాలు
డ ెన్
ర లోనే
 స ాయం
ల్ లే
ాయ ు
ల్ల ం
 చూ పి
 సూర్ య
 క ్వ
 బ ే
స్త ానని
 ఏ ప్రిల్
 పరి మి
 తీసుకు ని
 నియోజకవర్ గం
 యూనివర్ సిటీ
 హ ్యా
 పి లుపు
 చేపట్ట ారు
 తిరు పతి
 పాకి స్తాన్
బ ెట్
 ప్ర ీ
 వే ళ
 నాయ ుడు
వచ్చ ే
 స ెల్
 లక్ష లు
 రూపొ ందించ
ని ఖీ
జరా త్
  ಕ
‌ లను
 న ష్టం
స్తు త
ాలి టీ
ించుకు న్న
 ఆదేశ ాలు
 పె రిగి
స్ట్ర ీ
స్వా మ
 ఖా ళీ
ె యిన్
ందు కంటే
 రో హిత్
 సె క్ర
 విద్యార్థ ులు
త్ర ం
 మంత్ర ులు
 స్వా ధీ
 కార్యకర్ తలు
 ఎ క్కడ
 ఓ ట్లు
 ఉ ంటారు
 గౌ డ్
 ని ద్ర
 జన వరి
 వ్యాప ార
ట ై
 మ ద్యం
 ఇ ష్ట
గ్ గా
 తన ను
 వ సూ
 ఏ డు
 చేసుకు ంది
 ట్రా ఫిక్
న ాలను
పు న
మి ండియా
 అ గ్ర
పో యే
 సు మారు
ు డి
కాల ం
 బంధ ు
క లు
 వా ళ్ల
 మి గి
 నిపుణ ులు
ార్గ ెట్
త ర్వాత
 ఎ క్క
 ము ందే
స్థ ాయి
 బు ధవారం
 ఉత్త ర్
త్త ా
 హా స్పి
 ఓ టమి
 కె ప్టెన్
 బ్యాం కు
 సర ైన
 స్కూ ల్
 ఎవర ూ
 న ర్
ధ ుల
సీ బీ
 తీసుకు ంట
వారి ని
e r
 పెంచ ు
 విజయ వాడ
 దాడు లు
వ ెల్
 పే ద
మీ ర్
 పరుగు ల
 ఆద ాయం
 సార్ లు
గ తా
ప న
ని ఫ
 ని ధులు
 ము ంబై
 కొనసా గ
చ ాలా
 భ ు
 కూ తు
 తే డా
 జ డ్
 కొ డుకు
ము లు
మొ త్తం
 నిర్వహ ణ
 తిరు మల
 పండు గ
