{
  "version": "1.0",
  "truncation": null,
  "padding": null,
  "added_tokens": [],
  "normalizer": null,
  "pre_tokenizer": {
    "type": "Sequence",
    "pretokenizers": [
      {
        "type": "Split",
        "pattern": {
          "Regex": "[^\\r\\n\\p{L}\\p{N}]?[\\p{Lu}\\p{Lt}\\p{Lm}\\p{Lo}\\p{M}]*[\\p{Ll}\\p{Lm}\\p{Lo}\\p{M}]+|[^\\r\\n\\p{L}\\p{N}]?[\\p{Lu}\\p{Lt}\\p{Lm}\\p{Lo}\\p{M}]+[\\p{Ll}\\p{Lm}\\p{Lo}\\p{M}]*|\\p{N}{1,3}| ?[^\\s\\p{L}\\p{N}]+[\\r\\n/]*|\\s*[\\r\\n]+|\\s+(?!\\S)|\\s+"
        },
        "behavior": "Isolated",
        "invert": false
      }
    ]
  },
  "post_processor": null,
  "decoder": null,
  "model": {
    "type": "BPE",
    "dropout": null,
    "unk_token": null,
    "continuing_subword_prefix": null,
    "end_of_word_suffix": null,
    "fuse_unk": false,
    "byte_fallback": false,
    "ignore_merges": false,
    "vocab": {
      "\n": 0,
      " ": 1,
      "!": 2,
      "\"": 3,
      "#": 4,
      "$": 5,
      "%": 6,
      "&": 7,
      "'": 8,
      "(": 9,
      ")": 10,
      "*": 11,
      "+": 12,
      ",": 13,
      "-": 14,
      ".": 15,
      "/": 16,
      "0": 17,
      "1": 18,
      "2": 19,
      "3": 20,
      "4": 21,
      "5": 22,
      "6": 23,
      "7": 24,
      "8": 25,
      "9": 26,
      ":": 27,
      ";": 28,
      "<": 29,
      "=": 30,
      ">": 31,
      "?": 32,
      "@": 33,
      "A": 34,
      "B": 35,
      "C": 36,
      "D": 37,
      "E": 38,
      "F": 39,
      "G": 40,
      "H": 41,
      "I": 42,
      "J": 43,
      "K": 44,
      "L": 45,
      "M": 46,
      "N": 47,
      "O": 48,
      "P": 49,
      "Q": 50,
      "R": 51,
      "S": 52,
      "T": 53,
      "U": 54,
      "V": 55,
      "W": 56,
      "X": 57,
      "Y": 58,
      "Z": 59,
      "[": 60,
      "\\": 61,
      "]": 62,
      "_": 63,
      "`": 64,
      "a": 65,
      "b": 66,
      "c": 67,
      "d": 68,
      "e": 69,
      "f": 70,
      "g": 71,
      "h": 72,
      "i": 73,
      "j": 74,
      "k": 75,
      "l": 76,
      "m": 77,
      "n": 78,
      "o": 79,
      "p": 80,
      "q": 81,
      "r": 82,
      "s": 83,
      "t": 84,
      "u": 85,
      "v": 86,
      "w": 87,
      "x": 88,
      "y": 89,
      "z": 90,
      "~": 91,
      "£": 92,
      "©": 93,
      "­": 94,
      "°": 95,
      "·": 96,
      "º": 97,
      "¼": 98,
      "½": 99,
      "Á": 100,
      "×": 101,
      "â": 102,
      "æ": 103,
      "đ": 104,
      "ơ": 105,
      "ư": 106,
      "ʼ": 107,
      "́": 108,
      "α": 109,
      "β": 110,
      "،": 111,
      "؛": 112,
      "؟": 113,
      "ء": 114,
      "آ": 115,
      "أ": 116,
      "ؤ": 117,
      "إ": 118,
      "ئ": 119,
      "ا": 120,
      "ب": 121,
      "ت": 122,
      "ث": 123,
      "ج": 124,
      "ح": 125,
      "خ": 126,
      "د": 127,
      "ذ": 128,
      "ر": 129,
      "ز": 130,
      "س": 131,
      "ش": 132,
      "ص": 133,
      "ض": 134,
      "ط": 135,
      "ظ": 136,
      "ع": 137,
      "غ": 138,
      "ف": 139,
      "ق": 140,
      "ل": 141,
      "م": 142,
      "ن": 143,
      "ه": 144,
      "و": 145,
      "ى": 146,
      "ي": 147,
      "ً": 148,
      "َ": 149,
      "ُ": 150,
      "ِ": 151,
      "ّ": 152,
      "ٓ": 153,
      "ٰ": 154,
      "ٹ": 155,
      "پ": 156,
      "چ": 157,
      "ڈ": 158,
      "ڑ": 159,
      "ڕ": 160,
      "ژ": 161,
      "ک": 162,
      "گ": 163,
      "ڵ": 164,
      "ں": 165,
      "ھ": 166,
      "ہ": 167,
      "ۆ": 168,
      "ی": 169,
      "ێ": 170,
      "ے": 171,
      "۔": 172,
      "ە": 173,
      "ँ": 174,
      "ं": 175,
      "ः": 176,
      "अ": 177,
      "आ": 178,
      "इ": 179,
      "ई": 180,
      "उ": 181,
      "ऊ": 182,
      "ए": 183,
      "ऐ": 184,
      "ऑ": 185,
      "ओ": 186,
      "औ": 187,
      "क": 188,
      "ख": 189,
      "ग": 190,
      "घ": 191,
      "च": 192,
      "छ": 193,
      "ज": 194,
      "झ": 195,
      "ञ": 196,
      "ट": 197,
      "ठ": 198,
      "ड": 199,
      "ढ": 200,
      "ण": 201,
      "त": 202,
      "थ": 203,
      "द": 204,
      "ध": 205,
      "न": 206,
      "प": 207,
      "फ": 208,
      "ब": 209,
      "भ": 210,
      "म": 211,
      "य": 212,
      "र": 213,
      "ल": 214,
      "व": 215,
      "श": 216,
      "ष": 217,
      "स": 218,
      "ह": 219,
      "़": 220,
      "ा": 221,
      "ि": 222,
      "ी": 223,
      "ु": 224,
      "ू": 225,
      "ृ": 226,
      "े": 227,
      "ै": 228,
      "ॉ": 229,
      "ो": 230,
      "ौ": 231,
      "्": 232,
      "ड़": 233,
      "ढ़": 234,
      "।": 235,
      "॥": 236,
      "०": 237,
      "२": 238,
      "४": 239,
      "ঃ": 240,
      "অ": 241,
      "আ": 242,
      "এ": 243,
      "ও": 244,
      "ক": 245,
      "গ": 246,
      "চ": 247,
      "জ": 248,
      "ট": 249,
      "ড": 250,
      "ত": 251,
      "দ": 252,
      "ধ": 253,
      "ন": 254,
      "প": 255,
      "ফ": 256,
      "ব": 257,
      "ভ": 258,
      "ম": 259,
      "য": 260,
      "র": 261,
      "ল": 262,
      "শ": 263,
      "স": 264,
      "হ": 265,
      "়": 266,
      "া": 267,
      "ি": 268,
      "ী": 269,
      "ু": 270,
      "ে": 271,
      "ৈ": 272,
      "ো": 273,
      "্": 274,
      "য়": 275,
      "ৰ": 276,
      "ৱ": 277,
      "ଁ": 278,
      "ଂ": 279,
      "ଃ": 280,
      "ଅ": 281,
      "ଆ": 282,
      "ଇ": 283,
      "ଈ": 284,
      "ଉ": 285,
      "ଏ": 286,
      "ଓ": 287,
      "କ": 288,
      "ଖ": 289,
      "ଗ": 290,
      "ଘ": 291,
      "ଙ": 292,
      "ଚ": 293,
      "ଛ": 294,
      "ଜ": 295,
      "ଝ": 296,
      "ଞ": 297,
      "ଟ": 298,
      "ଠ": 299,
      "ଡ": 300,
      "ଢ": 301,
      "ଣ": 302,
      "ତ": 303,
      "ଥ": 304,
      "ଦ": 305,
      "ଧ": 306,
      "ନ": 307,
      "ପ": 308,
      "ଫ": 309,
      "ବ": 310,
      "ଭ": 311,
      "ମ": 312,
      "ଯ": 313,
      "ର": 314,
      "ଲ": 315,
      "ଳ": 316,
      "ଵ": 317,
      "ଶ": 318,
      "ଷ": 319,
      "ସ": 320,
      "ହ": 321,
      "଼": 322,
      "ା": 323,
      "ି": 324,
      "ୀ": 325,
      "ୁ": 326,
      "ୂ": 327,
      "ୃ": 328,
      "େ": 329,
      "ୈ": 330,
      "ୋ": 331,
      "ୌ": 332,
      "୍": 333,
      "ଡ଼": 334,
      "ୟ": 335,
      "୦": 336,
      "୧": 337,
      "୨": 338,
      "୩": 339,
      "୪": 340,
      "୫": 341,
      "୬": 342,
      "୭": 343,
      "୮": 344,
      "୯": 345,
      "ୱ": 346,
      "அ": 347,
      "ஆ": 348,
      "இ": 349,
      "உ": 350,
      "ஊ": 351,
      "எ": 352,
      "ஏ": 353,
      "க": 354,
      "ங": 355,
      "ச": 356,
      "ஜ": 357,
      "ட": 358,
      "ண": 359,
      "த": 360,
      "ந": 361,
      "ன": 362,
      "ப": 363,
      "ம": 364,
      "ய": 365,
      "ர": 366,
      "ற": 367,
      "ல": 368,
      "ள": 369,
      "வ": 370,
      "ஸ": 371,
      "ா": 372,
      "ி": 373,
      "ீ": 374,
      "ு": 375,
      "ூ": 376,
      "ெ": 377,
      "ே": 378,
      "ை": 379,
      "ொ": 380,
      "ோ": 381,
      "்": 382,
      "ఁ": 383,
      "ం": 384,
      "ః": 385,
      "అ": 386,
      "ఆ": 387,
      "ఇ": 388,
      "ఈ": 389,
      "ఉ": 390,
      "ఊ": 391,
      "ఋ": 392,
      "ఎ": 393,
      "ఏ": 394,
      "ఐ": 395,
      "ఒ": 396,
      "ఓ": 397,
      "ఔ": 398,
      "క": 399,
      "ఖ": 400,
      "గ": 401,
      "ఘ": 402,
      "ఙ": 403,
      "చ": 404,
      "ఛ": 405,
      "జ": 406,
      "ఝ": 407,
      "ఞ": 408,
      "ట": 409,
      "ఠ": 410,
      "డ": 411,
      "ఢ": 412,
      "ణ": 413,
      "త": 414,
      "థ": 415,
      "ద": 416,
      "ధ": 417,
      "న": 418,
      "ప": 419,
      "ఫ": 420,
      "బ": 421,
      "భ": 422,
      "మ": 423,
      "య": 424,
      "ర": 425,
      "ఱ": 426,
      "ల": 427,
      "ళ": 428,
      "వ": 429,
      "శ": 430,
      "ష": 431,
      "స": 432,
      "హ": 433,
      "ఽ": 434,
      "ా": 435,
      "ి": 436,
      "ీ": 437,
      "ు": 438,
      "ూ": 439,
      "ృ": 440,
      "ౄ": 441,
      "ె": 442,
      "ే": 443,
      "ై": 444,
      "ొ": 445,
      "ో": 446,
      "ౌ": 447,
      "్": 448,
      "ౖ": 449,
      "౦": 450,
      "౧": 451,
      "౩": 452,
      "౪": 453,
      "౬": 454,
      "౹": 455,
      "ಂ": 456,
      "ಃ": 457,
      "ಅ": 458,
      "ಆ": 459,
      "ಇ": 460,
      "ಈ": 461,
      "ಉ": 462,
      "ಊ": 463,
      "ಎ": 464,
      "ಏ": 465,
      "ಐ": 466,
      "ಒ": 467,
      "ಓ": 468,
      "ಔ": 469,
      "ಕ": 470,
      "ಖ": 471,
      "ಗ": 472,
      "ಘ": 473,
      "ಚ": 474,
      "ಛ": 475,
      "ಜ": 476,
      "ಝ": 477,
      "ಞ": 478,
      "ಟ": 479,
      "ಠ": 480,
      "ಡ": 481,
      "ಢ": 482,
      "ಣ": 483,
      "ತ": 484,
      "ಥ": 485,
      "ದ": 486,
      "ಧ": 487,
      "ನ": 488,
      "ಪ": 489,
      "ಫ": 490,
      "ಬ": 491,
      "ಭ": 492,
      "ಮ": 493,
      "ಯ": 494,
      "ರ": 495,
      "ಲ": 496,
      "ಳ": 497,
      "ವ": 498,
      "ಶ": 499,
      "ಷ": 500,
      "ಸ": 501,
      "ಹ": 502,
      "ಾ": 503,
      "ಿ": 504,
      "ೀ": 505,
      "ು": 506,
      "ೂ": 507,
      "ೃ": 508,
      "ೆ": 509,
      "ೇ": 510,
      "ೈ": 511,
      "ೊ": 512,
      "ೋ": 513,
      "ೌ": 514,
      "್": 515,
      "ം": 516,
      "അ": 517,
      "ആ": 518,
      "ഇ": 519,
      "ഈ": 520,
      "എ": 521,
      "ഒ": 522,
      "ക": 523,
      "ഗ": 524,
      "ങ": 525,
      "ച": 526,
      "ജ": 527,
      "ട": 528,
      "ഡ": 529,
      "ണ": 530,
      "ത": 531,
      "ദ": 532,
      "ധ": 533,
      "ന": 534,
      "പ": 535,
      "ബ": 536,
      "ഭ": 537,
      "മ": 538,
      "യ": 539,
      "ര": 540,
      "റ": 541,
      "ല": 542,
      "ള": 543,
      "ഴ": 544,
      "വ": 545,
      "ശ": 546,
      "ഷ": 547,
      "സ": 548,
      "ാ": 549,
      "ി": 550,
      "ീ": 551,
      "ു": 552,
      "ൂ": 553,
      "ൃ": 554,
      "െ": 555,
      "േ": 556,
      "ൈ": 557,
      "ൊ": 558,
      "ോ": 559,
      "്": 560,
      "ൗ": 561,
      "ൻ": 562,
      "ർ": 563,
      "ൽ": 564,
      "ൾ": 565,
      "ả": 566,
      "ầ": 567,
      "ậ": 568,
      "ệ": 569,
      "ố": 570,
      "ớ": 571,
      "ờ": 572,
      "ở": 573,
      "ợ": 574,
      "ứ": 575,
      "‌": 576,
      "‍": 577,
      "‎": 578,
      "‏": 579,
      "‑": 580,
      "‒": 581,
      "•": 582,
      "‪": 583,
      "‫": 584,
      "‬": 585,
      "‭": 586,
      "′": 587,
      "″": 588,
      "⁠": 589,
      "⁪": 590,
      "⁫": 591,
      "⁬": 592,
      "⁭": 593,
      "⁯": 594,
      "€": 595,
      "₹": 596,
      "⃣": 597,
      "∙": 598,
      "≠": 599,
      "▪": 600,
      "►": 601,
      "◆": 602,
      "◉": 603,
      "●": 604,
      "★": 605,
      "☛": 606,
      "♥": 607,
      "♦": 608,
      "✳": 609,
      "❌": 610,
      "➡": 611,
      "➦": 612,
      "⦁": 613,
      "️": 614,
      "ﹰ": 615,
      "🇪": 616,
      "🇬": 617,
      "🇮": 618,
      "🇳": 619,
      "🌹": 620,
      "🏼": 621,
      "👇": 622,
      "👉": 623,
      "👊": 624,
      "👋": 625,
      "👌": 626,
      "💐": 627,
      "💚": 628,
      "💥": 629,
      "💪": 630,
      "🔥": 631,
      "🔴": 632,
      "🔸": 633,
      "🔹": 634,
      "😂": 635,
      "😉": 636,
      "😊": 637,
      "😜": 638,
      "😞": 639,
      "😠": 640,
      "😡": 641,
      "😥": 642,
      "🙂": 643,
      "🙏": 644,
      "🚩": 645,
      "🤜": 646,
      "🤭": 647,
      "‌‌": 648,
      "ార": 649,
      ".\n": 650,
      " ప": 651,
      "ని": 652,
      "న్": 653,
      "్ర": 654,
      "ర్": 655,
      "స్": 656,
      " క": 657,
      " వ": 658,
      "లు": 659,
      "ంద": 660,
      "‌‌‌‌": 661,
      "లో": 662,
      " మ": 663,
      " చ": 664,
      " అ": 665,
      " స": 666,
      "ల్": 667,
      "కు": 668,
      "ారు": 669,
      "్య": 670,
      "ట్": 671,
      "న్న": 672,
      "ంచ": 673,
      " త": 674,
      " ర": 675,
      "గా": 676,
      "క్": 677,
      "ను": 678,
      "ంది": 679,
      "తు": 680,
      " ప్ర": 681,
      "ాల": 682,
      "‌‌‌‌‌‌‌‌": 683,
      " చే": 684,
      "ించ": 685,
      " ఆ": 686,
      "డి": 687,
      " బ": 688,
      "ంట": 689,
      "డు": 690,
      "రి": 691,
      "ంత": 692,
      " ఉ": 693,
      "ిన": 694,
      " న": 695,
      "కి": 696,
      "ప్": 697,
      "ాయ": 698,
      " జ": 699,
      "లి": 700,
      "త్": 701,
      "రు": 702,
      " ఎ": 703,
      " ఇ": 704,
      "ార్": 705,
      " వి": 706,
      "డ్": 707,
      " ద": 708,
      " గ": 709,
      "టి": 710,
      "లా": 711,
      "టు": 712,
      "ంలో": 713,
      "ంగ": 714,
      "సు": 715,
      "ంగా": 716,
      "ప్ప": 717,
      "టీ": 718,
      "న్నారు": 719,
      "ద్": 720,
      "తి": 721,
      "మా": 722,
      " ని": 723,
      "డా": 724,
      "తో": 725,
      "స్తు": 726,
      "చ్": 727,
      "యా": 728,
      "వా": 729,
      "‌‌‌‌‌‌‌‌‌‌‌‌‌‌‌‌": 730,
      "సి": 731,
      " రా": 732,
      "ష్": 733,
      "నే": 734,
      "న్ని": 735,
      " స్": 736,
      " ల": 737,
      "చ్చ": 738,
      "గు": 739,
      "్యా": 740,
      " భ": 741,
      "ది": 742,
      "రా": 743,
      "స్త": 744,
      "ండ": 745,
      " హ": 746,
      "..\n": 747,
      "ాయి": 748,
      " చె": 749,
      "దు": 750,
      "ిక": 751,
      "మ్": 752,
      "కా": 753,
      " కా": 754,
      "ందు": 755,
      " తె": 756,
      "ళ్": 757,
      " శ": 758,
      "పు": 759,
      "క్ష": 760,
      "ేశ": 761,
      "ెం": 762,
      "పీ": 763,
      " ను": 764,
      "నా": 765,
      "వి": 766,
      " ఏ": 767,
      " కో": 768,
      "ల్లో": 769,
      "పై": 770,
      "సీ": 771,
      "మి": 772,
      "లకు": 773,
      "వు": 774,
      "ారం": 775,
      " ఈ": 776,
      "్రి": 777,
      "ింది": 778,
      " ఫ": 779,
      "లీ": 780,
      "నికి": 781,
      "ెట్": 782,
      "లను": 783,
      "ంతో": 784,
      " కూ": 785,
      " వె": 786,
      "ారి": 787,
      "ంచి": 788,
      "పో": 789,
      " కొ": 790,
      " పో": 791,
      " మా": 792,
      "ట్ర": 793,
      "కో": 794,
      " లో": 795,
      " కే": 796,
      " కు": 797,
      "ిల్": 798,
      "రో": 799,
      "ించారు": 800,
      "ామ": 801,
      "ంగ్": 802,
      " సం": 803,
      " తీ": 804,
      "క్క": 805,
      " సి": 806,
      " పా": 807,
      " ము": 808,
      "బా": 809,
      "లే": 810,
      "ెస్": 811,
      "ప్ర": 812,
      "ాలు": 813,
      "బ్": 814,
      "ిత": 815,
      "ద్ద": 816,
      "‌‌‌‌‌‌‌‌‌‌‌‌‌‌‌‌‌‌‌‌‌‌‌‌‌‌‌‌‌‌‌‌": 817,
      "పా": 818,
      " కూడా": 819,
      "ైన": 820,
      " నుంచి": 821,
      "్వ": 822,
      "మ్మ": 823,
      " చేశ": 824,
      "డం": 825,
      " ఉన్న": 826,
      "దీ": 827,
      "ట్లు": 828,
      "తం": 829,
      " అధ": 830,
      "కే": 831,
      "కొ": 832,
      "నీ": 833,
      " వే": 834,
      "ంద్ర": 835,
      " నిర్": 836,
      "స్తున్న": 837,
      " డ": 838,
      "ెడ్": 839,
      " లే": 840,
      "ప్పు": 841,
      "షన్": 842,
      "బు": 843,
      " ఒ": 844,
      "ఆర్": 845,
      "గ్": 846,
      " చేయ": 847,
      "వే": 848,
      "టర్": 849,
      "సిన": 850,
      "యం": 851,
      "సుకు": 852,
      " గు": 853,
      " సీ": 854,
      "జు": 855,
      " పె": 856,
      "ట్ట": 857,
      " సమ": 858,
      " తెలి": 859,
      "త్ర": 860,
      "ాలని": 861,
      "ంటి": 862,
      "ందని": 863,
      "యో": 864,
      "త్త": 865,
      "ల్ల": 866,
      "త్వ": 867,
      " పార్": 868,
      "జీ": 869,
      " ప్రభ": 870,
      "దా": 871,
      " వా": 872,
      "ంటు": 873,
      " చెప్ప": 874,
      "గి": 875,
      "నం": 876,
      "రీ": 877,
      "పి": 878,
      "ెడ్డి": 879,
      "జ్": 880,
      " వ్య": 881,
      "తున్న": 882,
      "ండి": 883,
      "వీ": 884,
      " బీ": 885,
      "సం": 886,
      " ఓ": 887,
      " ట": 888,
      "ందుకు": 889,
      " రో": 890,
      " నే": 891,
      " చేశారు": 892,
      "20": 893,
      " పరి": 894,
      " వచ్చ": 895,
      "ూర్": 896,
      "య్య": 897,
      "ఎస్": 898,
      " (": 899,
      "డీ": 900,
      " రూ": 901,
      "ంటే": 902,
      "ించిన": 903,
      "స్థ": 904,
      "ంధ": 905,
      "ండ్": 906,
      " పార్టీ": 907,
      " అధిక": 908,
      " అవ": 909,
      "తా": 910,
      "ము": 911,
      "ారని": 912,
      "ద్య": 913,
      "వర్": 914,
      "ష్ట్ర": 915,
      " ప్రభు": 916,
      "యన": 917,
      "ారా": 918,
      "మె": 919,
      " కార": 920,
      "జా": 921,
      "ళ్ల": 922,
      " పే": 923,
      "‌లో": 924,
      "రే": 925,
      "్రీ": 926,
      "ాడు": 927,
      " సా": 928,
      " భార": 929,
      "ెల్": 930,
      " వై": 931,
      "ించి": 932,
      "ధా": 933,
      "ెల": 934,
      " మీ": 935,
      "వర": 936,
      " అని": 937,
      " బా": 938,
      "మే": 939,
      " ప్రా": 940,
      "సే": 941,
      "త్య": 942,
      "ాలి": 943,
      "దేశ": 944,
      "క్ర": 945,
      "న్నిక": 946,
      "ెక్": 947,
      "కీ": 948,
      "తోంది": 949,
      "ెంట్": 950,
      "ధి": 951,
      "దే": 952,
      " గా": 953,
      "రం": 954,
      "హి": 955,
      " ప్రభుత్వ": 956,
      "ాలను": 957,
      "..": 958,
      "సా": 959,
      "ులు": 960,
      "జే": 961,
      " అభ": 962,
      " చేసి": 963,
      "ంత్రి": 964,
      " య": 965,
      "ంప": 966,
      " ష": 967,
      "చి": 968,
      " తెలిప": 969,
      "ట్టు": 970,
      "రుగు": 971,
      " చూ": 972,
      "యి": 973,
      " ఉండ": 974,
      "ితే": 975,
      "ఎం": 976,
      " జరి": 977,
      "ధ్య": 978,
      "్రెస్": 979,
      "్రా": 980,
      "స్తున్నారు": 981,
      "వాత": 982,
      " చేసిన": 983,
      "క్కు": 984,
      "ష్ట": 985,
      " దా": 986,
      "కోవ": 987,
      " ఎన్నిక": 988,
      " ఆయన": 989,
      " శా": 990,
      "ఖ్య": 991,
      " తన": 992,
      "ంగ్రెస్": 993,
      "ఫ్": 994,
      "లతో": 995,
      "మైన": 996,
      " ప్రక": 997,
      "యంలో": 998,
      "ప్పుడు": 999,
      "ండా": 1000,
      " వర": 1001,
      "తీ": 1002,
      " రాష్ట్ర": 1003,
      "యే": 1004,
      " ఒక": 1005,
      " మొ": 1006,
      "ర్శ": 1007,
      " స్థ": 1008,
      "బాద్": 1009,
      "ప్పటి": 1010,
      " మంది": 1011,
      "కర": 1012,
      "న్స్": 1013,
      "బీ": 1014,
      "కర్": 1015,
      " కి": 1016,
      " జిల్": 1017,
      " రెడ్డి": 1018,
      "డంతో": 1019,
      "ంబ": 1020,
      " నా": 1021,
      "ించింది": 1022,
      " కోసం": 1023,
      " పోలీ": 1024,
      " రోజు": 1025,
      " రి": 1026,
      "యితే": 1027,
      "వారం": 1028,
      " టీ": 1029,
      "లుగు": 1030,
      "‌‌‌‌‌‌‌‌‌‌‌‌‌‌‌‌‌‌‌‌‌‌‌‌‌‌‌‌‌‌‌‌‌‌‌‌‌‌‌‌‌‌‌‌‌‌‌‌‌‌‌‌‌‌‌‌‌‌‌‌‌‌‌‌": 1031,
      "ంగాణ": 1032,
      " ఖ": 1033,
      "సులు": 1034,
      " డి": 1035,
      "న్య": 1036,
      " చి": 1037,
      " మార్": 1038,
      " ధ": 1039,
      "ర్థ": 1040,
      "ుకు": 1041,
      " వీ": 1042,
      "మో": 1043,
      " జిల్లా": 1044,
      " విష": 1045,
      "శ్": 1046,
      " సమా": 1047,
      " చెప్పారు": 1048,
      " స్ట": 1049,
      "ట్ల": 1050,
      " రాజ": 1051,
      " వర్": 1052,
      "ల్లి": 1053,
      "కుండా": 1054,
      "మీ": 1055,
      "దని": 1056,
      "?\n": 1057,
      " ఇచ్చ": 1058,
      "ర్చ": 1059,
      " తెలిపారు": 1060,
      "్యూ": 1061,
      "ాలా": 1062,
      " కాంగ్రెస్": 1063,
      " అను": 1064,
      " మూ": 1065,
      "ామని": 1066,
      " మే": 1067,
      " మో": 1068,
      "ర్వాత": 1069,
      " భా": 1070,
      " సు": 1071,
      "కూ": 1072,
      " రై": 1073,
      " తీసుకు": 1074,
      "ంటూ": 1075,
      "లోని": 1076,
      " పెట్": 1077,
      "ేవ": 1078,
      " కార్య": 1079,
      "ర్య": 1080,
      " ప్రభుత్వం": 1081,
      "వహ": 1082,
      "జేపీ": 1083,
      " మె": 1084,
      " జరిగ": 1085,
      "అయితే": 1086,
      "డానికి": 1087,
      " వారి": 1088,
      "జి": 1089,
      "పోయ": 1090,
      "తున్నారు": 1091,
      " చేస్త": 1092,
      " పొ": 1093,
      "ుల": 1094,
      " సె": 1095,
      " కలి": 1096,
      " అధికారు": 1097,
      "నిమా": 1098,
      " వ్యక్": 1099,
      " ఉంది": 1100,
      " ఏర్": 1101,
      "బంధ": 1102,
      "ించే": 1103,
      " తర్వాత": 1104,
      "తులు": 1105,
      "ాన": 1106,
      "డే": 1107,
      "వ్": 1108,
      " అన్నారు": 1109,
      " తి": 1110,
      "గ్ర": 1111,
      "చే": 1112,
      " అనే": 1113,
      "శా": 1114,
      "ాలకు": 1115,
      " తే": 1116,
      " పై": 1117,
      " పాటు": 1118,
      "లాంటి": 1119,
      "టన": 1120,
      " వ్యా": 1121,
      " పు": 1122,
      " ప్రజ": 1123,
      " మంత్రి": 1124,
      "మార్": 1125,
      "మ్మెల్": 1126,
      "ణా": 1127,
      " ఐ": 1128,
      " ఆరో": 1129,
      "టో": 1130,
      " సినిమా": 1131,
      "పాటు": 1132,
      " ఉంటు": 1133,
      " హై": 1134,
      "టా": 1135,
      "ళ్లు": 1136,
      " తా": 1137,
      "హా": 1138,
      "తుంది": 1139,
      "లం": 1140,
      "ట్లా": 1141,
      "ర్టు": 1142,
      " యా": 1143,
      " నేత": 1144,
      "స్తోంది": 1145,
      "క్కువ": 1146,
      "ెండు": 1147,
      " మాత్ర": 1148,
      "బ్బ": 1149,
      " లక్ష": 1150,
      "బాబు": 1151,
      " స్ప": 1152,
      "కాశ": 1153,
      "గొ": 1154,
      " సో": 1155,
      "ందిన": 1156,
      "ద్ధ": 1157,
      "రాబాద్": 1158,
      " ప్రతి": 1159,
      "కులు": 1160,
      " ఎమ్మెల్": 1161,
      "ట్టి": 1162,
      " గ్ర": 1163,
      " తీసు": 1164,
      " బీజేపీ": 1165,
      " జా": 1166,
      " కేంద్ర": 1167,
      "వ్వ": 1168,
      "డ్డ": 1169,
      "త్స": 1170,
      " చంద్ర": 1171,
      " తో": 1172,
      " మాట్లా": 1173,
      "గే": 1174,
      " పని": 1175,
      "ెన్": 1176,
      " దేశ": 1177,
      "\"\"": 1178,
      "ర్లు": 1179,
      " చాలా": 1180,
      " శ్రీ": 1181,
      " అభి": 1182,
      "స్తుంది": 1183,
      " తమ": 1184,
      "దీంతో": 1185,
      "‌కు": 1186,
      " సభ": 1187,
      " వెళ్": 1188,
      " నెల": 1189,
      "దల": 1190,
      "10": 1191,
      " చేసుకు": 1192,
      "దరాబాద్": 1193,
      "వరి": 1194,
      " అవకాశ": 1195,
      "వేశ": 1196,
      " ది": 1197,
      " తెల": 1198,
      "గ్గ": 1199,
      " సీఎం": 1200,
      "ంత్": 1201,
      "ీల": 1202,
      " విజ": 1203,
      " చెందిన": 1204,
      " సర్": 1205,
      "మెంట్": 1206,
      " వరకు": 1207,
      "ాయని": 1208,
      "సారి": 1209,
      "తే": 1210,
      " తెలంగాణ": 1211,
      " చేస్తున్న": 1212,
      " జీ": 1213,
      "స్తే": 1214,
      " ప్రాంత": 1215,
      " ఘ": 1216,
      "‌ను": 1217,
      "తూ": 1218,
      " పి": 1219,
      " ట్ర": 1220,
      " మధ్య": 1221,
      "ణి": 1222,
      "చారం": 1223,
      " సంబంధ": 1224,
      "కెట్": 1225,
      " చేసింది": 1226,
      "ర్యా": 1227,
      "ర్కొ": 1228,
      "పే": 1229,
      "లలో": 1230,
      " సూ": 1231,
      " క్ర": 1232,
      " ఎం": 1233,
      " గుర్": 1234,
      "చార": 1235,
      " రెండు": 1236,
      " కేసు": 1237,
      " తెలు": 1238,
      "ందర్": 1239,
      "వై": 1240,
      " పూర్": 1241,
      "ందించ": 1242,
      "202": 1243,
      "బర్": 1244,
      " నిర్వహ": 1245,
      "లపై": 1246,
      "స్ట్": 1247,
      " నాయ": 1248,
      "ణ్": 1249,
      "స్య": 1250,
      " ఎమ్మెల్యే": 1251,
      " అస": 1252,
      " మి": 1253,
      "త్తు": 1254,
      " పోలీసులు": 1255,
      " తర": 1256,
      " ప్రధా": 1257,
      "ారీ": 1258,
      " పాల్": 1259,
      "ణం": 1260,
      " అధికారులు": 1261,
      "గం": 1262,
      "గర్": 1263,
      "ూరు": 1264,
      " నిర్ణ": 1265,
      " సమయంలో": 1266,
      " మరో": 1267,
      "ైనా": 1268,
      "ేషన్": 1269,
      "హిళ": 1270,
      "ఆర్ఎస్": 1271,
      "షి": 1272,
      " గుర": 1273,
      "కపో": 1274,
      "గన్": 1275,
      " ఆమె": 1276,
      "ంపు": 1277,
      "ృష్": 1278,
      " ک": 1279,
      "ుడు": 1280,
      "ందే": 1281,
      "క్స్": 1282,
      " బి": 1283,
      " రె": 1284,
      "త్రి": 1285,
      "ారంభ": 1286,
      "డియా": 1287,
      " ద్వ": 1288,
      " బ్యా": 1289,
      "ినా": 1290,
      "ంలోని": 1291,
      "హ్": 1292,
      " తొ": 1293,
      " ఆర్": 1294,
      "క్కడ": 1295,
      "ద్యో": 1296,
      "వన్": 1297,
      " కని": 1298,
      " నీ": 1299,
      "కాల": 1300,
      "పించ": 1301,
      " చేసే": 1302,
      " కార్": 1303,
      "ాం": 1304,
      " ప్రారంభ": 1305,
      " కల": 1306,
      "నూ": 1307,
      " ముఖ్య": 1308,
      " \"": 1309,
      "నాలు": 1310,
      " గంట": 1311,
      "లోకి": 1312,
      " మరి": 1313,
      "యోజ": 1314,
      " హా": 1315,
      " ఎక్కువ": 1316,
      "సీఆర్": 1317,
      "స్ట": 1318,
      " అభ్య": 1319,
      " బె": 1320,
      "గో": 1321,
      " కాల": 1322,
      "లేదు": 1323,
      " భారీ": 1324,
      " క్": 1325,
      "శి": 1326,
      " చంద్రబాబు": 1327,
      "ఫీ": 1328,
      "చ్చు": 1329,
      "ంట్": 1330,
      "నించ": 1331,
      " పెద్ద": 1332,
      "కానీ": 1333,
      "ాన్": 1334,
      " కొత్త": 1335,
      " ఇవ్వ": 1336,
      "ద్ర": 1337,
      " గె": 1338,
      "ర్మ": 1339,
      " అవు": 1340,
      "డిన": 1341,
      " యూ": 1342,
      "మంత్రి": 1343,
      "బో": 1344,
      "00": 1345,
      "తంగా": 1346,
      " ఫో": 1347,
      " పేర్కొ": 1348,
      " శి": 1349,
      " ద్వారా": 1350,
      " చెబు": 1351,
      "స్థి": 1352,
      " మహిళ": 1353,
      " మ్యా": 1354,
      " మీడియా": 1355,
      " ఏర్పాటు": 1356,
      " ముందు": 1357,
      "క్రమ": 1358,
      " యు": 1359,
      "ిల్లీ": 1360,
      "...\n": 1361,
      " భూ": 1362,
      "భా": 1363,
      " అయ": 1364,
      " ప్రకట": 1365,
      "ాయం": 1366,
      " అంత": 1367,
      "రుకు": 1368,
      "రూ": 1369,
      " సై": 1370,
      " అమ": 1371,
      "సీపీ": 1372,
      "ందో": 1373,
      " జన": 1374,
      " జగన్": 1375,
      " కల్": 1376,
      " న్య": 1377,
      " అర": 1378,
      " జరుగు": 1379,
      " అయ్య": 1380,
      " ఉంటుంది": 1381,
      "కం": 1382,
      "నర్": 1383,
      "స్తూ": 1384,
      " కావ": 1385,
      " రాజకీ": 1386,
      " ప్": 1387,
      "తీయ": 1388,
      " దీ": 1389,
      "వాల్": 1390,
      "తర": 1391,
      " వచ్చిన": 1392,
      " కారణ": 1393,
      " అవకాశం": 1394,
      " సమస్య": 1395,
      "ల్స్": 1396,
      "19": 1397,
      "ెస్ట్": 1398,
      " కుటు": 1399,
      "వారి": 1400,
      " పెట్ట": 1401,
      "మని": 1402,
      "యర్": 1403,
      " లా": 1404,
      "స్తుతం": 1405,
      " ఎన్నికల": 1406,
      " అంద": 1407,
      "నున్న": 1408,
      "టం": 1409,
      "ార్థ": 1410,
      "ంత్ర": 1411,
      " ఫి": 1412,
      "తన": 1413,
      " రూప": 1414,
      " పోటీ": 1415,
      "కంగా": 1416,
      " సాధ": 1417,
      " జరిగిన": 1418,
      " స్థా": 1419,
      " ప్రత్య": 1420,
      " విద్య": 1421,
      "పూర్": 1422,
      " వల్ల": 1423,
      "ంటారు": 1424,
      "ాల్లో": 1425,
      " పూర్తి": 1426,
      " ఆరోప": 1427,
      " వెలుగు": 1428,
      " బయ": 1429,
      "కె": 1430,
      "ఢిల్లీ": 1431,
      " పరిస్థి": 1432,
      "గత": 1433,
      " ప్రమా": 1434,
      "ంజ": 1435,
      " శాఖ": 1436,
      " అధ్య": 1437,
      "దం": 1438,
      "స్టు": 1439,
      "యు": 1440,
      "వ్ర": 1441,
      " ధర": 1442,
      "యన్": 1443,
      "లై": 1444,
      "టింగ్": 1445,
      "సింది": 1446,
      "తలు": 1447,
      "ించుకు": 1448,
      "ందులో": 1449,
      "యత్": 1450,
      "డీపీ": 1451,
      " చేస్తున్నారు": 1452,
      " పలు": 1453,
      " లేదు": 1454,
      " సంస్థ": 1455,
      "హై": 1456,
      " కొన": 1457,
      "ెక్టర్": 1458,
      "‌‌‌‌‌‌‌‌‌‌‌‌‌‌‌‌‌‌‌‌‌‌‌‌‌‌‌‌‌‌‌‌‌‌‌‌‌‌‌‌‌‌‌‌‌‌‌‌‌‌‌‌‌‌‌‌‌‌‌‌‌‌‌‌‌‌‌‌‌‌‌‌‌‌‌‌‌‌‌‌‌‌‌‌‌‌‌‌‌‌‌‌‌‌‌‌‌‌‌‌‌‌‌‌‌‌‌‌‌‌‌‌‌‌‌‌‌‌‌‌‌‌‌‌‌‌‌‌": 1459,
      "ఇక": 1460,
      " అభ్యర్థ": 1461,
      "వం": 1462,
      "201": 1463,
      " కేసీఆర్": 1464,
      " ఎదు": 1465,
      " మార": 1466,
      " పాల్గొ": 1467,
      "ద్ధి": 1468,
      "డియో": 1469,
      " అధికార": 1470,
      " రేవ": 1471,
      "ంటర్": 1472,
      " డీ": 1473,
      " చేప": 1474,
      " -": 1475,
      " సహ": 1476,
      " వద్ద": 1477,
      " ఉప": 1478,
      " తీవ్ర": 1479,
      "ండియా": 1480,
      "న్నా": 1481,
      " షా": 1482,
      "పంచ": 1483,
      " ఆధ": 1484,
      " పేరు": 1485,
      " రే": 1486,
      "్యం": 1487,
      "హు": 1488,
      " సందర్": 1489,
      " వెల్ల": 1490,
      "య్": 1491,
      "త్తి": 1492,
      "తుల": 1493,
      " ప్రయత్": 1494,
      "రగ": 1495,
      "తున్నాయి": 1496,
      " మాజీ": 1497,
      "లుగా": 1498,
      " కలిసి": 1499,
      " ఎన్నికల్లో": 1500,
      " ఉద్యో": 1501,
      " నమో": 1502,
      "షల్": 1503,
      " కమి": 1504,
      "జర్": 1505,
      " మండ": 1506,
      " విచార": 1507,
      " ఎంపీ": 1508,
      "యోజక": 1509,
      " బీఆర్ఎస్": 1510,
      "మై": 1511,
      "యోగ": 1512,
      " వర్ష": 1513,
      "వృ": 1514,
      "స్తారు": 1515,
      "దేశ్": 1516,
      " కె": 1517,
      " అం": 1518,
      "రణ": 1519,
      " సమావేశ": 1520,
      "తెల": 1521,
      " తేదీ": 1522,
      "పర్": 1523,
      " విడు": 1524,
      "తెలంగాణ": 1525,
      " మన": 1526,
      " చర్య": 1527,
      " కొనసా": 1528,
      " క్యా": 1529,
      " అత": 1530,
      " గురించి": 1531,
      "హం": 1532,
      " కీల": 1533,
      " రేవంత్": 1534,
      "సర్": 1535,
      "15": 1536,
      "సర": 1537,
      " మంచి": 1538,
      " ఎస్": 1539,
      "ానికి": 1540,
      "దర్శ": 1541,
      " గో": 1542,
      "ంగళ": 1543,
      " టి": 1544,
      " ఉందని": 1545,
      " కొన్ని": 1546,
      " కుమార్": 1547,
      " మాత్రం": 1548,
      " పరిశ": 1549,
      " ,": 1550,
      " చర్చ": 1551,
      " నియోజక": 1552,
      "బ్లీ": 1553,
      " భాగ": 1554,
      "క్తి": 1555,
      "ప్పటికే": 1556,
      "పె": 1557,
      " పాల": 1558,
      " ఉన్నారు": 1559,
      " విడుదల": 1560,
      " మ్యాచ్": 1561,
      " పట్ట": 1562,
      "ిల్ల": 1563,
      " ప్రశ్": 1564,
      "మాండ్": 1565,
      " వచ్చే": 1566,
      " ఉన్నాయి": 1567,
      "త్తం": 1568,
      " శాతం": 1569,
      "డ్డు": 1570,
      " వెళ్ల": 1571,
      "మర్శ": 1572,
      " ప్రత్యే": 1573,
      " వెల్లడ": 1574,
      " ఉంట": 1575,
      " గ్రామ": 1576,
      "రాలు": 1577,
      " చో": 1578,
      " మొద": 1579,
      "ారెడ్డి": 1580,
      " వివర": 1581,
      " దు": 1582,
      " తప్ప": 1583,
      " నో": 1584,
      "ద్దు": 1585,
      " వారు": 1586,
      " అధ్యక్ష": 1587,
      " ఒక్క": 1588,
      "ంటున్న": 1589,
      "ోర్": 1590,
      "పల్లి": 1591,
      " బు": 1592,
      "నున్నారు": 1593,
      " మాత్రమే": 1594,
      "కోర్టు": 1595,
      " కుటుంబ": 1596,
      " వీడియో": 1597,
      " సందర్భ": 1598,
      "రల్": 1599,
      "ష్టం": 1600,
      " మహ": 1601,
      "ించాలని": 1602,
      "పెట్": 1603,
      " పీ": 1604,
      " వ్యక్తం": 1605,
      " లి": 1606,
      "ంటున్నారు": 1607,
      "నల్": 1608,
      " ఛ": 1609,
      " కంప": 1610,
      " నె": 1611,
      " రావ": 1612,
      "దన": 1613,
      " అన్ని": 1614,
      " నియోజకవర్": 1615,
      "ెంబ్లీ": 1616,
      "హైదరాబాద్": 1617,
      "ఇది": 1618,
      "క్షన్": 1619,
      " దూ": 1620,
      "డాది": 1621,
      " హి": 1622,
      "గిన": 1623,
      " మూడు": 1624,
      "ినీ": 1625,
      "లోనే": 1626,
      " ప్రభా": 1627,
      "లింగ్": 1628,
      "ాలతో": 1629,
      "రెడ్డి": 1630,
      " సభ్య": 1631,
      " విచారణ": 1632,
      " ఇన్": 1633,
      " విషయం": 1634,
      "వో": 1635,
      " భారత్": 1636,
      " చేయాలని": 1637,
      "పడు": 1638,
      "వల": 1639,
      " సూచ": 1640,
      " వ్యక్తి": 1641,
      "రారు": 1642,
      "వె": 1643,
      " మాట్లాడు": 1644,
      " విధ": 1645,
      "దీని": 1646,
      " ఘటన": 1647,
      "ధిక": 1648,
      " పద": 1649,
      "30": 1650,
      "పడ్డ": 1651,
      "12": 1652,
      " శు": 1653,
      "నుంది": 1654,
      "అలా": 1655,
      "ెనీ": 1656,
      " హె": 1657,
      " కోట్ల": 1658,
      " హైదరాబాద్": 1659,
      "దిక": 1660,
      "ాన్ని": 1661,
      " వెం": 1662,
      " ఎలా": 1663,
      "రోజు": 1664,
      " రాజకీయ": 1665,
      "నంత": 1666,
      " విమర్శ": 1667,
      " వంటి": 1668,
      " చేసు": 1669,
      " నుండి": 1670,
      " వేల": 1671,
      "రిగి": 1672,
      "ించు": 1673,
      " టీడీపీ": 1674,
      " కీలక": 1675,
      "గ్గు": 1676,
      " ఆదేశ": 1677,
      "ాము": 1678,
      " ఉండే": 1679,
      "టీఆర్": 1680,
      " సమాచారం": 1681,
      "మూ": 1682,
      " లీ": 1683,
      "ినే": 1684,
      " పవన్": 1685,
      "ేశారు": 1686,
      " సందర్భంగా": 1687,
      "ంలోకి": 1688,
      "కపోవ": 1689,
      "ించడం": 1690,
      " లక్షల": 1691,
      "ానని": 1692,
      " ఊ": 1693,
      "టే": 1694,
      " పం": 1695,
      " జో": 1696,
      "ృతి": 1697,
      " ا": 1698,
      " హో": 1699,
      "కున్న": 1700,
      " పూ": 1701,
      " ప్రకారం": 1702,
      "వృద్ధి": 1703,
      " పను": 1704,
      " గత": 1705,
      "!\n": 1706,
      "జన్": 1707,
      " ఎన్": 1708,
      " ఇప్పుడు": 1709,
      "బ్బంది": 1710,
      " ప్రధాన": 1711,
      " దర్శ": 1712,
      " డా": 1713,
      "టమి": 1714,
      " భారత": 1715,
      " సంఘ": 1716,
      "ెంబర్": 1717,
      "కుల": 1718,
      "త్మ": 1719,
      " మీద": 1720,
      " అమ్మ": 1721,
      " అర్": 1722,
      "క్టర్": 1723,
      "మొ": 1724,
      " బయట": 1725,
      "బి": 1726,
      "క్కడి": 1727,
      "టిని": 1728,
      "విత": 1729,
      " కింద": 1730,
      " కంపెనీ": 1731,
      "కల్": 1732,
      " డై": 1733,
      " విని": 1734,
      " వార్": 1735,
      " చిత": 1736,
      "50": 1737,
      " చేయడం": 1738,
      "స్ట్ర": 1739,
      " ఇంటి": 1740,
      "స్ప": 1741,
      " వైసీపీ": 1742,
      " అసెంబ్లీ": 1743,
      "ప్పటికీ": 1744,
      "యాలు": 1745,
      " ముఖ్యమంత్రి": 1746,
      " కోర్టు": 1747,
      "రికా": 1748,
      "లిచ": 1749,
      "న్నీ": 1750,
      "ంతా": 1751,
      "ృష్ణ": 1752,
      " లేదని": 1753,
      " పోలీసు": 1754,
      "ేమ": 1755,
      "ీరో": 1756,
      "గ్య": 1757,
      " ఇది": 1758,
      "భార": 1759,
      "వత్స": 1760,
      "తుందని": 1761,
      " నేతలు": 1762,
      " ఏపీ": 1763,
      " లేదా": 1764,
      " ప్రజలు": 1765,
      " చర్యలు": 1766,
      "టక": 1767,
      "ైన్": 1768,
      " ప్రత్యేక": 1769,
      "బ్బు": 1770,
      " నిర్మా": 1771,
      " యువ": 1772,
      "జెక్": 1773,
      "వులు": 1774,
      "స్వా": 1775,
      " కాదు": 1776,
      "‌గా": 1777,
      "ల్సి": 1778,
      "దారు": 1779,
      " దగ్గ": 1780,
      " ప్రయా": 1781,
      "రాష్ట్ర": 1782,
      " వ్యవ": 1783,
      " అందించ": 1784,
      "గానే": 1785,
      "డుగు": 1786,
      "సభ": 1787,
      " చేపట్ట": 1788,
      " సంవత్స": 1789,
      " ఎలాంటి": 1790,
      " తరు": 1791,
      "ంధీ": 1792,
      "భు": 1793,
      "్యంలో": 1794,
      " ఆల": 1795,
      " పెంచ": 1796,
      " జరగ": 1797,
      " పనిచే": 1798,
      "యాన్ని": 1799,
      "ళన": 1800,
      " పెట్టు": 1801,
      " ఉద": 1802,
      "తాయి": 1803,
      " గుర్త": 1804,
      "స్సు": 1805,
      " ప్లా": 1806,
      "‌తో": 1807,
      "ందన్నారు": 1808,
      "ప్తంగా": 1809,
      "త్వా": 1810,
      " పర్య": 1811,
      "మరో": 1812,
      " పరుగు": 1813,
      "ంతి": 1814,
      "ేశ్వ": 1815,
      " అందు": 1816,
      " అత్య": 1817,
      " స్వా": 1818,
      "ప్రదేశ్": 1819,
      "నించారు": 1820,
      "యూ": 1821,
      " పేర్కొన్నారు": 1822,
      "ల్డ్": 1823,
      " వారికి": 1824,
      "ప్రస్తుతం": 1825,
      " م": 1826,
      "11": 1827,
      " ప్రధాని": 1828,
      "పథ": 1829,
      " నగ": 1830,
      " సిద్ధ": 1831,
      "చు": 1832,
      "జాగా": 1833,
      "రకు": 1834,
      "ండో": 1835,
      " సోషల్": 1836,
      "),": 1837,
      " రంగ": 1838,
      " కోట్లు": 1839,
      "వారు": 1840,
      " ఆఫీ": 1841,
      " హీరో": 1842,
      " ఏడాది": 1843,
      " అభివృద్ధి": 1844,
      " సే": 1845,
      "ళ్లి": 1846,
      "న్సి": 1847,
      "తారు": 1848,
      "శ్వ": 1849,
      " వెళ్లి": 1850,
      " జై": 1851,
      "జన": 1852,
      " డిమాండ్": 1853,
      " ఉత్త": 1854,
      "సె": 1855,
      "దాపు": 1856,
      " తెలిపింది": 1857,
      " నాలు": 1858,
      "స్తామని": 1859,
      " చెబుతున్నారు": 1860,
      " క్రమ": 1861,
      "టికి": 1862,
      " తీసుకోవ": 1863,
      "ప్ట": 1864,
      " ఇతర": 1865,
      "లర్": 1866,
      " ఇండియా": 1867,
      "ల్లు": 1868,
      "ఫి": 1869,
      "ూడ": 1870,
      " దాడి": 1871,
      "పడి": 1872,
      "రె": 1873,
      " మోదీ": 1874,
      " తెలియ": 1875,
      " అంటూ": 1876,
      " సంబంధించిన": 1877,
      "నని": 1878,
      " చేరుకు": 1879,
      " ఇచ్చిన": 1880,
      "అంత": 1881,
      " రు": 1882,
      "ంటనే": 1883,
      " అమలు": 1884,
      "లేదని": 1885,
      " వచ్చి": 1886,
      "ామీ": 1887,
      "పడ": 1888,
      "సై": 1889,
      " రోజుల": 1890,
      "కార్": 1891,
      " విజయ": 1892,
      " స్థాయి": 1893,
      " టై": 1894,
      "ందోళన": 1895,
      "మయ్య": 1896,
      " విద్యార్థ": 1897,
      " క్రి": 1898,
      " తొలి": 1899,
      " ఢిల్లీ": 1900,
      "స్తున్నాయి": 1901,
      " పరిస్థితి": 1902,
      "రీక్ష": 1903,
      "పొ": 1904,
      "ులకు": 1905,
      " ఇద్ద": 1906,
      "ఒక": 1907,
      " తగ్గ": 1908,
      "పక్ష": 1909,
      " మాట్లాడుతూ": 1910,
      " వెంక": 1911,
      "రై": 1912,
      "రికి": 1913,
      " పిల్ల": 1914,
      " ఆర్థ": 1915,
      " ప్రాజెక్": 1916,
      " భాగంగా": 1917,
      "కుడు": 1918,
      " కర్": 1919,
      "ేశ్": 1920,
      "మెరికా": 1921,
      " వ్యవహ": 1922,
      " చిన్న": 1923,
      "చంద్ర": 1924,
      "నంతరం": 1925,
      "వ్యా": 1926,
      "ఆయన": 1927,
      " కౌ": 1928,
      "14": 1929,
      " బల": 1930,
      " పడు": 1931,
      "సన": 1932,
      " మూవీ": 1933,
      "ద్ది": 1934,
      " నేపథ": 1935,
      " కారణంగా": 1936,
      " కనిపి": 1937,
      "క్ష్": 1938,
      "భి": 1939,
      " జూ": 1940,
      " నమోదు": 1941,
      " ఆర్థిక": 1942,
      "డర్": 1943,
      "నిక": 1944,
      "తులకు": 1945,
      "కొచ్చ": 1946,
      " టా": 1947,
      "ఎల్": 1948,
      " ఇం": 1949,
      " జరిగింది": 1950,
      "శాఖ": 1951,
      " అయిన": 1952,
      "కొని": 1953,
      " విషయంలో": 1954,
      "పార్": 1955,
      "గాలు": 1956,
      " వ్యాఖ్య": 1957,
      "డని": 1958,
      "ంధ్ర": 1959,
      " నిర్ణయం": 1960,
      " పెరుగు": 1961,
      " జారీ": 1962,
      " అంశ": 1963,
      "క్షణ": 1964,
      " జట్టు": 1965,
      " గాంధీ": 1966,
      "‌లు": 1967,
      " అంచ": 1968,
      "ందరు": 1969,
      "క్షి": 1970,
      " గంటల": 1971,
      "ాలీ": 1972,
      "కారు": 1973,
      "పోయిన": 1974,
      "ారో": 1975,
      "లుపు": 1976,
      " ప్రపంచ": 1977,
      " తిరు": 1978,
      " వచ్చింది": 1979,
      " పథ": 1980,
      "ట్స్": 1981,
      " నేపథ్యంలో": 1982,
      "పతి": 1983,
      " ఆఫ్": 1984,
      "ార్డు": 1985,
      " రూపాయ": 1986,
      " రావు": 1987,
      "పేట": 1988,
      " సమీ": 1989,
      "అందు": 1990,
      "పడ్డారు": 1991,
      "డో": 1992,
      " ఫ్యా": 1993,
      "an": 1994,
      "సేన": 1995,
      " మొత్తం": 1996,
      " కేట": 1997,
      "‌,": 1998,
      "రిక": 1999,
      "ొటో": 2000,
      "ర్యాదు": 2001,
      " లు": 2002,
      "ాయ్": 2003,
      " సొ": 2004,
      "కాంగ్రెస్": 2005,
      "అలాగే": 2006,
      "ధు": 2007,
      " అన్న": 2008,
      " కేసులో": 2009,
      " గొ": 2010,
      "టంతో": 2011,
      " వస్తు": 2012,
      " లేకుండా": 2013,
      " మాట్లాడ": 2014,
      " పాత్ర": 2015,
      " సరి": 2016,
      " భక్": 2017,
      "ాలపై": 2018,
      "18": 2019,
      " ఆశ": 2020,
      " ఇచ్చారు": 2021,
      " ہ": 2022,
      " బ్యాం": 2023,
      " గౌ": 2024,
      " తెలిసి": 2025,
      " ఫోన్": 2026,
      "చర్": 2027,
      " తెలుగు": 2028,
      "బాటు": 2029,
      " చీ": 2030,
      " లె": 2031,
      " డబ్బు": 2032,
      " చై": 2033,
      " హామీ": 2034,
      " స్టార్": 2035,
      " స్వ": 2036,
      "హుల్": 2037,
      " డ్ర": 2038,
      "స్తా": 2039,
      "రంగా": 2040,
      " ఫిర్యాదు": 2041,
      "మవు": 2042,
      "ించేందుకు": 2043,
      " అనేక": 2044,
      "రాజ": 2045,
      " అంటే": 2046,
      "కాలు": 2047,
      "ంబర్": 2048,
      "ఇప్పుడు": 2049,
      "24": 2050,
      "25": 2051,
      "రంలో": 2052,
      " పడి": 2053,
      " ప్రచారం": 2054,
      "ాలలో": 2055,
      "కార": 2056,
      " తాను": 2057,
      "నివా": 2058,
      " ఆందోళన": 2059,
      "లువ": 2060,
      " గుర్తు": 2061,
      " పరీక్ష": 2062,
      " ఎక్కువగా": 2063,
      "ంటీ": 2064,
      " నియ": 2065,
      "బడి": 2066,
      " కళ": 2067,
      "నియర్": 2068,
      "ందా": 2069,
      "పోయింది": 2070,
      "యిల్": 2071,
      " వార": 2072,
      "17": 2073,
      "‌లోని": 2074,
      " ట్రా": 2075,
      " పెరి": 2076,
      "వన": 2077,
      "సో": 2078,
      " మద్ద": 2079,
      "వరణ": 2080,
      "ర్చు": 2081,
      " రిక": 2082,
      " సింగ్": 2083,
      "స్తో": 2084,
      " నిర్ణయ": 2085,
      " హాజ": 2086,
      " చిత్ర": 2087,
      "రువు": 2088,
      " చూడ": 2089,
      "దో": 2090,
      "నలు": 2091,
      "యల్": 2092,
      " బో": 2093,
      " ఫలి": 2094,
      " తయ": 2095,
      "200": 2096,
      " మార్పు": 2097,
      "న్ను": 2098,
      "ండగా": 2099,
      " రామ": 2100,
      " పంప": 2101,
      " యూని": 2102,
      "వాడ": 2103,
      " సంఖ్య": 2104,
      " ఆరోపణ": 2105,
      " వివా": 2106,
      "ెస్టు": 2107,
      "మారు": 2108,
      " బాధ్య": 2109,
      " తు": 2110,
      "వైపు": 2111,
      " తరువాత": 2112,
      "తిరే": 2113,
      " మీడియాలో": 2114,
      "త్వం": 2115,
      " చేసుకోవ": 2116,
      "నుగో": 2117,
      "మల": 2118,
      "ళ్లీ": 2119,
      " పాల్గొన్నారు": 2120,
      "ణాలు": 2121,
      "తె": 2122,
      " క్రమంలో": 2123,
      " ఆది": 2124,
      " తెలుస్తోంది": 2125,
      " దొ": 2126,
      " ఖా": 2127,
      " కార్యక్రమ": 2128,
      " స్టేషన్": 2129,
      "చుకు": 2130,
      " చేస్తూ": 2131,
      " సర": 2132,
      " ఉంటే": 2133,
      " దగ్గర": 2134,
      " మరింత": 2135,
      "షనల్": 2136,
      " చట్ట": 2137,
      "పెట్ట": 2138,
      "‌పై": 2139,
      " రాష్ట్రంలో": 2140,
      "జూ": 2141,
      "్రే": 2142,
      " అభ్యర్థి": 2143,
      " కొనసాగు": 2144,
      "యిన్": 2145,
      "ర్మన్": 2146,
      "వచ్చ": 2147,
      "సార్": 2148,
      "స్టర్": 2149,
      " జిల్లాలో": 2150,
      " తల": 2151,
      " వ్యతిరే": 2152,
      " డే": 2153,
      " మేరకు": 2154,
      " అంది": 2155,
      " శ్రీనివా": 2156,
      " ఆరోపించారు": 2157,
      "బుల్": 2158,
      "పరి": 2159,
      "ాలే": 2160,
      "16": 2161,
      " కాలే": 2162,
      "ళి": 2163,
      " నిర్మ": 2164,
      " డె": 2165,
      "ముఖ": 2166,
      "ట్టుకు": 2167,
      "ికెట్": 2168,
      " దాదాపు": 2169,
      "ప్రతి": 2170,
      "విధ": 2171,
      " ప్రి": 2172,
      "రావు": 2173,
      " తెలిసిందే": 2174,
      " వైఎస్": 2175,
      "ల్సిన": 2176,
      "టల్": 2177,
      " వైద్య": 2178,
      " న్యాయ": 2179,
      "పోయారు": 2180,
      "డిగా": 2181,
      " ప్రభుత్వా": 2182,
      "ప్రీ": 2183,
      "నగర్": 2184,
      "ఖా": 2185,
      " ట్": 2186,
      "సీసీ": 2187,
      " తల్లి": 2188,
      " నాయకులు": 2189,
      "13": 2190,
      " అధ్యక్షుడు": 2191,
      "ఏపీ": 2192,
      "పాల": 2193,
      " న్యూ": 2194,
      "టీవల": 2195,
      " లోని": 2196,
      " ఎందుకు": 2197,
      "గంలో": 2198,
      " ప్రకటన": 2199,
      " రీ": 2200,
      " టికెట్": 2201,
      "తను": 2202,
      " కొంత": 2203,
      " డాక్టర్": 2204,
      " అరెస్ట్": 2205,
      " తీర్": 2206,
      " రిలీ": 2207,
      " '": 2208,
      "గాల": 2209,
      " ఎంత": 2210,
      " డైర": 2211,
      " కథ": 2212,
      "న్యూ": 2213,
      " మద్దతు": 2214,
      "ణాటక": 2215,
      "یں": 2216,
      "్రో": 2217,
      " ప్రజా": 2218,
      " స్థాన": 2219,
      " సిబ్బంది": 2220,
      " అన": 2221,
      "టరీ": 2222,
      "స్తాయి": 2223,
      " వాతా": 2224,
      " వెల్లడించారు": 2225,
      "హన": 2226,
      "మాన": 2227,
      " సౌ": 2228,
      " బంగ": 2229,
      "ారణ": 2230,
      "రేషన్": 2231,
      " దాని": 2232,
      " కంటే": 2233,
      "ారాయ": 2234,
      "బీసీ": 2235,
      " హైకోర్టు": 2236,
      " ఆలో": 2237,
      " గ్రా": 2238,
      " రాహుల్": 2239,
      "శారు": 2240,
      "జయ్": 2241,
      "ేందుకు": 2242,
      "్యార": 2243,
      " వెంటనే": 2244,
      " దృష్": 2245,
      "డుకు": 2246,
      " పడ": 2247,
      " నిల": 2248,
      " కలెక్టర్": 2249,
      " చేసుకున్న": 2250,
      "కారం": 2251,
      "ఇందులో": 2252,
      "‌ల": 2253,
      "స్థా": 2254,
      " వైరల్": 2255,
      "ఎన్": 2256,
      " సేవ": 2257,
      "బ్ర": 2258,
      " కాకుండా": 2259,
      " బిల్": 2260,
      "ెన్స్": 2261,
      "టర్ల": 2262,
      "ండర్": 2263,
      " కొనుగో": 2264,
      "ಲ್": 2265,
      " విజయం": 2266,
      " నాలుగు": 2267,
      " కేటీఆర్": 2268,
      "ంప్": 2269,
      "నో": 2270,
      " ప్రాజెక్టు": 2271,
      "ంగళూరు": 2272,
      " పైన": 2273,
      "స్టి": 2274,
      " చా": 2275,
      " కమిటీ": 2276,
      " లోక్": 2277,
      "ంధ్రప్రదేశ్": 2278,
      "దాలు": 2279,
      " కోరారు": 2280,
      " చోటు": 2281,
      " సాయ": 2282,
      " ఆస": 2283,
      " చు": 2284,
      "క్కి": 2285,
      " కోల్": 2286,
      "చిత": 2287,
      "ంద్": 2288,
      " తీసుకున్న": 2289,
      " థ": 2290,
      "మంది": 2291,
      "వరకు": 2292,
      "మాను": 2293,
      " తిరిగి": 2294,
      "ణు": 2295,
      " అవస": 2296,
      "బె": 2297,
      " ఉపయోగ": 2298,
      "అందుకే": 2299,
      "ళ్ళ": 2300,
      " భావి": 2301,
      "్యు": 2302,
      "డిని": 2303,
      " దే": 2304,
      "అదే": 2305,
      " ఏం": 2306,
      " వ్యాప": 2307,
      "వలం": 2308,
      "ర్ర": 2309,
      " మారింది": 2310,
      "సూ": 2311,
      " లై": 2312,
      "ల్వే": 2313,
      "ాలంటే": 2314,
      " ప్రస్తుతం": 2315,
      " భర్": 2316,
      " పార్ల": 2317,
      " ఉత్": 2318,
      " పరిధి": 2319,
      "ంతు": 2320,
      " సంగ": 2321,
      " ఆధార": 2322,
      " అది": 2323,
      " నమ్మ": 2324,
      "టర్లు": 2325,
      "కూల": 2326,
      " ఉదయం": 2327,
      " అమెరికా": 2328,
      "నేందుకు": 2329,
      " పంచ": 2330,
      " హెచ్చ": 2331,
      "ైంది": 2332,
      "కరణ": 2333,
      "ైర్": 2334,
      " స్పందించ": 2335,
      " ప్రాంతాల్లో": 2336,
      "యానికి": 2337,
      " సూచించారు": 2338,
      "శు": 2339,
      " అడుగు": 2340,
      " మొదటి": 2341,
      "గింది": 2342,
      " రాశి": 2343,
      " పనులు": 2344,
      " విన": 2345,
      "గిరి": 2346,
      " ఉంచ": 2347,
      "ల్లా": 2348,
      " ఇలా": 2349,
      "ప్రి": 2350,
      " ప్రొ": 2351,
      "థ్": 2352,
      " మొదల": 2353,
      "డింగ్": 2354,
      " ఏళ్ల": 2355,
      " స్టే": 2356,
      "య్యారు": 2357,
      "ించా": 2358,
      " పోలీస్": 2359,
      "రంగ": 2360,
      "షే": 2361,
      "మ్స్": 2362,
      " నిర్వ": 2363,
      " తక్కువ": 2364,
      "ామన్నారు": 2365,
      " మై": 2366,
      " మళ్లీ": 2367,
      "వ్యాప్తంగా": 2368,
      " హత్య": 2369,
      "మాన్": 2370,
      "ల్ని": 2371,
      " ఐదు": 2372,
      "డంలో": 2373,
      " నిర": 2374,
      "یا": 2375,
      "బీజేపీ": 2376,
      " సాగు": 2377,
      " రాత్రి": 2378,
      " చని": 2379,
      "న్నాయి": 2380,
      "క్రమా": 2381,
      " చేశాడు": 2382,
      "22": 2383,
      "శే": 2384,
      " శివ": 2385,
      " మృతి": 2386,
      "షా": 2387,
      " కిలో": 2388,
      "హె": 2389,
      "రియా": 2390,
      "పం": 2391,
      " అతి": 2392,
      " బాల": 2393,
      "జ్ర": 2394,
      "ర్స్": 2395,
      "ెండ్": 2396,
      " ఇప్పటికే": 2397,
      "పాల్": 2398,
      "తిలో": 2399,
      " ఇదే": 2400,
      " షే": 2401,
      " జాతీయ": 2402,
      "‌‌‌‌‌‌‌‌‌‌‌‌‌‌‌‌‌‌‌‌‌‌‌‌‌‌‌‌‌‌‌‌‌‌‌‌‌‌‌‌‌‌‌‌‌‌‌‌‌‌‌‌‌‌‌‌‌‌‌‌‌‌‌‌‌‌‌‌‌‌‌‌‌‌‌‌‌‌‌‌‌‌‌‌‌‌‌‌‌‌‌‌‌‌‌‌‌‌‌‌‌‌‌‌‌‌‌‌‌‌‌‌‌‌‌‌‌‌‌‌‌‌‌‌‌‌‌‌‌‌‌‌‌‌‌‌‌‌‌‌‌‌‌‌‌‌‌‌‌‌‌‌‌‌‌‌‌‌‌‌‌‌‌‌‌‌‌‌‌‌‌‌‌‌‌‌‌‌‌‌‌‌‌‌‌‌‌‌‌‌‌‌‌‌‌‌‌‌‌‌‌‌‌‌‌‌‌‌‌‌‌‌‌‌‌‌‌‌‌‌‌‌‌‌‌‌‌‌‌‌‌‌‌‌‌‌‌‌‌‌‌‌‌‌‌‌‌‌‌‌‌‌‌‌‌‌": 2403,
      "స్తాన్": 2404,
      "కోవడం": 2405,
      " స్పష్టం": 2406,
      " ప్రవేశ": 2407,
      " బౌ": 2408,
      " చెప్పు": 2409,
      " భార్య": 2410,
      " గెలి": 2411,
      " ఫు": 2412,
      " ముగి": 2413,
      " రెండో": 2414,
      " ఉంటాయి": 2415,
      " అవసరం": 2416,
      "దన్నారు": 2417,
      " సంచ": 2418,
      " కట్ట": 2419,
      "కాగా": 2420,
      " కార్యకర్": 2421,
      "కింగ్": 2422,
      " మండి": 2423,
      " మాట": 2424,
      "ధులు": 2425,
      "ండ్రి": 2426,
      "తరు": 2427,
      "40": 2428,
      " మార్కెట్": 2429,
      " తరల": 2430,
      " پ": 2431,
      "ర్ట్": 2432,
      " అనుమ": 2433,
      "తులను": 2434,
      " రోడ్డు": 2435,
      " వర్షాలు": 2436,
      "ఇప్పటికే": 2437,
      " సంద": 2438,
      " ఆద": 2439,
      " ప్రజల": 2440,
      " తెలుసుకు": 2441,
      " ప్రకటించారు": 2442,
      " ఆలోచ": 2443,
      "ష్య": 2444,
      " వికెట్": 2445,
      "కృష్ణ": 2446,
      " గి": 2447,
      "వచ్చు": 2448,
      "ప్రీం": 2449,
      " రిలీజ్": 2450,
      " ఆసక్తి": 2451,
      " పోరా": 2452,
      "వంత": 2453,
      " చెల్ల": 2454,
      "స్వామి": 2455,
      " س": 2456,
      " అందుబాటు": 2457,
      "ఎన్నిక": 2458,
      "్యాల": 2459,
      " కొనుగోలు": 2460,
      "సెస్": 2461,
      " జనసేన": 2462,
      "మైంది": 2463,
      " తొల": 2464,
      " మారు": 2465,
      "అని": 2466,
      " ఉద్యోగు": 2467,
      " ఇద్దరు": 2468,
      " కష్ట": 2469,
      " అల": 2470,
      "ించాడు": 2471,
      " సమయం": 2472,
      " పైగా": 2473,
      " మరియు": 2474,
      "ృత": 2475,
      " ప్రే": 2476,
      " ఫ్": 2477,
      "ంట్లో": 2478,
      " వ్యాఖ్యలు": 2479,
      "సన్": 2480,
      "ించడానికి": 2481,
      "ండీ": 2482,
      " పరుగులు": 2483,
      "నంగా": 2484,
      "డమే": 2485,
      "ాను": 2486,
      "రగా": 2487,
      " విధా": 2488,
      " తెర": 2489,
      "ీర్": 2490,
      " భద్ర": 2491,
      "మన": 2492,
      "ప్తు": 2493,
      " ముందుకు": 2494,
      " అధికారంలోకి": 2495,
      " ఎక్స్": 2496,
      " వేయ": 2497,
      "ద్యా": 2498,
      " దో": 2499,
      " ఆరోగ్య": 2500,
      "సిటీ": 2501,
      " గంటలకు": 2502,
      "కొన్ని": 2503,
      "క్రవారం": 2504,
      " కార్యాల": 2505,
      " వెంకట": 2506,
      "జిక": 2507,
      " కానీ": 2508,
      "నాన్ని": 2509,
      "క్త": 2510,
      "లక్ష": 2511,
      " కొందరు": 2512,
      " నిర్వహి": 2513,
      " నిర్వహించారు": 2514,
      "క్టో": 2515,
      "చ్చి": 2516,
      " స్కూ": 2517,
      "అనంతరం": 2518,
      " కూటమి": 2519,
      " మోడీ": 2520,
      "తమ": 2521,
      " ఇబ్బ": 2522,
      " స్వీ": 2523,
      "స్తుందని": 2524,
      " పెళ్లి": 2525,
      "మవారం": 2526,
      "ర్మి": 2527,
      " అప్ప": 2528,
      "ండ్ల": 2529,
      " వైపు": 2530,
      "వరు": 2531,
      " పాట": 2532,
      "రావ": 2533,
      "పోవ": 2534,
      "చూ": 2535,
      "చె": 2536,
      "రాజ్": 2537,
      "వుడ్": 2538,
      " సంబంధించి": 2539,
      "నింగ్": 2540,
      " బై": 2541,
      " వారిని": 2542,
      "వ్య": 2543,
      "నె": 2544,
      " ఎంతో": 2545,
      " వివరించారు": 2546,
      " రాజీ": 2547,
      "ప్రభు": 2548,
      " పరిష్": 2549,
      "తాజాగా": 2550,
      "ండే": 2551,
      "100": 2552,
      " ఇంటర్": 2553,
      "ంగల్": 2554,
      "ణీ": 2555,
      " ప్రై": 2556,
      " వేదిక": 2557,
      " పెట్టి": 2558,
      " ఇబ్బందు": 2559,
      " మరోసారి": 2560,
      "పించారు": 2561,
      " మరణ": 2562,
      " ఎవర": 2563,
      "లాండ్": 2564,
      " అభిప్ర": 2565,
      " కారు": 2566,
      " రైల్వే": 2567,
      "తిని": 2568,
      "ారిటీ": 2569,
      " ప్రజలకు": 2570,
      " చైర్మన్": 2571,
      "ారాయణ": 2572,
      "హన్": 2573,
      "‌ర్": 2574,
      " నిలిచ": 2575,
      "కొత్త": 2576,
      " డైరెక్టర్": 2577,
      "‌ని": 2578,
      "టీసీ": 2579,
      " కాల్": 2580,
      "ోత్స": 2581,
      " అడి": 2582,
      "ినట్లు": 2583,
      "మిళ": 2584,
      " కార్యక్రమా": 2585,
      " ఉంటుందని": 2586,
      "శ్రీ": 2587,
      " అధినే": 2588,
      " సీనియర్": 2589,
      " మర": 2590,
      "లియా": 2591,
      "లేక": 2592,
      "ంత్రం": 2593,
      "జ్ఞ": 2594,
      " భూమి": 2595,
      " ఫా": 2596,
      " పోస్టు": 2597,
      " కనిపించ": 2598,
      " త్వ": 2599,
      " జరిగే": 2600,
      " పరిశీల": 2601,
      " రోడ్": 2602,
      " నరే": 2603,
      " ఫలిత": 2604,
      "యిర్": 2605,
      " అక్కడ": 2606,
      "ధాని": 2607,
      "...": 2608,
      " చేస్తే": 2609,
      " ఆహ": 2610,
      " రోజుల్లో": 2611,
      "ారాన్ని": 2612,
      "పూ": 2613,
      "ప్షన్": 2614,
      " ప్రశ్నించారు": 2615,
      "పడిన": 2616,
      " ప్లే": 2617,
      "ముఖ్య": 2618,
      " కేంద్రం": 2619,
      " చేసేందుకు": 2620,
      " ప్రమాదం": 2621,
      " వస్తున్న": 2622,
      " ఇంకా": 2623,
      " ఇప్పటి": 2624,
      " సర్వే": 2625,
      " అవసర": 2626,
      " మండల": 2627,
      " వస్తే": 2628,
      "జ్రాయ": 2629,
      "ప్పుడ": 2630,
      "తల": 2631,
      "టిలో": 2632,
      " తనకు": 2633,
      " అక్కడి": 2634,
      " నివే": 2635,
      "తున్నారని": 2636,
      " బస్సు": 2637,
      "గల": 2638,
      " ఆత్మ": 2639,
      " నమోద": 2640,
      "ంటో": 2641,
      " అండ్": 2642,
      " శ్రీనివాస్": 2643,
      "వాళ": 2644,
      "పురం": 2645,
      "గ్రహం": 2646,
      "ాలనే": 2647,
      "ెబ్బ": 2648,
      "ర్యాప్తు": 2649,
      "21": 2650,
      "ండ్ర": 2651,
      " నేను": 2652,
      " తీసుకె": 2653,
      " వృ": 2654,
      " బయటకు": 2655,
      " ఫీ": 2656,
      " పేరుతో": 2657,
      "న్సిప": 2658,
      "మరి": 2659,
      " లక్ష్": 2660,
      " ఎవరి": 2661,
      "ంగళవారం": 2662,
      " దీని": 2663,
      " గ్రూ": 2664,
      " పేర్కొంది": 2665,
      "రాల": 2666,
      " అదే": 2667,
      "నుక": 2668,
      "గ్రా": 2669,
      "రుగా": 2670,
      "రుపు": 2671,
      " అనేది": 2672,
      "మిక": 2673,
      " చేరి": 2674,
      " కేసులు": 2675,
      " నగర్": 2676,
      " జైలు": 2677,
      "ొచ్చు": 2678,
      " నింది": 2679,
      "నివారం": 2680,
      " చేయడానికి": 2681,
      " పూజ": 2682,
      "దుపు": 2683,
      "నాడు": 2684,
      " బాగా": 2685,
      "బీఐ": 2686,
      "గూడ": 2687,
      " అప్": 2688,
      " సుప్రీం": 2689,
      "మ్మి": 2690,
      " పాలన": 2691,
      " సొంత": 2692,
      "23": 2693,
      "ఎఫ్": 2694,
      "్రియ": 2695,
      " రద్దు": 2696,
      "ట్రో": 2697,
      " జే": 2698,
      "హ్మ": 2699,
      " ప్రమాద": 2700,
      "ృష్ట": 2701,
      " కేటాయ": 2702,
      "ులను": 2703,
      " బాధ": 2704,
      "చంద్రబాబు": 2705,
      " అందుకు": 2706,
      "ళ్లకు": 2707,
      " పక్క": 2708,
      " ఆరోపణలు": 2709,
      " చేస": 2710,
      " యాద": 2711,
      " అర్థ": 2712,
      " పోలింగ్": 2713,
      " నాగ": 2714,
      "కపోవడంతో": 2715,
      "భవ": 2716,
      " అయ్యారు": 2717,
      " బోర్": 2718,
      "దేశం": 2719,
      " ఏర్పా": 2720,
      " సెల": 2721,
      "జ్రాయెల్": 2722,
      "ల్యా": 2723,
      "హెచ్": 2724,
      "ంక": 2725,
      "ాలీవుడ్": 2726,
      "ంకర్": 2727,
      "పోయి": 2728,
      " తేదీన": 2729,
      " అంచనా": 2730,
      "నాల": 2731,
      "నియా": 2732,
      " చీఫ్": 2733,
      " విస్త": 2734,
      "ంలోనే": 2735,
      "కౌ": 2736,
      " క్రికెట్": 2737,
      " అధినేత": 2738,
      "దర్శి": 2739,
      " చేశారని": 2740,
      "కొండ": 2741,
      "జం": 2742,
      " ఎన్నికలు": 2743,
      "్యూటీ": 2744,
      " మండలం": 2745,
      "డికి": 2746,
      " వివిధ": 2747,
      " జరుగుతున్న": 2748,
      "రీస్": 2749,
      " వ్యవస్థ": 2750,
      " కొట్ట": 2751,
      " గాయ": 2752,
      "మర్": 2753,
      " విలువ": 2754,
      "కూడ": 2755,
      " సహా": 2756,
      " సంక్ష": 2757,
      " రైతు": 2758,
      "స్థాన్": 2759,
      " రిజర్": 2760,
      "మరోవైపు": 2761,
      "సుప": 2762,
      " కల్యా": 2763,
      "28": 2764,
      " తప్పు": 2765,
      "కిత్స": 2766,
      " ఓవర్": 2767,
      " సామా": 2768,
      " దక్క": 2769,
      " ప్రస": 2770,
      " నడు": 2771,
      " అభిమాను": 2772,
      "అంతే": 2773,
      "ar": 2774,
      " దాడు": 2775,
      " అతని": 2776,
      "్రమ": 2777,
      " దర్యాప్తు": 2778,
      " తగ్": 2779,
      "ాలన్నారు": 2780,
      "రికీ": 2781,
      "ట్రా": 2782,
      "ించినట్లు": 2783,
      "ళ్లలో": 2784,
      "రువారం": 2785,
      "ంక్": 2786,
      " బొ": 2787,
      "ఆమె": 2788,
      " దేవ": 2789,
      "పుణ": 2790,
      "కులకు": 2791,
      "ణంలో": 2792,
      " సభ్యులు": 2793,
      " సంజయ్": 2794,
      "ప్పి": 2795,
      " పిటి": 2796,
      " పాకి": 2797,
      " వరు": 2798,
      " బ్": 2799,
      "డ్జ": 2800,
      " తది": 2801,
      " విమర్శించారు": 2802,
      "కపోతే": 2803,
      "మానం": 2804,
      "గతంలో": 2805,
      "ఫొటో": 2806,
      "ల్లోకి": 2807,
      " సహాయ": 2808,
      "ప్తి": 2809,
      " పోస్ట్": 2810,
      " కేవలం": 2811,
      "భూ": 2812,
      " తయారు": 2813,
      " పార్టీకి": 2814,
      " వరకూ": 2815,
      " సూర్": 2816,
      " మాట్లాడారు": 2817,
      " జరిగి": 2818,
      "సాయ": 2819,
      " ప్రముఖ": 2820,
      "జాతీయ": 2821,
      "గాయి": 2822,
      " ఎన్న": 2823,
      " కళ్యా": 2824,
      "ించారని": 2825,
      " ఆట": 2826,
      "స్త్ర": 2827,
      " మొదలు": 2828,
      " పదవి": 2829,
      " వాతావరణ": 2830,
      " ب": 2831,
      " ఎత్తు": 2832,
      "్యంగా": 2833,
      "డవ": 2834,
      " పంపి": 2835,
      "ళ్లను": 2836,
      "ించాలి": 2837,
      " విధంగా": 2838,
      " నట": 2839,
      " నెలకొ": 2840,
      " లాంటి": 2841,
      "బట్టి": 2842,
      "నంద": 2843,
      " జి": 2844,
      "ంస": 2845,
      "జె": 2846,
      " ఎదుర్కొ": 2847,
      "ధ్యా": 2848,
      " వివ": 2849,
      "వాల్సి": 2850,
      " నివేదిక": 2851,
      " కర్ణాటక": 2852,
      "ంబా": 2853,
      "ద్దీ": 2854,
      " మంత్ర": 2855,
      " ఆప": 2856,
      " నిలి": 2857,
      " చేస్తామని": 2858,
      " చివరి": 2859,
      "ధవారం": 2860,
      "స్తున్నారని": 2861,
      " ఓటు": 2862,
      " రైతులు": 2863,
      "ಲ್ಲ": 2864,
      " సంతో": 2865,
      "బిత": 2866,
      " పర్": 2867,
      " సమస్యలు": 2868,
      "శాల": 2869,
      " చేరు": 2870,
      "వుల": 2871,
      " లేని": 2872,
      " ఎమ్మెల్సీ": 2873,
      " కావడంతో": 2874,
      "ట్లను": 2875,
      "డ్జెట్": 2876,
      " పంట": 2877,
      " గెలు": 2878,
      "కేంద్ర": 2879,
      " బాధి": 2880,
      " కాపా": 2881,
      " ప్రాంతంలో": 2882,
      "ನ್": 2883,
      " అయితే": 2884,
      "ఖాస్తు": 2885,
      " ప్రభావం": 2886,
      " పర్యటన": 2887,
      "దులు": 2888,
      " చేసినట్లు": 2889,
      " ప్రకటించింది": 2890,
      "ప్రిల్": 2891,
      " తాము": 2892,
      " నిమి": 2893,
      " کے": 2894,
      " ప్రయాణి": 2895,
      " దాఖ": 2896,
      " అరెస్టు": 2897,
      "రియ": 2898,
      " విక్ర": 2899,
      "వాస": 2900,
      "గ్రత్త": 2901,
      " వయ": 2902,
      "లిం": 2903,
      "బీఆర్ఎస్": 2904,
      "స్ట్రే": 2905,
      " و": 2906,
      "27": 2907,
      " అడ్డు": 2908,
      " కృష్ణ": 2909,
      " మాన": 2910,
      " బిల్లు": 2911,
      " నిరసన": 2912,
      "ఠా": 2913,
      " మందికి": 2914,
      " ఇలాంటి": 2915,
      " తీసుకో": 2916,
      "వంటి": 2917,
      " రోజులు": 2918,
      " బంగారం": 2919,
      "వాల": 2920,
      " స్థాయిలో": 2921,
      "రస్": 2922,
      " ఇవ్వాలని": 2923,
      "గతి": 2924,
      " కప్": 2925,
      " టె": 2926,
      "ైల్": 2927,
      "క్ట్": 2928,
      " గే": 2929,
      " అత్యంత": 2930,
      "26": 2931,
      "సీఎం": 2932,
      " ఆగ": 2933,
      " రైలు": 2934,
      " ఖర్చు": 2935,
      "ంపై": 2936,
      " రాయ": 2937,
      "ికా": 2938,
      "నానికి": 2939,
      " ప్లాన్": 2940,
      " అక్రమ": 2941,
      " దశ": 2942,
      "సిడ": 2943,
      " భారీగా": 2944,
      "పర": 2945,
      "రెండు": 2946,
      " కామెంట్": 2947,
      "వారికి": 2948,
      " అంటున్నారు": 2949,
      "ముందు": 2950,
      " మండిపడ్డారు": 2951,
      " భావ": 2952,
      " సమీప": 2953,
      "క్టోబర్": 2954,
      " పిటిషన్": 2955,
      "డుక": 2956,
      "దేశంలో": 2957,
      "సెంబర్": 2958,
      " అంగ": 2959,
      "ెన్సీ": 2960,
      "ితంగా": 2961,
      " చికిత్స": 2962,
      "ర్ల": 2963,
      " ఆసుప": 2964,
      " డ్రై": 2965,
      "అస": 2966,
      "లిక": 2967,
      " ముగ్గు": 2968,
      "ంపిక": 2969,
      " కళ్యాణ్": 2970,
      " కవిత": 2971,
      " దెబ్బ": 2972,
      "స్తున్నట్లు": 2973,
      " ఆరు": 2974,
      " బంధ": 2975,
      " హక్కు": 2976,
      "ప్రజ": 2977,
      "ండ్లు": 2978,
      "న్లు": 2979,
      " ట్యా": 2980,
      " వరద": 2981,
      " అలా": 2982,
      "మ్మడి": 2983,
      "కోవాలని": 2984,
      " భూము": 2985,
      "రఖాస్తు": 2986,
      "ొక": 2987,
      " పట్టు": 2988,
      " జిల్లాల్లో": 2989,
      "వల్ల": 2990,
      " చేయాలి": 2991,
      " క్ష": 2992,
      "బడు": 2993,
      " మెంట్": 2994,
      " బ్ర": 2995,
      "యోగం": 2996,
      " నరేంద్ర": 2997,
      " ن": 2998,
      "గాల్లో": 2999,
      "టివ్": 3000,
      " ಮ": 3001,
      "ఇదే": 3002,
      "టిఫ": 3003,
      " తెచ్చ": 3004,
      " పార్టీలో": 3005,
      "ప్టెంబర్": 3006,
      "మిత్": 3007,
      " భక్తులు": 3008,
      "గారు": 3009,
      "ౌన్": 3010,
      "నామా": 3011,
      "య్యాయి": 3012,
      " బాబు": 3013,
      "భారత్": 3014,
      " ఉన్నట్లు": 3015,
      " విమర్శలు": 3016,
      "ఫా": 3017,
      "యిన": 3018,
      "ంగి": 3019,
      "ంగ్స్": 3020,
      "ుత్": 3021,
      " సార్": 3022,
      " کی": 3023,
      "న్నాడు": 3024,
      " విద్యా": 3025,
      " వినియోగ": 3026,
      "ళీ": 3027,
      " బీబీసీ": 3028,
      "పార్టీ": 3029,
      " ఇంట్లో": 3030,
      " ప్రతిపక్ష": 3031,
      "ారన్నారు": 3032,
      " విషయాన్ని": 3033,
      " వెళ్లే": 3034,
      " ఇబ్బందులు": 3035,
      "ెడ": 3036,
      " میں": 3037,
      "లన": 3038,
      "‌న": 3039,
      "‌మెంట్": 3040,
      " అడ్": 3041,
      "య్యా": 3042,
      "లియన్": 3043,
      " శరీ": 3044,
      " జాగ్రత్త": 3045,
      " అయి": 3046,
      " గెలిచ": 3047,
      " తీర్పు": 3048,
      " ఎంపిక": 3049,
      " సిరీస్": 3050,
      " నోటీ": 3051,
      " గతంలో": 3052,
      "రిత్ర": 3053,
      " ఒకే": 3054,
      " తాజాగా": 3055,
      " బహి": 3056,
      " పాఠ": 3057,
      " సాయంత్రం": 3058,
      " ప్రైవే": 3059,
      "ారనే": 3060,
      " వాటిని": 3061,
      "యన్స్": 3062,
      " రికార్డు": 3063,
      "ంబై": 3064,
      " అవకాశాలు": 3065,
      " ఎదురు": 3066,
      " ఉపా": 3067,
      "యంగా": 3068,
      "హత్య": 3069,
      " సమావేశం": 3070,
      "కపోవడం": 3071,
      "ప్రద": 3072,
      " బెయిల్": 3073,
      " చేసారు": 3074,
      "సింగ్": 3075,
      " సైతం": 3076,
      "రిలో": 3077,
      " వచ్చాయి": 3078,
      " అధికారి": 3079,
      " సూపర్": 3080,
      " పలువు": 3081,
      "ంచే": 3082,
      " షర్మి": 3083,
      " పూర్తిగా": 3084,
      "వంబర్": 3085,
      "అధిక": 3086,
      " వేడుక": 3087,
      " కురి": 3088,
      " ఉండగా": 3089,
      " జీవిత": 3090,
      " ల్యా": 3091,
      " చేస్తు": 3092,
      " నష్ట": 3093,
      " నటి": 3094,
      " లభ": 3095,
      "ండె": 3096,
      "భారత": 3097,
      " స్వామి": 3098,
      " సెంటర్": 3099,
      " రూపొ": 3100,
      "ించుకో": 3101,
      "వార": 3102,
      "పోయా": 3103,
      "కంటే": 3104,
      " మున్సిప": 3105,
      " జీవి": 3106,
      "ఫు": 3107,
      "రించారు": 3108,
      " వేగ": 3109,
      "రణ్": 3110,
      "డుతున్న": 3111,
      " సిటీ": 3112,
      " చేసుకున్నారు": 3113,
      " వంద": 3114,
      " కోరు": 3115,
      "ధ్యాహ్": 3116,
      "ఫర్": 3117,
      " ధరలు": 3118,
      " గ్రామా": 3119,
      " కంట": 3120,
      " సమర్": 3121,
      " బ్రి": 3122,
      "డ్స్": 3123,
      " నామ": 3124,
      "తాను": 3125,
      "కోవడానికి": 3126,
      " కార్మి": 3127,
      " స్థానిక": 3128,
      " ఇంటికి": 3129,
      " అదుపు": 3130,
      " ఎయిర్": 3131,
      " మహిళా": 3132,
      "60": 3133,
      "ఇలా": 3134,
      "రవ": 3135,
      " లైన్": 3136,
      " బెంగళూరు": 3137,
      " స్థానంలో": 3138,
      " ت": 3139,
      " ఆక": 3140,
      " ಸ": 3141,
      "అందులో": 3142,
      "దిరి": 3143,
      " ట్వీ": 3144,
      "హీ": 3145,
      "నాథ్": 3146,
      " ప్రయోజ": 3147,
      " టెక్": 3148,
      "పెద్ద": 3149,
      " గవర్": 3150,
      " కార్యదర్శి": 3151,
      "కల": 3152,
      "ంటుంది": 3153,
      "ించనున్నారు": 3154,
      "తికి": 3155,
      " జాబిత": 3156,
      "టువంటి": 3157,
      " పౌ": 3158,
      " కల్యాణ్": 3159,
      " د": 3160,
      " ج": 3161,
      " .\n": 3162,
      " చెప్పిన": 3163,
      "రాష్ట్రంలో": 3164,
      " పది": 3165,
      "రేట్": 3166,
      " అభిప్రాయ": 3167,
      " ప్రేమ": 3168,
      "ష్ణ": 3169,
      " తీసుకొచ్చ": 3170,
      " తెలుసు": 3171,
      " బీసీ": 3172,
      "ఖీ": 3173,
      "కుమార్": 3174,
      " ఆరోగ": 3175,
      " డబ్బులు": 3176,
      " బృ": 3177,
      " తీసుకున్నారు": 3178,
      "శ్ర": 3179,
      "in": 3180,
      "ఫె": 3181,
      "బూ": 3182,
      " దక్షి": 3183,
      " పొంద": 3184,
      "ణంగా": 3185,
      " క్ల": 3186,
      "ందనే": 3187,
      "al": 3188,
      " దరఖాస్తు": 3189,
      "లక్": 3190,
      "29": 3191,
      " చొ": 3192,
      " ఇబ్బంది": 3193,
      " ప్రాధా": 3194,
      " బడ్జెట్": 3195,
      " మీరు": 3196,
      "ేస్": 3197,
      "న్యం": 3198,
      "ట్లో": 3199,
      "పాద": 3200,
      " ఇచ్చింది": 3201,
      " సుప్రీంకోర్టు": 3202,
      "ತ್": 3203,
      "ర్యంలో": 3204,
      "మహ": 3205,
      "కున్నారు": 3206,
      "రానికి": 3207,
      " సిద్ద": 3208,
      "షం": 3209,
      " కమ": 3210,
      " కృ": 3211,
      "రామ": 3212,
      " స్పష్ట": 3213,
      " పార్టీల": 3214,
      " చేస్తారు": 3215,
      " పార్లమెంట్": 3216,
      "ఫిక్": 3217,
      "్యాన్ని": 3218,
      " తమకు": 3219,
      " ఆడ": 3220,
      "ంపల్లి": 3221,
      " ప్రేక్ష": 3222,
      " కర": 3223,
      " చరిత్ర": 3224,
      " ఇజ్రాయెల్": 3225,
      "యాల్లో": 3226,
      "మ్మం": 3227,
      "షనర్": 3228,
      " విదేశ": 3229,
      "ెట్టి": 3230,
      " నడి": 3231,
      " జూన్": 3232,
      " తండ్రి": 3233,
      " శక్తి": 3234,
      "అది": 3235,
      "క్యూ": 3236,
      "ಿದ": 3237,
      "ారులు": 3238,
      " ప్రచార": 3239,
      "కేష్": 3240,
      "తెలంగాణలో": 3241,
      "500": 3242,
      "ద్రా": 3243,
      "సరి": 3244,
      " ఇక్కడ": 3245,
      " తీరు": 3246,
      "ద్దని": 3247,
      "ద్యం": 3248,
      " కనిప": 3249,
      "విష్య": 3250,
      " పత్ర": 3251,
      " వాయి": 3252,
      " కాలేజీ": 3253,
      "కరి": 3254,
      "వల్": 3255,
      "దువు": 3256,
      "ద్దేశ": 3257,
      "కాం": 3258,
      " చేర": 3259,
      "టిల్": 3260,
      "ప్టెన్": 3261,
      " లెక్క": 3262,
      " భర్త": 3263,
      " వరుస": 3264,
      " R": 3265,
      "ఖ్యా": 3266,
      "రింగ్": 3267,
      "్వర్యంలో": 3268,
      " ವ": 3269,
      " ఇండి": 3270,
      " పార్టీలు": 3271,
      "హిత్": 3272,
      " వ్యాప్తంగా": 3273,
      " యాత్ర": 3274,
      " హు": 3275,
      " ఇచ్చి": 3276,
      " ప్యా": 3277,
      "ినేషన్": 3278,
      "కులను": 3279,
      " ఇటీవల": 3280,
      "ఖర్": 3281,
      "టన్": 3282,
      " వస్తుంది": 3283,
      " హరీ": 3284,
      " మార్చ": 3285,
      "టెడ్": 3286,
      " భారతీయ": 3287,
      " పలువురు": 3288,
      " వది": 3289,
      " ఆన్": 3290,
      " గుర్తి": 3291,
      " క్యాప్షన్": 3292,
      " సీట్లు": 3293,
      "ఫ్ట్": 3294,
      " మార్చి": 3295,
      " కార్పొ": 3296,
      "స్ట్రేలియా": 3297,
      "తొ": 3298,
      "ور": 3299,
      "గ్రీ": 3300,
      "సాద్": 3301,
      " ప్రయత్నం": 3302,
      " కోట్": 3303,
      " రాజీనామా": 3304,
      " కలిగి": 3305,
      "ందం": 3306,
      "సార్లు": 3307,
      "‌సభ": 3308,
      " పోలీసులకు": 3309,
      "‌ర": 3310,
      " నూ": 3311,
      "దీనికి": 3312,
      " నిర్వహించిన": 3313,
      " లాభ": 3314,
      " విభా": 3315,
      " కాదని": 3316,
      "క్కడే": 3317,
      " అంతర్": 3318,
      " గ్రూప్": 3319,
      " యాదవ్": 3320,
      " తెలిసింది": 3321,
      " కారణం": 3322,
      " కార్డు": 3323,
      " పెం": 3324,
      " ఆధ్వర్యంలో": 3325,
      " ఉత్ప": 3326,
      "కేసీఆర్": 3327,
      " సంక్షేమ": 3328,
      "ధ్యాహ్నం": 3329,
      "ండు": 3330,
      " నై": 3331,
      " నీటి": 3332,
      " బాధ్యత": 3333,
      " నీరు": 3334,
      "జిల్": 3335,
      "రాత్రి": 3336,
      " శుక్రవారం": 3337,
      " ఒకటి": 3338,
      " స్పె": 3339,
      " తెలంగాణలో": 3340,
      " ఆస్ప": 3341,
      "రిని": 3342,
      "నేను": 3343,
      " ..\n": 3344,
      "తుల్లో": 3345,
      "వేల": 3346,
      " శుభ": 3347,
      " హాజర": 3348,
      "మన్": 3349,
      " మహా": 3350,
      " భయ": 3351,
      " చేస్తున్నారని": 3352,
      " ట్వీట్": 3353,
      " చేయా": 3354,
      " సర్వీ": 3355,
      " తమిళ": 3356,
      " లేఖ": 3357,
      "ఏపీలో": 3358,
      "తాయని": 3359,
      "విద్య": 3360,
      "నున్నాయి": 3361,
      " అందుబాటులో": 3362,
      " వాటి": 3363,
      "న్నై": 3364,
      " కమిషన్": 3365,
      " గణ": 3366,
      " ఫై": 3367,
      " స్టా": 3368,
      " ఉండాలని": 3369,
      " అద్": 3370,
      " యుద్ధ": 3371,
      " కన్": 3372,
      "ంగు": 3373,
      " భే": 3374,
      " ఫొటో": 3375,
      "పోలీ": 3376,
      "ారాష్ట్ర": 3377,
      " చూప": 3378,
      " అనుకూల": 3379,
      " నెలల": 3380,
      " తీవ్రంగా": 3381,
      "స్తాయని": 3382,
      " గుర్తించారు": 3383,
      " స్థి": 3384,
      " పొందు": 3385,
      " పండు": 3386,
      " తొలగ": 3387,
      " ఆసుపత్రి": 3388,
      "మొద": 3389,
      "పడింది": 3390,
      " యూనివర్": 3391,
      " సామ": 3392,
      " తిన": 3393,
      " ఆంధ్రప్రదేశ్": 3394,
      "ంశ": 3395,
      "ఫ్ర": 3396,
      "కోవాలి": 3397,
      "ఎన్నికల": 3398,
      "దీనిపై": 3399,
      "ల్చ": 3400,
      "ان": 3401,
      "లిన": 3402,
      " ఆమో": 3403,
      "లేని": 3404,
      " ఉన్నా": 3405,
      " నియమ": 3406,
      "ఆది": 3407,
      "మ్ము": 3408,
      " విషయ": 3409,
      " దాఖలు": 3410,
      " ఉద్య": 3411,
      " నిపుణ": 3412,
      " వరల్డ్": 3413,
      " పొత్తు": 3414,
      "యింది": 3415,
      "ించాయి": 3416,
      " ఉన్నాయని": 3417,
      " మారి": 3418,
      "వేత్త": 3419,
      " కాలంలో": 3420,
      " చేస్తోంది": 3421,
      " తీసుకోవాలని": 3422,
      " ప్రతిని": 3423,
      " షో": 3424,
      "వాల్సిన": 3425,
      " జగ": 3426,
      " సోమవారం": 3427,
      " వివరాలు": 3428,
      "రాజు": 3429,
      "ಿಯ": 3430,
      " అప్పు": 3431,
      " నేడు": 3432,
      " కుటుంబా": 3433,
      "డత": 3434,
      "దాని": 3435,
      " సమావేశంలో": 3436,
      "దండ్ర": 3437,
      "..?\n": 3438,
      "ళం": 3439,
      " ప్రక్రియ": 3440,
      " ధర్": 3441,
      " స్థాని": 3442,
      "ోన్": 3443,
      " రాజ్": 3444,
      " అధికారిక": 3445,
      "ల్చి": 3446,
      "గానికి": 3447,
      "క్కో": 3448,
      "పులు": 3449,
      " ఫ్ర": 3450,
      " వెల్లడించింది": 3451,
      " షేర్": 3452,
      " నిమిష": 3453,
      "70": 3454,
      "గొండ": 3455,
      "ار": 3456,
      "ష్యా": 3457,
      "ెంట్లు": 3458,
      "షణ": 3459,
      " వన్": 3460,
      " వ్యూ": 3461,
      " రాష్ట్రాల్లో": 3462,
      " కన": 3463,
      "నాల్లో": 3464,
      " సంత": 3465,
      " సబ్": 3466,
      "అత": 3467,
      "మూర్": 3468,
      "రలో": 3469,
      " ఆగ్రహం": 3470,
      " ఉచిత": 3471,
      " షర్మిల": 3472,
      "ౌండ్": 3473,
      "ట్రి": 3474,
      " చైనా": 3475,
      " జరుపు": 3476,
      " సామాజిక": 3477,
      " ఆడి": 3478,
      " వెన": 3479,
      " ఉద్దేశ": 3480,
      " ఒత్తి": 3481,
      " పూర్త": 3482,
      " చేస్తుంది": 3483,
      "ించడంతో": 3484,
      " సింగ": 3485,
      "ంహ": 3486,
      " విద్యుత్": 3487,
      "ద్రి": 3488,
      " ప్రో": 3489,
      " విశ్వ": 3490,
      " సినిమాలో": 3491,
      "పోయాయి": 3492,
      "లైన్": 3493,
      " తగ్గి": 3494,
      " రవి": 3495,
      " ఇంట": 3496,
      " వివే": 3497,
      " నిరా": 3498,
      "వాసం": 3499,
      " రిపో": 3500,
      "ేవారు": 3501,
      " నిజ": 3502,
      " సీజన్": 3503,
      "ಲ್ಲಿ": 3504,
      " ఆధారంగా": 3505,
      "స్క": 3506,
      "రాల్లో": 3507,
      "పీఎల్": 3508,
      " వేసి": 3509,
      " నాకు": 3510,
      "కుంటే": 3511,
      "లాక్": 3512,
      "గులు": 3513,
      "డ్డా": 3514,
      " ఖాన్": 3515,
      " ఆత్మహత్య": 3516,
      "ోధ": 3517,
      " వర్షం": 3518,
      " హాజరు": 3519,
      " కస్ట": 3520,
      " నిబంధ": 3521,
      " స్పీ": 3522,
      "ఇటీవల": 3523,
      "స్పి": 3524,
      "హ్వా": 3525,
      "31": 3526,
      "ంభ": 3527,
      "ంకు": 3528,
      "థి": 3529,
      " వెనుక": 3530,
      " దేశంలో": 3531,
      " సంఘం": 3532,
      " ప్రభుత్వానికి": 3533,
      " సత్య": 3534,
      "కుని": 3535,
      " అవినీ": 3536,
      "స్తోందని": 3537,
      " ఆదేశించారు": 3538,
      "ra": 3539,
      "ఇప్పటి": 3540,
      " కురు": 3541,
      "ంపే": 3542,
      " గ్యా": 3543,
      "స్తారని": 3544,
      " ہے": 3545,
      "ారానికి": 3546,
      "తుడు": 3547,
      " బండి": 3548,
      "మానా": 3549,
      "ప్రపంచ": 3550,
      "ంద్రా": 3551,
      "నున్నట్లు": 3552,
      " అరు": 3553,
      " లేక": 3554,
      " బ్యాంక్": 3555,
      "కునే": 3556,
      "లిక్": 3557,
      "ెక్ట్": 3558,
      " రావడం": 3559,
      " రూపాయలు": 3560,
      " కిలోమీ": 3561,
      "ನ್ನ": 3562,
      " చదువు": 3563,
      " అనంతరం": 3564,
      "లింది": 3565,
      " ఎగ్": 3566,
      " వాహన": 3567,
      " దృష్టి": 3568,
      "ేశ్వర": 3569,
      " భేటీ": 3570,
      "చ్చని": 3571,
      " చూసి": 3572,
      " వరంగల్": 3573,
      " ఇచ్చే": 3574,
      "సిడెంట్": 3575,
      "వని": 3576,
      " పదే": 3577,
      " ఐటీ": 3578,
      "షియల్": 3579,
      " వేదికగా": 3580,
      "తమైన": 3581,
      " వెబ్": 3582,
      "వేషన్": 3583,
      "బోయే": 3584,
      " ఫోటో": 3585,
      " گ": 3586,
      "ంనగర్": 3587,
      "లాల": 3588,
      " అమిత్": 3589,
      "ణ్య": 3590,
      "వ్యూ": 3591,
      " శర్మ": 3592,
      " మూడో": 3593,
      " పారి": 3594,
      "గ్రహ": 3595,
      " అనుమతి": 3596,
      "డప": 3597,
      " స్నే": 3598,
      " కార్యక్రమంలో": 3599,
      " ఏర్పాట్లు": 3600,
      " రహ": 3601,
      " పంపిణీ": 3602,
      "రమ": 3603,
      " పట్ల": 3604,
      "వాహ": 3605,
      " గ్": 3606,
      " ఆలోచన": 3607,
      " ఇండ": 3608,
      "సులో": 3609,
      "తోందని": 3610,
      "ంగ్లా": 3611,
      "ారావు": 3612,
      " కల్పించ": 3613,
      "తిక": 3614,
      "్రీన్": 3615,
      " ముగ్గురు": 3616,
      " ఎక": 3617,
      " ప్రయత్ని": 3618,
      "తకు": 3619,
      "ప్రా": 3620,
      " వాహ": 3621,
      " బ్రా": 3622,
      " జయ": 3623,
      "రుగ": 3624,
      " షాక్": 3625,
      " బహిరంగ": 3626,
      " కృషి": 3627,
      "జార్": 3628,
      "కరించారు": 3629,
      "తెలుగు": 3630,
      " ఆదివారం": 3631,
      " బోర్డు": 3632,
      " ఇంజ": 3633,
      " సమాధా": 3634,
      " క్రితం": 3635,
      "అక్కడ": 3636,
      "ధీ": 3637,
      "తరులు": 3638,
      " అద్భు": 3639,
      " అడ": 3640,
      " దారి": 3641,
      " వాదన": 3642,
      " ఆయనకు": 3643,
      " మెడి": 3644,
      "ంచు": 3645,
      "వాలు": 3646,
      " సీబీఐ": 3647,
      " తరలి": 3648,
      " గుర్తింపు": 3649,
      " విశాఖ": 3650,
      "దానికి": 3651,
      "ెక్ట": 3652,
      " హింద": 3653,
      "ంచ్": 3654,
      "టానికి": 3655,
      "ట్టింది": 3656,
      " వ్యతిరేక": 3657,
      "అంతేకా": 3658,
      "నిమ": 3659,
      " సభలో": 3660,
      " పెట్టారు": 3661,
      " ఎన్నో": 3662,
      "గీ": 3663,
      "ేష్": 3664,
      " రూపాయల": 3665,
      "45": 3666,
      "గణ": 3667,
      " రాజు": 3668,
      " ఫైన": 3669,
      "స్టే": 3670,
      "ట్టే": 3671,
      " చెప్పింది": 3672,
      "రీంనగర్": 3673,
      " ఓడి": 3674,
      " అవార్డు": 3675,
      " అయింది": 3676,
      "దారులు": 3677,
      " క్రీ": 3678,
      " ఇంత": 3679,
      " శనివారం": 3680,
      "ముఖ్యంగా": 3681,
      " వ్యాఖ్యా": 3682,
      " న్యూస్": 3683,
      " రాలే": 3684,
      "చ్చారు": 3685,
      " కూడిన": 3686,
      " కొద్ది": 3687,
      "క్కర్": 3688,
      " కనీ": 3689,
      "కోసం": 3690,
      "శ్చి": 3691,
      " ప్రారంభించారు": 3692,
      "‌క": 3693,
      "స్తులు": 3694,
      "కేషన్": 3695,
      " ఉండాలి": 3696,
      "సారిగా": 3697,
      " మార్పులు": 3698,
      " సీత": 3699,
      "తిరు": 3700,
      "ణానికి": 3701,
      " ఎల్": 3702,
      " ನ": 3703,
      "యాత్ర": 3704,
      " పోష": 3705,
      "ాడని": 3706,
      " అల్": 3707,
      " ఆహ్వా": 3708,
      " ఎవరు": 3709,
      " దిగు": 3710,
      "హ్లీ": 3711,
      "ార్గ": 3712,
      " సంప్రద": 3713,
      "ంటాయి": 3714,
      " వచ్చారు": 3715,
      " ఫ్యాన్స్": 3716,
      " A": 3717,
      " ప్రె": 3718,
      "బ్రవరి": 3719,
      "ట్టిన": 3720,
      "ಂದ": 3721,
      " వాళ్లు": 3722,
      " అయ్యింది": 3723,
      " సంగతి": 3724,
      "హార్": 3725,
      " ఔ": 3726,
      "జరా": 3727,
      " కీ": 3728,
      " ఈడీ": 3729,
      " ఆఫీసర్": 3730,
      " ఆస్పత్రి": 3731,
      " మహిళలు": 3732,
      " మంగళవారం": 3733,
      " గర్": 3734,
      " సంవత్సరం": 3735,
      "ాయింట్": 3736,
      " దారు": 3737,
      " అయినా": 3738,
      " ఇక": 3739,
      " బీఆర్": 3740,
      "వ్వు": 3741,
      "000": 3742,
      "దర": 3743,
      " వడ్": 3744,
      "విట్": 3745,
      " అవుతుంది": 3746,
      "ాలామ": 3747,
      "లికి": 3748,
      "షీ": 3749,
      " మంజ": 3750,
      "ాలంటూ": 3751,
      " సీపీ": 3752,
      "తుండ": 3753,
      " కుమారు": 3754,
      "గ్స్": 3755,
      "35": 3756,
      " ఇంగ్": 3757,
      " నుంచే": 3758,
      "జీవి": 3759,
      "పడే": 3760,
      " సృష్ట": 3761,
      " గురువారం": 3762,
      " షూ": 3763,
      "ఇలాంటి": 3764,
      "క్షలు": 3765,
      "జున్": 3766,
      " సర్కార్": 3767,
      " వెళ్లిన": 3768,
      " ఎన్టీఆర్": 3769,
      "ప్పుడూ": 3770,
      "నంలో": 3771,
      "్యో": 3772,
      " వ్యతిరేకంగా": 3773,
      " సము": 3774,
      " తిరుగు": 3775,
      " గవర్నర్": 3776,
      "దైనా": 3777,
      " చౌ": 3778,
      " చార్": 3779,
      " పరిధిలో": 3780,
      "ెడ్యూ": 3781,
      "ఆంధ్రప్రదేశ్": 3782,
      " వేశారు": 3783,
      " తల్లిదండ్ర": 3784,
      "దరు": 3785,
      " కామెంట్స్": 3786,
      " లోకేష్": 3787,
      " ఎమ్మెల్యేలు": 3788,
      " అత్యధిక": 3789,
      "ాలామంది": 3790,
      "ట్నం": 3791,
      " బాగు": 3792,
      " కావడం": 3793,
      " సంఘటన": 3794,
      "సర్లు": 3795,
      "హో": 3796,
      "ౌస్": 3797,
      "ికేషన్": 3798,
      " వాయిదా": 3799,
      "ట్యూ": 3800,
      " తరలించారు": 3801,
      "ొక్క": 3802,
      " ప్రదర్శ": 3803,
      " నిరు": 3804,
      " ప్రశ్న": 3805,
      "ائ": 3806,
      " సాధారణ": 3807,
      "పడుతుంది": 3808,
      " రుణ": 3809,
      "వరం": 3810,
      " దుర్": 3811,
      "జగన్": 3812,
      "స్టా": 3813,
      "టీడీపీ": 3814,
      " చెప్": 3815,
      " మొత్త": 3816,
      " దిశ": 3817,
      "80": 3818,
      " శ్రే": 3819,
      "ఎంసీ": 3820,
      "త్యా": 3821,
      " కాన్": 3822,
      " గుండె": 3823,
      " అర్థం": 3824,
      "ప్యూటీ": 3825,
      " క్యూ": 3826,
      "తున్నట్లు": 3827,
      " జిల్లాలోని": 3828,
      " ప్రారంభం": 3829,
      "మాని": 3830,
      "య్యి": 3831,
      "ెక్స్": 3832,
      " కమిషనర్": 3833,
      "ಾರ": 3834,
      " మనం": 3835,
      " సీఐ": 3836,
      "య్యే": 3837,
      " చూసిన": 3838,
      "హాన్ని": 3839,
      " విశ్": 3840,
      " ట్రై": 3841,
      " సీటు": 3842,
      "దావరి": 3843,
      " పరిశోధ": 3844,
      "th": 3845,
      "లూ": 3846,
      "న్నది": 3847,
      "ించుకున్నారు": 3848,
      "కరించ": 3849,
      " అందరూ": 3850,
      " జాబితా": 3851,
      " అప్ర": 3852,
      "న్నే": 3853,
      " రామ్": 3854,
      " అవి": 3855,
      " అంబ": 3856,
      " భవిష్య": 3857,
      " రైతులకు": 3858,
      "రవే": 3859,
      " వాడ": 3860,
      "కిల్": 3861,
      "శ్చ": 3862,
      "یک": 3863,
      "ార్డ్": 3864,
      "మహిళ": 3865,
      "వాళ్లు": 3866,
      " ఒప్ప": 3867,
      "ఎస్సీ": 3868,
      "న్మ": 3869,
      "ర్చి": 3870,
      " చెంద": 3871,
      " ప్రయత్నాలు": 3872,
      "డెన్": 3873,
      "రలోనే": 3874,
      " సాయం": 3875,
      "ల్లే": 3876,
      "ాయు": 3877,
      "ల్లం": 3878,
      " చూపి": 3879,
      " సూర్య": 3880,
      " క్వ": 3881,
      " బే": 3882,
      "స్తానని": 3883,
      " ఏప్రిల్": 3884,
      " పరిమి": 3885,
      " తీసుకుని": 3886,
      " నియోజకవర్గం": 3887,
      " యూనివర్సిటీ": 3888,
      " హ్యా": 3889,
      " పిలుపు": 3890,
      " చేపట్టారు": 3891,
      " తిరుపతి": 3892,
      " పాకిస్తాన్": 3893,
      "బెట్": 3894,
      " ప్రీ": 3895,
      " వేళ": 3896,
      " నాయుడు": 3897,
      "వచ్చే": 3898,
      " సెల్": 3899,
      " లక్షలు": 3900,
      " రూపొందించ": 3901,
      "నిఖీ": 3902,
      "జరాత్": 3903,
      " ಕ": 3904,
      "‌లను": 3905,
      " నష్టం": 3906,
      "స్తుత": 3907,
      "ాలిటీ": 3908,
      "ించుకున్న": 3909,
      " ఆదేశాలు": 3910,
      " పెరిగి": 3911,
      "స్ట్రీ": 3912,
      "స్వామ": 3913,
      " ఖాళీ": 3914,
      "ెయిన్": 3915,
      "ందుకంటే": 3916,
      " రోహిత్": 3917,
      " సెక్ర": 3918,
      " విద్యార్థులు": 3919,
      "త్రం": 3920,
      " మంత్రులు": 3921,
      " స్వాధీ": 3922,
      " కార్యకర్తలు": 3923,
      " ఎక్కడ": 3924,
      " ఓట్లు": 3925,
      " ఉంటారు": 3926,
      " గౌడ్": 3927,
      " నిద్ర": 3928,
      " జనవరి": 3929,
      " వ్యాపార": 3930,
      "టై": 3931,
      " మద్యం": 3932,
      " ఇష్ట": 3933,
      "గ్గా": 3934,
      " తనను": 3935,
      " వసూ": 3936,
      " ఏడు": 3937,
      " చేసుకుంది": 3938,
      " ట్రాఫిక్": 3939,
      "నాలను": 3940,
      "పున": 3941,
      "మిండియా": 3942,
      " అగ్ర": 3943,
      "పోయే": 3944,
      " సుమారు": 3945,
      "ుడి": 3946,
      "కాలం": 3947,
      " బంధు": 3948,
      "కలు": 3949,
      " వాళ్ల": 3950,
      " మిగి": 3951,
      " నిపుణులు": 3952,
      "ార్గెట్": 3953,
      "తర్వాత": 3954,
      " ఎక్క": 3955,
      " ముందే": 3956,
      "స్థాయి": 3957,
      " బుధవారం": 3958,
      " ఉత్తర్": 3959,
      "త్తా": 3960,
      " హాస్పి": 3961,
      " ఓటమి": 3962,
      " కెప్టెన్": 3963,
      " బ్యాంకు": 3964,
      " సరైన": 3965,
      " స్కూల్": 3966,
      " ఎవరూ": 3967,
      " నర్": 3968,
      "ధుల": 3969,
      "సీబీ": 3970,
      " తీసుకుంట": 3971,
      "వారిని": 3972,
      "er": 3973,
      " పెంచు": 3974,
      " విజయవాడ": 3975,
      " దాడులు": 3976,
      "వెల్": 3977,
      " పేద": 3978,
      "మీర్": 3979,
      " పరుగుల": 3980,
      " ఆదాయం": 3981,
      " సార్లు": 3982,
      "గతా": 3983,
      "పన": 3984,
      "నిఫ": 3985,
      " నిధులు": 3986,
      " ముంబై": 3987,
      " కొనసాగ": 3988,
      "చాలా": 3989,
      " భు": 3990,
      " కూతు": 3991,
      " తేడా": 3992,
      " జడ్": 3993,
      " కొడుకు": 3994,
      "ములు": 3995,
      "మొత్తం": 3996,
      " నిర్వహణ": 3997,
      " తిరుమల": 3998,
      " పండుగ": 3999
    },
    "merges": [
      [
        "‌",
        "‌"
      ],
      [
        "ా",
        "ర"
      ],
      [
        ".",
        "\n"
      ],
      [
        " ",
        "ప"
      ],
      [
        "న",
        "ి"
      ],
      [
        "న",
        "్"
      ],
      [
        "్",
        "ర"
      ],
      [
        "ర",
        "్"
      ],
      [
        "స",
        "్"
      ],
      [
        " ",
        "క"
      ],
      [
        " ",
        "వ"
      ],
      [
        "ల",
        "ు"
      ],
      [
        "ం",
        "ద"
      ],
      [
        "‌‌",
        "‌‌"
      ],
      [
        "ల",
        "ో"
      ],
      [
        " ",
        "మ"
      ],
      [
        " ",
        "చ"
      ],
      [
        " ",
        "అ"
      ],
      [
        " ",
        "స"
      ],
      [
        "ల",
        "్"
      ],
      [
        "క",
        "ు"
      ],
      [
        "ార",
        "ు"
      ],
      [
        "్",
        "య"
      ],
      [
        "ట",
        "్"
      ],
      [
        "న్",
        "న"
      ],
      [
        "ం",
        "చ"
      ],
      [
        " ",
        "త"
      ],
      [
        " ",
        "ర"
      ],
      [
        "గ",
        "ా"
      ],
      [
        "క",
        "్"
      ],
      [
        "న",
        "ు"
      ],
      [
        "ంద",
        "ి"
      ],
      [
        "త",
        "ు"
      ],
      [
        " ప",
        "్ర"
      ],
      [
        "ా",
        "ల"
      ],
      [
        "‌‌‌‌",
        "‌‌‌‌"
      ],
      [
        " చ",
        "ే"
      ],
      [
        "ి",
        "ంచ"
      ],
      [
        " ",
        "ఆ"
      ],
      [
        "డ",
        "ి"
      ],
      [
        " ",
        "బ"
      ],
      [
        "ం",
        "ట"
      ],
      [
        "డ",
        "ు"
      ],
      [
        "ర",
        "ి"
      ],
      [
        "ం",
        "త"
      ],
      [
        " ",
        "ఉ"
      ],
      [
        "ి",
        "న"
      ],
      [
        " ",
        "న"
      ],
      [
        "క",
        "ి"
      ],
      [
        "ప",
        "్"
      ],
      [
        "ా",
        "య"
      ],
      [
        " ",
        "జ"
      ],
      [
        "ల",
        "ి"
      ],
      [
        "త",
        "్"
      ],
      [
        "ర",
        "ు"
      ],
      [
        " ",
        "ఎ"
      ],
      [
        " ",
        "ఇ"
      ],
      [
        "ార",
        "్"
      ],
      [
        " వ",
        "ి"
      ],
      [
        "డ",
        "్"
      ],
      [
        " ",
        "ద"
      ],
      [
        " ",
        "గ"
      ],
      [
        "ట",
        "ి"
      ],
      [
        "ల",
        "ా"
      ],
      [
        "ట",
        "ు"
      ],
      [
        "ం",
        "లో"
      ],
      [
        "ం",
        "గ"
      ],
      [
        "స",
        "ు"
      ],
      [
        "ం",
        "గా"
      ],
      [
        "ప్",
        "ప"
      ],
      [
        "ట",
        "ీ"
      ],
      [
        "న్న",
        "ారు"
      ],
      [
        "ద",
        "్"
      ],
      [
        "త",
        "ి"
      ],
      [
        "మ",
        "ా"
      ],
      [
        " ",
        "ని"
      ],
      [
        "డ",
        "ా"
      ],
      [
        "త",
        "ో"
      ],
      [
        "స్",
        "తు"
      ],
      [
        "చ",
        "్"
      ],
      [
        "య",
        "ా"
      ],
      [
        "వ",
        "ా"
      ],
      [
        "‌‌‌‌‌‌‌‌",
        "‌‌‌‌‌‌‌‌"
      ],
      [
        "స",
        "ి"
      ],
      [
        " ర",
        "ా"
      ],
      [
        "ష",
        "్"
      ],
      [
        "న",
        "ే"
      ],
      [
        "న్",
        "ని"
      ],
      [
        " ",
        "స్"
      ],
      [
        " ",
        "ల"
      ],
      [
        "చ్",
        "చ"
      ],
      [
        "గ",
        "ు"
      ],
      [
        "్య",
        "ా"
      ],
      [
        " ",
        "భ"
      ],
      [
        "ద",
        "ి"
      ],
      [
        "ర",
        "ా"
      ],
      [
        "స్",
        "త"
      ],
      [
        "ం",
        "డ"
      ],
      [
        " ",
        "హ"
      ],
      [
        ".",
        ".\n"
      ],
      [
        "ాయ",
        "ి"
      ],
      [
        " చ",
        "ె"
      ],
      [
        "ద",
        "ు"
      ],
      [
        "ి",
        "క"
      ],
      [
        "మ",
        "్"
      ],
      [
        "క",
        "ా"
      ],
      [
        " క",
        "ా"
      ],
      [
        "ంద",
        "ు"
      ],
      [
        " త",
        "ె"
      ],
      [
        "ళ",
        "్"
      ],
      [
        " ",
        "శ"
      ],
      [
        "ప",
        "ు"
      ],
      [
        "క్",
        "ష"
      ],
      [
        "ే",
        "శ"
      ],
      [
        "ె",
        "ం"
      ],
      [
        "ప",
        "ీ"
      ],
      [
        " ",
        "ను"
      ],
      [
        "న",
        "ా"
      ],
      [
        "వ",
        "ి"
      ],
      [
        " ",
        "ఏ"
      ],
      [
        " క",
        "ో"
      ],
      [
        "ల్",
        "లో"
      ],
      [
        "ప",
        "ై"
      ],
      [
        "స",
        "ీ"
      ],
      [
        "మ",
        "ి"
      ],
      [
        "ల",
        "కు"
      ],
      [
        "వ",
        "ు"
      ],
      [
        "ార",
        "ం"
      ],
      [
        " ",
        "ఈ"
      ],
      [
        "్ర",
        "ి"
      ],
      [
        "ి",
        "ంది"
      ],
      [
        " ",
        "ఫ"
      ],
      [
        "ల",
        "ీ"
      ],
      [
        "ని",
        "కి"
      ],
      [
        "ె",
        "ట్"
      ],
      [
        "ల",
        "ను"
      ],
      [
        "ంత",
        "ో"
      ],
      [
        " క",
        "ూ"
      ],
      [
        " వ",
        "ె"
      ],
      [
        "ార",
        "ి"
      ],
      [
        "ంచ",
        "ి"
      ],
      [
        "ప",
        "ో"
      ],
      [
        " క",
        "ొ"
      ],
      [
        " ప",
        "ో"
      ],
      [
        " మ",
        "ా"
      ],
      [
        "ట",
        "్ర"
      ],
      [
        "క",
        "ో"
      ],
      [
        " ",
        "లో"
      ],
      [
        " క",
        "ే"
      ],
      [
        " క",
        "ు"
      ],
      [
        "ి",
        "ల్"
      ],
      [
        "ర",
        "ో"
      ],
      [
        "ించ",
        "ారు"
      ],
      [
        "ా",
        "మ"
      ],
      [
        "ంగ",
        "్"
      ],
      [
        " స",
        "ం"
      ],
      [
        " త",
        "ీ"
      ],
      [
        "క్",
        "క"
      ],
      [
        " స",
        "ి"
      ],
      [
        " ప",
        "ా"
      ],
      [
        " మ",
        "ు"
      ],
      [
        "బ",
        "ా"
      ],
      [
        "ల",
        "ే"
      ],
      [
        "ె",
        "స్"
      ],
      [
        "ప",
        "్ర"
      ],
      [
        "ా",
        "లు"
      ],
      [
        "బ",
        "్"
      ],
      [
        "ి",
        "త"
      ],
      [
        "ద్",
        "ద"
      ],
      [
        "‌‌‌‌‌‌‌‌‌‌‌‌‌‌‌‌",
        "‌‌‌‌‌‌‌‌‌‌‌‌‌‌‌‌"
      ],
      [
        "ప",
        "ా"
      ],
      [
        " కూ",
        "డా"
      ],
      [
        "ై",
        "న"
      ],
      [
        " ను",
        "ంచి"
      ],
      [
        "్",
        "వ"
      ],
      [
        "మ్",
        "మ"
      ],
      [
        " చే",
        "శ"
      ],
      [
        "డ",
        "ం"
      ],
      [
        " ఉ",
        "న్న"
      ],
      [
        "ద",
        "ీ"
      ],
      [
        "ట్",
        "లు"
      ],
      [
        "త",
        "ం"
      ],
      [
        " అ",
        "ధ"
      ],
      [
        "క",
        "ే"
      ],
      [
        "క",
        "ొ"
      ],
      [
        "న",
        "ీ"
      ],
      [
        " వ",
        "ే"
      ],
      [
        "ంద",
        "్ర"
      ],
      [
        " ని",
        "ర్"
      ],
      [
        "స్తు",
        "న్న"
      ],
      [
        " ",
        "డ"
      ],
      [
        "ె",
        "డ్"
      ],
      [
        " ల",
        "ే"
      ],
      [
        "ప్ప",
        "ు"
      ],
      [
        "ష",
        "న్"
      ],
      [
        "బ",
        "ు"
      ],
      [
        " ",
        "ఒ"
      ],
      [
        "ఆ",
        "ర్"
      ],
      [
        "గ",
        "్"
      ],
      [
        " చే",
        "య"
      ],
      [
        "వ",
        "ే"
      ],
      [
        "ట",
        "ర్"
      ],
      [
        "స",
        "ిన"
      ],
      [
        "య",
        "ం"
      ],
      [
        "సు",
        "కు"
      ],
      [
        " గ",
        "ు"
      ],
      [
        " స",
        "ీ"
      ],
      [
        "జ",
        "ు"
      ],
      [
        " ప",
        "ె"
      ],
      [
        "ట్",
        "ట"
      ],
      [
        " స",
        "మ"
      ],
      [
        " తె",
        "లి"
      ],
      [
        "త",
        "్ర"
      ],
      [
        "ాల",
        "ని"
      ],
      [
        "ంట",
        "ి"
      ],
      [
        "ంద",
        "ని"
      ],
      [
        "య",
        "ో"
      ],
      [
        "త్",
        "త"
      ],
      [
        "ల్",
        "ల"
      ],
      [
        "త్",
        "వ"
      ],
      [
        " ప",
        "ార్"
      ],
      [
        "జ",
        "ీ"
      ],
      [
        " ప్ర",
        "భ"
      ],
      [
        "ద",
        "ా"
      ],
      [
        " వ",
        "ా"
      ],
      [
        "ంట",
        "ు"
      ],
      [
        " చె",
        "ప్ప"
      ],
      [
        "గ",
        "ి"
      ],
      [
        "న",
        "ం"
      ],
      [
        "ర",
        "ీ"
      ],
      [
        "ప",
        "ి"
      ],
      [
        "ెడ్",
        "డి"
      ],
      [
        "జ",
        "్"
      ],
      [
        " వ",
        "్య"
      ],
      [
        "తు",
        "న్న"
      ],
      [
        "ం",
        "డి"
      ],
      [
        "వ",
        "ీ"
      ],
      [
        " బ",
        "ీ"
      ],
      [
        "స",
        "ం"
      ],
      [
        " ",
        "ఓ"
      ],
      [
        " ",
        "ట"
      ],
      [
        "ందు",
        "కు"
      ],
      [
        " ర",
        "ో"
      ],
      [
        " న",
        "ే"
      ],
      [
        " చేశ",
        "ారు"
      ],
      [
        "2",
        "0"
      ],
      [
        " ప",
        "రి"
      ],
      [
        " వ",
        "చ్చ"
      ],
      [
        "ూ",
        "ర్"
      ],
      [
        "య",
        "్య"
      ],
      [
        "ఎ",
        "స్"
      ],
      [
        " ",
        "("
      ],
      [
        "డ",
        "ీ"
      ],
      [
        " ర",
        "ూ"
      ],
      [
        "ంట",
        "ే"
      ],
      [
        "ించ",
        "ిన"
      ],
      [
        "స్",
        "థ"
      ],
      [
        "ం",
        "ధ"
      ],
      [
        "ం",
        "డ్"
      ],
      [
        " పార్",
        "టీ"
      ],
      [
        " అధ",
        "ిక"
      ],
      [
        " అ",
        "వ"
      ],
      [
        "త",
        "ా"
      ],
      [
        "మ",
        "ు"
      ],
      [
        "ార",
        "ని"
      ],
      [
        "ద",
        "్య"
      ],
      [
        "వ",
        "ర్"
      ],
      [
        "ష్",
        "ట్ర"
      ],
      [
        " ప్రభ",
        "ు"
      ],
      [
        "య",
        "న"
      ],
      [
        "ార",
        "ా"
      ],
      [
        "మ",
        "ె"
      ],
      [
        " క",
        "ార"
      ],
      [
        "జ",
        "ా"
      ],
      [
        "ళ్",
        "ల"
      ],
      [
        " ప",
        "ే"
      ],
      [
        "‌",
        "లో"
      ],
      [
        "ర",
        "ే"
      ],
      [
        "్ర",
        "ీ"
      ],
      [
        "ా",
        "డు"
      ],
      [
        " స",
        "ా"
      ],
      [
        " భ",
        "ార"
      ],
      [
        "ె",
        "ల్"
      ],
      [
        " వ",
        "ై"
      ],
      [
        "ించ",
        "ి"
      ],
      [
        "ధ",
        "ా"
      ],
      [
        "ె",
        "ల"
      ],
      [
        " మ",
        "ీ"
      ],
      [
        "వ",
        "ర"
      ],
      [
        " అ",
        "ని"
      ],
      [
        " బ",
        "ా"
      ],
      [
        "మ",
        "ే"
      ],
      [
        " ప్ర",
        "ా"
      ],
      [
        "స",
        "ే"
      ],
      [
        "త",
        "్య"
      ],
      [
        "ాల",
        "ి"
      ],
      [
        "ద",
        "ేశ"
      ],
      [
        "క",
        "్ర"
      ],
      [
        "న్ని",
        "క"
      ],
      [
        "ె",
        "క్"
      ],
      [
        "క",
        "ీ"
      ],
      [
        "తో",
        "ంది"
      ],
      [
        "ెం",
        "ట్"
      ],
      [
        "ధ",
        "ి"
      ],
      [
        "ద",
        "ే"
      ],
      [
        " ",
        "గా"
      ],
      [
        "ర",
        "ం"
      ],
      [
        "హ",
        "ి"
      ],
      [
        " ప్రభు",
        "త్వ"
      ],
      [
        "ాల",
        "ను"
      ],
      [
        ".",
        "."
      ],
      [
        "స",
        "ా"
      ],
      [
        "ు",
        "లు"
      ],
      [
        "జ",
        "ే"
      ],
      [
        " అ",
        "భ"
      ],
      [
        " చే",
        "సి"
      ],
      [
        "ంత",
        "్రి"
      ],
      [
        " ",
        "య"
      ],
      [
        "ం",
        "ప"
      ],
      [
        " ",
        "ష"
      ],
      [
        "చ",
        "ి"
      ],
      [
        " తెలి",
        "ప"
      ],
      [
        "ట్",
        "టు"
      ],
      [
        "రు",
        "గు"
      ],
      [
        " చ",
        "ూ"
      ],
      [
        "య",
        "ి"
      ],
      [
        " ఉ",
        "ండ"
      ],
      [
        "ిత",
        "ే"
      ],
      [
        "ఎ",
        "ం"
      ],
      [
        " జ",
        "రి"
      ],
      [
        "ధ",
        "్య"
      ],
      [
        "్ర",
        "ెస్"
      ],
      [
        "్ర",
        "ా"
      ],
      [
        "స్తు",
        "న్నారు"
      ],
      [
        "వా",
        "త"
      ],
      [
        " చే",
        "సిన"
      ],
      [
        "క్",
        "కు"
      ],
      [
        "ష్",
        "ట"
      ],
      [
        " ద",
        "ా"
      ],
      [
        "కో",
        "వ"
      ],
      [
        " ఎ",
        "న్నిక"
      ],
      [
        " ఆ",
        "యన"
      ],
      [
        " శ",
        "ా"
      ],
      [
        "ఖ",
        "్య"
      ],
      [
        " త",
        "న"
      ],
      [
        "ంగ",
        "్రెస్"
      ],
      [
        "ఫ",
        "్"
      ],
      [
        "ల",
        "తో"
      ],
      [
        "మ",
        "ైన"
      ],
      [
        " ప్ర",
        "క"
      ],
      [
        "య",
        "ంలో"
      ],
      [
        "ప్పు",
        "డు"
      ],
      [
        "ం",
        "డా"
      ],
      [
        " వ",
        "ర"
      ],
      [
        "త",
        "ీ"
      ],
      [
        " రా",
        "ష్ట్ర"
      ],
      [
        "య",
        "ే"
      ],
      [
        " ఒ",
        "క"
      ],
      [
        " మ",
        "ొ"
      ],
      [
        "ర్",
        "శ"
      ],
      [
        " స్",
        "థ"
      ],
      [
        "బా",
        "ద్"
      ],
      [
        "ప్ప",
        "టి"
      ],
      [
        " మ",
        "ంది"
      ],
      [
        "క",
        "ర"
      ],
      [
        "న్",
        "స్"
      ],
      [
        "బ",
        "ీ"
      ],
      [
        "క",
        "ర్"
      ],
      [
        " క",
        "ి"
      ],
      [
        " జ",
        "ిల్"
      ],
      [
        " ర",
        "ెడ్డి"
      ],
      [
        "డ",
        "ంతో"
      ],
      [
        "ం",
        "బ"
      ],
      [
        " న",
        "ా"
      ],
      [
        "ించ",
        "ింది"
      ],
      [
        " కో",
        "సం"
      ],
      [
        " పో",
        "లీ"
      ],
      [
        " రో",
        "జు"
      ],
      [
        " ర",
        "ి"
      ],
      [
        "య",
        "ితే"
      ],
      [
        "వ",
        "ారం"
      ],
      [
        " ",
        "టీ"
      ],
      [
        "లు",
        "గు"
      ],
      [
        "‌‌‌‌‌‌‌‌‌‌‌‌‌‌‌‌‌‌‌‌‌‌‌‌‌‌‌‌‌‌‌‌",
        "‌‌‌‌‌‌‌‌‌‌‌‌‌‌‌‌‌‌‌‌‌‌‌‌‌‌‌‌‌‌‌‌"
      ],
      [
        "ంగా",
        "ణ"
      ],
      [
        " ",
        "ఖ"
      ],
      [
        "సు",
        "లు"
      ],
      [
        " ",
        "డి"
      ],
      [
        "న్",
        "య"
      ],
      [
        " చ",
        "ి"
      ],
      [
        " మ",
        "ార్"
      ],
      [
        " ",
        "ధ"
      ],
      [
        "ర్",
        "థ"
      ],
      [
        "ు",
        "కు"
      ],
      [
        " వ",
        "ీ"
      ],
      [
        "మ",
        "ో"
      ],
      [
        " జిల్",
        "లా"
      ],
      [
        " వి",
        "ష"
      ],
      [
        "శ",
        "్"
      ],
      [
        " స",
        "మా"
      ],
      [
        " చెప్ప",
        "ారు"
      ],
      [
        " స్",
        "ట"
      ],
      [
        "ట్",
        "ల"
      ],
      [
        " రా",
        "జ"
      ],
      [
        " వ",
        "ర్"
      ],
      [
        "ల్",
        "లి"
      ],
      [
        "కు",
        "ండా"
      ],
      [
        "మ",
        "ీ"
      ],
      [
        "ద",
        "ని"
      ],
      [
        "?",
        "\n"
      ],
      [
        " ఇ",
        "చ్చ"
      ],
      [
        "ర్",
        "చ"
      ],
      [
        " తెలిప",
        "ారు"
      ],
      [
        "్య",
        "ూ"
      ],
      [
        "ాల",
        "ా"
      ],
      [
        " కా",
        "ంగ్రెస్"
      ],
      [
        " అ",
        "ను"
      ],
      [
        " మ",
        "ూ"
      ],
      [
        "ామ",
        "ని"
      ],
      [
        " మ",
        "ే"
      ],
      [
        " మ",
        "ో"
      ],
      [
        "ర్",
        "వాత"
      ],
      [
        " భ",
        "ా"
      ],
      [
        " స",
        "ు"
      ],
      [
        "క",
        "ూ"
      ],
      [
        " ర",
        "ై"
      ],
      [
        " తీ",
        "సుకు"
      ],
      [
        "ంట",
        "ూ"
      ],
      [
        "లో",
        "ని"
      ],
      [
        " ప",
        "ెట్"
      ],
      [
        "ే",
        "వ"
      ],
      [
        " కార",
        "్య"
      ],
      [
        "ర్",
        "య"
      ],
      [
        " ప్రభుత్వ",
        "ం"
      ],
      [
        "వ",
        "హ"
      ],
      [
        "జే",
        "పీ"
      ],
      [
        " మ",
        "ె"
      ],
      [
        " జరి",
        "గ"
      ],
      [
        "అ",
        "యితే"
      ],
      [
        "డా",
        "నికి"
      ],
      [
        " వ",
        "ారి"
      ],
      [
        "జ",
        "ి"
      ],
      [
        "పో",
        "య"
      ],
      [
        "తు",
        "న్నారు"
      ],
      [
        " చే",
        "స్త"
      ],
      [
        " ప",
        "ొ"
      ],
      [
        "ు",
        "ల"
      ],
      [
        " స",
        "ె"
      ],
      [
        " క",
        "లి"
      ],
      [
        " అధిక",
        "ారు"
      ],
      [
        "ని",
        "మా"
      ],
      [
        " వ్య",
        "క్"
      ],
      [
        " ఉ",
        "ంది"
      ],
      [
        " ఏ",
        "ర్"
      ],
      [
        "బ",
        "ంధ"
      ],
      [
        "ించ",
        "ే"
      ],
      [
        " త",
        "ర్వాత"
      ],
      [
        "తు",
        "లు"
      ],
      [
        "ా",
        "న"
      ],
      [
        "డ",
        "ే"
      ],
      [
        "వ",
        "్"
      ],
      [
        " అ",
        "న్నారు"
      ],
      [
        " త",
        "ి"
      ],
      [
        "గ",
        "్ర"
      ],
      [
        "చ",
        "ే"
      ],
      [
        " అ",
        "నే"
      ],
      [
        "శ",
        "ా"
      ],
      [
        "ాల",
        "కు"
      ],
      [
        " త",
        "ే"
      ],
      [
        " ప",
        "ై"
      ],
      [
        " పా",
        "టు"
      ],
      [
        "లా",
        "ంటి"
      ],
      [
        "ట",
        "న"
      ],
      [
        " వ",
        "్యా"
      ],
      [
        " ప",
        "ు"
      ],
      [
        " ప్ర",
        "జ"
      ],
      [
        " మ",
        "ంత్రి"
      ],
      [
        "మ",
        "ార్"
      ],
      [
        "మ్మ",
        "ెల్"
      ],
      [
        "ణ",
        "ా"
      ],
      [
        " ",
        "ఐ"
      ],
      [
        " ఆ",
        "రో"
      ],
      [
        "ట",
        "ో"
      ],
      [
        " సి",
        "నిమా"
      ],
      [
        "పా",
        "టు"
      ],
      [
        " ఉ",
        "ంటు"
      ],
      [
        " హ",
        "ై"
      ],
      [
        "ట",
        "ా"
      ],
      [
        "ళ్",
        "లు"
      ],
      [
        " త",
        "ా"
      ],
      [
        "హ",
        "ా"
      ],
      [
        "తు",
        "ంది"
      ],
      [
        "ల",
        "ం"
      ],
      [
        "ట్",
        "లా"
      ],
      [
        "ర్",
        "టు"
      ],
      [
        " ",
        "యా"
      ],
      [
        " నే",
        "త"
      ],
      [
        "స్",
        "తోంది"
      ],
      [
        "క్కు",
        "వ"
      ],
      [
        "ెం",
        "డు"
      ],
      [
        " మా",
        "త్ర"
      ],
      [
        "బ్",
        "బ"
      ],
      [
        " ల",
        "క్ష"
      ],
      [
        "బా",
        "బు"
      ],
      [
        " స్",
        "ప"
      ],
      [
        "కా",
        "శ"
      ],
      [
        "గ",
        "ొ"
      ],
      [
        " స",
        "ో"
      ],
      [
        "ంది",
        "న"
      ],
      [
        "ద్",
        "ధ"
      ],
      [
        "రా",
        "బాద్"
      ],
      [
        " ప్ర",
        "తి"
      ],
      [
        "కు",
        "లు"
      ],
      [
        " ఎ",
        "మ్మెల్"
      ],
      [
        "ట్",
        "టి"
      ],
      [
        " గ",
        "్ర"
      ],
      [
        " తీ",
        "సు"
      ],
      [
        " బీ",
        "జేపీ"
      ],
      [
        " జ",
        "ా"
      ],
      [
        " కే",
        "ంద్ర"
      ],
      [
        "వ",
        "్వ"
      ],
      [
        "డ్",
        "డ"
      ],
      [
        "త్",
        "స"
      ],
      [
        " చ",
        "ంద్ర"
      ],
      [
        " త",
        "ో"
      ],
      [
        " మా",
        "ట్లా"
      ],
      [
        "గ",
        "ే"
      ],
      [
        " ప",
        "ని"
      ],
      [
        "ె",
        "న్"
      ],
      [
        " ద",
        "ేశ"
      ],
      [
        "\"",
        "\""
      ],
      [
        "ర్",
        "లు"
      ],
      [
        " చ",
        "ాలా"
      ],
      [
        " శ",
        "్రీ"
      ],
      [
        " అభ",
        "ి"
      ],
      [
        "స్తు",
        "ంది"
      ],
      [
        " త",
        "మ"
      ],
      [
        "దీ",
        "ంతో"
      ],
      [
        "‌",
        "కు"
      ],
      [
        " స",
        "భ"
      ],
      [
        " వె",
        "ళ్"
      ],
      [
        " న",
        "ెల"
      ],
      [
        "ద",
        "ల"
      ],
      [
        "1",
        "0"
      ],
      [
        " చే",
        "సుకు"
      ],
      [
        "ద",
        "రాబాద్"
      ],
      [
        "వ",
        "రి"
      ],
      [
        " అవ",
        "కాశ"
      ],
      [
        "వ",
        "ేశ"
      ],
      [
        " ద",
        "ి"
      ],
      [
        " తె",
        "ల"
      ],
      [
        "గ్",
        "గ"
      ],
      [
        " సీ",
        "ఎం"
      ],
      [
        "ంత",
        "్"
      ],
      [
        "ీ",
        "ల"
      ],
      [
        " వి",
        "జ"
      ],
      [
        " చె",
        "ందిన"
      ],
      [
        " స",
        "ర్"
      ],
      [
        "మ",
        "ెంట్"
      ],
      [
        " వర",
        "కు"
      ],
      [
        "ాయ",
        "ని"
      ],
      [
        "స",
        "ారి"
      ],
      [
        "త",
        "ే"
      ],
      [
        " తెల",
        "ంగాణ"
      ],
      [
        " చే",
        "స్తున్న"
      ],
      [
        " జ",
        "ీ"
      ],
      [
        "స్త",
        "ే"
      ],
      [
        " ప్రా",
        "ంత"
      ],
      [
        " ",
        "ఘ"
      ],
      [
        "‌",
        "ను"
      ],
      [
        "త",
        "ూ"
      ],
      [
        " ప",
        "ి"
      ],
      [
        " ",
        "ట్ర"
      ],
      [
        " మ",
        "ధ్య"
      ],
      [
        "ణ",
        "ి"
      ],
      [
        "చ",
        "ారం"
      ],
      [
        " సం",
        "బంధ"
      ],
      [
        "క",
        "ెట్"
      ],
      [
        " చేసి",
        "ంది"
      ],
      [
        "ర్",
        "యా"
      ],
      [
        "ర్",
        "కొ"
      ],
      [
        "ప",
        "ే"
      ],
      [
        "ల",
        "లో"
      ],
      [
        " స",
        "ూ"
      ],
      [
        " క",
        "్ర"
      ],
      [
        " ఎ",
        "ం"
      ],
      [
        " గు",
        "ర్"
      ],
      [
        "చ",
        "ార"
      ],
      [
        " ర",
        "ెండు"
      ],
      [
        " కే",
        "సు"
      ],
      [
        " తె",
        "లు"
      ],
      [
        "ంద",
        "ర్"
      ],
      [
        "వ",
        "ై"
      ],
      [
        " ప",
        "ూర్"
      ],
      [
        "ంది",
        "ంచ"
      ],
      [
        "20",
        "2"
      ],
      [
        "బ",
        "ర్"
      ],
      [
        " నిర్",
        "వహ"
      ],
      [
        "ల",
        "పై"
      ],
      [
        "స్",
        "ట్"
      ],
      [
        " న",
        "ాయ"
      ],
      [
        "ణ",
        "్"
      ],
      [
        "స్",
        "య"
      ],
      [
        " ఎమ్మెల్",
        "యే"
      ],
      [
        " అ",
        "స"
      ],
      [
        " మ",
        "ి"
      ],
      [
        "త్",
        "తు"
      ],
      [
        " పోలీ",
        "సులు"
      ],
      [
        " త",
        "ర"
      ],
      [
        " ప్ర",
        "ధా"
      ],
      [
        "ార",
        "ీ"
      ],
      [
        " పా",
        "ల్"
      ],
      [
        "ణ",
        "ం"
      ],
      [
        " అధికారు",
        "లు"
      ],
      [
        "గ",
        "ం"
      ],
      [
        "గ",
        "ర్"
      ],
      [
        "ూ",
        "రు"
      ],
      [
        " నిర్",
        "ణ"
      ],
      [
        " సమ",
        "యంలో"
      ],
      [
        " మ",
        "రో"
      ],
      [
        "ై",
        "నా"
      ],
      [
        "ే",
        "షన్"
      ],
      [
        "హి",
        "ళ"
      ],
      [
        "ఆర్",
        "ఎస్"
      ],
      [
        "ష",
        "ి"
      ],
      [
        " గు",
        "ర"
      ],
      [
        "క",
        "పో"
      ],
      [
        "గ",
        "న్"
      ],
      [
        " ఆ",
        "మె"
      ],
      [
        "ం",
        "పు"
      ],
      [
        "ృ",
        "ష్"
      ],
      [
        " ",
        "ک"
      ],
      [
        "ు",
        "డు"
      ],
      [
        "ంద",
        "ే"
      ],
      [
        "క్",
        "స్"
      ],
      [
        " బ",
        "ి"
      ],
      [
        " ర",
        "ె"
      ],
      [
        "త",
        "్రి"
      ],
      [
        "ారం",
        "భ"
      ],
      [
        "డి",
        "యా"
      ],
      [
        " ద",
        "్వ"
      ],
      [
        " బ",
        "్యా"
      ],
      [
        "ిన",
        "ా"
      ],
      [
        "ంలో",
        "ని"
      ],
      [
        "హ",
        "్"
      ],
      [
        " త",
        "ొ"
      ],
      [
        " ఆ",
        "ర్"
      ],
      [
        "క్క",
        "డ"
      ],
      [
        "ద్య",
        "ో"
      ],
      [
        "వ",
        "న్"
      ],
      [
        " క",
        "ని"
      ],
      [
        " న",
        "ీ"
      ],
      [
        "క",
        "ాల"
      ],
      [
        "ప",
        "ించ"
      ],
      [
        " చే",
        "సే"
      ],
      [
        " క",
        "ార్"
      ],
      [
        "ా",
        "ం"
      ],
      [
        " ప్ర",
        "ారంభ"
      ],
      [
        " క",
        "ల"
      ],
      [
        "న",
        "ూ"
      ],
      [
        " ము",
        "ఖ్య"
      ],
      [
        " ",
        "\""
      ],
      [
        "నా",
        "లు"
      ],
      [
        " గ",
        "ంట"
      ],
      [
        "లో",
        "కి"
      ],
      [
        " మ",
        "రి"
      ],
      [
        "యో",
        "జ"
      ],
      [
        " హ",
        "ా"
      ],
      [
        " ఎ",
        "క్కువ"
      ],
      [
        "సీ",
        "ఆర్"
      ],
      [
        "స్",
        "ట"
      ],
      [
        " అభ",
        "్య"
      ],
      [
        " బ",
        "ె"
      ],
      [
        "గ",
        "ో"
      ],
      [
        " క",
        "ాల"
      ],
      [
        "లే",
        "దు"
      ],
      [
        " భార",
        "ీ"
      ],
      [
        " క",
        "్"
      ],
      [
        "శ",
        "ి"
      ],
      [
        " చంద్ర",
        "బాబు"
      ],
      [
        "ఫ",
        "ీ"
      ],
      [
        "చ్చ",
        "ు"
      ],
      [
        "ం",
        "ట్"
      ],
      [
        "ని",
        "ంచ"
      ],
      [
        " పె",
        "ద్ద"
      ],
      [
        "కా",
        "నీ"
      ],
      [
        "ా",
        "న్"
      ],
      [
        " కొ",
        "త్త"
      ],
      [
        " ఇ",
        "వ్వ"
      ],
      [
        "ద",
        "్ర"
      ],
      [
        " గ",
        "ె"
      ],
      [
        "ర్",
        "మ"
      ],
      [
        " అ",
        "వు"
      ],
      [
        "డి",
        "న"
      ],
      [
        " య",
        "ూ"
      ],
      [
        "మ",
        "ంత్రి"
      ],
      [
        "బ",
        "ో"
      ],
      [
        "0",
        "0"
      ],
      [
        "త",
        "ంగా"
      ],
      [
        " ఫ",
        "ో"
      ],
      [
        " పే",
        "ర్కొ"
      ],
      [
        " శ",
        "ి"
      ],
      [
        " ద్వ",
        "ారా"
      ],
      [
        " చె",
        "బు"
      ],
      [
        "స్థ",
        "ి"
      ],
      [
        " మ",
        "హిళ"
      ],
      [
        " మ",
        "్యా"
      ],
      [
        " మీ",
        "డియా"
      ],
      [
        " ఏర్",
        "పాటు"
      ],
      [
        " ము",
        "ందు"
      ],
      [
        "క్ర",
        "మ"
      ],
      [
        " య",
        "ు"
      ],
      [
        "ిల్",
        "లీ"
      ],
      [
        ".",
        "..\n"
      ],
      [
        " భ",
        "ూ"
      ],
      [
        "భ",
        "ా"
      ],
      [
        " అ",
        "య"
      ],
      [
        " ప్రక",
        "ట"
      ],
      [
        "ాయ",
        "ం"
      ],
      [
        " అ",
        "ంత"
      ],
      [
        "రు",
        "కు"
      ],
      [
        "ర",
        "ూ"
      ],
      [
        " స",
        "ై"
      ],
      [
        " అ",
        "మ"
      ],
      [
        "సీ",
        "పీ"
      ],
      [
        "ంద",
        "ో"
      ],
      [
        " జ",
        "న"
      ],
      [
        " జ",
        "గన్"
      ],
      [
        " క",
        "ల్"
      ],
      [
        " ",
        "న్య"
      ],
      [
        " అ",
        "ర"
      ],
      [
        " జ",
        "రుగు"
      ],
      [
        " అ",
        "య్య"
      ],
      [
        " ఉంటు",
        "ంది"
      ],
      [
        "క",
        "ం"
      ],
      [
        "న",
        "ర్"
      ],
      [
        "స్త",
        "ూ"
      ],
      [
        " కా",
        "వ"
      ],
      [
        " రాజ",
        "కీ"
      ],
      [
        " ప",
        "్"
      ],
      [
        "తీ",
        "య"
      ],
      [
        " ద",
        "ీ"
      ],
      [
        "వా",
        "ల్"
      ],
      [
        "త",
        "ర"
      ],
      [
        " వచ్చ",
        "ిన"
      ],
      [
        " కార",
        "ణ"
      ],
      [
        " అవకాశ",
        "ం"
      ],
      [
        " సమ",
        "స్య"
      ],
      [
        "ల్",
        "స్"
      ],
      [
        "1",
        "9"
      ],
      [
        "ెస్",
        "ట్"
      ],
      [
        " కు",
        "టు"
      ],
      [
        "వ",
        "ారి"
      ],
      [
        " పెట్",
        "ట"
      ],
      [
        "మ",
        "ని"
      ],
      [
        "య",
        "ర్"
      ],
      [
        " ",
        "లా"
      ],
      [
        "స్తు",
        "తం"
      ],
      [
        " ఎన్నిక",
        "ల"
      ],
      [
        " అ",
        "ంద"
      ],
      [
        "ను",
        "న్న"
      ],
      [
        "ట",
        "ం"
      ],
      [
        "ార్",
        "థ"
      ],
      [
        "ంత",
        "్ర"
      ],
      [
        " ఫ",
        "ి"
      ],
      [
        "త",
        "న"
      ],
      [
        " రూ",
        "ప"
      ],
      [
        " పో",
        "టీ"
      ],
      [
        "క",
        "ంగా"
      ],
      [
        " సా",
        "ధ"
      ],
      [
        " జరిగ",
        "ిన"
      ],
      [
        " స్థ",
        "ా"
      ],
      [
        " ప్ర",
        "త్య"
      ],
      [
        " వి",
        "ద్య"
      ],
      [
        "ప",
        "ూర్"
      ],
      [
        " వ",
        "ల్ల"
      ],
      [
        "ంట",
        "ారు"
      ],
      [
        "ా",
        "ల్లో"
      ],
      [
        " పూర్",
        "తి"
      ],
      [
        " ఆరో",
        "ప"
      ],
      [
        " వె",
        "లుగు"
      ],
      [
        " బ",
        "య"
      ],
      [
        "క",
        "ె"
      ],
      [
        "ఢ",
        "ిల్లీ"
      ],
      [
        " పరి",
        "స్థి"
      ],
      [
        "గ",
        "త"
      ],
      [
        " ప్ర",
        "మా"
      ],
      [
        "ం",
        "జ"
      ],
      [
        " శా",
        "ఖ"
      ],
      [
        " అధ",
        "్య"
      ],
      [
        "ద",
        "ం"
      ],
      [
        "స్",
        "టు"
      ],
      [
        "య",
        "ు"
      ],
      [
        "వ",
        "్ర"
      ],
      [
        " ధ",
        "ర"
      ],
      [
        "య",
        "న్"
      ],
      [
        "ల",
        "ై"
      ],
      [
        "టి",
        "ంగ్"
      ],
      [
        "సి",
        "ంది"
      ],
      [
        "త",
        "లు"
      ],
      [
        "ించ",
        "ుకు"
      ],
      [
        "ందు",
        "లో"
      ],
      [
        "య",
        "త్"
      ],
      [
        "డీ",
        "పీ"
      ],
      [
        " చే",
        "స్తున్నారు"
      ],
      [
        " ప",
        "లు"
      ],
      [
        " లే",
        "దు"
      ],
      [
        " సం",
        "స్థ"
      ],
      [
        "హ",
        "ై"
      ],
      [
        " కొ",
        "న"
      ],
      [
        "ెక్",
        "టర్"
      ],
      [
        "‌‌‌‌‌‌‌‌‌‌‌‌‌‌‌‌‌‌‌‌‌‌‌‌‌‌‌‌‌‌‌‌‌‌‌‌‌‌‌‌‌‌‌‌‌‌‌‌‌‌‌‌‌‌‌‌‌‌‌‌‌‌‌‌",
        "‌‌‌‌‌‌‌‌‌‌‌‌‌‌‌‌‌‌‌‌‌‌‌‌‌‌‌‌‌‌‌‌‌‌‌‌‌‌‌‌‌‌‌‌‌‌‌‌‌‌‌‌‌‌‌‌‌‌‌‌‌‌‌‌"
      ],
      [
        "ఇ",
        "క"
      ],
      [
        " అభ్య",
        "ర్థ"
      ],
      [
        "వ",
        "ం"
      ],
      [
        "20",
        "1"
      ],
      [
        " కే",
        "సీఆర్"
      ],
      [
        " ఎ",
        "దు"
      ],
      [
        " మ",
        "ార"
      ],
      [
        " పాల్",
        "గొ"
      ],
      [
        "ద్",
        "ధి"
      ],
      [
        "డి",
        "యో"
      ],
      [
        " అధిక",
        "ార"
      ],
      [
        " ర",
        "ేవ"
      ],
      [
        "ంట",
        "ర్"
      ],
      [
        " డ",
        "ీ"
      ],
      [
        " చే",
        "ప"
      ],
      [
        " ",
        "-"
      ],
      [
        " స",
        "హ"
      ],
      [
        " వ",
        "ద్ద"
      ],
      [
        " ఉ",
        "ప"
      ],
      [
        " తీ",
        "వ్ర"
      ],
      [
        "ండి",
        "యా"
      ],
      [
        "న్న",
        "ా"
      ],
      [
        " ష",
        "ా"
      ],
      [
        "ప",
        "ంచ"
      ],
      [
        " ఆ",
        "ధ"
      ],
      [
        " పే",
        "రు"
      ],
      [
        " ర",
        "ే"
      ],
      [
        "్య",
        "ం"
      ],
      [
        "హ",
        "ు"
      ],
      [
        " స",
        "ందర్"
      ],
      [
        " వె",
        "ల్ల"
      ],
      [
        "య",
        "్"
      ],
      [
        "త్",
        "తి"
      ],
      [
        "తు",
        "ల"
      ],
      [
        " ప్ర",
        "యత్"
      ],
      [
        "ర",
        "గ"
      ],
      [
        "తున్న",
        "ాయి"
      ],
      [
        " మా",
        "జీ"
      ],
      [
        "లు",
        "గా"
      ],
      [
        " కలి",
        "సి"
      ],
      [
        " ఎన్నిక",
        "ల్లో"
      ],
      [
        " ఉ",
        "ద్యో"
      ],
      [
        " న",
        "మో"
      ],
      [
        "ష",
        "ల్"
      ],
      [
        " క",
        "మి"
      ],
      [
        "జ",
        "ర్"
      ],
      [
        " మ",
        "ండ"
      ],
      [
        " వి",
        "చార"
      ],
      [
        " ఎం",
        "పీ"
      ],
      [
        "యోజ",
        "క"
      ],
      [
        " బీ",
        "ఆర్ఎస్"
      ],
      [
        "మ",
        "ై"
      ],
      [
        "యో",
        "గ"
      ],
      [
        " వర్",
        "ష"
      ],
      [
        "వ",
        "ృ"
      ],
      [
        "స్త",
        "ారు"
      ],
      [
        "దేశ",
        "్"
      ],
      [
        " క",
        "ె"
      ],
      [
        " అ",
        "ం"
      ],
      [
        "ర",
        "ణ"
      ],
      [
        " సమా",
        "వేశ"
      ],
      [
        "త",
        "ెల"
      ],
      [
        " తే",
        "దీ"
      ],
      [
        "ప",
        "ర్"
      ],
      [
        " వి",
        "డు"
      ],
      [
        "తెల",
        "ంగాణ"
      ],
      [
        " మ",
        "న"
      ],
      [
        " చ",
        "ర్య"
      ],
      [
        " కొన",
        "సా"
      ],
      [
        " క",
        "్యా"
      ],
      [
        " అ",
        "త"
      ],
      [
        " గుర",
        "ించి"
      ],
      [
        "హ",
        "ం"
      ],
      [
        " క",
        "ీల"
      ],
      [
        " రేవ",
        "ంత్"
      ],
      [
        "స",
        "ర్"
      ],
      [
        "1",
        "5"
      ],
      [
        "స",
        "ర"
      ],
      [
        " మ",
        "ంచి"
      ],
      [
        " ఎ",
        "స్"
      ],
      [
        "ా",
        "నికి"
      ],
      [
        "ద",
        "ర్శ"
      ],
      [
        " గ",
        "ో"
      ],
      [
        "ంగ",
        "ళ"
      ],
      [
        " ",
        "టి"
      ],
      [
        " ఉ",
        "ందని"
      ],
      [
        " కొ",
        "న్ని"
      ],
      [
        " కు",
        "మార్"
      ],
      [
        " మాత్ర",
        "ం"
      ],
      [
        " పరి",
        "శ"
      ],
      [
        " ",
        ","
      ],
      [
        " చ",
        "ర్చ"
      ],
      [
        " ని",
        "యోజక"
      ],
      [
        "బ్",
        "లీ"
      ],
      [
        " భా",
        "గ"
      ],
      [
        "క్",
        "తి"
      ],
      [
        "ప్పటి",
        "కే"
      ],
      [
        "ప",
        "ె"
      ],
      [
        " ప",
        "ాల"
      ],
      [
        " ఉ",
        "న్నారు"
      ],
      [
        " విడు",
        "దల"
      ],
      [
        " మ్యా",
        "చ్"
      ],
      [
        " ప",
        "ట్ట"
      ],
      [
        "ిల్",
        "ల"
      ],
      [
        " ప్ర",
        "శ్"
      ],
      [
        "మా",
        "ండ్"
      ],
      [
        " వచ్చ",
        "ే"
      ],
      [
        " ఉన్న",
        "ాయి"
      ],
      [
        "త్",
        "తం"
      ],
      [
        " శా",
        "తం"
      ],
      [
        "డ్",
        "డు"
      ],
      [
        " వె",
        "ళ్ల"
      ],
      [
        "మ",
        "ర్శ"
      ],
      [
        " ప్రత్య",
        "ే"
      ],
      [
        " వెల్ల",
        "డ"
      ],
      [
        " ఉ",
        "ంట"
      ],
      [
        " గ్ర",
        "ామ"
      ],
      [
        "రా",
        "లు"
      ],
      [
        " చ",
        "ో"
      ],
      [
        " మొ",
        "ద"
      ],
      [
        "ార",
        "ెడ్డి"
      ],
      [
        " వి",
        "వర"
      ],
      [
        " ద",
        "ు"
      ],
      [
        " త",
        "ప్ప"
      ],
      [
        " న",
        "ో"
      ],
      [
        "ద్",
        "దు"
      ],
      [
        " వ",
        "ారు"
      ],
      [
        " అధ్య",
        "క్ష"
      ],
      [
        " ఒ",
        "క్క"
      ],
      [
        "ంటు",
        "న్న"
      ],
      [
        "ో",
        "ర్"
      ],
      [
        "ప",
        "ల్లి"
      ],
      [
        " బ",
        "ు"
      ],
      [
        "ను",
        "న్నారు"
      ],
      [
        " మాత్ర",
        "మే"
      ],
      [
        "కో",
        "ర్టు"
      ],
      [
        " కుటు",
        "ంబ"
      ],
      [
        " వీ",
        "డియో"
      ],
      [
        " సందర్",
        "భ"
      ],
      [
        "ర",
        "ల్"
      ],
      [
        "ష్ట",
        "ం"
      ],
      [
        " మ",
        "హ"
      ],
      [
        "ించ",
        "ాలని"
      ],
      [
        "ప",
        "ెట్"
      ],
      [
        " ప",
        "ీ"
      ],
      [
        " వ్యక్",
        "తం"
      ],
      [
        " ",
        "లి"
      ],
      [
        "ంటు",
        "న్నారు"
      ],
      [
        "న",
        "ల్"
      ],
      [
        " ",
        "ఛ"
      ],
      [
        " క",
        "ంప"
      ],
      [
        " న",
        "ె"
      ],
      [
        " రా",
        "వ"
      ],
      [
        "ద",
        "న"
      ],
      [
        " అ",
        "న్ని"
      ],
      [
        " నియోజక",
        "వర్"
      ],
      [
        "ెం",
        "బ్లీ"
      ],
      [
        "హై",
        "దరాబాద్"
      ],
      [
        "ఇ",
        "ది"
      ],
      [
        "క్ష",
        "న్"
      ],
      [
        " ద",
        "ూ"
      ],
      [
        "డా",
        "ది"
      ],
      [
        " హ",
        "ి"
      ],
      [
        "గ",
        "ిన"
      ],
      [
        " మూ",
        "డు"
      ],
      [
        "ిన",
        "ీ"
      ],
      [
        "లో",
        "నే"
      ],
      [
        " ప్రభ",
        "ా"
      ],
      [
        "లి",
        "ంగ్"
      ],
      [
        "ాల",
        "తో"
      ],
      [
        "ర",
        "ెడ్డి"
      ],
      [
        " సభ",
        "్య"
      ],
      [
        " విచార",
        "ణ"
      ],
      [
        " ఇ",
        "న్"
      ],
      [
        " విష",
        "యం"
      ],
      [
        "వ",
        "ో"
      ],
      [
        " భార",
        "త్"
      ],
      [
        " చేయ",
        "ాలని"
      ],
      [
        "ప",
        "డు"
      ],
      [
        "వ",
        "ల"
      ],
      [
        " సూ",
        "చ"
      ],
      [
        " వ్యక్",
        "తి"
      ],
      [
        "ర",
        "ారు"
      ],
      [
        "వ",
        "ె"
      ],
      [
        " మాట్లా",
        "డు"
      ],
      [
        " వి",
        "ధ"
      ],
      [
        "దీ",
        "ని"
      ],
      [
        " ఘ",
        "టన"
      ],
      [
        "ధ",
        "ిక"
      ],
      [
        " ప",
        "ద"
      ],
      [
        "3",
        "0"
      ],
      [
        "ప",
        "డ్డ"
      ],
      [
        "1",
        "2"
      ],
      [
        " శ",
        "ు"
      ],
      [
        "ను",
        "ంది"
      ],
      [
        "అ",
        "లా"
      ],
      [
        "ె",
        "నీ"
      ],
      [
        " హ",
        "ె"
      ],
      [
        " కో",
        "ట్ల"
      ],
      [
        " హై",
        "దరాబాద్"
      ],
      [
        "ది",
        "క"
      ],
      [
        "ా",
        "న్ని"
      ],
      [
        " వ",
        "ెం"
      ],
      [
        " ఎ",
        "లా"
      ],
      [
        "రో",
        "జు"
      ],
      [
        " రాజకీ",
        "య"
      ],
      [
        "న",
        "ంత"
      ],
      [
        " వి",
        "మర్శ"
      ],
      [
        " వ",
        "ంటి"
      ],
      [
        " చే",
        "సు"
      ],
      [
        " ను",
        "ండి"
      ],
      [
        " వే",
        "ల"
      ],
      [
        "రి",
        "గి"
      ],
      [
        "ించ",
        "ు"
      ],
      [
        " టీ",
        "డీపీ"
      ],
      [
        " కీల",
        "క"
      ],
      [
        "గ్",
        "గు"
      ],
      [
        " ఆ",
        "దేశ"
      ],
      [
        "ామ",
        "ు"
      ],
      [
        " ఉండ",
        "ే"
      ],
      [
        "టీ",
        "ఆర్"
      ],
      [
        " సమా",
        "చారం"
      ],
      [
        "మ",
        "ూ"
      ],
      [
        " ల",
        "ీ"
      ],
      [
        "ిన",
        "ే"
      ],
      [
        " ప",
        "వన్"
      ],
      [
        "ేశ",
        "ారు"
      ],
      [
        " సందర్భ",
        "ంగా"
      ],
      [
        "ంలో",
        "కి"
      ],
      [
        "కపో",
        "వ"
      ],
      [
        "ించ",
        "డం"
      ],
      [
        " లక్ష",
        "ల"
      ],
      [
        "ాన",
        "ని"
      ],
      [
        " ",
        "ఊ"
      ],
      [
        "ట",
        "ే"
      ],
      [
        " ప",
        "ం"
      ],
      [
        " జ",
        "ో"
      ],
      [
        "ృ",
        "తి"
      ],
      [
        " ",
        "ا"
      ],
      [
        " హ",
        "ో"
      ],
      [
        "కు",
        "న్న"
      ],
      [
        " ప",
        "ూ"
      ],
      [
        " ప్రక",
        "ారం"
      ],
      [
        "వృ",
        "ద్ధి"
      ],
      [
        " ప",
        "ను"
      ],
      [
        " గ",
        "త"
      ],
      [
        "!",
        "\n"
      ],
      [
        "జ",
        "న్"
      ],
      [
        " ఎ",
        "న్"
      ],
      [
        " ఇ",
        "ప్పుడు"
      ],
      [
        "బ్బ",
        "ంది"
      ],
      [
        " ప్రధా",
        "న"
      ],
      [
        " ద",
        "ర్శ"
      ],
      [
        " ",
        "డా"
      ],
      [
        "ట",
        "మి"
      ],
      [
        " భార",
        "త"
      ],
      [
        " సం",
        "ఘ"
      ],
      [
        "ెం",
        "బర్"
      ],
      [
        "కు",
        "ల"
      ],
      [
        "త్",
        "మ"
      ],
      [
        " మీ",
        "ద"
      ],
      [
        " అ",
        "మ్మ"
      ],
      [
        " అ",
        "ర్"
      ],
      [
        "క్",
        "టర్"
      ],
      [
        "మ",
        "ొ"
      ],
      [
        " బయ",
        "ట"
      ],
      [
        "బ",
        "ి"
      ],
      [
        "క్క",
        "డి"
      ],
      [
        "టి",
        "ని"
      ],
      [
        "వి",
        "త"
      ],
      [
        " కి",
        "ంద"
      ],
      [
        " కంప",
        "ెనీ"
      ],
      [
        "క",
        "ల్"
      ],
      [
        " డ",
        "ై"
      ],
      [
        " వి",
        "ని"
      ],
      [
        " వ",
        "ార్"
      ],
      [
        " చ",
        "ిత"
      ],
      [
        "5",
        "0"
      ],
      [
        " చేయ",
        "డం"
      ],
      [
        "స్",
        "ట్ర"
      ],
      [
        " ఇ",
        "ంటి"
      ],
      [
        "స్",
        "ప"
      ],
      [
        " వై",
        "సీపీ"
      ],
      [
        " అస",
        "ెంబ్లీ"
      ],
      [
        "ప్పటి",
        "కీ"
      ],
      [
        "యా",
        "లు"
      ],
      [
        " ముఖ్య",
        "మంత్రి"
      ],
      [
        " కో",
        "ర్టు"
      ],
      [
        "రి",
        "కా"
      ],
      [
        "లి",
        "చ"
      ],
      [
        "న్న",
        "ీ"
      ],
      [
        "ంత",
        "ా"
      ],
      [
        "ృష్",
        "ణ"
      ],
      [
        " లే",
        "దని"
      ],
      [
        " పోలీ",
        "సు"
      ],
      [
        "ే",
        "మ"
      ],
      [
        "ీ",
        "రో"
      ],
      [
        "గ",
        "్య"
      ],
      [
        " ఇ",
        "ది"
      ],
      [
        "భ",
        "ార"
      ],
      [
        "వ",
        "త్స"
      ],
      [
        "తు",
        "ందని"
      ],
      [
        " నేత",
        "లు"
      ],
      [
        " ఏ",
        "పీ"
      ],
      [
        " లే",
        "దా"
      ],
      [
        " ప్రజ",
        "లు"
      ],
      [
        " చర్య",
        "లు"
      ],
      [
        "ట",
        "క"
      ],
      [
        "ై",
        "న్"
      ],
      [
        " ప్రత్యే",
        "క"
      ],
      [
        "బ్",
        "బు"
      ],
      [
        " నిర్",
        "మా"
      ],
      [
        " యు",
        "వ"
      ],
      [
        "జ",
        "ెక్"
      ],
      [
        "వు",
        "లు"
      ],
      [
        "స్",
        "వా"
      ],
      [
        " కా",
        "దు"
      ],
      [
        "‌",
        "గా"
      ],
      [
        "ల్",
        "సి"
      ],
      [
        "ద",
        "ారు"
      ],
      [
        " ద",
        "గ్గ"
      ],
      [
        " ప్ర",
        "యా"
      ],
      [
        "రా",
        "ష్ట్ర"
      ],
      [
        " వ్య",
        "వ"
      ],
      [
        " అ",
        "ందించ"
      ],
      [
        "గా",
        "నే"
      ],
      [
        "డు",
        "గు"
      ],
      [
        "స",
        "భ"
      ],
      [
        " చేప",
        "ట్ట"
      ],
      [
        " సం",
        "వత్స"
      ],
      [
        " ఎ",
        "లాంటి"
      ],
      [
        " త",
        "రు"
      ],
      [
        "ంధ",
        "ీ"
      ],
      [
        "భ",
        "ు"
      ],
      [
        "్య",
        "ంలో"
      ],
      [
        " ఆ",
        "ల"
      ],
      [
        " పె",
        "ంచ"
      ],
      [
        " జ",
        "రగ"
      ],
      [
        " పని",
        "చే"
      ],
      [
        "యా",
        "న్ని"
      ],
      [
        "ళ",
        "న"
      ],
      [
        " పెట్",
        "టు"
      ],
      [
        " ఉ",
        "ద"
      ],
      [
        "త",
        "ాయి"
      ],
      [
        " గుర్",
        "త"
      ],
      [
        "స్",
        "సు"
      ],
      [
        " ప్",
        "లా"
      ],
      [
        "‌",
        "తో"
      ],
      [
        "ంద",
        "న్నారు"
      ],
      [
        "ప్",
        "తంగా"
      ],
      [
        "త్",
        "వా"
      ],
      [
        " ప",
        "ర్య"
      ],
      [
        "మ",
        "రో"
      ],
      [
        " ప",
        "రుగు"
      ],
      [
        "ంత",
        "ి"
      ],
      [
        "ేశ",
        "్వ"
      ],
      [
        " అ",
        "ందు"
      ],
      [
        " అ",
        "త్య"
      ],
      [
        " స్",
        "వా"
      ],
      [
        "ప్ర",
        "దేశ్"
      ],
      [
        "నించ",
        "ారు"
      ],
      [
        "య",
        "ూ"
      ],
      [
        " పేర్కొ",
        "న్నారు"
      ],
      [
        "ల్",
        "డ్"
      ],
      [
        " వారి",
        "కి"
      ],
      [
        "ప్ర",
        "స్తుతం"
      ],
      [
        " ",
        "م"
      ],
      [
        "1",
        "1"
      ],
      [
        " ప్రధా",
        "ని"
      ],
      [
        "ప",
        "థ"
      ],
      [
        " న",
        "గ"
      ],
      [
        " సి",
        "ద్ధ"
      ],
      [
        "చ",
        "ు"
      ],
      [
        "జా",
        "గా"
      ],
      [
        "ర",
        "కు"
      ],
      [
        "ండ",
        "ో"
      ],
      [
        " సో",
        "షల్"
      ],
      [
        ")",
        ","
      ],
      [
        " ర",
        "ంగ"
      ],
      [
        " కో",
        "ట్లు"
      ],
      [
        "వ",
        "ారు"
      ],
      [
        " ఆ",
        "ఫీ"
      ],
      [
        " హ",
        "ీరో"
      ],
      [
        " ఏ",
        "డాది"
      ],
      [
        " అభి",
        "వృద్ధి"
      ],
      [
        " స",
        "ే"
      ],
      [
        "ళ్",
        "లి"
      ],
      [
        "న్",
        "సి"
      ],
      [
        "త",
        "ారు"
      ],
      [
        "శ",
        "్వ"
      ],
      [
        " వెళ్",
        "లి"
      ],
      [
        " జ",
        "ై"
      ],
      [
        "జ",
        "న"
      ],
      [
        " డి",
        "మాండ్"
      ],
      [
        " ఉ",
        "త్త"
      ],
      [
        "స",
        "ె"
      ],
      [
        "దా",
        "పు"
      ],
      [
        " తెలిప",
        "ింది"
      ],
      [
        " న",
        "ాలు"
      ],
      [
        "స్త",
        "ామని"
      ],
      [
        " చెబు",
        "తున్నారు"
      ],
      [
        " క్ర",
        "మ"
      ],
      [
        "టి",
        "కి"
      ],
      [
        " తీసు",
        "కోవ"
      ],
      [
        "ప్",
        "ట"
      ],
      [
        " ఇ",
        "తర"
      ],
      [
        "ల",
        "ర్"
      ],
      [
        " ఇ",
        "ండియా"
      ],
      [
        "ల్",
        "లు"
      ],
      [
        "ఫ",
        "ి"
      ],
      [
        "ూ",
        "డ"
      ],
      [
        " దా",
        "డి"
      ],
      [
        "ప",
        "డి"
      ],
      [
        "ర",
        "ె"
      ],
      [
        " మో",
        "దీ"
      ],
      [
        " తెలి",
        "య"
      ],
      [
        " అ",
        "ంటూ"
      ],
      [
        " సంబంధ",
        "ించిన"
      ],
      [
        "న",
        "ని"
      ],
      [
        " చే",
        "రుకు"
      ],
      [
        " ఇచ్చ",
        "ిన"
      ],
      [
        "అ",
        "ంత"
      ],
      [
        " ర",
        "ు"
      ],
      [
        "ంట",
        "నే"
      ],
      [
        " అమ",
        "లు"
      ],
      [
        "లే",
        "దని"
      ],
      [
        " వచ్చ",
        "ి"
      ],
      [
        "ామ",
        "ీ"
      ],
      [
        "ప",
        "డ"
      ],
      [
        "స",
        "ై"
      ],
      [
        " రోజు",
        "ల"
      ],
      [
        "క",
        "ార్"
      ],
      [
        " విజ",
        "య"
      ],
      [
        " స్థ",
        "ాయి"
      ],
      [
        " ట",
        "ై"
      ],
      [
        "ందో",
        "ళన"
      ],
      [
        "మ",
        "య్య"
      ],
      [
        " విద్య",
        "ార్థ"
      ],
      [
        " క",
        "్రి"
      ],
      [
        " తొ",
        "లి"
      ],
      [
        " ",
        "ఢిల్లీ"
      ],
      [
        "స్తున్న",
        "ాయి"
      ],
      [
        " పరిస్థి",
        "తి"
      ],
      [
        "రీ",
        "క్ష"
      ],
      [
        "ప",
        "ొ"
      ],
      [
        "ు",
        "లకు"
      ],
      [
        " ఇ",
        "ద్ద"
      ],
      [
        "ఒ",
        "క"
      ],
      [
        " త",
        "గ్గ"
      ],
      [
        "ప",
        "క్ష"
      ],
      [
        " మాట్లాడు",
        "తూ"
      ],
      [
        " వెం",
        "క"
      ],
      [
        "ర",
        "ై"
      ],
      [
        "రి",
        "కి"
      ],
      [
        " ప",
        "ిల్ల"
      ],
      [
        " ఆ",
        "ర్థ"
      ],
      [
        " ప్రా",
        "జెక్"
      ],
      [
        " భాగ",
        "ంగా"
      ],
      [
        "కు",
        "డు"
      ],
      [
        " క",
        "ర్"
      ],
      [
        "ేశ",
        "్"
      ],
      [
        "మె",
        "రికా"
      ],
      [
        " వ్య",
        "వహ"
      ],
      [
        " చి",
        "న్న"
      ],
      [
        "చ",
        "ంద్ర"
      ],
      [
        "నంత",
        "రం"
      ],
      [
        "వ",
        "్యా"
      ],
      [
        "ఆ",
        "యన"
      ],
      [
        " క",
        "ౌ"
      ],
      [
        "1",
        "4"
      ],
      [
        " బ",
        "ల"
      ],
      [
        " ప",
        "డు"
      ],
      [
        "స",
        "న"
      ],
      [
        " మూ",
        "వీ"
      ],
      [
        "ద్",
        "ది"
      ],
      [
        " నే",
        "పథ"
      ],
      [
        " కారణ",
        "ంగా"
      ],
      [
        " కని",
        "పి"
      ],
      [
        "క్",
        "ష్"
      ],
      [
        "భ",
        "ి"
      ],
      [
        " జ",
        "ూ"
      ],
      [
        " నమో",
        "దు"
      ],
      [
        " ఆర్థ",
        "ిక"
      ],
      [
        "డ",
        "ర్"
      ],
      [
        "ని",
        "క"
      ],
      [
        "తు",
        "లకు"
      ],
      [
        "కొ",
        "చ్చ"
      ],
      [
        " ట",
        "ా"
      ],
      [
        "ఎ",
        "ల్"
      ],
      [
        " ఇ",
        "ం"
      ],
      [
        " జరిగ",
        "ింది"
      ],
      [
        "శా",
        "ఖ"
      ],
      [
        " అయ",
        "ిన"
      ],
      [
        "కొ",
        "ని"
      ],
      [
        " విష",
        "యంలో"
      ],
      [
        "ప",
        "ార్"
      ],
      [
        "గా",
        "లు"
      ],
      [
        " వ్యా",
        "ఖ్య"
      ],
      [
        "డ",
        "ని"
      ],
      [
        "ంధ",
        "్ర"
      ],
      [
        " నిర్ణ",
        "యం"
      ],
      [
        " పె",
        "రుగు"
      ],
      [
        " జ",
        "ారీ"
      ],
      [
        " అం",
        "శ"
      ],
      [
        "క్ష",
        "ణ"
      ],
      [
        " జ",
        "ట్టు"
      ],
      [
        " గా",
        "ంధీ"
      ],
      [
        "‌",
        "లు"
      ],
      [
        " అ",
        "ంచ"
      ],
      [
        "ంద",
        "రు"
      ],
      [
        "క్ష",
        "ి"
      ],
      [
        " గంట",
        "ల"
      ],
      [
        "ాల",
        "ీ"
      ],
      [
        "క",
        "ారు"
      ],
      [
        "పోయ",
        "ిన"
      ],
      [
        "ార",
        "ో"
      ],
      [
        "లు",
        "పు"
      ],
      [
        " ప్ర",
        "పంచ"
      ],
      [
        " తి",
        "రు"
      ],
      [
        " వచ్చ",
        "ింది"
      ],
      [
        " ప",
        "థ"
      ],
      [
        "ట్",
        "స్"
      ],
      [
        " నేపథ",
        "్యంలో"
      ],
      [
        "ప",
        "తి"
      ],
      [
        " ఆ",
        "ఫ్"
      ],
      [
        "ార్",
        "డు"
      ],
      [
        " రూప",
        "ాయ"
      ],
      [
        " రా",
        "వు"
      ],
      [
        "పే",
        "ట"
      ],
      [
        " సమ",
        "ీ"
      ],
      [
        "అ",
        "ందు"
      ],
      [
        "పడ్డ",
        "ారు"
      ],
      [
        "డ",
        "ో"
      ],
      [
        " ఫ",
        "్యా"
      ],
      [
        "a",
        "n"
      ],
      [
        "సే",
        "న"
      ],
      [
        " మొ",
        "త్తం"
      ],
      [
        " కే",
        "ట"
      ],
      [
        "‌",
        ","
      ],
      [
        "రి",
        "క"
      ],
      [
        "ొ",
        "టో"
      ],
      [
        "ర్యా",
        "దు"
      ],
      [
        " ",
        "లు"
      ],
      [
        "ాయ",
        "్"
      ],
      [
        " స",
        "ొ"
      ],
      [
        "కా",
        "ంగ్రెస్"
      ],
      [
        "అలా",
        "గే"
      ],
      [
        "ధ",
        "ు"
      ],
      [
        " అ",
        "న్న"
      ],
      [
        " కేసు",
        "లో"
      ],
      [
        " గ",
        "ొ"
      ],
      [
        "ట",
        "ంతో"
      ],
      [
        " వ",
        "స్తు"
      ],
      [
        " లే",
        "కుండా"
      ],
      [
        " మాట్లా",
        "డ"
      ],
      [
        " పా",
        "త్ర"
      ],
      [
        " స",
        "రి"
      ],
      [
        " భ",
        "క్"
      ],
      [
        "ాల",
        "పై"
      ],
      [
        "1",
        "8"
      ],
      [
        " ఆ",
        "శ"
      ],
      [
        " ఇచ్చ",
        "ారు"
      ],
      [
        " ",
        "ہ"
      ],
      [
        " బ్యా",
        "ం"
      ],
      [
        " గ",
        "ౌ"
      ],
      [
        " తెలి",
        "సి"
      ],
      [
        " ఫో",
        "న్"
      ],
      [
        "చ",
        "ర్"
      ],
      [
        " తె",
        "లుగు"
      ],
      [
        "బా",
        "టు"
      ],
      [
        " చ",
        "ీ"
      ],
      [
        " ల",
        "ె"
      ],
      [
        " డ",
        "బ్బు"
      ],
      [
        " చ",
        "ై"
      ],
      [
        " హ",
        "ామీ"
      ],
      [
        " స్ట",
        "ార్"
      ],
      [
        " స్",
        "వ"
      ],
      [
        "హు",
        "ల్"
      ],
      [
        " డ",
        "్ర"
      ],
      [
        "స్త",
        "ా"
      ],
      [
        "ర",
        "ంగా"
      ],
      [
        " ఫి",
        "ర్యాదు"
      ],
      [
        "మ",
        "వు"
      ],
      [
        "ించే",
        "ందుకు"
      ],
      [
        " అనే",
        "క"
      ],
      [
        "రా",
        "జ"
      ],
      [
        " అ",
        "ంటే"
      ],
      [
        "కా",
        "లు"
      ],
      [
        "ంబ",
        "ర్"
      ],
      [
        "ఇ",
        "ప్పుడు"
      ],
      [
        "2",
        "4"
      ],
      [
        "2",
        "5"
      ],
      [
        "ర",
        "ంలో"
      ],
      [
        " ప",
        "డి"
      ],
      [
        " ప్ర",
        "చారం"
      ],
      [
        "ాల",
        "లో"
      ],
      [
        "క",
        "ార"
      ],
      [
        " తా",
        "ను"
      ],
      [
        "ని",
        "వా"
      ],
      [
        " ఆ",
        "ందోళన"
      ],
      [
        "లు",
        "వ"
      ],
      [
        " గుర్",
        "తు"
      ],
      [
        " ప",
        "రీక్ష"
      ],
      [
        " ఎక్కువ",
        "గా"
      ],
      [
        "ంట",
        "ీ"
      ],
      [
        " ని",
        "య"
      ],
      [
        "బ",
        "డి"
      ],
      [
        " క",
        "ళ"
      ],
      [
        "ని",
        "యర్"
      ],
      [
        "ంద",
        "ా"
      ],
      [
        "పోయ",
        "ింది"
      ],
      [
        "య",
        "ిల్"
      ],
      [
        " వ",
        "ార"
      ],
      [
        "1",
        "7"
      ],
      [
        "‌లో",
        "ని"
      ],
      [
        " ట్ర",
        "ా"
      ],
      [
        " పె",
        "రి"
      ],
      [
        "వ",
        "న"
      ],
      [
        "స",
        "ో"
      ],
      [
        " మ",
        "ద్ద"
      ],
      [
        "వర",
        "ణ"
      ],
      [
        "ర్చ",
        "ు"
      ],
      [
        " ర",
        "ిక"
      ],
      [
        " సి",
        "ంగ్"
      ],
      [
        "స్",
        "తో"
      ],
      [
        " నిర్ణ",
        "య"
      ],
      [
        " హా",
        "జ"
      ],
      [
        " చిత",
        "్ర"
      ],
      [
        "రు",
        "వు"
      ],
      [
        " చూ",
        "డ"
      ],
      [
        "ద",
        "ో"
      ],
      [
        "న",
        "లు"
      ],
      [
        "య",
        "ల్"
      ],
      [
        " బ",
        "ో"
      ],
      [
        " ఫ",
        "లి"
      ],
      [
        " త",
        "య"
      ],
      [
        "20",
        "0"
      ],
      [
        " మార్",
        "పు"
      ],
      [
        "న్న",
        "ు"
      ],
      [
        "ండ",
        "గా"
      ],
      [
        " రా",
        "మ"
      ],
      [
        " ప",
        "ంప"
      ],
      [
        " యూ",
        "ని"
      ],
      [
        "వా",
        "డ"
      ],
      [
        " సం",
        "ఖ్య"
      ],
      [
        " ఆరోప",
        "ణ"
      ],
      [
        " వి",
        "వా"
      ],
      [
        "ెస్",
        "టు"
      ],
      [
        "మ",
        "ారు"
      ],
      [
        " బా",
        "ధ్య"
      ],
      [
        " త",
        "ు"
      ],
      [
        "వై",
        "పు"
      ],
      [
        " తరు",
        "వాత"
      ],
      [
        "తి",
        "రే"
      ],
      [
        " మీడియా",
        "లో"
      ],
      [
        "త్వ",
        "ం"
      ],
      [
        " చేసు",
        "కోవ"
      ],
      [
        "ను",
        "గో"
      ],
      [
        "మ",
        "ల"
      ],
      [
        "ళ్",
        "లీ"
      ],
      [
        " పాల్గొ",
        "న్నారు"
      ],
      [
        "ణ",
        "ాలు"
      ],
      [
        "త",
        "ె"
      ],
      [
        " క్రమ",
        "ంలో"
      ],
      [
        " ఆ",
        "ది"
      ],
      [
        " తెలు",
        "స్తోంది"
      ],
      [
        " ద",
        "ొ"
      ],
      [
        " ఖ",
        "ా"
      ],
      [
        " కార్య",
        "క్రమ"
      ],
      [
        " స్ట",
        "ేషన్"
      ],
      [
        "చ",
        "ుకు"
      ],
      [
        " చేస్త",
        "ూ"
      ],
      [
        " స",
        "ర"
      ],
      [
        " ఉ",
        "ంటే"
      ],
      [
        " దగ్గ",
        "ర"
      ],
      [
        " మరి",
        "ంత"
      ],
      [
        "ష",
        "నల్"
      ],
      [
        " చ",
        "ట్ట"
      ],
      [
        "పెట్",
        "ట"
      ],
      [
        "‌",
        "పై"
      ],
      [
        " రాష్ట్ర",
        "ంలో"
      ],
      [
        "జ",
        "ూ"
      ],
      [
        "్ర",
        "ే"
      ],
      [
        " అభ్యర్థ",
        "ి"
      ],
      [
        " కొనసా",
        "గు"
      ],
      [
        "యి",
        "న్"
      ],
      [
        "ర్మ",
        "న్"
      ],
      [
        "వ",
        "చ్చ"
      ],
      [
        "స",
        "ార్"
      ],
      [
        "స్",
        "టర్"
      ],
      [
        " జిల్లా",
        "లో"
      ],
      [
        " త",
        "ల"
      ],
      [
        " వ్య",
        "తిరే"
      ],
      [
        " డ",
        "ే"
      ],
      [
        " మే",
        "రకు"
      ],
      [
        " అ",
        "ంది"
      ],
      [
        " శ్రీ",
        "నివా"
      ],
      [
        " ఆరోప",
        "ించారు"
      ],
      [
        "బు",
        "ల్"
      ],
      [
        "ప",
        "రి"
      ],
      [
        "ాల",
        "ే"
      ],
      [
        "1",
        "6"
      ],
      [
        " కాల",
        "ే"
      ],
      [
        "ళ",
        "ి"
      ],
      [
        " నిర్",
        "మ"
      ],
      [
        " డ",
        "ె"
      ],
      [
        "ము",
        "ఖ"
      ],
      [
        "ట్టు",
        "కు"
      ],
      [
        "ిక",
        "ెట్"
      ],
      [
        " దా",
        "దాపు"
      ],
      [
        "ప్ర",
        "తి"
      ],
      [
        "వి",
        "ధ"
      ],
      [
        " ప్ర",
        "ి"
      ],
      [
        "రా",
        "వు"
      ],
      [
        " తెలిసి",
        "ందే"
      ],
      [
        " వై",
        "ఎస్"
      ],
      [
        "ల్",
        "సిన"
      ],
      [
        "ట",
        "ల్"
      ],
      [
        " వై",
        "ద్య"
      ],
      [
        " న్య",
        "ాయ"
      ],
      [
        "పోయ",
        "ారు"
      ],
      [
        "డి",
        "గా"
      ],
      [
        " ప్రభు",
        "త్వా"
      ],
      [
        "ప్ర",
        "ీ"
      ],
      [
        "న",
        "గర్"
      ],
      [
        "ఖ",
        "ా"
      ],
      [
        " ",
        "ట్"
      ],
      [
        "సీ",
        "సీ"
      ],
      [
        " త",
        "ల్లి"
      ],
      [
        " నాయ",
        "కులు"
      ],
      [
        "1",
        "3"
      ],
      [
        " అధ్యక్ష",
        "ుడు"
      ],
      [
        "ఏ",
        "పీ"
      ],
      [
        "ప",
        "ాల"
      ],
      [
        " న్య",
        "ూ"
      ],
      [
        "టీ",
        "వల"
      ],
      [
        " లో",
        "ని"
      ],
      [
        " ఎ",
        "ందుకు"
      ],
      [
        "గ",
        "ంలో"
      ],
      [
        " ప్రక",
        "టన"
      ],
      [
        " ర",
        "ీ"
      ],
      [
        " టి",
        "కెట్"
      ],
      [
        "త",
        "ను"
      ],
      [
        " కొ",
        "ంత"
      ],
      [
        " డా",
        "క్టర్"
      ],
      [
        " అర",
        "ెస్ట్"
      ],
      [
        " తీ",
        "ర్"
      ],
      [
        " రి",
        "లీ"
      ],
      [
        " ",
        "'"
      ],
      [
        "గా",
        "ల"
      ],
      [
        " ఎ",
        "ంత"
      ],
      [
        " డై",
        "ర"
      ],
      [
        " క",
        "థ"
      ],
      [
        "న్య",
        "ూ"
      ],
      [
        " మద్ద",
        "తు"
      ],
      [
        "ణా",
        "టక"
      ],
      [
        "ی",
        "ں"
      ],
      [
        "్ర",
        "ో"
      ],
      [
        " ప్ర",
        "జా"
      ],
      [
        " స్థ",
        "ాన"
      ],
      [
        " సి",
        "బ్బంది"
      ],
      [
        " అ",
        "న"
      ],
      [
        "ట",
        "రీ"
      ],
      [
        "స్త",
        "ాయి"
      ],
      [
        " వా",
        "తా"
      ],
      [
        " వెల్లడ",
        "ించారు"
      ],
      [
        "హ",
        "న"
      ],
      [
        "మా",
        "న"
      ],
      [
        " స",
        "ౌ"
      ],
      [
        " బ",
        "ంగ"
      ],
      [
        "ార",
        "ణ"
      ],
      [
        "రే",
        "షన్"
      ],
      [
        " దా",
        "ని"
      ],
      [
        " క",
        "ంటే"
      ],
      [
        "ార",
        "ాయ"
      ],
      [
        "బీ",
        "సీ"
      ],
      [
        " హై",
        "కోర్టు"
      ],
      [
        " ఆ",
        "లో"
      ],
      [
        " గ",
        "్రా"
      ],
      [
        " రా",
        "హుల్"
      ],
      [
        "శ",
        "ారు"
      ],
      [
        "జ",
        "య్"
      ],
      [
        "ే",
        "ందుకు"
      ],
      [
        "్య",
        "ార"
      ],
      [
        " వె",
        "ంటనే"
      ],
      [
        " ద",
        "ృష్"
      ],
      [
        "డు",
        "కు"
      ],
      [
        " ప",
        "డ"
      ],
      [
        " ని",
        "ల"
      ],
      [
        " కల",
        "ెక్టర్"
      ],
      [
        " చేసుకు",
        "న్న"
      ],
      [
        "క",
        "ారం"
      ],
      [
        "ఇ",
        "ందులో"
      ],
      [
        "‌",
        "ల"
      ],
      [
        "స్థ",
        "ా"
      ],
      [
        " వై",
        "రల్"
      ],
      [
        "ఎ",
        "న్"
      ],
      [
        " స",
        "ేవ"
      ],
      [
        "బ",
        "్ర"
      ],
      [
        " కా",
        "కుండా"
      ],
      [
        " బ",
        "ిల్"
      ],
      [
        "ె",
        "న్స్"
      ],
      [
        "టర్",
        "ల"
      ],
      [
        "ండ",
        "ర్"
      ],
      [
        " కొ",
        "నుగో"
      ],
      [
        "ಲ",
        "್"
      ],
      [
        " విజ",
        "యం"
      ],
      [
        " నాలు",
        "గు"
      ],
      [
        " కే",
        "టీఆర్"
      ],
      [
        "ం",
        "ప్"
      ],
      [
        "న",
        "ో"
      ],
      [
        " ప్రాజెక్",
        "టు"
      ],
      [
        "ంగళ",
        "ూరు"
      ],
      [
        " ప",
        "ైన"
      ],
      [
        "స్",
        "టి"
      ],
      [
        " చ",
        "ా"
      ],
      [
        " కమి",
        "టీ"
      ],
      [
        " లో",
        "క్"
      ],
      [
        "ంధ్ర",
        "ప్రదేశ్"
      ],
      [
        "ద",
        "ాలు"
      ],
      [
        " కో",
        "రారు"
      ],
      [
        " చో",
        "టు"
      ],
      [
        " స",
        "ాయ"
      ],
      [
        " ఆ",
        "స"
      ],
      [
        " చ",
        "ు"
      ],
      [
        "క్",
        "కి"
      ],
      [
        " కో",
        "ల్"
      ],
      [
        "చ",
        "ిత"
      ],
      [
        "ంద",
        "్"
      ],
      [
        " తీసుకు",
        "న్న"
      ],
      [
        " ",
        "థ"
      ],
      [
        "మ",
        "ంది"
      ],
      [
        "వర",
        "కు"
      ],
      [
        "మా",
        "ను"
      ],
      [
        " తి",
        "రిగి"
      ],
      [
        "ణ",
        "ు"
      ],
      [
        " అవ",
        "స"
      ],
      [
        "బ",
        "ె"
      ],
      [
        " ఉప",
        "యోగ"
      ],
      [
        "అందు",
        "కే"
      ],
      [
        "ళ్",
        "ళ"
      ],
      [
        " భా",
        "వి"
      ],
      [
        "్య",
        "ు"
      ],
      [
        "డి",
        "ని"
      ],
      [
        " ద",
        "ే"
      ],
      [
        "అ",
        "దే"
      ],
      [
        " ఏ",
        "ం"
      ],
      [
        " వ్యా",
        "ప"
      ],
      [
        "వ",
        "లం"
      ],
      [
        "ర",
        "్ర"
      ],
      [
        " మార",
        "ింది"
      ],
      [
        "స",
        "ూ"
      ],
      [
        " ల",
        "ై"
      ],
      [
        "ల్",
        "వే"
      ],
      [
        "ాల",
        "ంటే"
      ],
      [
        " ప్ర",
        "స్తుతం"
      ],
      [
        " భ",
        "ర్"
      ],
      [
        " పార్",
        "ల"
      ],
      [
        " ఉ",
        "త్"
      ],
      [
        " పరి",
        "ధి"
      ],
      [
        "ం",
        "తు"
      ],
      [
        " స",
        "ంగ"
      ],
      [
        " ఆధ",
        "ార"
      ],
      [
        " అ",
        "ది"
      ],
      [
        " న",
        "మ్మ"
      ],
      [
        "టర్",
        "లు"
      ],
      [
        "కూ",
        "ల"
      ],
      [
        " ఉద",
        "యం"
      ],
      [
        " అ",
        "మెరికా"
      ],
      [
        "నే",
        "ందుకు"
      ],
      [
        " ప",
        "ంచ"
      ],
      [
        " హె",
        "చ్చ"
      ],
      [
        "ై",
        "ంది"
      ],
      [
        "కర",
        "ణ"
      ],
      [
        "ై",
        "ర్"
      ],
      [
        " స్ప",
        "ందించ"
      ],
      [
        " ప్రాంత",
        "ాల్లో"
      ],
      [
        "యా",
        "నికి"
      ],
      [
        " సూచ",
        "ించారు"
      ],
      [
        "శ",
        "ు"
      ],
      [
        " అ",
        "డుగు"
      ],
      [
        " మొద",
        "టి"
      ],
      [
        "గ",
        "ింది"
      ],
      [
        " రా",
        "శి"
      ],
      [
        " పను",
        "లు"
      ],
      [
        " వ",
        "ిన"
      ],
      [
        "గి",
        "రి"
      ],
      [
        " ఉ",
        "ంచ"
      ],
      [
        "ల్",
        "లా"
      ],
      [
        " ఇ",
        "లా"
      ],
      [
        "ప",
        "్రి"
      ],
      [
        " ప్ర",
        "ొ"
      ],
      [
        "థ",
        "్"
      ],
      [
        " మొ",
        "దల"
      ],
      [
        "డి",
        "ంగ్"
      ],
      [
        " ఏ",
        "ళ్ల"
      ],
      [
        " స్ట",
        "ే"
      ],
      [
        "య్య",
        "ారు"
      ],
      [
        "ించ",
        "ా"
      ],
      [
        " పోలీ",
        "స్"
      ],
      [
        "ర",
        "ంగ"
      ],
      [
        "ష",
        "ే"
      ],
      [
        "మ్",
        "స్"
      ],
      [
        " నిర్",
        "వ"
      ],
      [
        " త",
        "క్కువ"
      ],
      [
        "ామ",
        "న్నారు"
      ],
      [
        " మ",
        "ై"
      ],
      [
        " మ",
        "ళ్లీ"
      ],
      [
        "వ్యా",
        "ప్తంగా"
      ],
      [
        " హ",
        "త్య"
      ],
      [
        "మా",
        "న్"
      ],
      [
        "ల్",
        "ని"
      ],
      [
        " ఐ",
        "దు"
      ],
      [
        "డ",
        "ంలో"
      ],
      [
        " ని",
        "ర"
      ],
      [
        "ی",
        "ا"
      ],
      [
        "బీ",
        "జేపీ"
      ],
      [
        " సా",
        "గు"
      ],
      [
        " రా",
        "త్రి"
      ],
      [
        " చ",
        "ని"
      ],
      [
        "న్న",
        "ాయి"
      ],
      [
        "క్ర",
        "మా"
      ],
      [
        " చేశ",
        "ాడు"
      ],
      [
        "2",
        "2"
      ],
      [
        "శ",
        "ే"
      ],
      [
        " శి",
        "వ"
      ],
      [
        " మ",
        "ృతి"
      ],
      [
        "ష",
        "ా"
      ],
      [
        " కి",
        "లో"
      ],
      [
        "హ",
        "ె"
      ],
      [
        "రి",
        "యా"
      ],
      [
        "ప",
        "ం"
      ],
      [
        " అ",
        "తి"
      ],
      [
        " బ",
        "ాల"
      ],
      [
        "జ",
        "్ర"
      ],
      [
        "ర్",
        "స్"
      ],
      [
        "ెం",
        "డ్"
      ],
      [
        " ఇ",
        "ప్పటికే"
      ],
      [
        "పా",
        "ల్"
      ],
      [
        "తి",
        "లో"
      ],
      [
        " ఇ",
        "దే"
      ],
      [
        " ష",
        "ే"
      ],
      [
        " జా",
        "తీయ"
      ],
      [
        "‌‌‌‌‌‌‌‌‌‌‌‌‌‌‌‌‌‌‌‌‌‌‌‌‌‌‌‌‌‌‌‌‌‌‌‌‌‌‌‌‌‌‌‌‌‌‌‌‌‌‌‌‌‌‌‌‌‌‌‌‌‌‌‌‌‌‌‌‌‌‌‌‌‌‌‌‌‌‌‌‌‌‌‌‌‌‌‌‌‌‌‌‌‌‌‌‌‌‌‌‌‌‌‌‌‌‌‌‌‌‌‌‌‌‌‌‌‌‌‌‌‌‌‌‌‌‌‌",
        "‌‌‌‌‌‌‌‌‌‌‌‌‌‌‌‌‌‌‌‌‌‌‌‌‌‌‌‌‌‌‌‌‌‌‌‌‌‌‌‌‌‌‌‌‌‌‌‌‌‌‌‌‌‌‌‌‌‌‌‌‌‌‌‌‌‌‌‌‌‌‌‌‌‌‌‌‌‌‌‌‌‌‌‌‌‌‌‌‌‌‌‌‌‌‌‌‌‌‌‌‌‌‌‌‌‌‌‌‌‌‌‌‌‌‌‌‌‌‌‌‌‌‌‌‌‌‌‌"
      ],
      [
        "స్త",
        "ాన్"
      ],
      [
        "కోవ",
        "డం"
      ],
      [
        " స్ప",
        "ష్టం"
      ],
      [
        " ప్ర",
        "వేశ"
      ],
      [
        " బ",
        "ౌ"
      ],
      [
        " చె",
        "ప్పు"
      ],
      [
        " భార",
        "్య"
      ],
      [
        " గె",
        "లి"
      ],
      [
        " ఫ",
        "ు"
      ],
      [
        " ము",
        "గి"
      ],
      [
        " రె",
        "ండో"
      ],
      [
        " ఉంట",
        "ాయి"
      ],
      [
        " అవస",
        "రం"
      ],
      [
        "ద",
        "న్నారు"
      ],
      [
        " స",
        "ంచ"
      ],
      [
        " క",
        "ట్ట"
      ],
      [
        "కా",
        "గా"
      ],
      [
        " కార్య",
        "కర్"
      ],
      [
        "కి",
        "ంగ్"
      ],
      [
        " మ",
        "ండి"
      ],
      [
        " మా",
        "ట"
      ],
      [
        "ధ",
        "ులు"
      ],
      [
        "ండ",
        "్రి"
      ],
      [
        "త",
        "రు"
      ],
      [
        "4",
        "0"
      ],
      [
        " మార్",
        "కెట్"
      ],
      [
        " తర",
        "ల"
      ],
      [
        " ",
        "پ"
      ],
      [
        "ర్",
        "ట్"
      ],
      [
        " అను",
        "మ"
      ],
      [
        "తు",
        "లను"
      ],
      [
        " రో",
        "డ్డు"
      ],
      [
        " వర్ష",
        "ాలు"
      ],
      [
        "ఇ",
        "ప్పటికే"
      ],
      [
        " స",
        "ంద"
      ],
      [
        " ఆ",
        "ద"
      ],
      [
        " ప్రజ",
        "ల"
      ],
      [
        " తెలు",
        "సుకు"
      ],
      [
        " ప్రకట",
        "ించారు"
      ],
      [
        " ఆలో",
        "చ"
      ],
      [
        "ష",
        "్య"
      ],
      [
        " వి",
        "కెట్"
      ],
      [
        "క",
        "ృష్ణ"
      ],
      [
        " గ",
        "ి"
      ],
      [
        "వ",
        "చ్చు"
      ],
      [
        "ప్రీ",
        "ం"
      ],
      [
        " రిలీ",
        "జ్"
      ],
      [
        " ఆస",
        "క్తి"
      ],
      [
        " పో",
        "రా"
      ],
      [
        "వ",
        "ంత"
      ],
      [
        " చె",
        "ల్ల"
      ],
      [
        "స్వా",
        "మి"
      ],
      [
        " ",
        "س"
      ],
      [
        " అందు",
        "బాటు"
      ],
      [
        "ఎ",
        "న్నిక"
      ],
      [
        "్య",
        "ాల"
      ],
      [
        " కొనుగో",
        "లు"
      ],
      [
        "స",
        "ెస్"
      ],
      [
        " జన",
        "సేన"
      ],
      [
        "మై",
        "ంది"
      ],
      [
        " తొ",
        "ల"
      ],
      [
        " మ",
        "ారు"
      ],
      [
        "అ",
        "ని"
      ],
      [
        " ఉద్యో",
        "గు"
      ],
      [
        " ఇద్ద",
        "రు"
      ],
      [
        " క",
        "ష్ట"
      ],
      [
        " అ",
        "ల"
      ],
      [
        "ించ",
        "ాడు"
      ],
      [
        " సమ",
        "యం"
      ],
      [
        " పై",
        "గా"
      ],
      [
        " మరి",
        "యు"
      ],
      [
        "ృ",
        "త"
      ],
      [
        " ప్ర",
        "ే"
      ],
      [
        " ఫ",
        "్"
      ],
      [
        "ంట్",
        "లో"
      ],
      [
        " వ్యాఖ్య",
        "లు"
      ],
      [
        "స",
        "న్"
      ],
      [
        "ించ",
        "డానికి"
      ],
      [
        "ండ",
        "ీ"
      ],
      [
        " పరుగు",
        "లు"
      ],
      [
        "న",
        "ంగా"
      ],
      [
        "డ",
        "మే"
      ],
      [
        "ా",
        "ను"
      ],
      [
        "ర",
        "గా"
      ],
      [
        " వి",
        "ధా"
      ],
      [
        " తె",
        "ర"
      ],
      [
        "ీ",
        "ర్"
      ],
      [
        " భ",
        "ద్ర"
      ],
      [
        "మ",
        "న"
      ],
      [
        "ప్",
        "తు"
      ],
      [
        " ము",
        "ందుకు"
      ],
      [
        " అధికార",
        "ంలోకి"
      ],
      [
        " ఎ",
        "క్స్"
      ],
      [
        " వే",
        "య"
      ],
      [
        "ద",
        "్యా"
      ],
      [
        " ద",
        "ో"
      ],
      [
        " ఆరో",
        "గ్య"
      ],
      [
        "సి",
        "టీ"
      ],
      [
        " గంట",
        "లకు"
      ],
      [
        "కొ",
        "న్ని"
      ],
      [
        "క్ర",
        "వారం"
      ],
      [
        " కార్య",
        "ాల"
      ],
      [
        " వెంక",
        "ట"
      ],
      [
        "జ",
        "ిక"
      ],
      [
        " కా",
        "నీ"
      ],
      [
        "నా",
        "న్ని"
      ],
      [
        "క్",
        "త"
      ],
      [
        "ల",
        "క్ష"
      ],
      [
        " కొ",
        "ందరు"
      ],
      [
        " నిర్వ",
        "హి"
      ],
      [
        " నిర్వహ",
        "ించారు"
      ],
      [
        "క్",
        "టో"
      ],
      [
        "చ్చ",
        "ి"
      ],
      [
        " స్",
        "కూ"
      ],
      [
        "అ",
        "నంతరం"
      ],
      [
        " కూ",
        "టమి"
      ],
      [
        " మో",
        "డీ"
      ],
      [
        "త",
        "మ"
      ],
      [
        " ఇ",
        "బ్బ"
      ],
      [
        " స్",
        "వీ"
      ],
      [
        "స్తు",
        "ందని"
      ],
      [
        " పె",
        "ళ్లి"
      ],
      [
        "మ",
        "వారం"
      ],
      [
        "ర్",
        "మి"
      ],
      [
        " అ",
        "ప్ప"
      ],
      [
        "ండ్",
        "ల"
      ],
      [
        " వై",
        "పు"
      ],
      [
        "వ",
        "రు"
      ],
      [
        " పా",
        "ట"
      ],
      [
        "రా",
        "వ"
      ],
      [
        "పో",
        "వ"
      ],
      [
        "చ",
        "ూ"
      ],
      [
        "చ",
        "ె"
      ],
      [
        "రా",
        "జ్"
      ],
      [
        "వు",
        "డ్"
      ],
      [
        " సంబంధ",
        "ించి"
      ],
      [
        "ని",
        "ంగ్"
      ],
      [
        " బ",
        "ై"
      ],
      [
        " వారి",
        "ని"
      ],
      [
        "వ",
        "్య"
      ],
      [
        "న",
        "ె"
      ],
      [
        " ఎ",
        "ంతో"
      ],
      [
        " వివర",
        "ించారు"
      ],
      [
        " రా",
        "జీ"
      ],
      [
        "ప్ర",
        "భు"
      ],
      [
        " పరి",
        "ష్"
      ],
      [
        "తా",
        "జాగా"
      ],
      [
        "ండ",
        "ే"
      ],
      [
        "10",
        "0"
      ],
      [
        " ఇ",
        "ంటర్"
      ],
      [
        "ంగ",
        "ల్"
      ],
      [
        "ణ",
        "ీ"
      ],
      [
        " ప్ర",
        "ై"
      ],
      [
        " వే",
        "దిక"
      ],
      [
        " పెట్",
        "టి"
      ],
      [
        " ఇబ్బ",
        "ందు"
      ],
      [
        " మరో",
        "సారి"
      ],
      [
        "ప",
        "ించారు"
      ],
      [
        " మ",
        "రణ"
      ],
      [
        " ఎ",
        "వర"
      ],
      [
        "లా",
        "ండ్"
      ],
      [
        " అభి",
        "ప్ర"
      ],
      [
        " క",
        "ారు"
      ],
      [
        " రై",
        "ల్వే"
      ],
      [
        "తి",
        "ని"
      ],
      [
        "ారి",
        "టీ"
      ],
      [
        " ప్రజ",
        "లకు"
      ],
      [
        " చై",
        "ర్మన్"
      ],
      [
        "ారాయ",
        "ణ"
      ],
      [
        "హ",
        "న్"
      ],
      [
        "‌",
        "ర్"
      ],
      [
        " ని",
        "లిచ"
      ],
      [
        "కొ",
        "త్త"
      ],
      [
        " డైర",
        "ెక్టర్"
      ],
      [
        "‌",
        "ని"
      ],
      [
        "టీ",
        "సీ"
      ],
      [
        " కా",
        "ల్"
      ],
      [
        "ో",
        "త్స"
      ],
      [
        " అ",
        "డి"
      ],
      [
        "ిన",
        "ట్లు"
      ],
      [
        "మి",
        "ళ"
      ],
      [
        " కార్య",
        "క్రమా"
      ],
      [
        " ఉంటు",
        "ందని"
      ],
      [
        "శ",
        "్రీ"
      ],
      [
        " అధ",
        "ినే"
      ],
      [
        " సీ",
        "నియర్"
      ],
      [
        " మ",
        "ర"
      ],
      [
        "లి",
        "యా"
      ],
      [
        "లే",
        "క"
      ],
      [
        "ంత్ర",
        "ం"
      ],
      [
        "జ్",
        "ఞ"
      ],
      [
        " భూ",
        "మి"
      ],
      [
        " ఫ",
        "ా"
      ],
      [
        " పో",
        "స్టు"
      ],
      [
        " కని",
        "పించ"
      ],
      [
        " త",
        "్వ"
      ],
      [
        " జరిగ",
        "ే"
      ],
      [
        " పరిశ",
        "ీల"
      ],
      [
        " రో",
        "డ్"
      ],
      [
        " న",
        "రే"
      ],
      [
        " ఫలి",
        "త"
      ],
      [
        "యి",
        "ర్"
      ],
      [
        " అ",
        "క్కడ"
      ],
      [
        "ధా",
        "ని"
      ],
      [
        "..",
        "."
      ],
      [
        " చేస్త",
        "ే"
      ],
      [
        " ఆ",
        "హ"
      ],
      [
        " రోజు",
        "ల్లో"
      ],
      [
        "ారా",
        "న్ని"
      ],
      [
        "ప",
        "ూ"
      ],
      [
        "ప్",
        "షన్"
      ],
      [
        " ప్రశ్",
        "నించారు"
      ],
      [
        "ప",
        "డిన"
      ],
      [
        " ప్",
        "లే"
      ],
      [
        "ము",
        "ఖ్య"
      ],
      [
        " కేంద్ర",
        "ం"
      ],
      [
        " చేసే",
        "ందుకు"
      ],
      [
        " ప్రమా",
        "దం"
      ],
      [
        " వ",
        "స్తున్న"
      ],
      [
        " ఇం",
        "కా"
      ],
      [
        " ఇ",
        "ప్పటి"
      ],
      [
        " సర్",
        "వే"
      ],
      [
        " అవ",
        "సర"
      ],
      [
        " మండ",
        "ల"
      ],
      [
        " వ",
        "స్తే"
      ],
      [
        "జ్ర",
        "ాయ"
      ],
      [
        "ప్పు",
        "డ"
      ],
      [
        "త",
        "ల"
      ],
      [
        "టి",
        "లో"
      ],
      [
        " తన",
        "కు"
      ],
      [
        " అ",
        "క్కడి"
      ],
      [
        " ని",
        "వే"
      ],
      [
        "తున్న",
        "ారని"
      ],
      [
        " బ",
        "స్సు"
      ],
      [
        "గ",
        "ల"
      ],
      [
        " ఆ",
        "త్మ"
      ],
      [
        " నమో",
        "ద"
      ],
      [
        "ంట",
        "ో"
      ],
      [
        " అ",
        "ండ్"
      ],
      [
        " శ్రీనివా",
        "స్"
      ],
      [
        "వా",
        "ళ"
      ],
      [
        "పు",
        "రం"
      ],
      [
        "గ్ర",
        "హం"
      ],
      [
        "ాల",
        "నే"
      ],
      [
        "ె",
        "బ్బ"
      ],
      [
        "ర్యా",
        "ప్తు"
      ],
      [
        "2",
        "1"
      ],
      [
        "ండ",
        "్ర"
      ],
      [
        " నే",
        "ను"
      ],
      [
        " తీసు",
        "కె"
      ],
      [
        " వ",
        "ృ"
      ],
      [
        " బయట",
        "కు"
      ],
      [
        " ఫ",
        "ీ"
      ],
      [
        " పేరు",
        "తో"
      ],
      [
        "న్సి",
        "ప"
      ],
      [
        "మ",
        "రి"
      ],
      [
        " ల",
        "క్ష్"
      ],
      [
        " ఎ",
        "వరి"
      ],
      [
        "ంగళ",
        "వారం"
      ],
      [
        " దీ",
        "ని"
      ],
      [
        " గ్ర",
        "ూ"
      ],
      [
        " పేర్కొ",
        "ంది"
      ],
      [
        "ర",
        "ాల"
      ],
      [
        " అ",
        "దే"
      ],
      [
        "ను",
        "క"
      ],
      [
        "గ",
        "్రా"
      ],
      [
        "రు",
        "గా"
      ],
      [
        "రు",
        "పు"
      ],
      [
        " అనే",
        "ది"
      ],
      [
        "మ",
        "ిక"
      ],
      [
        " చే",
        "రి"
      ],
      [
        " కే",
        "సులు"
      ],
      [
        " న",
        "గర్"
      ],
      [
        " జై",
        "లు"
      ],
      [
        "ొ",
        "చ్చు"
      ],
      [
        " ని",
        "ంది"
      ],
      [
        "ని",
        "వారం"
      ],
      [
        " చేయ",
        "డానికి"
      ],
      [
        " పూ",
        "జ"
      ],
      [
        "దు",
        "పు"
      ],
      [
        "నా",
        "డు"
      ],
      [
        " బా",
        "గా"
      ],
      [
        "బీ",
        "ఐ"
      ],
      [
        "గ",
        "ూడ"
      ],
      [
        " అ",
        "ప్"
      ],
      [
        " సు",
        "ప్రీం"
      ],
      [
        "మ్",
        "మి"
      ],
      [
        " పాల",
        "న"
      ],
      [
        " సొ",
        "ంత"
      ],
      [
        "2",
        "3"
      ],
      [
        "ఎ",
        "ఫ్"
      ],
      [
        "్రి",
        "య"
      ],
      [
        " ర",
        "ద్దు"
      ],
      [
        "ట్ర",
        "ో"
      ],
      [
        " జ",
        "ే"
      ],
      [
        "హ్",
        "మ"
      ],
      [
        " ప్రమా",
        "ద"
      ],
      [
        "ృ",
        "ష్ట"
      ],
      [
        " కేట",
        "ాయ"
      ],
      [
        "ు",
        "లను"
      ],
      [
        " బా",
        "ధ"
      ],
      [
        "చంద్ర",
        "బాబు"
      ],
      [
        " అ",
        "ందుకు"
      ],
      [
        "ళ్",
        "లకు"
      ],
      [
        " ప",
        "క్క"
      ],
      [
        " ఆరోపణ",
        "లు"
      ],
      [
        " చే",
        "స"
      ],
      [
        " యా",
        "ద"
      ],
      [
        " అ",
        "ర్థ"
      ],
      [
        " పో",
        "లింగ్"
      ],
      [
        " నా",
        "గ"
      ],
      [
        "కపోవ",
        "డంతో"
      ],
      [
        "భ",
        "వ"
      ],
      [
        " అయ్య",
        "ారు"
      ],
      [
        " బ",
        "ోర్"
      ],
      [
        "దేశ",
        "ం"
      ],
      [
        " ఏర్",
        "పా"
      ],
      [
        " స",
        "ెల"
      ],
      [
        "జ్రాయ",
        "ెల్"
      ],
      [
        "ల్",
        "యా"
      ],
      [
        "హె",
        "చ్"
      ],
      [
        "ం",
        "క"
      ],
      [
        "ాలీ",
        "వుడ్"
      ],
      [
        "ం",
        "కర్"
      ],
      [
        "పో",
        "యి"
      ],
      [
        " తేదీ",
        "న"
      ],
      [
        " అంచ",
        "నా"
      ],
      [
        "న",
        "ాల"
      ],
      [
        "ని",
        "యా"
      ],
      [
        " చీ",
        "ఫ్"
      ],
      [
        " వి",
        "స్త"
      ],
      [
        "ంలో",
        "నే"
      ],
      [
        "క",
        "ౌ"
      ],
      [
        " క్ర",
        "ికెట్"
      ],
      [
        " అధినే",
        "త"
      ],
      [
        "దర్శ",
        "ి"
      ],
      [
        " చేశ",
        "ారని"
      ],
      [
        "కొ",
        "ండ"
      ],
      [
        "జ",
        "ం"
      ],
      [
        " ఎన్నిక",
        "లు"
      ],
      [
        "్యూ",
        "టీ"
      ],
      [
        " మండ",
        "లం"
      ],
      [
        "డి",
        "కి"
      ],
      [
        " వి",
        "విధ"
      ],
      [
        " జరుగు",
        "తున్న"
      ],
      [
        "రీ",
        "స్"
      ],
      [
        " వ్యవ",
        "స్థ"
      ],
      [
        " కొ",
        "ట్ట"
      ],
      [
        " గా",
        "య"
      ],
      [
        "మ",
        "ర్"
      ],
      [
        " వి",
        "లువ"
      ],
      [
        "కూ",
        "డ"
      ],
      [
        " స",
        "హా"
      ],
      [
        " సం",
        "క్ష"
      ],
      [
        " రై",
        "తు"
      ],
      [
        "స్థ",
        "ాన్"
      ],
      [
        " రి",
        "జర్"
      ],
      [
        "మరో",
        "వైపు"
      ],
      [
        "సు",
        "ప"
      ],
      [
        " కల్",
        "యా"
      ],
      [
        "2",
        "8"
      ],
      [
        " త",
        "ప్పు"
      ],
      [
        "కి",
        "త్స"
      ],
      [
        " ఓ",
        "వర్"
      ],
      [
        " సా",
        "మా"
      ],
      [
        " ద",
        "క్క"
      ],
      [
        " ప్ర",
        "స"
      ],
      [
        " న",
        "డు"
      ],
      [
        " అభి",
        "మాను"
      ],
      [
        "అంత",
        "ే"
      ],
      [
        "a",
        "r"
      ],
      [
        " ద",
        "ాడు"
      ],
      [
        " అత",
        "ని"
      ],
      [
        "్ర",
        "మ"
      ],
      [
        " ద",
        "ర్యాప్తు"
      ],
      [
        " త",
        "గ్"
      ],
      [
        "ాల",
        "న్నారు"
      ],
      [
        "రి",
        "కీ"
      ],
      [
        "ట్ర",
        "ా"
      ],
      [
        "ించిన",
        "ట్లు"
      ],
      [
        "ళ్ల",
        "లో"
      ],
      [
        "రు",
        "వారం"
      ],
      [
        "ం",
        "క్"
      ],
      [
        " బ",
        "ొ"
      ],
      [
        "ఆ",
        "మె"
      ],
      [
        " ద",
        "ేవ"
      ],
      [
        "పు",
        "ణ"
      ],
      [
        "కు",
        "లకు"
      ],
      [
        "ణ",
        "ంలో"
      ],
      [
        " సభ్య",
        "ులు"
      ],
      [
        " సం",
        "జయ్"
      ],
      [
        "ప్ప",
        "ి"
      ],
      [
        " పి",
        "టి"
      ],
      [
        " పా",
        "కి"
      ],
      [
        " వ",
        "రు"
      ],
      [
        " బ",
        "్"
      ],
      [
        "డ్",
        "జ"
      ],
      [
        " త",
        "ది"
      ],
      [
        " విమర్శ",
        "ించారు"
      ],
      [
        "కపో",
        "తే"
      ],
      [
        "మా",
        "నం"
      ],
      [
        "గత",
        "ంలో"
      ],
      [
        "ఫ",
        "ొటో"
      ],
      [
        "ల్లో",
        "కి"
      ],
      [
        " సహ",
        "ాయ"
      ],
      [
        "ప్",
        "తి"
      ],
      [
        " పో",
        "స్ట్"
      ],
      [
        " కే",
        "వలం"
      ],
      [
        "భ",
        "ూ"
      ],
      [
        " తయ",
        "ారు"
      ],
      [
        " పార్టీ",
        "కి"
      ],
      [
        " వర",
        "కూ"
      ],
      [
        " స",
        "ూర్"
      ],
      [
        " మాట్లాడ",
        "ారు"
      ],
      [
        " జరి",
        "గి"
      ],
      [
        "స",
        "ాయ"
      ],
      [
        " ప్ర",
        "ముఖ"
      ],
      [
        "జా",
        "తీయ"
      ],
      [
        "గా",
        "యి"
      ],
      [
        " ఎ",
        "న్న"
      ],
      [
        " కళ",
        "్యా"
      ],
      [
        "ించ",
        "ారని"
      ],
      [
        " ఆ",
        "ట"
      ],
      [
        "స్త",
        "్ర"
      ],
      [
        " మొద",
        "లు"
      ],
      [
        " పద",
        "వి"
      ],
      [
        " వాతా",
        "వరణ"
      ],
      [
        " ",
        "ب"
      ],
      [
        " ఎ",
        "త్తు"
      ],
      [
        "్య",
        "ంగా"
      ],
      [
        "డ",
        "వ"
      ],
      [
        " పం",
        "పి"
      ],
      [
        "ళ్",
        "లను"
      ],
      [
        "ించ",
        "ాలి"
      ],
      [
        " విధ",
        "ంగా"
      ],
      [
        " న",
        "ట"
      ],
      [
        " నెల",
        "కొ"
      ],
      [
        " ",
        "లాంటి"
      ],
      [
        "బ",
        "ట్టి"
      ],
      [
        "న",
        "ంద"
      ],
      [
        " జ",
        "ి"
      ],
      [
        "ం",
        "స"
      ],
      [
        "జ",
        "ె"
      ],
      [
        " ఎదు",
        "ర్కొ"
      ],
      [
        "ధ",
        "్యా"
      ],
      [
        " వి",
        "వ"
      ],
      [
        "వాల్",
        "సి"
      ],
      [
        " నివే",
        "దిక"
      ],
      [
        " కర్",
        "ణాటక"
      ],
      [
        "ం",
        "బా"
      ],
      [
        "ద్ద",
        "ీ"
      ],
      [
        " మ",
        "ంత్ర"
      ],
      [
        " ఆ",
        "ప"
      ],
      [
        " ని",
        "లి"
      ],
      [
        " చేస్త",
        "ామని"
      ],
      [
        " చి",
        "వరి"
      ],
      [
        "ధ",
        "వారం"
      ],
      [
        "స్తున్న",
        "ారని"
      ],
      [
        " ఓ",
        "టు"
      ],
      [
        " రై",
        "తులు"
      ],
      [
        "ಲ್",
        "ಲ"
      ],
      [
        " స",
        "ంతో"
      ],
      [
        "బ",
        "ిత"
      ],
      [
        " ప",
        "ర్"
      ],
      [
        " సమస్య",
        "లు"
      ],
      [
        "శ",
        "ాల"
      ],
      [
        " చే",
        "రు"
      ],
      [
        "వు",
        "ల"
      ],
      [
        " లే",
        "ని"
      ],
      [
        " ఎమ్మెల్",
        "సీ"
      ],
      [
        " కావ",
        "డంతో"
      ],
      [
        "ట్",
        "లను"
      ],
      [
        "డ్జ",
        "ెట్"
      ],
      [
        " ప",
        "ంట"
      ],
      [
        " గె",
        "లు"
      ],
      [
        "కే",
        "ంద్ర"
      ],
      [
        " బా",
        "ధి"
      ],
      [
        " కా",
        "పా"
      ],
      [
        " ప్రాంత",
        "ంలో"
      ],
      [
        "ನ",
        "್"
      ],
      [
        " అ",
        "యితే"
      ],
      [
        "ఖా",
        "స్తు"
      ],
      [
        " ప్రభా",
        "వం"
      ],
      [
        " పర్య",
        "టన"
      ],
      [
        "దు",
        "లు"
      ],
      [
        " చేసిన",
        "ట్లు"
      ],
      [
        " ప్రకట",
        "ించింది"
      ],
      [
        "ప్రి",
        "ల్"
      ],
      [
        " త",
        "ాము"
      ],
      [
        " ని",
        "మి"
      ],
      [
        " ک",
        "ے"
      ],
      [
        " ప్రయా",
        "ణి"
      ],
      [
        " దా",
        "ఖ"
      ],
      [
        " అర",
        "ెస్టు"
      ],
      [
        "రి",
        "య"
      ],
      [
        " వి",
        "క్ర"
      ],
      [
        "వా",
        "స"
      ],
      [
        "గ్ర",
        "త్త"
      ],
      [
        " వ",
        "య"
      ],
      [
        "లి",
        "ం"
      ],
      [
        "బీ",
        "ఆర్ఎస్"
      ],
      [
        "స్ట్ర",
        "ే"
      ],
      [
        " ",
        "و"
      ],
      [
        "2",
        "7"
      ],
      [
        " అ",
        "డ్డు"
      ],
      [
        " క",
        "ృష్ణ"
      ],
      [
        " మా",
        "న"
      ],
      [
        " బిల్",
        "లు"
      ],
      [
        " నిర",
        "సన"
      ],
      [
        "ఠ",
        "ా"
      ],
      [
        " మంది",
        "కి"
      ],
      [
        " ఇ",
        "లాంటి"
      ],
      [
        " తీసు",
        "కో"
      ],
      [
        "వ",
        "ంటి"
      ],
      [
        " రోజు",
        "లు"
      ],
      [
        " బంగ",
        "ారం"
      ],
      [
        "వ",
        "ాల"
      ],
      [
        " స్థాయి",
        "లో"
      ],
      [
        "ర",
        "స్"
      ],
      [
        " ఇవ్వ",
        "ాలని"
      ],
      [
        "గ",
        "తి"
      ],
      [
        " క",
        "ప్"
      ],
      [
        " ట",
        "ె"
      ],
      [
        "ై",
        "ల్"
      ],
      [
        "క్",
        "ట్"
      ],
      [
        " గ",
        "ే"
      ],
      [
        " అత్య",
        "ంత"
      ],
      [
        "2",
        "6"
      ],
      [
        "సీ",
        "ఎం"
      ],
      [
        " ఆ",
        "గ"
      ],
      [
        " రై",
        "లు"
      ],
      [
        " ఖ",
        "ర్చు"
      ],
      [
        "ం",
        "పై"
      ],
      [
        " ర",
        "ాయ"
      ],
      [
        "ిక",
        "ా"
      ],
      [
        "నా",
        "నికి"
      ],
      [
        " ప్లా",
        "న్"
      ],
      [
        " అ",
        "క్రమ"
      ],
      [
        " ద",
        "శ"
      ],
      [
        "సి",
        "డ"
      ],
      [
        " భారీ",
        "గా"
      ],
      [
        "ప",
        "ర"
      ],
      [
        "ర",
        "ెండు"
      ],
      [
        " కా",
        "మెంట్"
      ],
      [
        "వారి",
        "కి"
      ],
      [
        " అ",
        "ంటున్నారు"
      ],
      [
        "ము",
        "ందు"
      ],
      [
        " మండి",
        "పడ్డారు"
      ],
      [
        " భా",
        "వ"
      ],
      [
        " సమీ",
        "ప"
      ],
      [
        "క్టో",
        "బర్"
      ],
      [
        " పిటి",
        "షన్"
      ],
      [
        "డు",
        "క"
      ],
      [
        "దేశ",
        "ంలో"
      ],
      [
        "స",
        "ెంబర్"
      ],
      [
        " అ",
        "ంగ"
      ],
      [
        "ెన్",
        "సీ"
      ],
      [
        "ిత",
        "ంగా"
      ],
      [
        " చి",
        "కిత్స"
      ],
      [
        "ర్",
        "ల"
      ],
      [
        " ఆ",
        "సుప"
      ],
      [
        " డ్ర",
        "ై"
      ],
      [
        "అ",
        "స"
      ],
      [
        "లి",
        "క"
      ],
      [
        " ము",
        "గ్గు"
      ],
      [
        "ంప",
        "ిక"
      ],
      [
        " కళ్యా",
        "ణ్"
      ],
      [
        " క",
        "విత"
      ],
      [
        " ద",
        "ెబ్బ"
      ],
      [
        "స్తున్న",
        "ట్లు"
      ],
      [
        " ఆ",
        "రు"
      ],
      [
        " బ",
        "ంధ"
      ],
      [
        " హ",
        "క్కు"
      ],
      [
        "ప్ర",
        "జ"
      ],
      [
        "ండ్",
        "లు"
      ],
      [
        "న్",
        "లు"
      ],
      [
        " ట",
        "్యా"
      ],
      [
        " వర",
        "ద"
      ],
      [
        " అ",
        "లా"
      ],
      [
        "మ్మ",
        "డి"
      ],
      [
        "కోవ",
        "ాలని"
      ],
      [
        " భూ",
        "ము"
      ],
      [
        "ర",
        "ఖాస్తు"
      ],
      [
        "ొ",
        "క"
      ],
      [
        " ప",
        "ట్టు"
      ],
      [
        " జిల్లా",
        "ల్లో"
      ],
      [
        "వ",
        "ల్ల"
      ],
      [
        " చేయ",
        "ాలి"
      ],
      [
        " క్",
        "ష"
      ],
      [
        "బ",
        "డు"
      ],
      [
        " మ",
        "ెంట్"
      ],
      [
        " బ",
        "్ర"
      ],
      [
        "యో",
        "గం"
      ],
      [
        " నరే",
        "ంద్ర"
      ],
      [
        " ",
        "ن"
      ],
      [
        "గా",
        "ల్లో"
      ],
      [
        "టి",
        "వ్"
      ],
      [
        " ",
        "ಮ"
      ],
      [
        "ఇ",
        "దే"
      ],
      [
        "టి",
        "ఫ"
      ],
      [
        " తె",
        "చ్చ"
      ],
      [
        " పార్టీ",
        "లో"
      ],
      [
        "ప్ట",
        "ెంబర్"
      ],
      [
        "మి",
        "త్"
      ],
      [
        " భక్",
        "తులు"
      ],
      [
        "గ",
        "ారు"
      ],
      [
        "ౌ",
        "న్"
      ],
      [
        "నా",
        "మా"
      ],
      [
        "య్య",
        "ాయి"
      ],
      [
        " బా",
        "బు"
      ],
      [
        "భార",
        "త్"
      ],
      [
        " ఉన్న",
        "ట్లు"
      ],
      [
        " విమర్శ",
        "లు"
      ],
      [
        "ఫ",
        "ా"
      ],
      [
        "య",
        "ిన"
      ],
      [
        "ంగ",
        "ి"
      ],
      [
        "ంగ్",
        "స్"
      ],
      [
        "ు",
        "త్"
      ],
      [
        " స",
        "ార్"
      ],
      [
        " ک",
        "ی"
      ],
      [
        "న్న",
        "ాడు"
      ],
      [
        " వి",
        "ద్యా"
      ],
      [
        " విని",
        "యోగ"
      ],
      [
        "ళ",
        "ీ"
      ],
      [
        " బీ",
        "బీసీ"
      ],
      [
        "పార్",
        "టీ"
      ],
      [
        " ఇ",
        "ంట్లో"
      ],
      [
        " ప్రతి",
        "పక్ష"
      ],
      [
        "ార",
        "న్నారు"
      ],
      [
        " విష",
        "యాన్ని"
      ],
      [
        " వెళ్",
        "లే"
      ],
      [
        " ఇబ్బందు",
        "లు"
      ],
      [
        "ె",
        "డ"
      ],
      [
        " م",
        "یں"
      ],
      [
        "ల",
        "న"
      ],
      [
        "‌",
        "న"
      ],
      [
        "‌",
        "మెంట్"
      ],
      [
        " అ",
        "డ్"
      ],
      [
        "య",
        "్యా"
      ],
      [
        "లి",
        "యన్"
      ],
      [
        " శ",
        "రీ"
      ],
      [
        " జా",
        "గ్రత్త"
      ],
      [
        " అ",
        "యి"
      ],
      [
        " గె",
        "లిచ"
      ],
      [
        " తీర్",
        "పు"
      ],
      [
        " ఎ",
        "ంపిక"
      ],
      [
        " సి",
        "రీస్"
      ],
      [
        " నో",
        "టీ"
      ],
      [
        " గత",
        "ంలో"
      ],
      [
        "రి",
        "త్ర"
      ],
      [
        " ఒ",
        "కే"
      ],
      [
        " తా",
        "జాగా"
      ],
      [
        " బ",
        "హి"
      ],
      [
        " పా",
        "ఠ"
      ],
      [
        " సాయ",
        "ంత్రం"
      ],
      [
        " ప్రై",
        "వే"
      ],
      [
        "ార",
        "నే"
      ],
      [
        " వా",
        "టిని"
      ],
      [
        "య",
        "న్స్"
      ],
      [
        " రిక",
        "ార్డు"
      ],
      [
        "ంబ",
        "ై"
      ],
      [
        " అవకాశ",
        "ాలు"
      ],
      [
        " ఎదు",
        "రు"
      ],
      [
        " ఉ",
        "పా"
      ],
      [
        "య",
        "ంగా"
      ],
      [
        "హ",
        "త్య"
      ],
      [
        " సమావేశ",
        "ం"
      ],
      [
        "కపోవ",
        "డం"
      ],
      [
        "ప్ర",
        "ద"
      ],
      [
        " బె",
        "యిల్"
      ],
      [
        " చేస",
        "ారు"
      ],
      [
        "సి",
        "ంగ్"
      ],
      [
        " సై",
        "తం"
      ],
      [
        "రి",
        "లో"
      ],
      [
        " వచ్చ",
        "ాయి"
      ],
      [
        " అధిక",
        "ారి"
      ],
      [
        " సూ",
        "పర్"
      ],
      [
        " పలు",
        "వు"
      ],
      [
        "ంచ",
        "ే"
      ],
      [
        " ష",
        "ర్మి"
      ],
      [
        " పూర్తి",
        "గా"
      ],
      [
        "వ",
        "ంబర్"
      ],
      [
        "అ",
        "ధిక"
      ],
      [
        " వే",
        "డుక"
      ],
      [
        " కు",
        "రి"
      ],
      [
        " ఉండ",
        "గా"
      ],
      [
        " జీ",
        "విత"
      ],
      [
        " ",
        "ల్యా"
      ],
      [
        " చే",
        "స్తు"
      ],
      [
        " న",
        "ష్ట"
      ],
      [
        " న",
        "టి"
      ],
      [
        " ల",
        "భ"
      ],
      [
        "ండ",
        "ె"
      ],
      [
        "భార",
        "త"
      ],
      [
        " స్వా",
        "మి"
      ],
      [
        " సె",
        "ంటర్"
      ],
      [
        " రూప",
        "ొ"
      ],
      [
        "ించు",
        "కో"
      ],
      [
        "వ",
        "ార"
      ],
      [
        "పో",
        "యా"
      ],
      [
        "క",
        "ంటే"
      ],
      [
        " ము",
        "న్సిప"
      ],
      [
        " జీ",
        "వి"
      ],
      [
        "ఫ",
        "ు"
      ],
      [
        "ర",
        "ించారు"
      ],
      [
        " వే",
        "గ"
      ],
      [
        "ర",
        "ణ్"
      ],
      [
        "డు",
        "తున్న"
      ],
      [
        " సి",
        "టీ"
      ],
      [
        " చేసుకు",
        "న్నారు"
      ],
      [
        " వ",
        "ంద"
      ],
      [
        " కో",
        "రు"
      ],
      [
        "ధ్యా",
        "హ్"
      ],
      [
        "ఫ",
        "ర్"
      ],
      [
        " ధర",
        "లు"
      ],
      [
        " గ్రా",
        "మా"
      ],
      [
        " క",
        "ంట"
      ],
      [
        " సమ",
        "ర్"
      ],
      [
        " బ",
        "్రి"
      ],
      [
        "డ్",
        "స్"
      ],
      [
        " న",
        "ామ"
      ],
      [
        "తా",
        "ను"
      ],
      [
        "కోవ",
        "డానికి"
      ],
      [
        " కార్",
        "మి"
      ],
      [
        " స్థా",
        "నిక"
      ],
      [
        " ఇంటి",
        "కి"
      ],
      [
        " అ",
        "దుపు"
      ],
      [
        " ఎ",
        "యిర్"
      ],
      [
        " మహిళ",
        "ా"
      ],
      [
        "6",
        "0"
      ],
      [
        "ఇ",
        "లా"
      ],
      [
        "ర",
        "వ"
      ],
      [
        " ల",
        "ైన్"
      ],
      [
        " బె",
        "ంగళూరు"
      ],
      [
        " స్థాన",
        "ంలో"
      ],
      [
        " ",
        "ت"
      ],
      [
        " ఆ",
        "క"
      ],
      [
        " ",
        "ಸ"
      ],
      [
        "అ",
        "ందులో"
      ],
      [
        "ది",
        "రి"
      ],
      [
        " ట్",
        "వీ"
      ],
      [
        "హ",
        "ీ"
      ],
      [
        "నా",
        "థ్"
      ],
      [
        " ప్ర",
        "యోజ"
      ],
      [
        " ట",
        "ెక్"
      ],
      [
        "పె",
        "ద్ద"
      ],
      [
        " గ",
        "వర్"
      ],
      [
        " కార్య",
        "దర్శి"
      ],
      [
        "క",
        "ల"
      ],
      [
        "ంటు",
        "ంది"
      ],
      [
        "ించ",
        "నున్నారు"
      ],
      [
        "తి",
        "కి"
      ],
      [
        " జా",
        "బిత"
      ],
      [
        "టు",
        "వంటి"
      ],
      [
        " ప",
        "ౌ"
      ],
      [
        " కల్యా",
        "ణ్"
      ],
      [
        " ",
        "د"
      ],
      [
        " ",
        "ج"
      ],
      [
        " ",
        ".\n"
      ],
      [
        " చెప్ప",
        "ిన"
      ],
      [
        "రాష్ట్ర",
        "ంలో"
      ],
      [
        " ప",
        "ది"
      ],
      [
        "రే",
        "ట్"
      ],
      [
        " అభిప్ర",
        "ాయ"
      ],
      [
        " ప్ర",
        "ేమ"
      ],
      [
        "ష్",
        "ణ"
      ],
      [
        " తీసు",
        "కొచ్చ"
      ],
      [
        " తెలు",
        "సు"
      ],
      [
        " బీ",
        "సీ"
      ],
      [
        "ఖ",
        "ీ"
      ],
      [
        "కు",
        "మార్"
      ],
      [
        " ఆరో",
        "గ"
      ],
      [
        " డబ్బు",
        "లు"
      ],
      [
        " బ",
        "ృ"
      ],
      [
        " తీసుకు",
        "న్నారు"
      ],
      [
        "శ",
        "్ర"
      ],
      [
        "i",
        "n"
      ],
      [
        "ఫ",
        "ె"
      ],
      [
        "బ",
        "ూ"
      ],
      [
        " ద",
        "క్షి"
      ],
      [
        " పొ",
        "ంద"
      ],
      [
        "ణ",
        "ంగా"
      ],
      [
        " క్",
        "ల"
      ],
      [
        "ంద",
        "నే"
      ],
      [
        "a",
        "l"
      ],
      [
        " ద",
        "రఖాస్తు"
      ],
      [
        "ల",
        "క్"
      ],
      [
        "2",
        "9"
      ],
      [
        " చ",
        "ొ"
      ],
      [
        " ఇ",
        "బ్బంది"
      ],
      [
        " ప్రా",
        "ధా"
      ],
      [
        " బ",
        "డ్జెట్"
      ],
      [
        " మీ",
        "రు"
      ],
      [
        "ే",
        "స్"
      ],
      [
        "న్",
        "యం"
      ],
      [
        "ట్",
        "లో"
      ],
      [
        "పా",
        "ద"
      ],
      [
        " ఇచ్చ",
        "ింది"
      ],
      [
        " సుప్రీం",
        "కోర్టు"
      ],
      [
        "ತ",
        "್"
      ],
      [
        "ర్",
        "యంలో"
      ],
      [
        "మ",
        "హ"
      ],
      [
        "కు",
        "న్నారు"
      ],
      [
        "రా",
        "నికి"
      ],
      [
        " సి",
        "ద్ద"
      ],
      [
        "ష",
        "ం"
      ],
      [
        " క",
        "మ"
      ],
      [
        " క",
        "ృ"
      ],
      [
        "రా",
        "మ"
      ],
      [
        " స్ప",
        "ష్ట"
      ],
      [
        " పార్టీ",
        "ల"
      ],
      [
        " చేస్త",
        "ారు"
      ],
      [
        " పార్ల",
        "మెంట్"
      ],
      [
        "ఫి",
        "క్"
      ],
      [
        "్యా",
        "న్ని"
      ],
      [
        " తమ",
        "కు"
      ],
      [
        " ఆ",
        "డ"
      ],
      [
        "ంప",
        "ల్లి"
      ],
      [
        " ప్రే",
        "క్ష"
      ],
      [
        " క",
        "ర"
      ],
      [
        " చ",
        "రిత్ర"
      ],
      [
        " ఇ",
        "జ్రాయెల్"
      ],
      [
        "యా",
        "ల్లో"
      ],
      [
        "మ్మ",
        "ం"
      ],
      [
        "ష",
        "నర్"
      ],
      [
        " వి",
        "దేశ"
      ],
      [
        "ెట్",
        "టి"
      ],
      [
        " న",
        "డి"
      ],
      [
        " జూ",
        "న్"
      ],
      [
        " త",
        "ండ్రి"
      ],
      [
        " శ",
        "క్తి"
      ],
      [
        "అ",
        "ది"
      ],
      [
        "క",
        "్యూ"
      ],
      [
        "ಿ",
        "ದ"
      ],
      [
        "ారు",
        "లు"
      ],
      [
        " ప్ర",
        "చార"
      ],
      [
        "కే",
        "ష్"
      ],
      [
        "తెలంగాణ",
        "లో"
      ],
      [
        "5",
        "00"
      ],
      [
        "ద",
        "్రా"
      ],
      [
        "స",
        "రి"
      ],
      [
        " ఇ",
        "క్కడ"
      ],
      [
        " తీ",
        "రు"
      ],
      [
        "ద్ద",
        "ని"
      ],
      [
        "ద్య",
        "ం"
      ],
      [
        " కని",
        "ప"
      ],
      [
        "వి",
        "ష్య"
      ],
      [
        " ప",
        "త్ర"
      ],
      [
        " వ",
        "ాయి"
      ],
      [
        " కాలే",
        "జీ"
      ],
      [
        "క",
        "రి"
      ],
      [
        "వ",
        "ల్"
      ],
      [
        "దు",
        "వు"
      ],
      [
        "ద్ద",
        "ేశ"
      ],
      [
        "కా",
        "ం"
      ],
      [
        " చే",
        "ర"
      ],
      [
        "టి",
        "ల్"
      ],
      [
        "ప్ట",
        "ెన్"
      ],
      [
        " లె",
        "క్క"
      ],
      [
        " భర్",
        "త"
      ],
      [
        " వరు",
        "స"
      ],
      [
        " ",
        "R"
      ],
      [
        "ఖ",
        "్యా"
      ],
      [
        "రి",
        "ంగ్"
      ],
      [
        "్వ",
        "ర్యంలో"
      ],
      [
        " ",
        "ವ"
      ],
      [
        " ఇ",
        "ండి"
      ],
      [
        " పార్టీ",
        "లు"
      ],
      [
        "హి",
        "త్"
      ],
      [
        " వ్యా",
        "ప్తంగా"
      ],
      [
        " యా",
        "త్ర"
      ],
      [
        " హ",
        "ు"
      ],
      [
        " ఇచ్చ",
        "ి"
      ],
      [
        " ప",
        "్యా"
      ],
      [
        "ిన",
        "ేషన్"
      ],
      [
        "కు",
        "లను"
      ],
      [
        " ఇ",
        "టీవల"
      ],
      [
        "ఖ",
        "ర్"
      ],
      [
        "ట",
        "న్"
      ],
      [
        " వ",
        "స్తుంది"
      ],
      [
        " హ",
        "రీ"
      ],
      [
        " మార్",
        "చ"
      ],
      [
        "ట",
        "ెడ్"
      ],
      [
        " భార",
        "తీయ"
      ],
      [
        " పలువు",
        "రు"
      ],
      [
        " వ",
        "ది"
      ],
      [
        " ఆ",
        "న్"
      ],
      [
        " గుర్",
        "తి"
      ],
      [
        " క్యా",
        "ప్షన్"
      ],
      [
        " సీ",
        "ట్లు"
      ],
      [
        "ఫ్",
        "ట్"
      ],
      [
        " మార్",
        "చి"
      ],
      [
        " కార్",
        "పొ"
      ],
      [
        "స్ట్రే",
        "లియా"
      ],
      [
        "త",
        "ొ"
      ],
      [
        "و",
        "ر"
      ],
      [
        "గ",
        "్రీ"
      ],
      [
        "సా",
        "ద్"
      ],
      [
        " ప్రయత్",
        "నం"
      ],
      [
        " కో",
        "ట్"
      ],
      [
        " రాజీ",
        "నామా"
      ],
      [
        " కలి",
        "గి"
      ],
      [
        "ంద",
        "ం"
      ],
[...]
