{"\n":0," ":1,"!":2,"\"":3,"#":4,"$":5,"%":6,"&":7,"'":8,"(":9,")":10,"*":11,"+":12,",":13,"-":14,".":15,"/":16,"0":17,"1":18,"2":19,"3":20,"4":21,"5":22,"6":23,"7":24,"8":25,"9":26,":":27,";":28,"<":29,"=":30,">":31,"?":32,"@":33,"A":34,"B":35,"C":36,"D":37,"E":38,"F":39,"G":40,"H":41,"I":42,"J":43,"K":44,"L":45,"M":46,"N":47,"O":48,"P":49,"Q":50,"R":51,"S":52,"T":53,"U":54,"V":55,"W":56,"X":57,"Y":58,"Z":59,"[":60,"\\":61,"]":62,"^":63,"_":64,"`":65,"a":66,"b":67,"c":68,"d":69,"e":70,"f":71,"g":72,"h":73,"i":74,"j":75,"k":76,"l":77,"m":78,"n":79,"o":80,"p":81,"q":82,"r":83,"s":84,"t":85,"u":86,"v":87,"w":88,"x":89,"y":90,"z":91,"{":92,"}":93,"":94,"¡":95,"£":96,"¤":97,"§":98,"¨":99,"©":100,"­":101,"®":102,"°":103,"±":104,"²":105,"³":106,"µ":107,"·":108,"¸":109,"¹":110,"º":111,"¼":112,"½":113,"¿":114,"À":115,"Á":116,"Ä":117,"Å":118,"Ç":119,"È":120,"É":121,"Í":122,"Î":123,"Ð":124,"Ò":125,"Ó":126,"Ô":127,"Ö":128,"×":129,"Ø":130,"Ú":131,"Ü":132,"ß":133,"à":134,"á":135,"â":136,"ã":137,"ä":138,"å":139,"ç":140,"è":141,"é":142,"ê":143,"ë":144,"ì":145,"í":146,"î":147,"ï":148,"ð":149,"ñ":150,"ò":151,"ó":152,"ô":153,"õ":154,"ö":155,"ø":156,"ù":157,"ú":158,"û":159,"ü":160,"ý":161,"ā":162,"ă":163,"ą":164,"Ć":165,"ć":166,"ĉ":167,"Č":168,"č":169,"Ď":170,"Đ":171,"đ":172,"ē":173,"ė":174,"ę":175,"ě":176,"ğ":177,"İ":178,"ı":179,"ľ":180,"Ł":181,"ł":182,"ń":183,"ň":184,"ō":185,"ő":186,"ř":187,"Ś":188,"ś":189,"Ş":190,"ş":191,"Š":192,"š":193,"ţ":194,"ū":195,"ů":196,"ź":197,"ż":198,"Ž":199,"ž":200,"Ƙ":201,"ȃ":202,"ȉ":203,"ȑ":204,"ȗ":205,"ș":206,"ț":207,"ə":208,"˚":209,"˝":210,"́":211,"̌":212,"̣":213,"Ω":214,"έ":215,"ή":216,"α":217,"δ":218,"μ":219,"ο":220,"π":221,"ρ":222,"ς":223,"τ":224,"υ":225,"χ":226,"ω":227,"ό":228,"К":229,"а":230,"е":231,"л":232,"н":233,"о":234,"ь":235,"і":236,"ј":237,"Ґ":238,"ӣ":239,"ӧ":240,"ི":241,"ྀ":242,"ᵉ":243,"ᵒ":244,"ᵛ":245,"ᵤ":246,"ᵧ":247,"ᶫ":248,"ṓ":249,"ṣ":250,"ọ":251,"ố":252,"ἀ":253,"‍":254,"‎":255,"‐":256,"‑":257,"‒":258,"―":259,"‖":260,"‟":261,"•":262,"‰":263,"′":264,"″":265,"‼":266,"⁄":267,"⁠":268,"⁰":269,"₂":270,"ₒ":271,"€":272,"™":273,"↑":274,"⇒":275,"−":276,"∶":277,"⏱":278,"■":279,"▪":280,"▶":281,"►":282,"○":283,"●":284,"☀":285,"☃":286,"☑":287,"☘":288,"☺":289,"♀":290,"♡":291,"♥":292,"♦":293,"♬":294,"⚠":295,"⚤":296,"⚫":297,"⚽":298,"✓":299,"✔":300,"✠":301,"✨":302,"❄":303,"❤":304,"シ":305,"传":306,"多":307,"陈":308,"":309,"":310,"ﬁ":311,"️":312,"🇦":313,"🇧":314,"🇫":315,"🇬":316,"🇭":317,"🇮":318,"🇱":319,"🇵":320,"🇷":321,"🇸":322,"🇺":323,"🇾":324,"🌋":325,"🌐":326,"🌠":327,"🌧":328,"🌨":329,"🌸":330,"🌺":331,"🌻":332,"🍉":333,"🍊":334,"🎀":335,"🎁":336,"🎗":337,"🏡":338,"🏻":339,"🐄":340,"🐥":341,"🐦":342,"🐱":343,"🐶":344,"👀":345,"👁":346,"👇":347,"👣":348,"👶":349,"💅":350,"💋":351,"💎":352,"💕":353,"💘":354,"💙":355,"💚":356,"💟":357,"💪":358,"💯":359,"📌":360,"📢":361,"📱":362,"📸":363,"🔄":364,"🔥":365,"🔹":366,"🕓":367,"🕷":368,"🕸":369,"🖥":370,"😀":371,"😁":372,"😂":373,"😅":374,"😉":375,"😊":376,"😍":377,"😎":378,"😏":379,"😬":380,"😭":381,"🙂":382,"🙌":383,"🙏":384,"🛁":385,"🟡":386,"🟨":387,"🤍":388,"🤔":389,"🤢":390,"🤦":391,"🤩":392,"🤪":393,"🤯":394,"🥚":395,"🥥":396,"🥰":397,"🥲":398,"🥹":399,"🥺":400,"🦟":401,"🩹":402,"🩺":403,"🪐":404,"🫒":405,"🫠":406,"🫶":407,"a ":408,"e ":409,"i ":410,"o ":411,"u ":412,"je":413,"je ":414,"ra":415,", ":416,"st":417,".\n":418,"ko":419,"ni":420,"na":421,"re":422,"po":423,"ro":424,"m ":425,"ri":426,"an":427,"od":428,"na ":429,"li":430,"no":431,"vi":432,"va":433,"ka":434,"ti":435,"te":436,"la":437,"vo":438,"da ":439,"ja":440,"ca":441,"ne":442,"ta":443,"ma":444,"bi":445,"ci":446,"ti ":447,"sk":448,"li ":449,"za":450,"en":451,"do":452,"se ":453,"ja ":454,"di":455,"ne ":456,"la ":457,"mo":458,"ve":459,"ko ":460,"g ":461,"lj":462,"ma ":463,"h ":464,"iz":465,"sa":466,"lo":467,"ru":468,"mi":469,"pro":470,"no ":471,"su ":472,"to":473,"pre":474,"ju ":475,"da":476,"sta":477,"s ":478,"za ":479,"to ":480,"go":481,"pri":482,"j ":483,"k ":484,"ron":485,"in":486,"le":487,"caron":488,"me":489,"caron;":490,"bo":491,"jed":492,"ji ":493,"pa":494,"te ":495,"ji":496,"r ":497,"si":498,"mo ":499,"va ":500,"ka ":501,"ni ":502,"t ":503,"su":504,"gra":505,"sti":506,"d ":507,"lu":508,"od ":509,"se":510,"zi":511,"n ":512,"o je ":513,"odi":514,"će ":515,"ve ":516,"pi":517,"pu":518,"če":519,"ku":520,"ra ":521,"ba":522,"sko":523,", a ":524,"či":525,"cu":526,"lje":527,"ju":528,"de":529,"ob":530,"tu":531,"&c":532,"nu":533,"&ccaron;":534,"an ":535,"ga":536,"ta ":537,"godi":538,"što ":539,"lo ":540,"mje":541,". ":542,"vr":543,"vje":544,"koji ":545,"ži":546,"nje":547,"ga ":548,"van":549,"cute":550,"ca ":551,"cacute":552,"&cacute":553,"ke ":554,"jo":555,"sto":556,"\",":557,"du":558,"tre":559,"pra":560,"pe":561,"&cacute;":562,"ć ":563,"ki":564,"- ":565,"ča":566,"vi ":567,"rva":568,"nih ":569,"dru":570,"lju":571,"nu ":572,"vo ":573,"svo":574,"nije ":575,"gu":576,"zna":577,"raz":578,"or":579,"nom ":580,"ku ":581,"ce":582,"dje":583,"ci ":584,"z ":585,"nog ":586,"le ":587,"&z":588,"kako ":589,"&zcaron;":590,"ći ":591,"bi ":592,"os":593,"tra":594,"tsk":595,"v ":596,"iz ":597,"ža":598,"ri ":599,": ":600,"nost":601,"20":602,"ih ":603,"kao ":604,"še ":605,"Ma":606,"že":607,"nim ":608,"da je ":609,"be":610,"ša":611,"nji":612,"fi":613,"me ":614,"naj":615,"pos":616," =":617," =>":618,"stra":619,"ce ":620,"do ":621,", a":622,"š ":623,"sam ":624,"rije":625,"vije":626,"men":627,"gi":628,"pr":629,"lja":630,"gla":631,"ši":632,"kra":633,"lji":634,"tu ":635,"će":636,"ze":637,"pred":638,"Na":639,"ki ":640,"U ":641,"sa ":642,"kon ":643,"ho":644,"stu":645,"spo":646,"kom ":647,"dr":648,"bu":649,"ima":650,"govo":651,"Za":652,"Hrva":653,", ali ":654,"di ":655,"ske ":656,"smo ":657,"vod":658,"ski ":659,"še":660,"la je ":661,"Ka":662,"že ":663,"Po":664,"so":665,"vu ":666,"mu ":667,"anje ":668,"nje ":669,"l ":670,"biti ":671,"cije":672,"zo":673,"pla":674,"ke":675,"pa ":676,"ano":677,"koje ":678,"jedni":679,"tak":680," [":681,"de ":682,"ana ":683,"ot":684,"stav":685,"bro":686,"mu":687,"Mi":688,"kon":689,"više ":690,"nja":691,"ća ":692,"koja ":693,"im ":694,"m, ":695,"ili ":696,"oda":697,"ar":698,"nja ":699,"cija ":700,"sni":701,"skog ":702,"sre":703,"sve ":704,"on":705,"da se ":706,"bio ":707,"nakon ":708,"ge":709,"kri":710,"tvr":711,"ća":712,"i po":713,"\" ":714,"gle":715,"st ":716,"c ":717,"00":718,"slu":719,"eu":720,"re ":721,"\"\",":722,"lje ":723,"ma.\n":724,"ru ":725,"sti ":726,"\":":727,"al":728,"gu ":729,"telj":730,"lja ":731,"ma, ":732,"dra":733,"kre":734,"\":\"":735,"cije ":736,"is":737,"tro":738,"tje":739,"tiv":740,"ven":741,"cija":742,"sto ":743,"jem ":744,"je po":745,"noj ":746,"vla":747,"er":748,"ču":749,"jer ":750,"lu ":751,"i o":752,"sli":753,", po":754,"igra":755,"mi ":756,"man":757,"zbo":758,"tni":759,"zu":760,"ska ":761,"je u ":762,"gre":763,"koli":764,"m.\n":765,"pje":766,"du ":767,"stro":768,"po ":769," po":770,"obi":771,"je.\n":772,"fe":773,"sla":774,"op":775,"još ":776,"stva":777,"ge ":778,"joj ":779,"li su ":780,"veli":781,"cu ":782,"sje":783,"Hrvatsk":784,"št":785,"samo ":786,"ran":787,"nosti ":788,"..":789,"ba ":790,"go ":791,"nost ":792,"đen":793,"lije":794,"Ne":795,"na, ":796,"au":797,"skom ":798,"đe":799,"drža":800,"vre":801,"ći":802,"vom ":803,"bli":804,"zbog ":805,"dio ":806,"na.\n":807,"jav":808,"anja ":809,"sjedni":810,"godine ":811,"osta":812,"je, ":813,"27":814,"ona":815,"ako ":816,"bra":817,"poli":818,"javi":819,"šte":820,"tno ":821,"pli":822,"kovi":823,"us":824,"ste ":825,"202":826,") ":827,"čin":828,"hi":829,"svi":830,"tom ":831,"?\n":832,"što je ":833,"19":834,"mije":835,"hva":836,"međ":837,"br":838,"sku":839,"nos":840,"Bi":841,"ak":842,"tr":843,"sigu":844,"Ra":845,"nik ":846,"nas ":847,"jedi":848,"laz":849,"u ko":850,"klju":851,"vra":852,"ha":853,"kaza":854,"10":855,"u po":856,"sva":857,"sta ":858,"ima ":859,"kad ":860,"skoj ":861,"bila ":862,"k;":863,"dje ":864,"strok;":865,"hrva":866,"takmi":867,"Re":868,"Sa":869,"dstrok;":870,"&cacute;e ":871,"&dstrok;":872,", u":873,"ti.\n":874,"Ni":875,"koji je ":876,"i u ":877,"nici ":878,"skih ":879,"koliko ":880,"Da":881,"i u":882,"živo":883,"vu":884,"tije":885,"Mo":886,"ško":887,"doda":888,"đa":889,"bilo ":890,"jp":891,".jp":892,"predsjedni":893,"vanje ":894,"rek":895,"dok ":896,"već ":897,"ije":898,"svoji":899,"stup":900,"utakmi":901,"Eu":902,"njego":903,"en ":904,"he":905,"tko ":906,"na po":907,"lan":908,"novi":909,"Do":910,".jpg":911,"nika ":912,"No":913,"ne.\n":914,"40":915,"ne, ":916,"par":917,"&ccaron;e":918,"Ko":919,"rop":920,"izbo":921,"godiš":922,"Me":923,"ću ":924,"Pre":925,"Di":926,"da su ":927,"Na ":928,"prema ":929,"može ":930,"žu":931,"dije":932,"rad":933,"tič":934,"ra.\n":935,"for":936,"č ":937,"reka":938,"slo":939,"vno ":940,"prije ":941,"jedan ":942,"šti":943,"radi":944,"ka, ":945,"ciju ":946,"tako ":947,"inte":948,"stavi":949,"naš":950,"vanja ":951,"ka.\n":952,"či ":953,"nju ":954,"stru":955,"odlu":956,"vog ":957,"y ":958,"vati ":959,"put ":960,"fina":961,"tiv ":962,"nji ":963,", o":964,"ljed":965,"tak ":966,"Ve":967,"mogu":968,"treba":969,"gleda":970,"gdje ":971,"&ccaron;i":972,"kori":973,"12":974,"t će ":975,"met":976,"\".\n":977,"Pe":978,"ma i ":979,"čko":980,"da će ":981,"Bo":982,"rati ":983,"klu":984,"stan":985,"A ":986,"pozna":987,"fo":988,"mla":989,"sve":990,"Ha":991,"bje":992,"Zagre":993,"vrije":994,"protiv ":995,"Pa":996,"Ja":997,"onal":998,"ć, ":999,"cij":1000,"rekao je ":1001,"kup":1002,"be ":1003,"ja.\n":1004,"god":1005,"osob":1006,"nam ":1007,"nica ":1008,"om ":1009,"vez":1010,"o u ":1011,"ta.\n":1012,"njiho":1013,"svje":1014,"mili":1015,"dana ":1016,"je o":1017,"uz ":1018,"ju.\n":1019,"d]":1020,"jući ":1021,"ra, ":1022,"!\n":1023,"ble":1024,"ja, ":1025,"Ba":1026,"zem":1027,"jek":1028,"Pro":1029,"minu":1030,"Pri":1031,"),":1032,"-a ":1033,"I ":1034,"Vi":1035,"ši ":1036,"tri":1037,"če ":1038,"el":1039,"gi ":1040,"An":1041,"nosti":1042,"je u":1043,"prav":1044,"žen":1045,"auto":1046,"tri ":1047,"pisa":1048,"je i ":1049,"hrvatsk":1050,"Ta":1051," (":1052,"bez ":1053,"kih ":1054,"voj":1055,"kan":1056,"koji su ":1057,"telji":1058,"Hrvat":1059,"jima ":1060,"mogu ":1061,"ste":1062,"jom ":1063,"dva ":1064,"iza":1065,"ren":1066,"među ":1067,"mora":1068,"Va":1069,"bri":1070,"tan":1071,"Je":1072,"pravi":1073,"nego ":1074,"oko ":1075,"Li":1076,"skim ":1077,"prije":1078,"Du":1079,"ča ":1080,"zdra":1081,"ova":1082,"nisu ":1083,"mog":1084,"Mar":1085,"dar":1086,"čki ":1087,"njih ":1088,"trenu":1089,"šta":1090,"Jo":1091,"ć.\n":1092,"vih ":1093,"bili ":1094,"uz":1095,"bod":1096,"kim ":1097,"čno ":1098,"mini":1099,"&zcaron;i":1100,"sigur":1101,"jte ":1102,"svije":1103,"tvo":1104,"ciji ":1105,"šta ":1106,"lo je ":1107,"svoje ":1108,"publi":1109,"k, ":1110,"godina ":1111,"dvo":1112,"den":1113,"cima ":1114,"u.\n":1115,"meta":1116," i ":1117,"puno ":1118,"lano":1119,"voj ":1120,"odr":1121,"tira":1122,"poče":1123,"kro":1124,"čke ":1125,"sezo":1126,"tem":1127,"zra":1128,"un":1129,"ju, ":1130,"napa":1131,"pan":1132,"sku ":1133,"društ":1134,"len":1135,"mjese":1136,"stva ":1137,"stvo ":1138,"rom ":1139,"i na ":1140,"tim ":1141,"proble":1142,"cen":1143,"Ru":1144,"Be":1145,"tar":1146,"prili":1147,"kva":1148,"medi":1149,"30":1150,"ti, ":1151,"rav":1152,"nice ":1153,"To":1154,"nije":1155,"inu ":1156,"jan":1157,"sr":1158,"no, ":1159,"vić ":1160,"šen":1161,"dan ":1162,"i za":1163,"oz":1164,"pravo ":1165,"la.\n":1166,"obra":1167," eu":1168,"i na":1169,"ver":1170,"...\n":1171,"ti u ":1172,"15":1173,"&ccaron;a":1174,"vodi":1175,"proš":1176,"volj":1177,"govori":1178,"mno":1179,"u, ":1180,"dese":1181,"pot":1182,"mr":1183," sa":1184,"ove ":1185,"kod ":1186,"ini ":1187,"vijek ":1188,"sna":1189,"lek":1190,"bu ":1191,"vrijeme ":1192,"dan":1193,"oba":1194,"vim ":1195,"uspje":1196,"toga ":1197,"ta, ":1198,"lju ":1199,"por":1200,"kako bi ":1201,"Su":1202,"ben":1203,"Dina":1204,"nekoliko ":1205,"Ju":1206,"fa":1207,"ša ":1208,"ner":1209,"proiz":1210,"rod":1211,"prija":1212,"ran ":1213,"čen":1214,"kaz":1215,"najbo":1216,"pru":1217,"seb":1218,"vaju ":1219,"spor":1220,"-a":1221,"pod":1222,"otkri":1223,"80":1224,"kada ":1225,"vni ":1226,"je na ":1227,"rijed":1228,"je za":1229,"pet ":1230,"miliju":1231,"gani":1232,"nogo":1233,"In":1234,"ter":1235,"tra ":1236,", u ":1237,"uči":1238,"Europ":1239,"koju ":1240,"kom":1241,"ljudi ":1242,"cr":1243,"tka ":1244,"se u ":1245,"Bu":1246,"meri":1247,"tako":1248,"vara":1249,"važ":1250,"pozi":1251,"va.\n":1252,"la u ":1253,"ti na ":1254,"dio":1255,"li smo ":1256,"osje":1257,"ćen":1258,"zul":1259,"th":1260,"p ":1261,"ca.\n":1262,"lom ":1263,"Lu":1264,"dvi":1265,"in ":1266,"služ":1267,"ca, ":1268,"ime":1269,"grad":1270,"gro":1271,"Nakon ":1272,"la, ":1273,"gen":1274,"projek":1275,"prez":1276,"Rije":1277,"o na ":1278,"tijekom ":1279,"o i ":1280,"tne ":1281,"je na":1282,"vreme":1283,"van ":1284,"kar":1285,"kr":1286,"zira":1287,"S ":1288,"lno ":1289,"niti ":1290,"hra":1291,"Go":1292,"je do":1293,"Gra":1294,"jih ":1295,"Nje":1296,"prvi ":1297,"istra":1298,"log ":1299,"&zcaron;e":1300,"zdrav":1301,"sada ":1302,"O ":1303,"na i ":1304,"Mari":1305,"đu":1306,"nešto ":1307,"ali":1308,"spe":1309,"k.\n":1310,"201":1311,"potre":1312,"malo ":1313,"pomo":1314,"enta":1315,"u S":1316,"organi":1317,"red":1318,"risti":1319,"Vla":1320,"manje ":1321,"&cacute; ":1322,"zavr":1323,"u o":1324,"čak ":1325,"danas ":1326,"' ":1327,"cional":1328,"kru":1329,"stri":1330,"vima ":1331,"spa":1332,"kin":1333,"ni.\n":1334,"Pu":1335,"star":1336,"va, ":1337,"on ":1338,"nov":1339,"poslo":1340,"knu":1341,"50":1342,"rezul":1343,"b ":1344,"drugo":1345,"prote":1346,"vozi":1347,"vam ":1348,"teš":1349,"ćemo ":1350,"si ":1351,"nedje":1352,"vni":1353,". godi":1354,"kako je ":1355,"no.\n":1356,"doga":1357,"jedna ":1358,"ig":1359,"jedno ":1360,"tur":1361,"&zcaron;a":1362,": \"":1363,"treba ":1364,"bor":1365,"poru":1366,"telji ":1367,"11":1368,"dob":1369,"nosi":1370,"nira":1371,"dovolj":1372,"već":1373,"jdu":1374,", na":1375,"mjesto ":1376,"&cacute;e":1377,": '":1378,"tua":1379,"goto":1380,"kul":1381,"izra":1382,"fil":1383,"t.\n":1384,"vao ":1385,"plo":1386,"isto":1387,"ti i ":1388,"tio ":1389,"pred ":1390,"gao ":1391,"nema ":1392,"nama ":1393,"tku ":1394,"vjero":1395,"obja":1396,"forma":1397,"to je ":1398,"može":1399,"vremen":1400,"tome ":1401,"ni, ":1402,"prezenta":1403,"objavi":1404,"o.\n":1405,"kraj":1406,"kuša":1407,"uze":1408,"otvo":1409,"vija":1410,"sno ":1411,"druč":1412,"Le":1413,"kak":1414,"djelo":1415,"mre":1416,"vši ":1417,"doma":1418,"ur":1419,"posta":1420,"milijuna ":1421,"stu ":1422,"dobi":1423,"Za ":1424,"na je ":1425,"Se":1426,"više od ":1427,"dvije ":1428,"rezulta":1429,"ras":1430,"đer ":1431,"lne ":1432,"272":1433,"posto":1434,"Te":1435,"tiri ":1436,"koja je ":1437,"imaju ":1438,"Hajdu":1439,"co":1440,").\n":1441,"se na":1442,"razli":1443,"predstav":1444,"sluča":1445,"da bi ":1446,"se po":1447,"pera":1448,"taj ":1449,"rekao ":1450,"odnos":1451,"posljed":1452,"krenu":1453,"uvijek ":1454,"druge ":1455,"oče":1456,"&cacute;i ":1457,"kla":1458,"mod":1459,"la i ":1460,"jim ":1461,"situa":1462,"La":1463,"kli":1464,"misli":1465,"loka":1466,"Ne ":1467,"Kako ":1468,"14":1469,"između ":1470,"rbi":1471,"ce, ":1472,"-godiš":1473,"teri":1474,"t, ":1475,"prosto":1476,"dom ":1477,"reprezenta":1478,"dola":1479,"pani":1480,"De":1481,"svi ":1482,"smje":1483,"kvali":1484,"vodi ":1485,"'\n":1486,"kaže ":1487,"li u ":1488,"vrlo ":1489,"18":1490,"nim":1491,"glav":1492,"svojim ":1493,"isti":1494,"Lo":1495,"tere":1496,"Au":1497,"natje":1498,"svoj ":1499,"telj ":1500,"kroz ":1501,"',":1502,"grafi":1503,"čka ":1504,"nici":1505,"predsjednik ":1506,"16":1507,"svoju ":1508,"broj":1509,"čel":1510,"titi ":1511,"271":1512,"sma":1513,"Ako ":1514,"san":1515,"progra":1516,"ten":1517,"jako ":1518,"tar ":1519,"pak ":1520,"kog ":1521,"nad":1522,"Si":1523,"čan":1524," posto ":1525,"ce.\n":1526,"radi ":1527,"bije":1528,"Osi":1529,"o po":1530,"Ga":1531,"ch":1532,"vlje":1533,"pad":1534,"Hrvatska ":1535,"dalje ":1536,"lim ":1537,"četvr":1538,".,":1539,"stvo":1540,"raž":1541,"tni ":1542,"jednom ":1543,"sad ":1544,"13":1545,"cje":1546,"ku.\n":1547,"ke.\n":1548,"čkog ":1549,"nima ":1550,"što se ":1551,"govor":1552,"kao i ":1553,"kandi":1554,"Fi":1555,"na ko":1556,"mom":1557,"dre":1558,"su se ":1559,"jeg ":1560,"lar":1561,"gotovo ":1562,"staknu":1563,"da, ":1564,"uvje":1565,"samo":1566,"pit":1567,"na o":1568,"bro ":1569,"ne i ":1570,"novi ":1571,"vala ":1572,"njem ":1573,"sko ":1574,"također ":1575,"glu":1576,"smi":1577,"tih ":1578,"prven":1579,"ek":1580,"it":1581,"tin":1582,"Ima":1583,"stano":1584,"pusti":1585,"17":1586,"neće ":1587,"dogodi":1588,"per":1589,"Spli":1590,"tu.\n":1591,"tima ":1592,"odno":1593,"Pr":1594,"čne ":1595,"ide":1596,"ković ":1597,"umje":1598,"HD":1599,"000":1600,"mobi":1601,"vin":1602,"tali":1603,"tori":1604,"vo je ":1605,"održa":1606,"vidje":1607,"na u ":1608,"žu ":1609,"pob":1610,"ke, ":1611,":\n":1612,"prva":1613,"glaz":1614,"una":1615,"vanju ":1616," milijuna ":1617,"tog ":1618,"&zcaron;e ":1619,"koji se ":1620,"128":1621,"tisu":1622,"lji ":1623,"će se ":1624,"komen":1625,"raču":1626,"ga, ":1627,"sred":1628,"europ":1629," na":1630,"vrijed":1631,"102":1632,". godine ":1633,"finan":1634,"220":1635,"e, ":1636,"rin":1637,"glasi":1638,"koje su ":1639,"To ":1640,"budu":1641,"rje":1642," rekao je ":1643,"zajedni":1644,"Ku":1645,"proizvod":1646,"kandida":1647,"pe ":1648,"ži ":1649,"četiri ":1650,"nosi ":1651,"480":1652,"da.\n":1653,"miš":1654,"340":1655,"je bio ":1656,"Ro":1657,"način":1658,"200":1659,"640":1660,"e.\n":1661,"ji.\n":1662,"obzi":1663,"lag":1664,"Naj":1665,"ra i ":1666,"prem":1667,"HDZ":1668,"jedno":1669,"telja ":1670,"Fran":1671,"istaknu":1672,"o, ":1673,"nali":1674,"vjeroja":1675,"odnosno ":1676,"lop":1677,"mpi":1678,"u u":1679,"nio ":1680,"r.\n":1681,"tskog ":1682,"ener":1683,"li, ":1684,"ted]":1685,"proda":1686,"Hrvatske ":1687,"susta":1688,"zašti":1689,"držav":1690,"regi":1691,"se na ":1692,"foto":1693,"tor ":1694,"skoj":1695,"šao ":1696,"dne":1697,"neki ":1698,"primje":1699,"rodi":1700,"susre":1701,"mu je ":1702,"r, ":1703,"ID":1704,"uda":1705,"kazu":1706,"što su ":1707,"Ar":1708,"Ivan":1709,"dobro ":1710,"najve":1711,"pita":1712,"promje":1713,"niji ":1714,"li.\n":1715,"ji, ":1716,"raždi":1717,"s.\n":1718,"Varaždi":1719,"Ca":1720,"grado":1721,"DP":1722,"part":1723,"piše ":1724,"Euro":1725,"trene":1726,"no je ":1727,"lan ":1728,"teh":1729,"broj ":1730," ([":1731,"pora":1732,"ma u ":1733,"stran":1734,"sin":1735,"ct":1736,"inter":1737,"ved":1738,"izvo":1739,"Tu":1740,"protec":1741,"protected]":1742,":protected]":1743,"logi":1744,"đi":1745,"liko ":1746,"nove ":1747,"sek":1748,"ani ":1749,"informa":1750,"ka i ":1751,"lazi ":1752,"ljudi":1753,"s, ":1754,"vali ":1755,"pod ":1756,"24":1757,"loš":1758,"sman":1759,"To je ":1760,"25":1761,"Iz":1762,"kada je ":1763,"tek":1764,"zi ":1765,"tke ":1766,"ra u ":1767,"napravi":1768,"Al":1769,"puta ":1770,"preko ":1771,"riti ":1772,"svim ":1773,"ksi":1774,"ljuba":1775,"odre":1776,"ku, ":1777,"26":1778,"utje":1779,"ga je ":1780,"bio je ":1781,"Vo":1782,"ovje":1783,"ss ":1784,"ro ":1785,"drugi ":1786,"doš":1787,"te.\n":1788,"va i ":1789,"tu, ":1790," u ":1791,"viso":1792,"stig":1793,"brz":1794,"Ti":1795,"na u":1796,"as":1797,"muš":1798,"ski":1799,"sum":1800,"poseb":1801,"čkih ":1802,"aktiv":1803,"odu":1804,"govara":1805,"svih ":1806,"htje":1807,"mp":1808,"onda ":1809,"politi":1810,"miro":1811,"Milano":1812,"la na ":1813,"veče":1814,"oj ":1815,"Tre":1816,"Hrvatskoj ":1817,"ća, ":1818,"moguć":1819,"njezi":1820,"tek ":1821,"posje":1822,", ali i ":1823,"...":1824,"Ši":1825,"tru":1826,"misi":1827,"događa":1828,"sigura":1829,"govor ":1830,"bol":1831,"lin":1832,"gori":1833,"dam ":1834,"liš":1835,"mi je ":1836,"ulo":1837,"oni ":1838,"konce":1839,"srp":1840,"odluči":1841,"šu":1842,"zu ":1843,"dro":1844,"kvalite":1845,"pp":1846,"lni ":1847,"tran":1848," - ":1849,"nesre":1850,"prona":1851,"zaklju":1852,"slobod":1853,"anju ":1854,"nova":1855,"tan ":1856,"ure":1857,"zor":1858,"stve":1859,"kupi":1860,"organiza":1861,"oto":1862,"Plen":1863,"rno ":1864,"Obje":1865,"Njema":1866,"ja i ":1867,"mora ":1868," posto":1869,"društve":1870,"čkom ":1871,"ljem ":1872,"teme":1873,"ameri":1874,"ci.\n":1875,"vlja":1876,"supru":1877,"isk":1878,"pozo":1879,"tnih ":1880,"mo, ":1881,"otvore":1882,"ovaj ":1883,"momča":1884,"gospo":1885,"Object":1886,"rima ":1887,"cije.\n":1888,"fotografi":1889,"te, ":1890,"maj":1891,"Od":1892,"Dra":1893," godina ":1894,"Pod":1895,"VID":1896,"item":1897,"ovi":1898,"voza":1899,"uklju":1900,"nad ":1901,"21":1902,"zatvo":1903,"ta i ":1904,"izgu":1905,"nu.\n":1906,"Vu":1907,"vne ":1908,"vas ":1909,"mogao ":1910,"pripre":1911,"ane ":1912,"surad":1913,"njeg ":1914,"izbor":1915,"stven":1916,"tna ":1917," godi":1918,"građ":1919,"ga.\n":1920,"imati ":1921,"sredi":1922,"Slo":1923,"odma":1924,"da u ":1925,"drugi":1926,"li i ":1927,"Sve ":1928,"ve.\n":1929,"ci, ":1930,"Iako ":1931,"Op":1932,"rak ":1933,"klo":1934,"bilj":1935,"lazi":1936,"skupi":1937,"čita":1938,"mir ":1939," a ":1940,"kojeg ":1941,"panjo":1942,"dri":1943,"ju i ":1944,"politič":1945,"tor":1946,"priča":1947,"čni ":1948,"u kojem ":1949,"karije":1950,"razi":1951,"Dubro":1952,"Tru":1953,"se i ":1954,"tski ":1955,"svom ":1956,"cira":1957,"rado":1958,"odje":1959,"direk":1960,"le su ":1961,"cama ":1962,"com ":1963,"prome":1964,"baš ":1965,"ru.\n":1966,"smr":1967,"skup":1968,"je za ":1969,"đa ":1970,"&cacute;a":1971,"kara":1972,"zahva":1973,"zad":1974,"-o":1975,"daš":1976,"le, ":1977,"Pi":1978,"nika":1979,"nicu ":1980,"lj ":1981,"stoji ":1982,"ogra":1983,"Ho":1984,"je to ":1985,"kav ":1986,"pjes":1987,"kraju ":1988,"gru":1989,"subo":1990,"vlasni":1991,"VIDE":1992,"u kojoj ":1993,"Cla":1994,"o sam ":1995,"pove":1996,"stre":1997,"nija ":1998,"načel":1999,"knji":2000,"Mini":2001,"neke ":2002,"Od ":2003,"hu":2004,"Lju":2005,"isku":2006,"m i ":2007,"vijesti":2008,"navija":2009,"E ":2010,"vlasti":2011,"ve, ":2012,"struk":2013,"jemo ":2014,"nova ":2015,"ple":2016,"ban":2017,"vode ":2018,"turi":2019,"&cacute;a ":2020,"c.\n":2021,"radio ":2022,"prizna":2023,"pokuša":2024,"poput ":2025,"traži":2026,"mladi":2027,"istraži":2028,"govi":2029,"f ":2030,"raspo":2031,"pore":2032,"panjol":2033,"nu, ":2034,"dok je ":2035,"dobro":2036,"RT":2037,"nastu":2038,"područ":2039,"nera":2040,"vrh":2041,"osvoji":2042,"el ":2043,". minu":2044,"unu":2045," \"":2046,"laze ":2047,"lio ":2048,"va u ":2049,"So":2050,"će biti ":2051,"baci":2052,"javlje":2053,"intere":2054,"name":2055,"man ":2056,"nogomet":2057,"ca i ":2058,"kojima ":2059,"23":2060,"razu":2061,"ska":2062,"vide":2063,"inu":2064,"šest ":2065,"li na ":2066,"elek":2067,"il":2068,"jednu ":2069,"spek":2070,"tske ":2071,"čkoj ":2072,"novina":2073,"obo":2074,"Poli":2075,"tvrdi":2076,"duž":2077,"bih ":2078,"ta u ":2079,"drš":2080,"ća.\n":2081,"jedan od ":2082,"čaj":2083,"stvari":2084,"dugo":2085,"Co":2086,"poda":2087,"lip":2088,"limpi":2089,"Među":2090,"ljede":2091,"i ne":2092,"Fa":2093,"ovog ":2094,"h, ":2095,"up":2096,"te u ":2097,"vizi":2098,"ćem ":2099,"Dinamo ":2100,"završi":2101,"AD":2102,"tele":2103,"sudjelo":2104,"i to ":2105,"mor":2106,", a u ":2107,"mož":2108,"Prema ":2109,"zak ":2110,"c, ":2111,"tkom ":2112,"kako se ":2113,"ze ":2114,"ovo ":2115,"vjetni":2116,"nosti.\n":2117,"imao ":2118,"Cr":2119,"jske ":2120,"nisam ":2121,"nagra":2122,"pobjed":2123,"više":2124,"kazne":2125,"k_":2126,"bole":2127,"tnu ":2128,"stvu ":2129,"su na ":2130,"osoba ":2131,"n je ":2132,"često ":2133,"utakmice ":2134,"đe ":2135,"28":2136,"Ki":2137,"na za ":2138,"ra na ":2139,"Rusi":2140,"novno ":2141,"Dr":2142,"prove":2143," st":2144,"tim, ":2145,"vlada":2146,"100":2147,"stavlja":2148,"osjeća":2149,"90":2150,"Srbi":2151,"lovi":2152,"pokaza":2153,"id]":2154,"LE":2155,"Sla":2156,"dCla":2157,"ss Object":2158,"dClass Object":2159,"sne ":2160,"oti":2161,"cu.\n":2162,"potreb":2163,"kontro":2164,"optu":2165,"redo":2166,"njegov ":2167,"da i ":2168," stdClass Object":2169,"sprem":2170,"ispo":2171,"Što ":2172,"njim ":2173,"trži":2174,"sira":2175,"staviti ":2176,"Izra":2177,"vaj ":2178,"rekla je ":2179,"čovje":2180,"koj ":2181,") [":2182,"22":2183,"lnih ":2184,"g, ":2185,"mjesta ":2186,"osigura":2187,"kolo":2188,"natjec":2189,"nin":2190,"stari":2191,"gor":2192,"gova":2193,"krajin":2194,"o_":2195,"ov":2196,"che":2197,"NA":2198,"Ri":2199,"h_":2200,"K ":2201,"PO":2202,"sni ":2203,"Kad ":2204,"pp_":2205,"ništa ":2206,"ma, a ":2207,"bude ":2208,"način ":2209,"ću":2210,"snije ":2211,"bora":2212,"Veli":2213,"promet":2214,"jski ":2215,"veliki ":2216,"pitanje ":2217,"ne bi ":2218,"Dru":2219,"eki":2220,"re.\n":2221,"čnja":2222,"popu":2223,"o da ":2224,"hla":2225,"nema":2226,"njoj ":2227,"cije, ":2228,"nam je ":2229,"uli":2230,"fun":2231,"valu":2232,"utjeca":2233,"Ameri":2234,"Bar":2235,"biv":2236,"neza":2237,"taj":2238,"ne u ":2239,"ka u ":2240,"teško ":2241,"njegova ":2242,"ču ":2243,"produ":2244,"Sve":2245,"nike ":2246,"tada ":2247,"inf":2248,"seri":2249,"Mu":2250,"partne":2251,"nena":2252,"skla":2253,"proce":2254,"No, ":2255,"Republi":2256,"star ":2257,"odli":2258,"slavi":2259,"h.\n":2260,"ju u ":2261," do ":2262,"kor":2263,"vrati":2264,"Ukra":2265,"HN":2266,"je iz":2267,"su u ":2268,"36":2269,"iako ":2270,"čkim ":2271,"greba":2272,"prošle ":2273,"mira":2274,"pitan":2275,"tskom ":2276,"ty":2277,"priop":2278,"njega ":2279,"ipak ":2280,"jedna":2281,"Že":2282,"mar":2283,"lo.\n":2284,"odigra":2285,"Sta":2286,"ža ":2287,"o je.\n":2288,"rea":2289,"svog ":2290,"i da ":2291,"Ivan ":2292,"sjeti":2293,"Kra":2294,"mogli ":2295,"bira":2296,"šnja":2297,"neda":2298,"automobi":2299,"ime, ":2300,"zlo":2301,"o se ":2302,"sljede":2303,"mom ":2304,"govori ":2305,"predsjednika ":2306,"kilo":2307,"odmah ":2308,"demo":2309,"koncer":2310,"profe":2311,"službe":2312,"tisuća ":2313,"tnog ":2314,"odgovor":2315,"čeka":2316,"prava ":2317,"bla":2318,"dove":2319,"svaki ":2320,"name]":2321,"kole":2322,"možete ":2323,"she":2324,"bit će ":2325,"toj ":2326,"koja se ":2327,"cija.\n":2328," milijuna eu":2329,"Trum":2330,"izvje":2331,"vnog ":2332,"na, a ":2333,"ha ":2334,"najviše ":2335,"Kri":2336,"čna ":2337,"koristi":2338,"Osim ":2339,"la sam ":2340,"Hrvatskoj":2341,"stitu":2342,"se, ":2343,"feren":2344,"obitelj":2345,"isko":2346,"ono ":2347,"prihva":2348,"deset ":2349,"toliko ":2350,"vrši":2351,"energi":2352,"oči":2353,"mani":2354,"jednog ":2355,", pa ":2356,"kazao je ":2357,"je da ":2358,"hod":2359,"komu":2360,"obraz":2361,"Fe":2362,"ruči":2363,"nimlji":2364,"izgle":2365,"peratu":2366,"i za ":2367,"nasta":2368,"obzirom ":2369,"-u ":2370,"sja":2371,"puto":2372,"lje.\n":2373,"opa":2374,"zagreba":2375,"ra za ":2376,"o tome ":2377,"upozo":2378,"župani":2379,"Kon":2380,"čnih ":2381,"živje":2382,"strane ":2383,"gr":2384,"čku ":2385,"što":2386,"izi":2387,"gosti":2388,"jednostav":2389,"jer je ":2390,"pjeva":2391,"EU":2392,"godinu ":2393,"kola ":2394,"posa":2395,"bolje ":2396,"imamo ":2397,"He":2398,"podu":2399,"k i ":2400,"stvari ":2401,"Pred":2402,"gri":2403,"rio ":2404,"Ukraji":2405,"poja":2406,"lih ":2407,"cijama ":2408,"29":2409,"tradi":2410,"ona ":2411,"različi":2412,".h":2413,"Uz ":2414,"naše ":2415,"suda":2416,"šeg ":2417,"kova":2418,"menu":2419,"Ministar":2420,"manda":2421,"polu":2422,"koje je ":2423,"izazo":2424,". godine.\n":2425,"ru, ":2426,"hrvatski ":2427,"lamen":2428,"sezone ":2429,"st, ":2430," [name]":2431,"Če":2432,"mina":2433,"publishe":2434,"sun":2435,"re, ":2436,"skr":2437,"dosta":2438,"m da ":2439,"lak":2440,"alias":2441,"published]":2442,"alias]":2443,"drug":2444,"reći ":2445,"člano":2446,"sa.\n":2447,"prave ":2448,"kojim ":2449,"t u ":2450,"uspješ":2451,"at":2452,"ova ":2453,"nom":2454,"pada ":2455,"svojoj ":2456,"-a.\n":2457,"ukup":2458,"deta":2459,"sen":2460,"posla":2461,"199":2462,"Josi":2463,"vjerojatno ":2464,"l.\n":2465,"izjavi":2466,"činje":2467,"sud":2468,"jar":2469,"promije":2470,"troga":2471,"ista ":2472,"priva":2473,"sigurno ":2474,"rješen":2475,"Ali ":2476,"kate":2477,"tnim ":2478,"ćeg ":2479,"funk":2480,"se u":2481," na ":2482,"me, ":2483,"Da ":2484,"diti ":2485,"genera":2486,"mjestu ":2487,"menta":2488," O":2489,"SDP":2490,"vidi":2491,"ćih ":2492,"njima ":2493,"na na ":2494,"uprav":2495,"&ccaron;u":2496,"očeki":2497,"renje ":2498,"zahtje":2499,"preda":2500,"t i ":2501,"Zo":2502,"lnog ":2503,"du.\n":2504,"mogla ":2505,"zastup":2506,"dr&zcaron;a":2507,"očeku":2508,"zgra":2509,"prati":2510,"cu, ":2511,"r i ":2512,"tual":2513,"te i ":2514,"gospodar":2515,"movi":2516,"ring":2517,"ovo":2518,"oru":2519,"ljanje ":2520,"lnim ":2521,"netko ":2522,"ke i ":2523,"Gla":2524,"lna ":2525,"rić ":2526,"noga ":2527,"me.\n":2528,"druga ":2529,"cio":2530,"pravo":2531,"kraja ":2532,"značaj":2533,"ljen ":2534,"djevoj":2535,"čan ":2536,"kira":2537," [alias]":2538,"prvom ":2539,"zva":2540,"&cacute;i":2541,"temperatu":2542,"neu":2543,"premije":2544,"le.\n":2545,"o s ":2546,"trav":2547,"lja.\n":2548,"ruj":2549,"; ":2550,"nakon što je ":2551,"korisni":2552,"srijed":2553,"kasnije ":2554,"boga":2555,"tnom ":2556,"listo":2557,"tivno ":2558,"ozbilj":2559,"&dstrok;e":2560,"60":2561,"he ":2562,"ljo":2563,"loga ":2564,"v.\n":2565,"u Zagre":2566,"nave":2567,"boj":2568,"st.\n":2569,"tic":2570,"'.\n":2571,"ćete ":2572,"smatra ":2573,"Francu":2574,"novu ":2575,"bar ":2576,"parlamen":2577,"nosti, ":2578,"ti za ":2579,"čić ":2580,"trenutku ":2581,"eko":2582,"orde":2583,"nja.\n":2584,"nedjelja":2585,"nacional":2586,"prosje":2587,"prijed":2588,"bur":2589,"Mod":2590,"ne može ":2591,"sije":2592,"društvenim ":2593,"odvjetni":2594,"dija":2595,"dana":2596,"de.\n":2597,"razdob":2598,"imali ":2599,"Ja ":2600,"cat":2601,"njegovo":2602," [published]":2603,"možemo ":2604,"jezi":2605,"donije":2606,"veći":2607,"Tako":2608,"ck":2609,"bijedi":2610,"pri ":2611,"komentira":2612,"sa, ":2613,"Tako ":2614,"ne po":2615,"cijske ":2616,"Španjol":2617,"zajedno ":2618,"group":2619,"glazbe":2620,"obli":2621,"gradonačel":2622,"m u ":2623,"mir":2624,"sfe":2625,"naslo":2626,"kvi":2627,"znači ":2628,"vremena ":2629,"jan ":2630,"snim":2631,"svojih ":2632,"lić ":2633,"la da ":2634,"one ":2635,"zna ":2636,"zako":2637,"ja u ":2638,"zapo":2639,"posle":2640,"Dal":2641,"njez":2642,"velike ":2643,"Zbo":2644,"cijski ":2645,"tlji":2646,"je od ":2647,"u i ":2648,"iznena":2649,"Jadra":2650,"m, a ":2651,"doku":2652,"brani":2653,"pute":2654,"type":2655,"g.\n":2656,"o za ":2657," [orde":2658,"u u ":2659,"Milanovi":2660,"šan":2661,"li da ":2662,"iza ":2663,"izno":2664,"o u":2665,"buduć":2666,"nicima ":2667,"bilje":2668,"drugom ":2669,"ljan":2670,"obu":2671,"se o":2672,"lo, ":2673,"ponu":2674,"e i ":2675,"pokre":2676,"Andre":2677,"ni i ":2678,"vjeru":2679,"smatra":2680,"o je u ":2681,"Bra":2682,"n, ":2683,"namje":2684,"riječ ":2685,"dno ":2686,"sho":2687,")\n":2688,"la se ":2689," eura ":2690,"kultu":2691,"deve":2692,"fika":2693,"ring]":2694," [ordering]":2695,"ju na ":2696,"djela":2697,"-godišnja":2698,"group]":2699,"Naime, ":2700,"value":2701,"pis":2702,"oko":2703,"uži":2704,"nastav":2705,"ber":2706,"studi":2707,"spli":2708,"sasta":2709,"sedam ":2710,"Gr":2711,"te na ":2712,"sno":2713,"turni":2714,"objasni":2715,"Plenkovi":2716,"stude":2717,"unarod":2718,"DA":2719,"rođen":2720,"movin":2721,"sko-":2722,"nijih ":2723,"podrš":2724,"te je ":2725,"ry":2726,"tencija":2727,"izbje":2728,"vatroga":2729,"bila je ":2730,"društvenim mre":2731,"jskih ":2732,"moti":2733,"šim ":2734,"ni su ":2735,"- rekao je ":2736,"gan":2737,"sna ":2738,"nor":2739,"tera":2740,"prepozna":2741,"uspo":2742,"w ":2743,"hrvatske ":2744,"value]":2745,"Bri":2746,"[group]":2747,"ne, a ":2748,"savje":2749,"čega ":2750,"type]":2751,"vesti":2752,"lja, ":2753,"d.\n":2754,"kov":2755,"nske ":2756," eura.\n":2757,"me&dstrok;":2758,"rt":2759,"dobio ":2760,"No ":2761,"Ch":2762,"Sva":2763,"Zbog ":2764,"lica ":2765,"možda ":2766,", ako ":2767,"bolj":2768,"festi":2769,"čini ":2770,"obitelji ":2771,"utakmica ":2772,"uni":2773,"traj":2774,"d, ":2775,"zapad":2776,"l, ":2777,"Ovo je ":2778,"para":2779,"u kojima ":2780," je ":2781,"\"\n":2782,"nju":2783,"de, ":2784,"svako":2785,"dijeli":2786,"ćan":2787,"šić ":2788,"spi":2789,"lice ":2790,"bi se ":2791,"Misli":2792,"Vje":2793,"povije":2794,"odgovori":2795,"thod":2796,"čnu ":2797,"vu.\n":2798,"Ivana ":2799,"SAD":2800,"ranije ":2801,"nazi":2802,"ći u ":2803,"se da ":2804,"dovoljno ":2805,"Međutim, ":2806,"32":2807,"prve ":2808,"kraj ":2809,"rica ":2810,"liječ":2811,"&dstrok;en":2812,"Bro":2813,"vna ":2814,"lje, ":2815,"vijez":2816,"n.\n":2817,"uče":2818,"štu ":2819,"novo":2820,"lazak ":2821,"prvo ":2822,"ispla":2823,"emo":2824,"njo":2825,"lu.\n":2826,"šo":2827,"šu ":2828,"je bila ":2829,"pobje":2830,"sebno ":2831,"brzo ":2832,"viti ":2833,"kama ":2834,"turisti":2835,"nja, ":2836,"priliku ":2837,"psi":2838,"ispu":2839,"-a, ":2840,"Svje":2841,", uz ":2842,"zaba":2843,"glavnom ":2844,"Gor":2845,"nismo ":2846,"peri":2847,"upravo ":2848,"čko ":2849,"napo":2850,"sti.\n":2851,"nje.\n":2852,"vode":2853,"35":2854,"idu":2855,"kako su ":2856,"tehno":2857,"ori":2858,"nak ":2859,"lira":2860,"cijom ":2861,"su, ":2862,"želi ":2863," [type]":2864,"ser":2865,"RH":2866,"shva":2867,"tamo ":2868,"obilje":2869,"ist":2870,"zla":2871,"glaso":2872,"trener ":2873,"Nije ":2874,"zadovolj":2875,"šem ":2876,"slav ":2877,"ele":2878,"gnu":2879,"Man":2880,"dlji":2881,"sim ":2882,"Iz ":2883,"grada ":2884,"rizi":2885,"ma\n":2886,"ti s ":2887,"Pos":2888,"nesta":2889,"jedin":2890,"teljica ":2891,"ren ":2892,"vio ":2893,"mo&zcaron;e ":2894,"plat":2895,"ispred ":2896,"nikad ":2897,"Zagreba":2898,"Dalma":2899,"premi":2900,"velika ":2901,"sebe ":2902,"postoji ":2903,"prva ":2904,"dati ":2905,"utakmicu ":2906,"&zcaron;ivo":2907,"Osije":2908,"j, ":2909,"bile ":2910,"joj je ":2911,"uspi":2912,"BiH":2913,"lnu ":2914,"45":2915,"te se ":2916,"nije bilo ":2917,"nost.\n":2918,"žena ":2919,") i ":2920,"gledajte ":2921,"kategori":2922,"ime ":2923,"rad ":2924,"čujući ":2925,"Jed":2926,"cija, ":2927,"zaključi":2928,"osobe ":2929,"jskog ":2930,"pog":2931,"Ci":2932,"moći ":2933,"k je ":2934,"institu":2935,"t &cacute;e ":2936,"će, ":2937,"O: ":2938,"upu":2939,"loba":2940,"prethod":2941,"du, ":2942,"Rea":2943,"drugih ":2944,"ti da ":2945,"izvr":2946,"ve i ":2947,"zvo":2948,"obzirom na ":2949,"agen":2950,"investi":2951,"od naj":2952,"svib":2953,"moglo ":2954,"i dalje ":2955,"jasno ":2956,"zau":2957,"vac ":2958,"la za ":2959,"uzro":2960,"sjaj":2961,"ide ":2962,"m\n":2963,"mu.\n":2964,"slučaju ":2965," tisuća ":2966,"nar":2967,"diza":2968,"petak ":2969,"blje":2970,"žno ":2971,"kojih ":2972,"če, ":2973,"Vr":2974,"gom ":2975,"svega ":2976,"mnogi ":2977,"nac ":2978,"izja":2979,"som ":2980,"ozlije":2981,"objavlje":2982,"s o":2983,"oduše":2984,"ljud":2985,"stručnja":2986,"moguće ":2987,"mis":2988,"Ča":2989,"kaže":2990,"tion":2991,"dugo ":2992,"koje se ":2993,"godine.\n":2994,"još uvijek ":2995,"sce":2996,"nica":2997,"pret":2998,"privre":2999,"trebao ":3000,"Drža":3001,"najbolje ":3002,"lima ":3003,"pak, ":3004,"te da ":3005," radio ":3006,"rana ":3007,"rovi":3008,"ljanja ":3009,"koji će ":3010,"posjeti":3011," radio [group]":3012,"OT":3013,"ina":3014,"ris ":3015,"vođen":3016,"ne zna":3017,"jedne ":3018,"r u ":3019,"isto ":3020,"&cacute;u ":3021,"ove godine ":3022,"novog ":3023,"imala ":3024,"šte ":3025,"rem ":3026,"novih ":3027,"napada":3028,"nedavno ":3029,"plan":3030,"t za ":3031,"čini":3032,"čica ":3033,"prak":3034,"ća i ":3035," sati ":3036,"zvijez":3037,"la je.\n":3038,"r je ":3039,"Svi ":3040,"Zna":3041,"fizi":3042,"lišta ":3043,"suko":3044,"milijar":3045,"emisi":3046,"ranje ":3047,"kona":3048,"Marko ":3049,"problem ":3050,"medici":3051,"34":3052,"ra, a ":3053,"lini":3054,"putem ":3055,"red ":3056,"zapravo ":3057,"j.\n":3058,"pušte":3059,"ne samo ":3060,"izlo":3061,"građa":3062,"razvo":3063,"dijelu ":3064,"drugim ":3065,"Kar":3066,"međunarod":3067,"terija":3068,"79":3069,"dobiti ":3070,"Marti":3071,"čnim ":3072,"metara ":3073,"Por":3074,"nata ":3075,"za u":3076,"njema":3077,"posebno ":3078,"88":3079,"to, ":3080,"kretni":3081,"Gu":3082,"anali":3083,". i ":3084,"t ćemo ":3085,"čuje ":3086,"&dstrok;a":3087,"đu ":3088,"teni":3089,"da po":3090,"dosta ":3091,"prin":3092,"ken":3093,"skoro ":3094,"njegove ":3095,"hrvatskih ":3096,". godine, ":3097,"dručju ":3098,"31":3099,"Ovaj ":3100,"am":3101,"dina":3102,"ve&cacute; ":3103,"FF":3104,"[value]":3105,"im":3106,"kle":3107,"vnom ":3108,"ciju.\n":3109,"ja je ":3110,"moraju ":3111,"svoje":3112,"VIDEO: ":3113,"poduze":3114,"ovu ":3115,"život ":3116,"TE ":3117,"kam":3118,"nosti i ":3119,"Foto":3120,"o je i ":3121,"ravna":3122,"C ":3123,"Doda":3124,"lnom ":3125,"oča":3126,"gradi":3127,"čima ":3128,"obe":3129,"nedosta":3130,"prvog ":3131,"Šibe":3132,"dva":3133,"gdje je ":3134,"Mla":3135,"želje":3136,"da je to ":3137,"će.\n":3138,"hote":3139,"vnih ":3140,"čla":3141,"zaposle":3142,"tskih ":3143,"Mi ":3144,"stagra":3145,"ljoprivre":3146,"veći ":3147,"hrvatskog ":3148,"janje ":3149,"poslje":3150,"zamje":3151,"ne mogu ":3152,"tora ":3153,"zema":3154,"Har":3155,"glavni ":3156,"TV":3157,"ts":3158,"telje ":3159,"žiti ":3160,"igrača ":3161,"nom, ":3162,"žene ":3163," minu":3164,"Ovo ":3165,"prosin":3166,"prvi put ":3167,"mbe":3168,"opera":3169,"time ":3170,"va na ":3171,"teljima ":3172,"nika.\n":3173,"izgleda":3174,"zato ":3175,"dal":3176,"mišlje":3177,"sumnji":3178,"povje":3179,"indu":3180,"su.\n":3181,"pravi ":3182,"riješi":3183,"ministar ":3184,"Pla":3185,"biste ":3186,"mo.\n":3187,"su po":3188,"osoba":3189,"posob":3190,"Sr":3191,"socija":3192,"vidjeti ":3193,"ći.\n":3194,"POG":3195,"želi":3196,"Os":3197,"Tr":3198,"svjedo":3199,"Instagra":3200,"hin":3201,"a, ":3202,"mene ":3203,"među":3204,"odnosu na ":3205,". minuti ":3206,"djece ":3207,"Kao ":3208,", uklju":3209,"je s ":3210,"ti, a ":3211,"li se ":3212,"današ":3213,"primi":3214,". - ":3215,"er, ":3216,"društvenim mreža":3217,"reak":3218,"demokra":3219,"Tra":3220,"gira":3221,"tehni":3222,"DAJ":3223,"zan":3224,"kriti":3225,"obrazo":3226,"POGLE":3227,"moj ":3228,"prisu":3229,"trenutno ":3230,"kluba ":3231,"struktu":3232," OFF":3233,"POGLEDAJ":3234,"Domovin":3235,"mjeseci ":3236,"Predsjedni":3237," OFF [type]":3238,"ll":3239,"niz ":3240,"oruž":3241,"pada":3242,"Republike ":3243,"POGLEDAJTE ":3244,"din":3245,"seli":3246,"klub ":3247,"služben":3248,"Olimpi":3249,"zanimlji":3250,"nu i ":3251,"Or":3252,"nika, ":3253,"dale":3254,"isklju":3255,"70":3256,"za po":3257,"mnogo ":3258,"muškar":3259,"\" i ":3260,"subotu ":3261,"sklop":3262,"nogometa":3263,"vanjem ":3264,"đena ":3265,"Tomi":3266,"nitko ":3267,"djelu":3268,"osobi":3269,"raditi ":3270,"njihove ":3271,"brinu":3272,"tjed":3273,"bismo ":3274,"dostup":3275,"sim":3276,"anom ":3277,"Item":3278,"je pre":3279,"P ":3280,"ne u":3281,"opće ":3282,"pu ":3283,"čnog ":3284,"razmiš":3285,"ku i ":3286,"nikada ":3287,"teško":3288,"skri":3289,"dalj":3290,"cije i ":3291,"trgovi":3292,"68":3293,", no ":3294,"druga":3295,"Ge":3296,"The ":3297,"ovom ":3298,"rira":3299,"lova":3300,"dar ":3301,"Dje":3302,"ht":3303,"potpuno ":3304,"Njego":3305,"umjetni":3306,"provje":3307,"192":3308,"Ke":3309,"poma":3310,"bivši ":3311,"grad ":3312,"voda ":3313," k":3314,"čine ":3315,"&ccaron;i ":3316,"vi.\n":3317,"ge.\n":3318,"krša":3319,"ponovno ":3320,"veza":3321,"tvrt":3322,"tvrdi ":3323,"slijed":3324,"&ccaron;e ":3325,"šar":3326,"Pari":3327,"dvoji":3328,"Grada ":3329,"glasa":3330,"vu, ":3331,"okru":3332,"žalo":3333,"je bilo ":3334,"leti":3335,"gita":3336,"škol":3337,"teta ":3338,"se.\n":3339,"ispod ":3340,"ci su ":3341,"ističe ":3342,"Sje":3343,"izo":3344,"organizira":3345,"vali":3346,"tila ":3347,"stup ":3348,"prijatelj":3349,"vak ":3350,"re i ":3351,"svjet":3352,"gradu ":3353,"nje, ":3354,"norma":3355,"dalma":3356,"njihov ":3357,"Grad ":3358,"Hajduk ":3359,"liza":3360,"ovak":3361,"u Spli":3362,"EU ":3363,"Tije":3364,"čiji ":3365,"napisa":3366," doda":3367,"stabi":3368,"sus":3369,"&zcaron;en":3370,"posljednjih ":3371,"komenta":3372,"Žu":3373,"treb":3374,"svakodne":3375," kilo":3376,"Itali":3377,"nasi":3378,"vama ":3379,"konferen":3380,"mirovi":3381,";,":3382,"vić, ":3383,"stava ":3384,"nekad ":3385,"Ste":3386,"konku":3387,"Ber":3388,"i s ":3389,"je se ":3390,"sten":3391,"i osta":3392,"novo ":3393,"grani":3394,"ca u ":3395,"žele ":3396,"we":3397,"stra ":3398,"bilo je ":3399,"popular":3400,"Her":3401,"Kre":3402,"zatim ":3403,"vijesti ":3404,"Luka ":3405,"FOT":3406,"Spor":3407,"lako ":3408,"lu, ":3409,"razgovara":3410,"Ži":3411,"govora ":3412,"krea":3413,"Ze":3414,"kojom ":3415,"na\n":3416,"da na ":3417,"čnom ":3418,"koga ":3419,"pokazu":3420,"prilikom ":3421,"San":3422,"elektri":3423,"posljedi":3424,"plje":3425,"lle":3426,"češ":3427,"demi":3428,"postup":3429,"nato":3430,"odra":3431,"su i ":3432,"ton ":3433,"čiti ":3434,"korište":3435,"33":3436,"kora":3437,"podi":3438,"t je ":3439,"nedjelju ":3440,"Image":3441,"con":3442,"la s ":3443,"tska ":3444,"finalu ":3445,"smanje":3446,"Zla":3447,"redu ":3448,"vi, ":3449,"ni u ":3450,"pomoć ":3451,"materija":3452,"priča ":3453,"cijeli ":3454,"/ ":3455,"kna":3456,"dao ":3457,"platfor":3458,"dana.\n":3459,". do ":3460,"cijen":3461,"kultur":3462,"osam ":3463,"narod":3464,"iznim":3465,"planira":3466,"utakmici ":3467,"defi":3468,"stavlje":3469,"Prije ":3470,"nedjeljak ":3471," kaže ":3472,"85":3473,"smije":3474,"doći ":3475,"kad je ":3476,"izgrad":3477,"zemlje ":3478,"neka ":3479,"&ccaron;ki ":3480,"be.\n":3481,"ranju ":3482,"tiče ":3483,"Milanović ":3484,"profesi":3485,"ta na ":3486,"Danas ":3487,"sposob":3488,"vrti":3489,"nekretni":3490,"do kraja ":3491,"tivne ":3492,"Hrvatski ":3493,"glumi":3494,"kle ":3495,"tjedna ":3496,"mu, ":3497,"Par":3498,"moć":3499,"smanji":3500,"rena ":3501,"\":\"\"\",":3502,"svijetu ":3503,"ter ":3504,"sadaš":3505,"godine, ":3506,"obitelji":3507,"trenin":3508,"denti":3509,"muškara":3510,"JE":3511,"naro":3512,"đene ":3513,"situacija ":3514,"Fili":3515,"nari":3516,"vajući ":3517,"car":3518,"ju je ":3519,"država ":3520,"Ova ":3521,"rade ":3522,"pogo":3523,"juče":3524,"t će se ":3525,"prirod":3526,"trebali ":3527,"prošlo":3528,"televizi":3529,"gno":3530,"koho":3531,"uslu":3532,"čemu ":3533,"ispriča":3534,"izabra":3535,"Sto":3536,"qu":3537,"o da je ":3538,"dozvo":3539,"greš":3540,"žuj":3541,"klubo":3542,"moramo ":3543,"vnim ":3544,"ka je ":3545,"dodatno ":3546,"u na":3547,"dobar ":3548,"prila":3549,"&ccaron;no ":3550,"rekor":3551,"javlju":3552,"vica ":3553,"gu.\n":3554,"veliku ":3555,"đen ":3556,"tvor":3557,"industri":3558,"ri.\n":3559,"vira":3560,"stavlja ":3561,"reali":3562,"se ne ":3563,"ispi":3564,"njom ":3565,"sprije":3566,"niku ":3567,"noš":3568,"tvrtke ":3569,"Još ":3570,"ka na ":3571,"Plenković ":3572,"bre":3573,"ira":3574,"ula":3575,"stupa":3576,"problema ":3577,"dizaj":3578,"god ":3579,", a po":3580,"kako bi se ":3581,"kombi":3582,"hlad":3583,"Bje":3584,"tko":3585,"priti":3586,"putni":3587,"objek":3588,"Raz":3589,"Foto: ":3590,"jskim ":3591,"da sam ":3592,"stadio":3593,"trebala ":3594,"kakve ":3595,"ovih ":3596,"opet ":3597,"kada se ":3598,"par ":3599,"bu.\n":3600,"trebalo ":3601,"zvao ":3602,"savr":3603,"strana":3604,"Podsjeti":3605,"Bru":3606,", na ":3607,"no-":3608,"profi":3609,"šao u ":3610,"vremenu ":3611,"je li ":3612,"koplo":3613,"renja ":3614,"torak ":3615,"traja":3616,"catItem":3617,"ck ":3618,"fran":3619,"iš":3620,"nost i ":3621,"svima ":3622,"na području ":3623,"nogome":3624,"izrael":3625,"pen":3626,"ray":3627,"dozna":3628,"fri":3629,"festiva":3630,"47":3631,"da ne ":3632,"pad ":3633,"ve u ":3634,"RTL":3635,"pobijedi":3636,"ce i ":3637,"Mora":3638,"stavio ":3639,"kinu":3640,"eks":3641,"uzi":3642,"reda":3643,"dobili ":3644,"dić ":3645,"konkuren":3646,"rast ":3647,"mari":3648,"ostvari":3649,"liko":3650,"viken":3651,"panije ":3652,"ta za ":3653,"stva.\n":3654,"Europske ":3655,"pobjedni":3656,"omogu":3657,"naš ":3658,"zabra":3659,"govore ":3660,"Jedan ":3661,"san ":3662,"ri, ":3663,"sebi":3664,"najbolji ":3665,"koju je ":3666,"pi ":3667,"nosni":3668,"velja":3669,"sadrža":3670,"mode":3671,"sustav ":3672,"je o ":3673,"paž":3674,"radio":3675,"najbolj":3676,"VIDEO ":3677,";.\n":3678,"blo":3679,"toga, ":3680,"barem ":3681,"stvar":3682,"RI":3683,"uo":3684,"u Hrvatskoj ":3685,"nekim ":3686,"upozna":3687,"stvi":3688,"potencija":3689,"ljubi":3690,"pl":3691,"der":3692,"igrač ":3693,"stanovni":3694,"Cro":3695,"ster":3696,"diljem ":3697,"boo":3698,"lo se ":3699,"Sin":3700,"nski ":3701,"r za ":3702,"jedinje":3703,"Pra":3704,"x ":3705,"dolazi ":3706,"stolje":3707,"pa je ":3708,"siječ":3709,"na kraju ":3710,"mo u ":3711,"ge, ":3712," rekla je ":3713,"On ":3714,"gar":3715,"Puti":3716,"momčad ":3717,"Dubrovni":3718,"55":3719,"ja za ":3720,"mosfe":3721,"Boži":3722,"jska ":3723,"sti, ":3724,"-godišnji ":3725,"Sre":3726,"mati":3727,"veza ":3728,"le i ":3729,"pomoći ":3730,"pis ":3731,"godinama ":3732,"spomenu":3733,"štvo ":3734,"500":3735,"ruko":3736,". lip":3737,"osnov":3738,"e u ":3739,"projekt ":3740,"show":3741,"% ":3742,"deset":3743,"Super":3744,"njihova ":3745,"vozila ":3746,"pam":3747,"će u ":3748,"&ccaron;a ":3749,"priopćen":3750,"En":3751,"nicama ":3752,"izmje":3753,"lo u ":3754,"POGLEDAJTE VIDEO: ":3755,"izvijesti":3756,"šava ":3757,"posve":3758,"cijene ":3759,"brojne ":3760,"talijan":3761,"optuž":3762,"iskoristi":3763,"sjever":3764,"igra ":3765,"Tijekom ":3766,"a.\n":3767,"okup":3768,"Sti":3769,"povra":3770,"kupa":3771,"&ccaron; ":3772,"vanja.\n":3773,"snaž":3774,"snage ":3775,"tehnologi":3776,"vo, ":3777,"jutr":3778,"stoj":3779,"naših ":3780,"potvr":3781,"bio":3782,"kun":3783,"ljep":3784,"znan":3785,"predvi":3786,"rac ":3787,"ka za ":3788,"Grad":3789,"ostva":3790,"lije ":3791,"kažu ":3792,"plani":3793,"to nije ":3794,"odmo":3795,"vodno ":3796,"nom.\n":3797,"tili ":3798,"min":3799,"preuze":3800,"zrakoplo":3801,"TO":3802,"naša ":3803,"Zagreb ":3804,"drugog ":3805,", uključujući ":3806,"dopri":3807,"HNL":3808,"obla":3809,"Evo ":3810,"ep":3811,"zni":3812,"kolu ":3813,"preporu":3814,"vidi ":3815,"var":3816,"sazna":3817,"s i ":3818,"djecu ":3819,"ondo":3820,"izbori":3821,"ministar":3822,"vi i ":3823,"alkoho":3824,"kame":3825,"direktor ":3826,"je pro":3827,"čeku":3828,"najmanje ":3829,"tru ":3830,"se s ":3831,"igrati ":3832,"sjeve":3833,"energe":3834,"zvu":3835,"vož":3836,"prekrša":3837,"mun":3838,"inten":3839,"Še":3840,"vamo ":3841,"ciju, ":3842,"pregle":3843,"sti i ":3844,"Zagreb":3845,"stranke ":3846,"infra":3847,"sklopu ":3848,"ću, ":3849,"đar":3850,"njen ":3851,"vjer":3852,"njemu ":3853,"ljude ":3854,"prvo":3855,"prvu ":3856,"ispa":3857,"jer su ":3858,"čak i ":3859,"dokumen":3860,"by ":3861,"ku od ":3862," Ar":3863,"osu":3864,"započe":3865,"ci i ":3866,"novim ":3867,"sudjelova":3868,"riječ o ":3869,"najavi":3870,"asi":3871,"slijedi":3872,"tradicional":3873,"njezin ":3874,"Ccaron;":3875,"ćim ":3876,"protiv":3877,"zer":3878,"konti":3879,"čitajte ":3880,"francu":3881,"migra":3882,"gubi":3883,"Tur":3884,"žrt":3885,"izvan ":3886,"legen":3887,"ou":3888,"i i ":3889,"i su ":3890,"u ovom ":3891,"reno ":3892,"odbo":3893,"Dob":3894,"vnik ":3895,"sekun":3896,"stupi":3897,"predstavlja ":3898,"prošle godine ":3899,"Kr":3900,"utr":3901,"vić.\n":3902,"procje":3903,"previše ":3904,"sud ":3905,"njegovu ":3906,"strije":3907,"tet ":3908,"ča.\n":3909,"ći, ":3910,"da će se ":3911,"kojem ":3912,"ano ":3913,"tim":3914,"tuga":3915,"kontak":3916,"financij":3917,"Ben":3918,"Mno":3919,"vaju":3920,"ja, a ":3921,"proraču":3922,"gol ":3923,"tskim ":3924,"vijest ":3925,"opas":3926,"ukupno ":3927,"FOTO ":3928,"ceboo":3929,"Može":3930,"Novi ":3931,"finale ":3932,"Hrvatskog ":3933," bod":3934,"HRT":3935,"ini":3936,"mlje":3937,"Šu":3938,"stan ":3939,"se za ":3940,"jednoj ":3941,"održ":3942,"globa":3943,"resto":3944,"natjecan":3945,"ne na ":3946,"ju da ":3947,"supro":3948,".hr":3949,"Rob":3950,"plu":3951,"taka ":3952,"koristi ":3953,"zdravstve":3954,"ograni":3955,"Dan":3956,"Pa ":3957,"bolji ":3958,"i ovo ":3959,"izrazi":3960,"nastupi":3961," Array":3962,"lnoj ":3963,"priro":3964,"zemlji":3965,"Što se ":3966,"OV":3967,"pote":3968,"potro":3969,"ciju":3970,"zaslu":3971,"celo":3972,"prvoj ":3973,"anog ":3974,"&Ccaron;":3975,"uhi":3976,"Ša":3977,"čime ":3978,"nost, ":3979,"standar":3980,"ruši":3981,"vjen":3982,"nakon što ":3983,"prvaka ":3984,"Car":3985,"sva ":3986,"ra\n":3987,"drav":3988,"troško":3989,"devet ":3990,"kada su ":3991,"sama ":3992,"mira ":3993,"odabra":3994,"lazi u ":3995,"završ":3996,"seksu":3997,"jednostavno ":3998,"me&dstrok;u ":3999,"onih ":4000,"lon":4001,"ljaju ":4002,"prijet":4003,"izvješ":4004,"Ce":4005,"Gru":4006,"novom ":4007,", a na ":4008,"policija ":4009,"ff":4010,"jama ":4011,"Ob":4012,"poveć":4013,". kolo":4014,"vremeno ":4015,"lac ":4016,"sta.\n":4017,"stigao ":4018,"kuće ":4019,"ća u ":4020,"poža":4021,"bici":4022,"prehra":4023,"jugo":4024,"dvora":4025,"Vlade ":4026,"donosi ":4027,"razvoj ":4028,"poslu":4029,"Ipak, ":4030,"vjedni":4031,"odob":4032,"profesional":4033,"voza ":4034,"per ":4035,"sigurnos":4036,"ukrajin":4037,"inci":4038,"lega":4039,"i poli":4040,"stane ":4041,"anga":4042,"meda":4043,"te za ":4044,"građe":4045,"najveći ":4046,"mirovlje":4047,"atmosfe":4048,"da smo ":4049,"interne":4050," posto.\n":4051,"Faceboo":4052,"Jan":4053,"se pri":4054,"može biti ":4055,"ciji.\n":4056,"iznad ":4057,"lež":4058,"Slove":4059,"rice ":4060,"di.\n":4061,"promi":4062,"osva":4063,"a i ":4064,"ja na ":4065,"ljev":4066,"ih je ":4067,"Lige ":4068,"moder":4069,"ovdje ":4070,"kampan":4071,"Bel":4072,"dana, ":4073,"ćine ":4074,"Real ":4075,"jana ":4076,"stao ":4077,"kazao ":4078,"prilike ":4079,"kape":4080,"savez":4081,"pisu":4082,". listo":4083,"Madri":4084,"tnoj ":4085,"anti":4086,"ka, a ":4087,"izda":4088,"golo":4089,"njak ":4090,"vene ":4091,"godišnje ":4092,"vrhun":4093,"izgleda ":4094,"ožuj":4095,"sci":4096,"ću.\n":4097,"ner ":4098,"žio ":4099,"dijelo":4100,"program ":4101,"tjedan ":4102,"kana":4103,"matra":4104,". srp":4105,"radi o ":4106,"ad":4107,"nije, ":4108,"t na ":4109,"stvarno ":4110," u":4111," milijar":4112,"vru":4113,"rila ":4114,"cilj ":4115,"Sabo":4116,"nos ":4117,"te po":4118,"ru i ":4119,"dok su ":4120,"seksual":4121,"Gi":4122,"ali ":4123,"djeca ":4124,"prije nego ":4125,"mladih ":4126,"Do ":4127,"den ":4128,"ska, ":4129,"vor":4130,"zada":4131,"topli":4132,"kako će ":4133,"im je ":4134,"specija":4135,"Prvi ":4136,"matič":4137,"sta, ":4138,". ruj":4139,"ljujući ":4140,"presi":4141,"sudio":4142,"n i ":4143,"Dok ":4144,"unutar ":4145,"desetlje":4146,"protu":4147,"ć i ":4148,"u pot":4149,"795":4150,"identi":4151,"ta, a ":4152,"čar":4153,"sa i ":4154,"osobito ":4155,"intenzi":4156,"39":4157,"Gos":4158,"Stu":4159,"ktiv":4160,"tac ":4161,"bom ":4162,"tu i ":4163,"cijena ":4164,"\" u ":4165,"Ot":4166,"nastavi":4167,"image":4168,"taknu":4169,"re u ":4170,"stvara":4171,"usmje":4172,"godišnji ":4173,"pom ":4174,"proši":4175,"k za ":4176,"va za ":4177,"65":4178,"vnika ":4179,"kata ":4180,"zdravstven":4181,"promijeni":4182,"Ukrajin":4183,"ps":4184,"naba":4185,"preki":4186,"preminu":4187,"mjesec ":4188,"Policija ":4189,"jskom ":4190,"Kla":4191,"maksi":4192,". trav":4193,"38":4194,"EP":4195,"la da je ":4196,"sao ":4197,"što sam ":4198,"govoru ":4199,"izlož":4200,"Dak":4201,"regu":4202,"malo":4203,"s obzirom na ":4204,"svojom ":4205,"ravno":4206,"ton":4207,"stalno ":4208,"bar":4209,"ćina ":4210,"tren":4211,"drugu ":4212,"&zcaron;u":4213,"Mati":4214,"aktual":4215,"Radi":4216,"Cit":4217,"blag":4218,"reži":4219,"lizira":4220,"Samo ":4221,"pitanja ":4222," napisa":4223,"37":4224,"tskoj ":4225,"jevi":4226,"teo":4227,"suz":4228,"škole ":4229,"&ccaron;in":4230,"svakom ":4231,"tako da ":4232,"vati u ":4233,"ne za ":4234,"ju se ":4235,". u ":4236,"ga i ":4237,"čaj ":4238,"djela ":4239,"Pročitajte ":4240,"civi":4241,"sklo":4242,"su bili ":4243,"to.\n":4244,"ozljed":4245,"kvalifika":4246,"kazi":4247,"ske, ":4248,"dubo":4249,"foku":4250,"Rijeka ":4251,"Hu":4252,"Zcaron;":4253,"staja":4254,"&ccaron;en":4255,", poput ":4256,"Više ":4257,"potpo":4258,"48":4259,"uopće ":4260,"&ccaron;ke ":4261,"manja ":4262,"198":4263,"rekao je.\n":4264,"četvrtak ":4265,"novac ":4266,"AT":4267,"la, a ":4268,"poveća":4269,"izjavio je ":4270,"rao ":4271,"vi u ":4272,"napraviti ":4273,"ozna":4274,"snu ":4275,"ćen ":4276,"sa svojim ":4277,"istaknuo je ":4278,"cep":4279,"desetak ":4280,"redovi":4281,"tkin":4282,"stvom ":4283,"odla":4284,"tirati ":4285,"prenosi ":4286,"će li ":4287,"der ":4288,"vanja, ":4289,"predme":4290,"Cije":4291,"St":4292,"Ukraj":4293,"ba.\n":4294,"Kova":4295,"odluku ":4296,"veze ":4297,"Vladi":4298,"čen ":4299,"ško ":4300,"stin":4301,"navi":4302,"diplo":4303,"ni na ":4304,"tu u ":4305,"dr.\n":4306,"sporta":4307,"Zdrav":4308,"ti\n":4309,"nen":4310,"sebi ":4311,"gu, ":4312,"studen":4313,"Josip ":4314,"Pročitajte i ovo ":4315,"We":4316,"lo na ":4317,", ali je ":4318,"Hrvatsku ":4319,"centra":4320,"prijatelji":4321,"kće":4322,"bes":4323,"Modri":4324,"djelatni":4325,"Tko ":4326,"nose ":4327,"da je u ":4328,"jedini ":4329,"Peri":4330," eura, ":4331,"mogućnost ":4332,"ono što ":4333,"Fo":4334,"Hr":4335,"rada ":4336,"ja\n":4337,"no i ":4338,"bu, ":4339,"činkovi":4340,"porta":4341,"kata":4342,"zašto ":4343,"mjesti":4344,". svib":4345,"gledati ":4346,"Bos":4347,"Ina":4348,"ulogu ":4349,"komunika":4350,"Bla":4351,"koma":4352,"rili ":4353,"milje":4354,"tori ":4355,"primije":4356,"pisi":4357,"ravno, ":4358,"premijer ":4359,"kol":4360,"osim ":4361,"vod ":4362,"je, a ":4363,"proba":4364,"razumije":4365,"nekih ":4366,"ju za ":4367,"o je na ":4368,"stoti":4369,"Mate":4370,"be, ":4371,"sjeća":4372,"scen":4373,"ma za ":4374,"s po":4375,"bene ":4376,"tle":4377,"tero":4378,"koji je u ":4379,"Trump ":4380,"42":4381,"Vije":4382,"\\/":4383,"povi":4384,"k u ":4385,"razlo":4386,"albu":4387,"voditi ":4388,"gradonačelnik ":4389,"olimpi":4390,"snog ":4391,"cima.\n":4392,"čeka ":4393,"lo i ":4394,"drugo ":4395,"velikim ":4396,"mjeseca ":4397,"listi":4398,"bili su ":4399,"Mir":4400,"Veče":4401,"poruči":4402,"Tu ":4403,"ssi":4404,"ravno ":4405,"mijenja":4406,"srijedu ":4407,"janja ":4408,"pati":4409,"automo":4410,"trenuta":4411,"objašnja":4412,"rezultat ":4413,"Zoran ":4414,"Uni":4415,"koje":4416,"odo":4417,"presu":4418,"koji bi ":4419,"gosto":4420,"cijelu ":4421,"cije u ":4422,"momčadi ":4423,"infrastruktu":4424,"Rober":4425,"ćin":4426,"borav":4427,"nije bio ":4428,"razloga ":4429,"Vukova":4430,"Takođ":4431,"Herce":4432,"Br":4433,"bru":4434,"vori":4435,"digita":4436,"pisan":4437,". stude":4438,"dijete ":4439,"Portuga":4440,"Don":4441,"fa ":4442,"stanje ":4443,"ven ":4444,"smis":4445,"priprema":4446,"Ono ":4447,"tnosti ":4448,"povez":4449,"prijavi":4450,"vana ":4451,"bliz":4452,"nici.\n":4453,"Podsjetimo, ":4454,"pso":4455,"tora":4456,"za sve ":4457,"skoga ":4458,"plika":4459,"crk":4460,"klasi":4461,"aktivnosti ":4462,"Vin":4463,"nin ":4464,"kakav ":4465,"dolaze ":4466,"boji":4467,"budu ":4468,"-a i ":4469,"300":4470,"D ":4471,"Val":4472,"sc":4473,"je ne":4474,"izved":4475,"sag":4476,"lo do ":4477,"života ":4478,"početka ":4479,"fakul":4480,"jedna od ":4481,"gluma":4482,"mbi":4483,"košar":4484,"caj":4485,"ma na ":4486,"nu u ":4487,"vrata ":4488,"Austri":4489,"neće biti ":4490,"Cen":4491,"ćoj ":4492,"cima, ":4493,"st i ":4494,"cionira":4495,"ošte":4496,"talen":4497,"li s ":4498,"pacijen":4499,"vješta":4500,"vidlji":4501,"pripad":4502,"vrš":4503,"pisao ":4504,"ske":4505,"mjesto":4506,"Maksi":4507,"finala ":4508,"Ove ":4509,"snih ":4510,"jeva ":4511,"odgovara":4512,"takav ":4513,"kao što su ":4514,"Nisam ":4515,"mladi ":4516,"financira":4517,"tnost ":4518,"čnoj ":4519,"nastup":4520,"živi":4521,"tak, ":4522,"Beogra":4523,"Oni ":4524,"Per":4525,"raš":4526,"napu":4527,"nacija ":4528,"nega":4529,"česti":4530,"šati ":4531,"spasi":4532,"središ":4533,"&Zcaron;":4534,"Fu":4535,"vnu ":4536,"zapa":4537,"ne su ":4538,"sami ":4539,"Ustav":4540,"navodi ":4541,"ligen":4542,"vođa":4543,"Polju":4544,"jer se ":4545,"običa":4546,"đeni ":4547,"Neki ":4548,"javno ":4549,"svake ":4550,"gdje su ":4551,"Anto":4552,"drugoj ":4553,"44":4554,"ko, ":4555,"moto":4556,"imam ":4557,"životi":4558,"elen":4559,"KO":4560,"dra ":4561,"liga":4562,"plasira":4563,"interv":4564,"B ":4565,"snim ":4566,"upa":4567,"konzu":4568,"reagira":4569,"AR":4570,"kom.\n":4571,"ni za ":4572,"znati ":4573,"vodom ":4574,"son ":4575,"ru u ":4576,"nici, ":4577,"nemaju ":4578,"the":4579,"ka\n":4580,"na kojem ":4581,"bolni":4582,"natoč ":4583,"odgo":4584,"liti ":4585,"nje i ":4586,"vlasti ":4587,"njezina ":4588,"d_":4589,"spu":4590,"ye":4591,"vese":4592,"nudi ":4593,"Nikola ":4594,"loški ":4595,"v, ":4596,"đeno ":4597,"čenje ":4598,"projekta ":4599,"Želj":4600,"epiz":4601,"UN":4602,"okoli":4603,"kom, ":4604,"pozor":4605,"vid ":4606,"dovi":4607,"ći na ":4608,"li su se ":4609,"štvu ":4610,"eli":4611,"cilje":4612,"la je u ":4613,"New ":4614,"čovjek ":4615,"Po ":4616,"str":4617,"&cacute;en":4618,"prvih ":4619,"završe":4620,"objavio ":4621,"plju":4622,"ne\n":4623,"izve":4624,"iznosi":4625,"minali":4626,"top":4627,"ga u ":4628,"gresi":4629,"brzi":4630,"u ponedjeljak ":4631,"posljednje ":4632,"opre":4633,"rup":4634,"ča, ":4635,"krajem ":4636," poruči":4637,"Bilo je ":4638,"&cacute;emo ":4639," godina.\n":4640,"Barcelo":4641,"svlada":4642,"koali":4643,"poljoprivre":4644,"dječ":4645,"traš":4646,"Polj":4647,"godin":4648,"našeg ":4649,"statu":4650,"važno ":4651,"napusti":4652,"mo&zcaron;e":4653,"te su ":4654,"sub":4655,"sed":4656,"nja u ":4657,"godini ":4658,"karak":4659,"daleko ":4660,"naglasi":4661,"polo":4662,"odgovor ":4663,"đenje ":4664,"inteligen":4665,"NATO":4666,"dodi":4667,"član ":4668,"izla":4669,"oba ":4670,"Ljuba":4671,"ino":4672,"spre":4673,"kova ":4674,"izuze":4675,"odluke ":4676,"napad ":4677,"ljudima ":4678,"Predsjednik ":4679,"inicija":4680,"inciden":4681,"avi":4682,"nas":4683,"nama.\n":4684,"moja ":4685,"pozitiv":4686,"film ":4687,"Lasag":4688,"simbo":4689,"asisten":4690,"što smo ":4691,"ljivo ":4692,"odluka ":4693,"mnoge ":4694,"manje od ":4695,"pitanju ":4696,"jest ":4697,"kome ":4698,"korak ":4699,"le u ":4700,"slu&zcaron;":4701,"hrvatskom ":4702,"com":4703,"je\n":4704,"an.\n":4705,"nošen":4706,"vanje u ":4707,"cem ":4708,"oslo":4709,"ras ":4710,"real":4711,"sabor":4712,"o je da ":4713,"razini ":4714,"Nema ":4715,"196":4716,"škog ":4717,"Zagreba ":4718,"stvo.\n":4719,"Dne":4720,"gin":4721,"pan ":4722,"mon":4723,"toli":4724,". prosin":4725,"najveć":4726,"strane, ":4727,"tribi":4728,"uređa":4729,"vanje.\n":4730,"sjedi":4731,"Bran":4732,"danje ":4733,"vila ":4734,"kasni":4735,"zani":4736,"dvobo":4737,"mnogi":4738,"isti ":4739,"kla ":4740,"tkovi":4741,"ška ":4742,"son":4743,"otvara":4744,"je poče":4745,"67":4746,"letje":4747,"druži":4748,"najvaž":4749,"dok se ":4750,"Turu":4751,"informacije ":4752,"Alek":4753,"Je ":4754,"°C":4755,"jutro ":4756,"ksa":4757,"našim ":4758,"ljestvi":4759,"eura ":4760,"Bije":4761,"rano ":4762,"vele":4763,"kredi":4764,"trans":4765,"090":4766,"ponaš":4767,"zabilje":4768,"tom, ":4769,"mu se ":4770,"držati ":4771,"najboljih ":4772,"AN":4773,"nau":4774,"reni ":4775,"jam ":4776,"dobila ":4777,"od njih ":4778,"sigurnosti ":4779,"drugači":4780,"036":4781,"fek":4782,"crve":4783,"tima, ":4784,"sam":4785,"va je ":4786,"Pogledajte ":4787,"tjele":4788,"197":4789,"Ban":4790,"cha":4791,"okre":4792,"utvr":4793,"nije.\n":4794,"li za ":4795,"čio ":4796,"Zako":4797,"dijela ":4798,"Baby ":4799,"Dinamo":4800,"gan ":4801,"mana ":4802,"plano":4803,"redi":4804,"Medi":4805,"turiz":4806,"57":4807,"T ":4808,"edu":4809,"hoda":4810,"ll ":4811,"izvan":4812,"predi":4813,"ci u ":4814,"ri i ":4815,"žev":4816," [_":4817,"štva ":4818,"vrijednosti ":4819,"Hrvatskoj.\n":4820,"Bal":4821,"II":4822,"ch ":4823,"član":4824,"su od ":4825,"zom ":4826,"pa i ":4827,"i pol ":4828,"obitelj ":4829,"trebaju ":4830,"zemalja ":4831,"rija ":4832,"ti o ":4833,"lju, ":4834,"više nego ":4835,"veni ":4836,"unutar":4837,"inozem":4838,"58":4839,"91":4840,"fan":4841,"niza":4842,"tima.\n":4843,"ske.\n":4844,", a ne ":4845,"ljena ":4846,"tuž":4847,"tvrtka ":4848,"mi se ":4849,"autobu":4850,"proizvođa":4851,"the ":4852,"Tomislav ":4853,"bren":4854,"evo ":4855,"fu":4856,"na tere":4857,"ji i ":4858,"lju.\n":4859,"inače ":4860,"Župani":4861,"Is":4862,"sami":4863,"te li ":4864,"ke u ":4865,"nika u ":4866,"bjed":4867,"vicar":4868,"stiga":4869,"izbora ":4870,"večer ":4871,"nado":4872,"privla":4873,"dužnosni":4874,"Ministarstva ":4875,"988":4876,"nite ":4877,"tica":4878,"ciona":4879,"županije ":4880,"Riječ ":4881,"postati ":4882,"prvenstva ":4883,"pripremi":4884,"uglavnom ":4885,"nama, ":4886,"mali ":4887,"gol":4888,"cije za ":4889,"potrebe ":4890,"mislim ":4891,"sustava ":4892,"kapa":4893,"zaista ":4894,"vrnu":4895,"koriste ":4896,"hrvatska ":4897,"Tali":4898,"profeso":4899,"-u":4900,"jni ":4901,"ć\n":4902,"va&zcaron;":4903,"ti, ali ":4904,"kić ":4905,"meni ":4906,"nja i ":4907,"zbog toga ":4908,"rekla ":4909,"Loko":4910,"Sveuči":4911,"dže":4912,"s_":4913,"pola ":4914,"tuži":4915,"družen":4916,"znam ":4917,"mlade ":4918,"Andrej ":4919,"znanstve":4920,"automobila ":4921,"69":4922,"Nor":4923,"ka&zcaron;e ":4924,"270":4925,"kad se ":4926,"regional":4927," za ":4928,"nastaviti ":4929,"ju&cacute;i ":4930,"Bio je ":4931,"našu ":4932,"Ante ":4933,"početkom ":4934,"titu":4935,"jutro":4936,"koji je po":4937,"stom ":4938,"Ale":4939,"inova":4940,"rta":4941,"da ga ":4942,"Liva":4943,"upozora":4944,"lakše ":4945,"Wil":4946,"rata ":4947,"odvo":4948,"nomi":4949,"vara ":4950,"da &cacute;e ":4951,"tari":4952,"mo se ":4953,"življa":4954,"velikom ":4955,"britan":4956," godina, ":4957,"Izrael ":4958,"El":4959,"vri":4960,"wi":4961,"tom.\n":4962,"zu.\n":4963,"Koliko ":4964,"ljubav ":4965,"suradnji ":4966,"parlamentar":4967,"49":4968,"bano":4969,"uboj":4970,"ć: ":4971,"ćanja ":4972,"moli":4973,"veće ":4974,"toč":4975,"bom":4976,"broja ":4977,"artic":4978,"učini":4979,"četvrt":4980,"Izrae":4981,"strani ":4982,"ments":4983,"ze.\n":4984,"ostati ":4985,"Joh":4986,"Bor":4987,"har":4988,"španjol":4989,"da za ":4990,"ciji, ":4991,"kazala je ":4992,"u Zagrebu ":4993,"ju, a ":4994,"Mađar":4995,"kriminali":4996,"stva, ":4997,"Kopri":4998,"iskustvo ":4999,"htt":5000,"Gre":5001,"Ima ":5002,"uprave ":5003,"vaše ":5004,"zabio ":5005,"se o ":5006,"loj ":5007,"mjere ":5008,"žava ":5009,"cija za ":5010,"nakon toga ":5011,"manji":5012,"Ministarstvo ":5013,"dalmatin":5014,"05":5015,"Nji":5016,"Pau":5017,"osno":5018,"tički ":5019,"Sigu":5020,"Ja sam ":5021,"Yor":5022,"nikak":5023,"ti od ":5024,"pronaš":5025,"pa.\n":5026,"osni":5027,", posebno ":5028,"svakog ":5029,"našoj ":5030,"programa ":5031,"ne&cacute;e ":5032,"zira ":5033,"javnosti ":5034,"smješta":5035,"rješa":5036,"građana ":5037,"skupine ":5038,"donijeti ":5039,"66":5040,"tiča":5041,"ster ":5042,"računa":5043,"Donal":5044,"snom ":5045,"čano":5046,"po&ccaron;e":5047,"zakon":5048,"susret ":5049,"osvojio ":5050,"poduzetni":5051,"Je li ":5052,"-u.\n":5053,"om, ":5054,"ya":5055,"rake":5056,"vatre":5057,"dose":5058,"kuha":5059,"Vide":5060,"pokrenu":5061,"voz":5062,"zabora":5063,"lov":5064,"razlog ":5065,"želim ":5066,"ment ":5067,"svakako ":5068,"gdje se ":5069,"svemu ":5070,"s:protected]":5071,"ni, a ":5072,"pojedi":5073,"neko ":5074,"zamije":5075,"presta":5076,"cijele ":5077,"brodo":5078,"tivni ":5079,"Već ":5080,"obuhva":5081,"na o ":5082,"moje ":5083,"ruke ":5084,"vanje, ":5085,"cija u ":5086,"njihovu ":5087,"dvije godine ":5088,"torica ":5089,"pronaći ":5090,"građani ":5091,"vo.\n":5092,"ma, ali ":5093,"predsta":5094,"Taj ":5095,"svijet ":5096,"Mje":5097,"nase":5098,"nagla":5099,"ju s ":5100,"čina ":5101,"pravu ":5102,"tijelo ":5103,"150":5104,"okol":5105,"psiho":5106,"eksplo":5107,"US":5108,"Wi":5109,"oni":5110,"pros":5111,"zirati ":5112,"će i ":5113,"ku u ":5114,"drži ":5115,"mlađ":5116,"ozlje":5117,"Mario ":5118,"defini":5119," kazao je ":5120,"u do":5121,"ize":5122,"bori":5123,"bak":5124,"sigurnost ":5125,"nijeti ":5126,"Dinama ":5127,"&cacute;ete ":5128,"prvenstvu ":5129,"cioni":5130,"poginu":5131,"52":5132,"je pri":5133,"tivi":5134,"kine":5135,"anja u ":5136,"Mož":5137,"siječnja ":5138,"sor":5139,"sada je ":5140,"minima":5141,"sredstva ":5142,"Baby Lasag":5143,"jima.\n":5144,"ljetni":5145,"Toma":5146,"ekonom":5147,"kapaci":5148,"BC":5149,"dira":5150,"podne":5151,"thor":5152,"nadlež":5153,"ljudi.\n":5154,"raspolo":5155,"jučer ":5156,"da u":5157,"sastan":5158,"točno ":5159,"vjež":5160,"ceste ":5161,"Zadar":5162,"reprezentacije ":5163,"tenisa":5164,"Hercegovi":5165,"blizini ":5166,"zin":5167,"reci":5168,"na od ":5169,"noći ":5170,"s je ":5171,"mer":5172,"imate ":5173,"zbor":5174,"još jedan ":5175,"mediji ":5176,"iznimno ":5177,"Engle":5178,"imovi":5179,"sob":5180,"an, ":5181,"cijo":5182,"prosla":5183,"k od ":5184,"sustav":5185,"nom i ":5186,"Zato ":5187,"mur":5188,"muze":5189,"velikog ":5190,"slučaj ":5191,"smjeru ":5192,"supruga ":5193,"&dstrok;er ":5194,"razmišlja":5195,"plan ":5196,"juž":5197,"godina, ":5198,"mjestu":5199,"traže ":5200,"kao što je ":5201,"plaća":5202,"slu&ccaron;a":5203,"slije":5204,"svaka ":5205,"centar ":5206,"potpu":5207,"Marija ":5208,"film":5209,"psolu":5210,"130":5211,"Ser":5212,"lana ":5213,"kojoj ":5214,"daju ":5215,"inspi":5216,"velikih ":5217,"mlado":5218,"bez obzi":5219,"objavila ":5220,"va, a ":5221,"nepo":5222,"nevjeroja":5223,"graf":5224,"sti u ":5225,"Hrvatske.\n":5226,"države ":5227,"zemlja":5228,"tržiš":5229,"Mi smo ":5230,"New Yor":5231,"Tro":5232,"ta\n":5233,"zara":5234,"žava":5235,"195":5236,"Sara":5237,"mobite":5238,"budući ":5239,"\"O":5240,"//":5241,"75":5242,"ciji":5243,"engle":5244,"sabo":5245,"parkira":5246,"klub":5247,"teritori":5248,"isključi":5249,"IN":5250,"hu ":5251,"šen ":5252,"podijeli":5253,"dala ":5254,"obvez":5255,"godina.\n":5256,"pa se ":5257,"đenih ":5258,"Rado":5259,"koliko je ":5260,"Zagrebu ":5261,"otkrio ":5262,"poslova ":5263,"pjesmu ":5264,"o: \"":5265,"ugro":5266,"line ":5267,"licu ":5268,"vi na ":5269,"takve ":5270,"konkre":5271,"Dali":5272,"tko je ":5273,"svijeta ":5274,"Odlu":5275,"Mnogi ":5276,"maksima":5277,"For":5278,"nska ":5279,"ol":5280,"wa":5281,"rela":5282,"čiš":5283,"njegovim ":5284,"češće ":5285,"https":5286,"Igo":5287,"Lije":5288,"ati":5289,"u odnosu na ":5290,"pogodi":5291,"di, ":5292,"sporazu":5293,"ševi":5294,"Kada ":5295,"gled ":5296,"onaj ":5297,"vodio ":5298,"čenja ":5299,"kompani":5300,"RA":5301,"ta je ":5302,"plaća ":5303,"opskr":5304,"čko-":5305,"situaciju ":5306,"Imamo ":5307,"u utorak ":5308,"video ":5309,"epizod":5310,"Bli":5311,"Ist":5312,"jskoj ":5313,"spje":5314,"nik, ":5315,"dali ":5316,"Nacional":5317,"vodu ":5318,"Proš":5319,"Njiho":5320,"počin":5321,"potvrdi":5322,"vaš ":5323,"s u ":5324,"treći ":5325,"i op":5326,"klear":5327,"Lokomoti":5328,"y, ":5329,"poraz":5330,"obrane ":5331,"izgubio ":5332,"Mislim ":5333,"Sjever":5334,"Igra":5335,"ret":5336,"jak ":5337,"verzi":5338,"noć ":5339,"laž":5340,"ja sam ":5341,"pristup ":5342,"supar":5343,"n u ":5344,". ožuj":5345,"vi su ":5346,"naši ":5347," sati.\n":5348,"infla":5349,"skladu ":5350,"temperatura ":5351,"podršku ":5352,"Aleksan":5353,"da nije ":5354,"zabrinu":5355,"desti":5356,"vješti":5357,"eura.\n":5358,"prilično ":5359,"europskih ":5360,"Tik":5361,"Slobod":5362,"agresi":5363,"boda":5364,"fti":5365,"bitno ":5366,"papi":5367,"če.\n":5368,"čice ":5369,"ficira":5370,"sluša":5371,"Nove ":5372,"informacija ":5373,"njegovom ":5374,"većina ":5375,"uspio ":5376," ko":5377,"adre":5378,"sak ":5379,"pa, ":5380,"juće ":5381,"dubro":5382,"hoće li ":5383,"tivnih ":5384,"prošlog ":5385,"običaje":5386,"DV":5387,"nskog ":5388,"zbi":5389,"to ne ":5390,"čevi":5391,"konstruk":5392,"đenja ":5393,"izborima ":5394,"Petro":5395,"cijskih ":5396,"trenutak ":5397,"uzbu":5398,"fakulte":5399,"Stra":5400,"t]":5401,"zvati ":5402,"ške ":5403,"promo":5404,"puca":5405,"praz":5406,"la je i ":5407,"l i ":5408,"koja će ":5409,"uspjeli ":5410,"Budi":5411," posto, ":5412,"Dakle, ":5413,"Ljubav ":5414,"ustano":5415,"ba, ":5416,"predstavi":5417,"javlji":5418,"dvostru":5419,"u ovoj ":5420,"Austra":5421,"područja ":5422,"snogovor":5423,"dodje":5424,"uš":5425,"lige ":5426,"volje":5427,"iznosi ":5428,"mo na ":5429,"luk":5430,"kuhin":5431,"znatno ":5432,"drž":5433,"Rad":5434,"njezine ":5435,"done":5436,"prekinu":5437,"jednim ":5438,"pisu ":5439,"što bi ":5440,"djete":5441,"čuju ":5442,"stupnje":5443,"Hama":5444,"borbi ":5445,"Zelen":5446,"mlja":5447,"o&ccaron;e":5448,"ruske ":5449,"progla":5450,"lena ":5451,"pisa ":5452,"46":5453,"Kor":5454,"la\n":5455,"sati ":5456,"sutra ":5457,"gina":5458,"i obi":5459,"&ccaron;etiri ":5460,"odusta":5461,"At":5462,"pin":5463,"s\n":5464,"anjem ":5465,"došao ":5466,"obr":5467,"an i ":5468,"euro":5469,"ković, ":5470,"terna":5471,"Hajduka ":5472,"nastupa ":5473,"BiH ":5474,"umjesto ":5475,"ugovor ":5476,"izdan":5477,"izjedna":5478,"nuklear":5479,"de i ":5480,"gedi":5481,"đuje ":5482,"dolazi":5483,"natjeca":5484,"Nizo":5485,"tz":5486,"ški ":5487,"vari":5488,"voli":5489,"mag":5490,"veri":5491,"to da ":5492,"njena ":5493,"predlo":5494,"bude":5495,"javnog ":5496,"vratiti ":5497,"otkrila ":5498,"teške ":5499,"na kojoj ":5500,"Ljudi ":5501,"Pje":5502,"okupi":5503,"kaz ":5504,"tsku ":5505,"ske i ":5506,"usob":5507,"njegovo ":5508,"promjene ":5509,"Također, ":5510," m":5511,"Kod ":5512,"ulag":5513,"polovi":5514,"kamp":5515,"za.\n":5516,"prista":5517,"grama ":5518,"Gori":5519,"prostori":5520,"društvenim mrežama ":5521,"Istra":5522,"čni":5523,"rom":5524,"negdje ":5525,"sura":5526,"poslije ":5527,"Europe":5528,"pjesme ":5529,"ite":5530,"ovim ":5531,"sin ":5532,"je rekao ":5533,"masli":5534,"dobri":5535,"dosad ":5536,"izvu":5537,"stira":5538,"predsjednica ":5539,"Doma":5540,"građan":5541,"zahvaljujući ":5542,"TV ":5543,"osigu":5544,"of ":5545,"morati ":5546,"loše ":5547,"progno":5548,"od strane ":5549,"hvali":5550,"centru ":5551,"objavio je ":5552,"ideal":5553,"temelju ":5554,"novinar":5555,"izbjega":5556,"://":5557,"postig":5558,"jam":5559,"nepozna":5560,"stoga ":5561,"glas":5562,"zor ":5563,"Premi":5564,"Bez ":5565,"S druge ":5566,"interven":5567,".)":5568,"Cel":5569,"Ol":5570,"ured":5571,"kola":5572,"meni":5573,"ve na ":5574,"poslije":5575,"veliko ":5576,"u povijesti ":5577,"poznati":5578,"majka ":5579,"osjećaj ":5580,"posao ":5581,"Domovinskog ":5582,"Er":5583,"GA":5584,"Vuči":5585,"tić ":5586,"centra ":5587,"imeno":5588,"Hrvatskoj, ":5589,"TikTo":5590,"400":5591,"idu ":5592,"k, a ":5593,"ty ":5594,"u na ":5595,"noć":5596,"mala ":5597,"dođe ":5598,"sekto":5599,"On je ":5600,"vidio ":5601,"tisti":5602,"živi ":5603,"ki, ":5604,"temelj":5605,"CM":5606,"ale":5607,"aplika":5608,"dne ":5609,"zvan":5610,"š, ":5611,"bija":5612,"no u ":5613,"prikup":5614,", poli":5615,"igrači ":5616,"filmo":5617,"reprezentacija ":5618,"kazuje ":5619,"Char":5620,"uoči ":5621,"kontinu":5622,"bron":5623,"dž":5624,"nan":5625,"tara ":5626,"sata ":5627,"rijet":5628,"lu i ":5629,"&dstrok;u":5630," ()":5631,"društvo ":5632,"otiš":5633,"članovi ":5634," S":5635,"one":5636,"ulaz":5637,"zah":5638,"plas":5639,"Hrvatske, ":5640,"stoji u ":5641,". lipnja ":5642,"kriminalisti":5643,"eksplozi":5644,"Bre":5645,"Stru":5646,"sra":5647,"ljepo":5648,"širo":5649,"Hrvatske":5650,"njihovim ":5651,"dobre ":5652,"Izrael":5653,"vatrogas":5654," milijardi ":5655,"bespla":5656,"dubrova":5657,"jsku ":5658,"nju, ":5659,"sme":5660,"t\n":5661,"vnoj ":5662,"anke":5663,"razmje":5664,"strate":5665,"do sada ":5666,"stva i ":5667,"istom ":5668,"link":5669,"pobjede ":5670,"stabil":5671,"SS":5672,"fon":5673,"ocje":5674,"osumnji":5675,"vjed":5676,"pobolj":5677,"miri":5678,"staro":5679,"indi":5680,"jima, ":5681,"tsko ":5682,"sam se ":5683,"arhi":5684,"osje&cacute;a":5685,"Vjeru":5686,"54":5687,"htio ":5688,"mlji":5689,"skan":5690,"pri&ccaron;a":5691,"an je ":5692,"Jugo":5693,"Rijeke ":5694,"nedjelj":5695,"lištu ":5696,"različitih ":5697,".o":5698,"DO":5699,"Slu":5700,"okvi":5701,"ry ":5702,"yer":5703,"šnje":5704,"paro":5705,"mo da ":5706,"čić, ":5707,"koje će ":5708,"ostali ":5709,"klubu ":5710,"ovako ":5711,"pogoda":5712," minuta ":5713,"inicijati":5714,"Con":5715,"ction":5716,"m_":5717,"nica.\n":5718,"napre":5719,"pojavi":5720,"telja.\n":5721,"riječi":5722,"je potreb":5723,"događa ":5724,"igre ":5725," '":5726," zaključi":5727,"uve":5728,"o kako ":5729,"nice, ":5730,"siro":5731,"plasti":5732,"tvrde ":5733,"itle":5734,"Brazi":5735,"Sli":5736,"nju.\n":5737,"sh":5738,"s kojim ":5739,"trofe":5740,"obično ":5741,"smrti ":5742,"humani":5743,"elektro":5744,"A-":5745,"Ivica ":5746,"Kro":5747,"chi":5748,"far":5749,"s]":5750,"čana ":5751,"tira ":5752,"neovi":5753,"s kojima ":5754,"ima i ":5755,"Sad ":5756,"njihovih ":5757,"da bi se ":5758,"Iako je ":5759,"kategoriji ":5760,"žalost, ":5761,"article":5762," °C":5763,"tnije ":5764,"je \"":5765,"reda ":5766,"mo i ":5767,"vanje":5768,"traži ":5769,"Poče":5770,"snimi":5771,"sve do ":5772,"Split ":5773,"odnos ":5774,"Hi":5775,"Var":5776,"lori":5777,"propusti":5778,"proslavi":5779,"to su ":5780,"gostu":5781,"stiže ":5782,"ve za ":5783,"čeki":5784,"gama ":5785,"što će ":5786,"žila ":5787,"nijela ":5788,"Europskog ":5789,"CI":5790,"ugosti":5791,"umirovlje":5792,"jete ":5793,"novoj ":5794,"prolje":5795,"duho":5796,"najvi":5797,"nakon što su ":5798,"ciju i ":5799,"dvoje ":5800,"dan.\n":5801,"uspjeh ":5802,"brojni ":5803,"HDZ-o":5804,"Europi":5805,"zadnjih ":5806,"Mislim da ":5807,"košarka":5808,"43":5809,"gh":5810,"kolek":5811,"nakna":5812,"m se ":5813,"sasvim ":5814,"v za ":5815,"spomi":5816,"cija i ":5817,"festa":5818,"javnost ":5819,"vanja i ":5820,"Primora":5821,"grom":5822,"klima":5823,"prostor ":5824,"stvo, ":5825,"o:\n":5826,"se dogodi":5827,"prigod":5828,"Među ":5829,"jednako ":5830,"godinu dana ":5831,"razdoblju ":5832,"Dan ":5833,"štu":5834,"korup":5835,"inspek":5836,"od kojih ":5837,"traje ":5838,"Maj":5839,"trgova":5840,"proizvoda ":5841,"dovesti ":5842,"koristiti ":5843,"ovoga ":5844,"RE":5845,"jefti":5846,"pribli":5847,"derbi":5848,"c i ":5849,"li su iz ":5850,"Nova ":5851,"izaš":5852,"postaje ":5853,"programu ":5854,"samom ":5855,"dugoro":5856,"opo":5857,"simp":5858,"kuć":5859,"žić":5860,"želj":5861,"du i ":5862,"zbog čega ":5863,"na poče":5864,"kreativ":5865,"Qu":5866,"rlji":5867,"nić ":5868,"rene ":5869,"vina ":5870,"ted":5871,"sudjelu":5872,"ce u ":5873,"tako&dstrok;er ":5874,"Rusija ":5875,"bivšeg ":5876,"Riječ je o ":5877,"ote":5878,"nica, ":5879,"ca\n":5880,"ca, a ":5881,"dosadaš":5882,"propa":5883,"priprema ":5884,"obje":5885,"javlja ":5886,"nostima ":5887,"ženi ":5888,"sezonu ":5889,"očekuje ":5890,"zapovjedni":5891,"ginu":5892,"rijetko ":5893,"stupa ":5894,"gled":5895,"vlada ":5896,"slava ":5897,"nika i ":5898,"na kojima ":5899,"HDZ ":5900,"restora":5901,"han":5902,"sen ":5903,"ko.\n":5904,"kov ":5905,"niju ":5906,"recep":5907,"dovo":5908,"ša, ":5909,"men ":5910,"brojnim ":5911,"tisuće ":5912,"vrhu ":5913,"aka":5914,"klije":5915,"o, a ":5916,"vlja ":5917,"Ško":5918,"dopu":5919,"nih i ":5920,"traž":5921,"posred":5922,"broju ":5923,"-ak ":5924,"Europskom ":5925,"izbornik ":5926,"konačno ":5927,"Filip ":5928,"RIJ":5929,"k\n":5930,"ših ":5931,"neka":5932,"strada":5933,"kemi":5934,"Mosk":5935,"mrt":5936,"posljednji ":5937,"ekipa ":5938,"Festi":5939,"Također ":5940,"intervju":5941,"64":5942,"Spa":5943,"nik.\n":5944,"jati ":5945,"stupak ":5946,"ostavi":5947,"Damir ":5948,"formira":5949,"Jaki":5950,"Ange":5951,"vrijednost ":5952,"Trenu":5953,"priopći":5954,"detalj":5955,"Posljed":5956,"eduka":5957,"ukra":5958,"vdje ":5959,"roman":5960,"odgova":5961,"voli ":5962,"djelo ":5963,"zelen":5964,"cijeni":5965,"glavnog ":5966," bodova":5967,"Što se tiče ":5968,"Mer":5969,"ly ":5970,"volu":5971,"dok":5972,"izme&dstrok;u ":5973,"stala ":5974,"lestin":5975,"sur":5976,"o je da je ":5977,"nović ":5978,"minuta ":5979,"minira":5980,"&ccaron;ak ":5981,"beni ":5982,"ćenja ":5983,"roditelji ":5984,"došli ":5985,"fron":5986,"tost ":5987,"pet":5988,"filma ":5989,"istraživanje ":5990,"bolesti ":5991,"naslov ":5992,"oduševlje":5993,"u potpu":5994,"ovoj ":5995,"nae":5996,"tica ":5997,"lijepo ":5998,"sezoni ":5999,"Indi":6000,"susreta ":6001,"prijedlog ":6002,"legendar":6003,"Klu":6004,"Men":6005,"jno ":6006,"opor":6007,"ljeni ":6008,"anovi":6009,"krimina":6010,"ostale ":6011,"dijelom ":6012,"mom&ccaron;a":6013," milijuna eura.\n":6014,"omogući":6015,"Nizozem":6016,"Che":6017,"Jako ":6018,"Londo":6019,"e-":6020,"nior":6021,"nekog ":6022,"preci":6023,"to i ":6024,"kupu":6025,"ljeta ":6026,"znaju ":6027,", pogotovo ":6028,"jedino ":6029,"moguću":6030,"uspješno ":6031,"Brita":6032,"servi":6033,"fanta":6034,"tima":6035,"ne smi":6036,"veća ":6037,"zim":6038,"cesta":6039,"šao je ":6040,"Milo":6041,"je doš":6042,"zdravlje ":6043,"izvođa":6044,"mogućnosti ":6045,"Real Madri":6046,"u&ccaron;i":6047,"telja, ":6048,"tam":6049,"zadrža":6050,"prihod":6051,"ce\n":6052,"l u ":6053,"izazva":6054,"Nakon što je ":6055,"uključi":6056,"zvala ":6057,"Švicar":6058,"pake":6059,"suda ":6060,"&ccaron;ne ":6061,"li su u ":6062,") - ":6063,"životu ":6064,"zemlja ":6065,"SP":6066,"uskoro ":6067,"nome ":6068,"neku ":6069,"li da je ":6070,"doživje":6071,"stvar ":6072,"učiniti ":6073,"sank":6074,"Treba ":6075,"u kojoj je ":6076,"zajedno s ":6077,"nošću ":6078,"scipli":6079,"Af":6080,"ST":6081,"wit":6082,"šlja":6083,"ver ":6084,"prima":6085,"ke, a ":6086,"Osim toga, ":6087,"Jadranu ":6088,"službeno ":6089,"konferenciji ":6090,"MO":6091,"gli":6092,"domo":6093,"kupo":6094,"sve više ":6095,"favori":6096,"ljudi, ":6097,"HA":6098,"okrenu":6099,"zlije":6100,"č, ":6101,"rom.\n":6102,"m na ":6103,"veća":6104,"privu":6105,"galle":6106,"velik ":6107,") u ":6108,"lište ":6109," milijuna eura ":6110,"očekivan":6111,"nikom ":6112,"vija ":6113,"discipli":6114,"sina ":6115,"vraća":6116,"svaku ":6117,"svijeta.\n":6118,"grupe ":6119,"gallery":6120,"41":6121,"89":6122,"Gal":6123,"Tor":6124,"canje ":6125,"tanje ":6126,"lista ":6127,"prekra":6128,". kola ":6129,"prati ":6130,"Davo":6131,"Nogo":6132,"Bayer":6133,"janju ":6134,"samog ":6135,"fal":6136,"ostav":6137,"tpuno ":6138,"navod":6139,"listi ":6140,"da to ":6141,"da ih ":6142,"maši":6143,"sat ":6144,"i ove ":6145,"još jednom ":6146,"reprezentati":6147,"terapi":6148,"obeća":6149,"51":6150,"Kan":6151,"gli ":6152,"ir":6153,"obje ":6154,"nije u ":6155,"bez":6156,"koji je bio ":6157,"&ccaron;etvr":6158,"govorio ":6159,"ćenje ":6160,"lokalne ":6161,"Slavo":6162,"članova ":6163,"sjevero":6164,"Osta":6165,"ska.\n":6166,"bi, ":6167,"g i ":6168,"save":6169,"ruku ":6170,"miru ":6171,"meteo":6172,"smo se ":6173,"kazala ":6174,"Vatre":6175,"Međunarod":6176,"sudac ":6177,"susjed":6178,"redovito ":6179,"320":6180,"er ":6181,"rezer":6182,"moć ":6183,"vanjskih ":6184,"ca na ":6185,"ostala ":6186,"prvenstvo ":6187,"Dubrovnik ":6188,"iznos ":6189,"Mon":6190,"iste ":6191,"o od ":6192,"cifi":6193,"ljanju ":6194,"lom, ":6195,"znak ":6196,"Gat":6197,"LERIJ":6198,"izvješta":6199,"njegovoj ":6200,"GALERIJ":6201,"Fer":6202,"sruši":6203,"upi":6204,"čanje ":6205,"nice.\n":6206,"an za ":6207,"le na ":6208,"ković.\n":6209,"vanja u ":6210,"šta, ":6211,"probleme ":6212,"trenera ":6213,"...'\n":6214,"zatvore":6215,"njegovog ":6216,"On":6217,"apsolu":6218,"jne ":6219,"t_":6220,"tadaš":6221,"cilj":6222,"proved":6223,"ku, a ":6224,"&ccaron;kog ":6225,"ša.\n":6226,"vu i ":6227,"kreve":6228,"tjeca":6229,"ostao ":6230,"iga":6231,"naru":6232,"vač ":6233,"teži":6234,"jasni":6235,"ćima ":6236,"Radi ":6237,"Kore":6238,", osim ":6239,"postao ":6240,"smješte":6241,"HDZ-a ":6242,"zaštitu ":6243,"trud":6244,"manifesta":6245,". srpnja ":6246,"objašnjava ":6247,"120":6248,"53":6249,"Spo":6250,"Ta ":6251,"Tri":6252,"Unatoč ":6253,"ubije":6254,"nijim ":6255,"podrža":6256,"ruka":6257,"razno":6258,"šeće":6259,"mislim da ":6260,"stranka ":6261,". listopada ":6262,"Inače, ":6263,"je da je ":6264,"nila ":6265,"jača":6266,"davno ":6267,"tragedi":6268,"biti u ":6269,"blizu ":6270,"stanu ":6271,"hrvatskim ":6272,"državnog ":6273,"najveća ":6274," od ":6275," dana ":6276,"yja ":6277,"na, ali ":6278,"lici ":6279,"la od ":6280,"zi.\n":6281,"kući ":6282,"vrste ":6283,"ćena ":6284,"stavljanje ":6285,"onako ":6286,"njegovih ":6287,"Na kraju ":6288,"Vlada ":6289,"Lin":6290,"NK ":6291,"Tvr":6292,"atra":6293,"m, ali ":6294,"ćanje ":6295,"špi":6296,"izbaci":6297,"putu ":6298,"tak.\n":6299,"cijama, ":6300,"međusob":6301,"&cacute;e se ":6302,"parti":6303,", on ":6304,"Dubra":6305,"Njemačkoj ":6306,"Josipa ":6307,"izvanred":6308,"Stje":6309,"stvr":6310,"komisi":6311,"daje ":6312,"božić":6313,"sudu ":6314,"- kaže ":6315,"Nada":6316,"kojeg je ":6317,"Manche":6318,"Im":6319,"cho":6320,"naja":6321,"laga":6322,"ciljem ":6323,"čet":6324,"žili ":6325,"riječi ":6326,"ostaje ":6327,"prometne ":6328,"Gattu":6329,"Dar":6330,", i ":6331,"namir":6332,"vati.\n":6333,"logu ":6334,"proje":6335,"priori":6336,"ljene ":6337,"ljeno ":6338,"ju\n":6339,"čast ":6340,"straš":6341,"vratio ":6342,"formi":6343,"Jutar":6344,"Dubrova":6345,"mlije":6346,"sjed":6347,"u tom ":6348,"je ovo ":6349,"tvori":6350,"potpisa":6351,"Goran ":6352,"dobra ":6353,"europske ":6354,"RO":6355,"Stoga ":6356,"ala":6357,"te da je ":6358,"Mat":6359,"190":6360,"kvadra":6361,"milijun ":6362,"78":6363,"Ton":6364,"co ":6365,"radu ":6366,"nisti":6367,"doj":6368,"ma s ":6369,"&ccaron;ka ":6370,"treće ":6371,"ćeni":6372,"prednost ":6373,"ispita":6374,"pješa":6375,"ako se ":6376,"cijska ":6377,"napada ":6378,"Tele":6379,"skoj, ":6380,"trenutačno ":6381," meta":6382,"600":6383,"Title":6384,"tsko-":6385,"kovi ":6386,"vide ":6387,"ti su ":6388,"ruski ":6389,"stav ":6390,"d i ":6391,"vrsta ":6392,"otpa":6393,"pravlja":6394,"Ligi ":6395,"nositi ":6396,"telefo":6397,"natjecanja ":6398,"proces ":6399,"CO":6400,"Gar":6401,"Kos":6402,"tona ":6403,"šić, ":6404,"soli":6405,"pravila ":6406,"Fil":6407,"Varaždin ":6408,"vozač ":6409,"tržištu ":6410,"isključivo ":6411,"humanitar":6412,"UP":6413,"ćom ":6414,"dočeka":6415,"doista ":6416,"ri u ":6417,"Mal":6418,"Zahva":6419,"već u ":6420,"Budu":6421,"nagradu ":6422,"Hezbo":6423,"smatraju ":6424,"trašnjo":6425,"63":6426,"Ana ":6427,"of":6428,"t, a ":6429,"rasta ":6430,"nio":6431,"volim ":6432,"policije ":6433,"godišnjeg ":6434,"dolaze":6435,"glum":6436,"interesira":6437,"jedinstven":6438,"BA ":6439,"kove ":6440,"niste ":6441,"rice, ":6442,"vije ":6443,"nekom ":6444,"t ću ":6445,"vanja":6446,"sve to ":6447,"onda je ":6448,"ha.\n":6449,"nici su ":6450,"tijela ":6451,"slobodna":6452,"Com":6453,"potrebno ":6454,"lazak u ":6455,"Srp":6456,". kolovoza ":6457,"59":6458,"Kli":6459,"našem ":6460,"voka":6461,"desni":6462,"zerva":6463,"gleda ":6464,"tom i ":6465,"filmu ":6466,"stavljaju ":6467,"Križev":6468,"Valen":6469,"\".":6470,"Sun":6471,"nskih ":6472,"no, a ":6473,"valo ":6474,"zadar":6475,"se nije ":6476,"se može ":6477,"leri":6478,"&zcaron;i ":6479,"života.\n":6480,"navede":6481,"\" i \"":6482,"dalmacija":6483,"Sport ":6484,"Večer":6485,"Video":6486,"ela ":6487,"loda":6488,"{\"":6489,"niz":6490,"navodno ":6491,"invali":6492,"pala":6493,"kući":6494,"kao da ":6495,"još nije ":6496,"čin ":6497,"108":6498,"svijetu.\n":6499,"čeni ":6500,"slučaje":6501,"Euroson":6502,"dokumenta":6503,"RH ":6504,"Uvijek ":6505,"sc.\n":6506,"kop":6507,"rez":6508,"inde":6509,"pular":6510,"bavi ":6511,". siječnja ":6512,"zele":6513,"trgo":6514,"tako i ":6515," sati, ":6516,"susretu ":6517,"sumnje ":6518,"u kojem je ":6519,"upravlja":6520,"neugod":6521,"muškarac ":6522,"Saraje":6523,"Godi":6524,"nima.\n":6525,"naju":6526,"val ":6527,"ma: ":6528,"dila ":6529,"- rekla je ":6530,"vodo":6531,"ća na ":6532,"koja su ":6533,"194":6534,"nekoliko dana ":6535,"primjer ":6536,"Šiben":6537,"scenari":6538,"savršen":6539,"likop":6540,". travnja ":6541,"poklo":6542,"bili":6543,"izgra":6544,"ziva ":6545,"glasnogovor":6546,"Petra ":6547,"Juž":6548,"S obzirom na ":6549,"postoje ":6550,"kupiti ":6551,"građane ":6552," godine ":6553,"th ":6554,"rom, ":6555,"n za ":6556,"Net":6557,"pruža":6558,"bijedio ":6559,"najveće ":6560,"kaznenog ":6561,"različite ":6562,"značajno ":6563,"nastavku ":6564,"conta":6565,"strategi":6566,"61":6567,"Upravo ":6568,"žan":6569,"žen ":6570,"napla":6571,"odve":6572,"vice ":6573,"skre":6574,"bašti":6575,"&ccaron;in ":6576,"cesti ":6577,"New":6578,"njegovi ":6579,"Međi":6580,"nji li":6581,"ekstre":6582,"zgrade ":6583,"fantasti":6584,"Oli":6585,"Pan":6586,"Sch":6587,"Vra":6588,"stvu.\n":6589,"nima, ":6590,"odradi":6591,"ve&cacute;":6592,"info":6593,"suoča":6594,"cijskog ":6595,"je osvoji":6596,"odr&zcaron;a":6597,"europskim ":6598,"članica ":6599,"kombina":6600,"izuzetno ":6601,"-u, ":6602,"Obi":6603,"omilje":6604,"ss":6605,"voje ":6606,"doslo":6607,"&zcaron;u ":6608,"šiben":6609,"škola":6610,"klup":6611,"dobru ":6612,"čelnik ":6613,"produk":6614,"Modrić ":6615,"vjerujem ":6616,"EF":6617,"Mc":6618,"glji":6619,"posto ":6620,"and ":6621,"za, ":6622,"priče ":6623,"ce, a ":6624,"izbor ":6625,"sezone.\n":6626,"koju su ":6627,"predstavlja":6628,"financi":6629,"pravosu":6630,"zahtije":6631," rekao je.\n":6632,"š.\n":6633,"pona":6634,"oda ":6635,"preven":6636,"pristup":6637,"bio u ":6638," eura":6639,"događ":6640,"Njemač":6641,"vlasnik ":6642,"načelnik ":6643,"ispiti":6644,"\"}":6645,"Zvo":6646,"Či":6647,"rat ":6648,"nauči":6649,"kama":6650,". stolje":6651,"stože":6652,"čar ":6653,"razne ":6654,"anost ":6655,"ha, ":6656,"žup":6657,"sloven":6658,"speri":6659,"brojnih ":6660,"premijera ":6661,"psihi":6662,"even":6663,"nih":6664,"vima.\n":6665,"ti se ":6666,"mojte ":6667,"datu":6668,"pritom ":6669,"guž":6670,"me i ":6671,", pozna":6672,"državni ":6673,"Primor":6674,"najbolja ":6675,"transfe":6676,"Njemačko":6677,"korištenje ":6678,"platformi ":6679,"Ukrajini ":6680,"katastro":6681,"Willi":6682,"87":6683,"Gro":6684,"ići ":6685,"ustav":6686,"ponos":6687,"telja":6688,"zam ":6689,"preuzi":6690,"sred ":6691,"odigrao ":6692,"doći do ":6693,"smislu ":6694,"Ad":6695,"Are":6696,"oku":6697,"udar":6698,"raka ":6699,"ni\n":6700,"rok ":6701,"na - ":6702,"dogovori":6703,"dika":6704,"mog ":6705,"dama ":6706,"zima ":6707,"čić.\n":6708,"svoja ":6709,"im se ":6710,"re za ":6711,"ostalih ":6712,"Jedi":6713,"komp":6714,"itemImage":6715,"iskustva ":6716,"činjenica ":6717,"regula":6718,"dodije":6719," metara ":6720,"olak":6721,"sv.\n":6722,"i ne ":6723,"s (":6724,"ki.\n":6725,"kraljev":6726,"svjetskog ":6727,"Author":6728,"zaštite ":6729,"Drugi ":6730,"Nu":6731,"smo":6732,"č.\n":6733,"pogreš":6734,"vita":6735,"maso":6736,"mena":6737,"bolje":6738,"mjera ":6739,"stranici ":6740,"u polu":6741,"Dani":6742,"njihovo ":6743,"društva ":6744,"društvu ":6745,"otkriva ":6746,"grob":6747,"klih ":6748,"ozljede ":6749,"diploma":6750,"77":6751,"IV":6752,"Tak":6753,"č":6754,"igre":6755,"klan":6756,"kore":6757,"sad":6758,"min ":6759,"super":6760,"gađa":6761,"dru&ccaron;":6762,"najljep":6763,"še.\n":6764,"Kada je ":6765,"ke\n":6766,"igrao ":6767,"zu, ":6768,"feno":6769,"Rela":6770,"odlu&ccaron;i":6771,"vrijeme.\n":6772,"tri godine ":6773,"vremenom ":6774,"kinja ":6775,"Treba":6776,"događaja ":6777,"odlučio ":6778,"Općine ":6779,"Svaki ":6780,"reče":6781,"ode":6782,"doba ":6783,"s kojom ":6784,"te u":6785,"- kazao je ":6786,"prje":6787,"kratko ":6788,"geo":6789,"cijama.\n":6790,"ostalim ":6791,"stanju ":6792,"Pav":6793,"mogle ":6794,"ministra":6795,"prošli ":6796,"istra&zcaron;i":6797,"model ":6798,"nastavlja ":6799,"razvoja ":6800,"bez obzira na ":6801," stupnje":6802,"Sma":6803,"Umjesto ":6804,"tanja ":6805,"jem.\n":6806,"neg":6807,"male ":6808,"prof":6809,"priču ":6810,"j i ":6811,"padu ":6812,"Mami":6813,"takvih ":6814,"otprilike ":6815,"Bila je ":6816,"nice i ":6817,"varaž":6818,"održati ":6819,"građevin":6820,"Turudi":6821," sekun":6822,"afe":6823,"oprav":6824,"bi.\n":6825,"bolja ":6826,"te doda":6827,"seg":6828,"- doda":6829,"osvrnu":6830,"tražiti ":6831,"grmlja":6832,"Ova":6833,"kli ":6834,"otac ":6835,"yo":6836,"nalazi ":6837,"na (":6838,"teže ":6839,"njene ":6840,"nije bila ":6841,"ze, ":6842,"sa u ":6843,"prvaka.\n":6844,"smanju":6845,"okola":6846,". svibnja ":6847,"Manchester ":6848,"Ir":6849,"cke":6850,"ligi":6851,"moz":6852,"Naravno, ":6853,"Kara":6854,"mi smo ":6855,"cu i ":6856,"borbe ":6857,"promet ":6858,"nogometnog ":6859,"izvrš":6860,"slobodnadalmacija":6861,"-i":6862,"76":6863,"DJE":6864,"Vodi":6865,"bo ":6866,"popla":6867,"timi":6868,"gosti ":6869,"či, ":6870,"tu, a ":6871,"lo da ":6872,"cer":6873,"dr. ":6874,"da se radi o ":6875,"rekla":6876,"održivo":6877,"Rumun":6878,"pretpo":6879,"images":6880,"Ali":6881,"R ":6882,"jesen":6883,"gore ":6884,"jica ":6885,"snaga ":6886,"krš":6887,"postoje":6888,"razliku od ":6889,"šokira":6890,"suradnji s ":6891,"plasman ":6892,"este":6893,"učinkovi":6894,"Šo":6895,"la do ":6896,"tom":6897,"prisi":6898,"meha":6899,"sebe.\n":6900,"čito ":6901,"drže ":6902,"moram ":6903,"problemi":6904,"sportski ":6905,"Trumpo":6906,"itekako ":6907,"S druge strane, ":6908,"imu":6909,"šta.\n":6910,"visi":6911,"ti?\n":6912,"bal":6913,"trenut":6914,"dvori":6915,"podsje":6916,"Europe ":6917,"Kako je ":6918,"unato":6919,"organizaciji ":6920,"video":6921,"ekonomi":6922,"hing":6923,"u Splitu ":6924,"smanjenje ":6925,"motoci":6926,"-om ":6927,"71":6928,"hd_":6929,"snu":6930,"pomi":6931,"tati ":6932,"dio je ":6933,"more ":6934,"log":6935,"mice ":6936,"prolaz":6937,"čim ":6938,"vrše":6939,"peto":6940,"-a u ":6941,"mogu biti ":6942,"podne ":6943,"vremena.\n":6944,"dolara ":6945,"Prva ":6946,"Varaždinske ":6947,"Vol":6948,"istraživanja ":6949,"nastupa":6950,"G ":6951,"ds":6952,"y.\n":6953,"povu":6954,"lić, ":6955,"vani":6956,"tegor":6957,"dili ":6958,"znamo ":6959,"snima":6960,"Nikoli":6961,"Auto":6962,"državlja":6963,"ski, ":6964,"američki ":6965,"skupina ":6966,"promijeniti ":6967,"fak":6968,"i pre":6969,"prosti":6970,"r na ":6971,"putu":6972,"godine":6973,"nu za ":6974,"sve što ":6975,"javio ":6976,"zemlji ":6977,"com.\n":6978,"europski ":6979,"politički ":6980,"prihvatlji":6981,"želimo ":6982,"zdravstvene ":6983,"skladu s ":6984,"\"S":6985,"Ujedinje":6986,"olu":6987,"je iz ":6988,"oduze":6989,"vis":6990,"dopusti":6991,"dari":6992,"ca za ":6993,"trener":6994,"razvija":6995,"že.\n":6996,"\" - ":6997,"igraju ":6998,"li su i ":6999,"siguran ":7000,"&dstrok;a ":7001,"mjesto u ":7002,"objavila je ":7003,"prvenstven":7004,"bolnici ":7005,"zadnje ":7006,"riješiti ":7007,"sebice ":7008,"slobodnadalmacija.hr":7009,"250":7010,"NI":7011,"ugod":7012,"čvr":7013,"tite ":7014,"lum":7015,"što znači ":7016,"cesta ":7017,"osmi":7018,"tivnim ":7019,"ran.\n":7020,"već i ":7021,"ću i ":7022,"Slaven ":7023,"Njegova ":7024,"Zu":7025,"eg":7026,"nio je ":7027,"pouz":7028,"čije ":7029,"šao na ":7030,"cijelog ":7031,"pa su ":7032,"jedina ":7033,"utakmice.\n":7034,"land ":7035,"napadu ":7036,"mnog":7037,"Severi":7038,"natječa":7039,"izvor ":7040,"Amerikan":7041,"Republike Hrvatske ":7042," ali ":7043,"Dana ":7044,"Han":7045,"u za ":7046,"maš":7047,"bil":7048,"zasta":7049,"zadovo":7050,"provodi ":7051,"statisti":7052,"ing ":7053,"čević ":7054,"stoje ":7055,"ili su ":7056,"lazi na ":7057,"šenje ":7058,"većih ":7059,"Prvo ":7060,"večeras ":7061,"ozlijeđe":7062,"tvrtki ":7063,"Belgi":7064,"jsko ":7065,"lli":7066,"vnici ":7067,"lak ":7068,"mama ":7069,"pazi":7070,"te s ":7071,"že, ":7072,"šević ":7073,"voditelj ":7074,"prijatelja ":7075,"Europski ":7076,"specifi":7077,"samosta":7078,"skupini ":7079,"planira ":7080,"Igor ":7081,"nekadaš":7082,"Ara":7083,"v. ":7084,"pretje":7085,"pamet":7086,"deći ":7087,". velja":7088,"slike":7089,"ight":7090,"udara":7091,"visoke ":7092,"interes ":7093,"Željko ":7094,"Ide":7095,"Ona ":7096,"iste":7097,"lti":7098,"onoga ":7099,"Šved":7100,"raste ":7101,"ciklu":7102,"li ste ":7103,"loši":7104,"preva":7105,"in_":7106,"razinu ":7107,"ku na ":7108,"ljim ":7109,"snije":7110,"javni ":7111,"štetu ":7112,"život.\n":7113,"helikop":7114,"morao ":7115,"snagu ":7116,"pobjedu ":7117,"nezadovolj":7118,"Jedna ":7119,"odbora ":7120,"karakte":7121,"Očeku":7122,"can":7123,"kaž":7124,"magi":7125,"i uz ":7126,"nju i ":7127,"njihovi ":7128,"vojne ":7129,"boda ":7130,"Belu":7131,". godine, a ":7132,"otvori":7133,"elektra":7134,"Cilj ":7135,"kaže, ":7136,"okružen":7137,"jskim igra":7138,"blagdan":7139," /":7140,"ET":7141,"\\u":7142,"šanje ":7143,"jesu ":7144,"ranje":7145,"nada":7146,"rob":7147,"odgovo":7148,"vima, ":7149,"j u ":7150,"dječa":7151,"optere":7152,"&cacute;e biti ":7153,"vanje i ":7154,"doga&dstrok;a":7155,"čane ":7156,"čani ":7157,"politike ":7158,"Veliki ":7159,"-godišnjak ":7160,"elemen":7161,"Jedan od ":7162,"Ali, ":7163,"oči ":7164,"rski ":7165,"udruge ":7166,"vale ":7167,"vajte ":7168,"tad ":7169,"ku\n":7170,"ministri":7171,"pravo na ":7172,"je dobio ":7173,"borbu ":7174,"političke ":7175,"knjige ":7176,"navijača ":7177,"nogometne ":7178,"obožava":7179,"Velika ":7180,"većinom ":7181,"Njegov ":7182,"pisuje ":7183,"Koprivni":7184,"Međimur":7185,"Zrin":7186,"onima ":7187,"oglasi":7188,"tno":7189,"odnosi":7190,"vid":7191,"li o ":7192,"ka od ":7193,"selje":7194,"jom, ":7195,"razgova":7196,"cijelo ":7197,"anović ":7198,"nas je ":7199,"Vik":7200,"skupšti":7201,"vlasništvu ":7202,"duboko ":7203,"u potpunosti ":7204,"Uprav":7205,"ly":7206,"vci ":7207,"površi":7208,"pošto":7209,"tine ":7210,"zauze":7211,"propu":7212,"met ":7213,", au":7214,"koje bi ":7215,"takva ":7216,"kreće ":7217,"je poli":7218,"vrijeme, ":7219,"dolazak ":7220,"udarac ":7221,"američke ":7222,"podacima ":7223,"automobil ":7224,"blago":7225,"priopćenju ":7226,"Ex":7227,"Plu":7228,"Tho":7229,"Ču":7230,"mo&zcaron;":7231,"mikro":7232,"jedva ":7233,"sig":7234,"ka s ":7235,"ziv ":7236,"čem ":7237,"stoja":7238,"duze":7239,"ordina":7240,"vijeća ":7241,"spon":7242,"koncentra":7243,"miješa":7244,"izbori ":7245,"ministra ":7246,"poziv ":7247,"funkcionira":7248,"prepoznatlji":7249,"uzroko":7250,"komplek":7251,"Was":7252,"cy":7253,"nskom ":7254,"naf":7255,"rović ":7256,"lija ":7257,"liste ":7258,"se od ":7259,"jutar":7260,"ca je ":7261,"raznih ":7262,"i poče":7263,"i oni ":7264,"manju ":7265,"policaj":7266,"početak ":7267,"sljedeće ":7268,"iznosu od ":7269,"emisiji ":7270,"Robert ":7271,"hr":7272,"mra":7273,"stvima ":7274,"kota":7275,"pogleda":7276,"vili ":7277,"nemi":7278,"doja":7279,"div":7280,"dima ":7281,"la su ":7282,"izrav":7283,"ljeto ":7284,"Zanimlji":7285,"kontek":7286,"Rafa":7287,"kad su ":7288,"u Srbi":7289,"spaša":7290,"reprezentativ":7291,"odgovornost ":7292,"istinu ":7293,"zaustavi":7294,"Berli":7295,"MA":7296,"Mor":7297,"Uprave ":7298,"jo ":7299,"omoguću":7300,"war":7301,"zbu":7302,"štraj":7303,"nara":7304,"postro":7305,"va\n":7306,"vater":7307,"stići ":7308,"čelu ":7309,"nije i ":7310,"tijeku ":7311,"loptu ":7312,"razdoblje ":7313,"smanjiti ":7314,"spriječi":7315,"simpto":7316,"Galle":7317," izjavio je ":7318,"98":7319,"Adri":7320,"Jen":7321,"bija ":7322,"golom ":7323,"nih u ":7324,"posloda":7325,"stranih ":7326,"mu i ":7327,"manji ":7328,"štan":7329,"kazati ":7330,"&dstrok;i":7331,"svjetski ":7332,"važnost ":7333,"To su ":7334,"kazuju ":7335,"zapošlja":7336,"razvoju ":7337,"lski ":7338,"ys":7339,"zgod":7340,", koji je ":7341,"kami":7342,"tema ":7343,"tama ":7344,"se za":7345,"iznaj":7346,"s druge ":7347,"dera":7348,"Posao ":7349,"Miha":7350,"više ne ":7351,"tnik ":7352,"Bide":7353,"Biden ":7354,"pet godina ":7355,"kakvu ":7356,"državne ":7357,"Podrav":7358,"koncert ":7359,"param":7360,"zvijezda ":7361," koše":7362,"028":7363,"Ak":7364,"Kur":7365,"gle ":7366,"rama ":7367,"enzi":7368,"dom, ":7369,"lom.\n":7370,"legi":7371,"zija ":7372,"bama ":7373,"žive ":7374,"nije mogao ":7375,"posjed":7376,"plaće ":7377,"Bož":7378,"njihovom ":7379,"Bero":7380,"proteklih ":7381,"kakva ":7382,"kladno ":7383,"-godišnjeg ":7384,"sredstava ":7385,"nesreće ":7386,"dinami":7387,"USKO":7388," objasni":7389," https":7390,"62":7391,"PU ":7392,"svr":7393,"snoj ":7394,"upisa":7395,", koji ":7396,"laže ":7397,"dom.\n":7398,"ve&ccaron;e":7399,", a to ":7400,"nu od ":7401,"razgovoru ":7402,"najnovi":7403,"krat":7404,"službe ":7405,"com, ":7406,"kandidatkin":7407,"Alba":7408,"serije ":7409,"različitim ":7410,"temperature ":7411,"obitelji.\n":7412,"luksuz":7413,"meteoro":7414,"Kije":7415,"žni ":7416,"tina ":7417,"vole ":7418,"caja":7419,"skra":7420,"s nji":7421,"gola ":7422,"spored":7423,"nje u ":7424,"tvrdio ":7425,"nam se ":7426,"komple":7427,"đuju ":7428,"mreže ":7429,"-godišnja ":7430,"poraza ":7431,"društvenih ":7432,"budućnosti ":7433,"kapetan ":7434,"City ":7435,"destina":7436,"preciz":7437,"280":7438,"Kru":7439,"M ":7440,"voz ":7441,"neobi":7442,"sak":7443,"t ćete ":7444,"što je po":7445,"Mili":7446,"koja je u ":7447,"ćene ":7448,"gradske ":7449,"projekti":7450,"dogodilo ":7451,"skladi":7452,".hr.\n":7453,"prince":7454,"Otkri":7455,"ternati":7456,"kontinuira":7457,"227":7458,"Hvala ":7459,"Kristi":7460,"PS":7461,"kta":7462,"nicom ":7463,"nama":7464,"doba":7465,"ne treba ":7466,"o je kako ":7467,", a za ":7468,"osvje":7469,"nakon čega ":7470,"ska i ":7471,"Libano":7472,"Juri":7473,"ljudi koji ":7474,"krugu ":7475,"poruku ":7476,"zajednice ":7477,"skoj.\n":7478,"ovdje":7479,"prilago":7480,". rujna ":7481,"Zakona o ":7482,"Talijan":7483,"tegory":7484,"Washing":7485,"dvoj":7486,"šoj ":7487,", dok ":7488,"namije":7489,"navode ":7490,"kari":7491,"tiš":7492,"toga":7493,"orke":7494,"Petar ":7495," sati u ":7496,"imena ":7497,"domaće ":7498,"vidjeli ":7499,"prvak ":7500,"bacio ":7501,"vodeći ":7502,"ne znam ":7503,"problema s ":7504,"Gran":7505,"Utakmi":7506,"jem, ":7507,"zakon ":7508,"bolo":7509,"sve je ":7510,"halji":7511,"But":7512,"detalje ":7513,"svakodnevno ":7514,"prosvjed":7515,"Chi":7516,"opora":7517,"zvali ":7518,"rani ":7519,"nili ":7520,"da ćemo ":7521,"zaosta":7522,"donio ":7523,"les ":7524,"pišu ":7525,"mentira":7526,"koja bi ":7527,"\" (":7528,"škola ":7529,"morate ":7530,"domać":7531,"147":7532,"registri":7533,"organizacije ":7534,"očekivati ":7535,"angaži":7536,". prosinca ":7537,"DH":7538,"Lje":7539,"Sal":7540,"Sjedinje":7541,"uhva":7542,"škovi":7543,"nal ":7544,"maju ":7545,"run":7546,"zi, ":7547,"ke na ":7548,"- napisa":7549,"Mac":7550,"vijeć":7551,"skupa ":7552,"izbore ":7553,"Taj":7554,"promjena ":7555,"izgubila ":7556,"razine ":7557,"nadokna":7558,"Sveučilišta ":7559,"'s ":7560,"il ":7561,"pti":7562,"vski ":7563,"na: ":7564,"dite ":7565,"savjetni":7566,"baz":7567,"ljevi":7568,"Bilo ":7569,"Vele":7570,"sveuči":7571,"osobno ":7572,"situacije ":7573,"ističu ":7574,"europskog ":7575,"radova ":7576,"na početku ":7577,"uma":7578,"rima.\n":7579,"tine":7580,"saj":7581,"kuli":7582,"audi":7583,"Novo":7584,"godišnja ":7585,"ste, ":7586,"sno o ":7587,"loške ":7588,"majsto":7589,"rasporedu ":7590,"porez":7591,"liječni":7592,"pažnju ":7593,"osigurati ":7594,"56":7595,"DI":7596,"Isu":7597,"Top":7598,"crije":7599,"utorak ":7600,"u pri":7601,"repor":7602,"taba":7603,"cima i ":7604,"skinu":7605,"zat":7606,"dakle ":7607,"gura":7608,"kako biste ":7609,"gim":7610,"ćeva ":7611,"vodstvo ":7612,"de za ":7613,"odabi":7614,"liječen":7615,"Moj ":7616,"poznati ":7617,". minuti.\n":7618,"Instagram ":7619,"položa":7620,"dr. sc.\n":7621,"Cu":7622,"fondo":7623,"čno.\n":7624,"Đo":7625,"jem":7626,"nih, ":7627,"zainteresira":7628,"doživlja":7629,"boksa":7630,"ka iz ":7631,"suge":7632,"kao \"":7633,"glas ":7634,"lu u ":7635,"đenim ":7636,"da će biti ":7637,"Hrvatskom ":7638,"prilika ":7639," eura, a ":7640,"čene ":7641,"došlo do ":7642,"političa":7643,"utjecaj ":7644,"komuna":7645,"naveden":7646,"vođenje ":7647,"OVDJE":7648,"pljusko":7649,"EN":7650,"Reu":7651,"so ":7652,"t-":7653,"tno, ":7654,"valj":7655,"laz ":7656,"neo":7657,"vena ":7658,"baj":7659,"cijela ":7660,"da se u ":7661,"tvrd":7662,"lja i ":7663,"Proble":7664,"ste.\n":7665,"sezona ":7666,"je završi":7667,"Sil":7668,"bolnice ":7669,"transpa":7670,"suprug ":7671,"području ":7672,"više.\n":7673,"grija":7674,"građanima ":7675,"Martin ":7676,"slijedi ":7677,"spješ":7678,"reprezentativac ":7679,"Grbi":7680,"dd":7681,"i, ":7682,"ugovo":7683,"naći ":7684,"rip":7685,"limo ":7686,"da \"":7687,"to u ":7688,". godini ":7689,"znači":7690,"raznim ":7691,"razoča":7692,"trag ":7693,"nosti po":7694,"prvim ":7695,"anje u ":7696,"de u ":7697,"kriv":7698,"morali ":7699,"Jer ":7700,"u SAD":7701,"novca ":7702,"krenuo ":7703,"Ne znam ":7704,"kandidata ":7705,"Varaždin":7706,"itemRela":7707,"suradnju ":7708,"cijski službe":7709,"jedinstve":7710,"pokazuje ":7711,"Croati":7712,"itemRelated":7713,"99":7714,"Glu":7715,"ujedno ":7716,"to što ":7717,"&ccaron;kom ":7718,"jom.\n":7719,"tra&zcaron;i":7720,"Naša ":7721,"troša":7722,"austri":7723,"počeo ":7724,"društvene ":7725,"dan, ":7726,"osjetlji":7727,"postala ":7728,"situaciji ":7729,"tinj":7730,"mora biti ":7731,"Ministar ":7732,"Policijske ":7733,"osvaja":7734,"\"Po":7735,"Lau":7736,"Ur":7737,"Udruge ":7738,"mski ":7739,"rne ":7740,"menad":7741,"va s ":7742,"cija je ":7743,"krivlje":7744,"&cacute;em ":7745,"162":7746,"račun ":7747,"vatrogasa":7748,"683":7749,"Geor":7750,"V ":7751,"li, a ":7752,"palestin":7753,"obljetni":7754,"njeno ":7755,"stoje":7756,"djeci ":7757,"tra.\n":7758,"Zadar ":7759,"plaka":7760,"tivna ":7761,"i oko ":7762,"centri":7763,"čano ":7764,"kazneno ":7765,"njezinu ":7766,"potroša":7767,"poljoprivred":7768,"dovesti do ":7769,"Isto ":7770,"lla":7771,"pto":7772,"rastu":7773,"potom ":7774,"anu ":7775,"vec ":7776,"pak":7777,"t s ":7778,"o je za ":7779,"&ccaron;kih ":7780,"stop":7781,"ri su ":7782,"šić.\n":7783,"kratko":7784,"Nadam ":7785,"takvim ":7786,"ran, ":7787,"javne ":7788,"Pena":7789,"vozilo ":7790,"veden ":7791,"269":7792,"iduće ":7793,"impresi":7794,"854":7795,"bicikli":7796,"tabase":7797,"427":7798,"IC":7799,"pokri":7800,"procije":7801,"tome, ":7802,"pe.\n":7803,"&cacute;u":7804,"najčešće ":7805,"U tom ":7806,"Raki":7807,"svako ":7808,"medija ":7809,"pomoć":7810,"prometni":7811,"zadnji ":7812,"Živo":7813,"OŠ":7814,"danja ":7815,"fano":7816,"poni":7817,"cama, ":7818,"promatra":7819,"kućan":7820,"peti":7821,"djece.\n":7822,"kom i ":7823,"ge i ":7824,"štiti ":7825,"vrijeme":7826,"obavješta":7827,"nesreća ":7828,"odlično ":7829,"emocional":7830,"Olimpijskim igra":7831,"MZ":7832,"ć":7833,"emi":7834,"korije":7835,"vača ":7836,"tex":7837,"nekoga ":7838,"kula":7839,"nu, a ":7840,"tragi":7841,"platiti ":7842,"slavi ":7843,"javnom ":7844,"brzo":7845,"njihovoj ":7846,"karijere ":7847,"poreme":7848,"govori o ":7849,"upozori":7850,"glumica ":7851,"tsko-dalmatin":7852,"unatoč ":7853,"Ele":7854,"Gri":7855,"Oni su ":7856,"Sha":7857,"canja ":7858,"i naj":7859,"u svom ":7860,"je sve ":7861,"rova ":7862,"dow":7863,"miši":7864,"tova ":7865,"dalje.\n":7866,"r (":7867,"gram ":7868,"luen":7869,"njeni ":7870,"Maro":7871,"žem ":7872,"isprav":7873,"Bivši ":7874,"aktivi":7875,"rekli ":7876,"šenja ":7877,"Teško ":7878,"fotografije ":7879,"pripreme ":7880,"Općin":7881,"nogometni ":7882,"administra":7883,"Vladimir ":7884,"Dobi":7885,"Rima":7886,"Rus":7887,"eska":7888,"gnosti":7889,"hor":7890,"uobičaje":7891,"je: \"":7892,"rava ":7893,"stvu, ":7894,"košta":7895,"nai":7896,"poko":7897,"veden":7898,"no za ":7899,"pratiti ":7900,"nom u ":7901,"ci za ":7902,"kako bismo ":7903,"nim i ":7904,"ste li ":7905,"Bit će ":7906,"Kola":7907,"kupno ":7908," sati na ":7909,"nastavak ":7910,"Australi":7911," ili ":7912,"' i ":7913,"HR":7914,"es":7915,"snost ":7916,"nikakve ":7917,"nekako ":7918,"stojan":7919,"trenira":7920,"fir":7921,"prije svega ":7922,"sezone, ":7923,"čeno ":7924,"Nakon toga ":7925,"prostoru ":7926,"savjeto":7927,"zato što ":7928,"žalost ":7929,"realiza":7930,"Putin ":7931,"definitivno ":7932," g ":7933,"800":7934,"ER":7935,"azi":7936,"čokola":7937,"nima":7938,"republi":7939,"tamo":7940,"presti":7941,"skoči":7942,"ljenje ":7943,"kao što ":7944,"hoto":7945,"imao je ":7946,"šef ":7947,"da se ne ":7948,"hrvatskoj ":7949,"&ccaron;el":7950,"&ccaron;eka":7951,"Primje":7952,"pandemi":7953,"rezultati ":7954,"Lovr":7955,"Drugo":7956,"utjecati na ":7957,"marke":7958,"shvati":7959,", a potom ":7960,"ravnote":7961,"Zdravlje ":7962,"transparen":7963,"Gle":7964,"Wal":7965,"blji":7966,"ilega":7967,"ci, a ":7968,"dogovo":7969,"no što ":7970,"debi":7971,"kedo":7972,"lani ":7973,"da su se ":7974,"žuje ":7975,"je oko ":7976,"Andri":7977,"važan ":7978,"domaći ":7979,"četiri godine ":7980,"poslao ":7981,"Glavni ":7982,"obliku ":7983,"mnogim ":7984,"Dvo":7985,"Isto":7986,"Mr":7987,"OCM":7988,"glo":7989,"ujutro ":7990,"čno, ":7991,"potaknu":7992,"kapita":7993,"dobr":7994,"ja s ":7995,"&ccaron;ni ":7996,"njega.\n":7997,"du&zcaron;":7998,"djetinj":7999,"hom ":8000,"Pozna":8001,"koja je po":8002,"Nismo ":8003,"vojska ":8004,"rekao da ":8005,"uvjetima ":8006,"kandidatu":8007,"Crk":8008,"seriji ":8009,"Šibenik ":8010,"Norve":8011,"Serge":8012," J":8013,"432":8014,"nice":8015,"sam, ":8016,"s ciljem ":8017,"vi za ":8018,"rije.\n":8019,"še, ":8020,"kriteri":8021,"rekla je.\n":8022,"dana u ":8023,"hrvatsku ":8024,"uspjela ":8025,"pruža ":8026,"Goo":8027,".hr ":8028,"Zorana ":8029,"Instagramu ":8030,"klijen":8031,"!'\n":8032,"814":8033,"Dodi":8034,"shi":8035,"size":8036,"viden":8037,"kali":8038,"bit":8039,"vere":8040,"satima ":8041,"čija ":8042,"ga za ":8043,"vani ":8044,"bi u ":8045,"la je na ":8046,"Miro":8047,"ru za ":8048,"ostalo ":8049,"dodao ":8050,"Na pitanje ":8051,"svjesni ":8052,"če na ":8053,"većanje ":8054,"rezultate ":8055,"terenu ":8056,"cjelo":8057,"izgubili ":8058,"Muš":8059,"budućnost ":8060,"am ":8061,"navečer ":8062,"rite ":8063,"title":8064,"tera ":8065,"te, a ":8066,"neposred":8067,"la iz ":8068,"proći ":8069,"sima ":8070,"pu.\n":8071,"čega je ":8072,"&cacute; i ":8073,"l je ":8074,"\" na ":8075,"svatko ":8076,"je uvijek ":8077,"domaćih ":8078,"eksperi":8079,"napravio ":8080,"uključujući ":8081,"izbornoj ":8082,"spektak":8083," poručio je ":8084,"Vjerujem ":8085,"611":8086,"teža":8087,"zalju":8088,"ve, a ":8089,"stara ":8090,"pić ":8091,"ževa":8092,"otpor":8093,"stavljen ":8094,"više nije ":8095,"Sada ":8096,"je on ":8097,"centi":8098,"hrane ":8099,"vam je ":8100,"dobio je ":8101,"na oto":8102,"Britan":8103,"istin":8104,"migran":8105,"Reuter":8106,"010":8107,"72":8108,"Fra":8109,"NA ":8110,"Van":8111,"gana ":8112,"utvrdi":8113,"znu":8114,"nov ":8115,"vil":8116,"kao":8117,"bit ":8118,"din ":8119,"provodi":8120,"priprem":8121,"pala ":8122,"te da se ":8123,". kolu ":8124,"koji nisu ":8125,"ćem, ":8126,"cijeloj ":8127,"plati":8128,"vlast ":8129,"igrači":8130,"Raspu":8131,"Može ":8132,"ciju u ":8133,"Petri":8134,"dane ":8135,"ša i ":8136,"kompli":8137,"perspek":8138,". godine u ":8139,"američkog ":8140,"ovisi ":8141,"plesa":8142,"stariji ":8143,"pokazuju ":8144,"prilagod":8145,"kontinen":8146," napisao je ":8147,"varaždin":8148,"-ih ":8149,"rgi":8150,"čno":8151,"nalazi":8152,"vazi":8153,"moru ":8154,"boje ":8155,"strateš":8156,"prednosti ":8157,"ska u ":8158,"Marka ":8159,"nijeg ":8160,"ćeni ":8161,"određene ":8162,"Ukrajina ":8163,"SDP-a ":8164,"rizik od ":8165,"scrip":8166,"kapacite":8167,"arhitek":8168,"GALERIJA ":8169,"Dor":8170,"Osje":8171,"Uz":8172,"ekra":8173,"fra":8174,"upora":8175,"a u ":8176,", odnosno ":8177,"nija":8178,"ti - ":8179,"sku po":8180,"dokaz":8181,"za vrijeme ":8182,"ni sud ":8183,"suđen":8184,"eura, ":8185,"slabi":8186,"&ccaron;esto ":8187,"Projek":8188,"koji su se ":8189,"borba ":8190,"ski.\n":8191,"fotografiju ":8192,"Slova":8193,"karijeri ":8194,"karijeru ":8195,"podatke ":8196,"bivša ":8197,"zane":8198,"Davor ":8199,"74":8200,"BC ":8201,"Cha":8202,"Dva ":8203,"Ira":8204,"Stan":8205,"niji, ":8206,"počini":8207,"postupak ":8208,"vede":8209,"same ":8210,"prepu":8211,"to vrijeme ":8212,"ni od ":8213,"najpoznati":8214,"sa svojom ":8215,"cije na ":8216,"tirao ":8217,"zračne ":8218,"nekoliko godina ":8219,"vam se ":8220,"Ako se ":8221,"knjiž":8222,"više, ":8223,"sukoba ":8224,"voda za ":8225,"Moramo ":8226,"Andrej Plenković ":8227,"Radi se o ":8228,"As":8229,"sle":8230,"ć, a ":8231,"sti po":8232,"kosti":8233,"nički ":8234,"rima, ":8235,"tal":8236,"malih ":8237,"veću ":8238,"da, a ":8239,"gole":8240,"infek":8241,"pije":8242,"pilo":8243,"kuje ":8244,"bana":8245,"Naš ":8246,"Pokuša":8247,"dodatne ":8248,"na pozor":8249,"radnika ":8250,"metaši ":8251,"vremena, ":8252,"spava":8253,"kandidat ":8254,"spremni ":8255,"iako je ":8256,"Andreja ":8257,"tjelesne ":8258,"zaboravi":8259,"Gallery":8260,"J ":8261,"Tim ":8262,"ks":8263,"opisa":8264,"je: ":8265,"stje":8266,"refor":8267,"limu":8268,"kafi":8269,"se da je ":8270,"proglasi":8271,"želio ":8272,"stranicama ":8273,"ća\n":8274,"nik u ":8275,"zemlju ":8276,"Europska ":8277,"posljednja ":8278,"prostora ":8279,"smija":8280,"prodaju ":8281,"uključuje ":8282,"&cacute;a.\n":8283,"izgradnju ":8284,"transforma":8285,"Primorac ":8286,"slobodnadalmacija.hr/":8287," te ":8288,"avan":8289,"škom ":8290,"na&ccaron;in ":8291,"na koji ":8292,"da mu ":8293,"stambe":8294,"bavi":8295,"Kate ":8296,"takvu ":8297,"stvara ":8298,"kazališ":8299," sata ":8300,"osjeti":8301,"domaći":8302,"rezultatom ":8303,"jednom trenutku ":8304,"partner":8305,"Dragan ":8306,"bogat":8307,"kulture ":8308,"Domovinski ":8309,"posljedica ":8310,"zemljama ":8311,"KBC":8312,"ogla":8313,"oču":8314,"svu ":8315,"um ":8316,"stvu":8317,"rija":8318,"prisje":8319,"čena ":8320,"obnov":8321,"num_":8322,"&ccaron;ku ":8323,"pe, ":8324,"Posebno ":8325,"vlači":8326,"lansira":8327,"istoj ":8328,"se pojavi":8329,"ideo":8330,"Hrvatske i ":8331,"stigla ":8332,"temelji":8333,"pjesma ":8334,"Kraljev":8335,"origina":8336,"nikada nije ":8337,"Kreši":8338,"LA":8339,"je - ":8340,"nama i ":8341,"ruskog ":8342,"invazi":8343,". na ":8344,"kiš":8345,"šali":8346,", ali ne ":8347,"Kak":8348,"vlašte":8349,"velikoj ":8350,"samo na ":8351,"&dstrok;e ":8352,"uzvra":8353,"Rujevi":8354,"Marin ":8355,"ljubavi ":8356,"utjecajem ":8357,"vidimo ":8358,"strijelac ":8359,"Wid":8360,"& ":8361,"Em":8362,"mske ":8363,"ogrom":8364,"jedana":8365,"nastup ":8366,"rezo":8367,"odred":8368,"tion ":8369,"teori":8370,"bit &cacute;e ":8371,"nude ":8372,"živio ":8373,"&cacute; (":8374,"znanja ":8375,"trajek":8376,"riječima ":8377,"multi":8378,", pod":8379,"nego u ":8380,"počela ":8381,"ražen ":8382,"kvalitetu ":8383,"Njemačka ":8384,"razumi":8385,"javljuje ":8386,"ostvariti ":8387,"avio":8388,") po":8389,"Isti":8390,"Kona":8391,"Ronal":8392,"tpo":8393,"rato":8394,"nadi":8395,"zatraži":8396,"donosi":8397,"priklju":8398,"kuću ":8399,"&ccaron;koj ":8400,"ćev ":8401,"je pozna":8402,"sjeda":8403,"Niko":8404,"David ":8405,"može se ":8406,"fazi ":8407,"umjet":8408,"srednjo":8409,"proizvodnju ":8410,"napravili ":8411,"koncep":8412,"iskre":8413,"središtu ":8414,"ono što je ":8415,"pobjedom ":8416,"Harris ":8417,"tjedana ":8418,"ekstrem":8419,"Width":8420," ljudi ":8421," piše ":8422,"95":8423,"947":8424,"Kne":8425,"S-a ":8426,"You":8427,"ho ":8428,"rna ":8429,"uklo":8430,"o \"":8431,"je nakon ":8432,"resur":8433,"dija ":8434,"sel":8435,"ljivo":8436,"šet":8437," [se":8438,"troje ":8439,"Med":8440,"ciju za ":8441,"kluba.\n":8442,"zraka ":8443,"Europsko ":8444,"večeri ":8445,"pored ":8446,"kontrolira":8447,"iskori":8448,"pjevačica ":8449,"mandata ":8450,"Zbog toga ":8451,"UR":8452,"dži":8453,"ed":8454,"tla":8455,"wo":8456,"ž ":8457,"rala ":8458,"redom ":8459,"da im ":8460,"ing":8461,"pravom ":8462,", ali nije ":8463,"nici i ":8464,"Domi":8465,"Vene":8466,"nica u ":8467,"potrebu ":8468,"poruke ":8469,"Najviše ":8470,"roditelji":8471,"iskus":8472,"spreman ":8473,"zloči":8474,"vidim ":8475,"Osijek ":8476,"ravnatelj ":8477,"mjesec dana ":8478,". ožujka ":8479,"Mosta":8480,"bran":8481,"o ne":8482,"niji":8483,"nat":8484,"poo":8485,"pogledajte ":8486,"tabli":8487,"to se ":8488,"pridru":8489,"sugovor":8490,"jum":8491,"&ccaron;ovje":8492,"ci na ":8493,"kralji":8494,"Zašto ":8495,"Zadra":8496," [image":8497,"slav":8498,"Pred ":8499,"Boru":8500,"cijskom ":8501,". godine":8502,"većinu ":8503,"objave ":8504,"Argen":8505,"odlučili ":8506,"otvoreno ":8507,"grupa ":8508,"nemamo ":8509,"zagrebačkom ":8510,"ozbiljno ":8511,"nacionalne ":8512,"Budući ":8513,"bodi":8514,"rske ":8515,"o čemu ":8516,"vizu":8517,"vaku":8518,"katoli":8519,"dite":8520,"ljana ":8521,"prolazi":8522,"j za ":8523,"obro":8524,"gur":8525,"ima.\n":8526,"Kašte":8527,"gu i ":8528,"drago ":8529,"ispra":8530,"hrvat":8531,"školi ":8532,"Nova":8533,"turne":8534,"roditelj":8535,"poveza":8536,"vlastite ":8537,"kolege ":8538,"funkcioni":8539,"gradonačelnika ":8540,"Unite":8541,"mjesto.\n":8542,"ction]":8543,"SD":8544,"dni ":8545,"hod ":8546,"udruga ":8547,"ww":8548,"raspa":8549,"naca ":8550,"nadolaze":8551,"na ru":8552,"nećemo ":8553,"donošen":8554,"ra je ":8555,"vane ":8556,"Nažalost, ":8557,"spome":8558,"lja u ":8559,"rekli su ":8560,"stavila ":8561,"stanka ":8562,"teljice ":8563,"prijelaz":8564,"ove sezone ":8565,"Jur":8566,"&cacute;a, ":8567,"subotu, ":8568," milijuna eura, ":8569,"Konferen":8570,"snimke ":8571,"nazivom ":8572,"Europske u":8573,"dokumentar":8574,"Hezbola":8575,"Anu":8576,"Star":8577,"Wa":8578,"mbene ":8579,"zbilj":8580,"ror":8581,"lima, ":8582,"cama.\n":8583,"la o ":8584,"logo":8585,"proto":8586,"preko":8587,"to da je ":8588,"granice ":8589,"baviti ":8590,"tu\n":8591,"&cacute;ih ":8592,"ima, ":8593,"Zad":8594,"ger ":8595,"tivnog ":8596,"zbog ne":8597,"hitne ":8598,"Regi":8599,"Moja ":8600,"Zagrep":8601,"Jela":8602,"medijima ":8603,"voditeljica ":8604,"najbolje":8605,"izravno ":8606,"lokalnih ":8607,"spekta":8608,"Srbija ":8609,"rješenja ":8610,"inspira":8611,"tzv. ":8612,"akademi":8613,"epi":8614,"vca ":8615,"žne ":8616,"potica":8617,"lina ":8618,"linije ":8619,"kau":8620,"zavi":8621,"od toga ":8622,"nuti ":8623,"mjesta.\n":8624,"vjetar ":8625,"koji se na":8626,"djelu ":8627,"v i ":8628,"zove ":8629,"Micha":8630,"vlade ":8631,"i umje":8632,"mogući":8633,"nadzor":8634,"Splita ":8635,"ideja ":8636,"odlučila ":8637,"kvalitete ":8638,"slobodno ":8639,"dobro.\n":8640,"tržište ":8641,"prometnoj ":8642,"iznenađen":8643,"dvojica ":8644,"link]":8645,"luence":8646,"Am":8647,"Gvar":8648,"Ža":8649,"re&cacute;i ":8650,"pohva":8651,"rit":8652,"doma ":8653,"sinoć ":8654,"d u ":8655,"žim ":8656,"šavaju ":8657,"Nitko ":8658,"be i ":8659,"svjetske ":8660,"brinja":8661,"četvrti ":8662,"điva":8663,"Olimpijske ":8664,"nogometaš ":8665,"slijed ":8666,"angaž":8667,"Facebook ":8668,"unutarnjih ":8669,"razgovarati ":8670,"Afri":8671,"IT":8672,"d.o":8673,"jna ":8674,"ugovora ":8675,"čvo":8676,"odras":8677,"bile su ":8678,"sastoj":8679,"lozo":8680,"s tim ":8681,"tune":8682,"nu\n":8683,"&ccaron;kim ":8684,"koji ima ":8685,"stom":8686,"razvi":8687,"najprije ":8688,"šeta":8689,"cijelom ":8690,"i on ":8691,"mlađe ":8692,"njihovog ":8693,"uzor":8694,"proizvode ":8695,"Turisti":8696,"komunici":8697,"EU-a ":8698,"obilježa":8699,"kritizira":8700,"obitelji, ":8701,"Cor":8702,"Ver":8703,"cvje":8704,"Đa":8705,"Đur":8706,"je kao ":8707,"radom ":8708,"stana ":8709,"kono":8710,"nirati ":8711,"domina":8712,"ru, a ":8713,"živa":8714,"bi od ":8715,"bi biti ":8716,"ljak ":8717,"Naime":8718,"iscr":8719,"Europi ":8720,"predstavnici ":8721,"na ovom ":8722,"sumnja":8723,"prethodno ":8724,"misle ":8725,"status ":8726,"Alex":8727,"vrijedan ":8728,"Borussi":8729,"dbre":8730,"šnje ":8731,"odvija":8732,"viša ":8733,"vaša ":8734,"table":8735,"zadu":8736,"dona":8737,"g [":8738,"izlaz":8739,"ron ":8740,"mo o ":8741,"će na ":8742,"vrh ":8743,"nije samo ":8744,"fiel":8745,"Hrvatsku.\n":8746,"na pozi":8747,"minute ":8748,"automa":8749,"Lei":8750,"Voza":8751,"Odbo":8752,"završiti ":8753,"izjavila je ":8754,"web ":8755,"povećanje ":8756,"Možda ":8757,"Film ":8758,"86":8759,"Pit":8760,"sprje":8761,"u prvom ":8762,"nači":8763,"nas.\n":8764,"poe":8765,"na s ":8766,"lima.\n":8767,"ti\" ":8768,"telje":8769,"ma?\n":8770,"li iz ":8771,"su u":8772,"od početka ":8773,"&cacute;i u ":8774,"posla ":8775,"bila u ":8776,"državnom ":8777,"provede":8778,"upravljanja ":8779,"komentirao je ":8780,"čiji je ":8781,"Cropi":8782,"Zoran Milanović ":8783,"osumnjiče":8784,"eventual":8785,"Slaven Belu":8786,"Gvardio":8787,"83":8788,"L ":8789,"m\" ":8790,"ns":8791,"ovo je ":8792,"u, a ":8793,"nima i ":8794,"revi":8795,"podije":8796,"postavlje":8797,"domovi":8798,"dopušte":8799,"ruskih ":8800,"jima i ":8801,"ra s ":8802,"baca":8803,"cu, a ":8804,"bi s ":8805,"Mag":8806,"najja":8807,"kazao je.\n":8808,"u ponedjelja":8809,"života, ":8810,"školu ":8811,"godišnji":8812,"nica i ":8813,"Vidi":8814,"održi":8815,"obavlja":8816,"chen":8817,"pustio ":8818,"Trump":8819,"prihvati":8820,".),":8821,"81":8822,"L: ":8823,"Tri ":8824,"flek":8825,"ope":8826,"je da se ":8827,"stre ":8828,"niji.\n":8829,"ponen":8830,"mac ":8831,"bijan":8832,"izdanje ":8833,"stana":8834,"bateri":8835,"skom, ":8836,"U po":8837,"dro ":8838,", poče":8839,"nici u ":8840,"Tamo ":8841,"Inter":8842,"igru ":8843,"glavna ":8844,"rujnu ":8845,"napokon ":8846,"željezni":8847,"međuvremenu ":8848,"održana ":8849,"dvorani ":8850,"potporu ":8851,"Periši":8852,"glumac ":8853,"mjestu.\n":8854,"images/":8855,",{\"":8856,"A: ":8857,"bjedni":8858,"drije":8859,"et ":8860,"g/":8861,"is ":8862,"ld ":8863,"tka":8864,"vašem ":8865,"te\n":8866,"doče":8867,"veo ":8868,"saveza ":8869,"prošao ":8870,"vjetro":8871,"ke za ":8872,"dubi":8873,"razgovor ":8874,"ski predsjednik ":8875,"ondje ":8876,"svakoj ":8877,"Davi":8878,"tko će ":8879,"žu, ":8880,"Bari":8881,"elle":8882,"vojni ":8883,"pruž":8884,"istog ":8885,"prodava":8886,"raspolag":8887,"pokazati ":8888,"bivše ":8889,"sastav ":8890,"mišljenje ":8891,"osoba.\n":8892,"Zlatko ":8893,"sposobnost ":8894,"jugozapad":8895,"konferenciji za ":8896,"\"},{\"":8897,"kršćan":8898,".slobodnadalmacija.hr/":8899,"04":8900,"Mur":8901,"Svo":8902,"zale":8903,"su za ":8904,"stavo":8905,"pridruži":8906,"an u ":8907,"koji imaju ":8908,"tram":8909,"de na ":8910,"manj":8911,"braku ":8912,"beno ":8913,"sportske ":8914,"tako, ":8915,"Coun":8916,"starije ":8917,"Čak ":8918,"Ovo su ":8919,"Stručnja":8920,"! - ":8921,"ae":8922,"aspek":8923,"iran":8924,"ovi ":8925,"snosti ":8926,"um":8927,"ničke ":8928,"remi":8929,"povodom ":8930,"la kako ":8931,"pregleda":8932,"kuća ":8933,"mjesta":8934,"l za ":8935,"ća, a ":8936,"tivan ":8937,"cu u ":8938,"vratak ":8939,"kad sam ":8940,", uvijek ":8941,"gdje će ":8942,"Institu":8943,"Kako se ":8944,"Hrvatska je ":8945,"zajednica ":8946,"suradnje ":8947,"Crne ":8948,"dijagnosti":8949,". studenog ":8950,"Kroz ":8951,"73":8952,"apart":8953,"ks ":8954,"m/":8955,"mbur":8956,"rni ":8957,"rita":8958,"toga.\n":8959,"te od ":8960,"kular":8961,"čića ":8962,"- zaklju":8963,"svojem ":8964,"raz ":8965,"njih.\n":8966,"posve ":8967,"sof":8968,"biti na ":8969,"skup ":8970,"u koje":8971,"Kori":8972,"godišnjem ":8973,"Vidje":8974,"Viso":8975,"nego i ":8976,"uspjeha ":8977,"sport ":8978,"Goto":8979,"on je ":8980,"između osta":8981,"dolara.\n":8982,"taliza":8983,"financijski ":8984,"tranzi":8985,"fotografija ":8986,"ekipe ":8987,"kolegi":8988,"Zagreba.\n":8989,"agencija ":8990," kilometa":8991,"Možemo":8992,"najvećih ":8993,"atraktiv":8994,"Centa":8995,"PA":8996,"ošt":8997,"osvoje":8998,"tre ":8999,"no, ali ":9000,"tive ":9001,"temu ":9002,"volon":9003,"nes":9004,"malu ":9005,"zasad ":9006,"ma je ":9007,"izva":9008,"static":9009,"s njim ":9010,"prijavlje":9011,"pacije":9012,"sukladno ":9013,"pira":9014,"gastro":9015,"nost po":9016,"vodstvom ":9017,"Kana":9018,"Kalini":9019,"Potom ":9020,"otvara ":9021,"sretan ":9022,"akcije ":9023,"Jadro":9024,"svijet":9025,"proizvodi":9026,"istoku ":9027,"Los ":9028,"idemo ":9029,"prijedlo":9030,"povjeren":9031,"Zem":9032,"realizira":9033,"stadionu ":9034,"savrše":9035,"SuperSport ":9036,". kolovoza":9037,"mo&zcaron;ete ":9038,"Domovinski pokre":9039,".slobodnadalmacija.hr/images/":9040,"static.slobodnadalmacija.hr/images/":9041,"./":9042,"700":9043,"96":9044,"Bun":9045,"HZ":9046,"efi":9047,"kći ":9048,"o\n":9049,"plji":9050,"o iz ":9051,"nina ":9052,"ka&zcaron;e":9053,"la: \"":9054,"loškog ":9055,"pali":9056,"ljenih ":9057,"ć (":9058,"onda se ":9059,"online ":9060,"Nedavno ":9061,"Danije":9062,"dodajući ":9063,"Boris ":9064,"Jame":9065,"Japan":9066,"Liver":9067,"bodova ":9068,"počeli ":9069,"uvjerlji":9070,"itemAuthor":9071,"kontrolu ":9072,"deset godina ":9073,"studija ":9074,"praktič":9075,"nitko nije ":9076," kilogra":9077,"prije nego što ":9078,"kojega ":9079,"Ono što ":9080,"kasnije, ":9081,"o&ccaron;eki":9082,"Domovinskog pokre":9083,"Jugoslavi":9084,"92":9085,"Agen":9086,"N ":9087,"Spe":9088,"VAR":9089,"gha":9090,"upla":9091,"zin ":9092,"nikako ":9093,"renju ":9094,"revolu":9095,"neto ":9096,"biti.\n":9097,"zamisli":9098,"stižu ":9099,"luzi":9100,"error":9101,"u kori":9102,"dodajte ":9103,"predsjednikom ":9104,"godišnjoj ":9105,", oni ":9106,"krenula ":9107,"stanovnika ":9108,"srednje ":9109,"obzir ":9110,"osvojiti ":9111,"čovjeka ":9112,"Barba":9113,"kolega ":9114,"jednog od ":9115,"djevojči":9116,"sastanak ":9117,"normal":9118,"Celzi":9119,"grmljavi":9120,"her":9121,", dok je ":9122,"nalaze ":9123,"mah ":9124,"ti sve ":9125,"zašto je ":9126,"vezu":9127,"k na ":9128,"inu.\n":9129,"pula":9130,"trećem ":9131,"z na ":9132,"bera":9133,"nji.\n":9134,"Zapad":9135,"Katari":9136,"anja i ":9137,"brza":9138,"Novom ":9139,"cijskim ":9140,"svjetskih ":9141,"ženo ":9142,"zdravi":9143,"predstavljaju ":9144,"sredinom ":9145,"Dubrovnika ":9146,"jedan od naj":9147,"zastupnika ":9148,"misli ":9149,"Osca":9150,"normalno ":9151,"sjevernom ":9152,"ministarstvo ":9153,"teroristi":9154,"apsolutno ":9155,"priorite":9156,"DHMZ":9157,"La ":9158,"Ore":9159,"ONA":9160,"oli":9161,"nimalo ":9162,"rekonstruk":9163,"ponekad ":9164,"la kao ":9165,"prosvje":9166,"prepre":9167,"ju od ":9168,"silo":9169,"ture ":9170,"dulje ":9171,"tu je ":9172,"ske županije ":9173,"srebr":9174,"veno ":9175,"Netan":9176,"ključni ":9177,"radnih ":9178,"stavili ":9179,", ona ":9180,"svečano":9181,"Tay":9182,"Dugo":9183,"kvar":9184,"srca ":9185,"đivanje ":9186,"njezino ":9187,"kupio ":9188,"podataka ":9189,"komentirao ":9190,"godinu.\n":9191,"Meni ":9192,"sjeverozapad":9193,"segmen":9194,"\"U":9195,"BDP":9196,"Fin":9197,"SK":9198,"Što je ":9199,"naprijed":9200,"odu ":9201,"maga":9202,"ci\n":9203,"zaro":9204,"zapos":9205,"probu":9206,"cu\n":9207,"U ovom ":9208,"konzerva":9209,", poruči":9210,"trbu":9211,"Database":9212,"stupan":9213,"dijeli ":9214,"radili ":9215,"bodova":9216,"nice za ":9217,"zdravstva ":9218,"krumpi":9219,"otvorio ":9220,"održava ":9221,"Najbolji ":9222,"sustavu ":9223,"neki od ":9224,"Time ":9225,"interesa ":9226,"vođenja ":9227,"identite":9228,"kampanje ":9229,"contai":9230,"Cropix":9231,"Hva":9232,"Muze":9233,"krva":9234,"oprez":9235,"rnih ":9236,"Đu":9237,"i od ":9238,"koni":9239,"posu":9240,"teren":9241,"provode ":9242,"tova":9243,"praved":9244,"razvije":9245,"horo":9246,"mu u ":9247,"sti na ":9248,"li su na ":9249,"radne ":9250,"stane":9251,"stero":9252,"nešto više od ":9253,"predstavnika ":9254,"Gabri":9255,"vrijedi ":9256,"bolnicu ":9257,"u kojoj su ":9258,"knjiže":9259,"navijači ":9260,"očito ":9261,"društvenim mre&zcaron;a":9262,"pritisak ":9263,"ulogu u ":9264,"!\",":9265,"HG":9266,"Tom ":9267,"Time":9268,"ade":9269,"gla ":9270,"ikada ":9271,"nj":9272,"uza":9273,"čnici ":9274,"list ":9275,"vina":9276,"zadi":9277,"su to ":9278,"preokre":9279,"ka (":9280,". rođen":9281,"žesto":9282,"želja ":9283,"strana ":9284,"Kali":9285,"pa u ":9286,"kritič":9287,"tivnu ":9288,"samo u ":9289,"đenog ":9290,"među kojima ":9291,".jpg [":9292,"radnog ":9293,"poznata ":9294,"ženje ":9295,"steri":9296,"srce ":9297,"proizvodi ":9298,"nedjelje ":9299,"prodaje ":9300,"regiji ":9301,"suprugom ":9302,"Kine":9303,"izgled ":9304,"u Zagrebu.\n":9305,"turističke ":9306,"zadovoljni ":9307,"analitiča":9308,"Organi":9309,"Parizu ":9310,"plod":9311,"napad na ":9312,"slike/":9313,"static.slobodnadalmacija.hr/images/slike/":9314,"DC":9315,"MI":9316,"dnu ":9317,"fer":9318,"lla ":9319,"žrta":9320,"jeze":9321,"m za ":9322,"lin ":9323,"prete":9324,"danima ":9325,"s na ":9326,"s [value]":9327,"sebe":9328,"custom":9329,"petak, ":9330,"Makar":9331,"Makedo":9332,"dru ":9333,"Kaza":9334,"mula":9335,"gledu ":9336,"troši":9337," poe":9338,"Neka ":9339,"ostavio ":9340,"škoj ":9341,"bez i":9342,"vaju u ":9343,"krug ":9344,"proizvodnje ":9345,"procedu":9346,"Sredi":9347,"vjenča":9348,"City":9349,"pozornost ":9350,"invalidite":9351,"params_":9352,"customparams_":9353,"D-a ":9354,"FI":9355,"Ple":9356,"tva":9357,"u\n":9358,"ra&ccaron;u":9359,"vozu ":9360,"s ne":9361,"pristupa":9362,"boriti ":9363,"te ih ":9364,"pušt":9365,"njež":9366,"- poruči":9367,"nije po":9368,"Naravno ":9369,"ker":9370,"šte.\n":9371,"sku.\n":9372,"žu.\n":9373,"Baš ":9374,"mjeseci.\n":9375,"istrage ":9376,"&cacute; je ":9377,"vjerovati ":9378,"odnosu ":9379,"zajednički ":9380,"prometa ":9381,"Horva":9382,"osvojila ":9383,"SDP ":9384,"pomaže ":9385,"showa ":9386,"neko vrijeme ":9387,"Vartek":9388,"ysq":9389,"Los Ange":9390,"Displa":9391,"VI":9392,"m?\n":9393,"plije":9394,"umr":9395,"nik":9396,"nazo":9397,"na to ":9398,"kao je ":9399,"lako":9400,"maji":9401,"ne zna ":9402,"sastav":9403,"lec":9404,"super ":9405,", a onda ":9406,"či.\n":9407,"Zakon ":9408,"Postoji ":9409,"zon":9410,"sve od ":9411,"jer sam ":9412,"obilaz":9413,"hero":9414,"trenutka ":9415,"rom i ":9416,"vić i ":9417,"obavijesti":9418,"telji su ":9419,"dobiva ":9420,"kaže da ":9421,"smrt ":9422,"kojima je ":9423,"NACI":9424,"Velike ":9425,"sudbi":9426,"festivala ":9427,"vožnje ":9428,"skanda":9429,"Ari":9430,"al ":9431,"jnog ":9432,"mano":9433,"upra":9434,"zmi":9435,"rado ":9436,"rastu ":9437,"povolj":9438,"veseli":9439,"izdvoji":9440,"ruž":9441,"preživje":9442,"za to ":9443,"insta":9444,"&ccaron;na ":9445,"znao ":9446,"fici":9447,"najbli":9448,"rijen":9449,"Hrvati ":9450,"Nema":9451,"državi ":9452,"hito":9453,"svira":9454,"ključnih ":9455,"Rezul":9456,"da su u ":9457,"mogući ":9458,"izazi":9459,"kakvih ":9460,"lokalnim ":9461,"istaknula je ":9462,"obori":9463,"podaci ":9464,"kontrover":9465,"tržišta ":9466,"popula":9467,"nemam ":9468,"zastupnik ":9469,"pobjeda ":9470,"glasova ":9471,"želite ":9472,"que":9473,"osnovne ":9474,"preuzeti ":9475,"&Ccaron;e":9476,"mercija":9477,"Pjeva":9478,"Netanya":9479,"Display":9480,"Glaz":9481,"Istaknu":9482,"alar":9483,"c]":9484,"goda":9485,"uskla":9486,"viru":9487,"ka: ":9488,"tima i ":9489,"mina ":9490,"pretra":9491,"Navija":9492,"anoj ":9493,"koje smo ":9494,"lije&ccaron;":9495,"javnim ":9496,"je, na":9497,"dodaje ":9498,"integra":9499,"vezane ":9500,"Baturi":9501,"početi ":9502,"početku ":9503,"kroni":9504,"Rijeci ":9505,"nešto što ":9506,"poruka ":9507,"Selak ":9508,"ting ":9509,"umjeren ":9510,"sindika":9511,"društvenoj ":9512,"direktorica ":9513,"Velikoj ":9514,"rješenje ":9515,"pri čemu ":9516,"napadač ":9517,"fizički ":9518,"ambi":9519,"društvenim mrežama.\n":9520,"definira":9521,"rukomet":9522,"Centra ":9523,"simboli":9524,"predizbor":9525,"Trenutno ":9526,"jesu li ":9527,"Rodi":9528,"Sa ":9529,"dna ":9530,"i \"":9531,"nas, ":9532,"reme":9533,"kal":9534,"dikata ":9535,"ruka ":9536,"stak":9537,"piti ":9538,"časo":9539,"nu na ":9540,"vo i ":9541,"djece, ":9542,"tra, ":9543,"cije, a ":9544,"šteta ":9545,"Samo":9546,"&dstrok;en ":9547,"Dalić ":9548,"životu.\n":9549,"zemlje.\n":9550,"Prija":9551,"Tama":9552,"ćeno ":9553,"Ludbre":9554,"vozila.\n":9555,"vozilom ":9556,"financijske ":9557,"vozača ":9558,"Kad je ":9559,"svaki dan ":9560,"posljedice ":9561,"korištenja ":9562,"trajati ":9563,"prvoliga":9564,".hr\n":9565,"Sigur":9566,"title]":9567," K":9568,"(od ":9569,"Ovdje ":9570,"Vrije":9571,"ex":9572,"tho":9573,"nared":9574,"nes ":9575,"mate":9576,"mail":9577,"goj ":9578,"pripada":9579,"inc":9580,"bolji":9581,"čisti":9582,"kiru":9583,"žavaju ":9584,"stranu ":9585,"i pokuša":9586,"igrače ":9587,"Patri":9588,"vezi ":9589,"publika ":9590,"Grado":9591,"mreža":9592,"održavanje ":9593,"buduće ":9594,"istaknuo ":9595,"večer":9596,"srpski ":9597,"Srbije ":9598,"prometna ":9599,"tajnik ":9600,"producen":9601,"službenim ":9602,"povijest ":9603,"učenika ":9604,"Bjelova":9605,". studeno":9606,"je potrebno ":9607,"\"U ":9608,"027":9609,"Can":9610,"HO":9611,"Lon":9612,"ny ":9613,"oc":9614,"je, ali ":9615,"ništa":9616,"vom.\n":9617,"category":9618,"ru\n":9619,"ra iz ":9620,"što je u ":9621,"prat":9622,"le za ":9623,"le su se ":9624,"do kra":9625,"takvo ":9626,"fer ":9627,"hidra":9628,"brže ":9629,"trebamo ":9630,"fol":9631,"mlada ":9632,"Anđe":9633,"svijetu, ":9634,"tar.\n":9635,"Europskoj ":9636,"poslovne ":9637,"stvoriti ":9638,"način.\n":9639,"primjerice ":9640,"ljubav":9641,"mogao biti ":9642,"Sloven":9643,"stvari.\n":9644,"dugotraj":9645,"Španjolska ":9646,"sjajno ":9647,"međutim ":9648," dodao je.\n":9649,"pendi":9650,"potez ":9651,"Ove godine ":9652,"Zvoni":9653,"OVDJE.\n":9654,"adekva":9655,"NACIONA":9656,",\n":9657,"Far":9658,"Flori":9659,"Uskr":9660,"evaku":9661,"ir ":9662,"kana ":9663,"p, ":9664,"usta":9665,"u Za":9666,"ja: ":9667,"ma\" ":9668,"cir":9669,"ve&cacute;i":9670,"milo":9671,"tov":9672,"za na ":9673,"nuž":9674,"ga na ":9675,"- od ":9676,"druk":9677,"Malo ":9678,"prvu":9679,"optimi":9680,"joj se ":9681,"u koju ":9682,"tičke ":9683,"mreži ":9684,"Ne mogu ":9685,"nicima, ":9686,"roditelja ":9687,"stigli ":9688,"Ljubi":9689,"provesti ":9690,"natjecanju ":9691,"generacije ":9692,"listopadu ":9693,"odvjetnik ":9694,"one koji ":9695,"žrtve ":9696,"postignu":9697,"Liverpoo":9698," stoji u ":9699,"Jer":9700,"Lan":9701,"NBA ":9702,"Stri":9703,"Te ":9704,"t:protected]":9705,"ška":9706,"jela ":9707,"lić.\n":9708,"vidu":9709,"mađar":9710,"ve\n":9711,"inzi":9712,"boja":9713,"galeri":9714,"vjez":9715,"vanje po":9716,"čava ":9717,"la je da ":9718,"Karo":9719,"cijenu ":9720,"plaće":9721,"ger":9722,"tniji ":9723,"halj":9724,"Mogu ":9725,"stru&ccaron;":9726,"briga":9727,"pravil":9728,"prijevoz":9729,"koja je bila ":9730,"odnosa ":9731,"mirovin":9732,"raspore":9733,"potrebne ":9734,"serija ":9735,"Svaka ":9736,"ispunja":9737,"planu ":9738,"daljnje ":9739,"izgradnje ":9740,". listopa":9741,"Ustavnog ":9742,"iznajmlji":9743,"OŠ ":9744,"EL":9745,"ES":9746,"kto":9747,"ljedni":9748,"slan":9749,"či po":9750,"šin":9751,"u nedjelju ":9752,"je od":9753,"raj":9754,"najavlje":9755,"ode ":9756,"da o":9757,"mali":9758,"mi, ":9759,"mi.\n":9760,"stare ":9761,"te o ":9762,"pun ":9763,"čemu je ":9764,"- poru":9765,"Master":9766,"ćem.\n":9767,"spoji":9768,"di i ":9769,"tnici ":9770,"stvaranje ":9771,"Nikad ":9772,"obranu ":9773,"informacijama ":9774,"partner ":9775,"gostima ":9776,"Ministarstvu ":9777,"naslova ":9778,"zaključio je ":9779,"njemački ":9780,"Ukrajinu ":9781,"Jakirovi":9782,"180":9783,"mpe":9784,"ya ":9785,"nicu.\n":9786,"ponovi":9787,"na ne":9788,"dova ":9789,"bori ":9790,"puha":9791,"tuma":9792,"nije imao ":9793,"strah ":9794,"sa so":9795,"vodi u ":9796,"stavite ":9797,"rati na ":9798,"cijsku ":9799,"nica za ":9800,"problema.\n":9801,"protek":9802,"kako je to ":9803,"pustiti ":9804,"natjecanje ":9805,"procjenju":9806,"Hrvoje ":9807,"Turudić ":9808,"trašnjosti ":9809,"Lar":9810,"Ope":9811,"Pja":9812,"Wol":9813,"blje ":9814,"hodi":9815,"uboji":9816,"stanja ":9817,"napreda":9818,"linija ":9819,"ka, ali ":9820,"kama.\n":9821,"neko":9822,"ti da je ":9823,"donose ":9824,"ne želi ":9825,"su bile ":9826,"s A":9827,"priu":9828,"memo":9829,"o je s ":9830,"pul":9831," [c":9832,"tivnom ":9833,"još u ":9834,"akcija ":9835,"Ništa ":9836,"Da, ":9837,"Dail":9838,"vezu ":9839,"poziva ":9840,"Građ":9841,"nadzo":9842,"svibnju ":9843,"svojevr":9844,"najavio ":9845,"suprot":9846,"Više od ":9847,"čestita":9848,"završetka ":9849,"Gleda":9850,"OP":9851,"She":9852,"istu ":9853,"kan ":9854,"tki":9855,"u svojoj ":9856,"koc":9857,"rele":9858,"listu ":9859,"vati, ":9860,"kar ":9861,"li da se ":9862,"vero":9863,"vezi":9864,"sala":9865,"skoko":9866,"stoji":9867,"želju ":9868,"kraje":9869,"dramatič":9870,"ako je ":9871,"brat ":9872,"policija.\n":9873,"hidro":9874,"vraća ":9875,"&ccaron;ica ":9876,"Petkovi":9877,"prijeti ":9878," sati":9879,"prijatelj ":9880,"sportskih ":9881,"Luke ":9882,"u okvi":9883,"posljednjem ":9884,"loških ":9885,"Izvor":9886,"Voj":9887,"američkih ":9888,"tor: ":9889,"direktno ":9890,"obitelji i ":9891,"od najvećih ":9892,"muškarca ":9893," dodao je ":9894," kilometara ":9895,"prilagodi":9896,"blokira":9897,"zdravstvenih ":9898,"Jandro":9899,"oporav":9900,"odgovara ":9901,"glasnogovornik ":9902,"Europski parlamen":9903,"%,":9904,"cvije":9905,"uža":9906,"žo":9907,"robo":9908,"laska ":9909,"da ima ":9910,"ene ":9911,"s - ":9912,"goste ":9913,"prikaz":9914,"primar":9915,"intim":9916,"pao ":9917,"suo":9918,"puta":9919,"činio ":9920,"svoga ":9921,"bi i ":9922,"osloba":9923," [ma":9924,"Milan ":9925,"kreta":9926,"auten":9927,"hit ":9928,"utakmice, ":9929,"Mel":9930,", ovaj ":9931,"mogu&cacute;":9932,"koji su bili ":9933,"gradskog ":9934,"zdravlja ":9935,"&cacute;eg ":9936,"krajnje ":9937,"Imam ":9938,"visoko ":9939,"kojima se ":9940,"očekuju ":9941,"naziva ":9942,"server":9943,"povjerenje ":9944,"međutim, ":9945,"usluge ":9946,"Brux":9947,"portal ":9948,"Poljudu ":9949,"svake godine ":9950,"Donalda ":9951,"Mislim da je ":9952,"Bob":9953,"Iran ":9954,"o, ali ":9955,"s-":9956,"ul":9957,"usred ":9958,"jaka ":9959,"ler":9960,"menata ":9961,"grada.\n":9962,"&ccaron;an ":9963,"gasi":9964,"petka ":9965,"Pot":9966,"otva":9967,"brojem ":9968,"bio na ":9969,"nakon što se ":9970,"dok će ":9971,"parki":9972,"klupi ":9973,"uz pomoć ":9974,"Važ":9975,"Ligu ":9976,"vrijeme za ":9977,"reprezentaciju ":9978,"jako puno ":9979,"sumnja ":9980,"srpnju ":9981,"nesreći ":9982,"političkih ":9983,"istraživa":9984,"dobrom ":9985,"zagrebačkoj ":9986,"trebao biti ":9987,"sukob ":9988,"socijalne ":9989,"okolnosti ":9990," zaključio je ":9991,"najboljeg ":9992,"Selak Raspu":9993,"NACIONAL: ":9994,"':":9995,"84":9996,"Otvo":9997,"Udruga ":9998,"Z ":9999,"blja":10000,"jnih ":10001,"nka ":10002,"tt":10003,"u petak ":10004,", što ":10005,"ti kao ":10006,"se da će ":10007,"ne možemo ":10008,"let ":10009,"traže":10010,"predstavio ":10011,"drži":10012,"Zatim ":10013,"Pozi":10014,"\" za ":10015,", umjesto ":10016,"Bori":10017,"ell":10018,"praviti ":10019,"&zcaron;ivje":10020,"kompanije ":10021,"Bur":10022,"dionica ":10023,"karto":10024,"teška ":10025,"glasio je ":10026,"Cat":10027,"đivati ":10028,"visokim ":10029,"-ov ":10030,"savjetu":10031,"elegan":10032,"Vrho":10033,"praktički ":10034,"Guar":10035,"svjetlo":10036,"električne ":10037,"Bosne i ":10038,"Maksimi":10039,"titulu ":10040,"Jutarnji li":10041,". veljače ":10042,"cijski službenici ":10043," tisu":10044,"AP":10045,"Ona je ":10046,"povr":10047,"vino":10048,"li od ":10049,"zaborav":10050,"prera":10051,"prebaci":10052,"mer ":10053,"d je ":10054,"nuo ":10055,"stol":10056,"duže ":10057,"šalje ":10058,"sam u ":10059,"sve u ":10060,"i pod":10061,"i utakmi":10062,"Mogu":10063,"Komisi":10064,"župan ":10065,"dva dana ":10066,"šene ":10067,"sportskog ":10068,"hrabro":10069,"prvaka, ":10070,"dnev":10071,"došlo je ":10072,"itemVideo":10073,"pokušaj ":10074,"Sveti ":10075,"obiteljske ":10076,"reći da ":10077,"Svjetskog ":10078,"Osnov":10079,"prisustvo":10080,"dijelovima ":10081,"individu":10082,"mnogih ":10083,"domaćin ":10084,"Andreja Plenkovi":10085,"De ":10086,"Egi":10087,"Oto":10088,"Smatra":10089,"c\n":10090,"m: ":10091,"us ":10092,"z.\n":10093,"Čini ":10094,"šom ":10095,", što je ":10096,"nija, ":10097,"postupa":10098,"suvreme":10099,"odije":10100,"Maja ":10101,"ćeš ":10102,"cija na ":10103,"je pod":10104,"tnika ":10105,"samo za ":10106,"193":10107,"akti":10108,"vratar ":10109,"&ccaron;iti ":10110,"vezi s ":10111,"dva puta ":10112,"nisu bili ":10113,"benzin":10114,"odnosi ":10115,"krenuti ":10116,"dresu ":10117,"mišlja":10118,"Arse":10119,"poseban ":10120,"povezu":10121,"vijesti.\n":10122,"Tako je ":10123,"Vjero":10124,"gnuti ":10125,"ovakve ":10126,"qui":10127,"&ccaron;inje":10128,"vanjskih poslova ":10129,"Oba":10130,"Smi":10131,"Ya":10132,"bod ":10133,"eviden":10134,"poto":10135,"rira ":10136,"nosa ":10137,"neću ":10138,"izne":10139,"tologi":10140,"to biti ":10141,"meta ":10142,"deli":10143,"dera ":10144,"mjeri ":10145,"ku za ":10146,"Mate ":10147,"me u ":10148,"glavu ":10149,"šice ":10150,"otkaz":10151,"\" iz ":10152,"slika ":10153,", posebice ":10154,"još jednu ":10155,"sjećanja ":10156,"Date":10157,"crveni ":10158,"teškim ":10159,"mreža ":10160,"se nalazi ":10161,"Kako bi ":10162,"u kojem se ":10163,"mjesta u ":10164,"korisnika ":10165,"branitelja ":10166,"Plenković.\n":10167,"Svjetskom ":10168,"Možemo ":10169,"oslobo":10170,"Branko ":10171,"pojedina":10172,"cijom.\n":10173,"relativno ":10174,"savez ":10175,"Mü":10176,"Ran":10177,"SU":10178,"lgi":10179,"s: ":10180,"tne":10181,"zre":10182,"rasko":10183,"pomenu":10184,"vate ":10185,"timo":10186,"jabu":10187,"mal":10188,"zali":10189,"dogovor ":10190,"dina ":10191,"promovi":10192,"ju iz ":10193,"što više ":10194,"- ka&zcaron;e ":10195,"cije\n":10196,"igrali ":10197,"činu ":10198,"Rav":10199,"dodatnih ":10200,"radno ":10201,"vati na ":10202,", oko ":10203,"ženje":10204,"Toki":10205,"mnogo":10206,"desetih ":10207,"kod ku":10208,"Gol":10209,"Marina ":10210,"che ":10211,"aktivno ":10212,"lipnju ":10213,"upozorenje ":10214,"županije.\n":10215,"EUR":10216,"polufina":10217,"znači da ":10218,"izjave ":10219,"Mlado":10220,"današnje ":10221,"festival ":10222,"siječnju ":10223,"Gradskog ":10224," napisala je ":10225,"subven":10226,"Taylo":10227,"Bosne i Hercegovi":10228," li":10229,"jdže":10230,"tka.\n":10231,"je imao ":10232,", te ":10233,"na svom ":10234,"kama, ":10235,"tice ":10236,"zasigurno ":10237,"rukama ":10238,"stavi ":10239,"za i ":10240,"ley ":10241,"pišto":10242,"ljenja ":10243,"jugu ":10244,"ga, a ":10245,"van.\n":10246,"osmije":10247,"najdra":10248,"šesto":10249,"snik ":10250,"geno":10251,"ventu":10252,"hitno ":10253,"poznat ":10254,"koji su u ":10255,"udari":10256,"vlasnika ":10257,"priznanje ":10258,"pjevači":10259,"dijagno":10260,"jskih iga":10261,"institucije ":10262,"povjere":10263,"osobama ":10264,"HNL-a ":10265,"HRT\n":10266,"DORH":10267," JDatabase":10268,"!\"":10269,"**":10270,"BA":10271,"Vod":10272,"ape":10273,"glo ":10274,"k-":10275,"kse":10276,"okrivlje":10277,"phi":10278,"tlja":10279,"uku":10280,"udru":10281,"you":10282,"z, ":10283,"je već ":10284,"stiz":10285,"ko-":10286,"na temelju ":10287,"tež":10288,"dalje":10289,"gra&dstrok;":10290,"ziran ":10291,"juna":10292,"lo da je ":10293,"koji će se ":10294,"stopa ":10295,"nije ni ":10296,"rije, ":10297,"sa svim ":10298,"hou":10299,"iskaz":10300,"javnih ":10301,"Jelena ":10302,"src]":10303,"organizira ":10304,"Puno ":10305,"slučajeva ":10306,"što se tiče ":10307,"teksto":10308,"kaznena ":10309,"influence":10310,"travnju ":10311,"turnira ":10312,"SAD-a ":10313,"stanovništ":10314,"the_":10315,"Donald ":10316,"Mjese":10317,"maksimalno ":10318,"kompanija ":10319,"napredo":10320,"karakteristi":10321,"Izvor: ":10322,"09":10323,"Mona":10324,"Skup":10325,"Ty":10326,"ikad ":10327,"klop":10328,"okon":10329,"ura":10330,"nis ":10331,"na?\n":10332,"vama, ":10333,"teran":10334,"malim ":10335,"ne od ":10336,"ne bih ":10337,"izdva":10338,"za koje ":10339,"tret":10340,"treća ":10341,"razgovora ":10342,"203":10343,"Hrvatskih ":10344,"braš":10345,"policaja":10346,"sku, ":10347,"život":10348,"dodatni ":10349,", ovo je ":10350,"Većina ":10351," eura za ":10352,"rekao da je ":10353,"Ako ste ":10354,"sljedeći ":10355,"Francuska ":10356,"nacionalnih ":10357,"danas, ":10358,"ide u ":10359,"doprinos ":10360,"Dobro ":10361,"usmjere":10362,".jpg [title]":10363,"Donalda Trum":10364,"01":10365,"82":10366,"Fri":10367,"I. ":10368,"Izbor":10369,"Ni ":10370,"Sko":10371,"UEF":10372,"knad":10373,"tj":10374,"rata u ":10375,"pomog":10376,"pobijedio ":10377,"dojam ":10378,"se pre":10379,"dis":10380,"mokra":10381,"ljani ":10382,"tome.\n":10383,"suoči":10384,"kuh":10385,"bacu":10386,"njega, ":10387,"cesto":10388,"menu ":10389,"ispri&ccaron;a":10390,"ču.\n":10391,"igra&ccaron;a ":10392,"Nekoliko ":10393,"raditi na ":10394,"Haj":10395,"je ove ":10396,"ciji i ":10397,"potpi":10398,"kod nas ":10399,"projektu ":10400,"borbe":10401,"Autor: ":10402,"pitao ":10403,"Odmah ":10404,"zatvora ":10405,"zahvali":10406,"nagrade ":10407,"proveo ":10408,"županija ":10409,"korisnici ":10410,"službene ":10411,"torak, ":10412,"Aleksandar ":10413,"vatrogasci ":10414,"zatvara":10415,"tramva":10416,";&":10417,"Gen":10418,"uprava ":10419,"u drugom ":10420,"na iz ":10421,"ligi ":10422,"testi":10423,"lavo":10424,"tada je ":10425,"zama ":10426,"doto":10427,"mom, ":10428,"da\n":10429,"instru":10430,"pame":10431,"sebe, ":10432,"bave ":10433,"kiseli":10434,"opse":10435,"još više ":10436,"u kolo":10437,"u komenta":10438,"već je ":10439,"cijskoj ":10440,"vezan":10441,"Prin":10442,"Pritom ":10443,"napada na ":10444,"stvo i ":10445,"otkrila je ":10446,"poziciju ":10447,"kaže da je ":10448,"samopouz":10449,"izgublje":10450,"zahval":10451,"dobro, ":10452,"bolesti":10453,"u Zagrebu, ":10454,"povijesti ":10455,"zamjenik ":10456,"ovih dana ":10457,"Matija ":10458,"dobrih ":10459,"sramo":10460,"zapovjednik ":10461,"doslovno ":10462,"nego je ":10463,"postroj":10464,"Zorana Milanovi":10465,"relevan":10466,"93":10467,"Znam ":10468,"dje u ":10469,"raju ":10470,"rata.\n":10471,"nić, ":10472,"na\" ":10473,"odlazak ":10474,"lik ":10475,"lirati ":10476,"vao je ":10477,"vama.\n":10478,"maknu":10479,"prema":10480,"prekri":10481,"stari ":10482,"prikazu":10483,"jedi ":10484,"&ccaron;nih ":10485,"&ccaron;nu ":10486,"nije se ":10487,"&zcaron;a ":10488,"biti i ":10489,"gene":10490,"količine ":10491,"opći":10492,"radni ":10493,"vojske ":10494,"otkrio je ":10495,"je naglasi":10496,"nedjelju, ":10497,"otvoriti ":10498,"Osijek":10499,"Rich":10500,"nezakoni":10501,"putovanja ":10502,"Brani":10503,"-godišnjakin":10504,"plane":10505,"zvijezde ":10506,"/ Autor: ":10507,"konkurenciji ":10508,"Lige prvaka ":10509,"talentira":10510,"&Zcaron;e":10511,"slu&zcaron;be":10512,"Prošle ":10513,"Policijske uprave ":10514,"Daily ":10515,"BI":10516,"Dražen ":10517,"Iza":10518,"dano":10519,"šnja ":10520,"rali ":10521,"naravno ":10522,"remo":10523,"lie ":10524,"lige.\n":10525,"da mi ":10526,"dogod":10527,"se kao ":10528,"vela ":10529,"pročita":10530,"jede ":10531,"n na ":10532,"puni ":10533,"četvor":10534,"kupovi":10535,"&ccaron;u ":10536,"&ccaron;lano":10537,"čara ":10538,"tu na ":10539,"Poseb":10540,"ili ne":10541,"u kona":10542,"predsjedniku ":10543,"Koji ":10544,"godišnju ":10545,"integri":10546,"kupnju ":10547,"autori":10548,"pisati ":10549,"dva tjedna ":10550,"problemi ":10551,"važne ":10552,"potreba ":10553,"poslovnih ":10554,"mrežu ":10555,"lokalno ":10556,"Ako je ":10557,"Volim ":10558,"događaj ":10559,"direktora ":10560,"nogometna ":10561,"Dr. ":10562,"prometnih ":10563,"partnera ":10564,"javljuju ":10565,"Bruno ":10566,"trend ":10567,"konzuma":10568,"daleko od ":10569,"oslobodi":10570,"pronašli ":10571,"Nogometaši ":10572,"je osvojio ":10573,"prvenstveno ":10574,"em":10575,"knin":10576,"rnog ":10577,"ut":10578,"uslijedi":10579,"ćini ":10580,"nizu ":10581,"našao ":10582,"re, a ":10583,"potra":10584,"testira":10585,"stati ":10586,"primlje":10587,"meč ":10588,"sestra ":10589,"puta.\n":10590,"ca iz ":10591,"ć je ":10592,"ljuje ":10593,"širi ":10594,"ili u ":10595,"igračima ":10596,"đeno je ":10597,"javila ":10598,"skupo":10599,"Meksi":10600,"obraču":10601,"vremena za ":10602,"king ":10603,"natječaj ":10604,"pod nazivom ":10605,"htjeli ":10606,"organizacija ":10607,"Iako su ":10608,"u kojoj se ":10609,"bolesni":10610,"reagi":10611,"srijedu, ":10612,"prosjeku ":10613,"danas.\n":10614,"desetljeća ":10615,"konzumira":10616,"bakteri":10617,"vizual":10618," istaknuo je ":10619,"Blo":10620,"Hit":10621,"SO":10622,"blu":10623,"photo":10624,"ukazu":10625,"šku ":10626,"rić, ":10627,"odbi":10628,"vir":10629,"vali su ":10630,"dostojan":10631,"sada, ":10632,"prozi":10633,"tole":10634,"leto":10635,"t od ":10636,"zija":10637,"čija je ":10638,"ju, ali ":10639,"ćevoj ":10640,"broje":10641,"du u ":10642,"hibri":10643,"ključi":10644,"ključne ":10645,"koji je na ":10646,"i uvijek ":10647,"&ccaron;io je ":10648,"je ozlije":10649,"izazvati ":10650,"prijave ":10651,"je zapravo ":10652,"vozila, ":10653,"vremene ":10654,"djelomi":10655,"dolaska ":10656,"vlastitu ":10657,"starijih ":10658,"čekaju ":10659,"&cacute;i.\n":10660,"prosincu ":10661,"današnji ":10662,"tvrdi da je ":10663,"ulaga":10664,"gubitak ":10665,"veze s ":10666,"primijeti":10667,"stotine ":10668,"boda.\n":10669,"uzbudlji":10670,"Klub ":10671,"projekata ":10672,"genoci":10673,"%.\n":10674,"319":10675,"Air":10676,"Ken":10677,"MW":10678,"NE":10679,"šću ":10680,", rekao je ":10681,"nite":10682,"nokore":10683,"vom, ":10684,"vost ":10685,"neizvje":10686,"mara":10687,"cipe":10688,"don":10689,"zina ":10690,"zima":10691,"junior":10692,"depresi":10693,"&ccaron;ini ":10694,"ta s ":10695,"ca s ":10696,"slaven":10697,"...,":10698,"đenom ":10699,"i uz":10700,"Vedra":10701,"osobu ":10702,"svijeta, ":10703,"ljudi u ":10704,"srpske ":10705,"kojeg su ":10706,"-ova ":10707,"telefon":10708,"Želim ":10709,"oblik ":10710,"splitskog ":10711,"Mladi ":10712,"spriječiti ":10713,"plana ":10714,"znanstven":10715,"album ":10716,"John ":10717,"plasman u ":10718,"Ivo ":10719,"PI":10720,"dnih ":10721,"dy ":10722,"tković ":10723,"re\n":10724,"redu":10725,"pogor":10726,"roni":10727,"nomina":10728,"se mogu ":10729,"dam":10730,"gorje":10731,"pristupi":10732,"ji u ":10733,"pu, ":10734,"put.\n":10735,"prate ":10736,"bi za ":10737,"žali":10738,"kao u ":10739,"šak ":10740,"poslan":10741,"prlja":10742,"smo u ":10743,"njaka ":10744,"nja za ":10745,"vanje na ":10746,"morala ":10747,"Jeste li ":10748,"bodo":10749,"i zašti":10750,"stribu":10751,"Europa ":10752,"izvora ":10753,"Trener ":10754,"razini.\n":10755,"SAD ":10756,"školske ":10757,"dizajne":10758,"modela ":10759,"iskoristiti ":10760,"povratak ":10761,"financiranje ":10762,"Antonio ":10763,"informacije o ":10764,"ponašan":10765,"tužitelj":10766,"naest ":10767,"izbornoj jedi":10768,"Bunde":10769,"Organiza":10770," ispriča":10771,"Ti ":10772,"X ":10773,"fru":10774,"oprosti":10775,"nija.\n":10776,"na, po":10777,"ponedjelj":10778,"teme ":10779,"voga ":10780,"da nema ":10781,"mage":10782,"ti je ":10783,"dole":10784,"moji ":10785,"izlazi":10786,"prezi":10787,"dak":10788,"s u":10789,"mjesta, ":10790,"le [value]":10791,"bi to ":10792,"straž":10793,"glavom ":10794,"Kata":10795,"nosti u ":10796,"utakmicu.\n":10797,"štima ":10798,"je i dalje ":10799,"prijavu ":10800,"izraža":10801,"se nalazi":10802,"tenta":10803,"umjetne ":10804,"politička ":10805,"pjesmom ":10806,"višestru":10807,"boravi":10808,"županije, ":10809,"upravljanje ":10810,"Jedno":10811,"obrazovanja ":10812,"Zagreb, ":10813,"izrazito ":10814,"Ono što je ":10815,"Istraži":10816,"Dubrav":10817,"USKOK":10818,"d.o.o":10819,"BO":10820,"Ky":10821,"Oko ":10822,"Phi":10823,"Ulica ":10824,"Wor":10825,"Yo":10826,"_id]":10827,"dla":10828,"jmo ":10829,"ph":10830,"ć-":10831,"ću po":10832,"čki":10833,"štro":10834,"a (":10835,"je samo ":10836,"raste":10837,"pozva":10838,"pogled ":10839,"ro&dstrok;en":10840,"tip":10841,"ja, ali ":10842,"nedo":10843,"bizni":10844,"zajed":10845,"diz":10846,"predo":10847,"daro":10848,"pari":10849,"suglas":10850,"selek":10851,"koji u ":10852,"bespo":10853," =>\n":10854,"odavno ":10855,"kreću ":10856,"nost u ":10857,"Rek":10858,"Novog ":10859,"trebate ":10860,"če i ":10861,"dviju ":10862,"novča":10863,"stvori":10864,"glazbe ":10865," navodi ":10866,"dnevno ":10867,"htjela ":10868,"uloge ":10869,"osvojili ":10870,"Crve":10871,"u Zagrebu":10872,"donijela ":10873,"priliku za ":10874,"igrati protiv ":10875,"Perišić ":10876,"strplje":10877,"državnog odvjetni":10878,"Darko ":10879,"gimnazi":10880," c":10881,"966":10882,"AI ":10883,"i kao ":10884,"sto je ":10885,"pošte":10886,"odbio ":10887,"na \"":10888,"teku":10889,"vozi ":10890,"ne, ali ":10891,"dokaza":10892,"propi":10893,"pretr":10894,"pregovara":10895,"lea":10896,"kuju ":10897,"&ccaron;ko ":10898,"&ccaron;ima ":10899,"zna&ccaron;a":10900,"v je ":10901,"Kasnije ":10902,"stavljanja ":10903,"ovakav ":10904,"svijetu":10905,"napad":10906,"problem.\n":10907,"gradnje ":10908,"većini ":10909,"&cacute;e.\n":10910,"možeš ":10911,"postali ":10912,"glavnih ":10913,"138":10914,"gradova ":10915,"Tuđ":10916,"skija":10917,"knjiga ":10918,"ispunje":10919,"ljudska ":10920,"vikenda ":10921,"izvijestila je ":10922," bodova ":10923,"vjenčan":10924,"odlaska ":10925,"mo&zcaron;emo ":10926,"mnogima ":10927,"veleposla":10928,"avantu":10929," €":10930," ku":10931,"-ove ":10932,"F ":10933,"Gdje ":10934,"Ig":10935,"JE ":10936,"Plo":10937,"Ukup":10938,"o: ":10939,"sbur":10940,"ćanju ":10941,"či u ":10942,"o kao ":10943,"je-":10944,"koro":10945,"kolo ":10946,"liz":10947,"vima i ":10948,"nema.\n":10949,"malom ":10950,"dokaz ":10951,"dimen":10952,"sa\n":10953,"saču":10954,"lović ":10955,"mena ":10956,"bolju ":10957,"ni smo ":10958,"puc":10959,"puna ":10960,"pušta":10961,", a to je ":10962,"mješta":10963,"razgovo":10964,"posli":10965,"tu za ":10966,"ća za ":10967,"koja ima ":10968,"slavlje":10969,"anja na ":10970,"Nijem":10971,"vati i ":10972,"trebale ":10973,"prilika za ":10974,"otkriti ":10975,"Gradu ":10976,"mjesto na ":10977,"glazbene ":10978,"Najveći ":10979,"udalje":10980,"promjenji":10981,"Varaždinu ":10982,"loška ":10983,"politika ":10984,"otvorenom ":10985,"bolest ":10986,"Druga ":10987,"demograf":10988,"mandat ":10989,"zadovoljan ":10990,"trgovine ":10991,"trendo":10992,"kćeri ":10993,"zbir":10994,"kontinuirano ":10995,"sugerira":10996,"menadže":10997,"prestiž":10998,"Iva ":10999,"Ovi ":11000,"PDV":11001,"Rod":11002,"fot":11003,"my ":11004,"o: '":11005,"i da je ":11006,"pogle":11007,"pomalo ":11008,"popis ":11009,"lica.\n":11010,"li kako ":11011,"mora, ":11012,"prebi":11013,". sije":11014,"vanju.\n":11015,"razvoj":11016,"djecom ":11017,"takti":11018,"kontra":11019,"sti su ":11020,"venu ":11021,"cijama i ":11022,"man.\n":11023,"Nemojte ":11024,"sjednici ":11025,"Raj":11026,"skoj i ":11027,"žuju ":11028,"Bog ":11029,"trenucima ":11030,"Toni ":11031,"govoriti ":11032,"pružiti ":11033,"gradskom ":11034,"&zcaron;ena ":11035,"&zcaron;alo":11036,"izraču":11037,"eken":11038,"visokih ":11039,"otoka ":11040,"banke ":11041,"šest mjeseci ":11042,"ulici ":11043,"nezavi":11044,"Republici ":11045,"smatra da je ":11046,"Osob":11047,"Europske uni":11048,"pregled ":11049,"plus ":11050,"napustiti ":11051,"najvažnije ":11052,"Bez obzi":11053,"Grand ":11054,"Europske unije ":11055,"? - ":11056,"SI":11057,"flo":11058,"onog ":11059,"sci ":11060,"zbur":11061,"je još ":11062,"ram":11063,", jer ":11064,"komercija":11065,"vac, ":11066,"vašeg ":11067,"kamen":11068,"nevi":11069,"don ":11070,"sada se ":11071,"lozi ":11072,"prevlada":11073,"s njima ":11074,"leža":11075,"senior":11076,"obnove ":11077,"vano":11078,"ljima ":11079,"Poja":11080," [value]":11081,", pod ":11082,"slab ":11083,"ostatak ":11084,") iz ":11085,"šeni ":11086,"Tek ":11087,"unaprijed":11088,"odredi":11089,"određen":11090,"Drago ":11091,"Kad se ":11092,"započin":11093,"medicinske ":11094,"sposobnosti ":11095,"vikend ":11096,"ukrajinske ":11097,"najvećim ":11098,"jutros ":11099,"prvenstvu u ":11100,"Zelenski ":11101,"container":11102,"Bruxelle":11103,"!\"\n":11104,"02":11105,"Dvije ":11106,"EC":11107,"Ili":11108,"Iza ":11109,"Min":11110,"Mba":11111,"efek":11112,"ćom, ":11113,"nike.\n":11114,"pojedin":11115,"vagi":11116,"mono":11117,"sana":11118,"su ga ":11119,"prevez":11120,"k (":11121,"jede":11122,"ji, a ":11123,"si, ":11124,"t (":11125,"selja":11126,"&ccaron;ili ":11127,". obljetni":11128,"pena":11129,"nog i ":11130,"osla":11131,"kao i u ":11132,"ženih ":11133,"š i ":11134,"šefa ":11135,"odakle ":11136,"jem i ":11137,"igrača.\n":11138," poru":11139,"policije.\n":11140,"mijenja ":11141,"sveće":11142,"Antu":11143,"mjesecima ":11144,"medije ":11145,"ove godine.\n":11146,"poslovni ":11147,"glavne ":11148,"160":11149,"četvrti":11150,"Imali smo ":11151,"naliza":11152,"primjerice, ":11153,"niji i ":11154,"na uli":11155,"otvorena ":11156,"Sve je ":11157,"radovi ":11158,"podata":11159,"ćuje ":11160,"odličan ":11161,"članovima ":11162,"berne":11163,"analizira":11164,"svjedoči":11165,"Krem":11166,"opasnosti ":11167,"troškova ":11168,"naglašava ":11169,"Premijer ":11170,"psihija":11171,"posjedu":11172,"poremeća":11173," koji je ":11174," golo":11175,"MUP":11176,"g\n":11177,"sh ":11178,"šved":11179,"je također ":11180,"rak":11181,"koordina":11182,"ni, ali ":11183,"ničkih ":11184,"na tom ":11185,"tiji ":11186,"tema":11187,"masla":11188,"dođe":11189,"ja iz ":11190,"izvla":11191,"balan":11192,"koji ne ":11193,"van, ":11194,"kratkom ":11195,"ćeve ":11196,"Hrvata ":11197,"som.\n":11198,"brod ":11199,"Mil":11200,"i osigura":11201,"slika":11202,"Nina ":11203,"Me&dstrok;u":11204,"dijele ":11205,"&ccaron;ita":11206,"nicima.\n":11207,"dogodila ":11208,"sredsta":11209,"loškom ":11210,"drugima ":11211,"Dinamo je ":11212,"proveden":11213,"koncerta ":11214,"zagrebačkog ":11215,"Height":11216,"nikad nije ":11217,"Dječ":11218,"Sandra ":11219,"profilu ":11220,"tradicionalno ":11221,"francuski ":11222,"i ove godine ":11223,"sprječa":11224,"Jor":11225,"Kni":11226,"Neu":11227,"Pen":11228,"Sc":11229,"nsku ":11230,"tsa":11231,"tana ":11232,"u&zcaron;i":11233,"win":11234,"stvo je ":11235,"nih.\n":11236,"ništa.\n":11237,"labora":11238,"japan":11239,"dovodi ":11240,"ruč":11241,"su nam ":11242,"to na ":11243,"pripa":11244,"pune ":11245,"punje":11246,"skom.\n":11247,"figu":11248,"Nad":11249,"Kaže ":11250,"koja je u":11251,"križeva":11252,"je postao ":11253,"općine ":11254,"još od ":11255,"Nico":11256,"put u ":11257,"rati u ":11258,"autor ":11259,"jom i ":11260,"trenutke ":11261,"nijeli ":11262,"nekoliko puta ":11263,"važnosti ":11264,"Luka":11265,"danas je ":11266,"predstavnik ":11267,"sanja":11268," godina, a ":11269,"vrha ":11270,"kaznenih ":11271,"bolesti.\n":11272,"posao.\n":11273,"značajan ":11274,"riječ je o ":11275,"agencije ":11276,"uzrok ":11277,"emisije ":11278,"usluga ":11279,"Ustavni sud ":11280,"stigao je ":11281,"Bio je to ":11282,"mlađi ":11283,"Služ":11284,"Torci":11285,"uzrokovati ":11286,"kontekstu ":11287,"Button":11288,"autentič":11289," s ":11290,".-":11291,"Ma ":11292,"Odje":11293,"Size":11294,"Ter":11295,"pzi":11296,"tmun":11297,"Čovje":11298,"jesti ":11299,"nim, ":11300,"jama, ":11301,"bilo":11302,"distribu":11303,"izri":11304,"sav ":11305,"te kako ":11306,"t &cacute;ete ":11307,"punom ":11308,"de, a ":11309,"godine, a ":11310,"koji &cacute;e ":11311,"živ":11312,"ga se ":11313,"trećeg ":11314,"voda":11315,"cijelo":11316,"otro":11317,"lje i ":11318,"igrača":11319,"man, ":11320,"ranj":11321,"ostaviti ":11322,"nović, ":11323,"osobni ":11324,"tri dana ":11325,"steći ":11326,"Vatroga":11327,"Inde":11328,"termi":11329,"gradski ":11330,"projekte ":11331,"odnosi na ":11332,"istim ":11333,"stignu":11334,"pozori":11335,"novinar ":11336,"dužnost ":11337,"skrb":11338,"funkcional":11339,"motiva":11340,"unište":11341,"isto tako ":11342,"članice ":11343,"prije nego što je ":11344,"EPPO":11345,"maloljetni":11346,"svladao ":11347,"subCat":11348,"četvrtfina":11349,"Festival ":11350,"zadovolji":11351,"Utakmica ":11352,"Croatia ":11353,"Dortmun":11354," utakmica ":11355," centi":11356,"Eliza":11357,"Obra":11358,"SA":11359,"gen ":11360,"smo, ":11361,"udio ":11362,"jelo ":11363,"ratu ":11364,"koefi":11365,"ničkog ":11366,"referen":11367,"libera":11368,"zagrija":11369,"loži":11370,"top ":11371,"preseli":11372,"ju kao ":11373,"ji\n":11374,"vano ":11375,"peti ":11376,"kiše ":11377,"- istaknuo je ":11378,"razumje":11379,"predstaviti ":11380,"vode, ":11381,"Miche":11382,"argu":11383,"isproba":11384,"igrati u ":11385,"slasti":11386,"je, kako ":11387,"Dario ":11388,"Direk":11389,"odlukom ":11390,"minist":11391,"snažno ":11392,"najbolju ":11393,"nosila ":11394,"vjerojatnije ":11395,"zaštiti ":11396,"promjenu ":11397,"tekst ":11398,"Hol":11399,"pokušava ":11400,"novinarima ":11401,"putovanje ":11402,"sunča":11403,"djevojka ":11404,"uništi":11405,"Svjetsko ":11406,"uputi":11407,"izjavu ":11408,"stručnjaci ":11409,"talijanski ":11410,"preuzeo ":11411,"fokusira":11412,"retvan":11413,"Stjepan ":11414,"prof. ":11415,"Vrijeme ":11416,"tj. ":11417," puta ":11418,"Al ":11419,"Ul":11420,"atenta":11421,"mskog ":11422,"o\" ":11423,"ulazi":11424,"u subotu ":11425,"na-":11426,"na mo":11427,"vie":11428,"la: ":11429,"da nam ":11430,"izle":11431,"su mu ":11432,"medalje ":11433,"pita ":11434,"ljetne ":11435,"obnovi":11436,"&ccaron":11437,"vjere":11438,"vanjima ":11439,"vanju, ":11440,"kiša ":11441,"djela.\n":11442,"bi bilo ":11443,"viješte":11444,"gim ":11445,"hovi":11446,"ker ":11447,"i pozna":11448,"je pod ":11449,"Nenad ":11450,"ostali":11451,"skoj župani":11452,"Rekao ":11453,"Mol":11454,"đa.\n":11455,"dok ne ":11456,"složi":11457,"ženu ":11458,"kance":11459,"obavez":11460,"istragu ":11461,"objavu ":11462,"domaćem ":11463,"Sini":11464,"logisti":11465,"njezinom ":11466,"područje ":11467,"HNK ":11468,"show ":11469,"uživa":11470,"Vrlo ":11471,"ravnatelja ":11472,"ljubim":11473,"kolodvo":11474,"molit":11475,"počinje ":11476,"gostuju":11477,"Europi.\n":11478,"Godine ":11479,"Smatra ":11480,"težak ":11481,"zaljublje":11482,"Leipzi":11483,"Ita":11484,"h\n":11485,"id ":11486,"jnim ":11487,"onome ":11488,"svlači":11489,"člana ":11490,"nira ":11491,"niže ":11492,"poro":11493,"roku ":11494,"volio ":11495,"domu ":11496,"ves ":11497,"s obzirom ":11498,"pat":11499,"si.\n":11500,"puta, ":11501,"ljeto":11502,"de\n":11503,"rijeke ":11504,"prko":11505,"mi i ":11506,"manje.\n":11507,"slabo":11508,"Neke ":11509,"šte, ":11510,"tom u ":11511,"akciju ":11512,"u pod":11513,"Sada je ":11514,"dodavši ":11515,"izbora.\n":11516,"radimo ":11517,", ovo ":11518,"gledao ":11519,"I to ":11520,"izazvao ":11521,"Joško ":11522,"ciji s ":11523,"prijatelji ":11524,"nadzor ":11525,"tisuću ":11526,"u kojem su ":11527,"grup":11528,"tražio ":11529,"mladim ":11530,"možda i ":11531,"odlič":11532,"djelat":11533,"Martina ":11534,"moraju biti ":11535,"Olimpijskih iga":11536,"Djeca ":11537,"rekord ":11538,"Bjelo":11539,"priopćenju.\n":11540,"medalju ":11541,"Studen":11542,"simbol ":11543,"Njihova ":11544,"kriminalističko ":11545,"romantič":11546,"ofenzi":11547,"Muškara":11548,"Elizabe":11549,"?\",":11550,"EM":11551,"Vi ":11552,"hnu":11553,"kti":11554,"lske ":11555,"e na ":11556,"rane ":11557,"ranu ":11558,"niza ":11559,"načina ":11560,"rezi":11561,"li\n":11562,"valja ":11563,"jac ":11564,"login":11565,"gore":11566,"privremeno ":11567,"an na ":11568,"razreda ":11569,"som, ":11570,"kripto":11571,"štete ":11572,"rekla da ":11573,"već su ":11574,"Prem":11575,"Jako":11576,"pravne ":11577,"Tada je ":11578,"Legen":11579,"colum":11580,"teren ":11581,"tinski ":11582,"odnose ":11583,"Franjo ":11584,"interpre":11585,"visoko":11586,"Općina ":11587,"Hoće li ":11588,"nagrada ":11589,"vladaju":11590,"Bartu":11591,"HNS":11592,"odigrati ":11593,"činjenicu ":11594,"splitski ":11595,"nicama.\n":11596,"Bjelica ":11597,"omoguća":11598,"potvrdio ":11599,"Gruzi":11600,"Charle":11601,"magistra":11602,"Sergej ":11603,"Jednostav":11604,"\"\"":11605,"Imo":11606,"Pal":11607,"Sen":11608,"imovin":11609,"nskim ":11610,"ora":11611,"umi":11612,"čanja ":11613,"kolje":11614,"nizo":11615,"navlja":11616,"no\n":11617,"tiza":11618,"teri ":11619,"da bude ":11620,"ti svoje ":11621,"skrom":11622,"la - ":11623,"love":11624,"prije po":11625,"sino":11626,"mješt":11627,"dug ":11628,"najte":11629,"sa na ":11630,"imalo ":11631,"Potreb":11632,"stroje":11633,", unatoč ":11634,"Bara":11635,"Vido":11636,"prošlo ":11637,"-a\n":11638,"groman ":11639,"pomor":11640,"istovremeno ":11641,"rezultata ":11642,"rezultatima ":11643,"razli&ccaron;i":11644,"jednom od ":11645,"izgubi":11646,"direkto":11647,"nika, a ":11648,"pojasni":11649,"privatnom ":11650,"odgovorio ":11651,"Državnog ":11652," km/":11653,"terori":11654,"raspoložen":11655,"New York ":11656,"Europe.\n":11657,"spektakular":11658,"individual":11659,"Mün":11660,"Azi":11661,"Ili ":11662,"Kvar":11663,"LI":11664,"Pob":11665,"dnog ":11666,"fli":11667,"s, a ":11668,"wor":11669,"čnost ":11670,", kao i ":11671,"kojoj je ":11672,"naobla":11673,"li, ali ":11674,"nekome ":11675,"skluzi":11676,"motor":11677,"sam.\n":11678,"te će ":11679,"t - ":11680,"graditi ":11681,"del":11682,"&ccaron;an":11683,"gara":11684,"kiberne":11685,"razi za ":11686,"smo imali ":11687,"otpo":11688,"otpada ":11689,"konven":11690,"sredoto":11691,"tromjese":11692,"lijepi":11693,"vno odvjetni":11694,"jedan je od ":11695,"je oba":11696,"i zaba":11697,"Jura":11698,"je dobro ":11699,"dogodio ":11700,"računa ":11701,"mple":11702,"uređen":11703,"laze u ":11704,"slavio ":11705,"očekiva":11706,"premijer":11707,"podrške ":11708,"tjedna.\n":11709,"natjecanja.\n":11710,"Beogradu ":11711,"nasljedni":11712,"proizvođača ":11713,"samim ":11714,"britanski ":11715,"klub.\n":11716,"čišćen":11717,"varijan":11718,"Vučić ":11719,"Adven":11720,"mo&zcaron;da ":11721,"Problem ":11722,"Stre":11723,"Ulici ":11724,"bana ":11725,"sl":11726,"sljed":11727,"vske ":11728,"raskri":11729,", za ":11730,"nare":11731,"nata.\n":11732,"naprav":11733,"vine ":11734,"tiz":11735,"teli":11736,"cari":11737,"li su.\n":11738,"zamr":11739,"dignu":11740,"prozo":11741,"prenosi":11742,"stab":11743,"gom, ":11744,"inu, ":11745,"suvere":11746,"živi u ":11747,"&zcaron;ili ":11748,"Male":11749,"zoni ":11750,"st u ":11751,"je pot":11752,"samo jedan ":11753,"u području ":11754,"dodao je ":11755,"&ccaron;i&cacute; ":11756,"Program ":11757,"izašao ":11758,"bili u ":11759,"čke i ":11760,"vodili ":11761,"nekoliko mjeseci ":11762,"Juli":11763,"važna ":11764,"poslove ":11765,"treba biti ":11766,"većim ":11767,"Varaždina ":11768,"gradovima ":11769,"đivanja ":11770,"Dragi":11771,"zahvalju":11772,"Pita":11773,"sljedećih ":11774,"sunčano":11775,"zahtjev za ":11776,"zgrada ":11777,"travnja":11778," eura po ":11779,"Cibo":11780,"Šibeni":11781,"provjeriti ":11782,"Dobro":11783,"pripadnika ":11784,"Maksimiru ":11785,"otvaranje ":11786,"Tomašević ":11787,"Comments":11788,"emitira":11789,"eskala":11790,"u okviru ":11791,"Ravna":11792," koji ":11793,"110":11794,"Sanja ":11795,"ZA":11796,"ZO":11797,"g-":11798,"iri":11799,"t: ":11800,"čka":11801,"školi":11802,"rata, ":11803,", od ":11804,"renih ":11805,"poteško":11806,"lice":11807,"nemojte ":11808,"ta: ":11809,"zabio je ":11810,"dođu ":11811,"dize":11812,"la \"":11813,"mom.\n":11814,"h i ":11815,"misti":11816,"pretvori":11817,"filozo":11818,"širi":11819,"U drugom ":11820,"Kada se ":11821,"pa će ":11822,"više puta ":11823,"i okoli":11824,"godine u ":11825,"Pale":11826,"prijevoz ":11827,"Dinama.\n":11828,"dionice ":11829,"rezultira":11830,", navodi ":11831,"razlika ":11832,"posljednjeg ":11833,"dom i ":11834,"smjesti":11835,"u unu":11836,"Eurovizi":11837,"uključu":11838,"procesu ":11839,"oduševi":11840,"ravnateljica ":11841,"trening ":11842,"dijelove ":11843,"Gospi":11844,"saborski ":11845,"borbi za ":11846,"republikan":11847,"tamoš":11848,"rezolu":11849,"YouTu":11850,"ysqli ":11851,"umjetne inteligen":11852,"Muškarac ":11853," A":11854,"08":11855,"BBC":11856,"Scho":11857,"TO ":11858,"ap":11859,"hi ":11860,"je, po":11861,"roku od ":11862,"rizon":11863,"da pre":11864,"ti po ":11865,"zapi":11866,"doka":11867,"se to ":11868,"ruše":11869,"mene.\n":11870,"jić ":11871,"va - ":11872,"nužno ":11873,"vješ":11874,"peča":11875,"di u ":11876,"on.\n":11877,"sliku ":11878,"auto ":11879,"Bio sam ":11880,"vanja na ":11881,"Para":11882,"osobnih ":11883,"Babi":11884,"stvo u ":11885,"ran za ":11886,"li smo i ":11887,"prezen":11888,"postoja":11889,"taj način ":11890,"jako dobro ":11891,"budu&cacute;":11892,"pronašao ":11893,"književ":11894,"završio ":11895,"kazneni ":11896,"ulice ":11897,"izazov ":11898,"zahtjev ":11899,"&zcaron;ene ":11900,"muškaraca ":11901,"Božić ":11902,"Mateo ":11903,"zamijeniti ":11904,"dru&ccaron;ju ":11905,"marketin":11906,"Krešimir ":11907,"pretežno ":11908," ističe ":11909,"\"Ne":11910,"Opati":11911,"Wo":11912,"Zra":11913,"cmi":11914,"ec ":11915,"rno":11916,"o o ":11917,", s ":11918,"kove":11919,"naša":11920,"pogledati ":11921,"val":11922,"neretvan":11923,"li da su ":11924,"dobra":11925,"mojoj ":11926,"s invalidite":11927,"za koju ":11928,"prikazi":11929,"bore ":11930,"pau":11931,"set ":11932,"razma":11933,"kako to ":11934,"ženom ":11935,"šiti ":11936,"šica ":11937,"vode.\n":11938,"ery":11939,"sta i ":11940,"ima li ":11941,"heo":11942,"Doš":11943,"&ccaron;i&cacute":11944,"osobne ":11945,"Prili":11946,"šeno ":11947,"podsjeti":11948,"pomo&cacute;i ":11949,"jedna od naj":11950,"domaćeg ":11951,"Splitsko-dalmatin":11952,"torima ":11953,"europskom ":11954,"oni koji ":11955,"političkog ":11956,"zadnjem ":11957,"knjigu ":11958,"obolje":11959,"nike i ":11960,"partneri":11961,"prošle godine.\n":11962,"živjeti ":11963,"pojača":11964,"korisnicima ":11965,"uživati u ":11966,"sastavu ":11967,"turnir ":11968,"uspore":11969,"Christi":11970,"napomi":11971,"shvatio ":11972,"Dalmaciji ":11973,"operacije ":11974,"reakcija ":11975,"Domovinskom ":11976,"nogometaša ":11977,"kampanji ":11978,"zadatak ":11979,"Cijeli ":11980,"Stva":11981,"gostovanju ":11982,"dvoboj ":11983,"ponašanje ":11984,"obrtni":11985,"poslijepodne ":11986,"Ovako ":11987,"blagoslo":11988,"Jenni":11989,"tinejdže":11990," rekla je.\n":11991,"07":11992,"CN":11993,"Fre":11994,"Pri ":11995,"Pho":11996,"fe ":11997,"id":11998,"knj":11999,"ptvo":12000,"ravaju ":12001,"poj":12002,"ro.\n":12003,"moju ":12004,"le, a ":12005,"t &cacute;emo ":12006,"baze":12007,"čimbe":12008,"ci s ":12009,"širom ":12010,"Naciona":12011,"stu.\n":12012,"Zaje":12013,"i ovaj ":12014,"javnosti.\n":12015,"sjednice ":12016,"radnom ":12017,"svjestan ":12018,"vojnika ":12019,"Marce":12020,"Joe ":12021,"potrije":12022,"Suda":12023,"prijava ":12024,"kada sam ":12025,"vremenu, ":12026,"čelnika ":12027,"državnih ":12028,"pod utjecajem ":12029,"uključuju ":12030,"Iako se ":12031,"videu ":12032,"lipnja ":12033,"Ukrajine ":12034,"Četvr":12035,"nedostaja":12036,"jučeraš":12037,"veljači ":12038,"sadržaj ":12039,"Stipe ":12040,"troškove ":12041,"mjestimice ":12042,"godinu, ":12043,"mislim da je ":12044,"upozorava ":12045,"osniva":12046,"surađu":12047,"legendarni ":12048,"prihoda ":12049,"incptvo":12050,"magegallery":12051,"cmimagegallery":12052,"incptvocmimagegallery":12053,"):":12054,"865":12055,"Bili ":12056,"JA":12057,"p.\n":12058,"smeta":12059,"u sklopu ":12060,"ranim ":12061,"teljem ":12062,"jas":12063,"cama i ":12064,"biza":12065,"ti da se ":12066,"li kao ":12067,"ljko ":12068,"lož":12069,"prim":12070,"inje":12071,"kuti":12072,"ra (":12073,"skor":12074,"delega":12075,"ga\n":12076,"ta - ":12077,"godio ":12078,"nom na ":12079,"djeteta ":12080,"žal":12081,"me za ":12082,"sam i ":12083,"kom u ":12084,"bun":12085,"imala je ":12086," [OCM":12087,"konstan":12088,"i podrš":12089,"isla":12090,"cija\n":12091,"Niko ":12092,"školo":12093,"trebati ":12094,"poznate ":12095,"mlade":12096,"zemlje":12097,"tri puta ":12098,"hrvatsko ":12099,"izaći ":12100,"prošla ":12101,"porno ":12102,"najboljim ":12103,"gradnju ":12104,"je navodno ":12105,"&zcaron;eli ":12106,"registra":12107,"255":12108,"visokog ":12109,"aktivnosti":12110,"ulozi ":12111,"šut":12112,"sredine ":12113,"vlasti.\n":12114,"gospodarstva ":12115,"neutra":12116,"ponudu ":12117,"djelatnosti ":12118,"šokan":12119,"Gordan ":12120,"teškog ":12121,"trebala biti ":12122,"Europske komisi":12123,"mjestima ":12124,"profesor ":12125,"cestama ":12126,"u polufinalu ":12127,"Bila je to ":12128,"eksperimen":12129,"unutarnjih poslova ":12130,"Los Angele":12131,"CE":12132,"Dri":12133,"Ivani":12134,"Osjeća":12135,"Tran":12136,"h, a ":12137,"ika":12138,"lse":12139,"svu":12140,"udi":12141,"ranih ":12142,"polj":12143,"riju ":12144,"limi":12145,"kadro":12146,"ti iz ":12147,"izdanja ":12148,"stao je ":12149,"te ga ":12150,"sela ":12151,"selu":12152,"kupa ":12153,"deba":12154,"ta (":12155,"lo za ":12156,"U sklopu ":12157,"stavljan":12158,"ili na ":12159,"ge]":12160,"i pot":12161,"troji":12162,"vladi":12163,"hvala ":12164,"jedinica ":12165,"kad smo ":12166,"život, ":12167," (\"":12168,"vojnog ":12169,"Hrvatska":12170,"ča i ":12171,"mjeseca.\n":12172,"kod kuće ":12173,"dani ":12174,"dano ":12175,"obali ":12176,"Nakon što su ":12177,"hrana ":12178,"hranu ":12179,"nosio ":12180,"radi na ":12181,"održavanja ":12182,"Voy":12183,"politiku ":12184,"vlasnici ":12185,"neke od ":12186,"osiguranje ":12187,"odigrali ":12188,"energije ":12189,"vjeruje ":12190,"reakcije ":12191,"slijede ":12192,"nasilja ":12193,"zemlji.\n":12194," milijarde ":12195,"kojemu ":12196,"John":12197,"vaterpo":12198,"Gradonačelnik ":12199,"Vjeroja":12200,"nizozem":12201,"\"A":12202,"Ala":12203,"Gradi":12204,"ara":12205,"c, a ":12206,"et":12207,"kne":12208,"ušte":12209,"učin":12210,"utor":12211,"nata, ":12212,"poras":12213,"kade":12214,"tepi":12215,"matu":12216,"zate":12217,"zavje":12218,"dolazi u ":12219,"ne pre":12220,"mene, ":12221,"obnovu ":12222,"lo o ":12223,"njenog ":12224,"trećoj ":12225,"&cacute;i na ":12226,"kić, ":12227,"svoje po":12228,"stranice ":12229,"hoće ":12230,"takvog ":12231,"otpad":12232,"drago":12233,"lijepe ":12234,"javljaju ":12235,"Sam ":12236,"en u ":12237,"Zagrebu":12238,"napao ":12239,"vero ":12240,"osjeća ":12241,"Govo":12242,"vozio ":12243,"objavi ":12244,"krenuli ":12245,"Siri":12246,"državljan":12247,"posebnu ":12248,"pokušati ":12249,"Sopi":12250,"prihvatiti ":12251,"stvari koje ":12252,"privatni ":12253,"upravlja ":12254,"RTL ":12255,"derbi ":12256,"bicik":12257,"stvaraju ":12258,"pripadnici ":12259,"Dnevnik ":12260,"na terenu ":12261,"cijom, ":12262,"budem ":12263,"dobrim ":12264,"Zahvaljujući ":12265,"izvršni ":12266,"Salzbur":12267,"scription":12268,"Dominik ":12269,"Alexan":12270,"Daily Ma":12271,"029":12272,"GP":12273,"ilu":12274,"vš":12275,"čanog ":12276,"rada":12277,"nike, ":12278,"podru":12279,"nog, ":12280,"kavi":12281,"se od":12282,"se vrati":12283,"mol":12284,"mo&cacute;":12285,"sakri":12286,"lon ":12287,"inski ":12288,"te iz ":12289,"čević, ":12290,"gađ":12291,"gare":12292,"čari ":12293,"orga":12294,"U Hrvatskoj ":12295,"teljski ":12296,", pozi":12297,"i uži":12298,"osobnog ":12299,"Protiv ":12300,"i navija":12301,"Dinamu ":12302,"podrijet":12303,", naravno, ":12304,"&cacute;e, ":12305,"objašnje":12306,"Ley":12307,"raspra":12308,"rekao nam je ":12309,"što se dogodi":12310,"ani su ":12311,"asfal":12312,"momčadi.\n":12313,"dobrog ":12314,"optu&zcaron;":12315,"-u i ":12316,"uspored":12317,"princi":12318,"daljnji ":12319,"u ovom trenutku ":12320,"prijetnje ":12321,"jugoisto":12322,"potpore ":12323,"Balkan":12324,"stigao u ":12325,"bombar":12326,"mladog ":12327,"Nove TV ":12328,"siromaš":12329,"Thoma":12330,"ovisi o ":12331," grama ":12332,"\"...\n":12333,"&D":12334,"069":12335,"Ani":12336,"Pod ":12337,"e\n":12338,"mska ":12339,"o&ccaron;i":12340,"zvjez":12341,"u \"":12342,"napred":12343,"nastavlja":12344,"pović ":12345,"rov ":12346,"odne":12347,"nevjerojatno ":12348,"ci: ":12349,"zanima ":12350,"log, ":12351,"stavu ":12352,"za u ":12353,"gom.\n":12354,"ka - ":12355,"vjeri":12356,"duš":12357,"djecu.\n":12358,"kao da je ":12359,"l na ":12360,"Mia":12361,"koncu ":12362,"on, ":12363,"i oba":12364,"općeni":12365,"još jedna ":12366,"lije, ":12367,"vreći":12368,"trča":12369,"Nisu ":12370,"utakmica.\n":12371,"&ccaron;e, ":12372,"forman":12373,"moguća ":12374,"dva mjeseca ":12375,"i zahva":12376,"benu ":12377,"karti":12378,"hrabri":12379,"Marijana ":12380,"pomoći u ":12381,"istini":12382,"Fiel":12383,"umjetnosti ":12384,"porast ":12385,"političku ":12386,"nike u ":12387,"prošle godine, ":12388,"sjajan ":12389,"poslati ":12390,"privatne ":12391,"obliko":12392,"iznenadi":12393,"Chri":12394,"sebe i ":12395,"izjava ":12396,"ne znaju ":12397,"amba":12398,"Parizu.\n":12399,"priča o ":12400,"Danas je ":12401,"nekretnine ":12402,"rukometa":12403,"odmor ":12404,"financijskih ":12405,"uhićen":12406,"ATP ":12407,"Također":12408,"prosvjedni":12409,"dođe do ":12410,"zelene ":12411,"ne smije ":12412,"međusobno ":12413,"reporter":12414,"KU":12415,"Swi":12416,"bra ":12417,"nskoj ":12418,"piz":12419,"šković ":12420,"Žup":12421,"i kako ":12422,"nikoga ":12423,"navrata ":12424,"pobu":12425,"povla":12426,"na su ":12427,"lite ":12428,"kada će ":12429,"la, ali ":12430,"vosti ":12431,"nerijetko ":12432,"mae":12433,"cilju ":12434,"zavoda za ":12435,"ja (":12436,"dao je ":12437,"gomi":12438,"pristoj":12439,"leko ":12440,"zio ":12441,"činiti ":12442,"njenom ":12443,"du, a ":12444,"- objasni":12445,"nih za ":12446,"glavi ":12447," [link]":12448,"Mislav ":12449,", pokaza":12450,"još i ":12451,"trž":12452,"vrata":12453,"be za ":12454,"zemlje, ":12455,"nosti\n":12456,"je upravo ":12457,"tanju":12458,"mrž":12459,"učinak ":12460,"istraga ":12461,"tio se ":12462,"lokalni ":12463,"Lou":12464,"Situa":12465,"uvjete ":12466,"glazbu ":12467,"unac ":12468,"laganje ":12469,"registar":12470,"pitali ":12471,"njezinim ":12472,"povezi":12473,"Crnoj ":12474,"pokazao ":12475,"nezaborav":12476,"mentalno ":12477,"dijabe":12478,"Jedna od ":12479,"zaustaviti ":12480,"međunarodne ":12481,"vod za ":12482,"razgovoru za ":12483,"Washingto":12484,"Rakiti":12485,"Projekt ":12486,"zaroblje":12487,"Me&dstrok;utim, ":12488," EUR":12489,"Kranj":12490,"Zi":12491,"Zele":12492,"cro":12493,"fur":12494,"om.\n":12495,"zvan ":12496,"žnog ":12497,"i tako ":12498,"je godine ":12499,"najo":12500,"noga":12501,"ca: ":12502,"izvrši":12503,"tosti ":12504,"za djecu ":12505,"prikazuje ":12506,"gradi ":12507,"deri":12508,"osna":12509,"glavi":12510,"U prvom ":12511,"mu za ":12512,"sretni":12513,"je pokuša":12514,") na ":12515,"Danijela ":12516,"Rude":12517,"tar, ":12518,"crnogo":12519,"gradnja ":12520,"igri ":12521,"plovi":12522,"dnevni ":12523,"dnevna ":12524,"dužnosti ":12525,"obrazov":12526,"Ukrajini.\n":12527,"privatnog ":12528,"zakoni":12529,"ozlijeđen":12530,"Trgu ":12531,"Moram ":12532,"talijanskog ":12533,"jednoj od ":12534,"Facebooku ":12535,"predmet ":12536,"scene ":12537,"digitalne ":12538,"kapaciteta ":12539,"Nacionalnog ":12540,"zabrinutost ":12541,"Korču":12542,"izjednači":12543,"sektoru ":12544,"s druge strane ":12545,"na otoku ":12546,"KBC-a ":12547,"URL":12548,"03":12549,"94":12550,"Ivo":12551,"Klju":12552,"Olu":12553,"c-":12554,"es ":12555,"oce":12556,"tvi":12557,"ući u ":12558,"zo ":12559,"niko":12560,"nada ":12561,"m o ":12562,"odbaci":12563,"jasan ":12564,"ne mo&zcaron;e ":12565,"lov ":12566,"za \"":12567,"panije":12568,"&ccaron;nim ":12569,"du\n":12570,"znali ":12571,"nji, ":12572,"glavo":12573,"bio sam ":12574,"ishod":12575,"i onih ":12576,"manu":12577,"op&cacute;e ":12578,"života":12579,"Most ":12580,"mogu&cacute;e ":12581,"Bog":12582,"poznato ":12583,"nosti, a ":12584,"pravo je ":12585,"krovi":12586,"obrani ":12587,"versi":12588,"danu ":12589,"dio.\n":12590,"imenom ":12591,"gradskim ":12592,"je dobila ":12593,"igno":12594,"dovoljan ":12595,"Tem":12596,"vidjela ":12597,"Kupa ":12598,"nalizira":12599,"promjene u ":12600,"informaciju ":12601,"izborne ":12602,"pokušaja ":12603,"pokušavaju ":12604,"isporu":12605,"boravak ":12606,"senza":12607,"zabavlja":12608,"napomenu":12609,"zadovoljstvo ":12610,"&zcaron;ivot ":12611,"Državni ":12612,"hotela ":12613,"vrtića ":12614,"stoljeća ":12615,"pamti":12616,"ministarstva ":12617,"medalja ":12618,"ravnoprav":12619,"djelatnici ":12620,". studenoga ":12621,"ljestvici ":12622,"ubojstva ":12623,"Slobodna ":12624,"donese":12625,"solidar":12626," sekundi ":12627,"ministrica ":12628,"kazneno djelo ":12629,"horosko":12630,"Skupšti":12631," mjeseci ":12632,"Blu":12633,"OK":12634,"gni":12635,"istar":12636,"iselje":12637,"mbo":12638,"mber":12639,"pana ":12640,"ušao u ":12641,"uglji":12642,"i nije ":12643,"nazvao ":12644,"rej":12645,"poti":12646,"rić.\n":12647,"vati":12648,"tipa ":12649,"jaju ":12650,"ne?\n":12651,"cima":12652,"pritvo":12653,"le\n":12654,"ljenim ":12655,"mjer":12656,"ston ":12657,"znanosti ":12658,"razin":12659,"ceremo":12660,"Mali ":12661,"šavanje ":12662,"njih, ":12663,"šire ":12664,"i pozi":12665,"\" je ":12666,"i one ":12667,"policiji ":12668,"kovića ":12669,") te ":12670,"u poče":12671,"bilo u ":12672,"rekao: \"":12673,"radi.\n":12674,"radila ":12675,"t će se u ":12676,"Bošnja":12677,"om i ":12678,"vezana ":12679,"I u ":12680,"prijeva":12681,"sku i ":12682,"prijateljima ":12683,"kompromi":12684,"' u ":12685,"raspro":12686,"coun":12687,"čanu ":12688,"Split, ":12689,"sredstvima ":12690,"primjer, ":12691,"visoki ":12692,"prometu ":12693,"osvojio je ":12694,"kontrole ":12695,"Često ":12696,"zakona ":12697,"simpati":12698,"ovakvim ":12699,"posljednje vrijeme ":12700,"odgovor na ":12701,"odvoje":12702,"Baby Lasagna ":12703,"akade":12704,"omogućiti ":12705,"Chelse":12706,"je došlo do ":12707,"četvero":12708,"omogućuje ":12709,"Rimac ":12710,"Gotovo ":12711,"instala":12712,"folklo":12713,"&Dstrok;":12714,"+ ":12715,"Hal":12716,"KBC ":12717,"Sred":12718,"ab":12719,"udje":12720,"Što":12721,"je kako ":12722,"nijem ":12723,"nažalost ":12724,"pono":12725,"ponov":12726,"lila ":12727,"kabi":12728,"kalen":12729,"tika ":12730,"jama.\n":12731,"neprijatelj":12732,"sa, a ":12733,"sata.\n":12734,"sadrži ":12735,"lo, a ":12736,"proma":12737,"tome":12738,"dana, a ":12739,"dalje, ":12740,"goran":12741,"sudio ":12742,"grada":12743,"od oko ":12744,"tura ":12745,"vrstu ":12746,"duk":12747,"kima ":12748,"razmisli":12749,"ci iz ":12750,"&zcaron;no ":12751,"njima.\n":12752,"slike ":12753,", pokuša":12754,"pjesni":12755,"po pitanju ":12756,"191":12757,"na posud":12758,"izbora, ":12759,"radim ":12760,"sve.\n":12761,"osobe.\n":12762,"nego što je ":12763,"publici ":12764,"vodila ":12765,"Juventu":12766,"li smo se ":12767,"uzeti ":12768,"istaknuti ":12769,"događaju ":12770,"zadnja ":12771,"prosječna ":12772,"snimka ":12773,"Karlov":12774,"nedostaje ":12775,"lly":12776,"Tomislava ":12777,"pobjednik ":12778,"spomenuti ":12779,"Benja":12780,"povećanja ":12781,"proširi":12782,"harmo":12783,"Aleksandra ":12784,"budemo ":12785,"Jakirović ":12786,"visini ":12787,"Arabi":12788,"miješajte ":12789,"Đoković ":12790,"Argenti":12791,"aerod":12792,"uzastop":12793,"Jutarnji list.\n":12794,"Taylor ":12795,"a\n":12796,"c: ":12797,"je su ":12798,"nia ":12799,"niža ":12800,"nasti":12801,"pov":12802,"postići ":12803,"tin ":12804,"tach":12805,"ja - ":12806,"mojim ":12807,"ruskim ":12808,"mirno ":12809,"provoditi ":12810,"predu":12811,"gola.\n":12812,"gol.\n":12813,"intri":12814,"bot":12815,"bolje.\n":12816,"vjeren":12817,"stope ":12818,"cede":12819,"trajanju ":12820,"Maga":12821,"ćenih ":12822,"Zadru":12823,"Polja":12824,"plaćanja ":12825,"kretan":12826,"je pokaza":12827,"jer će ":12828,"Hrvatsku":12829,"bliže ":12830,"dok je u ":12831,"Zagrebu.\n":12832,"mogu se ":12833,"Dugo ":12834,"metara.\n":12835,"obrana ":12836,"krvi ":12837,"&zcaron;ele ":12838,"zdravlje":12839,"razlike ":12840,"roditeljima ":12841,"iskreno ":12842,"razina ":12843,"vlastiti ":12844,"bivšim ":12845,"blaga":12846,"sudaca ":12847,"pisana ":12848,"Vjetar ":12849,"tehnički ":12850,"izraelske ":12851,"izraelski ":12852,"Dubrovniku ":12853,"strijel":12854,"izložbe ":12855,"cjelokup":12856,"jedanae":12857,"Ivi":12858,"Kle":12859,"Pli":12860,"Sljede":12861,"k: ":12862,"ocijeni":12863,"tjedni":12864,"tka, ":12865,"uki":12866,"ukinu":12867,"ratne ":12868,"reći":12869,"potreba":12870,"pohvali":12871,"vite ":12872,"kasno ":12873,"tej":12874,"da za":12875,"moga":12876,"iznos":12877,"rub":12878,"mima ":12879,"no na ":12880,"med":12881,"siste":12882,"grada, ":12883,"n (":12884,"nudi":12885,"nula ":12886,"žar ":12887,"ženog ":12888,"da je \"":12889,"poslu ":12890,"Kao i ":12891,"koje su se ":12892,"nja, a ":12893,"čuti ":12894,"mi u ":12895,"Hrvatsku, ":12896,"lijepo":12897,"zbog sumnje ":12898,"ostanak ":12899,"ključno ":12900,"Saša ":12901,"&dstrok;u ":12902,"koliko su ":12903,"Mom":12904,"Meta":12905,", on je ":12906,"problema, ":12907,"Dinama, ":12908,"Njezin ":12909,"četvrtak, ":12910,"što se događa ":12911," nave":12912,"njezinog ":12913,"temeljem ":12914,"navijačima ":12915,"NATO ":12916,"Kad sam ":12917,"procesa ":12918,"obrazlo":12919,"Ukrajini, ":12920,"mogla biti ":12921,"razdoblja ":12922,"spilo":12923,"učenici ":12924,"obilježi":12925,"nedostatak ":12926,"pogotka ":12927,"dolazi do ":12928,"sigurnosne ":12929,"Vladimira ":12930,"Zoran Milanovi":12931,"parlamentarne ":12932,"proglašen ":12933,"s kojima se ":12934,"witter":12935,"Upravnog ":12936,"Plus\n":12937,"Konferencijske ":12938,"soft":12939,"otvaranju ":12940,"koeficijen":12941,"Ata":12942,"Bau":12943,"Den":12944,"GO":12945,"Wit":12946,"ani":12947,"cka ":12948,"gSize":12949,"lle ":12950,"tno.\n":12951,"uru":12952,"uistinu ":12953,"x.\n":12954,"zme":12955,"i da se ":12956,"kopa":12957,"naran":12958,"vaca ":12959,"vao u ":12960,"laj":12961,"da me ":12962,"da ste ":12963,"nešto":12964,"zape":12965,"love ":12966,"stave ":12967,"leta ":12968,"lect":12969,"ku&cacute;":12970,"kuća":12971,"objavlji":12972,". (":12973,"žanih ":12974,"strane.\n":12975,"širenje ":12976,"imat će ":12977,"Zajedni":12978,"Zakla":12979,"son, ":12980,"mu, a ":12981,"maneken":12982,"jedinice ":12983,"dodatnu ":12984,"&ccaron;evi":12985,"&ccaron;er ":12986,"&ccaron;ine ":12987,"stanbu":12988,"godinu":12989,"pisala ":12990,"pravio ":12991,"publiku ":12992,"fasci":12993,"sporto":12994,"sporta ":12995,"pozicije ":12996,"u Se":12997," posto u ":12998,"europska ":12999,"kandidat za ":13000,"DP ":13001,"utječe na ":13002,"posebnim ":13003,"ling ":13004,"američkim ":13005,"otvoren ":13006,"Stani":13007,"demon":13008,"pravomoć":13009,"studenom ":13010,"prethodne ":13011,"primio ":13012,"pomaga":13013,"onih koji ":13014,"izvješće ":13015,"kćer":13016,"razloga za ":13017,"napustio ":13018,"izdanju ":13019,"Query":13020," bodova.\n":13021,"ImgSize":13022,"projeka":13023,"savršeno ":13024,"Sjedinjene ":13025,"ideologi":13026,"kirur":13027," JDatabaseQuery":13028,".).\n":13029,"350":13030,"?!\n":13031,"HS":13032,"Mli":13033,"MA ":13034,"Prije":13035,"Wale":13036,"dnim ":13037,"danom ":13038,"orijen":13039,"ujutro":13040,"Šte":13041,"u četvrtak ":13042,"ranom ":13043,"rada, ":13044,"rada.\n":13045,"nicu, ":13046,"revizi":13047,"lira ":13048,"bijanje ":13049,"zadržati ":13050,"došao u ":13051,"dig":13052,"veli ":13053,"većem ":13054,"ma o ":13055,"sar":13056,"s vremenom ":13057,"bor ":13058,"va iz ":13059,"puno":13060,"vje&zcaron;":13061,"nje, a ":13062,"njenih ":13063,"peu":13064,"ih se ":13065,"bespilo":13066,"sa za ":13067,", ali se ":13068,"l (":13069,"pa do ":13070,"takvom ":13071,"Midd":13072,"nja\n":13073,"i poda":13074,"eura":13075,"samo je ":13076,"samo su ":13077,"akciji ":13078,"nik i ":13079,"i uslu":13080,"godišnjim ":13081,"radika":13082,"odluču":13083,"metra ":13084,"osobnim ":13085,"minuti ":13086,"je utvr":13087,"tri mjeseca ":13088,"pisao je ":13089,"nego što ":13090,"svijeta":13091,"ove godine, ":13092,"Sum":13093,"-a, a ":13094,"važno je ":13095,"u ožuj":13096,"teških ":13097,"slučaj":13098,"bijele ":13099,"prvenstva.\n":13100,"glazbeni ":13101,"lopta ":13102,"udara ":13103,"brzinu ":13104,"njezinih ":13105,"oni su ":13106,"Fakul":13107,"ništa ne ":13108,"rujna ":13109,"obliž":13110,"Svi su ":13111,"veći broj ":13112,"muškarci ":13113,"kulturne ":13114,"naroda ":13115,"NATO-a ":13116,"upozoravaju ":13117,"Sjeverne ":13118," °C.\n":13119,"spominje ":13120,"zahtijeva ":13121,"Rumunj":13122,"motocik":13123,"utjecaj na ":13124,"Zakon o ":13125,"došlo je do ":13126,"raskriž":13127,"Vjerojatno ":13128,"AI":13129,"Eri":13130,"Fur":13131,"Ger":13132,"Sja":13133,"Saudi":13134,"U-":13135,"Ured":13136,"pče":13137,"umo":13138,"ubrz":13139,"i do ":13140,"i to je ":13141,"u srijedu ":13142,"ranji":13143,"postavi":13144,"postane ":13145,"tacije ":13146,"bilo, ":13147,"dosa":13148,"ja se ":13149,"ja od ":13150,"preš":13151,"jedni ":13152,"lu\n":13153,"lu, a ":13154,"od nas ":13155,"čila ":13156,"&ccaron;nog ":13157,"njenu ":13158,"svoj":13159,"svojeg ":13160,"ce za ":13161,"vijeće ":13162,"hol":13163,"imali smo ":13164,", ali su ":13165,"muzi":13166,"konzul":13167,"ru na ":13168,"cija, a ":13169,"slične ":13170,", potvrdi":13171,", pogledajte ":13172,"li su da ":13173,"Radio ":13174,"u kombi":13175,"Savje":13176,"i uvje":13177,"tijelu ":13178,"raditi.\n":13179,"svetog ":13180,"osobe, ":13181,"je ovaj ":13182,"sigurni ":13183,"Juče":13184,"proizvod ":13185,"službi ":13186,"prvi puta ":13187,"Marijan ":13188,"' - ":13189,"kakvom ":13190,"dom u ":13191,"Filip":13192,"dogodila se ":13193,"performan":13194,"Kule":13195,"suprugu ":13196,"gospoda":13197,"Drago":13198,"političkim ":13199,"novinara ":13200,"birača ":13201,"doveo ":13202,"zagrebački ":13203,"članove ":13204,"ozbiljne ":13205,"komentirala je ":13206,"Osijeku ":13207,"ljudskih ":13208," minuta.\n":13209,"Play":13210,"osoba, ":13211," km ":13212,"Razlog ":13213,"završnici ":13214,"prekid ":13215,"aktualni ":13216,"Tko je ":13217,"Željka ":13218,"destinacija ":13219,"Posljednji ":13220,"mom&ccaron;ad ":13221,"trudno":13222,"stvrdi":13223,"Nadam se da ":13224,"Counter":13225,"dakle, ":13226,"laboratori":13227,"kriptovalu":13228,"Jennifer ":13229," no":13230,"Ama":13231,"EK":13232,"Fon":13233,"Hil":13234,"Istra ":13235,"One ":13236,"Odu":13237,"mi po":13238,"nko ":13239,"vnica ":13240,"ždrije":13241,"o se na ":13242,"ranog ":13243,"reflek":13244,"pogod":13245,"na svijetu ":13246,"vašu ":13247,"tipi":13248,"laca ":13249,"sada su ":13250,"loža":13251,"za razliku od ":13252,"mega":13253,"sine":13254,"ni dio ":13255,"put, ":13256,"dekla":13257,"- HRT\n":13258,"z i ":13259,"kako je u ":13260,"žao ":13261,"da je riječ o ":13262,"najpopular":13263,"stranica ":13264,"sam na ":13265,"\" te ":13266,"author":13267,"onar":13268,"vratni":13269,"u pobjed":13270,"Nikada ":13271,"đaju ":13272,"je ona ":13273,"autor":13274,"lene ":13275,"Tom":13276,"i zajedni":13277,"verba":13278,"voljno ":13279,"govoriti o ":13280,"uspjeti ":13281,"crta":13282,"lom i ":13283,"gradska ":13284,"je došao ":13285,"on i ":13286,"otvorila ":13287,"Hajduku ":13288,"dolara, ":13289,"svi su ":13290,"pitan ":13291,"vjerojatnost ":13292,"u uspored":13293,"sustava, ":13294,"najvećeg ":13295,"Alen ":13296,"majke ":13297," godina i ":13298,"suradnja ":13299,"karijere.\n":13300,"skupinu ":13301,"navijače ":13302,"turiza":13303," \"\"":13304,"oboga":13305,"zagrebačke ":13306,"Kongre":13307,"EU.\n":13308,"činjenice ":13309,"neuro":13310,"posjetitelje ":13311,"Harry ":13312,"postupka ":13313,"plodi":13314,"opasnost ":13315,"izvješću ":13316,"bruto ":13317,"sastanku ":13318,"ovdje.\n":13319,"Zvonimir ":13320,"tachments":13321,"97":13322,"900":13323,"Areni ":13324,"Blan":13325,"BMW":13326,"NO":13327,"Stor":13328,"ea ":13329,"iko":13330,"ina ":13331,"lskog ":13332,"oksi":13333,"namet":13334,"rock ":13335,"oduvijek ":13336,"na društvenim mrežama ":13337,"line":13338,"lica, ":13339,"vića ":13340,"skro":13341,"zaprije":13342,"zasluž":13343,"dovi ":13344,"venih ":13345,"lj, ":13346,"progo":13347,"t iz ":13348,"pitali":13349,"godina po":13350,"što nije ":13351,"što prije ":13352,"nje\n":13353,"peter":13354,"osve":13355,"posveć":13356,"Zadra ":13357,", ali u ":13358,"sreću ":13359,"sretna ":13360,"da se to ":13361,"i osvoji":13362,"đena je ":13363,"blizi":13364,"kovima ":13365,"tr&zcaron;i":13366,"Sam":13367,"škole, ":13368,"rekli da ":13369,"Novak ":13370,"izbore.\n":13371,"godišnjih ":13372,", ovi":13373,"cima u ":13374,"mjeseci, ":13375,"kazne ":13376,"Inf":13377,"zdravlje.\n":13378,"uzeo ":13379,"kakvog ":13380,"cjelovi":13381,"Finan":13382,"umjere":13383,"lagan":13384,"seks ":13385,"posjet ":13386," posto, a ":13387,"vlastitim ":13388,"&cacute;a i ":13389,"pokazali ":13390,"Musi":13391,"upozore":13392,"Da je ":13393,"smatra da ":13394,"uživo ":13395,"u kojima su ":13396,"imble":13397,"hotelu ":13398," kilograma ":13399,"preporučuje ":13400,"tjedan dana ":13401,"der Ley":13402,"pronašla ":13403,"Bliskom ":13404,"Atlan":13405,"Que":13406,"govorio o ":13407,"Gattuso ":13408,"najuspješ":13409," odnosno ":13410,"..\n":13411,"Isk":13412,"aro":13413,"ali i ":13414,"afri":13415,"ionako ":13416,"ng":13417,"ubrzo ":13418,"vnice ":13419,", to ":13420,"na&ccaron;el":13421,"poha":13422,"vama i ":13423,"laskom ":13424,"von ":13425,"cirati ":13426,"doša":13427,"mojih ":13428,"lom":13429,"toksi":13430,"pripada ":13431,"bosan":13432,"mo s ":13433,"susje":13434,"suda u ":13435,"selu ":13436,"pismo ":13437,"bača":13438,"jubi":13439,"detek":13440,"obveze ":13441,"Max":13442,"ber ":13443,"ce na ":13444,"Zajedno ":13445,"ski i ":13446,"šesna":13447,"Kakav ":13448,"pa sam ":13449,"koje sam ":13450,"takvi ":13451,"broja":13452,"krivo":13453,"količi":13454,"cu za ":13455,"&ccaron;ega ":13456,"Kom":13457,"Dio ":13458,"radnim ":13459,"radnici ":13460,"tako da je ":13461,"Boy":13462,"svjetskim ":13463,"ženja ":13464,"medijske ":13465,"i zato ":13466,"ljudi koji su ":13467,"Lucija ":13468,"gradskoj ":13469,"organiz":13470,"danas u ":13471,"Demokra":13472,"dres ":13473,"ekskluzi":13474,"To se ":13475,"kandidati ":13476,"najveću ":13477,"kada je u ":13478,"došla ":13479,"Šimu":13480,"trudi":13481,"kupila ":13482,"izborni ":13483,"Hote":13484,"grupa":13485,"Rusiji ":13486,"poslala ":13487,"jezik ":13488,"motivira":13489,"ide na ":13490,"Mladen ":13491,"djece i ":13492,"društvenim mrežama, ":13493,"ding":13494,"ovakvih ":13495,"električnih ":13496,"smanjenja ":13497,"planiraju ":13498,"Stoj":13499,"sebi.\n":13500,"ming ":13501,"prirode ":13502,"bicioz":13503,"s obzirom na to ":13504,"&zcaron;uj":13505,"povećati ":13506,"ozljeda ":13507,"slavlje ":13508,"u kojemu ":13509," objašnjava ":13510,"Hen":13511,"Knji":13512,"Obu":13513,"TA ":13514,"aku":13515,"imi":13516,"l_":13517,"vskog ":13518,"jemo, ":13519,"je tako ":13520,"ra&zcaron;":13521,"ranja ":13522,"reha":13523,"ponedjeljak ":13524,"odlazi":13525,"odboj":13526,"liti":13527,"noge ":13528,"ti: ":13529,"te?\n":13530,"lari":13531,"jačanje ":13532,"mo&cacute;i ":13533,"ruje ":13534,"gost ":13535,"ka koji ":13536,"d - ":13537,"čić":13538,"žić ":13539,"ce s ":13540,"kralja ":13541,"U petak ":13542,"imale ":13543,"imali su ":13544,"nakon utakmice ":13545,"venti":13546,"ska vojska ":13547,"opcija ":13548,"ostati u ":13549,"Ranije ":13550,"predsjednički ":13551,"lan.\n":13552,"Komentira":13553,"intelek":13554,"Profi":13555,"snazi ":13556,"faši":13557,"je na kraju ":13558,"pomoći.\n":13559,"mrež":13560,"Teh":13561,"nadbi":13562,"Splitu ":13563,"loškim ":13564,"događaja.\n":13565,"smrto":13566,"ograf":13567,"sudjelovati u ":13568,"nezaposle":13569,"prošle sezone ":13570,"Federa":13571,"poluvremenu ":13572,"kojim se ":13573,"ne može biti ":13574,"ni i Hercegovi":13575,"redatelja ":13576,"osnovnih ":13577,"izvijestio je ":13578,"povratka ":13579,"civilne ":13580,"Zdravko ":13581,"Bosni i Hercegovi":13582,"mijenjati ":13583,"Roberta ":13584,"tenisač ":13585,"Istre ":13586,"ulaganja u ":13587,"riječima, ":13588,"Mercede":13589,"događan":13590,"egzi":13591,"zadovolja":13592,"Zanimljivo je ":13593,"Google ":13594,"Miroslav ":13595,"\"ne":13596,"/Cropix":13597,"hos":13598,"ld":13599,"oca ":13600,"t\" ":13601,"vcu ":13602,"zni ":13603,", ne ":13604,"st\n":13605,"korek":13606,"popi":13607,"počinje":13608,"kama i ":13609,"telje.\n":13610,"jah":13611,"lova ":13612,"loš ":13613,"prolazi ":13614,"leđa ":13615,"metro":13616,"boji ":13617,"subje":13618,"žiča":13619,"žive u ":13620,"pravno ":13621,"peda":13622,"žena.\n":13623,"rije&ccaron; ":13624,"šire":13625,"Pore":13626,"plaću ":13627,"drasti":13628,"li su ga ":13629,"li su se u ":13630,"ostaju ":13631,"i unu":13632,"vukao ":13633,"bjega":13634,"svjetska ":13635,"autocesti ":13636,"izaziva ":13637,"među njima ":13638," eura\n":13639,"mrša":13640,"podrazumije":13641,"li smo u ":13642,"organizirati ":13643,"teškom ":13644,"Za razliku od ":13645,"lokaciji ":13646,"predsjednik Vlade ":13647,"radi se o ":13648,"Hrvatske u ":13649,"državnim ":13650,"roditelje ":13651,"lazi iz ":13652,"Odli":13653,"235":13654,"ništa nije ":13655,"kilogra":13656,"energiju ":13657,"komunisti":13658,"Uz to, ":13659,"Španjolske ":13660,"objasnio ":13661,"terapeu":13662,"shvatiti ":13663,"Harri":13664,"Genera":13665,"podignu":13666,"eksplodi":13667,"radionice ":13668,"sjeveru ":13669,"pozitivan ":13670,"prvenstva u ":13671,"nikakvih ":13672,"bez obzira ":13673,"Budimpe":13674,"Domagoj ":13675,"spominja":13676,"intervjuu za ":13677,"Pantov":13678,"Volodi":13679,"bazen":13680,"Primjerice, ":13681,"Katarina ":13682,"Genna":13683,"vno odvjetništvo ":13684," kvadra":13685,"brije":13686,"l\n":13687,"tti ":13688,"uča":13689,"ubrza":13690,"je do ":13691,"košta ":13692,"nijom ":13693,"nijan":13694,"nikome ":13695,"nače":13696,"nokau":13697,"nekoj ":13698,"entu":13699,"dominira":13700,"preba":13701,"gori ":13702,"mene":13703,"granica ":13704,"stima ":13705,"godina":13706,". &Ccaron;":13707,"koji nije ":13708,"duge ":13709,"tretira":13710,"&cacute;im ":13711,"gua":13712,"z (":13713,"osobo":13714,"nosti o":13715,"ženama ":13716,"njima i ":13717,"Naši ":13718,"šena ":13719,"munika":13720,"sretni ":13721,"da se na ":13722,"alternati":13723,"jer smo ":13724,"manje":13725,"sladole":13726,"lijeko":13727,"svad":13728,"životno ":13729,"utakmica, ":13730,"či su ":13731,"&ccaron;io ":13732,"&zcaron;io ":13733,"&ccaron;ak i ":13734,"najbolji":13735,"podnijeti ":13736,"važnu ":13737,"dobivaju ":13738,"rasprave ":13739,"posljednjoj ":13740,"očevi":13741,"Deta":13742,"glavnim ":13743,"Simo":13744,"sad je ":13745,"zaključuje ":13746,". minuti, ":13747,"jednu od ":13748,"Crna ":13749,"otići ":13750,"Američki ":13751,"gostitelj":13752,"atleti":13753,"vidite ":13754,"nacionalnog ":13755,"bilježi ":13756,"Broj ":13757,"Zagreba, ":13758,"Zagrebačke ":13759,"građana.\n":13760,"svojedob":13761,"primili ":13762,"Razgovara":13763,"festivalu ":13764,"Gospodi":13765,"odluku o ":13766,"četvrtfinalu ":13767,"magne":13768,"razdoblju od ":13769,"od kojih je ":13770,"sveučiliš":13771,"Lovre ":13772,"hrvatskoga ":13773,"dimenzi":13774,"Slobodna Dalma":13775,"rehabili":13776," dana.\n":13777,"JA ":13778,"Roko ":13779,"Sho":13780,"Stran":13781,"at ":13782,"g, a ":13783,"s) [":13784,"ništ":13785,"ponovo ":13786,"da na":13787,"jača ":13788,"new":13789,"zaigra":13790,"dočeku":13791,"ne - ":13792,"za njih ":13793,"pri&ccaron;a ":13794,"informira":13795,"stiza":13796,"curi":13797,"garan":13798,"ke su ":13799,"- u ":13800,"djecu, ":13801,"tu s ":13802,"imaš ":13803,"solar":13804,"vu na ":13805,"pa tako ":13806,"kontej":13807,"ili pak ":13808,"krijum":13809,"kretanje ":13810,"čući ":13811,"i ona ":13812,", postoji ":13813,"open":13814,"veliko":13815,"kovi&cacute; ":13816,"jedinim ":13817,"Nik":13818,"koliko god ":13819,"škole.\n":13820,"pisali ":13821,"Duba":13822,"&zcaron;iti ":13823,"hranji":13824,"igra u ":13825,"tome što ":13826,"dobiju ":13827,"rezultat.\n":13828,"Hajduka, ":13829,"Imate ":13830,"srpskog ":13831,"izbornog ":13832,"drugi.\n":13833,"kojeg se ":13834,"poreza na ":13835,"kolovoza ":13836,"ne bi bilo ":13837,"Društ":13838,"ekipu ":13839,"čekati ":13840,"obitelj.\n":13841,"reći da je ":13842,"pisan ":13843,"obilježava ":13844,"nicama, ":13845,"dvaput ":13846,"teškoj ":13847,"je se da će ":13848,"kombinira":13849,"okuplja ":13850,"potroš":13851,"albuma ":13852,"životinja ":13853,"početkom u ":13854,"ljubav prema ":13855,"slijedio ":13856,"Premier ":13857,"&ccaron;etvrtak ":13858,"Telegra":13859,"komplicira":13860,"Rezulta":13861,". siječnja":13862," miliju":13863,"\"Ne ":13864,"140":13865,"Jak":13866,"KA ":13867,"Le ":13868,"Sk":13869,"Sna":13870,"Snim":13871,"Th":13872,"Tot":13873,"cka":13874,"mno ":13875,"ona je ":13876,"srije":13877,"ulje ":13878,"ubla":13879,"šanja ":13880,"švicar":13881,"u '":13882,"komi":13883,"lide":13884,"nepre":13885,"ciklo":13886,"skin":13887,"dostoj":13888,"ne s ":13889,"vesti ":13890,"ve&cacute;i ":13891,"provoka":13892,"no od ":13893,"tove ":13894,"ju da je ":13895,"daš ":13896,"s za ":13897,"s dva ":13898,"prije, ":13899,"suče":13900,"suho":13901,"stipendi":13902,"luka ":13903,"ju: ":13904,"jutra ":13905,"obveza":13906,"peci":13907,"ljuti":13908,"znala ":13909,"znanje ":13910,"Miro ":13911,"alterna":13912,"igra&ccaron; ":13913,"držao ":13914,"države.\n":13915,"javio je ":13916,"životni ":13917,"Novu ":13918,"svega, ":13919,"jući na ":13920,"Antho":13921,"uzme ":13922,"zrak ":13923,"srcu ":13924,"kaznu ":13925,"otkrili ":13926,"je zabio ":13927,"Bugar":13928,"postaju ":13929,"dobije ":13930,"Tex":13931,"vrlo brzo ":13932,"glavnu ":13933,"bijen":13934,"cjepi":13935,"samoj ":13936,"dogoditi ":13937,"Prve ":13938,"je bio u ":13939,"priznao ":13940,"manipula":13941,"gospodarstvo ":13942,"se oglasi":13943,"institucija ":13944,"Znan":13945,"Šibeniku ":13946,"dvadesetak ":13947,"nitko ne ":13948,"odrasli":13949,"stadion ":13950,"čime se ":13951,"osvajanje ":13952,"kampanju ":13953,"Sabor ":13954,"borbi protiv ":13955,"došli do ":13956,"tambu":13957,"Kandi":13958,"Varaždinske županije ":13959," objasnio je ":13960,"text":13961,"Centra za ":13962,"priušti":13963,"Richar":13964,"toleran":13965," iz ":13966,"-ova":13967,"Cristi":13968,"Dre":13969,"Ed":13970,"Svi":13971,"dski ":13972,"eta":13973,"ocije":13974,"t/":13975,"zz ":13976,"čnosti ":13977,"i sve ":13978,"jez":13979,"je sa ":13980,"ninu ":13981,"podržava ":13982,"odva":13983,"odradio ":13984,"kalori":13985,"tiva ":13986,"da ću ":13987,"java ":13988,"nekada ":13989,"mak ":13990,"mail ":13991,"zastra":13992,"zagr":13993,"zaredom ":13994,"ljane ":13995,"lomi":13996,"topi":13997,"inženje":13998,"r iz ":13999,"suca ":14000,"grade ":14001,"stiho":14002,"lumbi":14003,"pun":14004,"bah":14005,"debe":14006,"vrlo je ":14007,"ži.\n":14008,"treću ":14009,"nije mogla ":14010,"njima, ":14011,"Nata":14012,"spoj ":14013,", ali to ":14014,"vodstva ":14015,"koje imaju ":14016,"koja je za":14017,"pjesama ":14018,"tno je ":14019,"Sabor":14020,"dodao je.\n":14021,"slova":14022,"ciju na ":14023,"našla ":14024,"gledamo ":14025,"svejedno ":14026,"Vic":14027,"vić (":14028,"Super ":14029,"fazu ":14030,"gradskih ":14031,"u Slavo":14032,"poslovanja ":14033,"domaćin":14034,"146":14035,"sustava.\n":14036,"određenih ":14037,"koncesi":14038,"Njema&ccaron;":14039,"turista ":14040,"pobjedu.\n":14041,"Slav":14042,"ulica ":14043,"produktiv":14044,"vratiti u ":14045,"službenoj ":14046,"funkciju ":14047,"periodu ":14048,"prakti":14049,"i ostale ":14050,"izgradnji ":14051,"ostvarili ":14052,"izborima.\n":14053,"ograničen":14054,"OVA":14055,"Saboru ":14056,"povećava ":14057,"Odluka ":14058,"Njemačkoj.\n":14059,"Viktor ":14060,"zanema":14061,"pacijenata ":14062,"Donald Trump ":14063,"pucnja":14064,"svlačio":14065,"knjiz":14066," promi":14067,"091":14068,"Hra":14069,"HTV":14070,"Isla":14071,"Istanbu":14072,"SN":14073,"San ":14074,"Umje":14075,"Wimble":14076,"_the_":14077,"clu":14078,"ota":14079,"osi":14080,"uvr":14081,"ulja ":14082,"ugovor":14083,"riski":14084,"nose":14085,"kademi":14086,"ka&zcaron;u ":14087,"tip ":14088,"nese":14089,"progovori":14090,"stalo ":14091,"ins_":14092,"bok":14093,"boli":14094,"stičke ":14095,"od čega ":14096,", a i ":14097,"juća ":14098,"&cacute;u.\n":14099,"trau":14100,"žena u ":14101,"fik":14102,"glave ":14103,"ski mediji ":14104,"vu u ":14105,"anje i ":14106,"plavi ":14107,"tvrtku ":14108,"samo nekoliko ":14109,"Neret":14110,"i uče":14111,"životne ":14112,"Novi":14113,"prije kraja ":14114,", ova ":14115,"&ccaron;iji ":14116,"je uhi":14117,"tan.\n":14118,"faze ":14119,"rodne ":14120,"&zcaron;elje":14121,"završava ":14122,"startu ":14123,"lokacija ":14124,"Lope":14125,"Ivanu ":14126,"ljubavi":14127,"njezinoj ":14128," godina":14129,"dobrodoš":14130,"Soci":14131,"dugogodišnji ":14132,"Dr&zcaron;a":14133,"biraju ":14134,"Koncer":14135,"posao, ":14136,"kulture i ":14137,"splitskom ":14138,"u kojima se ":14139,"turistički ":14140,"zanimljivo ":14141,"dvojice ":14142,"komentara ":14143,"Zagreb.\n":14144,"kontaktira":14145,"stotina ":14146,"Vijeća ":14147,"naglasio je ":14148,"ubojstvo ":14149,"slu&ccaron;aju ":14150,"Ljubav je na ":14151,"t_article":14152,"contains_":14153,"održivog ":14154,"neposredno ":14155,"obnovlji":14156,"Michael ":14157,"raspolaganju ":14158,"u konačnici ":14159,"Bundesli":14160," #":14161," protiv ":14162," tisuće ":14163,"))":14164,"226":14165,"Emi":14166,"Kno":14167,"Obo":14168,"d\n":14169,"gdje":14170,"ldemokra":14171,"opušte":14172,"uklan":14173,"je po ":14174,", da ":14175,"nicu":14176,"naknad":14177,"vin ":14178,"vak":14179,"vaju.\n":14180,"jave ":14181,"talno ":14182,"mater":14183,"ne na":14184,"ne postoji ":14185,"ruskom ":14186,"leđ":14187,"papri":14188,"mo da je ":14189,"punu ":14190,", a zatim ":14191,"&ccaron; je ":14192,"koji smo ":14193,"stopa":14194,"- kazala je ":14195,"djece":14196,"kako smo ":14197,"trago":14198,"žena, ":14199,"najvjerojatnije ":14200,"šića ":14201,"socio":14202,"anosti ":14203,"ana i ":14204,"manjem ":14205,"greša":14206,"još je ":14207,"države, ":14208,"hvalio ":14209,"Red ":14210,"Dino ":14211,"interak":14212,", ove ":14213,"poznatih ":14214,"mlađe":14215,"be u ":14216,"autoce":14217,"Duna":14218,"medija":14219,"obrambe":14220,"govorimo o ":14221,"ran u ":14222,"Inte":14223,"komponen":14224,"Put ":14225,"tešku ":14226,"dobri ":14227,"situacijama ":14228,"također je ":14229,"lagano ":14230,"prodaja ":14231,"lošku ":14232,"Al-":14233,"....\n":14234,"kvaliteta ":14235,"transak":14236,"nikakav ":14237,"novinare ":14238,"završio je ":14239,"mjesta za ":14240,"chef ":14241,"ha i ":14242,"snimku ":14243,"sko-knin":14244,"BiH.\n":14245,"frizu":14246,"dolazi iz ":14247,"žrtva ":14248,"odobno ":14249,"zapali":14250,"odluke o ":14251,"poboljšati ":14252," bodova, ":14253,"špiju":14254," stupnjeva.\n":14255,", auto":14256,"SDSS":14257,"Crne Gor":14258,"djelomično ":14259,"tromjeseč":14260,"Temperatu":14261," no ":14262,".)\n":14263,".info":14264,"Usko":14265,"ban ":14266,"bloka":14267,"dža":14268,"hu.\n":14269,"imple":14270,"otu":14271,"plja":14272,"tte ":14273,"uvre":14274,"yl":14275,"je koje ":14276,", piše ":14277,"niti.\n":14278,"nička ":14279,"nape":14280,"ribar":14281,"viši ":14282,"cilja":14283,"se vidi ":14284,"la da se ":14285,"veo":14286,"izbi":14287,"pristupa ":14288,"stil ":14289,"ziti ":14290,"žite ":14291,"prava, ":14292,"- a ":14293,
[...]
