#version: 0.2
  क
े  
ी  
ा  
र  
। 

े ं
  स
  म
 क े 
् र
ा र
  प
ा न
  ह
ो ं
न े 
ि य
 क ी 
र ्
ो  
् य
ा ल
  ब
स ्
ै ।

  ज
ि क
ा  क
ा ं
  र
ा  ह
ि ल
  द
ा य
ा म
क ्
न े
 क ो 
  व
औ र 
ा ।

  अ
स े 
ल ि
ा र 
 स े 
ै ं
  ल
इ स
 क ा 
  न
 क र
ि त
ा त
ा द
  ने 
  ग
 क ो
  भ
ा ज
ी  ह
  आ
  त
प ्र
े श
े  ह
ी ं
र ह
ि न
ि ं
िय ा 
ा स
  और 
  श
 क ि
ा व
ो ग
क े 
क र 
 प र 
उ न
ी ।

प ु
ि व
लि ए
 प ्र
ल े
ा ह
  ए
ा ई
ी  म
त ि
ा क ि
त ्
  च
ी  क
ैं ।

  य
न ा 
क् ष
प र 
 के  लिए
् ट
ा थ
 के  स
व ि
 के  ब
भ ी 
ग य
ा इ
ु र
े  क
 क र 
े ।

् व
ा ए
र ो
  थ
  उ
र  म
ल े 
ि स
् ह
ा  म
ं त
ं द
 र ह
ा ,
व ाल
 क ह
् म
त े ह
त ा 
ा ग
स् ट
ी  स
र ी
ं ग
लि स
ा ब
े ट
प ह
  फ
ु न
् त
र् म
े ल
ि श
स् त
प र
ज न
ए क
उन ्ह
ड ़
द ्
ु ल
  ड
क ार
ी न
ा  स
स् थ
् ल
  ख
ी य
ं ड
 ह ो
ी  ब
ु ं
द ेश
ु क
2 0
  ट
ा प
ि र
  इ
द े
ल ग
 क िया 
त ाय
 न ह
प ी
ग ्र
 ह ु
ा  थ
ी म
ु म
य ह
ा क
् ष
 व ि
प ू
ध िक
ग ई
े स
न ि
अ प
ो न
ं ब
ा ह ै
े  म
क् ट
र  क
ी ,
ी त
 के स ाथ
 स म
ौ र
ब ताय
. 

स र
स म
 ए क
ा  ज
 के ब ाद
े ज
श न
 ह ो 
न ह
ार ्
स ी
ंत ्र
ध ्य
ा  के 
पु लिस
ो ल
ओ ं
व ह
  इस
ा  रह
 म ह
र् ट
 भ ी 
 प ह
उ स
ने  कह
़ ा
े क
 क िय
ार ्य
व ार
ी  के 
ु प
ु ए
ा फ
ो ट
े त
म ु
र ाज
ार ी 
  घ
े र
ा ओं
ै ,
् च
न ी 
ार त
क ी 
 स ्
ा  की 
ने  वाल
ान े
अ न
 स ं
ा श
 ल ग
ू र
ि ए
 म िल
र् व
े न
ी  की 
ं ट
रो प
ि ट
 त क
ी ट
बताय ा कि
र् ज
त ा ह
् स
ए स
र  स
ध ान
 द े
इस के 
 कर ने
ब ाद
ख ्य
ह र
स ी 
ू ल
 प ु
े ड
र  से 
ज ान
ो क
म ान
स ं
ा ण
ए म
ौर ान
़ ी
भ ाग
ल ोग
त क
क ्र
ुन ाव
ा  द
ु व
 प र
त ी ह
 ल ोग
ं ज
स् प
ा  गय
ह म
े ग
 र ाज
ा  ब
ले कर 
 ब न
ाए ग
ल ्
 ह ी 
ं ध
ष ्ट
 के  द
ी ज
ी  थ
प ास
ते ह ुए
ि म
ात ्र
क् त
ू प
ने कह ा कि
ि प
ी ड
च ्च
च ल
त ्य
ा ख
क ि
ी  ज
ा ट
ै न
ा है  कि
 ह ै
ी च
पु र
आ ई
 अ प
  (
ार ्ट
ो र
 क ुम
स भ
ने  क
 की  म
1 0
ू न
र ण
े व
ी व
 की  ज
ु छ
् न
ा  और 
ो ज
 पु लिस
20 2
 स ाल
ी  ने 
ि ज
 म ु
 किया  गय
इ न
क ार 
क ा 
ग र 
 य ह
  छ
  उन
 को  स
ब ह
 ग ए
 कर  द
त े 
व ाई
ी  द
 ब ज
े द
 के  म
अ धिक
्व ार
आ रोप
ो ह
ी क
ु आ
ि र 
ाल य
स् व
ी प
 व ह
 की  स
 हु ई
ढ ़
त ाल
ो र्ट
ान े 
ा ड
ा क र
स् क
ज ब
 द िन
च ुनाव
ख िल
े ,
ग्र ेस
ष ्
ुर ू
 उ स
ौ त
अप ने 
ा ध
आ य
ी  और 
ी  से 
 क ार्य
ी ल
ा -
 र ुप
िव ार
र् ष
स ल
 ज िस
 अ न
म ंत्र
श िक
ी ब
ी र
ान ा 
र् स
र् त
 त ो 
ध्य क्ष
 क े क
 ल ेक
स ाथ
ट न
िल ा 
े म
 स र
ं प
ी  प
ा कर 
गई ।

़ े
  ध
 ह म
 लेक िन
न ाम
त र
द ू
ह ाल
ं च
ो द
ू ट
पु र 
द् ध
ल  म
फ ्त
ैं ,
म ह
द ्र
 की  ब
ट ्र
व ्य
ाय त
ार ण
र  पर 
भ ारत
ज िस
क् स
प ाल
 के  अ
ेश न
पह ले 
ु स
 कर  रह
ार िय
 स् थ
व ान
  उन्ह
िय ा ह
ी  न
 न ि
ी  का 
र ाम
व ं
ी  त
ग ए
ा 

 ग ई
र  ह
ो ड
 स क
ा क ो 
से  म
ज य
 को  ब
 को ई
िया  गय
 की  ह
ॉ ल
ले क
ो जन
न  म
ू च
ो ड़
ं क
स द
अ ब
ू ं
च ाह
द ्य
 कुम ार 
ाज प
 आ य
द ान
 स ु
ाम िल
 हु आ
े य
ग िर
य े 
र् च
ा  ने 
  ने
ा ष्ट
ै ठ
व ार 
 क म
ले  म
स ्य
दे ख
ने वाल े 
 भ ारत
 म ौ
र  द
 ज ब
 को  लेकर 
स्प ताल
िव ास
व र
िक ल
ज ्
र  ब
त् त
ू द
र् ड
ज ह
ि ख
ाय क
ो म
ै ल
,  
ज र
ू म
 ह ोग
भ ाव
स्थ ान
 म ाम
ै य
ा  प
 को  प
खिल ाफ
र् ग
 ल ाख
स ान
द र्
 कर ने 
ेत ्र
 किया  ज
ह न
 कि ए
 क ा क
ने  के लिए
ै स
 ने  बताया कि
ा च
ने  की 
स्थ ित
 च ल
द म
क्र म
उ प
 ग य
ड ी
्य ाद
ो ष
र् ण
 ट ्र
ह त
 स ्ट
्ष ेत्र
े  थ
 प ू
स ु
 अ धिक
श ्र
ाइ न
र् थ
ुव क
 ल े
िल ्म
 के  आ
् ‍
री क्ष
त ो 
 बज े 
द िन
 र ख
ग र
क् ति
 रुप ए
 से  ज
ी द
ार  म
ु त
त ्र
इसके  बाद
ब ्
 के द ौरान
्र वाई
ा क ा 
ा उ
पुलिस  ने 
5 0
लेक िन
 ज न
ाष्ट ्र
 क ्य
 व ्य
म ्म
 कर ीब
ि छ
ी  अ
ी  को 
जान कार
ार ्रवाई
ज ूद
 ह ज
  ऑ
द ल
ह ित
? 

र ात
वार  को 
ाय ा गय
 की  त
 के ब ीच
ै से 
 उ प
1 2
़ ि
ने  के बाद
ाम ने 
द् र 
य ोग
ु ई
् ड
ु ट
पू र
औ र क
आ प
 वि भाग
3 0
आ र
ी  ग
 द ्वार
 से  ब
ट ीम
ो ब
ार  ह
ास न
ने  का 
ार िश
ाय ल
ग े 
िल ्ल
गई  ह
 म ंत्र
ाद व
 के  प्र
 किय ा ह
व ाह
ने  से 
ात े ह
ब से 
ाए ं
फ्त ार
1 9
के  पर 
त् र 
ि ह
ाइ क
 प ूर
अ ल
 के  त
म ाम
र व
उन के 
ुर ु
 हु ए
  "
भ ी
 के  पास
. .
र् य
 के  र
 ग ्र
ड़ क
 के  प
पर ि
ी  व
 प्र ति
म ेर
आ ज
म िल
 ज ान
ज िल
क र
 क ुछ
 क ी क
 अ ब
वि श
 ज िल
े स्ट
्य ू
 श ्र
ो ड़
ज् ञ
 स े क
 ब ार 
प्र देश
ं स
ा  न
 श ामिल
 क ई
 अप ने 
ॉ .
ि ग
ी 

ी ण
उस के 
,  स
व े 
 ज ो 
 के  खिलाफ
ल ा
ाइ ल
ान ी 
ंग ल
वि ध
पू र्व
ै .

ी -
ाय र
द ो
ल ोक
त् व
ि स्ट
ात ा ह
ा ड़
अन ुस
्ष े
भ ग
 द ौरान
1 5
ा रह ा ह
 व र्ष
ो श
ु द
 कर ते हुए
सभ ा 
ूच ना 
 आ रोप
ब र
च ार
 कि सी 
न ा ह
ध ार
ीड िय
ने  पर 
 स ्व
क्ट र 
ृ त
ने  बताया कि
म ौ
 द िय
र ाब
नि र्
ार् ड
 है  कि
 स ी
ब न
् छ
च ्छ
 क ाम
ुर क्ष
र िक
दे व
 आ प
ग ल
च ुक
् र 
घ टन
ार े 
क  म
े प
म र
च ान
ंब ंध
त् र म
 ए वं
द ोन
  '
 श िक
पह ल
दर् शन
ा क ो
इस म
 ट ीम
र् फ
चाह िए
र ख
 व िक
फ र
  ऐ
ा धिक
 स् क
ब ंध
 श ुरू
ॉ न
 के  न
 द र्ज
ी  को
ा स क
गिर फ्तार
1 1
ग ह
आ व
ा रह ी ह
िया  थ
िप ोर्ट
े ब
 च ौ
श ुरू
इस  दौरान
मु ख्य
 व िश
 अ भ
 अ व
20 1
ा  ग
 हज ार 
िय म
ने  म
  ने कहा कि
ो स्ट
 रह ा ह
ंब र
ै क
ाने  के लिए
ु क्त
 मह िल
ु ड
 इ न
त ीन
व न
ें ।

 पह ले 
श ासन
े ष
0 0
 दे ख
ी  कर
 से  ह
ीं ,
दू सर
ाइ ट
 को  क
ु ध
 म न
ी  र
ाक ि
म न
 की  ओ
ट ना 
र् क
ि ,
व िक
ए न
ार े म
् प
भ ाजप
ाय ा ज
े -
ज र 
 म ान
प ति
 प र क
क ो 
राज ्य
प त्
 आ ज
ु श
ा  से 
 को  द
 क ै
लि ख
 य ादव
ा  प्र
त  म
  ओ
 का  स
अ भ
च ाल
आ ए
 ब च्च
 रह ी ह
् क
स क
ो ध
ी स
ल ाल
म्म ीद
 को र्ट
िया  ज
इस से 
अप नी 
 करीब  
िव ार 
ग्र ाम
त ाब
ी श
 म ै
ार् थ
उ से 
प ित
,  ब
 र ाम
ू सर
िछ ले 
 अन ्य
शिक ्ष
 स ीट
श व
2 5
शिक ायत
 की  श
पु र म
य ू
े ह
 रह े ह
 त ो
 राज ्य
 हो  रह
 करने  के लिए
 आ ई
ी  श
 कर  ल
ान  म
 द ेश
सभा  चुनाव
 कि सान
ग म
ंब र 
ार ी क
े  से 
 मु ख्य
द् द
ाए ंग
 हो  गय
ज ीत
ध र
च ौ
ी  प्र
ष् ठ
 द ोन
 श र्म
 उन के 
 सम य
 ब ात
ि फ
ख ंड
 प द
अ स्पताल
 अ ग
े  के 
द ि
  झ
वि धान
र्म ाण
ार ,
ीं ।

 च ुनाव
ूप  म
द र
ा स्त
ी एम
ाष्ट्र ीय
व  म
अ लग
 स े
गए ।

ी  पर 
  ठ
ा  त
 से  स
 ए स
 को  म
न ्य
ब ड
ी ह ै
ताब िक
ान ा क
ाप ्त
्र म
व स्थ
द ो 
िक ाल
 य ुवक
 ल ोक
क् शन
निर् देश
 प ार्ट
 सर कार
क्ट र
 स्थ ित
स े
ले ज
ा  नह
फ िल्म
मु ताबिक
ा  व
 क ॉ
द स्य
 घ ंट
ी  नह
ी  आ
 कर ोड़
इ ल
िय ाण
  ने क
्षे त्र म
a n
ज म
ंप न
 ह र
  और क
 र ूप
ने त
क ाल
ू ब
अ व
ि ग्र
द ीप
रो ध
िय ान
ग ढ़
फ िर 
ग ु
ा .

ब च्च
1 4
 क ार्रवाई
सम य
ु भ
ाह र 
2 4
 के  ह
 म ंद
 ज ह
ा  ल
 स भी 
िज ल
ष् ण
 सर कार 
ा ठ
घ र
ज ात
 न व
 प्र देश
 ब ह
 पह ल
द्य ालय
ा ह ुआ
 कर ना 
ब ी
त ा
त ल
य ान
स् स
ीड िया 
ी  कि
 भ ेज
 स ह
 हो  गई।

री ज
,  म
 स्क ूल
ाए ।

 ल े 
 व ाल
त् स
री द
 न िवास
भ र
ा स्थ
 की  र
ा  र
 भ ाजप
 गई ।

 गए ।

ने  लग
 किया गय ा ह
ुक ान
े  और 
मु ख
 य े 
च ार 
ो स
न ी
पी ट
आ ग
अन ्य
 के  अनुस
पू र्ण
िया गय ा ह
1 8
प्र ति
धान मंत्र
र  ज
ो  म
व ाद
प ड
स्क ूल
 की  प
ृ तक
ल् द
श ्य
ा ध्य
 से  म
ा  अ
1 3
च िव
 की ब ात
छ ात्र
 शिक ्ष
उन क
स भी 
 म ार्
 त ीन
 के स म
 पुलिस  ने 
 को  न
ड़ क
ंज ाब
ुक ्र
क्ट ्र
क ाश
ध ार 
 द िए
ए ल
1 6
ोज ित
तर फ
 कार्य क्रम
ो पाल
 ज िन
य ुवक
 किया  थ
फ ल
स ाल
प क्ष
ी स म
 को  ज
भ ाई
िय न
ी म ह
 के ब ारे म
ार ी
 ले कर 
साथ  ही 
 स ुन
 फ िल्म
 आ व
ू त
 ब ड
 पर  ब
र  रह
ता  द
 के  लोग
ी  ल
ता  थ
,  क
श ाम
 र न
परि जन
ुल ाई
द ु
ी  च
 ब ैठ
ा ह ो
 का  प
1 7
ब ाज
े  पर 
ि ध
 द ो 
वि भाग
प ्
ी ह ुई
श ह
 और  स
के  बाद
ी त रह
आय ोजन
 द िख
 कर द िय
ग त
स्ट ्र
 ज म
 का  प्र
सु बह
 द ूसर
े क ारण
र ाह
 के  ज
िन ्न
ात ार 
ौ ं
ाम ान
े  की 
र् न
 ज ीत
 के त हत
स्त ान
 की ओ र से 
चाहिए ।

 ड िग्र
ाप मान
 कर व
ब ेट
र  और 
ए वं
ं भ
 जिस म
श त
 त रह
 कह ा कि
 पर  ह
िव ाद
अल ाव
ाब ाद
र  प
हन ा है कि
क ो
 ज ून
ठ न
 पू र्व
 इ ंड
ौ ल
ज ्याद
 क र्म
 मौ के पर 
 क ्र
ुर ुआ
ान े म
द ात
ंड ल
ी  ख
भ ी क
 ब ाद
म ित
गई  थ
रो ड
फ ्र
अप न
व ाब
 कर ते ह
 भ ी क
20 0
घ ायल
श ्व
य ास
 अ स्पताल
 मह ी
 कर रह े ह
झ े 
 अ ध्यक्ष
उ म्मीद
,  प
प ार्ट
 ग िर
 के र ूप म
 वि ध
 को  अ
ि ने
 की म ौत
 स्थ ान
  ने कह
 श िव
सर कार
न ीत
ै र
 को  भी 
ेय र
द ार 
र ुप
 ग्र ाम
ए फ
घ र 
ैं .

 माम ले म
ं भी
ेव ल
भ िन्न
 व े 
ेश ान
 गए  ह
 ब ारिश
ड ॉ
 पर ि
र् द
ा  ख
ि ड
त म
ब ात
पू छ
ू स
 की  अ
 द ो
ी ह ो
भारत ीय
 ब ताय
 क ल
a  
द् र म
ऐ से म
ी  रह
 ज ो
 आ ए
  ई
औ र
च  म
ाप स
े 

ू ड
द द
त ा है
ंच ायत
 उ ठ
 ऑ फ
स े क
ाने  वाल
म िक
मेर िक
व जह
ास्थ ्य
ाइ ड
ख न
ौ र 
ा  श
 ने  स
ी म िल
 ड ॉ
एस प
 भारत ीय
ॉ र्ड
ब ल
 सम ाज
ि र्फ
ै ध
त् म
ॉ प
म ल
 प्र त
ले ट
 के  ग
ाइ व
2 2
 क ा ह
 करने  का 
ि र म
स्थित ि
नि गम
े ख
ेद न
 द्वार ा 
ा ध्यक्ष
 को  ह
सर कार 
 दे व
े क्ट
 आ र
बंध न
म ्
 पर  स
उन की 
पर िवार
 की  सं
न गर 
विध ायक
ार ाज
 ब ंद
ब ्र
सी ट
 के  मुताबिक
े  द
ाय ा ह
प ्त
ष ण
 की  थ
ब् ज
ंट र
वि रोध
 स हित
ि स्स
 किया ज ाएग
ेन ्
भ ारी 
4 0
 य ात्र
ोश ल म
विश ्व
ी क्ष
 द ु
ोब ाइल
 ज ुलाई
राम द
्म ान
रो पी
 प्रति शत
 हुआ ।

 की  प्र
 का  म
पर ाध
इ से 
 स ित
क ल
ते  थ
ए च
ऐ स
 क ाफ
 हुई  ह
ाप न
ार् क
 कर  सक
ै ट
a r
ैय ार
र ु
श ्च
ी ब न
 द िल्ल
ो र 
,  र
ा  तो 
 क िल
 हुई ।

 अग स्त
 मौ जूद
 ब दल
ग्राम ीण
े  रह
 को  गिरफ्तार
 उ से 
़ ें
कर  म
 प ी
रो क
पह चान
श िश
र  ल
ाना क ्षेत्र
र ूर
 ज य
 य ू
मुख्य मंत्र
य ात्र
य ुव
ल ्ल
 न गर 
 स ेव
ॉ क
ौ न
 ख ेल
जिस म
ित ि
ा थ ा कि
ग ढ़
प ोर्ट
,  अ
ी  फ
 हो  सक
द्र ीय
ुरुआ त
ं ।

ृ ष्ण
 ने  ब
 न ्य
 क ्षेत्र
िव स
आरोप  लग
 स ब
 त ेज
नि र्माण
ाने  का 
माम ल
ी स ं
ा द र्ज
न ाथ
ी सर
इसके  अलाव
ी  भ
ार पीट
ाई  ज
ो च
 की  टीम
ा रह े ह
क ्य
क र्म
र  ने 
व ीडिय
िक ट
ी  ड
अप ना 
प ढ
ाह न
कार ्य
 उस के 
 और  ब
 म ेर
 माम ल
 के  नाम
ग ंज
 आ ग
स्त ाव
न ्न
ा  के लिए
ौ ट
िया  म
पी ड
श हर
ोष ण
 की  न
 से  अधिक
 कॉ लेज
य ा 
 अप नी 
 ज िला 
ल ाइन
 ख ान
 कुम ार
ा  दे
ोशल म ीडिया 
ज ार
ाउ ंड
ज ल
व ित
  S
मह िल
 जब कि
फ ोन
ा  पर 
 ल िय
त ेज
2 1
प द
क्ष ण
र ू
ेड िकल
ब ैठ
ता छ
ध न
ीज ेप
 इ ल
ल् प
स ाद
ह ान
 ब ्र
ो त
ोह न
च ंद
श ाद
दम ाश
 म िन
 प ार
 कर ेग
 और  म
प ट
 स ्त
 ग ु
स पास
ी ह ो 
ध म
 विक ास
 न ाम
ए क्स
 व्य क्ति
े च
ग ोल
ि द
 द िस
 व ो 
ग ुरु
ै सल
 स ंग
ो र्ड
व्य वस्थ
ा क र द
इल ाज
ात ी ह
ड ्र
द िल्ल
ट ी
िक ेट
श ामिल
ट  म
ाते ह ुए
 च ुक
ज ु
त दान
 स बसे 
ी ब ार 
हर ियाण
च र्च
ाल क
ग  म
2 3
ट ्स
 व ोट
शन ल
चल ते 
 विध ायक
िश न
त्य ाश
ब ई
 म ोद
  -
 म ई
ी र 
ाई ।

द् र स
 स ाथ
ी  गई।

ा  भ
प िछले 
पी छ
 ने  म
घ टना 
 गई  ह
र स
 की  द
के  म
उस क
ाकि स्तान
इ ंड
ो ,
ज िला 
 ए म
े  का 
 छ ात्र
वाह न
रुप ए
री ब
ति थ
अधिक ारिय
2 6
 ज गह
10 0
न िकल
 र ोड
आरोप िय
िम ्म
ौ र पर 
ें ,
घ ाट
 क ेस
से  ह
 अ क्ट
इ ंद
ी फ
अ सल
प ड़
 प रीक्ष
ल् ड
धार  पर 
i n
श िव
र ेल
य र
 उन क
ट क
ब ्ल
प्र त
त ब
ीव न
 जान कार
 कि स
ा ह ो 
 स ंबंध
उस ने 
ी को शिश
ाध्य म
द य
प ल
ाग त
 क ुल
रो ज
द ्वार
ो री
 ज ल
आ म
ी  गई ह
ो व
 क ार
 घ टन
विक ास
िवार  को 
र िपोर्ट
 भ ग
 स ुरक्ष
 रूप  से 
प ्ल
 को  प्र
ा े
ु द्ध
 वि धान
त न
 ब स
a t
 ब त
बह ुत
 अ ध
 लाख  रुपए
ी  (
.. .

भ ा
 ह ी म
 के क ारण
ीम त
े  स
 का क हना है कि
ए ड
र ाष्ट्रीय
 द िया ह
श्च िम
2 8
 य ोग
ा स्ट
 का  द
 को  मिल
ट ्ट
 ट्र ेन
ंभी र 
इ स्त
ि ण
 अधिक ारी 
 क ंपन
ाम न
 सु बह
ी स र
 क े
ुम ान
 बह ुत
ान ून
 कर के 
वि द्यालय
ल ाव
े  ज
ेश ्व
इस लिए
लि म
 सम झ
ाश ि
ा  के स
 कर रह ी ह
ट ल
 ए न
पू ज
उ ठ
 प ुर
 आय ोजित
 भ र्त
इस  ब
ती ह ै
 विश ्व
दो पह
- अलग
ग ्ल
ी )
े हत
अ ग
नी ति
ग ण
व ेश
ॉ र्म
ा  के बाद
 स् प
2 7
े  ब
 की  ख
 मुख्य मंत्र
ी  दे
ार ोह
 के अनुस ार 
 के  एक
ोस्ट म
वि ष
ाल िक
 च ंद
 से ज ्याद
ब् ध
ार ी म
ख्य ा म
 य ुव
नीत िक
ज द
विश ेष
न ्
र ाय
ा क िय
व ो 
ी  के साथ
क ोर्ट
ज्ञ ान
 त ापमान
ता  चल
ाओं  को 
ी .

व ास
ा स म
 हो  ज
 द िल
 ड ्र
स र 
ा  फ
 स ामने 
्य ूट
,  ज
ाए  ज
उ त्
म ृतक
 जिस से 
ल ब्ध
ाय ा थ
 ब ोल
अ ंत
ख ेल
ी  के लिए
ब र 
ृ ति
क र्त
ज ो 
 ऐ स
ब ता द
 कर ोड़
ल ाश
,  न
 अ लग
ल् कि
च ित
च ारिय
 र ाह
िस्ट ्र
 आरोप िय
ृ त्व
 भ ी ब
त्त ीस
व ोट
ॉ ड
ाद ेश
ाया गय ा ह
 व ीडिय
ात ्म
ीन िय
आ गे 
 की  तरफ
 भ र
 भ ाग
 मिन ट
ने ता 
  C
ा क ाम
 किए  ज
प ान
श ी
थ ाना 
भ ी म
्र ोल
o n
अ भी 
ाम ले म
अ ध्यक्ष
ै द
य न
 स दस्य
 की  आ
 कर ता ह
ा म िल
इसके  लिए
कार्य क्रम
ो ।

ार  द
जब कि
ाव त
ति म
 अ ल
़ ों
 म ाह
 र िपोर्ट
 प्र शासन
क ड़
 उन की 
श ु
प्र शासन
 र ेल
ेद ार
ी  य
क ान
इस की 
 अप न
क न
स वाल
ि द्ध
ज ो
श ुक्र
 की  च
,  ग
त ा है कि
िया  और 
उस की 
राज स्थान
ार ह ो 
 न्य ाय
स ूचना 
 र व
 कर ने वाल
न व
र िय
ंग ाल
 ड ाल
थ ान
त्त र 
 उ त्
 ने त
 ब ेट
यह  भी 
ा  आ
 स ाह
 की  गई।

 की  गई ह
इस क
ना  म
ख ुद
ह ास
ि ष
ा है  और 
 अ भी 
िक ित
र ान
 म ुक
ने  के 
 प क्ष
 से  एक
 अधिक ारिय
छ ोट
त ो
स  म
स् म
 मह िला 
 इ ं
द्र म ोद
 त ब
भाव ित
र् ति
के  से 
पूछ ताछ
 विश ेष
ा ब न
  P
ूं ।

चाल क
ऑ फ
ह त्य
ि से 
ि र से 
भग वान
स र पर 
द र 
े .

ा गय ा ह
िश ्र
ेम ाल
ध्य ान
ा  के साथ
 ह ाद
 ब ाइक
 अ प्र
ट र
ह  ने 
ग ्
 रह े 
तिथ ि
क िस
ार् ग
 के स ामने 
िट ल
ैन ात
 सम ेत
ाओं  ने 
 म ीट
2 9
र ूप
भग  
वि भिन्न
ह ल
ार ा 
ास िल
 श ाह
ार् ज
ह ाद
ोष ित
ाय द
 को  देख
ख ्त
 ए क्स
िकित ्स
 की  ग
 से  प
ात ्र 
 को  ख
ी ब ात
ि ष्ठ
सभ ा स
ॉल ोन
ु ष
ै च
ाय ण
e r
च ीत
ो ई
ी  भी 
ने  स
) ,
 प िछले 
ग्ल ादेश
क म
ों ,
लोक सभा चुनाव
 प ान
हम ल
 की ज ाएग
दर असल
क ुछ
भ ेज
अ गर 
घ र म
 का  ब
  लिख
 स ड़क
ार  से 
ो त्स
 व ाहन
ेट  म
  A
ा भ
 ह ाई
 हो कर 
प्र ेस
3 5
ाम ल
 प ेश
रीक्ष ण
ार खंड
 हजार  रुपए
ो प
ाष्ट्र पति
इ ं
ट्र ेन
 ने ता 
ौ जूद
ार ्म
 ज ुट
त्व पूर्ण
न िवास
 स चिव
ाथ मिक
ाई  ह
 रह ा थ
 हो  चुक
ह ,
े  कि
 स ोम
 थ ाना 
दर् श
श्य क
ल िय
 ध र्म
 क ्ल
प ंजाब
िल हाल
 न िकल
ाइ म
 भग वान
 का  आ
िन िध
उ द्
ल  पर 
 की ज ा रही ह
ाउ ंट
ा  लग
 त थ
 घ ायल
 घंट े 
न िकाल
ा क र 
ज ाम
ी  लग
 का  आयोजन
 श हर
 य ोजन
डी एम
े पी
ाने  की 
मौ के पर 
स ह
द ाल
 ब च
द ाव
फ ाई
ैन िक
 हुई  थ
ज िन
क् क
ंप नी 
ला भ
त ार
श ोक
 प ट
 रुप य
प्र दर्शन
स ंद
िक ्र
 ग ुरु
पर िवार 
ृ ह
ित ्य
पर ेशान
 के  व
जिस के बाद
 हुआ  ह
ष ि
ा  च
़ ो
नेत ृत्व
e  
खन ऊ
न ंद
ा ह ोग
 कर ने वाले 
श ाल
ाग रिक
ॉन ्
ार ी ह
ने  ह
िय ोग
 ब िह
 को  ग
 को  त
 का  ज
 श ह
 हो ता ह
ज् ज
श ्म
ायर ल
प्र ीम
ट िकट
थ िय
ुल  ग
व्य क्ति
न्य ाय
इन म
 मै च
् ले
 ज ैसे 
ंद िर
ठ बंधन
 को  र
 किया ज ा रहा ह
िश ्च
 शामिल  ह
ं तिम
जर िए
र ब
 की  पहचान
पी एम
 ज ारी क
त ी थ
िया ज ाएग
भ ूम
 कर ते 
ा ज ा रह
ी  गई
ाओं  म
 क ाल
 के  फ
 प्र दर्शन
स्थान ीय
4 5
 ज ैन
जब ूत
ला के म
- ब
ा क्ष
 किसी  भी 
ु बह
ार ाम
 ब ढ
सी एम
द्य ोग
क ट
a l
ने शनल
य ुक्त
ार्ट म
ृ द्ध
वि जय
जानकार ी के 
ष द
ू ह
इ त
क ड
क्र िय
र ब न
 ग ोल
ा  भी 
इस का 
िष ेक
 ज ात
 य ा 
पत् नी 
3 1
 के  च
िव ेश
6 0
त रह
े क ह
 नि र्
 द ल
ामान ्य
ट क्
ल् ले
 मार् च
 ज ्याद
ब ाव
र म
्र ाम
ोज ना 
ंबंध ित
वजह  से 
 अप्र ैल
,  व
 स िर्फ
 की  ल
 की  गई
र न
 और  प
प्र धानमंत्र
ग्र वाल
िग ्
ब िह
 रह ेग
 के  श
ने  और 
 सम िति
 के म ाध्यम
 व्य वस्थ
र् जन
 के लिए  
 वर्ष ीय
 आ म
ोशल मीडिया  पर 
 ह ाल
्य ाण
ुन िय
 गय ा ह
 बजे  तक
 म ंगल
घ ोषण
 द ीप
 ब ना 
 इस के 
 शिक ायत
 स ाम
स्ट ेशन
 के अ ंद
च े 
ाव ल
ार्य क्रम
 की  जानकार
ुप ्त
 उस क
स ुन
ा स्
 के  भ
 के सम य
 क ेवल
िश ान
 है  और 
लि त
  N
आ रोपी
 स ोन
ाल िय
ाग ू
 फ ी
चान क
7 0
 ब ल्कि
ा क ह
ख ुल
द ार
धार ित
 को  च
 माम ले
ने  ज
ब च
ब ड़
 किया गय ा थ
ाच िक
ा सक ता ह
 विक ेट
 मंद िर
े ड़
 स्व ास्थ्य
ा ड़
ीज ेपी
ै ग
ॉ य
 ब िजल
 नि र्माण
 लग ातार 
िश ्न
इस  मामले म
ि ब
य ो
व ापस
 स भ
 का  अ
दे र 
र ,
 के  निर्देश
ार ायण
उन का 
 हो ती ह
क ुम
 प त्
 को  आ
क्ष ्म
 प्र धानमंत्र
 रह े थ
" 

सी ल
स न
िय ल
 र ात
त् काल
ॉ स्प
 पर  न
य ाद
लग ातार 
मु झे 
ने क े कारण
ी त ो 
स ोम
 प ्ल
ौत  हो गई।

 के आ धार पर 
िश्च ित
 का  न
प थ
ॉ ट
ा  (
 पर िवार
ू बर
त  ह
व र्ष
् ‌
 भ ी स
ा म ह
ा ज ाता ह
  लिए
जान े 
 ग्राम ीण
 न ए
े ह ुए
ू  म
े हर
 स वार 
 प ास
 श न
ुक सान
 ब ाज
 न जर 
 द िया गय
 हुए ।

ियोग ित
 ल ाल
 और  न
 राज स्थान
 कर न
ा ने  बताया कि
क रण
ान े क
ले क्टर 
 हुआ  थ
र ंग
 क ट
  B
 इ ंद
ड़ ित
ु ख्य
ाधिक ारी 
  ढ
वार  को
ध र्म
ी प ार्ट
द्य ार्थ
छ त्तीस
 भ ी ह
ति हास
 अ च्छ
प ड़
ी  पुलिस
अब  तक
अस्पताल  म
ऊ पर 
 उ म्मीद
 शिक्ष क
 की  सम
ाव ट
पत् न
ड र
ै ।
ो ख
उ ट
ू ,
 से  ल
मौ सम
ी हुई  ह
ी एस
 ख रीद
 अ म
 आ दि
 और  अ
अव ैध
 मौके पर  पह
भ व
 अ गर 
इ म
 ब ड़
ड ्ड
ी ब ारिश
तम  तापमान
ब ंद
ुल ाक
ु ख
ले क्ट्र
क्ष िण
ालय  म
ी न र
प्रीम  कोर्ट
प ाद
लि स्ट
 अभ ियान
फ ॉर्म
ाइ ज
सीट ीव
यो ध्य
ग र म
 स ू
 श ुक्र
o r
िश ्त
ॉ र्ट
न ई
 की  फ
 ब ुध
ी क म
र् श
क् ल
 ए ड
ेब ल
म ंगल
़ ्
ो फ
ाने  के बाद
ॉ लेज
िल ीज
 भ ी म
ै त
 अ ंक
ज िस्ट्र
 ब ढ़
िव िध
ुर ंत
पी ल
द ौरान
व ाय
ु ओं
 क ार्ड
प्र भ
ीक रण
प्रदेश  म
ले ग
s h
ख िर
ब त
 को  एक
 न िकाल
माम ले
ा हुआ  ह
भ ी ह
 प ंचायत
दूसर े 
ी  ए
 र ाय
ें 

जन ्म
ै ?

 के  ख
 हज ार
फ ्ट
श ुभ
 हो ने के बाद
 परि जन
प् शन
क ई
स िक
सम ाज
 इस लिए
 शुरू  कर द
स ुर
् ता 
 की  एक
ह ो
ा द िय
ाने  पर 
त हत
 ए ज
ॉ म
 द िवस
 से  लेकर 
 क ्षेत्र म
ाल िग
 आय ोग
 फी सद
 इ ंटर
अधिक ारी 
 के अ लाव
 से ज ुड
स ू
वि देश
उ म
ा :
ा ?

 प ित
इस्त ेमाल
 अ फ
ी  के स
 से  न
ी क े क
य ादव
 स र्व
ार ी स
ना  चाह
र्ग त
  R
ज े
इस  अव
रो ह
ाब ू
गए  ह
जिल े म
 सक ता ह
र्ण य
ै फ
रह ने वाल
िव िल
 कह ते ह
 कुम ार,
त वाल
 द ुकान
 भ ूम
 च ार 
 करने  म
ा उस
 ने  बताय
री य
हम ्म
आय ा ह
र्थ िक
 त ाकि
 रुप ये 
शिक्ष क
 ब ल
व िवाद
प ंच
ल क
व ै
हम्म द
ी  एक
ोट िस
 पू छ
रिक ्त
 की श ुरुआत
ब ाइक
व्य ाप
ै म
ता  रह
 जम ीन
िक ्स
 कर ती ह
पह ले
र्व ाच
ब ुध
 ब िल
 दर्ज  कर
ृ षि
ाब ालिग
न ा क
 ब ढ़
गए  थ
ार ंभ
 ब रामद
 उ र्फ
 सं घ
 सित ंबर
स ंग
 थ ान
े क्टर 
 स ंद
ाय ब
ाच ार्य
ज वाब
थ म
द ुकान
 उस ने 
ज्ञ ात
अ म
व ल
इस  बार 
प्र भारी 
 सम ारोह
 अक्ट ूबर
सभा स ीट
ुलाक ात
 ह िस्स
ौ के पर 
 ने  अपने 
ब ढ
द्ध ाल
 नव ंबर
  I
 स ंत
व ाड
विष ्य
 फ र
 पू ज
ा झ
साथ  ह
8 0
 पर  म
ी क ार्रवाई
त ीज
ी  ने कहा कि
 को  फ
 वि जय
ुद ाय
 हर ियाण
ब ुल
 घ र
 म त
 ने  एक
िस्ट म
िय ुक्त
क्ष ्य
 पर ेशान
शह र म
न लाइन
ौ कर
 प ड
वाल े 
ाप ित
 अ पराध
ंब ोध
 हो  गए।

ीच े 
 कुमार  स
ो हम्मद
 क ारण
 का  एक
  और
क ड़
ृ त्य
 र िक
िन ्ह
ति रिक्त
 ख ुद
पहल े ह
 ज ल्द
 अ ंत
ं कर 
िव ाह
क ह
द िख
ोम ीट
स्क र
इससे  पहले 
 दिस ंबर
ज गह
स्व ास्थ्य
ह सील
 भ ी
 फ िर 
  M
व ायरल
 ख िल
अ मेरिक
श ाह
र् ता 
 ने  प
सम ्मान
ज ़
श ील
 द ेत
 से  पहले 
 का  नाम
अनुस ार 
ी ह ोग
 प्र ाप्त
ाया ज ाएग
 व ार
 से  मिल
 की स ूचना 
अ च्छ
 ल ाइन
 ग र्म
 के अ ध्यक्ष
ड ाल
ब ाल
भ ोपाल
ी आई
ो -
 ह ाथ
 न ई
देश क
ौर ाह
 कर द िया ह
स बसे 
 व ित
्ष द
 हो  गई ह
त ीसर
ंज ाम
 किए  गए
 की त रह
.. .
चुक े ह
 क ानून
नि रीक्षण
 के म ामले म
ै क्स
ी  ट
ा पुर
 सी एम
द न
स् लिम
च र
ज ीव
 के  जरिए
र्त मान
 क्र िकेट
न ाड
 मु झे 
भ ाल
ौ र म
 न ंबर 
 सक ती ह
इ ंत
ेट ्रोल
ेल  म
देश  म
ॉ ज
 ज ाएग
 करने  पर 
दो स्त
 न र
ै प
 प ंजाब
दोपह र 
 अप ना 
क्ट्र ेस
ी :
ी ता 
िव र्स
पी एस
 इल ाक
सभ ा म
ा  ट
) 

न ए
री वाल
सं भाव
 चौ धर
 हो रह ा ह
ात्म क
र फ
ृ ष्ट
्र त
ाज िक
ा ज िल
इल ाक
 अ क
ता  से 
फ ैसल
ंद ोल
ब स
 हो ने की 
ुक ाब
 सक ते ह
 ल ड़
 का क ाम
 कम ेट
 मंद िर 
t i
क ीय
् ञ
 ब ाल
ी ने  बताया कि
घटन ा की 
 संग ठन
ड ेट
 ब ोर्ड
 श राब
र्त न
50 0
ोज ेक्ट
रू क
न जर 
े  प
 ब ्ल
 के ब ाहर 
राज नीतिक
 मिल ेग
 किल ोमीट
 स ुर
 कर ना ह
 फ ्र
ेद ार 
्क िल
रु ण
क् ता 
 य ून
फ िलहाल
ब ढ़
ह ार
 हो ने से 
 प र्य
 व र्ग
ेज रीवाल
 हम ारे 
् द
र्थ न
प न
 अ मेरिक
 ने  भी 
 छ ोट
 ऑफ िस
त ी 
 के  पूर्व
 इ से 
 करने  के बाद
 कि सी
ना  चाहिए।

 आव ेदन
 द े रह
बाद  म
ह ी 
े  को 
जम ीन
श र्म
इस  पर 
 श ाद
ाइ य
 कर ल िया ह
ा जा रह ा है कि
 पूर े 
छ ोड़
 च ाह
 मही ने 
 से  आ
माम ले म
 उ म
 घ टना 
स्क ृत
फ्त ार 
म त
 के  ल
िय ंत्र
नि ज
जर ात
ा क े क
 रह ी थ
पु र से 
 ए क्ट
वर ी 
 की त लाश
यह भी  पढ
झ ारखंड
ित  ह
 बन ाए
आय ोजित
पूर े 
 कर ल िय
 की बात  कह
 स्थान ीय
 व ापस
धम की 
र द
 प ोस्ट
 ह ासिल
 द िया थ
ंद िर 
ाओं  का 
ठ ग
 फ ोन
िप ्ट
e s
अभ ियान
साल  
 अस्पताल  म
म ीन
वार दात
ख्य ा 
ध ि
ह  ने बताया कि
ै  कि
डी ए
ऐ से 
र  तक
 ड ी
 उस की 
य ल
 हो गय ा ह
 हो ने वाल
र ह ो
द ग
े ड़
 च ोर
 घ ोषित
त ु
स ब
ेल ्स
 सम ्मान
ा रह ा थ
 करने  की 
ग ड
 की म दद
 हुए  ह
्यू ज
 क प
ने  को मिल
 उन का 
 बजे  से 
 ब ार
ा ज ात
जिस से 
ं ख
 न म
 ने  इस
ित  किय
 पर  भी 
 वि भिन्न
उसके  बाद
 भर्त ी कर
्रम ण
e n
क ील
व स
 पर िव
 चौ क
त ैय
श ीन
ाई  थ
भारत  म
म ोद
ौ ध
 जिन ्ह
े ण
 मौ सम
उप योग
 हो रह ी ह
,  ह
 के स भी 
अन ु
ाट क
चाल न
ग  क
व र 
े  समय
ार ी की 
 श व
 ए ंड
 फ ्ल
ा कर ना 
र् ल्ड
 ब दमाश
 को च
िर ास
उस का 
दान  म
दाल त
इस अव सर पर 
िवर्स िट
च ारी 
ी ति
 त ैयार
आव श्यक
चौ क
ार ्व
ाग रूक
J P
स ित
 ख ुल
 वि द्यालय
 दे कर 
ह र 
ो ति
ेश ल
 अब  तक
3 3
:  
ाव रण
ीक्ष क
ग ाड
ू -
 से  प्र
इसके  साथ ही 
त िक
द िय
र ल
स ून
 व ै
ा धान
 से  भी 
ुन ौत
 के प्र ति
परि षद
भ ू
ा इस
 स ीम
 पर  ज
वीडिय ो 
प्त ाह
त्तर  प्रदेश
अ पराध
स्व ागत
 ब ाब
िक ा 
 पर  प
 हो ते ह
ोस्टम ार्टम
ं पर
ग ेट
 ल ौट
 को  ल
 व िवाद
ोह ित
यर पोर्ट
ाम  म
 कि श
ा को ई
 बदल ाव
इ लाके म
न र
य ोजन
ौ क
 के  ड
 प्र मुख
ता  नह
ेह द
भा ष
ी  राज
ाव धान
ा घ
 की  शिकायत
 लाख  
म ाण
श िप
 अ ग्रवाल
 प्र साद
ा ज ाएग
 कुल  
त ंक
स ामने 
ा क ार्य
पर  क
देश ्य
 पर  आ
 ख ड
अ ंद
ा ँ
िय ा के 
ले  ज
 सं जय
ेय र 
ंदोल न
9 0
ं घ
ख ान
ी  के बाद
जर ूर
च रण
वि स
िस र म
  D
 हो ने पर 
प्त ान
इ ंटर
ि थ
ो  रह
 व न
 बैठ क
ब ार
 प ड़
जीत  स
आ सपास
म ैन
पर ेशन
 महिल ाओं
7 5
च कर 
न िक
म ाल
 दिए ।

ैठ क
ा उन
 म ध्य
 ग ण
 स वाल
 कोर्ट  म
 जन ता 
 मार् ग
फ ्ल
 म ाल
 प ै
 कर सक ते ह
 स ्म
 के स दस्य
ा स ुन
 उप लब्ध
 करोड़  रुपए
- प
भ ु
ा ओ
र् शन
ए ज
क र क
नेतृत्व  म
प्र काश
 दूसर े 
ृद्ध ि
ु जु
 प ीड
 मह त्वपूर्ण
 पहल े ह
 स ो
ं जन
ज ल्द
वि पक्ष
अन ुम
ोब ार
ोत्स व
e w
ग ंग
ठ ीक
ात ्
आव ाज
 ज ैस
 न ियम
 पु त्र 
ुजु र्ग
 अ हम
ाने  से 
फ ोट
म े
ॉ क्स
ीत े 
 वाल े 
 म ारपीट
िव ्य
 प्र काश
  K
ख ास
्य र्थ
 गई  थ
ब ारिश
स ेव
 ल ंब
 का  र
 श ाम
 हो ने
 ठ ाक
ाने वाल े 
3 2
इ ंट
ब ू
र् पित
ीव ुड
 की ह त्य
ी सर कार 
द िल
ा '
 च िकित्स
ख ेत
 प त्र
 ह त्य
ी ब ेट
ाक ेश
ा को  लेकर 
 स्ट ेशन
शिक्ष ण
ण ाम
ी  उ
ा  उ
 ब ी
 पर  अ
व ी
ु ति
 व्य ाप
आ देश
पु ल
 के स ं
 इ त
ॉल ीवुड
 जिल े म
ोस िए
 ह ट
 को  कह
 त री
 इल ाज
ू ठ
स् ल
 सम स्य
19 9
ु विध
 त ्र
ी मह िल
 म रीज
 च ालक
ी द ौरान
 अव ैध
ाया ज ा रहा ह
डॉ क्टर
ेडिकल  कॉलेज
िय स
स्त ुत
ा की  म
आप को 
d i
ा ।
 ह र 
ेल ्
 किया  और 
स िल
प्र यास
,  ड
ू क
 स फल
 के आ देश
र ाव
 स ड़क
द र स
प रीक्ष
 र ाष्ट्रीय
 की ज रूर
 कर रह ा ह
 ब िन
 कि म
ा स र
ी की  म
नगर  निगम
र्वाच न
 क ॉलोन
 पर  एक
ुल ्क
 गए  थ
 से क म
 की  रात
 द िया गया ह
मह िला 
तल ब
,  श
4 8
 ज रूर
 ग ंभीर 
र त
ाव जूद
सभ ा क
ग ार
द ाय
श राब
 ग ल
लेक र क
द ित्य
 क ार 
 की  ड
 की  व
 ज िसे 
मान त
 कार्यक्रम  म
च ीन
सुबह  
 अन ु
 से ब ात
ग द
ह ाथ
 के  वि
ी क ार्य
ोज क
मौ जूद
ग न
 व र्म
 आ रोपी
ाइव ेट
 ब ंगाल
ंड ी
ै ब
 क ित
 इस  बार 
क्र िया 
वर िष्ठ
ब् द
ता  और 
ा ज ा रहा ह
 तक  पह
द्यार्थ िय
व ो
ु क्ति
5 5
ना  थ
पर वाह
ॉन ्च
 गिर फ्तार
तम तापमान  
,  द
ह योग
 ने  ज
ाव न
 के ब ेट
एस आई
 पू र्ण
ॉस्प िटल
ल खनऊ
 म िश्र
 का  भी 
ए क्ट
इस  तरह
इसके अलाव ा 
प ्प
 म तदान
 ब ीजेप
घ र से 
र ी 
 अ तिथि
 के साथ  ही 
 इस से 
3 6
a m
 भ ाई
ाल  म
 ख राब
ंज ीनिय
ौ ज
इस  मौके पर 
िए ।

 के अ ंत
 लोक सभा चुनाव
कुम ार 
  ।

s :
र  फ
ा क हना है कि
्षे त्र 
गल त
ैफ िक
श ्न
स ी म
 कर त
ाख िल
,  प्र
ै मर
 क ैसे 
 से  अ
ा गय ा थ
 करने  लग
पर िव
ात्र ि
आरोप ी 
अग ले 
 और  ज
क्ष क
 सरकार  ने 
़ ,
 ख ास
 कार्य ालय
ू र्ति
ॉ र
 व ो
 और  ह
 ट ेस्ट
ौर व
सं प
 करने  से 
 स्थित ि
 बताय ा कि
इम ेज
- साथ
 स ल
 आ दम
 गय ा थ
a y
द िवास
 हो  गई
ेत न
 किए  ह
 म ृतक
 क भी 
त् ति
्व ालिय
 के द ्वार
ी ष
 ने  द
 और  ग
ज ाएग
र  व
 ल ड़
उप लब्ध
 अधिक ार
ा ष
ने  अपने 
बैठ क म
स ाम
ीर ाम
 कर रह े थ
ाइक िल
विधान सभा चुनाव
 डिग्र ी स
 अक्ट ूब
र् प
ने ट
 का  ग
िविध िय
3 4
 प ीएम
 के ब ावजूद
चुनाव  म
वित ्त
 म ात
्य ोति
 च ीन
ा त ो
श क
स्ट ूड
 हो त
00 0
 कर्म चारिय
शामिल  ह
ा रह े थ
ण ्ड
प ंचायत
श ंक
 प ता चल
 त ैय
पी ड़ित
 मु द्द
िफ ्ट
ी है  कि
आरोप लग ाय
ोसिए शन
,  आ
 थ ाना क्षेत्र
 कम ल
फर ार हो 
 मंत्र ी 
र  र
िक ्क
 र ाशि
रह े ह
उम्मीद वार 
अ फ
 ब ेच
 से  ग
 कर द िया गय
 मामल ा दर्ज
u r
ं ,
 भी  नह
आव ेदन
 प्रत ियोगित
त ंत्र
द ्व
ि स्
ु ड़
 व क्त
 कर  प
ा स ं
ारी ख
 म ोबाइल
ने स
प्र ीत
ो भ
 प्र त्याश
ी ज ा रही ह
ॉर्ट म
न म
 स ामान्य
 व िन
 का  निर्माण
 इंड िया 
ेल्स ियस
 फ ोट
 ऐ से 
म ता 
 क ्ष
ा  एक
 स ाफ
 के  चलते 
 न िज
 ग ुर
ोस्टम ॉर्टम
 ने  ह
 प्र वेश
 किए ।

 के अनुस ार,
 क ॉन्
ी अ स्पताल
ू व
पुलिस  को 
ा गय ा कि
त ा क
 का  सं
 च र्च
सम झ
ी ज ाएग
ल ान
ो र्स
ते ह ी 
देर  रात
ग्र ह
हरियाण ा के 
छत्तीस गढ़
ंबोध ित
ा स ामने 
स्ताव ेज
त थ
िन ारे 
हाल  ही म
ख ड
िय ोजन
नि र्णय
र ह ो 
 कै प्शन
प ार
ब िल
े  ने 
 र ोक
 उस का 
 उप स्थित
 डिग्री स ेल्सियस
वीडिय ो
 पट ेल
- स
ब दमाश
ो र्च
र  न
 त य
स्ट्र ेल
 आग  लग
इस ब ीच
 अलग -अलग
ज ी
व ा 
 म े
 म ोहन
ुप ्ता 
 स्त र पर 
  औ
,  त
प त
 को ट
 पर िवार 
 न द
 त ैनात
 और  आ
- क
ज ैसे 
स त
 म ंडल
 सं ख्या म
 सुबह  
ा ऊ
 ग ो
प्र ेम
रह ी ह
कर्त ाओं
े पर 
ी  गई थ
र  आ
राज नीति
 सं स्थान
 म दद
ब ाहर 
स ुरक्ष
 प ाल
ार  और 
 फ ीट
ड ीज
ह ा कि
 सु विध
अलग -अलग
रेल वे 
उद् देश्य
िक  म
 आ गे 
प्र िय
 बन ाकर 
त्य ेक
  ऊ
l e
ध ीर
ब ीजेप
 भ वन
प्ल ाई
टक् कर म
ख रीद
े क्
 प िछ
 न गर
्प ण
िम्म ेद
 के माध्यम  से 
िरास त म
र्म चारिय
 हो  प
 लग भग 
क र्ता 
त ं
श ्किल
ाव ास
ंट ्र
ास्त ्र
a d
ल ्ट
 को प ूर
,  ल
ल ंब
 के म ह
 ध न
ा  विभाग
 क ु
ित ्व
 किया ज ाता ह
तल ाश
 हो ज ाएग
 रेल वे 
ज ाय
ने वाल ी 
ा न िवास
पीछ े 
उत् तर
3 7
r i
व री
स् कार 
 व जह
ज ुड
 स ाइ
 साल  पहले 
स्व ीर
चुक ी ह
ी सर कार
 क दम
 और  र
अधिक ार
रिक ॉर्ड
भाजप ा 
ा ल िय
,  च
ग ुर
ा )
ले क्ट
 जिस के 
ूच न
चुक ा ह
त ापमान
ंद िर म
ज ेल
 प ानी 
 ह ाउस
 व ार्ड
ूल ्य
इन ्ह
 चल  रहा ह
 चुक े ह
स ंत
स ाध
े क ई
ू र्त
 क ाट
 क ृष्ण
ा ह ुई
स्व ी
 के क ार्य
ुट ेज
राह ुल ग
ं थ
त ा म
 प ाकिस्तान
 द ी ह
िट ्ट
ा कर ते हुए
 दिन  पहले 
युव त
च ोर
 स िस्टम
 प ॉ
 कि र
ाउ थ
 की मौत  हो गई।

कार्यक्रम  म
ल क्ष्य
स िय
े फर
क् सल
रह ेग
 मह ार
सल मान
पाल न
खुल ास
 ह ी स
 की  स्थिति
ट्र क
 भ ोपाल
रो हित
 फ ैल
ाप ेम
स्व ाम
उ दय
क र्ष
श ल
 कर ाय
 साल  म
शाम  
व र म
ो .

ौ ड़
ा  ने कहा कि
 प त्र 
लग भग 
अन ुर
 अध ीक्षक
सूचना  मिल
़ ा।

ै क्ट
 स िट
 ग ाड
रो स
 नि गम
किस ान
र  के 
 ने  न
े क ुछ
 डॉ क्टर
िय ुक्ति
शन िवार
पुर  के 
ह ार 
ा  के ब
िने ट
 चंद ्र
क ुल
त भी 
ह िल
ॉ स
इस ी दौरान
ब िन
ाए  गए
 कुमार  ने 
 मंत्र ालय
 की क म
म ेश
र ूप म
 ल ड
 प्र ेम
 हो ने 
ने क ी कोशिश
़ें -
श ुरुआत
वि चार
ाया गय ा थ
 सी रीज
ा हुआ  थ
ाई ज ा रही ह
ॉड ल
अ ध
ा कर द िय
इमेज  कैप्शन
म ध्य
ाब ित
रव िवार
 चौ हान
प ेट म
 ज ाकर 
ने श
आरोप  है कि
मेर े 
 ले  ज
र रह े ह
 ख त्म
 कल ्याण
िग् ध
आ इ
ड र 
य ून
ा पुर 
ू र 
ी  स्कूल
इस ी तरह
ा म ामल
ंड ित
ष् प
म् ब
विश्व ास
ा म ंत्र
गत ान
ज्याद ा 
ेन् द्र 
घ ंट
त य
द र्ज
व त
ी ना 
 र ो
नेत ाओं
ू थ
ंग ाम
बह न
आए ।

अनुम ति
ग र्म
ॉ फ
 से  र
वार  को स
 क ्व
 की  और 
ुभ व
 क ब
 को तवाल
रह ने वाले 
ओ र से 
थ ाना क्षेत्र
न ाक
ल म
ि च
सी प
-  
3 8
द ास
ी  राम
 ए फ
 आप के 
धम क
 की  छ
 उ च्च
 घ ुस
ेड ियम
 के द िन
 साल  
ामन ा करना 
ग ार 
 का  सम
र राष्ट्रीय
ल ौट
ान ि
कर  ह
 छ ोड़
 के त ौर पर 
़ें :
 ख ेत
 आय ोजन
जिल े
 को गिरफ्तार  किया ह
घाट न
् ठ
उन से 
हम ारे 
 दो पह
प िछ
ब ाब
 प ैस
िप ल
 जन ्म
च ी 
च ाय
म ात
 ब यान
 ज ाएंग
ी क ह
र्थ क
 ब ुल
 अ मित
 के प द
 वीडिय ो 
' 

घ र पर 
 क ेजरीवाल
नि ट
 इस की 
ध ी 
श ेख
ु झ
सी सीटीव
 पूर ी तरह
 र ंग
 ग ुप्त
 पर  पह
 कंपन िय
श ोध
ै क्ट्र
 क ौन
 त ौर पर 
 श ुभ
 प्र व
ना  चाहिए
ाग र
 इस का 
त ुरंत
 के  ट
 ल ड़क
 का  भ
 वि रोध
्षे त्
ब ोल
 पह ले
 हुए  थ
जद ूर
ब ढ़
 ग ंग
 च ोरी
30 0
o l
 स ूचना 
व्य क्त
 इस म
 की स ुरक्ष
भी ड़
त ा के 
ी  कोई
 क थ
ुव ार 
घटन ा के बाद
राह त
व िन
गय ा थ
 बज कर 
 स्थ ल
 मेर े 
तिक ्रमण
)  म
,  फ
ं श
ग  की ह
च न
ल ा 
ह ाई
िव ेक
 प्रदेश  म
 पहल ी बार 
 केस  दर्ज
 वीडिय ो
ा क ्य
ोर ेन
द्धाल ुओं
ड  म
 वि देश
 के साथ -साथ
जात ी ह
स िद्ध
 द िया ज
 भारत  म
ी वाल
र् विस
 न ागरिक
 ख ुश
 सु ख
जानकार ी द
 विश्व विद्यालय
h an
 स त
 द र
 न िवेश
 इस क
पत् ति
1 50
म क
े ले 
ा  ले
 के  इस
 ज ित
इस  बात
 प्र ाथमिक
ाधिक ार
चौ थ
 हाद स
ध ाम
ी जन
 प ार्क
र् ल
ुन वाई
खिल ाड
स् कार
 और  अन्य
 को ब ढ
रीक्ष क
 जन वरी
ज्ञ ापन
ित ्र
ोग ्राम
्म िक
ोल ॉज
खिल ेश
को  लेकर 
 रिक ॉर्ड
ार्व जन
क ोट
 को  भ
 ख ोल
उस से 
 को स ूचना 
 कुमार  ने बताया कि
 स्ट ूड
 ग्र ुप
इलाज  के लिए
स प
ी ज िल
ाध ीश
इस्त ीफ
्र ष्ट
 ग त
 पर  ग
 ड िज
 ख ाल
ा के  दौरान
ेर े 
s  
त ा की 
व  निवास
ा चल
ा  पह
 ज ेल
 दिन  म
' ,
,  लेकिन
ज त
 ह ी ब
 ज ्ञ
 र ण
उप स्थित
त्स ाह
 भाजप ा 
 दु र्ग
ल ट
सद स्य
घ ेर
न ात
 क ंपनी 
ी  तक
 ब ीम
अप ने क
 मिल कर 
ौत म
 किए  गए ह
 नगर  निगम
ोफ ेस
क रीब
न गर
र् ध
 य ानी 
 राज ेश
रव ाज
 मंद िर म
ड ल
व र्ग
ि स्त
 ज ारी 
 का  इस्तेमाल
ाद ्य
िश ा म
ूर ज
 ही  नह
ेब स
ंबर  तक
शुक्र वार को 
 के अंद र 
संप र्क
4 4
ण ि
फ ्
र ाइल
लि ट
प्र साद
 य ाचिक
 हो  गई थ
ा के  म
6 5
ऑ नलाइन
च  गय
 क क्ष
 स िल
 की  भी 
हाल त
विश्व विद्यालय
4 00
प ाकिस्तान
ा ढ़
 त ीसर
ाड़ िय
ंबंध  म
िनिध ि
ल्ले बाज
ख ुश
ट ाल
त ैयार
र -
 ब िग
 अ शोक
 ने  अ
 प्र धान
 करने  और 
ार्वजन िक
9 9
ज िद
े क ाम
ाए  ह
स्ट ेबल
ंग ्र
बताय ा जा रहा है कि
 आय ुक्त
ं सल
 अ ंब
िया  ने 
 मह ास
व ार्ड
 की सम स्य
य दि
 के  पहले 
िय र 
ंक ज
ंक ड
  F
ज ित
व क्त
 प्र दान
ीत ीश
 तो  वह
ऑफ िस
छ ह
ौ द
 क ुश
ी  ओ
त् ता 
वि स्त
 ड े
 दे र 
आई आ
ज ीवन
 के लिए  एक
ा रह ी थ
बसे  बड
ी सं ख्या म
! 

ै सी 
जिस के 
चंद ्र
ज ारी 
ड े
ी  ने कह
अन ुमान
 के क ई
स्कृत िक
ई ओ
च ोरी
त ा को 
प ोस्ट
ी  के ब
ना  और 
ी है  और 
ब्ल िक
i t
श री
स ड़क
अभ िषेक
ठ ंड
र क्षण
 प ड़
 ल ाइ
 त रफ
 संबंध  म
 च रण
ी के  म
र स क
 क्य ा 
जिल े के 
न ाल
 ज ार
ाइ प
रात  
 के प ित
ं का 
च ार्य
भ ो
े  तो 
ी क र 
ी क ी क
्म ेल
 सं स्थ
ीर ज
भूम ि
ब िजल
ी .
 प ति
 प ेट्रोल
स् जिद
ां ,
ष्ण ु
ृ ं
ी  विभाग
श ान
 ज ाते ह
 पर  ल
ले क्शन
थ ाने म
 की  भ
ना ह ोग
 मुक दम
i  
ण व
न ान
न ीक
स फ
 के  अधिकारिय
ाय न
 रह ने वाले 
 ड ॉल
ाप क
ज्ज ैन
 वित ्त
च ोट
़ ा,
 ज ारी ह
 र ोज
 ल ूट
 भ ार
 त ाल
ंट ्रोल
ुट ्ट
र िया 
 प्र ोजेक्ट
ाई  गई ह
ले  गए।

सं ख्य
 के आ सपास
 मौजूद  रह
लिम िट
त त्काल
ब ज
ी  पर
 उ दय
ुक ेश
 एस प
न द
व र्क
 द े द
ाई  म
ा म ान
ंब र से 
जब ्त
ा सक ते ह
 से  घायल
ात े 
आई  ह
 करना  चाह
उ च्च
र  का 
ौ ड़
 स ेन
 म ंड
 सम ुदाय
िप ्पण
ोर ख
उम्मीद वार
ड ेय
भ र म
र ी म
ह री
वि द
आई ट
ि -
र  अ
इन के 
ाधिक ारिय
श्चिम  बंगाल
 को देख ते हुए
ट ेल
म ेल
र 

 क ान
 म ौत
 अ चानक
 कर ता थ
 ने  ग
 ठ ीक
द बाज
स र्व
ाम ले
 और  एक
 पर  लग
गय ा ह
 हो ने वाले 
भाव न
जाने  वाल
ew s:
उ तर
घ ट
स ेन
 श ु
ा म ुख्य
 की त ैय
 की र िपोर्ट
त  नह
भ क्त
ार  के 
ा की  ह
ुस ाइड
जानकारी के  मुताबिक
a s
ध े 
फ िर से 
ा  ड
 व र
 भ क्त
ेट ्र
पू र्ति
से म िल
 आप को 
एक्स प्रेस
गुरु वार को 
र  ग
िय ा क
प्र मुख
पू जन
उसके  साथ
मौसम  विभाग
 शुरू कर द ी ह
य ाचिक
ह  म
 की  गई थ
 न िक
 प्र भ
र म िल
 मिल ी ह
र स े क
ब्ज े म
पीएम  मोद
ट ेस्ट
र िम
 स प्ताह
ार िक
 प्र स्ताव
ाह ौल
ी न िवास
19 8
 का प्र यास
ा सामने  आया ह
ई ड
च िन
ौ सम
ौ शल
 को  अपने 
िन ियम
ी म ान
ंग ठन
 घ र म
 सं प
ते  रह
श्र म
चाल ित
ठ ाक
अल र्ट
ेहत र 
विष य
 राह ुल
ब दल
र ास्त
ने  एक
4 6
्य ाम
 का  शव
 न िर
ाक ू
ोट ल
 दे ते हुए
ष्ट ि
ीव ास्त
ाने  और 
 अन िल
आप के 
ी सम य
 हो चुक ी ह
उद् घाटन
त ुल
स ोन
ा ढ़
 क ृषि
 र ूम
 वि पक्ष
सु प्रीम कोर्ट
राब ाद
 नेत ाओं
अ क
प ै
स ंबंधित
 प ढ
 श ेख
 प्र भावित
ोट ाल
ी की  ह
र्ज ुन
ी द र्ज
बंध क
ैनिक  भ
ा जात ा है कि
ध ु
स व
ी म ु
ल् क
 जिल े
दो  दिन
 को अ ंजाम
द्वार ा 
अ योध्य
ब ार 
 व र्ल्ड
 का  उ
ीय ू
सम ेत
सं घ
ा गय ा है कि
 मन ोज
 क ॉल
 ह थिय
ग्र ुप
 के साथ  
 एक  बार 
 राज नीतिक
 कम िश्न
 आव ास
 दिख ाई
संभाव ना ह
ीवास्त व
ज दू
न न
 स ात
 प ाठ
 का  च
 ने  आ
ाव र
 फ ंस
 वि ष
नि र्म
ेयर मैन
छ ोड़
म ्प
 का  फ
ा के  पास
ा के  तहत
आव ास
्रष्ट ाच
इ धर
ई  म
प ढ़
 की  व्यवस्थ
 सं सद
्स  म
 माम ले 
अभी  तक
र्तमान  म
ेबस ाइट
ज ैन
परि णाम
 स ौ
 र ाठ
 पर  द
 य ुद्ध
 प्रति ष्ठ
 आरोप ी 
4 7
u n
ग ज
न क
श ास
्य ास
 र ुक
 र ेड
 ल िया ह
 ल ागू
 और  प्र
 पार ्षद
छोट े 
 जनता  पार्ट
 आ ने वाले 
पी ठ
मह ार
 के अ व
ये  भी 
 ट्र क
 की अ ध्यक्ष
4 2
ण ाल
ध ाई
 के ब ाह
र म ह
ग 

पु र क
ंत  स
स्क ृति
 म ल
ा क ा स
 ए ल
िस ाब
आय ोग
आ उट
े क्शन
 भी  द
 हम ने 
 डॉ क्टर 
 से ज्याद ा 
ट ूट
स ीम
ि रोह
 द ्व
शन िवार को 
ाष्ट ्
 इंड स्ट्र
 सू र्य
,  भ
ी  चल
 की स ज
ी दे ते हुए
 ब ै
िक ेशन
 ने  र
 घ र 
 जिस के बाद
चौ धर
श्व ासन
 प्रत ाप
ग  स
 के  मुख्य
ा क म
ता  लग
 पह चान
मु द्द
ाने  की म
ी की  ज
 अग ले 
ुबह  
इ ंग
 की  वजह से 
 कर ते थ
 मह ाराज
 घ ाट
ेड ल
दीप  स
डॉ क्टर 
लिमिट ेड
क ल्प
न ुमान
य ाब
 ह ी क
ी म न
वार  सुबह
ाय ात
 और  फ
 ए क्ट्रेस
 थ ाने म
 ट ूट
 एक  युवक
 मु ह
 हम ेश
ियम ित
 आई  ह
ाबाद  म
ड्र ाइव
 करोड़  रुपए
ी '
 को  नह
 अ जय
ात ायात
प्र कार
जान ा 
ैल ाश
 स्ट ्र
क त
श ार
े  गए
िय ो
 की  घटन
 से  द
 ने  उन्ह
 स्थ ापित
ऑ ट
च े थ
य ूप
ल ोड
 क ी कोशिश
रो ल
उस  समय
हन त
लेकिन ,
इ क
स िपल
ू र्
 प र्व
ाय ुक्त
 का  व
 और  उनके 
 च ु
 की सं ख्य
मौके पर  पह
3 9
प र्य
 की  घोषण
ाने  के 
 वर्ष  
धार ा 
मामल ा दर्ज
शी ष
 दीप क
t h
ग ढ
य ोजक
ी  पह
 हो ने के कारण
सम स्य
ा ज ब
 कर द िया थ
ाना क ्षेत्र म
बी आई
 सह योग
राह ुल
ेन् द्र
यात्र िय
द्रीय  मंत्र
  T
य ाग
 द ाव
ाव ि
ी क ंपन
वं श
राज्य  म
 के नाम  पर 
 राह ुल ग
ग ति
ग ंभीर 
ठ ित
व े
ा ढ
र  ड
 ब ने 
ा क ुम
ाय ा 
ाय ा और 
 ग ठबंधन
 ड ूब
हम ने 
 से ब च
ियंत्र ण
 विष य
र  को 
ल ाख
 द ू
त् मह
री न
सम िति
दरअसल ,
त्मह त्य
 प ंच
ार  नह
वि द्य
नि भ
राज धान
 की ज गह
 महिल ाएं
 उत् तर
a b
ल ाह
िय त
स्ट िस
क्र ेन
 साल  से 
ब् ब
 अभ िय
 एक्स प्रेस
ख तर
च ी और 
 र िलीज
 आ देश
ा ज िस
ी द िन
ी द ्वार
पाल िक
 युव त
र िज
् श
ार िज
 ज ी
 प्र बंधन
 तरी के से 
e l
श ेयर
स ी स
 स दर 
 ह व
ाम ी 
ाव नी 
 पर  च
 देख ने को मिल
िम्म ेदार
 उम्मीद वार
इ तिहास
उ सम
 स ेक
ा क िया ह
 पर  हमल
ग्रेस  ने 
ट्र ैफिक
 की क ीमत
 जिन म
् लेट
 स ैन
 प ुल
ी के  पास
लेक र
टक्कर म ार द
ख ्स
 च ेक
ंद न
 इस  तरह
आर त
 जिल े के 
बात चीत
द्योग िक
4 9
ज िसे 
स ूस
 स ज
ने  द
स् कर 
 आ नंद
र द िय
ह ण
 ल ाभ
ी क ैमर
 य ोजना 
ा रह े 
ज्ञान िक
ज फ्
म िशन
य ोजना 
ा  एवं
 ब ो
प्र ाप्त
 प्र यास
नी  चाहिए।

ुरु ष
ी हुई  थ
 हो सक ती ह
 आदम ी पार्ट
e :
व  के 
 स िद्ध
 के  नि
 त हसील
 और  व
ाइन ल
ाइन ल म
h ar
ड िज
ब ाग
स ात
 स ोशल मीडिया पर 
िल ंब
 प्र स्तुत
 के ब च्च
 ड ायर
स्प ेशल
 यह  है कि
 बैठ क म
 स्प ष्ट
  E
  लि
ने  बताय
 ज वान
 तथ ा 
 गल त
आ  रहे ह
ग ू
ैं ?

 च ौराह
अन ुभव
 साल  बाद
 ध ार
ार ह ो
 चुनाव  म
अ मित
छ ात्र 
ज ाल
भ ार 
ा  देव
 ज ीवन
 पर  फ
धार ्मिक
च े और 
र ेस्ट
ि ठ
ी ग
ी ?

र  (
 के  परिजन
 ब ीजेपी
िया  ग
ी ब हन
िर ाज
ा ब ोल
िने म
उत् पाद
ड़ े 
 न ाग
 हो टल
त्स व
 मही ने म
 शन िवार
ार कर 
्य ोर
 द ास
 को  रोक
 ने  अपनी 
 बज े
ीक ृत
 कोई  भी 
 कै मर
 की तरफ  से 
 खिल ाड
ा ें
ै दान म
ाब ंद
ुक दम
 इ क
 रव िवार
 शह र म
अ ंतिम
श ो
े  दिन
ा क िया थ
ने ग
 फ ैसल
ुल ्ल
 ख ात
ीय त
 शर्म ा ने 
लक ात
4 3
प र्ट
 पर  र
ी क ्षेत्र
र स ाल
क्र ोश
पूर ी तरह
वास िय
सुर ाल
त ेह
ब ाह
 ज ग
 पर िसर म
पाल  स
ाया ज ाता ह
स्थिति  म
ऐ सी 
ख र्च
र ेट
ी  को लेकर 
 की  मान
 ज ाम
ंब र पर 
घटना  म
ूर् नाम
B JP
ाज िश
 त ोड़
रह ा ह
 प्र भाव
ुल  
पी ओ
 सं चालक
 की स ुविध
श्य ाम
र्न ाटक
ाई ज ाएग
  ऋ
I R
म ार
ी  एवं
 य दि
पुलिस  को द
ल ड़क
 के  शव
 र ोहित
ले ख
ी क र ल
 मु स्लिम
ाने  लग
ाना  चाह
 टीम  ने 
 झ ारखंड
0 5
द ोष
ह ्म
 के  नेतृत्व म
इस  संबंध म
 ग ेट
 ख र्च
 इ स्त
ेत ु
 लग ा द
 मिल ा ह
ग् जाम
 यून िवर्सिट
जफ् फर
श ि
ी  फिल्म
 द ाखिल
 भ ू
स्त ुति
 वि द्य
 जान ते ह
ला परवाह
 से ह ो
 करोड़  रुपय
 मत दात
ब े
् ढ
 प ुरुष
 व िवाह
 श ेयर
 च ीज
ी के  दौरान
ग्रेस  के 
 जब ्त
जम कर 
C M
त ौर पर 
भ र 
ु र्
 म ीण
ान ा ह
 ज ीव
पु र स
ी म ौत हो गई।

क्ष य
 हो ना 
ी द ल
ैस ेज
रु ख
 मौजूद  थ
कर्म िय
 उत् पाद
्यर्थ िय
i d
अ चानक
ग ्स
् ति
 को  सम
ेस  म
 स्ट ाफ
ंभ ीर
िने श
 भूम ि
ंग्र ेज
प ाट
स िर्फ
र् धन
 र ाष्ट्रपति
ित ीय
 ग ुप्ता 
 कर द िया गया ह
देख ते हुए
 से ज ुड़
 से ब ाहर 
गे  और 
 यात्र िय
 दु र्
स्थानीय  लोग
प्रधानमंत्र ी नर
न ाराज
प ैस
ल व
ु द्द
ै श
्र ाफ
 ब ीत
 कर िय
ंज य
 की ब ैठक
ी त ो
रव िवार को 
 से स ंबंधित
दु ओं
एच ओ
त ेल
ने क
 को  समझ
वि र
 कम र
गढ़  म
 अभी  तक
S P
उ क्त
ख ल
ख ्म
ब ीन
 न ोट
ले न
ग ड़
श ्त
ें :
 स फाई
 के ब यान
 किय ा कि
विक ेट
रूप  से घायल
ठ ेक
अन िल
 मु ख
िया गय ा थ
गढ़  म
 हाद से म
जानकारी के  अनुसार 
)  ने 
B I
फ र्ज
र िश्त
ू  स
 प ढ़
 की  पूज
 अ स
पू त
 मह ाम
गोल ी म
ब्ल ्यू
िम्मेद ारी 
घ ोषित
 को लकात
ी ब ह
 दे ने
ीच र्स
ूच ित
िजल ्ट
ए यरपोर्ट
ल ूट
े  न
िय ा की 
 श ो
ाह क
 हो ने का 
बाद ल
ंज ूर
जद ीक
 निर् देश
 अहम द
  G
,  ट
. "

ॉ ब
 की  पहल
 व ्रत
िन ्
 श ासन
ाई  गई
े क ार्य
ाक ाल
मामल ा सामने आया ह
 सोम वार को 
त री
प ता चल
 र ैल
क् सी
ार  स
ाद श
 को हल
द् दे
स्थ ल
सी ब
एस एस
 छ ह
 के क ुछ
गर ान
रव िवार 
 अभ िषेक
सरकार  ने 
बैठ क
अंत र्गत
शी र्व
ड िड
प ेश
ब ान
र  भी 
 ज ागरूक
 के लिए  भेज
ुआ  ह
 की श ाद
 गु जरात
 का आयोजन  किया गय
ओ म
ल ीक
 म ोट
ने  से म
 अ ज्ञात
 को  सं
 इ ंजीनिय
भाजप ा के 
ेल् थ
C C
ख ूब
ड े 
ल ाइ
स ूल
आए  थ
च िकित्स
फ ान
य ं
 स प
ाई  गई।

 च ार
ा थ ाना 
वार ाण
ा कर ने के लिए
टीम  ने 
 दो स्त
हरियाण ा म
ti on
ई रान
े क्टर
 ज ारी
ाय म
 न य
 च ाल
 की श ाम
 दिए  ह
दु र्ग
सोम वार को 
शीर्व ाद
t  
आ धार पर 
प टना 
ा  लेकिन
्य ाज
 को  ड
 वि ज्ञान
 करने  के 
जानकार ी मिल
 मन ीष
 मै ने
बई  म
अ हम
ग ौर
त र 
ी ख
ै ने
 न श
 और  द
इंत जार
,  राज
 ने  उसे 
ा कि सी 
ेत ावनी 
हम ति
19 7
उनके  साथ
 विधान सभा चुनाव
 साह ू
ख ात
फ िर
ल े ह
व ा द
 स ाग
 प ौध
ाल न
 को  लेकर क
 पर  भ
ना  शुरू
ूं ,
वार  रात
 का स ामना करना 
 आव श्यक
 को  उ
 ल क्ष्म
 न ंबर
प्र धान
 उ द्योग
ी स हित
स्प ष्ट
मर ज
आए ंग
न्य ून
4 1
म ारपीट
व ेल
 को  यह
 न ाबालिग
िव ारी 
 जिस क
ट्र ै
 ड्र ाइव
 वर िष्ठ
ऐ लान
न ा है कि
 प ोल
 को  श
 न ारायण
े ह ो
दे कर 
 इस  मामले म
िट ाय
ेब ाज
 एस ोसिएशन
 किल ो 
इंद ौर
ौजूद  रह
ी ए
ा क र ल
 न ौ
 ग ृह
पु त्र 
त् न
िट ी 
 छ त्तीस
ाष्ट ्र 
ुध ियान
ार्म िक
बाव जूद
ास् ता 
त ैनात
ब ाक
र  की 
ि स्क
ी  को स
 स ाध
 ब र
 द े 
ित ाब
 ने  यह
 आ कर 
प्र त्याश
ी स ीट
र्ट िफ
सं जय
ी ज ाती ह
 छ ोड़
 व्य क्त
क श्म
ब यान
ल ्याण
ना  द
ाउ ंस
गु जरात
 कर्म चारी 
आ दि
ओ ल
ब ीजेपी
ी पुर
े र 
ै र 
ो ण
े  लग
 के  उप
 पर  चर्च
ी स ीएम
ार् द
र द र्ज
 सुन ील
ेश्व र 
हाद से म
धमकी  द
ट ोल
प ियन
 द र्शन
स्ट ेट
पर ाधिक
ी प रीक्ष
 नि र्म
 ऐ सी 
प् लेट
 न्याय ालय
 क्ल ब
े हुए  ह
 पास वान
भू षण
स्ल ाम
  V
2 50
ी ह म
पह रण
जन ता 
 सी जन
 स्म ार्ट
न ारायण
 का  निरीक्षण
नि र्वाचन
ैन ल
 की ओ र 
 से म ार
r a
न ाव
ब द
ा शन
ित  किया गय
 के लिए  र
 रह ते ह
स्थ ापित
र ब ्र
 जन वरी 
 कर्म िय
 हाई कोर्ट
थ ल
न ा कर
ै नी 
ौ ड
 ग ोव
्व त
स्त क
 इ लाके म
 सु प्रीम कोर्ट
महिल ाओं
डिड ेट
5 6
भ विष्य
ह ुई
 के  उ
 आ ंदोलन
ीं 

 करने  की म
ट्र ल
इं स्ट
 क्ल ास
 दिवस ीय
 पता चल ा कि
 कॉन् फ्र
ड िश
र क्ष
ी पुर 
 ज वाब
 से  भर
 आ सपास
ले क्टर
 उ त्तर प्रदेश
 से ह ी 
 मान सून
 देश  म
 सुन िश्चित
 सहित  अन्य
 के भ ीत
r o
ख ाल
ग र क
ज र्स
ी  तरफ
िय ो 
 अ दालत
पुर ुष
इन कार
 ऑ ट
सूचना  पर 
ए प
ख राब
त ाओं
न िर
र कार
र ाष्ट्रपति
 प्र कार
ाए  गए ह
ा है  तो 
क्र ीन
 ऑ परेशन
आज ाद
 की टीम  ने 
i c
i l
ि र स
 म ार
 प ्ले
ुर ी तरह
 इ ंच
ैठ क म
.. ..
 किसी  तरह
ास् कर 
 इंटर व्य
याग राज
द ूर
स ोशल मीडिया पर 
आय ा थ
 कर्म चार
श्व िन
 गण ेश
इ लेक्ट्र
ने  भी 
 ब े
 ब हन
इस  दिन
ष् कर्म
पूर ी 
गद ीश
अ ंब
स -
ा  के बीच
ा  य
 म िम
ार ोब
 ज ाता ह
 ज ाती ह
 र ास्त
दे ह
 दे ने के लिए
ी द िख
 हम ार
 जन वर
 के प्र मुख
 निवास ी 
 हो सक ता ह
जिस्ट्र ेशन
ेक् न
  ,
व न म
 स त्य
 म ोह
ने क्शन
 व  
 ल ॉन्च
ी म ौत
ाइ वर
 लग ाकर 
 कर रह ा थ
ा ॅ
ी ने 
 की  जान
ा क र रह
इस ी क
 त ुम
 ऑ नलाइन
ी आ दित्य
ुरुआ त म
डॉ क्ट
न ाग
प िक
ी र म
ैं ।
इस  साल
 इस के बाद
 ने शनल
 किया ज ा सकता ह
भी ड़
 करते हुए  कहा कि
ाधिक रण
वर्ष  
िक्क त
  L
8 5
ग ो
व ाड़
ी ।
 म जबूत
ान ंद
 ग ंभी
ेस  दर्ज
 हो  गए ह
स ार
ा "
ी  ने क
 ब ाहर 
ित ्त
 रह ने वाल
िप ाह
 साल  तक
 उप ाध्यक्ष
मौ क
 के ह ाथ
ावि द्यालय
ै ड
 स िक
 र ाव
 र िस
 से  शुरू
 का  ट
 ख ु
ौर भ
एस डीएम
ा का  आयोजन
 स्कूल  म
 प कड़
 ह ेम
 ब ेहद
मु श्किल
जात ि
 चुक ी ह
लोकसभा चुनाव  म
आ ने वाले 
ज ाप
न ार
 के  घर
ी स ूचना 
एक  बार 
 सह ायक
 दिल्ल ी म
 की द ुकान
in g
एड व
भु गतान
आ खिर
स् ब
 त ेल
पु ष्टि
दल ीय
ा को  स
 हजार  से 
 ओ ल
 ओ वर म
 इं स्प
तंक वाद
,  ए
ऑ स्ट्रेल
छ ठ
े  के साथ
ा  रोड
्र िकेट
 ज ु
 श क्ति
 ख ंड
a k
i s
ए क्ट्रेस
् लि
 स ामान
 म ंच
 द ब
पु न
 उ सम
ुम न
ेर ल
िट ल म
िज नेस
प्रति म
le c
U P
न ाबालिग
ह ायक
 का  उपयोग
 कर  दे
स्त र पर 
ाक त
िप ाठ
 बज ट
ी अ भ
 जान िए
 बुध वार को 
 के अलाव ा 
संख्य क
- छात्र
ब ीते 
र ग
 ह ॉस्पिटल
ने  यह
 कर  ज
राज ेश
ा की  ज
िम ाचल
 की त ुल
 श्र ेण
दिल्ल ी म
इ जर
ए एस
स फर
 की  वजह
 ब ूथ
 र ाकेश
 ल ीट
ी क ाम
री श
ा स ाह
 के द ूसर
 को ब ुल
पहल ी बार 
 सुन वाई
 परि षद
 संबंध ित
द ाह
ै दान
ो ले 
ा  पुलिस
 के स ंबंध म
 जिस की 
जय पुर 
 का क ार्य
वे  पर 
ला कार
 लोक सभा सीट
 पर ब ैठ
 अक ाउंट
5 1
ी र्थ
ी  वि
ा क ुछ
 न ोटिस
 की ब ेट
भाव ना 
 को ह ट
a v
i r
ह ाज
 म ोहम्मद
ार क
 की  इस
 ल ाइट
 भ जन
शन िवार 
भाग ्य
 कै द
 के मुताबिक ,
 गुरु वार को 
 निर् धारित
वस ाय
 को सूचना  द
अ ंजाम
क द
छ ल
ज ेड
ा  और क
ा  उठ
ले व
 च ुन
कार ात्मक
सी आई
श्र द्ध
ा सक ती ह
्रम  म
 का ह िस्स
च ु
ज ुट
त ाज
त ोड़
र ित
्य ूल
 और  श
 पर  रह
ी ब ीच
 की स ुबह
 पार्ट ी के 
 उम्मीद वार 
बुध वार को 
 समारोह  म
आईआ र दर्ज
5 8
झ ंड
ो एड
ा  यह
ाय ता 
 को  इस
 को  भेज
 ग ोपाल
 छ ात्र 
 कोर्ट  ने 
ी य ादव
 मुक ेश
 शुक्र वार को 
च ाई
प त्र
भ जन
 प ाय
 कर वाई
 बन ाने के लिए
 का क ोई
रव री
 यू निट
देर  शाम
शुभ ारंभ
ौके पर  पह
च व
झ ूठ
ू नी 
 क ीमत
्र ेट
 प ैद
 की  उ
 र वि
 को  पुलिस ने 
पु ष्प
ड़ ताल
 ख ड़
आग े कह
 विशेष ज्ञ
 प्रधानमंत्र ी नर
 करना ह ोग
 गत िविधिय
अ जय
ट कर
द ी के 
ध ुन
 के  मुख्यमंत्र
 अ ट
ी क ीमत
 ड ेट
 घ ूम
ी प द
 रुपए  प्रति
आर क्षण
 हो रह े ह
त ा का 
े स्क
ौ स
ी  देव
 स ोच
 के  विभिन्न
 ब नी 
 द क्षिण
 उ तर
 घ र से 
ा ब ेट
ताल ाब
ग्रेस  नेता 
हाद से
िश्न ोई
 पूछ ताछ
द्धाल ु
ऑ परेशन
ग ्वालिय
े फ
 ग ीत
 प्र ेस
वि ड
 फ िर से 
ा स हित
ग्र स्त
ेय र क
 पी ड़ित
पूछताछ  म
- च
ट ीएम
र ्र
र िया म
ु र 
ू ज
 और  च
्त िक
ी के  खिलाफ
मु झ
राज स्व
ारी  से 
 कई  बार 
ृत  घोषित
 की प रीक्ष
ार्क ेट
ोख ाध
ंघ न
 दोपह र 
1 20
ट र 
द क्षिण
े ।
िय ाल
िय ास
 प्र भारी 
 प्र शिक्षण
ी ब स
ी ब ाइक
 जून  को 
भूम िक
शोध न
ये भी  पढ
- एक
ज ग
ज लि
ध र 
ब ीच
व ा दे
 स ाझ
ा ह ाल
 अ रव
 न ीतीश
 भ ाव
 आ दिवास
 च लेग
 दे ते ह
 बन ाय
 को स ंबोधित
 जिस का 
गु जर
नीत ीश
 न्य ून
 स्प ेशल
 शु क्ल
व ेदन
ी ह र
प्र ाथमिक
 थ ा कि
 इ ंट
 सं विधान
आरोप ी ने 
गिर फ्त
ुरक्ष ित
 घंट े
-ब ार 
 मंगल वार को 
मंगल वार को 
 की मदद  से 
0 9
इ च्छ
ख त्म
त ान
म ोहन
ी  छ
ले  कुछ
ी क ुछ
 य ान
र्म चार
ंब र म
ाख ंड
ा कर ने का 
 तो  उन्ह
 सु ध
गिर ावट
मिल नाड
 से क ह
्क ुल
 बात चीत
ता है  और 
 पी छ
 अल र्ट
हत्य ा कर द
दाव ा किय
ी आदित्य नाथ
ई -
े ठ
ो हर
 के  घर 
 ज ोन
 अ योध्य
स्थ ापन
 दिन  बाद
ैस ले
आप क
ी व जह
 की बात  कर
जु र्म
 साम ाजिक
 संत ोष
A S
अ स
र ेप
ृ ज
ी  और क
र  लग
 स िविल
 की  सरकार 
 अ फ्र
 से  यह
 ल ेत
 का  समय
 प्र ाइवेट
 दे ने का 
 करने  की कोशिश
 N ews:
 कुश वाह
P M
व ीर
ा  पर
 ने  पुलिस
ी क ा क
ी स े क
जन क
िट ेन
 सर पंच
 नि र्वाचन
 घंट े म
 ले  ल
 रन  बन
 घंटे  तक
)  और 
ज ी 
न ्व
भ ंग
म ोबाइल
ै  और 
ार 

ी ह ाल
नि पट
 पर ियोजन
ी अ मित
  l
  लिमिटेड
ा क िया गय
 का  श
ले  से 
लग भग
 लग े 
 के द ो 
ी थ ाना 
 किए  गए।

 स्ट ेडियम
दिन  म
रात  म
ायल ट
ी सम स्य
 घंटे  पहले
 बाज ार म
 किलोमीट र 
ो स्त
ा  रख
 प्र िय
 ट िकट
वार  को ब
मु स्लिम
ाने  पह
बी एस
 लिए ।

ा सर कार 
5 2
5 7
ओ वर
घ ुस
ध री
ध ी ने 
 की  गिरफ्तार
 से  निकल
 का  पालन
 ग हर
ना  ने 
 के साथ  मिलकर 
ा के  खिलाफ
 दिय ा कि
पिछले  साल
 अध िनियम
 के अंत र्गत
त दात
स ो
 म ेडिकल
ा म ु
 फ रवरी
िर स
 ध ार्मिक
 को ब च
वार  शाम
िनिध िय
तिहास िक
 मोहन  यादव
करीब  
)  
0 1
उ त्तर प्रदेश
भ वन
ृ प
े  कोई
 प ैसे 
ंग ल म
अन ुप
त्त म
शिकायत  म
 हो गय ा थ
 करना  चाहिए।

ल्ल ंघन
  ध्यान
आ  रही ह
द ह
न िशान
ी  इस
 ह ी ह
 द ुनिय
्व ल
िस ाइल
 ट ाइम
 इ लेक्ट्र
िट ाई
 कर द ी ह
दू षण
 की त ैयार
ने से  पहले 
ाकि स्त
 पर क ार्रवाई
N D
ज ारी क
न य
र िस
 आ ठ
 त त्काल
हम ार
 मु झ
र्स न
 नि देशक
ी व िक
ी सम ाज
 आए ग
रु द्ध
दाल त म
 इस्त ेमाल
  लिस्ट
ं चल
अ ज्ञात
आ र्थिक
च  के लिए
ू  ने 
े  को
 त ोड़
प्र व
प्र भाव
 प्र थम
ीर िक
 उप चार
 आई ।

ल्प संख्यक
 की जरूर त
आरोप लगाय ा कि
a c
द ीव
ि स्प
 स क्रिय
िल क
ाग ्राम
 फ ायर
राज  स
 को स ्व
ुस ार 
मर े म
 मान व
  O
,  एक
अ र
फ ार्म
़ ी,
ान ा म
 प्र चार
त् थ
्व ान
ाप ू
देख ने को मिल
गल ुरु
 पर क ाम
बेट े 
ीनिय र 
 मुक ाब
 साम ग्र
ौक री
ज ैस
न ियम
 म कान
 ह ेल
्य ार
 र िज
 भ विष्य
 आ उट
 प्र ेर
 हो ने लग
 वि मान
 मह ीन
 को प कड़
 स्ट ेट
 को क ब्जे म
आइ ए
्मेल न
ख ु
घ ूम
द  केजरीवाल
य र 
ा क ा प
 द िया 
 से  फ
 से  चल
 और  ड
ध्य ान म
 सं युक्त
ी की  थ
 पर म
ी न गर 
तीन  दिन
श्व िक
रस ाइकिल
 की  हालत
 ब ाह
 ब ुजुर्ग
 र मेश
रो म
 ट ैक्स
 सं ख्या 
क्स र 
ना ह ी नह
सक ते ह
ाध्य ाय
ी हुई ।

शह ीद
 डॉ क्ट
टी आई
ा सम य
ॉस्प िटल म
ृष्ट ि
क े
च  कर
़ ै
 प ोर्ट
 प श्चिम
 द ी थ
 त िवार
 श री
 प्र माण
 च ार्ज
घटन ास्थ
 के सम ीप
 अफ सर
वी र स
6 7
ग ाड़
थ ुर
ब ना 
स ाह
 ब ाध
 कि शन
 फ िलहाल
धिक ारिक
मान ्य
अम ृत
 पीएम  मोद
ऊ ंच
ग ुल
च ेहर
न श
ब ोर्ड
स ाइ
 कर ोड
वि द्यार्थिय
ाए  रख
ा की  गई।

एस डी
 करने  के निर्देश
ाण  प्रतिष्ठ
 राज ीव
 राज नीति
 हम ारी 
 श्र ीवास्तव
 गु र्ज
ेश्व र
मामले  की ज
ुदाय िक
 से मार ने की 
ब ॉल
ल ोच
श क्ति
ने  इस
 ज ेल म
िल ास
र्म द
 दे ग
 नि र्णय
सु ख
विधान सभ
इंद ौर म
ा हो  गय
बिह ार
रद स्त
 का सं चालन
0 6
आ सान
च ले 
च ेग
ब द्ध
ह  ने कहा कि
ि ष्ट
 म ाध
 प ढ़
 ब ुक
 र ेट
 ग ुल
ी ब ड
ी के  रूप म
 हम ल
जिस क
अपन ी म
 राह त
ग्लादेश  म
7 8
I P
ह स
 ह ॉ
ाय र 
इस को लेकर 
 न ीति
ात  म
ुल ूस
 घ ट
 कर रह े 
आए ग
ाध्य मिक
 चुक ा ह
 किए ज ाएंग
ूह िक
 संद ीप
्षेत् र से 
ऐ प
र ेख
व िवाह
 क िनारे 
ा  राम
 अ रब
 अ रुण
 ल ेन
 का  ल
 न ाल
 और  उन्ह
 च ुनौत
ुन िया म
ी ब च्च
ुक ान म
ने क ा काम
जिस की 
सद र 
 सु धार
बर ेल
 मै च म
an d
प् पू
ग् ज
 जारी क िया ह
ग िर 
द  म
द ाद
व ेज
ु च
 र ाश
 द ह
 द िव्य
 को  निर्देश
 व ृद्धि
 प्र ोफेस
ाप ्ति
नि ष्
पुर ,
आय ुक्त
ट्र ैक
 आय ा ह
 की क ार्रवाई
ी हो ती ह
 की च पेट म
टक् कर 
 इसके  लिए
 शन िवार को 
ियंत्र ित
ेस्क ्यू
A P
ऑ ल
फ ै
ा  स्थित
 की  ट
 ल ड़क
 कर ण
ाए  थ
 फ र्ज
ाफ ़
िए ंट
ा द ्वार
 पू जन
ॉन ्ड
आए  ह
 मार् क
बिह ार 
आ शंक
क  
य ानी 
स ूर
ने  ब
 ज ैसी 
 ए यरपोर्ट
्ल ान
 घ ोटाल
 ध र
पुर  ग
 विभाग  ने 
ैक ड
हो कर 
िप्ट ी सीएम
क लेक्टर 
प कड़
म  म
स ड़क
ी  ले
 के  ए
 के  चुनाव
 द ूर
 अ ंद
ात ा थ
िया  से 
ति श
ार् च
 पह न
 कार्य कर्त
ने की  संभावना ह
 श्र ीराम
िस्ट ल
 मै दान म
सुन वाई
lec tion
ं व
अ शोक
उ तार
क ान म
त ाकि
त ी रह
ल ाक
 क श्म
 प ंप
 ह ार
 अ तिरिक्त
े ह ाथ
नि गरान
 तक नीक
 पर िस
ात्र ा म
ोर दार 
ील ाल
ी फ ुटेज
 जानकार ी द
इत ना 
 की तुल ना म
0 2
अ तिरिक्त
च ेन
े  करीब
 स ख्त
ने  पह
 र क्ष
 अ र्पित
 ल िया थ
 ल खनऊ
 आ ते ह
पु त्र
 प्र दीप
भी  नह
ंग न
र्म चारी 
ंब ुल
 सं स्कार
 उस से 
जय पुर म
पूर ा 
 कुछ  लोग
निर् धारित
 स्त रीय
 बिह ार
यून िवर्सिट
7 2
क ोल
ग ुप्त
छ ापेम
ज ोध
र ेड
ु ण
 स र्विस
िल ्ड
 द ी गई ह
 से  हर
सी  से 
आई एम
 किया ज ाए।

श्र द्धालुओं
19 6
को ई
 बाद ल
डीज ल
ख ोल
ग ृह
ड न
म ंदिर
ह  और 
ा  ने कह
 म र
्र ाइम
 प ल
इस ी बीच
ा ज ा सक
 की म हिल
ा प द
ोब ल
िह ार 
ी सम ेत
 दु ब
च क
ज  
म ेट
 स ेम
 के  ऊपर 
प्र दान
उन को 
िव ाल
िव ार्य
ुल ्ह
 किया  तो 
त्य ोह
राज्य पाल
 कै प
 के अनुस ार
युव ाओं
 मई  को 
राजस्थान  म
 एड व
 गो यल
  धान
क ू
ख ड़
च  के बाद
ट ेन
त हसील
म ोह
य ुद्ध
र ाशि
ी  को प
 प कड
 प ेपर 
ने  आ
ार  पर 
पु ण
िव ेद
ा थ ाना क्षेत्र
 मिल े ह
 ट्र ंप
ंगल वार को 
ा प्र त्याश
 पद क
 पद ाधिकारी 
 कार्रवाई  की जाएग
 B JP
 मुह ूर्त
e d
e t
ग ोव
ट र म
थ ा 
 क ड
 क े

ा क ारण
 द व
 त भी 
ाई कोर्ट
ी क े कारण
 उ तार
 मह त्व
सं सद
ला ठ
एन डीए
 ओ वर
िफ िकेशन
 ठ ंड
 सित ंबर 
 कार ोब
जिन ्ह
 मामले  की ज
 अम ृत
 के बेट े 
o m
य े क
ह ुत
 स ोल
 ग ैस
 रह ता ह
स्ट ाफ
सी ए
र्व ेद
गिर फ्तार 
आज म
उम्मीद  ह
गण ेश
ी अस्पताल  म
I M
अ पील
प ोल
व ाण
ु ज
 क लेक्टर 
 ने  फ
 त ्य
कर  ब
 च तु
ग्र ाउंड
ंज ू
भी षण
िया ज ाता ह
 भी षण
h a 
ग ोपाल
ज ून
प ैसे 
म ंडल
ह  चौहान
ी  लोग
ा  राज
 म ीडिया 
 के  निर्माण
ां -
ा ह म
 द िया जाएग
ाय ंस
 आ र्य
 प्र त्येक
ाक रण
वार  को क
हर ू
 उन म
 आप क
 से म ुलाकात
विरोध  म
 दिस ंबर 
 के  करीब
िग् गज
 किर ाए
इ ंजीनिय
क ाय
च ंडी
त ार 
प ानी 
 ह नुमान
 की  वारदात
 भ ारी 
ोग ्राफ
 प्र खंड
 य ूप
ले  पर 
स्त ्र
 इस  बात
स्व ीर 
 गिर ावट
ाउंस िल
5 9
ग ी म
ाम ाजिक
 न क्सल
ति ग्रस्त
ा कि ए
 वि ष्णु
सी  ने 
ील ंक
 " म
्यू ब
िफ ल
 सामने  आय
सह योग
 पत् नी 
्योर िट
उ र्फ
ब ुक
ब रामद
भ ीत
 ज ोड
 न ियुक्त
 न ौकर
 भ ी कर
 आ ने वाल
ी क ुम
 य े ह
र क े क
मु क्त
जय पुर
 विश ाल
यू पी
से क म
ाउंड ेशन
प्रत ाप
 शन िवार 
 की सूचना  मिल
तलब  है कि
त ुम
श क्त
 क ी
ी  टीम
ा  ए
 की  पत्नी 
ी म ोद
ना  पड
र्म िय
ुए  ह
 नि रीक्षक
त्त ा म
िह ार
पत् थ
 इंड िय
 सबसे  ज्याद
पल ट
शु क्ल
 वार दात
 दे रह े ह
ाष्ट् र म
S C
च ेक
ल क्ष्म
े क्स
 ज ोश
वि म
 ड ्यूट
 की म ह
 इन ्ह
 बच्च न
ा हो ता ह
 जुलाई  को 
साध न
0 7
M P
थ ित
न ागरिक
फ ायद
ब ारे म
य ान म
ह ्वान
 प त
 र ज
एक  युवक
 ख तर
 वि स्त
 बन ाने
वित रण
ाने क ी कोशिश
 परिव र्तन
 का ग ठन
ेक्न ोलॉज
ठ िन
फ ़
र ूम
स हित
 ज त
िल ीव
 द ान
 का  यह
ाक र
 ट्र ै
विक सित
 की र ाशि
 बाद  म
 देत ा ह
 ब्ल ॉक
प्रीत  स
ं .

ड िट
द ैनिक भ
व र्तमान म
ी  ने
 स ाबित
 प ्लेट
र् भ
र् स्ट
ाम क
्ट ्र
 हो ल
 सं जीव
ोक ेट
 किया ज ा सक
 के न ीचे 
लिख ित
 पद ार्थ
इस ब ारे म
इत ना ही नह
सभा क ्षेत्र
5 4
6 6
ज ट
ट ू
द ी म
द िए
ल ल
 म ास
 म ुन
 प कड़
ो  और 
 ज ाए
 ज ाने
 र ेफर
 और  उसके 
ंद ेश
सम ारोह
ाफ ी 
 सं चालित
सं युक्त
 के म ुकाब
श्र ी
म्म ू
जिल ा क
ृत ीय
आग  लग
 ई रान
 हो चुक ा ह
मिलनाड ु
य े म
ी कार
ा  छ
 के  विकास
 व सूल
इस  फिल्म
ना  नह
िश ्वत
द्र  सरकार
बी र स
 इं स्ट
r e
आ नंद
इ ज
ख िय
ग  को लेकर 
ु अल
ौ च
ार म
 व ाय
 प्र श
 फ ै
पर िसर म
 ड ीज
ी थ ी कि
ाट  कोहल
ा कर ते ह
दू र 
 द्वार ा स
प्रदेश  अध्यक्ष
 नव ीन
प्रति पक्ष
 पर स वार 
ृत्य ु
िथ ि
उ ज्जैन
ग  के लिए
च ुर
ी  को ब
ो ले
 ब ीते 
 ज ाट
 व ीर
 व  अन्य
 से  छ
 को हर
ी क ्षेत्र म
 के स हयोग
ुन ील
 वि द्यार्थिय
 शामिल  थ
 भाजप ा के 
 अगस्त  
ॉक्स  ऑफिस
अ ंक
म गर 
 क ैस
 ब रस
ी क ्य
 उ ड
ा को  अंजाम
 के प्र त
 के प्र देश
यू क्रेन
 आए ।

ॉप र्ट
र्प ण
 ज्ञ ान
आ त्म
क ेत
क ंपन
म ार्ग
व ा म
श ास्त्र
ि रोज
 क प्तान
ाय सवाल
क् व
 को  लग
 ग िर 
ाइ गर 
्म ण
 ड िप
ा द िल
ीड ी
त्र िक
 से ह ुई
िया ज ा रहा ह
ेह ोश
विधान सभा 
 पर ब ात
सू त्र
 संघ र्ष
 से बात चीत
ना थ ा कि
 महास चिव
  J
प टन
े ष्ठ
 ह ेड
िय ार
 ज ्योति
ी क ॉलेज
ंद ीप
ाफ ी म
ी की  ओर से 
 तो  यह
न्य वाद
स्कूल  म
 भी क ह
 की सं ख्या म
 अगस्त  को 
 सुरक्ष ित
 रो शन
 मुकदम ा दर्ज
  H
ध ्व
प श्चिम
ु ,
 ब ाग
 द ोष
ैं -
इस  कारण
इस  वजह
 का  इलाज
 का  रहने वाल
 आ र्थिक
 कर द िए
छत्तीस गढ़
न ौ
य ाल
र ैल
 क ंट्रोल
 ब म
 ब ेहत
 ब ॉलीवुड
 र ूस
 र िश्त
 से  पूछताछ
ैं 

 को  कम
क्ष  म
वि ज
ी स ेव
ी ब ोल
वार  को प
ंध ्र 
ंच ालक
विश ाल
वन  विभाग
अस्पताल  पह
उम ्र 
ार्द िक
  v
ा  चल
 को  लेकर
 न ्यू
 आ श
ी क ई
पर ेट
्ल ाह
 सम ाप्त
एम एस
 राज पूत
हाल ात
 चल  रह
बच्च े 
ी मह ाराज
जिला  प्रशासन
 मिनट  तक
 रव िवार को 
 जात ि
 स्वास्थ्य  क
ची  पुलिस ने 
  U
- दूसर
ं क्शन
म ो
व र्न
ृ थ
 ब ैट
 ग ौरव
 त िवारी 
ाह ्मण
 थ ी कि
ग्रेस  पार्ट
 कुमार  और 
र्थ न म
िग ेड
 सी सीटीव
 विक सित
 कै ब
एसप ी 
 अभियान  चल
नई  दिल्ल
o k
न ुकसान
स ाफ
े क्ष
 का  खुलास
 ग ार्ड
 ग रीब
पी एफ
ाक र क
ी ज िस
 छ ापेम
 चल  रही ह
19 5
 से क ुछ
 बच्च े 
 आर क्षण
ा दे कर 
बिह ार म
 संद िग्ध
 वित रण
 किश ोर
भो क्त
ृत घोषित  कर दिय
अ दालत
ज  म
न ोटिस
श ंकर 
र  पर
 स र्क
 द स्तावेज
 अ ंड
 का  मान
 को  ही 
 आ ने के बाद
प्र खंड
ाइ ंट
 फ सल
ा स ाध
 सम ूह
की  से 
 सं पत्ति
एस ोसिएशन
पुर ाने 
ुआ ।

 यादव  ने 
दीप क
 नम ः
0 3
0 4
ट ीक
ट ॉप
स िविल
े  कर
ो र क
ी  रोड
 को र्स
 आ खिर
 उ सी 
लग ाकर 
 एक  व्यक्ति
 सं भाल
ा कर ने
 नव ंबर 
 विधान सभ
जाने  वाले 
 लंब े समय
 वर्ल्ड  कप
E D
h i
u l
झ ाव
भ ार
भ र्त
व कील
 स फ
 ग ाय
ाज न
ाज िय
े क े क
ुआ  थ
मह त्वपूर्ण
ार म िल
लोक सभा सीट
ृत िक
आव ज
ी श राब
नी ष
 तेज ी से 
 मीट र 
 की सम ीक्ष
ुकाब ल
फरार हो  गए।

दाह रण
a sh
घ र ज
च  गई।

ब ीत
र ुक
ल ील
् ब
 म ूव
 प ुन
 ज ाल
 का  पहल
 का  विरोध
ित िन
 ग ाड़
 श ास्त्र
 कह ा था कि
ा स मित
 हो म
 मह ंग
 लग भग
ा द िन
पुर -
पुर  और 
देख कर 
 ठ ेक
 के सम क्ष
 की ल ागत
ना चाह ते ह
न ्ह
ि द्द
ु ब
ो पड
 प ंडित
ने  अपनी 
ाज ार म
 त ारीख
ाए  गए।

नि धन
ीत ल
सी ध
सं स्थ
ा द िया ह
 कार्य कर्ता 
 शामिल  हुए।

अनुस ार,
वीडिय ो म
स्म ार्ट
 सल मान
ख ून
ड ायर
र क
 स ूच
 की  फिल्म
 ग ड
 ग ौतम
 आ सान
 त िर
ंग ना 
अपने  साथ
 को प कड़
र्थ व्यवस्थ
काल ीन
ी सं घ
 बत ाते ह
 रव िवार 
 बिह ार 
सू र्य
संग ठन
र्टिफ िकेट
a p
म ुन
र ज
व ेद
ष भ
े ?

ा  चुका ह
 द र्द
 प्र क्रिया 
क्ष म
 रह ती ह
 ट न
दे ते हुए
 मु श्किल
स्व त
 से ज ल्द
से ना 
 जुलाई  
 शह ीद
जिस्ट्र ेट
घ ेल
च ीज
न ्यू
व ीय
स ीन
ार गेट
 को  बताय
इस  घटन
ाद ेव
ाज ार
दे न
ुम राह
ंध न
चल त
ढ़ कर 
ेशन  म
 के प्र यास
ाए ज ाएंग
 तब  तक
 गोल ्ड
 प्ल ान
ाने क ा काम
वित्त ीय
न ौकर
र वान
ु र्ग
 म ेल
 की  तो 
 ज े
 को  छ
 अ ंतिम
 का  तापमान
 न ार
ाज ार 
प्र थम
िव ि
 च ोट
ी क र रह
्ल ास
्ष िक
 इस  ब
ार्थ िय
इंद ौर 
शी र्ष
 मार्च  
 नवंबर  को 
ुद्द ीन
9 5
क ी
ग ी 
न ग
फ ैल
ु द्र
 स ार्वजनिक
 की  आवाज
 द र्जन
ाय ज
ाय ेग
िन ार
 फ ल
स्त रीय
ंज िल
 उन से 
ीक ृष्ण
 रख ते हुए
योग दान
 की सं ख्या 
 का म ाहौल
न् ना 
 की जरूर त ह
1 12
आ र 
आ त्महत्य
ऊ र्ज
ग  के दौरान
 क ी

 ज मानत
 र फ्तार 
 न गर म
 को  हर
 आ ने से 
्व ाल
जन रल
 ट ूर्नाम
िर ाग
 सं स्कृति
ैन ्य
 कर रह ी थ
 को ह िरासत म
इंड िया 
 अपराध िय
 स्थानीय  लोग
 विन ोद
6 00
a h
क ामन
ठ हर
प ोस्टमार्टम
र थ
र ाउंड
ा .
 प ंज
 व ्ह
 न ील
ी ह त्य
 ए यर
ी स ाल
सम ान
ा ज ा सकता ह
आरोप  म
ा न िकाल
 मुख्य ालय
 कार्रवाई  नह
भर त
वाद ी पार्ट
ेन् द्र मोद
 इंटर नेशनल
 ऊ र्ज
A D
उ द्योग
च  गए।

र ाद
ी  के बीच
 की  पर
 व र्क
 से  लोग
प्र स्ताव
 इ ंग
ुम ित
 एक  साथ
जान  से मारने की 
ढ़ त
 कार्य ालय म
धार  कार्ड
 ठ ग
ा हुआ ।

ी मह िला 
 पत् न
 बिल ्ड
 जल्द  ही 
परिव ार म
गुर ुवार 
आ श
क ाउंट
थ ोड
द ब
श ीट
ॉ फ्ट
ी  ढ
 म शीन
 प ाव
 ह फ्त
 ब ॉल
ात र 
े ह ो 
ंत ोष
सं विधान
 कार्य कार
 ले ने के लिए
 ऑ स्ट्रेल
 स्व ाम
ी श िव
नी की 
ास्ट िक
ी य ोजन
 हाद से
द बाव
श पथ
ा स्क
े  किसान
 ब ाक
 द ौर
 व ॉ
 श ान
 छ ठ
ी का  स
हन ुमान
 के त ीन
 देख कर 
 भार ी बारिश
 रन बन ाए।

5 3
आ गर
ज ाते ह
द ी 
न ीय
न ीचे 
र ूस
 ज ताय
 र ाउंड
 द ी गई।

 अ ज
 कह ा है कि
वार  की 
ा की  थ
 ले ख
जानकार ी देते हुए
 समय  म
 के ह िसाब
 बाइक  सवार 
कट ्ठ
 सू त्र
 फर वरी 
 महीने  पहले 
अंद ाज
 चिकित्स क
 संप न्न
ी शन
े :
े हनत
ा  शुरू
 के  अन्य
 प ाट
ान ी म
िय र
िक  ह
ाय ा कि
 ए प
रो शन
 इ तिहास
इसके  साथ ह
ा ब ल
आई ।

ीप त
 ओ म
ेन् द्र स
 सितंबर  को 
,  जिसम
आ ठ
घ ु
ज ू
ठ भ
ल ड
ल ू
ी  योग
ा  तक
 ब िश्नोई
 ज रू
 र ोग
 ल िया गय
 त स्वीर
स्व च्छ
जब ल
जानकार ी 
इस दौरान  उन्ह
ी हो  रही ह
 मई  
भोपाल  म
 त्र िपाठ
  W
आ ते ह
क ंपनी 
प ाठ
ै च म
ी  रात
 स िख
 स ैनिक
 द िनेश
 से  च
 भ ूप
 थ े 
ेल ू
 वि ज
 इस  साल
वार  की रात
मु जफ्फर
नी  चाहिए
ीक ृति
स्थित िय
 श्र द्धालुओं
भाजप ा ने 
ेवल प
 कर सक ता ह
 का द ाव
थाना  प्रभारी 
 भूम िक
 शाम  
इमेज कैप्शन ,
िलंब ित
6 8
अ रव
स् पी
 ने  ल
 मह ेश
सु विध
ने का  प्रयास
मिल कर 
 का प्र त
ी ख बर
 की अ पील
इंड स्ट्र
रोज गार
 का द ौर
 हो ज ाता ह
एक्ट िव
I n
T V
ए ंट्र
क  ह
ग ोद
ब ीब
 म जदू
 अ ध्य
 को  होग
प्र वेश
ीं .

 ए क्शन
ी की  स
 आय ा थ
 ट्र ैफिक
रिक ्श
 ऐ से म
 राज्य  म
ौजूद  थ
लेक्ट्र ेट
 पूर्ण िम
 साइ बर 
ोखाध ड
ड ू
ल ाफ़
ु ग
ौ र से 
 द ेन
 अ ंस
 श ूट
ले स
 के स चिव
्व ेस्ट
 उ क्त
 फ ूल
 फ ॉर्म
ुल ्त
 ट ोल
सी रीज
 मह सूस
 की ब िक्र
ी न िकाल
ोम वार को 
 से ज ीत
 से  कोई
म् र म
क्य ा 
 योग दान
इसक ी सूचना 
 इंद ौर
A I
ई  बार 
श ेष
ह  को 
 क ौर 
 द स
ने पाल
 कर ाने
ना  स
ड़  म
 ट ी
सं हित
 को ब ाहर 
एन एस
ी श ाद
गत िविधिय
श्व र्य
इंड ियन
 सुरक्ष ा 
रोह तक
इंटर नेशनल
 आग लग  गई।

 का सम र्थन
 ताल ाब
ा मुख्य ालय
स- पास
क ित
प ेट
म ंच
स पोर्ट
॥ 

 क ेव
 म जदूर
 से  उ
 त स्कर
 फ ैक्ट्र
ेज  म
हम ले
ा ब च्च
 ने ट
म्म ान
ॉप ्ट
 पुर स्कार 
दोपह र
 बाज ार
चरण  म
अनुर ोध
6 9
इ ंच
ट ेक
प कड
 प टना 
ने  की म
 अ र
 त त्व
ाए ,
 ख ाद्य
पी ज
ारी  और 
 अप ने क
द्र  कुमार 
ेय र म
उप चार
 ' म
दु र्
ेश्व र म
पड़ ता ह
तैय ारिय
ा सर कार
त िन
प त्र 
व ॉ
ा  के बारे म
ा परवाह
 क पू
र  थ
र  नह
 स ार
 प थ
ा क ी क
 न िश
 न र्स
 को ष
 भ ाष
 त िथि
ीं -
 श ्याम
ी स ह
अप डेट
काल  म
बेट े
 काफ ी 
 वीडिय ो म
ी अमित  शाह
)  के 
ग ठबंधन
फ ायर
व  के पास
श ्ल
ॉ र्च
 क ्षेत्र 
 म ोर्च
 र ावत
 उ त
ता  अभियान
 इ जर
वार  को म
ोक स
 की ज मीन
इन क
 की स लाह
चुनाव  आयोग
ाध ीन
 के अ ध
 आय ु
 को द िए
ोस ेस
जु ड़
अंत रराष्ट्रीय
 दिसंबर  को 
 एक्ट िव
 ऊ ंच
 इंटरव्य ू म
च ी थ
फ ूल
ब र स
ाल ाल
ा क ा क
क् कर 
 व िवेक
 श िफ्ट
 ए ंट्र
ता  ज
ुन िया 
ा ज ल
ंट वार
न म ंत्र
 लाख  रुपय
उप चुनाव
डी आर
 ग्र हण
रोज ग
इं स्प
थिय ार
 की सूचना  पर 
जेल  भेज
क्सी ड
 घंटे पहले 

0 8
ए क्शन
ग स्ट
च  शुरू कर दी ह
न  स
प ोस्टमॉर्टम
म ंड
 म ेडिकल कॉलेज
 र ेप
ाम ले 
 अ ड्ड
 ल ापरवाह
 ने  च
 ए श
त् र ब
ाप ता ह
 मह ाप
 सु पर
 कर ल िया गया ह
 जय पुर 
आगे  बढ
 रेल व
 न्याय ाधीश
पड़  रहा ह
ट ीट
त  स
य ातायात
 क ी कोई
 की  जन
 र द्द
 भ ंड
ी क ारण
 सं रक्षण
ंज ीत
अधिक तम तापमान 
 की स ेव
 ध ाम
 की ह ै
 स्ट ोर
 सीट  पर 
 जम ा कर
 जून  
इंत ज
छोड़ कर 
विधानसभा चुनाव  म
 अभिय ंत
 अफ्र ीक
अ र्च
त ोड़
ल ड़
े  के लिए
 के  पीछे 
 की  राजनीति
 ब ोर
 व िर
 से  नह
 भ ु
 आ र्म
 के ब ह
 उ द्
ी ब त
पी एल
ी के  नाम
 पु ष्प
 ध ीर
हाल त म
भाजप ा की 
विधान सभा म
रिपोर्ट  म
 अंत रराष्ट्रीय
 सुर ेश
 परिव हन
 वै ज्ञानिक
अपराध िय
लंब े समय
ंत स ोरेन
7 7
आ ंदोलन
ी "
ार ू
 अ ह
इस राइल
 श ख्स
 पर  चल
वि मान
वि चार 
जन पद
 ड िव
सी बीआई
 तक  नह
सं धान
ी ज ब
जब ूर
ीब ीआई
 हम  लोग
ोद य
डी ह
 क्य ा ह
िह ्न
प्रदेश  के 
 काम याब
 पर क ाबू
तेज ी से 
at h
 पट वार
 करते  रह
वस ूल
 पॉ इंट
 महाम ंत्र
ेतावनी  द
ृथ ्व
,  राम
6 2
a j
र वि
ू र्य
 प ंड
ार  चल
 ग ोद
 को  पुलिस
िन ्द
के  थ
ी क ्ष
 य ाद
ना  पड़
 फ ोर्स
 ख ूब
ाक ्रम
ेर िस
ूल ्ह
मान सून
 छ ीन
 सु भाष
ेय जल
म्म त
 के र ास्त
ला इस
 के न ए
 मै दान
पार्ट ी के 
और  कहा कि
 जय ंत
 सिर्फ  
स्वागत  किय
 अक्टूब र 
ा समित ि
8 00
ए ंड
श ूट
़ ु
ू र ह
ै क्षण
ा  भारत
 स द
 स ाउथ
 म ेह
 म ौत हो गई।

 के  भाई
र् क म
 से  भ
ात ि
प्र ाइवेट
 कि रण
त् र स
ुर ेश
 कह ा गया है कि
री 

 ट िप्पण
पुर ा म
10 8
ीक ल
 उप योग
 जिल ा क
ारी क र रह
 दो  दिन
 मही ने से 
गण ना 
न् द
न्व य
 कैब िनेट
- म
u p
ग ान
च यन
प संद
र क्षक
ल ागू
ॉ ग
 क ंप
 प वन
 ह ार 
ाय र ब्र
 अ र्जुन
 से  सं
 आ र्ट
 आ चार्य
प्र त्येक
 श ब्द
 प्र करण
ाह िर
ी क ार
 हो ता है
ाप सी
ाने  का प्रयास
 लग ात
इसके  तहत
िर  पर 
 ध म
 सक त
 जब  तक
द्र  सरकार 
 इंड ियन
 ठाक ुर
फरार हो  गय
रेलवे  स्टेशन
वेदन शील
आ ंख
ड ोज
फ सल
स ाग
 क ौ
ी  स्थित
ी  श्र
ा  चुके ह
 प शु
 की  भीड़
क् का 
 को  और 
 न ाराज
प्र भावित
 श ार
िव क्ता 
ाइ ंड
ुए ं
 मिल ी थ
ी ज गह
 मौ क
त्त िय
ी ग ल
ा मिल ेग
ुनिय ाद
 घटना  म
िटाय र्ड
ैक्षण िक
आ ने के बाद
इ मरज
ओ डिश
क ात
ज वान
ठ ान
म ोट
म ूल
ह ट
ि भाव
 र ोल
 र ेव
ने  की बात कह
 को  व
 को  बताया कि
 का  शुभारंभ
 आ कर्ष
 त लाश
स्ट ार 
 ट ाट
ुम त
अप मान
सम र्थन
हम  लोग
 राज धान
आय ुष
डी एसप
आप त्ति
ाया ज ा सक
पित ा 
तेज स्व
 केस  म
भा षण
 साह िब
 इत ना 
 गंभीर  रूप से घायल
श्ल ील
- जगह
i on
च य
र ात्रि
व ात
ृ श्य
 क ्रम
 म ॉडल
 ब द
ाय व
 को  ट
 आ बाद
 पर  थ
 फ ुट
 इ व
 हो  जाती ह
राज ीव
िए ट
ा ब त
 बज े म
शव  को प
शह र 
विशेष ज्ञ
न्याय ालय
 भूम िका 
 की सज ा सुन
ग ाल
च  कर 
ज ोर 
ध ारण
ह  ब
ा स्कर
् ध
 स ैनी 
ान िव
 र ाण
 द िश
 का  त
 को  परेशान
ा ज ो 
ेड िट
हम ेश
 राज स्व
ते  समय
 कार्य वाह
इसके बाद  
 अभ ्यर्थिय
 सह ायता 
ाए ज ा रहे ह
 रिपोर्ट  म
ार्यक्रम  म
ारंभ िक
साम ाजिक
हाई कोर्ट
1 10
ग ीर
च  की जा रही ह
ड ्यूट
ी  अपने 
 की  धारा 
ा क ा म
 कर ाने के लिए
 प्र क्रिय
े क ्य
लग ात
पुलिस  ने बताया कि
 सं शोधन
िट ेल
 तक  
 दे ने की 
 की म ौजूद
 के म ालिक
 के अ लग
 को ब न
ुश ्किल
चार  संहित
ारी फ
 जो  कि
इसे  लेकर 
गोल ्ड
 संग ीत
ोत्स ाह
ोप ण
दर्श ित
िक्र िया 
 फर वर
्यूज ील
इंस्ट ाग्राम
3 50
u s
ं की 
ए आई
ए यर
ख ़
ग रीब
छ ाप
द ौर
न गर म
प  म
ब ाड़
व ंत
 प ंकज
र् घ
िक ्
 अ मर
 को ल
 आ ता ह
के  और 
सी सी 
पुलिस  अधीक्षक
ेड कर 
 छ िप
ोह ल्ल
ग्रेस  म
 लेकिन  वह
लोक सभा 
 किसी  ने 
 स्व च्छ
 मान ्य
े रह े ह
आरोप लग ाया ह
 किए ज ा रहे ह
इत नी 
 के अव सर पर 
दावा किय ा कि
,  जबकि
C B
इ ट
इ स्लाम
क ुश
ड  पर 
प न्न
ब कार
व ्रत
ा पुर म
ी र स
 ब ेल
 ल िया और 
 न ाक
 न ुकसान
 भ वन म
्व ेल
ंद े 
ता  पर 
ाग ज
 हो ती है
 एक  ही 
 मह ोत्सव
िम ाग
 करने  पह
 के र ाष्ट्रीय
 की श ूट
प्रति बंध
 दिए  गए ह
परिवार  के साथ
 एम एम
आम  आदमी पार्ट
 पुर ान
जे ता 
 संद ेश
 ठाक र
 उपस्थित  रह
द राबाद
म य
य श
ु लेट
े ना 
ां 

 भ ोजन
िन ल
 कर  चुके ह
द् र ह
 ट ॉप
ंब ल
ा की  गई ह
ल् की 
 की स ूच
ट्र स्ट
 से क हा कि
 शर्म ा 
ड्र ोन
 इं जन
जवाब  म
इंत जाम
इंटर व्य
 तैय ार ह
 के मुकाब ले 
ुल्त ान
6 4
8 8
अ ज
न िवेश
ब ैक
ब ॉलीवुड
भ क्ति
ह  (
ी वार
 क 

 के  जिल
 के  नेता 
्य ुन
 ब ालिक
िक ोण
 ग ेम
े क ी कार्रवाई
 रह ा है
िश ियल
चुनाव  लड़
 हजार  रुप
म् बर
गंज  म
दर्श क
 इंद ्र
भव त
खेत  म
ेल् फ
 पाठ क
लेख क
 इंजीनिय र
'  म
उ धर
प ी 
ब ुजुर्ग
म ौत
र ेज
ल िया 
स ुसाइड
ह िस
ि ड़
ो च्च
स् त्र 
 द ेर
ने क्ट
 व ेतन
 श ंकर 
ाव ड
 च यन
 इ ंत
सर ाहन
िट र्न
ोर ूम
ेय र ब
र द िन
 ले ते हुए
 से ह ट
ुश ्म
 तो  म
 पार्ट िय
 ले  लिय
उनक ी म
 परीक्ष ा म
मृतक  की पहचान
ैब िनेट
 गुर ुवार 
 सूचना  मिल
खिलेश  यादव
ज ्योति
द ुनिय
ब ीम
ब ाड
य े ह
व ैसे 
 स िर
 व कील
 को  सम्मान
 भ ी मिल
 श ाख
 के स ी
स्ट ेडियम
ा थ ा 
 वि चार
ा के  ग
ंट न
 पु त्र
ट्र ंप
 पूर े म
 को म जबूत
ा र ाय
 को गिरफ्तार  कर 
प्रत ियोगित
ार्ग दर्शन
 योजन ा के तहत
फोट ो 
लखनऊ  म
शान दार 
िभाव क
t er
म ीडिया 
व ण
 र च
 व ायरल
 ल ेट
 ग ौ
 आ ध
 पर  रोक
ी स ु
ोल ्ड
 मिल ता ह
ा द िख
हम ारी 
 छ ोड
 की ब ैठक म
ट्र ेल
 गय ा और 
 करोड़  रुपये 
 की प्र क्रिया 
तिथ िय
 की ख रीद
उम ्र
ुल्ह न
7 6
उ ल्ले
त रण
न ोज
म ूर्ति
व र्धन
स ोशल मीडिया 
ान ी की 
क् कर म
 से  हमल
 ग ायब
 को ड
ति रंग
त् र द
क्ष ित
 उ त्सव
ुल स
 के साथ  एक
 हो  गए
 भी  ज
ा की  स
 उन को 
ंप  म
ेब ्यू
फिल्म  म
 यून ियन
रास्त े म
विद्य ुत
जुर्म ाना 
ग ानि
ध ूम
भ ल
म ी के 
 स िन्ह
 म ूल
 प ायलट
 ब ाढ़
 ज ज
 र ंजन
 त ुरंत
प्र श
 और  ल
 ए च
्ल ॉक
 इ म
ा थ ान
पुलिस  मौके पर पह
ाश ्त
चल  रही ह
जिस  पर 
 चल  रहा थ
बन र्ज
 अव स्थ
 उनके  साथ
 एस डीएम
 कॉ म
गु ज
 C M
 पान ी की 
ाक्ष ्य
 के वि रुद्ध
ा हुई ।

 लाइ फ
इधर ,
गौर तलब है कि
धुन िक
7 00
अ गल
ग ाह
ग ्न
न ुम
व ीएम
स ा 
ि स्तान
ो 

 ह ल्क
 ब नेग
 र िम
 र ाध
िल ाई
 द िया और 
 त नाव
 श ुल्क
ंत ु
पर िस
स्थ ाय
ी ज ीत
खिल  भारतीय
 नि रीक्षण
 ने  किय
 ट्र स्ट
ीद ार
ाउ ंसल
 चौ धरी
 मान ा जाता ह
घर ेलू
श्य प
 जिन के 
 मिनट  पहले
 सोम वार 
 अब तक  
ंपर िक
आपको  बता द
ोभ ाय
स्वी कार
सीसीटीव ी कैमर
 इंस्प ेक्टर 
ायर ब्र िगेड
क ब
ब ै
 स ेट
 के  पीछ
ार ्षद
 की  भूमिक
स् फोट
ने 

 को 

 कह ती ह
ी स ाह
 हो ने के 
ग्र ाहक
नि देशक
 सं साधन
 कार्य कर्ताओं
ाच ीन
 आज ाद
पित ा ने 
अव गत
प्रति ष्ठ
 रन  बनाए
 परि णाम
 प्रशासन िक
थान ाध्यक्ष
 पिछले  साल
 बिह ार म
 पर्य ावरण
 की तलाश  म
 राश िफल
ग िल
द े 
द ाम
ल टक
ी ल्ड
े )
 ह स्त
 ब ंध
 ज ंगल
 र ाष्ट्र
 को  अपनी 
सम स्त
 हो  जात
 लग ाए
ेग ूसर
ोर म
 की स बसे 
दू ध
ुड ्ड
 भारतीय  जनता पार्ट
 कर सक ती ह
िम्म ेदार 
 विश्व ास
पंजाब  म
 अप्रैल  
 महार ाष्ट्र
र सक ते ह
हस ास
ेगूसर ाय
e m
ग ार्ड
ी  करते हुए
े .
ै -
ी  यह
 स ूरज
 प ता नह
्य ूम
 को  अपन
 ग ति
 और  सं
्ट न
द् र ब
पी ए
 इस  दौरान
 घ रेल
र स हित
आई  थ
चुनाव  लड़
 अन ुर
 की र क्ष
ोस ाइट
 आव ाज
 ने कह ा है कि
भारतीय  जनता पार्ट
रोज गार 
 को देख कर 
ॉय ल
 प्रतियोगित ा म
ठाक ुर
h o
क ृति
ग ोरख
च स्प
न ी म
प ॉ
प र्ड
व ्ह
े  लोग
ी  लेकिन
ा  अपने 
 स ेल
 स ूचन
िय ाई
 की  उप
 व ाद
 व ेस्ट
 अ त्य
 ने  ट
 आ काश
 और  ट
 प्र श्न
 च ंडी
ी क ृष्ण
स्थ ल पर 
ोन ू
 सम स्त
 इस राइल
 भी  शामिल
उस  वक्त
कि  यह
उनके  पास
पूर्व क
 सरकार  म
 जम कर 
 -  
पान ी की 
िनिध ित्व
 नजर  आ
बुल ्लाह
तं त्र 
 डिज ाइन
i v
ड िय
ल ख
़ -
् नि
ी  पुलिस ने 
 की  रहने वाल
र् बाद
स् क्रीन
िल िट
ने  के दौरान
 से  ड
 भ ्रष्टाच
 आ त्म
 श ुरुआत
ाव र 
ाव ेद
 ए ग्जाम
ी स ुन
ी ब ार
 सम ान
ाओं  के 
 सं ध्य
सी  और 
ूल ाल
ी ज मीन
 क्य ा है
 इन  दिन
 पहले  से 
गु जर 
 आर त
इंद िर
 अपन ी म
 समेत  
 एक्स पर्ट
 को त ैय
 किश ोर 
िस् से म
S O
क ाम
ट ी 
ध न्यवाद
व ेस्ट
व र्ल्ड
़ े।

 क पड
 स ाढ
 के  अधिक
 प संद
 की  छात्र
 व ाट
 ल ाया गय
 का  ड
 न ंद
क्ष े
 रह ा है कि
ड़ न
राज द
राज न
 घ ोषण
 सं भाग
 मिल ा थ
ंध ेर
ी ज य
ी ज ्याद
 की ज ाती ह
 ध ूप
 को प त्र 
 ने बताया कि  
 के पास  पह
खन ीय
 जिला  प्रशासन
थिय ार 
चे  तो 
आ ग्रह
औ सत
ग े

म ी 
म ाय
म िट
र ेशन
 ह ल
ा ह िस्स
 को शिश
ाज ल
 और  भ
 और  पुलिस
 थ ोड
ी स ंगठन
ोन ाल
एस पी
इसके  चलते 
िर  ह
ाजप ेय
योग ्य
 चौ टाल
से क्स
िने शन
 ई -
ा श र्म
ड्र ाइवर
 हाल  ही म
 दिया गय ा थ
 इत नी 
 एफ आईआर दर्ज
 देर  रात
निर्म ल
शास कीय
ab ha 
उ त्साह
क सद
झ ुन
ट ल म
म ुर
व र्म
ान बीन
 की  यह
 कर ाया गय
 श ैल
एक  दिन
स्थ ाप
 पर  कोई
ेग म
ा ब दल
 अप डेट
ीक ाने
 की स ह
ी से  म
 आय ुष
ाच ार
पूर्व  म
मर ान
 अव धि
 महिल ा की 
एन सी
ा प्र त
धर ना 
 उनके  पास
संभाव ना 
 पर्य टन
ा की म ौत
7 1
घ न
च ाच
छ त
द र क
व ृ
स ज
ा ;
ी  जान
 के  छात्र
 ह वाई
ा क र रहे ह
 पर  रख
ले ब
 य श
 ख र
ाप ति
ा रह ेग
 भी  लग
 मिल  प
इन  दोन
ोह र 
र्स  ने 
 चल  रहे 
 के खिलाफ  कार्रवाई
विध ि
 ऐ प
विक ल्प
यू व
 आई  थ
 शिक्ष ा विभाग
ता द िवस
 जून  तक
विरोध  प्रदर्शन
पट ेल
एक्स पर्ट
 एन डीए
ात्म ा ग
 की जानकार ी द
ख बर
ट िक
ब ूत
ल ड़
 की  पत्न
 ब स्त
िक अप
 र ूट
 अ सम
 का  उद्घाटन
 ग र्ग
 भ ाट
ेश व
 कि  
ाई ,
 य ातायात
ीट ्यूट
 पर ंपर
 के द र्शन
पुर ान
स्व रूप
जब  तक
ेशन ल
 विभाग  म
ैक ेट
ुध वार को 
ग्राम  पंचायत
 करव ाय
 सेव ा 
न्न ाथ
चित ्र
द्र मोद ी ने 
वाय ु
व्याप ारिय
 अक्टूबर  को 
जल्द  ही 
कामन ाएं
अ रुण
ऑ र्ड
क ृष्ट
ड ंड
न ोट
े  करीब 
 क ी कि
 क ौशल
 स ाव
 के  रहने वाले 
्र ुव
ार ी के 
 व ास
 न ृत्य
 न ियंत्रण
ाद र
ाज िल
ाई  गई थ
 च क्र
 ड ीएम
कार िय
ी ब ंद
ार् क म
ारी  खेल
 पु ण
 की ज ीत
स्क ूट
 के क ाम
अब  
 के आ स
 पूर ी खबर
 विक ्रम
घर  पह
 आए ंग
ती है  कि
गण न
नव ीन
 P M
िन् दू
आ श्वासन
प ात
र ेव
ल ड़क
स ी क
स ीत
ह व
े ने
े लि
ै थ
‍ ि
ो  ने 
 ब ालक
 से  अपने 
 से  तीन
 का  लाभ
 आ  रही ह
 और  त
 प्र ोड
री ल
एक  साथ
 हो ते हुए
ा ज िला 
ने वाल ा ह
 सं चालन
 बज े क
ाना  चाहिए।

र्स  म
12 5
ी श र्म
 प्रत िनिधि
 पुर ाने 
 थाना  पुलिस ने 
 थाना  प्रभारी 
 रात  
आवश्यक ता ह
ी की ज ा रही ह
ाकिस्त ान म
,  उ
9 4
a :
ख ाना 
च ौराह
ज ोर
ब ंगाल
भ ूत
स  स्ट
़ ी।

ु ड़
ै रव
ो र म
ो कार
 क ौर
े  तो
 स िम
र् ब
 ज स्टिस
 र ोह
 न या 
 ए क्टर 
ी क हान
्व ीट
 ट ीच
ाओं  से 
ाओं  के लिए
 सं योजक
 करने  को कह
 लोग  घायल
 जिस ने 
व्य वह
 को ब ंद
वर ात्रि
 उप ाध्याय
ी र ाह
 किल ो
 किल ोग्राम
ा सम ेत
 भर त
सह ायक
ौके पर  ह
बिल ास
 रेलवे  स्टेशन
 कमर े म
ख र
ख ाद्य
च ार्ज
स िट
ा  लेकर 
 स ाय
्र ोत
ों 

 ब िक
ा ह मल
ने  को कह
लि हाज
 ग ठित
पु ट
 प्र कार 
 रह ी 
 फ ेल
लग ता है कि
अन िवार्य
 लग ाय
ी थ ाना क्षेत्र
्न ई
ोज ना म
स्व तंत्र
 कम  से कम
देख ा कि
द्र  यादव
ा न गर 
 का स बसे 
लाल ू
समय  म
उसक ी म
प्रत िनिधि
 समेत  अन्य
े हुए  थ
पार ्षद
,  जह
9 2
आ दिवास
क  स
ग  और 
ढ ाई
र िलीज
व र्त
 स वार
 म ाय
ार स
ों -
स् नान
िल ्प
 को  मन
प्र ोजेक्ट
 किय ा है
ा द िया थ
 बन कर 
 पुलिस  अधीक्षक
ी ने  बताय
 को स ु
स्क री
जब  वह
 स्क ूट
दिल्ल ी के 
 नेत ृत्व
 इंद ौर 
 I n
ृष्ट िकोण
 लोकसभा चुनाव  म
तथ ा 
 कदम  उठ
 प्रव क्ता 
ुकदम ा दर्ज
8 1
r a 
अ ग्रवाल
इ तन
उ त्तर 
ग ,
द ंड
ि ड़
ॉ ल म
ो त्र
ा  ।

 प ंत
 प ब्लिक
ा क िया 
 द म
 अ तिक्रमण
 का  मामल
ित  कर
 ने  अपना 
ाग ंज
ी स ुरक्ष
ेल वे 
 इस  दिन
ाफ ्ट
ारत ूस
 है  तो 
 ( S
 को स ुबह 
 की स ीम
ोड ल
र द ्वार
आर एस
 कुछ  नह
 टीम  म
 के न ीच
भाजप ा म
शिक्ष ा 
 उनक ी म
रिपोर्ट ्स
भा स्कर 
सवाल  उठ
बाइक  सवार 
जरूर ी ह
परिव हन
उत्पाद न
उ चित
ख िर 
ग  ह
न  ह
र ाध
स ैन
ा घर
ी ने म
ा  नाम
 प ून
ा ह ुए
क् च
ार  ने 
 का  शिक
 का  आरोप है कि
 कि  यह
 प्र णाल
 च ेहर
वाल े क
ा के  रूप म
जब रदस्त
 सु धार 
आप को
 के न िशान
अभ िन
ा त ब
गु स्स
 का प्र योग
 आए  थ
ीक्ष ित
र्वाच ित
पहले ह ी 
सबसे  पहले 
I T
ग ुन
ि र्ज
 म गर 
ाय िक
ाय तक
ने ह
 ल ोह
 ने  सभी 
 ग ्वालिय
ास कीय
ी क ट
ंग त
एक  व्यक्ति
 सम ाधान
पुलिस  ने क
ेर िट
रण नीति
ये  बात
 करने  ज
 से क ाम
 आप को
ाना क ्षेत्र 
ी हो  गई।

िशन ल
 माह  म
सुन ील
अब तक  
जीव न म
 उपस्थित  थ
 ले ज ाया गय
 हथिय ार
6 3
C P
t :
ग  की थ
ब ेहत
श क्क
ह  उर्फ
 क पूर
 स ीत
 स ब्ज
ित ेश
प्र शिक्षण
लिए ।

 के लिए  क
्व ाइंट
 फ ंड
 सम र्थक
बताय ा गया कि
 मह ाव
ा ब ढ
ीज िए
क्त दान
 की स फाई
 दिन  तक
 के क ्षेत्र म
 लाख  रुपये 
 जन पद
 प्रति बंध
 चौ थ
शिक्ष ा विभाग
 अगस्त  तक
 विधान सभा 
 विद्य ुत
इजर ाइल
घटनास्थ ल
ंगना  रन
y a 
अ सर 
ख ेड
े  तक
ा  इस
ा  ने क
्र ाट
 ब िर
स् ड
ात ा है
 श ाल
 प्र ाधिकरण
भी  स
ड़ बड
 हो ना ह
 हो टल म
नि भाई
सम र्थक
 मिल ने के बाद
 बज े ह
उप ाध्यक्ष
 द्वार ा ज
 मान सिक
 कै ट
ता  के लिए
पूछ ा कि
 आए  ह
ब्ज े से 
 हो सक ते ह
 सबसे  बड
 दिल ीप
ाभ  बच्चन
 आम  आदमी पार्ट
 हथिय ार 
पियन शिप
 घरेल ू
E O
o d
ड िव
न िश
ी गंज
ॉ र्प
ा  देख
ने  प
 की  झ
 च ेन
सम ंद
 के द ोन
 है दराबाद
ोर ेशन
ा और  म
इन की 
 के म ंत्र
ी त ेज
जय ंत
 ने  किया 
 जब ल
 ग्र ीन
 किस  तरह
प्ल ान
ार द िय
 दर्ज कर वाई
 फ्ल ाइट
पिछ ल
 प्रताप  स
i g
अ प्र
क ृष्ण
भ ोज
र ाख
व  के लोग
ि :
ो र पर 
ने  पर
 द लित
ाक ृतिक
 भी  शामिल ह
इसके  बावजूद
हम ंत्र
इन ाम
व्य वसाय
 ने बताया कि  वह
 उप ाय
आप की 
19 4
दूसर ी तरफ
 करना  शुरू
ी सं स्थ
स्म ृति
हल ोत
 बड़ ी संख्या म
झारखंड  म
 वित्त ीय
 व्यक्त िय
,  जो 
च  शुरू
ट ाट
म ृत
ा  ले 
ा  वह
 की  गु
 ज ोध
िक ान
क् चर
 का  उद्देश्य
प्र चार
िन त
 पर  नह
क्ष ेत्र
ाइ श
ाइ क्र
ुल न
नि टर
नि रीक्षक
ी की  गई।

र स ं
ा कर ने से 
आय ु
र द िख
इसके बाद  उन्ह
 के खिलाफ  मामला दर्ज
मौ के से 
गिरफ्तार  किया ह
ता है  तो 
श्च ात
 यू पी
 कंपन ी के 
प्रदर्शन  किय
 पर्य ाप्त
 बिग ड़
ंभीर ता से 
 स्मार्ट फोन
ंध्र  प्रदेश
ok  S
न्ह ैय
गानि स्तान
शक्क त
ऐ तिहासिक
ज ाग
भ रोस
म तदान
श ुप
ह ोग
ी की 
 क र्नाटक
ी  शिकायत म
ा  झ
 स ारे 
 स प्लाई
 प ीज
 प लट
 ह ेतु
िय ोजना 
 ब ेस
 द र्श
ने  की बात
 को  उनके 
 व ेर
 व ेबसाइट
 न ग
 भ ी बन
उन म
 प्र ोग्राम
 य ा नह
 हो ना चाहिए।

ध्य  प्रदेश
ने वाल े ह
ा प ान
भग त
निर् दलीय
 सी ध
तल ाम
ॉन् ग
 का ज वाब
 देत ी ह
मे र 
धीर े 
 ज्ञ ापन
नात न
रिज र्व
 जीव न म
हादसे  के बाद
 के अलग -अलग
- ए
. ॐ
9 7
उ से म
ऊ पर
ए एसआई
ग हर
ब ेहद
भ तीज
ह  निवास
ृ त्त
 स भी
 के  अधिकारी 
्य ून
 र वान
 के लिए  ज
ा स ाथ
 ख ो
ुक ड
 मह ाविद्यालय
राज कीय
अन ्न
 मिल  सक
भाग िय
 अन ुप
 ट्र ैक
े थ े 
 करीब  एक
 कई  लोग
राज्य  सरकार
प् ले
से क ह
 जय पुर
 हो चुक े ह
 बनाए  रख
 F IR
 निक ाय
इंच ार्ज
,  पूर्व
c h
आ कर 
ग ी ज
च ुनौत
भ ान
भ ्रष्टाच
श तक
श ुल्क
ष ्य
स ी ब
ि प्र
 क ं
ा  भाई
 स न
्र ह
 अ नेक
 से  इस
 ग ्ल
 प्र दूषण
ना  से 
वि ट
ा स ु
ा ज वाब
 भी  इस
 ( A
 साल  का 
ग्रेस  अध्यक्ष
ी प ारी म
ी त री
ंक र
 के बीच  म
 से ब ाह
ाएं  ह
 श्र द्धालु
 से क ई
रिक ्ष
 चौ की 
 अभ िने
पत् नी
 लोक सभ
ष्ण व
 भाजप ा की 
 सुन कर 
 का प्र दर्शन
 शिव िर
घर  लौट
यह भी  पढ़
बड़ े 
 पत् थ
दिख ाई
अंद र 
अगले  दिन
 डिज िटल
)  पुत्र 
अ ंड
च  गया ह
ड ी 
र ाठ
 स त्र 
 प ीट
 प ेड़
ने  तक
र् ती ह
ा क ा कहना है कि
 र ुख
 कर क
 आ शीष
क्ष ेप
 के स बसे 
ाइ ल म
ी स दस्य
 हो ने के लिए
सी ओ
 भी  थ
ेर ण
ंट ित
ा ब ढ़
िम ंडल
आई ज
ुआ ं
िवार िक
 ध ्व
 सु शील
 किए  थ
ाच ार 
 की त ारीख
 प्रति म
मेर ठ
 स्व तंत्र
 स्क ीम
शिकायत  पर 
तल ाक
भर ाव
आग ामी 
भी क ह
 ग्राम  पंचायत
 दु ष्कर्म
आरोप लग ाते हुए
 तेज स्व
 की फ सल
प्रभ ार
 के ख ात
सम्मान ित
धमकी  दे
अफ सर
r at
ऐ से ह
च  कर रही ह
म ंदिर 
र ी से 
व ीर 
ृ हमंत्र
े ई
े क्षण
ी  लाल
 के  यह
िय ाना 
ने  के साथ
 का  भुगतान
 भ व्य
िव ान
रो इन
सी जन
 घ र पर 
 मु क्त
ेद ारी 
 की स ुनवाई
 रख कर 
ी ग र्म
 कार्रवाई  करते हुए
 डिग्र ी दर्ज
 बाज ार 
ीएस ट
ैत िक
 भर्ती कर ाय
 कॉन् स्टेबल
अयोध्य ा म
इंग ्ल
ट्रै क्टर 
 के भीत र 
 को बाहर  निकाल
,  इ
8 3
E T
S S
ऊ द
ए ंट
क भी 
प ार्क
व ीन
स ाई
स ामान्य
़ रीब
ी  इ
 स त्र
 ह र साल
 द बाव
 अ ंग
 से  उन्ह
 ल ेवल
 कर ती थ
 भ ट्ट
ी क र द
 कह ा थ
ड़ प
सम ूह
इन  दिन
 अन ुस
 हम ले
 की ब ड
ुट ेर
आर प
 अपने  साथ
उसके  पास
 इन म
 की ओ र स
ी प्र त
ास्त विक
 भी क हा कि
 कॉलेज  म
 सबसे  अधिक
रेल व
 चंद ्र 
राय पुर 
 जारी क र द
 मध्य  प्रदेश
मता  बनर्ज
 कथ ित
ाढ़ े 
न्यून तम तापमान 
 रिस र्च
9 6
ग ौरव
न क्सल
फ ोड़
े  व
े  भी 
 स िनेम
 म ुर
 ह र्ष
ने  लिख
 ब घेल
 का  चुनाव
 ग िल
े क े कारण
 उ त्तर 
िस ल
पह ाड
पर ंपर
 वि द्यार्थ
 हो  गए थ
 किय ा

 ( क
 पुलिस कर्म
ंक ड़
द्य म
वार  से 
र्य ात
 की क ार्य
घटन ा के 
दूसर ी ओ
चौ की 
 लेकर  पह
जार ी ह
 अभी  भी 
्मेल न म
 एक बार  फिर 
)  को 
8 7
अ गर
च ाव
च ुन
छ ूट
ज ोन
द ार ह
न ी ह
प िल
फ तेह
स िम
ि ब्ब
 म ारे 
िय ा को 
 की  लापरवाह
ा क ्षेत्र म
 अ गर
ार  थ
ाद क
प्र यागराज
 श रण
रो ड़
 हो ने ज
े म ह
 मह ान
ेड कर
सं कल्प
जब क
 का स ामन
ी श ामिल
 की प ार्ट
तम  
 ब्र ह्म
प्रत िनिधिय
 युव ाओं
न् द्र
 ड्र ोन
 भर्ती कर ाया गय
सभा क ्षेत्र म
सूचना मिल ते ह
 की अध्यक्ष ता म
इलेक्ट्र िक
ी योग ी आदित्यनाथ
A L
D A
u m
ग ीत
च ेत
ज ाद
ज ाकर 
द िव्य
ि गर
ॉ इन
् फ
 प ात
 ब िछ
 ज ाने से 
 द ी गई
 व िल
 अ द
 ने  भाग
प्र दाय
प्र ाण प्रतिष्ठ
 च ढ
ी स ड़क
री बन
 फ ं
ी ब ढ़
पी सी
ा है 

सर पंच
 सं कट
 मिल ने पर 
 की ज िम्मेदारी 
ी और  म
जिस का 
क्रम ण
 ग्र ाउंड
ॉन ्स
यू ज
 बह ाद
 भाजप ा ने 
धार  पर
 की न ई
 की द ूर
 घटन ास्थ
 बस  स्ट
िशान ा बन
 नर ेश
ा जिल े
 नद ी म
नात क
 का च यन
अहम द
ौच ालय
3 70
M C
अ सम
क िश
द  स
प िन
फ रीद
भ व्य
ा  पुलिस ने 
 स भी क
 ब ाघ
 ज ाग
ा ह ाथ
 द ेस
 को  फोन
इस  मामले
 ग ोरख
ी क ल
 के लिए  म
 के लिए  भी 
ध्य म
ने वाल ी ह
 सं ख्य
सी  पर 
ा ब ड
 उस के बाद
ाध व
 ध ारा 
द्ध व
पूर्व  विधायक
 ले  गए।

विभाग ीय
गंग ान
 फोट ो 
 देर  बाद
ेट्र ो
 का उ ल्लंघन
सूर त
दैनिक भ ास्कर 
 का मान ना है कि
 शान दार 
ोनाल ्ड
ओ पन
ट ाइम
न  ने 
प िटाई
ब िग
र ाल
ल ुधियान
 क नाड
 के  घ
 प ेट
ान क
 ह ेल्थ
 ब ाय
 से  आए
 से  अलग
 ने  ड
 आ  गय
 आ तंक
 त ुल
 त ीर्थ
ंग ाबाद
 फ ॉ
 ट ेक्नोलॉज
दे ग
ीत  स
मान सिक
क्र िया म
 पर 

 बन ाया गया ह
 को स ुन
 की स भी 
पहले  भी 
 के आ गे 
 के प्र धान
 " हम
, स ्व
 हर ि
आग ाम
16 0
ौर  पर
अग स्त
शाल ा म
 खुल ास
हार  लग
ज्ञापन  स
वर्ग ीय
डिज ाइन
 कोष ाध्यक्ष
अ पहरण
च  के दौरान
ड ्य
द िस
न ज
न तीज
प ौध
प र्सन
य ूट
ै  नमः
ड़ ताल
ी  शुरू
 के  परिवार
 र ान
 ल ाइस
प्र ोड
 पर  ध्यान
 प्र ार्थ
्ल ब
 ट ू
 ट ेल
र क ुम
सम ाधान
ी के  चलते 
ेड ्यूल
ंज िश
ग्रेस  प्रत्याश
डी सीप
 रख े 
मुख्य  अतिथि
 कै श
 का स ामान
 से 

 करना  पड
