{
  "version": "1.0",
  "truncation": null,
  "padding": null,
  "added_tokens": [
    {
      "id": 10000,
      "content": "[UNK]",
      "single_word": false,
      "lstrip": false,
      "rstrip": false,
      "normalized": false,
      "special": true
    }
  ],
  "normalizer": null,
  "pre_tokenizer": {
    "type": "Sequence",
    "pretokenizers": [
      {
        "type": "Split",
        "pattern": {
          "Regex": "\\p{N}{1,3}| ?[^\\s\\p{L}\\p{N}]{2,}[\\r\\n/]*| +(?!\\S)"
        },
        "behavior": "Isolated",
        "invert": false
      }
    ]
  },
  "post_processor": null,
  "decoder": null,
  "model": {
    "type": "BPE",
    "dropout": null,
    "unk_token": null,
    "continuing_subword_prefix": null,
    "end_of_word_suffix": null,
    "fuse_unk": false,
    "byte_fallback": false,
    "ignore_merges": false,
    "vocab": {
      "\n": 0,
      " ": 1,
      "!": 2,
      "\"": 3,
      "#": 4,
      "$": 5,
      "%": 6,
      "&": 7,
      "'": 8,
      "(": 9,
      ")": 10,
      "*": 11,
      "+": 12,
      ",": 13,
      "-": 14,
      ".": 15,
      "/": 16,
      "0": 17,
      "1": 18,
      "2": 19,
      "3": 20,
      "4": 21,
      "5": 22,
      "6": 23,
      "7": 24,
      "8": 25,
      "9": 26,
      ":": 27,
      ";": 28,
      "=": 29,
      ">": 30,
      "?": 31,
      "@": 32,
      "A": 33,
      "B": 34,
      "C": 35,
      "D": 36,
      "E": 37,
      "F": 38,
      "G": 39,
      "H": 40,
      "I": 41,
      "J": 42,
      "K": 43,
      "L": 44,
      "M": 45,
      "N": 46,
      "O": 47,
      "P": 48,
      "Q": 49,
      "R": 50,
      "S": 51,
      "T": 52,
      "U": 53,
      "V": 54,
      "W": 55,
      "X": 56,
      "Y": 57,
      "Z": 58,
      "[": 59,
      "\\": 60,
      "]": 61,
      "^": 62,
      "_": 63,
      "a": 64,
      "b": 65,
      "c": 66,
      "d": 67,
      "e": 68,
      "f": 69,
      "g": 70,
      "h": 71,
      "i": 72,
      "j": 73,
      "k": 74,
      "l": 75,
      "m": 76,
      "n": 77,
      "o": 78,
      "p": 79,
      "q": 80,
      "r": 81,
      "s": 82,
      "t": 83,
      "u": 84,
      "v": 85,
      "w": 86,
      "x": 87,
      "y": 88,
      "z": 89,
      "{": 90,
      "}": 91,
      "~": 92,
      "£": 93,
      "¨": 94,
      "­": 95,
      "°": 96,
      "²": 97,
      "·": 98,
      "º": 99,
      "½": 100,
      "×": 101,
      "ï": 102,
      "ँ": 103,
      "ं": 104,
      "ः": 105,
      "अ": 106,
      "आ": 107,
      "इ": 108,
      "ई": 109,
      "उ": 110,
      "ऊ": 111,
      "ऋ": 112,
      "ऍ": 113,
      "ए": 114,
      "ऐ": 115,
      "ऑ": 116,
      "ओ": 117,
      "औ": 118,
      "क": 119,
      "ख": 120,
      "ग": 121,
      "घ": 122,
      "ङ": 123,
      "च": 124,
      "छ": 125,
      "ज": 126,
      "झ": 127,
      "ञ": 128,
      "ट": 129,
      "ठ": 130,
      "ड": 131,
      "ढ": 132,
      "ण": 133,
      "त": 134,
      "थ": 135,
      "द": 136,
      "ध": 137,
      "न": 138,
      "ऩ": 139,
      "प": 140,
      "फ": 141,
      "ब": 142,
      "भ": 143,
      "म": 144,
      "य": 145,
      "र": 146,
      "ऱ": 147,
      "ल": 148,
      "ळ": 149,
      "व": 150,
      "श": 151,
      "ष": 152,
      "स": 153,
      "ह": 154,
      "़": 155,
      "ऽ": 156,
      "ा": 157,
      "ि": 158,
      "ी": 159,
      "ु": 160,
      "ू": 161,
      "ृ": 162,
      "ॅ": 163,
      "ॆ": 164,
      "े": 165,
      "ै": 166,
      "ॉ": 167,
      "ॊ": 168,
      "ो": 169,
      "ौ": 170,
      "्": 171,
      "ॐ": 172,
      "॑": 173,
      "क़": 174,
      "ख़": 175,
      "ग़": 176,
      "ज़": 177,
      "ड़": 178,
      "ढ़": 179,
      "फ़": 180,
      "य़": 181,
      "ॠ": 182,
      "।": 183,
      "॥": 184,
      "०": 185,
      "१": 186,
      "२": 187,
      "३": 188,
      "४": 189,
      "५": 190,
      "६": 191,
      "८": 192,
      "९": 193,
      "॰": 194,
      "ঁ": 195,
      "অ": 196,
      "আ": 197,
      "ই": 198,
      "এ": 199,
      "ও": 200,
      "ক": 201,
      "খ": 202,
      "ঘ": 203,
      "চ": 204,
      "ছ": 205,
      "জ": 206,
      "ট": 207,
      "ঠ": 208,
      "ড": 209,
      "ণ": 210,
      "ত": 211,
      "দ": 212,
      "ধ": 213,
      "ন": 214,
      "প": 215,
      "ব": 216,
      "ম": 217,
      "য": 218,
      "র": 219,
      "ল": 220,
      "ষ": 221,
      "স": 222,
      "়": 223,
      "া": 224,
      "ি": 225,
      "ী": 226,
      "ু": 227,
      "ে": 228,
      "ো": 229,
      "্": 230,
      "ઢ": 231,
      "ం": 232,
      "ఇ": 233,
      "క": 234,
      "గ": 235,
      "చ": 236,
      "ఛ": 237,
      "జ": 238,
      "ట": 239,
      "డ": 240,
      "ణ": 241,
      "త": 242,
      "థ": 243,
      "ద": 244,
      "న": 245,
      "ప": 246,
      "ఫ": 247,
      "బ": 248,
      "భ": 249,
      "ర": 250,
      "ల": 251,
      "వ": 252,
      "శ": 253,
      "స": 254,
      "ా": 255,
      "ి": 256,
      "ీ": 257,
      "ు": 258,
      "ూ": 259,
      "ె": 260,
      "ే": 261,
      "ొ": 262,
      "ో": 263,
      "్": 264,
      "‌": 265,
      "‍": 266,
      "‎": 267,
      "‛": 268,
      "•": 269,
      "⁠": 270,
      "€": 271,
      "₹": 272,
      "℃": 273,
      "⏩": 274,
      "⏱": 275,
      "▪": 276,
      "○": 277,
      "●": 278,
      "☀": 279,
      "♈": 280,
      "♉": 281,
      "♊": 282,
      "♋": 283,
      "♌": 284,
      "♍": 285,
      "♏": 286,
      "♐": 287,
      "♑": 288,
      "♒": 289,
      "♓": 290,
      "♦": 291,
      "⚠": 292,
      "⚫": 293,
      "❓": 294,
      "❗": 295,
      "➤": 296,
      "⭐": 297,
      "": 298,
      "️": 299,
      "𝐀": 300,
      "𝐃": 301,
      "𝐍": 302,
      "𝟎": 303,
      "𝟏": 304,
      "𝟐": 305,
      "𝟑": 306,
      "𝟒": 307,
      "𝟕": 308,
      "𝟖": 309,
      "𝟗": 310,
      "🇮": 311,
      "🇳": 312,
      "🌅": 313,
      "🌙": 314,
      "🌟": 315,
      "🎉": 316,
      "🏅": 317,
      "🏹": 318,
      "🐉": 319,
      "💫": 320,
      "🔴": 321,
      "🔵": 322,
      "🕐": 323,
      "🗓": 324,
      "😉": 325,
      "😎": 326,
      "😜": 327,
      "😸": 328,
      "🤔": 329,
      "🤩": 330,
      "🦌": 331,
      "🧭": 332,
      "🪐": 333,
      " क": 334,
      "े ": 335,
      "ी ": 336,
      "ा ": 337,
      "र ": 338,
      "।\n": 339,
      "ें": 340,
      " स": 341,
      " म": 342,
      " के ": 343,
      "्र": 344,
      "ार": 345,
      " प": 346,
      "ान": 347,
      " ह": 348,
      "ों": 349,
      "ने ": 350,
      "िय": 351,
      " की ": 352,
      "र्": 353,
      "ो ": 354,
      "्य": 355,
      "ाल": 356,
      " ब": 357,
      "स्": 358,
      "ै।\n": 359,
      " ज": 360,
      "िक": 361,
      "ा क": 362,
      "ां": 363,
      " र": 364,
      "ा ह": 365,
      "िल": 366,
      " द": 367,
      "ाय": 368,
      "ाम": 369,
      "क्": 370,
      "ने": 371,
      " को ": 372,
      " व": 373,
      "और ": 374,
      "ा।\n": 375,
      " अ": 376,
      "से ": 377,
      "लि": 378,
      "ार ": 379,
      " से ": 380,
      "ैं": 381,
      " ल": 382,
      "इस": 383,
      " का ": 384,
      " न": 385,
      " कर": 386,
      "ित": 387,
      "ात": 388,
      "ाद": 389,
      " ने ": 390,
      " ग": 391,
      " को": 392,
      " भ": 393,
      "ाज": 394,
      "ी ह": 395,
      " आ": 396,
      " त": 397,
      "प्र": 398,
      "ेश": 399,
      "े ह": 400,
      "ीं": 401,
      "रह": 402,
      "िन": 403,
      "िं": 404,
      "िया ": 405,
      "ास": 406,
      " और ": 407,
      " श": 408,
      " कि": 409,
      "ाव": 410,
      "ोग": 411,
      "के ": 412,
      "कर ": 413,
      " पर ": 414,
      "उन": 415,
      "ी।\n": 416,
      "पु": 417,
      "िव": 418,
      "लिए": 419,
      " प्र": 420,
      "ले": 421,
      "ाह": 422,
      " ए": 423,
      "ाई": 424,
      "ी म": 425,
      "ति": 426,
      "ा कि": 427,
      "त्": 428,
      " च": 429,
      "ी क": 430,
      "ैं।\n": 431,
      " य": 432,
      "ना ": 433,
      "क्ष": 434,
      "पर ": 435,
      " के लिए": 436,
      "्ट": 437,
      "ाथ": 438,
      " के स": 439,
      "वि": 440,
      " के ब": 441,
      "भी ": 442,
      "गय": 443,
      "ाइ": 444,
      "ुर": 445,
      "े क": 446,
      " कर ": 447,
      "े।\n": 448,
      "्व": 449,
      "ाए": 450,
      "रो": 451,
      " थ": 452,
      " उ": 453,
      "र म": 454,
      "ले ": 455,
      "िस": 456,
      "्ह": 457,
      "ा म": 458,
      "ंत": 459,
      "ंद": 460,
      " रह": 461,
      "ा,": 462,
      "वाल": 463,
      " कह": 464,
      "्म": 465,
      "ते ह": 466,
      "ता ": 467,
      "ाग": 468,
      "स्ट": 469,
      "ी स": 470,
      "री": 471,
      "ंग": 472,
      "लिस": 473,
      "ाब": 474,
      "ेट": 475,
      "पह": 476,
      " फ": 477,
      "ुन": 478,
      "्त": 479,
      "र्म": 480,
      "ेल": 481,
      "िश": 482,
      "स्त": 483,
      "पर": 484,
      "जन": 485,
      "एक": 486,
      "उन्ह": 487,
      "ड़": 488,
      "द्": 489,
      "ुल": 490,
      " ड": 491,
      "कार": 492,
      "ीन": 493,
      "ा स": 494,
      "स्थ": 495,
      "्ल": 496,
      " ख": 497,
      "ीय": 498,
      "ंड": 499,
      " हो": 500,
      "ी ब": 501,
      "ुं": 502,
      "देश": 503,
      "ुक": 504,
      "20": 505,
      " ट": 506,
      "ाप": 507,
      "िर": 508,
      " इ": 509,
      "दे": 510,
      "लग": 511,
      " किया ": 512,
      "ताय": 513,
      " नह": 514,
      "पी": 515,
      "ग्र": 516,
      " हु": 517,
      "ा थ": 518,
      "ीम": 519,
      "ुम": 520,
      "यह": 521,
      "ाक": 522,
      "्ष": 523,
      " वि": 524,
      "पू": 525,
      "धिक": 526,
      "गई": 527,
      "ेस": 528,
      "नि": 529,
      "अप": 530,
      "ोन": 531,
      "ंब": 532,
      "ा है": 533,
      "े म": 534,
      "क्ट": 535,
      "र क": 536,
      "ी,": 537,
      "ीत": 538,
      " के साथ": 539,
      " सम": 540,
      "ौर": 541,
      "बताय": 542,
      ".\n": 543,
      "सर": 544,
      "सम": 545,
      " एक": 546,
      "ा ज": 547,
      " के बाद": 548,
      "ेज": 549,
      "शन": 550,
      " हो ": 551,
      "नह": 552,
      "ार्": 553,
      "सी": 554,
      "ंत्र": 555,
      "ध्य": 556,
      "ा के ": 557,
      "पुलिस": 558,
      "ोल": 559,
      "ओं": 560,
      "वह": 561,
      " इस": 562,
      "ा रह": 563,
      " मह": 564,
      "र्ट": 565,
      " भी ": 566,
      " पह": 567,
      "उस": 568,
      "ने कह": 569,
      "़ा": 570,
      "ेक": 571,
      " किय": 572,
      "ार्य": 573,
      "वार": 574,
      "ी के ": 575,
      "ुप": 576,
      "ुए": 577,
      "ाफ": 578,
      "ोट": 579,
      "ेत": 580,
      "मु": 581,
      "राज": 582,
      "ारी ": 583,
      " घ": 584,
      "ेर": 585,
      "ाओं": 586,
      "ै,": 587,
      "्च": 588,
      "नी ": 589,
      "ारत": 590,
      "की ": 591,
      " स्": 592,
      "ा की ": 593,
      "ने वाल": 594,
      "ाने": 595,
      "अन": 596,
      " सं": 597,
      "ाश": 598,
      " लग": 599,
      "ूर": 600,
      "िए": 601,
      " मिल": 602,
      "र्व": 603,
      "ेन": 604,
      "ी की ": 605,
      "ंट": 606,
      "रोप": 607,
      "िट": 608,
      " तक": 609,
      "ीट": 610,
      "बताया कि": 611,
      "र्ज": 612,
      "ता ह": 613,
      "्स": 614,
      "एस": 615,
      "र स": 616,
      "धान": 617,
      " दे": 618,
      "इसके ": 619,
      " करने": 620,
      "बाद": 621,
      "ख्य": 622,
      "हर": 623,
      "सी ": 624,
      "ूल": 625,
      " पु": 626,
      "ेड": 627,
      "र से ": 628,
      "जान": 629,
      "ोक": 630,
      "मान": 631,
      "सं": 632,
      "ाण": 633,
      "एम": 634,
      "ौरान": 635,
      "़ी": 636,
      "भाग": 637,
      "लोग": 638,
      "तक": 639,
      "क्र": 640,
      "ुनाव": 641,
      "ा द": 642,
      "ुव": 643,
      " पर": 644,
      "ती ह": 645,
      " लोग": 646,
      "ंज": 647,
      "स्प": 648,
      "ा गय": 649,
      "हम": 650,
      "ेग": 651,
      " राज": 652,
      "ा ब": 653,
      "लेकर ": 654,
      " बन": 655,
      "ाएग": 656,
      "ल्": 657,
      " ही ": 658,
      "ंध": 659,
      "ष्ट": 660,
      " के द": 661,
      "ीज": 662,
      "ी थ": 663,
      "पास": 664,
      "ते हुए": 665,
      "िम": 666,
      "ात्र": 667,
      "क्त": 668,
      "ूप": 669,
      "ने कहा कि": 670,
      "िप": 671,
      "ीड": 672,
      "च्च": 673,
      "चल": 674,
      "त्य": 675,
      "ाख": 676,
      "कि": 677,
      "ी ज": 678,
      "ाट": 679,
      "ैन": 680,
      "ा है कि": 681,
      " है": 682,
      "ीच": 683,
      "पुर": 684,
      "आई": 685,
      " अप": 686,
      " (": 687,
      "ार्ट": 688,
      "ोर": 689,
      " कुम": 690,
      "सभ": 691,
      "ने क": 692,
      " की म": 693,
      "10": 694,
      "ून": 695,
      "रण": 696,
      "ेव": 697,
      "ीव": 698,
      " की ज": 699,
      "ुछ": 700,
      "्न": 701,
      "ा और ": 702,
      "ोज": 703,
      " पुलिस": 704,
      "202": 705,
      " साल": 706,
      "ी ने ": 707,
      "िज": 708,
      " मु": 709,
      " किया गय": 710,
      "इन": 711,
      "कार ": 712,
      "का ": 713,
      "गर ": 714,
      " यह": 715,
      " छ": 716,
      " उन": 717,
      " को स": 718,
      "बह": 719,
      " गए": 720,
      " कर द": 721,
      "ते ": 722,
      "वाई": 723,
      "ी द": 724,
      " बज": 725,
      "ेद": 726,
      " के म": 727,
      "अधिक": 728,
      "्वार": 729,
      "आरोप": 730,
      "ोह": 731,
      "ीक": 732,
      "ुआ": 733,
      "िर ": 734,
      "ालय": 735,
      "स्व": 736,
      "ीप": 737,
      " वह": 738,
      " की स": 739,
      " हुई": 740,
      "ढ़": 741,
      "ताल": 742,
      "ोर्ट": 743,
      "ाने ": 744,
      "ाड": 745,
      "ा कर": 746,
      "स्क": 747,
      "जब": 748,
      " दिन": 749,
      "चुनाव": 750,
      "खिल": 751,
      "े,": 752,
      "ग्रेस": 753,
      "ष्": 754,
      "ुरू": 755,
      " उस": 756,
      "ौत": 757,
      "अपने ": 758,
      "ाध": 759,
      "आय": 760,
      "ी और ": 761,
      "ी से ": 762,
      " कार्य": 763,
      "ील": 764,
      "ा-": 765,
      " रुप": 766,
      "िवार": 767,
      "र्ष": 768,
      "सल": 769,
      " जिस": 770,
      " अन": 771,
      "मंत्र": 772,
      "शिक": 773,
      "ीब": 774,
      "ीर": 775,
      "ाना ": 776,
      "र्स": 777,
      "र्त": 778,
      " तो ": 779,
      "ध्यक्ष": 780,
      " के क": 781,
      " लेक": 782,
      "साथ": 783,
      "टन": 784,
      "िला ": 785,
      "ेम": 786,
      " सर": 787,
      "ंप": 788,
      "ी प": 789,
      "ाकर ": 790,
      "गई।\n": 791,
      "़े": 792,
      " ध": 793,
      " हम": 794,
      " लेकिन": 795,
      "नाम": 796,
      "तर": 797,
      "दू": 798,
      "हाल": 799,
      "ंच": 800,
      "ोद": 801,
      "ूट": 802,
      "पुर ": 803,
      "द्ध": 804,
      "ल म": 805,
      "फ्त": 806,
      "ैं,": 807,
      "मह": 808,
      "द्र": 809,
      " की ब": 810,
      "ट्र": 811,
      "व्य": 812,
      "ायत": 813,
      "ारण": 814,
      "र पर ": 815,
      "भारत": 816,
      "जिस": 817,
      "क्स": 818,
      "पाल": 819,
      " के अ": 820,
      "ेशन": 821,
      "पहले ": 822,
      "ुस": 823,
      " कर रह": 824,
      "ारिय": 825,
      " स्थ": 826,
      "वान": 827,
      " उन्ह": 828,
      "िया ह": 829,
      "ी न": 830,
      " नि": 831,
      "ी का ": 832,
      "राम": 833,
      "वं": 834,
      "ी त": 835,
      "गए": 836,
      "ा\n": 837,
      " गई": 838,
      "र ह": 839,
      "ोड": 840,
      " सक": 841,
      "ा को ": 842,
      "से म": 843,
      "जय": 844,
      " को ब": 845,
      " कोई": 846,
      "िया गय": 847,
      " की ह": 848,
      "ॉल": 849,
      "लेक": 850,
      "ोजन": 851,
      "न म": 852,
      "ूच": 853,
      "ोड़": 854,
      "ंक": 855,
      "सद": 856,
      "अब": 857,
      "ूं": 858,
      "चाह": 859,
      "द्य": 860,
      " कुमार ": 861,
      "ाजप": 862,
      " आय": 863,
      "दान": 864,
      " सु": 865,
      "ामिल": 866,
      " हुआ": 867,
      "ेय": 868,
      "गिर": 869,
      "ये ": 870,
      "र्च": 871,
      "ा ने ": 872,
      " ने": 873,
      "ाष्ट": 874,
      "ैठ": 875,
      "वार ": 876,
      " कम": 877,
      "ले म": 878,
      "स्य": 879,
      "देख": 880,
      "ने वाले ": 881,
      " भारत": 882,
      " मौ": 883,
      "र द": 884,
      " जब": 885,
      " को लेकर ": 886,
      "स्पताल": 887,
      "िवास": 888,
      "वर": 889,
      "िकल": 890,
      "ज्": 891,
      "र ब": 892,
      "त्त": 893,
      "ूद": 894,
      "र्ड": 895,
      "जह": 896,
      "िख": 897,
      "ायक": 898,
      "ोम": 899,
      "ैल": 900,
      ", ": 901,
      "जर": 902,
      "ूम": 903,
      " होग": 904,
      "भाव": 905,
      "स्थान": 906,
      " माम": 907,
      "ैय": 908,
      "ा प": 909,
      " को प": 910,
      "खिलाफ": 911,
      "र्ग": 912,
      " लाख": 913,
      "सान": 914,
      "दर्": 915,
      " करने ": 916,
      "ेत्र": 917,
      " किया ज": 918,
      "हन": 919,
      " किए": 920,
      " का क": 921,
      "ने के लिए": 922,
      "ैस": 923,
      " ने बताया कि": 924,
      "ाच": 925,
      "ने की ": 926,
      "स्थित": 927,
      " चल": 928,
      "दम": 929,
      "क्रम": 930,
      "उप": 931,
      " गय": 932,
      "डी": 933,
      "्याद": 934,
      "ोष": 935,
      "र्ण": 936,
      " ट्र": 937,
      "हत": 938,
      " स्ट": 939,
      "्षेत्र": 940,
      "े थ": 941,
      " पू": 942,
      "सु": 943,
      " अधिक": 944,
      "श्र": 945,
      "ाइन": 946,
      "र्थ": 947,
      "ुवक": 948,
      " ले": 949,
      "िल्म": 950,
      " के आ": 951,
      "्‍": 952,
      "रीक्ष": 953,
      "तो ": 954,
      " बजे ": 955,
      "दिन": 956,
      " रख": 957,
      "गर": 958,
      "क्ति": 959,
      " रुपए": 960,
      " से ज": 961,
      "ीद": 962,
      "ार म": 963,
      "ुत": 964,
      "त्र": 965,
      "इसके बाद": 966,
      "ब्": 967,
      " के दौरान": 968,
      "्रवाई": 969,
      "ा का ": 970,
      "ाउ": 971,
      "पुलिस ने ": 972,
      "50": 973,
      "लेकिन": 974,
      " जन": 975,
      "ाष्ट्र": 976,
      " क्य": 977,
      " व्य": 978,
      "म्म": 979,
      " करीब": 980,
      "िछ": 981,
      "ी अ": 982,
      "ी को ": 983,
      "जानकार": 984,
      "ार्रवाई": 985,
      "जूद": 986,
      " हज": 987,
      " ऑ": 988,
      "दल": 989,
      "हित": 990,
      "?\n": 991,
      "रात": 992,
      "वार को ": 993,
      "ाया गय": 994,
      " की त": 995,
      " के बीच": 996,
      "ैसे ": 997,
      " उप": 998,
      "12": 999,
      "़ि": 1000,
      "ने के बाद": 1001,
      "ामने ": 1002,
      "द्र ": 1003,
      "योग": 1004,
      "ुई": 1005,
      "्ड": 1006,
      "ुट": 1007,
      "पूर": 1008,
      "और क": 1009,
      "आप": 1010,
      " विभाग": 1011,
      "30": 1012,
      "आर": 1013,
      "ी ग": 1014,
      " द्वार": 1015,
      " से ब": 1016,
      "टीम": 1017,
      "ोब": 1018,
      "ार ह": 1019,
      "ासन": 1020,
      "ने का ": 1021,
      "ारिश": 1022,
      "ायल": 1023,
      "गे ": 1024,
      "िल्ल": 1025,
      "गई ह": 1026,
      " मंत्र": 1027,
      "ादव": 1028,
      " के प्र": 1029,
      " किया ह": 1030,
      "वाह": 1031,
      "ने से ": 1032,
      "ाते ह": 1033,
      "बसे ": 1034,
      "ाएं": 1035,
      "फ्तार": 1036,
      "19": 1037,
      "के पर ": 1038,
      "त्र ": 1039,
      "िह": 1040,
      "ाइक": 1041,
      " पूर": 1042,
      "अल": 1043,
      " के त": 1044,
      "माम": 1045,
      "रव": 1046,
      "उनके ": 1047,
      "ुरु": 1048,
      " हुए": 1049,
      " \"": 1050,
      "भी": 1051,
      " के पास": 1052,
      "..": 1053,
      "र्य": 1054,
      " के र": 1055,
      " ग्र": 1056,
      "ड़क": 1057,
      " के प": 1058,
      "परि": 1059,
      "ी व": 1060,
      " प्रति": 1061,
      "मेर": 1062,
      "आज": 1063,
      "मिल": 1064,
      " जान": 1065,
      "जिल": 1066,
      "कर": 1067,
      " कुछ": 1068,
      " की क": 1069,
      " अब": 1070,
      "विश": 1071,
      " जिल": 1072,
      "ेस्ट": 1073,
      "्यू": 1074,
      " श्र": 1075,
      "ोड़": 1076,
      "ज्ञ": 1077,
      " से क": 1078,
      " बार ": 1079,
      "प्रदेश": 1080,
      "ंस": 1081,
      "ा न": 1082,
      " शामिल": 1083,
      " कई": 1084,
      " अपने ": 1085,
      "ॉ.": 1086,
      "िग": 1087,
      "ी\n": 1088,
      "ीण": 1089,
      "उसके ": 1090,
      ", स": 1091,
      "वे ": 1092,
      " जो ": 1093,
      " के खिलाफ": 1094,
      "ला": 1095,
      "ाइल": 1096,
      "ानी ": 1097,
      "ंगल": 1098,
      "विध": 1099,
      "पूर्व": 1100,
      "ै.\n": 1101,
      "ी-": 1102,
      "ायर": 1103,
      "दो": 1104,
      "लोक": 1105,
      "त्व": 1106,
      "िस्ट": 1107,
      "ाता ह": 1108,
      "ाड़": 1109,
      "अनुस": 1110,
      "्षे": 1111,
      "भग": 1112,
      " दौरान": 1113,
      "15": 1114,
      "ा रहा ह": 1115,
      " वर्ष": 1116,
      "ोश": 1117,
      "ुद": 1118,
      " करते हुए": 1119,
      "सभा ": 1120,
      "ूचना ": 1121,
      " आरोप": 1122,
      "बर": 1123,
      "चार": 1124,
      " किसी ": 1125,
      "ना ह": 1126,
      "धार": 1127,
      "ीडिय": 1128,
      "ने पर ": 1129,
      " स्व": 1130,
      "क्टर ": 1131,
      "ृत": 1132,
      "ने बताया कि": 1133,
      "मौ": 1134,
      " दिय": 1135,
      "राब": 1136,
      "निर्": 1137,
      "ार्ड": 1138,
      " है कि": 1139,
      " सी": 1140,
      "बन": 1141,
      "्छ": 1142,
      "च्छ": 1143,
      " काम": 1144,
      "ुरक्ष": 1145,
      "रिक": 1146,
      "देव": 1147,
      " आप": 1148,
      "गल": 1149,
      "चुक": 1150,
      "्र ": 1151,
      "घटन": 1152,
      "ारे ": 1153,
      "क म": 1154,
      "ेप": 1155,
      "मर": 1156,
      "चान": 1157,
      "ंबंध": 1158,
      "त्र म": 1159,
      " एवं": 1160,
      "दोन": 1161,
      " '": 1162,
      " शिक": 1163,
      "पहल": 1164,
      "दर्शन": 1165,
      "ा को": 1166,
      "इसम": 1167,
      " टीम": 1168,
      "र्फ": 1169,
      "चाहिए": 1170,
      "रख": 1171,
      " विक": 1172,
      "फर": 1173,
      " ऐ": 1174,
      "ाधिक": 1175,
      " स्क": 1176,
      "बंध": 1177,
      " शुरू": 1178,
      "ॉन": 1179,
      " के न": 1180,
      " दर्ज": 1181,
      "ी को": 1182,
      "ा सक": 1183,
      "गिरफ्तार": 1184,
      "11": 1185,
      "गह": 1186,
      "आव": 1187,
      "ा रही ह": 1188,
      "िया थ": 1189,
      "िपोर्ट": 1190,
      "ेब": 1191,
      " चौ": 1192,
      "शुरू": 1193,
      "इस दौरान": 1194,
      "मुख्य": 1195,
      " विश": 1196,
      " अभ": 1197,
      " अव": 1198,
      "201": 1199,
      "ा ग": 1200,
      " हजार ": 1201,
      "ियम": 1202,
      "ने म": 1203,
      " ने कहा कि": 1204,
      "ोस्ट": 1205,
      " रहा ह": 1206,
      "ंबर": 1207,
      "ैक": 1208,
      "ाने के लिए": 1209,
      "ुक्त": 1210,
      " महिल": 1211,
      "ुड": 1212,
      " इन": 1213,
      "तीन": 1214,
      "वन": 1215,
      "ें।\n": 1216,
      " पहले ": 1217,
      "शासन": 1218,
      "ेष": 1219,
      "00": 1220,
      " देख": 1221,
      "ी कर": 1222,
      " से ह": 1223,
      "ीं,": 1224,
      "दूसर": 1225,
      "ाइट": 1226,
      " को क": 1227,
      "ुध": 1228,
      " मन": 1229,
      "ी र": 1230,
      "ाकि": 1231,
      "मन": 1232,
      " की ओ": 1233,
      "टना ": 1234,
      "र्क": 1235,
      "ि,": 1236,
      "विक": 1237,
      "एन": 1238,
      "ारे म": 1239,
      "्प": 1240,
      "भाजप": 1241,
      "ाया ज": 1242,
      "े-": 1243,
      "जर ": 1244,
      " मान": 1245,
      "पति": 1246,
      " पर क": 1247,
      "को ": 1248,
      "राज्य": 1249,
      "पत्": 1250,
      " आज": 1251,
      "ुश": 1252,
      "ा से ": 1253,
      " को द": 1254,
      " कै": 1255,
      "लिख": 1256,
      " यादव": 1257,
      "ा प्र": 1258,
      "त म": 1259,
      " ओ": 1260,
      " का स": 1261,
      "अभ": 1262,
      "चाल": 1263,
      "आए": 1264,
      " बच्च": 1265,
      " रही ह": 1266,
      "्क": 1267,
      "सक": 1268,
      "ोध": 1269,
      "ीस": 1270,
      "लाल": 1271,
      "म्मीद": 1272,
      " कोर्ट": 1273,
      "िया ज": 1274,
      "इससे ": 1275,
      "अपनी ": 1276,
      " करीब ": 1277,
      "िवार ": 1278,
      "ग्राम": 1279,
      "ताब": 1280,
      "ीश": 1281,
      " मै": 1282,
      "ार्थ": 1283,
      "उसे ": 1284,
      "पित": 1285,
      ", ब": 1286,
      " राम": 1287,
      "ूसर": 1288,
      "िछले ": 1289,
      " अन्य": 1290,
      "शिक्ष": 1291,
      " सीट": 1292,
      "शव": 1293,
      "25": 1294,
      "शिकायत": 1295,
      " की श": 1296,
      "पुर म": 1297,
      "यू": 1298,
      "ेह": 1299,
      " रहे ह": 1300,
      " तो": 1301,
      " राज्य": 1302,
      " हो रह": 1303,
      " करने के लिए": 1304,
      " आई": 1305,
      "ी श": 1306,
      " कर ल": 1307,
      "ान म": 1308,
      " देश": 1309,
      "सभा चुनाव": 1310,
      " किसान": 1311,
      "गम": 1312,
      "ंबर ": 1313,
      "ारी क": 1314,
      "े से ": 1315,
      " मुख्य": 1316,
      "द्द": 1317,
      "ाएंग": 1318,
      " हो गय": 1319,
      "जीत": 1320,
      "धर": 1321,
      "चौ": 1322,
      "ी प्र": 1323,
      "ष्ठ": 1324,
      " दोन": 1325,
      " शर्म": 1326,
      " उनके ": 1327,
      " समय": 1328,
      " बात": 1329,
      "िफ": 1330,
      "खंड": 1331,
      " पद": 1332,
      "अस्पताल": 1333,
      " अग": 1334,
      "े के ": 1335,
      "दि": 1336,
      " झ": 1337,
      "विधान": 1338,
      "र्माण": 1339,
      "ार,": 1340,
      "ीं।\n": 1341,
      " चुनाव": 1342,
      "ूप म": 1343,
      "दर": 1344,
      "ास्त": 1345,
      "ीएम": 1346,
      "ाष्ट्रीय": 1347,
      "व म": 1348,
      "अलग": 1349,
      " से": 1350,
      "गए।\n": 1351,
      "ी पर ": 1352,
      " ठ": 1353,
      "ा त": 1354,
      " से स": 1355,
      " एस": 1356,
      " को म": 1357,
      "न्य": 1358,
      "बड": 1359,
      "ी है": 1360,
      "ताबिक": 1361,
      "ाना क": 1362,
      "ाप्त": 1363,
      "्रम": 1364,
      "वस्थ": 1365,
      "दो ": 1366,
      "िकाल": 1367,
      " युवक": 1368,
      " लोक": 1369,
      "क्शन": 1370,
      "निर्देश": 1371,
      " पार्ट": 1372,
      " सरकार": 1373,
      "क्टर": 1374,
      " स्थित": 1375,
      "से": 1376,
      "लेज": 1377,
      "ा नह": 1378,
      "फिल्म": 1379,
      "मुताबिक": 1380,
      "ा व": 1381,
      " कॉ": 1382,
      "दस्य": 1383,
      " घंट": 1384,
      "ी नह": 1385,
      "ी आ": 1386,
      " करोड़": 1387,
      "इल": 1388,
      "ियाण": 1389,
      " ने क": 1390,
      "्षेत्र म": 1391,
      "an": 1392,
      "जम": 1393,
      "ंपन": 1394,
      " हर": 1395,
      " और क": 1396,
      " रूप": 1397,
      "नेत": 1398,
      "काल": 1399,
      "ूब": 1400,
      "अव": 1401,
      "िग्र": 1402,
      "दीप": 1403,
      "रोध": 1404,
      "ियान": 1405,
      "गढ़": 1406,
      "फिर ": 1407,
      "गु": 1408,
      "ा.\n": 1409,
      "बच्च": 1410,
      "14": 1411,
      " कार्रवाई": 1412,
      "समय": 1413,
      "ुभ": 1414,
      "ाहर ": 1415,
      "24": 1416,
      " के ह": 1417,
      " मंद": 1418,
      " जह": 1419,
      "ा ल": 1420,
      " सभी ": 1421,
      "िजल": 1422,
      "ष्ण": 1423,
      " सरकार ": 1424,
      "ाठ": 1425,
      "घर": 1426,
      "जात": 1427,
      " नव": 1428,
      " प्रदेश": 1429,
      " बह": 1430,
      " पहल": 1431,
      "द्यालय": 1432,
      "ा हुआ": 1433,
      " करना ": 1434,
      "बी": 1435,
      "ता": 1436,
      "तल": 1437,
      "यान": 1438,
      "स्स": 1439,
      "ीडिया ": 1440,
      "ी कि": 1441,
      " भेज": 1442,
      " सह": 1443,
      " हो गई।\n": 1444,
      "रीज": 1445,
      ", म": 1446,
      " स्कूल": 1447,
      "ाए।\n": 1448,
      " ले ": 1449,
      " वाल": 1450,
      "त्स": 1451,
      "रीद": 1452,
      " निवास": 1453,
      "भर": 1454,
      "ास्थ": 1455,
      " की र": 1456,
      "ा र": 1457,
      " भाजप": 1458,
      " गई।\n": 1459,
      " गए।\n": 1460,
      "ने लग": 1461,
      " किया गया ह": 1462,
      "ुकान": 1463,
      "े और ": 1464,
      "मुख": 1465,
      " ये ": 1466,
      "चार ": 1467,
      "ोस": 1468,
      "नी": 1469,
      "पीट": 1470,
      "आग": 1471,
      "अन्य": 1472,
      " के अनुस": 1473,
      "पूर्ण": 1474,
      "िया गया ह": 1475,
      "18": 1476,
      "प्रति": 1477,
      "धानमंत्र": 1478,
      "र ज": 1479,
      "ो म": 1480,
      "वाद": 1481,
      "पड": 1482,
      "स्कूल": 1483,
      " की प": 1484,
      "ृतक": 1485,
      "ल्द": 1486,
      "श्य": 1487,
      "ाध्य": 1488,
      " से म": 1489,
      "ा अ": 1490,
      "13": 1491,
      "चिव": 1492,
      " की बात": 1493,
      "छात्र": 1494,
      " शिक्ष": 1495,
      "उनक": 1496,
      "सभी ": 1497,
      " मार्": 1498,
      " तीन": 1499,
      " के सम": 1500,
      " पुलिस ने ": 1501,
      " को न": 1502,
      "ड़क": 1503,
      "ंजाब": 1504,
      "ुक्र": 1505,
      "क्ट्र": 1506,
      "काश": 1507,
      "धार ": 1508,
      " दिए": 1509,
      "एल": 1510,
      "16": 1511,
      "ोजित": 1512,
      "तरफ": 1513,
      " कार्यक्रम": 1514,
      "ोपाल": 1515,
      " जिन": 1516,
      "युवक": 1517,
      " किया थ": 1518,
      "फल": 1519,
      "साल": 1520,
      "पक्ष": 1521,
      "ी सम": 1522,
      " को ज": 1523,
      "भाई": 1524,
      "ियन": 1525,
      "ी मह": 1526,
      " के बारे म": 1527,
      "ारी": 1528,
      " लेकर ": 1529,
      "साथ ही ": 1530,
      " सुन": 1531,
      " फिल्म": 1532,
      " आव": 1533,
      "ूत": 1534,
      " बड": 1535,
      " पर ब": 1536,
      "र रह": 1537,
      "ता द": 1538,
      " के लोग": 1539,
      "ी ल": 1540,
      "ता थ": 1541,
      ", क": 1542,
      "शाम": 1543,
      " रन": 1544,
      "परिजन": 1545,
      "ुलाई": 1546,
      "दु": 1547,
      "ी च": 1548,
      " बैठ": 1549,
      "ा हो": 1550,
      " का प": 1551,
      "17": 1552,
      "बाज": 1553,
      "े पर ": 1554,
      "िध": 1555,
      " दो ": 1556,
      "विभाग": 1557,
      "प्": 1558,
      "ी हुई": 1559,
      "शह": 1560,
      " और स": 1561,
      "के बाद": 1562,
      "ी तरह": 1563,
      "आयोजन": 1564,
      " दिख": 1565,
      " कर दिय": 1566,
      "गत": 1567,
      "स्ट्र": 1568,
      " जम": 1569,
      " का प्र": 1570,
      "सुबह": 1571,
      " दूसर": 1572,
      "े कारण": 1573,
      "राह": 1574,
      " के ज": 1575,
      "िन्न": 1576,
      "ातार ": 1577,
      "ौं": 1578,
      "ामान": 1579,
      "े की ": 1580,
      "र्न": 1581,
      " जीत": 1582,
      " के तहत": 1583,
      "स्तान": 1584,
      " की ओर से ": 1585,
      "चाहिए।\n": 1586,
      " डिग्र": 1587,
      "ापमान": 1588,
      " करव": 1589,
      "बेट": 1590,
      "र और ": 1591,
      "एवं": 1592,
      "ंभ": 1593,
      " जिसम": 1594,
      "शत": 1595,
      " तरह": 1596,
      " कहा कि": 1597,
      " पर ह": 1598,
      "िवाद": 1599,
      "अलाव": 1600,
      "ाबाद": 1601,
      "र प": 1602,
      "हना है कि": 1603,
      "को": 1604,
      " जून": 1605,
      "ठन": 1606,
      " पूर्व": 1607,
      " इंड": 1608,
      "ौल": 1609,
      "ज्याद": 1610,
      " कर्म": 1611,
      " मौके पर ": 1612,
      " क्र": 1613,
      "ुरुआ": 1614,
      "ाने म": 1615,
      "दात": 1616,
      "ंडल": 1617,
      "ी ख": 1618,
      "भी क": 1619,
      " बाद": 1620,
      "मित": 1621,
      "गई थ": 1622,
      "रोड": 1623,
      "फ्र": 1624,
      "अपन": 1625,
      "वाब": 1626,
      " करते ह": 1627,
      " भी क": 1628,
      "200": 1629,
      "घायल": 1630,
      "श्व": 1631,
      "यास": 1632,
      " अस्पताल": 1633,
      " मही": 1634,
      " कर रहे ह": 1635,
      "झे ": 1636,
      " अध्यक्ष": 1637,
      "उम्मीद": 1638,
      ", प": 1639,
      "पार्ट": 1640,
      " गिर": 1641,
      " के रूप म": 1642,
      " विध": 1643,
      " को अ": 1644,
      "िने": 1645,
      " की मौत": 1646,
      " स्थान": 1647,
      " ने कह": 1648,
      " शिव": 1649,
      "सरकार": 1650,
      "नीत": 1651,
      "ैर": 1652,
      " को भी ": 1653,
      "ेयर": 1654,
      "दार ": 1655,
      "रुप": 1656,
      " ग्राम": 1657,
      "एफ": 1658,
      "घर ": 1659,
      "ैं.\n": 1660,
      " मामले म": 1661,
      "ंभी": 1662,
      "ेवल": 1663,
      "भिन्न": 1664,
      " वे ": 1665,
      "ेशान": 1666,
      " गए ह": 1667,
      " बारिश": 1668,
      "डॉ": 1669,
      " परि": 1670,
      "र्द": 1671,
      "ा ख": 1672,
      "िड": 1673,
      "तम": 1674,
      "बात": 1675,
      "पूछ": 1676,
      "ूस": 1677,
      " की अ": 1678,
      " दो": 1679,
      "ी हो": 1680,
      "भारतीय": 1681,
      " बताय": 1682,
      " कल": 1683,
      "a ": 1684,
      "द्र म": 1685,
      "ऐसे म": 1686,
      "ी रह": 1687,
      " जो": 1688,
      " आए": 1689,
      " ई": 1690,
      "और": 1691,
      "च म": 1692,
      "ापस": 1693,
      "े\n": 1694,
      "ूड": 1695,
      "दद": 1696,
      "ता है": 1697,
      "ंचायत": 1698,
      " उठ": 1699,
      " ऑफ": 1700,
      "से क": 1701,
      "ाने वाल": 1702,
      "मिक": 1703,
      "मेरिक": 1704,
      "वजह": 1705,
      "ास्थ्य": 1706,
      "ाइड": 1707,
      "खन": 1708,
      "ौर ": 1709,
      "ा श": 1710,
      " ने स": 1711,
      "ी मिल": 1712,
      " डॉ": 1713,
      "एसप": 1714,
      " भारतीय": 1715,
      "ॉर्ड": 1716,
      "बल": 1717,
      " समाज": 1718,
      "िर्फ": 1719,
      "ैध": 1720,
      "त्म": 1721,
      "ॉप": 1722,
      "मल": 1723,
      " प्रत": 1724,
      "लेट": 1725,
      " के ग": 1726,
      "ाइव": 1727,
      "22": 1728,
      " का ह": 1729,
      " करने का ": 1730,
      "िर म": 1731,
      "स्थिति": 1732,
      "निगम": 1733,
      "ेख": 1734,
      "ेदन": 1735,
      " द्वारा ": 1736,
      "ाध्यक्ष": 1737,
      " को ह": 1738,
      "सरकार ": 1739,
      " देव": 1740,
      "ेक्ट": 1741,
      " आर": 1742,
      "बंधन": 1743,
      "म्": 1744,
      " पर स": 1745,
      "उनकी ": 1746,
      "परिवार": 1747,
      " की सं": 1748,
      "नगर ": 1749,
      "विधायक": 1750,
      "ाराज": 1751,
      " बंद": 1752,
      "ब्र": 1753,
      "सीट": 1754,
      " के मुताबिक": 1755,
      "े द": 1756,
      "ाया ह": 1757,
      "प्त": 1758,
      "षण": 1759,
      " की थ": 1760,
      "ब्ज": 1761,
      "ंटर": 1762,
      "विरोध": 1763,
      " सहित": 1764,
      "िस्स": 1765,
      " किया जाएग": 1766,
      "ेन्": 1767,
      "भारी ": 1768,
      "40": 1769,
      " यात्र": 1770,
      "ोशल म": 1771,
      "विश्व": 1772,
      "ीक्ष": 1773,
      " दु": 1774,
      "ोबाइल": 1775,
      " जुलाई": 1776,
      "रामद": 1777,
      "्मान": 1778,
      "रोपी": 1779,
      " प्रतिशत": 1780,
      " हुआ।\n": 1781,
      " की प्र": 1782,
      " का म": 1783,
      "पराध": 1784,
      "इसे ": 1785,
      " सित": 1786,
      "कल": 1787,
      "ते थ": 1788,
      "एच": 1789,
      "ऐस": 1790,
      " काफ": 1791,
      " हुई ह": 1792,
      "ापन": 1793,
      "ार्क": 1794,
      " कर सक": 1795,
      "ैट": 1796,
      "ar": 1797,
      "ैयार": 1798,
      "रु": 1799,
      "श्च": 1800,
      "ी बन": 1801,
      " दिल्ल": 1802,
      "ोर ": 1803,
      ", र": 1804,
      "ा तो ": 1805,
      " किल": 1806,
      " हुई।\n": 1807,
      " अगस्त": 1808,
      " मौजूद": 1809,
      " बदल": 1810,
      "ग्रामीण": 1811,
      "े रह": 1812,
      " को गिरफ्तार": 1813,
      " उसे ": 1814,
      "़ें": 1815,
      "कर म": 1816,
      " पी": 1817,
      "रोक": 1818,
      "पहचान": 1819,
      "शिश": 1820,
      "र ल": 1821,
      "ाना क्षेत्र": 1822,
      "रूर": 1823,
      " जय": 1824,
      " यू": 1825,
      "मुख्यमंत्र": 1826,
      "यात्र": 1827,
      "युव": 1828,
      "ल्ल": 1829,
      " नगर ": 1830,
      " सेव": 1831,
      "ॉक": 1832,
      "ौन": 1833,
      " खेल": 1834,
      "जिसम": 1835,
      "िति": 1836,
      "ा था कि": 1837,
      "गढ़": 1838,
      "पोर्ट": 1839,
      ", अ": 1840,
      "ी फ": 1841,
      " हो सक": 1842,
      "द्रीय": 1843,
      "ुरुआत": 1844,
      "ं।\n": 1845,
      "ृष्ण": 1846,
      " ने ब": 1847,
      " न्य": 1848,
      " क्षेत्र": 1849,
      "िवस": 1850,
      "आरोप लग": 1851,
      " सब": 1852,
      " तेज": 1853,
      "निर्माण": 1854,
      "ाने का ": 1855,
      "मामल": 1856,
      "ी सं": 1857,
      "ा दर्ज": 1858,
      "नाथ": 1859,
      "ीसर": 1860,
      "इसके अलाव": 1861,
      "ी भ": 1862,
      "ारपीट": 1863,
      "ाई ज": 1864,
      "ोच": 1865,
      " की टीम": 1866,
      "ा रहे ह": 1867,
      "क्य": 1868,
      "कर्म": 1869,
      "र ने ": 1870,
      "वीडिय": 1871,
      "िकट": 1872,
      "ी ड": 1873,
      "अपना ": 1874,
      "पढ": 1875,
      "ाहन": 1876,
      "कार्य": 1877,
      " उसके ": 1878,
      " और ब": 1879,
      " मेर": 1880,
      " मामल": 1881,
      " के नाम": 1882,
      "गंज": 1883,
      " आग": 1884,
      "स्ताव": 1885,
      "न्न": 1886,
      "ा के लिए": 1887,
      "ौट": 1888,
      "िया म": 1889,
      "पीड": 1890,
      "शहर": 1891,
      "ोषण": 1892,
      " की न": 1893,
      " से अधिक": 1894,
      " कॉलेज": 1895,
      "या ": 1896,
      " अपनी ": 1897,
      " जिला ": 1898,
      "लाइन": 1899,
      " खान": 1900,
      " कुमार": 1901,
      "ा दे": 1902,
      "ोशल मीडिया ": 1903,
      "जार": 1904,
      "ाउंड": 1905,
      "जल": 1906,
      "वित": 1907,
      " S": 1908,
      "महिल": 1909,
      " जबकि": 1910,
      "फोन": 1911,
      "ा पर ": 1912,
      " लिय": 1913,
      "तेज": 1914,
      "21": 1915,
      "पद": 1916,
      "क्षण": 1917,
      "रू": 1918,
      "ेडिकल": 1919,
      "बैठ": 1920,
      "ताछ": 1921,
      "धन": 1922,
      "ीजेप": 1923,
      " इल": 1924,
      "ल्प": 1925,
      "साद": 1926,
      "हान": 1927,
      " ब्र": 1928,
      "ोत": 1929,
      "ोहन": 1930,
      "चंद": 1931,
      "शाद": 1932,
      "दमाश": 1933,
      " मिन": 1934,
      " पार": 1935,
      " करेग": 1936,
      " और म": 1937,
      "पट": 1938,
      " स्त": 1939,
      " गु": 1940,
      "सपास": 1941,
      "ी हो ": 1942,
      "धम": 1943,
      " विकास": 1944,
      " नाम": 1945,
      "एक्स": 1946,
      " व्यक्ति": 1947,
      "ेच": 1948,
      "गोल": 1949,
      "िद": 1950,
      " दिस": 1951,
      " वो ": 1952,
      "गुरु": 1953,
      "ैसल": 1954,
      " संग": 1955,
      "ोर्ड": 1956,
      "व्यवस्थ": 1957,
      "ा कर द": 1958,
      "इलाज": 1959,
      "ाती ह": 1960,
      "ड्र": 1961,
      "दिल्ल": 1962,
      "टी": 1963,
      "िकेट": 1964,
      "शामिल": 1965,
      "ट म": 1966,
      "ाते हुए": 1967,
      " चुक": 1968,
      "जु": 1969,
      "तदान": 1970,
      " सबसे ": 1971,
      "ी बार ": 1972,
      "हरियाण": 1973,
      "चर्च": 1974,
      "ालक": 1975,
      "ग म": 1976,
      "23": 1977,
      "ट्स": 1978,
      " वोट": 1979,
      "शनल": 1980,
      "चलते ": 1981,
      " विधायक": 1982,
      "िशन": 1983,
      "त्याश": 1984,
      "बई": 1985,
      " मोद": 1986,
      " -": 1987,
      " मई": 1988,
      "ीर ": 1989,
      "ाई।\n": 1990,
      "द्र स": 1991,
      " साथ": 1992,
      "ी गई।\n": 1993,
      "ा भ": 1994,
      "पिछले ": 1995,
      "पीछ": 1996,
      " ने म": 1997,
      "घटना ": 1998,
      " गई ह": 1999,
      "रस": 2000,
      " की द": 2001,
      "के म": 2002,
      "उसक": 2003,
      "ाकिस्तान": 2004,
      "इंड": 2005,
      "ो,": 2006,
      "जिला ": 2007,
      " एम": 2008,
      "े का ": 2009,
      " छात्र": 2010,
      "वाहन": 2011,
      "रुपए": 2012,
      "रीब": 2013,
      "तिथ": 2014,
      "अधिकारिय": 2015,
      "26": 2016,
      " जगह": 2017,
      "100": 2018,
      "निकल": 2019,
      " रोड": 2020,
      "आरोपिय": 2021,
      "िम्म": 2022,
      "ौर पर ": 2023,
      "ें,": 2024,
      "घाट": 2025,
      " केस": 2026,
      "से ह": 2027,
      " अक्ट": 2028,
      "इंद": 2029,
      "ीफ": 2030,
      "असल": 2031,
      "पड़": 2032,
      " परीक्ष": 2033,
      "ल्ड": 2034,
      "धार पर ": 2035,
      "in": 2036,
      "शिव": 2037,
      "रेल": 2038,
      "यर": 2039,
      " उनक": 2040,
      "टक": 2041,
      "ब्ल": 2042,
      "प्रत": 2043,
      "तब": 2044,
      "ीवन": 2045,
      " जानकार": 2046,
      " किस": 2047,
      "ा हो ": 2048,
      " संबंध": 2049,
      "उसने ": 2050,
      "ी कोशिश": 2051,
      "ाध्यम": 2052,
      "दय": 2053,
      "पल": 2054,
      "ागत": 2055,
      " कुल": 2056,
      "रोज": 2057,
      "द्वार": 2058,
      "ोरी": 2059,
      " जल": 2060,
      "आम": 2061,
      "ी गई ह": 2062,
      "ोव": 2063,
      " कार": 2064,
      " घटन": 2065,
      "विकास": 2066,
      "िवार को ": 2067,
      "रिपोर्ट": 2068,
      " भग": 2069,
      " सुरक्ष": 2070,
      " रूप से ": 2071,
      "प्ल": 2072,
      " को प्र": 2073,
      "ाे": 2074,
      "ुद्ध": 2075,
      " विधान": 2076,
      "तन": 2077,
      " बस": 2078,
      "at": 2079,
      " बत": 2080,
      "बहुत": 2081,
      " अध": 2082,
      " लाख रुपए": 2083,
      "ी (": 2084,
      "...\n": 2085,
      "भा": 2086,
      " ही म": 2087,
      " के कारण": 2088,
      "ीमत": 2089,
      "े स": 2090,
      " का कहना है कि": 2091,
      "एड": 2092,
      "राष्ट्रीय": 2093,
      " दिया ह": 2094,
      "श्चिम": 2095,
      "28": 2096,
      " योग": 2097,
      "ास्ट": 2098,
      " का द": 2099,
      " को मिल": 2100,
      "ट्ट": 2101,
      " ट्रेन": 2102,
      "ंभीर ": 2103,
      "इस्त": 2104,
      "िण": 2105,
      " अधिकारी ": 2106,
      " कंपन": 2107,
      "ामन": 2108,
      " सुबह": 2109,
      "ी सर": 2110,
      " के": 2111,
      "ुमान": 2112,
      " बहुत": 2113,
      "ानून": 2114,
      " करके ": 2115,
      "विद्यालय": 2116,
      "लाव": 2117,
      "े ज": 2118,
      "ेश्व": 2119,
      "इसलिए": 2120,
      "लिम": 2121,
      " समझ": 2122,
      "ाशि": 2123,
      "ा के स": 2124,
      " कर रही ह": 2125,
      "टल": 2126,
      " एन": 2127,
      "पूज": 2128,
      "उठ": 2129,
      " पुर": 2130,
      " आयोजित": 2131,
      " भर्त": 2132,
      "इस ब": 2133,
      "ती है": 2134,
      " विश्व": 2135,
      "दोपह": 2136,
      "-अलग": 2137,
      "ग्ल": 2138,
      "ी)": 2139,
      "ेहत": 2140,
      "अग": 2141,
      "नीति": 2142,
      "गण": 2143,
      "वेश": 2144,
      "ॉर्म": 2145,
      "ा के बाद": 2146,
      " स्प": 2147,
      "27": 2148,
      "े ब": 2149,
      " की ख": 2150,
      " मुख्यमंत्र": 2151,
      "ी दे": 2152,
      "ारोह": 2153,
      " के अनुसार ": 2154,
      " के एक": 2155,
      "ोस्टम": 2156,
      "विष": 2157,
      "ालिक": 2158,
      " चंद": 2159,
      " से ज्याद": 2160,
      "ब्ध": 2161,
      "ारी म": 2162,
      "ख्या म": 2163,
      " युव": 2164,
      "नीतिक": 2165,
      "जद": 2166,
      "विशेष": 2167,
      "न्": 2168,
      "राय": 2169,
      "ा किय": 2170,
      "वो ": 2171,
      "ी के साथ": 2172,
      "कोर्ट": 2173,
      "ज्ञान": 2174,
      " तापमान": 2175,
      "ता चल": 2176,
      "ाओं को ": 2177,
      "ी.\n": 2178,
      "वास": 2179,
      "ा सम": 2180,
      " हो ज": 2181,
      " दिल": 2182,
      " ड्र": 2183,
      "सर ": 2184,
      "ा फ": 2185,
      " सामने ": 2186,
      "्यूट": 2187,
      ", ज": 2188,
      "ाए ज": 2189,
      "उत्": 2190,
      "मृतक": 2191,
      " जिससे ": 2192,
      "लब्ध": 2193,
      "ाया थ": 2194,
      " बोल": 2195,
      "अंत": 2196,
      "खेल": 2197,
      "ी के लिए": 2198,
      "बर ": 2199,
      "ृति": 2200,
      "कर्त": 2201,
      "जो ": 2202,
      " ऐस": 2203,
      "बता द": 2204,
      " करोड़": 2205,
      "लाश": 2206,
      ", न": 2207,
      " अलग": 2208,
      "ल्कि": 2209,
      "चित": 2210,
      "चारिय": 2211,
      " राह": 2212,
      "िस्ट्र": 2213,
      " आरोपिय": 2214,
      "ृत्व": 2215,
      " भी ब": 2216,
      "त्तीस": 2217,
      "वोट": 2218,
      "ॉड": 2219,
      "ादेश": 2220,
      "ाया गया ह": 2221,
      " वीडिय": 2222,
      "ात्म": 2223,
      "ीनिय": 2224,
      "आगे ": 2225,
      " की तरफ": 2226,
      " भर": 2227,
      " भाग": 2228,
      " मिनट": 2229,
      "नेता ": 2230,
      " C": 2231,
      "ा काम": 2232,
      " किए ज": 2233,
      "पान": 2234,
      "शी": 2235,
      "थाना ": 2236,
      "भी म": 2237,
      "्रोल": 2238,
      "on": 2239,
      "अभी ": 2240,
      "ामले म": 2241,
      "अध्यक्ष": 2242,
      "ैद": 2243,
      "यन": 2244,
      " सदस्य": 2245,
      " की आ": 2246,
      " करता ह": 2247,
      "ा मिल": 2248,
      "इसके लिए": 2249,
      "कार्यक्रम": 2250,
      "ो।\n": 2251,
      "ार द": 2252,
      "जबकि": 2253,
      "ावत": 2254,
      "तिम": 2255,
      " अल": 2256,
      "़ों": 2257,
      " माह": 2258,
      " रिपोर्ट": 2259,
      " प्रशासन": 2260,
      "कड़": 2261,
      " उनकी ": 2262,
      "शु": 2263,
      "प्रशासन": 2264,
      " रेल": 2265,
      "ेदार": 2266,
      "ी य": 2267,
      "कान": 2268,
      "इसकी ": 2269,
      " अपन": 2270,
      "कन": 2271,
      "सवाल": 2272,
      "िद्ध": 2273,
      "जो": 2274,
      "शुक्र": 2275,
      " की च": 2276,
      ", ग": 2277,
      "ता है कि": 2278,
      "िया और ": 2279,
      "उसकी ": 2280,
      "राजस्थान": 2281,
      "ार हो ": 2282,
      " न्याय": 2283,
      "सूचना ": 2284,
      " रव": 2285,
      " करने वाल": 2286,
      "नव": 2287,
      "रिय": 2288,
      "ंगाल": 2289,
      " डाल": 2290,
      "थान": 2291,
      "त्तर ": 2292,
      " उत्": 2293,
      " नेत": 2294,
      " बेट": 2295,
      "यह भी ": 2296,
      "ा आ": 2297,
      " साह": 2298,
      " की गई।\n": 2299,
      " की गई ह": 2300,
      "इसक": 2301,
      "ना म": 2302,
      "खुद": 2303,
      "हास": 2304,
      "िष": 2305,
      "ा है और ": 2306,
      " अभी ": 2307,
      "िकित": 2308,
      "रान": 2309,
      " मुक": 2310,
      "ने के ": 2311,
      " पक्ष": 2312,
      " से एक": 2313,
      " अधिकारिय": 2314,
      "छोट": 2315,
      "तो": 2316,
      "स म": 2317,
      "स्म": 2318,
      " महिला ": 2319,
      " इं": 2320,
      "द्र मोद": 2321,
      " तब": 2322,
      "भावित": 2323,
      "र्ति": 2324,
      "के से ": 2325,
      "पूछताछ": 2326,
      " विशेष": 2327,
      "ा बन": 2328,
      " P": 2329,
      "ूं।\n": 2330,
      "चालक": 2331,
      "ऑफ": 2332,
      "हत्य": 2333,
      "िसे ": 2334,
      "िर से ": 2335,
      "भगवान": 2336,
      "सर पर ": 2337,
      "दर ": 2338,
      "े.\n": 2339,
      "ा गया ह": 2340,
      "िश्र": 2341,
      "ेमाल": 2342,
      "ध्यान": 2343,
      "ा के साथ": 2344,
      " हाद": 2345,
      " बाइक": 2346,
      " अप्र": 2347,
      "टर": 2348,
      "ह ने ": 2349,
      "ग्": 2350,
      " रहे ": 2351,
      "तिथि": 2352,
      "किस": 2353,
      "ार्ग": 2354,
      " के सामने ": 2355,
      "िटल": 2356,
      "ैनात": 2357,
      " समेत": 2358,
      "ाओं ने ": 2359,
      " मीट": 2360,
      "29": 2361,
      "रूप": 2362,
      "भग ": 2363,
      "विभिन्न": 2364,
      "हल": 2365,
      "ारा ": 2366,
      "ासिल": 2367,
      " शाह": 2368,
      "ार्ज": 2369,
      "हाद": 2370,
      "ोषित": 2371,
      "ायद": 2372,
      " को देख": 2373,
      "ख्त": 2374,
      " एक्स": 2375,
      "िकित्स": 2376,
      " की ग": 2377,
      " से प": 2378,
      "ात्र ": 2379,
      " को ख": 2380,
      "ी बात": 2381,
      "िष्ठ": 2382,
      "सभा स": 2383,
      "ॉलोन": 2384,
      "ुष": 2385,
      "ैच": 2386,
      "ायण": 2387,
      "er": 2388,
      "चीत": 2389,
      "ोई": 2390,
      "ी भी ": 2391,
      "ने स": 2392,
      "),": 2393,
      " पिछले ": 2394,
      "ग्लादेश": 2395,
      "कम": 2396,
      "ों,": 2397,
      "लोकसभा चुनाव": 2398,
      " पान": 2399,
      "हमल": 2400,
      " की जाएग": 2401,
      "दरअसल": 2402,
      "कुछ": 2403,
      "भेज": 2404,
      "अगर ": 2405,
      "घर म": 2406,
      " का ब": 2407,
      " लिख": 2408,
      " सड़क": 2409,
      "ार से ": 2410,
      "ोत्स": 2411,
      " वाहन": 2412,
      "ेट म": 2413,
      " A": 2414,
      "ाभ": 2415,
      " हाई": 2416,
      " होकर ": 2417,
      "प्रेस": 2418,
      "35": 2419,
      "ामल": 2420,
      " पेश": 2421,
      "रीक्षण": 2422,
      "ारखंड": 2423,
      " हजार रुपए": 2424,
      "ोप": 2425,
      "ाष्ट्रपति": 2426,
      "इं": 2427,
      "ट्रेन": 2428,
      " नेता ": 2429,
      "ौजूद": 2430,
      "ार्म": 2431,
      " जुट": 2432,
      "त्वपूर्ण": 2433,
      "निवास": 2434,
      " सचिव": 2435,
      "ाथमिक": 2436,
      "ाई ह": 2437,
      " रहा थ": 2438,
      " हो चुक": 2439,
      "ह,": 2440,
      "े कि": 2441,
      " सोम": 2442,
      " थाना ": 2443,
      "दर्श": 2444,
      "श्यक": 2445,
      "लिय": 2446,
      " धर्म": 2447,
      " क्ल": 2448,
      "पंजाब": 2449,
      "िलहाल": 2450,
      " निकल": 2451,
      "ाइम": 2452,
      " भगवान": 2453,
      " का आ": 2454,
      "िनिध": 2455,
      "उद्": 2456,
      "ल पर ": 2457,
      " की जा रही ह": 2458,
      "ाउंट": 2459,
      "ा लग": 2460,
      " तथ": 2461,
      " घायल": 2462,
      " घंटे ": 2463,
      "निकाल": 2464,
      "ा कर ": 2465,
      "जाम": 2466,
      "ी लग": 2467,
      " का आयोजन": 2468,
      " शहर": 2469,
      " योजन": 2470,
      "डीएम": 2471,
      "ेपी": 2472,
      "ाने की ": 2473,
      "मौके पर ": 2474,
      "सह": 2475,
      "दाल": 2476,
      " बच": 2477,
      "दाव": 2478,
      "फाई": 2479,
      "ैनिक": 2480,
      " हुई थ": 2481,
      "जिन": 2482,
      "क्क": 2483,
      "ंपनी ": 2484,
      "लाभ": 2485,
      "तार": 2486,
      "शोक": 2487,
      " पट": 2488,
      " रुपय": 2489,
      "प्रदर्शन": 2490,
      "संद": 2491,
      "िक्र": 2492,
      " गुरु": 2493,
      "परिवार ": 2494,
      "ृह": 2495,
      "ित्य": 2496,
      "परेशान": 2497,
      " के व": 2498,
      "जिसके बाद": 2499,
      " हुआ ह": 2500,
      "षि": 2501,
      "ा च": 2502,
      "़ो": 2503,
      "नेतृत्व": 2504,
      "e ": 2505,
      "खनऊ": 2506,
      "नंद": 2507,
      "ा होग": 2508,
      " करने वाले ": 2509,
      "शाल": 2510,
      "ागरिक": 2511,
      "ॉन्": 2512,
      "ारी ह": 2513,
      "ने ह": 2514,
      "ियोग": 2515,
      " बिह": 2516,
      " को ग": 2517,
      " को त": 2518,
      " का ज": 2519,
      " शह": 2520,
      " होता ह": 2521,
      "ज्ज": 2522,
      "श्म": 2523,
      "ायरल": 2524,
      "प्रीम": 2525,
      "टिकट": 2526,
      "थिय": 2527,
      "ुल ग": 2528,
      "व्यक्ति": 2529,
      "न्याय": 2530,
      "इनम": 2531,
      " मैच": 2532,
      "्ले": 2533,
      " जैसे ": 2534,
      "ंदिर": 2535,
      "ठबंधन": 2536,
      " को र": 2537,
      " किया जा रहा ह": 2538,
      "िश्च": 2539,
      " शामिल ह": 2540,
      "ंतिम": 2541,
      "जरिए": 2542,
      "रब": 2543,
      " की पहचान": 2544,
      "पीएम": 2545,
      " जारी क": 2546,
      "ती थ": 2547,
      "िया जाएग": 2548,
      "भूम": 2549,
      " करते ": 2550,
      "ा जा रह": 2551,
      "ी गई": 2552,
      "ाओं म": 2553,
      " काल": 2554,
      " के फ": 2555,
      " प्रदर्शन": 2556,
      "स्थानीय": 2557,
      "45": 2558,
      " जैन": 2559,
      "जबूत": 2560,
      "लाके म": 2561,
      "-ब": 2562,
      "ाक्ष": 2563,
      " किसी भी ": 2564,
      "ुबह": 2565,
      "ाराम": 2566,
      " बढ": 2567,
      "सीएम": 2568,
      "द्योग": 2569,
      "कट": 2570,
      "al": 2571,
      "नेशनल": 2572,
      "युक्त": 2573,
      "ार्टम": 2574,
      "ृद्ध": 2575,
      "विजय": 2576,
      "जानकारी के ": 2577,
      "षद": 2578,
      "ूह": 2579,
      "इत": 2580,
      "कड": 2581,
      "क्रिय": 2582,
      "र बन": 2583,
      " गोल": 2584,
      "ा भी ": 2585,
      "इसका ": 2586,
      "िषेक": 2587,
      " जात": 2588,
      " या ": 2589,
      "पत्नी ": 2590,
      "31": 2591,
      " के च": 2592,
      "िवेश": 2593,
      "60": 2594,
      "तरह": 2595,
      "े कह": 2596,
      " निर्": 2597,
      " दल": 2598,
      "ामान्य": 2599,
      "टक्": 2600,
      "ल्ले": 2601,
      " मार्च": 2602,
      " ज्याद": 2603,
      "बाव": 2604,
      "रम": 2605,
      "्राम": 2606,
      "ोजना ": 2607,
      "ंबंधित": 2608,
      "वजह से ": 2609,
      " अप्रैल": 2610,
      ", व": 2611,
      " सिर्फ": 2612,
      " की ल": 2613,
      " की गई": 2614,
      "रन": 2615,
      " और प": 2616,
      "प्रधानमंत्र": 2617,
      "ग्रवाल": 2618,
      "िग्": 2619,
      "बिह": 2620,
      " रहेग": 2621,
      " के श": 2622,
      "ने और ": 2623,
      " समिति": 2624,
      " के माध्यम": 2625,
      " व्यवस्थ": 2626,
      "र्जन": 2627,
      " के लिए ": 2628,
      " वर्षीय": 2629,
      " आम": 2630,
      "ोशल मीडिया पर ": 2631,
      " हाल": 2632,
      "्याण": 2633,
      "ुनिय": 2634,
      " गया ह": 2635,
      " बजे तक": 2636,
      " मंगल": 2637,
      "घोषण": 2638,
      " दीप": 2639,
      " बना ": 2640,
      " इसके ": 2641,
      " शिकायत": 2642,
      " साम": 2643,
      "स्टेशन": 2644,
      " के अंद": 2645,
      "चे ": 2646,
      "ावल": 2647,
      "ार्यक्रम": 2648,
      " की जानकार": 2649,
      "ुप्त": 2650,
      " उसक": 2651,
      "सुन": 2652,
      "ास्": 2653,
      " के भ": 2654,
      " के समय": 2655,
      " केवल": 2656,
      "िशान": 2657,
      " है और ": 2658,
      "लित": 2659,
      " N": 2660,
      "आरोपी": 2661,
      " सोन": 2662,
      "ालिय": 2663,
      "ागू": 2664,
      " फी": 2665,
      "चानक": 2666,
      "70": 2667,
      " बल्कि": 2668,
      "ा कह": 2669,
      "खुल": 2670,
      "दार": 2671,
      "धारित": 2672,
      " को च": 2673,
      " मामले": 2674,
      "ने ज": 2675,
      "बच": 2676,
      "बड़": 2677,
      " किया गया थ": 2678,
      "ाचिक": 2679,
      "ा सकता ह": 2680,
      " विकेट": 2681,
      " मंदिर": 2682,
      "ेड़": 2683,
      " स्वास्थ्य": 2684,
      "ाड़": 2685,
      "ीजेपी": 2686,
      "ैग": 2687,
      "ॉय": 2688,
      " बिजल": 2689,
      " निर्माण": 2690,
      " लगातार ": 2691,
      "िश्न": 2692,
      "इस मामले म": 2693,
      "िब": 2694,
      "यो": 2695,
      "वापस": 2696,
      " सभ": 2697,
      " का अ": 2698,
      "देर ": 2699,
      "र,": 2700,
      " के निर्देश": 2701,
      "ारायण": 2702,
      "उनका ": 2703,
      " होती ह": 2704,
      "कुम": 2705,
      " पत्": 2706,
      " को आ": 2707,
      "क्ष्म": 2708,
      " प्रधानमंत्र": 2709,
      " रहे थ": 2710,
      "\"\n": 2711,
      "सील": 2712,
      "सन": 2713,
      "ियल": 2714,
      " रात": 2715,
      "त्काल": 2716,
      "ॉस्प": 2717,
      " पर न": 2718,
      "याद": 2719,
      "लगातार ": 2720,
      "मुझे ": 2721,
      "ने के कारण": 2722,
      "ी तो ": 2723,
      "सोम": 2724,
      " प्ल": 2725,
      "ौत हो गई।\n": 2726,
      " के आधार पर ": 2727,
      "िश्चित": 2728,
      " का न": 2729,
      "पथ": 2730,
      "ॉट": 2731,
      "ा (": 2732,
      " परिवार": 2733,
      "ूबर": 2734,
      "त ह": 2735,
      "वर्ष": 2736,
      "्‌": 2737,
      " भी स": 2738,
      "ा मह": 2739,
      "ा जाता ह": 2740,
      " लिए": 2741,
      "जाने ": 2742,
      " ग्रामीण": 2743,
      " नए": 2744,
      "े हुए": 2745,
      "ू म": 2746,
      "ेहर": 2747,
      " सवार ": 2748,
      " पास": 2749,
      " शन": 2750,
      "ुकसान": 2751,
      " बाज": 2752,
      " नजर ": 2753,
      " दिया गय": 2754,
      " हुए।\n": 2755,
      "ियोगित": 2756,
      " लाल": 2757,
      " और न": 2758,
      " राजस्थान": 2759,
      " करन": 2760,
      "ा ने बताया कि": 2761,
      "करण": 2762,
      "ाने क": 2763,
      "लेक्टर ": 2764,
      " हुआ थ": 2765,
      "रंग": 2766,
      " कट": 2767,
      " B": 2768,
      " इंद": 2769,
      "ड़ित": 2770,
      "ुख्य": 2771,
      "ाधिकारी ": 2772,
      " ढ": 2773,
      "वार को": 2774,
      "धर्म": 2775,
      "ी पार्ट": 2776,
      "द्यार्थ": 2777,
      "छत्तीस": 2778,
      " भी ह": 2779,
      "तिहास": 2780,
      " अच्छ": 2781,
      "पड़": 2782,
      "ी पुलिस": 2783,
      "अब तक": 2784,
      "अस्पताल म": 2785,
      "ऊपर ": 2786,
      " उम्मीद": 2787,
      " शिक्षक": 2788,
      " की सम": 2789,
      "ावट": 2790,
      "पत्न": 2791,
      "डर": 2792,
      "ै।": 2793,
      "ोख": 2794,
      "उट": 2795,
      "ू,": 2796,
      " से ल": 2797,
      "मौसम": 2798,
      "ी हुई ह": 2799,
      "ीएस": 2800,
      " खरीद": 2801,
      " अम": 2802,
      " आदि": 2803,
      " और अ": 2804,
      "अवैध": 2805,
      " मौके पर पह": 2806,
      "भव": 2807,
      " अगर ": 2808,
      "इम": 2809,
      " बड़": 2810,
      "ड्ड": 2811,
      "ी बारिश": 2812,
      "तम तापमान": 2813,
      "बंद": 2814,
      "ुलाक": 2815,
      "ुख": 2816,
      "लेक्ट्र": 2817,
      "क्षिण": 2818,
      "ालय म": 2819,
      "ी नर": 2820,
      "प्रीम कोर्ट": 2821,
      "पाद": 2822,
      "लिस्ट": 2823,
      " अभियान": 2824,
      "फॉर्म": 2825,
      "ाइज": 2826,
      "सीटीव": 2827,
      "योध्य": 2828,
      "गर म": 2829,
      " सू": 2830,
      " शुक्र": 2831,
      "or": 2832,
      "िश्त": 2833,
      "ॉर्ट": 2834,
      "नई": 2835,
      " की फ": 2836,
      " बुध": 2837,
      "ी कम": 2838,
      "र्श": 2839,
      "क्ल": 2840,
      " एड": 2841,
      "ेबल": 2842,
      "मंगल": 2843,
      "़्": 2844,
      "ोफ": 2845,
      "ाने के बाद": 2846,
      "ॉलेज": 2847,
      "िलीज": 2848,
      " भी म": 2849,
      "ैत": 2850,
      " अंक": 2851,
      "जिस्ट्र": 2852,
      " बढ़": 2853,
      "िविध": 2854,
      "ुरंत": 2855,
      "पील": 2856,
      "दौरान": 2857,
      "वाय": 2858,
      "ुओं": 2859,
      " कार्ड": 2860,
      "प्रभ": 2861,
      "ीकरण": 2862,
      "प्रदेश म": 2863,
      "लेग": 2864,
      "sh": 2865,
      "खिर": 2866,
      "बत": 2867,
      " को एक": 2868,
      " निकाल": 2869,
      "मामले": 2870,
      "ा हुआ ह": 2871,
      "भी ह": 2872,
      " पंचायत": 2873,
      "दूसरे ": 2874,
      "ी ए": 2875,
      " राय": 2876,
      "ें\n": 2877,
      "जन्म": 2878,
      "ै?\n": 2879,
      " के ख": 2880,
      " हजार": 2881,
      "फ्ट": 2882,
      "शुभ": 2883,
      " होने के बाद": 2884,
      " परिजन": 2885,
      "प्शन": 2886,
      "कई": 2887,
      "सिक": 2888,
      "समाज": 2889,
      " इसलिए": 2890,
      " शुरू कर द": 2891,
      "सुर": 2892,
      "्ता ": 2893,
      " की एक": 2894,
      "हो": 2895,
      "ा दिय": 2896,
      "ाने पर ": 2897,
      "तहत": 2898,
      " एज": 2899,
      "ॉम": 2900,
      " दिवस": 2901,
      " से लेकर ": 2902,
      " क्षेत्र म": 2903,
      "ालिग": 2904,
      " आयोग": 2905,
      " फीसद": 2906,
      " इंटर": 2907,
      "अधिकारी ": 2908,
      " के अलाव": 2909,
      " से जुड": 2910,
      "सू": 2911,
      "विदेश": 2912,
      "उम": 2913,
      "ा:": 2914,
      "ा?\n": 2915,
      " पित": 2916,
      "इस्तेमाल": 2917,
      " अफ": 2918,
      "ी के स": 2919,
      " से न": 2920,
      "ी के क": 2921,
      "यादव": 2922,
      " सर्व": 2923,
      "ारी स": 2924,
      "ना चाह": 2925,
      "र्गत": 2926,
      " R": 2927,
      "जे": 2928,
      "इस अव": 2929,
      "रोह": 2930,
      "ाबू": 2931,
      "गए ह": 2932,
      "जिले म": 2933,
      " सकता ह": 2934,
      "र्णय": 2935,
      "ैफ": 2936,
      "रहने वाल": 2937,
      "िविल": 2938,
      " कहते ह": 2939,
      " कुमार,": 2940,
      "तवाल": 2941,
      " दुकान": 2942,
      " भूम": 2943,
      " चार ": 2944,
      " करने म": 2945,
      "ाउस": 2946,
      " ने बताय": 2947,
      "रीय": 2948,
      "हम्म": 2949,
      "आया ह": 2950,
      "र्थिक": 2951,
      " ताकि": 2952,
      " रुपये ": 2953,
      "शिक्षक": 2954,
      " बल": 2955,
      "विवाद": 2956,
      "पंच": 2957,
      "लक": 2958,
      "वै": 2959,
      "हम्मद": 2960,
      "ी एक": 2961,
      "ोटिस": 2962,
      " पूछ": 2963,
      "रिक्त": 2964,
      " की शुरुआत": 2965,
      "बाइक": 2966,
      "व्याप": 2967,
      "ैम": 2968,
      "ता रह": 2969,
      " जमीन": 2970,
      "िक्स": 2971,
      " करती ह": 2972,
      "पहले": 2973,
      "र्वाच": 2974,
      "बुध": 2975,
      " बिल": 2976,
      " दर्ज कर": 2977,
      "ृषि": 2978,
      "ाबालिग": 2979,
      "ना क": 2980,
      " बढ़": 2981,
      "गए थ": 2982,
      "ारंभ": 2983,
      " बरामद": 2984,
      " उर्फ": 2985,
      " संघ": 2986,
      " सितंबर": 2987,
      "संग": 2988,
      " थान": 2989,
      "ेक्टर ": 2990,
      " संद": 2991,
      "ायब": 2992,
      "ाचार्य": 2993,
      "जवाब": 2994,
      "थम": 2995,
      "दुकान": 2996,
      " उसने ": 2997,
      "ज्ञात": 2998,
      "अम": 2999,
      "वल": 3000,
      "इस बार ": 3001,
      "प्रभारी ": 3002,
      " समारोह": 3003,
      " अक्टूबर": 3004,
      "सभा सीट": 3005,
      "ुलाकात": 3006,
      " हिस्स": 3007,
      "ौके पर ": 3008,
      " ने अपने ": 3009,
      "बढ": 3010,
      "द्धाल": 3011,
      " नवंबर": 3012,
      " I": 3013,
      " संत": 3014,
      "वाड": 3015,
      "विष्य": 3016,
      " फर": 3017,
      " पूज": 3018,
      "ाझ": 3019,
      "साथ ह": 3020,
      "80": 3021,
      " पर म": 3022,
      "ी कार्रवाई": 3023,
      "तीज": 3024,
      "ी ने कहा कि": 3025,
      " को फ": 3026,
      " विजय": 3027,
      "ुदाय": 3028,
      " हरियाण": 3029,
      "बुल": 3030,
      " घर": 3031,
      " मत": 3032,
      " ने एक": 3033,
      "िस्टम": 3034,
      "ियुक्त": 3035,
      "क्ष्य": 3036,
      " परेशान": 3037,
      "शहर म": 3038,
      "नलाइन": 3039,
      "ौकर": 3040,
      " पड": 3041,
      "वाले ": 3042,
      "ापित": 3043,
      " अपराध": 3044,
      "ंबोध": 3045,
      " हो गए।\n": 3046,
      "ीचे ": 3047,
      " कुमार स": 3048,
      "ोहम्मद": 3049,
      " कारण": 3050,
      " का एक": 3051,
      " और": 3052,
      "कड़": 3053,
      "ृत्य": 3054,
      " रिक": 3055,
      "िन्ह": 3056,
      "तिरिक्त": 3057,
      " खुद": 3058,
      "पहले ह": 3059,
      " जल्द": 3060,
      " अंत": 3061,
      "ंकर ": 3062,
      "िवाह": 3063,
      "कह": 3064,
      "दिख": 3065,
      "ोमीट": 3066,
      "स्कर": 3067,
      "इससे पहले ": 3068,
      " दिसंबर": 3069,
      "जगह": 3070,
      "स्वास्थ्य": 3071,
      "हसील": 3072,
      " भी": 3073,
      " फिर ": 3074,
      " M": 3075,
      "वायरल": 3076,
      " खिल": 3077,
      "अमेरिक": 3078,
      "शाह": 3079,
      "र्ता ": 3080,
      " ने प": 3081,
      "सम्मान": 3082,
      "ज़": 3083,
      "शील": 3084,
      " देत": 3085,
      " से पहले ": 3086,
      " का नाम": 3087,
      "अनुसार ": 3088,
      "ी होग": 3089,
      " प्राप्त": 3090,
      "ाया जाएग": 3091,
      " वार": 3092,
      " से मिल": 3093,
      " की सूचना ": 3094,
      "अच्छ": 3095,
      " लाइन": 3096,
      " गर्म": 3097,
      " के अध्यक्ष": 3098,
      "डाल": 3099,
      "बाल": 3100,
      "भोपाल": 3101,
      "ीआई": 3102,
      "ो-": 3103,
      " हाथ": 3104,
      " नई": 3105,
      "देशक": 3106,
      "ौराह": 3107,
      " कर दिया ह": 3108,
      "सबसे ": 3109,
      " वित": 3110,
      "्षद": 3111,
      " हो गई ह": 3112,
      "तीसर": 3113,
      "ंजाम": 3114,
      " किए गए": 3115,
      " की तरह": 3116,
      "...": 3117,
      "चुके ह": 3118,
      " कानून": 3119,
      "निरीक्षण": 3120,
      " के मामले म": 3121,
      "ैक्स": 3122,
      "ी ट": 3123,
      "ापुर": 3124,
      " सीएम": 3125,
      "दन": 3126,
      "स्लिम": 3127,
      "चर": 3128,
      "जीव": 3129,
      " के जरिए": 3130,
      "र्तमान": 3131,
      " क्रिकेट": 3132,
      "नाड": 3133,
      " मुझे ": 3134,
      "भाल": 3135,
      "ौर म": 3136,
      " नंबर ": 3137,
      " सकती ह": 3138,
      "इंत": 3139,
      "ेट्रोल": 3140,
      "ेल म": 3141,
      "देश म": 3142,
      "ॉज": 3143,
      " जाएग": 3144,
      " करने पर ": 3145,
      "दोस्त": 3146,
      " नर": 3147,
      "ैप": 3148,
      " पंजाब": 3149,
      "दोपहर ": 3150,
      " अपना ": 3151,
      "क्ट्रेस": 3152,
      "ी:": 3153,
      "ीता ": 3154,
      "िवर्स": 3155,
      "पीएस": 3156,
      " इलाक": 3157,
      "सभा म": 3158,
      "ा ट": 3159,
      ")\n": 3160,
      "नए": 3161,
      "रीवाल": 3162,
      "संभाव": 3163,
      " चौधर": 3164,
      " हो रहा ह": 3165,
      "ात्मक": 3166,
      "रफ": 3167,
      "ृष्ट": 3168,
      "्रत": 3169,
      "ाजिक": 3170,
      "ा जिल": 3171,
      "इलाक": 3172,
      " अक": 3173,
      "ता से ": 3174,
      "फैसल": 3175,
      "ंदोल": 3176,
      "बस": 3177,
      " होने की ": 3178,
      "ुकाब": 3179,
      " सकते ह": 3180,
      " लड़": 3181,
      " का काम": 3182,
      " कमेट": 3183,
      " मंदिर ": 3184,
      "ti": 3185,
      "कीय": 3186,
      "्ञ": 3187,
      " बाल": 3188,
      "ी ने बताया कि": 3189,
      "घटना की ": 3190,
      " संगठन": 3191,
      "डेट": 3192,
      " बोर्ड": 3193,
      " शराब": 3194,
      "र्तन": 3195,
      "500": 3196,
      "ोजेक्ट": 3197,
      "रूक": 3198,
      "नजर ": 3199,
      "े प": 3200,
      " ब्ल": 3201,
      " के बाहर ": 3202,
      "राजनीतिक": 3203,
      " मिलेग": 3204,
      " किलोमीट": 3205,
      " सुर": 3206,
      " करना ह": 3207,
      " फ्र": 3208,
      "ेदार ": 3209,
      "्किल": 3210,
      "रुण": 3211,
      "क्ता ": 3212,
      " यून": 3213,
      "फिलहाल": 3214,
      "बढ़": 3215,
      "हार": 3216,
      " होने से ": 3217,
      " पर्य": 3218,
      " वर्ग": 3219,
      "ेजरीवाल": 3220,
      " हमारे ": 3221,
      "्द": 3222,
      "र्थन": 3223,
      "पन": 3224,
      " अमेरिक": 3225,
      " ने भी ": 3226,
      " छोट": 3227,
      " ऑफिस": 3228,
      "ती ": 3229,
      " के पूर्व": 3230,
      " इसे ": 3231,
      " करने के बाद": 3232,
      " किसी": 3233,
      "ना चाहिए।\n": 3234,
      " आवेदन": 3235,
      " दे रह": 3236,
      "बाद म": 3237,
      "ही ": 3238,
      "े को ": 3239,
      "जमीन": 3240,
      "शर्म": 3241,
      "इस पर ": 3242,
      " शाद": 3243,
      "ाइय": 3244,
      " कर लिया ह": 3245,
      "ा जा रहा है कि": 3246,
      " पूरे ": 3247,
      "छोड़": 3248,
      " चाह": 3249,
      " महीने ": 3250,
      " से आ": 3251,
      "मामले म": 3252,
      " उम": 3253,
      " घटना ": 3254,
      "स्कृत": 3255,
      "फ्तार ": 3256,
      "मत": 3257,
      " के ल": 3258,
      "ियंत्र": 3259,
      "निज": 3260,
      "जरात": 3261,
      "ा के क": 3262,
      " रही थ": 3263,
      "पुर से ": 3264,
      " एक्ट": 3265,
      "वरी ": 3266,
      " की तलाश": 3267,
      "यह भी पढ": 3268,
      "झारखंड": 3269,
      "ित ह": 3270,
      " बनाए": 3271,
      "आयोजित": 3272,
      "पूरे ": 3273,
      " कर लिय": 3274,
      " की बात कह": 3275,
      " स्थानीय": 3276,
      " वापस": 3277,
      "धमकी ": 3278,
      "रद": 3279,
      " पोस्ट": 3280,
      " हासिल": 3281,
      " दिया थ": 3282,
      "ंदिर ": 3283,
      "ाओं का ": 3284,
      "ठग": 3285,
      " फोन": 3286,
      "िप्ट": 3287,
      "es": 3288,
      "अभियान": 3289,
      "साल ": 3290,
      " अस्पताल म": 3291,
      "मीन": 3292,
      "वारदात": 3293,
      "ख्या ": 3294,
      "धि": 3295,
      "ह ने बताया कि": 3296,
      "ै कि": 3297,
      "डीए": 3298,
      "ऐसे ": 3299,
      "र तक": 3300,
      " डी": 3301,
      " उसकी ": 3302,
      "यल": 3303,
      " हो गया ह": 3304,
      " होने वाल": 3305,
      "र हो": 3306,
      "दग": 3307,
      "ेड़": 3308,
      " चोर": 3309,
      " घोषित": 3310,
      "तु": 3311,
      "सब": 3312,
      "ेल्स": 3313,
      " सम्मान": 3314,
      "ा रहा थ": 3315,
      " करने की ": 3316,
      "गड": 3317,
      " की मदद": 3318,
      " हुए ह": 3319,
      "्यूज": 3320,
      " कप": 3321,
      "ने को मिल": 3322,
      " उनका ": 3323,
      " बजे से ": 3324,
      " बार": 3325,
      "ा जात": 3326,
      "जिससे ": 3327,
      "ंख": 3328,
      " नम": 3329,
      " ने इस": 3330,
      "ित किय": 3331,
      " पर भी ": 3332,
      " विभिन्न": 3333,
      "उसके बाद": 3334,
      " भर्ती कर": 3335,
      "्रमण": 3336,
      "en": 3337,
      "कील": 3338,
      "वस": 3339,
      " परिव": 3340,
      " चौक": 3341,
      "तैय": 3342,
      "शीन": 3343,
      "ाई थ": 3344,
      "भारत म": 3345,
      "मोद": 3346,
      "ौध": 3347,
      " जिन्ह": 3348,
      "ेण": 3349,
      " मौसम": 3350,
      "उपयोग": 3351,
      " हो रही ह": 3352,
      ", ह": 3353,
      " के सभी ": 3354,
      "अनु": 3355,
      "ाटक": 3356,
      "चालन": 3357,
      "ग क": 3358,
      "वर ": 3359,
      "े समय": 3360,
      "ारी की ": 3361,
      " शव": 3362,
      " एंड": 3363,
      " फ्ल": 3364,
      "ा करना ": 3365,
      "र्ल्ड": 3366,
      " बदमाश": 3367,
      " कोच": 3368,
      "िरास": 3369,
      "उसका ": 3370,
      "दान म": 3371,
      "दालत": 3372,
      "इस अवसर पर ": 3373,
      "िवर्सिट": 3374,
      "चारी ": 3375,
      "ीति": 3376,
      " तैयार": 3377,
      "आवश्यक": 3378,
      "चौक": 3379,
      "ार्व": 3380,
      "ागरूक": 3381,
      "JP": 3382,
      "सित": 3383,
      " खुल": 3384,
      " विद्यालय": 3385,
      " देकर ": 3386,
      "हर ": 3387,
      "ोति": 3388,
      "ेशल": 3389,
      " अब तक": 3390,
      "33": 3391,
      ": ": 3392,
      "ावरण": 3393,
      "ीक्षक": 3394,
      "गाड": 3395,
      "ू-": 3396,
      " से प्र": 3397,
      "इसके साथ ही ": 3398,
      "तिक": 3399,
      "दिय": 3400,
      "रल": 3401,
      "सून": 3402,
      " वै": 3403,
      "ाधान": 3404,
      " से भी ": 3405,
      "ुनौत": 3406,
      " के प्रति": 3407,
      "परिषद": 3408,
      "भू": 3409,
      "ाइस": 3410,
      " सीम": 3411,
      " पर ज": 3412,
      "वीडियो ": 3413,
      "प्ताह": 3414,
      "त्तर प्रदेश": 3415,
      "अपराध": 3416,
      "स्वागत": 3417,
      " बाब": 3418,
      "िका ": 3419,
      " पर प": 3420,
      " होते ह": 3421,
      "ोस्टमार्टम": 3422,
      "ंपर": 3423,
      "गेट": 3424,
      " लौट": 3425,
      " को ल": 3426,
      " विवाद": 3427,
      "ोहित": 3428,
      "यरपोर्ट": 3429,
      "ाम म": 3430,
      " किश": 3431,
      "ा कोई": 3432,
      " बदलाव": 3433,
      "इलाके म": 3434,
      "नर": 3435,
      "योजन": 3436,
      "ौक": 3437,
      " के ड": 3438,
      " प्रमुख": 3439,
      "ता नह": 3440,
      "ेहद": 3441,
      "भाष": 3442,
      "ी राज": 3443,
      "ावधान": 3444,
      "ाघ": 3445,
      " की शिकायत": 3446,
      " लाख ": 3447,
      "माण": 3448,
      "शिप": 3449,
      " अग्रवाल": 3450,
      " प्रसाद": 3451,
      "ा जाएग": 3452,
      " कुल ": 3453,
      "तंक": 3454,
      "सामने ": 3455,
      "ा कार्य": 3456,
      "पर क": 3457,
      "देश्य": 3458,
      " पर आ": 3459,
      " खड": 3460,
      "अंद": 3461,
      "ाँ": 3462,
      "िया के ": 3463,
      "ले ज": 3464,
      " संजय": 3465,
      "ेयर ": 3466,
      "ंदोलन": 3467,
      "90": 3468,
      "ंघ": 3469,
      "खान": 3470,
      "ी के बाद": 3471,
      "जरूर": 3472,
      "चरण": 3473,
      "विस": 3474,
      "िसर म": 3475,
      " D": 3476,
      " होने पर ": 3477,
      "प्तान": 3478,
      "इंटर": 3479,
      "िथ": 3480,
      "ो रह": 3481,
      " वन": 3482,
      " बैठक": 3483,
      "बार": 3484,
      " पड़": 3485,
      "जीत स": 3486,
      "आसपास": 3487,
      "मैन": 3488,
      "परेशन": 3489,
      " महिलाओं": 3490,
      "75": 3491,
      "चकर ": 3492,
      "निक": 3493,
      "माल": 3494,
      " दिए।\n": 3495,
      "ैठक": 3496,
      "ाउन": 3497,
      " मध्य": 3498,
      " गण": 3499,
      " सवाल": 3500,
      " कोर्ट म": 3501,
      " जनता ": 3502,
      " मार्ग": 3503,
      "फ्ल": 3504,
      " माल": 3505,
      " पै": 3506,
      " कर सकते ह": 3507,
      " स्म": 3508,
      " के सदस्य": 3509,
      "ा सुन": 3510,
      " उपलब्ध": 3511,
      " करोड़ रुपए": 3512,
      "-प": 3513,
      "भु": 3514,
      "ाओ": 3515,
      "र्शन": 3516,
      "एज": 3517,
      "कर क": 3518,
      "नेतृत्व म": 3519,
      "प्रकाश": 3520,
      " दूसरे ": 3521,
      "ृद्धि": 3522,
      "ुजु": 3523,
      " पीड": 3524,
      " महत्वपूर्ण": 3525,
      " पहले ह": 3526,
      " सो": 3527,
      "ंजन": 3528,
      "जल्द": 3529,
      "विपक्ष": 3530,
      "अनुम": 3531,
      "ोबार": 3532,
      "ोत्सव": 3533,
      "ew": 3534,
      "गंग": 3535,
      "ठीक": 3536,
      "ात्": 3537,
      "आवाज": 3538,
      " जैस": 3539,
      " नियम": 3540,
      " पुत्र ": 3541,
      "ुजुर्ग": 3542,
      " अहम": 3543,
      "ाने से ": 3544,
      "फोट": 3545,
      "मे": 3546,
      "ॉक्स": 3547,
      "ीते ": 3548,
      " वाले ": 3549,
      " मारपीट": 3550,
      "िव्य": 3551,
      " प्रकाश": 3552,
      " K": 3553,
      "खास": 3554,
      "्यर्थ": 3555,
      " गई थ": 3556,
      "बारिश": 3557,
      "सेव": 3558,
      " लंब": 3559,
      " का र": 3560,
      " शाम": 3561,
      " होने": 3562,
      " ठाक": 3563,
      "ाने वाले ": 3564,
      "32": 3565,
      "इंट": 3566,
      "बू": 3567,
      "र्पित": 3568,
      "ीवुड": 3569,
      " की हत्य": 3570,
      "ी सरकार ": 3571,
      "दिल": 3572,
      "ा'": 3573,
      " चिकित्स": 3574,
      "खेत": 3575,
      " पत्र": 3576,
      " हत्य": 3577,
      "ी बेट": 3578,
      "ाकेश": 3579,
      "ा को लेकर ": 3580,
      " स्टेशन": 3581,
      "शिक्षण": 3582,
      "णाम": 3583,
      "ी उ": 3584,
      "ा उ": 3585,
      " बी": 3586,
      " पर अ": 3587,
      "वी": 3588,
      "ुति": 3589,
      " व्याप": 3590,
      "आदेश": 3591,
      "पुल": 3592,
      " के सं": 3593,
      " इत": 3594,
      "ॉलीवुड": 3595,
      " जिले म": 3596,
      "ोसिए": 3597,
      " हट": 3598,
      " को कह": 3599,
      " तरी": 3600,
      " इलाज": 3601,
      "ूठ": 3602,
      "स्ल": 3603,
      " समस्य": 3604,
      "199": 3605,
      "ुविध": 3606,
      " त्र": 3607,
      "ी महिल": 3608,
      " मरीज": 3609,
      " चालक": 3610,
      "ी दौरान": 3611,
      " अवैध": 3612,
      "ाया जा रहा ह": 3613,
      "डॉक्टर": 3614,
      "ेडिकल कॉलेज": 3615,
      "ियस": 3616,
      "स्तुत": 3617,
      "ा की म": 3618,
      "आपको ": 3619,
      "di": 3620,
      "ा।": 3621,
      " हर ": 3622,
      "ेल्": 3623,
      " किया और ": 3624,
      "सिल": 3625,
      "प्रयास": 3626,
      ", ड": 3627,
      "ूक": 3628,
      " सफल": 3629,
      " के आदेश": 3630,
      "राव": 3631,
      " सड़क": 3632,
      "दर स": 3633,
      "परीक्ष": 3634,
      " राष्ट्रीय": 3635,
      " की जरूर": 3636,
      " कर रहा ह": 3637,
      " बिन": 3638,
      " किम": 3639,
      "ा सर": 3640,
      "ी की म": 3641,
      "नगर निगम": 3642,
      "र्वाचन": 3643,
      " कॉलोन": 3644,
      " पर एक": 3645,
      "ुल्क": 3646,
      " गए थ": 3647,
      " से कम": 3648,
      " की रात": 3649,
      " दिया गया ह": 3650,
      "महिला ": 3651,
      "तलब": 3652,
      ", श": 3653,
      "48": 3654,
      " जरूर": 3655,
      " गंभीर ": 3656,
      "रत": 3657,
      "ावजूद": 3658,
      "सभा क": 3659,
      "गार": 3660,
      "दाय": 3661,
      "शराब": 3662,
      " गल": 3663,
      "लेकर क": 3664,
      "दित्य": 3665,
      " कार ": 3666,
      " की ड": 3667,
      " की व": 3668,
      " जिसे ": 3669,
      "मानत": 3670,
      " कार्यक्रम म": 3671,
      "चीन": 3672,
      "सुबह ": 3673,
      " अनु": 3674,
      " से बात": 3675,
      "गद": 3676,
      "हाथ": 3677,
      " के वि": 3678,
      "ी कार्य": 3679,
      "ोजक": 3680,
      "मौजूद": 3681,
      "गन": 3682,
      " वर्म": 3683,
      " आरोपी": 3684,
      "ाइवेट": 3685,
      " बंगाल": 3686,
      "ंडी": 3687,
      "ैब": 3688,
      " कित": 3689,
      " इस बार ": 3690,
      "क्रिया ": 3691,
      "वरिष्ठ": 3692,
      "ब्द": 3693,
      "ता और ": 3694,
      "ा जा रहा ह": 3695,
      " तक पह": 3696,
      "द्यार्थिय": 3697,
      "वो": 3698,
      "ुक्ति": 3699,
      "55": 3700,
      "ना थ": 3701,
      "परवाह": 3702,
      "ॉन्च": 3703,
      " गिरफ्तार": 3704,
      "तम तापमान ": 3705,
      ", द": 3706,
      "हयोग": 3707,
      " ने ज": 3708,
      "ावन": 3709,
      " के बेट": 3710,
      "एसआई": 3711,
      " पूर्ण": 3712,
      "ॉस्पिटल": 3713,
      "लखनऊ": 3714,
      " मिश्र": 3715,
      " का भी ": 3716,
      "एक्ट": 3717,
      "इस तरह": 3718,
      "इसके अलावा ": 3719,
      "प्प": 3720,
      " मतदान": 3721,
      " बीजेप": 3722,
      "घर से ": 3723,
      "री ": 3724,
      " अतिथि": 3725,
      " के साथ ही ": 3726,
      " इससे ": 3727,
      "36": 3728,
      "am": 3729,
      " भाई": 3730,
      "ाल म": 3731,
      " खराब": 3732,
      "ंजीनिय": 3733,
      "ौज": 3734,
      "इस मौके पर ": 3735,
      "िए।\n": 3736,
      " के अंत": 3737,
      " लोकसभा चुनाव": 3738,
      "कुमार ": 3739,
      " ।\n": 3740,
      "s:": 3741,
      "र फ": 3742,
      "ा कहना है कि": 3743,
      "्षेत्र ": 3744,
      "गलत": 3745,
      "ैफिक": 3746,
      "श्न": 3747,
      "सी म": 3748,
      " करत": 3749,
      "ाखिल": 3750,
      ", प्र": 3751,
      "ैमर": 3752,
      " कैसे ": 3753,
      " से अ": 3754,
      "ा गया थ": 3755,
      " करने लग": 3756,
      "परिव": 3757,
      "ात्रि": 3758,
      "आरोपी ": 3759,
      "अगले ": 3760,
      " और ज": 3761,
      "क्षक": 3762,
      " सरकार ने ": 3763,
      "़,": 3764,
      " खास": 3765,
      " कार्यालय": 3766,
      "ूर्ति": 3767,
      "ॉर": 3768,
      " वो": 3769,
      " और ह": 3770,
      " टेस्ट": 3771,
      "ौरव": 3772,
      "संप": 3773,
      " करने से ": 3774,
      " स्थिति": 3775,
      " बताया कि": 3776,
      "इमेज": 3777,
      "-साथ": 3778,
      " सल": 3779,
      " आदम": 3780,
      " गया थ": 3781,
      "ay": 3782,
      "दिवास": 3783,
      " हो गई": 3784,
      "ेतन": 3785,
      " किए ह": 3786,
      " मृतक": 3787,
      " कभी ": 3788,
      "त्ति": 3789,
      "्वालिय": 3790,
      " के द्वार": 3791,
      "ीष": 3792,
      " ने द": 3793,
      " और ग": 3794,
      "जाएग": 3795,
      "र व": 3796,
      " लड़": 3797,
      "उपलब्ध": 3798,
      " अधिकार": 3799,
      "ाष": 3800,
      "ने अपने ": 3801,
      "बैठक म": 3802,
      "साम": 3803,
      "ीराम": 3804,
      " कर रहे थ": 3805,
      "ाइकिल": 3806,
      "विधानसभा चुनाव": 3807,
      " डिग्री स": 3808,
      " अक्टूब": 3809,
      "र्प": 3810,
      "नेट": 3811,
      " का ग": 3812,
      "िविधिय": 3813,
      "34": 3814,
      " पीएम": 3815,
      " के बावजूद": 3816,
      "चुनाव म": 3817,
      "वित्त": 3818,
      " मात": 3819,
      "्योति": 3820,
      " चीन": 3821,
      "ा तो": 3822,
      "शक": 3823,
      "स्टूड": 3824,
      " होत": 3825,
      "000": 3826,
      " कर्मचारिय": 3827,
      "शामिल ह": 3828,
      "ा रहे थ": 3829,
      "ण्ड": 3830,
      "पंचायत": 3831,
      "शंक": 3832,
      " पता चल": 3833,
      " तैय": 3834,
      "पीड़ित": 3835,
      " मुद्द": 3836,
      "िफ्ट": 3837,
      "ी है कि": 3838,
      "आरोप लगाय": 3839,
      "ोसिएशन": 3840,
      ", आ": 3841,
      " थाना क्षेत्र": 3842,
      " कमल": 3843,
      "फरार हो ": 3844,
      " मंत्री ": 3845,
      "र र": 3846,
      "िक्क": 3847,
      " राशि": 3848,
      "रहे ह": 3849,
      "उम्मीदवार ": 3850,
      "अफ": 3851,
      " बेच": 3852,
      " से ग": 3853,
      " कर दिया गय": 3854,
      " मामला दर्ज": 3855,
      "ur": 3856,
      "ं,": 3857,
      " भी नह": 3858,
      "आवेदन": 3859,
      " प्रतियोगित": 3860,
      "तंत्र": 3861,
      "द्व": 3862,
      "िस्": 3863,
      "ुड़": 3864,
      " वक्त": 3865,
      " कर प": 3866,
      "ा सं": 3867,
      "ारीख": 3868,
      " मोबाइल": 3869,
      "नेस": 3870,
      "प्रीत": 3871,
      "ोभ": 3872,
      " प्रत्याश": 3873,
      "ी जा रही ह": 3874,
      "ॉर्टम": 3875,
      "नम": 3876,
      " सामान्य": 3877,
      " विन": 3878,
      " का निर्माण": 3879,
      " इंडिया ": 3880,
      "ेल्सियस": 3881,
      " फोट": 3882,
      " ऐसे ": 3883,
      "मता ": 3884,
      " क्ष": 3885,
      "ा एक": 3886,
      " साफ": 3887,
      " के चलते ": 3888,
      " निज": 3889,
      " गुर": 3890,
      "ोस्टमॉर्टम": 3891,
      " ने ह": 3892,
      " प्रवेश": 3893,
      " किए।\n": 3894,
      " के अनुसार,": 3895,
      " कॉन्": 3896,
      "ी अस्पताल": 3897,
      "ूव": 3898,
      "पुलिस को ": 3899,
      "ा गया कि": 3900,
      "ता क": 3901,
      " का सं": 3902,
      " चर्च": 3903,
      "समझ": 3904,
      "ी जाएग": 3905,
      "लान": 3906,
      "ोर्स": 3907,
      "ते ही ": 3908,
      "देर रात": 3909,
      "ग्रह": 3910,
      "हरियाणा के ": 3911,
      "छत्तीसगढ़": 3912,
      "ंबोधित": 3913,
      "ा सामने ": 3914,
      "स्तावेज": 3915,
      "तथ": 3916,
      "िनारे ": 3917,
      "हाल ही म": 3918,
      "खड": 3919,
      "ियोजन": 3920,
      "निर्णय": 3921,
      "र हो ": 3922,
      " कैप्शन": 3923,
      "पार": 3924,
      "बिल": 3925,
      "े ने ": 3926,
      " रोक": 3927,
      " उसका ": 3928,
      " उपस्थित": 3929,
      " डिग्री सेल्सियस": 3930,
      "वीडियो": 3931,
      " पटेल": 3932,
      "-स": 3933,
      "बदमाश": 3934,
      "ोर्च": 3935,
      "र न": 3936,
      " तय": 3937,
      "स्ट्रेल": 3938,
      " आग लग": 3939,
      "इस बीच": 3940,
      " अलग-अलग": 3941,
      "जी": 3942,
      "वा ": 3943,
      " मे": 3944,
      " मोहन": 3945,
      "ुप्ता ": 3946,
      " स्तर पर ": 3947,
      " औ": 3948,
      ", त": 3949,
      "पत": 3950,
      " कोट": 3951,
      " परिवार ": 3952,
      " नद": 3953,
      " तैनात": 3954,
      " और आ": 3955,
      "-क": 3956,
      "जैसे ": 3957,
      "सत": 3958,
      " मंडल": 3959,
      " संख्या म": 3960,
      " सुबह ": 3961,
      "ाऊ": 3962,
      " गो": 3963,
      "प्रेम": 3964,
      "रही ह": 3965,
      "कर्ताओं": 3966,
      "ेपर ": 3967,
      "ी गई थ": 3968,
      "र आ": 3969,
      "राजनीति": 3970,
      " संस्थान": 3971,
      " मदद": 3972,
      "बाहर ": 3973,
      "सुरक्ष": 3974,
      " पाल": 3975,
      "ार और ": 3976,
      " फीट": 3977,
      "डीज": 3978,
      "हा कि": 3979,
      " सुविध": 3980,
      "अलग-अलग": 3981,
      "रेलवे ": 3982,
      "उद्देश्य": 3983,
      "िक म": 3984,
      " आगे ": 3985,
      "प्रिय": 3986,
      " बनाकर ": 3987,
      "त्येक": 3988,
      " ऊ": 3989,
      "le": 3990,
      "धीर": 3991,
      "बीजेप": 3992,
      " भवन": 3993,
      "प्लाई": 3994,
      "टक्कर म": 3995,
      "खरीद": 3996,
      "ेक्": 3997,
      " पिछ": 3998,
      " नगर": 3999,
      "्पण": 4000,
      "िम्मेद": 4001,
      " के माध्यम से ": 4002,
      "िरासत म": 4003,
      "र्मचारिय": 4004,
      " हो प": 4005,
      " लगभग ": 4006,
      "कर्ता ": 4007,
      "तं": 4008,
      "श्किल": 4009,
      "ावास": 4010,
      "ंट्र": 4011,
      "ास्त्र": 4012,
      "ad": 4013,
      "ल्ट": 4014,
      " को पूर": 4015,
      ", ल": 4016,
      "लंब": 4017,
      " के मह": 4018,
      " धन": 4019,
      "ा विभाग": 4020,
      " कु": 4021,
      "ित्व": 4022,
      " किया जाता ह": 4023,
      "तलाश": 4024,
      " हो जाएग": 4025,
      " रेलवे ": 4026,
      "जाय": 4027,
      "ने वाली ": 4028,
      "ा निवास": 4029,
      "पीछे ": 4030,
      "उत्तर": 4031,
      "37": 4032,
      "ri": 4033,
      "वरी": 4034,
      "स्कार ": 4035,
      " वजह": 4036,
      "जुड": 4037,
      " साइ": 4038,
      " साल पहले ": 4039,
      "स्वीर": 4040,
      "चुकी ह": 4041,
      "ी सरकार": 4042,
      " कदम": 4043,
      " और र": 4044,
      "अधिकार": 4045,
      "रिकॉर्ड": 4046,
      "भाजपा ": 4047,
      "ा लिय": 4048,
      ", च": 4049,
      "गुर": 4050,
      "ा)": 4051,
      "लेक्ट": 4052,
      " जिसके ": 4053,
      "ूचन": 4054,
      "चुका ह": 4055,
      "तापमान": 4056,
      "ंदिर म": 4057,
      "जेल": 4058,
      " पानी ": 4059,
      " हाउस": 4060,
      " वार्ड": 4061,
      "ूल्य": 4062,
      "इन्ह": 4063,
      " चल रहा ह": 4064,
      " चुके ह": 4065,
      "संत": 4066,
      "साध": 4067,
      "े कई": 4068,
      "ूर्त": 4069,
      " काट": 4070,
      " कृष्ण": 4071,
      "ा हुई": 4072,
      "स्वी": 4073,
      " के कार्य": 4074,
      "ुटेज": 4075,
      "राहुल ग": 4076,
      "ंथ": 4077,
      "ता म": 4078,
      " पाकिस्तान": 4079,
      " दी ह": 4080,
      "िट्ट": 4081,
      "ा करते हुए": 4082,
      " दिन पहले ": 4083,
      "युवत": 4084,
      "चोर": 4085,
      " सिस्टम": 4086,
      " पॉ": 4087,
      " किर": 4088,
      "ाउथ": 4089,
      " की मौत हो गई।\n": 4090,
      "कार्यक्रम म": 4091,
      "लक्ष्य": 4092,
      "सिय": 4093,
      "ेफर": 4094,
      "क्सल": 4095,
      "रहेग": 4096,
      " महार": 4097,
      "सलमान": 4098,
      "पालन": 4099,
      "खुलास": 4100,
      " ही स": 4101,
      " की स्थिति": 4102,
      "ट्रक": 4103,
      " भोपाल": 4104,
      "रोहित": 4105,
      " फैल": 4106,
      "ापेम": 4107,
      "स्वाम": 4108,
      "उदय": 4109,
      "कर्ष": 4110,
      "शल": 4111,
      " कराय": 4112,
      " साल म": 4113,
      "शाम ": 4114,
      "वर म": 4115,
      "ो.\n": 4116,
      "ौड़": 4117,
      "ा ने कहा कि": 4118,
      " पत्र ": 4119,
      "लगभग ": 4120,
      "अनुर": 4121,
      " अधीक्षक": 4122,
      "सूचना मिल": 4123,
      "़ा।\n": 4124,
      "ैक्ट": 4125,
      " सिट": 4126,
      " गाड": 4127,
      "रोस": 4128,
      " निगम": 4129,
      "किसान": 4130,
      "र के ": 4131,
      " ने न": 4132,
      "े कुछ": 4133,
      " डॉक्टर": 4134,
      "ियुक्ति": 4135,
      "शनिवार": 4136,
      "पुर के ": 4137,
      "हार ": 4138,
      "ा के ब": 4139,
      "िनेट": 4140,
      " चंद्र": 4141,
      "कुल": 4142,
      "तभी ": 4143,
      "हिल": 4144,
      "ॉस": 4145,
      "इसी दौरान": 4146,
      "बिन": 4147,
      "ाए गए": 4148,
      " कुमार ने ": 4149,
      " मंत्रालय": 4150,
      " की कम": 4151,
      "मेश": 4152,
      "रूप म": 4153,
      " लड": 4154,
      " प्रेम": 4155,
      " होने ": 4156,
      "ने की कोशिश": 4157,
      "़ें-": 4158,
      "शुरुआत": 4159,
      "विचार": 4160,
      "ाया गया थ": 4161,
      " सीरीज": 4162,
      "ा हुआ थ": 4163,
      "ाई जा रही ह": 4164,
      "ॉडल": 4165,
      "अध": 4166,
      "ा कर दिय": 4167,
      "इमेज कैप्शन": 4168,
      "मध्य": 4169,
      "ाबित": 4170,
      "रविवार": 4171,
      " चौहान": 4172,
      "पेट म": 4173,
      " जाकर ": 4174,
      "नेश": 4175,
      "आरोप है कि": 4176,
      "मेरे ": 4177,
      " ले ज": 4178,
      "र रहे ह": 4179,
      " खत्म": 4180,
      " कल्याण": 4181,
      "िग्ध": 4182,
      "आइ": 4183,
      "डर ": 4184,
      "यून": 4185,
      "ापुर ": 4186,
      "ूर ": 4187,
      "ी स्कूल": 4188,
      "इसी तरह": 4189,
      "ा मामल": 4190,
      "ंडित": 4191,
      "ष्प": 4192,
      "म्ब": 4193,
      "विश्वास": 4194,
      "ा मंत्र": 4195,
      "गतान": 4196,
      "ज्यादा ": 4197,
      "ेन्द्र ": 4198,
      "घंट": 4199,
      "तय": 4200,
      "दर्ज": 4201,
      "वत": 4202,
      "ीना ": 4203,
      " रो": 4204,
      "नेताओं": 4205,
      "ूथ": 4206,
      "ंगाम": 4207,
      "बहन": 4208,
      "आए।\n": 4209,
      "अनुमति": 4210,
      "गर्म": 4211,
      "ॉफ": 4212,
      " से र": 4213,
      "वार को स": 4214,
      " क्व": 4215,
      " की और ": 4216,
      "ुभव": 4217,
      " कब": 4218,
      " कोतवाल": 4219,
      "रहने वाले ": 4220,
      "ओर से ": 4221,
      "थाना क्षेत्र": 4222,
      "नाक": 4223,
      "लम": 4224,
      "िच": 4225,
      "सीप": 4226,
      "- ": 4227,
      "38": 4228,
      "दास": 4229,
      "ी राम": 4230,
      " एफ": 4231,
      " आपके ": 4232,
      "धमक": 4233,
      " की छ": 4234,
      " उच्च": 4235,
      " घुस": 4236,
      "ेडियम": 4237,
      " के दिन": 4238,
      " साल ": 4239,
      "ामना करना ": 4240,
      "गार ": 4241,
      " का सम": 4242,
      "रराष्ट्रीय": 4243,
      "लौट": 4244,
      "ानि": 4245,
      "कर ह": 4246,
      " छोड़": 4247,
      " के तौर पर ": 4248,
      "़ें:": 4249,
      " खेत": 4250,
      " आयोजन": 4251,
      "जिले": 4252,
      " को गिरफ्तार किया ह": 4253,
      "घाटन": 4254,
      "्ठ": 4255,
      "उनसे ": 4256,
      "हमारे ": 4257,
      " दोपह": 4258,
      "पिछ": 4259,
      "बाब": 4260,
      " पैस": 4261,
      "िपल": 4262,
      " जन्म": 4263,
      "ची ": 4264,
      "चाय": 4265,
      "मात": 4266,
      " बयान": 4267,
      " जाएंग": 4268,
      "ी कह": 4269,
      "र्थक": 4270,
      " बुल": 4271,
      " अमित": 4272,
      " के पद": 4273,
      " वीडियो ": 4274,
      "'\n": 4275,
      "घर पर ": 4276,
      " केजरीवाल": 4277,
      "निट": 4278,
      " इसकी ": 4279,
      "धी ": 4280,
      "शेख": 4281,
      "ुझ": 4282,
      "सीसीटीव": 4283,
      " पूरी तरह": 4284,
      " रंग": 4285,
      " गुप्त": 4286,
      " पर पह": 4287,
      " कंपनिय": 4288,
      "शोध": 4289,
      "ैक्ट्र": 4290,
      " कौन": 4291,
      " तौर पर ": 4292,
      " शुभ": 4293,
      " प्रव": 4294,
      "ना चाहिए": 4295,
      "ागर": 4296,
      " इसका ": 4297,
      "तुरंत": 4298,
      " के ट": 4299,
      " लड़क": 4300,
      " का भ": 4301,
      " विरोध": 4302,
      "्षेत्": 4303,
      "बोल": 4304,
      " पहले": 4305,
      " हुए थ": 4306,
      "जदूर": 4307,
      "बढ़": 4308,
      " गंग": 4309,
      " चोरी": 4310,
      "300": 4311,
      "ol": 4312,
      " सूचना ": 4313,
      "व्यक्त": 4314,
      " इसम": 4315,
      " की सुरक्ष": 4316,
      "भीड़": 4317,
      "ता के ": 4318,
      "ी कोई": 4319,
      " कथ": 4320,
      "ुवार ": 4321,
      "घटना के बाद": 4322,
      "राहत": 4323,
      "विन": 4324,
      "गया थ": 4325,
      " बजकर ": 4326,
      " स्थल": 4327,
      " मेरे ": 4328,
      "तिक्रमण": 4329,
      ") म": 4330,
      ", फ": 4331,
      "ंश": 4332,
      "ग की ह": 4333,
      "चन": 4334,
      "ला ": 4335,
      "हाई": 4336,
      "िवेक": 4337,
      " प्रदेश म": 4338,
      " पहली बार ": 4339,
      " केस दर्ज": 4340,
      " वीडियो": 4341,
      "ा क्य": 4342,
      "ोरेन": 4343,
      "द्धालुओं": 4344,
      "ड म": 4345,
      " विदेश": 4346,
      " के साथ-साथ": 4347,
      "जाती ह": 4348,
      "सिद्ध": 4349,
      " दिया ज": 4350,
      " भारत म": 4351,
      "ीवाल": 4352,
      "र्विस": 4353,
      " नागरिक": 4354,
      " खुश": 4355,
      " सुख": 4356,
      "जानकारी द": 4357,
      " विश्वविद्यालय": 4358,
      "han": 4359,
      " सत": 4360,
      " दर": 4361,
      " निवेश": 4362,
      " इसक": 4363,
      "पत्ति": 4364,
      "150": 4365,
      "मक": 4366,
      "ेले ": 4367,
      "ा ले": 4368,
      " के इस": 4369,
      " जित": 4370,
      "इस बात": 4371,
      " प्राथमिक": 4372,
      "ाधिकार": 4373,
      "चौथ": 4374,
      " हादस": 4375,
      "धाम": 4376,
      "ीजन": 4377,
      " पार्क": 4378,
      "र्ल": 4379,
      "ुनवाई": 4380,
      "खिलाड": 4381,
      "स्कार": 4382,
      " और अन्य": 4383,
      " को बढ": 4384,
      "रीक्षक": 4385,
      " जनवरी": 4386,
      "ज्ञापन": 4387,
      "ित्र": 4388,
      "ोग्राम": 4389,
      "्मिक": 4390,
      "ोलॉज": 4391,
      "खिलेश": 4392,
      "को लेकर ": 4393,
      " रिकॉर्ड": 4394,
      "ार्वजन": 4395,
      "कोट": 4396,
      " को भ": 4397,
      " खोल": 4398,
      "उससे ": 4399,
      " को सूचना ": 4400,
      " कुमार ने बताया कि": 4401,
      " स्टूड": 4402,
      " ग्रुप": 4403,
      "इलाज के लिए": 4404,
      "सप": 4405,
      "ी जिल": 4406,
      "ाधीश": 4407,
      "इस्तीफ": 4408,
      "्रष्ट": 4409,
      " गत": 4410,
      " पर ग": 4411,
      " डिज": 4412,
      " खाल": 4413,
      "ा के दौरान": 4414,
      "ेरे ": 4415,
      "s ": 4416,
      "ता की ": 4417,
      "व निवास": 4418,
      "ाचल": 4419,
      "ा पह": 4420,
      " जेल": 4421,
      " दिन म": 4422,
      "',": 4423,
      ", लेकिन": 4424,
      "जत": 4425,
      " ही ब": 4426,
      " ज्ञ": 4427,
      " रण": 4428,
      "उपस्थित": 4429,
      "त्साह": 4430,
      " भाजपा ": 4431,
      " दुर्ग": 4432,
      "लट": 4433,
      "सदस्य": 4434,
      "घेर": 4435,
      "नात": 4436,
      " कंपनी ": 4437,
      "ी तक": 4438,
      " बीम": 4439,
      "अपने क": 4440,
      " मिलकर ": 4441,
      "ौतम": 4442,
      " किए गए ह": 4443,
      " नगर निगम": 4444,
      "ोफेस": 4445,
      "करीब": 4446,
      "नगर": 4447,
      "र्ध": 4448,
      " यानी ": 4449,
      " राजेश": 4450,
      "रवाज": 4451,
      " मंदिर म": 4452,
      "डल": 4453,
      "वर्ग": 4454,
      "िस्त": 4455,
      " जारी ": 4456,
      " का इस्तेमाल": 4457,
      "ाद्य": 4458,
      "िशा म": 4459,
      "ूरज": 4460,
      " ही नह": 4461,
      "ेबस": 4462,
      "ंबर तक": 4463,
      "शुक्रवार को ": 4464,
      " के अंदर ": 4465,
      "संपर्क": 4466,
      "44": 4467,
      "णि": 4468,
      "फ्": 4469,
      "राइल": 4470,
      "लिट": 4471,
      "प्रसाद": 4472,
      " याचिक": 4473,
      " हो गई थ": 4474,
      "ा के म": 4475,
      "65": 4476,
      "ऑनलाइन": 4477,
      "च गय": 4478,
      " कक्ष": 4479,
      " सिल": 4480,
      " की भी ": 4481,
      "हालत": 4482,
      "विश्वविद्यालय": 4483,
      "400": 4484,
      "पाकिस्तान": 4485,
      "ाढ़": 4486,
      " तीसर": 4487,
      "ाड़िय": 4488,
      "ंबंध म": 4489,
      "िनिधि": 4490,
      "ल्लेबाज": 4491,
      "खुश": 4492,
      "टाल": 4493,
      "तैयार": 4494,
      "र-": 4495,
      " बिग": 4496,
      " अशोक": 4497,
      " ने अ": 4498,
      " प्रधान": 4499,
      " करने और ": 4500,
      "ार्वजनिक": 4501,
      "99": 4502,
      "जिद": 4503,
      "े काम": 4504,
      "ाए ह": 4505,
      "स्टेबल": 4506,
      "ंग्र": 4507,
      "बताया जा रहा है कि": 4508,
      " आयुक्त": 4509,
      "ंसल": 4510,
      " अंब": 4511,
      "िया ने ": 4512,
      " महास": 4513,
      "वार्ड": 4514,
      " की समस्य": 4515,
      "यदि": 4516,
      " के पहले ": 4517,
      "ियर ": 4518,
      "ंकज": 4519,
      "ंकड": 4520,
      " F": 4521,
      "जित": 4522,
      "वक्त": 4523,
      " प्रदान": 4524,
      "ीतीश": 4525,
      " तो वह": 4526,
      "ऑफिस": 4527,
      "छह": 4528,
      "ौद": 4529,
      " कुश": 4530,
      "ी ओ": 4531,
      "त्ता ": 4532,
      "विस्त": 4533,
      " डे": 4534,
      " देर ": 4535,
      "आईआ": 4536,
      "जीवन": 4537,
      " के लिए एक": 4538,
      "ा रही थ": 4539,
      "बसे बड": 4540,
      "ी संख्या म": 4541,
      "!\n": 4542,
      "ैसी ": 4543,
      "जिसके ": 4544,
      "चंद्र": 4545,
      "जारी ": 4546,
      "डे": 4547,
      "ी ने कह": 4548,
      "अनुमान": 4549,
      " के कई": 4550,
      "स्कृतिक": 4551,
      "ईओ": 4552,
      "चोरी": 4553,
      "ता को ": 4554,
      "पोस्ट": 4555,
      "ी के ब": 4556,
      "ना और ": 4557,
      "ी है और ": 4558,
      "ब्लिक": 4559,
      "it": 4560,
      "शरी": 4561,
      "सड़क": 4562,
      "अभिषेक": 4563,
      "ठंड": 4564,
      "रक्षण": 4565,
      " पड़": 4566,
      " लाइ": 4567,
      " तरफ": 4568,
      " संबंध म": 4569,
      " चरण": 4570,
      "ी के म": 4571,
      "र सक": 4572,
      " क्या ": 4573,
      "जिले के ": 4574,
      "नाल": 4575,
      " जार": 4576,
      "ाइप": 4577,
      "रात ": 4578,
      " के पित": 4579,
      "ंका ": 4580,
      "चार्य": 4581,
      "भो": 4582,
      "े तो ": 4583,
      "ी कर ": 4584,
      "ी की क": 4585,
      "्मेल": 4586,
      " संस्थ": 4587,
      "ीरज": 4588,
      "भूमि": 4589,
      "बिजल": 4590,
      "ी.": 4591,
      " पति": 4592,
      " पेट्रोल": 4593,
      "स्जिद": 4594,
      "ां,": 4595,
      "ष्णु": 4596,
      "ृं": 4597,
      "ी विभाग": 4598,
      "शान": 4599,
      " जाते ह": 4600,
      " पर ल": 4601,
      "लेक्शन": 4602,
      "थाने म": 4603,
      " की भ": 4604,
      "ना होग": 4605,
      " मुकदम": 4606,
      "i ": 4607,
      "णव": 4608,
      "नान": 4609,
      "नीक": 4610,
      "सफ": 4611,
      " के अधिकारिय": 4612,
      "ायन": 4613,
      " रहने वाले ": 4614,
      " डॉल": 4615,
      "ापक": 4616,
      "ज्जैन": 4617,
      " वित्त": 4618,
      "चोट": 4619,
      "़ा,": 4620,
      " जारी ह": 4621,
      " रोज": 4622,
      " लूट": 4623,
      " भार": 4624,
      " ताल": 4625,
      "ंट्रोल": 4626,
      "ुट्ट": 4627,
      "रिया ": 4628,
      " प्रोजेक्ट": 4629,
      "ाई गई ह": 4630,
      "ले गए।\n": 4631,
      "संख्य": 4632,
      " के आसपास": 4633,
      " मौजूद रह": 4634,
      "लिमिट": 4635,
      "तत्काल": 4636,
      "बज": 4637,
      "ी पर": 4638,
      " उदय": 4639,
      "ुकेश": 4640,
      " एसप": 4641,
      "नद": 4642,
      "वर्क": 4643,
      " दे द": 4644,
      "ाई म": 4645,
      "ा मान": 4646,
      "ंबर से ": 4647,
      "जब्त": 4648,
      "ा सकते ह": 4649,
      " से घायल": 4650,
      "ाते ": 4651,
      "आई ह": 4652,
      " करना चाह": 4653,
      "उच्च": 4654,
      "र का ": 4655,
      "ौड़": 4656,
      " सेन": 4657,
      " मंड": 4658,
      " समुदाय": 4659,
      "िप्पण": 4660,
      "ोरख": 4661,
      "उम्मीदवार": 4662,
      "डेय": 4663,
      "भर म": 4664,
      "री म": 4665,
      "हरी": 4666,
      "विद": 4667,
      "आईट": 4668,
      "ि-": 4669,
      "र अ": 4670,
      "इनके ": 4671,
      "ाधिकारिय": 4672,
      "श्चिम बंगाल": 4673,
      " को देखते हुए": 4674,
      "टेल": 4675,
      "मेल": 4676,
      "र\n": 4677,
      " कान": 4678,
      " मौत": 4679,
      " अचानक": 4680,
      " करता थ": 4681,
      " ने ग": 4682,
      " ठीक": 4683,
      "दबाज": 4684,
      "सर्व": 4685,
      "ामले": 4686,
      " और एक": 4687,
      " पर लग": 4688,
      "गया ह": 4689,
      " होने वाले ": 4690,
      "भावन": 4691,
      "जाने वाल": 4692,
      "ews:": 4693,
      "उतर": 4694,
      "घट": 4695,
      "सेन": 4696,
      " शु": 4697,
      "ा मुख्य": 4698,
      " की तैय": 4699,
      " की रिपोर्ट": 4700,
      "त नह": 4701,
      "भक्त": 4702,
      "ार के ": 4703,
      "ा की ह": 4704,
      "ुसाइड": 4705,
      "जानकारी के मुताबिक": 4706,
      "as": 4707,
      "धे ": 4708,
      "फिर से ": 4709,
      "ा ड": 4710,
      " वर": 4711,
      " भक्त": 4712,
      "ेट्र": 4713,
      "पूर्ति": 4714,
      "से मिल": 4715,
      " आपको ": 4716,
      "एक्सप्रेस": 4717,
      "गुरुवार को ": 4718,
      "र ग": 4719,
      "िया क": 4720,
      "प्रमुख": 4721,
      "पूजन": 4722,
      "उसके साथ": 4723,
      "मौसम विभाग": 4724,
      " शुरू कर दी ह": 4725,
      "याचिक": 4726,
      "ह म": 4727,
      " की गई थ": 4728,
      " निक": 4729,
      " प्रभ": 4730,
      "र मिल": 4731,
      " मिली ह": 4732,
      "र से क": 4733,
      "ब्जे म": 4734,
      "पीएम मोद": 4735,
      "टेस्ट": 4736,
      "रिम": 4737,
      " सप्ताह": 4738,
      "ारिक": 4739,
      " प्रस्ताव": 4740,
      "ाहौल": 4741,
      "ी निवास": 4742,
      "198": 4743,
      " का प्रयास": 4744,
      "ा सामने आया ह": 4745,
      "ईड": 4746,
      "चिन": 4747,
      "ौसम": 4748,
      "ौशल": 4749,
      " को अपने ": 4750,
      "िनियम": 4751,
      "ी मान": 4752,
      "ंगठन": 4753,
      " घर म": 4754,
      " संप": 4755,
      "ते रह": 4756,
      "श्रम": 4757,
      "चालित": 4758,
      "ठाक": 4759,
      "अलर्ट": 4760,
      "ेहतर ": 4761,
      "विषय": 4762,
      " राहुल": 4763,
      "बदल": 4764,
      "रास्त": 4765,
      "ने एक": 4766,
      "46": 4767,
      "्याम": 4768,
      " का शव": 4769,
      " निर": 4770,
      "ाकू": 4771,
      "ोटल": 4772,
      " देते हुए": 4773,
      "ष्टि": 4774,
      "ीवास्त": 4775,
      "ाने और ": 4776,
      " अनिल": 4777,
      "आपके ": 4778,
      "ी समय": 4779,
      " हो चुकी ह": 4780,
      "उद्घाटन": 4781,
      "तुल": 4782,
      "सोन": 4783,
      "ाढ़": 4784,
      " कृषि": 4785,
      " रूम": 4786,
      " विपक्ष": 4787,
      "सुप्रीम कोर्ट": 4788,
      "राबाद": 4789,
      " नेताओं": 4790,
      "अक": 4791,
      "पै": 4792,
      "संबंधित": 4793,
      " पढ": 4794,
      " शेख": 4795,
      " प्रभावित": 4796,
      "ोटाल": 4797,
      "ी की ह": 4798,
      "र्जुन": 4799,
      "ी दर्ज": 4800,
      "बंधक": 4801,
      "ैनिक भ": 4802,
      "ा जाता है कि": 4803,
      "धु": 4804,
      "सव": 4805,
      "ी मु": 4806,
      "ल्क": 4807,
      " जिले": 4808,
      "दो दिन": 4809,
      " को अंजाम": 4810,
      "द्वारा ": 4811,
      "अयोध्य": 4812,
      "बार ": 4813,
      " वर्ल्ड": 4814,
      " का उ": 4815,
      "ीयू": 4816,
      "समेत": 4817,
      "संघ": 4818,
      "ा गया है कि": 4819,
      " मनोज": 4820,
      " कॉल": 4821,
      " हथिय": 4822,
      "ग्रुप": 4823,
      " के साथ ": 4824,
      " एक बार ": 4825,
      " राजनीतिक": 4826,
      " कमिश्न": 4827,
      " आवास": 4828,
      " दिखाई": 4829,
      "संभावना ह": 4830,
      "ीवास्तव": 4831,
      "जदू": 4832,
      "नन": 4833,
      " सात": 4834,
      " पाठ": 4835,
      " का च": 4836,
      " ने आ": 4837,
      "ावर": 4838,
      " फंस": 4839,
      " विष": 4840,
      "निर्म": 4841,
      "ेयरमैन": 4842,
      "छोड़": 4843,
      "म्प": 4844,
      " का फ": 4845,
      "ा के पास": 4846,
      "ा के तहत": 4847,
      "आवास": 4848,
      "्रष्टाच": 4849,
      "इधर": 4850,
      "ई म": 4851,
      "पढ़": 4852,
      " की व्यवस्थ": 4853,
      " संसद": 4854,
      "्स म": 4855,
      " मामले ": 4856,
      "अभी तक": 4857,
      "र्तमान म": 4858,
      "ेबसाइट": 4859,
      "जैन": 4860,
      "परिणाम": 4861,
      " सौ": 4862,
      " राठ": 4863,
      " पर द": 4864,
      " युद्ध": 4865,
      " प्रतिष्ठ": 4866,
      " आरोपी ": 4867,
      "47": 4868,
      "un": 4869,
      "गज": 4870,
      "नक": 4871,
      "शास": 4872,
      "्यास": 4873,
      " रुक": 4874,
      " रेड": 4875,
      " लिया ह": 4876,
      " लागू": 4877,
      " और प्र": 4878,
      " पार्षद": 4879,
      "छोटे ": 4880,
      " जनता पार्ट": 4881,
      " आने वाले ": 4882,
      "पीठ": 4883,
      "महार": 4884,
      " के अव": 4885,
      "ये भी ": 4886,
      " ट्रक": 4887,
      " की अध्यक्ष": 4888,
      "42": 4889,
      "णाल": 4890,
      "धाई": 4891,
      " के बाह": 4892,
      "र मह": 4893,
      "ग\n": 4894,
      "पुर क": 4895,
      "ंत स": 4896,
      "स्कृति": 4897,
      " मल": 4898,
      "ा का स": 4899,
      " एल": 4900,
      "िसाब": 4901,
      "आयोग": 4902,
      "आउट": 4903,
      "ेक्शन": 4904,
      " भी द": 4905,
      " हमने ": 4906,
      " डॉक्टर ": 4907,
      " से ज्यादा ": 4908,
      "टूट": 4909,
      "सीम": 4910,
      "िरोह": 4911,
      " द्व": 4912,
      "शनिवार को ": 4913,
      "ाष्ट्": 4914,
      " इंडस्ट्र": 4915,
      " सूर्य": 4916,
      ", भ": 4917,
      "ी चल": 4918,
      " की सज": 4919,
      "ी देते हुए": 4920,
      " बै": 4921,
      "िकेशन": 4922,
      " ने र": 4923,
      " घर ": 4924,
      " जिसके बाद": 4925,
      "चौधर": 4926,
      "श्वासन": 4927,
      " प्रताप": 4928,
      "ग स": 4929,
      " के मुख्य": 4930,
      "ा कम": 4931,
      "ता लग": 4932,
      " पहचान": 4933,
      "मुद्द": 4934,
      "ाने की म": 4935,
      "ी की ज": 4936,
      " अगले ": 4937,
      "ुबह ": 4938,
      "इंग": 4939,
      " की वजह से ": 4940,
      " करते थ": 4941,
      " महाराज": 4942,
      " घाट": 4943,
      "ेडल": 4944,
      "दीप स": 4945,
      "डॉक्टर ": 4946,
      "लिमिटेड": 4947,
      "कल्प": 4948,
      "नुमान": 4949,
      "याब": 4950,
      " ही क": 4951,
      "ी मन": 4952,
      "वार सुबह": 4953,
      "ायात": 4954,
      " और फ": 4955,
      " एक्ट्रेस": 4956,
      " थाने म": 4957,
      " टूट": 4958,
      " एक युवक": 4959,
      " मुह": 4960,
      " हमेश": 4961,
      "ियमित": 4962,
      " आई ह": 4963,
      "ाबाद म": 4964,
      "ड्राइव": 4965,
      " करोड़ रुपए": 4966,
      "ी'": 4967,
      " को नह": 4968,
      " अजय": 4969,
      "ातायात": 4970,
      "प्रकार": 4971,
      "जाना ": 4972,
      "ैलाश": 4973,
      " स्ट्र": 4974,
      "कत": 4975,
      "शार": 4976,
      "े गए": 4977,
      "ियो": 4978,
      " की घटन": 4979,
      " से द": 4980,
      " ने उन्ह": 4981,
      " स्थापित": 4982,
      "ऑट": 4983,
      "चे थ": 4984,
      "यूप": 4985,
      "लोड": 4986,
      " की कोशिश": 4987,
      "रोल": 4988,
      "उस समय": 4989,
      "हनत": 4990,
      "लेकिन,": 4991,
      "इक": 4992,
      "सिपल": 4993,
      "ूर्": 4994,
      " पर्व": 4995,
      "ायुक्त": 4996,
      " का व": 4997,
      " और उनके ": 4998,
      " चु": 4999,
      " की संख्य": 5000,
      "मौके पर पह": 5001,
      "39": 5002,
      "पर्य": 5003,
      " की घोषण": 5004,
      "ाने के ": 5005,
      " वर्ष ": 5006,
      "धारा ": 5007,
      "मामला दर्ज": 5008,
      "शीष": 5009,
      " दीपक": 5010,
      "th": 5011,
      "गढ": 5012,
      "योजक": 5013,
      "ी पह": 5014,
      " होने के कारण": 5015,
      "समस्य": 5016,
      "ा जब": 5017,
      " कर दिया थ": 5018,
      "ाना क्षेत्र म": 5019,
      "बीआई": 5020,
      " सहयोग": 5021,
      "राहुल": 5022,
      "ेन्द्र": 5023,
      "यात्रिय": 5024,
      "द्रीय मंत्र": 5025,
      " T": 5026,
      "याग": 5027,
      " दाव": 5028,
      "ावि": 5029,
      "ी कंपन": 5030,
      "वंश": 5031,
      "राज्य म": 5032,
      " के नाम पर ": 5033,
      " राहुल ग": 5034,
      "गति": 5035,
      "गंभीर ": 5036,
      "ठित": 5037,
      "वे": 5038,
      "ाढ": 5039,
      "र ड": 5040,
      " बने ": 5041,
      "ा कुम": 5042,
      "ाया ": 5043,
      "ाया और ": 5044,
      " गठबंधन": 5045,
      " डूब": 5046,
      "हमने ": 5047,
      " से बच": 5048,
      "ियंत्रण": 5049,
      " विषय": 5050,
      "र को ": 5051,
      "लाख": 5052,
      " दू": 5053,
      "त्मह": 5054,
      "रीन": 5055,
      "समिति": 5056,
      "दरअसल,": 5057,
      "त्महत्य": 5058,
      " पंच": 5059,
      "ार नह": 5060,
      "विद्य": 5061,
      "निभ": 5062,
      "राजधान": 5063,
      " की जगह": 5064,
      " महिलाएं": 5065,
      " उत्तर": 5066,
      "ab": 5067,
      "लाह": 5068,
      "ियत": 5069,
      "स्टिस": 5070,
      "क्रेन": 5071,
      " साल से ": 5072,
      "ब्ब": 5073,
      " अभिय": 5074,
      " एक्सप्रेस": 5075,
      "खतर": 5076,
      "ची और ": 5077,
      " रिलीज": 5078,
      " आदेश": 5079,
      "ा जिस": 5080,
      "ी दिन": 5081,
      "ी द्वार": 5082,
      "पालिक": 5083,
      " युवत": 5084,
      "रिज": 5085,
      "्श": 5086,
      "ारिज": 5087,
      " जी": 5088,
      " प्रबंधन": 5089,
      " तरीके से ": 5090,
      "el": 5091,
      "शेयर": 5092,
      "सी स": 5093,
      " सदर ": 5094,
      " हव": 5095,
      "ामी ": 5096,
      "ावनी ": 5097,
      " पर च": 5098,
      " देखने को मिल": 5099,
      "िम्मेदार": 5100,
      " उम्मीदवार": 5101,
      "इतिहास": 5102,
      "उसम": 5103,
      " सेक": 5104,
      "ा किया ह": 5105,
      " पर हमल": 5106,
      "ग्रेस ने ": 5107,
      "ट्रैफिक": 5108,
      " की कीमत": 5109,
      " जिनम": 5110,
      "्लेट": 5111,
      " सैन": 5112,
      " पुल": 5113,
      "ी के पास": 5114,
      "लेकर": 5115,
      "टक्कर मार द": 5116,
      "ख्स": 5117,
      " चेक": 5118,
      "ंदन": 5119,
      " इस तरह": 5120,
      "आरत": 5121,
      " जिले के ": 5122,
      "बातचीत": 5123,
      "द्योगिक": 5124,
      "49": 5125,
      "जिसे ": 5126,
      "सूस": 5127,
      " सज": 5128,
      "ने द": 5129,
      "स्कर ": 5130,
      " आनंद": 5131,
      "र दिय": 5132,
      "हण": 5133,
      " लाभ": 5134,
      "ी कैमर": 5135,
      " योजना ": 5136,
      "ा रहे ": 5137,
      "ज्ञानिक": 5138,
      "जफ्": 5139,
      "मिशन": 5140,
      "योजना ": 5141,
      "ा एवं": 5142,
      " बो": 5143,
      "प्राप्त": 5144,
      " प्रयास": 5145,
      "नी चाहिए।\n": 5146,
      "ुरुष": 5147,
      "ी हुई थ": 5148,
      " हो सकती ह": 5149,
      " आदमी पार्ट": 5150,
      "e:": 5151,
      "व के ": 5152,
      " सिद्ध": 5153,
      " के नि": 5154,
      " तहसील": 5155,
      " और व": 5156,
      "ाइनल": 5157,
      "ाइनल म": 5158,
      "har": 5159,
      "डिज": 5160,
      "बाग": 5161,
      "सात": 5162,
      " सोशल मीडिया पर ": 5163,
      "िलंब": 5164,
      " प्रस्तुत": 5165,
      " के बच्च": 5166,
      " डायर": 5167,
      "स्पेशल": 5168,
      " यह है कि": 5169,
      " बैठक म": 5170,
      " स्पष्ट": 5171,
      " E": 5172,
      " लि": 5173,
      "ने बताय": 5174,
      " जवान": 5175,
      " तथा ": 5176,
      " गलत": 5177,
      "आ रहे ह": 5178,
      "गू": 5179,
      "ैं?\n": 5180,
      " चौराह": 5181,
      "अनुभव": 5182,
      " साल बाद": 5183,
      " धार": 5184,
      "ार हो": 5185,
      " चुनाव म": 5186,
      "अमित": 5187,
      "छात्र ": 5188,
      "जाल": 5189,
      "भार ": 5190,
      "ा देव": 5191,
      " जीवन": 5192,
      " पर फ": 5193,
      "धार्मिक": 5194,
      "चे और ": 5195,
      "रेस्ट": 5196,
      "िठ": 5197,
      "ीग": 5198,
      "ी?\n": 5199,
      "र (": 5200,
      " के परिजन": 5201,
      " बीजेपी": 5202,
      "िया ग": 5203,
      "ी बहन": 5204,
      "िराज": 5205,
      "ा बोल": 5206,
      "िनेम": 5207,
      "उत्पाद": 5208,
      "ड़े ": 5209,
      " नाग": 5210,
      " होटल": 5211,
      "त्सव": 5212,
      " महीने म": 5213,
      " शनिवार": 5214,
      "ारकर ": 5215,
      "्योर": 5216,
      " दास": 5217,
      " को रोक": 5218,
      " ने अपनी ": 5219,
      " बजे": 5220,
      "ीकृत": 5221,
      " कोई भी ": 5222,
      " कैमर": 5223,
      " की तरफ से ": 5224,
      " खिलाड": 5225,
      "ाें": 5226,
      "ैदान म": 5227,
      "ाबंद": 5228,
      "ुकदम": 5229,
      " इक": 5230,
      " रविवार": 5231,
      " शहर म": 5232,
      "अंतिम": 5233,
      "शो": 5234,
      "े दिन": 5235,
      "ा किया थ": 5236,
      "नेग": 5237,
      " फैसल": 5238,
      "ुल्ल": 5239,
      " खात": 5240,
      "ीयत": 5241,
      " शर्मा ने ": 5242,
      "लकात": 5243,
      "43": 5244,
      "पर्ट": 5245,
      " पर र": 5246,
      "ी क्षेत्र": 5247,
      "र साल": 5248,
      "क्रोश": 5249,
      "पूरी तरह": 5250,
      "वासिय": 5251,
      "सुराल": 5252,
      "तेह": 5253,
      "बाह": 5254,
      " जग": 5255,
      " परिसर म": 5256,
      "पाल स": 5257,
      "ाया जाता ह": 5258,
      "स्थिति म": 5259,
      "ऐसी ": 5260,
      "खर्च": 5261,
      "रेट": 5262,
      "ी को लेकर ": 5263,
      " की मान": 5264,
      " जाम": 5265,
      "ंबर पर ": 5266,
      "घटना म": 5267,
      "ूर्नाम": 5268,
      "BJP": 5269,
      "ाजिश": 5270,
      " तोड़": 5271,
      "रहा ह": 5272,
      " प्रभाव": 5273,
      "ुल ": 5274,
      "पीओ": 5275,
      " संचालक": 5276,
      " की सुविध": 5277,
      "श्याम": 5278,
      "र्नाटक": 5279,
      "ाई जाएग": 5280,
      " ऋ": 5281,
      "IR": 5282,
      "मार": 5283,
      "ी एवं": 5284,
      " यदि": 5285,
      "पुलिस को द": 5286,
      "लड़क": 5287,
      " के शव": 5288,
      " रोहित": 5289,
      "लेख": 5290,
      "ी कर ल": 5291,
      " मुस्लिम": 5292,
      "ाने लग": 5293,
      "ाना चाह": 5294,
      " टीम ने ": 5295,
      " झारखंड": 5296,
      "05": 5297,
      "दोष": 5298,
      "ह्म": 5299,
      " के नेतृत्व म": 5300,
      "इस संबंध म": 5301,
      " गेट": 5302,
      " खर्च": 5303,
      " इस्त": 5304,
      "ेतु": 5305,
      " लगा द": 5306,
      " मिला ह": 5307,
      "ग्जाम": 5308,
      " यूनिवर्सिट": 5309,
      "जफ्फर": 5310,
      "शि": 5311,
      "ी फिल्म": 5312,
      " दाखिल": 5313,
      " भू": 5314,
      "स्तुति": 5315,
      " विद्य": 5316,
      " जानते ह": 5317,
      "लापरवाह": 5318,
      " से हो": 5319,
      " करोड़ रुपय": 5320,
      " मतदात": 5321,
      "बे": 5322,
      "्ढ": 5323,
      " पुरुष": 5324,
      " विवाह": 5325,
      " शेयर": 5326,
      " चीज": 5327,
      "ी के दौरान": 5328,
      "ग्रेस के ": 5329,
      " जब्त": 5330,
      "जमकर ": 5331,
      "CM": 5332,
      "तौर पर ": 5333,
      "भर ": 5334,
      "ुर्": 5335,
      " मीण": 5336,
      "ाना ह": 5337,
      " जीव": 5338,
      "पुर स": 5339,
      "ी मौत हो गई।\n": 5340,
      "क्षय": 5341,
      " होना ": 5342,
      "ी दल": 5343,
      "ैसेज": 5344,
      "रुख": 5345,
      " मौजूद थ": 5346,
      "कर्मिय": 5347,
      " उत्पाद": 5348,
      "्यर्थिय": 5349,
      "id": 5350,
      "अचानक": 5351,
      "ग्स": 5352,
      "्ति": 5353,
      " को सम": 5354,
      "ेस म": 5355,
      " स्टाफ": 5356,
      "ंभीर": 5357,
      "िनेश": 5358,
      " भूमि": 5359,
      "ंग्रेज": 5360,
      "पाट": 5361,
      "सिर्फ": 5362,
      "र्धन": 5363,
      " राष्ट्रपति": 5364,
      "ितीय": 5365,
      " गुप्ता ": 5366,
      " कर दिया गया ह": 5367,
      "देखते हुए": 5368,
      " से जुड़": 5369,
      " से बाहर ": 5370,
      "गे और ": 5371,
      " यात्रिय": 5372,
      " दुर्": 5373,
      "स्थानीय लोग": 5374,
      "प्रधानमंत्री नर": 5375,
      "नाराज": 5376,
      "पैस": 5377,
      "लव": 5378,
      "ुद्द": 5379,
      "ैश": 5380,
      "्राफ": 5381,
      " बीत": 5382,
      " करिय": 5383,
      "ंजय": 5384,
      " की बैठक": 5385,
      "ी तो": 5386,
      "रविवार को ": 5387,
      " से संबंधित": 5388,
      "दुओं": 5389,
      "एचओ": 5390,
      "तेल": 5391,
      "नेक": 5392,
      " को समझ": 5393,
      "विर": 5394,
      " कमर": 5395,
      "गढ़ म": 5396,
      " अभी तक": 5397,
      "SP": 5398,
      "उक्त": 5399,
      "खल": 5400,
      "ख्म": 5401,
      "बीन": 5402,
      " नोट": 5403,
      "लेन": 5404,
      "गड़": 5405,
      "श्त": 5406,
      "ें:": 5407,
      " सफाई": 5408,
      " के बयान": 5409,
      " किया कि": 5410,
      "विकेट": 5411,
      "रूप से घायल": 5412,
      "ठेक": 5413,
      "अनिल": 5414,
      " मुख": 5415,
      "िया गया थ": 5416,
      "गढ़ म": 5417,
      " हादसे म": 5418,
      "जानकारी के अनुसार ": 5419,
      ") ने ": 5420,
      "BI": 5421,
      "फर्ज": 5422,
      "रिश्त": 5423,
      "ू स": 5424,
      " पढ़": 5425,
      " की पूज": 5426,
      " अस": 5427,
      "पूत": 5428,
      " महाम": 5429,
      "गोली म": 5430,
      "ब्ल्यू": 5431,
      "िम्मेदारी ": 5432,
      "घोषित": 5433,
      " कोलकात": 5434,
      "ी बह": 5435,
      " देने": 5436,
      "ीचर्स": 5437,
      "ूचित": 5438,
      "िजल्ट": 5439,
      "एयरपोर्ट": 5440,
      "लूट": 5441,
      "े न": 5442,
      "िया की ": 5443,
      " शो": 5444,
      "ाहक": 5445,
      " होने का ": 5446,
      "बादल": 5447,
      "ंजूर": 5448,
      "जदीक": 5449,
      " निर्देश": 5450,
      " अहमद": 5451,
      " G": 5452,
      ", ट": 5453,
      ".\"\n": 5454,
      "ॉब": 5455,
      " की पहल": 5456,
      " व्रत": 5457,
      "िन्": 5458,
      " शासन": 5459,
      "ाई गई": 5460,
      "े कार्य": 5461,
      "ाकाल": 5462,
      "मामला सामने आया ह": 5463,
      " सोमवार को ": 5464,
      "तरी": 5465,
      "पता चल": 5466,
      " रैल": 5467,
      "क्सी": 5468,
      "ार स": 5469,
      "ादश": 5470,
      " कोहल": 5471,
      "द्दे": 5472,
      "स्थल": 5473,
      "सीब": 5474,
      "एसएस": 5475,
      " छह": 5476,
      " के कुछ": 5477,
      "गरान": 5478,
      "रविवार ": 5479,
      " अभिषेक": 5480,
      "सरकार ने ": 5481,
      "बैठक": 5482,
      "अंतर्गत": 5483,
      "शीर्व": 5484,
      "डिड": 5485,
      "पेश": 5486,
      "बान": 5487,
      "र भी ": 5488,
      " जागरूक": 5489,
      " के लिए भेज": 5490,
      "ुआ ह": 5491,
      " की शाद": 5492,
      " गुजरात": 5493,
      " का आयोजन किया गय": 5494,
      "ओम": 5495,
      "लीक": 5496,
      " मोट": 5497,
      "ने से म": 5498,
      " अज्ञात": 5499,
      " को सं": 5500,
      " इंजीनिय": 5501,
      "भाजपा के ": 5502,
      "ेल्थ": 5503,
      "CC": 5504,
      "खूब": 5505,
      "डे ": 5506,
      "लाइ": 5507,
      "सूल": 5508,
      "आए थ": 5509,
      "चिकित्स": 5510,
      "फान": 5511,
      "यं": 5512,
      " सप": 5513,
      "ाई गई।\n": 5514,
      " चार": 5515,
      "ा थाना ": 5516,
      "वाराण": 5517,
      "ा करने के लिए": 5518,
      "टीम ने ": 5519,
      " दोस्त": 5520,
      "हरियाणा म": 5521,
      "tion": 5522,
      "ईरान": 5523,
      "ेक्टर": 5524,
      " जारी": 5525,
      "ायम": 5526,
      " नय": 5527,
      " चाल": 5528,
      " की शाम": 5529,
      " दिए ह": 5530,
      "दुर्ग": 5531,
      "सोमवार को ": 5532,
      "शीर्वाद": 5533,
      "t ": 5534,
      "आधार पर ": 5535,
      "पटना ": 5536,
      "ा लेकिन": 5537,
      "्याज": 5538,
      " को ड": 5539,
      " विज्ञान": 5540,
      " करने के ": 5541,
      "जानकारी मिल": 5542,
      " मनीष": 5543,
      " मैने": 5544,
      "बई म": 5545,
      "अहम": 5546,
      "गौर": 5547,
      "तर ": 5548,
      "ीख": 5549,
      "ैने": 5550,
      " नश": 5551,
      " और द": 5552,
      "इंतजार": 5553,
      ", राज": 5554,
      " ने उसे ": 5555,
      "ा किसी ": 5556,
      "ेतावनी ": 5557,
      "हमति": 5558,
      "197": 5559,
      "उनके साथ": 5560,
      " विधानसभा चुनाव": 5561,
      " साहू": 5562,
      "खात": 5563,
      "फिर": 5564,
      "ले ह": 5565,
      "वा द": 5566,
      " साग": 5567,
      " पौध": 5568,
      "ालन": 5569,
      " को लेकर क": 5570,
      " पर भ": 5571,
      "ना शुरू": 5572,
      "ूं,": 5573,
      "वार रात": 5574,
      " का सामना करना ": 5575,
      " आवश्यक": 5576,
      " को उ": 5577,
      " लक्ष्म": 5578,
      " नंबर": 5579,
      "प्रधान": 5580,
      " उद्योग": 5581,
      "ी सहित": 5582,
      "स्पष्ट": 5583,
      "मरज": 5584,
      "आएंग": 5585,
      "न्यून": 5586,
      "41": 5587,
      "मारपीट": 5588,
      "वेल": 5589,
      " को यह": 5590,
      " नाबालिग": 5591,
      "िवारी ": 5592,
      " जिसक": 5593,
      "ट्रै": 5594,
      " ड्राइव": 5595,
      " वरिष्ठ": 5596,
      "ऐलान": 5597,
      "ना है कि": 5598,
      " पोल": 5599,
      " को श": 5600,
      " नारायण": 5601,
      "े हो": 5602,
      "देकर ": 5603,
      " इस मामले म": 5604,
      "िटाय": 5605,
      "ेबाज": 5606,
      " एसोसिएशन": 5607,
      " किलो ": 5608,
      "इंदौर": 5609,
      "ौजूद रह": 5610,
      "ीए": 5611,
      "ा कर ल": 5612,
      " नौ": 5613,
      " गृह": 5614,
      "पुत्र ": 5615,
      "त्न": 5616,
      "िटी ": 5617,
      " छत्तीस": 5618,
      "ाष्ट्र ": 5619,
      "ुधियान": 5620,
      "ार्मिक": 5621,
      "बावजूद": 5622,
      "ास्ता ": 5623,
      "तैनात": 5624,
      "बाक": 5625,
      "र की ": 5626,
      "िस्क": 5627,
      "ी को स": 5628,
      " साध": 5629,
      " बर": 5630,
      " दे ": 5631,
      "िताब": 5632,
      " ने यह": 5633,
      " आकर ": 5634,
      "प्रत्याश": 5635,
      "ी सीट": 5636,
      "र्टिफ": 5637,
      "संजय": 5638,
      "ी जाती ह": 5639,
      " छोड़": 5640,
      " व्यक्त": 5641,
      "कश्म": 5642,
      "बयान": 5643,
      "ल्याण": 5644,
      "ना द": 5645,
      "ाउंस": 5646,
      "गुजरात": 5647,
      " कर्मचारी ": 5648,
      "आदि": 5649,
      "ओल": 5650,
      "बीजेपी": 5651,
      "ीपुर": 5652,
      "ेर ": 5653,
      "ैर ": 5654,
      "ोण": 5655,
      "े लग": 5656,
      " के उप": 5657,
      " पर चर्च": 5658,
      "ी सीएम": 5659,
      "ार्द": 5660,
      "र दर्ज": 5661,
      " सुनील": 5662,
      "ेश्वर ": 5663,
      "हादसे म": 5664,
      "धमकी द": 5665,
      "टोल": 5666,
      "पियन": 5667,
      " दर्शन": 5668,
      "स्टेट": 5669,
      "पराधिक": 5670,
      "ी परीक्ष": 5671,
      " निर्म": 5672,
      " ऐसी ": 5673,
      "प्लेट": 5674,
      " न्यायालय": 5675,
      " क्लब": 5676,
      "े हुए ह": 5677,
      " पासवान": 5678,
      "भूषण": 5679,
      "स्लाम": 5680,
      " V": 5681,
      "250": 5682,
      "ी हम": 5683,
      "पहरण": 5684,
      "जनता ": 5685,
      " सीजन": 5686,
      " स्मार्ट": 5687,
      "नारायण": 5688,
      " का निरीक्षण": 5689,
      "निर्वाचन": 5690,
      "ैनल": 5691,
      " की ओर ": 5692,
      " से मार": 5693,
      "ra": 5694,
      "नाव": 5695,
      "बद": 5696,
      "ाशन": 5697,
      "ित किया गय": 5698,
      " के लिए र": 5699,
      " रहते ह": 5700,
      "स्थापित": 5701,
      "र ब्र": 5702,
      " जनवरी ": 5703,
      " कर्मिय": 5704,
      " हाईकोर्ट": 5705,
      "थल": 5706,
      "ना कर": 5707,
      "ैनी ": 5708,
      "ौड": 5709,
      " गोव": 5710,
      "्वत": 5711,
      "स्तक": 5712,
      " इलाके म": 5713,
      " सुप्रीम कोर्ट": 5714,
      "महिलाओं": 5715,
      "डिडेट": 5716,
      "56": 5717,
      "भविष्य": 5718,
      "हुई": 5719,
      " के उ": 5720,
      " आंदोलन": 5721,
      "ीं\n": 5722,
      " करने की म": 5723,
      "ट्रल": 5724,
      "इंस्ट": 5725,
      " क्लास": 5726,
      " दिवसीय": 5727,
      " पता चला कि": 5728,
      " कॉन्फ्र": 5729,
      "डिश": 5730,
      "रक्ष": 5731,
      "ीपुर ": 5732,
      " जवाब": 5733,
      " से भर": 5734,
      " आसपास": 5735,
      "लेक्टर": 5736,
      " उत्तर प्रदेश": 5737,
      " से ही ": 5738,
      " मानसून": 5739,
      " देश म": 5740,
      " सुनिश्चित": 5741,
      " सहित अन्य": 5742,
      " के भीत": 5743,
      "ro": 5744,
      "खाल": 5745,
      "गर क": 5746,
      "जर्स": 5747,
      "ी तरफ": 5748,
      "ियो ": 5749,
      " अदालत": 5750,
      "पुरुष": 5751,
      "इनकार": 5752,
      " ऑट": 5753,
      "सूचना पर ": 5754,
      "एप": 5755,
      "खराब": 5756,
      "ताओं": 5757,
      "निर": 5758,
      "रकार": 5759,
      "राष्ट्रपति": 5760,
      " प्रकार": 5761,
      "ाए गए ह": 5762,
      "ा है तो ": 5763,
      "क्रीन": 5764,
      " ऑपरेशन": 5765,
      "आजाद": 5766,
      " की टीम ने ": 5767,
      "ic": 5768,
      "il": 5769,
      "िर स": 5770,
      " मार": 5771,
      " प्ले": 5772,
      "ुरी तरह": 5773,
      " इंच": 5774,
      "ैठक म": 5775,
      "....": 5776,
      " किसी तरह": 5777,
      "ास्कर ": 5778,
      " इंटरव्य": 5779,
      "यागराज": 5780,
      "दूर": 5781,
      "सोशल मीडिया पर ": 5782,
      "आया थ": 5783,
      " कर्मचार": 5784,
      "श्विन": 5785,
      " गणेश": 5786,
      "इलेक्ट्र": 5787,
      "ने भी ": 5788,
      " बे": 5789,
      " बहन": 5790,
      "इस दिन": 5791,
      "ष्कर्म": 5792,
      "पूरी ": 5793,
      "गदीश": 5794,
      "अंब": 5795,
      "स-": 5796,
      "ा के बीच": 5797,
      "ा य": 5798,
      " मिम": 5799,
      "ारोब": 5800,
      " जाता ह": 5801,
      " जाती ह": 5802,
      " रास्त": 5803,
      "देह": 5804,
      " देने के लिए": 5805,
      "ी दिख": 5806,
      " हमार": 5807,
      " जनवर": 5808,
      " के प्रमुख": 5809,
      " निवासी ": 5810,
      " हो सकता ह": 5811,
      "जिस्ट्रेशन": 5812,
      "ेक्न": 5813,
      " ,": 5814,
      "वन म": 5815,
      " सत्य": 5816,
      " मोह": 5817,
      "नेक्शन": 5818,
      " व ": 5819,
      " लॉन्च": 5820,
      "ी मौत": 5821,
      "ाइवर": 5822,
      " लगाकर ": 5823,
      " कर रहा थ": 5824,
      "ाॅ": 5825,
      "ीने ": 5826,
      " की जान": 5827,
      "ा कर रह": 5828,
      "इसी क": 5829,
      " तुम": 5830,
      " ऑनलाइन": 5831,
      "ी आदित्य": 5832,
      "ुरुआत म": 5833,
      "डॉक्ट": 5834,
      "नाग": 5835,
      "पिक": 5836,
      "ीर म": 5837,
      "ैं।": 5838,
      "इस साल": 5839,
      " इसके बाद": 5840,
      " नेशनल": 5841,
      " किया जा सकता ह": 5842,
      "भीड़": 5843,
      " करते हुए कहा कि": 5844,
      "ाधिकरण": 5845,
      "वर्ष ": 5846,
      "िक्कत": 5847,
      " L": 5848,
      "85": 5849,
      "गो": 5850,
      "वाड़": 5851,
      "ी।": 5852,
      " मजबूत": 5853,
      "ानंद": 5854,
      " गंभी": 5855,
      "ेस दर्ज": 5856,
      " हो गए ह": 5857,
      "सार": 5858,
      "ा\"": 5859,
      "ी ने क": 5860,
      " बाहर ": 5861,
      "ित्त": 5862,
      " रहने वाल": 5863,
      "िपाह": 5864,
      " साल तक": 5865,
      " उपाध्यक्ष": 5866,
      "मौक": 5867,
      " के हाथ": 5868,
      "ाविद्यालय": 5869,
      "ैड": 5870,
      " सिक": 5871,
      " राव": 5872,
      " रिस": 5873,
      " से शुरू": 5874,
      " का ट": 5875,
      " खु": 5876,
      "ौरभ": 5877,
      "एसडीएम": 5878,
      "ा का आयोजन": 5879,
      " स्कूल म": 5880,
      " पकड़": 5881,
      " हेम": 5882,
      " बेहद": 5883,
      "मुश्किल": 5884,
      "जाति": 5885,
      " चुकी ह": 5886,
      "लोकसभा चुनाव म": 5887,
      "आने वाले ": 5888,
      "जाप": 5889,
      "नार": 5890,
      " के घर": 5891,
      "ी सूचना ": 5892,
      "एक बार ": 5893,
      " सहायक": 5894,
      " दिल्ली म": 5895,
      " की दुकान": 5896,
      "ing": 5897,
      "एडव": 5898,
      "भुगतान": 5899,
      "आखिर": 5900,
      "स्ब": 5901,
      " तेल": 5902,
      "पुष्टि": 5903,
      "दलीय": 5904,
      "ा को स": 5905,
      " हजार से ": 5906,
      " ओल": 5907,
      " ओवर म": 5908,
      " इंस्प": 5909,
      "तंकवाद": 5910,
      ", ए": 5911,
      "ऑस्ट्रेल": 5912,
      "छठ": 5913,
      "े के साथ": 5914,
      "ा रोड": 5915,
      "्रिकेट": 5916,
      " जु": 5917,
      " शक्ति": 5918,
      " खंड": 5919,
      "ak": 5920,
      "is": 5921,
      "एक्ट्रेस": 5922,
      "्लि": 5923,
      " सामान": 5924,
      " मंच": 5925,
      " दब": 5926,
      "पुन": 5927,
      " उसम": 5928,
      "ुमन": 5929,
      "ेरल": 5930,
      "िटल म": 5931,
      "िजनेस": 5932,
      "प्रतिम": 5933,
      "lec": 5934,
      "UP": 5935,
      "नाबालिग": 5936,
      "हायक": 5937,
      " का उपयोग": 5938,
      " कर दे": 5939,
      "स्तर पर ": 5940,
      "ाकत": 5941,
      "िपाठ": 5942,
      " बजट": 5943,
      "ी अभ": 5944,
      " जानिए": 5945,
      " बुधवार को ": 5946,
      " के अलावा ": 5947,
      "संख्यक": 5948,
      "-छात्र": 5949,
      "बीते ": 5950,
      "रग": 5951,
      " हॉस्पिटल": 5952,
      "ने यह": 5953,
      " कर ज": 5954,
      "राजेश": 5955,
      "ा की ज": 5956,
      "िमाचल": 5957,
      " की तुल": 5958,
      " श्रेण": 5959,
      "दिल्ली म": 5960,
      "इजर": 5961,
      "एएस": 5962,
      "सफर": 5963,
      " की वजह": 5964,
      " बूथ": 5965,
      " राकेश": 5966,
      " लीट": 5967,
      "ी काम": 5968,
      "रीश": 5969,
      "ा साह": 5970,
      " के दूसर": 5971,
      " को बुल": 5972,
      "पहली बार ": 5973,
      " सुनवाई": 5974,
      " परिषद": 5975,
      " संबंधित": 5976,
      "दाह": 5977,
      "ैदान": 5978,
      "ोले ": 5979,
      "ा पुलिस": 5980,
      " के संबंध म": 5981,
      " जिसकी ": 5982,
      "जयपुर ": 5983,
      " का कार्य": 5984,
      "वे पर ": 5985,
      "लाकार": 5986,
      " लोकसभा सीट": 5987,
      " पर बैठ": 5988,
      " अकाउंट": 5989,
      "51": 5990,
      "ीर्थ": 5991,
      "ी वि": 5992,
      "ा कुछ": 5993,
      " नोटिस": 5994,
      " की बेट": 5995,
      "भावना ": 5996,
      " को हट": 5997,
      "av": 5998,
      "ir": 5999,
      "हाज": 6000,
      " मोहम्मद": 6001,
      "ारक": 6002,
      " की इस": 6003,
      " लाइट": 6004,
      " भजन": 6005,
      "शनिवार ": 6006,
      "भाग्य": 6007,
      " कैद": 6008,
      " के मुताबिक,": 6009,
      " गुरुवार को ": 6010,
      " निर्धारित": 6011,
      "वसाय": 6012,
      " को सूचना द": 6013,
      "अंजाम": 6014,
      "कद": 6015,
      "छल": 6016,
      "जेड": 6017,
      "ा और क": 6018,
      "ा उठ": 6019,
      "लेव": 6020,
      " चुन": 6021,
      "कारात्मक": 6022,
      "सीआई": 6023,
      "श्रद्ध": 6024,
      "ा सकती ह": 6025,
      "्रम म": 6026,
      " का हिस्स": 6027,
      "चु": 6028,
      "जुट": 6029,
      "ताज": 6030,
      "तोड़": 6031,
      "रित": 6032,
      "्यूल": 6033,
      " और श": 6034,
      " पर रह": 6035,
      "ी बीच": 6036,
      " की सुबह": 6037,
      " पार्टी के ": 6038,
      " उम्मीदवार ": 6039,
      "बुधवार को ": 6040,
      " समारोह म": 6041,
      "आईआर दर्ज": 6042,
      "58": 6043,
      "झंड": 6044,
      "ोएड": 6045,
      "ा यह": 6046,
      "ायता ": 6047,
      " को इस": 6048,
      " को भेज": 6049,
      " गोपाल": 6050,
      " छात्र ": 6051,
      " कोर्ट ने ": 6052,
      "ी यादव": 6053,
      " मुकेश": 6054,
      " शुक्रवार को ": 6055,
      "चाई": 6056,
      "पत्र": 6057,
      "भजन": 6058,
      " पाय": 6059,
      " करवाई": 6060,
      " बनाने के लिए": 6061,
      " का कोई": 6062,
      "रवरी": 6063,
      " यूनिट": 6064,
      "देर शाम": 6065,
      "शुभारंभ": 6066,
      "ौके पर पह": 6067,
      "चव": 6068,
      "झूठ": 6069,
      "ूनी ": 6070,
      " कीमत": 6071,
      "्रेट": 6072,
      " पैद": 6073,
      " की उ": 6074,
      " रवि": 6075,
      " को पुलिस ने ": 6076,
      "पुष्प": 6077,
      "ड़ताल": 6078,
      " खड़": 6079,
      "आगे कह": 6080,
      " विशेषज्ञ": 6081,
      " प्रधानमंत्री नर": 6082,
      " करना होग": 6083,
      " गतिविधिय": 6084,
      "अजय": 6085,
      "टकर": 6086,
      "दी के ": 6087,
      "धुन": 6088,
      " के मुख्यमंत्र": 6089,
      " अट": 6090,
      "ी कीमत": 6091,
      " डेट": 6092,
      " घूम": 6093,
      "ी पद": 6094,
      " रुपए प्रति": 6095,
      "आरक्षण": 6096,
      " हो रहे ह": 6097,
      "ता का ": 6098,
      "ेस्क": 6099,
      "ौस": 6100,
      "ी देव": 6101,
      " सोच": 6102,
      " के विभिन्न": 6103,
      " बनी ": 6104,
      " दक्षिण": 6105,
      " उतर": 6106,
      " घर से ": 6107,
      "ा बेट": 6108,
      "तालाब": 6109,
      "ग्रेस नेता ": 6110,
      "हादसे": 6111,
      "िश्नोई": 6112,
      " पूछताछ": 6113,
      "द्धालु": 6114,
      "ऑपरेशन": 6115,
      "ग्वालिय": 6116,
      "ेफ": 6117,
      " गीत": 6118,
      " प्रेस": 6119,
      "विड": 6120,
      " फिर से ": 6121,
      "ा सहित": 6122,
      "ग्रस्त": 6123,
      "ेयर क": 6124,
      " पीड़ित": 6125,
      "पूछताछ म": 6126,
      "-च": 6127,
      "टीएम": 6128,
      "र्र": 6129,
      "रिया म": 6130,
      "ुर ": 6131,
      "ूज": 6132,
      " और च": 6133,
      "्तिक": 6134,
      "ी के खिलाफ": 6135,
      "मुझ": 6136,
      "राजस्व": 6137,
      "ारी से ": 6138,
      " कई बार ": 6139,
      "ृत घोषित": 6140,
      " की परीक्ष": 6141,
      "ार्केट": 6142,
      "ोखाध": 6143,
      "ंघन": 6144,
      " दोपहर ": 6145,
      "120": 6146,
      "टर ": 6147,
      "दक्षिण": 6148,
      "े।": 6149,
      "ियाल": 6150,
      "ियास": 6151,
      " प्रभारी ": 6152,
      " प्रशिक्षण": 6153,
      "ी बस": 6154,
      "ी बाइक": 6155,
      " जून को ": 6156,
      "भूमिक": 6157,
      "शोधन": 6158,
      "ये भी पढ": 6159,
      "-एक": 6160,
      "जग": 6161,
      "जलि": 6162,
      "धर ": 6163,
      "बीच": 6164,
      "वा दे": 6165,
      " साझ": 6166,
      "ा हाल": 6167,
      " अरव": 6168,
      " नीतीश": 6169,
      " भाव": 6170,
      " आदिवास": 6171,
      " चलेग": 6172,
      " देते ह": 6173,
      " बनाय": 6174,
      " को संबोधित": 6175,
      " जिसका ": 6176,
      "गुजर": 6177,
      "नीतीश": 6178,
      " न्यून": 6179,
      " स्पेशल": 6180,
      " शुक्ल": 6181,
      "वेदन": 6182,
      "ी हर": 6183,
      "प्राथमिक": 6184,
      " था कि": 6185,
      " इंट": 6186,
      " संविधान": 6187,
      "आरोपी ने ": 6188,
      "गिरफ्त": 6189,
      "ुरक्षित": 6190,
      " घंटे": 6191,
      "-बार ": 6192,
      " मंगलवार को ": 6193,
      "मंगलवार को ": 6194,
      " की मदद से ": 6195,
      "09": 6196,
      "इच्छ": 6197,
      "खत्म": 6198,
      "तान": 6199,
      "मोहन": 6200,
      "ी छ": 6201,
      "ले कुछ": 6202,
      "ी कुछ": 6203,
      " यान": 6204,
      "र्मचार": 6205,
      "ंबर म": 6206,
      "ाखंड": 6207,
      "ा करने का ": 6208,
      " तो उन्ह": 6209,
      " सुध": 6210,
      "गिरावट": 6211,
      "मिलनाड": 6212,
      " से कह": 6213,
      "्कुल": 6214,
      " बातचीत": 6215,
      "ता है और ": 6216,
      " पीछ": 6217,
      " अलर्ट": 6218,
      "हत्या कर द": 6219,
      "दावा किय": 6220,
      "ी आदित्यनाथ": 6221,
      "ई-": 6222,
      "ेठ": 6223,
      "ोहर": 6224,
      " के घर ": 6225,
      " जोन": 6226,
      " अयोध्य": 6227,
      "स्थापन": 6228,
      " दिन बाद": 6229,
      "ैसले": 6230,
      "आपक": 6231,
      "ी वजह": 6232,
      " की बात कर": 6233,
      "जुर्म": 6234,
      " सामाजिक": 6235,
      " संतोष": 6236,
      "AS": 6237,
      "अस": 6238,
      "रेप": 6239,
      "ृज": 6240,
      "ी और क": 6241,
      "र लग": 6242,
      " सिविल": 6243,
      " की सरकार ": 6244,
      " अफ्र": 6245,
      " से यह": 6246,
      " लेत": 6247,
      " का समय": 6248,
      " प्राइवेट": 6249,
      " देने का ": 6250,
      " करने की कोशिश": 6251,
      " News:": 6252,
      " कुशवाह": 6253,
      "PM": 6254,
      "वीर": 6255,
      "ा पर": 6256,
      " ने पुलिस": 6257,
      "ी का क": 6258,
      "ी से क": 6259,
      "जनक": 6260,
      "िटेन": 6261,
      " सरपंच": 6262,
      " निर्वाचन": 6263,
      " घंटे म": 6264,
      " ले ल": 6265,
      " रन बन": 6266,
      " घंटे तक": 6267,
      ") और ": 6268,
      "जी ": 6269,
      "न्व": 6270,
      "भंग": 6271,
      "मोबाइल": 6272,
      "ै और ": 6273,
      "ार\n": 6274,
      "ी हाल": 6275,
      "निपट": 6276,
      " परियोजन": 6277,
      "ी अमित": 6278,
      " l": 6279,
      " लिमिटेड": 6280,
      "ा किया गय": 6281,
      " का श": 6282,
      "ले से ": 6283,
      "लगभग": 6284,
      " लगे ": 6285,
      " के दो ": 6286,
      "ी थाना ": 6287,
      " किए गए।\n": 6288,
      " स्टेडियम": 6289,
      "दिन म": 6290,
      "रात म": 6291,
      "ायलट": 6292,
      "ी समस्य": 6293,
      " घंटे पहले": 6294,
      " बाजार म": 6295,
      " किलोमीटर ": 6296,
      "ोस्त": 6297,
      "ा रख": 6298,
      " प्रिय": 6299,
      " टिकट": 6300,
      "वार को ब": 6301,
      "मुस्लिम": 6302,
      "ाने पह": 6303,
      "बीएस": 6304,
      " लिए।\n": 6305,
      "ा सरकार ": 6306,
      "52": 6307,
      "57": 6308,
      "ओवर": 6309,
      "घुस": 6310,
      "धरी": 6311,
      "धी ने ": 6312,
      " की गिरफ्तार": 6313,
      " से निकल": 6314,
      " का पालन": 6315,
      " गहर": 6316,
      "ना ने ": 6317,
      " के साथ मिलकर ": 6318,
      "ा के खिलाफ": 6319,
      " दिया कि": 6320,
      "पिछले साल": 6321,
      " अधिनियम": 6322,
      " के अंतर्गत": 6323,
      "तदात": 6324,
      "सो": 6325,
      " मेडिकल": 6326,
      "ा मु": 6327,
      " फरवरी": 6328,
      "िरस": 6329,
      " धार्मिक": 6330,
      " को बच": 6331,
      "वार शाम": 6332,
      "िनिधिय": 6333,
      "तिहासिक": 6334,
      " मोहन यादव": 6335,
      "करीब ": 6336,
      ") ": 6337,
      "01": 6338,
      "उत्तर प्रदेश": 6339,
      "भवन": 6340,
      "ृप": 6341,
      "े कोई": 6342,
      " पैसे ": 6343,
      "ंगल म": 6344,
      "अनुप": 6345,
      "त्तम": 6346,
      "शिकायत म": 6347,
      " हो गया थ": 6348,
      " करना चाहिए।\n": 6349,
      "ल्लंघन": 6350,
      " ध्यान": 6351,
      "आ रही ह": 6352,
      "दह": 6353,
      "निशान": 6354,
      "ी इस": 6355,
      " ही ह": 6356,
      " दुनिय": 6357,
      "्वल": 6358,
      "िसाइल": 6359,
      " टाइम": 6360,
      " इलेक्ट्र": 6361,
      "िटाई": 6362,
      " कर दी ह": 6363,
      "दूषण": 6364,
      " की तैयार": 6365,
      "ने से पहले ": 6366,
      "ाकिस्त": 6367,
      " पर कार्रवाई": 6368,
      "ND": 6369,
      "जारी क": 6370,
      "नय": 6371,
      "रिस": 6372,
      " आठ": 6373,
      " तत्काल": 6374,
      "हमार": 6375,
      " मुझ": 6376,
      "र्सन": 6377,
      " निदेशक": 6378,
      "ी विक": 6379,
      "ी समाज": 6380,
      " आएग": 6381,
      "रुद्ध": 6382,
      "दालत म": 6383,
      " इस्तेमाल": 6384,
      " लिस्ट": 6385,
      "ंचल": 6386,
      "अज्ञात": 6387,
      "आर्थिक": 6388,
      "च के लिए": 6389,
      "ू ने ": 6390,
      "े को": 6391,
      " तोड़": 6392,
      "प्रव": 6393,
      "प्रभाव": 6394,
      " प्रथम": 6395,
      "ीरिक": 6396,
      " उपचार": 6397,
      " आई।\n": 6398,
      "ल्पसंख्यक": 6399,
      " की जरूरत": 6400,
      "आरोप लगाया कि": 6401,
      "ac": 6402,
      "दीव": 6403,
      "िस्प": 6404,
      " सक्रिय": 6405,
      "िलक": 6406,
      "ाग्राम": 6407,
      " फायर": 6408,
      "राज स": 6409,
      " को स्व": 6410,
      "ुसार ": 6411,
      "मरे म": 6412,
      " मानव": 6413,
      " O": 6414,
      ", एक": 6415,
      "अर": 6416,
      "फार्म": 6417,
      "़ी,": 6418,
      "ाना म": 6419,
      " प्रचार": 6420,
      "त्थ": 6421,
      "्वान": 6422,
      "ापू": 6423,
      "देखने को मिल": 6424,
      "गलुरु": 6425,
      " पर काम": 6426,
      "बेटे ": 6427,
      "ीनियर ": 6428,
      " मुकाब": 6429,
      " सामग्र": 6430,
      "ौकरी": 6431,
      "जैस": 6432,
      "नियम": 6433,
      " मकान": 6434,
      " हेल": 6435,
      "्यार": 6436,
      " रिज": 6437,
      " भविष्य": 6438,
      " आउट": 6439,
      " प्रेर": 6440,
      " होने लग": 6441,
      " विमान": 6442,
      " महीन": 6443,
      " को पकड़": 6444,
      " स्टेट": 6445,
      " को कब्जे म": 6446,
      "आइए": 6447,
      "्मेलन": 6448,
      "खु": 6449,
      "घूम": 6450,
      "द केजरीवाल": 6451,
      "यर ": 6452,
      "ा का प": 6453,
      " दिया ": 6454,
      " से फ": 6455,
      " से चल": 6456,
      " और ड": 6457,
      "ध्यान म": 6458,
      " संयुक्त": 6459,
      "ी की थ": 6460,
      " परम": 6461,
      "ी नगर ": 6462,
      "तीन दिन": 6463,
      "श्विक": 6464,
      "रसाइकिल": 6465,
      " की हालत": 6466,
      " बाह": 6467,
      " बुजुर्ग": 6468,
      " रमेश": 6469,
      "रोम": 6470,
      " टैक्स": 6471,
      " संख्या ": 6472,
      "क्सर ": 6473,
      "ना ही नह": 6474,
      "सकते ह": 6475,
      "ाध्याय": 6476,
      "ी हुई।\n": 6477,
      "शहीद": 6478,
      " डॉक्ट": 6479,
      "टीआई": 6480,
      "ा समय": 6481,
      "ॉस्पिटल म": 6482,
      "ृष्टि": 6483,
      "के": 6484,
      "च कर": 6485,
      "़ै": 6486,
      " पोर्ट": 6487,
      " पश्चिम": 6488,
      " दी थ": 6489,
      " तिवार": 6490,
      " शरी": 6491,
      " प्रमाण": 6492,
      " चार्ज": 6493,
      "घटनास्थ": 6494,
      " के समीप": 6495,
      " अफसर": 6496,
      "वीर स": 6497,
      "67": 6498,
      "गाड़": 6499,
      "थुर": 6500,
      "बना ": 6501,
      "साह": 6502,
      " बाध": 6503,
      " किशन": 6504,
      " फिलहाल": 6505,
      "धिकारिक": 6506,
      "मान्य": 6507,
      "अमृत": 6508,
      " पीएम मोद": 6509,
      "ऊंच": 6510,
      "गुल": 6511,
      "चेहर": 6512,
      "नश": 6513,
      "बोर्ड": 6514,
      "साइ": 6515,
      " करोड": 6516,
      "विद्यार्थिय": 6517,
      "ाए रख": 6518,
      "ा की गई।\n": 6519,
      "एसडी": 6520,
      " करने के निर्देश": 6521,
      "ाण प्रतिष्ठ": 6522,
      " राजीव": 6523,
      " राजनीति": 6524,
      " हमारी ": 6525,
      " श्रीवास्तव": 6526,
      " गुर्ज": 6527,
      "ेश्वर": 6528,
      "मामले की ज": 6529,
      "ुदायिक": 6530,
      " से मारने की ": 6531,
      "बॉल": 6532,
      "लोच": 6533,
      "शक्ति": 6534,
      "ने इस": 6535,
      " जेल म": 6536,
      "िलास": 6537,
      "र्मद": 6538,
      " देग": 6539,
      " निर्णय": 6540,
      "सुख": 6541,
      "विधानसभ": 6542,
      "इंदौर म": 6543,
      "ा हो गय": 6544,
      "बिहार": 6545,
      "रदस्त": 6546,
      " का संचालन": 6547,
      "06": 6548,
      "आसान": 6549,
      "चले ": 6550,
      "चेग": 6551,
      "बद्ध": 6552,
      "ह ने कहा कि": 6553,
      "िष्ट": 6554,
      " माध": 6555,
      " पढ़": 6556,
      " बुक": 6557,
      " रेट": 6558,
      " गुल": 6559,
      "ी बड": 6560,
      "ी के रूप म": 6561,
      " हमल": 6562,
      "जिसक": 6563,
      "अपनी म": 6564,
      " राहत": 6565,
      "ग्लादेश म": 6566,
      "78": 6567,
      "IP": 6568,
      "हस": 6569,
      " हॉ": 6570,
      "ायर ": 6571,
      "इसको लेकर ": 6572,
      " नीति": 6573,
      "ात म": 6574,
      "ुलूस": 6575,
      " घट": 6576,
      " कर रहे ": 6577,
      "आएग": 6578,
      "ाध्यमिक": 6579,
      " चुका ह": 6580,
      " किए जाएंग": 6581,
      "ूहिक": 6582,
      " संदीप": 6583,
      "्षेत्र से ": 6584,
      "ऐप": 6585,
      "रेख": 6586,
      "विवाह": 6587,
      " किनारे ": 6588,
      "ा राम": 6589,
      " अरब": 6590,
      " अरुण": 6591,
      " लेन": 6592,
      " का ल": 6593,
      " नाल": 6594,
      " और उन्ह": 6595,
      " चुनौत": 6596,
      "ुनिया म": 6597,
      "ी बच्च": 6598,
      "ुकान म": 6599,
      "ने का काम": 6600,
      "जिसकी ": 6601,
      "सदर ": 6602,
      " सुधार": 6603,
      "बरेल": 6604,
      " मैच म": 6605,
      "and": 6606,
      "प्पू": 6607,
      "ग्ज": 6608,
      " जारी किया ह": 6609,
      "गिर ": 6610,
      "द म": 6611,
      "दाद": 6612,
      "वेज": 6613,
      "ुच": 6614,
      " राश": 6615,
      " दह": 6616,
      " दिव्य": 6617,
      " को निर्देश": 6618,
      " वृद्धि": 6619,
      " प्रोफेस": 6620,
      "ाप्ति": 6621,
      "निष्": 6622,
      "पुर,": 6623,
      "आयुक्त": 6624,
      "ट्रैक": 6625,
      " आया ह": 6626,
      " की कार्रवाई": 6627,
      "ी होती ह": 6628,
      " की चपेट म": 6629,
      "टक्कर ": 6630,
      " इसके लिए": 6631,
      " शनिवार को ": 6632,
      "ियंत्रित": 6633,
      "ेस्क्यू": 6634,
      "AP": 6635,
      "ऑल": 6636,
      "फै": 6637,
      "ा स्थित": 6638,
      " की ट": 6639,
      " लड़क": 6640,
      " करण": 6641,
      "ाए थ": 6642,
      " फर्ज": 6643,
      "ाफ़": 6644,
      "िएंट": 6645,
      "ा द्वार": 6646,
      " पूजन": 6647,
      "ॉन्ड": 6648,
      "आए ह": 6649,
      " मार्क": 6650,
      "बिहार ": 6651,
      "आशंक": 6652,
      "क ": 6653,
      "यानी ": 6654,
      "सूर": 6655,
      "ने ब": 6656,
      " जैसी ": 6657,
      " एयरपोर्ट": 6658,
      "्लान": 6659,
      " घोटाल": 6660,
      " धर": 6661,
      "पुर ग": 6662,
      " विभाग ने ": 6663,
      "ैकड": 6664,
      "होकर ": 6665,
      "िप्टी सीएम": 6666,
      "कलेक्टर ": 6667,
      "पकड़": 6668,
      "म म": 6669,
      "सड़क": 6670,
      "ी ले": 6671,
      " के ए": 6672,
      " के चुनाव": 6673,
      " दूर": 6674,
      " अंद": 6675,
      "ाता थ": 6676,
      "िया से ": 6677,
      "तिश": 6678,
      "ार्च": 6679,
      " पहन": 6680,
      " कार्यकर्त": 6681,
      "ने की संभावना ह": 6682,
      " श्रीराम": 6683,
      "िस्टल": 6684,
      " मैदान म": 6685,
      "सुनवाई": 6686,
      "lection": 6687,
      "ंव": 6688,
      "अशोक": 6689,
      "उतार": 6690,
      "कान म": 6691,
      "ताकि": 6692,
      "ती रह": 6693,
      "लाक": 6694,
      " कश्म": 6695,
      " पंप": 6696,
      " हार": 6697,
      " अतिरिक्त": 6698,
      "े हाथ": 6699,
      "निगरान": 6700,
      " तकनीक": 6701,
      " परिस": 6702,
      "ात्रा म": 6703,
      "ोरदार ": 6704,
      "ीलाल": 6705,
      "ी फुटेज": 6706,
      " जानकारी द": 6707,
      "इतना ": 6708,
      " की तुलना म": 6709,
      "02": 6710,
      "अतिरिक्त": 6711,
      "चेन": 6712,
      "े करीब": 6713,
      " सख्त": 6714,
      "ने पह": 6715,
      " रक्ष": 6716,
      " अर्पित": 6717,
      " लिया थ": 6718,
      " लखनऊ": 6719,
      " आते ह": 6720,
      "पुत्र": 6721,
      " प्रदीप": 6722,
      "भी नह": 6723,
      "ंगन": 6724,
      "र्मचारी ": 6725,
      "ंबुल": 6726,
      " संस्कार": 6727,
      " उससे ": 6728,
      "जयपुर म": 6729,
      "पूरा ": 6730,
      " कुछ लोग": 6731,
      "निर्धारित": 6732,
      " स्तरीय": 6733,
      " बिहार": 6734,
      "यूनिवर्सिट": 6735,
      "72": 6736,
      "कोल": 6737,
      "गुप्त": 6738,
      "छापेम": 6739,
      "जोध": 6740,
      "रेड": 6741,
      "ुण": 6742,
      " सर्विस": 6743,
      "िल्ड": 6744,
      " दी गई ह": 6745,
      " से हर": 6746,
      "सी से ": 6747,
      "आईएम": 6748,
      " किया जाए।\n": 6749,
      "श्रद्धालुओं": 6750,
      "196": 6751,
      "कोई": 6752,
      " बादल": 6753,
      "डीजल": 6754,
      "खोल": 6755,
      "गृह": 6756,
      "डन": 6757,
      "मंदिर": 6758,
      "ह और ": 6759,
      "ा ने कह": 6760,
      " मर": 6761,
      "्राइम": 6762,
      " पल": 6763,
      "इसी बीच": 6764,
      "ा जा सक": 6765,
      " की महिल": 6766,
      "ा पद": 6767,
      "ोबल": 6768,
      "िहार ": 6769,
      "ी समेत": 6770,
      " दुब": 6771,
      "चक": 6772,
      "ज ": 6773,
      "मेट": 6774,
      " सेम": 6775,
      " के ऊपर ": 6776,
      "प्रदान": 6777,
      "उनको ": 6778,
      "िवाल": 6779,
      "िवार्य": 6780,
      "ुल्ह": 6781,
      " किया तो ": 6782,
      "त्योह": 6783,
      "राज्यपाल": 6784,
      " कैप": 6785,
      " के अनुसार": 6786,
      "युवाओं": 6787,
      " मई को ": 6788,
      "राजस्थान म": 6789,
      " एडव": 6790,
      " गोयल": 6791,
      " धान": 6792,
      "कू": 6793,
      "खड़": 6794,
      "च के बाद": 6795,
      "टेन": 6796,
      "तहसील": 6797,
      "मोह": 6798,
      "युद्ध": 6799,
      "राशि": 6800,
      "ी को प": 6801,
      " पकड": 6802,
      " पेपर ": 6803,
      "ने आ": 6804,
      "ार पर ": 6805,
      "पुण": 6806,
      "िवेद": 6807,
      "ा थाना क्षेत्र": 6808,
      " मिले ह": 6809,
      " ट्रंप": 6810,
      "ंगलवार को ": 6811,
      "ा प्रत्याश": 6812,
      " पदक": 6813,
      " पदाधिकारी ": 6814,
      " कार्रवाई की जाएग": 6815,
      " BJP": 6816,
      " मुहूर्त": 6817,
      "ed": 6818,
      "et": 6819,
      "गोव": 6820,
      "टर म": 6821,
      "था ": 6822,
      " कड": 6823,
      " के\n": 6824,
      "ा कारण": 6825,
      " दव": 6826,
      " तभी ": 6827,
      "ाईकोर्ट": 6828,
      "ी के कारण": 6829,
      " उतार": 6830,
      " महत्व": 6831,
      "संसद": 6832,
      "लाठ": 6833,
      "एनडीए": 6834,
      " ओवर": 6835,
      "िफिकेशन": 6836,
      " ठंड": 6837,
      " सितंबर ": 6838,
      " कारोब": 6839,
      "जिन्ह": 6840,
      " मामले की ज": 6841,
      " अमृत": 6842,
      " के बेटे ": 6843,
      "om": 6844,
      "ये क": 6845,
      "हुत": 6846,
      " सोल": 6847,
      " गैस": 6848,
      " रहता ह": 6849,
      "स्टाफ": 6850,
      "सीए": 6851,
      "र्वेद": 6852,
      "गिरफ्तार ": 6853,
      "आजम": 6854,
      "उम्मीद ह": 6855,
      "गणेश": 6856,
      "ी अस्पताल म": 6857,
      "IM": 6858,
      "अपील": 6859,
      "पोल": 6860,
      "वाण": 6861,
      "ुज": 6862,
      " कलेक्टर ": 6863,
      " ने फ": 6864,
      " त्य": 6865,
      "कर ब": 6866,
      " चतु": 6867,
      "ग्राउंड": 6868,
      "ंजू": 6869,
      "भीषण": 6870,
      "िया जाता ह": 6871,
      " भीषण": 6872,
      "ha ": 6873,
      "गोपाल": 6874,
      "जून": 6875,
      "पैसे ": 6876,
      "मंडल": 6877,
      "ह चौहान": 6878,
      "ी लोग": 6879,
      "ा राज": 6880,
      " मीडिया ": 6881,
      " के निर्माण": 6882,
      "ां-": 6883,
      "ा हम": 6884,
      " दिया जाएग": 6885,
      "ायंस": 6886,
      " आर्य": 6887,
      " प्रत्येक": 6888,
      "ाकरण": 6889,
      "वार को क": 6890,
      "हरू": 6891,
      " उनम": 6892,
      " आपक": 6893,
      " से मुलाकात": 6894,
      "विरोध म": 6895,
      " दिसंबर ": 6896,
      " के करीब": 6897,
      "िग्गज": 6898,
      " किराए": 6899,
      "इंजीनिय": 6900,
      "काय": 6901,
      "चंडी": 6902,
      "तार ": 6903,
      "पानी ": 6904,
      " हनुमान": 6905,
      " की वारदात": 6906,
      " भारी ": 6907,
      "ोग्राफ": 6908,
      " प्रखंड": 6909,
      " यूप": 6910,
      "ले पर ": 6911,
      "स्त्र": 6912,
      " इस बात": 6913,
      "स्वीर ": 6914,
      " गिरावट": 6915,
      "ाउंसिल": 6916,
      "59": 6917,
      "गी म": 6918,
      "ामाजिक": 6919,
      " नक्सल": 6920,
      "तिग्रस्त": 6921,
      "ा किए": 6922,
      " विष्णु": 6923,
      "सी ने ": 6924,
      "ीलंक": 6925,
      " \"म": 6926,
      "्यूब": 6927,
      "िफल": 6928,
      " सामने आय": 6929,
      "सहयोग": 6930,
      " पत्नी ": 6931,
      "्योरिट": 6932,
      "उर्फ": 6933,
      "बुक": 6934,
      "बरामद": 6935,
      "भीत": 6936,
      " जोड": 6937,
      " नियुक्त": 6938,
      " नौकर": 6939,
      " भी कर": 6940,
      " आने वाल": 6941,
      "ी कुम": 6942,
      " ये ह": 6943,
      "र के क": 6944,
      "मुक्त": 6945,
      "जयपुर": 6946,
      " विशाल": 6947,
      "यूपी": 6948,
      "से कम": 6949,
      "ाउंडेशन": 6950,
      "प्रताप": 6951,
      " शनिवार ": 6952,
      " की सूचना मिल": 6953,
      "तलब है कि": 6954,
      "तुम": 6955,
      "शक्त": 6956,
      " की": 6957,
      "ी टीम": 6958,
      "ा ए": 6959,
      " की पत्नी ": 6960,
      "ी मोद": 6961,
      "ना पड": 6962,
      "र्मिय": 6963,
      "ुए ह": 6964,
      " निरीक्षक": 6965,
      "त्ता म": 6966,
      "िहार": 6967,
      "पत्थ": 6968,
      " इंडिय": 6969,
      " सबसे ज्याद": 6970,
      "पलट": 6971,
      "शुक्ल": 6972,
      " वारदात": 6973,
      " दे रहे ह": 6974,
      "ाष्ट्र म": 6975,
      "SC": 6976,
      "चेक": 6977,
      "लक्ष्म": 6978,
      "ेक्स": 6979,
      " जोश": 6980,
      "विम": 6981,
      " ड्यूट": 6982,
      " की मह": 6983,
      " इन्ह": 6984,
      " बच्चन": 6985,
      "ा होता ह": 6986,
      " जुलाई को ": 6987,
      "साधन": 6988,
      "07": 6989,
      "MP": 6990,
      "थित": 6991,
      "नागरिक": 6992,
      "फायद": 6993,
      "बारे म": 6994,
      "यान म": 6995,
      "ह्वान": 6996,
      " पत": 6997,
      " रज": 6998,
      "एक युवक": 6999,
      " खतर": 7000,
      " विस्त": 7001,
      " बनाने": 7002,
      "वितरण": 7003,
      "ाने की कोशिश": 7004,
      " परिवर्तन": 7005,
      " का गठन": 7006,
      "ेक्नोलॉज": 7007,
      "ठिन": 7008,
      "फ़": 7009,
      "रूम": 7010,
      "सहित": 7011,
      " जत": 7012,
      "िलीव": 7013,
      " दान": 7014,
      " का यह": 7015,
      "ाकर": 7016,
      " ट्रै": 7017,
      "विकसित": 7018,
      " की राशि": 7019,
      " बाद म": 7020,
      " देता ह": 7021,
      " ब्लॉक": 7022,
      "प्रीत स": 7023,
      "ं.\n": 7024,
      "डिट": 7025,
      "दैनिक भ": 7026,
      "वर्तमान म": 7027,
      "ी ने": 7028,
      " साबित": 7029,
      " प्लेट": 7030,
      "र्भ": 7031,
      "र्स्ट": 7032,
      "ामक": 7033,
      "्ट्र": 7034,
      " होल": 7035,
      " संजीव": 7036,
      "ोकेट": 7037,
      " किया जा सक": 7038,
      " के नीचे ": 7039,
      "लिखित": 7040,
      " पदार्थ": 7041,
      "इस बारे म": 7042,
      "इतना ही नह": 7043,
      "सभा क्षेत्र": 7044,
      "54": 7045,
      "66": 7046,
      "जट": 7047,
      "टू": 7048,
      "दी म": 7049,
      "दिए": 7050,
      "लल": 7051,
      " मास": 7052,
      " मुन": 7053,
      " पकड़": 7054,
      "ो और ": 7055,
      " जाए": 7056,
      " जाने": 7057,
      " रेफर": 7058,
      " और उसके ": 7059,
      "ंदेश": 7060,
      "समारोह": 7061,
      "ाफी ": 7062,
      " संचालित": 7063,
      "संयुक्त": 7064,
      " के मुकाब": 7065,
      "श्री": 7066,
      "म्मू": 7067,
      "जिला क": 7068,
      "ृतीय": 7069,
      "आग लग": 7070,
      " ईरान": 7071,
      " हो चुका ह": 7072,
      "मिलनाडु": 7073,
      "ये म": 7074,
      "ीकार": 7075,
      "ा छ": 7076,
      " के विकास": 7077,
      " वसूल": 7078,
      "इस फिल्म": 7079,
      "ना नह": 7080,
      "िश्वत": 7081,
      "द्र सरकार": 7082,
      "बीर स": 7083,
      " इंस्ट": 7084,
      "re": 7085,
      "आनंद": 7086,
      "इज": 7087,
      "खिय": 7088,
      "ग को लेकर ": 7089,
      "ुअल": 7090,
      "ौच": 7091,
      "ारम": 7092,
      " वाय": 7093,
      " प्रश": 7094,
      " फै": 7095,
      "परिसर म": 7096,
      " डीज": 7097,
      "ी थी कि": 7098,
      "ाट कोहल": 7099,
      "ा करते ह": 7100,
      "दूर ": 7101,
      " द्वारा स": 7102,
      "प्रदेश अध्यक्ष": 7103,
      " नवीन": 7104,
      "प्रतिपक्ष": 7105,
      " पर सवार ": 7106,
      "ृत्यु": 7107,
      "िथि": 7108,
      "उज्जैन": 7109,
      "ग के लिए": 7110,
      "चुर": 7111,
      "ी को ब": 7112,
      "ोले": 7113,
      " बीते ": 7114,
      " जाट": 7115,
      " वीर": 7116,
      " व अन्य": 7117,
      " से छ": 7118,
      " कोहर": 7119,
      "ी क्षेत्र म": 7120,
      " के सहयोग": 7121,
      "ुनील": 7122,
      " विद्यार्थिय": 7123,
      " शामिल थ": 7124,
      " भाजपा के ": 7125,
      " अगस्त ": 7126,
      "ॉक्स ऑफिस": 7127,
      "अंक": 7128,
      "मगर ": 7129,
      " कैस": 7130,
      " बरस": 7131,
      "ी क्य": 7132,
      " उड": 7133,
      "ा को अंजाम": 7134,
      " के प्रत": 7135,
      " के प्रदेश": 7136,
      "यूक्रेन": 7137,
      " आए।\n": 7138,
      "ॉपर्ट": 7139,
      "र्पण": 7140,
      " ज्ञान": 7141,
      "आत्म": 7142,
      "केत": 7143,
      "कंपन": 7144,
      "मार्ग": 7145,
      "वा म": 7146,
      "शास्त्र": 7147,
      "िरोज": 7148,
      " कप्तान": 7149,
      "ायसवाल": 7150,
      "क्व": 7151,
      " को लग": 7152,
      " गिर ": 7153,
      "ाइगर ": 7154,
      "्मण": 7155,
      " डिप": 7156,
      "ा दिल": 7157,
      "ीडी": 7158,
      "त्रिक": 7159,
      " से हुई": 7160,
      "िया जा रहा ह": 7161,
      "ेहोश": 7162,
      "विधानसभा ": 7163,
      " पर बात": 7164,
      "सूत्र": 7165,
      " संघर्ष": 7166,
      " से बातचीत": 7167,
      "ना था कि": 7168,
      " महासचिव": 7169,
      " J": 7170,
      "पटन": 7171,
      "ेष्ठ": 7172,
      " हेड": 7173,
      "ियार": 7174,
      " ज्योति": 7175,
      "ी कॉलेज": 7176,
      "ंदीप": 7177,
      "ाफी म": 7178,
      "ी की ओर से ": 7179,
      " तो यह": 7180,
      "न्यवाद": 7181,
      "स्कूल म": 7182,
      " भी कह": 7183,
      " की संख्या म": 7184,
      " अगस्त को ": 7185,
      " सुरक्षित": 7186,
      " रोशन": 7187,
      " मुकदमा दर्ज": 7188,
      " H": 7189,
      "ध्व": 7190,
      "पश्चिम": 7191,
      "ु,": 7192,
      " बाग": 7193,
      " दोष": 7194,
      "ैं-": 7195,
      "इस कारण": 7196,
      "इस वजह": 7197,
      " का इलाज": 7198,
      " का रहने वाल": 7199,
      " आर्थिक": 7200,
      " कर दिए": 7201,
      "छत्तीसगढ़": 7202,
      "नौ": 7203,
      "याल": 7204,
      "रैल": 7205,
      " कंट्रोल": 7206,
      " बम": 7207,
      " बेहत": 7208,
      " बॉलीवुड": 7209,
      " रूस": 7210,
      " रिश्त": 7211,
      " से पूछताछ": 7212,
      "ैं\n": 7213,
      " को कम": 7214,
      "क्ष म": 7215,
      "विज": 7216,
      "ी सेव": 7217,
      "ी बोल": 7218,
      "वार को प": 7219,
      "ंध्र ": 7220,
      "ंचालक": 7221,
      "विशाल": 7222,
      "वन विभाग": 7223,
      "अस्पताल पह": 7224,
      "उम्र ": 7225,
      "ार्दिक": 7226,
      " v": 7227,
      "ा चल": 7228,
      " को लेकर": 7229,
      " न्यू": 7230,
      " आश": 7231,
      "ी कई": 7232,
      "परेट": 7233,
      "्लाह": 7234,
      " समाप्त": 7235,
      "एमएस": 7236,
      " राजपूत": 7237,
      "हालात": 7238,
      " चल रह": 7239,
      "बच्चे ": 7240,
      "ी महाराज": 7241,
      "जिला प्रशासन": 7242,
      " मिनट तक": 7243,
      " रविवार को ": 7244,
      " जाति": 7245,
      " स्वास्थ्य क": 7246,
      "ची पुलिस ने ": 7247,
      " U": 7248,
      "-दूसर": 7249,
      "ंक्शन": 7250,
      "मो": 7251,
      "वर्न": 7252,
      "ृथ": 7253,
      " बैट": 7254,
      " गौरव": 7255,
      " तिवारी ": 7256,
      "ाह्मण": 7257,
      " थी कि": 7258,
      "ग्रेस पार्ट": 7259,
      " कुमार और ": 7260,
      "र्थन म": 7261,
      "िगेड": 7262,
      " सीसीटीव": 7263,
      " विकसित": 7264,
      " कैब": 7265,
      "एसपी ": 7266,
      " अभियान चल": 7267,
      "नई दिल्ल": 7268,
      "ok": 7269,
      "नुकसान": 7270,
      "साफ": 7271,
      "ेक्ष": 7272,
      " का खुलास": 7273,
      " गार्ड": 7274,
      " गरीब": 7275,
      "पीएफ": 7276,
      "ाकर क": 7277,
      "ी जिस": 7278,
      " छापेम": 7279,
      " चल रही ह": 7280,
      "195": 7281,
      " से कुछ": 7282,
      " बच्चे ": 7283,
      " आरक्षण": 7284,
      "ा देकर ": 7285,
      "बिहार म": 7286,
      " संदिग्ध": 7287,
      " वितरण": 7288,
      " किशोर": 7289,
      "भोक्त": 7290,
      "ृत घोषित कर दिय": 7291,
      "अदालत": 7292,
      "ज म": 7293,
      "नोटिस": 7294,
      "शंकर ": 7295,
      "र पर": 7296,
      " सर्क": 7297,
      " दस्तावेज": 7298,
      " अंड": 7299,
      " का मान": 7300,
      " को ही ": 7301,
      " आने के बाद": 7302,
      "प्रखंड": 7303,
      "ाइंट": 7304,
      " फसल": 7305,
      "ा साध": 7306,
      " समूह": 7307,
      "की से ": 7308,
      " संपत्ति": 7309,
      "एसोसिएशन": 7310,
      "पुराने ": 7311,
      "ुआ।\n": 7312,
      " यादव ने ": 7313,
      "दीपक": 7314,
      " नमः": 7315,
      "03": 7316,
      "04": 7317,
      "टीक": 7318,
      "टॉप": 7319,
      "सिविल": 7320,
      "े कर": 7321,
      "ोर क": 7322,
      "ी रोड": 7323,
      " कोर्स": 7324,
      " आखिर": 7325,
      " उसी ": 7326,
      "लगाकर ": 7327,
      " एक व्यक्ति": 7328,
      " संभाल": 7329,
      "ा करने": 7330,
      " नवंबर ": 7331,
      " विधानसभ": 7332,
      "जाने वाले ": 7333,
      " लंबे समय": 7334,
      " वर्ल्ड कप": 7335,
      "ED": 7336,
      "hi": 7337,
      "ul": 7338,
      "झाव": 7339,
      "भार": 7340,
      "भर्त": 7341,
      "वकील": 7342,
      " सफ": 7343,
      " गाय": 7344,
      "ाजन": 7345,
      "ाजिय": 7346,
      "े के क": 7347,
      "ुआ थ": 7348,
      "महत्वपूर्ण": 7349,
      "ार मिल": 7350,
      "लोकसभा सीट": 7351,
      "ृतिक": 7352,
      "आवज": 7353,
      "ी शराब": 7354,
      "नीष": 7355,
      " तेजी से ": 7356,
      " मीटर ": 7357,
      " की समीक्ष": 7358,
      "ुकाबल": 7359,
      "फरार हो गए।\n": 7360,
      "दाहरण": 7361,
      "ash": 7362,
      "घर ज": 7363,
      "च गई।\n": 7364,
      "बीत": 7365,
      "रुक": 7366,
      "लील": 7367,
      "्ब": 7368,
      " मूव": 7369,
      " पुन": 7370,
      " जाल": 7371,
      " का पहल": 7372,
      " का विरोध": 7373,
      "ितिन": 7374,
      " गाड़": 7375,
      " शास्त्र": 7376,
      " कहा था कि": 7377,
      "ा समित": 7378,
      " होम": 7379,
      " महंग": 7380,
      " लगभग": 7381,
      "ा दिन": 7382,
      "पुर-": 7383,
      "पुर और ": 7384,
      "देखकर ": 7385,
      " ठेक": 7386,
      " के समक्ष": 7387,
      " की लागत": 7388,
      "ना चाहते ह": 7389,
      "न्ह": 7390,
      "िद्द": 7391,
      "ुब": 7392,
      "ोपड": 7393,
      " पंडित": 7394,
      "ने अपनी ": 7395,
      "ाजार म": 7396,
      " तारीख": 7397,
      "ाए गए।\n": 7398,
      "निधन": 7399,
      "ीतल": 7400,
      "सीध": 7401,
      "संस्थ": 7402,
      "ा दिया ह": 7403,
      " कार्यकर्ता ": 7404,
      " शामिल हुए।\n": 7405,
      "अनुसार,": 7406,
      "वीडियो म": 7407,
      "स्मार्ट": 7408,
      " सलमान": 7409,
      "खून": 7410,
      "डायर": 7411,
      "रक": 7412,
      " सूच": 7413,
      " की फिल्म": 7414,
      " गड": 7415,
      " गौतम": 7416,
      " आसान": 7417,
      " तिर": 7418,
      "ंगना ": 7419,
      "अपने साथ": 7420,
      " को पकड़": 7421,
      "र्थव्यवस्थ": 7422,
      "कालीन": 7423,
      "ी संघ": 7424,
      " बताते ह": 7425,
      " रविवार ": 7426,
      " बिहार ": 7427,
      "सूर्य": 7428,
      "संगठन": 7429,
      "र्टिफिकेट": 7430,
      "ap": 7431,
      "मुन": 7432,
      "रज": 7433,
      "वेद": 7434,
      "षभ": 7435,
      "े?\n": 7436,
      "ा चुका ह": 7437,
      " दर्द": 7438,
      " प्रक्रिया ": 7439,
      "क्षम": 7440,
      " रहती ह": 7441,
      " टन": 7442,
      "देते हुए": 7443,
      " मुश्किल": 7444,
      "स्वत": 7445,
      " से जल्द": 7446,
      "सेना ": 7447,
      " जुलाई ": 7448,
      " शहीद": 7449,
      "जिस्ट्रेट": 7450,
      "घेल": 7451,
      "चीज": 7452,
      "न्यू": 7453,
      "वीय": 7454,
      "सीन": 7455,
      "ारगेट": 7456,
      " को बताय": 7457,
      "इस घटन": 7458,
      "ादेव": 7459,
      "ाजार": 7460,
      "देन": 7461,
      "ुमराह": 7462,
      "ंधन": 7463,
      "चलत": 7464,
      "ढ़कर ": 7465,
      "ेशन म": 7466,
      " के प्रयास": 7467,
      "ाए जाएंग": 7468,
      " तब तक": 7469,
      " गोल्ड": 7470,
      " प्लान": 7471,
      "ाने का काम": 7472,
      "वित्तीय": 7473,
      "नौकर": 7474,
      "रवान": 7475,
      "ुर्ग": 7476,
      " मेल": 7477,
      " की तो ": 7478,
      " जे": 7479,
      " को छ": 7480,
      " अंतिम": 7481,
      " का तापमान": 7482,
      " नार": 7483,
      "ाजार ": 7484,
      "प्रथम": 7485,
      "िवि": 7486,
      " चोट": 7487,
      "ी कर रह": 7488,
      "्लास": 7489,
      "्षिक": 7490,
      " इस ब": 7491,
      "ार्थिय": 7492,
      "इंदौर ": 7493,
      "शीर्ष": 7494,
      " मार्च ": 7495,
      " नवंबर को ": 7496,
      "ुद्दीन": 7497,
      "95": 7498,
      "की": 7499,
      "गी ": 7500,
      "नग": 7501,
      "फैल": 7502,
      "ुद्र": 7503,
      " सार्वजनिक": 7504,
      " की आवाज": 7505,
      " दर्जन": 7506,
      "ायज": 7507,
      "ायेग": 7508,
      "िनार": 7509,
      " फल": 7510,
      "स्तरीय": 7511,
      "ंजिल": 7512,
      " उनसे ": 7513,
      "ीकृष्ण": 7514,
      " रखते हुए": 7515,
      "योगदान": 7516,
      " की संख्या ": 7517,
      " का माहौल": 7518,
      "न्ना ": 7519,
      " की जरूरत ह": 7520,
      "112": 7521,
      "आर ": 7522,
      "आत्महत्य": 7523,
      "ऊर्ज": 7524,
      "ग के दौरान": 7525,
      " की\n": 7526,
      " जमानत": 7527,
      " रफ्तार ": 7528,
      " नगर म": 7529,
      " को हर": 7530,
      " आने से ": 7531,
      "्वाल": 7532,
      "जनरल": 7533,
      " टूर्नाम": 7534,
      "िराग": 7535,
      " संस्कृति": 7536,
      "ैन्य": 7537,
      " कर रही थ": 7538,
      " को हिरासत म": 7539,
      "इंडिया ": 7540,
      " अपराधिय": 7541,
      " स्थानीय लोग": 7542,
      " विनोद": 7543,
      "600": 7544,
      "ah": 7545,
      "कामन": 7546,
      "ठहर": 7547,
      "पोस्टमार्टम": 7548,
      "रथ": 7549,
      "राउंड": 7550,
      "ा.": 7551,
      " पंज": 7552,
      " व्ह": 7553,
      " नील": 7554,
      "ी हत्य": 7555,
      " एयर": 7556,
      "ी साल": 7557,
      "समान": 7558,
      "ा जा सकता ह": 7559,
      "आरोप म": 7560,
      "ा निकाल": 7561,
      " मुख्यालय": 7562,
      " कार्रवाई नह": 7563,
      "भरत": 7564,
      "वादी पार्ट": 7565,
      "ेन्द्र मोद": 7566,
      " इंटरनेशनल": 7567,
      " ऊर्ज": 7568,
      "AD": 7569,
      "उद्योग": 7570,
      "च गए।\n": 7571,
      "राद": 7572,
      "ी के बीच": 7573,
      " की पर": 7574,
      " वर्क": 7575,
      " से लोग": 7576,
      "प्रस्ताव": 7577,
      " इंग": 7578,
      "ुमित": 7579,
      " एक साथ": 7580,
      "जान से मारने की ": 7581,
      "ढ़त": 7582,
      " कार्यालय म": 7583,
      "धार कार्ड": 7584,
      " ठग": 7585,
      "ा हुआ।\n": 7586,
      "ी महिला ": 7587,
      " पत्न": 7588,
      " बिल्ड": 7589,
      " जल्द ही ": 7590,
      "परिवार म": 7591,
      "गुरुवार ": 7592,
      "आश": 7593,
      "काउंट": 7594,
      "थोड": 7595,
      "दब": 7596,
      "शीट": 7597,
      "ॉफ्ट": 7598,
      "ी ढ": 7599,
      " मशीन": 7600,
      " पाव": 7601,
      " हफ्त": 7602,
      " बॉल": 7603,
      "ातर ": 7604,
      "े हो ": 7605,
      "ंतोष": 7606,
      "संविधान": 7607,
      " कार्यकार": 7608,
      " लेने के लिए": 7609,
      " ऑस्ट्रेल": 7610,
      " स्वाम": 7611,
      "ी शिव": 7612,
      "नीकी ": 7613,
      "ास्टिक": 7614,
      "ी योजन": 7615,
      " हादसे": 7616,
      "दबाव": 7617,
      "शपथ": 7618,
      "ास्क": 7619,
      "े किसान": 7620,
      " बाक": 7621,
      " दौर": 7622,
      " वॉ": 7623,
      " शान": 7624,
      " छठ": 7625,
      "ी का स": 7626,
      "हनुमान": 7627,
      " के तीन": 7628,
      " देखकर ": 7629,
      " भारी बारिश": 7630,
      " रन बनाए।\n": 7631,
      "53": 7632,
      "आगर": 7633,
      "जाते ह": 7634,
      "दी ": 7635,
      "नीय": 7636,
      "नीचे ": 7637,
      "रूस": 7638,
      " जताय": 7639,
      " राउंड": 7640,
      " दी गई।\n": 7641,
      " अज": 7642,
      " कहा है कि": 7643,
      "वार की ": 7644,
      "ा की थ": 7645,
      " लेख": 7646,
      "जानकारी देते हुए": 7647,
      " समय म": 7648,
      " के हिसाब": 7649,
      " बाइक सवार ": 7650,
      "कट्ठ": 7651,
      " सूत्र": 7652,
      " फरवरी ": 7653,
      " महीने पहले ": 7654,
      "अंदाज": 7655,
      " चिकित्सक": 7656,
      " संपन्न": 7657,
      "ीशन": 7658,
      "े:": 7659,
      "ेहनत": 7660,
      "ा शुरू": 7661,
      " के अन्य": 7662,
      " पाट": 7663,
      "ानी म": 7664,
      "ियर": 7665,
      "िक ह": 7666,
      "ाया कि": 7667,
      " एप": 7668,
      "रोशन": 7669,
      " इतिहास": 7670,
      "इसके साथ ह": 7671,
      "ा बल": 7672,
      "आई।\n": 7673,
      "ीपत": 7674,
      " ओम": 7675,
      "ेन्द्र स": 7676,
      " सितंबर को ": 7677,
      ", जिसम": 7678,
      "आठ": 7679,
      "घु": 7680,
      "जू": 7681,
      "ठभ": 7682,
      "लड": 7683,
      "लू": 7684,
      "ी योग": 7685,
      "ा तक": 7686,
      " बिश्नोई": 7687,
      " जरू": 7688,
      " रोग": 7689,
      " लिया गय": 7690,
      " तस्वीर": 7691,
      "स्वच्छ": 7692,
      "जबल": 7693,
      "जानकारी ": 7694,
      "इस दौरान उन्ह": 7695,
      "ी हो रही ह": 7696,
      " मई ": 7697,
      "भोपाल म": 7698,
      " त्रिपाठ": 7699,
      " W": 7700,
      "आते ह": 7701,
      "कंपनी ": 7702,
      "पाठ": 7703,
      "ैच म": 7704,
      "ी रात": 7705,
      " सिख": 7706,
      " सैनिक": 7707,
      " दिनेश": 7708,
      " से च": 7709,
      " भूप": 7710,
      " थे ": 7711,
      "ेलू": 7712,
      " विज": 7713,
      " इस साल": 7714,
      "वार की रात": 7715,
      "मुजफ्फर": 7716,
      "नी चाहिए": 7717,
      "ीकृति": 7718,
      "स्थितिय": 7719,
      " श्रद्धालुओं": 7720,
      "भाजपा ने ": 7721,
      "ेवलप": 7722,
      " कर सकता ह": 7723,
      " का दाव": 7724,
      "थाना प्रभारी ": 7725,
      " भूमिक": 7726,
      " शाम ": 7727,
      "इमेज कैप्शन,": 7728,
      "िलंबित": 7729,
      "68": 7730,
      "अरव": 7731,
      "स्पी": 7732,
      " ने ल": 7733,
      " महेश": 7734,
      "सुविध": 7735,
      "ने का प्रयास": 7736,
      "मिलकर ": 7737,
      " का प्रत": 7738,
      "ी खबर": 7739,
      " की अपील": 7740,
      "इंडस्ट्र": 7741,
      "रोजगार": 7742,
      " का दौर": 7743,
      " हो जाता ह": 7744,
      "एक्टिव": 7745,
      "In": 7746,
      "TV": 7747,
      "एंट्र": 7748,
      "क ह": 7749,
      "गोद": 7750,
      "बीब": 7751,
      " मजदू": 7752,
      " अध्य": 7753,
      " को होग": 7754,
      "प्रवेश": 7755,
      "ीं.\n": 7756,
      " एक्शन": 7757,
      "ी की स": 7758,
      " आया थ": 7759,
      " ट्रैफिक": 7760,
      "रिक्श": 7761,
      " ऐसे म": 7762,
      " राज्य म": 7763,
      "ौजूद थ": 7764,
      "लेक्ट्रेट": 7765,
      " पूर्णिम": 7766,
      " साइबर ": 7767,
      "ोखाधड": 7768,
      "डू": 7769,
      "लाफ़": 7770,
      "ुग": 7771,
      "ौर से ": 7772,
      " देन": 7773,
      " अंस": 7774,
      " शूट": 7775,
      "लेस": 7776,
      " के सचिव": 7777,
      "्वेस्ट": 7778,
      " उक्त": 7779,
      " फूल": 7780,
      " फॉर्म": 7781,
      "ुल्त": 7782,
      " टोल": 7783,
      "सीरीज": 7784,
      " महसूस": 7785,
      " की बिक्र": 7786,
      "ी निकाल": 7787,
      "ोमवार को ": 7788,
      " से जीत": 7789,
      " से कोई": 7790,
      "म्र म": 7791,
      "क्या ": 7792,
      " योगदान": 7793,
      "इसकी सूचना ": 7794,
      " इंदौर": 7795,
      "AI": 7796,
      "ई बार ": 7797,
      "शेष": 7798,
      "ह को ": 7799,
      " कौर ": 7800,
      " दस": 7801,
      "नेपाल": 7802,
      " कराने": 7803,
      "ना स": 7804,
      "ड़ म": 7805,
      " टी": 7806,
      "संहित": 7807,
      " को बाहर ": 7808,
      "एनएस": 7809,
      "ी शाद": 7810,
      "गतिविधिय": 7811,
      "श्वर्य": 7812,
      "इंडियन": 7813,
      " सुरक्षा ": 7814,
      "रोहतक": 7815,
      "इंटरनेशनल": 7816,
      " आग लग गई।\n": 7817,
      " का समर्थन": 7818,
      " तालाब": 7819,
      "ा मुख्यालय": 7820,
      "स-पास": 7821,
      "कित": 7822,
      "पेट": 7823,
      "मंच": 7824,
      "सपोर्ट": 7825,
      "॥\n": 7826,
      " केव": 7827,
      " मजदूर": 7828,
      " से उ": 7829,
      " तस्कर": 7830,
      " फैक्ट्र": 7831,
      "ेज म": 7832,
      "हमले": 7833,
      "ा बच्च": 7834,
      " नेट": 7835,
      "म्मान": 7836,
      "ॉप्ट": 7837,
      " पुरस्कार ": 7838,
      "दोपहर": 7839,
      " बाजार": 7840,
      "चरण म": 7841,
      "अनुरोध": 7842,
      "69": 7843,
      "इंच": 7844,
      "टेक": 7845,
      "पकड": 7846,
      " पटना ": 7847,
      "ने की म": 7848,
      " अर": 7849,
      " तत्व": 7850,
      "ाए,": 7851,
      " खाद्य": 7852,
      "पीज": 7853,
      "ारी और ": 7854,
      " अपने क": 7855,
      "द्र कुमार ": 7856,
      "ेयर म": 7857,
      "उपचार": 7858,
      " 'म": 7859,
      "दुर्": 7860,
      "ेश्वर म": 7861,
      "पड़ता ह": 7862,
      "तैयारिय": 7863,
      "ा सरकार": 7864,
      "तिन": 7865,
      "पत्र ": 7866,
      "वॉ": 7867,
      "ा के बारे म": 7868,
      "ापरवाह": 7869,
      " कपू": 7870,
      "र थ": 7871,
      "र नह": 7872,
      " सार": 7873,
      " पथ": 7874,
      "ा की क": 7875,
      " निश": 7876,
      " नर्स": 7877,
      " कोष": 7878,
      " भाष": 7879,
      " तिथि": 7880,
      "ीं-": 7881,
      " श्याम": 7882,
      "ी सह": 7883,
      "अपडेट": 7884,
      "काल म": 7885,
      "बेटे": 7886,
      " काफी ": 7887,
      " वीडियो म": 7888,
      "ी अमित शाह": 7889,
      ") के ": 7890,
      "गठबंधन": 7891,
      "फायर": 7892,
      "व के पास": 7893,
      "श्ल": 7894,
      "ॉर्च": 7895,
      " क्षेत्र ": 7896,
      " मोर्च": 7897,
      " रावत": 7898,
      " उत": 7899,
      "ता अभियान": 7900,
      " इजर": 7901,
      "वार को म": 7902,
      "ोकस": 7903,
      " की जमीन": 7904,
      "इनक": 7905,
      " की सलाह": 7906,
      "चुनाव आयोग": 7907,
      "ाधीन": 7908,
      " के अध": 7909,
      " आयु": 7910,
      " को दिए": 7911,
      "ोसेस": 7912,
      "जुड़": 7913,
      "अंतरराष्ट्रीय": 7914,
      " दिसंबर को ": 7915,
      " एक्टिव": 7916,
      " ऊंच": 7917,
      " इंटरव्यू म": 7918,
      "ची थ": 7919,
      "फूल": 7920,
      "बर स": 7921,
      "ालाल": 7922,
      "ा का क": 7923,
      "क्कर ": 7924,
      " विवेक": 7925,
      " शिफ्ट": 7926,
      " एंट्र": 7927,
      "ता ज": 7928,
      "ुनिया ": 7929,
      "ा जल": 7930,
      "ंटवार": 7931,
      "न मंत्र": 7932,
      " लाख रुपय": 7933,
      "उपचुनाव": 7934,
      "डीआर": 7935,
      " ग्रहण": 7936,
      "रोजग": 7937,
      "इंस्प": 7938,
      "थियार": 7939,
      " की सूचना पर ": 7940,
      "जेल भेज": 7941,
      "क्सीड": 7942,
      " घंटे पहले\n": 7943,
      "08": 7944,
      "एक्शन": 7945,
      "गस्ट": 7946,
      "च शुरू कर दी ह": 7947,
      "न स": 7948,
      "पोस्टमॉर्टम": 7949,
      "मंड": 7950,
      " मेडिकल कॉलेज": 7951,
      " रेप": 7952,
      "ामले ": 7953,
      " अड्ड": 7954,
      " लापरवाह": 7955,
      " ने च": 7956,
      " एश": 7957,
      "त्र ब": 7958,
      "ापता ह": 7959,
      " महाप": 7960,
      " सुपर": 7961,
      " कर लिया गया ह": 7962,
      " जयपुर ": 7963,
      "आगे बढ": 7964,
      " रेलव": 7965,
      " न्यायाधीश": 7966,
      "पड़ रहा ह": 7967,
      "टीट": 7968,
      "त स": 7969,
      "यातायात": 7970,
      " की कोई": 7971,
      " की जन": 7972,
      " रद्द": 7973,
      " भंड": 7974,
      "ी कारण": 7975,
      " संरक्षण": 7976,
      "ंजीत": 7977,
      "अधिकतम तापमान ": 7978,
      " की सेव": 7979,
      " धाम": 7980,
      " की है": 7981,
      " स्टोर": 7982,
      " सीट पर ": 7983,
      " जमा कर": 7984,
      " जून ": 7985,
      "इंतज": 7986,
      "छोड़कर ": 7987,
      "विधानसभा चुनाव म": 7988,
      " अभियंत": 7989,
      " अफ्रीक": 7990,
      "अर्च": 7991,
      "तोड़": 7992,
      "लड़": 7993,
      "े के लिए": 7994,
      " के पीछे ": 7995,
      " की राजनीति": 7996,
      " बोर": 7997,
      " विर": 7998,
      " से नह": 7999,
      " भु": 8000,
      " आर्म": 8001,
      " के बह": 8002,
      " उद्": 8003,
      "ी बत": 8004,
      "पीएल": 8005,
      "ी के नाम": 8006,
      " पुष्प": 8007,
      " धीर": 8008,
      "हालत म": 8009,
      "भाजपा की ": 8010,
      "विधानसभा म": 8011,
      "रिपोर्ट म": 8012,
      " अंतरराष्ट्रीय": 8013,
      " सुरेश": 8014,
      " परिवहन": 8015,
      " वैज्ञानिक": 8016,
      "अपराधिय": 8017,
      "लंबे समय": 8018,
      "ंत सोरेन": 8019,
      "77": 8020,
      "आंदोलन": 8021,
      "ी\"": 8022,
      "ारू": 8023,
      " अह": 8024,
      "इसराइल": 8025,
      " शख्स": 8026,
      " पर चल": 8027,
      "विमान": 8028,
      "विचार ": 8029,
      "जनपद": 8030,
      " डिव": 8031,
      "सीबीआई": 8032,
      " तक नह": 8033,
      "संधान": 8034,
      "ी जब": 8035,
      "जबूर": 8036,
      "ीबीआई": 8037,
      " हम लोग": 8038,
      "ोदय": 8039,
      "डीह": 8040,
      " क्या ह": 8041,
      "िह्न": 8042,
      "प्रदेश के ": 8043,
      " कामयाब": 8044,
      " पर काबू": 8045,
      "तेजी से ": 8046,
      "ath": 8047,
      " पटवार": 8048,
      " करते रह": 8049,
      "वसूल": 8050,
      " पॉइंट": 8051,
      " महामंत्र": 8052,
      "ेतावनी द": 8053,
      "ृथ्व": 8054,
      ", राम": 8055,
      "62": 8056,
      "aj": 8057,
      "रवि": 8058,
      "ूर्य": 8059,
      " पंड": 8060,
      "ार चल": 8061,
      " गोद": 8062,
      " को पुलिस": 8063,
      "िन्द": 8064,
      "के थ": 8065,
      "ी क्ष": 8066,
      " याद": 8067,
      "ना पड़": 8068,
      " फोर्स": 8069,
      " खूब": 8070,
      "ाक्रम": 8071,
      "ेरिस": 8072,
      "ूल्ह": 8073,
      "मानसून": 8074,
      " छीन": 8075,
      " सुभाष": 8076,
      "ेयजल": 8077,
      "म्मत": 8078,
      " के रास्त": 8079,
      "लाइस": 8080,
      " के नए": 8081,
      " मैदान": 8082,
      "पार्टी के ": 8083,
      "और कहा कि": 8084,
      " जयंत": 8085,
      " सिर्फ ": 8086,
      "स्वागत किय": 8087,
      " अक्टूबर ": 8088,
      "ा समिति": 8089,
      "800": 8090,
      "एंड": 8091,
      "शूट": 8092,
      "़ु": 8093,
      "ूर ह": 8094,
      "ैक्षण": 8095,
      "ा भारत": 8096,
      " सद": 8097,
      " साउथ": 8098,
      " मेह": 8099,
      " मौत हो गई।\n": 8100,
      " के भाई": 8101,
      "र्क म": 8102,
      " से भ": 8103,
      "ाति": 8104,
      "प्राइवेट": 8105,
      " किरण": 8106,
      "त्र स": 8107,
      "ुरेश": 8108,
      " कहा गया है कि": 8109,
      "री\n": 8110,
      " टिप्पण": 8111,
      "पुरा म": 8112,
      "108": 8113,
      "ीकल": 8114,
      " उपयोग": 8115,
      " जिला क": 8116,
      "ारी कर रह": 8117,
      " दो दिन": 8118,
      " महीने से ": 8119,
      "गणना ": 8120,
      "न्द": 8121,
      "न्वय": 8122,
      " कैबिनेट": 8123,
      "-म": 8124,
      "up": 8125,
      "गान": 8126,
      "चयन": 8127,
      "पसंद": 8128,
      "रक्षक": 8129,
      "लागू": 8130,
      "ॉग": 8131,
      " कंप": 8132,
      " पवन": 8133,
      " हार ": 8134,
      "ायर ब्र": 8135,
      " अर्जुन": 8136,
      " से सं": 8137,
      " आर्ट": 8138,
      " आचार्य": 8139,
      "प्रत्येक": 8140,
      " शब्द": 8141,
      " प्रकरण": 8142,
      "ाहिर": 8143,
      "ी कार": 8144,
      " होता है": 8145,
      "ापसी": 8146,
      "ाने का प्रयास": 8147,
      " लगात": 8148,
      "इसके तहत": 8149,
      "िर पर ": 8150,
      " धम": 8151,
      " सकत": 8152,
      " जब तक": 8153,
      "द्र सरकार ": 8154,
      " इंडियन": 8155,
      " ठाकुर": 8156,
      "फरार हो गय": 8157,
      "रेलवे स्टेशन": 8158,
      "वेदनशील": 8159,
      "आंख": 8160,
      "डोज": 8161,
      "फसल": 8162,
      "साग": 8163,
      " कौ": 8164,
      "ी स्थित": 8165,
      "ी श्र": 8166,
      "ा चुके ह": 8167,
      " पशु": 8168,
      " की भीड़": 8169,
      "क्का ": 8170,
      " को और ": 8171,
      " नाराज": 8172,
      "प्रभावित": 8173,
      " शार": 8174,
      "िवक्ता ": 8175,
      "ाइंड": 8176,
      "ुएं": 8177,
      " मिली थ": 8178,
      "ी जगह": 8179,
      " मौक": 8180,
      "त्तिय": 8181,
      "ी गल": 8182,
      "ा मिलेग": 8183,
      "ुनियाद": 8184,
      " घटना म": 8185,
      "िटायर्ड": 8186,
      "ैक्षणिक": 8187,
      "आने के बाद": 8188,
      "इमरज": 8189,
      "ओडिश": 8190,
      "कात": 8191,
      "जवान": 8192,
      "ठान": 8193,
      "मोट": 8194,
      "मूल": 8195,
      "हट": 8196,
      "िभाव": 8197,
      " रोल": 8198,
      " रेव": 8199,
      "ने की बात कह": 8200,
      " को व": 8201,
      " को बताया कि": 8202,
      " का शुभारंभ": 8203,
      " आकर्ष": 8204,
      " तलाश": 8205,
      "स्टार ": 8206,
      " टाट": 8207,
      "ुमत": 8208,
      "अपमान": 8209,
      "समर्थन": 8210,
      "हम लोग": 8211,
      " राजधान": 8212,
      "आयुष": 8213,
      "डीएसप": 8214,
      "आपत्ति": 8215,
      "ाया जा सक": 8216,
      "पिता ": 8217,
      "तेजस्व": 8218,
      " केस म": 8219,
      "भाषण": 8220,
      " साहिब": 8221,
      " इतना ": 8222,
      " गंभीर रूप से घायल": 8223,
      "श्लील": 8224,
      "-जगह": 8225,
      "ion": 8226,
      "चय": 8227,
      "रात्रि": 8228,
      "वात": 8229,
      "ृश्य": 8230,
      " क्रम": 8231,
      " मॉडल": 8232,
      " बद": 8233,
      "ायव": 8234,
      " को ट": 8235,
      " आबाद": 8236,
      " पर थ": 8237,
      " फुट": 8238,
      " इव": 8239,
      " हो जाती ह": 8240,
      "राजीव": 8241,
      "िएट": 8242,
      "ा बत": 8243,
      " बजे म": 8244,
      "शव को प": 8245,
      "शहर ": 8246,
      "विशेषज्ञ": 8247,
      "न्यायालय": 8248,
      " भूमिका ": 8249,
      " की सजा सुन": 8250,
      "गाल": 8251,
      "च कर ": 8252,
      "जोर ": 8253,
      "धारण": 8254,
      "ह ब": 8255,
      "ास्कर": 8256,
      "्ध": 8257,
      " सैनी ": 8258,
      "ानिव": 8259,
      " राण": 8260,
      " दिश": 8261,
      " का त": 8262,
      " को परेशान": 8263,
      "ा जो ": 8264,
      "ेडिट": 8265,
      "हमेश": 8266,
      " राजस्व": 8267,
      "ते समय": 8268,
      " कार्यवाह": 8269,
      "इसके बाद ": 8270,
      " अभ्यर्थिय": 8271,
      " सहायता ": 8272,
      "ाए जा रहे ह": 8273,
      " रिपोर्ट म": 8274,
      "ार्यक्रम म": 8275,
      "ारंभिक": 8276,
      "सामाजिक": 8277,
      "हाईकोर्ट": 8278,
      "110": 8279,
      "गीर": 8280,
      "च की जा रही ह": 8281,
      "ड्यूट": 8282,
      "ी अपने ": 8283,
      " की धारा ": 8284,
      "ा का म": 8285,
      " कराने के लिए": 8286,
      " प्रक्रिय": 8287,
      "े क्य": 8288,
      "लगात": 8289,
      "पुलिस ने बताया कि": 8290,
      " संशोधन": 8291,
      "िटेल": 8292,
      " तक ": 8293,
      " देने की ": 8294,
      " की मौजूद": 8295,
      " के मालिक": 8296,
      " के अलग": 8297,
      " को बन": 8298,
      "ुश्किल": 8299,
      "चार संहित": 8300,
      "ारीफ": 8301,
      " जो कि": 8302,
      "इसे लेकर ": 8303,
      "गोल्ड": 8304,
      " संगीत": 8305,
      "ोत्साह": 8306,
      "ोपण": 8307,
      "दर्शित": 8308,
      "िक्रिया ": 8309,
      " फरवर": 8310,
      "्यूजील": 8311,
      "इंस्टाग्राम": 8312,
      "350": 8313,
      "us": 8314,
      "ंकी ": 8315,
      "एआई": 8316,
      "एयर": 8317,
      "ख़": 8318,
      "गरीब": 8319,
      "छाप": 8320,
      "दौर": 8321,
      "नगर म": 8322,
      "प म": 8323,
      "बाड़": 8324,
      "वंत": 8325,
      " पंकज": 8326,
      "र्घ": 8327,
      "िक्": 8328,
      " अमर": 8329,
      " कोल": 8330,
      " आता ह": 8331,
      "के और ": 8332,
      "सीसी ": 8333,
      "पुलिस अधीक्षक": 8334,
      "ेडकर ": 8335,
      " छिप": 8336,
      "ोहल्ल": 8337,
      "ग्रेस म": 8338,
      " लेकिन वह": 8339,
      "लोकसभा ": 8340,
      " किसी ने ": 8341,
      " स्वच्छ": 8342,
      " मान्य": 8343,
      "े रहे ह": 8344,
      "आरोप लगाया ह": 8345,
      " किए जा रहे ह": 8346,
      "इतनी ": 8347,
      " के अवसर पर ": 8348,
      "दावा किया कि": 8349,
      ", जबकि": 8350,
      "CB": 8351,
      "इट": 8352,
      "इस्लाम": 8353,
      "कुश": 8354,
      "ड पर ": 8355,
      "पन्न": 8356,
      "बकार": 8357,
      "व्रत": 8358,
      "ापुर म": 8359,
      "ीर स": 8360,
      " बेल": 8361,
      " लिया और ": 8362,
      " नाक": 8363,
      " नुकसान": 8364,
      " भवन म": 8365,
      "्वेल": 8366,
      "ंदे ": 8367,
      "ता पर ": 8368,
      "ागज": 8369,
      " होती है": 8370,
      " एक ही ": 8371,
      " महोत्सव": 8372,
      "िमाग": 8373,
      " करने पह": 8374,
      " के राष्ट्रीय": 8375,
      " की शूट": 8376,
      "प्रतिबंध": 8377,
      " दिए गए ह": 8378,
      "परिवार के साथ": 8379,
      " एमएम": 8380,
      "आम आदमी पार्ट": 8381,
      " पुरान": 8382,
      "जेता ": 8383,
      " संदेश": 8384,
      " ठाकर": 8385,
      " उपस्थित रह": 8386,
      "दराबाद": 8387,
      "मय": 8388,
      "यश": 8389,
      "ुलेट": 8390,
      "ेना ": 8391,
      "ां\n": 8392,
      " भोजन": 8393,
      "िनल": 8394,
      " कर चुके ह": 8395,
      "द्र ह": 8396,
      " टॉप": 8397,
      "ंबल": 8398,
      "ा की गई ह": 8399,
      "ल्की ": 8400,
      " की सूच": 8401,
      "ट्रस्ट": 8402,
      " से कहा कि": 8403,
      " शर्मा ": 8404,
      "ड्रोन": 8405,
      " इंजन": 8406,
      "जवाब म": 8407,
      "इंतजाम": 8408,
      "इंटरव्य": 8409,
      " तैयार ह": 8410,
      " के मुकाबले ": 8411,
      "ुल्तान": 8412,
      "64": 8413,
      "88": 8414,
      "अज": 8415,
      "निवेश": 8416,
      "बैक": 8417,
      "बॉलीवुड": 8418,
      "भक्ति": 8419,
      "ह (": 8420,
      "ीवार": 8421,
      " क\n": 8422,
      " के जिल": 8423,
      " के नेता ": 8424,
      "्युन": 8425,
      " बालिक": 8426,
      "िकोण": 8427,
      " गेम": 8428,
      "े की कार्रवाई": 8429,
      " रहा है": 8430,
      "िशियल": 8431,
      "चुनाव लड़": 8432,
      " हजार रुप": 8433,
      "म्बर": 8434,
      "गंज म": 8435,
      "दर्शक": 8436,
      " इंद्र": 8437,
      "भवत": 8438,
      "खेत म": 8439,
      "ेल्फ": 8440,
      " पाठक": 8441,
      "लेखक": 8442,
      " इंजीनियर": 8443,
      "' म": 8444,
      "उधर": 8445,
      "पी ": 8446,
      "बुजुर्ग": 8447,
      "मौत": 8448,
      "रेज": 8449,
      "लिया ": 8450,
      "सुसाइड": 8451,
      "हिस": 8452,
      "िड़": 8453,
      "ोच्च": 8454,
      "स्त्र ": 8455,
      " देर": 8456,
      "नेक्ट": 8457,
      " वेतन": 8458,
      " शंकर ": 8459,
      "ावड": 8460,
      " चयन": 8461,
      " इंत": 8462,
      "सराहन": 8463,
      "िटर्न": 8464,
      "ोरूम": 8465,
      "ेयर ब": 8466,
      "र दिन": 8467,
      " लेते हुए": 8468,
      " से हट": 8469,
      "ुश्म": 8470,
      " तो म": 8471,
      " पार्टिय": 8472,
      " ले लिय": 8473,
      "उनकी म": 8474,
      " परीक्षा म": 8475,
      "मृतक की पहचान": 8476,
      "ैबिनेट": 8477,
      " गुरुवार ": 8478,
      " सूचना मिल": 8479,
      "खिलेश यादव": 8480,
      "ज्योति": 8481,
      "दुनिय": 8482,
      "बीम": 8483,
      "बाड": 8484,
      "ये ह": 8485,
      "वैसे ": 8486,
      " सिर": 8487,
      " वकील": 8488,
      " को सम्मान": 8489,
      " भी मिल": 8490,
      " शाख": 8491,
      " के सी": 8492,
      "स्टेडियम": 8493,
      "ा था ": 8494,
      " विचार": 8495,
      "ा के ग": 8496,
      "ंटन": 8497,
      " पुत्र": 8498,
      "ट्रंप": 8499,
      " पूरे म": 8500,
      " को मजबूत": 8501,
      "ा राय": 8502,
      " को गिरफ्तार कर ": 8503,
      "प्रतियोगित": 8504,
      "ार्गदर्शन": 8505,
      " योजना के तहत": 8506,
      "फोटो ": 8507,
      "लखनऊ म": 8508,
      "शानदार ": 8509,
      "िभावक": 8510,
      "ter": 8511,
      "मीडिया ": 8512,
      "वण": 8513,
      " रच": 8514,
      " वायरल": 8515,
      " लेट": 8516,
      " गौ": 8517,
      " आध": 8518,
      " पर रोक": 8519,
      "ी सु": 8520,
      "ोल्ड": 8521,
      " मिलता ह": 8522,
      "ा दिख": 8523,
      "हमारी ": 8524,
      " छोड": 8525,
      " की बैठक म": 8526,
      "ट्रेल": 8527,
      " गया और ": 8528,
      " करोड़ रुपये ": 8529,
      " की प्रक्रिया ": 8530,
      "तिथिय": 8531,
      " की खरीद": 8532,
      "उम्र": 8533,
      "ुल्हन": 8534,
      "76": 8535,
      "उल्ले": 8536,
      "तरण": 8537,
      "नोज": 8538,
      "मूर्ति": 8539,
      "वर्धन": 8540,
      "सोशल मीडिया ": 8541,
      "ानी की ": 8542,
      "क्कर म": 8543,
      " से हमल": 8544,
      " गायब": 8545,
      " कोड": 8546,
      "तिरंग": 8547,
      "त्र द": 8548,
      "क्षित": 8549,
      " उत्सव": 8550,
      "ुलस": 8551,
      " के साथ एक": 8552,
      " हो गए": 8553,
      " भी ज": 8554,
      "ा की स": 8555,
      " उनको ": 8556,
      "ंप म": 8557,
      "ेब्यू": 8558,
      "फिल्म म": 8559,
      " यूनियन": 8560,
      "रास्ते म": 8561,
      "विद्युत": 8562,
      "जुर्माना ": 8563,
      "गानि": 8564,
      "धूम": 8565,
      "भल": 8566,
      "मी के ": 8567,
      " सिन्ह": 8568,
      " मूल": 8569,
      " पायलट": 8570,
      " बाढ़": 8571,
      " जज": 8572,
      " रंजन": 8573,
      " तुरंत": 8574,
      "प्रश": 8575,
      " और ल": 8576,
      " एच": 8577,
      "्लॉक": 8578,
      " इम": 8579,
      "ा थान": 8580,
      "पुलिस मौके पर पह": 8581,
      "ाश्त": 8582,
      "चल रही ह": 8583,
      "जिस पर ": 8584,
      " चल रहा थ": 8585,
      "बनर्ज": 8586,
      " अवस्थ": 8587,
      " उनके साथ": 8588,
      " एसडीएम": 8589,
      " कॉम": 8590,
      "गुज": 8591,
      " CM": 8592,
      " पानी की ": 8593,
      "ाक्ष्य": 8594,
      " के विरुद्ध": 8595,
      "ा हुई।\n": 8596,
      " लाइफ": 8597,
      "इधर,": 8598,
      "गौरतलब है कि": 8599,
      "धुनिक": 8600,
      "700": 8601,
      "अगल": 8602,
      "गाह": 8603,
      "ग्न": 8604,
      "नुम": 8605,
      "वीएम": 8606,
      "सा ": 8607,
      "िस्तान": 8608,
      "ो\n": 8609,
      " हल्क": 8610,
      " बनेग": 8611,
      " रिम": 8612,
      " राध": 8613,
      "िलाई": 8614,
      " दिया और ": 8615,
      " तनाव": 8616,
      " शुल्क": 8617,
      "ंतु": 8618,
      "परिस": 8619,
      "स्थाय": 8620,
      "ी जीत": 8621,
      "खिल भारतीय": 8622,
      " निरीक्षण": 8623,
      " ने किय": 8624,
      " ट्रस्ट": 8625,
      "ीदार": 8626,
      "ाउंसल": 8627,
      " चौधरी": 8628,
      " माना जाता ह": 8629,
      "घरेलू": 8630,
      "श्यप": 8631,
      " जिनके ": 8632,
      " मिनट पहले": 8633,
      " सोमवार ": 8634,
      " अब तक ": 8635,
      "ंपरिक": 8636,
      "आपको बता द": 8637,
      "ोभाय": 8638,
      "स्वीकार": 8639,
      "सीसीटीवी कैमर": 8640,
      " इंस्पेक्टर ": 8641,
      "ायर ब्रिगेड": 8642,
      "कब": 8643,
      "बै": 8644,
      " सेट": 8645,
      " के पीछ": 8646,
      "ार्षद": 8647,
      " की भूमिक": 8648,
      "स्फोट": 8649,
      "ने\n": 8650,
      " को\n": 8651,
      " कहती ह": 8652,
      "ी साह": 8653,
      " होने के ": 8654,
      "ग्राहक": 8655,
      "निदेशक": 8656,
      " संसाधन": 8657,
      " कार्यकर्ताओं": 8658,
      "ाचीन": 8659,
      " आजाद": 8660,
      "पिता ने ": 8661,
      "अवगत": 8662,
      "प्रतिष्ठ": 8663,
      " रन बनाए": 8664,
      " परिणाम": 8665,
      " प्रशासनिक": 8666,
      "थानाध्यक्ष": 8667,
      " पिछले साल": 8668,
      " बिहार म": 8669,
      " पर्यावरण": 8670,
      " की तलाश म": 8671,
      " राशिफल": 8672,
      "गिल": 8673,
      "दे ": 8674,
      "दाम": 8675,
      "लटक": 8676,
      "ील्ड": 8677,
      "े)": 8678,
      " हस्त": 8679,
      " बंध": 8680,
      " जंगल": 8681,
      " राष्ट्र": 8682,
      " को अपनी ": 8683,
      "समस्त": 8684,
      " हो जात": 8685,
      " लगाए": 8686,
      "ेगूसर": 8687,
      "ोरम": 8688,
      " की सबसे ": 8689,
      "दूध": 8690,
      "ुड्ड": 8691,
      " भारतीय जनता पार्ट": 8692,
      " कर सकती ह": 8693,
      "िम्मेदार ": 8694,
      " विश्वास": 8695,
      "पंजाब म": 8696,
      " अप्रैल ": 8697,
      " महाराष्ट्र": 8698,
      "र सकते ह": 8699,
      "हसास": 8700,
      "ेगूसराय": 8701,
      "em": 8702,
      "गार्ड": 8703,
      "ी करते हुए": 8704,
      "े.": 8705,
      "ै-": 8706,
      "ी यह": 8707,
      " सूरज": 8708,
      " पता नह": 8709,
      "्यूम": 8710,
      " को अपन": 8711,
      " गति": 8712,
      " और सं": 8713,
      "्टन": 8714,
      "द्र ब": 8715,
      "पीए": 8716,
      " इस दौरान": 8717,
      " घरेल": 8718,
      "र सहित": 8719,
      "आई थ": 8720,
      "चुनाव लड़": 8721,
      " अनुर": 8722,
      " की रक्ष": 8723,
      "ोसाइट": 8724,
      " आवाज": 8725,
      " ने कहा है कि": 8726,
      "भारतीय जनता पार्ट": 8727,
      "रोजगार ": 8728,
      " को देखकर ": 8729,
      "ॉयल": 8730,
      " प्रतियोगिता म": 8731,
      "ठाकुर": 8732,
      "ho": 8733,
      "कृति": 8734,
      "गोरख": 8735,
      "चस्प": 8736,
      "नी म": 8737,
      "पॉ": 8738,
      "पर्ड": 8739,
      "व्ह": 8740,
      "े लोग": 8741,
      "ी लेकिन": 8742,
      "ा अपने ": 8743,
      " सेल": 8744,
      " सूचन": 8745,
      "ियाई": 8746,
      " की उप": 8747,
      " वाद": 8748,
      " वेस्ट": 8749,
      " अत्य": 8750,
      " ने ट": 8751,
      " आकाश": 8752,
      " और ट": 8753,
      " प्रश्न": 8754,
      " चंडी": 8755,
      "ी कृष्ण": 8756,
      "स्थल पर ": 8757,
      "ोनू": 8758,
      " समस्त": 8759,
      " इसराइल": 8760,
      " भी शामिल": 8761,
      "उस वक्त": 8762,
      "कि यह": 8763,
      "उनके पास": 8764,
      "पूर्वक": 8765,
      " सरकार म": 8766,
      " जमकर ": 8767,
      " - ": 8768,
      "पानी की ": 8769,
      "िनिधित्व": 8770,
      " नजर आ": 8771,
      "बुल्लाह": 8772,
      "तंत्र ": 8773,
      " डिजाइन": 8774,
      "iv": 8775,
      "डिय": 8776,
      "लख": 8777,
      "़-": 8778,
      "्नि": 8779,
      "ी पुलिस ने ": 8780,
      " की रहने वाल": 8781,
      "र्बाद": 8782,
      "स्क्रीन": 8783,
      "िलिट": 8784,
      "ने के दौरान": 8785,
      " से ड": 8786,
      " भ्रष्टाच": 8787,
      " आत्म": 8788,
      " शुरुआत": 8789,
      "ावर ": 8790,
      "ावेद": 8791,
      " एग्जाम": 8792,
      "ी सुन": 8793,
      "ी बार": 8794,
      " समान": 8795,
      "ाओं के ": 8796,
      " संध्य": 8797,
      "सी और ": 8798,
      "ूलाल": 8799,
      "ी जमीन": 8800,
      " क्या है": 8801,
      " इन दिन": 8802,
      " पहले से ": 8803,
      "गुजर ": 8804,
      " आरत": 8805,
      "इंदिर": 8806,
      " अपनी म": 8807,
      " समेत ": 8808,
      " एक्सपर्ट": 8809,
      " को तैय": 8810,
      " किशोर ": 8811,
      "िस्से म": 8812,
      "SO": 8813,
      "काम": 8814,
      "टी ": 8815,
      "धन्यवाद": 8816,
      "वेस्ट": 8817,
      "वर्ल्ड": 8818,
      "़े।\n": 8819,
      " कपड": 8820,
      " साढ": 8821,
      " के अधिक": 8822,
      " पसंद": 8823,
      " की छात्र": 8824,
      " वाट": 8825,
      " लाया गय": 8826,
      " का ड": 8827,
      " नंद": 8828,
      "क्षे": 8829,
      " रहा है कि": 8830,
      "ड़न": 8831,
      "राजद": 8832,
      "राजन": 8833,
      " घोषण": 8834,
      " संभाग": 8835,
      " मिला थ": 8836,
      "ंधेर": 8837,
      "ी जय": 8838,
      "ी ज्याद": 8839,
      " की जाती ह": 8840,
      " धूप": 8841,
      " को पत्र ": 8842,
      " ने बताया कि ": 8843,
      " के पास पह": 8844,
      "खनीय": 8845,
      " जिला प्रशासन": 8846,
      "थियार ": 8847,
      "चे तो ": 8848,
      "आग्रह": 8849,
      "औसत": 8850,
      "गे\n": 8851,
      "मी ": 8852,
      "माय": 8853,
      "मिट": 8854,
      "रेशन": 8855,
      " हल": 8856,
      "ा हिस्स": 8857,
      " कोशिश": 8858,
      "ाजल": 8859,
      " और भ": 8860,
      " और पुलिस": 8861,
      " थोड": 8862,
      "ी संगठन": 8863,
      "ोनाल": 8864,
      "एसपी": 8865,
      "इसके चलते ": 8866,
      "िर ह": 8867,
      "ाजपेय": 8868,
      "योग्य": 8869,
      " चौटाल": 8870,
      "सेक्स": 8871,
      "िनेशन": 8872,
      " ई-": 8873,
      "ा शर्म": 8874,
      "ड्राइवर": 8875,
      " हाल ही म": 8876,
      " दिया गया थ": 8877,
      " इतनी ": 8878,
      " एफआईआर दर्ज": 8879,
      " देर रात": 8880,
      "निर्मल": 8881,
      "शासकीय": 8882,
      "abha ": 8883,
      "उत्साह": 8884,
      "कसद": 8885,
      "झुन": 8886,
      "टल म": 8887,
      "मुर": 8888,
      "वर्म": 8889,
      "ानबीन": 8890,
      " की यह": 8891,
      " कराया गय": 8892,
      " शैल": 8893,
      "एक दिन": 8894,
      "स्थाप": 8895,
      " पर कोई": 8896,
      "ेगम": 8897,
      "ा बदल": 8898,
      " अपडेट": 8899,
      "ीकाने": 8900,
      " की सह": 8901,
      "ी से म": 8902,
      " आयुष": 8903,
      "ाचार": 8904,
      "पूर्व म": 8905,
      "मरान": 8906,
      " अवधि": 8907,
      " महिला की ": 8908,
      "एनसी": 8909,
      "ा प्रत": 8910,
      "धरना ": 8911,
      " उनके पास": 8912,
      "संभावना ": 8913,
      " पर्यटन": 8914,
      "ा की मौत": 8915,
      "71": 8916,
      "घन": 8917,
      "चाच": 8918,
      "छत": 8919,
      "दर क": 8920,
      "वृ": 8921,
      "सज": 8922,
      "ा;": 8923,
      "ी जान": 8924,
      " के छात्र": 8925,
      " हवाई": 8926,
      "ा कर रहे ह": 8927,
      " पर रख": 8928,
      "लेब": 8929,
      " यश": 8930,
      " खर": 8931,
      "ापति": 8932,
      "ा रहेग": 8933,
      " भी लग": 8934,
      " मिल प": 8935,
      "इन दोन": 8936,
      "ोहर ": 8937,
      "र्स ने ": 8938,
      " चल रहे ": 8939,
      " के खिलाफ कार्रवाई": 8940,
      "विधि": 8941,
      " ऐप": 8942,
      "विकल्प": 8943,
      "यूव": 8944,
      " आई थ": 8945,
      " शिक्षा विभाग": 8946,
      "ता दिवस": 8947,
      " जून तक": 8948,
      "विरोध प्रदर्शन": 8949,
      "पटेल": 8950,
      "एक्सपर्ट": 8951,
      " एनडीए": 8952,
      "ात्मा ग": 8953,
      " की जानकारी द": 8954,
      "खबर": 8955,
      "टिक": 8956,
      "बूत": 8957,
      "लड़": 8958,
      " की पत्न": 8959,
      " बस्त": 8960,
      "िकअप": 8961,
      " रूट": 8962,
      " असम": 8963,
      " का उद्घाटन": 8964,
      " गर्ग": 8965,
      " भाट": 8966,
      "ेशव": 8967,
      " कि ": 8968,
      "ाई,": 8969,
      " यातायात": 8970,
      "ीट्यूट": 8971,
      " परंपर": 8972,
      " के दर्शन": 8973,
      "पुरान": 8974,
      "स्वरूप": 8975,
      "जब तक": 8976,
      "ेशनल": 8977,
      " विभाग म": 8978,
      "ैकेट": 8979,
      "ुधवार को ": 8980,
      "ग्राम पंचायत": 8981,
      " करवाय": 8982,
      " सेवा ": 8983,
      "न्नाथ": 8984,
      "चित्र": 8985,
      "द्र मोदी ने ": 8986,
      "वायु": 8987,
      "व्यापारिय": 8988,
      " अक्टूबर को ": 8989,
      "जल्द ही ": 8990,
      "कामनाएं": 8991,
      "अरुण": 8992,
      "ऑर्ड": 8993,
      "कृष्ट": 8994,
      "डंड": 8995,
      "नोट": 8996,
      "े करीब ": 8997,
      " की कि": 8998,
      " कौशल": 8999,
      " साव": 9000,
      " के रहने वाले ": 9001,
      "्रुव": 9002,
      "ारी के ": 9003,
      " वास": 9004,
      " नृत्य": 9005,
      " नियंत्रण": 9006,
      "ादर": 9007,
      "ाजिल": 9008,
      "ाई गई थ": 9009,
      " चक्र": 9010,
      " डीएम": 9011,
      "कारिय": 9012,
      "ी बंद": 9013,
      "ार्क म": 9014,
      "ारी खेल": 9015,
      " पुण": 9016,
      " की जीत": 9017,
      "स्कूट": 9018,
      " के काम": 9019,
      "अब ": 9020,
      " के आस": 9021,
      " पूरी खबर": 9022,
      " विक्रम": 9023,
      "घर पह": 9024,
      " आएंग": 9025,
      "ती है कि": 9026,
      "गणन": 9027,
      "नवीन": 9028,
      " PM": 9029,
      "िन्दू": 9030,
      "आश्वासन": 9031,
      "पात": 9032,
      "रेव": 9033,
      "लड़क": 9034,
      "सी क": 9035,
      "सीत": 9036,
      "हव": 9037,
      "ेने": 9038,
      "ेलि": 9039,
      "ैथ": 9040,
      "‍ि": 9041,
      "ो ने ": 9042,
      " बालक": 9043,
      " से अपने ": 9044,
      " से तीन": 9045,
      " का लाभ": 9046,
      " आ रही ह": 9047,
      " और त": 9048,
      " प्रोड": 9049,
      "रील": 9050,
      "एक साथ": 9051,
      " होते हुए": 9052,
      "ा जिला ": 9053,
      "ने वाला ह": 9054,
      " संचालन": 9055,
      " बजे क": 9056,
      "ाना चाहिए।\n": 9057,
      "र्स म": 9058,
      "125": 9059,
      "ी शर्म": 9060,
      " प्रतिनिधि": 9061,
      " पुराने ": 9062,
      " थाना पुलिस ने ": 9063,
      " थाना प्रभारी ": 9064,
      " रात ": 9065,
      "आवश्यकता ह": 9066,
      "ी की जा रही ह": 9067,
      "ाकिस्तान म": 9068,
      ", उ": 9069,
      "94": 9070,
      "a:": 9071,
      "खाना ": 9072,
      "चौराह": 9073,
      "जोर": 9074,
      "बंगाल": 9075,
      "भूत": 9076,
      "स स्ट": 9077,
      "़ी।\n": 9078,
      "ुड़": 9079,
      "ैरव": 9080,
      "ोर म": 9081,
      "ोकार": 9082,
      " कौर": 9083,
      "े तो": 9084,
      " सिम": 9085,
      "र्ब": 9086,
      " जस्टिस": 9087,
      " रोह": 9088,
      " नया ": 9089,
      " एक्टर ": 9090,
      "ी कहान": 9091,
      "्वीट": 9092,
      " टीच": 9093,
      "ाओं से ": 9094,
      "ाओं के लिए": 9095,
      " संयोजक": 9096,
      " करने को कह": 9097,
      " लोग घायल": 9098,
      " जिसने ": 9099,
      "व्यवह": 9100,
      " को बंद": 9101,
      "वरात्रि": 9102,
      " उपाध्याय": 9103,
      "ी राह": 9104,
      " किलो": 9105,
      " किलोग्राम": 9106,
      "ा समेत": 9107,
      " भरत": 9108,
      "सहायक": 9109,
      "ौके पर ह": 9110,
      "बिलास": 9111,
      " रेलवे स्टेशन": 9112,
      " कमरे म": 9113,
      "खर": 9114,
      "खाद्य": 9115,
      "चार्ज": 9116,
      "सिट": 9117,
      "ा लेकर ": 9118,
      " साय": 9119,
      "्रोत": 9120,
      "ों\n": 9121,
      " बिक": 9122,
      "ा हमल": 9123,
      "ने को कह": 9124,
      "लिहाज": 9125,
      " गठित": 9126,
      "पुट": 9127,
      " प्रकार ": 9128,
      " रही ": 9129,
      " फेल": 9130,
      "लगता है कि": 9131,
      "अनिवार्य": 9132,
      " लगाय": 9133,
      "ी थाना क्षेत्र": 9134,
      "्नई": 9135,
      "ोजना म": 9136,
      "स्वतंत्र": 9137,
      " कम से कम": 9138,
      "देखा कि": 9139,
      "द्र यादव": 9140,
      "ा नगर ": 9141,
      " का सबसे ": 9142,
      "लालू": 9143,
      "समय म": 9144,
      "उसकी म": 9145,
      "प्रतिनिधि": 9146,
      " समेत अन्य": 9147,
      "े हुए थ": 9148,
      "पार्षद": 9149,
      ", जह": 9150,
      "92": 9151,
      "आदिवास": 9152,
      "क स": 9153,
      "ग और ": 9154,
      "ढाई": 9155,
      "रिलीज": 9156,
      "वर्त": 9157,
      " सवार": 9158,
      " माय": 9159,
      "ारस": 9160,
      "ों-": 9161,
      "स्नान": 9162,
      "िल्प": 9163,
      " को मन": 9164,
      "प्रोजेक्ट": 9165,
      " किया है": 9166,
      "ा दिया थ": 9167,
      " बनकर ": 9168,
      " पुलिस अधीक्षक": 9169,
      "ी ने बताय": 9170,
      " को सु": 9171,
      "स्करी": 9172,
      "जब वह": 9173,
      " स्कूट": 9174,
      "दिल्ली के ": 9175,
      " नेतृत्व": 9176,
      " इंदौर ": 9177,
      " In": 9178,
      "ृष्टिकोण": 9179,
      " लोकसभा चुनाव म": 9180,
      "तथा ": 9181,
      " कदम उठ": 9182,
      " प्रवक्ता ": 9183,
      "ुकदमा दर्ज": 9184,
      "81": 9185,
      "ra ": 9186,
      "अग्रवाल": 9187,
      "इतन": 9188,
      "उत्तर ": 9189,
      "ग,": 9190,
      "दंड": 9191,
      "िड़": 9192,
      "ॉल म": 9193,
      "ोत्र": 9194,
      "ा ।\n": 9195,
      " पंत": 9196,
      " पब्लिक": 9197,
      "ा किया ": 9198,
      " दम": 9199,
      " अतिक्रमण": 9200,
      " का मामल": 9201,
      "ित कर": 9202,
      " ने अपना ": 9203,
      "ागंज": 9204,
      "ी सुरक्ष": 9205,
      "ेलवे ": 9206,
      " इस दिन": 9207,
      "ाफ्ट": 9208,
      "ारतूस": 9209,
      " है तो ": 9210,
      " (S": 9211,
      " को सुबह ": 9212,
      " की सीम": 9213,
      "ोडल": 9214,
      "र द्वार": 9215,
      "आरएस": 9216,
      " कुछ नह": 9217,
      " टीम म": 9218,
      " के नीच": 9219,
      "भाजपा म": 9220,
      "शिक्षा ": 9221,
      " उनकी म": 9222,
      "रिपोर्ट्स": 9223,
      "भास्कर ": 9224,
      "सवाल उठ": 9225,
      "बाइक सवार ": 9226,
      "जरूरी ह": 9227,
      "परिवहन": 9228,
      "उत्पादन": 9229,
      "उचित": 9230,
      "खिर ": 9231,
      "ग ह": 9232,
      "न ह": 9233,
      "राध": 9234,
      "सैन": 9235,
      "ाघर": 9236,
      "ीने म": 9237,
      "ा नाम": 9238,
      " पून": 9239,
      "ा हुए": 9240,
      "क्च": 9241,
      "ार ने ": 9242,
      " का शिक": 9243,
      " का आरोप है कि": 9244,
      " कि यह": 9245,
      " प्रणाल": 9246,
      " चेहर": 9247,
      "वाले क": 9248,
      "ा के रूप म": 9249,
      "जबरदस्त": 9250,
      " सुधार ": 9251,
      "आपको": 9252,
      " के निशान": 9253,
      "अभिन": 9254,
      "ा तब": 9255,
      "गुस्स": 9256,
      " का प्रयोग": 9257,
      " आए थ": 9258,
      "ीक्षित": 9259,
      "र्वाचित": 9260,
      "पहले ही ": 9261,
      "सबसे पहले ": 9262,
      "IT": 9263,
      "गुन": 9264,
      "िर्ज": 9265,
      " मगर ": 9266,
      "ायिक": 9267,
      "ायतक": 9268,
      "नेह": 9269,
      " लोह": 9270,
      " ने सभी ": 9271,
      " ग्वालिय": 9272,
      "ासकीय": 9273,
      "ी कट": 9274,
      "ंगत": 9275,
      "एक व्यक्ति": 9276,
      " समाधान": 9277,
      "पुलिस ने क": 9278,
      "ेरिट": 9279,
      "रणनीति": 9280,
      "ये बात": 9281,
      " करने ज": 9282,
      " से काम": 9283,
      " आपको": 9284,
      "ाना क्षेत्र ": 9285,
      "ी हो गई।\n": 9286,
      "िशनल": 9287,
      " माह म": 9288,
      "सुनील": 9289,
      "अब तक ": 9290,
      "जीवन म": 9291,
      " उपस्थित थ": 9292,
      " ले जाया गय": 9293,
      " हथियार": 9294,
      "63": 9295,
      "CP": 9296,
      "t:": 9297,
      "ग की थ": 9298,
      "बेहत": 9299,
      "शक्क": 9300,
      "ह उर्फ": 9301,
      " कपूर": 9302,
      " सीत": 9303,
      " सब्ज": 9304,
      "ितेश": 9305,
      "प्रशिक्षण": 9306,
      "लिए।\n": 9307,
      " के लिए क": 9308,
      "्वाइंट": 9309,
      " फंड": 9310,
      " समर्थक": 9311,
      "बताया गया कि": 9312,
      " महाव": 9313,
      "ा बढ": 9314,
      "ीजिए": 9315,
      "क्तदान": 9316,
      " की सफाई": 9317,
      " दिन तक": 9318,
      " के क्षेत्र म": 9319,
      " लाख रुपये ": 9320,
      " जनपद": 9321,
      " प्रतिबंध": 9322,
      " चौथ": 9323,
      "शिक्षा विभाग": 9324,
      " अगस्त तक": 9325,
      " विधानसभा ": 9326,
      " विद्युत": 9327,
      "इजराइल": 9328,
      "घटनास्थल": 9329,
      "ंगना रन": 9330,
      "ya ": 9331,
      "असर ": 9332,
      "खेड": 9333,
      "े तक": 9334,
      "ा इस": 9335,
      "ा ने क": 9336,
      "्राट": 9337,
      " बिर": 9338,
      "स्ड": 9339,
      "ाता है": 9340,
      " शाल": 9341,
      " प्राधिकरण": 9342,
      "भी स": 9343,
      "ड़बड": 9344,
      " होना ह": 9345,
      " होटल म": 9346,
      "निभाई": 9347,
      "समर्थक": 9348,
      " मिलने के बाद": 9349,
      " बजे ह": 9350,
      "उपाध्यक्ष": 9351,
      " द्वारा ज": 9352,
      " मानसिक": 9353,
      " कैट": 9354,
      "ता के लिए": 9355,
      "पूछा कि": 9356,
      " आए ह": 9357,
      "ब्जे से ": 9358,
      " हो सकते ह": 9359,
      " सबसे बड": 9360,
      " दिलीप": 9361,
      "ाभ बच्चन": 9362,
      " आम आदमी पार्ट": 9363,
      " हथियार ": 9364,
      "पियनशिप": 9365,
      " घरेलू": 9366,
      "EO": 9367,
      "od": 9368,
      "डिव": 9369,
      "निश": 9370,
      "ीगंज": 9371,
      "ॉर्प": 9372,
      "ा देख": 9373,
      "ने प": 9374,
      " की झ": 9375,
      " चेन": 9376,
      "समंद": 9377,
      " के दोन": 9378,
      " हैदराबाद": 9379,
      "ोरेशन": 9380,
      "ा और म": 9381,
      "इनकी ": 9382,
      " के मंत्र": 9383,
      "ी तेज": 9384,
      "जयंत": 9385,
      " ने किया ": 9386,
      " जबल": 9387,
      " ग्रीन": 9388,
      " किस तरह": 9389,
      "प्लान": 9390,
      "ार दिय": 9391,
      " दर्ज करवाई": 9392,
      " फ्लाइट": 9393,
      "पिछल": 9394,
      " प्रताप स": 9395,
      "ig": 9396,
      "अप्र": 9397,
      "कृष्ण": 9398,
      "भोज": 9399,
      "राख": 9400,
      "व के लोग": 9401,
      "ि:": 9402,
      "ोर पर ": 9403,
      "ने पर": 9404,
      " दलित": 9405,
      "ाकृतिक": 9406,
      " भी शामिल ह": 9407,
      "इसके बावजूद": 9408,
      "हमंत्र": 9409,
      "इनाम": 9410,
      "व्यवसाय": 9411,
      " ने बताया कि वह": 9412,
      " उपाय": 9413,
      "आपकी ": 9414,
      "194": 9415,
      "दूसरी तरफ": 9416,
      " करना शुरू": 9417,
      "ी संस्थ": 9418,
      "स्मृति": 9419,
      "हलोत": 9420,
      " बड़ी संख्या म": 9421,
      "झारखंड म": 9422,
      " वित्तीय": 9423,
      " व्यक्तिय": 9424,
      ", जो ": 9425,
      "च शुरू": 9426,
      "टाट": 9427,
      "मृत": 9428,
      "ा ले ": 9429,
      "ा वह": 9430,
      " की गु": 9431,
      " जोध": 9432,
      "िकान": 9433,
      "क्चर": 9434,
      " का उद्देश्य": 9435,
      "प्रचार": 9436,
      "िनत": 9437,
      " पर नह": 9438,
      "क्षेत्र": 9439,
      "ाइश": 9440,
      "ाइक्र": 9441,
      "ुलन": 9442,
      "निटर": 9443,
      "निरीक्षक": 9444,
      "ी की गई।\n": 9445,
      "र सं": 9446,
      "ा करने से ": 9447,
      "आयु": 9448,
      "र दिख": 9449,
      "इसके बाद उन्ह": 9450,
      " के खिलाफ मामला दर्ज": 9451,
      "मौके से ": 9452,
      "गिरफ्तार किया ह": 9453,
      "ता है तो ": 9454,
      "श्चात": 9455,
      " यूपी": 9456,
      " कंपनी के ": 9457,
      "प्रदर्शन किय": 9458,
      " पर्याप्त": 9459,
      " बिगड़": 9460,
      "ंभीरता से ": 9461,
      " स्मार्टफोन": 9462,
      "ंध्र प्रदेश": 9463,
      "ok S": 9464,
      "न्हैय": 9465,
      "गानिस्तान": 9466,
      "शक्कत": 9467,
      "ऐतिहासिक": 9468,
      "जाग": 9469,
      "भरोस": 9470,
      "मतदान": 9471,
      "शुप": 9472,
      "होग": 9473,
      "ीकी ": 9474,
      " कर्नाटक": 9475,
      "ी शिकायत म": 9476,
      "ा झ": 9477,
      " सारे ": 9478,
      " सप्लाई": 9479,
      " पीज": 9480,
      " पलट": 9481,
      " हेतु": 9482,
      "ियोजना ": 9483,
      " बेस": 9484,
      " दर्श": 9485,
      "ने की बात": 9486,
      " को उनके ": 9487,
      " वेर": 9488,
      " वेबसाइट": 9489,
      " नग": 9490,
      " भी बन": 9491,
      "उनम": 9492,
      " प्रोग्राम": 9493,
      " या नह": 9494,
      " होना चाहिए।\n": 9495,
      "ध्य प्रदेश": 9496,
      "ने वाले ह": 9497,
      "ा पान": 9498,
      "भगत": 9499,
      "निर्दलीय": 9500,
      " सीध": 9501,
      "तलाम": 9502,
      "ॉन्ग": 9503,
      " का जवाब": 9504,
      " देती ह": 9505,
      "मेर ": 9506,
      "धीरे ": 9507,
      " ज्ञापन": 9508,
      "नातन": 9509,
      "रिजर्व": 9510,
      " जीवन म": 9511,
      "हादसे के बाद": 9512,
      " के अलग-अलग": 9513,
      "-ए": 9514,
      ".ॐ": 9515,
      "97": 9516,
      "उसे म": 9517,
      "ऊपर": 9518,
      "एएसआई": 9519,
      "गहर": 9520,
      "बेहद": 9521,
      "भतीज": 9522,
      "ह निवास": 9523,
      "ृत्त": 9524,
      " सभी": 9525,
      " के अधिकारी ": 9526,
      "्यून": 9527,
      " रवान": 9528,
      " के लिए ज": 9529,
      "ा साथ": 9530,
      " खो": 9531,
      "ुकड": 9532,
      " महाविद्यालय": 9533,
      "राजकीय": 9534,
      "अन्न": 9535,
      " मिल सक": 9536,
      "भागिय": 9537,
      " अनुप": 9538,
      " ट्रैक": 9539,
      "े थे ": 9540,
      " करीब एक": 9541,
      " कई लोग": 9542,
      "राज्य सरकार": 9543,
      "प्ले": 9544,
      "से कह": 9545,
      " जयपुर": 9546,
      " हो चुके ह": 9547,
[...]
