#version: 0.2
  ا
  ب
  م
  د
  ک
ا ن
ا ی
ا ر
س ت
. 

ن د
  و
  ر
  ت
  ه
 د ر
ی ن
  ن
  ش
 م ی
 ب ه
و د
ی د
  س
  آ
 ک ه
  خ
 ا ز
 ر ا
 ا ست
ا د
ا ل
ر د
ا م
 ب ا
 ب ر
  ی
  پ
و ر
 ا ین
ا ه
  ج
ی ر
  ف
  ح
  گ
ا ت
ی م
ش ت
 آ ن
  ع
ل ی
ه ا
  ز
م ا
ه ای
 ی ک
و ان
ا ب
 ک ن
  چ
ر ی
  ق
و ن
 بر ای
ا ز
 ه م
د ه
ف ت
س ی
و ل
و ی
 ه ای
گ ر
 ک رد
م ی
ت ر
ر و
 ا ن
م ان
 م و
ار ی
 د ار
 خ ود
د ر
ر ا
 م ن
ت ی
اد ه
ک ن
ل ا
 خ و
 ب ود
  ط
 ن ی
 ش ما
 ر و
 با ش
 ک ار
‌ های
ی ت
  ص
 ی ا
ای ن
گ ی
ان ی
ز ی
 ب ی
 ت ا
ا شت
خ ت
ا س
 ش ده
 ت و
 ش د
 د ه
 ه ا
ای د
ای ی
 س ال
ب ه
 ا ی
ب ر
ی ا
ر ک
 م ا
 ه ست
 د و
 ک ند
ب ی
 د ی
 کن ید
ان ه
 ا و
ف ر
  (
‌ ها
 ش ود
 ا م
 م ح
 ت وان
 آ م
ا ق
 کن ند
 م ت
 ف ر
 خو اه
ب ا
 پ ی
 ه ر
 م ع
گ اه
 د اشت
ل ه
ن گ
ا و
ق ی
د ی
ن ی
ب ت
ع ی
 د ست
 باش د
 دار د
  ل
ک ه
ت وان
ش ان
ا ف
 ن می
 س ر
م ای
اد ی
و ز
  غ
 ب اید
ار د
فت ه
 ق ر
 ح ال
ف اده
ک ی
ه م
 ت ر
خ و
ار ه
ند ه
؟ 

 ک م
ج ه
ر ف
 م ش
 است فاده
ور ی
ام ه
 آن ها
 ا ر
ان د
 ک ش
ز ار
  ،
ج ود
 گ ر
 ب د
‌ ش
 چ ی
ع ه
 م د
ج ام
 ا س
 دی گر
 هست ند
ا ست
ا خت
 ن ظ
 ا ند
 مو رد
ه ر
 ب سی
ک ر
د ید
ع د
م ن
 کرد ه
 چ ه
  «
 م س
 ان جام
 م ر
ی ل
 ا ل
 د ان
 ز مان
 ت ح
ع ت
ش ی
ن ین
 نی ست
 رو ز
 پی ش
 ن و
 د اد
 ا ما
م ل
و م
ال ی
‌ ک
 و جود
و ند
 با ز
 ا ف
 م ق
‌ توان
 ج ه
ق ت
گ یر
ن وان
 ز ند
خ ص
 نی ز
م ین
 ب ین
چ ه
 م رد
  ند
 ا ج
 ت ن
 ان ت
‌ کن
 بی شت
 ر س
ری ک
رک ت
 قر ار
تر ین
 ت م
ید ه
 ب ز
ون ه
 داشت ه
 ا ح
ام ل
ک ل
 ع نوان
. .
 تو س
ن امه
 گ ذ
 ر وی
ی ک
 خواه د
د ا
 ز ی
 هم ه
م کن
و ه
ش ن
 ا ت
 کش ور
ا گر
خ ی
ا ص
 ده د
ش د
 زند گی
ام ی
ق ه
ر گ
‌ ای
ط ر
! 

ست ان
 ب خ
 و اق
ی چ
م و
 نظ ر
 س از
 را ه
ای ت
 د اده
 ت ج
 دان ش
 م مکن
 دار ند
 س ی
 بسی ار
ر س
‌ ی
 ت ص
گ ان
 م ج
» 

 ج م
و ش
د م
 کرد ن
ان ند
  .

 گ فت
 نی از
ک ان
ز ش
و ا
ک ار
 ا ط
 بیشت ر
آ ن
ام ا
ق ط
خو اه
ع ات
چ نین
ور ت
 با زی
2 0
ح ی
از ه
ار ت
 ش رکت
 پ س
 بز رگ
 ج دید
ا ک
شت ه
و ق
م ند
غ ی
 ا گر
 آم ریک
ت ان
‌ش ود
 م ط
و ید
ص د
اب ر
 ب ال
ز ای
 ک س
e r
 کم ک
 ن ام
 د ور
 ا ص
 توان د
اد ر
س ه
ل ام
س ان
 ک و
‌ک ند
 ا فر
ب ان
ش ه
 بر نامه
 س اخت
غی یر
ج ا
 ه یچ
 ا ع
 ن شان
 ح د
 ک ل
 ش ن
رد ه
 پ ای
 م ث
 ط ور
 م اه
 چ ند
ر ه
ل ب
 ا ول
ل ف
ی ه
 تن ها
 ت غییر
 ن ه
ب اره
را ئ
‌ گ
ا خ
ض ر
 ش وند
 و ی
 کن یم
 مرد م
  "
ج اد
 توس ط
ین ه
.. .

 ن ق
 چی زی
م ت
ات ی
 ز ن
 ق ب
اب ل
. »

 واق ع
ست م
 ب ار
 ا د
 آ ز
 یک ی
 ا یر
  S
 ای جاد
 ز یر
ک ت
 ج ن
ب ود
 پ رو
 د ن
پ س
‌ ده
i n
ژ ی
های ی
 س و
گ ونه
 ص ورت
ث ر
ون ی
 ط ول
 ب یم
 پ ر
 جه ان
‌ اند
خ اب
 باش ید
 آم وز
ست ه
ن ه
ض ی
ک س
س ر
 چی ز
م ال
 ت ب
ن ج
د ان
ب و
 ب ل
از ی
 تم ام
o n
 ت ول
 م ص
 د ل
ا ح
 ز مین
ب ین
  C
 ن ش
 ف ع
 ت ع
 این که
 ن س
 م انند
 ار ت
 انت خاب
 بی ش
ب ال
‌کن ند
ر سی
ت اب
لی ل
ژ ه
 ش ر
ا ش
قی ق
 ا خ
 افر اد
گ ری
 غ یر
گیر ی
  ك
ا ً
 اط لا
 آمریک ا
ز ه
و ع
 ت ق
a n
 ف قط
ی لی
بر ای
 ی اد
و س
 ه ن
 ر فت
 ن م
ب ار
 ب عد
زای ش
  A
 گر فت
  ث
اب ی
 آ ی
: 

 باش ند
ری ق
م د
 ایر ان
 خ ان
ف ی
ا ط
د ام
 اف زایش
ط ور
 ا ش
 در صد
 ج ای
 ن ا
 م هم
م ه
 س ه
 د ول
گ ز
 ده ید
ل و
مای ش
 هم چنین
ای ل
 تول ید
 ده ند
 م ه
 ش خص
 ک ود
ع یت
  ذ
ید ا
 غ ذ
 ا رائ
 م شت
 ب گ
 ارائ ه
س اس
 م را
ئ ی
 بود ه
ید ن
 بسی اری
 آ ب
 م خت
 می لی
) 

 زمان ی
 اطلا عات
 بخ ش
 ب ن
د ار
 خ ار
ز ینه
 ش ب
 دو ست
ج ی
 ک تاب
 ت ش
 ف یل
 س یا
و رد
 ح ق
  M
 زی ادی
 ح تی
 بود ند
 فع ال
 کرد ند
 توان ید
 های ی
 مد یر
a r
 کن م
ش م
 هم ان
و لی
ت ما
اه ش
 تو جه
 گر فته
را حی
۲ ۰
 مش کل
‌توان د
 ع مل
 هم ین
 شد ن
 ح ا
ق ل
 ف رو
ی شه
 ش هر
 پ یدا
رو ع
1 9
 ف کر
 ک سی
 گ رو
و ت
 ع ل
ب ط
ا سی
  P
 ساز مان
 ف رد
ذ یر
م ول
پ ی
0 0
 ن فر
و ص
 مخت لف
 بر خی
ر اه
 بد ون
 در باره
 ک اهش
ک رد
ست ی
ین ی
ف ق
 ه د
لی ه
ش ما
یم ی
 ع م
رو ز
 ج نگ
  ژ
 ق در
o r
 گرو ه
 ش روع
ال ات
 سی ستم
گ ه
 خ ر
 ا قت
 خ انه
وی ی
ر ین
 خو ب
 در یا
 س ا
 آ ل
 مت ح
 ک ام
 دی گری
ود ی
رک ز
 ت رک
س ال
 ق ابل
ج ر
 ا ه
 ح س
ب ن
ر ات
 اقت ص
ف ا
با ط
و ار
آ یا
  -
 دار ید
ع ث
 اح ساس
 در مان
ث یر
e n
 ب رد
 ند ارد
 گ رد
 ا یم
 می ان
 مط ال
‌ تر
ابر این
 م ست
ف او
ه ن
 و ر
  B
 کس ب
20 1
 من ط
 دول ت
 ان سان
 مو ض
 ن ز
  “
 ص ح
ی ف
 با عث
 س ایت
ا ور
 خ یلی
د ن
 ش ک
 من ت
 کو چ
 د لیل
و ب
ا ئ
 ح رف
‌های ی
س م
ا پ
 فیل م
م یم
 ا رو
a l
a t
 ت اری
لا ش
 چ گونه
  T
  –
 گذ شته
ت و
 م خ
 تج ر
 اج تما
ش ر
 ط ریق
 قب ل
ص ول
 مو فق
ظ ه
 ز بان
 چ نین
 رو ش
 ارت باط
 ا ق
ه نگ
 توس عه
اف ی
e s
 د ید
 قدر ت
د ود
 ا عت
  D
 جه انی
 ارو پ
ا طر
‌ آ
 س ط
 ان گ
مای ه
‌ ‌
 دن بال
 خان و
ند ی
 گ و
ف اق
ری ان
 خ دم
 ش امل
 خ دا
 مد ت
وی س
 خ اص
 ع لا
 گ یر
عد اد
 اص لی
ن ت
 ب ع
 ط راحی
 اجتما عی
 آی نده
اس ب
 س ری
  ض
 ا شت
‌ده د
 ت لاش
 اح ت
 پ اس
 به ترین
 ق ان
 هم یشه
 پ رد
 چ را
 مح صول
ت ن
 و ق
 ک اری
ای ر
ب رد
 آ ر
 و ب
 به تر
 مع مول
 بد ن
 دریا فت
 ات فاق
 اول ین
فاو ت
 خواه ند
ر م
  I
 نو ع
 اد امه
 تر ین
 ا فت
ض ای
 ش م
و ست
 ع ر
 حا ضر
 کنند ه
 نس بت
 خواه ید
ز ند
دی ل
ان س
 دانش گاه
 داد ن
 ت أ
 سر مایه
 هن وز
ی ب
 تجر به
 خر ید
مل لی
تر ل
 حال ی
 ب گیر
 دار ای
 کوچ ک
 ند ار
ت ری
 مص رف
ز ان
 م الی
ای ط
 فرو ش
 مس ئ
 هم راه
ش ار
ن ان
کن ون
 تص میم
ار ان
 گ فته
 اند ازه
 منط قه
 ر شد
 ا ب
گ رد
  H
 ه نگ
 ج ز
 و ا
 میلی ون
 نز دی
  لی
می ت
 سا عت
 آن چه
 خو بی
تی جه
 ن یر
 ک امل
 خانو اده
  G
ید ی
 حد ود
۱ ۹
 زن ان
 ر ی
گر ان
ل س
 ا ض
 کن ترل
ک و
 بر رسی
  :
 د اخ
لا ح
 تب دیل
 ه فته
 ج ام
 توان ند
مان ی
 شر ایط
 ب توان
 تح ت
 فعال یت
 ب ده
 آموز ش
از م
 تح قیق
زار ش
‌ خواه
 م در
 ک لی
 بال ا
 خ ص
اه ی
 پاس خ
ح ال
 هد ف
 گ ی
 آ غ
 خ طر
ن ا
 احت مال
ت ا
  ظ
 و ارد
ب اید
i t
 ه زینه
 گ ست
 ط بی
 زیر ا
 خ اطر
 ش ه
اب ت
‌ د
خو است
 م ل
 پ شت
 ص ف
 چه ار
ح ه
 ح ل
 سط ح
  [
 صح بت
 خ د
 ق ط
ند گان
l e
 دور ه
ع نی
 ار زش
 پ زش
 بیشت ری
 بیم اری
 با زار
 خص وص
 ه زار
گاه ی
 دل ار
 ص ن
بر ان
خ انه
i c
 و قت
ک اری
 واق عی
 موض وع
آن ها
 هست ید
 آغ از
  R
ر ژی
 ص د
هم چنین
 متح ده
 مو اد
 ن تیجه
 آ سی
 بر ابر
 س ب
غ لب
 پ نج
" 

  E
 مث ال
ب ری
بو ط
گ و
 پ ذیر
 ش کل
 جم له
 اج ازه
 بل که
 گ زارش
 مدیر یت
ق ر
 پای ان
‌ک رد
ی ط
  L
 مر بوط
 م غ
 پ ول
s t
 آ ورد
 س خ
 ای الات
 س ن
 شد ند
 ند اشت
ب ع
 م ف
 و ض
ب ور
 وق تی
ح تی
 آ یا
 س ف
 خو است
یر ه
ذ ار
بت ه
 ک می
 ن مای
 دن یا
 خ ط
 ن بود
 ف ی
 خ وان
 چ شم
 اروپ ا
 ط رف
 ح مای
» .

  F
ال ه
‌ش وند
ض ا
 من اسب
اخت ه
ز ن
ق ات
 ا بت
1 0
د اشت
ول و
 ت ه
وی ت
 و لی
 اس اس
 ک ان
] 

 ت عداد
ق در
 ام کان
‌ ترین
 زمین ه
ای ج
 مح دود
 دیگر ان
ش ید
  W
 نزدی ک
اق ل
 حمای ت
 ع مو
ر خ
 ان رژی
 مو جود
یم ت
 س لام
 در ست
 س را
 اقتص ادی
 مر ت
 ب ح
 ام ن
 پرو ژه
 ن گه
 مش خص
 مطال عه
است ان
 م ک
  ...

 یا فت
 شب که
 ا خت
ص ل
 مث ل
وق تی
 پ یر
اه ای
 خدم ات
خو رد
 ک افی
 ام روز
 دار یم
 من ظ
 چ ین
 ا غلب
ری با
 آ خ
 اع لام
) .

 جم ه
ئی س
ج وی
 سیا سی
 ن خواه
 تاری خ
 ر ه
 پیش ر
 کام لا
 تا ثیر
20 0
 ت یم
 ه وا
 ش و
 ل ازم
و های
لا ف
 م لی
هم ه
سی ه
  ضر
ت ح
ش ین
ود ه
 را بط
 خو ش
 خ ون
 س ل
r o
 سری ع
 شخص ی
 ش وید
ن و
ظ ار
ب خ
 تو ص
ام بر
ک تر
 کرد م
 در ک
 به بود
۰ ۰
 کس انی
ب ل
‌ س
  N
ات ر
 چ ون
r e
 خو اب
ر ان
 ك ه
 ج ان
 ح ی
 ال مللی
 طبی عی
 ساخت ه
 س ایر
 ن مایش
 این جا
 کم تر
 م ادر
 دار م
دی گر
 مو ارد
ف ظ
 جام عه
او ند
بن ابراین
 آز مایش
ص ر
اب د
 مح یط
ئ ن
 س اده
 کود کان
 عمو می
 خار ج
 قان ون
 مر گ
‌ ن
 م ذ
‌توان ید
و یر
‌ ال
 ا ک
h e
 س فر
 ج وان
 کود ک
 کن ار
 ت ک
 ج و
 ا ثر
 ن کن
 س خت
ون ت
ج و
ار ک
 م ان
ر ب
 ت کن
 ل ح
 د خ
۲۰ ۱
 انت ق
 اق دام
با شد
 ن گاه
) ،
 بود ن
را ف
 ن ف
 رس ید
 ح فظ
 حق وق
 رابط ه
 ق د
 ط ر
ک ند
 فر ص
 ب ان
م ز
 ر نگ
 نق ش
ب د
 گ ونه
 ق یمت
ع ا
ی ز
. "

 ت ما
ت ق
 ح قی
گی رد
 آم اده
ل ق
وی ند
غ ان
 ا ید
a c
 صف حه
 انت ظار
 مو ق
  ست
ال ت
اه ده
 ر ق
اب ه
 مشکل ات
اب ع
 موفق یت
 آن جا
 ب بین
 پرد اخت
 ق ادر
 رو سیه
مند ان
i on
 وی ژه
 س وی
 فر زند
 رفت ار
 بر س
خص ص
 انگ لی
 بد ان
 پ در
 ح رکت
 هر گز
 دو م
 ع و
 هم چ
ل م
 د قیق
 ه و
 غذ ایی
 حرف ه
 ا یده
 ر ای
‌توان ند
 سیا ست
گ ار
آ مد
 کشور های
ولو ژی
 مت فاوت
ند ان
اف ه
 ج لو
گ فت
 ی عنی
ا ع
 ب پ
 تق ریبا
 ح ک
 سرا سر
 سر عت
م ع
 مج مو
 خار جی
چ را
‌ پ
 ج ست
ب ات
 ص رف
 دو باره
 ساز ی
” 

 د استان
 حد اقل
o m
 د ش
 ن خ
ب از
اب ط
e l
 گذ اری
 هست یم
کی ل
 گذ اشت
 ج ا
 ع لیه
 ش ی
ق ان
 دست گاه
 آز اد
ظ ت
ظ ر
ست گی
 ده ه
 ع ض
 بی ان
 ه ی
 آسی ب
اه م
وری ه
ی کی
 ح م
 یا فته
 تج اری
 طول انی
 می زان
 افر ادی
 آمریک ایی
 ط ی
 کو ت
 ن ت
 زی اد
 خ ور
اف ق
و اره
o u
ب انی
  ‌
in g
 ح ض
 پای ین
 نش ده
 د یده
 اخ یر
 منت شر
 ب یر
 م بت
ر ش
ال بته
 شن اخته
 ت خ
ج ب
ظ یم
 ج ایی
 دست رسی
ق ا
ق یم
م اد
 ر خ
 ت ف
 پ رس
 آم ده
 ج ذ
ق ای
 پیش نه
 بیم ار
 این تر
 آن ان
 بر گ
ب اه
ا فر
ای ه
ل ح
 ط ب
 مش اهده
ش ود
i s
 ت ل
 تص ویر
 امن یت
 با ور
 مس یر
 مت و
 وض عیت
ام پ
 م کان
ال ب
 عم لی
 ف شار
 مع ن
e t
س انی
 بن ابراین
 اب زار
 ع الی
 مع نی
 س پ
 نظ امی
ل مان
 مشت ریان
 بود م
 بخ شی
ي ن
 آ ش
 اض افه
 ح مل
 خد اوند
ت ل
‌ دان
 د قی
 هنگ ام
ام ین
 حض ور
 مه ارت
د و
ه یچ
 چی ست
 ن ور
ت ش
 آم د
ه مان
 ع کس
 ت لف
 محصول ات
 ب و
 سال ه
 ا کنون
 ک یف
 شن اس
 فرص ت
ح له
 ر ئیس
اد ل
‌ رس
 حقی قت
ان ت
ذ اری
ش ق
 در خواست
 س نگ
 هن ر
 س مت
 نیست ند
 گی رد
ر بی
 ن باید
 خ ش
 هم کاری
کن ان
 اش اره
  O
د اری
 واقع ا
 جن سی
م ح
 هست م
 داشت ن
 دخ تر
 م بار
 است رات
لا س
ر یم
o l
 اقتص اد
ت ور
 ب س
 خو رد
 فر اهم
 من جر
 دقی قه
 ش ور
 ف را
وا ج
 ث بت
ائ ل
اه د
 داخ لی
 جم ع
 من ابع
گ ل
 فر ان
  U
 خود ش
 رو شن
 غذ ا
ا فت
س ل
 در د
 توان ایی
وان ی
ع لا
a m
 معمول ا
 ش اید
 اس رائ
ای ش
خی ص
 متو جه
م رد
 بگیر ید
ار س
 مد ل
 تم رکز
ن اه
 ش غ
و یم
 مح ل
 عمل کرد
 رس انه
ت م
ری ف
 داشت ند
 تش کیل
 حم له
‌کن م
 م رکز
 خ بر
های ت
 رو ابط
‌کن ید
 پیشنه اد
ط ان
 گ وش
 علا قه
م ئن
 خود تان
 نو شت
ب سی
 گیر ی
اص له
ص یل
 اشت باه
5 0
ضی ح
 ت ان
 ن ک
 ان گی
 مو سی
۱ ۰
‌ ام
 نت ایج
 باش یم
 ندار ند
i l
 بع دی
 اعت ماد
 طر ح
م ون
 اف غان
 حس اب
لا ق
 خواه یم
 ل ذ
 ک شت
 اه د
 تر س
ل این
 توص یه
 صن عت
 اج ر
ب ح
 ده یم
 ج ل
 ب چه
می ز
 جه ت
 مست قیم
ا ج
 گرفت ن
ح ت
 پی ام
وا ع
ب عد
 تش خیص
 پیشر فت
 است خ
 رو ند
 رس د
 انگلی سی
 م اند
 با قی
بی ه
لی غ
 ن گر
 و سی
 ک ال
عی ین
 مشت ری
 م ها
خ ه
 مق دار
 ام ر
 مجمو عه
ال یا
 گست رده
ژ یم
 ع ب
 د نی
 ام ید
 ه وش
ق ب
و ط
 س عی
 ات اق
a s
 پ وست
 ات ح
 اس ل
 کوت اه
  V
  /
لی س
 باز اری
 تغییر ات
 بر خورد
 مت ن
 مرت بط
 ما شین
e d
 گ زینه
‌گ وید
 پ وش
 مر حله
 ب خواه
م س
ا ول
 نخ ست
 ک دام
… 

 ن فت
 نو شته
اص ل
گ ون
 ب سته
 ج ریان
‌ ر
 به ره
‌ اش
 مش ابه
a d
س مت
ن م
 س وریه
لی ت
 اف ز
مین ان
‌ده ند
 بع ضی
 ت عیین
ام ت
 یک دیگر
را ک
 بل ند
o o
شن اس
 بیر ون
 فر م
 اس پ
 س وم
 کار بران
 ای شان
c h
 اج را
‌کن یم
 منظ ور
ری ه
 تم رین
د واج
 گ وید
بر خی
 تو ضیح
 سخ ن
ام وش
 ی ه
 آ وری
 آن لاین
غ ذ
 نم ود
 مدر سه
ژ گی
اد ت
اد گی
 ان قل
ج مه
 می کن
 او لیه
 تب لیغ
 داخ ل
 و زن
 شد ید
اند ارد
 شک ست
 دو ستان
 نکن ید
 اهد اف
 من اط
 آز ادی
 تو افق
 آل مان
 پ اک
 مح لی
 پزش کی
اد ا
 ته دید
‌ و
 ن ویس
ز یر
 ق وی
 حال ت
ش اید
پ یم
کت ه
 مغ ز
 س پس
 سلام ت
 جلو گیری
ف ه
 ر ود
چ ار
 گ ل
 مح اف
هنگ امی
 ا پ
 ر ژیم
 در ی
 در آمد
 سف ید
 هست ه
ج م
 لذ ت
 خصوص ی
 ت ای
 آ سان
1 8
 ظ اه
آ م
را ق
 عر ض
 بح ث
 نخواه د
انی ا
کر ات
س ک
م ق
 جمه وری
 همچ نان
 خ ی
رف ی
 مرد ان
۲۰ ۰
، 

گ شت
 س ود
 مق ام
چ ند
اه ا
 ن رم
یب انی
 ن هایت
علا وه
 اخ تی
 سر طان
 می ل
آ ی
 سال م
 پی چ
1 2
ال د
 کیف یت
 افغان ستان
 ف وق
 مسئ له
س و
 تأ ثیر
 سل ول
‌ تان
 چند ین
 فی زی
 کش ف
 داد ند
 ذ هن
فا ع
 م ال
 ج دا
م ش
 ل ب
 اه میت
و رده
 آ ور
 است اندارد
 ز نده
 دور ان
 مط مئن
 اینتر نت
ج ات
o f
قط ه
 آموز ان
و تر
 کام پی
‌ طور
خص وص
 اسرائ یل
 موسی قی
 از دواج
 واقع یت
 ج دی
 قر ن
 جدید ی
 گست رش
 بان ک
 فران سه
‌ بین
 ابت دا
م ر
 ن ص
خت ه
ریک ا
 اع ضای
 آر ام
 نس خه
بسی اری
. ”

چ ی
 تحقیق ات
 هم سر
 ور زش
 ق سمت
 اط مینان
 تج ارت
 او قات
 ب ندی
 ار سال
 و یر
وان ین
 ع شق
 ان واع
جوی ان
 انتق ال
 را ست
س ازی
ژ وه
 ک ی
 مس ائل
 خواه م
 کنند گان
 وی ژگی
 مناط ق
اب ق
از د
 بازاری ابی
 ع د
 نم ونه
 تم امی
 مها جر
 مق اله
 رفت ن
 پشت یبانی
 تکن ولوژی
چ گونه
 ن یم
 کرد یم
‌ش د
دان ش
ح ل
3 0
 تن ظیم
و بی
 ی ابد
طر ح
 مشت رک
 ت ازه
ین گ
 ن قطه
 مو ا
  t
 کار های
 میلی ارد
ز مان
ئ و
 فر هنگ
 اختی ار
وز ه
 مق ابل
 ترک یه
 آخ رین
 به داشت
 مج بور
رو ت
ک ش
پ ر
 ان سانی
 خود م
 مبار زه
ز و
ل ود
 ام نی
 ش بیه
 قد یمی
 تما س
 ف لس
 ص لح
وس ط
انی ه
 ک ره
 ق صد
تن ها
ز ب
 استرات ژی
 پ اد
 ب بر
‌ که
 شخص یت
 ق لب
کن ش
ادی ه
 ب ش
 د چار
وی زی
ن اک
ص ه
 بگ ذار
1 5
ج ان
 ا له
 نش انه
 آ تش
 دنی ای
ت ون
 ه ند
i v
 مت خصص
 نیر وهای
‌ خ
 عل می
 در ون
 رس یدن
an d
 ع راق
 تح لیل
ای ع
 ساخت مان
م ث
 ش یر
 دار و
 ت ض
 هنگ امی
 ب شر
ز د
ف ع
 هوا پیم
 موق عیت
؛ 

 آ س
 مق ای
 سی اه
 یاد گیری
 مت ع
 امنی تی
 ه فت
 آ ید
 بر قر
 گ اهی
 سو ال
 نداشت ه
i d
ک م
 مقای سه
a y
ای ند
 ح اصل
 ق وانین
 اع مال
 بز ر
  K
ن تی
 رس می
 ز ود
 در و
آ وری
 دست رس
 مث بت
 مف ید
عه د
 رس یده
 مذ ا
‌ شان
 مع تق
.. .
ل ال
 ع ن
 اک ثر
س یم
 پ ار
ولی ت
 بین ی
en t
م ات
 می توان
ور تی
زی ابی
 مرا ق
ج یت
 ای ست
 کان ادا
ن گی
 ب نی
 ف ضای
 مع رفی
ق قان
ع اده
لا ً
وی ه
 جای گز
 تلف ن
 عب ارت
 ت اب
 مو س
 مو ثر
 نیر وی
 ن اب
 ف ض
 تص ور
 باز دید
 مح تو
م مکن
 شد ت
 اط راف
 فرد ی
 دست ور
 ع ص
 ده نده
 آ دم
 ل و
وم ت
م ط
 بر ند
 جست جو
 ت فاوت
ل ت
 ب مان
 دی جیت
اش ق
 ش ان
و زی
 را حتی
 ر وان
هن گی
 ع می
 ترک یب
u s
 گرد د
س ب
 روز انه
 خاص ی
ز مین
 ال له
 تل ویزی
 خود شان
 گر م
i g
 و س
 تر وری
 ژ اپ
سی س
رو زه
 ص بح
 و ظ
 دول تی
 لب اس
‌ش ن
 اسل امی
ز ا
 ن امه
وی ید
 احتمال ا
 ص ادر
 ر فته
 شناس ایی
 چ قدر
 ض د
 اتح ادیه
 و ح
 قان ونی
 حی وان
ر ض
 ذ خ
o t
ه د
 اشت راک
 م سی
 نق ل
 گو گل
 بزر گی
 پ ژوه
 م طرح
ری ب
 ت کر
 در جه
 تر امپ
  J
ئ م
 موا جه
 نک رده
ع تی
ست ند
 دور بین
 مراق بت
 ع امل
 عض و
 ف ل
1 00
‌ ب
رو ف
ذ ف
ف قط
 ق ل
او یر
 ار زیابی
 جم عیت
 شه رو
 بزرگ ترین
 آخ ر
 مو جب
 کم پ
 ح زب
 فر هنگی
‌رس د
 س رد
ال ش
 باز گشت
ژ ن
 اف س
شن اسی
 د ندان
 خود رو
 مبت لا
 ک جا
 ش ش
 کامپی وتر
 ن کرد
a g
 هد ایت
شت ر
س پس
 برگ زار
 ضر وری
 ا بر
 د مو
 ر یا
 مت وسط
 پای ه
 ن ار
 هوش مند
 اس اسی
 عر ب
 من ح
 تع ریف
 آ ف
 مش اور
 ب ارد
 می ز
گرد ان
  ؟

اب قه
اف ع
 لح ظه
 جذ ب
ت ص
ئ ین
 پرو از
 ث ابت
ک ید
 د ع
 د فاع
 ن ح
 ال کتر
 م تر
ور ان
 آموز شی
 شم الی
 سب ک
 دست ی
  )
‌ اید
 جمه ور
 خورد ن
 تح صیل
 زی ب
 ع دم
u r
 مو تور
 زی ست
 ف وت
 ام ور
  of
 ب گیرد
غ ال
 فر اموش
می ل
 بخ وان
ـ ـ
 ک لاس
 است ر
 ح وزه
 پیچ یده
نا وری
ور یت
 چیز هایی
لا گ
 ح ذف
او م
س ون
و ح
 ن جات
 ور ود
o w
وق ف
 معتق د
 م ؤ
 پرو ت
 گیر ند
19 9
 کل مه
ل ند
 و اح
 مدر ن
 محاف ظت
 ز ده
کت ری
 کل یدی
 انقل اب
ن ام
 پ ست
 پزش ک
 ف صل
 ت مای
 تر تی
 قر آن
 علا ئم
 م رک
 چ طور
 توان یم
 انتخاب ات
ا ظ
 اجر ای
 وا کنش
ز مانی
ي د
ک سی
ف کر
 چ رخ
 بدان ید
 ظاه ر
e c
 رو ح
 مخ ال
  p
 ث روت
 دانش جویان
آی ند
۵ ۰
 ک شته
 چ الش
 من بع
 ک ر
 و یت
 ع اشق
 ف ار
 ش یمی
 بال ای
 بتوان د
 بر یت
 ف ایل
 کار برد
 پس ر
u n
 بر ج
 مت وقف
 عل ت
‌ ع
1 6
 معن ای
‌ال مللی
خ ش
 آن که
 مطال عات
 مل ل
 ف ناوری
 شغ ل
 اص لاح
e m
 ببین ید
 شی وه
 ساخت ار
ان و
 مس لمان
ش ا
 حال ا
 آ شن
 پ ا
 ق ض
 مه می
 محتو ای
 زی با
 جن وبی
u t
‌ مان
 ش گفت
 گ از
ست انی
 قر ارد
 نا شی
 اخت ص
 حک ومت
گ انه
‌ است
 ن گران
 مح بو
 ره بری
 ف اصله
 ذخ یره
 واح د
ار کت
 من فی
 ست اره
 بز ن
 آف ریق
 ترتی ب
ع ده
 مج از
کار ان
اب ان
 کشور ها
 جایگز ین
د ری
 د یدن
 ت ست
1 1
 ام ریکا
 مح ت
ن می
ش ک
 ماه ی
 S t
 آ ورده
ز م
‌ گیر
 درمان ی
ق اد
 کار ت
 رق ابت
 خش ونت
 فر مان
مرد م
ام ید
 باش م
 عمی ق
ن ش
اح ت
 ارت ش
 مسئ ول
اول ین
 خوان دن
 هو ایی
 آ قای
 رو ید
4 0
‌گ ذاری
 د ائ
at ion
 ا یت
ما ز
 تص اویر
را ج
 عرض ه
er s
 برد اشت
 گ ویند
 ق اب
الد ین
 مع رض
 ار شد
ح ات
س از
 ب ک
 نیاز های
 بال اتر
 قط ع
ل ات
ین ک
 وسی له
  s
ب ازی
 اف زار
 تاری خی
1 3
i m
 پ لیس
 جز ئی
اد های
 خدم ت
 لی ست
گ ذار
ول ت
 پرد از
 ن وز
 قب لی
 عم ر
 مسئ ولیت
 صد ای
 م اده
 ام ام
 ن هایی
 بیم اران
رو ش
 م ز
ظه ار
ور ش
 دش من
 است رس
 ع ف
 شد م
 نگر انی
a p
‌ باشد
 تکر ار
ا شی
ژ یک
 اقدام ات
 برس د
 سر ویس
 تق ویت
 ص ورتی
‌ای م
 مه ند
 و زیر
ول ه
 بگیر ند
م رکز
 ز دن
‌ش ده
 دیجیت ال
 مر ز
حال ا
 س ع
 ف هم
 مش غ
دار ان
 دید گاه
 ر شته
i r
 آ گاه
 اختص اص
ای ان
 ذ کر
 ظ رف
 عو امل
س ا
 مرک زی
 محبو ب
 اح تر
 افت اد
 بر ادر
 مان ده
 د کتر
ست ر
 ایم یل
 کاملا ً
 فیزی کی
وی ش
 کار بر
 ه شت
بع ضی
 دش وار
 س لاح
 فر آیند
عی ف
 ته یه
د اد
گ ذ
 معمول اً
 ری زی
چ ون
شن به
ک رو
اص ر
 شم اره
  :

 پ ارک
بر نامه
 مج د
و ف
شد ار
 ز د
سی ون
ل ط
 ر د
 عل م
قی ه
 ایر انی
 اطلاعات ی
 نص ب
 ق دم
 مست قل
 پژوه ش
و ک
 خواست ه
‌ گیرد
ست ن
 ا ظهار
 خ لق
 مختلف ی
 عملی ات
خ ود
 ن کته
 اس لام
 زند ان
ور ک
‌کرد ند
  c
ن س
 ش ا
 خود مان
 غ ربی
 قب ول
o c
 I n
 آورد ن
 ج شن
 موض و
 پوش ش
. [
ا ض
 خ لاق
 نخست ین
 سال گی
 مش ارکت
 رای گان
 ت ور
 کار کنان
 و عده
 تق سیم
 فرزند ان
 عو ض
 مشغ ول
ر ت
غ ن
م یر
 آش کار
 ب ند
 ک یل
 ش ع
 قدرت مند
 منح صر
ا کنون
 س ق
اند ن
 ال بته
ی عنی
‌کن نده
ری ت
 برقر ار
 گذاشت ه
ش ب
 ن توان
 ن باشد
 متح د
‌گ ذ
 م ي
 می شود
زار ت
 م لا
 ح فا
کر ه
 سلام تی
 کشت ی
 ا کت
 چ ینی
 نس ل
 لح اظ
ب یر
 م زای
 احساس ات
 نف س
۳ ۰
 اروپ ایی
است فاده
 حیوان ات
 T he
 تای ید
 مس افر
 درو غ
 هم واره
 کش اور
 عل وم
 جو اب
م ار
ان گی
 دست ه
u l
 ص ند
 و اب
 ده م
ب ش
 نوشت ن
ر انی
جه یز
هر ه
 ال عاده
وی ق
اد ث
فت ر
س لام
ش رکت
ک لی
 ک ف
 فع لی
 اعت قاد
 مذ ه
 و زارت
خی لی
 اد اره
 اق امت
 قاب لیت
م اری
 ک د
بی ل
 ژ و
 بح ران
ک ری
 ص اح
 نمای ند
 تلویزی ون
گ ن
 ن شد
 انت شار
 نم اید
 م ای
 اع تر
گون گی
1 7
د ست
 ن رخ
 محدود یت
 صن عتی
 ج الب
‌ گیری
 ه تل
ون ا
 داشت م
 ژاپ ن
 را حت
 م من
 ج راحی
بی شتر
اح به
 گرد ش
 ع لی
 ج د
ط ی
 می کند
 تض مین
 انگی ز
۱ ۵
 بر ق
  m
ک ا
عد ادی
 افز ود
 گو شی
 کل مات
‌س ازی
 طب ق
  ”
2 5
را ح
 مق ر
ب اری
د س
 ا ين
 زیب ایی
 م ب
 ه شدار
به ترین
 غ رب
اگر چه
 م ار
 نظ ام
 د اری
u m
 پ ناه
 راه ی
 شیمی ایی
6 0
 ع ادی
ری زی
 نا پ
گ ذاری
لا ک
 روز نامه
 بده ید
ج ایی
 س گ
 خ رو
 منت قل
t er
ب ز
 ساز د
 خور شید
 طب قه
‌ رو
ط ب
 ش مال
 من افع
 پی اده
 واقع اً
 شم ار
 استر الیا
 و الدین
تم ام
تح ان
ید م
 نظ ارت
 احتر ام
o s
 خ اک
بخ ش
 می ده
 ان ج
ف انه
 گر ان
 بد ست
 ک وه
 قر بانی
 د ام
 در س
 گذ ار
  ي
 می دان
 مک انی
 ف ن
حی ه
 مقام ات
 تح ریم
 سب ز
ر وی
 گفت ند
 ت س
ش اه
م ب
‌ع نوان
ام روز
 ق ه
ق ق
 ب ای
 ت جهیز
را فی
 پیشر فته
 ر نج
 نیاز مند
 تول د
o d
‌د اد
 امید وار
 بریت انیا
 ا ث
 فر ست
 حفا ظت
 جل سه
 ت ری
ول د
 بود جه
 بتوان ند
 آ پ
 ی ون
‌توان یم
‌گ ویند
 تمای ل
ز ل
‌ گر
 آ گاهی
 پ و
 ام تحان
 جن وب
گز اری
 تبلیغ ات
 علا وه
1 4
۱ ۲
 ر انند
 ایم نی
es s
 ش اهد
 خ یر
 ع جی
 مت صل
س ین
و تی
 چ اپ
‌آ ید
 دل ایل
i a
‌گ رد
 ار ز
حی ح
‌خواه د
ص ورت
 ن با
 ع قب
 چ گونگی
 ب ف
 ت امین
رد گی
 پ ل
‌ر ود
 قه وه
چ سب
 د ین
 د قت
 تر جی
 ب اره
 ایم ان
هد ف
ج ای
 تع ط
یف ه
 بیمار ستان
 دری ایی
 فلس ط
گ وی
را سی
 مح ققان
 نق اط
 ف ق
 در خت
وی ل
 داد گاه
تن اب
 نگه داری
 خوش حال
 توص یف
 کار ها
 دانش مندان
همان طور
 ت خصص
 کن ی
 فی س
 جذ اب
؟ !

ک ود
۱ ۸
 فر ود
00 0
 شه ری
 نام یده
 عرب ستان
ج وان
 مع ت
 صح نه
ت به
 د ا
 مص احبه
 برد ن
 بود یم
 منت ظر
 اتفاق ی
 مح س
 دع وت
م ج
ی سی
 ب ستگی
 م خصوص
 پ اید
یم ان
نو عی
گ انی
 م ایل
 نو عی
 توان ست
او مت
 اند از
 پ نه
 افت د
 نویس نده
 ع بور
 خان م
 شو یم
ک ال
۱ ۰۰
 ملا قات
» ،
 را دی
ع کس
 به تری
 ط وری
مو لی
آن چه
 آس مان
ان جام
 بر وید
اب له
ضر ت
 عف ونت
 ت عهد
 مخ اط
 ره بران
غذ یه
ار های
 حمل ات
 یه ودی
 میل ادی
خ ار
ض ح
گ ین
 د فتر
 است اد
 اله ی
 نح وه
 نوز اد
ج ع
 س ین
 خ لا
 او ایل
 مف ه
 ش اه
 و ید
ام له
 جای زه
 انگ ل
 فروش گاه
 طبی عت
 مهاجر ت
بز رگ
 بر وز
19 8
 قرارد اد
 ب ید
 اص ل
 بگ ذ
دا ک
 ح اف
وی ورک
 برخورد ار
 م ام
 آ فر
 اض افی
 کار گران
ت امبر
م هم
 ف ضا
 جن به
 هزار ان
 م گر
ان ویه
 شما ست
 سر زمین
ج د
 سو خت
 افت اده
 مط لب
t h
ش ند
 ع ق
فر انس
مد ت
 توجه ی
 وب لاگ
 فر ض
 بتوان ید
  f
ع ف
و اق
ای م
 مق ابله
م الی
پ ار
پی ش
 شغ لی
 مت مرکز
 بده د
 گی اه
 ر تبه
 اد عا
 قل بی
 بر نده
 ث انیه
 اض طر
س ن
 در گیر
 توان م
 بگ ویید
 تش ویق
 ش ف
 ف نی
 چ پ
 ص دا
 اند ازی
 ارتباط ات
 جز یره
‌خواه ید
 سخ تی
 سع ودی
 ع ه
 رو زی
 گروه ی
a b
 پ دید
زی ع
 مد اوم
" .

ث ار
رد از
c e
 در ستی
 ح ر
 اه ل
 خرید اری
 کان ال
 ره بر
 ویت امین
 آشن ا
  X
ص یلی
 ر ح
 این ها
 مش ه
 دان م
 مخال ف
 ب کن
 گ ام
 ط ل
 فر ایند
 مع مولی
ن ز
 رو غن
 گذ شت
 بزرگ تر
2 4
ید ند
 آ بی
 رو ست
 اج تناب
 عه ده
زی ه
 خطر ناک
 تکن یک
ژ انس
 مع روف
 مق اومت
 بخ ور
 نیم ه
ه ی
 ب قیه
 سر گر
 تعط یل
ب رو
 هی جان
  d
 پ خش
 فر اتر
هر ان
 بگ ویم
و ذ
 ک ری
 تر جمه
 چ ربی
 اص ول
o p
س اخت
 ن اد
 س ای
 قر مز
 سپ تامبر
س ور
 د یر
 ت ئ
 ح و
 ق هر
 س ابق
 خ ویش
چی زی
 شهرو ندان
 ترجی ح
  !

 ر ها
 گ ناه
 ع ادت
را حت
 بگذار ید
گ اری
ی س
‌ ف
 بر آ
فر م
ن ظ
 یافت ن
 بخوان ید
 زند انی
a v
 ع ین
 نی ویورک
 ب یت
 ال ان
خ د
لا قی
 پیر وزی
ح الی
ای ق
 انگی زه
 محس وب
 ل ط
 کل ید
 قب لا
 حا وی
در س
اخ تی
 بارد اری
 ا رد
 ا ور
 ب رده
 تجهیز ات
ئ ت
 ج ع
 آز مون
 تقریبا ً
 پنه ان
 ر ض
ه می
ع م
و ال
 م بل
 ر ست
 ت غذیه
 خ اور
ات یک
 تا کید
 ا ون
 م ى
 و ل
  نده
 ك ن
 نظ ریه
فاو تی
  Y
 روی کرد
 ژ ن
ح دود
 سر باز
داک ثر
‌ خواست
 است ان
 مل ت
غ م
ند ن
 ص حیح
 سی اره
 انگل ستان
 کرد ید
 نیر و
ک راسی
‌ برد
 تو زیع
 تق ا
  .
 پذیر ش
ع مل
ک ده
 ری سک
ق ابل
پ رس
 مت عد
  b
 مزای ای
 س ک
 س اح
 چیز های
ئ ید
ف یل
 مح ک
 تن هایی
 پر ورش
 مالی ات
 ت عدادی
ور و
 تا کنون
 ام پ
کت اب
 جن بش
r i
ق وه
 ک ا
 هم اه
کن نده
 با غ
 اخت لال
 بخواه ید
 جزئی ات
اد ق
بی ش
