{
  "version": "1.0",
  "truncation": null,
  "padding": null,
  "added_tokens": [],
  "normalizer": null,
  "pre_tokenizer": {
    "type": "Sequence",
    "pretokenizers": [
      {
        "type": "Split",
        "pattern": {
          "Regex": "[^\\r\\n\\p{L}\\p{N}]?[\\p{Lu}\\p{Lt}\\p{Lm}\\p{Lo}\\p{M}]*[\\p{Ll}\\p{Lm}\\p{Lo}\\p{M}]+|[^\\r\\n\\p{L}\\p{N}]?[\\p{Lu}\\p{Lt}\\p{Lm}\\p{Lo}\\p{M}]+[\\p{Ll}\\p{Lm}\\p{Lo}\\p{M}]*|\\p{N}{1,3}| ?[^\\s\\p{L}\\p{N}]+[\\r\\n/]*|\\s*[\\r\\n]+|\\s+(?!\\S)|\\s+"
        },
        "behavior": "Isolated",
        "invert": false
      }
    ]
  },
  "post_processor": null,
  "decoder": null,
  "model": {
    "type": "BPE",
    "dropout": null,
    "unk_token": null,
    "continuing_subword_prefix": null,
    "end_of_word_suffix": null,
    "fuse_unk": false,
    "byte_fallback": false,
    "ignore_merges": false,
    "vocab": {
      "\n": 0,
      " ": 1,
      "!": 2,
      "\"": 3,
      "#": 4,
      "$": 5,
      "%": 6,
      "&": 7,
      "'": 8,
      "(": 9,
      ")": 10,
      "*": 11,
      "+": 12,
      ",": 13,
      "-": 14,
      ".": 15,
      "/": 16,
      "0": 17,
      "1": 18,
      "2": 19,
      "3": 20,
      "4": 21,
      "5": 22,
      "6": 23,
      "7": 24,
      "8": 25,
      "9": 26,
      ":": 27,
      ";": 28,
      "<": 29,
      "=": 30,
      ">": 31,
      "?": 32,
      "@": 33,
      "A": 34,
      "B": 35,
      "C": 36,
      "D": 37,
      "E": 38,
      "F": 39,
      "G": 40,
      "H": 41,
      "I": 42,
      "J": 43,
      "K": 44,
      "L": 45,
      "M": 46,
      "N": 47,
      "O": 48,
      "P": 49,
      "Q": 50,
      "R": 51,
      "S": 52,
      "T": 53,
      "U": 54,
      "V": 55,
      "W": 56,
      "X": 57,
      "Y": 58,
      "Z": 59,
      "[": 60,
      "\\": 61,
      "]": 62,
      "^": 63,
      "_": 64,
      "`": 65,
      "a": 66,
      "b": 67,
      "c": 68,
      "d": 69,
      "e": 70,
      "f": 71,
      "g": 72,
      "h": 73,
      "i": 74,
      "j": 75,
      "k": 76,
      "l": 77,
      "m": 78,
      "n": 79,
      "o": 80,
      "p": 81,
      "q": 82,
      "r": 83,
      "s": 84,
      "t": 85,
      "u": 86,
      "v": 87,
      "w": 88,
      "x": 89,
      "y": 90,
      "z": 91,
      "{": 92,
      "|": 93,
      "}": 94,
      "~": 95,
      "": 96,
      "": 97,
      "": 98,
      "": 99,
      "": 100,
      "": 101,
      "": 102,
      "": 103,
      "": 104,
      "": 105,
      "": 106,
      "": 107,
      "": 108,
      "": 109,
      "": 110,
      " ": 111,
      "¡": 112,
      "¢": 113,
      "£": 114,
      "¤": 115,
      "¥": 116,
      "§": 117,
      "¨": 118,
      "©": 119,
      "ª": 120,
      "«": 121,
      "¬": 122,
      "­": 123,
      "®": 124,
      "°": 125,
      "±": 126,
      "²": 127,
      "´": 128,
      "µ": 129,
      "·": 130,
      "¹": 131,
      "º": 132,
      "»": 133,
      "¼": 134,
      "½": 135,
      "¾": 136,
      "Á": 137,
      "Â": 138,
      "Ã": 139,
      "Ä": 140,
      "Å": 141,
      "Ç": 142,
      "É": 143,
      "Ô": 144,
      "Ö": 145,
      "×": 146,
      "Ø": 147,
      "Ü": 148,
      "ß": 149,
      "à": 150,
      "á": 151,
      "â": 152,
      "ã": 153,
      "ä": 154,
      "å": 155,
      "æ": 156,
      "ç": 157,
      "è": 158,
      "é": 159,
      "ê": 160,
      "ë": 161,
      "ì": 162,
      "í": 163,
      "î": 164,
      "ï": 165,
      "ð": 166,
      "ñ": 167,
      "ò": 168,
      "ó": 169,
      "ô": 170,
      "ö": 171,
      "÷": 172,
      "ø": 173,
      "ú": 174,
      "ü": 175,
      "ý": 176,
      "þ": 177,
      "ā": 178,
      "ć": 179,
      "ē": 180,
      "ğ": 181,
      "ī": 182,
      "İ": 183,
      "ı": 184,
      "ł": 185,
      "ń": 186,
      "ŋ": 187,
      "œ": 188,
      "Ş": 189,
      "ş": 190,
      "š": 191,
      "ū": 192,
      "ű": 193,
      "Ž": 194,
      "ƒ": 195,
      "ǎ": 196,
      "ɔ": 197,
      "ə": 198,
      "ɛ": 199,
      "ɜ": 200,
      "ɨ": 201,
      "ɪ": 202,
      "ʀ": 203,
      "ʁ": 204,
      "ʊ": 205,
      "ʺ": 206,
      "ˈ": 207,
      "ˌ": 208,
      "ˏ": 209,
      "ː": 210,
      "˙": 211,
      "˚": 212,
      "˛": 213,
      "˝": 214,
      "́": 215,
      "̃": 216,
      "̈": 217,
      "̊": 218,
      "̋": 219,
      "̏": 220,
      "̨": 221,
      "̵": 222,
      "̈́": 223,
      "Α": 224,
      "Δ": 225,
      "Ε": 226,
      "Μ": 227,
      "Φ": 228,
      "Ω": 229,
      "α": 230,
      "β": 231,
      "γ": 232,
      "ε": 233,
      "ζ": 234,
      "θ": 235,
      "κ": 236,
      "λ": 237,
      "μ": 238,
      "ν": 239,
      "ο": 240,
      "ρ": 241,
      "ς": 242,
      "τ": 243,
      "φ": 244,
      "ω": 245,
      "Б": 246,
      "Г": 247,
      "З": 248,
      "И": 249,
      "К": 250,
      "М": 251,
      "О": 252,
      "П": 253,
      "С": 254,
      "Т": 255,
      "а": 256,
      "б": 257,
      "г": 258,
      "д": 259,
      "е": 260,
      "и": 261,
      "й": 262,
      "к": 263,
      "л": 264,
      "м": 265,
      "н": 266,
      "о": 267,
      "р": 268,
      "с": 269,
      "т": 270,
      "у": 271,
      "ф": 272,
      "х": 273,
      "ы": 274,
      "ь": 275,
      "я": 276,
      "ё": 277,
      "ћ": 278,
      "ה": 279,
      "ח": 280,
      "י": 281,
      "כ": 282,
      "מ": 283,
      "פ": 284,
      "ש": 285,
      "،": 286,
      "؛": 287,
      "؟": 288,
      "ء": 289,
      "آ": 290,
      "أ": 291,
      "ؤ": 292,
      "إ": 293,
      "ئ": 294,
      "ا": 295,
      "ب": 296,
      "ة": 297,
      "ت": 298,
      "ث": 299,
      "ج": 300,
      "ح": 301,
      "خ": 302,
      "د": 303,
      "ذ": 304,
      "ر": 305,
      "ز": 306,
      "س": 307,
      "ش": 308,
      "ص": 309,
      "ض": 310,
      "ط": 311,
      "ظ": 312,
      "ع": 313,
      "غ": 314,
      "ـ": 315,
      "ف": 316,
      "ق": 317,
      "ك": 318,
      "ل": 319,
      "م": 320,
      "ن": 321,
      "ه": 322,
      "و": 323,
      "ى": 324,
      "ي": 325,
      "ً": 326,
      "ٌ": 327,
      "ٍ": 328,
      "َ": 329,
      "ُ": 330,
      "ِ": 331,
      "ّ": 332,
      "ْ": 333,
      "ٓ": 334,
      "ٔ": 335,
      "٠": 336,
      "١": 337,
      "٢": 338,
      "٣": 339,
      "٤": 340,
      "٥": 341,
      "٦": 342,
      "٧": 343,
      "٨": 344,
      "٩": 345,
      "٪": 346,
      "٫": 347,
      "٬": 348,
      "ٰ": 349,
      "ٴ": 350,
      "ٶ": 351,
      "ٸ": 352,
      "پ": 353,
      "ٿ": 354,
      "څ": 355,
      "چ": 356,
      "ژ": 357,
      "ک": 358,
      "ڪ": 359,
      "ګ": 360,
      "گ": 361,
      "ڵ": 362,
      "ں": 363,
      "ھ": 364,
      "ۀ": 365,
      "ہ": 366,
      "ۂ": 367,
      "ۃ": 368,
      "ۆ": 369,
      "ی": 370,
      "ێ": 371,
      "ے": 372,
      "۔": 373,
      "ە": 374,
      "۰": 375,
      "۱": 376,
      "۲": 377,
      "۳": 378,
      "۴": 379,
      "۵": 380,
      "۶": 381,
      "۷": 382,
      "۸": 383,
      "۹": 384,
      "ܔ": 385,
      "ܜ": 386,
      "ก": 387,
      "ง": 388,
      "แ": 389,
      "ა": 390,
      "გ": 391,
      "ე": 392,
      "ვ": 393,
      "თ": 394,
      "ი": 395,
      "ლ": 396,
      "მ": 397,
      "ნ": 398,
      "ო": 399,
      "რ": 400,
      "ს": 401,
      "უ": 402,
      "ქ": 403,
      "Ḥ": 404,
      "ṇ": 405,
      "ṯ": 406,
      "ủ": 407,
      "ἐ": 408,
      "ἥ": 409,
      "Ἴ": 410,
      "ῖ": 411,
      " ": 412,
      " ": 413,
      " ": 414,
      " ": 415,
      "​": 416,
      "‌": 417,
      "‍": 418,
      "‎": 419,
      "‏": 420,
      "–": 421,
      "—": 422,
      "―": 423,
      "‘": 424,
      "’": 425,
      "‚": 426,
      "“": 427,
      "”": 428,
      "„": 429,
      "†": 430,
      "•": 431,
      "…": 432,
      " ": 433,
      " ": 434,
      "‪": 435,
      "‫": 436,
      "‬": 437,
      "‭": 438,
      " ": 439,
      "′": 440,
      "″": 441,
      "‹": 442,
      "›": 443,
      "※": 444,
      "‼": 445,
      "⁄": 446,
      "⁉": 447,
      "⁠": 448,
      "⁣": 449,
      "⁧": 450,
      "⁩": 451,
      "⁪": 452,
      "⁭": 453,
      "⁮": 454,
      "⁯": 455,
      "⁰": 456,
      "₂": 457,
      "₩": 458,
      "€": 459,
      "₹": 460,
      "⃣": 461,
      "℃": 462,
      "№": 463,
      "™": 464,
      "Ⅲ": 465,
      "←": 466,
      "↑": 467,
      "→": 468,
      "↓": 469,
      "⇆": 470,
      "⇐": 471,
      "⇔": 472,
      "∀": 473,
      "∆": 474,
      "∈": 475,
      "−": 476,
      "∗": 477,
      "∘": 478,
      "√": 479,
      "∴": 480,
      "≈": 481,
      "≠": 482,
      "≡": 483,
      "≤": 484,
      "≥": 485,
      "⊞": 486,
      "⋆": 487,
      "⌘": 488,
      "⏳": 489,
      "⏺": 490,
      "▐": 491,
      "■": 492,
      "□": 493,
      "▪": 494,
      "▫": 495,
      "▬": 496,
      "▲": 497,
      "▶": 498,
      "►": 499,
      "◀": 500,
      "◄": 501,
      "◇": 502,
      "◊": 503,
      "○": 504,
      "●": 505,
      "◦": 506,
      "◽": 507,
      "◾": 508,
      "★": 509,
      "☆": 510,
      "☚": 511,
      "☺": 512,
      "☼": 513,
      "♊": 514,
      "♒": 515,
      "♡": 516,
      "♥": 517,
      "♦": 518,
      "♪": 519,
      "♫": 520,
      "♬": 521,
      "♯": 522,
      "⚡": 523,
      "⚽": 524,
      "✅": 525,
      "✋": 526,
      "✍": 527,
      "✓": 528,
      "✔": 529,
      "✕": 530,
      "✤": 531,
      "✭": 532,
      "✳": 533,
      "✵": 534,
      "❇": 535,
      "❌": 536,
      "❗": 537,
      "❤": 538,
      "➌": 539,
      "➐": 540,
      "➕": 541,
      "➖": 542,
      "⟨": 543,
      "⟩": 544,
      "⦁": 545,
      "⬅": 546,
      "《": 547,
      "》": 548,
      "「": 549,
      "か": 550,
      "き": 551,
      "ど": 552,
      "ま": 553,
      "メ": 554,
      "モ": 555,
      "ヤ": 556,
      "㎡": 557,
      "一": 558,
      "东": 559,
      "事": 560,
      "人": 561,
      "件": 562,
      "前": 563,
      "十": 564,
      "台": 565,
      "命": 566,
      "坛": 567,
      "外": 568,
      "天": 569,
      "子": 570,
      "孫": 571,
      "將": 572,
      "撫": 573,
      "斐": 574,
      "旗": 575,
      "日": 576,
      "月": 577,
      "朝": 578,
      "本": 579,
      "樹": 580,
      "湾": 581,
      "灣": 582,
      "爱": 583,
      "生": 584,
      "甲": 585,
      "碌": 586,
      "神": 587,
      "臺": 588,
      "英": 589,
      "蔼": 590,
      "语": 591,
      "谷": 592,
      "軍": 593,
      "锦": 594,
      "门": 595,
      "革": 596,
      "도": 597,
      "라": 598,
      "아": 599,
      "장": 600,
      "티": 601,
      "": 602,
      "": 603,
      "": 604,
      "": 605,
      "": 606,
      "": 607,
      "": 608,
      "": 609,
      "": 610,
      "": 611,
      "": 612,
      "": 613,
      "": 614,
      "": 615,
      "": 616,
      "": 617,
      "": 618,
      "": 619,
      "": 620,
      "": 621,
      "": 622,
      "": 623,
      "": 624,
      "": 625,
      "": 626,
      "": 627,
      "": 628,
      "": 629,
      "": 630,
      "": 631,
      "": 632,
      "ﮔ": 633,
      "ﮥ": 634,
      "﴾": 635,
      "﴿": 636,
      "ﷲ": 637,
      "️": 638,
      "ﹼ": 639,
      "ﺁ": 640,
      "ﺄ": 641,
      "ﺇ": 642,
      "ﺌ": 643,
      "ﺎ": 644,
      "ﺗ": 645,
      "ﺳ": 646,
      "ﻄ": 647,
      "ﻜ": 648,
      "ﻢ": 649,
      "ﻣ": 650,
      "ﻤ": 651,
      "ﻦ": 652,
      "ﻧ": 653,
      "ﻨ": 654,
      "ﻪ": 655,
      "ﻫ": 656,
      "ﻮ": 657,
      "ﻯ": 658,
      "ﻲ": 659,
      "ﻴ": 660,
      "﻿": 661,
      "：": 662,
      "�": 663,
      "🇩": 664,
      "🇪": 665,
      "🇬": 666,
      "🇷": 667,
      "🇺": 668,
      "🌀": 669,
      "🌐": 670,
      "🌬": 671,
      "🌲": 672,
      "🌷": 673,
      "🌸": 674,
      "🌺": 675,
      "🍁": 676,
      "🍃": 677,
      "🍳": 678,
      "🎁": 679,
      "🎄": 680,
      "🎥": 681,
      "🎬": 682,
      "🐶": 683,
      "👈": 684,
      "👌": 685,
      "👏": 686,
      "👑": 687,
      "👻": 688,
      "💎": 689,
      "💕": 690,
      "💜": 691,
      "💟": 692,
      "💫": 693,
      "💳": 694,
      "📈": 695,
      "📌": 696,
      "📍": 697,
      "📑": 698,
      "📝": 699,
      "📣": 700,
      "📱": 701,
      "📽": 702,
      "🔎": 703,
      "🔔": 704,
      "🔥": 705,
      "🔴": 706,
      "🔵": 707,
      "🔶": 708,
      "🔷": 709,
      "🔸": 710,
      "🔹": 711,
      "🔺": 712,
      "🔻": 713,
      "🗽": 714,
      "😀": 715,
      "😁": 716,
      "😂": 717,
      "😅": 718,
      "😉": 719,
      "😊": 720,
      "😌": 721,
      "😍": 722,
      "😎": 723,
      "😏": 724,
      "😐": 725,
      "😒": 726,
      "😔": 727,
      "😕": 728,
      "😗": 729,
      "😙": 730,
      "😛": 731,
      "😢": 732,
      "😥": 733,
      "😭": 734,
      "😳": 735,
      "😵": 736,
      "😶": 737,
      "🙁": 738,
      "🙂": 739,
      "🙏": 740,
      "🚀": 741,
      "🚫": 742,
      "🤔": 743,
      "🤗": 744,
      "🥇": 745,
      " ا": 746,
      " ب": 747,
      " م": 748,
      " د": 749,
      " ک": 750,
      "ان": 751,
      "ای": 752,
      "ار": 753,
      "ست": 754,
      ".\n": 755,
      "ند": 756,
      " و": 757,
      " ر": 758,
      " ت": 759,
      " ه": 760,
      " در": 761,
      "ین": 762,
      " ن": 763,
      " ش": 764,
      " می": 765,
      " به": 766,
      "ود": 767,
      "ید": 768,
      " س": 769,
      " آ": 770,
      " که": 771,
      " خ": 772,
      " از": 773,
      " را": 774,
      " است": 775,
      "اد": 776,
      "ال": 777,
      "رد": 778,
      "ام": 779,
      " با": 780,
      " بر": 781,
      " ی": 782,
      " پ": 783,
      "ور": 784,
      " این": 785,
      "اه": 786,
      " ج": 787,
      "یر": 788,
      " ف": 789,
      " ح": 790,
      " گ": 791,
      "ات": 792,
      "یم": 793,
      "شت": 794,
      " آن": 795,
      " ع": 796,
      "لی": 797,
      "ها": 798,
      " ز": 799,
      "ما": 800,
      "های": 801,
      " یک": 802,
      "وان": 803,
      "اب": 804,
      " کن": 805,
      " چ": 806,
      "ری": 807,
      " ق": 808,
      "ون": 809,
      " برای": 810,
      "از": 811,
      " هم": 812,
      "ده": 813,
      "فت": 814,
      "سی": 815,
      "ول": 816,
      "وی": 817,
      " های": 818,
      "گر": 819,
      " کرد": 820,
      "می": 821,
      "تر": 822,
      "رو": 823,
      " ان": 824,
      "مان": 825,
      " مو": 826,
      "اری": 827,
      " دار": 828,
      " خود": 829,
      "در": 830,
      "را": 831,
      " من": 832,
      "تی": 833,
      "اده": 834,
      "کن": 835,
      "لا": 836,
      " خو": 837,
      " بود": 838,
      " ط": 839,
      " نی": 840,
      " شما": 841,
      " رو": 842,
      " باش": 843,
      " کار": 844,
      "‌های": 845,
      "یت": 846,
      " ص": 847,
      " یا": 848,
      "این": 849,
      "گی": 850,
      "انی": 851,
      "زی": 852,
      " بی": 853,
      " تا": 854,
      "اشت": 855,
      "خت": 856,
      "اس": 857,
      " شده": 858,
      " تو": 859,
      " شد": 860,
      " ده": 861,
      " ها": 862,
      "اید": 863,
      "ایی": 864,
      " سال": 865,
      "به": 866,
      " ای": 867,
      "بر": 868,
      "یا": 869,
      "رک": 870,
      " ما": 871,
      " هست": 872,
      " دو": 873,
      " کند": 874,
      "بی": 875,
      " دی": 876,
      " کنید": 877,
      "انه": 878,
      " او": 879,
      "فر": 880,
      " (": 881,
      "‌ها": 882,
      " شود": 883,
      " ام": 884,
      " مح": 885,
      " توان": 886,
      " آم": 887,
      "اق": 888,
      " کنند": 889,
      " مت": 890,
      " فر": 891,
      " خواه": 892,
      "با": 893,
      " پی": 894,
      " هر": 895,
      " مع": 896,
      "گاه": 897,
      " داشت": 898,
      "له": 899,
      "نگ": 900,
      "او": 901,
      "قی": 902,
      "دی": 903,
      "نی": 904,
      "بت": 905,
      "عی": 906,
      " دست": 907,
      " باشد": 908,
      " دارد": 909,
      " ل": 910,
      "که": 911,
      "توان": 912,
      "شان": 913,
      "اف": 914,
      " نمی": 915,
      " سر": 916,
      "مای": 917,
      "ادی": 918,
      "وز": 919,
      " غ": 920,
      " باید": 921,
      "ارد": 922,
      "فته": 923,
      " قر": 924,
      " حال": 925,
      "فاده": 926,
      "کی": 927,
      "هم": 928,
      " تر": 929,
      "خو": 930,
      "اره": 931,
      "نده": 932,
      "؟\n": 933,
      " کم": 934,
      "جه": 935,
      "رف": 936,
      " مش": 937,
      " استفاده": 938,
      "وری": 939,
      "امه": 940,
      " آنها": 941,
      " ار": 942,
      "اند": 943,
      " کش": 944,
      "زار": 945,
      " ،": 946,
      "جود": 947,
      " گر": 948,
      " بد": 949,
      "‌ش": 950,
      " چی": 951,
      "عه": 952,
      " مد": 953,
      "جام": 954,
      " اس": 955,
      " دیگر": 956,
      " هستند": 957,
      "است": 958,
      "اخت": 959,
      " نظ": 960,
      " اند": 961,
      " مورد": 962,
      "هر": 963,
      " بسی": 964,
      "کر": 965,
      "دید": 966,
      "عد": 967,
      "من": 968,
      " کرده": 969,
      " چه": 970,
      " «": 971,
      " مس": 972,
      " انجام": 973,
      " مر": 974,
      "یل": 975,
      " ال": 976,
      " دان": 977,
      " زمان": 978,
      " تح": 979,
      "عت": 980,
      "شی": 981,
      "نین": 982,
      " نیست": 983,
      " روز": 984,
      " پیش": 985,
      " نو": 986,
      " داد": 987,
      " اما": 988,
      "مل": 989,
      "وم": 990,
      "الی": 991,
      "‌ک": 992,
      " وجود": 993,
      "وند": 994,
      " باز": 995,
      " اف": 996,
      " مق": 997,
      "‌توان": 998,
      " جه": 999,
      "قت": 1000,
      "گیر": 1001,
      "نوان": 1002,
      " زند": 1003,
      "خص": 1004,
      " نیز": 1005,
      "مین": 1006,
      " بین": 1007,
      "چه": 1008,
      " مرد": 1009,
      " ند": 1010,
      " اج": 1011,
      " تن": 1012,
      " انت": 1013,
      "‌کن": 1014,
      " بیشت": 1015,
      " رس": 1016,
      "ریک": 1017,
      "رکت": 1018,
      " قرار": 1019,
      "ترین": 1020,
      " تم": 1021,
      "یده": 1022,
      " بز": 1023,
      "ونه": 1024,
      " داشته": 1025,
      " اح": 1026,
      "امل": 1027,
      "کل": 1028,
      " عنوان": 1029,
      "..": 1030,
      " توس": 1031,
      "نامه": 1032,
      " گذ": 1033,
      " روی": 1034,
      "یک": 1035,
      " خواهد": 1036,
      "دا": 1037,
      " زی": 1038,
      " همه": 1039,
      "مکن": 1040,
      "وه": 1041,
      "شن": 1042,
      " ات": 1043,
      " کشور": 1044,
      "اگر": 1045,
      "خی": 1046,
      "اص": 1047,
      " دهد": 1048,
      "شد": 1049,
      " زندگی": 1050,
      "امی": 1051,
      "قه": 1052,
      "رگ": 1053,
      "‌ای": 1054,
      "طر": 1055,
      "!\n": 1056,
      "ستان": 1057,
      " بخ": 1058,
      " واق": 1059,
      "یچ": 1060,
      "مو": 1061,
      " نظر": 1062,
      " ساز": 1063,
      " راه": 1064,
      "ایت": 1065,
      " داده": 1066,
      " تج": 1067,
      " دانش": 1068,
      " ممکن": 1069,
      " دارند": 1070,
      " سی": 1071,
      " بسیار": 1072,
      "رس": 1073,
      "‌ی": 1074,
      " تص": 1075,
      "گان": 1076,
      " مج": 1077,
      "»\n": 1078,
      " جم": 1079,
      "وش": 1080,
      "دم": 1081,
      " کردن": 1082,
      "انند": 1083,
      " .\n": 1084,
      " گفت": 1085,
      " نیاز": 1086,
      "کان": 1087,
      "زش": 1088,
      "وا": 1089,
      "کار": 1090,
      " اط": 1091,
      " بیشتر": 1092,
      "آن": 1093,
      "اما": 1094,
      "قط": 1095,
      "خواه": 1096,
      "عات": 1097,
      "چنین": 1098,
      "ورت": 1099,
      " بازی": 1100,
      "20": 1101,
      "حی": 1102,
      "ازه": 1103,
      "ارت": 1104,
      " شرکت": 1105,
      " پس": 1106,
      " بزرگ": 1107,
      " جدید": 1108,
      "اک": 1109,
      "شته": 1110,
      "وق": 1111,
      "مند": 1112,
      "غی": 1113,
      " اگر": 1114,
      " آمریک": 1115,
      "تان": 1116,
      "‌شود": 1117,
      " مط": 1118,
      "وید": 1119,
      "صد": 1120,
      "ابر": 1121,
      " بال": 1122,
      "زای": 1123,
      " کس": 1124,
      "er": 1125,
      " کمک": 1126,
      " نام": 1127,
      " دور": 1128,
      " اص": 1129,
      " تواند": 1130,
      "ادر": 1131,
      "سه": 1132,
      "لام": 1133,
      "سان": 1134,
      " کو": 1135,
      "‌کند": 1136,
      " افر": 1137,
      "بان": 1138,
      "شه": 1139,
      " برنامه": 1140,
      " ساخت": 1141,
      "غییر": 1142,
      "جا": 1143,
      " هیچ": 1144,
      " اع": 1145,
      " نشان": 1146,
      " حد": 1147,
      " کل": 1148,
      " شن": 1149,
      "رده": 1150,
      " پای": 1151,
      " مث": 1152,
      " طور": 1153,
      " ماه": 1154,
      " چند": 1155,
      "ره": 1156,
      "لب": 1157,
      " اول": 1158,
      "لف": 1159,
      "یه": 1160,
      " تنها": 1161,
      " تغییر": 1162,
      " نه": 1163,
      "باره": 1164,
      "رائ": 1165,
      "‌گ": 1166,
      "اخ": 1167,
      "ضر": 1168,
      " شوند": 1169,
      " وی": 1170,
      " کنیم": 1171,
      " مردم": 1172,
      " \"": 1173,
      "جاد": 1174,
      " توسط": 1175,
      "ینه": 1176,
      "...\n": 1177,
      " نق": 1178,
      " چیزی": 1179,
      "مت": 1180,
      "اتی": 1181,
      " زن": 1182,
      " قب": 1183,
      "ابل": 1184,
      ".»\n": 1185,
      " واقع": 1186,
      "ستم": 1187,
      " بار": 1188,
      " اد": 1189,
      " آز": 1190,
      " یکی": 1191,
      " ایر": 1192,
      " S": 1193,
      " ایجاد": 1194,
      " زیر": 1195,
      "کت": 1196,
      " جن": 1197,
      "بود": 1198,
      " پرو": 1199,
      " دن": 1200,
      "پس": 1201,
      "‌ده": 1202,
      "in": 1203,
      "ژی": 1204,
      "هایی": 1205,
      " سو": 1206,
      "گونه": 1207,
      " صورت": 1208,
      "ثر": 1209,
      "ونی": 1210,
      " طول": 1211,
      " بیم": 1212,
      " پر": 1213,
      " جهان": 1214,
      "‌اند": 1215,
      "خاب": 1216,
      " باشید": 1217,
      " آموز": 1218,
      "سته": 1219,
      "نه": 1220,
      "ضی": 1221,
      "کس": 1222,
      "سر": 1223,
      " چیز": 1224,
      "مال": 1225,
      " تب": 1226,
      "نج": 1227,
      "دان": 1228,
      "بو": 1229,
      " بل": 1230,
      "ازی": 1231,
      " تمام": 1232,
      "on": 1233,
      " تول": 1234,
      " مص": 1235,
      " دل": 1236,
      "اح": 1237,
      " زمین": 1238,
      "بین": 1239,
      " C": 1240,
      " نش": 1241,
      " فع": 1242,
      " تع": 1243,
      " اینکه": 1244,
      " نس": 1245,
      " مانند": 1246,
      " ارت": 1247,
      " انتخاب": 1248,
      " بیش": 1249,
      "بال": 1250,
      "‌کنند": 1251,
      "رسی": 1252,
      "تاب": 1253,
      "لیل": 1254,
      "ژه": 1255,
      " شر": 1256,
      "اش": 1257,
      "قیق": 1258,
      " اخ": 1259,
      " افراد": 1260,
      "گری": 1261,
      " غیر": 1262,
      "گیری": 1263,
      " ك": 1264,
      "اً": 1265,
      " اطلا": 1266,
      " آمریکا": 1267,
      "زه": 1268,
      "وع": 1269,
      " تق": 1270,
      "an": 1271,
      " فقط": 1272,
      "یلی": 1273,
      "برای": 1274,
      " یاد": 1275,
      "وس": 1276,
      " هن": 1277,
      " رفت": 1278,
      " نم": 1279,
      "بار": 1280,
      " بعد": 1281,
      "زایش": 1282,
      " A": 1283,
      " گرفت": 1284,
      " ث": 1285,
      "ابی": 1286,
      " آی": 1287,
      ":\n": 1288,
      " باشند": 1289,
      "ریق": 1290,
      "مد": 1291,
      " ایران": 1292,
      " خان": 1293,
      "فی": 1294,
      "اط": 1295,
      "دام": 1296,
      " افزایش": 1297,
      "طور": 1298,
      " اش": 1299,
      " درصد": 1300,
      " جای": 1301,
      " نا": 1302,
      " مهم": 1303,
      "مه": 1304,
      " سه": 1305,
      " دول": 1306,
      "گز": 1307,
      " دهید": 1308,
      "لو": 1309,
      "مایش": 1310,
      " همچنین": 1311,
      "ایل": 1312,
      " تولید": 1313,
      " دهند": 1314,
      " مه": 1315,
      " شخص": 1316,
      " کود": 1317,
      "عیت": 1318,
      " ذ": 1319,
      "یدا": 1320,
      " غذ": 1321,
      " ارائ": 1322,
      " مشت": 1323,
      " بگ": 1324,
      " ارائه": 1325,
      "ساس": 1326,
      " مرا": 1327,
      "ئی": 1328,
      " بوده": 1329,
      "یدن": 1330,
      " بسیاری": 1331,
      " آب": 1332,
      " مخت": 1333,
      " میلی": 1334,
      ")\n": 1335,
      " زمانی": 1336,
      " اطلاعات": 1337,
      " بخش": 1338,
      " بن": 1339,
      "دار": 1340,
      " خار": 1341,
      "زینه": 1342,
      " شب": 1343,
      " دوست": 1344,
      "جی": 1345,
      " کتاب": 1346,
      " تش": 1347,
      " فیل": 1348,
      " سیا": 1349,
      "ورد": 1350,
      " حق": 1351,
      " M": 1352,
      " زیادی": 1353,
      " حتی": 1354,
      " بودند": 1355,
      " فعال": 1356,
      " کردند": 1357,
      " توانید": 1358,
      " هایی": 1359,
      " مدیر": 1360,
      "ar": 1361,
      " کنم": 1362,
      "شم": 1363,
      " همان": 1364,
      "ولی": 1365,
      "تما": 1366,
      "اهش": 1367,
      " توجه": 1368,
      " گرفته": 1369,
      "راحی": 1370,
      "۲۰": 1371,
      " مشکل": 1372,
      "‌تواند": 1373,
      " عمل": 1374,
      " همین": 1375,
      " شدن": 1376,
      " حا": 1377,
      "قل": 1378,
      " فرو": 1379,
      "یشه": 1380,
      " شهر": 1381,
      " پیدا": 1382,
      "روع": 1383,
      "19": 1384,
      " فکر": 1385,
      " کسی": 1386,
      " گرو": 1387,
      "وت": 1388,
      " عل": 1389,
      "بط": 1390,
      "اسی": 1391,
      " P": 1392,
      " سازمان": 1393,
      " فرد": 1394,
      "ذیر": 1395,
      "مول": 1396,
      "پی": 1397,
      "00": 1398,
      " نفر": 1399,
      "وص": 1400,
      " مختلف": 1401,
      " برخی": 1402,
      "راه": 1403,
      " بدون": 1404,
      " درباره": 1405,
      " کاهش": 1406,
      "کرد": 1407,
      "ستی": 1408,
      "ینی": 1409,
      "فق": 1410,
      " هد": 1411,
      "لیه": 1412,
      "شما": 1413,
      "یمی": 1414,
      " عم": 1415,
      "روز": 1416,
      " جنگ": 1417,
      " ژ": 1418,
      " قدر": 1419,
      "or": 1420,
      " گروه": 1421,
      " شروع": 1422,
      "الات": 1423,
      " سیستم": 1424,
      "گه": 1425,
      " خر": 1426,
      " اقت": 1427,
      " خانه": 1428,
      "ویی": 1429,
      "رین": 1430,
      " خوب": 1431,
      " دریا": 1432,
      " سا": 1433,
      " آل": 1434,
      " متح": 1435,
      " کام": 1436,
      " دیگری": 1437,
      "ودی": 1438,
      "رکز": 1439,
      " ترک": 1440,
      "سال": 1441,
      " قابل": 1442,
      "جر": 1443,
      " اه": 1444,
      " حس": 1445,
      "بن": 1446,
      "رات": 1447,
      " اقتص": 1448,
      "فا": 1449,
      "باط": 1450,
      "وار": 1451,
      "آیا": 1452,
      " -": 1453,
      " دارید": 1454,
      "عث": 1455,
      " احساس": 1456,
      " درمان": 1457,
      "ثیر": 1458,
      "en": 1459,
      " برد": 1460,
      " ندارد": 1461,
      " گرد": 1462,
      " ایم": 1463,
      " میان": 1464,
      " مطال": 1465,
      "‌تر": 1466,
      "ابراین": 1467,
      " مست": 1468,
      "فاو": 1469,
      "هن": 1470,
      " ور": 1471,
      " B": 1472,
      " کسب": 1473,
      "201": 1474,
      " منط": 1475,
      " دولت": 1476,
      " انسان": 1477,
      " موض": 1478,
      " نز": 1479,
      " “": 1480,
      " صح": 1481,
      "یف": 1482,
      " باعث": 1483,
      " سایت": 1484,
      "اور": 1485,
      " خیلی": 1486,
      "دن": 1487,
      " شک": 1488,
      " منت": 1489,
      " کوچ": 1490,
      " دلیل": 1491,
      "وب": 1492,
      "ائ": 1493,
      " حرف": 1494,
      "‌هایی": 1495,
      "سم": 1496,
      "اپ": 1497,
      " فیلم": 1498,
      "میم": 1499,
      " ارو": 1500,
      "al": 1501,
      "at": 1502,
      " تاری": 1503,
      "لاش": 1504,
      " چگونه": 1505,
      " T": 1506,
      " –": 1507,
      " گذشته": 1508,
      "تو": 1509,
      " مخ": 1510,
      " تجر": 1511,
      " اجتما": 1512,
      "شر": 1513,
      " طریق": 1514,
      " قبل": 1515,
      "صول": 1516,
      " موفق": 1517,
      "ظه": 1518,
      " زبان": 1519,
      " چنین": 1520,
      " روش": 1521,
      " ارتباط": 1522,
      " اق": 1523,
      "هنگ": 1524,
      " توسعه": 1525,
      "افی": 1526,
      "es": 1527,
      " دید": 1528,
      " قدرت": 1529,
      "دود": 1530,
      " اعت": 1531,
      " D": 1532,
      " جهانی": 1533,
      " اروپ": 1534,
      "اطر": 1535,
      "‌آ": 1536,
      " سط": 1537,
      " انگ": 1538,
      "مایه": 1539,
      "‌‌": 1540,
      " دنبال": 1541,
      " خانو": 1542,
      "ندی": 1543,
      " گو": 1544,
      "فاق": 1545,
      "ریان": 1546,
      " خدم": 1547,
      " شامل": 1548,
      " خدا": 1549,
      " مدت": 1550,
      "ویس": 1551,
      " خاص": 1552,
      " علا": 1553,
      " گیر": 1554,
      "عداد": 1555,
      " اصلی": 1556,
      "نت": 1557,
      " بع": 1558,
      " طراحی": 1559,
      " اجتماعی": 1560,
      " آینده": 1561,
      "اسب": 1562,
      " سری": 1563,
      " ض": 1564,
      " اشت": 1565,
      "‌دهد": 1566,
      " تلاش": 1567,
      " احت": 1568,
      " پاس": 1569,
      " بهترین": 1570,
      " قان": 1571,
      " همیشه": 1572,
      " پرد": 1573,
      " چرا": 1574,
      " محصول": 1575,
      "تن": 1576,
      " وق": 1577,
      " کاری": 1578,
      "ایر": 1579,
      "برد": 1580,
      " آر": 1581,
      " وب": 1582,
      " بهتر": 1583,
      " معمول": 1584,
      " بدن": 1585,
      " دریافت": 1586,
      " اتفاق": 1587,
      " اولین": 1588,
      "فاوت": 1589,
      " خواهند": 1590,
      "رم": 1591,
      " I": 1592,
      " نوع": 1593,
      " ادامه": 1594,
      " ترین": 1595,
      " افت": 1596,
      "ضای": 1597,
      " شم": 1598,
      "وست": 1599,
      " عر": 1600,
      " حاضر": 1601,
      " کننده": 1602,
      " نسبت": 1603,
      " خواهید": 1604,
      "زند": 1605,
      "دیل": 1606,
      "انس": 1607,
      " دانشگاه": 1608,
      " دادن": 1609,
      " تأ": 1610,
      " سرمایه": 1611,
      " هنوز": 1612,
      "یب": 1613,
      " تجربه": 1614,
      " خرید": 1615,
      "مللی": 1616,
      "ترل": 1617,
      " حالی": 1618,
      " بگیر": 1619,
      " دارای": 1620,
      " کوچک": 1621,
      " ندار": 1622,
      "تری": 1623,
      " مصرف": 1624,
      "زان": 1625,
      " مالی": 1626,
      "ایط": 1627,
      " فروش": 1628,
      " مسئ": 1629,
      " همراه": 1630,
      "شار": 1631,
      "نان": 1632,
      "کنون": 1633,
      " تصمیم": 1634,
      "اران": 1635,
      " گفته": 1636,
      " اندازه": 1637,
      " منطقه": 1638,
      " رشد": 1639,
      " اب": 1640,
      "گرد": 1641,
      " H": 1642,
      " هنگ": 1643,
      " جز": 1644,
      " وا": 1645,
      " میلیون": 1646,
      " نزدی": 1647,
      " لی": 1648,
      "میت": 1649,
      " ساعت": 1650,
      " آنچه": 1651,
      " خوبی": 1652,
      "تیجه": 1653,
      " نیر": 1654,
      " کامل": 1655,
      " خانواده": 1656,
      " G": 1657,
      "یدی": 1658,
      " حدود": 1659,
      "۱۹": 1660,
      " زنان": 1661,
      " ری": 1662,
      "گران": 1663,
      "لس": 1664,
      " اض": 1665,
      " کنترل": 1666,
      "کو": 1667,
      " بررسی": 1668,
      " :": 1669,
      " داخ": 1670,
      "لاح": 1671,
      " تبدیل": 1672,
      " هفته": 1673,
      " جام": 1674,
      " توانند": 1675,
      "مانی": 1676,
      " شرایط": 1677,
      " بتوان": 1678,
      " تحت": 1679,
      " فعالیت": 1680,
      " بده": 1681,
      " آموزش": 1682,
      "ازم": 1683,
      " تحقیق": 1684,
      "زارش": 1685,
      "‌خواه": 1686,
      " مدر": 1687,
      " کلی": 1688,
      " بالا": 1689,
      " خص": 1690,
      "اهی": 1691,
      " پاسخ": 1692,
      "حال": 1693,
      " هدف": 1694,
      " گی": 1695,
      " آغ": 1696,
      " خطر": 1697,
      "نا": 1698,
      " احتمال": 1699,
      "تا": 1700,
      " ظ": 1701,
      " وارد": 1702,
      "باید": 1703,
      "it": 1704,
      " هزینه": 1705,
      " گست": 1706,
      " طبی": 1707,
      " زیرا": 1708,
      " خاطر": 1709,
      " شه": 1710,
      "ابت": 1711,
      "‌د": 1712,
      "خواست": 1713,
      " مل": 1714,
      " پشت": 1715,
      " صف": 1716,
      " چهار": 1717,
      "حه": 1718,
      " حل": 1719,
      " سطح": 1720,
      " [": 1721,
      " صحبت": 1722,
      " خد": 1723,
      " قط": 1724,
      "ندگان": 1725,
      "le": 1726,
      " دوره": 1727,
      "عنی": 1728,
      " ارزش": 1729,
      " پزش": 1730,
      " بیشتری": 1731,
      " بیماری": 1732,
      " بازار": 1733,
      " خصوص": 1734,
      " هزار": 1735,
      "گاهی": 1736,
      " دلار": 1737,
      " صن": 1738,
      "بران": 1739,
      "خانه": 1740,
      "ic": 1741,
      " وقت": 1742,
      "کاری": 1743,
      " واقعی": 1744,
      " موضوع": 1745,
      "آنها": 1746,
      " هستید": 1747,
      " آغاز": 1748,
      " R": 1749,
      "رژی": 1750,
      " صد": 1751,
      "همچنین": 1752,
      " متحده": 1753,
      " مواد": 1754,
      " نتیجه": 1755,
      " آسی": 1756,
      " برابر": 1757,
      " سب": 1758,
      "غلب": 1759,
      " پنج": 1760,
      "\"\n": 1761,
      " E": 1762,
      " مثال": 1763,
      "بری": 1764,
      "بوط": 1765,
      "گو": 1766,
      " پذیر": 1767,
      " شکل": 1768,
      " جمله": 1769,
      " اجازه": 1770,
      " بلکه": 1771,
      " گزارش": 1772,
      " مدیریت": 1773,
      "قر": 1774,
      " پایان": 1775,
      "‌کرد": 1776,
      "یط": 1777,
      " L": 1778,
      " مربوط": 1779,
      " مغ": 1780,
      " پول": 1781,
      "st": 1782,
      " آورد": 1783,
      " سخ": 1784,
      " ایالات": 1785,
      " سن": 1786,
      " شدند": 1787,
      " نداشت": 1788,
      "بع": 1789,
      " مف": 1790,
      " وض": 1791,
      "بور": 1792,
      " وقتی": 1793,
      "حتی": 1794,
      " آیا": 1795,
      " سف": 1796,
      " خواست": 1797,
      "یره": 1798,
      "ذار": 1799,
      "بته": 1800,
      " کمی": 1801,
      " نمای": 1802,
      " دنیا": 1803,
      " خط": 1804,
      " نبود": 1805,
      " فی": 1806,
      " خوان": 1807,
      " چشم": 1808,
      " اروپا": 1809,
      " طرف": 1810,
      " حمای": 1811,
      "».\n": 1812,
      " F": 1813,
      "اله": 1814,
      "‌شوند": 1815,
      "ضا": 1816,
      " مناسب": 1817,
      "اخته": 1818,
      "زن": 1819,
      "قات": 1820,
      " ابت": 1821,
      "10": 1822,
      "داشت": 1823,
      "ولو": 1824,
      " ته": 1825,
      "ویت": 1826,
      " ولی": 1827,
      " اساس": 1828,
      " کان": 1829,
      "]\n": 1830,
      " تعداد": 1831,
      "قدر": 1832,
      " امکان": 1833,
      "‌ترین": 1834,
      " زمینه": 1835,
      "ایج": 1836,
      " محدود": 1837,
      " دیگران": 1838,
      "شید": 1839,
      " W": 1840,
      " نزدیک": 1841,
      "اقل": 1842,
      " حمایت": 1843,
      " عمو": 1844,
      "رخ": 1845,
      " انرژی": 1846,
      " موجود": 1847,
      "یمت": 1848,
      " سلام": 1849,
      " درست": 1850,
      " سرا": 1851,
      " اقتصادی": 1852,
      " مرت": 1853,
      " بح": 1854,
      " امن": 1855,
      " پروژه": 1856,
      " نگه": 1857,
      " مشخص": 1858,
      " مطالعه": 1859,
      "استان": 1860,
      " مک": 1861,
      " ...\n": 1862,
      " یافت": 1863,
      " شبکه": 1864,
      " اخت": 1865,
      "صل": 1866,
      " مثل": 1867,
      "وقتی": 1868,
      " پیر": 1869,
      "اهای": 1870,
      " خدمات": 1871,
      "خورد": 1872,
      " کافی": 1873,
      " امروز": 1874,
      " داریم": 1875,
      " منظ": 1876,
      " چین": 1877,
      " اغلب": 1878,
      "ریبا": 1879,
      " آخ": 1880,
      " اعلام": 1881,
      ").\n": 1882,
      " جمه": 1883,
      "ئیس": 1884,
      "جوی": 1885,
      " سیاسی": 1886,
      " نخواه": 1887,
      " تاریخ": 1888,
      " ره": 1889,
      " پیشر": 1890,
      " کاملا": 1891,
      " تاثیر": 1892,
      "200": 1893,
      " تیم": 1894,
      " هوا": 1895,
      " شو": 1896,
      " لازم": 1897,
      "وهای": 1898,
      "لاف": 1899,
      " ملی": 1900,
      "همه": 1901,
      "سیه": 1902,
      " ضر": 1903,
      "تح": 1904,
      "شین": 1905,
      "وده": 1906,
      " رابط": 1907,
      " خوش": 1908,
      " خون": 1909,
      " سل": 1910,
      "ro": 1911,
      " سریع": 1912,
      " شخصی": 1913,
      " شوید": 1914,
      "نو": 1915,
      "ظار": 1916,
      "بخ": 1917,
      " توص": 1918,
      "امبر": 1919,
      "کتر": 1920,
      " کردم": 1921,
      " درک": 1922,
      " بهبود": 1923,
      "۰۰": 1924,
      " کسانی": 1925,
      "بل": 1926,
      "‌س": 1927,
      " N": 1928,
      "اتر": 1929,
      " چون": 1930,
      "re": 1931,
      " خواب": 1932,
      "ران": 1933,
      " كه": 1934,
      " جان": 1935,
      " حی": 1936,
      " المللی": 1937,
      " طبیعی": 1938,
      " ساخته": 1939,
      " سایر": 1940,
      " نمایش": 1941,
      " اینجا": 1942,
      " کمتر": 1943,
      " مادر": 1944,
      " دارم": 1945,
      "دیگر": 1946,
      " موارد": 1947,
      "فظ": 1948,
      " جامعه": 1949,
      "اوند": 1950,
      "بنابراین": 1951,
      " آزمایش": 1952,
      "صر": 1953,
      "ابد": 1954,
      " محیط": 1955,
      "ئن": 1956,
      " ساده": 1957,
      " کودکان": 1958,
      " عمومی": 1959,
      " خارج": 1960,
      " قانون": 1961,
      " مرگ": 1962,
      "‌ن": 1963,
      " مذ": 1964,
      "‌توانید": 1965,
      "ویر": 1966,
      "‌ال": 1967,
      " اک": 1968,
      "he": 1969,
      " سفر": 1970,
      " جوان": 1971,
      " کودک": 1972,
      " کنار": 1973,
      " تک": 1974,
      " جو": 1975,
      " اثر": 1976,
      " نکن": 1977,
      " سخت": 1978,
      "ونت": 1979,
      "جو": 1980,
      "ارک": 1981,
      " مان": 1982,
      "رب": 1983,
      " تکن": 1984,
      " لح": 1985,
      " دخ": 1986,
      "۲۰۱": 1987,
      " انتق": 1988,
      " اقدام": 1989,
      "باشد": 1990,
      " نگاه": 1991,
      ")،": 1992,
      " بودن": 1993,
      "راف": 1994,
      " نف": 1995,
      " رسید": 1996,
      " حفظ": 1997,
      " حقوق": 1998,
      " رابطه": 1999,
      " قد": 2000,
      " طر": 2001,
      "کند": 2002,
      " فرص": 2003,
      " بان": 2004,
      "مز": 2005,
      " رنگ": 2006,
      " نقش": 2007,
      "بد": 2008,
      " گونه": 2009,
      " قیمت": 2010,
      "عا": 2011,
      "یز": 2012,
      ".\"\n": 2013,
      " تما": 2014,
      "تق": 2015,
      " حقی": 2016,
      "گیرد": 2017,
      " آماده": 2018,
      "لق": 2019,
      "ویند": 2020,
      "غان": 2021,
      " اید": 2022,
      "ac": 2023,
      " صفحه": 2024,
      " انتظار": 2025,
      " موق": 2026,
      " ست": 2027,
      "الت": 2028,
      "اهده": 2029,
      " رق": 2030,
      "ابه": 2031,
      " مشکلات": 2032,
      "ابع": 2033,
      " موفقیت": 2034,
      " آنجا": 2035,
      " ببین": 2036,
      " پرداخت": 2037,
      " قادر": 2038,
      " روسیه": 2039,
      "مندان": 2040,
      "ion": 2041,
      " ویژه": 2042,
      " سوی": 2043,
      " فرزند": 2044,
      " رفتار": 2045,
      " برس": 2046,
      "خصص": 2047,
      " انگلی": 2048,
      " بدان": 2049,
      " پدر": 2050,
      " حرکت": 2051,
      " هرگز": 2052,
      " دوم": 2053,
      " عو": 2054,
      " همچ": 2055,
      "لم": 2056,
      " دقیق": 2057,
      " هو": 2058,
      " غذایی": 2059,
      " حرفه": 2060,
      " ایده": 2061,
      " رای": 2062,
      "‌توانند": 2063,
      " سیاست": 2064,
      "گار": 2065,
      "آمد": 2066,
      " کشورهای": 2067,
      "ولوژی": 2068,
      " متفاوت": 2069,
      "ندان": 2070,
      "افه": 2071,
      " جلو": 2072,
      "گفت": 2073,
      " یعنی": 2074,
      "اع": 2075,
      " بپ": 2076,
      " تقریبا": 2077,
      " حک": 2078,
      " سراسر": 2079,
      " سرعت": 2080,
      "مع": 2081,
      " مجمو": 2082,
      " خارجی": 2083,
      "چرا": 2084,
      "‌پ": 2085,
      " جست": 2086,
      "بات": 2087,
      " صرف": 2088,
      " دوباره": 2089,
      " سازی": 2090,
      "”\n": 2091,
      " داستان": 2092,
      " حداقل": 2093,
      "om": 2094,
      " دش": 2095,
      " نخ": 2096,
      "باز": 2097,
      "ابط": 2098,
      "el": 2099,
      " گذاری": 2100,
      " هستیم": 2101,
      "کیل": 2102,
      " گذاشت": 2103,
      " جا": 2104,
      " علیه": 2105,
      " شی": 2106,
      "قان": 2107,
      " دستگاه": 2108,
      " آزاد": 2109,
      "ظت": 2110,
      "ظر": 2111,
      "ستگی": 2112,
      " دهه": 2113,
      " عض": 2114,
      " بیان": 2115,
      " هی": 2116,
      " آسیب": 2117,
      "اهم": 2118,
      "وریه": 2119,
      "یکی": 2120,
      " حم": 2121,
      " یافته": 2122,
      " تجاری": 2123,
      " طولانی": 2124,
      " میزان": 2125,
      " افرادی": 2126,
      " آمریکایی": 2127,
      " طی": 2128,
      " کوت": 2129,
      " نت": 2130,
      " زیاد": 2131,
      " خور": 2132,
      "افق": 2133,
      "واره": 2134,
      "ou": 2135,
      "بانی": 2136,
      " ‌": 2137,
      "ing": 2138,
      " حض": 2139,
      " پایین": 2140,
      " نشده": 2141,
      " دیده": 2142,
      " اخیر": 2143,
      " منتشر": 2144,
      " بیر": 2145,
      " مبت": 2146,
      "رش": 2147,
      "البته": 2148,
      " شناخته": 2149,
      " تخ": 2150,
      "جب": 2151,
      "ظیم": 2152,
      " جایی": 2153,
      " دسترسی": 2154,
      "قا": 2155,
      "قیم": 2156,
      "ماد": 2157,
      " رخ": 2158,
      " تف": 2159,
      " پرس": 2160,
      " آمده": 2161,
      " جذ": 2162,
      "قای": 2163,
      " پیشنه": 2164,
      " بیمار": 2165,
      " اینتر": 2166,
      " آنان": 2167,
      " برگ": 2168,
      "باه": 2169,
      "افر": 2170,
      "ایه": 2171,
      "لح": 2172,
      " طب": 2173,
      " مشاهده": 2174,
      "شود": 2175,
      "is": 2176,
      " تل": 2177,
      " تصویر": 2178,
      " امنیت": 2179,
      " باور": 2180,
      " مسیر": 2181,
      " متو": 2182,
      " وضعیت": 2183,
      "امپ": 2184,
      " مکان": 2185,
      "الب": 2186,
      " عملی": 2187,
      " فشار": 2188,
      " معن": 2189,
      "et": 2190,
      "سانی": 2191,
      " بنابراین": 2192,
      " ابزار": 2193,
      " عالی": 2194,
      " معنی": 2195,
      " سپ": 2196,
      " نظامی": 2197,
      "لمان": 2198,
      " مشتریان": 2199,
      " بودم": 2200,
      " بخشی": 2201,
      "ين": 2202,
      " آش": 2203,
      " اضافه": 2204,
      " حمل": 2205,
      " خداوند": 2206,
      "تل": 2207,
      "‌دان": 2208,
      " دقی": 2209,
      " هنگام": 2210,
      "امین": 2211,
      " حضور": 2212,
      " مهارت": 2213,
      "دو": 2214,
      "هیچ": 2215,
      " چیست": 2216,
      " نور": 2217,
      "تش": 2218,
      " آمد": 2219,
      "همان": 2220,
      " عکس": 2221,
      " تلف": 2222,
      " محصولات": 2223,
      " بو": 2224,
      " ساله": 2225,
      " اکنون": 2226,
      " کیف": 2227,
      " شناس": 2228,
      " فرصت": 2229,
      "حله": 2230,
      " رئیس": 2231,
      "ادل": 2232,
      "‌رس": 2233,
      " حقیقت": 2234,
      "انت": 2235,
      "ذاری": 2236,
      "شق": 2237,
      " درخواست": 2238,
      " سنگ": 2239,
      " هنر": 2240,
      " سمت": 2241,
      " نیستند": 2242,
      " گیرد": 2243,
      "ربی": 2244,
      " نباید": 2245,
      " خش": 2246,
      " همکاری": 2247,
      "کنان": 2248,
      " اشاره": 2249,
      " O": 2250,
      "داری": 2251,
      " واقعا": 2252,
      " جنسی": 2253,
      "مح": 2254,
      " هستم": 2255,
      " داشتن": 2256,
      " دختر": 2257,
      " مبار": 2258,
      " استرات": 2259,
      "لاس": 2260,
      "ریم": 2261,
      "ol": 2262,
      " اقتصاد": 2263,
      "تور": 2264,
      " بس": 2265,
      " خورد": 2266,
      " فراهم": 2267,
      " منجر": 2268,
      " دقیقه": 2269,
      " شور": 2270,
      " فرا": 2271,
      "واج": 2272,
      " ثبت": 2273,
      "ائل": 2274,
      "اهد": 2275,
      " داخلی": 2276,
      " جمع": 2277,
      " منابع": 2278,
      "گل": 2279,
      " فران": 2280,
      " U": 2281,
      " خودش": 2282,
      " روشن": 2283,
      " غذا": 2284,
      "افت": 2285,
      "سل": 2286,
      " درد": 2287,
      " توانایی": 2288,
      "وانی": 2289,
      "علا": 2290,
      "am": 2291,
      " معمولا": 2292,
      " شاید": 2293,
      " اسرائ": 2294,
      "ایش": 2295,
      "خیص": 2296,
      " متوجه": 2297,
      "مرد": 2298,
      " بگیرید": 2299,
      "ارس": 2300,
      " مدل": 2301,
      " تمرکز": 2302,
      "ناه": 2303,
      " شغ": 2304,
      "ویم": 2305,
      " محل": 2306,
      " عملکرد": 2307,
      " رسانه": 2308,
      "تم": 2309,
      "ریف": 2310,
      " داشتند": 2311,
      " تشکیل": 2312,
      " حمله": 2313,
      "‌کنم": 2314,
      " مرکز": 2315,
      " خبر": 2316,
      "هایت": 2317,
      " روابط": 2318,
      "‌کنید": 2319,
      " پیشنهاد": 2320,
      "طان": 2321,
      " گوش": 2322,
      " علاقه": 2323,
      "مئن": 2324,
      " خودتان": 2325,
      " نوشت": 2326,
      "بسی": 2327,
      " گیری": 2328,
      "اصله": 2329,
      "صیل": 2330,
      " اشتباه": 2331,
      "50": 2332,
      "ضیح": 2333,
      " تان": 2334,
      " نک": 2335,
      " انگی": 2336,
      " موسی": 2337,
      "۱۰": 2338,
      "‌ام": 2339,
      " نتایج": 2340,
      " باشیم": 2341,
      " ندارند": 2342,
      "il": 2343,
      " بعدی": 2344,
      " اعتماد": 2345,
      " طرح": 2346,
      "مون": 2347,
      " افغان": 2348,
      " حساب": 2349,
      "لاق": 2350,
      " خواهیم": 2351,
      " لذ": 2352,
      " کشت": 2353,
      " اهد": 2354,
      " ترس": 2355,
      "لاین": 2356,
      " توصیه": 2357,
      " صنعت": 2358,
      " اجر": 2359,
      "بح": 2360,
      " دهیم": 2361,
      " جل": 2362,
      " بچه": 2363,
      "میز": 2364,
      " جهت": 2365,
      " مستقیم": 2366,
      "اج": 2367,
      " گرفتن": 2368,
      "حت": 2369,
      " پیام": 2370,
      "واع": 2371,
      "بعد": 2372,
      " تشخیص": 2373,
      " پیشرفت": 2374,
      " استخ": 2375,
      " روند": 2376,
      " رسد": 2377,
      " انگلیسی": 2378,
      " ماند": 2379,
      " باقی": 2380,
      "بیه": 2381,
      "لیغ": 2382,
      " نگر": 2383,
      " وسی": 2384,
      " کال": 2385,
      "عیین": 2386,
      " مشتری": 2387,
      " مها": 2388,
      "خه": 2389,
      " مقدار": 2390,
      " امر": 2391,
      " مجموعه": 2392,
      "الیا": 2393,
      " گسترده": 2394,
      "ژیم": 2395,
      " عب": 2396,
      " دنی": 2397,
      " امید": 2398,
      " هوش": 2399,
      "قب": 2400,
      "وط": 2401,
      " سعی": 2402,
      " اتاق": 2403,
      "as": 2404,
      " پوست": 2405,
      " اتح": 2406,
      " اسل": 2407,
      " کوتاه": 2408,
      " V": 2409,
      " /": 2410,
      "لیس": 2411,
      " بازاری": 2412,
      " تغییرات": 2413,
      " برخورد": 2414,
      " متن": 2415,
      " مرتبط": 2416,
      " ماشین": 2417,
      "ed": 2418,
      " گزینه": 2419,
      "‌گوید": 2420,
      " پوش": 2421,
      " مرحله": 2422,
      " بخواه": 2423,
      "مس": 2424,
      "اول": 2425,
      " نخست": 2426,
      " کدام": 2427,
      "…\n": 2428,
      " نفت": 2429,
      " نوشته": 2430,
      "اصل": 2431,
      "گون": 2432,
      " بسته": 2433,
      " جریان": 2434,
      "‌ر": 2435,
      " بهره": 2436,
      "‌اش": 2437,
      " مشابه": 2438,
      "ad": 2439,
      "سمت": 2440,
      "نم": 2441,
      " سوریه": 2442,
      "لیت": 2443,
      " افز": 2444,
      "مینان": 2445,
      "‌دهند": 2446,
      " بعضی": 2447,
      " تعیین": 2448,
      "امت": 2449,
      " یکدیگر": 2450,
      "راک": 2451,
      " بلند": 2452,
      "oo": 2453,
      "شناس": 2454,
      " بیرون": 2455,
      " فرم": 2456,
      " اسپ": 2457,
      " سوم": 2458,
      " کاربران": 2459,
      " ایشان": 2460,
      "ch": 2461,
      " اجرا": 2462,
      "‌کنیم": 2463,
      " منظور": 2464,
      "ریه": 2465,
      " تمرین": 2466,
      "دواج": 2467,
      " گوید": 2468,
      "برخی": 2469,
      " توضیح": 2470,
      " سخن": 2471,
      "اموش": 2472,
      " یه": 2473,
      " آوری": 2474,
      " آنلاین": 2475,
      "غذ": 2476,
      " نمود": 2477,
      " مدرسه": 2478,
      "ژگی": 2479,
      "ادت": 2480,
      "ادگی": 2481,
      " انقل": 2482,
      "جمه": 2483,
      " میکن": 2484,
      " اولیه": 2485,
      " تبلیغ": 2486,
      " داخل": 2487,
      " وزن": 2488,
      " شدید": 2489,
      "اندارد": 2490,
      " شکست": 2491,
      " دوستان": 2492,
      " نکنید": 2493,
      " اهداف": 2494,
      " مناط": 2495,
      " آزادی": 2496,
      " توافق": 2497,
      " آلمان": 2498,
      " پاک": 2499,
      " محلی": 2500,
      " پزشکی": 2501,
      "ادا": 2502,
      " تهدید": 2503,
      "‌و": 2504,
      " نویس": 2505,
      "زیر": 2506,
      " قوی": 2507,
      " حالت": 2508,
      "شاید": 2509,
      "پیم": 2510,
      "کته": 2511,
      " مغز": 2512,
      " سپس": 2513,
      " سلامت": 2514,
      " جلوگیری": 2515,
      "فه": 2516,
      " رود": 2517,
      "چار": 2518,
      " گل": 2519,
      " محاف": 2520,
      "هنگامی": 2521,
      " اپ": 2522,
      " رژیم": 2523,
      " دری": 2524,
      " درآمد": 2525,
      " سفید": 2526,
      " هسته": 2527,
      "جم": 2528,
      " لذت": 2529,
      " خصوصی": 2530,
      " تای": 2531,
      " آسان": 2532,
      "18": 2533,
      " ظاه": 2534,
      "آم": 2535,
      "راق": 2536,
      " عرض": 2537,
      " بحث": 2538,
      " نخواهد": 2539,
      "انیا": 2540,
      "کرات": 2541,
      "سک": 2542,
      "مق": 2543,
      " جمهوری": 2544,
      " همچنان": 2545,
      " خی": 2546,
      "رفی": 2547,
      " مردان": 2548,
      "۲۰۰": 2549,
      "،\n": 2550,
      "گشت": 2551,
      " سود": 2552,
      " مقام": 2553,
      "چند": 2554,
      "اها": 2555,
      " نرم": 2556,
      "یبانی": 2557,
      " نهایت": 2558,
      "علاوه": 2559,
      " اختی": 2560,
      " سرطان": 2561,
      " میل": 2562,
      "آی": 2563,
      " سالم": 2564,
      " پیچ": 2565,
      "12": 2566,
      "الد": 2567,
      " کیفیت": 2568,
      " افغانستان": 2569,
      " فوق": 2570,
      " مسئله": 2571,
      "سو": 2572,
      " تأثیر": 2573,
      " سلول": 2574,
      "‌تان": 2575,
      " چندین": 2576,
      " فیزی": 2577,
      " کشف": 2578,
      " دادند": 2579,
      " ذهن": 2580,
      "فاع": 2581,
      " مال": 2582,
      " جدا": 2583,
      "مش": 2584,
      " لب": 2585,
      " اهمیت": 2586,
      "ورده": 2587,
      " آور": 2588,
      " استاندارد": 2589,
      " زنده": 2590,
      " دوران": 2591,
      " مطمئن": 2592,
      " اینترنت": 2593,
      "جات": 2594,
      "of": 2595,
      "قطه": 2596,
      " آموزان": 2597,
      "وتر": 2598,
      " کامپی": 2599,
      "‌طور": 2600,
      "خصوص": 2601,
      " اسرائیل": 2602,
      " موسیقی": 2603,
      " ازدواج": 2604,
      " واقعیت": 2605,
      " جدی": 2606,
      " قرن": 2607,
      " جدیدی": 2608,
      " گسترش": 2609,
      " بانک": 2610,
      " فرانسه": 2611,
      "‌بین": 2612,
      " ابتدا": 2613,
      "مر": 2614,
      " نص": 2615,
      "خته": 2616,
      "ریکا": 2617,
      " اعضای": 2618,
      " آرام": 2619,
      " نسخه": 2620,
      "بسیاری": 2621,
      ".”\n": 2622,
      "چی": 2623,
      " تحقیقات": 2624,
      " همسر": 2625,
      " ورزش": 2626,
      " قسمت": 2627,
      " اطمینان": 2628,
      " تجارت": 2629,
      " اوقات": 2630,
      " بندی": 2631,
      " ارسال": 2632,
      " ویر": 2633,
      "وانین": 2634,
      " عشق": 2635,
      " انواع": 2636,
      "جویان": 2637,
      " انتقال": 2638,
      " راست": 2639,
      "سازی": 2640,
      "ژوه": 2641,
      " کی": 2642,
      " مسائل": 2643,
      " خواهم": 2644,
      " کنندگان": 2645,
      " ویژگی": 2646,
      " مناطق": 2647,
      "ابق": 2648,
      "ازد": 2649,
      " بازاریابی": 2650,
      " عد": 2651,
      " نمونه": 2652,
      " تمامی": 2653,
      " مهاجر": 2654,
      " مقاله": 2655,
      " رفتن": 2656,
      " پشتیبانی": 2657,
      " تکنولوژی": 2658,
      "چگونه": 2659,
      " نیم": 2660,
      " کردیم": 2661,
      "‌شد": 2662,
      "دانش": 2663,
      "حل": 2664,
      "30": 2665,
      " تنظیم": 2666,
      "وبی": 2667,
      " یابد": 2668,
      "طرح": 2669,
      " مشترک": 2670,
      " تازه": 2671,
      "ینگ": 2672,
      " نقطه": 2673,
      " موا": 2674,
      " t": 2675,
      " کارهای": 2676,
      " میلیارد": 2677,
      "زمان": 2678,
      "ئو": 2679,
      " فرهنگ": 2680,
      " اختیار": 2681,
      "وزه": 2682,
      " مقابل": 2683,
      " ترکیه": 2684,
      " آخرین": 2685,
      " بهداشت": 2686,
      " مجبور": 2687,
      "روت": 2688,
      "کش": 2689,
      "پر": 2690,
      " انسانی": 2691,
      " خودم": 2692,
      " مبارزه": 2693,
      "زو": 2694,
      "لود": 2695,
      " امنی": 2696,
      " شبیه": 2697,
      " قدیمی": 2698,
      " تماس": 2699,
      " فلس": 2700,
      " صلح": 2701,
      "وسط": 2702,
      "انیه": 2703,
      " کره": 2704,
      " قصد": 2705,
      "تنها": 2706,
      "زب": 2707,
      " استراتژی": 2708,
      " پاد": 2709,
      " ببر": 2710,
      "‌که": 2711,
      " شخصیت": 2712,
      " قلب": 2713,
      "کنش": 2714,
      "ادیه": 2715,
      " بش": 2716,
      " دچار": 2717,
      "ویزی": 2718,
      "ناک": 2719,
      "صه": 2720,
      " بگذار": 2721,
      "15": 2722,
      "جان": 2723,
      " اله": 2724,
      " نشانه": 2725,
      " آتش": 2726,
      " دنیای": 2727,
      "تون": 2728,
      " هند": 2729,
      "iv": 2730,
      " متخصص": 2731,
      " نیروهای": 2732,
      "‌خ": 2733,
      " علمی": 2734,
      " درون": 2735,
      " رسیدن": 2736,
      "and": 2737,
      " عراق": 2738,
      " تحلیل": 2739,
      "ایع": 2740,
      " ساختمان": 2741,
      "مث": 2742,
      " شیر": 2743,
      " دارو": 2744,
      " تض": 2745,
      " هنگامی": 2746,
      " بشر": 2747,
      "زد": 2748,
      "فع": 2749,
      " هواپیم": 2750,
      " موقعیت": 2751,
      "؛\n": 2752,
      " آس": 2753,
      " مقای": 2754,
      " سیاه": 2755,
      " یادگیری": 2756,
      " متع": 2757,
      " امنیتی": 2758,
      " هفت": 2759,
      " آید": 2760,
      " برقر": 2761,
      " گاهی": 2762,
      " سوال": 2763,
      " نداشته": 2764,
      "id": 2765,
      "کم": 2766,
      " مقایسه": 2767,
      "ay": 2768,
      "ایند": 2769,
      " حاصل": 2770,
      " قوانین": 2771,
      " اعمال": 2772,
      " بزر": 2773,
      " K": 2774,
      "نتی": 2775,
      " رسمی": 2776,
      " زود": 2777,
      " درو": 2778,
      "آوری": 2779,
      " دسترس": 2780,
      " مثبت": 2781,
      " مفید": 2782,
      "عهد": 2783,
      " رسیده": 2784,
      " مذا": 2785,
      "‌شان": 2786,
      " معتق": 2787,
      "...": 2788,
      "لال": 2789,
      " عن": 2790,
      " اکثر": 2791,
      "سیم": 2792,
      " پار": 2793,
      "ولیت": 2794,
      " بینی": 2795,
      "ent": 2796,
      "مات": 2797,
      " میتوان": 2798,
      "ورتی": 2799,
      "زیابی": 2800,
      " مراق": 2801,
      "جیت": 2802,
      " ایست": 2803,
      " کانادا": 2804,
      "نگی": 2805,
      " بنی": 2806,
      " فضای": 2807,
      " معرفی": 2808,
      "ققان": 2809,
      "عاده": 2810,
      "لاً": 2811,
      "ویه": 2812,
      " جایگز": 2813,
      " تلفن": 2814,
      " عبارت": 2815,
      " تاب": 2816,
      " موس": 2817,
      " موثر": 2818,
      " نیروی": 2819,
      " ناب": 2820,
      " فض": 2821,
      " تصور": 2822,
      " بازدید": 2823,
      " محتو": 2824,
      "ممکن": 2825,
      " شدت": 2826,
      " اطراف": 2827,
      " فردی": 2828,
      " دستور": 2829,
      " عص": 2830,
      " دهنده": 2831,
      " آدم": 2832,
      " لو": 2833,
      "ومت": 2834,
      "مط": 2835,
      " برند": 2836,
      " جستجو": 2837,
      " تفاوت": 2838,
      "لت": 2839,
      " بمان": 2840,
      " دیجیت": 2841,
      "اشق": 2842,
      " شان": 2843,
      "وزی": 2844,
      " راحتی": 2845,
      " روان": 2846,
      "هنگی": 2847,
      " عمی": 2848,
      " ترکیب": 2849,
      "us": 2850,
      " گردد": 2851,
      "سب": 2852,
      " روزانه": 2853,
      " خاصی": 2854,
      "زمین": 2855,
      " الله": 2856,
      " تلویزی": 2857,
      " خودشان": 2858,
      " گرم": 2859,
      "ig": 2860,
      " وس": 2861,
      " تروری": 2862,
      " ژاپ": 2863,
      "سیس": 2864,
      "روزه": 2865,
      " صبح": 2866,
      " وظ": 2867,
      " دولتی": 2868,
      " لباس": 2869,
      "‌شن": 2870,
      " اسلامی": 2871,
      "زا": 2872,
      " نامه": 2873,
      "ویید": 2874,
      " احتمالا": 2875,
      " صادر": 2876,
      " رفته": 2877,
      " شناسایی": 2878,
      " چقدر": 2879,
      " ضد": 2880,
      " اتحادیه": 2881,
      " وح": 2882,
      " قانونی": 2883,
      " حیوان": 2884,
      "رض": 2885,
      " ذخ": 2886,
      "ot": 2887,
      "هد": 2888,
      " اشتراک": 2889,
      " مسی": 2890,
      " نقل": 2891,
      " گوگل": 2892,
      " بزرگی": 2893,
      " پژوه": 2894,
      " مطرح": 2895,
      "ریب": 2896,
      " تکر": 2897,
      " درجه": 2898,
      " ترامپ": 2899,
      " J": 2900,
      "ئم": 2901,
      " مواجه": 2902,
      " نکرده": 2903,
      "عتی": 2904,
      "ستند": 2905,
      " دوربین": 2906,
      " مراقبت": 2907,
      " عامل": 2908,
      " عضو": 2909,
      " فل": 2910,
      "100": 2911,
      "‌ب": 2912,
      "روف": 2913,
      "ذف": 2914,
      "فقط": 2915,
      " قل": 2916,
      "اویر": 2917,
      " ارزیابی": 2918,
      " جمعیت": 2919,
      " شهرو": 2920,
      " بزرگترین": 2921,
      " آخر": 2922,
      " موجب": 2923,
      " کمپ": 2924,
      " حزب": 2925,
      " فرهنگی": 2926,
      "‌رسد": 2927,
      " سرد": 2928,
      "الش": 2929,
      " بازگشت": 2930,
      "ژن": 2931,
      " افس": 2932,
      "شناسی": 2933,
      " دندان": 2934,
      " خودرو": 2935,
      " مبتلا": 2936,
      " کجا": 2937,
      " شش": 2938,
      " کامپیوتر": 2939,
      " نکرد": 2940,
      "ag": 2941,
      " هدایت": 2942,
      "شتر": 2943,
      "سپس": 2944,
      " برگزار": 2945,
      " ضروری": 2946,
      " ابر": 2947,
      " دمو": 2948,
      " ریا": 2949,
      " متوسط": 2950,
      " پایه": 2951,
      " نار": 2952,
      " هوشمند": 2953,
      " اساسی": 2954,
      " عرب": 2955,
      " منح": 2956,
      " تعریف": 2957,
      " آف": 2958,
      " مشاور": 2959,
      " بارد": 2960,
      " میز": 2961,
      "گردان": 2962,
      " ؟\n": 2963,
      "ابقه": 2964,
      "افع": 2965,
      " لحظه": 2966,
      " جذب": 2967,
      "تص": 2968,
      "ئین": 2969,
      " پرواز": 2970,
      " ثابت": 2971,
      "کید": 2972,
      " دع": 2973,
      " دفاع": 2974,
      " نح": 2975,
      " الکتر": 2976,
      " متر": 2977,
      "وران": 2978,
      " آموزشی": 2979,
      " شمالی": 2980,
      " سبک": 2981,
      " دستی": 2982,
      " )": 2983,
      "‌اید": 2984,
      " جمهور": 2985,
      " خوردن": 2986,
      " تحصیل": 2987,
      " زیب": 2988,
      " عدم": 2989,
      "ur": 2990,
      " موتور": 2991,
      " زیست": 2992,
      " فوت": 2993,
      " امور": 2994,
      " of": 2995,
      " بگیرد": 2996,
      "غال": 2997,
      " فراموش": 2998,
      "میل": 2999,
      " بخوان": 3000,
      "ــ": 3001,
      " کلاس": 3002,
      " استر": 3003,
      " حوزه": 3004,
      " پیچیده": 3005,
      "ناوری": 3006,
      "وریت": 3007,
      " چیزهایی": 3008,
      "لاگ": 3009,
      " حذف": 3010,
      "اوم": 3011,
      "سون": 3012,
      "وح": 3013,
      " نجات": 3014,
      " ورود": 3015,
      "ow": 3016,
      "وقف": 3017,
      " معتقد": 3018,
      " مؤ": 3019,
      " پروت": 3020,
      " گیرند": 3021,
      "199": 3022,
      " کلمه": 3023,
      "لند": 3024,
      " واح": 3025,
      " مدرن": 3026,
      " محافظت": 3027,
      " زده": 3028,
      "کتری": 3029,
      " کلیدی": 3030,
      " انقلاب": 3031,
      "نام": 3032,
      " پست": 3033,
      " پزشک": 3034,
      " فصل": 3035,
      " تمای": 3036,
      " ترتی": 3037,
      " قرآن": 3038,
      " علائم": 3039,
      " مرک": 3040,
      " چطور": 3041,
      " توانیم": 3042,
      " انتخابات": 3043,
      "اظ": 3044,
      " اجرای": 3045,
      " واکنش": 3046,
      "زمانی": 3047,
      "يد": 3048,
      "کسی": 3049,
      "فکر": 3050,
      " چرخ": 3051,
      " بدانید": 3052,
      " ظاهر": 3053,
      "ec": 3054,
      " روح": 3055,
      " مخال": 3056,
      " p": 3057,
      " ثروت": 3058,
      " دانشجویان": 3059,
      "آیند": 3060,
      "۵۰": 3061,
      " کشته": 3062,
      " چالش": 3063,
      " منبع": 3064,
      " کر": 3065,
      " ویت": 3066,
      " عاشق": 3067,
      " فار": 3068,
      " شیمی": 3069,
      " بالای": 3070,
      " بتواند": 3071,
      " بریت": 3072,
      " فایل": 3073,
      " کاربرد": 3074,
      " پسر": 3075,
      "un": 3076,
      " برج": 3077,
      " متوقف": 3078,
      " علت": 3079,
      "‌ع": 3080,
      "16": 3081,
      " معنای": 3082,
      "‌المللی": 3083,
      "خش": 3084,
      " آنکه": 3085,
      " مطالعات": 3086,
      " ملل": 3087,
      " فناوری": 3088,
      " شغل": 3089,
      " اصلاح": 3090,
      "em": 3091,
      " ببینید": 3092,
      " شیوه": 3093,
      " ساختار": 3094,
      "انو": 3095,
      " مسلمان": 3096,
      "شا": 3097,
      " حالا": 3098,
      " آشن": 3099,
      " پا": 3100,
      " قض": 3101,
      " مهمی": 3102,
      " محتوای": 3103,
      " زیبا": 3104,
      " جنوبی": 3105,
      "ut": 3106,
      "‌مان": 3107,
      " شگفت": 3108,
      " گاز": 3109,
      "ستانی": 3110,
      " قرارد": 3111,
      " ناشی": 3112,
      " اختص": 3113,
      " حکومت": 3114,
      "گانه": 3115,
      "‌است": 3116,
      " نگران": 3117,
      " محبو": 3118,
      " رهبری": 3119,
      " فاصله": 3120,
      " ذخیره": 3121,
      " واحد": 3122,
      "ارکت": 3123,
      " منفی": 3124,
      " ستاره": 3125,
      " بزن": 3126,
      " آفریق": 3127,
      " ترتیب": 3128,
      "عده": 3129,
      " مجاز": 3130,
      "کاران": 3131,
      "ابان": 3132,
      " کشورها": 3133,
      " جایگزین": 3134,
      "دری": 3135,
      " دیدن": 3136,
      " تست": 3137,
      "11": 3138,
      " امریکا": 3139,
      " محت": 3140,
      "نمی": 3141,
      "شک": 3142,
      " ماهی": 3143,
      " St": 3144,
      " آورده": 3145,
      "زم": 3146,
      "‌گیر": 3147,
      " درمانی": 3148,
      "قاد": 3149,
      " کارت": 3150,
      " رقابت": 3151,
      " خشونت": 3152,
      " فرمان": 3153,
      "مردم": 3154,
      "امید": 3155,
      " باشم": 3156,
      " عمیق": 3157,
      "نش": 3158,
      "احت": 3159,
      " ارتش": 3160,
      " مسئول": 3161,
      "اولین": 3162,
      " خواندن": 3163,
      " هوایی": 3164,
      " آقای": 3165,
      " روید": 3166,
      "40": 3167,
      "‌گذاری": 3168,
      " دائ": 3169,
      "ation": 3170,
      " ایت": 3171,
      "ماز": 3172,
      " تصاویر": 3173,
      "راج": 3174,
      " عرضه": 3175,
      "ers": 3176,
      " برداشت": 3177,
      " گویند": 3178,
      " قاب": 3179,
      "الدین": 3180,
      " معرض": 3181,
      " ارشد": 3182,
      "حات": 3183,
      "ساز": 3184,
      " بک": 3185,
      " نیازهای": 3186,
      " بالاتر": 3187,
      " قطع": 3188,
      "لات": 3189,
      "ینک": 3190,
      " وسیله": 3191,
      " s": 3192,
      "بازی": 3193,
      " افزار": 3194,
      " تاریخی": 3195,
      "13": 3196,
      "im": 3197,
      " پلیس": 3198,
      " جزئی": 3199,
      "ادهای": 3200,
      " خدمت": 3201,
      " لیست": 3202,
      "گذار": 3203,
      "ولت": 3204,
      " پرداز": 3205,
      " نوز": 3206,
      " قبلی": 3207,
      " عمر": 3208,
      " مسئولیت": 3209,
      " صدای": 3210,
      " ماده": 3211,
      " امام": 3212,
      " نهایی": 3213,
      " بیماران": 3214,
      "روش": 3215,
      " مز": 3216,
      "ظهار": 3217,
      "ورش": 3218,
      " دشمن": 3219,
      " استرس": 3220,
      " عف": 3221,
      " شدم": 3222,
      " نگرانی": 3223,
      "ap": 3224,
      "‌باشد": 3225,
      " تکرار": 3226,
      "اشی": 3227,
      "ژیک": 3228,
      " اقدامات": 3229,
      " برسد": 3230,
      " سرویس": 3231,
      " تقویت": 3232,
      " صورتی": 3233,
      "‌ایم": 3234,
      " مهند": 3235,
      " وزیر": 3236,
      "وله": 3237,
      " بگیرند": 3238,
      "مرکز": 3239,
      " زدن": 3240,
      "‌شده": 3241,
      " دیجیتال": 3242,
      " مرز": 3243,
      "حالا": 3244,
      " سع": 3245,
      " فهم": 3246,
      " مشغ": 3247,
      "داران": 3248,
      " دیدگاه": 3249,
      " رشته": 3250,
      "ir": 3251,
      " آگاه": 3252,
      " اختصاص": 3253,
      "ایان": 3254,
      " ذکر": 3255,
      " ظرف": 3256,
      " عوامل": 3257,
      "سا": 3258,
      " مرکزی": 3259,
      " محبوب": 3260,
      " احتر": 3261,
      " افتاد": 3262,
      " برادر": 3263,
      " مانده": 3264,
      " دکتر": 3265,
      "ستر": 3266,
      " ایمیل": 3267,
      " کاملاً": 3268,
      " فیزیکی": 3269,
      "ویش": 3270,
      " کاربر": 3271,
      " هشت": 3272,
      "بعضی": 3273,
      " دشوار": 3274,
      " سلاح": 3275,
      " فرآیند": 3276,
      "عیف": 3277,
      " تهیه": 3278,
      "داد": 3279,
      "گذ": 3280,
      " معمولاً": 3281,
      " ریزی": 3282,
      "چون": 3283,
      "شنبه": 3284,
      "کرو": 3285,
      "اصر": 3286,
      " شماره": 3287,
      " :\n": 3288,
      " پارک": 3289,
      "برنامه": 3290,
      " مجد": 3291,
      "وف": 3292,
      "شدار": 3293,
      " زد": 3294,
      "سیون": 3295,
      "لط": 3296,
      " رد": 3297,
      " علم": 3298,
      "قیه": 3299,
      " ایرانی": 3300,
      " اطلاعاتی": 3301,
      " نصب": 3302,
      " قدم": 3303,
      " مستقل": 3304,
      " پژوهش": 3305,
      "وک": 3306,
      " خواسته": 3307,
      "‌گیرد": 3308,
      "ستن": 3309,
      " اظهار": 3310,
      " خلق": 3311,
      " مختلفی": 3312,
      " عملیات": 3313,
      "خود": 3314,
      " نکته": 3315,
      " اسلام": 3316,
      " زندان": 3317,
      "ورک": 3318,
      "‌کردند": 3319,
      " c": 3320,
      "نس": 3321,
      " شا": 3322,
      " خودمان": 3323,
      " غربی": 3324,
      " قبول": 3325,
      "oc": 3326,
      " In": 3327,
      " آوردن": 3328,
      " جشن": 3329,
      " موضو": 3330,
      " پوشش": 3331,
      ".[": 3332,
      "اض": 3333,
      " خلاق": 3334,
      " نخستین": 3335,
      " سالگی": 3336,
      " مشارکت": 3337,
      " رایگان": 3338,
      " تور": 3339,
      " کارکنان": 3340,
      " وعده": 3341,
      " تقسیم": 3342,
      " فرزندان": 3343,
      " عوض": 3344,
      " مشغول": 3345,
      "رت": 3346,
      "غن": 3347,
      "میر": 3348,
      " آشکار": 3349,
      " بند": 3350,
      " کیل": 3351,
      " شع": 3352,
      " قدرتمند": 3353,
      " منحصر": 3354,
      "اکنون": 3355,
      " سق": 3356,
      "اندن": 3357,
      " البته": 3358,
      "یعنی": 3359,
      "‌کننده": 3360,
      "ریت": 3361,
      " برقرار": 3362,
      " گذاشته": 3363,
      "شب": 3364,
      " نتوان": 3365,
      " نباشد": 3366,
      " متحد": 3367,
      "‌گذ": 3368,
      " مي": 3369,
      " میشود": 3370,
      "زارت": 3371,
      " ملا": 3372,
      " حفا": 3373,
      "کره": 3374,
      " سلامتی": 3375,
      " کشتی": 3376,
      " اکت": 3377,
      " چینی": 3378,
      " نسل": 3379,
      " لحاظ": 3380,
      "بیر": 3381,
      " مزای": 3382,
      " احساسات": 3383,
      " نفس": 3384,
      "۳۰": 3385,
      " اروپایی": 3386,
      "استفاده": 3387,
      " حیوانات": 3388,
      " The": 3389,
      " تایید": 3390,
      " مسافر": 3391,
      " دروغ": 3392,
      " همواره": 3393,
      " کشاور": 3394,
      " علوم": 3395,
      " جواب": 3396,
      "مار": 3397,
      "انگی": 3398,
      " دسته": 3399,
      "ul": 3400,
      " صند": 3401,
      " واب": 3402,
      " دهم": 3403,
      "بش": 3404,
      " نوشتن": 3405,
      "رانی": 3406,
      "جهیز": 3407,
      "هره": 3408,
      " العاده": 3409,
      "ویق": 3410,
      "ادث": 3411,
      "فتر": 3412,
      "سلام": 3413,
      "شرکت": 3414,
      "کلی": 3415,
      " کف": 3416,
      " فعلی": 3417,
      " اعتقاد": 3418,
      " مذه": 3419,
      " وزارت": 3420,
      "خیلی": 3421,
      " اداره": 3422,
      " اقامت": 3423,
      " قابلیت": 3424,
      "ماری": 3425,
      " کد": 3426,
      "بیل": 3427,
      " ژو": 3428,
      " بحران": 3429,
      "کری": 3430,
      " صاح": 3431,
      " نمایند": 3432,
      " تلویزیون": 3433,
      "گن": 3434,
      " نشد": 3435,
      " انتشار": 3436,
      " نماید": 3437,
      " مای": 3438,
      " اعتر": 3439,
      "گونگی": 3440,
      "17": 3441,
      "دست": 3442,
      " نرخ": 3443,
      " محدودیت": 3444,
      " صنعتی": 3445,
      " جالب": 3446,
      "‌گیری": 3447,
      " هتل": 3448,
      "ونا": 3449,
      " داشتم": 3450,
      " ژاپن": 3451,
      " راحت": 3452,
      " ممن": 3453,
      " جراحی": 3454,
      "بیشتر": 3455,
      "احبه": 3456,
      " گردش": 3457,
      " علی": 3458,
      " جد": 3459,
      "طی": 3460,
      " میکند": 3461,
      " تضمین": 3462,
      " انگیز": 3463,
      "۱۵": 3464,
      " برق": 3465,
      " m": 3466,
      "کا": 3467,
      "عدادی": 3468,
      " افزود": 3469,
      " گوشی": 3470,
      " کلمات": 3471,
      "‌سازی": 3472,
      " طبق": 3473,
      " ”": 3474,
      "25": 3475,
      "راح": 3476,
      " مقر": 3477,
      "باری": 3478,
      "دس": 3479,
      " اين": 3480,
      " زیبایی": 3481,
      " مب": 3482,
      " هشدار": 3483,
      "بهترین": 3484,
      " غرب": 3485,
      "اگرچه": 3486,
      " مار": 3487,
      " نظام": 3488,
      " داری": 3489,
      "um": 3490,
      " پناه": 3491,
      " راهی": 3492,
      " شیمیایی": 3493,
      "60": 3494,
      " عادی": 3495,
      "ریزی": 3496,
      " ناپ": 3497,
      "گذاری": 3498,
      "لاک": 3499,
      " روزنامه": 3500,
      " بدهید": 3501,
      "جایی": 3502,
      " سگ": 3503,
      " خرو": 3504,
      " منتقل": 3505,
      "ter": 3506,
      "بز": 3507,
      " سازد": 3508,
      " خورشید": 3509,
      " طبقه": 3510,
      "‌رو": 3511,
      "طب": 3512,
      " شمال": 3513,
      " منافع": 3514,
      " پیاده": 3515,
      " واقعاً": 3516,
      " شمار": 3517,
      " استرالیا": 3518,
      " والدین": 3519,
      "تمام": 3520,
      "تحان": 3521,
      "یدم": 3522,
      " نظارت": 3523,
      " احترام": 3524,
      "os": 3525,
      " خاک": 3526,
      "بخش": 3527,
      " میده": 3528,
      " انج": 3529,
      "فانه": 3530,
      " گران": 3531,
      " بدست": 3532,
      " کوه": 3533,
      " قربانی": 3534,
      " دام": 3535,
      " درس": 3536,
      " گذار": 3537,
      " ي": 3538,
      " میدان": 3539,
      " مکانی": 3540,
      " فن": 3541,
      "حیه": 3542,
      " مقامات": 3543,
      " تحریم": 3544,
      " سبز": 3545,
      "روی": 3546,
      " گفتند": 3547,
      " تس": 3548,
      "شاه": 3549,
      "مب": 3550,
      "‌عنوان": 3551,
      "امروز": 3552,
      " قه": 3553,
      "قق": 3554,
      " بای": 3555,
      " تجهیز": 3556,
      "رافی": 3557,
      " پیشرفته": 3558,
      " رنج": 3559,
      " نیازمند": 3560,
      " تولد": 3561,
      "od": 3562,
      "‌داد": 3563,
      " امیدوار": 3564,
      " بریتانیا": 3565,
      " اث": 3566,
      " فرست": 3567,
      " حفاظت": 3568,
      " جلسه": 3569,
      " تری": 3570,
      "ولد": 3571,
      " بودجه": 3572,
      " بتوانند": 3573,
      " آپ": 3574,
      " یون": 3575,
      "‌توانیم": 3576,
      "‌گویند": 3577,
      " تمایل": 3578,
      "زل": 3579,
      "‌گر": 3580,
      " آگاهی": 3581,
      " پو": 3582,
      " امتحان": 3583,
      " جنوب": 3584,
      "گزاری": 3585,
      " تبلیغات": 3586,
      " علاوه": 3587,
      "14": 3588,
      "۱۲": 3589,
      " رانند": 3590,
      " ایمنی": 3591,
      "ess": 3592,
      " شاهد": 3593,
      " خیر": 3594,
      " عجی": 3595,
      " متصل": 3596,
      "سین": 3597,
      "وتی": 3598,
      " چاپ": 3599,
      "‌آید": 3600,
      " دلایل": 3601,
      "ia": 3602,
      "‌گرد": 3603,
      " ارز": 3604,
      "حیح": 3605,
      "‌خواهد": 3606,
      "صورت": 3607,
      " نبا": 3608,
      " عقب": 3609,
      " چگونگی": 3610,
      " بف": 3611,
      " تامین": 3612,
      "ردگی": 3613,
      " پل": 3614,
      "‌رود": 3615,
      " قهوه": 3616,
      "چسب": 3617,
      " دین": 3618,
      " دقت": 3619,
      " ترجی": 3620,
      " باره": 3621,
      " ایمان": 3622,
      "هدف": 3623,
      "جای": 3624,
      " تعط": 3625,
      "یفه": 3626,
      " بیمارستان": 3627,
      " دریایی": 3628,
      " فلسط": 3629,
      "گوی": 3630,
      "راسی": 3631,
      " محققان": 3632,
      " نقاط": 3633,
      " فق": 3634,
      " درخت": 3635,
      "ویل": 3636,
      " دادگاه": 3637,
      "تناب": 3638,
      " نگهداری": 3639,
      " خوشحال": 3640,
      " توصیف": 3641,
      " کارها": 3642,
      " دانشمندان": 3643,
      "همانطور": 3644,
      " تخصص": 3645,
      " کنی": 3646,
      " فیس": 3647,
      " جذاب": 3648,
      "؟!\n": 3649,
      "کود": 3650,
      "۱۸": 3651,
      " فرود": 3652,
      "000": 3653,
      " شهری": 3654,
      " نامیده": 3655,
      " عربستان": 3656,
      "جوان": 3657,
      " معت": 3658,
      " صحنه": 3659,
      "تبه": 3660,
      " دا": 3661,
      " مصاحبه": 3662,
      " بردن": 3663,
      " بودیم": 3664,
      " منتظر": 3665,
      " اتفاقی": 3666,
      " محس": 3667,
      " دعوت": 3668,
      "مج": 3669,
      "یسی": 3670,
      " بستگی": 3671,
      " مخصوص": 3672,
      " پاید": 3673,
      "یمان": 3674,
      "نوعی": 3675,
      "گانی": 3676,
      " مایل": 3677,
      " نوعی": 3678,
      " توانست": 3679,
      "اومت": 3680,
      " انداز": 3681,
      " پنه": 3682,
      " افتد": 3683,
      " نویسنده": 3684,
      " عبور": 3685,
      " خانم": 3686,
      " شویم": 3687,
      "کال": 3688,
      "۱۰۰": 3689,
      " ملاقات": 3690,
      "»،": 3691,
      " رادی": 3692,
      "عکس": 3693,
      " بهتری": 3694,
      " طوری": 3695,
      "مولی": 3696,
      "آنچه": 3697,
      " آسمان": 3698,
      "انجام": 3699,
      " بروید": 3700,
      "ابله": 3701,
      "ضرت": 3702,
      " عفونت": 3703,
      " تعهد": 3704,
      " مخاط": 3705,
      " رهبران": 3706,
      "غذیه": 3707,
      "ارهای": 3708,
      " حملات": 3709,
      " یهودی": 3710,
      " میلادی": 3711,
      "خار": 3712,
      "ضح": 3713,
      "گین": 3714,
      " دفتر": 3715,
      " استاد": 3716,
      " الهی": 3717,
      " نحوه": 3718,
      " نوزاد": 3719,
      "جع": 3720,
      " سین": 3721,
      " خلا": 3722,
      " اوایل": 3723,
      " مفه": 3724,
      " شاه": 3725,
      " وید": 3726,
      "امله": 3727,
      " جایزه": 3728,
      " انگل": 3729,
      " فروشگاه": 3730,
      " طبیعت": 3731,
      " مهاجرت": 3732,
      "بزرگ": 3733,
      " بروز": 3734,
      "198": 3735,
      " قرارداد": 3736,
      " بید": 3737,
      " اصل": 3738,
      " بگذ": 3739,
      "داک": 3740,
      " حاف": 3741,
      "ویورک": 3742,
      " برخوردار": 3743,
      " مام": 3744,
      " آفر": 3745,
      " اضافی": 3746,
      " کارگران": 3747,
      "تامبر": 3748,
      "مهم": 3749,
      " فضا": 3750,
      " جنبه": 3751,
      " هزاران": 3752,
      " مگر": 3753,
      "انویه": 3754,
      " شماست": 3755,
      " سرزمین": 3756,
      "جد": 3757,
      " سوخت": 3758,
      " افتاده": 3759,
      " مطلب": 3760,
      "th": 3761,
      "شند": 3762,
      " عق": 3763,
      "فرانس": 3764,
      "مدت": 3765,
      " توجهی": 3766,
      " وبلاگ": 3767,
      " فرض": 3768,
      " بتوانید": 3769,
      " f": 3770,
      "عف": 3771,
      "واق": 3772,
      "ایم": 3773,
      " مقابله": 3774,
      "مالی": 3775,
      "پار": 3776,
      "پیش": 3777,
      " شغلی": 3778,
      " متمرکز": 3779,
      " بدهد": 3780,
      " گیاه": 3781,
      " رتبه": 3782,
      " ادعا": 3783,
      " قلبی": 3784,
      " برنده": 3785,
      " ثانیه": 3786,
      " اضطر": 3787,
      "سن": 3788,
      " درگیر": 3789,
      " توانم": 3790,
      " بگویید": 3791,
      " تشویق": 3792,
      " شف": 3793,
      " فنی": 3794,
      " چپ": 3795,
      " صدا": 3796,
      " اندازی": 3797,
      " ارتباطات": 3798,
      " جزیره": 3799,
      "‌خواهید": 3800,
      " سختی": 3801,
      " سعودی": 3802,
      " عه": 3803,
      " روزی": 3804,
      " گروهی": 3805,
      "ab": 3806,
      " پدید": 3807,
      "زیع": 3808,
      " مداوم": 3809,
      "\".\n": 3810,
      "ثار": 3811,
      "رداز": 3812,
      "ce": 3813,
      " درستی": 3814,
      " حر": 3815,
      " اهل": 3816,
      " خریداری": 3817,
      " کانال": 3818,
      " رهبر": 3819,
      " ویتامین": 3820,
      " آشنا": 3821,
      " X": 3822,
      "صیلی": 3823,
      " رح": 3824,
      " اینها": 3825,
      " مشه": 3826,
      " دانم": 3827,
      " مخالف": 3828,
      " بکن": 3829,
      " گام": 3830,
      " طل": 3831,
      " فرایند": 3832,
      " معمولی": 3833,
      "نز": 3834,
      " روغن": 3835,
      " گذشت": 3836,
      " بزرگتر": 3837,
      "24": 3838,
      "یدند": 3839,
      " آبی": 3840,
      " روست": 3841,
      " اجتناب": 3842,
      " عهده": 3843,
      "زیه": 3844,
      " خطرناک": 3845,
      " تکنیک": 3846,
      "ژانس": 3847,
      " معروف": 3848,
      " مقاومت": 3849,
      " بخور": 3850,
      " نیمه": 3851,
      "هی": 3852,
      " بقیه": 3853,
      " سرگر": 3854,
      " تعطیل": 3855,
      "برو": 3856,
      " هیجان": 3857,
      " d": 3858,
      " پخش": 3859,
      " فراتر": 3860,
      "هران": 3861,
      " بگویم": 3862,
      "وذ": 3863,
      " کری": 3864,
      " ترجمه": 3865,
      " چربی": 3866,
      " اصول": 3867,
      "op": 3868,
      "ساخت": 3869,
      " ناد": 3870,
      " سای": 3871,
      " قرمز": 3872,
      " سپتامبر": 3873,
      "سور": 3874,
      " دیر": 3875,
      " تئ": 3876,
      " حو": 3877,
      " قهر": 3878,
      " سابق": 3879,
      " خویش": 3880,
      "چیزی": 3881,
      " شهروندان": 3882,
      " ترجیح": 3883,
      " !\n": 3884,
      " رها": 3885,
      " گناه": 3886,
      " عادت": 3887,
      "راحت": 3888,
      " بگذارید": 3889,
      "گاری": 3890,
      "یس": 3891,
      "‌ف": 3892,
      " برآ": 3893,
      "فرم": 3894,
      "نظ": 3895,
      " یافتن": 3896,
      " بخوانید": 3897,
      " زندانی": 3898,
      "av": 3899,
      " عین": 3900,
      " نیویورک": 3901,
      " بیت": 3902,
      " الان": 3903,
      "خد": 3904,
      "لاقی": 3905,
      " پیروزی": 3906,
      "حالی": 3907,
      "ایق": 3908,
      " انگیزه": 3909,
      " محسوب": 3910,
      " لط": 3911,
      " کلید": 3912,
      " قبلا": 3913,
      " حاوی": 3914,
      "درس": 3915,
      "اختی": 3916,
      " بارداری": 3917,
      " ارد": 3918,
      " اور": 3919,
      " برده": 3920,
      " تجهیزات": 3921,
      "ئت": 3922,
      " جع": 3923,
      " آزمون": 3924,
      " تقریباً": 3925,
      " پنهان": 3926,
      " رض": 3927,
      "همی": 3928,
      "عم": 3929,
      "وال": 3930,
      " مبل": 3931,
      " رست": 3932,
      " تغذیه": 3933,
      " خاور": 3934,
      "اتیک": 3935,
      " تاکید": 3936,
      " اون": 3937,
      " مى": 3938,
      " ول": 3939,
      " نده": 3940,
      " كن": 3941,
      " نظریه": 3942,
      "فاوتی": 3943,
      " Y": 3944,
      " رویکرد": 3945,
      " ژن": 3946,
      "حدود": 3947,
      " سرباز": 3948,
      "داکثر": 3949,
      "‌خواست": 3950,
      " استان": 3951,
      " ملت": 3952,
      "غم": 3953,
      "ندن": 3954,
      " صحیح": 3955,
      " سیاره": 3956,
      " انگلستان": 3957,
      " کردید": 3958,
      " نیرو": 3959,
      "کراسی": 3960,
      "‌برد": 3961,
      " توزیع": 3962,
      " تقا": 3963,
      " .": 3964,
      " پذیرش": 3965,
      "عمل": 3966,
      "کده": 3967,
      " ریسک": 3968,
      "قابل": 3969,
      "پرس": 3970,
      " متعد": 3971,
      " b": 3972,
      " مزایای": 3973,
      " سک": 3974,
      " ساح": 3975,
      " چیزهای": 3976,
      "ئید": 3977,
      "فیل": 3978,
      " محک": 3979,
      " تنهایی": 3980,
      " پرورش": 3981,
      " مالیات": 3982,
      " تعدادی": 3983,
      "ورو": 3984,
      " تاکنون": 3985,
      " امپ": 3986,
      "کتاب": 3987,
      " جنبش": 3988,
      "ri": 3989,
      "قوه": 3990,
      " کا": 3991,
      " هماه": 3992,
      "کننده": 3993,
      " باغ": 3994,
      " اختلال": 3995,
      " بخواهید": 3996,
      " جزئیات": 3997,
      "ادق": 3998,
      "بیش": 3999
    },
    "merges": [
      [
        " ",
        "ا"
      ],
      [
        " ",
        "ب"
      ],
      [
        " ",
        "م"
      ],
      [
        " ",
        "د"
      ],
      [
        " ",
        "ک"
      ],
      [
        "ا",
        "ن"
      ],
      [
        "ا",
        "ی"
      ],
      [
        "ا",
        "ر"
      ],
      [
        "س",
        "ت"
      ],
      [
        ".",
        "\n"
      ],
      [
        "ن",
        "د"
      ],
      [
        " ",
        "و"
      ],
      [
        " ",
        "ر"
      ],
      [
        " ",
        "ت"
      ],
      [
        " ",
        "ه"
      ],
      [
        " د",
        "ر"
      ],
      [
        "ی",
        "ن"
      ],
      [
        " ",
        "ن"
      ],
      [
        " ",
        "ش"
      ],
      [
        " م",
        "ی"
      ],
      [
        " ب",
        "ه"
      ],
      [
        "و",
        "د"
      ],
      [
        "ی",
        "د"
      ],
      [
        " ",
        "س"
      ],
      [
        " ",
        "آ"
      ],
      [
        " ک",
        "ه"
      ],
      [
        " ",
        "خ"
      ],
      [
        " ا",
        "ز"
      ],
      [
        " ر",
        "ا"
      ],
      [
        " ا",
        "ست"
      ],
      [
        "ا",
        "د"
      ],
      [
        "ا",
        "ل"
      ],
      [
        "ر",
        "د"
      ],
      [
        "ا",
        "م"
      ],
      [
        " ب",
        "ا"
      ],
      [
        " ب",
        "ر"
      ],
      [
        " ",
        "ی"
      ],
      [
        " ",
        "پ"
      ],
      [
        "و",
        "ر"
      ],
      [
        " ا",
        "ین"
      ],
      [
        "ا",
        "ه"
      ],
      [
        " ",
        "ج"
      ],
      [
        "ی",
        "ر"
      ],
      [
        " ",
        "ف"
      ],
      [
        " ",
        "ح"
      ],
      [
        " ",
        "گ"
      ],
      [
        "ا",
        "ت"
      ],
      [
        "ی",
        "م"
      ],
      [
        "ش",
        "ت"
      ],
      [
        " آ",
        "ن"
      ],
      [
        " ",
        "ع"
      ],
      [
        "ل",
        "ی"
      ],
      [
        "ه",
        "ا"
      ],
      [
        " ",
        "ز"
      ],
      [
        "م",
        "ا"
      ],
      [
        "ه",
        "ای"
      ],
      [
        " ی",
        "ک"
      ],
      [
        "و",
        "ان"
      ],
      [
        "ا",
        "ب"
      ],
      [
        " ک",
        "ن"
      ],
      [
        " ",
        "چ"
      ],
      [
        "ر",
        "ی"
      ],
      [
        " ",
        "ق"
      ],
      [
        "و",
        "ن"
      ],
      [
        " بر",
        "ای"
      ],
      [
        "ا",
        "ز"
      ],
      [
        " ه",
        "م"
      ],
      [
        "د",
        "ه"
      ],
      [
        "ف",
        "ت"
      ],
      [
        "س",
        "ی"
      ],
      [
        "و",
        "ل"
      ],
      [
        "و",
        "ی"
      ],
      [
        " ه",
        "ای"
      ],
      [
        "گ",
        "ر"
      ],
      [
        " ک",
        "رد"
      ],
      [
        "م",
        "ی"
      ],
      [
        "ت",
        "ر"
      ],
      [
        "ر",
        "و"
      ],
      [
        " ا",
        "ن"
      ],
      [
        "م",
        "ان"
      ],
      [
        " م",
        "و"
      ],
      [
        "ار",
        "ی"
      ],
      [
        " د",
        "ار"
      ],
      [
        " خ",
        "ود"
      ],
      [
        "د",
        "ر"
      ],
      [
        "ر",
        "ا"
      ],
      [
        " م",
        "ن"
      ],
      [
        "ت",
        "ی"
      ],
      [
        "اد",
        "ه"
      ],
      [
        "ک",
        "ن"
      ],
      [
        "ل",
        "ا"
      ],
      [
        " خ",
        "و"
      ],
      [
        " ب",
        "ود"
      ],
      [
        " ",
        "ط"
      ],
      [
        " ن",
        "ی"
      ],
      [
        " ش",
        "ما"
      ],
      [
        " ر",
        "و"
      ],
      [
        " با",
        "ش"
      ],
      [
        " ک",
        "ار"
      ],
      [
        "‌",
        "های"
      ],
      [
        "ی",
        "ت"
      ],
      [
        " ",
        "ص"
      ],
      [
        " ی",
        "ا"
      ],
      [
        "ای",
        "ن"
      ],
      [
        "گ",
        "ی"
      ],
      [
        "ان",
        "ی"
      ],
      [
        "ز",
        "ی"
      ],
      [
        " ب",
        "ی"
      ],
      [
        " ت",
        "ا"
      ],
      [
        "ا",
        "شت"
      ],
      [
        "خ",
        "ت"
      ],
      [
        "ا",
        "س"
      ],
      [
        " ش",
        "ده"
      ],
      [
        " ت",
        "و"
      ],
      [
        " ش",
        "د"
      ],
      [
        " د",
        "ه"
      ],
      [
        " ه",
        "ا"
      ],
      [
        "ای",
        "د"
      ],
      [
        "ای",
        "ی"
      ],
      [
        " س",
        "ال"
      ],
      [
        "ب",
        "ه"
      ],
      [
        " ا",
        "ی"
      ],
      [
        "ب",
        "ر"
      ],
      [
        "ی",
        "ا"
      ],
      [
        "ر",
        "ک"
      ],
      [
        " م",
        "ا"
      ],
      [
        " ه",
        "ست"
      ],
      [
        " د",
        "و"
      ],
      [
        " ک",
        "ند"
      ],
      [
        "ب",
        "ی"
      ],
      [
        " د",
        "ی"
      ],
      [
        " کن",
        "ید"
      ],
      [
        "ان",
        "ه"
      ],
      [
        " ا",
        "و"
      ],
      [
        "ف",
        "ر"
      ],
      [
        " ",
        "("
      ],
      [
        "‌",
        "ها"
      ],
      [
        " ش",
        "ود"
      ],
      [
        " ا",
        "م"
      ],
      [
        " م",
        "ح"
      ],
      [
        " ت",
        "وان"
      ],
      [
        " آ",
        "م"
      ],
      [
        "ا",
        "ق"
      ],
      [
        " کن",
        "ند"
      ],
      [
        " م",
        "ت"
      ],
      [
        " ف",
        "ر"
      ],
      [
        " خو",
        "اه"
      ],
      [
        "ب",
        "ا"
      ],
      [
        " پ",
        "ی"
      ],
      [
        " ه",
        "ر"
      ],
      [
        " م",
        "ع"
      ],
      [
        "گ",
        "اه"
      ],
      [
        " د",
        "اشت"
      ],
      [
        "ل",
        "ه"
      ],
      [
        "ن",
        "گ"
      ],
      [
        "ا",
        "و"
      ],
      [
        "ق",
        "ی"
      ],
      [
        "د",
        "ی"
      ],
      [
        "ن",
        "ی"
      ],
      [
        "ب",
        "ت"
      ],
      [
        "ع",
        "ی"
      ],
      [
        " د",
        "ست"
      ],
      [
        " باش",
        "د"
      ],
      [
        " دار",
        "د"
      ],
      [
        " ",
        "ل"
      ],
      [
        "ک",
        "ه"
      ],
      [
        "ت",
        "وان"
      ],
      [
        "ش",
        "ان"
      ],
      [
        "ا",
        "ف"
      ],
      [
        " ن",
        "می"
      ],
      [
        " س",
        "ر"
      ],
      [
        "م",
        "ای"
      ],
      [
        "اد",
        "ی"
      ],
      [
        "و",
        "ز"
      ],
      [
        " ",
        "غ"
      ],
      [
        " ب",
        "اید"
      ],
      [
        "ار",
        "د"
      ],
      [
        "فت",
        "ه"
      ],
      [
        " ق",
        "ر"
      ],
      [
        " ح",
        "ال"
      ],
      [
        "ف",
        "اده"
      ],
      [
        "ک",
        "ی"
      ],
      [
        "ه",
        "م"
      ],
      [
        " ت",
        "ر"
      ],
      [
        "خ",
        "و"
      ],
      [
        "ار",
        "ه"
      ],
      [
        "ند",
        "ه"
      ],
      [
        "؟",
        "\n"
      ],
      [
        " ک",
        "م"
      ],
      [
        "ج",
        "ه"
      ],
      [
        "ر",
        "ف"
      ],
      [
        " م",
        "ش"
      ],
      [
        " است",
        "فاده"
      ],
      [
        "ور",
        "ی"
      ],
      [
        "ام",
        "ه"
      ],
      [
        " آن",
        "ها"
      ],
      [
        " ا",
        "ر"
      ],
      [
        "ان",
        "د"
      ],
      [
        " ک",
        "ش"
      ],
      [
        "ز",
        "ار"
      ],
      [
        " ",
        "،"
      ],
      [
        "ج",
        "ود"
      ],
      [
        " گ",
        "ر"
      ],
      [
        " ب",
        "د"
      ],
      [
        "‌",
        "ش"
      ],
      [
        " چ",
        "ی"
      ],
      [
        "ع",
        "ه"
      ],
      [
        " م",
        "د"
      ],
      [
        "ج",
        "ام"
      ],
      [
        " ا",
        "س"
      ],
      [
        " دی",
        "گر"
      ],
      [
        " هست",
        "ند"
      ],
      [
        "ا",
        "ست"
      ],
      [
        "ا",
        "خت"
      ],
      [
        " ن",
        "ظ"
      ],
      [
        " ا",
        "ند"
      ],
      [
        " مو",
        "رد"
      ],
      [
        "ه",
        "ر"
      ],
      [
        " ب",
        "سی"
      ],
      [
        "ک",
        "ر"
      ],
      [
        "د",
        "ید"
      ],
      [
        "ع",
        "د"
      ],
      [
        "م",
        "ن"
      ],
      [
        " کرد",
        "ه"
      ],
      [
        " چ",
        "ه"
      ],
      [
        " ",
        "«"
      ],
      [
        " م",
        "س"
      ],
      [
        " ان",
        "جام"
      ],
      [
        " م",
        "ر"
      ],
      [
        "ی",
        "ل"
      ],
      [
        " ا",
        "ل"
      ],
      [
        " د",
        "ان"
      ],
      [
        " ز",
        "مان"
      ],
      [
        " ت",
        "ح"
      ],
      [
        "ع",
        "ت"
      ],
      [
        "ش",
        "ی"
      ],
      [
        "ن",
        "ین"
      ],
      [
        " نی",
        "ست"
      ],
      [
        " رو",
        "ز"
      ],
      [
        " پی",
        "ش"
      ],
      [
        " ن",
        "و"
      ],
      [
        " د",
        "اد"
      ],
      [
        " ا",
        "ما"
      ],
      [
        "م",
        "ل"
      ],
      [
        "و",
        "م"
      ],
      [
        "ال",
        "ی"
      ],
      [
        "‌",
        "ک"
      ],
      [
        " و",
        "جود"
      ],
      [
        "و",
        "ند"
      ],
      [
        " با",
        "ز"
      ],
      [
        " ا",
        "ف"
      ],
      [
        " م",
        "ق"
      ],
      [
        "‌",
        "توان"
      ],
      [
        " ج",
        "ه"
      ],
      [
        "ق",
        "ت"
      ],
      [
        "گ",
        "یر"
      ],
      [
        "ن",
        "وان"
      ],
      [
        " ز",
        "ند"
      ],
      [
        "خ",
        "ص"
      ],
      [
        " نی",
        "ز"
      ],
      [
        "م",
        "ین"
      ],
      [
        " ب",
        "ین"
      ],
      [
        "چ",
        "ه"
      ],
      [
        " م",
        "رد"
      ],
      [
        " ",
        "ند"
      ],
      [
        " ا",
        "ج"
      ],
      [
        " ت",
        "ن"
      ],
      [
        " ان",
        "ت"
      ],
      [
        "‌",
        "کن"
      ],
      [
        " بی",
        "شت"
      ],
      [
        " ر",
        "س"
      ],
      [
        "ری",
        "ک"
      ],
      [
        "رک",
        "ت"
      ],
      [
        " قر",
        "ار"
      ],
      [
        "تر",
        "ین"
      ],
      [
        " ت",
        "م"
      ],
      [
        "ید",
        "ه"
      ],
      [
        " ب",
        "ز"
      ],
      [
        "ون",
        "ه"
      ],
      [
        " داشت",
        "ه"
      ],
      [
        " ا",
        "ح"
      ],
      [
        "ام",
        "ل"
      ],
      [
        "ک",
        "ل"
      ],
      [
        " ع",
        "نوان"
      ],
      [
        ".",
        "."
      ],
      [
        " تو",
        "س"
      ],
      [
        "ن",
        "امه"
      ],
      [
        " گ",
        "ذ"
      ],
      [
        " ر",
        "وی"
      ],
      [
        "ی",
        "ک"
      ],
      [
        " خواه",
        "د"
      ],
      [
        "د",
        "ا"
      ],
      [
        " ز",
        "ی"
      ],
      [
        " هم",
        "ه"
      ],
      [
        "م",
        "کن"
      ],
      [
        "و",
        "ه"
      ],
      [
        "ش",
        "ن"
      ],
      [
        " ا",
        "ت"
      ],
      [
        " کش",
        "ور"
      ],
      [
        "ا",
        "گر"
      ],
      [
        "خ",
        "ی"
      ],
      [
        "ا",
        "ص"
      ],
      [
        " ده",
        "د"
      ],
      [
        "ش",
        "د"
      ],
      [
        " زند",
        "گی"
      ],
      [
        "ام",
        "ی"
      ],
      [
        "ق",
        "ه"
      ],
      [
        "ر",
        "گ"
      ],
      [
        "‌",
        "ای"
      ],
      [
        "ط",
        "ر"
      ],
      [
        "!",
        "\n"
      ],
      [
        "ست",
        "ان"
      ],
      [
        " ب",
        "خ"
      ],
      [
        " و",
        "اق"
      ],
      [
        "ی",
        "چ"
      ],
      [
        "م",
        "و"
      ],
      [
        " نظ",
        "ر"
      ],
      [
        " س",
        "از"
      ],
      [
        " را",
        "ه"
      ],
      [
        "ای",
        "ت"
      ],
      [
        " د",
        "اده"
      ],
      [
        " ت",
        "ج"
      ],
      [
        " دان",
        "ش"
      ],
      [
        " م",
        "مکن"
      ],
      [
        " دار",
        "ند"
      ],
      [
        " س",
        "ی"
      ],
      [
        " بسی",
        "ار"
      ],
      [
        "ر",
        "س"
      ],
      [
        "‌",
        "ی"
      ],
      [
        " ت",
        "ص"
      ],
      [
        "گ",
        "ان"
      ],
      [
        " م",
        "ج"
      ],
      [
        "»",
        "\n"
      ],
      [
        " ج",
        "م"
      ],
      [
        "و",
        "ش"
      ],
      [
        "د",
        "م"
      ],
      [
        " کرد",
        "ن"
      ],
      [
        "ان",
        "ند"
      ],
      [
        " ",
        ".\n"
      ],
      [
        " گ",
        "فت"
      ],
      [
        " نی",
        "از"
      ],
      [
        "ک",
        "ان"
      ],
      [
        "ز",
        "ش"
      ],
      [
        "و",
        "ا"
      ],
      [
        "ک",
        "ار"
      ],
      [
        " ا",
        "ط"
      ],
      [
        " بیشت",
        "ر"
      ],
      [
        "آ",
        "ن"
      ],
      [
        "ام",
        "ا"
      ],
      [
        "ق",
        "ط"
      ],
      [
        "خو",
        "اه"
      ],
      [
        "ع",
        "ات"
      ],
      [
        "چ",
        "نین"
      ],
      [
        "ور",
        "ت"
      ],
      [
        " با",
        "زی"
      ],
      [
        "2",
        "0"
      ],
      [
        "ح",
        "ی"
      ],
      [
        "از",
        "ه"
      ],
      [
        "ار",
        "ت"
      ],
      [
        " ش",
        "رکت"
      ],
      [
        " پ",
        "س"
      ],
      [
        " بز",
        "رگ"
      ],
      [
        " ج",
        "دید"
      ],
      [
        "ا",
        "ک"
      ],
      [
        "شت",
        "ه"
      ],
      [
        "و",
        "ق"
      ],
      [
        "م",
        "ند"
      ],
      [
        "غ",
        "ی"
      ],
      [
        " ا",
        "گر"
      ],
      [
        " آم",
        "ریک"
      ],
      [
        "ت",
        "ان"
      ],
      [
        "‌ش",
        "ود"
      ],
      [
        " م",
        "ط"
      ],
      [
        "و",
        "ید"
      ],
      [
        "ص",
        "د"
      ],
      [
        "اب",
        "ر"
      ],
      [
        " ب",
        "ال"
      ],
      [
        "ز",
        "ای"
      ],
      [
        " ک",
        "س"
      ],
      [
        "e",
        "r"
      ],
      [
        " کم",
        "ک"
      ],
      [
        " ن",
        "ام"
      ],
      [
        " د",
        "ور"
      ],
      [
        " ا",
        "ص"
      ],
      [
        " توان",
        "د"
      ],
      [
        "اد",
        "ر"
      ],
      [
        "س",
        "ه"
      ],
      [
        "ل",
        "ام"
      ],
      [
        "س",
        "ان"
      ],
      [
        " ک",
        "و"
      ],
      [
        "‌ک",
        "ند"
      ],
      [
        " ا",
        "فر"
      ],
      [
        "ب",
        "ان"
      ],
      [
        "ش",
        "ه"
      ],
      [
        " بر",
        "نامه"
      ],
      [
        " س",
        "اخت"
      ],
      [
        "غی",
        "یر"
      ],
      [
        "ج",
        "ا"
      ],
      [
        " ه",
        "یچ"
      ],
      [
        " ا",
        "ع"
      ],
      [
        " ن",
        "شان"
      ],
      [
        " ح",
        "د"
      ],
      [
        " ک",
        "ل"
      ],
      [
        " ش",
        "ن"
      ],
      [
        "رد",
        "ه"
      ],
      [
        " پ",
        "ای"
      ],
      [
        " م",
        "ث"
      ],
      [
        " ط",
        "ور"
      ],
      [
        " م",
        "اه"
      ],
      [
        " چ",
        "ند"
      ],
      [
        "ر",
        "ه"
      ],
      [
        "ل",
        "ب"
      ],
      [
        " ا",
        "ول"
      ],
      [
        "ل",
        "ف"
      ],
      [
        "ی",
        "ه"
      ],
      [
        " تن",
        "ها"
      ],
      [
        " ت",
        "غییر"
      ],
      [
        " ن",
        "ه"
      ],
      [
        "ب",
        "اره"
      ],
      [
        "را",
        "ئ"
      ],
      [
        "‌",
        "گ"
      ],
      [
        "ا",
        "خ"
      ],
      [
        "ض",
        "ر"
      ],
      [
        " ش",
        "وند"
      ],
      [
        " و",
        "ی"
      ],
      [
        " کن",
        "یم"
      ],
      [
        " مرد",
        "م"
      ],
      [
        " ",
        "\""
      ],
      [
        "ج",
        "اد"
      ],
      [
        " توس",
        "ط"
      ],
      [
        "ین",
        "ه"
      ],
      [
        "..",
        ".\n"
      ],
      [
        " ن",
        "ق"
      ],
      [
        " چی",
        "زی"
      ],
      [
        "م",
        "ت"
      ],
      [
        "ات",
        "ی"
      ],
      [
        " ز",
        "ن"
      ],
      [
        " ق",
        "ب"
      ],
      [
        "اب",
        "ل"
      ],
      [
        ".",
        "»\n"
      ],
      [
        " واق",
        "ع"
      ],
      [
        "ست",
        "م"
      ],
      [
        " ب",
        "ار"
      ],
      [
        " ا",
        "د"
      ],
      [
        " آ",
        "ز"
      ],
      [
        " یک",
        "ی"
      ],
      [
        " ا",
        "یر"
      ],
      [
        " ",
        "S"
      ],
      [
        " ای",
        "جاد"
      ],
      [
        " ز",
        "یر"
      ],
      [
        "ک",
        "ت"
      ],
      [
        " ج",
        "ن"
      ],
      [
        "ب",
        "ود"
      ],
      [
        " پ",
        "رو"
      ],
      [
        " د",
        "ن"
      ],
      [
        "پ",
        "س"
      ],
      [
        "‌",
        "ده"
      ],
      [
        "i",
        "n"
      ],
      [
        "ژ",
        "ی"
      ],
      [
        "های",
        "ی"
      ],
      [
        " س",
        "و"
      ],
      [
        "گ",
        "ونه"
      ],
      [
        " ص",
        "ورت"
      ],
      [
        "ث",
        "ر"
      ],
      [
        "ون",
        "ی"
      ],
      [
        " ط",
        "ول"
      ],
      [
        " ب",
        "یم"
      ],
      [
        " پ",
        "ر"
      ],
      [
        " جه",
        "ان"
      ],
      [
        "‌",
        "اند"
      ],
      [
        "خ",
        "اب"
      ],
      [
        " باش",
        "ید"
      ],
      [
        " آم",
        "وز"
      ],
      [
        "ست",
        "ه"
      ],
      [
        "ن",
        "ه"
      ],
      [
        "ض",
        "ی"
      ],
      [
        "ک",
        "س"
      ],
      [
        "س",
        "ر"
      ],
      [
        " چی",
        "ز"
      ],
      [
        "م",
        "ال"
      ],
      [
        " ت",
        "ب"
      ],
      [
        "ن",
        "ج"
      ],
      [
        "د",
        "ان"
      ],
      [
        "ب",
        "و"
      ],
      [
        " ب",
        "ل"
      ],
      [
        "از",
        "ی"
      ],
      [
        " تم",
        "ام"
      ],
      [
        "o",
        "n"
      ],
      [
        " ت",
        "ول"
      ],
      [
        " م",
        "ص"
      ],
      [
        " د",
        "ل"
      ],
      [
        "ا",
        "ح"
      ],
      [
        " ز",
        "مین"
      ],
      [
        "ب",
        "ین"
      ],
      [
        " ",
        "C"
      ],
      [
        " ن",
        "ش"
      ],
      [
        " ف",
        "ع"
      ],
      [
        " ت",
        "ع"
      ],
      [
        " این",
        "که"
      ],
      [
        " ن",
        "س"
      ],
      [
        " م",
        "انند"
      ],
      [
        " ار",
        "ت"
      ],
      [
        " انت",
        "خاب"
      ],
      [
        " بی",
        "ش"
      ],
      [
        "ب",
        "ال"
      ],
      [
        "‌کن",
        "ند"
      ],
      [
        "ر",
        "سی"
      ],
      [
        "ت",
        "اب"
      ],
      [
        "لی",
        "ل"
      ],
      [
        "ژ",
        "ه"
      ],
      [
        " ش",
        "ر"
      ],
      [
        "ا",
        "ش"
      ],
      [
        "قی",
        "ق"
      ],
      [
        " ا",
        "خ"
      ],
      [
        " افر",
        "اد"
      ],
      [
        "گ",
        "ری"
      ],
      [
        " غ",
        "یر"
      ],
      [
        "گیر",
        "ی"
      ],
      [
        " ",
        "ك"
      ],
      [
        "ا",
        "ً"
      ],
      [
        " اط",
        "لا"
      ],
      [
        " آمریک",
        "ا"
      ],
      [
        "ز",
        "ه"
      ],
      [
        "و",
        "ع"
      ],
      [
        " ت",
        "ق"
      ],
      [
        "a",
        "n"
      ],
      [
        " ف",
        "قط"
      ],
      [
        "ی",
        "لی"
      ],
      [
        "بر",
        "ای"
      ],
      [
        " ی",
        "اد"
      ],
      [
        "و",
        "س"
      ],
      [
        " ه",
        "ن"
      ],
      [
        " ر",
        "فت"
      ],
      [
        " ن",
        "م"
      ],
      [
        "ب",
        "ار"
      ],
      [
        " ب",
        "عد"
      ],
      [
        "زای",
        "ش"
      ],
      [
        " ",
        "A"
      ],
      [
        " گر",
        "فت"
      ],
      [
        " ",
        "ث"
      ],
      [
        "اب",
        "ی"
      ],
      [
        " آ",
        "ی"
      ],
      [
        ":",
        "\n"
      ],
      [
        " باش",
        "ند"
      ],
      [
        "ری",
        "ق"
      ],
      [
        "م",
        "د"
      ],
      [
        " ایر",
        "ان"
      ],
      [
        " خ",
        "ان"
      ],
      [
        "ف",
        "ی"
      ],
      [
        "ا",
        "ط"
      ],
      [
        "د",
        "ام"
      ],
      [
        " اف",
        "زایش"
      ],
      [
        "ط",
        "ور"
      ],
      [
        " ا",
        "ش"
      ],
      [
        " در",
        "صد"
      ],
      [
        " ج",
        "ای"
      ],
      [
        " ن",
        "ا"
      ],
      [
        " م",
        "هم"
      ],
      [
        "م",
        "ه"
      ],
      [
        " س",
        "ه"
      ],
      [
        " د",
        "ول"
      ],
      [
        "گ",
        "ز"
      ],
      [
        " ده",
        "ید"
      ],
      [
        "ل",
        "و"
      ],
      [
        "مای",
        "ش"
      ],
      [
        " هم",
        "چنین"
      ],
      [
        "ای",
        "ل"
      ],
      [
        " تول",
        "ید"
      ],
      [
        " ده",
        "ند"
      ],
      [
        " م",
        "ه"
      ],
      [
        " ش",
        "خص"
      ],
      [
        " ک",
        "ود"
      ],
      [
        "ع",
        "یت"
      ],
      [
        " ",
        "ذ"
      ],
      [
        "ید",
        "ا"
      ],
      [
        " غ",
        "ذ"
      ],
      [
        " ا",
        "رائ"
      ],
      [
        " م",
        "شت"
      ],
      [
        " ب",
        "گ"
      ],
      [
        " ارائ",
        "ه"
      ],
      [
        "س",
        "اس"
      ],
      [
        " م",
        "را"
      ],
      [
        "ئ",
        "ی"
      ],
      [
        " بود",
        "ه"
      ],
      [
        "ید",
        "ن"
      ],
      [
        " بسی",
        "اری"
      ],
      [
        " آ",
        "ب"
      ],
      [
        " م",
        "خت"
      ],
      [
        " می",
        "لی"
      ],
      [
        ")",
        "\n"
      ],
      [
        " زمان",
        "ی"
      ],
      [
        " اطلا",
        "عات"
      ],
      [
        " بخ",
        "ش"
      ],
      [
        " ب",
        "ن"
      ],
      [
        "د",
        "ار"
      ],
      [
        " خ",
        "ار"
      ],
      [
        "ز",
        "ینه"
      ],
      [
        " ش",
        "ب"
      ],
      [
        " دو",
        "ست"
      ],
      [
        "ج",
        "ی"
      ],
      [
        " ک",
        "تاب"
      ],
      [
        " ت",
        "ش"
      ],
      [
        " ف",
        "یل"
      ],
      [
        " س",
        "یا"
      ],
      [
        "و",
        "رد"
      ],
      [
        " ح",
        "ق"
      ],
      [
        " ",
        "M"
      ],
      [
        " زی",
        "ادی"
      ],
      [
        " ح",
        "تی"
      ],
      [
        " بود",
        "ند"
      ],
      [
        " فع",
        "ال"
      ],
      [
        " کرد",
        "ند"
      ],
      [
        " توان",
        "ید"
      ],
      [
        " های",
        "ی"
      ],
      [
        " مد",
        "یر"
      ],
      [
        "a",
        "r"
      ],
      [
        " کن",
        "م"
      ],
      [
        "ش",
        "م"
      ],
      [
        " هم",
        "ان"
      ],
      [
        "و",
        "لی"
      ],
      [
        "ت",
        "ما"
      ],
      [
        "اه",
        "ش"
      ],
      [
        " تو",
        "جه"
      ],
      [
        " گر",
        "فته"
      ],
      [
        "را",
        "حی"
      ],
      [
        "۲",
        "۰"
      ],
      [
        " مش",
        "کل"
      ],
      [
        "‌توان",
        "د"
      ],
      [
        " ع",
        "مل"
      ],
      [
        " هم",
        "ین"
      ],
      [
        " شد",
        "ن"
      ],
      [
        " ح",
        "ا"
      ],
      [
        "ق",
        "ل"
      ],
      [
        " ف",
        "رو"
      ],
      [
        "ی",
        "شه"
      ],
      [
        " ش",
        "هر"
      ],
      [
        " پ",
        "یدا"
      ],
      [
        "رو",
        "ع"
      ],
      [
        "1",
        "9"
      ],
      [
        " ف",
        "کر"
      ],
      [
        " ک",
        "سی"
      ],
      [
        " گ",
        "رو"
      ],
      [
        "و",
        "ت"
      ],
      [
        " ع",
        "ل"
      ],
      [
        "ب",
        "ط"
      ],
      [
        "ا",
        "سی"
      ],
      [
        " ",
        "P"
      ],
      [
        " ساز",
        "مان"
      ],
      [
        " ف",
        "رد"
      ],
      [
        "ذ",
        "یر"
      ],
      [
        "م",
        "ول"
      ],
      [
        "پ",
        "ی"
      ],
      [
        "0",
        "0"
      ],
      [
        " ن",
        "فر"
      ],
      [
        "و",
        "ص"
      ],
      [
        " مخت",
        "لف"
      ],
      [
        " بر",
        "خی"
      ],
      [
        "ر",
        "اه"
      ],
      [
        " بد",
        "ون"
      ],
      [
        " در",
        "باره"
      ],
      [
        " ک",
        "اهش"
      ],
      [
        "ک",
        "رد"
      ],
      [
        "ست",
        "ی"
      ],
      [
        "ین",
        "ی"
      ],
      [
        "ف",
        "ق"
      ],
      [
        " ه",
        "د"
      ],
      [
        "لی",
        "ه"
      ],
      [
        "ش",
        "ما"
      ],
      [
        "یم",
        "ی"
      ],
      [
        " ع",
        "م"
      ],
      [
        "رو",
        "ز"
      ],
      [
        " ج",
        "نگ"
      ],
      [
        " ",
        "ژ"
      ],
      [
        " ق",
        "در"
      ],
      [
        "o",
        "r"
      ],
      [
        " گرو",
        "ه"
      ],
      [
        " ش",
        "روع"
      ],
      [
        "ال",
        "ات"
      ],
      [
        " سی",
        "ستم"
      ],
      [
        "گ",
        "ه"
      ],
      [
        " خ",
        "ر"
      ],
      [
        " ا",
        "قت"
      ],
      [
        " خ",
        "انه"
      ],
      [
        "وی",
        "ی"
      ],
      [
        "ر",
        "ین"
      ],
      [
        " خو",
        "ب"
      ],
      [
        " در",
        "یا"
      ],
      [
        " س",
        "ا"
      ],
      [
        " آ",
        "ل"
      ],
      [
        " مت",
        "ح"
      ],
      [
        " ک",
        "ام"
      ],
      [
        " دی",
        "گری"
      ],
      [
        "ود",
        "ی"
      ],
      [
        "رک",
        "ز"
      ],
      [
        " ت",
        "رک"
      ],
      [
        "س",
        "ال"
      ],
      [
        " ق",
        "ابل"
      ],
      [
        "ج",
        "ر"
      ],
      [
        " ا",
        "ه"
      ],
      [
        " ح",
        "س"
      ],
      [
        "ب",
        "ن"
      ],
      [
        "ر",
        "ات"
      ],
      [
        " اقت",
        "ص"
      ],
      [
        "ف",
        "ا"
      ],
      [
        "با",
        "ط"
      ],
      [
        "و",
        "ار"
      ],
      [
        "آ",
        "یا"
      ],
      [
        " ",
        "-"
      ],
      [
        " دار",
        "ید"
      ],
      [
        "ع",
        "ث"
      ],
      [
        " اح",
        "ساس"
      ],
      [
        " در",
        "مان"
      ],
      [
        "ث",
        "یر"
      ],
      [
        "e",
        "n"
      ],
      [
        " ب",
        "رد"
      ],
      [
        " ند",
        "ارد"
      ],
      [
        " گ",
        "رد"
      ],
      [
        " ا",
        "یم"
      ],
      [
        " می",
        "ان"
      ],
      [
        " مط",
        "ال"
      ],
      [
        "‌",
        "تر"
      ],
      [
        "ابر",
        "این"
      ],
      [
        " م",
        "ست"
      ],
      [
        "ف",
        "او"
      ],
      [
        "ه",
        "ن"
      ],
      [
        " و",
        "ر"
      ],
      [
        " ",
        "B"
      ],
      [
        " کس",
        "ب"
      ],
      [
        "20",
        "1"
      ],
      [
        " من",
        "ط"
      ],
      [
        " دول",
        "ت"
      ],
      [
        " ان",
        "سان"
      ],
      [
        " مو",
        "ض"
      ],
      [
        " ن",
        "ز"
      ],
      [
        " ",
        "“"
      ],
      [
        " ص",
        "ح"
      ],
      [
        "ی",
        "ف"
      ],
      [
        " با",
        "عث"
      ],
      [
        " س",
        "ایت"
      ],
      [
        "ا",
        "ور"
      ],
      [
        " خ",
        "یلی"
      ],
      [
        "د",
        "ن"
      ],
      [
        " ش",
        "ک"
      ],
      [
        " من",
        "ت"
      ],
      [
        " کو",
        "چ"
      ],
      [
        " د",
        "لیل"
      ],
      [
        "و",
        "ب"
      ],
      [
        "ا",
        "ئ"
      ],
      [
        " ح",
        "رف"
      ],
      [
        "‌های",
        "ی"
      ],
      [
        "س",
        "م"
      ],
      [
        "ا",
        "پ"
      ],
      [
        " فیل",
        "م"
      ],
      [
        "م",
        "یم"
      ],
      [
        " ا",
        "رو"
      ],
      [
        "a",
        "l"
      ],
      [
        "a",
        "t"
      ],
      [
        " ت",
        "اری"
      ],
      [
        "لا",
        "ش"
      ],
      [
        " چ",
        "گونه"
      ],
      [
        " ",
        "T"
      ],
      [
        " ",
        "–"
      ],
      [
        " گذ",
        "شته"
      ],
      [
        "ت",
        "و"
      ],
      [
        " م",
        "خ"
      ],
      [
        " تج",
        "ر"
      ],
      [
        " اج",
        "تما"
      ],
      [
        "ش",
        "ر"
      ],
      [
        " ط",
        "ریق"
      ],
      [
        " قب",
        "ل"
      ],
      [
        "ص",
        "ول"
      ],
      [
        " مو",
        "فق"
      ],
      [
        "ظ",
        "ه"
      ],
      [
        " ز",
        "بان"
      ],
      [
        " چ",
        "نین"
      ],
      [
        " رو",
        "ش"
      ],
      [
        " ارت",
        "باط"
      ],
      [
        " ا",
        "ق"
      ],
      [
        "ه",
        "نگ"
      ],
      [
        " توس",
        "عه"
      ],
      [
        "اف",
        "ی"
      ],
      [
        "e",
        "s"
      ],
      [
        " د",
        "ید"
      ],
      [
        " قدر",
        "ت"
      ],
      [
        "د",
        "ود"
      ],
      [
        " ا",
        "عت"
      ],
      [
        " ",
        "D"
      ],
      [
        " جه",
        "انی"
      ],
      [
        " ارو",
        "پ"
      ],
      [
        "ا",
        "طر"
      ],
      [
        "‌",
        "آ"
      ],
      [
        " س",
        "ط"
      ],
      [
        " ان",
        "گ"
      ],
      [
        "مای",
        "ه"
      ],
      [
        "‌",
        "‌"
      ],
      [
        " دن",
        "بال"
      ],
      [
        " خان",
        "و"
      ],
      [
        "ند",
        "ی"
      ],
      [
        " گ",
        "و"
      ],
      [
        "ف",
        "اق"
      ],
      [
        "ری",
        "ان"
      ],
      [
        " خ",
        "دم"
      ],
      [
        " ش",
        "امل"
      ],
      [
        " خ",
        "دا"
      ],
      [
        " مد",
        "ت"
      ],
      [
        "وی",
        "س"
      ],
      [
        " خ",
        "اص"
      ],
      [
        " ع",
        "لا"
      ],
      [
        " گ",
        "یر"
      ],
      [
        "عد",
        "اد"
      ],
      [
        " اص",
        "لی"
      ],
      [
        "ن",
        "ت"
      ],
      [
        " ب",
        "ع"
      ],
      [
        " ط",
        "راحی"
      ],
      [
        " اجتما",
        "عی"
      ],
      [
        " آی",
        "نده"
      ],
      [
        "اس",
        "ب"
      ],
      [
        " س",
        "ری"
      ],
      [
        " ",
        "ض"
      ],
      [
        " ا",
        "شت"
      ],
      [
        "‌ده",
        "د"
      ],
      [
        " ت",
        "لاش"
      ],
      [
        " اح",
        "ت"
      ],
      [
        " پ",
        "اس"
      ],
      [
        " به",
        "ترین"
      ],
      [
        " ق",
        "ان"
      ],
      [
        " هم",
        "یشه"
      ],
      [
        " پ",
        "رد"
      ],
      [
        " چ",
        "را"
      ],
      [
        " مح",
        "صول"
      ],
      [
        "ت",
        "ن"
      ],
      [
        " و",
        "ق"
      ],
      [
        " ک",
        "اری"
      ],
      [
        "ای",
        "ر"
      ],
      [
        "ب",
        "رد"
      ],
      [
        " آ",
        "ر"
      ],
      [
        " و",
        "ب"
      ],
      [
        " به",
        "تر"
      ],
      [
        " مع",
        "مول"
      ],
      [
        " بد",
        "ن"
      ],
      [
        " دریا",
        "فت"
      ],
      [
        " ات",
        "فاق"
      ],
      [
        " اول",
        "ین"
      ],
      [
        "فاو",
        "ت"
      ],
      [
        " خواه",
        "ند"
      ],
      [
        "ر",
        "م"
      ],
      [
        " ",
        "I"
      ],
      [
        " نو",
        "ع"
      ],
      [
        " اد",
        "امه"
      ],
      [
        " تر",
        "ین"
      ],
      [
        " ا",
        "فت"
      ],
      [
        "ض",
        "ای"
      ],
      [
        " ش",
        "م"
      ],
      [
        "و",
        "ست"
      ],
      [
        " ع",
        "ر"
      ],
      [
        " حا",
        "ضر"
      ],
      [
        " کنند",
        "ه"
      ],
      [
        " نس",
        "بت"
      ],
      [
        " خواه",
        "ید"
      ],
      [
        "ز",
        "ند"
      ],
      [
        "دی",
        "ل"
      ],
      [
        "ان",
        "س"
      ],
      [
        " دانش",
        "گاه"
      ],
      [
        " داد",
        "ن"
      ],
      [
        " ت",
        "أ"
      ],
      [
        " سر",
        "مایه"
      ],
      [
        " هن",
        "وز"
      ],
      [
        "ی",
        "ب"
      ],
      [
        " تجر",
        "به"
      ],
      [
        " خر",
        "ید"
      ],
      [
        "مل",
        "لی"
      ],
      [
        "تر",
        "ل"
      ],
      [
        " حال",
        "ی"
      ],
      [
        " ب",
        "گیر"
      ],
      [
        " دار",
        "ای"
      ],
      [
        " کوچ",
        "ک"
      ],
      [
        " ند",
        "ار"
      ],
      [
        "ت",
        "ری"
      ],
      [
        " مص",
        "رف"
      ],
      [
        "ز",
        "ان"
      ],
      [
        " م",
        "الی"
      ],
      [
        "ای",
        "ط"
      ],
      [
        " فرو",
        "ش"
      ],
      [
        " مس",
        "ئ"
      ],
      [
        " هم",
        "راه"
      ],
      [
        "ش",
        "ار"
      ],
      [
        "ن",
        "ان"
      ],
      [
        "کن",
        "ون"
      ],
      [
        " تص",
        "میم"
      ],
      [
        "ار",
        "ان"
      ],
      [
        " گ",
        "فته"
      ],
      [
        " اند",
        "ازه"
      ],
      [
        " منط",
        "قه"
      ],
      [
        " ر",
        "شد"
      ],
      [
        " ا",
        "ب"
      ],
      [
        "گ",
        "رد"
      ],
      [
        " ",
        "H"
      ],
      [
        " ه",
        "نگ"
      ],
      [
        " ج",
        "ز"
      ],
      [
        " و",
        "ا"
      ],
      [
        " میلی",
        "ون"
      ],
      [
        " نز",
        "دی"
      ],
      [
        " ",
        "لی"
      ],
      [
        "می",
        "ت"
      ],
      [
        " سا",
        "عت"
      ],
      [
        " آن",
        "چه"
      ],
      [
        " خو",
        "بی"
      ],
      [
        "تی",
        "جه"
      ],
      [
        " ن",
        "یر"
      ],
      [
        " ک",
        "امل"
      ],
      [
        " خانو",
        "اده"
      ],
      [
        " ",
        "G"
      ],
      [
        "ید",
        "ی"
      ],
      [
        " حد",
        "ود"
      ],
      [
        "۱",
        "۹"
      ],
      [
        " زن",
        "ان"
      ],
      [
        " ر",
        "ی"
      ],
      [
        "گر",
        "ان"
      ],
      [
        "ل",
        "س"
      ],
      [
        " ا",
        "ض"
      ],
      [
        " کن",
        "ترل"
      ],
      [
        "ک",
        "و"
      ],
      [
        " بر",
        "رسی"
      ],
      [
        " ",
        ":"
      ],
      [
        " د",
        "اخ"
      ],
      [
        "لا",
        "ح"
      ],
      [
        " تب",
        "دیل"
      ],
      [
        " ه",
        "فته"
      ],
      [
        " ج",
        "ام"
      ],
      [
        " توان",
        "ند"
      ],
      [
        "مان",
        "ی"
      ],
      [
        " شر",
        "ایط"
      ],
      [
        " ب",
        "توان"
      ],
      [
        " تح",
        "ت"
      ],
      [
        " فعال",
        "یت"
      ],
      [
        " ب",
        "ده"
      ],
      [
        " آموز",
        "ش"
      ],
      [
        "از",
        "م"
      ],
      [
        " تح",
        "قیق"
      ],
      [
        "زار",
        "ش"
      ],
      [
        "‌",
        "خواه"
      ],
      [
        " م",
        "در"
      ],
      [
        " ک",
        "لی"
      ],
      [
        " بال",
        "ا"
      ],
      [
        " خ",
        "ص"
      ],
      [
        "اه",
        "ی"
      ],
      [
        " پاس",
        "خ"
      ],
      [
        "ح",
        "ال"
      ],
      [
        " هد",
        "ف"
      ],
      [
        " گ",
        "ی"
      ],
      [
        " آ",
        "غ"
      ],
      [
        " خ",
        "طر"
      ],
      [
        "ن",
        "ا"
      ],
      [
        " احت",
        "مال"
      ],
      [
        "ت",
        "ا"
      ],
      [
        " ",
        "ظ"
      ],
      [
        " و",
        "ارد"
      ],
      [
        "ب",
        "اید"
      ],
      [
        "i",
        "t"
      ],
      [
        " ه",
        "زینه"
      ],
      [
        " گ",
        "ست"
      ],
      [
        " ط",
        "بی"
      ],
      [
        " زیر",
        "ا"
      ],
      [
        " خ",
        "اطر"
      ],
      [
        " ش",
        "ه"
      ],
      [
        "اب",
        "ت"
      ],
      [
        "‌",
        "د"
      ],
      [
        "خو",
        "است"
      ],
      [
        " م",
        "ل"
      ],
      [
        " پ",
        "شت"
      ],
      [
        " ص",
        "ف"
      ],
      [
        " چه",
        "ار"
      ],
      [
        "ح",
        "ه"
      ],
      [
        " ح",
        "ل"
      ],
      [
        " سط",
        "ح"
      ],
      [
        " ",
        "["
      ],
      [
        " صح",
        "بت"
      ],
      [
        " خ",
        "د"
      ],
      [
        " ق",
        "ط"
      ],
      [
        "ند",
        "گان"
      ],
      [
        "l",
        "e"
      ],
      [
        " دور",
        "ه"
      ],
      [
        "ع",
        "نی"
      ],
      [
        " ار",
        "زش"
      ],
      [
        " پ",
        "زش"
      ],
      [
        " بیشت",
        "ری"
      ],
      [
        " بیم",
        "اری"
      ],
      [
        " با",
        "زار"
      ],
      [
        " خص",
        "وص"
      ],
      [
        " ه",
        "زار"
      ],
      [
        "گاه",
        "ی"
      ],
      [
        " دل",
        "ار"
      ],
      [
        " ص",
        "ن"
      ],
      [
        "بر",
        "ان"
      ],
      [
        "خ",
        "انه"
      ],
      [
        "i",
        "c"
      ],
      [
        " و",
        "قت"
      ],
      [
        "ک",
        "اری"
      ],
      [
        " واق",
        "عی"
      ],
      [
        " موض",
        "وع"
      ],
      [
        "آن",
        "ها"
      ],
      [
        " هست",
        "ید"
      ],
      [
        " آغ",
        "از"
      ],
      [
        " ",
        "R"
      ],
      [
        "ر",
        "ژی"
      ],
      [
        " ص",
        "د"
      ],
      [
        "هم",
        "چنین"
      ],
      [
        " متح",
        "ده"
      ],
      [
        " مو",
        "اد"
      ],
      [
        " ن",
        "تیجه"
      ],
      [
        " آ",
        "سی"
      ],
      [
        " بر",
        "ابر"
      ],
      [
        " س",
        "ب"
      ],
      [
        "غ",
        "لب"
      ],
      [
        " پ",
        "نج"
      ],
      [
        "\"",
        "\n"
      ],
      [
        " ",
        "E"
      ],
      [
        " مث",
        "ال"
      ],
      [
        "ب",
        "ری"
      ],
      [
        "بو",
        "ط"
      ],
      [
        "گ",
        "و"
      ],
      [
        " پ",
        "ذیر"
      ],
      [
        " ش",
        "کل"
      ],
      [
        " جم",
        "له"
      ],
      [
        " اج",
        "ازه"
      ],
      [
        " بل",
        "که"
      ],
      [
        " گ",
        "زارش"
      ],
      [
        " مدیر",
        "یت"
      ],
      [
        "ق",
        "ر"
      ],
      [
        " پای",
        "ان"
      ],
      [
        "‌ک",
        "رد"
      ],
      [
        "ی",
        "ط"
      ],
      [
        " ",
        "L"
      ],
      [
        " مر",
        "بوط"
      ],
      [
        " م",
        "غ"
      ],
      [
        " پ",
        "ول"
      ],
      [
        "s",
        "t"
      ],
      [
        " آ",
        "ورد"
      ],
      [
        " س",
        "خ"
      ],
      [
        " ای",
        "الات"
      ],
      [
        " س",
        "ن"
      ],
      [
        " شد",
        "ند"
      ],
      [
        " ند",
        "اشت"
      ],
      [
        "ب",
        "ع"
      ],
      [
        " م",
        "ف"
      ],
      [
        " و",
        "ض"
      ],
      [
        "ب",
        "ور"
      ],
      [
        " وق",
        "تی"
      ],
      [
        "ح",
        "تی"
      ],
      [
        " آ",
        "یا"
      ],
      [
        " س",
        "ف"
      ],
      [
        " خو",
        "است"
      ],
      [
        "یر",
        "ه"
      ],
      [
        "ذ",
        "ار"
      ],
      [
        "بت",
        "ه"
      ],
      [
        " ک",
        "می"
      ],
      [
        " ن",
        "مای"
      ],
      [
        " دن",
        "یا"
      ],
      [
        " خ",
        "ط"
      ],
      [
        " ن",
        "بود"
      ],
      [
        " ف",
        "ی"
      ],
      [
        " خ",
        "وان"
      ],
      [
        " چ",
        "شم"
      ],
      [
        " اروپ",
        "ا"
      ],
      [
        " ط",
        "رف"
      ],
      [
        " ح",
        "مای"
      ],
      [
        "»",
        ".\n"
      ],
      [
        " ",
        "F"
      ],
      [
        "ال",
        "ه"
      ],
      [
        "‌ش",
        "وند"
      ],
      [
        "ض",
        "ا"
      ],
      [
        " من",
        "اسب"
      ],
      [
        "اخت",
        "ه"
      ],
      [
        "ز",
        "ن"
      ],
      [
        "ق",
        "ات"
      ],
      [
        " ا",
        "بت"
      ],
      [
        "1",
        "0"
      ],
      [
        "د",
        "اشت"
      ],
      [
        "ول",
        "و"
      ],
      [
        " ت",
        "ه"
      ],
      [
        "وی",
        "ت"
      ],
      [
        " و",
        "لی"
      ],
      [
        " اس",
        "اس"
      ],
      [
        " ک",
        "ان"
      ],
      [
        "]",
        "\n"
      ],
      [
        " ت",
        "عداد"
      ],
      [
        "ق",
        "در"
      ],
      [
        " ام",
        "کان"
      ],
      [
        "‌",
        "ترین"
      ],
      [
        " زمین",
        "ه"
      ],
      [
        "ای",
        "ج"
      ],
      [
        " مح",
        "دود"
      ],
      [
        " دیگر",
        "ان"
      ],
      [
        "ش",
        "ید"
      ],
      [
        " ",
        "W"
      ],
      [
        " نزدی",
        "ک"
      ],
      [
        "اق",
        "ل"
      ],
      [
        " حمای",
        "ت"
      ],
      [
        " ع",
        "مو"
      ],
      [
        "ر",
        "خ"
      ],
      [
        " ان",
        "رژی"
      ],
      [
        " مو",
        "جود"
      ],
      [
        "یم",
        "ت"
      ],
      [
        " س",
        "لام"
      ],
      [
        " در",
        "ست"
      ],
      [
        " س",
        "را"
      ],
      [
        " اقتص",
        "ادی"
      ],
      [
        " مر",
        "ت"
      ],
      [
        " ب",
        "ح"
      ],
      [
        " ام",
        "ن"
      ],
      [
        " پرو",
        "ژه"
      ],
      [
        " ن",
        "گه"
      ],
      [
        " مش",
        "خص"
      ],
      [
        " مطال",
        "عه"
      ],
      [
        "است",
        "ان"
      ],
      [
        " م",
        "ک"
      ],
      [
        " ",
        "...\n"
      ],
      [
        " یا",
        "فت"
      ],
      [
        " شب",
        "که"
      ],
      [
        " ا",
        "خت"
      ],
      [
        "ص",
        "ل"
      ],
      [
        " مث",
        "ل"
      ],
      [
        "وق",
        "تی"
      ],
      [
        " پ",
        "یر"
      ],
      [
        "اه",
        "ای"
      ],
      [
        " خدم",
        "ات"
      ],
      [
        "خو",
        "رد"
      ],
      [
        " ک",
        "افی"
      ],
      [
        " ام",
        "روز"
      ],
      [
        " دار",
        "یم"
      ],
      [
        " من",
        "ظ"
      ],
      [
        " چ",
        "ین"
      ],
      [
        " ا",
        "غلب"
      ],
      [
        "ری",
        "با"
      ],
      [
        " آ",
        "خ"
      ],
      [
        " اع",
        "لام"
      ],
      [
        ")",
        ".\n"
      ],
      [
        " جم",
        "ه"
      ],
      [
        "ئی",
        "س"
      ],
      [
        "ج",
        "وی"
      ],
      [
        " سیا",
        "سی"
      ],
      [
        " ن",
        "خواه"
      ],
      [
        " تاری",
        "خ"
      ],
      [
        " ر",
        "ه"
      ],
      [
        " پیش",
        "ر"
      ],
      [
        " کام",
        "لا"
      ],
      [
        " تا",
        "ثیر"
      ],
      [
        "20",
        "0"
      ],
      [
        " ت",
        "یم"
      ],
      [
        " ه",
        "وا"
      ],
      [
        " ش",
        "و"
      ],
      [
        " ل",
        "ازم"
      ],
      [
        "و",
        "های"
      ],
      [
        "لا",
        "ف"
      ],
      [
        " م",
        "لی"
      ],
      [
        "هم",
        "ه"
      ],
      [
        "سی",
        "ه"
      ],
      [
        " ",
        "ضر"
      ],
      [
        "ت",
        "ح"
      ],
      [
        "ش",
        "ین"
      ],
      [
        "ود",
        "ه"
      ],
      [
        " را",
        "بط"
      ],
      [
        " خو",
        "ش"
      ],
      [
        " خ",
        "ون"
      ],
      [
        " س",
        "ل"
      ],
      [
        "r",
        "o"
      ],
      [
        " سری",
        "ع"
      ],
      [
        " شخص",
        "ی"
      ],
      [
        " ش",
        "وید"
      ],
      [
        "ن",
        "و"
      ],
      [
        "ظ",
        "ار"
      ],
      [
        "ب",
        "خ"
      ],
      [
        " تو",
        "ص"
      ],
      [
        "ام",
        "بر"
      ],
      [
        "ک",
        "تر"
      ],
      [
        " کرد",
        "م"
      ],
      [
        " در",
        "ک"
      ],
      [
        " به",
        "بود"
      ],
      [
        "۰",
        "۰"
      ],
      [
        " کس",
        "انی"
      ],
      [
        "ب",
        "ل"
      ],
      [
        "‌",
        "س"
      ],
      [
        " ",
        "N"
      ],
      [
        "ات",
        "ر"
      ],
      [
        " چ",
        "ون"
      ],
      [
        "r",
        "e"
      ],
      [
        " خو",
        "اب"
      ],
      [
        "ر",
        "ان"
      ],
      [
        " ك",
        "ه"
      ],
      [
        " ج",
        "ان"
      ],
      [
        " ح",
        "ی"
      ],
      [
        " ال",
        "مللی"
      ],
      [
        " طبی",
        "عی"
      ],
      [
        " ساخت",
        "ه"
      ],
      [
        " س",
        "ایر"
      ],
      [
        " ن",
        "مایش"
      ],
      [
        " این",
        "جا"
      ],
      [
        " کم",
        "تر"
      ],
      [
        " م",
        "ادر"
      ],
      [
        " دار",
        "م"
      ],
      [
        "دی",
        "گر"
      ],
      [
        " مو",
        "ارد"
      ],
      [
        "ف",
        "ظ"
      ],
      [
        " جام",
        "عه"
      ],
      [
        "او",
        "ند"
      ],
      [
        "بن",
        "ابراین"
      ],
      [
        " آز",
        "مایش"
      ],
      [
        "ص",
        "ر"
      ],
      [
        "اب",
        "د"
      ],
      [
        " مح",
        "یط"
      ],
      [
        "ئ",
        "ن"
      ],
      [
        " س",
        "اده"
      ],
      [
        " کود",
        "کان"
      ],
      [
        " عمو",
        "می"
      ],
      [
        " خار",
        "ج"
      ],
      [
        " قان",
        "ون"
      ],
      [
        " مر",
        "گ"
      ],
      [
        "‌",
        "ن"
      ],
      [
        " م",
        "ذ"
      ],
      [
        "‌توان",
        "ید"
      ],
      [
        "و",
        "یر"
      ],
      [
        "‌",
        "ال"
      ],
      [
        " ا",
        "ک"
      ],
      [
        "h",
        "e"
      ],
      [
        " س",
        "فر"
      ],
      [
        " ج",
        "وان"
      ],
      [
        " کود",
        "ک"
      ],
      [
        " کن",
        "ار"
      ],
      [
        " ت",
        "ک"
      ],
      [
        " ج",
        "و"
      ],
      [
        " ا",
        "ثر"
      ],
      [
        " ن",
        "کن"
      ],
      [
        " س",
        "خت"
      ],
      [
        "ون",
        "ت"
      ],
      [
        "ج",
        "و"
      ],
      [
        "ار",
        "ک"
      ],
      [
        " م",
        "ان"
      ],
      [
        "ر",
        "ب"
      ],
      [
        " ت",
        "کن"
      ],
      [
        " ل",
        "ح"
      ],
      [
        " د",
        "خ"
      ],
      [
        "۲۰",
        "۱"
      ],
      [
        " انت",
        "ق"
      ],
      [
        " اق",
        "دام"
      ],
      [
        "با",
        "شد"
      ],
      [
        " ن",
        "گاه"
      ],
      [
        ")",
        "،"
      ],
      [
        " بود",
        "ن"
      ],
      [
        "را",
        "ف"
      ],
      [
        " ن",
        "ف"
      ],
      [
        " رس",
        "ید"
      ],
      [
        " ح",
        "فظ"
      ],
      [
        " حق",
        "وق"
      ],
      [
        " رابط",
        "ه"
      ],
      [
        " ق",
        "د"
      ],
      [
        " ط",
        "ر"
      ],
      [
        "ک",
        "ند"
      ],
      [
        " فر",
        "ص"
      ],
      [
        " ب",
        "ان"
      ],
      [
        "م",
        "ز"
      ],
      [
        " ر",
        "نگ"
      ],
      [
        " نق",
        "ش"
      ],
      [
        "ب",
        "د"
      ],
      [
        " گ",
        "ونه"
      ],
      [
        " ق",
        "یمت"
      ],
      [
        "ع",
        "ا"
      ],
      [
        "ی",
        "ز"
      ],
      [
        ".",
        "\"\n"
      ],
      [
        " ت",
        "ما"
      ],
      [
        "ت",
        "ق"
      ],
      [
        " ح",
        "قی"
      ],
      [
        "گی",
        "رد"
      ],
      [
        " آم",
        "اده"
      ],
      [
        "ل",
        "ق"
      ],
      [
        "وی",
        "ند"
      ],
      [
        "غ",
        "ان"
      ],
      [
        " ا",
        "ید"
      ],
      [
        "a",
        "c"
      ],
      [
        " صف",
        "حه"
      ],
      [
        " انت",
        "ظار"
      ],
      [
        " مو",
        "ق"
      ],
      [
        " ",
        "ست"
      ],
      [
        "ال",
        "ت"
      ],
      [
        "اه",
        "ده"
      ],
      [
        " ر",
        "ق"
      ],
      [
        "اب",
        "ه"
      ],
      [
        " مشکل",
        "ات"
      ],
      [
        "اب",
        "ع"
      ],
      [
        " موفق",
        "یت"
      ],
      [
        " آن",
        "جا"
      ],
      [
        " ب",
        "بین"
      ],
      [
        " پرد",
        "اخت"
      ],
      [
        " ق",
        "ادر"
      ],
      [
        " رو",
        "سیه"
      ],
      [
        "مند",
        "ان"
      ],
      [
        "i",
        "on"
      ],
      [
        " وی",
        "ژه"
      ],
      [
        " س",
        "وی"
      ],
      [
        " فر",
        "زند"
      ],
      [
        " رفت",
        "ار"
      ],
      [
        " بر",
        "س"
      ],
      [
        "خص",
        "ص"
      ],
      [
        " انگ",
        "لی"
      ],
      [
        " بد",
        "ان"
      ],
      [
        " پ",
        "در"
      ],
      [
        " ح",
        "رکت"
      ],
      [
        " هر",
        "گز"
      ],
      [
        " دو",
        "م"
      ],
      [
        " ع",
        "و"
      ],
      [
        " هم",
        "چ"
      ],
      [
        "ل",
        "م"
      ],
      [
        " د",
        "قیق"
      ],
      [
        " ه",
        "و"
      ],
      [
        " غذ",
        "ایی"
      ],
      [
        " حرف",
        "ه"
      ],
      [
        " ا",
        "یده"
      ],
      [
        " ر",
        "ای"
      ],
      [
        "‌توان",
        "ند"
      ],
      [
        " سیا",
        "ست"
      ],
      [
        "گ",
        "ار"
      ],
      [
        "آ",
        "مد"
      ],
      [
        " کشور",
        "های"
      ],
      [
        "ولو",
        "ژی"
      ],
      [
        " مت",
        "فاوت"
      ],
      [
        "ند",
        "ان"
      ],
      [
        "اف",
        "ه"
      ],
      [
        " ج",
        "لو"
      ],
      [
        "گ",
        "فت"
      ],
      [
        " ی",
        "عنی"
      ],
      [
        "ا",
        "ع"
      ],
      [
        " ب",
        "پ"
      ],
      [
        " تق",
        "ریبا"
      ],
      [
        " ح",
        "ک"
      ],
      [
        " سرا",
        "سر"
      ],
      [
        " سر",
        "عت"
      ],
      [
        "م",
        "ع"
      ],
      [
        " مج",
        "مو"
      ],
      [
        " خار",
        "جی"
      ],
      [
        "چ",
        "را"
      ],
      [
        "‌",
        "پ"
      ],
      [
        " ج",
        "ست"
      ],
      [
        "ب",
        "ات"
      ],
      [
        " ص",
        "رف"
      ],
      [
        " دو",
        "باره"
      ],
      [
        " ساز",
        "ی"
      ],
      [
        "”",
        "\n"
      ],
      [
        " د",
        "استان"
      ],
      [
        " حد",
        "اقل"
      ],
      [
        "o",
        "m"
      ],
      [
        " د",
        "ش"
      ],
      [
        " ن",
        "خ"
      ],
      [
        "ب",
        "از"
      ],
      [
        "اب",
        "ط"
      ],
      [
        "e",
        "l"
      ],
      [
        " گذ",
        "اری"
      ],
      [
        " هست",
        "یم"
      ],
      [
        "کی",
        "ل"
      ],
      [
        " گذ",
        "اشت"
      ],
      [
        " ج",
        "ا"
      ],
      [
        " ع",
        "لیه"
      ],
      [
        " ش",
        "ی"
      ],
      [
        "ق",
        "ان"
      ],
      [
        " دست",
        "گاه"
      ],
      [
        " آز",
        "اد"
      ],
      [
        "ظ",
        "ت"
      ],
      [
        "ظ",
        "ر"
      ],
      [
        "ست",
        "گی"
      ],
      [
        " ده",
        "ه"
      ],
      [
        " ع",
        "ض"
      ],
      [
        " بی",
        "ان"
      ],
      [
        " ه",
        "ی"
      ],
      [
        " آسی",
        "ب"
      ],
      [
        "اه",
        "م"
      ],
      [
        "وری",
        "ه"
      ],
      [
        "ی",
        "کی"
      ],
      [
        " ح",
        "م"
      ],
      [
        " یا",
        "فته"
      ],
      [
        " تج",
        "اری"
      ],
      [
        " طول",
        "انی"
      ],
      [
        " می",
        "زان"
      ],
      [
        " افر",
        "ادی"
      ],
      [
        " آمریک",
        "ایی"
      ],
      [
        " ط",
        "ی"
      ],
      [
        " کو",
        "ت"
      ],
      [
        " ن",
        "ت"
      ],
      [
        " زی",
        "اد"
      ],
      [
        " خ",
        "ور"
      ],
      [
        "اف",
        "ق"
      ],
      [
        "و",
        "اره"
      ],
      [
        "o",
        "u"
      ],
      [
        "ب",
        "انی"
      ],
      [
        " ",
        "‌"
      ],
      [
        "in",
        "g"
      ],
      [
        " ح",
        "ض"
      ],
      [
        " پای",
        "ین"
      ],
      [
        " نش",
        "ده"
      ],
      [
        " د",
        "یده"
      ],
      [
        " اخ",
        "یر"
      ],
      [
        " منت",
        "شر"
      ],
      [
        " ب",
        "یر"
      ],
      [
        " م",
        "بت"
      ],
      [
        "ر",
        "ش"
      ],
      [
        "ال",
        "بته"
      ],
      [
        " شن",
        "اخته"
      ],
      [
        " ت",
        "خ"
      ],
      [
        "ج",
        "ب"
      ],
      [
        "ظ",
        "یم"
      ],
      [
        " ج",
        "ایی"
      ],
      [
        " دست",
        "رسی"
      ],
      [
        "ق",
        "ا"
      ],
      [
        "ق",
        "یم"
      ],
      [
        "م",
        "اد"
      ],
      [
        " ر",
        "خ"
      ],
      [
        " ت",
        "ف"
      ],
      [
        " پ",
        "رس"
      ],
      [
        " آم",
        "ده"
      ],
      [
        " ج",
        "ذ"
      ],
      [
        "ق",
        "ای"
      ],
      [
        " پیش",
        "نه"
      ],
      [
        " بیم",
        "ار"
      ],
      [
        " این",
        "تر"
      ],
      [
        " آن",
        "ان"
      ],
      [
        " بر",
        "گ"
      ],
      [
        "ب",
        "اه"
      ],
      [
        "ا",
        "فر"
      ],
      [
        "ای",
        "ه"
      ],
      [
        "ل",
        "ح"
      ],
      [
        " ط",
        "ب"
      ],
      [
        " مش",
        "اهده"
      ],
      [
        "ش",
        "ود"
      ],
      [
        "i",
        "s"
      ],
      [
        " ت",
        "ل"
      ],
      [
        " تص",
        "ویر"
      ],
      [
        " امن",
        "یت"
      ],
      [
        " با",
        "ور"
      ],
      [
        " مس",
        "یر"
      ],
      [
        " مت",
        "و"
      ],
      [
        " وض",
        "عیت"
      ],
      [
        "ام",
        "پ"
      ],
      [
        " م",
        "کان"
      ],
      [
        "ال",
        "ب"
      ],
      [
        " عم",
        "لی"
      ],
      [
        " ف",
        "شار"
      ],
      [
        " مع",
        "ن"
      ],
      [
        "e",
        "t"
      ],
      [
        "س",
        "انی"
      ],
      [
        " بن",
        "ابراین"
      ],
      [
        " اب",
        "زار"
      ],
      [
        " ع",
        "الی"
      ],
      [
        " مع",
        "نی"
      ],
      [
        " س",
        "پ"
      ],
      [
        " نظ",
        "امی"
      ],
      [
        "ل",
        "مان"
      ],
      [
        " مشت",
        "ریان"
      ],
      [
        " بود",
        "م"
      ],
      [
        " بخ",
        "شی"
      ],
      [
        "ي",
        "ن"
      ],
      [
        " آ",
        "ش"
      ],
      [
        " اض",
        "افه"
      ],
      [
        " ح",
        "مل"
      ],
      [
        " خد",
        "اوند"
      ],
      [
        "ت",
        "ل"
      ],
      [
        "‌",
        "دان"
      ],
      [
        " د",
        "قی"
      ],
      [
        " هنگ",
        "ام"
      ],
      [
        "ام",
        "ین"
      ],
      [
        " حض",
        "ور"
      ],
      [
        " مه",
        "ارت"
      ],
      [
        "د",
        "و"
      ],
      [
        "ه",
        "یچ"
      ],
      [
        " چی",
        "ست"
      ],
      [
        " ن",
        "ور"
      ],
      [
        "ت",
        "ش"
      ],
      [
        " آم",
        "د"
      ],
      [
        "ه",
        "مان"
      ],
      [
        " ع",
        "کس"
      ],
      [
        " ت",
        "لف"
      ],
      [
        " محصول",
        "ات"
      ],
      [
        " ب",
        "و"
      ],
      [
        " سال",
        "ه"
      ],
      [
        " ا",
        "کنون"
      ],
      [
        " ک",
        "یف"
      ],
      [
        " شن",
        "اس"
      ],
      [
        " فرص",
        "ت"
      ],
      [
        "ح",
        "له"
      ],
      [
        " ر",
        "ئیس"
      ],
      [
        "اد",
        "ل"
      ],
      [
        "‌",
        "رس"
      ],
      [
        " حقی",
        "قت"
      ],
      [
        "ان",
        "ت"
      ],
      [
        "ذ",
        "اری"
      ],
      [
        "ش",
        "ق"
      ],
      [
        " در",
        "خواست"
      ],
      [
        " س",
        "نگ"
      ],
      [
        " هن",
        "ر"
      ],
      [
        " س",
        "مت"
      ],
      [
        " نیست",
        "ند"
      ],
      [
        " گی",
        "رد"
      ],
      [
        "ر",
        "بی"
      ],
      [
        " ن",
        "باید"
      ],
      [
        " خ",
        "ش"
      ],
      [
        " هم",
        "کاری"
      ],
      [
        "کن",
        "ان"
      ],
      [
        " اش",
        "اره"
      ],
      [
        " ",
        "O"
      ],
      [
        "د",
        "اری"
      ],
      [
        " واقع",
        "ا"
      ],
      [
        " جن",
        "سی"
      ],
      [
        "م",
        "ح"
      ],
      [
        " هست",
        "م"
      ],
      [
        " داشت",
        "ن"
      ],
      [
        " دخ",
        "تر"
      ],
      [
        " م",
        "بار"
      ],
      [
        " است",
        "رات"
      ],
      [
        "لا",
        "س"
      ],
      [
        "ر",
        "یم"
      ],
      [
        "o",
        "l"
      ],
      [
        " اقتص",
        "اد"
      ],
      [
        "ت",
        "ور"
      ],
      [
        " ب",
        "س"
      ],
      [
        " خو",
        "رد"
      ],
      [
        " فر",
        "اهم"
      ],
      [
        " من",
        "جر"
      ],
      [
        " دقی",
        "قه"
      ],
      [
        " ش",
        "ور"
      ],
      [
        " ف",
        "را"
      ],
      [
        "وا",
        "ج"
      ],
      [
        " ث",
        "بت"
      ],
      [
        "ائ",
        "ل"
      ],
      [
        "اه",
        "د"
      ],
      [
        " داخ",
        "لی"
      ],
      [
        " جم",
        "ع"
      ],
      [
        " من",
        "ابع"
      ],
      [
        "گ",
        "ل"
      ],
      [
        " فر",
        "ان"
      ],
      [
        " ",
        "U"
      ],
      [
        " خود",
        "ش"
      ],
      [
        " رو",
        "شن"
      ],
      [
        " غذ",
        "ا"
      ],
      [
        "ا",
        "فت"
      ],
      [
        "س",
        "ل"
      ],
      [
        " در",
        "د"
      ],
      [
        " توان",
        "ایی"
      ],
      [
        "وان",
        "ی"
      ],
      [
        "ع",
        "لا"
      ],
      [
        "a",
        "m"
      ],
      [
        " معمول",
        "ا"
      ],
      [
        " ش",
        "اید"
      ],
      [
        " اس",
        "رائ"
      ],
      [
        "ای",
        "ش"
      ],
      [
        "خی",
        "ص"
      ],
      [
        " متو",
        "جه"
      ],
      [
        "م",
        "رد"
      ],
      [
        " بگیر",
        "ید"
      ],
      [
        "ار",
        "س"
      ],
      [
        " مد",
        "ل"
      ],
      [
        " تم",
        "رکز"
      ],
      [
        "ن",
        "اه"
      ],
      [
        " ش",
        "غ"
      ],
      [
        "و",
        "یم"
      ],
      [
        " مح",
        "ل"
      ],
      [
        " عمل",
        "کرد"
      ],
      [
        " رس",
        "انه"
      ],
      [
        "ت",
        "م"
      ],
      [
        "ری",
        "ف"
      ],
      [
        " داشت",
        "ند"
      ],
      [
        " تش",
        "کیل"
      ],
      [
        " حم",
        "له"
      ],
      [
        "‌کن",
        "م"
      ],
      [
        " م",
        "رکز"
      ],
      [
        " خ",
        "بر"
      ],
      [
        "های",
        "ت"
      ],
      [
        " رو",
        "ابط"
      ],
      [
        "‌کن",
        "ید"
      ],
      [
        " پیشنه",
        "اد"
      ],
      [
        "ط",
        "ان"
      ],
      [
        " گ",
        "وش"
      ],
      [
        " علا",
        "قه"
      ],
      [
        "م",
        "ئن"
      ],
      [
        " خود",
        "تان"
      ],
      [
        " نو",
        "شت"
      ],
      [
        "ب",
        "سی"
      ],
      [
        " گیر",
        "ی"
      ],
      [
        "اص",
        "له"
      ],
      [
        "ص",
        "یل"
      ],
      [
        " اشت",
        "باه"
      ],
      [
        "5",
        "0"
      ],
      [
        "ضی",
        "ح"
      ],
      [
        " ت",
        "ان"
      ],
      [
        " ن",
        "ک"
      ],
      [
        " ان",
        "گی"
      ],
      [
        " مو",
        "سی"
      ],
      [
        "۱",
        "۰"
      ],
      [
        "‌",
        "ام"
      ],
      [
        " نت",
        "ایج"
      ],
      [
        " باش",
        "یم"
      ],
      [
        " ندار",
        "ند"
      ],
      [
        "i",
        "l"
      ],
      [
        " بع",
        "دی"
      ],
      [
        " اعت",
        "ماد"
      ],
      [
        " طر",
        "ح"
      ],
      [
        "م",
        "ون"
      ],
      [
        " اف",
        "غان"
      ],
      [
        " حس",
        "اب"
      ],
      [
        "لا",
        "ق"
      ],
      [
        " خواه",
        "یم"
      ],
      [
        " ل",
        "ذ"
      ],
      [
        " ک",
        "شت"
      ],
      [
        " اه",
        "د"
      ],
      [
        " تر",
        "س"
      ],
      [
        "ل",
        "این"
      ],
      [
        " توص",
        "یه"
      ],
      [
        " صن",
        "عت"
      ],
      [
        " اج",
        "ر"
      ],
      [
        "ب",
        "ح"
      ],
      [
        " ده",
        "یم"
      ],
      [
        " ج",
        "ل"
      ],
      [
        " ب",
        "چه"
      ],
      [
        "می",
        "ز"
      ],
      [
        " جه",
        "ت"
      ],
      [
        " مست",
        "قیم"
      ],
      [
        "ا",
        "ج"
      ],
      [
        " گرفت",
        "ن"
      ],
      [
        "ح",
        "ت"
      ],
      [
        " پی",
        "ام"
      ],
      [
        "وا",
        "ع"
      ],
      [
        "ب",
        "عد"
      ],
      [
        " تش",
        "خیص"
      ],
      [
        " پیشر",
        "فت"
      ],
      [
        " است",
        "خ"
      ],
      [
        " رو",
        "ند"
      ],
      [
        " رس",
        "د"
      ],
      [
        " انگلی",
        "سی"
      ],
      [
        " م",
        "اند"
      ],
      [
        " با",
        "قی"
      ],
      [
        "بی",
        "ه"
      ],
      [
        "لی",
        "غ"
      ],
      [
        " ن",
        "گر"
      ],
      [
        " و",
        "سی"
      ],
      [
        " ک",
        "ال"
      ],
      [
        "عی",
        "ین"
      ],
      [
        " مشت",
        "ری"
      ],
      [
        " م",
        "ها"
      ],
      [
        "خ",
        "ه"
      ],
      [
        " مق",
        "دار"
      ],
      [
        " ام",
        "ر"
      ],
      [
        " مجمو",
        "عه"
      ],
      [
        "ال",
        "یا"
      ],
      [
        " گست",
        "رده"
      ],
      [
        "ژ",
        "یم"
      ],
      [
        " ع",
        "ب"
      ],
      [
        " د",
        "نی"
      ],
      [
        " ام",
        "ید"
      ],
      [
        " ه",
        "وش"
      ],
      [
        "ق",
        "ب"
      ],
      [
        "و",
        "ط"
      ],
      [
        " س",
        "عی"
      ],
      [
        " ات",
        "اق"
      ],
      [
        "a",
        "s"
      ],
      [
        " پ",
        "وست"
      ],
      [
        " ات",
        "ح"
      ],
      [
        " اس",
        "ل"
      ],
      [
        " کوت",
        "اه"
      ],
      [
        " ",
        "V"
      ],
      [
        " ",
        "/"
      ],
      [
        "لی",
        "س"
      ],
      [
        " باز",
        "اری"
      ],
      [
        " تغییر",
        "ات"
      ],
      [
        " بر",
        "خورد"
      ],
      [
        " مت",
        "ن"
      ],
      [
        " مرت",
        "بط"
      ],
      [
        " ما",
        "شین"
      ],
      [
        "e",
        "d"
      ],
      [
        " گ",
        "زینه"
      ],
      [
        "‌گ",
        "وید"
      ],
      [
        " پ",
        "وش"
      ],
      [
        " مر",
        "حله"
      ],
      [
        " ب",
        "خواه"
      ],
      [
        "م",
        "س"
      ],
      [
        "ا",
        "ول"
      ],
      [
        " نخ",
        "ست"
      ],
      [
        " ک",
        "دام"
      ],
      [
        "…",
        "\n"
      ],
      [
        " ن",
        "فت"
      ],
      [
        " نو",
        "شته"
      ],
      [
        "اص",
        "ل"
      ],
      [
        "گ",
        "ون"
      ],
      [
        " ب",
        "سته"
      ],
      [
        " ج",
        "ریان"
      ],
      [
        "‌",
        "ر"
      ],
      [
        " به",
        "ره"
      ],
      [
        "‌",
        "اش"
      ],
      [
        " مش",
        "ابه"
      ],
      [
        "a",
        "d"
      ],
      [
        "س",
        "مت"
      ],
      [
        "ن",
        "م"
      ],
      [
        " س",
        "وریه"
      ],
      [
        "لی",
        "ت"
      ],
      [
        " اف",
        "ز"
      ],
      [
        "مین",
        "ان"
      ],
      [
        "‌ده",
        "ند"
      ],
      [
        " بع",
        "ضی"
      ],
      [
        " ت",
        "عیین"
      ],
      [
        "ام",
        "ت"
      ],
      [
        " یک",
        "دیگر"
      ],
      [
        "را",
        "ک"
      ],
      [
        " بل",
        "ند"
      ],
      [
        "o",
        "o"
      ],
      [
        "شن",
        "اس"
      ],
      [
        " بیر",
        "ون"
      ],
      [
        " فر",
        "م"
      ],
      [
        " اس",
        "پ"
      ],
      [
        " س",
        "وم"
      ],
      [
        " کار",
        "بران"
      ],
      [
        " ای",
        "شان"
      ],
      [
        "c",
        "h"
      ],
      [
        " اج",
        "را"
      ],
      [
        "‌کن",
        "یم"
      ],
      [
        " منظ",
        "ور"
      ],
      [
        "ری",
        "ه"
      ],
      [
        " تم",
        "رین"
      ],
      [
        "د",
        "واج"
      ],
      [
        " گ",
        "وید"
      ],
      [
        "بر",
        "خی"
      ],
      [
        " تو",
        "ضیح"
      ],
      [
        " سخ",
        "ن"
      ],
      [
        "ام",
        "وش"
      ],
      [
        " ی",
        "ه"
      ],
      [
        " آ",
        "وری"
      ],
      [
        " آن",
        "لاین"
      ],
      [
        "غ",
        "ذ"
      ],
      [
        " نم",
        "ود"
      ],
      [
        " مدر",
        "سه"
      ],
      [
        "ژ",
        "گی"
      ],
      [
        "اد",
        "ت"
      ],
      [
        "اد",
        "گی"
      ],
      [
        " ان",
        "قل"
      ],
      [
        "ج",
        "مه"
      ],
      [
        " می",
        "کن"
      ],
      [
        " او",
        "لیه"
      ],
      [
        " تب",
        "لیغ"
      ],
      [
        " داخ",
        "ل"
      ],
      [
        " و",
        "زن"
      ],
      [
        " شد",
        "ید"
      ],
      [
        "اند",
        "ارد"
      ],
      [
        " شک",
        "ست"
      ],
      [
        " دو",
        "ستان"
      ],
      [
        " نکن",
        "ید"
      ],
      [
        " اهد",
        "اف"
      ],
      [
        " من",
        "اط"
      ],
      [
        " آز",
        "ادی"
      ],
      [
        " تو",
        "افق"
      ],
      [
        " آل",
        "مان"
      ],
      [
        " پ",
        "اک"
      ],
      [
        " مح",
        "لی"
      ],
      [
        " پزش",
        "کی"
      ],
      [
        "اد",
        "ا"
      ],
      [
        " ته",
        "دید"
      ],
      [
        "‌",
        "و"
      ],
      [
        " ن",
        "ویس"
      ],
      [
        "ز",
        "یر"
      ],
      [
        " ق",
        "وی"
      ],
      [
        " حال",
        "ت"
      ],
      [
        "ش",
        "اید"
      ],
      [
        "پ",
        "یم"
      ],
      [
        "کت",
        "ه"
      ],
      [
        " مغ",
        "ز"
      ],
      [
        " س",
        "پس"
      ],
      [
        " سلام",
        "ت"
      ],
      [
        " جلو",
        "گیری"
      ],
      [
        "ف",
        "ه"
      ],
      [
        " ر",
        "ود"
      ],
      [
        "چ",
        "ار"
      ],
      [
        " گ",
        "ل"
      ],
      [
        " مح",
        "اف"
      ],
      [
        "هنگ",
        "امی"
      ],
      [
        " ا",
        "پ"
      ],
      [
        " ر",
        "ژیم"
      ],
      [
        " در",
        "ی"
      ],
      [
        " در",
        "آمد"
      ],
      [
        " سف",
        "ید"
      ],
      [
        " هست",
        "ه"
      ],
      [
        "ج",
        "م"
      ],
      [
        " لذ",
        "ت"
      ],
      [
        " خصوص",
        "ی"
      ],
      [
        " ت",
        "ای"
      ],
      [
        " آ",
        "سان"
      ],
      [
        "1",
        "8"
      ],
      [
        " ظ",
        "اه"
      ],
      [
        "آ",
        "م"
      ],
      [
        "را",
        "ق"
      ],
      [
        " عر",
        "ض"
      ],
      [
        " بح",
        "ث"
      ],
      [
        " نخواه",
        "د"
      ],
      [
        "انی",
        "ا"
      ],
      [
        "کر",
        "ات"
      ],
      [
        "س",
        "ک"
      ],
      [
        "م",
        "ق"
      ],
      [
        " جمه",
        "وری"
      ],
      [
        " همچ",
        "نان"
      ],
      [
        " خ",
        "ی"
      ],
      [
        "رف",
        "ی"
      ],
      [
        " مرد",
        "ان"
      ],
      [
        "۲۰",
        "۰"
      ],
      [
        "،",
        "\n"
      ],
      [
        "گ",
        "شت"
      ],
      [
        " س",
        "ود"
      ],
      [
        " مق",
        "ام"
      ],
      [
        "چ",
        "ند"
      ],
      [
        "اه",
        "ا"
      ],
      [
        " ن",
        "رم"
      ],
      [
        "یب",
        "انی"
      ],
      [
        " ن",
        "هایت"
      ],
      [
        "علا",
        "وه"
      ],
      [
        " اخ",
        "تی"
      ],
      [
        " سر",
        "طان"
      ],
      [
        " می",
        "ل"
      ],
      [
        "آ",
        "ی"
      ],
      [
        " سال",
        "م"
      ],
      [
        " پی",
        "چ"
      ],
      [
        "1",
        "2"
      ],
      [
        "ال",
        "د"
      ],
      [
        " کیف",
        "یت"
      ],
      [
        " افغان",
        "ستان"
      ],
      [
        " ف",
        "وق"
      ],
      [
        " مسئ",
        "له"
      ],
      [
        "س",
        "و"
      ],
      [
        " تأ",
        "ثیر"
      ],
      [
        " سل",
        "ول"
      ],
      [
        "‌",
        "تان"
      ],
      [
        " چند",
        "ین"
      ],
      [
        " فی",
        "زی"
      ],
      [
        " کش",
        "ف"
      ],
      [
        " داد",
        "ند"
      ],
      [
        " ذ",
        "هن"
      ],
      [
        "فا",
        "ع"
      ],
      [
        " م",
        "ال"
      ],
      [
        " ج",
        "دا"
      ],
      [
        "م",
        "ش"
      ],
      [
        " ل",
        "ب"
      ],
      [
        " اه",
        "میت"
      ],
      [
        "و",
        "رده"
      ],
      [
        " آ",
        "ور"
      ],
      [
        " است",
        "اندارد"
      ],
      [
        " ز",
        "نده"
      ],
      [
        " دور",
        "ان"
      ],
      [
        " مط",
        "مئن"
      ],
      [
        " اینتر",
        "نت"
      ],
      [
        "ج",
        "ات"
      ],
      [
        "o",
        "f"
      ],
      [
        "قط",
        "ه"
      ],
      [
        " آموز",
        "ان"
      ],
      [
        "و",
        "تر"
      ],
      [
        " کام",
        "پی"
      ],
      [
        "‌",
        "طور"
      ],
      [
        "خص",
        "وص"
      ],
      [
        " اسرائ",
        "یل"
      ],
      [
        " موسی",
        "قی"
      ],
      [
        " از",
        "دواج"
      ],
      [
        " واقع",
        "یت"
      ],
      [
        " ج",
        "دی"
      ],
      [
        " قر",
        "ن"
      ],
      [
        " جدید",
        "ی"
      ],
      [
        " گست",
        "رش"
      ],
      [
        " بان",
        "ک"
      ],
      [
        " فران",
        "سه"
      ],
      [
        "‌",
        "بین"
      ],
      [
        " ابت",
        "دا"
      ],
      [
        "م",
        "ر"
      ],
      [
        " ن",
        "ص"
      ],
      [
        "خت",
        "ه"
      ],
      [
        "ریک",
        "ا"
      ],
      [
        " اع",
        "ضای"
      ],
      [
        " آر",
        "ام"
      ],
      [
        " نس",
        "خه"
      ],
      [
        "بسی",
        "اری"
      ],
      [
        ".",
        "”\n"
      ],
      [
        "چ",
        "ی"
      ],
      [
        " تحقیق",
        "ات"
      ],
      [
        " هم",
        "سر"
      ],
      [
        " ور",
        "زش"
      ],
      [
        " ق",
        "سمت"
      ],
      [
        " اط",
        "مینان"
      ],
      [
        " تج",
        "ارت"
      ],
      [
        " او",
        "قات"
      ],
      [
        " ب",
        "ندی"
      ],
      [
        " ار",
        "سال"
      ],
      [
        " و",
        "یر"
      ],
      [
        "وان",
        "ین"
      ],
      [
        " ع",
        "شق"
      ],
      [
        " ان",
        "واع"
      ],
      [
        "جوی",
        "ان"
      ],
      [
        " انتق",
        "ال"
      ],
      [
        " را",
        "ست"
      ],
      [
        "س",
        "ازی"
      ],
      [
        "ژ",
        "وه"
      ],
      [
        " ک",
        "ی"
      ],
      [
        " مس",
        "ائل"
      ],
      [
        " خواه",
        "م"
      ],
      [
        " کنند",
        "گان"
      ],
      [
        " وی",
        "ژگی"
      ],
      [
        " مناط",
        "ق"
      ],
      [
        "اب",
        "ق"
      ],
      [
        "از",
        "د"
      ],
      [
        " بازاری",
        "ابی"
      ],
      [
        " ع",
        "د"
      ],
      [
        " نم",
        "ونه"
      ],
      [
        " تم",
        "امی"
      ],
      [
        " مها",
        "جر"
      ],
      [
        " مق",
        "اله"
      ],
      [
        " رفت",
        "ن"
      ],
      [
        " پشت",
        "یبانی"
      ],
      [
        " تکن",
        "ولوژی"
      ],
      [
        "چ",
        "گونه"
      ],
      [
        " ن",
        "یم"
      ],
      [
        " کرد",
        "یم"
      ],
      [
        "‌ش",
        "د"
      ],
      [
        "دان",
        "ش"
      ],
      [
        "ح",
        "ل"
      ],
      [
        "3",
        "0"
      ],
      [
        " تن",
        "ظیم"
      ],
      [
        "و",
        "بی"
      ],
      [
        " ی",
        "ابد"
      ],
      [
        "طر",
        "ح"
      ],
      [
        " مشت",
        "رک"
      ],
      [
        " ت",
        "ازه"
      ],
      [
        "ین",
        "گ"
      ],
      [
        " ن",
        "قطه"
      ],
      [
        " مو",
        "ا"
      ],
      [
        " ",
        "t"
      ],
      [
        " کار",
        "های"
      ],
      [
        " میلی",
        "ارد"
      ],
      [
        "ز",
        "مان"
      ],
      [
        "ئ",
        "و"
      ],
      [
        " فر",
        "هنگ"
      ],
      [
        " اختی",
        "ار"
      ],
      [
        "وز",
        "ه"
      ],
      [
        " مق",
        "ابل"
      ],
      [
        " ترک",
        "یه"
      ],
      [
        " آخ",
        "رین"
      ],
      [
        " به",
        "داشت"
      ],
      [
        " مج",
        "بور"
      ],
      [
        "رو",
        "ت"
      ],
      [
        "ک",
        "ش"
      ],
      [
        "پ",
        "ر"
      ],
      [
        " ان",
        "سانی"
      ],
      [
        " خود",
        "م"
      ],
      [
        " مبار",
        "زه"
      ],
      [
        "ز",
        "و"
      ],
      [
        "ل",
        "ود"
      ],
      [
        " ام",
        "نی"
      ],
      [
        " ش",
        "بیه"
      ],
      [
        " قد",
        "یمی"
      ],
      [
        " تما",
        "س"
      ],
      [
        " ف",
        "لس"
      ],
      [
        " ص",
        "لح"
      ],
      [
        "وس",
        "ط"
      ],
      [
        "انی",
        "ه"
      ],
      [
        " ک",
        "ره"
      ],
      [
        " ق",
        "صد"
      ],
      [
        "تن",
        "ها"
      ],
      [
        "ز",
        "ب"
      ],
      [
        " استرات",
        "ژی"
      ],
      [
        " پ",
        "اد"
      ],
      [
        " ب",
        "بر"
      ],
      [
        "‌",
        "که"
      ],
      [
        " شخص",
        "یت"
      ],
      [
        " ق",
        "لب"
      ],
      [
        "کن",
        "ش"
      ],
      [
        "ادی",
        "ه"
      ],
      [
        " ب",
        "ش"
      ],
      [
        " د",
        "چار"
      ],
      [
        "وی",
        "زی"
      ],
      [
        "ن",
        "اک"
      ],
      [
        "ص",
        "ه"
      ],
      [
        " بگ",
        "ذار"
      ],
      [
        "1",
        "5"
      ],
      [
        "ج",
        "ان"
      ],
      [
        " ا",
        "له"
      ],
      [
        " نش",
        "انه"
      ],
      [
        " آ",
        "تش"
      ],
      [
        " دنی",
        "ای"
      ],
      [
        "ت",
        "ون"
      ],
      [
        " ه",
        "ند"
      ],
      [
        "i",
        "v"
      ],
      [
        " مت",
        "خصص"
      ],
      [
        " نیر",
        "وهای"
      ],
      [
        "‌",
        "خ"
      ],
      [
        " عل",
        "می"
      ],
      [
        " در",
        "ون"
      ],
      [
        " رس",
        "یدن"
      ],
      [
        "an",
        "d"
      ],
      [
        " ع",
        "راق"
      ],
      [
        " تح",
        "لیل"
      ],
      [
        "ای",
        "ع"
      ],
      [
        " ساخت",
        "مان"
      ],
      [
        "م",
        "ث"
      ],
      [
        " ش",
        "یر"
      ],
      [
        " دار",
        "و"
      ],
      [
        " ت",
        "ض"
      ],
      [
        " هنگ",
        "امی"
      ],
      [
        " ب",
        "شر"
      ],
      [
        "ز",
        "د"
      ],
      [
        "ف",
        "ع"
      ],
      [
        " هوا",
        "پیم"
      ],
      [
        " موق",
        "عیت"
      ],
      [
        "؛",
        "\n"
      ],
      [
        " آ",
        "س"
      ],
      [
        " مق",
        "ای"
      ],
      [
        " سی",
        "اه"
      ],
      [
        " یاد",
        "گیری"
      ],
      [
        " مت",
        "ع"
      ],
      [
        " امنی",
        "تی"
      ],
      [
        " ه",
        "فت"
      ],
      [
        " آ",
        "ید"
      ],
      [
        " بر",
        "قر"
      ],
      [
        " گ",
        "اهی"
      ],
      [
        " سو",
        "ال"
      ],
      [
        " نداشت",
        "ه"
      ],
      [
        "i",
        "d"
      ],
      [
        "ک",
        "م"
      ],
      [
        " مقای",
        "سه"
      ],
      [
        "a",
        "y"
      ],
      [
        "ای",
        "ند"
      ],
      [
        " ح",
        "اصل"
      ],
      [
        " ق",
        "وانین"
      ],
      [
        " اع",
        "مال"
      ],
      [
        " بز",
        "ر"
      ],
      [
        " ",
        "K"
      ],
      [
        "ن",
        "تی"
      ],
      [
        " رس",
        "می"
      ],
      [
        " ز",
        "ود"
      ],
      [
        " در",
        "و"
      ],
      [
        "آ",
        "وری"
      ],
      [
        " دست",
        "رس"
      ],
      [
        " مث",
        "بت"
      ],
      [
        " مف",
        "ید"
      ],
      [
        "عه",
        "د"
      ],
      [
        " رس",
        "یده"
      ],
      [
        " مذ",
        "ا"
      ],
      [
        "‌",
        "شان"
      ],
      [
        " مع",
        "تق"
      ],
      [
        "..",
        "."
      ],
      [
        "ل",
        "ال"
      ],
      [
        " ع",
        "ن"
      ],
      [
        " اک",
        "ثر"
      ],
      [
        "س",
        "یم"
      ],
      [
        " پ",
        "ار"
      ],
      [
        "ولی",
        "ت"
      ],
      [
        " بین",
        "ی"
      ],
      [
        "en",
        "t"
      ],
      [
        "م",
        "ات"
      ],
      [
        " می",
        "توان"
      ],
      [
        "ور",
        "تی"
      ],
      [
        "زی",
        "ابی"
      ],
      [
        " مرا",
        "ق"
      ],
      [
        "ج",
        "یت"
      ],
      [
        " ای",
        "ست"
      ],
      [
        " کان",
        "ادا"
      ],
      [
        "ن",
        "گی"
      ],
      [
        " ب",
        "نی"
      ],
      [
        " ف",
        "ضای"
      ],
      [
        " مع",
        "رفی"
      ],
      [
        "ق",
        "قان"
      ],
      [
        "ع",
        "اده"
      ],
      [
        "لا",
        "ً"
      ],
      [
        "وی",
        "ه"
      ],
      [
        " جای",
        "گز"
      ],
      [
        " تلف",
        "ن"
      ],
      [
        " عب",
        "ارت"
      ],
      [
        " ت",
        "اب"
      ],
      [
        " مو",
        "س"
      ],
      [
        " مو",
        "ثر"
      ],
      [
        " نیر",
        "وی"
      ],
      [
        " ن",
        "اب"
      ],
      [
        " ف",
        "ض"
      ],
      [
        " تص",
        "ور"
      ],
      [
        " باز",
        "دید"
      ],
      [
        " مح",
        "تو"
      ],
      [
        "م",
        "مکن"
      ],
      [
        " شد",
        "ت"
      ],
      [
        " اط",
        "راف"
      ],
      [
        " فرد",
        "ی"
      ],
      [
        " دست",
        "ور"
      ],
      [
        " ع",
        "ص"
      ],
      [
        " ده",
        "نده"
      ],
      [
        " آ",
        "دم"
      ],
      [
        " ل",
        "و"
      ],
      [
        "وم",
        "ت"
      ],
      [
        "م",
        "ط"
      ],
      [
        " بر",
        "ند"
      ],
      [
        " جست",
        "جو"
      ],
      [
        " ت",
        "فاوت"
      ],
      [
        "ل",
        "ت"
      ],
      [
        " ب",
        "مان"
      ],
      [
        " دی",
        "جیت"
      ],
      [
        "اش",
        "ق"
      ],
      [
        " ش",
        "ان"
      ],
      [
        "و",
        "زی"
      ],
      [
        " را",
        "حتی"
      ],
      [
        " ر",
        "وان"
      ],
      [
        "هن",
        "گی"
      ],
      [
        " ع",
        "می"
      ],
      [
        " ترک",
        "یب"
      ],
      [
        "u",
        "s"
      ],
      [
        " گرد",
        "د"
      ],
      [
        "س",
        "ب"
      ],
      [
        " روز",
        "انه"
      ],
      [
        " خاص",
        "ی"
      ],
      [
        "ز",
        "مین"
      ],
      [
        " ال",
        "له"
      ],
      [
        " تل",
        "ویزی"
      ],
      [
        " خود",
        "شان"
      ],
      [
        " گر",
        "م"
      ],
      [
        "i",
        "g"
      ],
      [
        " و",
        "س"
      ],
      [
        " تر",
        "وری"
      ],
      [
        " ژ",
        "اپ"
      ],
      [
        "سی",
        "س"
      ],
      [
        "رو",
        "زه"
      ],
      [
        " ص",
        "بح"
      ],
      [
        " و",
        "ظ"
      ],
      [
        " دول",
        "تی"
      ],
      [
        " لب",
        "اس"
      ],
      [
        "‌ش",
        "ن"
      ],
      [
        " اسل",
        "امی"
      ],
      [
        "ز",
        "ا"
      ],
      [
        " ن",
        "امه"
      ],
      [
        "وی",
        "ید"
      ],
      [
        " احتمال",
        "ا"
      ],
      [
        " ص",
        "ادر"
      ],
      [
        " ر",
        "فته"
      ],
      [
        " شناس",
        "ایی"
      ],
      [
        " چ",
        "قدر"
      ],
      [
        " ض",
        "د"
      ],
      [
        " اتح",
        "ادیه"
      ],
      [
        " و",
        "ح"
      ],
      [
        " قان",
        "ونی"
      ],
      [
        " حی",
        "وان"
      ],
      [
        "ر",
        "ض"
      ],
      [
        " ذ",
        "خ"
      ],
      [
        "o",
        "t"
      ],
      [
        "ه",
        "د"
      ],
      [
        " اشت",
        "راک"
      ],
      [
        " م",
        "سی"
      ],
      [
        " نق",
        "ل"
      ],
      [
        " گو",
        "گل"
      ],
      [
        " بزر",
        "گی"
      ],
      [
        " پ",
        "ژوه"
      ],
      [
        " م",
        "طرح"
      ],
      [
        "ری",
        "ب"
      ],
      [
        " ت",
        "کر"
      ],
      [
        " در",
        "جه"
      ],
      [
        " تر",
        "امپ"
      ],
      [
        " ",
        "J"
      ],
      [
        "ئ",
        "م"
      ],
      [
        " موا",
        "جه"
      ],
      [
        " نک",
        "رده"
      ],
      [
        "ع",
        "تی"
      ],
      [
        "ست",
        "ند"
      ],
      [
        " دور",
        "بین"
      ],
      [
        " مراق",
        "بت"
      ],
      [
        " ع",
        "امل"
      ],
      [
        " عض",
        "و"
      ],
      [
        " ف",
        "ل"
      ],
      [
        "1",
        "00"
      ],
      [
        "‌",
        "ب"
      ],
      [
        "رو",
        "ف"
      ],
      [
        "ذ",
        "ف"
      ],
      [
        "ف",
        "قط"
      ],
      [
        " ق",
        "ل"
      ],
      [
        "او",
        "یر"
      ],
      [
        " ار",
        "زیابی"
      ],
      [
        " جم",
        "عیت"
      ],
      [
        " شه",
        "رو"
      ],
      [
        " بزرگ",
        "ترین"
      ],
      [
        " آخ",
        "ر"
      ],
      [
        " مو",
        "جب"
      ],
      [
        " کم",
        "پ"
      ],
      [
        " ح",
        "زب"
      ],
      [
        " فر",
        "هنگی"
      ],
      [
        "‌رس",
        "د"
      ],
      [
        " س",
        "رد"
      ],
      [
        "ال",
        "ش"
      ],
      [
        " باز",
        "گشت"
      ],
      [
        "ژ",
        "ن"
      ],
      [
        " اف",
        "س"
      ],
      [
        "شن",
        "اسی"
      ],
      [
        " د",
        "ندان"
      ],
      [
        " خود",
        "رو"
      ],
      [
        " مبت",
        "لا"
      ],
      [
        " ک",
        "جا"
      ],
      [
        " ش",
        "ش"
      ],
      [
        " کامپی",
        "وتر"
      ],
      [
        " ن",
        "کرد"
      ],
      [
        "a",
        "g"
      ],
      [
        " هد",
        "ایت"
      ],
      [
        "شت",
        "ر"
      ],
      [
        "س",
        "پس"
      ],
      [
        " برگ",
        "زار"
      ],
      [
        " ضر",
        "وری"
      ],
      [
        " ا",
        "بر"
      ],
      [
        " د",
        "مو"
      ],
      [
        " ر",
        "یا"
      ],
      [
        " مت",
        "وسط"
      ],
      [
        " پای",
        "ه"
      ],
      [
        " ن",
        "ار"
      ],
      [
        " هوش",
        "مند"
      ],
      [
        " اس",
        "اسی"
      ],
      [
        " عر",
        "ب"
      ],
      [
        " من",
        "ح"
      ],
      [
        " تع",
        "ریف"
      ],
      [
        " آ",
        "ف"
      ],
      [
        " مش",
        "اور"
      ],
      [
        " ب",
        "ارد"
      ],
      [
        " می",
        "ز"
      ],
      [
        "گرد",
        "ان"
      ],
      [
        " ",
        "؟\n"
      ],
      [
        "اب",
        "قه"
      ],
      [
        "اف",
        "ع"
      ],
      [
        " لح",
        "ظه"
      ],
      [
        " جذ",
        "ب"
      ],
      [
        "ت",
        "ص"
      ],
      [
        "ئ",
        "ین"
      ],
      [
        " پرو",
        "از"
      ],
      [
        " ث",
        "ابت"
      ],
      [
        "ک",
        "ید"
      ],
      [
        " د",
        "ع"
      ],
      [
        " د",
        "فاع"
      ],
      [
        " ن",
        "ح"
      ],
      [
        " ال",
        "کتر"
      ],
      [
        " م",
        "تر"
      ],
      [
        "ور",
        "ان"
      ],
      [
        " آموز",
        "شی"
      ],
      [
        " شم",
        "الی"
      ],
      [
        " سب",
        "ک"
      ],
      [
        " دست",
        "ی"
      ],
      [
        " ",
        ")"
      ],
      [
        "‌",
        "اید"
      ],
      [
        " جمه",
        "ور"
      ],
      [
        " خورد",
        "ن"
      ],
      [
        " تح",
        "صیل"
      ],
      [
        " زی",
        "ب"
      ],
      [
        " ع",
        "دم"
      ],
      [
        "u",
        "r"
      ],
      [
        " مو",
        "تور"
      ],
      [
        " زی",
        "ست"
      ],
      [
        " ف",
        "وت"
      ],
      [
        " ام",
        "ور"
      ],
      [
        " ",
        "of"
      ],
      [
        " ب",
        "گیرد"
      ],
      [
        "غ",
        "ال"
      ],
      [
        " فر",
        "اموش"
      ],
      [
        "می",
        "ل"
      ],
      [
        " بخ",
        "وان"
      ],
      [
        "ـ",
        "ـ"
      ],
      [
        " ک",
        "لاس"
      ],
      [
        " است",
        "ر"
      ],
      [
        " ح",
        "وزه"
      ],
      [
        " پیچ",
        "یده"
      ],
      [
        "نا",
        "وری"
      ],
      [
        "ور",
        "یت"
      ],
      [
        " چیز",
        "هایی"
      ],
      [
        "لا",
        "گ"
      ],
      [
        " ح",
        "ذف"
      ],
      [
        "او",
        "م"
      ],
      [
        "س",
        "ون"
      ],
      [
        "و",
        "ح"
      ],
      [
        " ن",
        "جات"
      ],
      [
        " ور",
        "ود"
      ],
      [
        "o",
        "w"
      ],
      [
        "وق",
        "ف"
      ],
      [
        " معتق",
        "د"
      ],
      [
        " م",
        "ؤ"
      ],
      [
        " پرو",
        "ت"
      ],
      [
        " گیر",
        "ند"
      ],
      [
        "19",
        "9"
      ],
      [
        " کل",
        "مه"
      ],
      [
        "ل",
        "ند"
      ],
      [
        " و",
        "اح"
      ],
      [
        " مدر",
        "ن"
      ],
      [
        " محاف",
        "ظت"
      ],
      [
        " ز",
        "ده"
      ],
      [
        "کت",
        "ری"
      ],
      [
        " کل",
        "یدی"
      ],
      [
        " انقل",
        "اب"
      ],
      [
        "ن",
        "ام"
      ],
      [
        " پ",
        "ست"
      ],
      [
        " پزش",
        "ک"
      ],
      [
        " ف",
        "صل"
      ],
      [
        " ت",
        "مای"
      ],
      [
        " تر",
        "تی"
      ],
      [
        " قر",
        "آن"
      ],
      [
        " علا",
        "ئم"
      ],
      [
        " م",
        "رک"
      ],
      [
        " چ",
        "طور"
      ],
      [
        " توان",
        "یم"
      ],
      [
        " انتخاب",
        "ات"
      ],
      [
        "ا",
        "ظ"
      ],
      [
        " اجر",
        "ای"
      ],
      [
        " وا",
        "کنش"
      ],
      [
        "ز",
        "مانی"
      ],
      [
        "ي",
        "د"
      ],
      [
        "ک",
        "سی"
      ],
      [
        "ف",
        "کر"
      ],
      [
        " چ",
        "رخ"
      ],
      [
        " بدان",
        "ید"
      ],
      [
        " ظاه",
        "ر"
      ],
      [
        "e",
        "c"
      ],
      [
        " رو",
        "ح"
      ],
      [
        " مخ",
        "ال"
      ],
      [
        " ",
        "p"
      ],
      [
        " ث",
        "روت"
      ],
      [
        " دانش",
        "جویان"
      ],
      [
        "آی",
        "ند"
      ],
      [
        "۵",
        "۰"
      ],
      [
        " ک",
        "شته"
      ],
      [
        " چ",
        "الش"
      ],
      [
        " من",
        "بع"
      ],
      [
        " ک",
        "ر"
      ],
      [
        " و",
        "یت"
      ],
      [
        " ع",
        "اشق"
      ],
      [
        " ف",
        "ار"
      ],
      [
        " ش",
        "یمی"
      ],
      [
        " بال",
        "ای"
      ],
      [
        " بتوان",
        "د"
      ],
      [
        " بر",
        "یت"
      ],
      [
        " ف",
        "ایل"
      ],
      [
        " کار",
        "برد"
      ],
      [
        " پس",
        "ر"
      ],
      [
        "u",
        "n"
      ],
      [
        " بر",
        "ج"
      ],
      [
        " مت",
        "وقف"
      ],
      [
        " عل",
        "ت"
      ],
      [
        "‌",
        "ع"
      ],
      [
        "1",
        "6"
      ],
      [
        " معن",
        "ای"
      ],
      [
        "‌ال",
        "مللی"
      ],
      [
        "خ",
        "ش"
      ],
      [
        " آن",
        "که"
      ],
      [
        " مطال",
        "عات"
      ],
      [
        " مل",
        "ل"
      ],
      [
        " ف",
        "ناوری"
      ],
      [
        " شغ",
        "ل"
      ],
      [
        " اص",
        "لاح"
      ],
      [
        "e",
        "m"
      ],
      [
        " ببین",
        "ید"
      ],
      [
        " شی",
        "وه"
      ],
      [
        " ساخت",
        "ار"
      ],
      [
        "ان",
        "و"
      ],
      [
        " مس",
        "لمان"
      ],
      [
        "ش",
        "ا"
      ],
      [
        " حال",
        "ا"
      ],
      [
        " آ",
        "شن"
      ],
      [
        " پ",
        "ا"
      ],
      [
        " ق",
        "ض"
      ],
      [
        " مه",
        "می"
      ],
      [
        " محتو",
        "ای"
      ],
      [
        " زی",
        "با"
      ],
      [
        " جن",
        "وبی"
      ],
      [
        "u",
        "t"
      ],
      [
        "‌",
        "مان"
      ],
      [
        " ش",
        "گفت"
      ],
      [
        " گ",
        "از"
      ],
      [
        "ست",
        "انی"
      ],
      [
        " قر",
        "ارد"
      ],
      [
        " نا",
        "شی"
      ],
      [
        " اخت",
        "ص"
      ],
      [
        " حک",
        "ومت"
      ],
      [
        "گ",
        "انه"
      ],
      [
        "‌",
        "است"
      ],
      [
        " ن",
        "گران"
      ],
      [
        " مح",
        "بو"
      ],
      [
        " ره",
        "بری"
      ],
      [
        " ف",
        "اصله"
      ],
      [
        " ذخ",
        "یره"
      ],
      [
        " واح",
        "د"
      ],
      [
        "ار",
        "کت"
      ],
      [
        " من",
        "فی"
      ],
      [
        " ست",
        "اره"
      ],
      [
        " بز",
        "ن"
      ],
      [
        " آف",
        "ریق"
      ],
      [
        " ترتی",
        "ب"
      ],
      [
        "ع",
        "ده"
      ],
      [
        " مج",
        "از"
      ],
      [
        "کار",
        "ان"
      ],
      [
        "اب",
        "ان"
      ],
      [
        " کشور",
        "ها"
      ],
      [
        " جایگز",
        "ین"
      ],
      [
        "د",
        "ری"
      ],
      [
        " د",
        "یدن"
      ],
      [
        " ت",
        "ست"
      ],
      [
        "1",
        "1"
      ],
      [
        " ام",
        "ریکا"
      ],
      [
        " مح",
        "ت"
      ],
      [
        "ن",
        "می"
      ],
      [
        "ش",
        "ک"
      ],
      [
        " ماه",
        "ی"
      ],
      [
        " S",
        "t"
      ],
      [
        " آ",
        "ورده"
      ],
      [
        "ز",
        "م"
      ],
      [
        "‌",
        "گیر"
      ],
      [
        " درمان",
        "ی"
      ],
      [
        "ق",
        "اد"
      ],
      [
        " کار",
        "ت"
      ],
      [
        " رق",
        "ابت"
      ],
      [
        " خش",
        "ونت"
      ],
      [
        " فر",
        "مان"
      ],
      [
        "مرد",
        "م"
      ],
      [
        "ام",
        "ید"
      ],
      [
        " باش",
        "م"
      ],
      [
        " عمی",
        "ق"
      ],
      [
        "ن",
        "ش"
      ],
      [
        "اح",
        "ت"
      ],
      [
        " ارت",
        "ش"
      ],
      [
        " مسئ",
        "ول"
      ],
      [
        "اول",
        "ین"
      ],
      [
        " خوان",
        "دن"
      ],
      [
        " هو",
        "ایی"
      ],
      [
        " آ",
        "قای"
      ],
      [
        " رو",
        "ید"
      ],
      [
        "4",
        "0"
      ],
      [
        "‌گ",
        "ذاری"
      ],
      [
        " د",
        "ائ"
      ],
      [
        "at",
        "ion"
      ],
      [
        " ا",
        "یت"
      ],
      [
        "ما",
        "ز"
      ],
      [
        " تص",
        "اویر"
      ],
      [
        "را",
        "ج"
      ],
      [
        " عرض",
        "ه"
      ],
      [
        "er",
        "s"
      ],
      [
        " برد",
        "اشت"
      ],
      [
        " گ",
        "ویند"
      ],
      [
        " ق",
        "اب"
      ],
      [
        "الد",
        "ین"
      ],
      [
        " مع",
        "رض"
      ],
      [
        " ار",
        "شد"
      ],
      [
        "ح",
        "ات"
      ],
      [
        "س",
        "از"
      ],
      [
        " ب",
        "ک"
      ],
      [
        " نیاز",
        "های"
      ],
      [
        " بال",
        "اتر"
      ],
      [
        " قط",
        "ع"
      ],
      [
        "ل",
        "ات"
      ],
      [
        "ین",
        "ک"
      ],
      [
        " وسی",
        "له"
      ],
      [
        " ",
        "s"
      ],
      [
        "ب",
        "ازی"
      ],
      [
        " اف",
        "زار"
      ],
      [
        " تاری",
        "خی"
      ],
      [
        "1",
        "3"
      ],
      [
        "i",
        "m"
      ],
      [
        " پ",
        "لیس"
      ],
      [
        " جز",
        "ئی"
      ],
      [
        "اد",
        "های"
      ],
      [
        " خدم",
        "ت"
      ],
      [
        " لی",
        "ست"
      ],
      [
        "گ",
        "ذار"
      ],
      [
        "ول",
        "ت"
      ],
      [
        " پرد",
        "از"
      ],
      [
        " ن",
        "وز"
      ],
      [
        " قب",
        "لی"
      ],
      [
        " عم",
        "ر"
      ],
      [
        " مسئ",
        "ولیت"
      ],
      [
        " صد",
        "ای"
      ],
      [
        " م",
        "اده"
      ],
      [
        " ام",
        "ام"
      ],
      [
        " ن",
        "هایی"
      ],
      [
        " بیم",
        "اران"
      ],
      [
        "رو",
        "ش"
      ],
      [
        " م",
        "ز"
      ],
      [
        "ظه",
        "ار"
      ],
      [
        "ور",
        "ش"
      ],
      [
        " دش",
        "من"
      ],
      [
        " است",
        "رس"
      ],
      [
        " ع",
        "ف"
      ],
      [
        " شد",
        "م"
      ],
      [
        " نگر",
        "انی"
      ],
      [
        "a",
        "p"
      ],
      [
        "‌",
        "باشد"
      ],
      [
        " تکر",
        "ار"
      ],
      [
        "ا",
        "شی"
      ],
      [
        "ژ",
        "یک"
      ],
      [
        " اقدام",
        "ات"
      ],
      [
        " برس",
        "د"
      ],
      [
        " سر",
        "ویس"
      ],
      [
        " تق",
        "ویت"
      ],
      [
        " ص",
        "ورتی"
      ],
      [
        "‌ای",
        "م"
      ],
      [
        " مه",
        "ند"
      ],
      [
        " و",
        "زیر"
      ],
      [
        "ول",
        "ه"
      ],
      [
        " بگیر",
        "ند"
      ],
      [
        "م",
        "رکز"
      ],
      [
        " ز",
        "دن"
      ],
      [
        "‌ش",
        "ده"
      ],
      [
        " دیجیت",
        "ال"
      ],
      [
        " مر",
        "ز"
      ],
      [
        "حال",
        "ا"
      ],
      [
        " س",
        "ع"
      ],
      [
        " ف",
        "هم"
      ],
      [
        " مش",
        "غ"
      ],
      [
        "دار",
        "ان"
      ],
      [
        " دید",
        "گاه"
      ],
      [
        " ر",
        "شته"
      ],
      [
        "i",
        "r"
      ],
      [
        " آ",
        "گاه"
      ],
      [
        " اختص",
        "اص"
      ],
      [
        "ای",
        "ان"
      ],
      [
        " ذ",
        "کر"
      ],
      [
        " ظ",
        "رف"
      ],
      [
        " عو",
        "امل"
      ],
      [
        "س",
        "ا"
      ],
      [
        " مرک",
        "زی"
      ],
      [
        " محبو",
        "ب"
      ],
      [
        " اح",
        "تر"
      ],
      [
        " افت",
        "اد"
      ],
      [
        " بر",
        "ادر"
      ],
      [
        " مان",
        "ده"
      ],
      [
        " د",
        "کتر"
      ],
      [
        "ست",
        "ر"
      ],
      [
        " ایم",
        "یل"
      ],
      [
        " کاملا",
        "ً"
      ],
      [
        " فیزی",
        "کی"
      ],
      [
        "وی",
        "ش"
      ],
      [
        " کار",
        "بر"
      ],
      [
        " ه",
        "شت"
      ],
      [
        "بع",
        "ضی"
      ],
      [
        " دش",
        "وار"
      ],
      [
        " س",
        "لاح"
      ],
      [
        " فر",
        "آیند"
      ],
      [
        "عی",
        "ف"
      ],
      [
        " ته",
        "یه"
      ],
      [
        "د",
        "اد"
      ],
      [
        "گ",
        "ذ"
      ],
      [
        " معمول",
        "اً"
      ],
      [
        " ری",
        "زی"
      ],
      [
        "چ",
        "ون"
      ],
      [
        "شن",
        "به"
      ],
      [
        "ک",
        "رو"
      ],
      [
        "اص",
        "ر"
      ],
      [
        " شم",
        "اره"
      ],
      [
        " ",
        ":\n"
      ],
      [
        " پ",
        "ارک"
      ],
      [
        "بر",
        "نامه"
      ],
      [
        " مج",
        "د"
      ],
      [
        "و",
        "ف"
      ],
      [
        "شد",
        "ار"
      ],
      [
        " ز",
        "د"
      ],
      [
        "سی",
        "ون"
      ],
      [
        "ل",
        "ط"
      ],
      [
        " ر",
        "د"
      ],
      [
        " عل",
        "م"
      ],
      [
        "قی",
        "ه"
      ],
      [
        " ایر",
        "انی"
      ],
      [
        " اطلاعات",
        "ی"
      ],
      [
        " نص",
        "ب"
      ],
      [
        " ق",
        "دم"
      ],
      [
        " مست",
        "قل"
      ],
      [
        " پژوه",
        "ش"
      ],
      [
        "و",
        "ک"
      ],
      [
        " خواست",
        "ه"
      ],
      [
        "‌",
        "گیرد"
      ],
      [
        "ست",
        "ن"
      ],
      [
        " ا",
        "ظهار"
      ],
      [
        " خ",
        "لق"
      ],
      [
        " مختلف",
        "ی"
      ],
      [
        " عملی",
        "ات"
      ],
      [
        "خ",
        "ود"
      ],
      [
        " ن",
        "کته"
      ],
      [
        " اس",
        "لام"
      ],
      [
        " زند",
        "ان"
      ],
      [
        "ور",
        "ک"
      ],
      [
        "‌کرد",
        "ند"
      ],
      [
        " ",
        "c"
      ],
      [
        "ن",
        "س"
      ],
      [
        " ش",
        "ا"
      ],
      [
        " خود",
        "مان"
      ],
      [
        " غ",
        "ربی"
      ],
      [
        " قب",
        "ول"
      ],
      [
        "o",
        "c"
      ],
      [
        " I",
        "n"
      ],
      [
        " آورد",
        "ن"
      ],
      [
        " ج",
        "شن"
      ],
      [
        " موض",
        "و"
      ],
      [
        " پوش",
        "ش"
      ],
      [
        ".",
        "["
      ],
      [
        "ا",
        "ض"
      ],
      [
        " خ",
        "لاق"
      ],
      [
        " نخست",
        "ین"
      ],
      [
        " سال",
        "گی"
      ],
      [
        " مش",
        "ارکت"
      ],
      [
        " رای",
        "گان"
      ],
      [
        " ت",
        "ور"
      ],
      [
        " کار",
        "کنان"
      ],
      [
        " و",
        "عده"
      ],
      [
        " تق",
        "سیم"
      ],
      [
        " فرزند",
        "ان"
      ],
      [
        " عو",
        "ض"
      ],
      [
        " مشغ",
        "ول"
      ],
      [
        "ر",
        "ت"
      ],
      [
        "غ",
        "ن"
      ],
      [
        "م",
        "یر"
      ],
      [
        " آش",
        "کار"
      ],
      [
        " ب",
        "ند"
      ],
      [
        " ک",
        "یل"
      ],
      [
        " ش",
        "ع"
      ],
      [
        " قدرت",
        "مند"
      ],
      [
        " منح",
        "صر"
      ],
      [
        "ا",
        "کنون"
      ],
      [
        " س",
        "ق"
      ],
      [
        "اند",
        "ن"
      ],
      [
        " ال",
        "بته"
      ],
      [
        "ی",
        "عنی"
      ],
      [
        "‌کن",
        "نده"
      ],
      [
        "ری",
        "ت"
      ],
      [
        " برقر",
        "ار"
      ],
      [
        " گذاشت",
        "ه"
      ],
      [
        "ش",
        "ب"
      ],
      [
        " ن",
        "توان"
      ],
      [
        " ن",
        "باشد"
      ],
      [
        " متح",
        "د"
      ],
      [
        "‌گ",
        "ذ"
      ],
      [
        " م",
        "ي"
      ],
      [
        " می",
        "شود"
      ],
      [
        "زار",
        "ت"
      ],
      [
        " م",
        "لا"
      ],
      [
        " ح",
        "فا"
      ],
      [
        "کر",
        "ه"
      ],
      [
        " سلام",
        "تی"
      ],
      [
        " کشت",
        "ی"
      ],
      [
        " ا",
        "کت"
      ],
      [
        " چ",
        "ینی"
      ],
      [
        " نس",
        "ل"
      ],
      [
        " لح",
        "اظ"
      ],
      [
        "ب",
        "یر"
      ],
      [
        " م",
        "زای"
      ],
      [
        " احساس",
        "ات"
      ],
      [
        " نف",
        "س"
      ],
      [
        "۳",
        "۰"
      ],
      [
        " اروپ",
        "ایی"
      ],
      [
        "است",
        "فاده"
      ],
      [
        " حیوان",
        "ات"
      ],
      [
        " T",
        "he"
      ],
      [
        " تای",
        "ید"
      ],
      [
        " مس",
        "افر"
      ],
      [
        " درو",
        "غ"
      ],
      [
        " هم",
        "واره"
      ],
      [
        " کش",
        "اور"
      ],
      [
        " عل",
        "وم"
      ],
      [
        " جو",
        "اب"
      ],
      [
        "م",
        "ار"
      ],
      [
        "ان",
        "گی"
      ],
      [
        " دست",
        "ه"
      ],
      [
        "u",
        "l"
      ],
      [
        " ص",
        "ند"
      ],
      [
        " و",
        "اب"
      ],
      [
        " ده",
        "م"
      ],
      [
        "ب",
        "ش"
      ],
      [
        " نوشت",
        "ن"
      ],
      [
        "ر",
        "انی"
      ],
      [
        "جه",
        "یز"
      ],
      [
        "هر",
        "ه"
      ],
      [
        " ال",
        "عاده"
      ],
      [
        "وی",
        "ق"
      ],
      [
        "اد",
        "ث"
      ],
      [
        "فت",
        "ر"
      ],
      [
        "س",
        "لام"
      ],
      [
        "ش",
        "رکت"
      ],
      [
        "ک",
        "لی"
      ],
      [
        " ک",
        "ف"
      ],
      [
        " فع",
        "لی"
      ],
      [
        " اعت",
        "قاد"
      ],
      [
        " مذ",
        "ه"
      ],
      [
        " و",
        "زارت"
      ],
      [
        "خی",
        "لی"
      ],
      [
        " اد",
        "اره"
      ],
      [
        " اق",
        "امت"
      ],
      [
        " قاب",
        "لیت"
      ],
      [
        "م",
        "اری"
      ],
      [
        " ک",
        "د"
      ],
      [
        "بی",
        "ل"
      ],
      [
        " ژ",
        "و"
      ],
      [
        " بح",
        "ران"
      ],
      [
        "ک",
        "ری"
      ],
      [
        " ص",
        "اح"
      ],
      [
        " نمای",
        "ند"
      ],
      [
        " تلویزی",
        "ون"
      ],
      [
        "گ",
        "ن"
      ],
      [
        " ن",
        "شد"
      ],
      [
        " انت",
        "شار"
      ],
      [
        " نم",
        "اید"
      ],
      [
        " م",
        "ای"
      ],
      [
        " اع",
        "تر"
      ],
      [
        "گون",
        "گی"
      ],
      [
        "1",
        "7"
      ],
      [
        "د",
        "ست"
      ],
      [
        " ن",
        "رخ"
      ],
      [
        " محدود",
        "یت"
      ],
      [
        " صن",
        "عتی"
      ],
      [
        " ج",
        "الب"
      ],
      [
        "‌",
        "گیری"
      ],
      [
        " ه",
        "تل"
      ],
      [
        "ون",
        "ا"
      ],
      [
        " داشت",
        "م"
      ],
      [
        " ژاپ",
        "ن"
      ],
      [
        " را",
        "حت"
      ],
      [
        " م",
        "من"
      ],
      [
        " ج",
        "راحی"
      ],
      [
        "بی",
        "شتر"
      ],
      [
        "اح",
        "به"
      ],
      [
        " گرد",
        "ش"
      ],
      [
        " ع",
        "لی"
      ],
      [
        " ج",
        "د"
      ],
      [
        "ط",
        "ی"
      ],
      [
        " می",
        "کند"
      ],
      [
        " تض",
        "مین"
      ],
      [
        " انگی",
        "ز"
      ],
      [
        "۱",
        "۵"
      ],
      [
        " بر",
        "ق"
      ],
      [
        " ",
        "m"
      ],
      [
        "ک",
        "ا"
      ],
      [
        "عد",
        "ادی"
      ],
      [
        " افز",
        "ود"
      ],
      [
        " گو",
        "شی"
      ],
      [
        " کل",
        "مات"
      ],
      [
        "‌س",
        "ازی"
      ],
      [
        " طب",
        "ق"
      ],
      [
        " ",
        "”"
      ],
      [
        "2",
        "5"
      ],
      [
        "را",
        "ح"
      ],
      [
        " مق",
        "ر"
      ],
      [
        "ب",
        "اری"
      ],
      [
        "د",
        "س"
      ],
      [
        " ا",
        "ين"
      ],
      [
        " زیب",
        "ایی"
      ],
      [
        " م",
        "ب"
      ],
      [
        " ه",
        "شدار"
      ],
      [
        "به",
        "ترین"
      ],
      [
        " غ",
        "رب"
      ],
      [
        "اگر",
        "چه"
      ],
      [
        " م",
        "ار"
      ],
      [
        " نظ",
        "ام"
      ],
      [
        " د",
        "اری"
      ],
      [
        "u",
        "m"
      ],
      [
        " پ",
        "ناه"
      ],
      [
        " راه",
        "ی"
      ],
      [
        " شیمی",
        "ایی"
      ],
      [
        "6",
        "0"
      ],
      [
        " ع",
        "ادی"
      ],
      [
        "ری",
        "زی"
      ],
      [
        " نا",
        "پ"
      ],
      [
        "گ",
        "ذاری"
      ],
      [
        "لا",
        "ک"
      ],
      [
        " روز",
        "نامه"
      ],
      [
        " بده",
        "ید"
      ],
      [
        "ج",
        "ایی"
      ],
      [
        " س",
[...]
