#version: 0.2
e r
e n
  s
a r
a n
i n
e t
  d
  f
. 

  a
l l
t t
  o
  m
ö r
t i
ä r
  v
  h
o m
  k
s t
  b
c h
  p
i g
o n
 f ör
 o ch
o r
 a tt
d e
in g
n a
k a
  i
ä n
r a
e d
  en
  är
  in
a g
  g
  l
  t
 a v
  ti
  u
 s om
e l
  n
i s
t a
 ti ll
t er
t e
r e
 d et
c k
 p å
  e
l ig
 m ed
r o
p p
 d e
n ing
d er
å n
 v i
a s
  an
a m
a l
v er
 d en
 v ar
u n
å r
  j
a t
k t
r i
 o m
 s t
 in te
s s
 h ar
ti on
i l
et t
d a
ll er
e m
ä l
an d
l i
 d u
s k
  r
ä tt
 u t
a de
 k an
an de
  ett
u r
 b e
ll a
å g
ar e
h et
 f r
i t
a d
om m
d en
D et
o l
 s k
  ö
f ör
 j ag
s ka
  S
st a
ä g
? 

 u pp
o t
ån g
 k omm
 e ller
 s å
s i
  re
u t
 s ka
 fr ån
än d
e s
a k
i tt
or t
ä m
en t
 u n
 p ro
m a
e k
in n
  A
an s
u m
 s p
  M
  (
en s
u s
 n åg
l a
f ter
is k
J ag
i v
y ck
 komm er
lig t
 ö ver
u d
er a
 s am
v ar
v a
d ra
in a
ä ll
 n är
 a ll
lig a
o g
än n
 g ör
  C
ra m
 b ar
st er
 k on
s a
  B
f f
u l
j äl
s er
! 

i k
l e
e ll
  ar
st e
s p
  E
b et
  P
V i
 s ig
s l
än g
is ka
  T
r ä
 m in
 var a
k ti
k er
d ig
  G
de l
  å
 an v
 un der
 m an
2 0
 d ig
s å
u ll
  H
  F
v en
 h an
a tt
  D
ar na
y g
er s
j e
u k
  år
 be h
 m å
b b
 m en
 g en
  I
f t
 h är
p a
s e
 h el
 d är
v e
c i
ta l
inn s
 n y
 a lla
g i
g a
g er
n e
 e fter
  L
o d
 v är
ar t
 k un
 o ck
er na
 b li
a ll
 t r
 ock så
at s
o k
s am
 h a
i ll
D e
 v er
 f inns
F ör
 f l
 an dra
i c
 vi ll
ning en
  K
  R
 d el
D en
 g r
l ing
 d in
yck et
f or
  än
 m ig
  N
ö j
  c
 o r
 m er
il j
k l
 s l
 v is
 gen om
 s e
  ä
ö d
o s
 e x
ning ar
i d
  er
 det ta
 de ss
 d ag
 de m
it et
 b ör
. .
 h on
ed an
or d
 m ycket
ter na
 f ram
lig en
ers on
  na
y n
 bar a
un d
i st
E n
ar k
ti v
h å
s ö
 v äl
p er
 vi d
g en
l and
ång a
c e
j a
 f å
m er
 t v
 v ad
 vi l
  "
  ing
r å
 m ot
 ver k
v is
0 0
 gör a
 någ on
  J
 ar bet
 s in
 t a
tion er
e st
er as
M en
O m
e lla
än der
j u
ull e
 p l
 s jäl
 p erson
 h ur
c ka
r ing
s en
 p o
l em
o pp
l d
 den na
 o ss
 sp el
 b et
lig het
s om
 b er
 l iv
r u
 k l
s ti
 s äg
y r
 sk ulle
  W
 v år
an t
 l i
d ag
 r ätt
 h ö
ska p
  -
 s ätt
n an
 all t
ta t
 anv änd
r ig
 n u
b er
ä k
 m änn
p l
 st or
 beh ö
 k v
na d
 k om
en de
ö l
ar en
k en
  V
k et
ö n
y d
i er
 b r
O ch
D u
 ä ven
st äll
 f or
  U
1 9
  ”
o ck
 v et
 må ste
t s
 m ånga
ö m
 f år
et ag
re ss
I n
ti d
 h ade
20 1
ar a
s m
 ut an
k el
 någ ot
d u
 bar n
  –
 d å
ve ck
 h jäl
ä st
 männ isk
b il
 b il
 b ra
å ra
de s
v är
 för sta
y st
g t
er ing
d et
 ti d
 dess a
 l e
o st
r ar
an n
a v
än da
i ck
i m
i on
ä ker
er ade
tion en
 b l
 in ne
al a
li ka
s ätt
o p
ä sta
 in om
 g ång
 s er
ver k
u ro
 tv å
i a
 s ina
 själ v
  O
het er
 m öj
u pp
o tt
 f ort
 för st
as s
m an
 o f
hå ll
 j u
Det ta
st r
i ka
å t
ell an
 h å
j än
 människ or
o v
et s
na t
l den
 h em
a st
  ri
t ro
dig t
si on
 s m
yst em
N är
el se
k on
 ut veck
 å t
öl j
 h and
ri v
 n i
 fr åg
 ny a
or g
g ång
 s ta
 f un
a ck
 d itt
le v
y tt
 m ellan
H an
ning s
ig a
n ar
 s ak
  ra
 behö ver
y m
 m a
for ma
 bör j
 v åra
 o lika
  w
 s äker
e f
H ur
” 

j är
 p re
 för etag
äg g
ti s
i en
 l ed
f r
 m ilj
 v ä
d uk
h e
m ar
V ad
 hel a
 l äng
) .

 k a
o ll
 hö g
 vär lden
 vi kti
V ar
 d ina
 l ag
 s itt
 g j
 säg er
 in t
l ar
het en
: 

 m o
 s edan
p el
 å ter
 någ ra
 st ör
 d eras
f att
u b
 var je
and et
 g å
är a
g r
 d i
 I n
) 

 s en
 p r
" 

m en
er ar
 för b
an ska
 k än
g ram
sö k
 p er
 g l
t ur
 bli r
e kt
o b
e del
d an
20 0
 k ö
 t e
 en da
yg g
 t y
i r
forma tion
 s v
ter a
m in
 ska ll
 re s
  ro
 hon om
an g
  ig
e g
er ad
änn er
 h itt
d om
p ar
na s
n et
 all tid
u si
ö s
 f in
 s j
.. .

s var
v et
 sl ut
p ro
  äl
d i
y s
ar bet
t or
 g år
å l
  el
 m ark
 sam ma
 p ar
al t
ä s
a tion
 b å
ti ska
 v äg
an k
ä d
 t ro
sk e
p e
s b
ig t
, 

 h en
 v än
ol k
 hel t
 h ans
S å
u v
  änd
g ar
1 0
 gr und
f ar
na der
b lem
ä ller
 var it
sk ar
d re
ä t
 vil ket
e bb
l in
b a
 G ud
 l ång
 u r
c ent
ell t
sk il
ätt re
 be st
 in formation
A n
st en
ut om
or de
 l äm
ing en
 sam t
 kun na
k omm
 anv ända
o w
ä ck
 e g
 l äg
a kt
 m itt
A tt
 s o
b ar
v änd
 b ästa
 t re
 g er
 ing en
 s var
 p en
 r el
ä lla
 b ättre
and en
 f il
 t rä
a b
an is
g ör
gi fter
ing ar
 g e
 f ölj
 an nan
i e
 t jän
 k r
 t än
 er b
ti va
ld rig
e ci
 ar ti
ek n
 pro duk
t en
 l y
em pel
is kt
 för s
 a l
t ar
kt en
sl ut
 ig en
 k ra
ol og
 re g
ist or
 an nat
 b i
u g
 m est
l ek
and ling
 li te
 för v
t ra
än s
 v in
at or
v s
 a ldrig
un g
 w ebb
 v an
na den
en ter
 s ö
tal et
 E uro
 e ff
na bb
tion ella
 h os
tt a
 g ra
 sp eci
tis kt
m et
 o n
 or d
 a kti
l ed
u ta
ade s
 f all
 för l
 s i
or na
t ag
m ans
 pro du
 må l
an ta
r ätt
 t ar
er at
 komm a
uv ud
  ch
 fl era
o ka
n en
e ller
 f är
j er
 le ver
je kt
ro pp
M ed
te g
 stor a
b r
 b ort
De ss
g är
 kv inn
 s nabb
ba ka
 efter som
 d om
 e gen
 med lem
 ö pp
t u
 pro blem
k om
S A
o te
k e
 b lev
ar d
o bb
 pl an
 v e
f l
 v al
k ta
 p a
 of ta
un t
 ex empel
 A n
e x
k or
 m is
p t
r um
. ”

Ä r
y l
U n
ån d
 or g
 verk ligen
m ed
y ra
 tr or
 en ligt
 sk ri
 till baka
 ti dig
p en
 k rä
o li
ek tiv
am ilj
on er
 g äller
E tt
h an
 in nan
 s n
 t ekn
är skil
el ser
 l är
 kom p
H ar
 m at
s för
 k all
 h jär
 h äl
 o ff
 p ra
P å
u st
at ser
ul tat
ri d
 h ör
å ende
far ande
 f ull
 l ig
 f ick
 sj uk
 na tur
 s yn
 v att
ti g
f in
 om rå
a ta
s ak
e ss
e h
r en
 n er
i ver
 m än
 r ö
 di re
n es
j ud
l ägg
pl ats
 int ress
sam mans
der na
ce ss
 pl ats
l as
 b ok
l er
na de
 r å
D är
. "

i f
 ber ätt
e b
 kun de
ter i
bil d
 för änd
 kan ske
o ch
n er
 h uvud
s h
 g od
 l and
A lla
 så dan
 na m
 vä x
k ar
K an
m är
s in
ka de
H on
äl j
 t ra
 C h
 m ö
 for sk
rä ck
i o
 k är
 bå de
kon om
 st öd
 anv änder
 möj lighet
s n
en der
 s y
 s ärskil
 hjäl p
al itet
 pro gram
 utveck ling
 h istor
 k ropp
 e m
ri st
 l å
 d ra
 b land
 erb ju
 arti kel
 f le
 sak er
 m et
 l ä
 f amilj
g iv
 for m
 l ätt
p an
sam het
 l ik
T ill
) ,
 r edan
yck er
1 5
 säg a
 m ina
 j obb
år t
” .

 po li
 g am
  .

i ster
 i dag
 e konom
 re gi
 h än
 d ö
S om
 person er
r y
 fort farande
en skap
 min dre
 r isk
 be k
for m
ter ar
 d ock
 tidig are
s f
ä v
 S t
 gj ort
 in terna
H är
r et
sl ag
1 8
ti k
t et
 en kel
 lig ger
r ed
 till sammans
a ste
 l ö
 f ri
 kon tro
 väl digt
 st äll
 vis sa
 enda st
 r ed
or m
sp ro
st ånd
 t al
 sk yd
g on
E fter
l ag
 s ystem
 i m
o h
 o b
 in kl
iv å
 hå ll
 so ci
ro tt
um ent
 pro cent
  Vi
am ma
 först å
 r ör
 E U
Den na
 inne b
 f ast
h äll
iver s
g äng
 d r
Var för
 hjäl pa
 möj ligt
in d
 läng re
 in ter
 f ak
 f olk
 U SA
  ytt
j ur
 fort sätt
N u
 b ak
S k
 k or
m än
 h us
00 0
 s a
 pen gar
fr ån
  Y
A ll
  [
 org anis
 ti den
 stör sta
äm p
 an d
kl ar
b art
 l äk
sp el
 för sö
 t ag
 kon s
f i
 vär ld
an c
 pr is
 f el
r is
ar i
ol ag
yn dig
 d ata
  äg
år d
 vatt en
lig are
dra g
 best äm
 produk ter
 k ost
 fl er
hå ller
v äg
 där för
m e
F r
 k änner
 k li
p s
 se x
 kvinn or
o ende
3 0
u ter
 vår t
 fl yg
 för m
 an svar
 res ultat
 f em
 en er
ti sk
 bet y
1 2
" .

 fr äm
ä pp
 t o
 be slut
 ska pa
b land
 k ul
ig e
a y
 hen ne
 E n
S t
ub li
 använd s
ti ll
 ti m
b o
 för e
 s id
 un d
al is
 u tt
 förb ätt
äst an
p i
än k
 fun k
Un der
e j
ter ing
 dag ar
s o
 fle sta
 n og
a c
f ri
.. .
 st ud
h a
e v
 vikti gt
 ri kti
p ort
 j äm
 ve ck
 när a
 r äd
c is
on e
U t
 säker het
 st u
 r unt
k an
 b ygg
v it
 f ot
 ö ka
 p la
 hitt a
 till gäng
 k ort
 gj orde
åg a
 vis ar
v an
 d öd
 stör re
ft en
ta s
för a
 li ka
y t
5 0
v ent
 l änder
 st ar
 själ va
änn u
b ara
 sam häll
: s
s ig
 k var
 tr ans
is sion
and ra
ä der
V il
ande l
 s tat
s st
v al
 all män
 g em
  ännu
lin e
 nam n
 i h
on s
e w
 gr upp
d ar
 inneb är
 d ri
 h änder
ff är
ter ade
a tioner
 börj ar
 hen nes
 sen aste
ta de
 tr ed
 kon ta
v ä
an si
 un g
 vil ken
 om fatt
el sen
mer ik
ote ll
 b or
 s ti
ig heter
M an
g el
 ö n
j us
b el
var ande
v i
 komm un
 vikti ga
f är
 mark nad
 enkel t
ring ar
 b as
  “
 st yr
t r
y ll
on g
 sam arbet
 hå lla
ra s
 l ös
 h opp
 F ör
re v
 dire kt
ti digt
 var för
ver ka
 S ver
 fråg a
h ör
gr äns
teri al
 akti v
 n ed
p or
it y
sa tt
x t
 n öd
tiv t
 a d
da de
ör er
 få tt
 bli vit
Dess a
 sm å
 bet al
f er
 t ycker
 erbju der
or i
un k
g e
 in för
 n ästan
inn er
 äl skar
 st ra
et er
 sk ol
 b yg
ck e
 ty p
 pro f
 åt gär
 b ed
sk ri
 in ve
ill ar
 vil ka
 pro jekt
 beh andling
 ny tt
rå k
pe iska
 tjän ster
ic e
it en
 särskil t
o ur
 st år
 in d
 n ät
den s
 ing et
ar s
un kt
 U n
 liv et
 T he
 l oka
 ra pp
 för h
 arbet e
 o p
 ska p
 ytt er
 be f
 ö gon
st änd
 r um
l an
 t er
 läng e
 k am
y k
u ella
 sen are
ö ver
h us
 kon st
 till gång
 ener gi
  et
in er
1 6
on en
  &
P ro
 upp f
 ju st
re s
sam ma
 m as
 Euro pa
 b el
 milj oner
1 00
 sam man
 gång er
 a merik
 fun ger
ligt vis
 e uro
s ett
 m usi
ri k
t o
Ä ven
 vi a
 i cke
ra f
ra l
 upp t
ö st
den t
 webb plats
ol en
 f yra
sätt ning
o der
r an
 a ffär
19 9
sk riv
 kär lek
  Det
 ut bild
 milj ö
or n
 i d
 k ör
un da
 f anta
1 1
r on
 dag en
 spel a
ok us
All t
f aren
m at
ru kt
 p art
ck er
 förl or
 tred je
in s
 fak tiskt
den ti
 c ent
  ci
en om
 g ick
in na
för s
 vet a
 fråg or
 beh ov
M in
ö tt
 l u
 nöd vänd
 k ri
c en
ig het
t on
si kt
usi ve
In te
 t og
u ss
 kun der
 börj ade
] 

st älla
el s
 st ort
 s åg
der a
 t ur
 po si
 s ade
 f ar
ru pp
 tekn ik
1 7
V is
f äll
 Sver ige
 st r
it u
f all
n o
 s teg
- p
 re komm
 eff ektiv
li ck
 del ar
 re p
1 4
 l ära
y p
 R e
 eg na
v id
 A r
 var andra
ra tion
 upp gifter
 fin ansi
u x
c o
 sjuk dom
 M ar
 gång en
 f ann
 för ut
terna tiv
c y
on d
sp r
 fram ti
 till ämp
 bå da
fr åg
ing s
 n ästa
  Jag
 med an
 kö pa
 arbet ar
 trä ff
 må nader
 snabb t
 em ot
tion ell
n ande
g et
or er
 väl ja
en ti
 m yndig
 inve ster
o u
st ad
 beh and
N åg
as in
 l iten
D å
del se
 hå ller
 v änner
or k
 män sk
 be sök
 o l
 be g
 sv årt
 min ska
1 3
 till räck
l am
 v ack
un der
 pre cis
s es
ning arna
 bl od
ic ka
 hjäl per
 n å
 fram gång
k te
der n
v ik
 p ri
en het
 d isk
hå lla
 förv än
 er faren
 för äl
a p
 tim mar
i ta
 hand lar
l ad
el ef
 d jur
K omm
 f okus
kti v
p ul
 inne håller
 rikti gt
k ur
 re ger
 h al
ra t
in e
 ytter ligare
i te
 n äm
 d ator
al en
 sta d
M ånga
y ss
it s
 on line
” ,
 p ubli
 sk ill
 p ass
 pro cess
 a pp
el n
 l jus
un den
kt yg
 börj an
 t he
 ly cka
r or
 s ett
 fanta sti
 gl ob
 n e
ce p
 ing a
 för del
 sådan a
2 5
 år et
  /
em ber
ol u
 till s
 n ivå
ter as
 funger ar
 kv alitet
 pa ti
 inkl usive
 de sig
 bil d
s ra
öl ja
S am
v än
 P ro
 in f
k än
ö v
 följ ande
upp gifter
" ,
 b ud
 kän na
u p
or den
an a
 f i
 forsk ning
i et
 produ kt
 a b
 använd ning
f ik
 b y
 si sta
sn itt
 förbätt ra
 ö v
 an n
 be gräns
 lång t
 an tal
 off ent
o x
 bety der
g år
 i denti
 kra ft
. .

 u te
 a c
 b orde
 kö p
  :
b org
 m äng
 min uter
 hel st
s sta
 för håll
 M a
 F r
 använd as
 vid are
 ro ll
 en s
rä d
 per f
 av sl
 världen s
 m il
ä ss
ö sa
ed er
 f akt
ri t
 åtgär der
te s
 gam la
 g illar
 r en
 verk samhet
 sam tidigt
S e
ol is
ic in
 sid an
in t
han da
 min st
 ha ft
sp ek
j uk
 an g
rukt ur
ö k
us e
 interna tionella
 s ym
J a
 k rig
 in b
 an al
 g o
 ta ck
tion s
 un ivers
 vär de
l ade
sti tu
  äm
 f as
b as
 ma terial
u bb
 sl äpp
 lä sa
ställ et
 gem ens
es us
l en
 f a
 N ew
spr ung
 till fäll
te m
ord ning
dag en
s ystem
 fr u
 bör ja
 fl ytt
 t yd
 verk ar
 hög re
 vikti g
an na
 m är
ission en
 na tt
 kontro ller
ti m
or e
av sett
 Gud s
 f att
 någon sin
 v em
g rupp
 t ank
 G o
 D e
b y
s ol
Vi d
 el ekt
y a
 m ag
 vis a
 inne håll
 gen er
änn ande
 s itu
 fann s
 H er
d rar
 g anska
 an ställ
un n
itet en
 rekomm ender
l ats
 en lighet
 ci r
  %
 bl og
 k ar
n s
 sk icka
 bil der
 till handa
e ster
 de fin
Där för
a ter
k n
 så som
 s ag
 m ör
 al ternativ
st å
 b o
 rå d
k v
… 

sta ur
 ind iv
dig a
 or sak
- talet
f il
 soci ala
  y
 g ar
 t em
 upp n
mär k
 ut man
 genom för
f te
c er
  Z
L äs
U pp
 fil m
 kall as
4 0
 s ven
 läm na
a tionen
E ller
l o
na m
 kun skap
 kom b
t ing
tal s
R e
S edan
ru st
 tän ka
 fram för
 k ol
u ti
 allt så
 hem ma
 in v
 S h
 spel ar
 histor ia
ra de
 s ol
an sk
 å l
k ter
 regi str
 dr öm
b i
i um
 k opp
 ex tra
 t est
em ang
le x
 sk riv
u i
 krä ver
at ur
sö ka
 l åg
 re sa
 utbild ning
der ar
us en
is m
 j ord
 l andet
gi ft
lam ent
g å
 h otell
 id é
 h eller
 med del
verk ar
 musi k
ig h
am p
 vil ja
m ark
 l åt
 krä vs
 v å
 utan för
 trä d
s la
 f öd
 k oll
 anv än
 po pul
 sta den
 mark naden
 ur sprung
 tillräck ligt
in ci
um mer
 arbet a
li en
ss ystem
lighet en
 kontro ll
 s ek
 jäm för
 i bland
p h
r yck
in dra
 o van
 försö ker
A v
 skyd d
b and
un dra
 S k
 h år
 k änn
is s
 F a
 kän sl
Var je
u lla
 an led
Vi ll
no va
ika tion
 mo de
st ag
 R o
fer ens
 med vet
 uppn å
 tra di
S ka
 s u
 L e
 utveck la
A r
 arbet s
 rapp or
ätt a
t re
K on
 ä ta
 mo bil
 vi de
er i
 kon kur
 områ den
d or
 rätt igheter
 vill e
 A l
 ma j
kom st
l ut
ti gt
 pre sen
 in sta
 änd å
 h und
sm edel
 k o
pp a
ch en
ska per
s kt
 k yr
 in s
G enom
 r äk
6 0
 ut om
pl an
ion en
v ice
 l o
 vill kor
 te ck
 väg en
2 4
V em
var a
 C o
Dess utom
 läm p
q u
 le va
 M o
 fortsätt a
ti ga
 år en
e ver
 le v
 äl ska
 M an
 spel are
 vet enskap
 fortsätt er
 sag t
 prof ess
st ri
 eff ek
 S tor
rå det
 ih åg
 upp lev
 gr än
ska tt
b l
ul d
öj d
In gen
 van liga
 sn art
 an t
inn e
 kv äll
 si da
 sl ag
f ier
 f ölja
 h andel
 skri ver
 pra kti
 funk tion
 d ok
 tr än
tig het
h er
 ex per
i ch
olog i
b u
 b äst
 n orm
 med icin
m al
 d ju
org on
 slut et
og le
 skri va
 läk em
 kul tur
 all var
 läg ga
ent ligen
 öpp na
c era
ö cker
ur ser
si kti
rä ff
t an
 ve cka
 amerik anska
v äm
 d ör
 tän ker
d ant
 hitt ar
 t elef
 inkl u
b e
å ter
 för klar
 st and
 reg el
 m edel
 sp råk
ling ar
  ers
 f ys
 k n
 fr ed
pro gram
  ,
anc er
st ans
 ly ss
v äl
na pp
 red o
 för en
 på verka
k ra
l äg
l ös
 eg et
 g är
 komm it
om en
L åt
 kl ass
 aktiv itet
ag e
m are
or s
og raf
e y
  X
ö ll
 e vent
 ver ktyg
t jän
 D en
yd d
 gl öm
pl atser
 in nova
 in du
st år
 ti tt
E R
 kl ar
 a kt
re pp
 e v
k la
 a p
se ende
 sl uta
 änd ra
! !

et ter
 D u
19 8
 hopp as
 s äl
el a
 c o
gör a
ering en
v in
 A d
y cka
vis a
Fr ån
ä cka
ör j
 gra tis
ö t
 för sök
ag a
 ut för
 s an
 förs v
p ass
 kropp en
vä xt
min ist
b ud
g ra
ö p
 bak om
 ska tt
 konta kt
 pl atser
te gi
 väl jer
 häl sa
 b rott
 upp da
n är
 g av
ot enti
 F in
e c
p o
em ent
 använd are
En ligt
 år s
 ekonom iska
  ...

 fär g
i da
 p s
för etag
 må nad
 behö vs
ef är
 byg ga
 områ det
h am
 J esus
 erfaren het
f ölj
 ver sion
 ty per
 v ux
on t
 ål der
  Ö
i ti
r än
s ed
 eg entligen
 medlem ssta
T a
k ring
an da
sti ft
br uk
ol m
ott er
äk ring
 uppt äck
 defin i
d de
f ull
o ci
 s h
äk ra
 tjän st
ri p
 f av
 ber oende
 säker t
 J oh
T ack
e fter
 b olag
le ver
ar der
 p unkt
 g ott
 rel ig
m i
l y
f ika
 ri kt
oll ar
e a
 p as
li t
 o ro
or it
 sk yl
del ser
ö g
ka s
e ck
 kv inna
i es
k in
y sk
 d ist
 m or
 för n
 i stället
 fin nas
 förs älj
E N
kl art
 tillgäng liga
p on
 över t
 äl dre
 gå tt
 erb jud
 s ju
g era
 följ er
 m ä
 j orden
sk ning
 bet ala
K om
i p
 na tionella
ju ta
l at
ok ra
on om
si dent
E G
i an
arna s
 ch ans
ling en
utom a
 för ordning
 st äng
u sk
 go da
 gar an
 h am
 m amma
st ra
 st ark
 sö k
 desig n
 läkem edel
re a
un i
sam t
 först år
 fråg an
 f isk
är t
 t j
pi tal
sra el
I dag
 a m
 upp märk
ta la
 när heten
ställ ning
 veck an
 par ti
bo ok
 en gel
 lå ter
l änd
 stu den
 läk are
i ci
 S a
 rö st
 skyd da
 d o
 bet yd
 kra v
asin o
  Q
i z
 ti o
i der
 c a
 b en
 b ri
ent ing
 av tal
lägg ande
r om
 b an
f ta
 tro ts
N i
 s ann
 k ring
te ck
 person uppgifter
m ent
 sk e
 se p
 för ber
li v
ce pt
 till verk
 j a
 del tag
k ort
 hal v
i b
 in sp
 häl so
v å
 det al
 vis s
 viktiga ste
-p ost
 univers itet
u e
 m ar
 igen om
b eh
u la
 p otenti
ri är
a pp
 T h
 kli mat
kt or
 kl art
 sv år
 vi kt
 br uk
Ä n
 för fatt
al d
g ag
n ytt
v ika
 t opp
pro duk
 loka la
 vå ld
m t
 g ud
 br ed
 ra d
 ac cep
 v a
tion al
 ska par
rig a
 framti den
An vänd
 till stånd
2 1
T ro
 f ord
 h im
 l og
ut veck
 kun d
all t
ör en
 säker ställa
 k änd
as h
 E x
p å
 publi c
st ol
 i från
 cir ka
 ti tta
ow s
 m on
ön ster
ser ver
 P ar
 gam mal
 upp h
erade s
 p riv
 st art
 del en
 företag et
Kan ske
 försö ka
 sy fte
 perf ekt
land s
 marknad sför
 nät verk
 del a
re kt
ak et
og en
 d at
 l äs
 veck or
Vis sa
é n
 Euro peiska
j ut
 pr inci
 l ad
al er
Vil ka
ri kt
 kr ed
i tal
 på verkar
 männ iska
u ell
 behö va
 lik nande
 ps yk
 n or
ss k
19 7
verk an
 områ de
 nödvänd igt
. ex
r ym
re sen
 om kring
 han tera
 or sa
 sätt et
 part ner
T he
 en het
tion ellt
 ska da
c om
 för es
 sven ska
 ut mär
 K ina
 ma kt
 reg l
 poli tiska
äl t
äm pa
 sam band
ce book
 tag it
  ram
; 

m as
 an ti
 be vis
 lu ft
y lla
 b är
 känn s
h o
 grund läggande
 så dant
 samarbet e
h olm
p as
em ål
 ka lla
 vin na
 und vika
 föräl drar
m o
 be gär
 räd d
ä kt
ent ar
le va
 skill nad
T änk
tion erna
si da
 lå ta
ag n
 under sök
V år
ti ker
 ung efär
c t
k ning
m elser
u ellt
 komm issionen
 led er
 hög sta
 mänsk liga
 led a
 hjär ta
 kons um
 ber äk
o den
ti t
 B ar
 H ar
b und
 a utoma
j en
 en gag
 t u
al ans
 be skriv
 dö da
 sk är
 best år
 erbju da
olu tion
 gär na
 för slag
 sätt a
 rel a
  Om
 s att
 l in
ek omm
 eff ekt
staur an
en ta
 o s
 Go ogle
 när varande
 J a
 o avsett
 h äm
 k al
 l ek
 sk er
änn isk
ster na
 t or
um är
 an talet
sk ol
 m ass
l et
on a
 ang es
 st ol
2 2
 in fl
rå den
 håll bar
 till hör
o ber
 s em
ti ve
ind ows
 ih op
 mil it
  $
c ember
 C ar
 Un ivers
b olag
 a t
 ber ör
 stor lek
 M ed
i ens
Ö ver
ra k
 d ollar
E U
 berätt a
 ställ et
 inter net
 upp rätt
 mäng d
 en skil
 loka l
för ande
 pra ta
 bok en
 p olis
 g iv
 ut gör
 sö ker
 blog g
' s
 m ott
 b ad
 rel ev
 föränd ring
 profess ion
sa v
olog iska
 vack ra
S en
r ande
an u
 b öcker
sk ott
 upp en
 P a
 kl as
 k em
 fl y
 dok ument
 om edel
ist an
 euro peiska
l å
 möjlighet er
Å r
 l ön
 n r
 dra bb
 t as
 reg ler
sl uta
 speci ellt
 A pp
 c y
 hö ga
 ri k
 e j
het erna
 bek väm
w e
å de
 med borg
 In ter
 hör a
 organis ation
Komm er
 in str
19 6
 fast ställ
 m ån
ri ke
sk on
f li
 s äs
 skol an
 till växt
si dan
 kon t
ock holm
rit ann
ag en
 t on
bet al
ara kt
 produk tion
 telef on
sk ra
M er
st ående
ol v
 re v
 re spek
 bek rä
7 0
R es
o ut
in es
b ritann
 v ak
arakt är
p ress
 S ch
 nu varande
 lik som
 pati enter
o f
 s äll
 intress e
 op era
v ill
ö der
an vänd
 l jud
vis ning
ber oende
 br y
b ord
 för svar
il d
 dess utom
 lever ant
 framgång s
 all s
l unda
 s ön
 f jär
 g re
 l ån
 funk tioner
 anställ da
 l ug
 ut rust
 mat ch
Efter som
 k napp
 st opp
 sk äl
 un ga
 ch ef
 ad minist
 för ra
 h äst
 hö gt
skap et
 Y ork
 samhäll et
tem ber
 ers ätt
  yr
i från
v ens
 r ing
 beh ör
 kred it
s äg
 t je
ta lien
 konkur r
  era
 J o
org anis
g ård
in k
 de cember
par lament
  »
F inns
b oll
ö ts
 fav orit
 st änd
ina tion
 pre sident
 ing enting
 led ande
spro gram
b ok
 rå det
 god k
 kommun ikation
 ne ga
c a
 liv smedel
st one
 en kla
am en
iv il
 utt ryck
anu ari
- år
jär n
 r om
 ut form
 ö kar
 stud ie
ro g
 var umär
 j uni
 sk ön
 full t
2 3
 C on
 under håll
ft et
 pla tt
s liga
 en sam
ri l
 bed öm
ak e
t h
er ande
na l
at en
 mot svar
ant ag
 föränd ra
 engel ska
k ul
o od
 var e
 to tal
 Fr ank
E uro
äck er
8 0
 h er
sk ydd
 stud ier
 priv at
F l
p la
s ch
öj a
 fär dig
 medlem mar
et a
 ut nytt
 räd da
k es
u re
ur s
 ant ingen
 vis as
j or
 m ars
 för vär
 dag s
D in
 ing år
 någon ting
 fru kt
g l
 f ö
 vi tt
 över ens
20 2
att er
 ber or
 kar riär
 st å
 barn en
äker het
 bef olk
am er
 indiv id
 l yck
 men ar
nader na
i od
 k äll
 an pass
 föränd ringar
G ör
H opp
 W indows
 lös ningar
r ör
tt er
 h um
 glob ala
 t äv
em ot
 ab sol
en den
ol ket
 vis ste
 ka pital
 dire ktiv
 tal ar
f a
v ak
en si
 i de
ur g
 full ständ
 utveckling en
 stand ard
d at
m un
 beh å
 gl ad
5 00
E x
 vi ta
 an ser
 komm entar
 ex akt
 ford on
ek tion
 tekn iska
r ans
B ar
 m orgon
 L a
 person liga
lighet er
G ud
 ar k
 j anuari
 Stor britann
h ar
z a
 spel et
av id
 indu stri
ä na
ra d
 ser vice
 soci al
 insta ller
ti c
 sk ilj
 S ta
del ar
 li lla
ö ter
 G re
B eh
 B er
 person al
 behö v
ond on
 förhåll ande
 sep tember
b an
l are
s yn
 t usen
 ex tre
 bet e
ort en
 kom pl
s ats
ter ad
 an ses
 du bb
 sk rev
kl ag
 först ör
n t
v ård
 kr on
 produ c
 medlemssta terna
A R
or lunda
kl ara
Vil ken
 d y
min stone
  '
art yg
ic ro
 vack er
 off ici
 gemens am
ysk land
O r
ti sti
änder na
9 0
m on
 b ost
 t ala
vär d
 nam net
 anled ning
T i
 d otter
 r ym
 upp drag
itt er
 gen era
str in
 gem enskap
 h ot
pp er
sp ekt
 sm är
g ress
 vis ade
vär r
b ygg
y ller
et ens
 O r
s an
en n
 D an
ft ar
 arbet et
tr yck
 k araktär
 av ses
kt ober
 st ress
 lag stift
 mo dern
stauran ger
x i
sl äpp
 anal ys
 s on
 gemens amma
 skyl dig
b lick
am a
li c
sa tta
jäl v
 teck en
u den
 o tro
 m y
li cka
 över för
 studen ter
 an sök
 upp fatt
ag er
 n juta
is tiska
 pro te
ff a
 men ing
 van ligt
 tillgäng lig
2 8
V åra
 fram tid
ab l
 kons ek
F or
I S
 j ul
 stra tegi
am ål
ff e
2 7
st äm
 in lägg
 ka p
 system et
i x
s or
in der
 var s
 po st
 gl as
yss land
 s älj
 t yck
 n o
k oh
 k ända
 vår d
 fort satt
 läm nar
 berätt ar
 St ockholm
 elekt ron
j an
p oli
 in re
 T V
 rep resen
r arna
 ut ö
giv are
Någ ra
 reger ingen
. com
 s ov
 N ord
tu re
spro cess
 främ st
I N
I bland
- k
H ans
am m
per atur
 milj arder
 förm åga
ö na
ll en
 m ång
ti ver
 av gör
 org an
d s
 j ätt
ak er
 kon tor
 tro dde
 ön skar
tt en
 b it
ka st
 c ancer
 bl å
 van ligtvis
st ruktur
 st ruktur
 effektiv t
 s äkra
 un ion
 bil den
 h y
 b ill
 sk ick
sl am
 del ta
 te am
Hopp as
 m e
 m od
pa c
 c ivil
dom ar
 läg ger
V äl
 s ub
ar m
 verk sam
 upp skatt
 B o
yn g
 bestäm melser
 ann orlunda
g ående
j ag
 d riv
 n yck
 an slut
 H e
 bi dra
 förh indra
 j ud
sp lan
 po j
 po äng
2 6
B er
en a
 S te
att en
 gr ön
An dra
 utt al
S pel
å d
ss on
sl ös
 gl äd
 o ktober
 sp ännande
 genom snitt
 ä ter
 trans port
 offent liga
 komb in
 Fa cebook
 säl ja
 b on
is ering
 kon to
vär der
 en heter
 av snitt
ter at
sö ker
 forsk are
 familj en
 lö sa
 byg ger
f ulla
 p ress
 för ekomm
 å ka
erna s
 fun gera
ust ra
l og
t ut
 o för
or a
ik er
 hus et
 konta kta
 bud get
 l än
yg ga
 I I
 L ondon
arbet e
 lös ning
 sann oli
 o d
sti ll
ov ember
 trän ing
 Joh n
 f äng
 där med
for mer
. [
ä ster
 H an
 pla c
 fantasti ska
b um
f ic
i re
 e k
 webbplats en
en da
ver ket
 inte gr
 vän ta
 läg re
 fil men
 kost nad
 kontroller a
 k rea
 R es
M a
er ti
 f lick
ob bet
 h undra
is h
 fr uk
 popul ära
 inklu derar
c el
m äl
 k m
 ti digt
us li
 regi on
en det
 b id
ol a
la ck
 tr yck
 sl å
 In terna
 kän de
 webb platser
 vide o
 be söka
est äll
x ten
 h eter
 A mer
T y
 h äng
sti tut
länd ska
 Storbritann ien
 l ans
sk an
ent en
io den
 finansi ella
 lev ande
s on
 s äng
är n
 inte ll
 försälj ning
 f yll
 g i
 I srael
 br ans
 Univers ity
od ligen
 ha vet
ber g
 V ar
e ff
 sp ar
 H ur
org e
- m
F ölj
N ästa
P re
 f re
 o beroende
 vi r
 möj lig
 detal j
 f ång
itt a
 sp år
sti d
 kv al
ställ ningar
 mis sl
 bety delse
 omfatt ande
fråg an
 tank ar
b li
l es
 S e
ek ta
 per iod
 st rä
åg an
 V ad
al m
 j obbet
 be skri
 P ark
rå d
 avsl uta
. )

 in led
 S er
 und antag
 känsl or
 absol ut
 b ank
 led are
 gra vid
 reger ing
p unkt
s ar
st jän
 n edan
 snabb are
kän na
o cka
 b u
te kn
 ka teg
 organis ationer
 övert yg
 st är
 T yskland
 hö ll
 speci fika
r uk
om e
 en bart
 in stitu
ta tion
in al
 sp ender
 kän sla
 Fin land
S p
 P h
 dju p
 s än
 av seende
 A B
 im p
H otell
ik ro
 utveck las
3 6
? ”

V är
l arna
 f olket
 l ånga
ill s
 vis at
 sta bil
 medlem sst
 bor ta
 insp ir
T vå
i ra
ig n
al i
 met oder
 interna tionell
 orsa ka
 Inter net
 s öm
 de st
ak tioner
 A ll
 mo derna
 pri va
 äm nen
 mott ag
? "

 m usk
 för ed
 li sta
 sitt er
 aktivitet er
3 5
B ara
l u
 d ans
 gör as
du c
eg ående
bund et
H å
un gen
 komm ande
 gör s
 verk liga
 el ever
 red a
 a k
 o k
 st äm
 lyss na
 omedel bart
sp ektiv
ra la
 ut rym
 särskil da
- f
ti ken
 b ru
 b ön
del ning
 al koh
 hjär tat
 tra fik
 s cen
 g es
sätt ningar
 åt minstone
 gra d
yt ande
 framti da
d as
s el
 för d
 ny ligen
nar s
 h ård
og ra
 dig ital
 dem okra
C h
i pp
 inte g
it h
 pro v
 G e
 kö per
 vux na
Tro ts
- h
A N
 för emål
or ld
 st älla
 be fin
us ti
 dag ens
 öpp en
 l itet
 st en
 S u
ak tion
För st
E S
gr än
 väx er
 jämför t
 b alans
komm en
å da
il e
 kon tra
forma tionen
 väx a
 m inn
ti ser
or ier
ed d
vär t
 bi drag
 huvud sak
so ft
 näm ligen
n ivå
ar ens
et ar
ol d
 upp man
ul ti
 ständ igt
 h ud
id dag
 änd amål
 lär are
m ande
 k rist
 H a
gr und
 fall et
 met er
 in iti
 S p
 kär n
B e
o ss
p ris
t liga
 att ack
 A c
ock er
 möj liga
 En g
 bruk ar
 m ol
 h äv
 n ummer
ol er
 tv ing
 hän de
 star kt
 öv riga
 ti t
sk omm
 re sten
ilj ö
 res urser
 hör t
 ap ril
E B
v inn
st ro
 n ovember
 allmän na
 anal y
 d it
 g if
 med ier
 r y
 lag en
 sö ka
  ...
b es
re p
ri bu
 re ser
 R yssland
 kän t
 natt en
  ång
M ännisk
 offent lig
 sem ester
o c
 ju li
 barn et
 et abl
us in
 fot boll
u er
 ti ps
 upp gift
 när ma
 N ation
 tän kte
P h
s ut
der s
 be s
 D avid
äns yn
 intress ant
 i r
 sk ra
um p
sp lats
 börj at
 cent rum
 cent ral
 bri tt
 utmär kt
ö te
 k ön
 förv alt
 kall ar
 rekommender ar
icro soft
t ligen
 g äll
 ma x
 omfatt ar
ita la
- st
y si
 an tag
 S an
 er k
arbet are
 risk en
 sid or
A T
ol f
 S y
 lätt are
 star ka
 kör a
Sam tidigt
S er
r in
 ut for
ste g
För etag
 person en
tro ll
3 1
 s ch
 v åg
 h ända
 S am
 identi fi
- d
- kon
 F N
 bil en
 fråg ade
 pass ar
F il
ning sm
 A tt
 fram åt
19 4
unk ter
 konst när
2 9
r el
 tyd ligt
agn os
h är
 p at
äm t
19 5
unn it
 marknadsför ing
b rott
g ande
l äs
sl ed
ion er
 natur liga
 program met
 idé er
m ål
igh t
ti l
on ser
 st anna
del sen
 ber öm
 milj on
 lä ser
 mas kin
 betyd ande
B il
i am
u c
el t
 n ord
li k
 sätt er
 ofta st
 behand la
Någ on
p art
 om öj
 st od
plats en
 ko lla
 g ett
 g uld
 när mare
 kl äder
 U S
 problem et
 myndig heter
 jord bruk
utveck ling
 Frank rike
w a
z on
å ta
 av anc
äm n
 ar m
 T a
dag s
im en
 vin ter
 hän delser
 st äder
 un ika
 mot stånd
 äg er
fri ka
E T
is sa
ri c
 P la
 K a
kl are
 träff a
 flytt a
g arna
pa ti
 vär d
 produ kten
 kall ade
r ang
 p ort
ter ier
 ar g
sp oli
 komp etens
- b
S jälv
 h änsyn
 en a
da d
 mot or
 kl ubb
 pris et
 kont in
 som mar
 kommer si
ic a
 sm art
gång en
 egen skaper
n ers
 väl kom
 ju rid
 te xt
 vän tar
eb ru
 tj äna
v ända
 r et
 bet ra
V et
a ch
i kt
j öl
 S c
us h
 då ligt
tro ende
 stöd ja
 va pen
" Jag
m edel
s ent
 f ina
pp ar
 G u
 or det
 exempel vis
 resultat et
 öka d
 star ta
m aren
s re
 be v
 sp ara
ott en
 In d
 pa ppa
 s olen
ti den
at h
 ut föra
 T e
ok ies
 si ff
 fri het
 bid rar
 priva ta
P erson
är er
 A ir
 speci al
 dom stol
 bost ad
A l
v ju
 d og
 a ss
 kl in
 bil ar
 pr omen
 vän ster
sikti g
- in
M å
b ör
p erson
 s es
on gen
 i ll
at an
sk rig
A S
 b åt
ur k
 upp leva
 kun nat
 tank e
  ör
et en
ri ka
ur en
 min im
ord et
fr ed
 svar t
 kor rekt
 kyr kan
om b
 p ol
 tän k
 jobb a
Sk ulle
 event uella
ebru ari
h av
i erna
 k ines
or itet
 l a
 l ic
am il
 dig itala
 pen sion
 pra tar
  >
ra v
 så väl
tiv itet
 int räff
 natur ligtvis
 smär ta
F ram
 s la
 l ov
 var t
 om ständ
sl and
 G ro
 ny tta
 sj un
 ögon blick
 su per
 san ningen
r isk
 var or
sk är
 re k
 mis st
 allmän het
 fantasti sk
 fakt um
st olen
 kun g
str äng
 svar ade
 mis s
 för t
ering ar
 förstå s
b ra
c in
en ce
 sjuk hus
 stra teg
 uppt äcka
 krist na
h and
o se
 m ikro
st era
 till verka
 genom föra
 sak nar
 förm odligen
 grupp er
 s ång
ta d
kl am
3 00
 g ui
 t yst
kti g
 rel ation
 process en
 dat um
  ?

ka t
 tre v
 ställ e
 sym b
an ken
 till åter
ill e
 histor ien
 nödvänd iga
öll op
D ag
N ej
 d is
 g la
 M ark
 bl ock
pe ci
 förs äkring
 förlor a
 fördel ar
 situ ation
 Her ren
 grän ser
ut en
 M on
 H o
 person lig
 rätt a
 lever ans
 främ ja
 m usli
 n öjd
äm par
ord ningen
 histor iska
 förstå else
 fjär de
 s nar
 an si
ss ätt
var o
ven emang
 ä vent
bild ning
 ursprung liga
 medborg are
h em
k ret
m el
u ra
 a g
 h årt
 k op
un ch
 om giv
 K rist
 ro ligt
eller tid
 författ are
O S
V er
l äm
o ol
 v inn
ed a
am es
 sk og
del es
lika tioner
 ekonom i
 dri cka
 stra ff
 lycka s
 tem peratur
un kten
 svar a
 to tala
 nog gr
 skap at
l ösa
o si
ul t
ställ d
 samt liga
äg en
rå de
 fys iska
 avgör ande
m os
 C om
 under l
 följ d
 mis stag
 tillhanda hålla
og a
ik en
 komp lex
k opp
 all ra
 F or
 lag ar
 norm alt
 Par is
i el
i era
 N är
ow n
 poli tik
 sjukdom ar
öts ligt
4 5
 l äst
 de j
ot el
 man nen
tro ller
 sta tisti
rum met
 automa tiskt
  Och
a tiv
l or
an er
si kter
jäl p
 bl omm
 milj ön
 vatt net
 möjlighet en
 samhäll e
 förhåll anden
 m un
 kon ven
 bef inner
 behör iga
/ eller
o ver
an ter
st ån
 t åg
 syn d
 bas erat
 enskil da
  —
- t
 f ett
 till b
 an lägg
li st
str uk
 sti l
 identi fier
 för fl
at ar
ak ta
iv a
 över väg
 T im
 fär ger
 hän t
 ener g
Vil ket
 älska de
 fly kt
- s
f unk
 f åg
st anda
 M ac
 kon fli
rum p
 mö ta
 ter ror
 f ebruari
för änd
 å tta
sion er
 häl ften
 alkoh ol
b örj
d jur
iv ån
le y
 vär t
ber t
sm ark
 då lig
 människ an
ann en
pac itet
m ot
komm er
med del
kade m
 mö te
 konsek vens
in du
 B e
För sta
 väx t
 ön ska
 projekt et
V årt
 till åt
al s
da ta
ad ress
 hem sida
rik es
produk ter
  =
 över allt
 K on
 per spektiv
ug g
bli ote
D om
j ar
o de
s rätt
 d yr
 b ilj
 t ri
 an mäl
äg et
rig t
use um
 ark ite
 Interna tional
en terna
 s or
ing arna
 i s
 l ju
al est
it ar
 min skar
 ser ver
 kö tt
 forsk nings
 jobb ar
 titt ar
 utrust ning
 bete ende
ti från
 av sed
ek an
 A lla
 sp ri
 C ent
 E l
För utom
 mål et
 öpp et
 träd gård
kra ft
 yr kes
M itt
O avsett
is men
ier ar
 sm ak
 hand lingar
 nät et
B es
G l
j ör
l ades
o ster
ar skap
ra g
 över g
 B ro
 tr ygg
 ä kten
spel are
 regel bundet
 uppmärk samhet
O b
for d
 rel ationer
sak er
li r
 effek tiva
H a
 s ant
 för eb
 t om
yck e
sm ål
 fun n
nings vis
 gj or
 sv åra
vet enskap
 op tim
 konkurr ens
parlament et
 söm n
usin ess
ss el
 näm n
M ycket
N y
 ö k
 G a
 sv ag
 kost nader
 mas sa
 b rist
 P re
 T w
opp et
u tt
 v ol
 de b
 r än
 tr ött
 rätt en
vär lden
 läg enhet
 met od
  .
e p
 in tro
es tiv
 över ra
 kon cent
 R a
 missl ycka
m arna
 s im
 v äst
ro ss
dig are
 ekonom isk
 fot ograf
 : )

T E
r are
 l ägg
 ska d
 K ar
 ig ång
 ob jekt
 stat en
 tillämp as
 behöv de
M edan
l ande
in te
 in k
 fråg ar
ow er
 risk er
B ra
l åt
Ä l
’ s
ka ll
 S w
 A m
ug usti
 avsl öj
 instr ument
  z
P a
b or
m å
st yr
 j ärn
 st an
ma terial
 c erti
 An d
 tillhanda håll
 relev anta
g as
 fakt orer
Ar bet
 h as
 k and
Ut an
 besök are
 berör da
 uppen bar
 snar are
Å ter
 S pan
 D a
ne y
 W orld
ia bet
han tering
 natur en
 str öm
 invester ingar
 stol t
  ägg
 b ro
ka l
ag g
 A ss
 sp ort
ring a
... .

 innova tion
" Det
- pro
P ar
b is
d o
s v
 in formationen
kt orn
 ut red
 sam tal
 G r
upp ort
 främ sta
 kam pan
system et
 App le
v ist
 h öj
or en
sk ed
 sp rid
 allt för
 använd ningen
ann ar
 perf ekta
 identifi era
b ef
s dag
v ad
 v alt
ri en
 c asino
 al bum
 häl s
sf ri
 behand las
 nivå er
 un ionen
 A ustra
va tten
 C enter
if ic
 pris er
 uppf yller
 cent rala
 komb ination
 utrym me
S n
g j
r äm
ti o
ri tet
19 3
 ra di
 gläd je
 gäll ande
G e
 b and
 g rä
 an sträng
at ch
 st järn
 r ut
 använd ar
 res ul
 plats en
förs älj
 kväll en
an en
in ska
 m juk
 i slam
 fr anska
äg are
 B i
 än tligen
 kl ag
min ister
 inter vju
 princi p
S tor
V än
 gr unden
 ord förande
 effek ter
 max im
N A
v and
en er
st äller
de m
ra struktur
sk are
 gr unda
 di agnos
 förn y
 bon us
 sannoli kt
 intell ig
 s ån
 för far
 P er
sam ling
vär de
 total t
 betra kta
M ar
g n
w ard
et iska
 d rog
 m ulti
 v ore
ed om
da st
 B u
rä de
 ka ffe
 hitt ade
 em ellertid
 dist ribu
 av läg
 sk il
 M en
 vär me
 säg s
19 0
 hand ling
 mo tiver
 vin st
 tradi tionella
 kon ferens
dig het
 bestäm ma
 omfatt as
 Pa ul
  #
L L
t gär
v t
st räck
 upp står
 M ich
 all deles
 C a
 vär der
 kl ara
 artikel n
  yng
om rådet
 g as
 över lev
 U pp
 rapp ort
 p aket
 vis st
 intress erad
by te
 offici ella
  äng
t om
 a ugusti
 h it
ig en
 S m
le des
 lär t
 god kän
 dri ft
 föd des
 mass or
7 5
O R
b urg
e ar
 g ym
ro p
 sam la
 J u
 br öllop
 uppf ylla
 situ ationer
 slag s
 rådet s
 färdig heter
G å
I T
 d rar
 för rän
ri min
äl s
ker na
bar n
 interna tionellt
 begär an
 ansök an
  +
I D
S y
S var
V älj
u tat
 s ats
ar ta
ul är
 E d
 L iv
 kl ock
 O ff
 invester ing
 indiv ider
B et
h ang
 f artyg
ti kel
 b uss
 till ägg
 sk ul
 hjär t
 intress en
 otro ligt
k iner
 med arbetare
 re klam
 M in
 själv ständ
 sitt a
 familj er
 id rott
ox id
nam n
 behå lla
 k att
sk or
 M c
 M icrosoft
 beg repp
 tje j
J o
 för klara
ri tor
 un ik
 när ings
 komp on
äss iga
beh andling
s c
 b uti
 ut fär
ission ens
 upplev else
 defini tivt
 milit är
 respek tive
 ry ska
? ?

an der
 st und
it el
 re spekt
 kon ver
 R om
ark en
 uppf yll
 rappor ter
 relig i
P S
al e
 upp e
pa ck
vis ar
ställ ningen
 ser ie
 skri ft
 syn ner
 et c
 köp te
grupp en
 bev ilj
 ut släpp
ot s
L är
m ul
ch ef
 som maren
 H el
verk samhet
15 0
 situ ationen
 Krist us
 a f
 m org
 n ej
 ber g
olog isk
 akti va
 öpp nar
drag et
 co okies
äng d
bil itet
 ri m
 skap ade
 finansi ering
 myndig heterna
 brans ch
 m ät
 fil mer
vill kor
 ävent yr
 f ött
för en
 slut ar
 dra g
 mode ll
Euro pa
 Span ien
J ust
 h o
 k il
 ska dor
 C ity
 öka t
Hå ll
ka m
est äm
sätt ningen
 ig år
sb ruk
 sy ftar
Fr åga
 tim me
D eras
 p an
 t um
 u tifrån
te ll
 st ri
si en
 I T
 någon stans
riv ill
 dö den
 rör else
 inv ån
 meddel ande
 säs ong
d å
n u
 m era
 ö kade
sta tion
ot h
ans var
 L i
 hö ger
 läng s
 berätt ade
 und rar
rip ande
s et
v ic
 t un
 t ak
 n ån
 r ent
19 1
 fin na
 kra f
ke j
red iens
 lagstift ning
 Eng land
n i
 b ära
 ti der
ek onom
 A v
 där efter
str et
server a
 s ist
ut na
del en
 väl j
 pre standa
fatt are
 ty ska
 kul ture
 ad ress
 utman ingar
 hund ar
K a
L iv
m or
 n öj
 pro va
 ex ister
 verk ligheten
 W h
 natur ligt
 fri a
 mode ller
 medlemsst at
Ph one
! ”

D el
s åg
 s ur
 b rev
 e venemang
 re f
.. ..
 J er
In nan
 ra s
 sj ö
 kli cka
3 2
ag ement
 t and
 j our
ek ter
um era
 se par
ring en
 for mer
 par lament
 val et
 huvud et
B åda
E r
ka d
 ut värder
 hän delse
 behandling en
co in
K l
 f u
 N et
 prof il
 disk u
 Ja pan
Beh över
E C
b jud
t räd
ing ton
än ning
 över vak
 kon sta
sp råk
sf ull
bel n
 säl jer
 him len
iabet es
4 00
en d
 lever era
 rikti ga
 ögon en
 ter ritor
 glob al
bas erade
 orsak ar
 försök te
 Q u
 Nation al
jöl k
 ansi kte
S ta
 s al
 s år
om eter
ig ur
 för f
 av stånd
ck ar
 di al
 ord ning
 kons ument
 ram en
F ast
x is
 ut bud
 så l
 C ol
ik e
dom en
 ol yck
d öm
 f önster
 för el
is erade
 sk or
 I sland
som råden
 int ensi
led ning
 krig et
kv äll
 medvet en
 rom an
 extre mt
 utfor ska
A C
r iska
et te
 f ing
 a kadem
 för a
de x
ck s
lig gande
 st äller
 st räck
 un dan
ek ar
 kon sti
 läm nade
 land ets
 tillfäll e
 gemensam t
E D
g at
 för et
 B l
 P o
per at
 betal ar
Någ ot
 skriv it
 befin tliga
 synner het
M ål
on y
 l istan
 upp hör
 J ack
 spel ade
 br än
In get
 O n
 förlor ade
 by ta
 upph ov
 rela tivt
 överens stäm
 verksam heten
o o
z z
 f al
 sk ull
 vär det
 verk et
 åter upp
 erfaren heter
 ann onser
 integ ritet
- för
i i
” Jag
an ti
om a
 för tjän
 kun den
 då liga
 kommun ic
 posi tiva
 disk uss
 fa ller
 akt uella
 britt iska
u ri
w ay
 f e
 mitt en
 bi bliote
 val uta
 skol a
 relig ion
mi är
 engag emang
 tusen tals
ogra fi
- 

- ,
3 3
H en
H ade
a ller
n ummer
o ff
 W ill
ställ ande
 O b
Med lem
 styr ka
 insta lla
 lämp liga
 omöj ligt
! "

T re
T ror
 l ast
 till för
ur n
 be akt
 där emot
 or ig
 na tionell
rå ket
 människor na
 kr is
 akti ver
 föränd ras
 tag et
 fel ak
 beskri ver
Människ or
- program
: e
R eg
h undra
n ät
 l etar
ro id
 I talien
 off er
 förm ån
 amerik ansk
 posi tion
 klas si
skrig et
S lut
ö da
 s li
 för troende
ver ktyg
åg or
 M er
 aktiv t
res ent
Res ultat
 skilj er
 mång f
u f
 k ur
 C l
 " 

 ing rediens
 tur n
 lad da
O N
j ul
 v ägg
 t ål
 st rå
 kun skaper
 ex kl
 mo der
 krä v
 förh and
 sh opp
 stopp a
Bar n
sprocess en
 gla da
 arkite kt
h t
l är
s lig
å tt
er ats
 s ent
in ister
ta stro
re gi
 vi st
En dast
 van lig
 grupp en
 använ t
 promen ad
9 9
ti ka
ig es
 n år
 an nars
ätt er
 S ci
 re staur
 G l
 företag ets
 te x
 svar ar
 mö ter
mos fär
h ur
om in
yck en
 er t
 pl ötsligt
 hög st
 änd ras
 använ de
 rikt lin
 union ens
 nyck el
 en orm
il a
 upp lever
str öm
 äl d
 änd ringar
 Y ou
 pati ent
kv ens
 fö del
  ;
n or
 på stå
het s
 S yd
ort s
 kon ser
 dag liga
sm ed
 hitt ills
 el d
 par ter
 tän kt
ris ti
 betal ning
ighet erna
 sym pt
grupp er
 allvar liga
 topp en
 kalla d
 administ ra
 nega tiva
 morg onen
  Å
f e
m else
p ren
 f ab
ör ja
 re ag
ser na
kti ga
dag ar
 br öst
 pen garna
 fil os
 posi tiv
 skill naden
 Gro up
G r
en e
 v ann
on i
ter ingar
 S tar
 H otel
sätt er
 fin ans
 väx ande
 bestäm mer
 ön sk
 profession ella
 leverant örer
 omständ igheter
r ut
el e
ster n
 verk lighet
 vä der
 Ch ar
 mär k
 fatt ig
H er
b ell
l änderna
s org
 s inn
an ce
st ekn
 i väg
 F l
ier ade
 hör de
 allmän heten
 fantasti skt
 fys isk
 uppmärk sam
 fruk ost
 grunda des
G o
K vinn
j ande
k un
y per
 för utom
is ar
 be arbet
 lag er
 sen ast
 on t
press ion
Pre cis
 äkten skap
 f inner
 till del
em a
 B en
 T rump
 tv ungen
 förl äng
sn ivå
 kam er
 str anden
 process er
 kommentar er
n itt
r öm
 l id
 T ill
 G am
 fram steg
uv ida
 lång sikti
 fil er
 särskil d
 allmän t
 förvän tas
 dator n
D ock
s na
or in
 in rätt
ort h
 J on
ang el
 speci ell
 rekomm enda
olu tionen
 identi tet
 fas tighet
 pas sion
 befolk ningen
amil je
B A
a lla
p r
v oka
 f rivill
 m inns
 e p
 re cept
 ex pan
 vä sent
 affär s
 tillhanda håller
 dör ren
g od
an al
 a ut
de la
 C or
 B usiness
18 0
 bak grund
 cy kel
  ’
N ya
b är
b ack
m m
ed i
is a
re am
ek tioner
 M e
 C omm
 G ar
 ro b
komm a
 läg e
 reg n
 akti e
 hjär nan
 fle xi
 ansvar ig
 samman hang
 fi x
 betyd ligt
 bry ta
stån det
O M
ti da
 h ä
 h uden
 med ia
 kon cer
19 2
 själv klart
 människor s
ub e
ang e
 par ker
äns le
 speci ella
 förlor ar
 tyd lig
 san ning
full t
 be söker
ek anis
 C oll
sp er
 å ker
 L o
 vär re
 dag arna
 inne hålla
 först är
 led de
 hitt at
 produ cera
 huvud stad
 förlor at
 kines iska
A D
F å
b ler
i or
ter s
ol ver
 vär sta
 N e
 tv iv
 svar ta
 potenti ella
 me sta
F ort
d ri
 s ing
li vet
sta v
ent et
ans en
 G ra
 under söka
 br and
 ur s
 plan erar
 säkerhet s
vi kt
fråg or
ssystem et
 vanliga ste
 föred rar
Må ste
i ration
en heter
is e
 ut sikt
änn en
 el ement
 so va
alis m
 tillgång ar
 polis en
 giv et
 förvär v
 skick ar
Ty värr
 initi ativ
/ EG
m åga
 m g
 h indra
 att ra
 ut sträck
sö kt
 W EB
 plan er
 fak ta
 trans por
 rum met
tre pren
 fäng else
o y
u sten
v or
en skomm
 h öjd
 för siktig
 st öder
äl tet
li kt
 du m
 väl sig
 tjän ar
 sn ö
 sti mul
vi da
 rev olution
  ‘
b on
k iska
t ok
é er
 p or
 i talien
 st rid
 I P
 L in
 gr öna
 sl og
 utveck lar
usi k
 sö dra
 rö da
 pri ori
 mor al
 platt form
 kron or
 kontra kt
 beakt ande
 k os
st ru
 in komst
 sk åde
 ö kning
 E g
upp lev
pro du
 snabb a
 innehåll et
 vetenskap liga
 lin je
J esus
m ak
itt én
In ga
håll anden
 fri tt
 bygg nad
 fokus era
 tills yn
 dröm mar
F år
b in
 d os
 f ien
om råden
 g äster
 av ser
for men
vis ion
 hand la
 egen dom
spro duk
 behand lar
 at mosfär
M ina
S amma
o ta
 t äck
 av fall
 A t
va pen
 ny heter
kl arna
ost nader
 förl ust
 dri va
 säs ongen
 motsvar ande
 kompl et
 närma ste
in formation
 m inne
om as
 g yn
ek tiva
 sp eg
 ty värr
Där efter
Re stauranger
 sek under
 skra tt
M S
ti ma
 b em
 l unch
is era
 ex pon
 na tion
 begräns ad
  …
  Är
I stället
» 

ä derna
 s ocker
 re stauranger
 or der
som rådet
 ka pacitet
 poli tiker
bo x
 förklar ar
 Ö ster
pas sa
 stär ka
 l åga
 S al
ud i
 c eller
 dem on
spro jekt
ana da
 sven sk
H em
a el
 k yl
te ma
 sk räm
ud ier
 B lack
gi ck
 U t
 bud skap
 lämp ligt
 ers ätta
 undersök ning
 leverant ör
l äk
 o ut
 till fred
sp art
så tgär
 vid ta
ys ning
 förv and
med lem
skri fter
 skicka s
 uttal ande
 Ind ien
I C
h el
y er
der ade
inn ande
 P ri
 svar et
 arti klar
 gjort s
sra els
 lug n
 utsträck ning
  *
. ”
h andel
 sam mans
 D ig
od de
und s
ce ller
In om
sm yndig
ender ar
 mäng der
 ins atser
 ersätt ning
 Austra lien
tok oll
3 4
H ej
in ter
 i sol
 var mt
terna s
im in
ika li
 per man
 inf rastruktur
 inv and
 lämp lig
 medicin ska
lever ant
H ela
S aker
l änder
 S E
 över va
 B a
 c ell
 im mun
 kost ar
 resultat en
vä x
 bel opp
 myndig het
går den
 konkur ren
 tyck te
 lic ens
3 8
] .

g o
o lla
en tera
el and
re et
 var ken
 D r
 I S
 del vis
 bil da
 åter h
 kö k
tig heter
tig heten
 stu dera
 star tade
 inve stera
res ultat
 exper ter
 skön het
A d
P ris
R A
c tor
h andling
 k art
 en klare
 l ör
it ed
us et
 gr äns
sö ver
 tv ätt
 lag et
 te sta
 ur val
sför etag
 bed ö
 kam p
 säll an
mun tra
 Tw itter
  x
I V
 o lag
 av se
 st yra
 re ferens
 M y
 sam lar
 min sta
ger ar
 liv ss
ant en
 ri ka
 kra ven
 speci alis
ex t
ind rar
 kor ta
 dri ver
 univers um
 dju pt
 erbjud s
 tillverk ning
skra ft
 analy ser
U r
U SA
m ord
u a
 r ygg
 P et
 T urk
 se g
 ri kta
sion en
 förb jud
 mark en
 dö tt
sf all
 förvän t
 föd d
 dat ing
 födel sed
" Vi
P er
i ter
li d
 B r
 res an
 ro liga
 data bas
 bygg nader
 chans en
betal ning
i as
l år
o j
s y
 f ysi
 a gera
 g äst
re g
si den
 allt ing
 kö pt
 sj ön
bar het
 kvinn an
 val de
 pa pper
 tal ade
 [ +
 dok um
sats en
3 7
4 8
I P
i de
 d öm
 a spek
 m iddag
ti der
är lek
 h e
st at
 g öm
för ing
 hel iga
 ny het
 efter frågan
 liv s
yr ån
 äg are
 stud ien
 räk na
 deltag are
 käll or
öte borg
v år
 o er
 v ända
 v inner
 b a
 t olk
 vi t
 var ia
ri kta
sk op
äm nen
 M ad
 P å
 T ra
 må tt
 bil aga
vär det
 ekonom iskt
 tillgäng ligt
 version en
amer ika
 ide al
Ti digare
6 5
f öd
 k ast
st ar
on den
il ver
 sk uld
 A lex
 ar t
tal t
for n
kl and
 hur uvida
 po ker
äk ter
 br ett
 ni o
par ti
 änd ring
 ob eh
 ung dom
 kyr k
skol an
 kval ific
- ser
3 9
M o
N atur
d ning
h y
v il
 s äm
 f amilje
 t era
 t ju
re e
 an passa
 r äcker
 be sluta
 när varo
 B it
 under bara
 ex ist
pro blem
 läm nat
giv ning
 ansvar ar
äss igt
 bedöm ning
 genera tion
 yng re
n y
 a s
 k at
 b oka
 en trepren
 an sikt
 K an
 dag ligen
 använd aren
 pa pp
 mö ten
Pro gram
 innova tiva
 detal jer
 accep tera
 him mel
 profession ell
 motsvar ar
 fortsatt e
  yt
G ra
I I
K licka
 s inne
 f ält
on ald
 t ing
 t unn
 upp stå
ne ss
 N or
 utveck lats
 lag t
 dra ma
 rikti g
 bas erad
 förber eda
B land
h al
w are
 k urs
 för egående
 u l
 an sluta
ver kade
em pl
 W e
 rätt fär
 rätt sliga
nings för
 led ning
 fin t
 program vara
 ekonom in
 ställ ning
 [ …
 öv rigt
 inv olver
 glöm ma
 instr uk
Sy ftet
T e
b ass
g in
in ar
 v ac
 b oende
 b atter
 p rä
 ut l
 S im
 ha v
ju der
 barn s
 per ioden
 webb läs
 poli tisk
lös ning
 bolag et
 befolk ning
stjän ster
 kontin uer
P l
v alt
 f j
 v and
 för var
 g ro
ter ingen
 ö l
 upp muntra
 å ld
 D i
 L u
vär da
 vä d
 akti er
slag et
 myndig heten
 framgångs rika
 bes vik
 förtjän ar
9 5
s j
” Det
 F il
yg t
 hel het
ic an
 V er
 br yr
eg e
 utman ing
produk tion
 relev ant
 bill ig
 avanc erade
S E
S l
S peci
l s
r ens
 b oll
as e
 var m
 ö m
del ningen
 rätt visa
 ytt re
 posi tivt
 orsak en
  !

 a ck
 h ed
än ker
ra pp
ed da
se ff
jän ster
 åt ag
 förv å
 plan et
 tidig a
 äm ne
 villkor en
ela terade
 utnytt ja
 [+ ]

  🙂
1 20
B ästa
o va
 f an
ta in
 S oci
äst are
 väg ar
 lös ningen
 affär er
Allt så
 fokus erar
 stark are
J u
p unkter
r öst
 s org
 f ra
ri ster
kti va
 D es
 ser ien
 lö p
 organis ationen
 räd sla
 behov et
 dest o
 beröm da
pp na
 ut gång
 under teck
 li der
 am bi
sav tal
 Dan mark
ali forn
 restaur ang
! !!

- S
A pp
r äg
 n åt
 på m
der as
li tet
 när ing
 må naden
ic s
 än da
 sl år
vär m
 företag s
 förb i
if e
 ställ en
 rör a
t elef
 b ack
 p il
äg na
 pla st
 nödvänd ig
 lycka des
 medlemssta ter
Väl kommen
Gl öm
 certi fier
f ort
h opp
ör d
 av sikt
 an klag
 har mon
 ut bil
ol e
 sp anska
 li ta
 br änsle
 In stitu
 läm nas
 konst ru
 teknik er
cy kel
 nor ra
 förekomm er
 gui de
 E m
 år ets
id dagen
sm et
 vin d
 sy ssel
 stu dent
 ung domar
 Sver iges
 sek ret
 beskriv s
 knapp t
 gif ta
Företag et
indu strin
. a
h i
p unkten
v ig
ör erna
 av talet
at in
 upp gra
ek om
 kon cept
 E r
 I sraels
 fl as
 N ya
 ä kta
 samt ycke
 al terna
olog y
 glob alt
 godk ännande
grän sa
 And roid
 exkl usi
j et
v alitet
an o
 b otten
 g ill
 re cen
ff er
yg gt
 I N
ic al
öd et
ställ da
sätt a
 ser i
 pass ager
ssta terna
rust ning
 rikt ning
 föres lår
 dy nam
 jurid iska
. "
 m önster
 m jölk
on ym
 l änk
 st ål
 M art
 or dent
 na tional
 V är
ion s
 O ne
 pre miär
dan a
 mark nader
 dom stolen
ex ik
 sy ster
ry cka
 länder na
förs äkring
 mäng den
 rekommender as
 Man agement
 princi per
Fl era
 fullständ igt
 musli m
 jour na
 äld sta
- C
- fil
5 5
n ämn
s atser
 f ylla
 upp m
 N orge
 J ames
ystem et
 berätt else
 lä ste
 tillämp ning
 viktig are
 räk nas
 påverka s
 ton år
 spender a
 funn its
 ref lek
 disku tera
D A
d är
r äng
 a u
år et
 j äv
 A frika
 I r
 hel g
öj ligheter
 arbet at
 bek ämpa
 nog a
vä xten
 förh andling
 förvän ta
 varumär ke
 uppfatt ning
 invån are
I F
c ancer
t äck
 s upport
 m ak
 h inder
 l ab
 av sk
el d
 ut seende
 sam las
 H am
se x
 vär den
 del as
 ta cka
 åter v
 ol ja
 norm ala
 pas ser
 regl erna
we iz
 oer hör
I G
g il
 upp tag
gi ften
kl ass
ju ter
 kvinn liga
fri a
 händer na
 erbjud anden
 gi ft
B åde
F olk
w ood
 S o
 H ans
 si kt
 met all
 skol or
 ins ats
h äl
i den
å s
 f est
 f yr
 p e
ska de
rä der
ven ska
 tr åd
 W al
 hem met
ygg ande
 An gel
 lär de
 hus håll
 släpp a
mo de
 fullständ ig
 🙂 

K änner
l öst
 h yp
or ter
 i lla
is tisk
re sa
 de pression
at et
ss am
 S om
si d
 över enskomm
änn s
 P ort
 under visning
 kun derna
 ex pl
 arbet ade
ju ka
 intress erade
 bestäm t
Pro blem
 tillfäll en
 [… ]

ag o
 g il
 på börj
 så ledes
 D is
jekt et
 regi onen
U S
e ga
in en
 g älla
 t enderar
 av gifter
 på går
sk ande
 re al
 E tt
 sl äkt
land et
 br or
 åt komst
 tekn isk
Till sammans
 soci alt
 rekommender a
 imp lem
O fta
P A
h äng
j öd
 h yra
 g al
ad en
 över leva
 B ea
 vis ion
 liv e
 liv sl
 företag en
 förv äg
 fast ställa
unk terna
 euro pe
 förut sättning
fråg as
 medvet na
 utom hus
po si
ash ington
 vir tu
 Sy rien
 underl ätta
Äl skar
E L
F akt
F ler
t og
 b in
il er
 M al
la tt
 se ger
bil ar
 ka tastro
 flyg plats
 allvar ligt
 start ar
 kap itel
struk tion
 förfl utna
 förfar anden
 klock an
R ätt
S ök
 in former
 t ull
 till ämpa
 vi la
ss a
ett en
 ar ab
 N a
 N i
 pl us
verk ningar
 Euro pas
br y
orm on
ha il
 invester are
 inb eg
 upprätt hålla
et eck
 k urser
 k ämpar
 b ord
 för eställ
 om vand
li ster
 r ull
 ar v
 G öteborg
 år hundra
 förv ir
 lär ande
 beslut et
 sym tom
 gud om
 kem ikali
 möjlig gör
 kommersi ella
 avsed da
 tillför lit
S a
å p
 s ter
 h atar
or dens
 t år
 t anken
 H oll
 K anada
 säker heten
 lig ga
 sjukdom en
Vär lden
 s and
 p alest
ig ar
de o
 t äcker
 de cen
 ut val
 C an
sp ar
ering s
 hög k
 tjän sten
 kra fter
 förvän tar
 app ar
 använ des
 utom lands
 svår are
 rela terade
 hållbar het
 Sch ool
 ring a
 dubb el
 överg ripande
 för pack
der ande
sk i
 ska ffa
ul tur
 I m
 hel vet
 produk tionen
fl ö
 dator er
 popul är
 känsl an
 prakti ska
 klimat föränd
 anslut ning
Hen nes
 orig inal
 födelsed ag
4 4
I M
i sta
Å h
 d on
 f licka
 be var
 sam ling
 ex port
 verk lig
di oxid
 dr ygt
 stat us
 far liga
 lycka ts
 fatt a
 profess or
 försv inner
 potenti al
 täv ling
tekn ik
 kateg ori
D itt
b io
k are
er are
st or
 in di
 var ierar
 M et
 K omm
 gr anska
mer ing
In t
 väx ter
 väx te
asin on
 vux en
 garan ti
parlament ets
 flick or
 mol n
 Off ice
såtgär der
H uvud
H itta
M ark
 s anna
in o
 d iabetes
st ör
on n
 in verkan
 av göra
 an ta
ri m
em ed
li tt
 A sien
var an
 ny fik
ön stret
 människ ans
 sak nas
 ty pen
 Euro pe
 krä va
 lö sen
 bel ö
Komm issionen
 häm ta
 milit ära
 Amer ika
 elever na
 häv dar
 järn väg
 Gl ob
A M
C C
 s um
 m ej
or is
 in form
 på lit
 ut ländska
ot o
ma zon
 kl äd
 sm ärt
 led arskap
led are
 mat en
 skyd dar
enom en
 fördel arna
 sek und
 lyss nar
 sluta de
 do ktor
 betrakta s
6 00
F i
ö gon
 o kej
ta v
gång ar
 sta m
 ly x
tag et
 fem te
 effektiv itet
ER R
 infl ytande
 Su per
 ir ri
 sympt om
 aspek ter
 m år
 t h
sta tioner
 P eter
ock ar
sm iljö
 ner v
 mö tt
 mö tet
alis ering
 skap as
 ljus et
 minuter s
 tillverk are
 sov rum
 noggr ant
 riktlin jer
m y
 a ller
 k ille
 för med
ter ande
 an ge
 S ystem
 B el
yn d
 arbet stag
yr kan
 ma teri
 vä ster
 lag ring
 gra der
 ad voka
 mobil a
 uppman ar
 religi ösa
J oh
K olla
z e
 k od
ter n
 om döm
ut an
 år liga
kl as
 sta ter
io der
ubli ken
 marknad s
 äm net
 mä ta
 represen terar
 driv s
 Var för
smark naden
 livss til
K öp
S ärskil
c ell
h uvud
u ma
 d ro
 f ara
 f rid
 m m
 m ake
 med för
 be bis
 re aktion
ut s
 M att
ci pl
ga v
 hand en
pro cess
 sjuk vård
olag et
 lu ften
 kri sten
 tillfäll et
 mör ka
 hotell et
 accep terar
 statisti k
Europa parlamentet
 Turk iet
  →
a te
a tiska
y al
 h om
 å sikter
 for um
 pr öv
 slut ligen
 grund val
 red ig
 värld s
 mobil telef
 deltag ande
 insp iration
 överför ing
Själv klart
 rob ot
4 6
F in
N ästan
e e
” Vi
 ut förs
 un ikt
 under bar
 del tar
 pl ocka
 tid punkt
 ma kten
 trä na
fi kt
 före skriv
yp ten
tjän st
 Te ch
Ver k
 decen n
 k älla
 b ist
 in ser
ro w
da y
ad d
 M il
us al
 å stad
 c on
 spel arna
 on da
 produ ktiv
 öpp nade
 str äng
 beg rav
 installer a
 demokra ti
 ång est
 kil ometer
Ä R
an e
 om bord
 st annar
 be gränsa
 kon f
od y
 tr å
 sm arta
 res or
 par ad
komm ande
ab y
ug h
if ier
giv na
ister na
Fr ågan
sst ra
eri od
Ob servera
 kommunic era
 klassi fic
 shopp ing
T A
b la
k ör
w w
 d ik
 av slut
sk rid
 ut vär
 ut byte
 T o
 H all
 D el
 na ck
 förut sättningar
 y ou
 norm al
 fys iskt
 produc erar
 säng en
 rek ry
- B
4 2
Y tter
b rid
g ade
i ller
s dagen
ö ld
en heten
 b odde
 l ist
am od
 r öd
 upp re
va ll
 B ay
 P C
 T er
 å kte
 I rak
ok ument
ok lad
 W ashington
 ju ster
 kän des
 förm ågan
 förh opp
 rep resent
 fred ag
 mar ker
 oerhör t
p re
 s yd
 för est
 l eta
 t äcka
 t olv
and ard
var or
 B ank
 T our
 N o
itet er
 bestäm de
 rapp orten
 beg ära
 disk rimin
 fatt iga
 säll syn
 elektron iska
 län kar
 separ at
in as
ri ken
 be sl
 sp åra
 sig nal
att eri
 K or
 vår en
 inne fatt
håll ande
kon tor
 led am
 förb lir
 vin ster
ator iska
 natur lig
 inneb ära
 försö kt
 byg gt
 mänsk ligheten
 lyck lig
 krea tiva
 blomm or
 sträck er
Fakt um
- tal
B l
B r
P R
j äm
 C asino
 hel gen
 R ed
 ex empl
 W est
 sm i
 ma tema
 fär re
 St reet
 värld skriget
hus et
 uppgifter na
 y ta
 effek terna
out h
 vacker t
 bu tik
 välkom na
 kulture lla
2 50
O n
f akt
f ess
v el
 d yg
 d vs
 a x
om ål
 in se
si kten
 sig n
sl an
som råde
sm inister
 sta dens
jär na
 gå va
 komp lic
Där emot
 mas kiner
 grän sen
 opera tiv
 prote in
cel ona
 kompon enter
T o
f ram
p tion
u ck
Ö v
 d imen
 k ust
st od
 en heten
 på verkan
 var dag
ri ck
em i
sk l
 ut rikes
 fr isk
 ar ter
sp eriod
 T rans
 H en
 D o
 spel aren
 vet er
 bil derna
olog iskt
 egen skap
 intress anta
 poli tiskt
slag en
 tack sam
 klar ar
 bestämmelser na
B i
F a
 v eg
re k
at u
ska m
 upp l
ut bildning
 or den
ann es
ala x
 di et
br ans
 flyg plan
alis tiska
 bed ri
 mänsk lig
 kvalitet en
 fi ra
 klass iska
 fastställ s
 kompl ett
 dial og
Medlem sstaterna
usal em
E A
K un
M ot
f ekt
ö ta
 f ånga
 i kväll
der at
 vi kten
 an del
 S ka
 komm issionens
 min ut
 under rätt
 sl ott
 använd arna
str ument
arbet et
 pra xis
 hjälp te
 and as
 uppf ölj
 kol dioxid
 medicin sk
 förklar ing
 häst ar
 » 

 exister ar
 övervak ning
V an
b le
 s c
 f öll
 o sk
 vara v
 han terar
 er känna
vär den
 åter försälj
 te xten
 lever erar
 dom än
oner ande
 hjär na
lägg ning
 part ners
 Fr anc
 kredit kort
 spri da
 Will iam
 mångf ald
B o
S c
i bland
 f ulla
 m use
ch a
än de
än kt
 upp värm
 B ri
sl ösa
ok en
För sök
ön t
 sö t
 hjär tan
 samman fatt
 teknik en
 träff ar
 ren a
 registr ering
 meddel anden
 hälso sam
 os äker
använd are
 musk el
 radi o
 kraf tigt
 urs äkt
 förvänt ningar
L ik
N am
d riv
m ö
 v unnit
on der
 i t
ra ft
 upp rep
si dor
 sp råket
ve ster
sti g
 hå l
 följ de
fin ansi
bel t
 kam pen
under sök
mark nad
 jämför else
 lo var
använd ning
 genomsnitt liga
 misslycka s
 tål amod
 Eg ypten
 uppm unt
u na
 s äk
te x
as er
em an
 ut över
ek yl
 F o
 I ran
 efter m
 själv mord
 plan era
 rö sta
 bed räg
 ren gör
 blog gen
 låt ar
 vita min
 Pla y
 Mich ael
 Jer usalem
 koncer n
 au ktor
  …

- T
. ,
I A
c enter
h l
u ff
 s ens
 av gift
am et
 sp ringa
era tion
kti vet
 W ar
bil der
 tid s
 vä t
sb yg
 vän skap
 arti klarna
fl y
 utt rycka
 tred j
 betal as
 träff ade
ever ant
 stäng a
 garan terar
 ham nar
 tu ff
 tor r
 drabb as
 frukt ans
 Gre kland
 vol ym
 kand ida
 värder ingar
- spel
f isk
g es
er gi
in är
or o
ed ik
 l ät
ter ades
 an tar
sk raf
ol t
gen er
 spel as
im ent
 lag ras
 dom in
kom p
 rå der
 håll bara
 Vi ll
 affär sm
ap anska
juk dom
tjän ster
ula tion
 framgångs rik
 vinter n
 siff ror
 gjor des
Mål et
 lid ande
, "
B örja
L ite
M A
d d
j as
 o t
 h yll
 i srael
sk ill
 r ub
 C am
 ar rang
for mar
 arbet splats
 spel at
ym p
 samhäll en
iner ande
mark naden
 glöm t
 satt e
 kem iska
 sön der
tic s
 → 

. »

H itt
re sten
al ternativ
inn an
 A b
 E C
In ter
 åter vända
 rö ster
eb ra
 sex uella
 förbätt ring
 samarbet a
Vis st
 Mar ia
 stad s
 använ ts
 anled ningen
 Ge orge
 förvalt ning
 komplex a
meddel ande
 konsekvens er
 ink öp
 has tighet
S äg
f ast
h as
u ster
 d äck
 o till
ed öm
 st ånd
itt é
 M useum
sp l
För egående
 förb in
fil m
 event uellt
 titt ade
 varumär ken
 individ uella
 bes vär
 Ho use
 tillfred s
ERR EN
H ög
O L
f yll
j ord
r elaterade
 g olf
 det samma
 r äck
 T ro
 han tering
 bet on
duk tion
 hjär n
 und vik
fri tt
 et ik
 nå tt
ograf iska
 bekrä f
 Jo se
Ex empel
 tyck s
Följ ande
 institu tioner
sproduk ter
 Bit coin
Ytter ligare
  Detta
6 4
C A
f art
t y
 s te
 f äst
 m att
 h ell
ch er
 in red
as sa
 be ställ
 T i
 person ligt
 V D
 produk terna
kom sten
 An vänd
 poli cy
 im orgon
 håll s
 offent ligt
 ursprung ligen
 ant og
 bry ter
 förändra ts
Fl yg
 förstör a
 perman ent
 ordent ligt
  |
D ina
b ien
 s änd
 för r
or ator
 på gående
 st ött
si v
ek ret
var en
 K aliforn
 R ich
 åter ställa
 håll et
 åtgär d
ita tion
 begräns ade
 ren over
 flytt ade
 hum an
 ass oci
 intro duc
 italien ska
8 8
 t ol
 n äst
 n oll
are s
 tr on
 R ob
 on d
 flyg a
 förbätt rar
 stat liga
skriv ning
 kri min
 tillräck lig
 ab sor
 Ro bert
 sök ande
 skär men
organis ation
 ag gress
 konsti gt
 kamer an
8 00
P o
V al
d rarna
u ens
 t ors
ri b
ska d
ut h
ser v
for s
ju da
sm äss
 sö der
 berätt elser
ubli c
 Ma ster
 tyd liga
 tem a
 garan tera
 bred vid
bygg nad
stitut et
 strä var
 symb ol
J äm
S ver
g han
h op
 f ack
on es
or ma
 in j
ag et
 n ivån
te st
 S ec
si st
 kon kret
 kö ket
 håll as
 ter min
 tillämp liga
 tillämp ningen
 begräns ningar
kn ipp
ph one
 känsl om
 tradi tionell
 beskriv ning
 effekt en
 intellig ens
sfull t
L ägg
S S
h istor
k r
in i
 o vän
ch e
ing a
am e
ur y
 br öd
 utveck lat
 vä v
alt h
ank e
 kall t
 äg a
 utt r
 fakt or
 lo j
 my sti
 arg ument
 parker ing
I m
i mer
 p ub
ning om
 an såg
li pp
 S l
 S ol
 re se
äll or
 E li
 le gi
kon troll
ator er
ektiv t
 berätt ig
väg en
 samarbet et
skri ft
organis ationer
 rym d
estiv al
 Ob ama
c on
j un
j erna
 f enomen
 o änd
om råde
am in
 be sk
 P e
 P l
 or ätt
 person lighet
bil e
ub a
 bi verkningar
 speci fikt
 flyg platsen
 dri cker
 str and
 orsak er
 genomför ande
 känn eteck
 sön dag
 gre kiska
 II I
 region ala
funk tion
 vist else
 överva ka
C o
b ul
o fi
 m yn
st in
 b ordet
 för knipp
 i frågas
is erad
 den ne
 B ra
 B re
 D in
 c amp
des ign
jän sten
 hem lighet
 förb e
 el imin
 rö tt
 disk uter
eder länderna
stag ram
inne håll
 konsum enter
 uppen bart
 skyldig heter
 jud ar
 poj k
 gjor da
 installa tion
 strå l
h öll
z er
ö ck
 s tig
 k ämpa
ag ue
 med ic
li sta
ätt ning
ol ja
ul en
sp eg
 andra s
fr åga
di um
 ur in
kor ea
 steg et
 Her re
 indu strin
 skatt e
 konsum enterna
 Amer ican
 fre kvens
 beskri va
 givet vis
 utval da
T ra
T id
l äng
 till åta
un ikation
ak s
 A f
 tr ö
 N y
 er håll
 J es
cka de
 - 

 komp is
Ut veck
 kvar talet
 bas eras
 flytt ar
 tradi tion
 presen terar
 upptäck t
 framgångs rikt
 minn en
Bil der
 sån t
 tun ga
 långsikti ga
 gill ade
- L
? !

B S
T ycker
s d
u per
w n
et y
 d a
 h jul
om et
 för oren
 in uti
 t ung
ck så
 an de
 an sl
il i
da ter
 P ost
se si
 ta bl
 W i
ust ru
 lätt a
 im pon
raf ik
 hår et
 Ad am
 rad ika
 läs are
 nödvändigt vis
 beräk nas
 skär m
 brans chen
 imp onerande
 bru kade
 dej ting
 buti ker
 territor ium
 administra tiva
 väd ret
A G
T T
b ätt
i ft
än ningar
ed en
 n omin
ta kt
 till å
 på sk
der ing
 var dags
år iga
 j akt
 fr iska
ic kade
 rätt igheterna
nat ur
 Ch rist
 im port
 kost naderna
fär d
 utbild nings
 månader na
lo ud
 låt en
iss ör
 anled ningar
 prakti skt
 Bar celona
 bekrä fta
 bekrä ftar
 hum ör
For sk
 fött er
 bedö ma
 katastro f
 dro ger
in f
 m ekanis
 k ill
 för k
itt erat
 A li
 A mazon
ven tion
sti den
 hö sten
 w h
 ka sta
 änd rar
 följ t
 kr yp
 ob lig
 små ningom
 ev igt
 version er
-post adress
 gemenskap en
 analys era
 sälj s
 uppskatt ar
 överväg a
 lösen ord
brans chen
T itta
i lla
k od
 h ung
ig enom
ed ag
 g ator
is tik
 var ma
 H ERREN
 V il
 V olv
sätt s
 O p
ack er
ug ga
 förl åt
giv ande
lag t
 bak terier
 Un der
 alternativ et
 genomför andet
 koll eg
Ska pa
 akt örer
 rev olutionen
 kombin erar
 tit eln
 koncent r
dem okra
 nöj da
Go ogle
 sekret ess
P lan
c ed
o ter
 n umera
 sk äm
 ö de
 re st
 över läm
ud d
 E le
 P en
yg gen
 ex amen
 ta kt
 for men
 for skar
 te or
 el eg
 land sbyg
 stöd jer
spro blem
 trans aktioner
 hopp a
 träff as
 ol je
 blod et
 släpp tes
Ar tikel
 upplev elser
 upptäck er
 övert rä
 stol ta
 tje jer
 Gre en
 stäm mer
 ansikt et
 jäv la
spl atser
4 1
om p
na tt
 in föra
el at
 n jut
 r und
ska ff
 min skning
 H em
 N orth
 ex terna
 fun kar
 sak erna
 lång samt
 van ligen
fl yg
 rö ka
 rör elser
fri het
 bygg des
val ita
 konta kter
 skill nader
 begräns at
 inb lan
 presen tera
 prakti ken
 sep ara
 administ r
 skön t
 stjärn or
 ingrediens er
 öm sesi
B C
y mer
 m ord
 h unden
 de kor
 j ordens
ss ka
and ina
 sk ott
 K ing
 R ock
 V al
verk are
 res olution
 speci fik
 bort om
 mis sbruk
Ut över
 bas erade
 prof et
 kärlek en
 inb ygg
kv alitet
 arbets givare
 exper t
 ban ker
poli tik
 civil a
Bes ök
 tillhandahåll s
 Institu te
 passager are
 Glob al
 Kaliforn ien
8 5
D i
b unden
’ 

 s alt
 h ustru
om er
 k ir
 en orma
 in ci
 an ing
it ch
 F red
sam heten
vis as
 br öder
äck ande
 lever eras
ex as
 kons ul
 jäm föra
 släpp s
 släpp er
 fa lla
 tillfäll igt
gå tt
qu e
 strategi er
 klin iska
 Bi beln
 tviv el
  <
' 

- vi
4 9
P en
T h
c c
ar y
 v änder
ig heten
 var elser
 om sorg
ss pel
 ut vid
 be svar
 sk ogen
 över sti
ina tioner
ser va
 ver kade
gen om
ber ätt
 V is
 hjäl pt
op ro
 ro ck
eg as
An nars
 so ver
olog in
 on ö
 kost naden
 ansvar iga
 nå d
 mär ke
Vid are
sla pp
 oro a
Än nu
 författ aren
 sannoli k
 hundra tals
ose x
öck erna
  ​
_ _
b lad
d vik
e gräns
l ö
u el
ä x
 v eder
 b al
 l ett
 ut öv
ol vet
 ö ster
 S on
um in
 M ag
 över gång
 po p
In ne
 ty cka
 tro ende
 pra tade
 mö bler
io us
 kropp ar
 ob j
 omfatt a
 ter m
 besök te
 kraft fulla
 Le ague
 maj oritet
 ev angel
 erbjud ande
 am bass
 nor r
 tit el
 gym na
emed lem
H jälp
s änd
å det
 f ans
on ger
 st re
 st ycken
 fr ig
 upp sättning
 T or
 tv ekan
tat s
ost nad
jän st
 åter igen
 mat chen
 fri tid
 fot o
 fa sta
tem ot
 gener al
 stand arder
 verksam heter
 huvudsak liga
 tillåt et
 trygg het
 fattig dom
F em
S K
S tu
 o perat
 k illar
 för sen
 g ri
 an ord
ri ker
ss nitt
 S pa
 M ellan
 gr an
ist en
 W all
 O ut
 utveck lade
 sak en
 förb li
tra fik
 sn älla
 ner e
 bok stav
 kropp s
 fak tiska
Sk riv
 fot on
tr ans
 kam era
 posi tioner
 far ligt
 lev de
 telef onen
ställd het
 skad liga
 kampan j
 klag omål
 bibliote k
 utvär dera
i at
l opp
w ork
 för teck
na des
ta kta
ak ter
va tt
 B al
 P ower
 H on
sam lingen
 fl agg
 gr ansk
 ta pp
sb as
äns la
led ningen
 ch oklad
 kvinn orna
 öpp nas
 lik nar
 pla cera
 kontroller ar
 registr era
 låg t
 skatt er
 sh ow
 försvar a
bok en
pla tt
 spar ar
 tving as
 musli mer
- komm
H istor
c le
ä ven
 d yra
 b yn
 p unkter
ra ss
 in ställning
 g äng
 av kast
 st y
 ut arbet
 ut satt
ut släpp
 B ill
 ver ka
 gr un
 po ol
 ber edd
org an
 läng d
 förb und
 te ater
Så dana
 bland ning
 bek ym
 and liga
 fler tal
 För enta
 behandling ar
 Europa parlamentets
 kri terier
 app likationer
 förklar ade
 förber eder
 utö va
stjän st
 upphov srätt
 Mart in
B li
C O
E M
g an
k öp
m yndig
o tera
 s na
tt ag
 av vik
at sa
 be fri
omm a
 sk ett
för bruk
 re aktioner
 F ort
 D ay
id s
ja ck
 dr yck
Sk ill
 tag its
 ned er
 nät verket
 publi k
 Pro gram
 ute slut
 roll en
 kyr ka
 säm re
L e
t v
st ora
 för farande
na ler
 t änder
is ser
ss p
 be ställning
sp ris
 min nas
så l
 gen ast
ord in
 person ligen
min skning
ation s
 beslut s
 funk tionen
els ing
 hår da
 partner skap
 undersök ningar
 bekväm t
 avsnitt et
 deb att
 Gr and
Kvinn or
! )

4 3
C H
R O
S ex
d da
re vet
re kta
 be vara
 S i
 P erson
 min er
 H ög
se g
 genom förs
 O S
 först od
 In c
 tal as
 im per
 tj ock
 lug nt
 Sta te
 genera tioner
Fil men
 trev lig
 överensstäm melse
 inform era
4 7
L ed
j ung
et iskt
 d er
 att rak
 till känna
 an söka
 r yk
 pro tokoll
 A p
 A ward
iv is
 sam m
sp eci
 T om
 kun gar
 tv är
 bet alt
 W il
sh op
 sy ftet
 främ mande
 kort are
 tog s
 Co unt
 glöm mer
 upptäck te
länd sk
 ske pp
 tu rist
 distribu tion
 avläg sna
Liv et
 exist ens
 hell re
B D
D em
O ckså
st ä
ning ens
 an ger
 j apanska
sk öter
ska tta
 un dra
 A na
ans kt
 sp ons
 M alm
 T re
 gen temot
 R eg
 li ber
 rätt vis
 bl om
 åter vän
 slut föra
 tekn ologi
 im por
 rep ara
 ne uro
 ang ående
 framför allt
ui de
 allvar lig
Än då
 nega tivt
dat um
 vir us
troller a
siden ten
 obeh ag
Problem et
 Bea ch
U D
a f
v inna
 h öja
om i
 in spel
 t riv
 j ack
ett s
 S å
 över föra
 sam ord
 bet yg
 di am
 plan ering
bas erad
 kopp la
 gravid itet
 inträff ar
 vinn are
 noggr ann
hail and
Särskil t
- ]

R edan
d isk
g u
u rit
et isk
 av slapp
as k
 re sen
 ska dade
 M u
 M or
 D NA
ic o
os it
id at
 W ebb
 hö st
 säker ställer
 ly fta
br yt
 problem en
 plan en
 form at
kän t
ater ad
 extre m
 bill iga
 flykt ingar
 Alla h
 Sm ith
 billig are
skrid ande
- A
6 6
7 00
P N
 s är
 b atteri
 för are
 till växten
ad s
 S T
 kon gress
 B et
 F ran
 gr ann
 se värd
 själv för
 ri ke
fatt ande
gr unden
pro v
sb eh
 pen is
 [ -]

 bygg naden
 stra x
 musi ken
Vis a
 ne ut
 pati enten
 material et
 oro lig
 svår igheter
skra v
 avsed d
 föreb yggande
 Ass oci
 lab orator
V art
c tion
g jor
an erna
in erna
 m am
st öd
 l itterat
el en
 sk iv
ot en
änd an
ser vice
 F re
 där ibland
ger ingen
 väl k
 spel en
 le gen
ott a
 gj ord
 förs äk
Un g
 förut säg
 storlek en
 bad rum
 skilj a
 län ken
 intell ekt
 fång ar
-h andel
ämt ning
bra ham
 utvärder ing
f und
s älj
 s vär
 f et
 h yr
 k ross
 för verk
 på min
 ska la
ans lut
 kon stitu
 här lig
 där ifrån
 ha vs
du stri
ika tor
 åter f
 par terna
ropp ar
amilj en
 inb jud
beh ör
 her r
 offici ellt
Slut ligen
B el
E m
V D
n ed
 s orts
är en
 v ag
ed de
ätt e
ätt ar
ur er
 så klart
 P at
 å sikt
gi en
 se ktorn
 ” 

kon s
jär nan
 te ori
pro jekt
 tjän are
 to al
 app en
 avsl öja
 föd s
 vide on
 presen teras
 universitet et
 musk ler
anal ys
 lör dag
 högk valita
 Af ghan
 kolleg or
F är
c es
v äst
w ebb
ö den
er ska
ig ger
 för ekom
un ger
 re sp
 C D
sp ort
 K ong
 del arna
 läng st
 di pl
 hitt as
 slut ändan
 mål en
 An de
els et
els ens
 beg å
 kraft full
juk domar
 popul ärt
program met
skott et
 förd ju
 minn es
 dis cipl
 webbläs are
Speci ellt
 kemikali er
 föreskriv s
 trå k
- och
: a
R S
S v
S an
h on
m ån
u sion
v äll
y pt
 f eder
 h ormon
on de
ag ång
ta min
 M ot
 P art
 min oritet
 tr upp
 fl oden
 N ederländerna
 c yk
 väl bef
 V äst
 sm itt
 ig nor
 förs äm
oka l
 komp ens
lägg ningar
 form ul
 regi oner
 risk erar
St ud
 Z e
 träd gården
räff ande
 dör r
 uppda tera
 tu rister
 kombin era
 förekomm ande
 kärn vapen
 avslöj ar
Resultat et
 arkitekt ur
 Sci ence
stekn ik
fly kt
 ​ ​
* *
B ygg
K ort
L äg
R o
b it
k anska
m ier
 v d
 l am
 st ycket
ol ska
 S S
ina tionen
 P olen
äng den
 väl kommen
yr ning
 ra b
 ra kt
 milj öm
 ty der
 lå na
 ob server
 sex uell
 styr else
 träff at
 blod tryck
 inf ektion
 Sk y
 försv ann
 anti bio
bolag et
log g
Dag ens
 konfli kt
 föreb ygga
 ök ande
Program met
 yt an
 instruk tioner
 vac cin
 påm inner
  §
% .

- system
E l
S oci
a h
o us
 k atter
 in till
 med dela
 sk jut
la tion
dra s
 T exas
rä v
 gr ym
 gr uv
 c igar
 se ss
 kv anti
 ro ller
 best ående
 on lin
 rö k
 ytt rande
 Un ited
 fanta si
 uppnå s
 kn iv
örj ning
rip et
 lokal t
gl öm
 vitt nes
 jud iska
still stånd
 as yl
 europe isk
 innefatt ar
 ryk te
) ,

5 9
 s yr
 f yller
 b ett
il ien
 ut se
 ut gifter
si va
ak tivitet
 sl ump
 na vig
yd da
 U kra
 w ww
 pen ning
 bi be
 dra s
 kor rig
 data skydd
 kli pp
 kommun ika
16 0
tim ent
 ovan för
 ins åg
 pas sa
 mån en
 skyldig het
 sub stans
 miljon tals
 anlägg ningar
meddel anden
upplev else
 Tech n
- app
o id
u al
 s atsa
 b om
ch ester
 p ul
 g atan
li a
 fr is
ans er
um er
 all i
rä k
 min ister
 under bart
 F ri
 ex akta
 verk ligt
 liv ets
 W ord
 per ioder
 tro ligen
Un dvik
giv aren
 fem in
 ci tat
 rappor terar
 dju pa
 inklu dera
sprogram met
IN G
 plac eras
36 5
 fien der
 expon ering
Natur ligtvis
G år
L äk
S h
T ube
i ro
j ä
v ir
er t
in kl
ör a
 k ej
 b os
 i kon
 in rikt
 av bry
kt ar
 ö ga
 D ag
 år tion
 sl äng
 tid ningen
cent ral
 sn äll
 gam m
 tillgäng lighet
 idé n
 fisk e
 studen terna
ssk ydd
 kal ender
 Car l
 Ber lin
 kateg orier
mot or
 ansträng ningar
S tar
T S
a der
p ri
p ade
 v elat
 k ära
ra ter
 g u
 till t
ro ll
da frika
 ut gå
 H igh
 D ev
se ss
vis or
 for ma
ott ag
 ansvar et
 minska de
 öv re
 fören ing
ännisk or
skol a
 rik edom
 Des ign
 premiär minister
Int ress
L yck
M öj
T C
T ekn
b ro
d am
ö stern
st an
 S outh
ång en
ak tiv
um an
 sp litt
 H D
 bli ck
För fattare
 del tog
 ä tit
 U N
du strin
fr on
 vän tade
 läg sta
ator n
 ch arm
 familj emedlem
 bek ant
amma tion
 föres lå
 Har ry
amer ik
 lyck liga
 behå ll
 grön saker
 fåg lar
 bilj ett
estäm melser
sper ioden
 skåde spel
edag og
P la
f arna
 b ind
 p unkterna
ig an
ka lla
 l ung
 var ak
at ing
li e
 K risti
 kom fort
 ka tal
An talet
 bi ologiska
ote k
 Vi r
St äll
 ön skan
 Re p
 ovan ligt
följ ande
fika t
 do ser
 föres lag
 elektron isk
 strateg iska
 trev ligt
 Coll ege
 real tid
 Rich ard
 Afghan istan
- c
- re
6 7
A P
F ri
R ed
i ma
m ade
ö va
 a gerar
 m ekan
 h indrar
is co
 till äg
da p
 r yggen
 ö gat
för t
 sp ekt
 B ur
for skning
 arbet slös
 fråg orna
 kän sliga
ekt orn
 slut liga
 kropp ens
ämp ning
väg agång
 Europa parlamentet
 Her rens
 anställ d
 uppnå tt
 lo cka
 parti et
 utform ad
 sän ka
 tänk ande
 Mark et
 flykt ing
 bilj etter
 lägg s
 begrepp et
 fal ska
 rekommenda tioner
rib ut
Sver ige
 gamm alt
! !
I K
P ress
f o
g ent
j äv
et nam
 sk juta
 S tra
 pro por
isk op
 B lu
gi on
 N at
 ta bell
est en
 w ork
met er
 samarbet ar
14 0
 gener ellt
 registr erade
 kopp lade
 meddel ade
 ham n
 Th omas
 kal orier
 säll skap
 mod ul
 nyck eln
 integr erad
 höll s
 nord iska
 avanc erad
 konfli kter
 On line
 Cl ub
. se
K ärlek
N jut
s ma
s lighet
Ö n
 d am
ed back
 är a
el ig
ter ats
 an onym
var na
ell e
 D ata
ci a
 L os
 vil da
ber ed
 U l
 te ster
 An na
 land skap
 tra g
 dö dade
 lö gn
 betal ningar
 miljö er
 Ma x
 elekt riska
 utför as
 sju ka
 vak nar
 dubb la
eff ektiv
 pat ent
ear ch
 inbeg ripet
vägagång ssätt
  )
- ka
B as
u ft
 o av
 in hem
re vs
un ivers
em än
 sk ickade
för hållanden
 ska de
 pro gress
 M exik
 kon ton
ul in
 E fter
 år ligen
ft else
 L ou
 person alen
 bet eck
sätt nings
 inom hus
 vä ck
 åter vin
par tem
 lång sam
cent rum
 läg et
tra kt
 kall at
 met oden
 poli tiken
 regi ster
18 9
 föräl dra
 sol dater
 räk nar
 dör rar
 infl uens
 Sch weiz
 produc eras
 rym den
 konsek vent
 integ ration
ningsm et
 Ir land
S te
e an
or iteten
 till god
 vi ce
as a
 ut göra
ek väm
 F er
 han teras
In g
 ty sk
rätt en
br or
kom ster
 form ulär
 främ jar
 styr elsen
rev ious
 fav ori
 orsa kas
År ets
 vak na
 bost äder
 poj ke
 grön t
 scen en
 entrepren ör
b en
i us
tt ill
om s
ing o
 en t
 u p
 an teck
 re alis
ek on
 M r
 över huvud
 C O
bet h
 T hailand
rä da
 H ome
all en
du kt
obb y
 An dre
 föräl drarna
 genomför as
Kon takta
 public eras
 public erade
 enskil d
 nega tiv
 övertyg ad
 skra tta
 US B
 klubb en
 kop ia
 förel äs
 önsk emål
 kontinuer ligt
 boll en
 Volv o
" ?

) :
H el
H os
P ra
S T
S tra
T er
h jäl
n åg
u ch
v andling
 s till
 f art
 b ytt
 p ark
 i ak
 t empel
ur ar
ol an
ol da
 när mar
 P ay
 under vis
 H elsing
je ct
 männ en
yd de
upp gift
kon to
 förb ud
 annan stans
 plan eten
 kri tik
 cir kul
 rappor tera
 bolag ets
nivå er
 mol ekyl
 fåg el
 välsig n
 gymna si
 välbef innande
0 1
5 1
P s
j k
m ium
o ider
ör de
ti ven
ed ia
ed jan
 l opp
 t yng
 t oler
ning ss
 r u
 sk it
 sk id
sta tionen
 efter åt
 kv ad
 V en
 V all
 bil dar
 ser vic
ast ående
 pr in
 fär gen
 ind ik
 värde fulla
Upp täck
 huvudsak ligen
 erk ännande
 Kar l
 Liv e
 akadem iska
 föret räd
 ; )

  €
D o
L ag
b ank
f artyg
g g
 a spekt
 k ämp
 en samma
 t w
 t el
 u m
 st äderna
sk jut
 sk ar
 S and
 S ara
 S ov
 S port
ut or
ut rustning
ak tiva
 M ay
og ni
 kon struktion
 B ang
sl in
 D on
 L ab
 K en
kl ubb
 O l
di tion
 väg rar
 best älla
 förl uster
 tal at
 äg de
väg ar
St ör
 styr kor
fall et
Sam tliga
 förhåll andet
 y oga
 Ro yal
Kon trollera
 exper iment
företag et
 knapp ast
 underhåll ning
-kon to
 Com pan
 mun nen
 Tim es
 funn it
 nämn da
 överlev nad
9 00
V ik
h jälp
t el
ö je
 d anska
 f oss
 en astående
 in ställningar
as m
li mat
 över s
ul ette
 P ol
ven tionen
 ha ha
För ra
 fl ytande
 del ade
 N u
kl äder
 fram träd
yn da
 verk ställande
 V egas
 le ka
lika tion
op era
 sta terna
 fun derar
 led sen
 kr ets
tag ande
 St ud
 håll bart
 et n
17 0
 rep ubli
 förvän tade
ferens er
 Ö ver
 yr ke
 enkla ste
