{
  "version": "1.0",
  "truncation": null,
  "padding": null,
  "added_tokens": [],
  "normalizer": null,
  "pre_tokenizer": {
    "type": "Sequence",
    "pretokenizers": [
      {
        "type": "Split",
        "pattern": {
          "Regex": "[^\\r\\n\\p{L}\\p{N}]?[\\p{Lu}\\p{Lt}\\p{Lm}\\p{Lo}\\p{M}]*[\\p{Ll}\\p{Lm}\\p{Lo}\\p{M}]+|[^\\r\\n\\p{L}\\p{N}]?[\\p{Lu}\\p{Lt}\\p{Lm}\\p{Lo}\\p{M}]+[\\p{Ll}\\p{Lm}\\p{Lo}\\p{M}]*|\\p{N}{1,3}| ?[^\\s\\p{L}\\p{N}]+[\\r\\n/]*|\\s*[\\r\\n]+|\\s+(?!\\S)|\\s+"
        },
        "behavior": "Isolated",
        "invert": false
      }
    ]
  },
  "post_processor": null,
  "decoder": null,
  "model": {
    "type": "BPE",
    "dropout": null,
    "unk_token": null,
    "continuing_subword_prefix": null,
    "end_of_word_suffix": null,
    "fuse_unk": false,
    "byte_fallback": false,
    "ignore_merges": false,
    "vocab": {
      "\n": 0,
      " ": 1,
      "!": 2,
      "\"": 3,
      "#": 4,
      "$": 5,
      "%": 6,
      "&": 7,
      "'": 8,
      "(": 9,
      ")": 10,
      "*": 11,
      "+": 12,
      ",": 13,
      "-": 14,
      ".": 15,
      "/": 16,
      "0": 17,
      "1": 18,
      "2": 19,
      "3": 20,
      "4": 21,
      "5": 22,
      "6": 23,
      "7": 24,
      "8": 25,
      "9": 26,
      ":": 27,
      ";": 28,
      "<": 29,
      "=": 30,
      ">": 31,
      "?": 32,
      "@": 33,
      "A": 34,
      "B": 35,
      "C": 36,
      "D": 37,
      "E": 38,
      "F": 39,
      "G": 40,
      "H": 41,
      "I": 42,
      "J": 43,
      "K": 44,
      "L": 45,
      "M": 46,
      "N": 47,
      "O": 48,
      "P": 49,
      "Q": 50,
      "R": 51,
      "S": 52,
      "T": 53,
      "U": 54,
      "V": 55,
      "W": 56,
      "X": 57,
      "Y": 58,
      "Z": 59,
      "[": 60,
      "\\": 61,
      "]": 62,
      "^": 63,
      "_": 64,
      "`": 65,
      "a": 66,
      "b": 67,
      "c": 68,
      "d": 69,
      "e": 70,
      "f": 71,
      "g": 72,
      "h": 73,
      "i": 74,
      "j": 75,
      "k": 76,
      "l": 77,
      "m": 78,
      "n": 79,
      "o": 80,
      "p": 81,
      "q": 82,
      "r": 83,
      "s": 84,
      "t": 85,
      "u": 86,
      "v": 87,
      "w": 88,
      "x": 89,
      "y": 90,
      "z": 91,
      "{": 92,
      "|": 93,
      "}": 94,
      "~": 95,
      "": 96,
      "": 97,
      "": 98,
      "": 99,
      "": 100,
      "": 101,
      "": 102,
      "": 103,
      "": 104,
      "": 105,
      "": 106,
      "": 107,
      "": 108,
      " ": 109,
      "¡": 110,
      "¢": 111,
      "£": 112,
      "¤": 113,
      "¥": 114,
      "§": 115,
      "¨": 116,
      "©": 117,
      "«": 118,
      "¬": 119,
      "­": 120,
      "®": 121,
      "°": 122,
      "±": 123,
      "²": 124,
      "³": 125,
      "´": 126,
      "µ": 127,
      "¶": 128,
      "·": 129,
      "¹": 130,
      "º": 131,
      "»": 132,
      "¼": 133,
      "½": 134,
      "¾": 135,
      "¿": 136,
      "À": 137,
      "Á": 138,
      "Â": 139,
      "Ã": 140,
      "Ä": 141,
      "Å": 142,
      "Æ": 143,
      "Ç": 144,
      "É": 145,
      "Ë": 146,
      "Í": 147,
      "Î": 148,
      "Ð": 149,
      "Ñ": 150,
      "Ò": 151,
      "Ó": 152,
      "Õ": 153,
      "Ö": 154,
      "×": 155,
      "Ø": 156,
      "Ú": 157,
      "Ü": 158,
      "Ý": 159,
      "Þ": 160,
      "ß": 161,
      "à": 162,
      "á": 163,
      "â": 164,
      "ã": 165,
      "ä": 166,
      "å": 167,
      "æ": 168,
      "ç": 169,
      "è": 170,
      "é": 171,
      "ê": 172,
      "ë": 173,
      "ì": 174,
      "í": 175,
      "î": 176,
      "ï": 177,
      "ð": 178,
      "ñ": 179,
      "ò": 180,
      "ó": 181,
      "ô": 182,
      "õ": 183,
      "ö": 184,
      "÷": 185,
      "ø": 186,
      "ù": 187,
      "ú": 188,
      "û": 189,
      "ü": 190,
      "ý": 191,
      "þ": 192,
      "ÿ": 193,
      "Ā": 194,
      "ā": 195,
      "Ă": 196,
      "ă": 197,
      "ą": 198,
      "ć": 199,
      "Č": 200,
      "č": 201,
      "Đ": 202,
      "đ": 203,
      "ē": 204,
      "ė": 205,
      "ę": 206,
      "ě": 207,
      "ğ": 208,
      "ī": 209,
      "İ": 210,
      "ı": 211,
      "ķ": 212,
      "ĺ": 213,
      "Ł": 214,
      "ł": 215,
      "ń": 216,
      "ō": 217,
      "ő": 218,
      "œ": 219,
      "Ś": 220,
      "ś": 221,
      "Ş": 222,
      "ş": 223,
      "Š": 224,
      "š": 225,
      "ţ": 226,
      "ū": 227,
      "ų": 228,
      "Ż": 229,
      "ż": 230,
      "Ž": 231,
      "ž": 232,
      "ƒ": 233,
      "ơ": 234,
      "ư": 235,
      "ǎ": 236,
      "ǒ": 237,
      "ǔ": 238,
      "ǧ": 239,
      "ș": 240,
      "ɑ": 241,
      "ɒ": 242,
      "ə": 243,
      "ɛ": 244,
      "ɡ": 245,
      "ɣ": 246,
      "ɸ": 247,
      "ʹ": 248,
      "ʼ": 249,
      "ˆ": 250,
      "ˈ": 251,
      "ˌ": 252,
      "ː": 253,
      "˚": 254,
      "ˮ": 255,
      "́": 256,
      "̂": 257,
      "̃": 258,
      "̈": 259,
      "̊": 260,
      "̶": 261,
      "·": 262,
      "Α": 263,
      "Β": 264,
      "Γ": 265,
      "Δ": 266,
      "Ε": 267,
      "Θ": 268,
      "Μ": 269,
      "Π": 270,
      "Σ": 271,
      "Φ": 272,
      "Ω": 273,
      "ά": 274,
      "ή": 275,
      "ί": 276,
      "α": 277,
      "β": 278,
      "γ": 279,
      "δ": 280,
      "ε": 281,
      "η": 282,
      "θ": 283,
      "ι": 284,
      "κ": 285,
      "λ": 286,
      "μ": 287,
      "ν": 288,
      "ο": 289,
      "π": 290,
      "ρ": 291,
      "ς": 292,
      "σ": 293,
      "τ": 294,
      "φ": 295,
      "χ": 296,
      "ω": 297,
      "ό": 298,
      "ύ": 299,
      "А": 300,
      "Б": 301,
      "В": 302,
      "Г": 303,
      "Д": 304,
      "Е": 305,
      "И": 306,
      "К": 307,
      "Н": 308,
      "О": 309,
      "П": 310,
      "С": 311,
      "Т": 312,
      "Э": 313,
      "Я": 314,
      "а": 315,
      "в": 316,
      "г": 317,
      "д": 318,
      "е": 319,
      "и": 320,
      "й": 321,
      "л": 322,
      "м": 323,
      "н": 324,
      "о": 325,
      "р": 326,
      "с": 327,
      "т": 328,
      "ц": 329,
      "ы": 330,
      "ј": 331,
      "Ґ": 332,
      "ӓ": 333,
      "ӧ": 334,
      "א": 335,
      "ד": 336,
      "צ": 337,
      "ا": 338,
      "ة": 339,
      "ت": 340,
      "ث": 341,
      "ج": 342,
      "ح": 343,
      "د": 344,
      "ر": 345,
      "س": 346,
      "ص": 347,
      "ع": 348,
      "ك": 349,
      "ل": 350,
      "م": 351,
      "ن": 352,
      "ه": 353,
      "و": 354,
      "ي": 355,
      "ڤ": 356,
      "ނ": 357,
      "ތ": 358,
      "ަ": 359,
      "ާ": 360,
      "ก": 361,
      "ข": 362,
      "ต": 363,
      "ธ": 364,
      "น": 365,
      "ย": 366,
      "ร": 367,
      "ส": 368,
      "ะ": 369,
      "ั": 370,
      "ิ": 371,
      "ี": 372,
      "ุ": 373,
      "เ": 374,
      "ი": 375,
      "რ": 376,
      "უ": 377,
      "ც": 378,
      "ხ": 379,
      "Ḥ": 380,
      "ḥ": 381,
      "ḳ": 382,
      "ṅ": 383,
      "ṇ": 384,
      "ṛ": 385,
      "Ṣ": 386,
      "ṣ": 387,
      "Ṭ": 388,
      "ṭ": 389,
      "ạ": 390,
      "ả": 391,
      "ầ": 392,
      "ẹ": 393,
      "ễ": 394,
      "ệ": 395,
      "ỉ": 396,
      "ị": 397,
      "ọ": 398,
      "ờ": 399,
      "ủ": 400,
      "ἀ": 401,
      "ἐ": 402,
      " ": 403,
      " ": 404,
      " ": 405,
      " ": 406,
      " ": 407,
      " ": 408,
      " ": 409,
      " ": 410,
      "​": 411,
      "‌": 412,
      "‍": 413,
      "‎": 414,
      "‏": 415,
      "‐": 416,
      "‑": 417,
      "‒": 418,
      "–": 419,
      "—": 420,
      "―": 421,
      "‘": 422,
      "’": 423,
      "‚": 424,
      "“": 425,
      "”": 426,
      "„": 427,
      "†": 428,
      "‡": 429,
      "•": 430,
      "‣": 431,
      "…": 432,
      " ": 433,
      " ": 434,
      "‬": 435,
      "‭": 436,
      " ": 437,
      "′": 438,
      "″": 439,
      "‹": 440,
      "›": 441,
      "※": 442,
      "⁃": 443,
      "⁄": 444,
      "⁰": 445,
      "⁴": 446,
      "₂": 447,
      "₤": 448,
      "€": 449,
      "℃": 450,
      "ℏ": 451,
      "№": 452,
      "℠": 453,
      "™": 454,
      "Ω": 455,
      "⅔": 456,
      "←": 457,
      "↑": 458,
      "→": 459,
      "↓": 460,
      "↩": 461,
      "↵": 462,
      "⇑": 463,
      "⇒": 464,
      "⇨": 465,
      "∈": 466,
      "∑": 467,
      "−": 468,
      "∙": 469,
      "√": 470,
      "∞": 471,
      "≈": 472,
      "≤": 473,
      "≥": 474,
      "⋅": 475,
      "①": 476,
      "⑵": 477,
      "▌": 478,
      "■": 479,
      "□": 480,
      "▪": 481,
      "▲": 482,
      "▶": 483,
      "▷": 484,
      "▸": 485,
      "►": 486,
      "▼": 487,
      "▽": 488,
      "▾": 489,
      "◄": 490,
      "◆": 491,
      "◊": 492,
      "○": 493,
      "●": 494,
      "◦": 495,
      "◾": 496,
      "★": 497,
      "☆": 498,
      "☐": 499,
      "☒": 500,
      "☕": 501,
      "☝": 502,
      "☟": 503,
      "☭": 504,
      "☺": 505,
      "♡": 506,
      "♣": 507,
      "♥": 508,
      "♦": 509,
      "♧": 510,
      "♪": 511,
      "♫": 512,
      "⚘": 513,
      "✅": 514,
      "✌": 515,
      "✎": 516,
      "✓": 517,
      "✔": 518,
      "✗": 519,
      "✰": 520,
      "❑": 521,
      "❓": 522,
      "❤": 523,
      "❥": 524,
      "➜": 525,
      "➥": 526,
      "⟵": 527,
      "⟶": 528,
      "⦁": 529,
      "⭐": 530,
      "　": 531,
      "オ": 532,
      "コ": 533,
      "ニ": 534,
      "ビ": 535,
      "リ": 536,
      "ン": 537,
      "・": 538,
      "㎡": 539,
      "万": 540,
      "世": 541,
      "中": 542,
      "主": 543,
      "五": 544,
      "人": 545,
      "会": 546,
      "光": 547,
      "公": 548,
      "共": 549,
      "军": 550,
      "华": 551,
      "协": 552,
      "協": 553,
      "台": 554,
      "司": 555,
      "命": 556,
      "和": 557,
      "团": 558,
      "国": 559,
      "國": 560,
      "大": 561,
      "山": 562,
      "岁": 563,
      "式": 564,
      "春": 565,
      "會": 566,
      "月": 567,
      "有": 568,
      "株": 569,
      "楚": 570,
      "民": 571,
      "江": 572,
      "海": 573,
      "湾": 574,
      "灣": 575,
      "狂": 576,
      "球": 577,
      "界": 578,
      "社": 579,
      "秋": 580,
      "空": 581,
      "箇": 582,
      "級": 583,
      "级": 584,
      "结": 585,
      "联": 586,
      "聯": 587,
      "臺": 588,
      "航": 589,
      "言": 590,
      "賽": 591,
      "赛": 592,
      "超": 593,
      "足": 594,
      "軍": 595,
      "鈥": 596,
      "锦": 597,
      "镜": 598,
      "际": 599,
      "限": 600,
      "集": 601,
      "革": 602,
      "낍": 603,
      "눉": 604,
      "책": 605,
      "": 606,
      "": 607,
      "": 608,
      "": 609,
      "": 610,
      "": 611,
      "": 612,
      "": 613,
      "": 614,
      "": 615,
      "": 616,
      "": 617,
      "": 618,
      "": 619,
      "": 620,
      "": 621,
      "": 622,
      "": 623,
      "": 624,
      "": 625,
      "": 626,
      "": 627,
      "": 628,
      "": 629,
      "": 630,
      "": 631,
      "": 632,
      "": 633,
      "": 634,
      "": 635,
      "": 636,
      "": 637,
      "": 638,
      "": 639,
      "": 640,
      "": 641,
      "": 642,
      "": 643,
      "": 644,
      "": 645,
      "珞": 646,
      "ﬀ": 647,
      "ﬁ": 648,
      "ﬂ": 649,
      "ﬄ": 650,
      "ﷺ": 651,
      "︎": 652,
      "️": 653,
      "﻿": 654,
      "（": 655,
      "）": 656,
      "：": 657,
      "￼": 658,
      "�": 659,
      "🇨": 660,
      "🌞": 661,
      "🌷": 662,
      "🌸": 663,
      "🍀": 664,
      "🍦": 665,
      "🍰": 666,
      "🍳": 667,
      "🍴": 668,
      "🎁": 669,
      "🎈": 670,
      "🎉": 671,
      "🎨": 672,
      "🎶": 673,
      "🎼": 674,
      "🏆": 675,
      "🏻": 676,
      "🏼": 677,
      "🏽": 678,
      "🐞": 679,
      "🐲": 680,
      "🐴": 681,
      "🐾": 682,
      "👁": 683,
      "👇": 684,
      "👌": 685,
      "👍": 686,
      "👏": 687,
      "💔": 688,
      "💕": 689,
      "💖": 690,
      "💙": 691,
      "💚": 692,
      "💜": 693,
      "💤": 694,
      "💥": 695,
      "💪": 696,
      "💰": 697,
      "📌": 698,
      "📚": 699,
      "📷": 700,
      "🔸": 701,
      "🖤": 702,
      "🗞": 703,
      "😀": 704,
      "😁": 705,
      "😂": 706,
      "😃": 707,
      "😄": 708,
      "😅": 709,
      "😆": 710,
      "😇": 711,
      "😉": 712,
      "😊": 713,
      "😋": 714,
      "😍": 715,
      "😎": 716,
      "😔": 717,
      "😕": 718,
      "😖": 719,
      "😘": 720,
      "😛": 721,
      "😜": 722,
      "😝": 723,
      "😞": 724,
      "😠": 725,
      "😢": 726,
      "😦": 727,
      "😫": 728,
      "😬": 729,
      "😭": 730,
      "😳": 731,
      "😶": 732,
      "🙁": 733,
      "🙂": 734,
      "🙆": 735,
      "🙈": 736,
      "🙉": 737,
      "🙌": 738,
      "🙏": 739,
      "🤔": 740,
      "🤗": 741,
      "🤙": 742,
      "🤛": 743,
      "🤣": 744,
      "🤩": 745,
      "🤯": 746,
      "🥂": 747,
      "🥇": 748,
      "🦋": 749,
      "🦌": 750,
      "🧡": 751,
      "🧩": 752,
      "er": 753,
      "en": 754,
      " s": 755,
      "ar": 756,
      "an": 757,
      "in": 758,
      "et": 759,
      " d": 760,
      " f": 761,
      ".\n": 762,
      " a": 763,
      "ll": 764,
      "tt": 765,
      " o": 766,
      " m": 767,
      "ör": 768,
      "ti": 769,
      "är": 770,
      " v": 771,
      " h": 772,
      "om": 773,
      " k": 774,
      "st": 775,
      " b": 776,
      "ch": 777,
      " p": 778,
      "ig": 779,
      "on": 780,
      " för": 781,
      " och": 782,
      "or": 783,
      " att": 784,
      "de": 785,
      "ing": 786,
      "na": 787,
      "ka": 788,
      " i": 789,
      "än": 790,
      "ra": 791,
      "ed": 792,
      " en": 793,
      " är": 794,
      " in": 795,
      "ag": 796,
      " g": 797,
      " l": 798,
      " t": 799,
      " av": 800,
      " ti": 801,
      " u": 802,
      " som": 803,
      "el": 804,
      " n": 805,
      "is": 806,
      "ta": 807,
      " till": 808,
      "ter": 809,
      "te": 810,
      "re": 811,
      " det": 812,
      "ck": 813,
      " på": 814,
      " e": 815,
      "lig": 816,
      " med": 817,
      "ro": 818,
      "pp": 819,
      " de": 820,
      "ning": 821,
      "der": 822,
      "ån": 823,
      " vi": 824,
      "as": 825,
      " an": 826,
      "am": 827,
      "al": 828,
      "ver": 829,
      " den": 830,
      " var": 831,
      "un": 832,
      "år": 833,
      " j": 834,
      "at": 835,
      "kt": 836,
      "ri": 837,
      " om": 838,
      " st": 839,
      " inte": 840,
      "ss": 841,
      " har": 842,
      "tion": 843,
      "il": 844,
      "ett": 845,
      "da": 846,
      "ller": 847,
      "em": 848,
      "äl": 849,
      "and": 850,
      "li": 851,
      " du": 852,
      "sk": 853,
      " r": 854,
      "ätt": 855,
      " ut": 856,
      "ade": 857,
      " kan": 858,
      "ande": 859,
      " ett": 860,
      "ur": 861,
      " be": 862,
      "lla": 863,
      "åg": 864,
      "are": 865,
      "het": 866,
      " fr": 867,
      "it": 868,
      "ad": 869,
      "omm": 870,
      "den": 871,
      "Det": 872,
      "ol": 873,
      " sk": 874,
      " ö": 875,
      "för": 876,
      " jag": 877,
      "ska": 878,
      " S": 879,
      "sta": 880,
      "äg": 881,
      "?\n": 882,
      " upp": 883,
      "ot": 884,
      "ång": 885,
      " komm": 886,
      " eller": 887,
      " så": 888,
      "si": 889,
      " re": 890,
      "ut": 891,
      " ska": 892,
      " från": 893,
      "änd": 894,
      "es": 895,
      "ak": 896,
      "itt": 897,
      "ort": 898,
      "äm": 899,
      "ent": 900,
      " un": 901,
      " pro": 902,
      "ma": 903,
      "ek": 904,
      "inn": 905,
      " A": 906,
      "ans": 907,
      "um": 908,
      " sp": 909,
      " M": 910,
      " (": 911,
      "ens": 912,
      "us": 913,
      " någ": 914,
      "la": 915,
      "fter": 916,
      "isk": 917,
      "Jag": 918,
      "iv": 919,
      "yck": 920,
      " kommer": 921,
      "ligt": 922,
      " över": 923,
      "ud": 924,
      "era": 925,
      " sam": 926,
      "var": 927,
      "va": 928,
      "dra": 929,
      "ina": 930,
      "äll": 931,
      " när": 932,
      " all": 933,
      "liga": 934,
      "og": 935,
      "änn": 936,
      " gör": 937,
      " C": 938,
      "ram": 939,
      " bar": 940,
      "ster": 941,
      " kon": 942,
      "sa": 943,
      " B": 944,
      "ff": 945,
      "ul": 946,
      "jäl": 947,
      "ser": 948,
      "!\n": 949,
      "ik": 950,
      "le": 951,
      "ell": 952,
      " ar": 953,
      "ste": 954,
      "sp": 955,
      " E": 956,
      "bet": 957,
      " P": 958,
      "Vi": 959,
      " sig": 960,
      "sl": 961,
      "äng": 962,
      "iska": 963,
      " T": 964,
      "rä": 965,
      " min": 966,
      " vara": 967,
      "kti": 968,
      "ker": 969,
      "dig": 970,
      " G": 971,
      "del": 972,
      " å": 973,
      " anv": 974,
      " under": 975,
      " man": 976,
      "20": 977,
      " dig": 978,
      "så": 979,
      "ull": 980,
      " H": 981,
      " F": 982,
      "ven": 983,
      " han": 984,
      "att": 985,
      " D": 986,
      "arna": 987,
      "yg": 988,
      "ers": 989,
      "je": 990,
      "uk": 991,
      " år": 992,
      " beh": 993,
      " må": 994,
      "bb": 995,
      " men": 996,
      " gen": 997,
      " I": 998,
      "ft": 999,
      " här": 1000,
      "pa": 1001,
      "se": 1002,
      " hel": 1003,
      " där": 1004,
      "ve": 1005,
      "ci": 1006,
      "tal": 1007,
      "inns": 1008,
      " ny": 1009,
      " alla": 1010,
      "gi": 1011,
      "ga": 1012,
      "ger": 1013,
      "ne": 1014,
      " efter": 1015,
      " L": 1016,
      "od": 1017,
      " vär": 1018,
      "art": 1019,
      " kun": 1020,
      " ock": 1021,
      "erna": 1022,
      " bli": 1023,
      "all": 1024,
      " tr": 1025,
      " också": 1026,
      "ats": 1027,
      "ok": 1028,
      "sam": 1029,
      " ha": 1030,
      "ill": 1031,
      "De": 1032,
      " ver": 1033,
      " finns": 1034,
      "För": 1035,
      " fl": 1036,
      " andra": 1037,
      "ic": 1038,
      " vill": 1039,
      "ningen": 1040,
      " K": 1041,
      " R": 1042,
      " del": 1043,
      "Den": 1044,
      " gr": 1045,
      "ling": 1046,
      " din": 1047,
      "ycket": 1048,
      "for": 1049,
      " än": 1050,
      " mig": 1051,
      " N": 1052,
      "öj": 1053,
      " c": 1054,
      " or": 1055,
      " mer": 1056,
      "ilj": 1057,
      "kl": 1058,
      " sl": 1059,
      " vis": 1060,
      " genom": 1061,
      " se": 1062,
      " ä": 1063,
      "öd": 1064,
      "os": 1065,
      " ex": 1066,
      "ningar": 1067,
      "id": 1068,
      " er": 1069,
      " detta": 1070,
      " dess": 1071,
      " dag": 1072,
      " dem": 1073,
      "itet": 1074,
      " bör": 1075,
      "..": 1076,
      " hon": 1077,
      "edan": 1078,
      "ord": 1079,
      " mycket": 1080,
      "terna": 1081,
      " fram": 1082,
      "ligen": 1083,
      "erson": 1084,
      " na": 1085,
      "yn": 1086,
      " bara": 1087,
      "und": 1088,
      "ist": 1089,
      "En": 1090,
      "ark": 1091,
      "tiv": 1092,
      "hå": 1093,
      "sö": 1094,
      " väl": 1095,
      "per": 1096,
      " vid": 1097,
      "gen": 1098,
      "land": 1099,
      "ånga": 1100,
      "ce": 1101,
      "ja": 1102,
      " få": 1103,
      "mer": 1104,
      " tv": 1105,
      " vad": 1106,
      " vil": 1107,
      " \"": 1108,
      " ing": 1109,
      "rå": 1110,
      " mot": 1111,
      " verk": 1112,
      "vis": 1113,
      "00": 1114,
      " göra": 1115,
      " någon": 1116,
      " J": 1117,
      " arbet": 1118,
      " sin": 1119,
      " ta": 1120,
      "tioner": 1121,
      "est": 1122,
      "eras": 1123,
      "Men": 1124,
      "Om": 1125,
      "ella": 1126,
      "änder": 1127,
      "ju": 1128,
      "ulle": 1129,
      " pl": 1130,
      " själ": 1131,
      " person": 1132,
      " hur": 1133,
      "cka": 1134,
      "ring": 1135,
      "sen": 1136,
      " po": 1137,
      "lem": 1138,
      "opp": 1139,
      "ld": 1140,
      " denna": 1141,
      " oss": 1142,
      " spel": 1143,
      " bet": 1144,
      "lighet": 1145,
      "som": 1146,
      " ber": 1147,
      " liv": 1148,
      "ru": 1149,
      " kl": 1150,
      "sti": 1151,
      " säg": 1152,
      "yr": 1153,
      " skulle": 1154,
      " W": 1155,
      " vår": 1156,
      "ant": 1157,
      " li": 1158,
      "dag": 1159,
      " rätt": 1160,
      " hö": 1161,
      "skap": 1162,
      " -": 1163,
      " sätt": 1164,
      "nan": 1165,
      " allt": 1166,
      "tat": 1167,
      " använd": 1168,
      "rig": 1169,
      " nu": 1170,
      "ber": 1171,
      "äk": 1172,
      " männ": 1173,
      "pl": 1174,
      " stor": 1175,
      " behö": 1176,
      " kv": 1177,
      "nad": 1178,
      " kom": 1179,
      "ende": 1180,
      "öl": 1181,
      "aren": 1182,
      "ken": 1183,
      " V": 1184,
      "ket": 1185,
      "ön": 1186,
      "yd": 1187,
      "ier": 1188,
      " br": 1189,
      "Och": 1190,
      "Du": 1191,
      " även": 1192,
      "ställ": 1193,
      " for": 1194,
      " U": 1195,
      "19": 1196,
      " ”": 1197,
      "ock": 1198,
      " vet": 1199,
      " måste": 1200,
      "ts": 1201,
      " många": 1202,
      "öm": 1203,
      " får": 1204,
      "etag": 1205,
      "ress": 1206,
      "In": 1207,
      "tid": 1208,
      " hade": 1209,
      "201": 1210,
      "ara": 1211,
      "sm": 1212,
      " utan": 1213,
      "kel": 1214,
      " något": 1215,
      "du": 1216,
      " barn": 1217,
      " –": 1218,
      " då": 1219,
      "veck": 1220,
      " hjäl": 1221,
      "äst": 1222,
      " människ": 1223,
      "bil": 1224,
      " bil": 1225,
      " bra": 1226,
      "åra": 1227,
      "des": 1228,
      "vär": 1229,
      " första": 1230,
      "yst": 1231,
      "gt": 1232,
      "ering": 1233,
      "det": 1234,
      " tid": 1235,
      " dessa": 1236,
      " le": 1237,
      "ost": 1238,
      "rar": 1239,
      "ann": 1240,
      "av": 1241,
      "ända": 1242,
      "ick": 1243,
      "im": 1244,
      "ion": 1245,
      "äker": 1246,
      "erade": 1247,
      "tionen": 1248,
      " bl": 1249,
      " inne": 1250,
      "ala": 1251,
      "lika": 1252,
      "sätt": 1253,
      "op": 1254,
      "ästa": 1255,
      " inom": 1256,
      " gång": 1257,
      " ser": 1258,
      "verk": 1259,
      "uro": 1260,
      " två": 1261,
      "ia": 1262,
      " sina": 1263,
      " själv": 1264,
      " O": 1265,
      "heter": 1266,
      " möj": 1267,
      "upp": 1268,
      "ott": 1269,
      " fort": 1270,
      " först": 1271,
      "ass": 1272,
      "man": 1273,
      " of": 1274,
      "håll": 1275,
      " ju": 1276,
      "Detta": 1277,
      "str": 1278,
      "ika": 1279,
      "åt": 1280,
      "ellan": 1281,
      " hå": 1282,
      "jän": 1283,
      " människor": 1284,
      "ov": 1285,
      "ets": 1286,
      "nat": 1287,
      "lden": 1288,
      " hem": 1289,
      "ast": 1290,
      " ri": 1291,
      "tro": 1292,
      "digt": 1293,
      "sion": 1294,
      " sm": 1295,
      "ystem": 1296,
      "När": 1297,
      "else": 1298,
      "kon": 1299,
      " utveck": 1300,
      " åt": 1301,
      "ölj": 1302,
      " hand": 1303,
      "riv": 1304,
      " ni": 1305,
      " fråg": 1306,
      " nya": 1307,
      "org": 1308,
      "gång": 1309,
      " sta": 1310,
      " fun": 1311,
      "ack": 1312,
      " ditt": 1313,
      "lev": 1314,
      "ytt": 1315,
      " mellan": 1316,
      "Han": 1317,
      "nings": 1318,
      "iga": 1319,
      "nar": 1320,
      " sak": 1321,
      " ra": 1322,
      " behöver": 1323,
      "ym": 1324,
      " ma": 1325,
      "forma": 1326,
      " börj": 1327,
      " våra": 1328,
      " olika": 1329,
      " w": 1330,
      " säker": 1331,
      "ef": 1332,
      "Hur": 1333,
      "”\n": 1334,
      "jär": 1335,
      " pre": 1336,
      " företag": 1337,
      "ägg": 1338,
      "tis": 1339,
      "ien": 1340,
      " led": 1341,
      "fr": 1342,
      " milj": 1343,
      " vä": 1344,
      "duk": 1345,
      "he": 1346,
      "mar": 1347,
      "Vad": 1348,
      " hela": 1349,
      " läng": 1350,
      ").\n": 1351,
      " ka": 1352,
      "oll": 1353,
      " hög": 1354,
      " världen": 1355,
      " vikti": 1356,
      "Var": 1357,
      " dina": 1358,
      " lag": 1359,
      " sitt": 1360,
      " gj": 1361,
      " säger": 1362,
      " int": 1363,
      "lar": 1364,
      "heten": 1365,
      ":\n": 1366,
      " mo": 1367,
      " sedan": 1368,
      "pel": 1369,
      " åter": 1370,
      " några": 1371,
      " stör": 1372,
      " deras": 1373,
      "fatt": 1374,
      "ub": 1375,
      " varje": 1376,
      "andet": 1377,
      " gå": 1378,
      "ära": 1379,
      "gr": 1380,
      " di": 1381,
      " In": 1382,
      ")\n": 1383,
      " sen": 1384,
      " pr": 1385,
      "\"\n": 1386,
      "men": 1387,
      "erar": 1388,
      " förb": 1389,
      "anska": 1390,
      " kän": 1391,
      "gram": 1392,
      "sök": 1393,
      " per": 1394,
      " gl": 1395,
      "tur": 1396,
      " blir": 1397,
      "ekt": 1398,
      "ob": 1399,
      "edel": 1400,
      "dan": 1401,
      "200": 1402,
      " kö": 1403,
      " te": 1404,
      " enda": 1405,
      "ygg": 1406,
      " ty": 1407,
      "ir": 1408,
      "formation": 1409,
      " sv": 1410,
      "tera": 1411,
      "min": 1412,
      " skall": 1413,
      " res": 1414,
      " ro": 1415,
      " honom": 1416,
      "ang": 1417,
      " ig": 1418,
      "eg": 1419,
      "erad": 1420,
      "änner": 1421,
      " hitt": 1422,
      "dom": 1423,
      "par": 1424,
      "nas": 1425,
      "net": 1426,
      " alltid": 1427,
      "usi": 1428,
      "ös": 1429,
      " fin": 1430,
      " sj": 1431,
      "...\n": 1432,
      "svar": 1433,
      "vet": 1434,
      " slut": 1435,
      "pro": 1436,
      " äl": 1437,
      "di": 1438,
      "ys": 1439,
      "arbet": 1440,
      "tor": 1441,
      " går": 1442,
      "ål": 1443,
      " el": 1444,
      " mark": 1445,
      " samma": 1446,
      " par": 1447,
      "alt": 1448,
      "äs": 1449,
      "ation": 1450,
      " bå": 1451,
      "tiska": 1452,
      " väg": 1453,
      "ank": 1454,
      "äd": 1455,
      " tro": 1456,
      "ske": 1457,
      "pe": 1458,
      "sb": 1459,
      "igt": 1460,
      ",\n": 1461,
      " hen": 1462,
      " vän": 1463,
      "olk": 1464,
      " helt": 1465,
      " hans": 1466,
      "Så": 1467,
      "uv": 1468,
      " änd": 1469,
      "gar": 1470,
      "10": 1471,
      " grund": 1472,
      "far": 1473,
      "nader": 1474,
      "blem": 1475,
      "äller": 1476,
      " varit": 1477,
      "skar": 1478,
      "dre": 1479,
      "ät": 1480,
      " vilket": 1481,
      "ebb": 1482,
      "lin": 1483,
      "ba": 1484,
      " Gud": 1485,
      " lång": 1486,
      " ur": 1487,
      "cent": 1488,
      "ellt": 1489,
      "skil": 1490,
      "ättre": 1491,
      " best": 1492,
      " information": 1493,
      "An": 1494,
      "sten": 1495,
      "utom": 1496,
      "orde": 1497,
      " läm": 1498,
      "ingen": 1499,
      " samt": 1500,
      " kunna": 1501,
      "komm": 1502,
      " använda": 1503,
      "ow": 1504,
      "äck": 1505,
      " eg": 1506,
      " läg": 1507,
      "akt": 1508,
      " mitt": 1509,
      "Att": 1510,
      " so": 1511,
      "bar": 1512,
      "vänd": 1513,
      " bästa": 1514,
      " tre": 1515,
      " ger": 1516,
      " ingen": 1517,
      " svar": 1518,
      " pen": 1519,
      " rel": 1520,
      "älla": 1521,
      " bättre": 1522,
      "anden": 1523,
      " fil": 1524,
      " trä": 1525,
      "ab": 1526,
      "anis": 1527,
      "gör": 1528,
      "gifter": 1529,
      "ingar": 1530,
      " ge": 1531,
      " följ": 1532,
      " annan": 1533,
      "ie": 1534,
      " tjän": 1535,
      " kr": 1536,
      " tän": 1537,
      " erb": 1538,
      "tiva": 1539,
      "ldrig": 1540,
      "eci": 1541,
      " arti": 1542,
      "ekn": 1543,
      " produk": 1544,
      "ten": 1545,
      " ly": 1546,
      "empel": 1547,
      "iskt": 1548,
      " förs": 1549,
      " al": 1550,
      "tar": 1551,
      "kten": 1552,
      "slut": 1553,
      " igen": 1554,
      " kra": 1555,
      "olog": 1556,
      " reg": 1557,
      "istor": 1558,
      " annat": 1559,
      " bi": 1560,
      "ug": 1561,
      " mest": 1562,
      "lek": 1563,
      "andling": 1564,
      " lite": 1565,
      " förv": 1566,
      "tra": 1567,
      "äns": 1568,
      " vin": 1569,
      "ator": 1570,
      "vs": 1571,
      " aldrig": 1572,
      "ung": 1573,
      " webb": 1574,
      " van": 1575,
      "naden": 1576,
      "enter": 1577,
      " sö": 1578,
      "talet": 1579,
      " Euro": 1580,
      " eff": 1581,
      "nabb": 1582,
      "tionella": 1583,
      " hos": 1584,
      "tta": 1585,
      " gra": 1586,
      " speci": 1587,
      "tiskt": 1588,
      "met": 1589,
      " on": 1590,
      " ord": 1591,
      " akti": 1592,
      "led": 1593,
      "uta": 1594,
      "ades": 1595,
      " fall": 1596,
      " förl": 1597,
      " si": 1598,
      "orna": 1599,
      "tag": 1600,
      "mans": 1601,
      " produ": 1602,
      " mål": 1603,
      "anta": 1604,
      "rätt": 1605,
      " tar": 1606,
      "erat": 1607,
      " komma": 1608,
      "uvud": 1609,
      " ch": 1610,
      " flera": 1611,
      "oka": 1612,
      "nen": 1613,
      "eller": 1614,
      " fär": 1615,
      "jer": 1616,
      " lever": 1617,
      "jekt": 1618,
      "ropp": 1619,
      "Med": 1620,
      "teg": 1621,
      " stora": 1622,
      "br": 1623,
      " bort": 1624,
      "Dess": 1625,
      "gär": 1626,
      " kvinn": 1627,
      " snabb": 1628,
      "baka": 1629,
      " eftersom": 1630,
      " dom": 1631,
      " egen": 1632,
      " medlem": 1633,
      " öpp": 1634,
      "tu": 1635,
      " problem": 1636,
      "kom": 1637,
      "SA": 1638,
      "ote": 1639,
      "ke": 1640,
      " blev": 1641,
      "ard": 1642,
      "obb": 1643,
      " plan": 1644,
      " ve": 1645,
      "fl": 1646,
      " val": 1647,
      "kta": 1648,
      " pa": 1649,
      " ofta": 1650,
      "unt": 1651,
      " exempel": 1652,
      " An": 1653,
      "ex": 1654,
      "kor": 1655,
      " mis": 1656,
      "pt": 1657,
      "rum": 1658,
      ".”\n": 1659,
      "Är": 1660,
      "yl": 1661,
      "Un": 1662,
      "ånd": 1663,
      " org": 1664,
      " verkligen": 1665,
      "med": 1666,
      "yra": 1667,
      " tror": 1668,
      " enligt": 1669,
      " skri": 1670,
      " tillbaka": 1671,
      " tidig": 1672,
      "pen": 1673,
      " krä": 1674,
      "oli": 1675,
      "ektiv": 1676,
      "amilj": 1677,
      "oner": 1678,
      " gäller": 1679,
      "Ett": 1680,
      "han": 1681,
      " innan": 1682,
      " sn": 1683,
      " tekn": 1684,
      "ärskil": 1685,
      "elser": 1686,
      " lär": 1687,
      " komp": 1688,
      "Har": 1689,
      " mat": 1690,
      "sför": 1691,
      " kall": 1692,
      " hjär": 1693,
      " häl": 1694,
      " off": 1695,
      " pra": 1696,
      "På": 1697,
      "ust": 1698,
      "atser": 1699,
      "ultat": 1700,
      "rid": 1701,
      " hör": 1702,
      "ående": 1703,
      "farande": 1704,
      " full": 1705,
      " lig": 1706,
      " fick": 1707,
      " sjuk": 1708,
      " natur": 1709,
      " syn": 1710,
      " vatt": 1711,
      "tig": 1712,
      "fin": 1713,
      " områ": 1714,
      "ata": 1715,
      "sak": 1716,
      "ess": 1717,
      "eh": 1718,
      "ren": 1719,
      " ner": 1720,
      "iver": 1721,
      " män": 1722,
      " rö": 1723,
      " dire": 1724,
      "nes": 1725,
      "jud": 1726,
      "lägg": 1727,
      "plats": 1728,
      " intress": 1729,
      "sammans": 1730,
      "derna": 1731,
      "cess": 1732,
      " plats": 1733,
      "las": 1734,
      " bok": 1735,
      "ler": 1736,
      "nade": 1737,
      " rå": 1738,
      "Där": 1739,
      ".\"\n": 1740,
      "if": 1741,
      " berätt": 1742,
      "eb": 1743,
      " kunde": 1744,
      "teri": 1745,
      "bild": 1746,
      " föränd": 1747,
      " kanske": 1748,
      "och": 1749,
      "ner": 1750,
      " huvud": 1751,
      "sh": 1752,
      " god": 1753,
      " land": 1754,
      "Alla": 1755,
      " sådan": 1756,
      " nam": 1757,
      " väx": 1758,
      "kar": 1759,
      "Kan": 1760,
      "mär": 1761,
      "sin": 1762,
      "kade": 1763,
      "Hon": 1764,
      "älj": 1765,
      " tra": 1766,
      " Ch": 1767,
      " mö": 1768,
      " forsk": 1769,
      "räck": 1770,
      "io": 1771,
      " kär": 1772,
      " både": 1773,
      "konom": 1774,
      " stöd": 1775,
      " använder": 1776,
      " möjlighet": 1777,
      "sn": 1778,
      "ender": 1779,
      " sy": 1780,
      " särskil": 1781,
      " hjälp": 1782,
      "alitet": 1783,
      " program": 1784,
      " utveckling": 1785,
      " histor": 1786,
      " kropp": 1787,
      " em": 1788,
      "rist": 1789,
      " lå": 1790,
      " dra": 1791,
      " bland": 1792,
      " erbju": 1793,
      " artikel": 1794,
      " fle": 1795,
      " saker": 1796,
      " met": 1797,
      " lä": 1798,
      " familj": 1799,
      "giv": 1800,
      " form": 1801,
      " lätt": 1802,
      "pan": 1803,
      "samhet": 1804,
      " lik": 1805,
      "Till": 1806,
      "),": 1807,
      " redan": 1808,
      "ycker": 1809,
      "15": 1810,
      " säga": 1811,
      " mina": 1812,
      " jobb": 1813,
      "årt": 1814,
      "”.\n": 1815,
      " poli": 1816,
      " gam": 1817,
      " .\n": 1818,
      "ister": 1819,
      " idag": 1820,
      " ekonom": 1821,
      " regi": 1822,
      " hän": 1823,
      " dö": 1824,
      "Som": 1825,
      " personer": 1826,
      "ry": 1827,
      " fortfarande": 1828,
      "enskap": 1829,
      " mindre": 1830,
      " risk": 1831,
      " bek": 1832,
      "form": 1833,
      "terar": 1834,
      " dock": 1835,
      " tidigare": 1836,
      "sf": 1837,
      "äv": 1838,
      " St": 1839,
      " gjort": 1840,
      " interna": 1841,
      "Här": 1842,
      "ret": 1843,
      "slag": 1844,
      "18": 1845,
      "tik": 1846,
      "tet": 1847,
      " enkel": 1848,
      " ligger": 1849,
      "red": 1850,
      " tillsammans": 1851,
      "aste": 1852,
      " lö": 1853,
      " fri": 1854,
      " kontro": 1855,
      " väldigt": 1856,
      " ställ": 1857,
      " vissa": 1858,
      " endast": 1859,
      " red": 1860,
      "orm": 1861,
      "spro": 1862,
      "stånd": 1863,
      " tal": 1864,
      " skyd": 1865,
      "gon": 1866,
      "Efter": 1867,
      "lag": 1868,
      " system": 1869,
      " im": 1870,
      "oh": 1871,
      " ob": 1872,
      " inkl": 1873,
      "ivå": 1874,
      " håll": 1875,
      " soci": 1876,
      "rott": 1877,
      "ument": 1878,
      " procent": 1879,
      " Vi": 1880,
      "amma": 1881,
      " förstå": 1882,
      " rör": 1883,
      " EU": 1884,
      "Denna": 1885,
      " inneb": 1886,
      " fast": 1887,
      "häll": 1888,
      "ivers": 1889,
      "gäng": 1890,
      " dr": 1891,
      "Varför": 1892,
      " hjälpa": 1893,
      " möjligt": 1894,
      "ind": 1895,
      " längre": 1896,
      " inter": 1897,
      " fak": 1898,
      " folk": 1899,
      " USA": 1900,
      " ytt": 1901,
      "jur": 1902,
      " fortsätt": 1903,
      "Nu": 1904,
      " bak": 1905,
      "Sk": 1906,
      " kor": 1907,
      "män": 1908,
      " hus": 1909,
      "000": 1910,
      " sa": 1911,
      " pengar": 1912,
      "från": 1913,
      " Y": 1914,
      "All": 1915,
      " [": 1916,
      " organis": 1917,
      " tiden": 1918,
      " största": 1919,
      "ämp": 1920,
      " and": 1921,
      "klar": 1922,
      "bart": 1923,
      " läk": 1924,
      "spel": 1925,
      " försö": 1926,
      " tag": 1927,
      " kons": 1928,
      "fi": 1929,
      " värld": 1930,
      "anc": 1931,
      " pris": 1932,
      " fel": 1933,
      "ris": 1934,
      "ari": 1935,
      "olag": 1936,
      "yndig": 1937,
      " data": 1938,
      " äg": 1939,
      "ård": 1940,
      " vatten": 1941,
      "ligare": 1942,
      "drag": 1943,
      " bestäm": 1944,
      " produkter": 1945,
      " kost": 1946,
      " fler": 1947,
      "håller": 1948,
      "väg": 1949,
      " därför": 1950,
      "me": 1951,
      "Fr": 1952,
      " känner": 1953,
      " kli": 1954,
      "ps": 1955,
      " sex": 1956,
      " kvinnor": 1957,
      "oende": 1958,
      "30": 1959,
      "uter": 1960,
      " vårt": 1961,
      " flyg": 1962,
      " förm": 1963,
      " ansvar": 1964,
      " resultat": 1965,
      " fem": 1966,
      " ener": 1967,
      "tisk": 1968,
      " bety": 1969,
      "12": 1970,
      "\".\n": 1971,
      " främ": 1972,
      "äpp": 1973,
      " to": 1974,
      " beslut": 1975,
      " skapa": 1976,
      "bland": 1977,
      " kul": 1978,
      "ige": 1979,
      "ay": 1980,
      " henne": 1981,
      " En": 1982,
      "St": 1983,
      "ubli": 1984,
      " används": 1985,
      "till": 1986,
      " tim": 1987,
      "bo": 1988,
      " före": 1989,
      " sid": 1990,
      " und": 1991,
      "alis": 1992,
      " utt": 1993,
      " förbätt": 1994,
      "ästan": 1995,
      "pi": 1996,
      "änk": 1997,
      " funk": 1998,
      "Under": 1999,
      "ej": 2000,
      "tering": 2001,
      " dagar": 2002,
      "so": 2003,
      " flesta": 2004,
      " nog": 2005,
      "ac": 2006,
      "fri": 2007,
      "...": 2008,
      " stud": 2009,
      "ha": 2010,
      "ev": 2011,
      " viktigt": 2012,
      " rikti": 2013,
      "port": 2014,
      " jäm": 2015,
      " veck": 2016,
      " nära": 2017,
      " räd": 2018,
      "cis": 2019,
      "one": 2020,
      "Ut": 2021,
      " säkerhet": 2022,
      " stu": 2023,
      " runt": 2024,
      "kan": 2025,
      " bygg": 2026,
      "vit": 2027,
      " fot": 2028,
      " öka": 2029,
      " pla": 2030,
      " hitta": 2031,
      " tillgäng": 2032,
      " kort": 2033,
      " gjorde": 2034,
      "åga": 2035,
      " visar": 2036,
      "van": 2037,
      " död": 2038,
      " större": 2039,
      "ften": 2040,
      "tas": 2041,
      "föra": 2042,
      " lika": 2043,
      "yt": 2044,
      "50": 2045,
      "vent": 2046,
      " länder": 2047,
      " star": 2048,
      " själva": 2049,
      "ännu": 2050,
      "bara": 2051,
      " samhäll": 2052,
      ":s": 2053,
      "sig": 2054,
      " kvar": 2055,
      " trans": 2056,
      "ission": 2057,
      "andra": 2058,
      "äder": 2059,
      "Vil": 2060,
      "andel": 2061,
      " stat": 2062,
      "sst": 2063,
      "val": 2064,
      " allmän": 2065,
      " gem": 2066,
      " ännu": 2067,
      "line": 2068,
      " namn": 2069,
      " ih": 2070,
      "ons": 2071,
      "ew": 2072,
      " grupp": 2073,
      "dar": 2074,
      " innebär": 2075,
      " dri": 2076,
      " händer": 2077,
      "ffär": 2078,
      "terade": 2079,
      "ationer": 2080,
      " börjar": 2081,
      " hennes": 2082,
      " senaste": 2083,
      "tade": 2084,
      " tred": 2085,
      " konta": 2086,
      "vä": 2087,
      "ansi": 2088,
      " ung": 2089,
      " vilken": 2090,
      " omfatt": 2091,
      "elsen": 2092,
      "merik": 2093,
      "otell": 2094,
      " bor": 2095,
      " sti": 2096,
      "igheter": 2097,
      "Man": 2098,
      "gel": 2099,
      " ön": 2100,
      "jus": 2101,
      "bel": 2102,
      "varande": 2103,
      "vi": 2104,
      " kommun": 2105,
      " viktiga": 2106,
      "fär": 2107,
      " marknad": 2108,
      " enkelt": 2109,
      "ringar": 2110,
      " bas": 2111,
      " “": 2112,
      " styr": 2113,
      "tr": 2114,
      "yll": 2115,
      "ong": 2116,
      " samarbet": 2117,
      " hålla": 2118,
      "ras": 2119,
      " lös": 2120,
      " hopp": 2121,
      " För": 2122,
      "rev": 2123,
      " direkt": 2124,
      "tidigt": 2125,
      " varför": 2126,
      "verka": 2127,
      " Sver": 2128,
      " fråga": 2129,
      "hör": 2130,
      "gräns": 2131,
      "terial": 2132,
      " aktiv": 2133,
      " ned": 2134,
      "por": 2135,
      "ity": 2136,
      "satt": 2137,
      "xt": 2138,
      " nöd": 2139,
      "tivt": 2140,
      " ad": 2141,
      "dade": 2142,
      "örer": 2143,
      " fått": 2144,
      " blivit": 2145,
      "Dessa": 2146,
      " små": 2147,
      " betal": 2148,
      "fer": 2149,
      " tycker": 2150,
      " erbjuder": 2151,
      "ori": 2152,
      "unk": 2153,
      "ge": 2154,
      " inför": 2155,
      " nästan": 2156,
      "inner": 2157,
      " älskar": 2158,
      " stra": 2159,
      "eter": 2160,
      " skol": 2161,
      " byg": 2162,
      "cke": 2163,
      " typ": 2164,
      " prof": 2165,
      " åtgär": 2166,
      " bed": 2167,
      "skri": 2168,
      " inve": 2169,
      "illar": 2170,
      " vilka": 2171,
      " projekt": 2172,
      " behandling": 2173,
      " nytt": 2174,
      "råk": 2175,
      "peiska": 2176,
      " tjänster": 2177,
      "ice": 2178,
      "iten": 2179,
      " särskilt": 2180,
      "our": 2181,
      " står": 2182,
      " ind": 2183,
      " nät": 2184,
      "dens": 2185,
      " inget": 2186,
      "ars": 2187,
      "unkt": 2188,
      " Un": 2189,
      " livet": 2190,
      " The": 2191,
      " loka": 2192,
      " rapp": 2193,
      " förh": 2194,
      " arbete": 2195,
      " op": 2196,
      " skap": 2197,
      " ytter": 2198,
      " bef": 2199,
      " ögon": 2200,
      "ständ": 2201,
      " rum": 2202,
      "lan": 2203,
      " ter": 2204,
      " länge": 2205,
      " kam": 2206,
      "yk": 2207,
      "uella": 2208,
      " senare": 2209,
      "över": 2210,
      "hus": 2211,
      " konst": 2212,
      " tillgång": 2213,
      " energi": 2214,
      " et": 2215,
      "iner": 2216,
      "16": 2217,
      "onen": 2218,
      " &": 2219,
      "Pro": 2220,
      " uppf": 2221,
      " just": 2222,
      "res": 2223,
      "samma": 2224,
      " mas": 2225,
      " Europa": 2226,
      " bel": 2227,
      " miljoner": 2228,
      "100": 2229,
      " samman": 2230,
      " gånger": 2231,
      " amerik": 2232,
      " funger": 2233,
      "ligtvis": 2234,
      " euro": 2235,
      "sett": 2236,
      " musi": 2237,
      "rik": 2238,
      "to": 2239,
      "Även": 2240,
      " via": 2241,
      " icke": 2242,
      "raf": 2243,
      "ral": 2244,
      " uppt": 2245,
      "öst": 2246,
      "dent": 2247,
      " webbplats": 2248,
      "olen": 2249,
      " fyra": 2250,
      "sättning": 2251,
      "oder": 2252,
      "ran": 2253,
      " affär": 2254,
      "199": 2255,
      "skriv": 2256,
      " kärlek": 2257,
      " Det": 2258,
      " utbild": 2259,
      " miljö": 2260,
      "orn": 2261,
      " id": 2262,
      " kör": 2263,
      "unda": 2264,
      " fanta": 2265,
      "11": 2266,
      "ron": 2267,
      " dagen": 2268,
      " spela": 2269,
      "okus": 2270,
      "Allt": 2271,
      "faren": 2272,
      "mat": 2273,
      "rukt": 2274,
      " part": 2275,
      "cker": 2276,
      " förlor": 2277,
      " tredje": 2278,
      "ins": 2279,
      " faktiskt": 2280,
      "denti": 2281,
      " cent": 2282,
      " ci": 2283,
      "enom": 2284,
      " gick": 2285,
      "inna": 2286,
      "förs": 2287,
      " veta": 2288,
      " frågor": 2289,
      " behov": 2290,
      "Min": 2291,
      "ött": 2292,
      " lu": 2293,
      " nödvänd": 2294,
      " kri": 2295,
      "cen": 2296,
      "ighet": 2297,
      "ton": 2298,
      "sikt": 2299,
      "usive": 2300,
      "Inte": 2301,
      " tog": 2302,
      "uss": 2303,
      " kunder": 2304,
      " började": 2305,
      "]\n": 2306,
      "ställa": 2307,
      "els": 2308,
      " stort": 2309,
      " såg": 2310,
      "dera": 2311,
      " tur": 2312,
      " posi": 2313,
      " sade": 2314,
      " far": 2315,
      "rupp": 2316,
      " teknik": 2317,
      "17": 2318,
      "Vis": 2319,
      "fäll": 2320,
      " Sverige": 2321,
      " str": 2322,
      "itu": 2323,
      "fall": 2324,
      "no": 2325,
      " steg": 2326,
      "-p": 2327,
      " rekomm": 2328,
      " effektiv": 2329,
      "lick": 2330,
      " delar": 2331,
      " rep": 2332,
      "14": 2333,
      " lära": 2334,
      "yp": 2335,
      " Re": 2336,
      " egna": 2337,
      "vid": 2338,
      " Ar": 2339,
      " varandra": 2340,
      "ration": 2341,
      " uppgifter": 2342,
      " finansi": 2343,
      "ux": 2344,
      "co": 2345,
      " sjukdom": 2346,
      " Mar": 2347,
      " gången": 2348,
      " fann": 2349,
      " förut": 2350,
      "ternativ": 2351,
      "cy": 2352,
      "ond": 2353,
      "spr": 2354,
      " framti": 2355,
      " tillämp": 2356,
      " båda": 2357,
      "fråg": 2358,
      "ings": 2359,
      " nästa": 2360,
      " Jag": 2361,
      " medan": 2362,
      " köpa": 2363,
      " arbetar": 2364,
      " träff": 2365,
      " månader": 2366,
      " snabbt": 2367,
      " emot": 2368,
      "tionell": 2369,
      "nande": 2370,
      "get": 2371,
      "orer": 2372,
      " välja": 2373,
      "enti": 2374,
      " myndig": 2375,
      " invester": 2376,
      "ou": 2377,
      "stad": 2378,
      " behand": 2379,
      "Någ": 2380,
      "asin": 2381,
      " liten": 2382,
      "Då": 2383,
      "delse": 2384,
      " håller": 2385,
      " vänner": 2386,
      "ork": 2387,
      " mänsk": 2388,
      " besök": 2389,
      " ol": 2390,
      " beg": 2391,
      " svårt": 2392,
      " minska": 2393,
      "13": 2394,
      " tillräck": 2395,
      "lam": 2396,
      " vack": 2397,
      "under": 2398,
      " precis": 2399,
      "ses": 2400,
      "ningarna": 2401,
      " blod": 2402,
      "icka": 2403,
      " hjälper": 2404,
      " nå": 2405,
      " framgång": 2406,
      "kte": 2407,
      "dern": 2408,
      "vik": 2409,
      " pri": 2410,
      "enhet": 2411,
      " disk": 2412,
      "hålla": 2413,
      " förvän": 2414,
      " erfaren": 2415,
      " föräl": 2416,
      "ap": 2417,
      " timmar": 2418,
      "ita": 2419,
      " handlar": 2420,
      "lad": 2421,
      "elef": 2422,
      " djur": 2423,
      "Komm": 2424,
      " fokus": 2425,
      "ktiv": 2426,
      "pul": 2427,
      " innehåller": 2428,
      " riktigt": 2429,
      "kur": 2430,
      " reger": 2431,
      " hal": 2432,
      "rat": 2433,
      "ine": 2434,
      " ytterligare": 2435,
      "ite": 2436,
      " näm": 2437,
      " dator": 2438,
      "alen": 2439,
      " stad": 2440,
      "Många": 2441,
      "yss": 2442,
      "its": 2443,
      " online": 2444,
      "”,": 2445,
      " publi": 2446,
      " skill": 2447,
      " pass": 2448,
      " process": 2449,
      " app": 2450,
      "eln": 2451,
      " ljus": 2452,
      "unden": 2453,
      "ktyg": 2454,
      " början": 2455,
      " the": 2456,
      " lycka": 2457,
      "ror": 2458,
      " sett": 2459,
      " fantasti": 2460,
      " glob": 2461,
      " ne": 2462,
      "cep": 2463,
      " inga": 2464,
      " fördel": 2465,
      " sådana": 2466,
      "25": 2467,
      " året": 2468,
      " /": 2469,
      "ember": 2470,
      "olu": 2471,
      " tills": 2472,
      " nivå": 2473,
      "teras": 2474,
      " fungerar": 2475,
      " kvalitet": 2476,
      " pati": 2477,
      " inklusive": 2478,
      " desig": 2479,
      " bild": 2480,
      "sra": 2481,
      "ölja": 2482,
      "Sam": 2483,
      "vän": 2484,
      " Pro": 2485,
      " inf": 2486,
      "kän": 2487,
      "öv": 2488,
      " följande": 2489,
      "uppgifter": 2490,
      "\",": 2491,
      " bud": 2492,
      " känna": 2493,
      "up": 2494,
      "orden": 2495,
      "ana": 2496,
      " fi": 2497,
      " forskning": 2498,
      "iet": 2499,
      " produkt": 2500,
      " ab": 2501,
      " användning": 2502,
      "fik": 2503,
      " by": 2504,
      " sista": 2505,
      "snitt": 2506,
      " förbättra": 2507,
      " öv": 2508,
      " ann": 2509,
      " begräns": 2510,
      " långt": 2511,
      " antal": 2512,
      " offent": 2513,
      "ox": 2514,
      " betyder": 2515,
      "går": 2516,
      " identi": 2517,
      " kraft": 2518,
      "..\n": 2519,
      " ute": 2520,
      " ac": 2521,
      " borde": 2522,
      " köp": 2523,
      " :": 2524,
      "borg": 2525,
      " mäng": 2526,
      " minuter": 2527,
      " helst": 2528,
      "ssta": 2529,
      " förhåll": 2530,
      " Ma": 2531,
      " Fr": 2532,
      " användas": 2533,
      " vidare": 2534,
      " roll": 2535,
      " ens": 2536,
      "räd": 2537,
      " perf": 2538,
      " avsl": 2539,
      " världens": 2540,
      " mil": 2541,
      "äss": 2542,
      "ösa": 2543,
      "eder": 2544,
      " fakt": 2545,
      "rit": 2546,
      " åtgärder": 2547,
      "tes": 2548,
      " gamla": 2549,
      " gillar": 2550,
      " ren": 2551,
      " verksamhet": 2552,
      " samtidigt": 2553,
      "Se": 2554,
      "olis": 2555,
      "icin": 2556,
      " sidan": 2557,
      "int": 2558,
      "handa": 2559,
      " minst": 2560,
      " haft": 2561,
      "spek": 2562,
      "juk": 2563,
      " ang": 2564,
      "ruktur": 2565,
      "ök": 2566,
      "use": 2567,
      " internationella": 2568,
      " sym": 2569,
      "Ja": 2570,
      " krig": 2571,
      " inb": 2572,
      " anal": 2573,
      " go": 2574,
      " tack": 2575,
      "tions": 2576,
      " univers": 2577,
      " värde": 2578,
      "lade": 2579,
      "stitu": 2580,
      " äm": 2581,
      " fas": 2582,
      "bas": 2583,
      " material": 2584,
      "ubb": 2585,
      " släpp": 2586,
      " läsa": 2587,
      "stället": 2588,
      " gemens": 2589,
      "esus": 2590,
      "len": 2591,
      " fa": 2592,
      " New": 2593,
      "sprung": 2594,
      " tillfäll": 2595,
      "tem": 2596,
      "ordning": 2597,
      "dagen": 2598,
      "system": 2599,
      " fru": 2600,
      " börja": 2601,
      " flytt": 2602,
      " tyd": 2603,
      " verkar": 2604,
      " högre": 2605,
      " viktig": 2606,
      "anna": 2607,
      " mär": 2608,
      "issionen": 2609,
      " natt": 2610,
      " kontroller": 2611,
      "tim": 2612,
      "ore": 2613,
      "avsett": 2614,
      " Guds": 2615,
      " fatt": 2616,
      " någonsin": 2617,
      " vem": 2618,
      "grupp": 2619,
      " tank": 2620,
      " Go": 2621,
      " De": 2622,
      "by": 2623,
      "sol": 2624,
      "Vid": 2625,
      " elekt": 2626,
      "ya": 2627,
      " mag": 2628,
      " visa": 2629,
      " innehåll": 2630,
      " gener": 2631,
      "ännande": 2632,
      " situ": 2633,
      " fanns": 2634,
      " Her": 2635,
      "drar": 2636,
      " ganska": 2637,
      " anställ": 2638,
      "unn": 2639,
      "iteten": 2640,
      " rekommender": 2641,
      "lats": 2642,
      " enlighet": 2643,
      " cir": 2644,
      " %": 2645,
      " blog": 2646,
      " kar": 2647,
      "ns": 2648,
      " skicka": 2649,
      " bilder": 2650,
      " tillhanda": 2651,
      "ester": 2652,
      " defin": 2653,
      "Därför": 2654,
      "ater": 2655,
      "kn": 2656,
      " såsom": 2657,
      " sag": 2658,
      " mör": 2659,
      " alternativ": 2660,
      "stå": 2661,
      " bo": 2662,
      " råd": 2663,
      "kv": 2664,
      "…\n": 2665,
      "staur": 2666,
      " indiv": 2667,
      "diga": 2668,
      " orsak": 2669,
      "-talet": 2670,
      "fil": 2671,
      " sociala": 2672,
      " y": 2673,
      " gar": 2674,
      " tem": 2675,
      " uppn": 2676,
      "märk": 2677,
      " utman": 2678,
      " genomför": 2679,
      "fte": 2680,
      "cer": 2681,
      " Z": 2682,
      "Läs": 2683,
      "Upp": 2684,
      " film": 2685,
      " kallas": 2686,
      "40": 2687,
      " sven": 2688,
      " lämna": 2689,
      "ationen": 2690,
      "Eller": 2691,
      "lo": 2692,
      "nam": 2693,
      " kunskap": 2694,
      " komb": 2695,
      "ting": 2696,
      "tals": 2697,
      "Re": 2698,
      "Sedan": 2699,
      "rust": 2700,
      " tänka": 2701,
      " framför": 2702,
      " kol": 2703,
      "uti": 2704,
      " alltså": 2705,
      " hemma": 2706,
      " inv": 2707,
      " Sh": 2708,
      " spelar": 2709,
      " historia": 2710,
      "rade": 2711,
      " sol": 2712,
      "ansk": 2713,
      " ål": 2714,
      "kter": 2715,
      " registr": 2716,
      " dröm": 2717,
      "bi": 2718,
      "ium": 2719,
      " kopp": 2720,
      " extra": 2721,
      " test": 2722,
      "emang": 2723,
      "lex": 2724,
      " skriv": 2725,
      "ui": 2726,
      " kräver": 2727,
      "atur": 2728,
      "söka": 2729,
      " låg": 2730,
      " resa": 2731,
      " utbildning": 2732,
      "derar": 2733,
      "usen": 2734,
      "ism": 2735,
      " jord": 2736,
      " landet": 2737,
      "gift": 2738,
      "lament": 2739,
      "gå": 2740,
      " hotell": 2741,
      " idé": 2742,
      " heller": 2743,
      " meddel": 2744,
      "verkar": 2745,
      " musik": 2746,
      "igh": 2747,
      "amp": 2748,
      " vilja": 2749,
      "mark": 2750,
      " låt": 2751,
      " krävs": 2752,
      " vå": 2753,
      " utanför": 2754,
      " träd": 2755,
      "sla": 2756,
      " föd": 2757,
      " koll": 2758,
      " använ": 2759,
      " popul": 2760,
      " staden": 2761,
      " marknaden": 2762,
      " ursprung": 2763,
      " tillräckligt": 2764,
      "inci": 2765,
      "ummer": 2766,
      " arbeta": 2767,
      "lien": 2768,
      "ssystem": 2769,
      "ligheten": 2770,
      " kontroll": 2771,
      " sek": 2772,
      " jämför": 2773,
      " ibland": 2774,
      "ph": 2775,
      "ryck": 2776,
      "indra": 2777,
      " ovan": 2778,
      " försöker": 2779,
      "Av": 2780,
      " skydd": 2781,
      "band": 2782,
      "undra": 2783,
      " Sk": 2784,
      " hår": 2785,
      " känn": 2786,
      "iss": 2787,
      " Fa": 2788,
      " känsl": 2789,
      "Varje": 2790,
      "ulla": 2791,
      " anled": 2792,
      "Vill": 2793,
      "nova": 2794,
      "ikation": 2795,
      " mode": 2796,
      "stag": 2797,
      " Ro": 2798,
      "ferens": 2799,
      " medvet": 2800,
      " uppnå": 2801,
      " tradi": 2802,
      "Ska": 2803,
      " su": 2804,
      " Le": 2805,
      " utveckla": 2806,
      "Ar": 2807,
      " arbets": 2808,
      " rappor": 2809,
      "ätta": 2810,
      "tre": 2811,
      "Kon": 2812,
      " äta": 2813,
      " mobil": 2814,
      " vide": 2815,
      "eri": 2816,
      " konkur": 2817,
      " områden": 2818,
      "dor": 2819,
      " rättigheter": 2820,
      " ville": 2821,
      " Al": 2822,
      " maj": 2823,
      "komst": 2824,
      "lut": 2825,
      "tigt": 2826,
      " presen": 2827,
      " insta": 2828,
      " ändå": 2829,
      " hund": 2830,
      "smedel": 2831,
      " ko": 2832,
      "ppa": 2833,
      "chen": 2834,
      "skaper": 2835,
      "skt": 2836,
      " kyr": 2837,
      " ins": 2838,
      "Genom": 2839,
      " räk": 2840,
      "60": 2841,
      " utom": 2842,
      "plan": 2843,
      "ionen": 2844,
      "vice": 2845,
      " lo": 2846,
      " villkor": 2847,
      " teck": 2848,
      " vägen": 2849,
      "24": 2850,
      "Vem": 2851,
      "vara": 2852,
      " Co": 2853,
      "Dessutom": 2854,
      " lämp": 2855,
      "qu": 2856,
      " leva": 2857,
      " Mo": 2858,
      " fortsätta": 2859,
      "tiga": 2860,
      " åren": 2861,
      "ever": 2862,
      " lev": 2863,
      " älska": 2864,
      " Man": 2865,
      " spelare": 2866,
      " vetenskap": 2867,
      " fortsätter": 2868,
      " sagt": 2869,
      " profess": 2870,
      "stri": 2871,
      " effek": 2872,
      " Stor": 2873,
      "rådet": 2874,
      " ihåg": 2875,
      " upplev": 2876,
      " grän": 2877,
      "skatt": 2878,
      "bl": 2879,
      "uld": 2880,
      "öjd": 2881,
      "Ingen": 2882,
      " vanliga": 2883,
      " snart": 2884,
      " ant": 2885,
      "inne": 2886,
      " kväll": 2887,
      " sida": 2888,
      " slag": 2889,
      "fier": 2890,
      " följa": 2891,
      " handel": 2892,
      " skriver": 2893,
      " prakti": 2894,
      " funktion": 2895,
      " dok": 2896,
      " trän": 2897,
      "tighet": 2898,
      "her": 2899,
      " exper": 2900,
      "ich": 2901,
      "ologi": 2902,
      "bu": 2903,
      " bäst": 2904,
      " norm": 2905,
      " medicin": 2906,
      "mal": 2907,
      " dju": 2908,
      "orgon": 2909,
      " slutet": 2910,
      "ogle": 2911,
      " skriva": 2912,
      " läkem": 2913,
      " kultur": 2914,
      " allvar": 2915,
      " lägga": 2916,
      "entligen": 2917,
      " öppna": 2918,
      "cera": 2919,
      "öcker": 2920,
      "urser": 2921,
      "sikti": 2922,
      "räff": 2923,
      "tan": 2924,
      " vecka": 2925,
      " amerikanska": 2926,
      "väm": 2927,
      " dör": 2928,
      " tänker": 2929,
      "dant": 2930,
      " hittar": 2931,
      " telef": 2932,
      " inklu": 2933,
      "be": 2934,
      "åter": 2935,
      " förklar": 2936,
      " stand": 2937,
      " regel": 2938,
      " medel": 2939,
      " språk": 2940,
      "lingar": 2941,
      " ers": 2942,
      " fys": 2943,
      " kn": 2944,
      " fred": 2945,
      "program": 2946,
      " ,": 2947,
      "ancer": 2948,
      "stans": 2949,
      " lyss": 2950,
      "väl": 2951,
      "napp": 2952,
      " redo": 2953,
      " fören": 2954,
      " påverka": 2955,
      "kra": 2956,
      "läg": 2957,
      "lös": 2958,
      " eget": 2959,
      " gär": 2960,
      " kommit": 2961,
      "omen": 2962,
      "Låt": 2963,
      " klass": 2964,
      " aktivitet": 2965,
      "age": 2966,
      "mare": 2967,
      "ors": 2968,
      "ograf": 2969,
      "ey": 2970,
      " X": 2971,
      "öll": 2972,
      " event": 2973,
      " verktyg": 2974,
      "tjän": 2975,
      " Den": 2976,
      "ydd": 2977,
      " glöm": 2978,
      "platser": 2979,
      " innova": 2980,
      " indu": 2981,
      "står": 2982,
      " titt": 2983,
      "ER": 2984,
      " klar": 2985,
      " akt": 2986,
      "repp": 2987,
      " ev": 2988,
      "kla": 2989,
      " ap": 2990,
      "seende": 2991,
      " sluta": 2992,
      " ändra": 2993,
      "!!\n": 2994,
      "etter": 2995,
      " Du": 2996,
      "198": 2997,
      " hoppas": 2998,
      " säl": 2999,
      "ela": 3000,
      " co": 3001,
      "göra": 3002,
      "eringen": 3003,
      "vin": 3004,
      " Ad": 3005,
      "ycka": 3006,
      "visa": 3007,
      "Från": 3008,
      "äcka": 3009,
      "örj": 3010,
      " gratis": 3011,
      "öt": 3012,
      " försök": 3013,
      "aga": 3014,
      " utför": 3015,
      " san": 3016,
      " försv": 3017,
      "pass": 3018,
      " kroppen": 3019,
      "växt": 3020,
      "minist": 3021,
      "bud": 3022,
      "gra": 3023,
      "öp": 3024,
      " bakom": 3025,
      " skatt": 3026,
      " kontakt": 3027,
      " platser": 3028,
      "tegi": 3029,
      " väljer": 3030,
      " hälsa": 3031,
      " brott": 3032,
      " uppda": 3033,
      "när": 3034,
      " gav": 3035,
      "otenti": 3036,
      " Fin": 3037,
      "ec": 3038,
      "po": 3039,
      "ement": 3040,
      " användare": 3041,
      "Enligt": 3042,
      " års": 3043,
      " ekonomiska": 3044,
      " ...\n": 3045,
      " färg": 3046,
      "ida": 3047,
      " ps": 3048,
      "företag": 3049,
      " månad": 3050,
      " behövs": 3051,
      "efär": 3052,
      " bygga": 3053,
      " området": 3054,
      "ham": 3055,
      " Jesus": 3056,
      " erfarenhet": 3057,
      "följ": 3058,
      " version": 3059,
      " typer": 3060,
      " vux": 3061,
      "ont": 3062,
      " ålder": 3063,
      " Ö": 3064,
      "iti": 3065,
      "rän": 3066,
      "sed": 3067,
      " egentligen": 3068,
      " medlemssta": 3069,
      "Ta": 3070,
      "kring": 3071,
      "anda": 3072,
      "stift": 3073,
      "bruk": 3074,
      "olm": 3075,
      "otter": 3076,
      "äkring": 3077,
      " upptäck": 3078,
      " defini": 3079,
      "dde": 3080,
      "full": 3081,
      "oci": 3082,
      " sh": 3083,
      "äkra": 3084,
      " tjänst": 3085,
      "rip": 3086,
      " fav": 3087,
      " beroende": 3088,
      " säkert": 3089,
      " Joh": 3090,
      "Tack": 3091,
      "efter": 3092,
      " bolag": 3093,
      "lever": 3094,
      "arder": 3095,
      " punkt": 3096,
      " gott": 3097,
      " relig": 3098,
      "mi": 3099,
      "ly": 3100,
      "fika": 3101,
      " rikt": 3102,
      "ollar": 3103,
      "ea": 3104,
      " pas": 3105,
      "lit": 3106,
      " oro": 3107,
      "orit": 3108,
      " skyl": 3109,
      "delser": 3110,
      "ög": 3111,
      "kas": 3112,
      "eck": 3113,
      " kvinna": 3114,
      "ies": 3115,
      "kin": 3116,
      "ysk": 3117,
      " dist": 3118,
      " mor": 3119,
      " förn": 3120,
      " istället": 3121,
      " finnas": 3122,
      " försälj": 3123,
      "EN": 3124,
      "klart": 3125,
      " tillgängliga": 3126,
      "pon": 3127,
      " övert": 3128,
      " äldre": 3129,
      " gått": 3130,
      " erbjud": 3131,
      " sju": 3132,
      "gera": 3133,
      " följer": 3134,
      " mä": 3135,
      " jorden": 3136,
      "skning": 3137,
      " betala": 3138,
      "Kom": 3139,
      "ip": 3140,
      " nationella": 3141,
      "juta": 3142,
      "lat": 3143,
      "okra": 3144,
      "onom": 3145,
      "sident": 3146,
      "EG": 3147,
      "ian": 3148,
      "arnas": 3149,
      " chans": 3150,
      "lingen": 3151,
      "utoma": 3152,
      " förordning": 3153,
      " stäng": 3154,
      "usk": 3155,
      " goda": 3156,
      " garan": 3157,
      " ham": 3158,
      " mamma": 3159,
      "stra": 3160,
      " stark": 3161,
      " sök": 3162,
      " design": 3163,
      " läkemedel": 3164,
      "rea": 3165,
      "uni": 3166,
      "samt": 3167,
      " förstår": 3168,
      " frågan": 3169,
      " fisk": 3170,
      "ärt": 3171,
      " tj": 3172,
      "pital": 3173,
      "srael": 3174,
      "Idag": 3175,
      " am": 3176,
      " uppmärk": 3177,
      "tala": 3178,
      " närheten": 3179,
      "ställning": 3180,
      " veckan": 3181,
      " parti": 3182,
      "book": 3183,
      " engel": 3184,
      " låter": 3185,
      "länd": 3186,
      " studen": 3187,
      " läkare": 3188,
      "ici": 3189,
      " Sa": 3190,
      " röst": 3191,
      " skydda": 3192,
      " do": 3193,
      " betyd": 3194,
      " krav": 3195,
      "asino": 3196,
      " Q": 3197,
      "iz": 3198,
      " tio": 3199,
      "ider": 3200,
      " ca": 3201,
      " ben": 3202,
      " bri": 3203,
      "enting": 3204,
      " avtal": 3205,
      "läggande": 3206,
      "rom": 3207,
      " ban": 3208,
      "fta": 3209,
      " trots": 3210,
      "Ni": 3211,
      " sann": 3212,
      " kring": 3213,
      "teck": 3214,
      " personuppgifter": 3215,
      "ment": 3216,
      " ske": 3217,
      " sep": 3218,
      " förber": 3219,
      "liv": 3220,
      "cept": 3221,
      " tillverk": 3222,
      " ja": 3223,
      " deltag": 3224,
      "kort": 3225,
      " halv": 3226,
      "ib": 3227,
      " insp": 3228,
      " hälso": 3229,
      "vå": 3230,
      " detal": 3231,
      " viss": 3232,
      " viktigaste": 3233,
      "-post": 3234,
      " universitet": 3235,
      "ue": 3236,
      " mar": 3237,
      " igenom": 3238,
      "beh": 3239,
      "ula": 3240,
      " potenti": 3241,
      "riär": 3242,
      "app": 3243,
      " Th": 3244,
      " klimat": 3245,
      "ktor": 3246,
      " klart": 3247,
      " svår": 3248,
      " vikt": 3249,
      " bruk": 3250,
      "Än": 3251,
      " författ": 3252,
      "ald": 3253,
      "gag": 3254,
      "nytt": 3255,
      "vika": 3256,
      " topp": 3257,
      "produk": 3258,
      " lokala": 3259,
      " våld": 3260,
      "mt": 3261,
      " gud": 3262,
      " bred": 3263,
      " rad": 3264,
      " accep": 3265,
      " va": 3266,
      "tional": 3267,
      " skapar": 3268,
      "riga": 3269,
      " framtiden": 3270,
      "Använd": 3271,
      " tillstånd": 3272,
      "21": 3273,
      "Tro": 3274,
      " ford": 3275,
      " him": 3276,
      " log": 3277,
      "utveck": 3278,
      " kund": 3279,
      "allt": 3280,
      "ören": 3281,
      " säkerställa": 3282,
      " känd": 3283,
      "ash": 3284,
      " Ex": 3285,
      "på": 3286,
      " public": 3287,
      "stol": 3288,
      " ifrån": 3289,
      " cirka": 3290,
      " titta": 3291,
      "ows": 3292,
      " mon": 3293,
      "önster": 3294,
      "server": 3295,
      " Par": 3296,
      " gammal": 3297,
      " upph": 3298,
      "erades": 3299,
      " priv": 3300,
      " start": 3301,
      " delen": 3302,
      " företaget": 3303,
      "Kanske": 3304,
      " försöka": 3305,
      " syfte": 3306,
      " perfekt": 3307,
      "lands": 3308,
      " marknadsför": 3309,
      " nätverk": 3310,
      " dela": 3311,
      "rekt": 3312,
      "aket": 3313,
      "ogen": 3314,
      " dat": 3315,
      " läs": 3316,
      " veckor": 3317,
      "Vissa": 3318,
      "én": 3319,
      " Europeiska": 3320,
      "jut": 3321,
      " princi": 3322,
      " lad": 3323,
      "aler": 3324,
      "Vilka": 3325,
      "rikt": 3326,
      " kred": 3327,
      "ital": 3328,
      " påverkar": 3329,
      " människa": 3330,
      "uell": 3331,
      " behöva": 3332,
      " liknande": 3333,
      " psyk": 3334,
      " nor": 3335,
      "ssk": 3336,
      "197": 3337,
      "verkan": 3338,
      " område": 3339,
      " nödvändigt": 3340,
      ".ex": 3341,
      "rym": 3342,
      "resen": 3343,
      " omkring": 3344,
      " hantera": 3345,
      " orsa": 3346,
      " sättet": 3347,
      " partner": 3348,
      "The": 3349,
      " enhet": 3350,
      "tionellt": 3351,
      " skada": 3352,
      "com": 3353,
      " föres": 3354,
      " svenska": 3355,
      " utmär": 3356,
      " Kina": 3357,
      " makt": 3358,
      " regl": 3359,
      " politiska": 3360,
      "ält": 3361,
      "ämpa": 3362,
      " samband": 3363,
      "cebook": 3364,
      " tagit": 3365,
      " ram": 3366,
      ";\n": 3367,
      "mas": 3368,
      " anti": 3369,
      " bevis": 3370,
      " luft": 3371,
      "ylla": 3372,
      " bär": 3373,
      " känns": 3374,
      "ho": 3375,
      " grundläggande": 3376,
      " sådant": 3377,
      " samarbete": 3378,
      "holm": 3379,
      "pas": 3380,
      "emål": 3381,
      " kalla": 3382,
      " vinna": 3383,
      " undvika": 3384,
      " föräldrar": 3385,
      "mo": 3386,
      " begär": 3387,
      " rädd": 3388,
      "äkt": 3389,
      "entar": 3390,
      "leva": 3391,
      " skillnad": 3392,
      "Tänk": 3393,
      "tionerna": 3394,
      "sida": 3395,
      " låta": 3396,
      "agn": 3397,
      " undersök": 3398,
      "Vår": 3399,
      "tiker": 3400,
      " ungefär": 3401,
      "ct": 3402,
      "kning": 3403,
      "melser": 3404,
      "uellt": 3405,
      " kommissionen": 3406,
      " leder": 3407,
      " högsta": 3408,
      " mänskliga": 3409,
      " leda": 3410,
      " hjärta": 3411,
      " konsum": 3412,
      " beräk": 3413,
      "oden": 3414,
      "tit": 3415,
      " Bar": 3416,
      " Har": 3417,
      "bund": 3418,
      " automa": 3419,
      "jen": 3420,
      " engag": 3421,
      " tu": 3422,
      "alans": 3423,
      " beskriv": 3424,
      " döda": 3425,
      " skär": 3426,
      " består": 3427,
      " erbjuda": 3428,
      "olution": 3429,
      " gärna": 3430,
      " förslag": 3431,
      " sätta": 3432,
      " rela": 3433,
      " Om": 3434,
      " satt": 3435,
      " lin": 3436,
      "ekomm": 3437,
      " effekt": 3438,
      "stauran": 3439,
      "enta": 3440,
      " os": 3441,
      " Google": 3442,
      " närvarande": 3443,
      " Ja": 3444,
      " oavsett": 3445,
      " häm": 3446,
      " kal": 3447,
      " lek": 3448,
      " sker": 3449,
      "ännisk": 3450,
      "sterna": 3451,
      " tor": 3452,
      "umär": 3453,
      " antalet": 3454,
      "skol": 3455,
      " mass": 3456,
      "let": 3457,
      "ona": 3458,
      " anges": 3459,
      " stol": 3460,
      "22": 3461,
      " infl": 3462,
      "råden": 3463,
      " hållbar": 3464,
      " tillhör": 3465,
      "ober": 3466,
      " sem": 3467,
      "tive": 3468,
      "indows": 3469,
      " ihop": 3470,
      " milit": 3471,
      " $": 3472,
      "cember": 3473,
      " Car": 3474,
      " Univers": 3475,
      "bolag": 3476,
      " at": 3477,
      " berör": 3478,
      " storlek": 3479,
      " Med": 3480,
      "iens": 3481,
      "Över": 3482,
      "rak": 3483,
      " dollar": 3484,
      "EU": 3485,
      " berätta": 3486,
      " stället": 3487,
      " internet": 3488,
      " upprätt": 3489,
      " mängd": 3490,
      " enskil": 3491,
      " lokal": 3492,
      "förande": 3493,
      " prata": 3494,
      " boken": 3495,
      " polis": 3496,
      " giv": 3497,
      " utgör": 3498,
      " söker": 3499,
      " blogg": 3500,
      "'s": 3501,
      " mott": 3502,
      " bad": 3503,
      " relev": 3504,
      " förändring": 3505,
      " profession": 3506,
      "sav": 3507,
      "ologiska": 3508,
      " vackra": 3509,
      "Sen": 3510,
      "rande": 3511,
      "anu": 3512,
      " böcker": 3513,
      "skott": 3514,
      " uppen": 3515,
      " Pa": 3516,
      " klas": 3517,
      " kem": 3518,
      " fly": 3519,
      " dokument": 3520,
      " omedel": 3521,
      "istan": 3522,
      " europeiska": 3523,
      "lå": 3524,
      " möjligheter": 3525,
      "År": 3526,
      " lön": 3527,
      " nr": 3528,
      " drabb": 3529,
      " tas": 3530,
      " regler": 3531,
      "sluta": 3532,
      " speciellt": 3533,
      " App": 3534,
      " cy": 3535,
      " höga": 3536,
      " rik": 3537,
      " ej": 3538,
      "heterna": 3539,
      " bekväm": 3540,
      "we": 3541,
      "åde": 3542,
      " medborg": 3543,
      " Inter": 3544,
      " höra": 3545,
      " organisation": 3546,
      "Kommer": 3547,
      " instr": 3548,
      "196": 3549,
      " fastställ": 3550,
      " mån": 3551,
      "rike": 3552,
      "skon": 3553,
      "fli": 3554,
      " säs": 3555,
      " skolan": 3556,
      " tillväxt": 3557,
      "sidan": 3558,
      " kont": 3559,
      "ockholm": 3560,
      "ritann": 3561,
      "agen": 3562,
      " ton": 3563,
      "betal": 3564,
      "arakt": 3565,
      " produktion": 3566,
      " telefon": 3567,
      "skra": 3568,
      "Mer": 3569,
      "stående": 3570,
      "olv": 3571,
      " rev": 3572,
      " respek": 3573,
      " bekrä": 3574,
      "70": 3575,
      "Res": 3576,
      "out": 3577,
      "ines": 3578,
      "britann": 3579,
      " vak": 3580,
      "araktär": 3581,
      "press": 3582,
      " Sch": 3583,
      " nuvarande": 3584,
      " liksom": 3585,
      " patienter": 3586,
      "of": 3587,
      " säll": 3588,
      " intresse": 3589,
      " opera": 3590,
      "vill": 3591,
      "öder": 3592,
      "använd": 3593,
      " ljud": 3594,
      "visning": 3595,
      "beroende": 3596,
      " bry": 3597,
      "bord": 3598,
      " försvar": 3599,
      "ild": 3600,
      " dessutom": 3601,
      " leverant": 3602,
      " framgångs": 3603,
      " alls": 3604,
      "lunda": 3605,
      " sön": 3606,
      " fjär": 3607,
      " gre": 3608,
      " lån": 3609,
      " funktioner": 3610,
      " anställda": 3611,
      " lug": 3612,
      " utrust": 3613,
      " match": 3614,
      "Eftersom": 3615,
      " knapp": 3616,
      " stopp": 3617,
      " skäl": 3618,
      " unga": 3619,
      " chef": 3620,
      " administ": 3621,
      " förra": 3622,
      " häst": 3623,
      " högt": 3624,
      "skapet": 3625,
      " York": 3626,
      " samhället": 3627,
      "tember": 3628,
      " ersätt": 3629,
      " yr": 3630,
      "ifrån": 3631,
      "vens": 3632,
      " ring": 3633,
      " behör": 3634,
      " kredit": 3635,
      "säg": 3636,
      " tje": 3637,
      "talien": 3638,
      " konkurr": 3639,
      " era": 3640,
      " Jo": 3641,
      "organis": 3642,
      "gård": 3643,
      "ink": 3644,
      " december": 3645,
      "parlament": 3646,
      " »": 3647,
      "Finns": 3648,
      "boll": 3649,
      "öts": 3650,
      " favorit": 3651,
      " ständ": 3652,
      "ination": 3653,
      " president": 3654,
      " ingenting": 3655,
      " ledande": 3656,
      "sprogram": 3657,
      "bok": 3658,
      " rådet": 3659,
      " godk": 3660,
      " kommunikation": 3661,
      " nega": 3662,
      "ca": 3663,
      " livsmedel": 3664,
      "stone": 3665,
      " enkla": 3666,
      "amen": 3667,
      "ivil": 3668,
      " uttryck": 3669,
      "anuari": 3670,
      "-år": 3671,
      "järn": 3672,
      " rom": 3673,
      " utform": 3674,
      " ökar": 3675,
      " studie": 3676,
      "rog": 3677,
      " varumär": 3678,
      " juni": 3679,
      " skön": 3680,
      " fullt": 3681,
      "23": 3682,
      " Con": 3683,
      " underhåll": 3684,
      "ftet": 3685,
      " platt": 3686,
      "sliga": 3687,
      " ensam": 3688,
      "ril": 3689,
      " bedöm": 3690,
      "ake": 3691,
      "th": 3692,
      "erande": 3693,
      "nal": 3694,
      "aten": 3695,
      " motsvar": 3696,
      "antag": 3697,
      " förändra": 3698,
      " engelska": 3699,
      "kul": 3700,
      "ood": 3701,
      " vare": 3702,
      " total": 3703,
      " Frank": 3704,
      "Euro": 3705,
      "äcker": 3706,
      "80": 3707,
      " her": 3708,
      "skydd": 3709,
      " studier": 3710,
      " privat": 3711,
      "Fl": 3712,
      "pla": 3713,
      "sch": 3714,
      "öja": 3715,
      " färdig": 3716,
      " medlemmar": 3717,
      "eta": 3718,
      " utnytt": 3719,
      " rädda": 3720,
      "kes": 3721,
      "ure": 3722,
      "urs": 3723,
      " antingen": 3724,
      " visas": 3725,
      "jor": 3726,
      " mars": 3727,
      " förvär": 3728,
      " dags": 3729,
      "Din": 3730,
      " ingår": 3731,
      " någonting": 3732,
      " frukt": 3733,
      "gl": 3734,
      " fö": 3735,
      " vitt": 3736,
      " överens": 3737,
      "202": 3738,
      "atter": 3739,
      " beror": 3740,
      " karriär": 3741,
      " stå": 3742,
      " barnen": 3743,
      "äkerhet": 3744,
      " befolk": 3745,
      "amer": 3746,
      " individ": 3747,
      " lyck": 3748,
      " menar": 3749,
      "naderna": 3750,
      "iod": 3751,
      " käll": 3752,
      " anpass": 3753,
      " förändringar": 3754,
      "Gör": 3755,
      "Hopp": 3756,
      " Windows": 3757,
      " lösningar": 3758,
      "rör": 3759,
      "tter": 3760,
      " hum": 3761,
      " globala": 3762,
      " täv": 3763,
      "emot": 3764,
      " absol": 3765,
      "enden": 3766,
      "olket": 3767,
      " visste": 3768,
      " kapital": 3769,
      " direktiv": 3770,
      " talar": 3771,
      "fa": 3772,
      "vak": 3773,
      "ensi": 3774,
      " ide": 3775,
      "urg": 3776,
      " fullständ": 3777,
      " utvecklingen": 3778,
      " standard": 3779,
      "dat": 3780,
      "mun": 3781,
      " behå": 3782,
      " glad": 3783,
      "500": 3784,
      "Ex": 3785,
      " vita": 3786,
      " anser": 3787,
      " kommentar": 3788,
      " exakt": 3789,
      " fordon": 3790,
      "ektion": 3791,
      " tekniska": 3792,
      "rans": 3793,
      "Bar": 3794,
      " morgon": 3795,
      " La": 3796,
      " personliga": 3797,
      "ligheter": 3798,
      "Gud": 3799,
      " ark": 3800,
      " januari": 3801,
      " Storbritann": 3802,
      "har": 3803,
      "za": 3804,
      " spelet": 3805,
      "avid": 3806,
      " industri": 3807,
      "äna": 3808,
      "rad": 3809,
      " service": 3810,
      " social": 3811,
      " installer": 3812,
      "tic": 3813,
      " skilj": 3814,
      " Sta": 3815,
      "delar": 3816,
      " lilla": 3817,
      "öter": 3818,
      " Gre": 3819,
      "Beh": 3820,
      " Ber": 3821,
      " personal": 3822,
      " behöv": 3823,
      "ondon": 3824,
      " förhållande": 3825,
      " september": 3826,
      "ban": 3827,
      "lare": 3828,
      "syn": 3829,
      " tusen": 3830,
      " extre": 3831,
      " bete": 3832,
      "orten": 3833,
      " kompl": 3834,
      "sats": 3835,
      "terad": 3836,
      " anses": 3837,
      " dubb": 3838,
      " skrev": 3839,
      "klag": 3840,
      " förstör": 3841,
      "nt": 3842,
      "vård": 3843,
      " kron": 3844,
      " produc": 3845,
      " medlemsstaterna": 3846,
      "AR": 3847,
      "orlunda": 3848,
      "klara": 3849,
      "Vilken": 3850,
      " dy": 3851,
      "minstone": 3852,
      " '": 3853,
      "artyg": 3854,
      "icro": 3855,
      " vacker": 3856,
      " offici": 3857,
      " gemensam": 3858,
      "yskland": 3859,
      "Or": 3860,
      "tisti": 3861,
      "änderna": 3862,
      "90": 3863,
      "mon": 3864,
      " bost": 3865,
      " tala": 3866,
      "värd": 3867,
      " namnet": 3868,
      " anledning": 3869,
      "Ti": 3870,
      " dotter": 3871,
      " rym": 3872,
      " uppdrag": 3873,
      "itter": 3874,
      " genera": 3875,
      "strin": 3876,
      " gemenskap": 3877,
      " hot": 3878,
      "pper": 3879,
      "spekt": 3880,
      " smär": 3881,
      "gress": 3882,
      " visade": 3883,
      "värr": 3884,
      "bygg": 3885,
      "yller": 3886,
      "etens": 3887,
      " Or": 3888,
      "san": 3889,
      "enn": 3890,
      " Dan": 3891,
      "ftar": 3892,
      " arbetet": 3893,
      "tryck": 3894,
      " karaktär": 3895,
      " avses": 3896,
      "ktober": 3897,
      " stress": 3898,
      " lagstift": 3899,
      " modern": 3900,
      "stauranger": 3901,
      "xi": 3902,
      "släpp": 3903,
      " analys": 3904,
      " son": 3905,
      " gemensamma": 3906,
      " skyldig": 3907,
      "blick": 3908,
      "ama": 3909,
      "lic": 3910,
      "satta": 3911,
      "jälv": 3912,
      " tecken": 3913,
      "uden": 3914,
      " otro": 3915,
      " my": 3916,
      "licka": 3917,
      " överför": 3918,
      " studenter": 3919,
      " ansök": 3920,
      " uppfatt": 3921,
      "ager": 3922,
      " njuta": 3923,
      "istiska": 3924,
      " prote": 3925,
      "ffa": 3926,
      " mening": 3927,
      " vanligt": 3928,
      " tillgänglig": 3929,
      "28": 3930,
      "Våra": 3931,
      " framtid": 3932,
      "abl": 3933,
      " konsek": 3934,
      "For": 3935,
      "IS": 3936,
      " jul": 3937,
      " strategi": 3938,
      "amål": 3939,
      "ffe": 3940,
      "27": 3941,
      "stäm": 3942,
      " inlägg": 3943,
      " kap": 3944,
      " systemet": 3945,
      "ix": 3946,
      "sor": 3947,
      "inder": 3948,
      " vars": 3949,
      " post": 3950,
      " glas": 3951,
      "yssland": 3952,
      " sälj": 3953,
      " tyck": 3954,
      " no": 3955,
      "koh": 3956,
      " kända": 3957,
      " vård": 3958,
      " fortsatt": 3959,
      " lämnar": 3960,
      " berättar": 3961,
      " Stockholm": 3962,
      " elektron": 3963,
      "jan": 3964,
      "poli": 3965,
      " inre": 3966,
      " TV": 3967,
      " represen": 3968,
      "rarna": 3969,
      " utö": 3970,
      "givare": 3971,
      "Några": 3972,
      " regeringen": 3973,
      ".com": 3974,
      " sov": 3975,
      " Nord": 3976,
      "ture": 3977,
      "sprocess": 3978,
      " främst": 3979,
      "IN": 3980,
      "Ibland": 3981,
      "-k": 3982,
      "Hans": 3983,
      "amm": 3984,
      "peratur": 3985,
      " miljarder": 3986,
      " förmåga": 3987,
      "öna": 3988,
      "llen": 3989,
      " mång": 3990,
      "tiver": 3991,
      " avgör": 3992,
      " organ": 3993,
      "ds": 3994,
      " jätt": 3995,
      "aker": 3996,
      " kontor": 3997,
      " trodde": 3998,
      " önskar": 3999,
      "tten": 4000,
      " bit": 4001,
      "kast": 4002,
      " cancer": 4003,
      " blå": 4004,
      " vanligtvis": 4005,
      "struktur": 4006,
      " struktur": 4007,
      " effektivt": 4008,
      " säkra": 4009,
      " union": 4010,
      " bilden": 4011,
      " hy": 4012,
      " bill": 4013,
      " skick": 4014,
      "slam": 4015,
      " delta": 4016,
      " team": 4017,
      "Hoppas": 4018,
      " me": 4019,
      " mod": 4020,
      "pac": 4021,
      " civil": 4022,
      "domar": 4023,
      " lägger": 4024,
      "Väl": 4025,
      " sub": 4026,
      "arm": 4027,
      " verksam": 4028,
      " uppskatt": 4029,
      " Bo": 4030,
      "yng": 4031,
      " bestämmelser": 4032,
      " annorlunda": 4033,
      "gående": 4034,
      "jag": 4035,
      " driv": 4036,
      " nyck": 4037,
      " anslut": 4038,
      " He": 4039,
      " bidra": 4040,
      " förhindra": 4041,
      " jud": 4042,
      "splan": 4043,
      " poj": 4044,
      " poäng": 4045,
      "26": 4046,
      "Ber": 4047,
      "ena": 4048,
      " Ste": 4049,
      "atten": 4050,
      " grön": 4051,
      "Andra": 4052,
      " uttal": 4053,
      "Spel": 4054,
      "åd": 4055,
      "sson": 4056,
      "slös": 4057,
      " gläd": 4058,
      " oktober": 4059,
      " spännande": 4060,
      " genomsnitt": 4061,
      " äter": 4062,
      " transport": 4063,
      " offentliga": 4064,
      " kombin": 4065,
      " Facebook": 4066,
      " sälja": 4067,
      " bon": 4068,
      "isering": 4069,
      " konto": 4070,
      "värder": 4071,
      " enheter": 4072,
      " avsnitt": 4073,
      "terat": 4074,
      "söker": 4075,
      " forskare": 4076,
      " familjen": 4077,
      " lösa": 4078,
      " bygger": 4079,
      "fulla": 4080,
      " press": 4081,
      " förekomm": 4082,
      " åka": 4083,
      "ernas": 4084,
      " fungera": 4085,
      "ustra": 4086,
      "log": 4087,
      "tut": 4088,
      " oför": 4089,
      "ora": 4090,
      "iker": 4091,
      " huset": 4092,
      " kontakta": 4093,
      " budget": 4094,
      " län": 4095,
      "ygga": 4096,
      " II": 4097,
      " London": 4098,
      "arbete": 4099,
      " lösning": 4100,
      " sannoli": 4101,
      " od": 4102,
      "still": 4103,
      "ovember": 4104,
      " träning": 4105,
      " John": 4106,
      " fäng": 4107,
      " därmed": 4108,
      "former": 4109,
      ".[": 4110,
      "äster": 4111,
      " Han": 4112,
      " plac": 4113,
      " fantastiska": 4114,
      "bum": 4115,
      "fic": 4116,
      "ire": 4117,
      " ek": 4118,
      " webbplatsen": 4119,
      "enda": 4120,
      "verket": 4121,
      " integr": 4122,
      " vänta": 4123,
      " lägre": 4124,
      " filmen": 4125,
      " kostnad": 4126,
      " kontrollera": 4127,
      " krea": 4128,
      " Res": 4129,
      "Ma": 4130,
      "erti": 4131,
      " flick": 4132,
      "obbet": 4133,
      " hundra": 4134,
      "ish": 4135,
      " fruk": 4136,
      " populära": 4137,
      " inkluderar": 4138,
      "cel": 4139,
      "mäl": 4140,
      " km": 4141,
      " tidigt": 4142,
      "usli": 4143,
      " region": 4144,
      "endet": 4145,
      " bid": 4146,
      "ola": 4147,
      "lack": 4148,
      " tryck": 4149,
      " slå": 4150,
      " Interna": 4151,
      " kände": 4152,
      " webbplatser": 4153,
      " video": 4154,
      " besöka": 4155,
      "eställ": 4156,
      "xten": 4157,
      " heter": 4158,
      " Amer": 4159,
      "Ty": 4160,
      " häng": 4161,
      "stitut": 4162,
      "ländska": 4163,
      " Storbritannien": 4164,
      " lans": 4165,
      "skan": 4166,
      "enten": 4167,
      "ioden": 4168,
      " finansiella": 4169,
      " levande": 4170,
      "son": 4171,
      " säng": 4172,
      "ärn": 4173,
      " intell": 4174,
      " försäljning": 4175,
      " fyll": 4176,
      " gi": 4177,
      " Israel": 4178,
      " brans": 4179,
      " University": 4180,
      "odligen": 4181,
      " havet": 4182,
      "berg": 4183,
      " Var": 4184,
      "eff": 4185,
      " spar": 4186,
      " Hur": 4187,
      "orge": 4188,
      "-m": 4189,
      "Följ": 4190,
      "Nästa": 4191,
      "Pre": 4192,
      " fre": 4193,
      " oberoende": 4194,
      " vir": 4195,
      " möjlig": 4196,
      " detalj": 4197,
      " fång": 4198,
      "itta": 4199,
      " spår": 4200,
      "stid": 4201,
      " kval": 4202,
      "ställningar": 4203,
      " missl": 4204,
      " betydelse": 4205,
      " omfattande": 4206,
      "frågan": 4207,
      " tankar": 4208,
      "bli": 4209,
      "les": 4210,
      " Se": 4211,
      "ekta": 4212,
      " period": 4213,
      " strä": 4214,
      "ågan": 4215,
      " Vad": 4216,
      "alm": 4217,
      " jobbet": 4218,
      " beskri": 4219,
      " Park": 4220,
      "råd": 4221,
      " avsluta": 4222,
      ".)\n": 4223,
      " inled": 4224,
      " Ser": 4225,
      " undantag": 4226,
      " känslor": 4227,
      " absolut": 4228,
      " bank": 4229,
      " ledare": 4230,
      " gravid": 4231,
      " regering": 4232,
      "punkt": 4233,
      "sar": 4234,
      "stjän": 4235,
      " nedan": 4236,
      " snabbare": 4237,
      "känna": 4238,
      "ocka": 4239,
      " bu": 4240,
      "tekn": 4241,
      " kateg": 4242,
      " organisationer": 4243,
      " övertyg": 4244,
      " stär": 4245,
      " Tyskland": 4246,
      " höll": 4247,
      " specifika": 4248,
      "ruk": 4249,
      "ome": 4250,
      " enbart": 4251,
      " institu": 4252,
      "tation": 4253,
      "inal": 4254,
      " spender": 4255,
      " känsla": 4256,
      " Finland": 4257,
      "Sp": 4258,
      " Ph": 4259,
      " djup": 4260,
      " sän": 4261,
      " avseende": 4262,
      " AB": 4263,
      " imp": 4264,
      "Hotell": 4265,
      "ikro": 4266,
      " utvecklas": 4267,
      "36": 4268,
      "?”\n": 4269,
      "Vär": 4270,
      "larna": 4271,
      " folket": 4272,
      " långa": 4273,
      "ills": 4274,
      " visat": 4275,
      " stabil": 4276,
      " medlemsst": 4277,
      " borta": 4278,
      " inspir": 4279,
      "Två": 4280,
      "ira": 4281,
      "ign": 4282,
      "ali": 4283,
      " metoder": 4284,
      " internationell": 4285,
      " orsaka": 4286,
      " Internet": 4287,
      " söm": 4288,
      " dest": 4289,
      "aktioner": 4290,
      " All": 4291,
      " moderna": 4292,
      " priva": 4293,
      " ämnen": 4294,
      " mottag": 4295,
      "?\"\n": 4296,
      " musk": 4297,
      " föred": 4298,
      " lista": 4299,
      " sitter": 4300,
      " aktiviteter": 4301,
      "35": 4302,
      "Bara": 4303,
      "lu": 4304,
      " dans": 4305,
      " göras": 4306,
      "duc": 4307,
      "egående": 4308,
      "bundet": 4309,
      "Hå": 4310,
      "ungen": 4311,
      " kommande": 4312,
      " görs": 4313,
      " verkliga": 4314,
      " elever": 4315,
      " reda": 4316,
      " ak": 4317,
      " ok": 4318,
      " stäm": 4319,
      " lyssna": 4320,
      " omedelbart": 4321,
      "spektiv": 4322,
      "rala": 4323,
      " utrym": 4324,
      " särskilda": 4325,
      "-f": 4326,
      "tiken": 4327,
      " bru": 4328,
      " bön": 4329,
      "delning": 4330,
      " alkoh": 4331,
      " hjärtat": 4332,
      " trafik": 4333,
      " scen": 4334,
      " ges": 4335,
      "sättningar": 4336,
      " åtminstone": 4337,
      " grad": 4338,
      "ytande": 4339,
      " framtida": 4340,
      "das": 4341,
      "sel": 4342,
      " förd": 4343,
      " nyligen": 4344,
      "nars": 4345,
      " hård": 4346,
      "ogra": 4347,
      " digital": 4348,
      " demokra": 4349,
      "Ch": 4350,
      "ipp": 4351,
      " integ": 4352,
      "ith": 4353,
      " prov": 4354,
      " Ge": 4355,
      " köper": 4356,
      " vuxna": 4357,
      "Trots": 4358,
      "-h": 4359,
      "AN": 4360,
      " föremål": 4361,
      "orld": 4362,
      " ställa": 4363,
      " befin": 4364,
      "usti": 4365,
      " dagens": 4366,
      " öppen": 4367,
      " litet": 4368,
      " sten": 4369,
      " Su": 4370,
      "aktion": 4371,
      "Först": 4372,
      "ES": 4373,
      "grän": 4374,
      " växer": 4375,
      " jämfört": 4376,
      " balans": 4377,
      "kommen": 4378,
      "åda": 4379,
      "ile": 4380,
      " kontra": 4381,
      "formationen": 4382,
      " växa": 4383,
      " minn": 4384,
      "tiser": 4385,
      "orier": 4386,
      "edd": 4387,
      "värt": 4388,
      " bidrag": 4389,
      " huvudsak": 4390,
      "soft": 4391,
      " nämligen": 4392,
      "nivå": 4393,
      "arens": 4394,
      "etar": 4395,
      "old": 4396,
      " uppman": 4397,
      "ulti": 4398,
      " ständigt": 4399,
      " hud": 4400,
      "iddag": 4401,
      " ändamål": 4402,
      " lärare": 4403,
      "mande": 4404,
      " krist": 4405,
      " Ha": 4406,
      "grund": 4407,
      " fallet": 4408,
      " meter": 4409,
      " initi": 4410,
      " Sp": 4411,
      " kärn": 4412,
      "Be": 4413,
      "oss": 4414,
      "pris": 4415,
      "tliga": 4416,
      " attack": 4417,
      " Ac": 4418,
      "ocker": 4419,
      " möjliga": 4420,
      " Eng": 4421,
      " brukar": 4422,
      " mol": 4423,
      " häv": 4424,
      " nummer": 4425,
      "oler": 4426,
      " tving": 4427,
      " hände": 4428,
      " starkt": 4429,
      " övriga": 4430,
      " tit": 4431,
      "skomm": 4432,
      " resten": 4433,
      "iljö": 4434,
      " resurser": 4435,
      " hört": 4436,
      " april": 4437,
      "EB": 4438,
      "vinn": 4439,
      "stro": 4440,
      " november": 4441,
      " allmänna": 4442,
      " analy": 4443,
      " dit": 4444,
      " gif": 4445,
      " medier": 4446,
      " ry": 4447,
      " lagen": 4448,
      " söka": 4449,
      " ...": 4450,
      "bes": 4451,
      "rep": 4452,
      "ribu": 4453,
      " reser": 4454,
      " Ryssland": 4455,
      " känt": 4456,
      " natten": 4457,
      " ång": 4458,
      "Människ": 4459,
      " offentlig": 4460,
      " semester": 4461,
      "oc": 4462,
      " juli": 4463,
      " barnet": 4464,
      " etabl": 4465,
      "usin": 4466,
      " fotboll": 4467,
      "uer": 4468,
      " tips": 4469,
      " uppgift": 4470,
      " närma": 4471,
      " Nation": 4472,
      " tänkte": 4473,
      "Ph": 4474,
      "sut": 4475,
      "ders": 4476,
      " bes": 4477,
      " David": 4478,
      "änsyn": 4479,
      " intressant": 4480,
      " ir": 4481,
      " skra": 4482,
      "ump": 4483,
      "splats": 4484,
      " börjat": 4485,
      " centrum": 4486,
      " central": 4487,
      " britt": 4488,
      " utmärkt": 4489,
      "öte": 4490,
      " kön": 4491,
      " förvalt": 4492,
      " kallar": 4493,
      " rekommenderar": 4494,
      "icrosoft": 4495,
      "tligen": 4496,
      " gäll": 4497,
      " max": 4498,
      " omfattar": 4499,
      "itala": 4500,
      "-st": 4501,
      "ysi": 4502,
      " antag": 4503,
      " San": 4504,
      " erk": 4505,
      "arbetare": 4506,
      " risken": 4507,
      " sidor": 4508,
      "AT": 4509,
      "olf": 4510,
      " Sy": 4511,
      " lättare": 4512,
      " starka": 4513,
      " köra": 4514,
      "Samtidigt": 4515,
      "Ser": 4516,
      "rin": 4517,
      " utfor": 4518,
      "steg": 4519,
      "Företag": 4520,
      " personen": 4521,
      "troll": 4522,
      "31": 4523,
      " sch": 4524,
      " våg": 4525,
      " hända": 4526,
      " Sam": 4527,
      " identifi": 4528,
      "-d": 4529,
      "-kon": 4530,
      " FN": 4531,
      " bilen": 4532,
      " frågade": 4533,
      " passar": 4534,
      "Fil": 4535,
      "ningsm": 4536,
      " Att": 4537,
      " framåt": 4538,
      "194": 4539,
      "unkter": 4540,
      " konstnär": 4541,
      "29": 4542,
      "rel": 4543,
      " tydligt": 4544,
      "agnos": 4545,
      "här": 4546,
      " pat": 4547,
      "ämt": 4548,
      "195": 4549,
      "unnit": 4550,
      " marknadsföring": 4551,
      "brott": 4552,
      "gande": 4553,
      "läs": 4554,
      "sled": 4555,
      "ioner": 4556,
      " naturliga": 4557,
      " programmet": 4558,
      " idéer": 4559,
      "mål": 4560,
      "ight": 4561,
      "til": 4562,
      "onser": 4563,
      " stanna": 4564,
      "delsen": 4565,
      " beröm": 4566,
      " miljon": 4567,
      " läser": 4568,
      " maskin": 4569,
      " betydande": 4570,
      "Bil": 4571,
      "iam": 4572,
      "uc": 4573,
      "elt": 4574,
      " nord": 4575,
      "lik": 4576,
      " sätter": 4577,
      " oftast": 4578,
      " behandla": 4579,
      "Någon": 4580,
      "part": 4581,
      " omöj": 4582,
      " stod": 4583,
      "platsen": 4584,
      " kolla": 4585,
      " gett": 4586,
      " guld": 4587,
      " närmare": 4588,
      " kläder": 4589,
      " US": 4590,
      " problemet": 4591,
      " myndigheter": 4592,
      " jordbruk": 4593,
      "utveckling": 4594,
      " Frankrike": 4595,
      "wa": 4596,
      "zon": 4597,
      "åta": 4598,
      " avanc": 4599,
      "ämn": 4600,
      " arm": 4601,
      " Ta": 4602,
      "dags": 4603,
      "imen": 4604,
      " vinter": 4605,
      " händelser": 4606,
      " städer": 4607,
      " unika": 4608,
      " motstånd": 4609,
      " äger": 4610,
      "frika": 4611,
      "ET": 4612,
      "issa": 4613,
      "ric": 4614,
      " Pla": 4615,
      " Ka": 4616,
      "klare": 4617,
      " träffa": 4618,
      " flytta": 4619,
      "garna": 4620,
      "pati": 4621,
      " värd": 4622,
      " produkten": 4623,
      " kallade": 4624,
      "rang": 4625,
      " port": 4626,
      "terier": 4627,
      " arg": 4628,
      "spoli": 4629,
      " kompetens": 4630,
      "-b": 4631,
      "Själv": 4632,
      " hänsyn": 4633,
      " ena": 4634,
      "dad": 4635,
      " motor": 4636,
      " klubb": 4637,
      " priset": 4638,
      " kontin": 4639,
      " sommar": 4640,
      " kommersi": 4641,
      "ica": 4642,
      " smart": 4643,
      "gången": 4644,
      " egenskaper": 4645,
      "ners": 4646,
      " välkom": 4647,
      " jurid": 4648,
      " text": 4649,
      " väntar": 4650,
      "ebru": 4651,
      " tjäna": 4652,
      "vända": 4653,
      " ret": 4654,
      " betra": 4655,
      "Vet": 4656,
      "ach": 4657,
      "ikt": 4658,
      "jöl": 4659,
      " Sc": 4660,
      "ush": 4661,
      " dåligt": 4662,
      "troende": 4663,
      " stödja": 4664,
      " vapen": 4665,
      "\"Jag": 4666,
      "medel": 4667,
      "sent": 4668,
      " fina": 4669,
      "ppar": 4670,
      " Gu": 4671,
      " ordet": 4672,
      " exempelvis": 4673,
      " resultatet": 4674,
      " ökad": 4675,
      " starta": 4676,
      "maren": 4677,
      "sre": 4678,
      " bev": 4679,
      " spara": 4680,
      "otten": 4681,
      " Ind": 4682,
      " pappa": 4683,
      " solen": 4684,
      "tiden": 4685,
      "ath": 4686,
      " utföra": 4687,
      " Te": 4688,
      "okies": 4689,
      " siff": 4690,
      " frihet": 4691,
      " bidrar": 4692,
      " privata": 4693,
      "Person": 4694,
      "ärer": 4695,
      " Air": 4696,
      " special": 4697,
      " domstol": 4698,
      " bostad": 4699,
      "Al": 4700,
      "vju": 4701,
      " dog": 4702,
      " ass": 4703,
      " klin": 4704,
      " bilar": 4705,
      " promen": 4706,
      " vänster": 4707,
      "siktig": 4708,
      "-in": 4709,
      "Må": 4710,
      "bör": 4711,
      "person": 4712,
      " ses": 4713,
      "ongen": 4714,
      " ill": 4715,
      "atan": 4716,
      "skrig": 4717,
      "AS": 4718,
      " båt": 4719,
      "urk": 4720,
      " uppleva": 4721,
      " kunnat": 4722,
      " tanke": 4723,
      " ör": 4724,
      "eten": 4725,
      "rika": 4726,
      "uren": 4727,
      " minim": 4728,
      "ordet": 4729,
      "fred": 4730,
      " svart": 4731,
      " korrekt": 4732,
      " kyrkan": 4733,
      "omb": 4734,
      " pol": 4735,
      " tänk": 4736,
      " jobba": 4737,
      "Skulle": 4738,
      " eventuella": 4739,
      "ebruari": 4740,
      "hav": 4741,
      "ierna": 4742,
      " kines": 4743,
      "oritet": 4744,
      " la": 4745,
      " lic": 4746,
      "amil": 4747,
      " digitala": 4748,
      " pension": 4749,
      " pratar": 4750,
      " >": 4751,
      "rav": 4752,
      " såväl": 4753,
      "tivitet": 4754,
      " inträff": 4755,
      " naturligtvis": 4756,
      " smärta": 4757,
      "Fram": 4758,
      " sla": 4759,
      " lov": 4760,
      " vart": 4761,
      " omständ": 4762,
      "sland": 4763,
      " Gro": 4764,
      " nytta": 4765,
      " sjun": 4766,
      " ögonblick": 4767,
      " super": 4768,
      " sanningen": 4769,
      "risk": 4770,
      " varor": 4771,
      "skär": 4772,
      " rek": 4773,
      " misst": 4774,
      " allmänhet": 4775,
      " fantastisk": 4776,
      " faktum": 4777,
      "stolen": 4778,
      " kung": 4779,
      "sträng": 4780,
      " svarade": 4781,
      " miss": 4782,
      " fört": 4783,
      "eringar": 4784,
      " förstås": 4785,
      "bra": 4786,
      "cin": 4787,
      "ence": 4788,
      " sjukhus": 4789,
      " strateg": 4790,
      " upptäcka": 4791,
      " kristna": 4792,
      "hand": 4793,
      "ose": 4794,
      " mikro": 4795,
      "stera": 4796,
      " tillverka": 4797,
      " genomföra": 4798,
      " saknar": 4799,
      " förmodligen": 4800,
      " grupper": 4801,
      " sång": 4802,
      "tad": 4803,
      "klam": 4804,
      "300": 4805,
      " gui": 4806,
      " tyst": 4807,
      "ktig": 4808,
      " relation": 4809,
      " processen": 4810,
      " datum": 4811,
      " ?\n": 4812,
      "kat": 4813,
      " trev": 4814,
      " ställe": 4815,
      " symb": 4816,
      "anken": 4817,
      " tillåter": 4818,
      "ille": 4819,
      " historien": 4820,
      " nödvändiga": 4821,
      "öllop": 4822,
      "Dag": 4823,
      "Nej": 4824,
      " dis": 4825,
      " gla": 4826,
      " Mark": 4827,
      " block": 4828,
      "peci": 4829,
      " försäkring": 4830,
      " förlora": 4831,
      " fördelar": 4832,
      " situation": 4833,
      " Herren": 4834,
      " gränser": 4835,
      "uten": 4836,
      " Mon": 4837,
      " Ho": 4838,
      " personlig": 4839,
      " rätta": 4840,
      " leverans": 4841,
      " främja": 4842,
      " musli": 4843,
      " nöjd": 4844,
      "ämpar": 4845,
      "ordningen": 4846,
      " historiska": 4847,
      " förståelse": 4848,
      " fjärde": 4849,
      " snar": 4850,
      " ansi": 4851,
      "ssätt": 4852,
      "varo": 4853,
      "venemang": 4854,
      " ävent": 4855,
      "bildning": 4856,
      " ursprungliga": 4857,
      " medborgare": 4858,
      "hem": 4859,
      "kret": 4860,
      "mel": 4861,
      "ura": 4862,
      " ag": 4863,
      " hårt": 4864,
      " kop": 4865,
      "unch": 4866,
      " omgiv": 4867,
      " Krist": 4868,
      " roligt": 4869,
      "ellertid": 4870,
      " författare": 4871,
      "OS": 4872,
      "Ver": 4873,
      "läm": 4874,
      "ool": 4875,
      " vinn": 4876,
      "eda": 4877,
      "ames": 4878,
      " skog": 4879,
      "deles": 4880,
      "likationer": 4881,
      " ekonomi": 4882,
      " dricka": 4883,
      " straff": 4884,
      " lyckas": 4885,
      " temperatur": 4886,
      "unkten": 4887,
      " svara": 4888,
      " totala": 4889,
      " noggr": 4890,
      " skapat": 4891,
      "lösa": 4892,
      "osi": 4893,
      "ult": 4894,
      "ställd": 4895,
      " samtliga": 4896,
      "ägen": 4897,
      "råde": 4898,
      " fysiska": 4899,
      " avgörande": 4900,
      "mos": 4901,
      " Com": 4902,
      " underl": 4903,
      " följd": 4904,
      " misstag": 4905,
      " tillhandahålla": 4906,
      "oga": 4907,
      "iken": 4908,
      " komplex": 4909,
      "kopp": 4910,
      " allra": 4911,
      " For": 4912,
      " lagar": 4913,
      " normalt": 4914,
      " Paris": 4915,
      "iel": 4916,
      "iera": 4917,
      " När": 4918,
      "own": 4919,
      " politik": 4920,
      " sjukdomar": 4921,
      "ötsligt": 4922,
      "45": 4923,
      " läst": 4924,
      " dej": 4925,
      "otel": 4926,
      " mannen": 4927,
      "troller": 4928,
      " statisti": 4929,
      "rummet": 4930,
      " automatiskt": 4931,
      " Och": 4932,
      "ativ": 4933,
      "lor": 4934,
      "aner": 4935,
      "sikter": 4936,
      "jälp": 4937,
      " blomm": 4938,
      " miljön": 4939,
      " vattnet": 4940,
      " möjligheten": 4941,
      " samhälle": 4942,
      " förhållanden": 4943,
      " mun": 4944,
      " konven": 4945,
      " befinner": 4946,
      " behöriga": 4947,
      "/eller": 4948,
      "over": 4949,
      "anter": 4950,
      "stån": 4951,
      " tåg": 4952,
      " synd": 4953,
      " baserat": 4954,
      " enskilda": 4955,
      " —": 4956,
      "-t": 4957,
      " fett": 4958,
      " tillb": 4959,
      " anlägg": 4960,
      "list": 4961,
      "struk": 4962,
      " stil": 4963,
      " identifier": 4964,
      " förfl": 4965,
      "atar": 4966,
      "akta": 4967,
      "iva": 4968,
      " överväg": 4969,
      " Tim": 4970,
      " färger": 4971,
      " hänt": 4972,
      " energ": 4973,
      "Vilket": 4974,
      " älskade": 4975,
      " flykt": 4976,
      "-s": 4977,
      "funk": 4978,
      " fåg": 4979,
      "standa": 4980,
      " Mac": 4981,
      " konfli": 4982,
      "rump": 4983,
      " möta": 4984,
      " terror": 4985,
      " februari": 4986,
      "föränd": 4987,
      " åtta": 4988,
      "sioner": 4989,
      " hälften": 4990,
      " alkohol": 4991,
      "börj": 4992,
      "djur": 4993,
      "ivån": 4994,
      "ley": 4995,
      " värt": 4996,
      "bert": 4997,
      "smark": 4998,
      " dålig": 4999,
      " människan": 5000,
      "annen": 5001,
      "pacitet": 5002,
      "mot": 5003,
      "kommer": 5004,
      "meddel": 5005,
      "kadem": 5006,
      " möte": 5007,
      " konsekvens": 5008,
      "indu": 5009,
      " Be": 5010,
      "Första": 5011,
      " växt": 5012,
      " önska": 5013,
      " projektet": 5014,
      "Vårt": 5015,
      " tillåt": 5016,
      "als": 5017,
      "data": 5018,
      "adress": 5019,
      " hemsida": 5020,
      "rikes": 5021,
      "produkter": 5022,
      " =": 5023,
      " överallt": 5024,
      " Kon": 5025,
      " perspektiv": 5026,
      "ugg": 5027,
      "bliote": 5028,
      "Dom": 5029,
      "jar": 5030,
      "ode": 5031,
      "srätt": 5032,
      " dyr": 5033,
      " bilj": 5034,
      " tri": 5035,
      " anmäl": 5036,
      "äget": 5037,
      "rigt": 5038,
      "useum": 5039,
      " arkite": 5040,
      " International": 5041,
      "enterna": 5042,
      " sor": 5043,
      "ingarna": 5044,
      " is": 5045,
      " lju": 5046,
      "alest": 5047,
      "itar": 5048,
      " minskar": 5049,
      " server": 5050,
      " kött": 5051,
      " forsknings": 5052,
      " jobbar": 5053,
      " tittar": 5054,
      " utrustning": 5055,
      " beteende": 5056,
      "tifrån": 5057,
      " avsed": 5058,
      "ekan": 5059,
      " Alla": 5060,
      " spri": 5061,
      " Cent": 5062,
      " El": 5063,
      "Förutom": 5064,
      " målet": 5065,
      " öppet": 5066,
      " trädgård": 5067,
      "kraft": 5068,
      " yrkes": 5069,
      "Mitt": 5070,
      "Oavsett": 5071,
      "ismen": 5072,
      "ierar": 5073,
      " smak": 5074,
      " handlingar": 5075,
      " nätet": 5076,
      "Bes": 5077,
      "Gl": 5078,
      "jör": 5079,
      "lades": 5080,
      "oster": 5081,
      "arskap": 5082,
      "rag": 5083,
      " överg": 5084,
      " Bro": 5085,
      " trygg": 5086,
      " äkten": 5087,
      "spelare": 5088,
      " regelbundet": 5089,
      " uppmärksamhet": 5090,
      "Ob": 5091,
      "ford": 5092,
      " relationer": 5093,
      "saker": 5094,
      "lir": 5095,
      " effektiva": 5096,
      "Ha": 5097,
      " sant": 5098,
      " föreb": 5099,
      " tom": 5100,
      "ycke": 5101,
      "smål": 5102,
      " funn": 5103,
      "ningsvis": 5104,
      " gjor": 5105,
      " svåra": 5106,
      "vetenskap": 5107,
      " optim": 5108,
      " konkurrens": 5109,
      "parlamentet": 5110,
      " sömn": 5111,
      "usiness": 5112,
      "ssel": 5113,
      " nämn": 5114,
      "Mycket": 5115,
      "Ny": 5116,
      " ök": 5117,
      " Ga": 5118,
      " svag": 5119,
      " kostnader": 5120,
      " massa": 5121,
      " brist": 5122,
      " Pre": 5123,
      " Tw": 5124,
      "oppet": 5125,
      "utt": 5126,
      " vol": 5127,
      " deb": 5128,
      " rän": 5129,
      " trött": 5130,
      " rätten": 5131,
      "världen": 5132,
      " lägenhet": 5133,
      " metod": 5134,
      " .": 5135,
      "ep": 5136,
      " intro": 5137,
      "estiv": 5138,
      " överra": 5139,
      " koncent": 5140,
      " Ra": 5141,
      " misslycka": 5142,
      "marna": 5143,
      " sim": 5144,
      " väst": 5145,
      "ross": 5146,
      "digare": 5147,
      " ekonomisk": 5148,
      " fotograf": 5149,
      " :)\n": 5150,
      "TE": 5151,
      "rare": 5152,
      " lägg": 5153,
      " skad": 5154,
      " Kar": 5155,
      " igång": 5156,
      " objekt": 5157,
      " staten": 5158,
      " tillämpas": 5159,
      " behövde": 5160,
      "Medan": 5161,
      "lande": 5162,
      "inte": 5163,
      " ink": 5164,
      " frågar": 5165,
      "ower": 5166,
      " risker": 5167,
      "Bra": 5168,
      "låt": 5169,
      "Äl": 5170,
      "’s": 5171,
      "kall": 5172,
      " Sw": 5173,
      " Am": 5174,
      "ugusti": 5175,
      " avslöj": 5176,
      " instrument": 5177,
      " z": 5178,
      "Pa": 5179,
      "bor": 5180,
      "må": 5181,
      "styr": 5182,
      " järn": 5183,
      " stan": 5184,
      "material": 5185,
      " certi": 5186,
      " And": 5187,
      " tillhandahåll": 5188,
      " relevanta": 5189,
      "gas": 5190,
      " faktorer": 5191,
      "Arbet": 5192,
      " has": 5193,
      " kand": 5194,
      "Utan": 5195,
      " besökare": 5196,
      " berörda": 5197,
      " uppenbar": 5198,
      " snarare": 5199,
      "Åter": 5200,
      " Span": 5201,
      " Da": 5202,
      "ney": 5203,
      " World": 5204,
      "iabet": 5205,
      "hantering": 5206,
      " naturen": 5207,
      " ström": 5208,
      " investeringar": 5209,
      " stolt": 5210,
      " ägg": 5211,
      " bro": 5212,
      "kal": 5213,
      "agg": 5214,
      " Ass": 5215,
      " sport": 5216,
      "ringa": 5217,
      "....\n": 5218,
      " innovation": 5219,
      "\"Det": 5220,
      "-pro": 5221,
      "Par": 5222,
      "bis": 5223,
      "do": 5224,
      "sv": 5225,
      " informationen": 5226,
      "ktorn": 5227,
      " utred": 5228,
      " samtal": 5229,
      " Gr": 5230,
      "upport": 5231,
      " främsta": 5232,
      " kampan": 5233,
      "systemet": 5234,
      " Apple": 5235,
      "vist": 5236,
      " höj": 5237,
      "oren": 5238,
      "sked": 5239,
      " sprid": 5240,
      " alltför": 5241,
      " användningen": 5242,
      "annar": 5243,
      " perfekta": 5244,
      " identifiera": 5245,
      "bef": 5246,
      "sdag": 5247,
      "vad": 5248,
      " valt": 5249,
      "rien": 5250,
      " casino": 5251,
      " album": 5252,
      " häls": 5253,
      "sfri": 5254,
      " behandlas": 5255,
      " nivåer": 5256,
      " unionen": 5257,
      " Austra": 5258,
      "vatten": 5259,
      " Center": 5260,
      "ific": 5261,
      " priser": 5262,
      " uppfyller": 5263,
      " centrala": 5264,
      " kombination": 5265,
      " utrymme": 5266,
      "Sn": 5267,
      "gj": 5268,
      "räm": 5269,
      "tio": 5270,
      "ritet": 5271,
      "193": 5272,
      " radi": 5273,
      " glädje": 5274,
      " gällande": 5275,
      "Ge": 5276,
      " band": 5277,
      " grä": 5278,
      " ansträng": 5279,
      "atch": 5280,
      " stjärn": 5281,
      " rut": 5282,
      " användar": 5283,
      " resul": 5284,
      " platsen": 5285,
      "försälj": 5286,
      " kvällen": 5287,
      "anen": 5288,
      "inska": 5289,
      " mjuk": 5290,
      " islam": 5291,
      " franska": 5292,
      "ägare": 5293,
      " Bi": 5294,
      " äntligen": 5295,
      " klag": 5296,
      "minister": 5297,
      " intervju": 5298,
      " princip": 5299,
      "Stor": 5300,
      "Vän": 5301,
      " grunden": 5302,
      " ordförande": 5303,
      " effekter": 5304,
      " maxim": 5305,
      "NA": 5306,
      "vand": 5307,
      "ener": 5308,
      "ställer": 5309,
      "dem": 5310,
      "rastruktur": 5311,
      "skare": 5312,
      " grunda": 5313,
      " diagnos": 5314,
      " förny": 5315,
      " bonus": 5316,
      " sannolikt": 5317,
      " intellig": 5318,
      " sån": 5319,
      " förfar": 5320,
      " Per": 5321,
      "samling": 5322,
      "värde": 5323,
      " totalt": 5324,
      " betrakta": 5325,
      "Mar": 5326,
      "gn": 5327,
      "ward": 5328,
      "etiska": 5329,
      " drog": 5330,
      " multi": 5331,
      " vore": 5332,
      "edom": 5333,
      "dast": 5334,
      " Bu": 5335,
      "räde": 5336,
      " kaffe": 5337,
      " hittade": 5338,
      " emellertid": 5339,
      " distribu": 5340,
      " avläg": 5341,
      " skil": 5342,
      " Men": 5343,
      " värme": 5344,
      " sägs": 5345,
      "190": 5346,
      " handling": 5347,
      " motiver": 5348,
      " vinst": 5349,
      " traditionella": 5350,
      " konferens": 5351,
      "dighet": 5352,
      " bestämma": 5353,
      " omfattas": 5354,
      " Paul": 5355,
      " #": 5356,
      "LL": 5357,
      "tgär": 5358,
      "vt": 5359,
      "sträck": 5360,
      " uppstår": 5361,
      " Mich": 5362,
      " alldeles": 5363,
      " Ca": 5364,
      " värder": 5365,
      " klara": 5366,
      " artikeln": 5367,
      " yng": 5368,
      "området": 5369,
      " gas": 5370,
      " överlev": 5371,
      " Upp": 5372,
      " rapport": 5373,
      " paket": 5374,
      " visst": 5375,
      " intresserad": 5376,
      "byte": 5377,
      " officiella": 5378,
      " äng": 5379,
      "tom": 5380,
      " augusti": 5381,
      " hit": 5382,
      "igen": 5383,
      " Sm": 5384,
      "ledes": 5385,
      " lärt": 5386,
      " godkän": 5387,
      " drift": 5388,
      " föddes": 5389,
      " massor": 5390,
      "75": 5391,
      "OR": 5392,
      "burg": 5393,
      "ear": 5394,
      " gym": 5395,
      "rop": 5396,
      " samla": 5397,
      " Ju": 5398,
      " bröllop": 5399,
      " uppfylla": 5400,
      " situationer": 5401,
      " slags": 5402,
      " rådets": 5403,
      " färdigheter": 5404,
      "Gå": 5405,
      "IT": 5406,
      " drar": 5407,
      " förrän": 5408,
      "rimin": 5409,
      "äls": 5410,
      "kerna": 5411,
      "barn": 5412,
      " internationellt": 5413,
      " begäran": 5414,
      " ansökan": 5415,
      " +": 5416,
      "ID": 5417,
      "Sy": 5418,
      "Svar": 5419,
      "Välj": 5420,
      "utat": 5421,
      " sats": 5422,
      "arta": 5423,
      "ulär": 5424,
      " Ed": 5425,
      " Liv": 5426,
      " klock": 5427,
      " Off": 5428,
      " investering": 5429,
      " individer": 5430,
      "Bet": 5431,
      "hang": 5432,
      " fartyg": 5433,
      "tikel": 5434,
      " buss": 5435,
      " tillägg": 5436,
      " skul": 5437,
      " hjärt": 5438,
      " intressen": 5439,
      " otroligt": 5440,
      "kiner": 5441,
      " medarbetare": 5442,
      " reklam": 5443,
      " Min": 5444,
      " självständ": 5445,
      " sitta": 5446,
      " familjer": 5447,
      " idrott": 5448,
      "oxid": 5449,
      "namn": 5450,
      " behålla": 5451,
      " katt": 5452,
      "skor": 5453,
      " Mc": 5454,
      " Microsoft": 5455,
      " begrepp": 5456,
      " tjej": 5457,
      "Jo": 5458,
      " förklara": 5459,
      "ritor": 5460,
      " unik": 5461,
      " närings": 5462,
      " kompon": 5463,
      "ässiga": 5464,
      "behandling": 5465,
      "sc": 5466,
      " buti": 5467,
      " utfär": 5468,
      "issionens": 5469,
      " upplevelse": 5470,
      " definitivt": 5471,
      " militär": 5472,
      " respektive": 5473,
      " ryska": 5474,
      "??\n": 5475,
      "ander": 5476,
      " stund": 5477,
      "itel": 5478,
      " respekt": 5479,
      " konver": 5480,
      " Rom": 5481,
      "arken": 5482,
      " uppfyll": 5483,
      " rapporter": 5484,
      " religi": 5485,
      "PS": 5486,
      "ale": 5487,
      " uppe": 5488,
      "pack": 5489,
      "visar": 5490,
      "ställningen": 5491,
      " serie": 5492,
      " skrift": 5493,
      " synner": 5494,
      " etc": 5495,
      " köpte": 5496,
      "gruppen": 5497,
      " bevilj": 5498,
      " utsläpp": 5499,
      "ots": 5500,
      "Lär": 5501,
      "mul": 5502,
      "chef": 5503,
      " sommaren": 5504,
      " Hel": 5505,
      "verksamhet": 5506,
      "150": 5507,
      " situationen": 5508,
      " Kristus": 5509,
      " af": 5510,
      " morg": 5511,
      " nej": 5512,
      " berg": 5513,
      "ologisk": 5514,
      " aktiva": 5515,
      " öppnar": 5516,
      "draget": 5517,
      " cookies": 5518,
      "ängd": 5519,
      "bilitet": 5520,
      " rim": 5521,
      " skapade": 5522,
      " finansiering": 5523,
      " myndigheterna": 5524,
      " bransch": 5525,
      " mät": 5526,
      " filmer": 5527,
      "villkor": 5528,
      " äventyr": 5529,
      " fött": 5530,
      "fören": 5531,
      " slutar": 5532,
      " drag": 5533,
      " modell": 5534,
      "Europa": 5535,
      " Spanien": 5536,
      "Just": 5537,
      " ho": 5538,
      " kil": 5539,
      " skador": 5540,
      " City": 5541,
      " ökat": 5542,
      "Håll": 5543,
      "kam": 5544,
      "estäm": 5545,
      "sättningen": 5546,
      " igår": 5547,
      "sbruk": 5548,
      " syftar": 5549,
      "Fråga": 5550,
      " timme": 5551,
      "Deras": 5552,
      " pan": 5553,
      " tum": 5554,
      " utifrån": 5555,
      "tell": 5556,
      " stri": 5557,
      "sien": 5558,
      " IT": 5559,
      " någonstans": 5560,
      "rivill": 5561,
      " döden": 5562,
      " rörelse": 5563,
      " invån": 5564,
      " meddelande": 5565,
      " säsong": 5566,
      "då": 5567,
      "nu": 5568,
      " mera": 5569,
      " ökade": 5570,
      "station": 5571,
      "oth": 5572,
      "ansvar": 5573,
      " Li": 5574,
      " höger": 5575,
      " längs": 5576,
      " berättade": 5577,
      " undrar": 5578,
      "ripande": 5579,
      "set": 5580,
      "vic": 5581,
      " tun": 5582,
      " tak": 5583,
      " nån": 5584,
      " rent": 5585,
      "191": 5586,
      " finna": 5587,
      " kraf": 5588,
      "kej": 5589,
      "rediens": 5590,
      " lagstiftning": 5591,
      " England": 5592,
      "ni": 5593,
      " bära": 5594,
      " tider": 5595,
      "ekonom": 5596,
      " Av": 5597,
      " därefter": 5598,
      "stret": 5599,
      "servera": 5600,
      " sist": 5601,
      "utna": 5602,
      "delen": 5603,
      " välj": 5604,
      " prestanda": 5605,
      "fattare": 5606,
      " tyska": 5607,
      " kulture": 5608,
      " adress": 5609,
      " utmaningar": 5610,
      " hundar": 5611,
      "Ka": 5612,
      "Liv": 5613,
      "mor": 5614,
      " nöj": 5615,
      " prova": 5616,
      " exister": 5617,
      " verkligheten": 5618,
      " Wh": 5619,
      " naturligt": 5620,
      " fria": 5621,
      " modeller": 5622,
      " medlemsstat": 5623,
      "Phone": 5624,
      "!”\n": 5625,
      "Del": 5626,
      "såg": 5627,
      " sur": 5628,
      " brev": 5629,
      " evenemang": 5630,
      " ref": 5631,
      "....": 5632,
      " Jer": 5633,
      "Innan": 5634,
      " ras": 5635,
      " sjö": 5636,
      " klicka": 5637,
      "32": 5638,
      "agement": 5639,
      " tand": 5640,
      " jour": 5641,
      "ekter": 5642,
      "umera": 5643,
      " separ": 5644,
      "ringen": 5645,
      " former": 5646,
      " parlament": 5647,
      " valet": 5648,
      " huvudet": 5649,
      "Båda": 5650,
      "Er": 5651,
      "kad": 5652,
      " utvärder": 5653,
      " händelse": 5654,
      " behandlingen": 5655,
      "coin": 5656,
      "Kl": 5657,
      " fu": 5658,
      " Net": 5659,
      " profil": 5660,
      " disku": 5661,
      " Japan": 5662,
      "Behöver": 5663,
      "EC": 5664,
      "bjud": 5665,
      "träd": 5666,
      "ington": 5667,
      "änning": 5668,
      " övervak": 5669,
      " konsta": 5670,
      "språk": 5671,
      "sfull": 5672,
      "beln": 5673,
      " säljer": 5674,
      " himlen": 5675,
      "iabetes": 5676,
      "400": 5677,
      "end": 5678,
      " leverera": 5679,
      " riktiga": 5680,
      " ögonen": 5681,
      " territor": 5682,
      " global": 5683,
      "baserade": 5684,
      " orsakar": 5685,
      " försökte": 5686,
      " Qu": 5687,
      " National": 5688,
      "jölk": 5689,
      " ansikte": 5690,
      "Sta": 5691,
      " sal": 5692,
      " sår": 5693,
      "ometer": 5694,
      "igur": 5695,
      " förf": 5696,
      " avstånd": 5697,
      "ckar": 5698,
      " dial": 5699,
      " ordning": 5700,
      " konsument": 5701,
      " ramen": 5702,
      "Fast": 5703,
      "xis": 5704,
      " utbud": 5705,
      " sål": 5706,
      " Col": 5707,
      "ike": 5708,
      "domen": 5709,
      " olyck": 5710,
      "döm": 5711,
      " fönster": 5712,
      " förel": 5713,
      "iserade": 5714,
      " skor": 5715,
      " Island": 5716,
      "sområden": 5717,
      " intensi": 5718,
      "ledning": 5719,
      " kriget": 5720,
      "kväll": 5721,
      " medveten": 5722,
      " roman": 5723,
      " extremt": 5724,
      " utforska": 5725,
      "AC": 5726,
      "riska": 5727,
      "ette": 5728,
      " fing": 5729,
      " akadem": 5730,
      " föra": 5731,
      "dex": 5732,
      "cks": 5733,
      "liggande": 5734,
      " ställer": 5735,
      " sträck": 5736,
      " undan": 5737,
      "ekar": 5738,
      " konsti": 5739,
      " lämnade": 5740,
      " landets": 5741,
      " tillfälle": 5742,
      " gemensamt": 5743,
      "ED": 5744,
      "gat": 5745,
      " föret": 5746,
      " Bl": 5747,
      " Po": 5748,
      "perat": 5749,
      " betalar": 5750,
      "Något": 5751,
      " skrivit": 5752,
      " befintliga": 5753,
      " synnerhet": 5754,
      "Mål": 5755,
      "ony": 5756,
      " listan": 5757,
      " upphör": 5758,
      " Jack": 5759,
      " spelade": 5760,
      " brän": 5761,
      "Inget": 5762,
      " On": 5763,
      " förlorade": 5764,
      " byta": 5765,
      " upphov": 5766,
      " relativt": 5767,
      " överensstäm": 5768,
      " verksamheten": 5769,
      "oo": 5770,
      "zz": 5771,
      " fal": 5772,
      " skull": 5773,
      " värdet": 5774,
      " verket": 5775,
      " återupp": 5776,
      " erfarenheter": 5777,
      " annonser": 5778,
      " integritet": 5779,
      "-för": 5780,
      "ii": 5781,
      "”Jag": 5782,
      "anti": 5783,
      "oma": 5784,
      " förtjän": 5785,
      " kunden": 5786,
      " dåliga": 5787,
      " kommunic": 5788,
      " positiva": 5789,
      " diskuss": 5790,
      " faller": 5791,
      " aktuella": 5792,
      " brittiska": 5793,
      "uri": 5794,
      "way": 5795,
      " fe": 5796,
      " mitten": 5797,
      " bibliote": 5798,
      " valuta": 5799,
      " skola": 5800,
      " religion": 5801,
      "miär": 5802,
      " engagemang": 5803,
      " tusentals": 5804,
      "ografi": 5805,
      "-\n": 5806,
      "-,": 5807,
      "33": 5808,
      "Hen": 5809,
      "Hade": 5810,
      "aller": 5811,
      "nummer": 5812,
      "off": 5813,
      " Will": 5814,
      "ställande": 5815,
      " Ob": 5816,
      "Medlem": 5817,
      " styrka": 5818,
      " installa": 5819,
      " lämpliga": 5820,
      " omöjligt": 5821,
      "!\"\n": 5822,
      "Tre": 5823,
      "Tror": 5824,
      " last": 5825,
      " tillför": 5826,
      "urn": 5827,
      " beakt": 5828,
      " däremot": 5829,
      " orig": 5830,
      " nationell": 5831,
      "råket": 5832,
      " människorna": 5833,
      " kris": 5834,
      " aktiver": 5835,
      " förändras": 5836,
      " taget": 5837,
      " felak": 5838,
      " beskriver": 5839,
      "Människor": 5840,
      "-program": 5841,
      ":e": 5842,
      "Reg": 5843,
      "hundra": 5844,
      "nät": 5845,
      " letar": 5846,
      "roid": 5847,
      " Italien": 5848,
      " offer": 5849,
      " förmån": 5850,
      " amerikansk": 5851,
      " position": 5852,
      " klassi": 5853,
      "skriget": 5854,
      "Slut": 5855,
      "öda": 5856,
      " sli": 5857,
      " förtroende": 5858,
      "verktyg": 5859,
      "ågor": 5860,
      " Mer": 5861,
      " aktivt": 5862,
      "resent": 5863,
      "Resultat": 5864,
      " skiljer": 5865,
      " mångf": 5866,
      "uf": 5867,
      " kur": 5868,
      " Cl": 5869,
      " \"\n": 5870,
      " ingrediens": 5871,
      " turn": 5872,
      " ladda": 5873,
      "ON": 5874,
      "jul": 5875,
      " vägg": 5876,
      " tål": 5877,
      " strå": 5878,
      " kunskaper": 5879,
      " exkl": 5880,
      " moder": 5881,
      " kräv": 5882,
      " förhand": 5883,
      " shopp": 5884,
      " stoppa": 5885,
      "Barn": 5886,
      "sprocessen": 5887,
      " glada": 5888,
      " arkitekt": 5889,
      "ht": 5890,
      "lär": 5891,
      "slig": 5892,
      "ått": 5893,
      "erats": 5894,
      " sent": 5895,
      "inister": 5896,
      "tastro": 5897,
      "regi": 5898,
      " vist": 5899,
      "Endast": 5900,
      " vanlig": 5901,
      " gruppen": 5902,
      " använt": 5903,
      " promenad": 5904,
      "99": 5905,
      "tika": 5906,
      "iges": 5907,
      " når": 5908,
      " annars": 5909,
      "ätter": 5910,
      " Sci": 5911,
      " restaur": 5912,
      " Gl": 5913,
      " företagets": 5914,
      " tex": 5915,
      " svarar": 5916,
      " möter": 5917,
      "mosfär": 5918,
      "hur": 5919,
      "omin": 5920,
      "ycken": 5921,
      " ert": 5922,
      " plötsligt": 5923,
      " högst": 5924,
      " ändras": 5925,
      " använde": 5926,
      " riktlin": 5927,
      " unionens": 5928,
      " nyckel": 5929,
      " enorm": 5930,
      "ila": 5931,
      " upplever": 5932,
      "ström": 5933,
      " äld": 5934,
      " ändringar": 5935,
      " You": 5936,
      " patient": 5937,
      "kvens": 5938,
      " födel": 5939,
      " ;": 5940,
      "nor": 5941,
      " påstå": 5942,
      "hets": 5943,
      " Syd": 5944,
      "orts": 5945,
      " konser": 5946,
      " dagliga": 5947,
      "smed": 5948,
      " hittills": 5949,
      " eld": 5950,
      " parter": 5951,
      " tänkt": 5952,
      "risti": 5953,
      " betalning": 5954,
      "igheterna": 5955,
      " sympt": 5956,
      "grupper": 5957,
      " allvarliga": 5958,
      " toppen": 5959,
      " kallad": 5960,
      " administra": 5961,
      " negativa": 5962,
      " morgonen": 5963,
      " Å": 5964,
      "fe": 5965,
      "melse": 5966,
      "pren": 5967,
      " fab": 5968,
      "örja": 5969,
      " reag": 5970,
      "serna": 5971,
      "ktiga": 5972,
      "dagar": 5973,
      " bröst": 5974,
      " pengarna": 5975,
      " filos": 5976,
      " positiv": 5977,
      " skillnaden": 5978,
      " Group": 5979,
      "Gr": 5980,
      "ene": 5981,
      " vann": 5982,
      "oni": 5983,
      "teringar": 5984,
      " Star": 5985,
      " Hotel": 5986,
      "sätter": 5987,
      " finans": 5988,
      " växande": 5989,
      " bestämmer": 5990,
      " önsk": 5991,
      " professionella": 5992,
      " leverantörer": 5993,
      " omständigheter": 5994,
      "rut": 5995,
      "ele": 5996,
      "stern": 5997,
      " verklighet": 5998,
      " väder": 5999,
      " Char": 6000,
      " märk": 6001,
      " fattig": 6002,
      "Her": 6003,
      "bell": 6004,
      "länderna": 6005,
      "sorg": 6006,
      " sinn": 6007,
      "ance": 6008,
      "stekn": 6009,
      " iväg": 6010,
      " Fl": 6011,
      "ierade": 6012,
      " hörde": 6013,
      " allmänheten": 6014,
      " fantastiskt": 6015,
      " fysisk": 6016,
      " uppmärksam": 6017,
      " frukost": 6018,
      " grundades": 6019,
      "Go": 6020,
      "Kvinn": 6021,
      "jande": 6022,
      "kun": 6023,
      "yper": 6024,
      " förutom": 6025,
      "isar": 6026,
      " bearbet": 6027,
      " lager": 6028,
      " senast": 6029,
      " ont": 6030,
      "pression": 6031,
      "Precis": 6032,
      " äktenskap": 6033,
      " finner": 6034,
      " tilldel": 6035,
      "ema": 6036,
      " Ben": 6037,
      " Trump": 6038,
      " tvungen": 6039,
      " förläng": 6040,
      "snivå": 6041,
      " kamer": 6042,
      " stranden": 6043,
      " processer": 6044,
      " kommentarer": 6045,
      "nitt": 6046,
      "röm": 6047,
      " lid": 6048,
      " Till": 6049,
      " Gam": 6050,
      " framsteg": 6051,
      "uvida": 6052,
      " långsikti": 6053,
      " filer": 6054,
      " särskild": 6055,
      " allmänt": 6056,
      " förväntas": 6057,
      " datorn": 6058,
      "Dock": 6059,
      "sna": 6060,
      "orin": 6061,
      " inrätt": 6062,
      "orth": 6063,
      " Jon": 6064,
      "angel": 6065,
      " speciell": 6066,
      " rekommenda": 6067,
      "olutionen": 6068,
      " identitet": 6069,
      " fastighet": 6070,
      " passion": 6071,
      " befolkningen": 6072,
      "amilje": 6073,
      "BA": 6074,
      "alla": 6075,
      "pr": 6076,
      "voka": 6077,
      " frivill": 6078,
      " minns": 6079,
      " ep": 6080,
      " recept": 6081,
      " expan": 6082,
      " väsent": 6083,
      " affärs": 6084,
      " tillhandahåller": 6085,
      " dörren": 6086,
      "god": 6087,
      "anal": 6088,
      " aut": 6089,
      "dela": 6090,
      " Cor": 6091,
      " Business": 6092,
      "180": 6093,
      " bakgrund": 6094,
      " cykel": 6095,
      " ’": 6096,
      "Nya": 6097,
      "bär": 6098,
      "back": 6099,
      "mm": 6100,
      "edi": 6101,
      "isa": 6102,
      "ream": 6103,
      "ektioner": 6104,
      " Me": 6105,
      " Comm": 6106,
      " Gar": 6107,
      " rob": 6108,
      "komma": 6109,
      " läge": 6110,
      " regn": 6111,
      " aktie": 6112,
      " hjärnan": 6113,
      " flexi": 6114,
      " ansvarig": 6115,
      " sammanhang": 6116,
      " fix": 6117,
      " betydligt": 6118,
      " bryta": 6119,
      "ståndet": 6120,
      "OM": 6121,
      "tida": 6122,
      " hä": 6123,
      " huden": 6124,
      " media": 6125,
      " koncer": 6126,
      "192": 6127,
      " självklart": 6128,
      " människors": 6129,
      "ube": 6130,
      "ange": 6131,
      " parker": 6132,
      "änsle": 6133,
      " speciella": 6134,
      " förlorar": 6135,
      " tydlig": 6136,
      " sanning": 6137,
      "fullt": 6138,
      " besöker": 6139,
      "ekanis": 6140,
      " Coll": 6141,
      "sper": 6142,
      " åker": 6143,
      " Lo": 6144,
      " värre": 6145,
      " dagarna": 6146,
      " innehålla": 6147,
      " förstär": 6148,
      " ledde": 6149,
      " hittat": 6150,
      " producera": 6151,
      " huvudstad": 6152,
      " förlorat": 6153,
      " kinesiska": 6154,
      "AD": 6155,
      "Få": 6156,
      "bler": 6157,
      "ior": 6158,
      "ters": 6159,
      "olver": 6160,
      " värsta": 6161,
      " Ne": 6162,
      " tviv": 6163,
      " svarta": 6164,
      " potentiella": 6165,
      " mesta": 6166,
      "Fort": 6167,
      "dri": 6168,
      " sing": 6169,
      "livet": 6170,
      "stav": 6171,
      "entet": 6172,
      "ansen": 6173,
      " Gra": 6174,
      " undersöka": 6175,
      " brand": 6176,
      " urs": 6177,
      " planerar": 6178,
      " säkerhets": 6179,
      "vikt": 6180,
      "frågor": 6181,
      "ssystemet": 6182,
      " vanligaste": 6183,
      " föredrar": 6184,
      "Måste": 6185,
      "iration": 6186,
      "enheter": 6187,
      "ise": 6188,
      " utsikt": 6189,
      "ännen": 6190,
      " element": 6191,
      " sova": 6192,
      "alism": 6193,
      " tillgångar": 6194,
      " polisen": 6195,
      " givet": 6196,
      " förvärv": 6197,
      " skickar": 6198,
      "Tyvärr": 6199,
      " initiativ": 6200,
      "/EG": 6201,
      "måga": 6202,
      " mg": 6203,
      " hindra": 6204,
      " attra": 6205,
      " utsträck": 6206,
      "sökt": 6207,
      " WEB": 6208,
      " planer": 6209,
      " fakta": 6210,
      " transpor": 6211,
      " rummet": 6212,
      "trepren": 6213,
      " fängelse": 6214,
      "oy": 6215,
      "usten": 6216,
      "vor": 6217,
      "enskomm": 6218,
      " höjd": 6219,
      " försiktig": 6220,
      " stöder": 6221,
      "ältet": 6222,
      "likt": 6223,
      " dum": 6224,
      " välsig": 6225,
      " tjänar": 6226,
      " snö": 6227,
      " stimul": 6228,
      "vida": 6229,
      " revolution": 6230,
      " ‘": 6231,
      "bon": 6232,
      "kiska": 6233,
      "tok": 6234,
      "éer": 6235,
      " por": 6236,
      " italien": 6237,
      " strid": 6238,
      " IP": 6239,
      " Lin": 6240,
      " gröna": 6241,
      " slog": 6242,
      " utvecklar": 6243,
      "usik": 6244,
      " södra": 6245,
      " röda": 6246,
      " priori": 6247,
      " moral": 6248,
      " plattform": 6249,
      " kronor": 6250,
      " kontrakt": 6251,
      " beaktande": 6252,
      " kos": 6253,
      "stru": 6254,
      " inkomst": 6255,
      " skåde": 6256,
      " ökning": 6257,
      " Eg": 6258,
      "upplev": 6259,
      "produ": 6260,
      " snabba": 6261,
      " innehållet": 6262,
      " vetenskapliga": 6263,
      " linje": 6264,
      "Jesus": 6265,
      "mak": 6266,
      "ittén": 6267,
      "Inga": 6268,
      "hållanden": 6269,
      " fritt": 6270,
      " byggnad": 6271,
      " fokusera": 6272,
      " tillsyn": 6273,
      " drömmar": 6274,
      "Får": 6275,
      "bin": 6276,
      " dos": 6277,
      " fien": 6278,
      "områden": 6279,
      " gäster": 6280,
      " avser": 6281,
      "formen": 6282,
      "vision": 6283,
      " handla": 6284,
      " egendom": 6285,
      "sproduk": 6286,
      " behandlar": 6287,
      " atmosfär": 6288,
      "Mina": 6289,
      "Samma": 6290,
      "ota": 6291,
      " täck": 6292,
      " avfall": 6293,
      " At": 6294,
      "vapen": 6295,
      " nyheter": 6296,
      "klarna": 6297,
      "ostnader": 6298,
      " förlust": 6299,
      " driva": 6300,
      " säsongen": 6301,
      " motsvarande": 6302,
      " komplet": 6303,
      " närmaste": 6304,
      "information": 6305,
      " minne": 6306,
      "omas": 6307,
      " gyn": 6308,
      "ektiva": 6309,
      " speg": 6310,
      " tyvärr": 6311,
      "Därefter": 6312,
      "Restauranger": 6313,
      " sekunder": 6314,
      " skratt": 6315,
      "MS": 6316,
      "tima": 6317,
      " bem": 6318,
      " lunch": 6319,
      "isera": 6320,
      " expon": 6321,
      " nation": 6322,
      " begränsad": 6323,
      " …": 6324,
      " Är": 6325,
      "Istället": 6326,
      "»\n": 6327,
      "äderna": 6328,
      " socker": 6329,
      " restauranger": 6330,
      " order": 6331,
      "sområdet": 6332,
      " kapacitet": 6333,
      " politiker": 6334,
      "box": 6335,
      " förklarar": 6336,
      " Öster": 6337,
      "passa": 6338,
      " stärka": 6339,
      " låga": 6340,
      " Sal": 6341,
      "udi": 6342,
      " celler": 6343,
      " demon": 6344,
      "sprojekt": 6345,
      "anada": 6346,
      " svensk": 6347,
      "Hem": 6348,
      "ael": 6349,
      " kyl": 6350,
      "tema": 6351,
      " skräm": 6352,
      "udier": 6353,
      " Black": 6354,
      "gick": 6355,
      " Ut": 6356,
      " budskap": 6357,
      " lämpligt": 6358,
      " ersätta": 6359,
      " undersökning": 6360,
      " leverantör": 6361,
      "läk": 6362,
      " out": 6363,
      " tillfred": 6364,
      "spart": 6365,
      "såtgär": 6366,
      " vidta": 6367,
      "ysning": 6368,
      " förvand": 6369,
      "medlem": 6370,
      "skrifter": 6371,
      " skickas": 6372,
      " uttalande": 6373,
      " Indien": 6374,
      "IC": 6375,
      "hel": 6376,
      "yer": 6377,
      "derade": 6378,
      "innande": 6379,
      " Pri": 6380,
      " svaret": 6381,
      " artiklar": 6382,
      " gjorts": 6383,
      "sraels": 6384,
      " lugn": 6385,
      " utsträckning": 6386,
      " *": 6387,
      ".”": 6388,
      "handel": 6389,
      " sammans": 6390,
      " Dig": 6391,
      "odde": 6392,
      "unds": 6393,
      "celler": 6394,
      "Inom": 6395,
      "smyndig": 6396,
      "enderar": 6397,
      " mängder": 6398,
      " insatser": 6399,
      " ersättning": 6400,
      " Australien": 6401,
      "tokoll": 6402,
      "34": 6403,
      "Hej": 6404,
      "inter": 6405,
      " isol": 6406,
      " varmt": 6407,
      "ternas": 6408,
      "imin": 6409,
      "ikali": 6410,
      " perman": 6411,
      " infrastruktur": 6412,
      " invand": 6413,
      " lämplig": 6414,
      " medicinska": 6415,
      "leverant": 6416,
      "Hela": 6417,
      "Saker": 6418,
      "länder": 6419,
      " SE": 6420,
      " överva": 6421,
      " Ba": 6422,
      " cell": 6423,
      " immun": 6424,
      " kostar": 6425,
      " resultaten": 6426,
      "väx": 6427,
      " belopp": 6428,
      " myndighet": 6429,
      "gården": 6430,
      " konkurren": 6431,
      " tyckte": 6432,
      " licens": 6433,
      "38": 6434,
      "].\n": 6435,
      "go": 6436,
      "olla": 6437,
      "entera": 6438,
      "eland": 6439,
      "reet": 6440,
      " varken": 6441,
      " Dr": 6442,
      " IS": 6443,
      " delvis": 6444,
      " bilda": 6445,
      " återh": 6446,
      " kök": 6447,
      "tigheter": 6448,
      "tigheten": 6449,
      " studera": 6450,
      " startade": 6451,
      " investera": 6452,
      "resultat": 6453,
      " experter": 6454,
      " skönhet": 6455,
      "Ad": 6456,
      "Pris": 6457,
      "RA": 6458,
      "ctor": 6459,
      "handling": 6460,
      " kart": 6461,
      " enklare": 6462,
      " lör": 6463,
      "ited": 6464,
      "uset": 6465,
      " gräns": 6466,
      "söver": 6467,
      " tvätt": 6468,
      " laget": 6469,
      " testa": 6470,
      " urval": 6471,
      "sföretag": 6472,
      " bedö": 6473,
      " kamp": 6474,
      " sällan": 6475,
      "muntra": 6476,
      " Twitter": 6477,
      " x": 6478,
      "IV": 6479,
      " olag": 6480,
      " avse": 6481,
      " styra": 6482,
      " referens": 6483,
      " My": 6484,
      " samlar": 6485,
      " minsta": 6486,
      "gerar": 6487,
      " livss": 6488,
      "anten": 6489,
      " rika": 6490,
      " kraven": 6491,
      " specialis": 6492,
      "ext": 6493,
      "indrar": 6494,
      " korta": 6495,
      " driver": 6496,
      " universum": 6497,
      " djupt": 6498,
      " erbjuds": 6499,
      " tillverkning": 6500,
      "skraft": 6501,
      " analyser": 6502,
      "Ur": 6503,
      "USA": 6504,
      "mord": 6505,
      "ua": 6506,
      " rygg": 6507,
      " Pet": 6508,
      " Turk": 6509,
      " seg": 6510,
      " rikta": 6511,
      "sionen": 6512,
      " förbjud": 6513,
      " marken": 6514,
      " dött": 6515,
      "sfall": 6516,
      " förvänt": 6517,
      " född": 6518,
      " dating": 6519,
      " födelsed": 6520,
      "\"Vi": 6521,
      "Per": 6522,
      "iter": 6523,
      "lid": 6524,
      " Br": 6525,
      " resan": 6526,
      " roliga": 6527,
      " databas": 6528,
      " byggnader": 6529,
      " chansen": 6530,
      "betalning": 6531,
      "ias": 6532,
      "lår": 6533,
      "oj": 6534,
      "sy": 6535,
      " fysi": 6536,
      " agera": 6537,
      " gäst": 6538,
      "reg": 6539,
      "siden": 6540,
      " allting": 6541,
      " köpt": 6542,
      " sjön": 6543,
      "barhet": 6544,
      " kvinnan": 6545,
      " valde": 6546,
      " papper": 6547,
      " talade": 6548,
      " [+": 6549,
      " dokum": 6550,
      "satsen": 6551,
      "37": 6552,
      "48": 6553,
      "IP": 6554,
      "ide": 6555,
      " döm": 6556,
      " aspek": 6557,
      " middag": 6558,
      "tider": 6559,
      "ärlek": 6560,
      " he": 6561,
      "stat": 6562,
      " göm": 6563,
      "föring": 6564,
      " heliga": 6565,
      " nyhet": 6566,
      " efterfrågan": 6567,
      " livs": 6568,
      "yrån": 6569,
      " ägare": 6570,
      " studien": 6571,
      " räkna": 6572,
      " deltagare": 6573,
      " källor": 6574,
      "öteborg": 6575,
      "vår": 6576,
      " oer": 6577,
      " vända": 6578,
      " vinner": 6579,
      " ba": 6580,
      " tolk": 6581,
      " vit": 6582,
      " varia": 6583,
      "rikta": 6584,
      "skop": 6585,
      "ämnen": 6586,
      " Mad": 6587,
      " På": 6588,
      " Tra": 6589,
      " mått": 6590,
      " bilaga": 6591,
      "värdet": 6592,
      " ekonomiskt": 6593,
      " tillgängligt": 6594,
      " versionen": 6595,
      "amerika": 6596,
      " ideal": 6597,
      "Tidigare": 6598,
      "65": 6599,
      "föd": 6600,
      " kast": 6601,
      "star": 6602,
      "onden": 6603,
      "ilver": 6604,
      " skuld": 6605,
      " Alex": 6606,
      " art": 6607,
      "talt": 6608,
      "forn": 6609,
      "kland": 6610,
      " huruvida": 6611,
      " poker": 6612,
      "äkter": 6613,
      " brett": 6614,
      " nio": 6615,
      "parti": 6616,
      " ändring": 6617,
      " obeh": 6618,
      " ungdom": 6619,
      " kyrk": 6620,
      "skolan": 6621,
      " kvalific": 6622,
      "-ser": 6623,
      "39": 6624,
      "Mo": 6625,
      "Natur": 6626,
      "dning": 6627,
      "hy": 6628,
      "vil": 6629,
      " säm": 6630,
      " familje": 6631,
      " tera": 6632,
      " tju": 6633,
      "ree": 6634,
      " anpassa": 6635,
      " räcker": 6636,
      " besluta": 6637,
      " närvaro": 6638,
      " Bit": 6639,
      " underbara": 6640,
      " exist": 6641,
      "problem": 6642,
      " lämnat": 6643,
      "givning": 6644,
      " ansvarar": 6645,
      "ässigt": 6646,
      " bedömning": 6647,
      " generation": 6648,
      " yngre": 6649,
      "ny": 6650,
      " as": 6651,
      " kat": 6652,
      " boka": 6653,
      " entrepren": 6654,
      " ansikt": 6655,
      " Kan": 6656,
      " dagligen": 6657,
      " användaren": 6658,
      " papp": 6659,
      " möten": 6660,
      "Program": 6661,
      " innovativa": 6662,
      " detaljer": 6663,
      " acceptera": 6664,
      " himmel": 6665,
      " professionell": 6666,
      " motsvarar": 6667,
      " fortsatte": 6668,
      " yt": 6669,
      "Gra": 6670,
      "II": 6671,
      "Klicka": 6672,
      " sinne": 6673,
      " fält": 6674,
      "onald": 6675,
      " ting": 6676,
      " tunn": 6677,
      " uppstå": 6678,
      "ness": 6679,
      " Nor": 6680,
      " utvecklats": 6681,
      " lagt": 6682,
      " drama": 6683,
      " riktig": 6684,
      " baserad": 6685,
      " förbereda": 6686,
      "Bland": 6687,
      "hal": 6688,
      "ware": 6689,
      " kurs": 6690,
      " föregående": 6691,
      " ul": 6692,
      " ansluta": 6693,
      "verkade": 6694,
      "empl": 6695,
      " We": 6696,
      " rättfär": 6697,
      " rättsliga": 6698,
      "ningsför": 6699,
      " ledning": 6700,
      " fint": 6701,
      " programvara": 6702,
      " ekonomin": 6703,
      " ställning": 6704,
      " […": 6705,
      " övrigt": 6706,
      " involver": 6707,
      " glömma": 6708,
      " instruk": 6709,
      "Syftet": 6710,
      "Te": 6711,
      "bass": 6712,
      "gin": 6713,
      "inar": 6714,
      " vac": 6715,
      " boende": 6716,
      " batter": 6717,
      " prä": 6718,
      " utl": 6719,
      " Sim": 6720,
      " hav": 6721,
      "juder": 6722,
      " barns": 6723,
      " perioden": 6724,
      " webbläs": 6725,
      " politisk": 6726,
      "lösning": 6727,
      " bolaget": 6728,
      " befolkning": 6729,
      "stjänster": 6730,
      " kontinuer": 6731,
      "Pl": 6732,
      "valt": 6733,
      " fj": 6734,
      " vand": 6735,
      " förvar": 6736,
      " gro": 6737,
      "teringen": 6738,
      " öl": 6739,
      " uppmuntra": 6740,
      " åld": 6741,
      " Di": 6742,
      " Lu": 6743,
      "värda": 6744,
      " väd": 6745,
      " aktier": 6746,
      "slaget": 6747,
      " myndigheten": 6748,
      " framgångsrika": 6749,
      " besvik": 6750,
      " förtjänar": 6751,
      "95": 6752,
      "sj": 6753,
      "”Det": 6754,
      " Fil": 6755,
      "ygt": 6756,
      " helhet": 6757,
      "ican": 6758,
      " Ver": 6759,
      " bryr": 6760,
      "ege": 6761,
      " utmaning": 6762,
      "produktion": 6763,
      " relevant": 6764,
      " billig": 6765,
      " avancerade": 6766,
      "SE": 6767,
      "Sl": 6768,
      "Speci": 6769,
      "ls": 6770,
      "rens": 6771,
      " boll": 6772,
      "ase": 6773,
      " varm": 6774,
      " öm": 6775,
      "delningen": 6776,
      " rättvisa": 6777,
      " yttre": 6778,
      " positivt": 6779,
      " orsaken": 6780,
      " !\n": 6781,
      " ack": 6782,
      " hed": 6783,
      "änker": 6784,
      "rapp": 6785,
      "edda": 6786,
      "seff": 6787,
      "jänster": 6788,
      " åtag": 6789,
      " förvå": 6790,
      " planet": 6791,
      " tidiga": 6792,
      " ämne": 6793,
      " villkoren": 6794,
      "elaterade": 6795,
      " utnyttja": 6796,
      " [+]\n": 6797,
      " 🙂": 6798,
      "120": 6799,
      "Bästa": 6800,
      "ova": 6801,
      " fan": 6802,
      "tain": 6803,
      " Soci": 6804,
      "ästare": 6805,
      " vägar": 6806,
      " lösningen": 6807,
      " affärer": 6808,
      "Alltså": 6809,
      " fokuserar": 6810,
      " starkare": 6811,
      "Ju": 6812,
      "punkter": 6813,
      "röst": 6814,
      " sorg": 6815,
      " fra": 6816,
      "rister": 6817,
      "ktiva": 6818,
      " Des": 6819,
      " serien": 6820,
      " löp": 6821,
      " organisationen": 6822,
      " rädsla": 6823,
      " behovet": 6824,
      " desto": 6825,
      " berömda": 6826,
      "ppna": 6827,
      " utgång": 6828,
      " underteck": 6829,
      " lider": 6830,
      " ambi": 6831,
      "savtal": 6832,
      " Danmark": 6833,
      "aliforn": 6834,
      " restaurang": 6835,
      "!!!\n": 6836,
      "-S": 6837,
      "App": 6838,
      "räg": 6839,
      " nåt": 6840,
      " påm": 6841,
      "deras": 6842,
      "litet": 6843,
      " näring": 6844,
      " månaden": 6845,
      "ics": 6846,
      " ända": 6847,
      " slår": 6848,
      "värm": 6849,
      " företags": 6850,
      " förbi": 6851,
      "ife": 6852,
      " ställen": 6853,
      " röra": 6854,
      "telef": 6855,
      " back": 6856,
      " pil": 6857,
      "ägna": 6858,
      " plast": 6859,
      " nödvändig": 6860,
      " lyckades": 6861,
      " medlemsstater": 6862,
      "Välkommen": 6863,
      "Glöm": 6864,
      " certifier": 6865,
      "fort": 6866,
      "hopp": 6867,
      "örd": 6868,
      " avsikt": 6869,
      " anklag": 6870,
      " harmon": 6871,
      " utbil": 6872,
      "ole": 6873,
      " spanska": 6874,
      " lita": 6875,
      " bränsle": 6876,
      " Institu": 6877,
      " lämnas": 6878,
      " konstru": 6879,
      " tekniker": 6880,
      "cykel": 6881,
      " norra": 6882,
      " förekommer": 6883,
      " guide": 6884,
      " Em": 6885,
      " årets": 6886,
      "iddagen": 6887,
      "smet": 6888,
      " vind": 6889,
      " syssel": 6890,
      " student": 6891,
      " ungdomar": 6892,
      " Sveriges": 6893,
      " sekret": 6894,
      " beskrivs": 6895,
      " knappt": 6896,
      " gifta": 6897,
      "Företaget": 6898,
      "industrin": 6899,
      ".a": 6900,
      "hi": 6901,
      "punkten": 6902,
      "vig": 6903,
      "örerna": 6904,
      " avtalet": 6905,
      "atin": 6906,
      " uppgra": 6907,
      "ekom": 6908,
      " koncept": 6909,
      " Er": 6910,
      " Israels": 6911,
      " flas": 6912,
      " Nya": 6913,
      " äkta": 6914,
      " samtycke": 6915,
      " alterna": 6916,
      "ology": 6917,
      " globalt": 6918,
      " godkännande": 6919,
      "gränsa": 6920,
      " Android": 6921,
      " exklusi": 6922,
      "jet": 6923,
      "valitet": 6924,
      "ano": 6925,
      " botten": 6926,
      " gill": 6927,
      " recen": 6928,
      "ffer": 6929,
      "yggt": 6930,
      " IN": 6931,
      "ical": 6932,
      "ödet": 6933,
      "ställda": 6934,
      "sätta": 6935,
      " seri": 6936,
      " passager": 6937,
      "sstaterna": 6938,
      "rustning": 6939,
      " riktning": 6940,
      " föreslår": 6941,
      " dynam": 6942,
      " juridiska": 6943,
      ".\"": 6944,
      " mönster": 6945,
      " mjölk": 6946,
      "onym": 6947,
      " länk": 6948,
      " stål": 6949,
      " Mart": 6950,
      " ordent": 6951,
      " national": 6952,
      " Vär": 6953,
      "ions": 6954,
      " One": 6955,
      " premiär": 6956,
      "dana": 6957,
      " marknader": 6958,
      " domstolen": 6959,
      "exik": 6960,
      " syster": 6961,
      "rycka": 6962,
      " länderna": 6963,
      "försäkring": 6964,
      " mängden": 6965,
      " rekommenderas": 6966,
      " Management": 6967,
      " principer": 6968,
      "Flera": 6969,
      " fullständigt": 6970,
      " muslim": 6971,
      " journa": 6972,
      " äldsta": 6973,
      "-C": 6974,
      "-fil": 6975,
      "55": 6976,
      "nämn": 6977,
      "satser": 6978,
      " fylla": 6979,
      " uppm": 6980,
      " Norge": 6981,
      " James": 6982,
      "ystemet": 6983,
      " berättelse": 6984,
      " läste": 6985,
      " tillämpning": 6986,
      " viktigare": 6987,
      " räknas": 6988,
      " påverkas": 6989,
      " tonår": 6990,
      " spendera": 6991,
      " funnits": 6992,
      " reflek": 6993,
      " diskutera": 6994,
      "DA": 6995,
      "där": 6996,
      "räng": 6997,
      " au": 6998,
      "året": 6999,
      " jäv": 7000,
      " Afrika": 7001,
      " Ir": 7002,
      " helg": 7003,
      "öjligheter": 7004,
      " arbetat": 7005,
      " bekämpa": 7006,
      " noga": 7007,
      "växten": 7008,
      " förhandling": 7009,
      " förvänta": 7010,
      " varumärke": 7011,
      " uppfattning": 7012,
      " invånare": 7013,
      "IF": 7014,
      "cancer": 7015,
      "täck": 7016,
      " support": 7017,
      " mak": 7018,
      " hinder": 7019,
      " lab": 7020,
      " avsk": 7021,
      "eld": 7022,
      " utseende": 7023,
      " samlas": 7024,
      " Ham": 7025,
      "sex": 7026,
      " värden": 7027,
      " delas": 7028,
      " tacka": 7029,
      " återv": 7030,
      " olja": 7031,
      " normala": 7032,
      " passer": 7033,
      " reglerna": 7034,
      "weiz": 7035,
      " oerhör": 7036,
      "IG": 7037,
      "gil": 7038,
      " upptag": 7039,
      "giften": 7040,
      "klass": 7041,
      "juter": 7042,
      " kvinnliga": 7043,
      "fria": 7044,
      " händerna": 7045,
      " erbjudanden": 7046,
      " gift": 7047,
      "Både": 7048,
      "Folk": 7049,
      "wood": 7050,
      " So": 7051,
      " Hans": 7052,
      " sikt": 7053,
      " metall": 7054,
      " skolor": 7055,
      " insats": 7056,
      "häl": 7057,
      "iden": 7058,
      "ås": 7059,
      " fest": 7060,
      " fyr": 7061,
      " pe": 7062,
      "skade": 7063,
      "räder": 7064,
      "venska": 7065,
      " tråd": 7066,
      " Wal": 7067,
      " hemmet": 7068,
      "yggande": 7069,
      " Angel": 7070,
      " lärde": 7071,
      " hushåll": 7072,
      " släppa": 7073,
      "mode": 7074,
      " fullständig": 7075,
      " 🙂\n": 7076,
      "Känner": 7077,
      "löst": 7078,
      " hyp": 7079,
      "orter": 7080,
      " illa": 7081,
      "istisk": 7082,
      "resa": 7083,
      " depression": 7084,
      "atet": 7085,
      "ssam": 7086,
      " Som": 7087,
      "sid": 7088,
      " överenskomm": 7089,
      "änns": 7090,
      " Port": 7091,
      " undervisning": 7092,
      " kunderna": 7093,
      " expl": 7094,
      " arbetade": 7095,
      "juka": 7096,
      " intresserade": 7097,
      " bestämt": 7098,
      "Problem": 7099,
      " tillfällen": 7100,
      " […]\n": 7101,
      "ago": 7102,
      " gil": 7103,
      " påbörj": 7104,
      " således": 7105,
      " Dis": 7106,
      "jektet": 7107,
      " regionen": 7108,
      "US": 7109,
      "ega": 7110,
      "inen": 7111,
      " gälla": 7112,
      " tenderar": 7113,
      " avgifter": 7114,
      " pågår": 7115,
      "skande": 7116,
      " real": 7117,
      " Ett": 7118,
      " släkt": 7119,
      "landet": 7120,
      " bror": 7121,
      " åtkomst": 7122,
      " teknisk": 7123,
      "Tillsammans": 7124,
      " socialt": 7125,
      " rekommendera": 7126,
      " implem": 7127,
      "Ofta": 7128,
      "PA": 7129,
      "häng": 7130,
      "jöd": 7131,
      " hyra": 7132,
      " gal": 7133,
      "aden": 7134,
      " överleva": 7135,
      " Bea": 7136,
      " vision": 7137,
      " live": 7138,
      " livsl": 7139,
      " företagen": 7140,
      " förväg": 7141,
      " fastställa": 7142,
      "unkterna": 7143,
      " europe": 7144,
      " förutsättning": 7145,
      "frågas": 7146,
      " medvetna": 7147,
      " utomhus": 7148,
      "posi": 7149,
      "ashington": 7150,
      " virtu": 7151,
      " Syrien": 7152,
      " underlätta": 7153,
      "Älskar": 7154,
      "EL": 7155,
      "Fakt": 7156,
      "Fler": 7157,
      "tog": 7158,
      " bin": 7159,
      "iler": 7160,
      " Mal": 7161,
      "latt": 7162,
      " seger": 7163,
      "bilar": 7164,
      " katastro": 7165,
      " flygplats": 7166,
      " allvarligt": 7167,
      " startar": 7168,
      " kapitel": 7169,
      "struktion": 7170,
      " förflutna": 7171,
      " förfaranden": 7172,
      " klockan": 7173,
      "Rätt": 7174,
      "Sök": 7175,
      " informer": 7176,
      " tull": 7177,
      " tillämpa": 7178,
      " vila": 7179,
      "ssa": 7180,
      "etten": 7181,
      " arab": 7182,
      " Na": 7183,
      " Ni": 7184,
      " plus": 7185,
      "verkningar": 7186,
      " Europas": 7187,
      "bry": 7188,
      "ormon": 7189,
      "hail": 7190,
      " investerare": 7191,
      " inbeg": 7192,
      " upprätthålla": 7193,
      "eteck": 7194,
      " kurser": 7195,
      " kämpar": 7196,
      " bord": 7197,
      " föreställ": 7198,
      " omvand": 7199,
      "lister": 7200,
      " rull": 7201,
      " arv": 7202,
      " Göteborg": 7203,
      " århundra": 7204,
      " förvir": 7205,
      " lärande": 7206,
      " beslutet": 7207,
      " symtom": 7208,
      " gudom": 7209,
      " kemikali": 7210,
      " möjliggör": 7211,
      " kommersiella": 7212,
      " avsedda": 7213,
      " tillförlit": 7214,
      "Sa": 7215,
      "åp": 7216,
      " ster": 7217,
      " hatar": 7218,
      "ordens": 7219,
      " tår": 7220,
      " tanken": 7221,
      " Holl": 7222,
      " Kanada": 7223,
      " säkerheten": 7224,
      " ligga": 7225,
      " sjukdomen": 7226,
      "Världen": 7227,
      " sand": 7228,
      " palest": 7229,
      "igar": 7230,
      "deo": 7231,
      " täcker": 7232,
      " decen": 7233,
      " utval": 7234,
      " Can": 7235,
      "spar": 7236,
      "erings": 7237,
      " högk": 7238,
      " tjänsten": 7239,
      " krafter": 7240,
      " förväntar": 7241,
      " appar": 7242,
      " användes": 7243,
      " utomlands": 7244,
      " svårare": 7245,
      " relaterade": 7246,
      " hållbarhet": 7247,
      " School": 7248,
      " ringa": 7249,
      " dubbel": 7250,
      " övergripande": 7251,
      " förpack": 7252,
      "derande": 7253,
      "ski": 7254,
      " skaffa": 7255,
      "ultur": 7256,
      " Im": 7257,
      " helvet": 7258,
      " produktionen": 7259,
      "flö": 7260,
      " datorer": 7261,
      " populär": 7262,
      " känslan": 7263,
      " praktiska": 7264,
      " klimatföränd": 7265,
      " anslutning": 7266,
      "Hennes": 7267,
      " original": 7268,
      " födelsedag": 7269,
      "44": 7270,
      "IM": 7271,
      "ista": 7272,
      "Åh": 7273,
      " don": 7274,
      " flicka": 7275,
      " bevar": 7276,
      " samling": 7277,
      " export": 7278,
      " verklig": 7279,
      "dioxid": 7280,
      " drygt": 7281,
      " status": 7282,
      " farliga": 7283,
      " lyckats": 7284,
      " fatta": 7285,
      " professor": 7286,
      " försvinner": 7287,
      " potential": 7288,
      " tävling": 7289,
      "teknik": 7290,
      " kategori": 7291,
      "Ditt": 7292,
      "bio": 7293,
      "kare": 7294,
      "erare": 7295,
      "stor": 7296,
      " indi": 7297,
      " varierar": 7298,
      " Met": 7299,
      " Komm": 7300,
      " granska": 7301,
      "mering": 7302,
      "Int": 7303,
      " växter": 7304,
      " växte": 7305,
      "asinon": 7306,
      " vuxen": 7307,
      " garanti": 7308,
      "parlamentets": 7309,
      " flickor": 7310,
      " moln": 7311,
      " Office": 7312,
      "såtgärder": 7313,
      "Huvud": 7314,
      "Hitta": 7315,
      "Mark": 7316,
      " sanna": 7317,
      "ino": 7318,
      " diabetes": 7319,
      "stör": 7320,
      "onn": 7321,
      " inverkan": 7322,
      " avgöra": 7323,
      " anta": 7324,
      "rim": 7325,
      "emed": 7326,
      "litt": 7327,
      " Asien": 7328,
      "varan": 7329,
      " nyfik": 7330,
      "önstret": 7331,
      " människans": 7332,
      " saknas": 7333,
      " typen": 7334,
      " Europe": 7335,
      " kräva": 7336,
      " lösen": 7337,
      " belö": 7338,
      "Kommissionen": 7339,
      " hämta": 7340,
      " militära": 7341,
      " Amerika": 7342,
      " eleverna": 7343,
      " hävdar": 7344,
      " järnväg": 7345,
      " Glob": 7346,
      "AM": 7347,
      "CC": 7348,
      " sum": 7349,
      " mej": 7350,
      "oris": 7351,
      " inform": 7352,
      " pålit": 7353,
      " utländska": 7354,
      "oto": 7355,
      "mazon": 7356,
      " kläd": 7357,
      " smärt": 7358,
      " ledarskap": 7359,
      "ledare": 7360,
      " maten": 7361,
      " skyddar": 7362,
      "enomen": 7363,
      " fördelarna": 7364,
      " sekund": 7365,
      " lyssnar": 7366,
      " slutade": 7367,
      " doktor": 7368,
      " betraktas": 7369,
      "600": 7370,
      "Fi": 7371,
      "ögon": 7372,
      " okej": 7373,
      "tav": 7374,
      "gångar": 7375,
      " stam": 7376,
      " lyx": 7377,
      "taget": 7378,
      " femte": 7379,
      " effektivitet": 7380,
      "ERR": 7381,
      " inflytande": 7382,
      " Super": 7383,
      " irri": 7384,
      " symptom": 7385,
      " aspekter": 7386,
      " mår": 7387,
      " th": 7388,
      "stationer": 7389,
      " Peter": 7390,
      "ockar": 7391,
      "smiljö": 7392,
      " nerv": 7393,
      " mött": 7394,
      " mötet": 7395,
      "alisering": 7396,
      " skapas": 7397,
      " ljuset": 7398,
      " minuters": 7399,
      " tillverkare": 7400,
      " sovrum": 7401,
      " noggrant": 7402,
      " riktlinjer": 7403,
      "my": 7404,
      " aller": 7405,
      " kille": 7406,
      " förmed": 7407,
      "terande": 7408,
      " ange": 7409,
      " System": 7410,
      " Bel": 7411,
      "ynd": 7412,
      " arbetstag": 7413,
      "yrkan": 7414,
      " materi": 7415,
      " väster": 7416,
      " lagring": 7417,
      " grader": 7418,
      " advoka": 7419,
      " mobila": 7420,
      " uppmanar": 7421,
      " religiösa": 7422,
      "Joh": 7423,
      "Kolla": 7424,
      "ze": 7425,
      " kod": 7426,
      "tern": 7427,
      " omdöm": 7428,
      "utan": 7429,
      " årliga": 7430,
      "klas": 7431,
      " stater": 7432,
      "ioder": 7433,
      "ubliken": 7434,
      " marknads": 7435,
      " ämnet": 7436,
      " mäta": 7437,
      " representerar": 7438,
      " drivs": 7439,
      " Varför": 7440,
      "smarknaden": 7441,
      " livsstil": 7442,
      "Köp": 7443,
      "Särskil": 7444,
      "cell": 7445,
      "huvud": 7446,
      "uma": 7447,
      " dro": 7448,
      " fara": 7449,
      " frid": 7450,
      " mm": 7451,
      " make": 7452,
      " medför": 7453,
      " bebis": 7454,
      " reaktion": 7455,
      "uts": 7456,
      " Matt": 7457,
      "cipl": 7458,
      "gav": 7459,
      " handen": 7460,
      "process": 7461,
      " sjukvård": 7462,
      "olaget": 7463,
      " luften": 7464,
      " kristen": 7465,
      " tillfället": 7466,
      " mörka": 7467,
      " hotellet": 7468,
      " accepterar": 7469,
      " statistik": 7470,
      "Europaparlamentet": 7471,
      " Turkiet": 7472,
      " →": 7473,
      "ate": 7474,
      "atiska": 7475,
      "yal": 7476,
      " hom": 7477,
      " åsikter": 7478,
      " forum": 7479,
      " pröv": 7480,
      " slutligen": 7481,
      " grundval": 7482,
      " redig": 7483,
      " världs": 7484,
      " mobiltelef": 7485,
      " deltagande": 7486,
      " inspiration": 7487,
      " överföring": 7488,
      "Självklart": 7489,
      " robot": 7490,
      "46": 7491,
      "Fin": 7492,
      "Nästan": 7493,
      "ee": 7494,
      "”Vi": 7495,
      " utförs": 7496,
      " unikt": 7497,
      " underbar": 7498,
      " deltar": 7499,
      " plocka": 7500,
      " tidpunkt": 7501,
      " makten": 7502,
      " träna": 7503,
      "fikt": 7504,
      " föreskriv": 7505,
      "ypten": 7506,
      "tjänst": 7507,
      " Tech": 7508,
      "Verk": 7509,
      " decenn": 7510,
      " källa": 7511,
      " bist": 7512,
      " inser": 7513,
      "row": 7514,
      "day": 7515,
      "add": 7516,
      " Mil": 7517,
      "usal": 7518,
      " åstad": 7519,
      " con": 7520,
      " spelarna": 7521,
      " onda": 7522,
      " produktiv": 7523,
      " öppnade": 7524,
      " sträng": 7525,
      " begrav": 7526,
      " installera": 7527,
      " demokrati": 7528,
      " ångest": 7529,
      " kilometer": 7530,
      "ÄR": 7531,
      "ane": 7532,
      " ombord": 7533,
      " stannar": 7534,
      " begränsa": 7535,
      " konf": 7536,
      "ody": 7537,
      " trå": 7538,
      " smarta": 7539,
      " resor": 7540,
      " parad": 7541,
      "kommande": 7542,
      "aby": 7543,
      "ugh": 7544,
      "ifier": 7545,
      "givna": 7546,
      "isterna": 7547,
      "Frågan": 7548,
      "sstra": 7549,
      "eriod": 7550,
      "Observera": 7551,
      " kommunicera": 7552,
      " klassific": 7553,
      " shopping": 7554,
      "TA": 7555,
      "bla": 7556,
      "kör": 7557,
      "ww": 7558,
      " dik": 7559,
      " avslut": 7560,
      "skrid": 7561,
      " utvär": 7562,
      " utbyte": 7563,
      " To": 7564,
      " Hall": 7565,
      " Del": 7566,
      " nack": 7567,
      " förutsättningar": 7568,
      " you": 7569,
      " normal": 7570,
      " fysiskt": 7571,
      " producerar": 7572,
      " sängen": 7573,
      " rekry": 7574,
      "-B": 7575,
      "42": 7576,
      "Ytter": 7577,
      "brid": 7578,
      "gade": 7579,
      "iller": 7580,
      "sdagen": 7581,
      "öld": 7582,
      "enheten": 7583,
      " bodde": 7584,
      " list": 7585,
      "amod": 7586,
      " röd": 7587,
      " uppre": 7588,
      "vall": 7589,
      " Bay": 7590,
      " PC": 7591,
      " Ter": 7592,
      " åkte": 7593,
      " Irak": 7594,
      "okument": 7595,
      "oklad": 7596,
      " Washington": 7597,
      " juster": 7598,
      " kändes": 7599,
      " förmågan": 7600,
      " förhopp": 7601,
      " represent": 7602,
      " fredag": 7603,
      " marker": 7604,
      " oerhört": 7605,
      "pre": 7606,
      " syd": 7607,
      " förest": 7608,
      " leta": 7609,
      " täcka": 7610,
      " tolv": 7611,
      "andard": 7612,
      "varor": 7613,
      " Bank": 7614,
      " Tour": 7615,
      " No": 7616,
      "iteter": 7617,
      " bestämde": 7618,
      " rapporten": 7619,
      " begära": 7620,
      " diskrimin": 7621,
      " fattiga": 7622,
      " sällsyn": 7623,
      " elektroniska": 7624,
      " länkar": 7625,
      " separat": 7626,
      "inas": 7627,
      "riken": 7628,
      " besl": 7629,
      " spåra": 7630,
      " signal": 7631,
      "atteri": 7632,
      " Kor": 7633,
      " våren": 7634,
      " innefatt": 7635,
      "hållande": 7636,
      "kontor": 7637,
      " ledam": 7638,
      " förblir": 7639,
      " vinster": 7640,
      "atoriska": 7641,
      " naturlig": 7642,
      " innebära": 7643,
      " försökt": 7644,
      " byggt": 7645,
      " mänskligheten": 7646,
      " lycklig": 7647,
      " kreativa": 7648,
      " blommor": 7649,
      " sträcker": 7650,
      "Faktum": 7651,
      "-tal": 7652,
      "Bl": 7653,
      "Br": 7654,
      "PR": 7655,
      "jäm": 7656,
      " Casino": 7657,
      " helgen": 7658,
      " Red": 7659,
      " exempl": 7660,
      " West": 7661,
      " smi": 7662,
      " matema": 7663,
      " färre": 7664,
      " Street": 7665,
      " världskriget": 7666,
      "huset": 7667,
      " uppgifterna": 7668,
      " yta": 7669,
      " effekterna": 7670,
      "outh": 7671,
      " vackert": 7672,
      " butik": 7673,
      " välkomna": 7674,
      " kulturella": 7675,
      "250": 7676,
      "On": 7677,
      "fakt": 7678,
      "fess": 7679,
      "vel": 7680,
      " dyg": 7681,
      " dvs": 7682,
      " ax": 7683,
      "omål": 7684,
      " inse": 7685,
      "sikten": 7686,
      " sign": 7687,
      "slan": 7688,
      "sområde": 7689,
      "sminister": 7690,
      " stadens": 7691,
      "järna": 7692,
      " gåva": 7693,
      " komplic": 7694,
      "Däremot": 7695,
      " maskiner": 7696,
      " gränsen": 7697,
      " operativ": 7698,
      " protein": 7699,
      "celona": 7700,
      " komponenter": 7701,
      "To": 7702,
      "fram": 7703,
      "ption": 7704,
      "uck": 7705,
      "Öv": 7706,
      " dimen": 7707,
      " kust": 7708,
      "stod": 7709,
      " enheten": 7710,
      " påverkan": 7711,
      " vardag": 7712,
      "rick": 7713,
      "emi": 7714,
      "skl": 7715,
      " utrikes": 7716,
      " frisk": 7717,
      " arter": 7718,
      "speriod": 7719,
      " Trans": 7720,
      " Hen": 7721,
      " Do": 7722,
      " spelaren": 7723,
      " veter": 7724,
      " bilderna": 7725,
      "ologiskt": 7726,
      " egenskap": 7727,
      " intressanta": 7728,
      " politiskt": 7729,
      "slagen": 7730,
      " tacksam": 7731,
      " klarar": 7732,
      " bestämmelserna": 7733,
      "Bi": 7734,
      "Fa": 7735,
      " veg": 7736,
      "rek": 7737,
      "atu": 7738,
      "skam": 7739,
      " uppl": 7740,
      "utbildning": 7741,
      " orden": 7742,
      "annes": 7743,
      "alax": 7744,
      " diet": 7745,
      "brans": 7746,
      " flygplan": 7747,
      "alistiska": 7748,
      " bedri": 7749,
      " mänsklig": 7750,
      " kvaliteten": 7751,
      " fira": 7752,
      " klassiska": 7753,
      " fastställs": 7754,
      " komplett": 7755,
      " dialog": 7756,
      "Medlemsstaterna": 7757,
      "usalem": 7758,
      "EA": 7759,
      "Kun": 7760,
      "Mot": 7761,
      "fekt": 7762,
      "öta": 7763,
      " fånga": 7764,
      " ikväll": 7765,
      "derat": 7766,
      " vikten": 7767,
      " andel": 7768,
      " Ska": 7769,
      " kommissionens": 7770,
      " minut": 7771,
      " underrätt": 7772,
      " slott": 7773,
      " användarna": 7774,
      "strument": 7775,
      "arbetet": 7776,
      " praxis": 7777,
      " hjälpte": 7778,
      " andas": 7779,
      " uppfölj": 7780,
      " koldioxid": 7781,
      " medicinsk": 7782,
      " förklaring": 7783,
      " hästar": 7784,
      " »\n": 7785,
      " existerar": 7786,
      " övervakning": 7787,
      "Van": 7788,
      "ble": 7789,
      " sc": 7790,
      " föll": 7791,
      " osk": 7792,
      " varav": 7793,
      " hanterar": 7794,
      " erkänna": 7795,
      "värden": 7796,
      " återförsälj": 7797,
      " texten": 7798,
      " levererar": 7799,
      " domän": 7800,
      "onerande": 7801,
      " hjärna": 7802,
      "läggning": 7803,
      " partners": 7804,
      " Franc": 7805,
      " kreditkort": 7806,
      " sprida": 7807,
      " William": 7808,
      " mångfald": 7809,
      "Bo": 7810,
      "Sc": 7811,
      "ibland": 7812,
      " fulla": 7813,
      " muse": 7814,
      "cha": 7815,
      "ände": 7816,
      "änkt": 7817,
      " uppvärm": 7818,
      " Bri": 7819,
      "slösa": 7820,
      "oken": 7821,
      "Försök": 7822,
      "önt": 7823,
      " söt": 7824,
      " hjärtan": 7825,
      " sammanfatt": 7826,
      " tekniken": 7827,
      " träffar": 7828,
      " rena": 7829,
      " registrering": 7830,
      " meddelanden": 7831,
      " hälsosam": 7832,
      " osäker": 7833,
      "användare": 7834,
      " muskel": 7835,
      " radio": 7836,
      " kraftigt": 7837,
      " ursäkt": 7838,
      " förväntningar": 7839,
      "Lik": 7840,
      "Nam": 7841,
      "driv": 7842,
      "mö": 7843,
      " vunnit": 7844,
      "onder": 7845,
      " it": 7846,
      "raft": 7847,
      " upprep": 7848,
      "sidor": 7849,
      " språket": 7850,
      "vester": 7851,
      "stig": 7852,
      " hål": 7853,
      " följde": 7854,
      "finansi": 7855,
      "belt": 7856,
      " kampen": 7857,
      "undersök": 7858,
      "marknad": 7859,
      " jämförelse": 7860,
      " lovar": 7861,
      "användning": 7862,
      " genomsnittliga": 7863,
      " misslyckas": 7864,
      " tålamod": 7865,
      " Egypten": 7866,
      " uppmunt": 7867,
      "una": 7868,
      " säk": 7869,
      "tex": 7870,
      "aser": 7871,
      "eman": 7872,
      " utöver": 7873,
      "ekyl": 7874,
      " Fo": 7875,
      " Iran": 7876,
      " efterm": 7877,
      " självmord": 7878,
      " planera": 7879,
      " rösta": 7880,
      " bedräg": 7881,
      " rengör": 7882,
      " bloggen": 7883,
      " låtar": 7884,
      " vitamin": 7885,
      " Play": 7886,
      " Michael": 7887,
      " Jerusalem": 7888,
      " koncern": 7889,
      " auktor": 7890,
      " …\n": 7891,
      "-T": 7892,
      ".,": 7893,
      "IA": 7894,
      "center": 7895,
      "hl": 7896,
      "uff": 7897,
      " sens": 7898,
      " avgift": 7899,
      "amet": 7900,
      " springa": 7901,
      "eration": 7902,
      "ktivet": 7903,
      " War": 7904,
      "bilder": 7905,
      " tids": 7906,
      " vät": 7907,
      "sbyg": 7908,
      " vänskap": 7909,
      " artiklarna": 7910,
      "fly": 7911,
      " uttrycka": 7912,
      " tredj": 7913,
      " betalas": 7914,
      " träffade": 7915,
      "everant": 7916,
      " stänga": 7917,
      " garanterar": 7918,
      " hamnar": 7919,
      " tuff": 7920,
      " torr": 7921,
      " drabbas": 7922,
      " fruktans": 7923,
      " Grekland": 7924,
      " volym": 7925,
      " kandida": 7926,
      " värderingar": 7927,
      "-spel": 7928,
      "fisk": 7929,
      "ges": 7930,
      "ergi": 7931,
      "inär": 7932,
      "oro": 7933,
      "edik": 7934,
      " lät": 7935,
      "terades": 7936,
      " antar": 7937,
      "skraf": 7938,
      "olt": 7939,
      "gener": 7940,
      " spelas": 7941,
      "iment": 7942,
      " lagras": 7943,
      " domin": 7944,
      "komp": 7945,
      " råder": 7946,
      " hållbara": 7947,
      " Vill": 7948,
      " affärsm": 7949,
      "apanska": 7950,
      "jukdom": 7951,
      "tjänster": 7952,
      "ulation": 7953,
      " framgångsrik": 7954,
      " vintern": 7955,
      " siffror": 7956,
      " gjordes": 7957,
      "Målet": 7958,
      " lidande": 7959,
      ",\"": 7960,
      "Börja": 7961,
      "Lite": 7962,
      "MA": 7963,
      "dd": 7964,
      "jas": 7965,
      " ot": 7966,
      " hyll": 7967,
      " israel": 7968,
      "skill": 7969,
      " rub": 7970,
      " Cam": 7971,
      " arrang": 7972,
      "formar": 7973,
      " arbetsplats": 7974,
      " spelat": 7975,
      "ymp": 7976,
      " samhällen": 7977,
      "inerande": 7978,
      "marknaden": 7979,
      " glömt": 7980,
      " satte": 7981,
      " kemiska": 7982,
      " sönder": 7983,
      "tics": 7984,
      " →\n": 7985,
      ".»\n": 7986,
      "Hitt": 7987,
      "resten": 7988,
      "alternativ": 7989,
      "innan": 7990,
      " Ab": 7991,
      " EC": 7992,
      "Inter": 7993,
      " återvända": 7994,
      " röster": 7995,
      "ebra": 7996,
      " sexuella": 7997,
      " förbättring": 7998,
      " samarbeta": 7999,
      "Visst": 8000,
      " Maria": 8001,
      " stads": 8002,
      " använts": 8003,
      " anledningen": 8004,
      " George": 8005,
      " förvaltning": 8006,
      " komplexa": 8007,
      "meddelande": 8008,
      " konsekvenser": 8009,
      " inköp": 8010,
      " hastighet": 8011,
      "Säg": 8012,
      "fast": 8013,
      "has": 8014,
      "uster": 8015,
      " däck": 8016,
      " otill": 8017,
      "edöm": 8018,
      " stånd": 8019,
      "itté": 8020,
      " Museum": 8021,
      "spl": 8022,
      "Föregående": 8023,
      " förbin": 8024,
      "film": 8025,
      " eventuellt": 8026,
      " tittade": 8027,
      " varumärken": 8028,
      " individuella": 8029,
      " besvär": 8030,
      " House": 8031,
      " tillfreds": 8032,
      "ERREN": 8033,
      "Hög": 8034,
      "OL": 8035,
      "fyll": 8036,
      "jord": 8037,
      "relaterade": 8038,
      " golf": 8039,
      " detsamma": 8040,
      " räck": 8041,
      " Tro": 8042,
      " hantering": 8043,
      " beton": 8044,
      "duktion": 8045,
      " hjärn": 8046,
      " undvik": 8047,
      "fritt": 8048,
      " etik": 8049,
      " nått": 8050,
      "ografiska": 8051,
      " bekräf": 8052,
      " Jose": 8053,
      "Exempel": 8054,
      " tycks": 8055,
      "Följande": 8056,
      " institutioner": 8057,
      "sprodukter": 8058,
      " Bitcoin": 8059,
      "Ytterligare": 8060,
      " Detta": 8061,
      "64": 8062,
      "CA": 8063,
      "fart": 8064,
      "ty": 8065,
      " ste": 8066,
      " fäst": 8067,
      " matt": 8068,
      " hell": 8069,
      "cher": 8070,
      " inred": 8071,
      "assa": 8072,
      " beställ": 8073,
      " Ti": 8074,
      " personligt": 8075,
      " VD": 8076,
      " produkterna": 8077,
      "komsten": 8078,
      " Använd": 8079,
      " policy": 8080,
      " imorgon": 8081,
      " hålls": 8082,
      " offentligt": 8083,
      " ursprungligen": 8084,
      " antog": 8085,
      " bryter": 8086,
      " förändrats": 8087,
      "Flyg": 8088,
      " förstöra": 8089,
      " permanent": 8090,
      " ordentligt": 8091,
      " |": 8092,
      "Dina": 8093,
      "bien": 8094,
      " sänd": 8095,
      " förr": 8096,
      "orator": 8097,
      " pågående": 8098,
      " stött": 8099,
      "siv": 8100,
      "ekret": 8101,
      "varen": 8102,
      " Kaliforn": 8103,
      " Rich": 8104,
      " återställa": 8105,
      " hållet": 8106,
      " åtgärd": 8107,
      "itation": 8108,
      " begränsade": 8109,
      " renover": 8110,
      " flyttade": 8111,
      " human": 8112,
      " associ": 8113,
      " introduc": 8114,
      " italienska": 8115,
      "88": 8116,
      " tol": 8117,
      " näst": 8118,
      " noll": 8119,
      "ares": 8120,
      " tron": 8121,
      " Rob": 8122,
      " ond": 8123,
      " flyga": 8124,
      " förbättrar": 8125,
      " statliga": 8126,
      "skrivning": 8127,
      " krimin": 8128,
      " tillräcklig": 8129,
      " absor": 8130,
      " Robert": 8131,
      " sökande": 8132,
      " skärmen": 8133,
      "organisation": 8134,
      " aggress": 8135,
      " konstigt": 8136,
      " kameran": 8137,
      "800": 8138,
      "Po": 8139,
      "Val": 8140,
      "drarna": 8141,
      "uens": 8142,
      " tors": 8143,
      "rib": 8144,
      "skad": 8145,
      "uth": 8146,
      "serv": 8147,
      "fors": 8148,
      "juda": 8149,
      "smäss": 8150,
      " söder": 8151,
      " berättelser": 8152,
      "ublic": 8153,
      " Master": 8154,
      " tydliga": 8155,
      " tema": 8156,
      " garantera": 8157,
      " bredvid": 8158,
      "byggnad": 8159,
      "stitutet": 8160,
      " strävar": 8161,
      " symbol": 8162,
      "Jäm": 8163,
      "Sver": 8164,
      "ghan": 8165,
      "hop": 8166,
      " fack": 8167,
      "ones": 8168,
      "orma": 8169,
      " inj": 8170,
      "aget": 8171,
      " nivån": 8172,
      "test": 8173,
      " Sec": 8174,
      "sist": 8175,
      " konkret": 8176,
      " köket": 8177,
      " hållas": 8178,
      " termin": 8179,
      " tillämpliga": 8180,
      " tillämpningen": 8181,
      " begränsningar": 8182,
      "knipp": 8183,
      "phone": 8184,
      " känslom": 8185,
      " traditionell": 8186,
      " beskrivning": 8187,
      " effekten": 8188,
      " intelligens": 8189,
      "sfullt": 8190,
      "Lägg": 8191,
      "SS": 8192,
      "histor": 8193,
      "kr": 8194,
      "ini": 8195,
      " ovän": 8196,
      "che": 8197,
      "inga": 8198,
      "ame": 8199,
      "ury": 8200,
      " bröd": 8201,
      " utvecklat": 8202,
      " väv": 8203,
      "alth": 8204,
      "anke": 8205,
      " kallt": 8206,
      " äga": 8207,
      " uttr": 8208,
      " faktor": 8209,
      " loj": 8210,
      " mysti": 8211,
      " argument": 8212,
      " parkering": 8213,
      "Im": 8214,
      "imer": 8215,
      " pub": 8216,
      "ningom": 8217,
      " ansåg": 8218,
      "lipp": 8219,
      " Sl": 8220,
      " Sol": 8221,
      " rese": 8222,
      "ällor": 8223,
      " Eli": 8224,
      " legi": 8225,
      "kontroll": 8226,
      "atorer": 8227,
      "ektivt": 8228,
      " berättig": 8229,
      "vägen": 8230,
      " samarbetet": 8231,
      "skrift": 8232,
      "organisationer": 8233,
      " rymd": 8234,
      "estival": 8235,
      " Obama": 8236,
      "con": 8237,
      "jun": 8238,
      "jerna": 8239,
      " fenomen": 8240,
      " oänd": 8241,
      "område": 8242,
      "amin": 8243,
      " besk": 8244,
      " Pe": 8245,
      " Pl": 8246,
      " orätt": 8247,
      " personlighet": 8248,
      "bile": 8249,
      "uba": 8250,
      " biverkningar": 8251,
      " specifikt": 8252,
      " flygplatsen": 8253,
      " dricker": 8254,
      " strand": 8255,
      " orsaker": 8256,
      " genomförande": 8257,
      " känneteck": 8258,
      " söndag": 8259,
      " grekiska": 8260,
      " III": 8261,
      " regionala": 8262,
      "funktion": 8263,
      " vistelse": 8264,
      " övervaka": 8265,
      "Co": 8266,
      "bul": 8267,
      "ofi": 8268,
      " myn": 8269,
      "stin": 8270,
      " bordet": 8271,
      " förknipp": 8272,
      " ifrågas": 8273,
      "iserad": 8274,
      " denne": 8275,
      " Bra": 8276,
      " Bre": 8277,
      " Din": 8278,
      " camp": 8279,
      "design": 8280,
      "jänsten": 8281,
      " hemlighet": 8282,
      " förbe": 8283,
      " elimin": 8284,
      " rött": 8285,
      " diskuter": 8286,
      "ederländerna": 8287,
      "stagram": 8288,
      "innehåll": 8289,
      " konsumenter": 8290,
      " uppenbart": 8291,
      " skyldigheter": 8292,
      " judar": 8293,
      " pojk": 8294,
      " gjorda": 8295,
      " installation": 8296,
      " strål": 8297,
      "höll": 8298,
      "zer": 8299,
      "öck": 8300,
      " stig": 8301,
      " kämpa": 8302,
      "ague": 8303,
      " medic": 8304,
      "lista": 8305,
      "ättning": 8306,
      "olja": 8307,
      "ulen": 8308,
      "speg": 8309,
      " andras": 8310,
      "fråga": 8311,
      "dium": 8312,
      " urin": 8313,
      "korea": 8314,
      " steget": 8315,
      " Herre": 8316,
      " industrin": 8317,
      " skatte": 8318,
      " konsumenterna": 8319,
      " American": 8320,
      " frekvens": 8321,
      " beskriva": 8322,
      " givetvis": 8323,
      " utvalda": 8324,
      "Tra": 8325,
      "Tid": 8326,
      "läng": 8327,
      " tillåta": 8328,
      "unikation": 8329,
      "aks": 8330,
      " Af": 8331,
      " trö": 8332,
      " Ny": 8333,
      " erhåll": 8334,
      " Jes": 8335,
      "ckade": 8336,
      " -\n": 8337,
      " kompis": 8338,
      "Utveck": 8339,
      " kvartalet": 8340,
      " baseras": 8341,
      " flyttar": 8342,
      " tradition": 8343,
      " presenterar": 8344,
      " upptäckt": 8345,
      " framgångsrikt": 8346,
      " minnen": 8347,
      "Bilder": 8348,
      " sånt": 8349,
      " tunga": 8350,
      " långsiktiga": 8351,
      " gillade": 8352,
      "-L": 8353,
      "?!\n": 8354,
      "BS": 8355,
      "Tycker": 8356,
      "sd": 8357,
      "uper": 8358,
      "wn": 8359,
      "ety": 8360,
      " da": 8361,
      " hjul": 8362,
      "omet": 8363,
      " föroren": 8364,
      " inuti": 8365,
      " tung": 8366,
      "ckså": 8367,
      " ande": 8368,
      " ansl": 8369,
      "ili": 8370,
      "dater": 8371,
      " Post": 8372,
      "sesi": 8373,
      " tabl": 8374,
      " Wi": 8375,
      "ustru": 8376,
      " lätta": 8377,
      " impon": 8378,
      "rafik": 8379,
      " håret": 8380,
      " Adam": 8381,
      " radika": 8382,
      " läsare": 8383,
      " nödvändigtvis": 8384,
      " beräknas": 8385,
      " skärm": 8386,
      " branschen": 8387,
      " imponerande": 8388,
      " brukade": 8389,
      " dejting": 8390,
      " butiker": 8391,
      " territorium": 8392,
      " administrativa": 8393,
      " vädret": 8394,
      "AG": 8395,
      "TT": 8396,
      "bätt": 8397,
      "ift": 8398,
      "änningar": 8399,
      "eden": 8400,
      " nomin": 8401,
      "takt": 8402,
      " tillå": 8403,
      " påsk": 8404,
      "dering": 8405,
      " vardags": 8406,
      "åriga": 8407,
      " jakt": 8408,
      " friska": 8409,
      "ickade": 8410,
      " rättigheterna": 8411,
      "natur": 8412,
      " Christ": 8413,
      " import": 8414,
      " kostnaderna": 8415,
      "färd": 8416,
      " utbildnings": 8417,
      " månaderna": 8418,
      "loud": 8419,
      " låten": 8420,
      "issör": 8421,
      " anledningar": 8422,
      " praktiskt": 8423,
      " Barcelona": 8424,
      " bekräfta": 8425,
      " bekräftar": 8426,
      " humör": 8427,
      "Forsk": 8428,
      " fötter": 8429,
      " bedöma": 8430,
      " katastrof": 8431,
      " droger": 8432,
      "inf": 8433,
      " mekanis": 8434,
      " kill": 8435,
      " förk": 8436,
      "itterat": 8437,
      " Ali": 8438,
      " Amazon": 8439,
      "vention": 8440,
      "stiden": 8441,
      " hösten": 8442,
      " wh": 8443,
      " kasta": 8444,
      " ändrar": 8445,
      " följt": 8446,
      " kryp": 8447,
      " oblig": 8448,
      " småningom": 8449,
      " evigt": 8450,
      " versioner": 8451,
      "-postadress": 8452,
      " gemenskapen": 8453,
      " analysera": 8454,
      " säljs": 8455,
      " uppskattar": 8456,
      " överväga": 8457,
      " lösenord": 8458,
      "branschen": 8459,
      "Titta": 8460,
      "illa": 8461,
      "kod": 8462,
      " hung": 8463,
      "igenom": 8464,
      "edag": 8465,
      " gator": 8466,
      "istik": 8467,
      " varma": 8468,
      " HERREN": 8469,
      " Vil": 8470,
      " Volv": 8471,
      "sätts": 8472,
      " Op": 8473,
      "acker": 8474,
      "ugga": 8475,
      " förlåt": 8476,
      "givande": 8477,
      "lagt": 8478,
      " bakterier": 8479,
      " Under": 8480,
      " alternativet": 8481,
      " genomförandet": 8482,
      " kolleg": 8483,
      "Skapa": 8484,
      " aktörer": 8485,
      " revolutionen": 8486,
      " kombinerar": 8487,
      " titeln": 8488,
      " koncentr": 8489,
      "demokra": 8490,
      " nöjda": 8491,
      "Google": 8492,
      " sekretess": 8493,
      "Plan": 8494,
      "ced": 8495,
      "oter": 8496,
      " numera": 8497,
      " skäm": 8498,
      " öde": 8499,
      " rest": 8500,
      " överläm": 8501,
      "udd": 8502,
      " Ele": 8503,
      " Pen": 8504,
      "yggen": 8505,
      " examen": 8506,
      " takt": 8507,
      " formen": 8508,
      " forskar": 8509,
      " teor": 8510,
      " eleg": 8511,
      " landsbyg": 8512,
      " stödjer": 8513,
      "sproblem": 8514,
      " transaktioner": 8515,
      " hoppa": 8516,
      " träffas": 8517,
      " olje": 8518,
      " blodet": 8519,
      " släpptes": 8520,
      "Artikel": 8521,
      " upplevelser": 8522,
      " upptäcker": 8523,
      " överträ": 8524,
      " stolta": 8525,
      " tjejer": 8526,
      " Green": 8527,
      " stämmer": 8528,
      " ansiktet": 8529,
      " jävla": 8530,
      "splatser": 8531,
      "41": 8532,
      "omp": 8533,
      "natt": 8534,
      " införa": 8535,
      "elat": 8536,
      " njut": 8537,
      " rund": 8538,
      "skaff": 8539,
      " minskning": 8540,
      " Hem": 8541,
      " North": 8542,
      " externa": 8543,
      " funkar": 8544,
      " sakerna": 8545,
      " långsamt": 8546,
      " vanligen": 8547,
      "flyg": 8548,
      " röka": 8549,
      " rörelser": 8550,
      "frihet": 8551,
      " byggdes": 8552,
      "valita": 8553,
      " kontakter": 8554,
      " skillnader": 8555,
      " begränsat": 8556,
      " inblan": 8557,
      " presentera": 8558,
      " praktiken": 8559,
      " separa": 8560,
      " administr": 8561,
      " skönt": 8562,
      " stjärnor": 8563,
      " ingredienser": 8564,
      " ömsesi": 8565,
      "BC": 8566,
      "ymer": 8567,
      " mord": 8568,
      " hunden": 8569,
      " dekor": 8570,
      " jordens": 8571,
      "sska": 8572,
      "andina": 8573,
      " skott": 8574,
      " King": 8575,
      " Rock": 8576,
      " Val": 8577,
      "verkare": 8578,
      " resolution": 8579,
      " specifik": 8580,
      " bortom": 8581,
      " missbruk": 8582,
      "Utöver": 8583,
      " baserade": 8584,
      " profet": 8585,
      " kärleken": 8586,
      " inbygg": 8587,
      "kvalitet": 8588,
      " arbetsgivare": 8589,
      " expert": 8590,
      " banker": 8591,
      "politik": 8592,
      " civila": 8593,
      "Besök": 8594,
      " tillhandahålls": 8595,
      " Institute": 8596,
      " passagerare": 8597,
      " Global": 8598,
      " Kalifornien": 8599,
      "85": 8600,
      "Di": 8601,
      "bunden": 8602,
      "’\n": 8603,
      " salt": 8604,
      " hustru": 8605,
      "omer": 8606,
      " kir": 8607,
      " enorma": 8608,
      " inci": 8609,
      " aning": 8610,
      "itch": 8611,
      " Fred": 8612,
      "samheten": 8613,
      "visas": 8614,
      " bröder": 8615,
      "äckande": 8616,
      " levereras": 8617,
      "exas": 8618,
      " konsul": 8619,
      " jämföra": 8620,
      " släpps": 8621,
      " släpper": 8622,
      " falla": 8623,
      " tillfälligt": 8624,
      "gått": 8625,
      "que": 8626,
      " strategier": 8627,
      " kliniska": 8628,
      " Bibeln": 8629,
      " tvivel": 8630,
      " <": 8631,
      "'\n": 8632,
      "-vi": 8633,
      "49": 8634,
      "Pen": 8635,
      "Th": 8636,
      "cc": 8637,
      "ary": 8638,
      " vänder": 8639,
      "igheten": 8640,
      " varelser": 8641,
      " omsorg": 8642,
      "sspel": 8643,
      " utvid": 8644,
      " besvar": 8645,
      " skogen": 8646,
      " översti": 8647,
      "inationer": 8648,
      "serva": 8649,
      " verkade": 8650,
      "genom": 8651,
      "berätt": 8652,
      " Vis": 8653,
      " hjälpt": 8654,
      "opro": 8655,
      " rock": 8656,
      "egas": 8657,
      "Annars": 8658,
      " sover": 8659,
      "ologin": 8660,
      " onö": 8661,
      " kostnaden": 8662,
      " ansvariga": 8663,
      " nåd": 8664,
      " märke": 8665,
      "Vidare": 8666,
      "slapp": 8667,
      " oroa": 8668,
      "Ännu": 8669,
      " författaren": 8670,
      " sannolik": 8671,
      " hundratals": 8672,
      "osex": 8673,
      "öckerna": 8674,
      " ​": 8675,
      "__": 8676,
      "blad": 8677,
      "dvik": 8678,
      "egräns": 8679,
      "lö": 8680,
      "uel": 8681,
      "äx": 8682,
      " veder": 8683,
      " bal": 8684,
      " lett": 8685,
      " utöv": 8686,
      "olvet": 8687,
      " öster": 8688,
      " Son": 8689,
      "umin": 8690,
      " Mag": 8691,
      " övergång": 8692,
      " pop": 8693,
      "Inne": 8694,
      " tycka": 8695,
      " troende": 8696,
      " pratade": 8697,
      " möbler": 8698,
      "ious": 8699,
      " kroppar": 8700,
      " obj": 8701,
      " omfatta": 8702,
      " term": 8703,
      " besökte": 8704,
      " kraftfulla": 8705,
      " League": 8706,
      " majoritet": 8707,
      " evangel": 8708,
      " erbjudande": 8709,
      " ambass": 8710,
      " norr": 8711,
      " titel": 8712,
      " gymna": 8713,
      "emedlem": 8714,
      "Hjälp": 8715,
      "sänd": 8716,
      "ådet": 8717,
      " fans": 8718,
      "onger": 8719,
      " stre": 8720,
      " stycken": 8721,
      " frig": 8722,
      " uppsättning": 8723,
      " Tor": 8724,
      " tvekan": 8725,
      "tats": 8726,
      "ostnad": 8727,
      "jänst": 8728,
      " återigen": 8729,
      " matchen": 8730,
      " fritid": 8731,
      " foto": 8732,
      " fasta": 8733,
      "temot": 8734,
      " general": 8735,
      " standarder": 8736,
      " verksamheter": 8737,
      " huvudsakliga": 8738,
      " tillåtet": 8739,
      " trygghet": 8740,
      " fattigdom": 8741,
      "Fem": 8742,
      "SK": 8743,
      "Stu": 8744,
      " operat": 8745,
      " killar": 8746,
      " försen": 8747,
      " gri": 8748,
      " anord": 8749,
      "riker": 8750,
      "ssnitt": 8751,
      " Spa": 8752,
      " Mellan": 8753,
      " gran": 8754,
      "isten": 8755,
      " Wall": 8756,
      " Out": 8757,
      " utvecklade": 8758,
      " saken": 8759,
      " förbli": 8760,
      "trafik": 8761,
      " snälla": 8762,
      " nere": 8763,
      " bokstav": 8764,
      " kropps": 8765,
      " faktiska": 8766,
      "Skriv": 8767,
      " foton": 8768,
      "trans": 8769,
      " kamera": 8770,
      " positioner": 8771,
      " farligt": 8772,
      " levde": 8773,
      " telefonen": 8774,
      "ställdhet": 8775,
      " skadliga": 8776,
      " kampanj": 8777,
      " klagomål": 8778,
      " bibliotek": 8779,
      " utvärdera": 8780,
      "iat": 8781,
      "lopp": 8782,
      "work": 8783,
      " förteck": 8784,
      "nades": 8785,
      "takta": 8786,
      "akter": 8787,
      "vatt": 8788,
      " Bal": 8789,
      " Power": 8790,
      " Hon": 8791,
      "samlingen": 8792,
      " flagg": 8793,
      " gransk": 8794,
      " tapp": 8795,
      "sbas": 8796,
      "änsla": 8797,
      "ledningen": 8798,
      " choklad": 8799,
      " kvinnorna": 8800,
      " öppnas": 8801,
      " liknar": 8802,
      " placera": 8803,
      " kontrollerar": 8804,
      " registrera": 8805,
      " lågt": 8806,
      " skatter": 8807,
      " show": 8808,
      " försvara": 8809,
      "boken": 8810,
      "platt": 8811,
      " sparar": 8812,
      " tvingas": 8813,
      " muslimer": 8814,
      "-komm": 8815,
      "Histor": 8816,
      "cle": 8817,
      "även": 8818,
      " dyra": 8819,
      " byn": 8820,
      " punkter": 8821,
      "rass": 8822,
      " inställning": 8823,
      " gäng": 8824,
      " avkast": 8825,
      " sty": 8826,
      " utarbet": 8827,
      " utsatt": 8828,
      "utsläpp": 8829,
      " Bill": 8830,
      " verka": 8831,
      " grun": 8832,
      " pool": 8833,
      " beredd": 8834,
      "organ": 8835,
      " längd": 8836,
      " förbund": 8837,
      " teater": 8838,
      "Sådana": 8839,
      " blandning": 8840,
      " bekym": 8841,
      " andliga": 8842,
      " flertal": 8843,
      " Förenta": 8844,
      " behandlingar": 8845,
      " Europaparlamentets": 8846,
      " kriterier": 8847,
      " applikationer": 8848,
      " förklarade": 8849,
      " förbereder": 8850,
      " utöva": 8851,
      "stjänst": 8852,
      " upphovsrätt": 8853,
      " Martin": 8854,
      "Bli": 8855,
      "CO": 8856,
      "EM": 8857,
      "gan": 8858,
      "köp": 8859,
      "myndig": 8860,
      "otera": 8861,
      " sna": 8862,
      "ttag": 8863,
      " avvik": 8864,
      "atsa": 8865,
      " befri": 8866,
      "omma": 8867,
      " skett": 8868,
      "förbruk": 8869,
      " reaktioner": 8870,
      " Fort": 8871,
      " Day": 8872,
      "ids": 8873,
      "jack": 8874,
      " dryck": 8875,
      "Skill": 8876,
      " tagits": 8877,
      " neder": 8878,
      " nätverket": 8879,
      " publik": 8880,
      " Program": 8881,
      " uteslut": 8882,
      " rollen": 8883,
      " kyrka": 8884,
      " sämre": 8885,
      "Le": 8886,
      "tv": 8887,
      "stora": 8888,
      " förfarande": 8889,
      "naler": 8890,
      " tänder": 8891,
      "isser": 8892,
      "ssp": 8893,
      " beställning": 8894,
      "spris": 8895,
      " minnas": 8896,
      "sål": 8897,
      " genast": 8898,
      "ordin": 8899,
      " personligen": 8900,
      "minskning": 8901,
      "ations": 8902,
      " besluts": 8903,
      " funktionen": 8904,
      "elsing": 8905,
      " hårda": 8906,
      " partnerskap": 8907,
      " undersökningar": 8908,
      " bekvämt": 8909,
      " avsnittet": 8910,
      " debatt": 8911,
      " Grand": 8912,
      "Kvinnor": 8913,
      "!)\n": 8914,
      "43": 8915,
      "CH": 8916,
      "RO": 8917,
      "Sex": 8918,
      "dda": 8919,
      "revet": 8920,
      "rekta": 8921,
      " bevara": 8922,
      " Si": 8923,
      " Person": 8924,
      " miner": 8925,
      " Hög": 8926,
      "seg": 8927,
      " genomförs": 8928,
      " OS": 8929,
      " förstod": 8930,
      " Inc": 8931,
      " talas": 8932,
      " imper": 8933,
      " tjock": 8934,
      " lugnt": 8935,
      " State": 8936,
      " generationer": 8937,
      "Filmen": 8938,
      " trevlig": 8939,
      " överensstämmelse": 8940,
      " informera": 8941,
      "47": 8942,
      "Led": 8943,
      "jung": 8944,
      "etiskt": 8945,
      " der": 8946,
      " attrak": 8947,
      " tillkänna": 8948,
      " ansöka": 8949,
      " ryk": 8950,
      " protokoll": 8951,
      " Ap": 8952,
      " Award": 8953,
      "ivis": 8954,
      " samm": 8955,
      "speci": 8956,
      " Tom": 8957,
      " kungar": 8958,
      " tvär": 8959,
      " betalt": 8960,
      " Wil": 8961,
      "shop": 8962,
      " syftet": 8963,
      " främmande": 8964,
      " kortare": 8965,
      " togs": 8966,
      " Count": 8967,
      " glömmer": 8968,
      " upptäckte": 8969,
      "ländsk": 8970,
      " skepp": 8971,
      " turist": 8972,
      " distribution": 8973,
      " avlägsna": 8974,
      "Livet": 8975,
      " existens": 8976,
      " hellre": 8977,
      "BD": 8978,
      "Dem": 8979,
      "Också": 8980,
      "stä": 8981,
      "ningens": 8982,
      " anger": 8983,
      " japanska": 8984,
      "sköter": 8985,
      "skatta": 8986,
      " undra": 8987,
      " Ana": 8988,
      "anskt": 8989,
      " spons": 8990,
      " Malm": 8991,
      " Tre": 8992,
      " gentemot": 8993,
      " Reg": 8994,
      " liber": 8995,
      " rättvis": 8996,
      " blom": 8997,
      " återvän": 8998,
      " slutföra": 8999,
      " teknologi": 9000,
      " impor": 9001,
      " repara": 9002,
      " neuro": 9003,
      " angående": 9004,
      " framförallt": 9005,
      "uide": 9006,
      " allvarlig": 9007,
      "Ändå": 9008,
      " negativt": 9009,
      "datum": 9010,
      " virus": 9011,
      "trollera": 9012,
      "sidenten": 9013,
      " obehag": 9014,
      "Problemet": 9015,
      " Beach": 9016,
      "UD": 9017,
      "af": 9018,
      "vinna": 9019,
      " höja": 9020,
      "omi": 9021,
      " inspel": 9022,
      " triv": 9023,
      " jack": 9024,
      "etts": 9025,
      " Så": 9026,
      " överföra": 9027,
      " samord": 9028,
      " betyg": 9029,
      " diam": 9030,
      " planering": 9031,
      "baserad": 9032,
      " koppla": 9033,
      " graviditet": 9034,
      " inträffar": 9035,
      " vinnare": 9036,
      " noggrann": 9037,
      "hailand": 9038,
      "Särskilt": 9039,
      "-]\n": 9040,
      "Redan": 9041,
      "disk": 9042,
      "gu": 9043,
      "urit": 9044,
      "etisk": 9045,
      " avslapp": 9046,
      "ask": 9047,
      " resen": 9048,
      " skadade": 9049,
      " Mu": 9050,
      " Mor": 9051,
      " DNA": 9052,
      "ico": 9053,
      "osit": 9054,
      "idat": 9055,
      " Webb": 9056,
      " höst": 9057,
      " säkerställer": 9058,
      " lyfta": 9059,
      "bryt": 9060,
      " problemen": 9061,
      " planen": 9062,
      " format": 9063,
      "känt": 9064,
      "aterad": 9065,
      " extrem": 9066,
      " billiga": 9067,
      " flyktingar": 9068,
      " Allah": 9069,
      " Smith": 9070,
      " billigare": 9071,
      "skridande": 9072,
      "-A": 9073,
      "66": 9074,
      "700": 9075,
      "PN": 9076,
      " sär": 9077,
      " batteri": 9078,
      " förare": 9079,
      " tillväxten": 9080,
      "ads": 9081,
      " ST": 9082,
      " kongress": 9083,
      " Bet": 9084,
      " Fran": 9085,
      " grann": 9086,
      " sevärd": 9087,
      " självför": 9088,
      " rike": 9089,
      "fattande": 9090,
      "grunden": 9091,
      "prov": 9092,
      "sbeh": 9093,
      " penis": 9094,
      " [-]\n": 9095,
      " byggnaden": 9096,
      " strax": 9097,
      " musiken": 9098,
      "Visa": 9099,
      " neut": 9100,
      " patienten": 9101,
      " materialet": 9102,
      " orolig": 9103,
      " svårigheter": 9104,
      "skrav": 9105,
      " avsedd": 9106,
      " förebyggande": 9107,
      " Associ": 9108,
      " laborator": 9109,
      "Vart": 9110,
      "ction": 9111,
      "gjor": 9112,
      "anerna": 9113,
      "inerna": 9114,
      " mam": 9115,
      "stöd": 9116,
      " litterat": 9117,
      "elen": 9118,
      " skiv": 9119,
      "oten": 9120,
      "ändan": 9121,
      "service": 9122,
      " Fre": 9123,
      " däribland": 9124,
      "geringen": 9125,
      " välk": 9126,
      " spelen": 9127,
      " legen": 9128,
      "otta": 9129,
      " gjord": 9130,
      " försäk": 9131,
      "Ung": 9132,
      " förutsäg": 9133,
      " storleken": 9134,
      " badrum": 9135,
      " skilja": 9136,
      " länken": 9137,
      " intellekt": 9138,
      " fångar": 9139,
      "-handel": 9140,
      "ämtning": 9141,
      "braham": 9142,
      " utvärdering": 9143,
      "fund": 9144,
      "sälj": 9145,
      " svär": 9146,
      " fet": 9147,
      " hyr": 9148,
      " kross": 9149,
      " förverk": 9150,
      " påmin": 9151,
      " skala": 9152,
      "anslut": 9153,
      " konstitu": 9154,
      " härlig": 9155,
      " därifrån": 9156,
      " havs": 9157,
      "dustri": 9158,
      "ikator": 9159,
      " återf": 9160,
      " parterna": 9161,
      "roppar": 9162,
      "amiljen": 9163,
      " inbjud": 9164,
      "behör": 9165,
      " herr": 9166,
      " officiellt": 9167,
      "Slutligen": 9168,
      "Bel": 9169,
      "Em": 9170,
      "VD": 9171,
      "ned": 9172,
      " sorts": 9173,
      "ären": 9174,
      " vag": 9175,
      "edde": 9176,
      "ätte": 9177,
      "ättar": 9178,
      "urer": 9179,
      " såklart": 9180,
      " Pat": 9181,
      " åsikt": 9182,
      "gien": 9183,
      " sektorn": 9184,
      " ”\n": 9185,
      "kons": 9186,
      "järnan": 9187,
      " teori": 9188,
      "projekt": 9189,
      " tjänare": 9190,
      " toal": 9191,
      " appen": 9192,
      " avslöja": 9193,
      " föds": 9194,
      " videon": 9195,
      " presenteras": 9196,
      " universitetet": 9197,
      " muskler": 9198,
      "analys": 9199,
      " lördag": 9200,
      " högkvalita": 9201,
      " Afghan": 9202,
      " kollegor": 9203,
      "Fär": 9204,
      "ces": 9205,
      "väst": 9206,
      "webb": 9207,
      "öden": 9208,
      "erska": 9209,
      "igger": 9210,
      " förekom": 9211,
      "unger": 9212,
      " resp": 9213,
      " CD": 9214,
      "sport": 9215,
      " Kong": 9216,
      " delarna": 9217,
      " längst": 9218,
      " dipl": 9219,
      " hittas": 9220,
      " slutändan": 9221,
      " målen": 9222,
      " Ande": 9223,
      "elset": 9224,
      "elsens": 9225,
      " begå": 9226,
      " kraftfull": 9227,
      "jukdomar": 9228,
      " populärt": 9229,
      "programmet": 9230,
      "skottet": 9231,
      " fördju": 9232,
      " minnes": 9233,
      " discipl": 9234,
      " webbläsare": 9235,
      "Speciellt": 9236,
      " kemikalier": 9237,
      " föreskrivs": 9238,
      " tråk": 9239,
      "-och": 9240,
      ":a": 9241,
      "RS": 9242,
      "Sv": 9243,
      "San": 9244,
      "hon": 9245,
      "mån": 9246,
      "usion": 9247,
      "väll": 9248,
      "ypt": 9249,
      " feder": 9250,
      " hormon": 9251,
      "onde": 9252,
      "agång": 9253,
      "tamin": 9254,
      " Mot": 9255,
      " Part": 9256,
      " minoritet": 9257,
      " trupp": 9258,
      " floden": 9259,
      " Nederländerna": 9260,
      " cyk": 9261,
      " välbef": 9262,
      " Väst": 9263,
      " smitt": 9264,
      " ignor": 9265,
      " försäm": 9266,
      "okal": 9267,
      " kompens": 9268,
      "läggningar": 9269,
      " formul": 9270,
      " regioner": 9271,
      " riskerar": 9272,
      "Stud": 9273,
      " Ze": 9274,
      " trädgården": 9275,
      "räffande": 9276,
      " dörr": 9277,
      " uppdatera": 9278,
      " turister": 9279,
      " kombinera": 9280,
      " förekommande": 9281,
      " kärnvapen": 9282,
      " avslöjar": 9283,
      "Resultatet": 9284,
      " arkitektur": 9285,
      " Science": 9286,
      "steknik": 9287,
      "flykt": 9288,
      " ​​": 9289,
      "**": 9290,
      "Bygg": 9291,
      "Kort": 9292,
      "Läg": 9293,
      "Ro": 9294,
      "bit": 9295,
      "kanska": 9296,
      "mier": 9297,
      " vd": 9298,
      " lam": 9299,
      " stycket": 9300,
      "olska": 9301,
      " SS": 9302,
      "inationen": 9303,
      " Polen": 9304,
      "ängden": 9305,
      " välkommen": 9306,
      "yrning": 9307,
      " rab": 9308,
      " rakt": 9309,
      " miljöm": 9310,
      " tyder": 9311,
      " låna": 9312,
      " observer": 9313,
      " sexuell": 9314,
      " styrelse": 9315,
      " träffat": 9316,
      " blodtryck": 9317,
      " infektion": 9318,
      " Sky": 9319,
      " försvann": 9320,
      " antibio": 9321,
      "bolaget": 9322,
      "logg": 9323,
      "Dagens": 9324,
      " konflikt": 9325,
      " förebygga": 9326,
      " ökande": 9327,
      "Programmet": 9328,
      " ytan": 9329,
      " instruktioner": 9330,
      " vaccin": 9331,
      " påminner": 9332,
      " §": 9333,
      "%.\n": 9334,
      "-system": 9335,
      "El": 9336,
      "Soci": 9337,
      "ah": 9338,
      "ous": 9339,
      " katter": 9340,
      " intill": 9341,
      " meddela": 9342,
      " skjut": 9343,
      "lation": 9344,
      "dras": 9345,
      " Texas": 9346,
      "räv": 9347,
      " grym": 9348,
      " gruv": 9349,
      " cigar": 9350,
      " sess": 9351,
      " kvanti": 9352,
      " roller": 9353,
      " bestående": 9354,
      " onlin": 9355,
      " rök": 9356,
      " yttrande": 9357,
      " United": 9358,
      " fantasi": 9359,
      " uppnås": 9360,
      " kniv": 9361,
      "örjning": 9362,
      "ripet": 9363,
      " lokalt": 9364,
      "glöm": 9365,
      " vittnes": 9366,
      " judiska": 9367,
      "stillstånd": 9368,
      " asyl": 9369,
      " europeisk": 9370,
      " innefattar": 9371,
      " rykte": 9372,
      "),\n": 9373,
      "59": 9374,
      " syr": 9375,
      " fyller": 9376,
      " bett": 9377,
      "ilien": 9378,
      " utse": 9379,
      " utgifter": 9380,
      "siva": 9381,
      "aktivitet": 9382,
      " slump": 9383,
      " navig": 9384,
      "ydda": 9385,
      " Ukra": 9386,
      " www": 9387,
      " penning": 9388,
      " bibe": 9389,
      " dras": 9390,
      " korrig": 9391,
      " dataskydd": 9392,
      " klipp": 9393,
      " kommunika": 9394,
      "160": 9395,
      "timent": 9396,
      " ovanför": 9397,
      " insåg": 9398,
      " passa": 9399,
      " månen": 9400,
      " skyldighet": 9401,
      " substans": 9402,
      " miljontals": 9403,
      " anläggningar": 9404,
      "meddelanden": 9405,
      "upplevelse": 9406,
      " Techn": 9407,
      "-app": 9408,
      "oid": 9409,
      "ual": 9410,
      " satsa": 9411,
      " bom": 9412,
      "chester": 9413,
      " pul": 9414,
      " gatan": 9415,
      "lia": 9416,
      " fris": 9417,
      "anser": 9418,
      "umer": 9419,
      " alli": 9420,
      "räk": 9421,
      " minister": 9422,
      " underbart": 9423,
      " Fri": 9424,
      " exakta": 9425,
      " verkligt": 9426,
      " livets": 9427,
      " Word": 9428,
[...]
