{
  "version": "1.0",
  "truncation": null,
  "padding": null,
  "added_tokens": [],
  "normalizer": null,
  "pre_tokenizer": {
    "type": "Sequence",
    "pretokenizers": [
      {
        "type": "Split",
        "pattern": {
          "Regex": "[^\\r\\n\\p{L}\\p{N}]?[\\p{Lu}\\p{Lt}\\p{Lm}\\p{Lo}\\p{M}]*[\\p{Ll}\\p{Lm}\\p{Lo}\\p{M}]+|[^\\r\\n\\p{L}\\p{N}]?[\\p{Lu}\\p{Lt}\\p{Lm}\\p{Lo}\\p{M}]+[\\p{Ll}\\p{Lm}\\p{Lo}\\p{M}]*|\\p{N}{1,3}| ?[^\\s\\p{L}\\p{N}]+[\\r\\n/]*|\\s*[\\r\\n]+|\\s+(?!\\S)|\\s+"
        },
        "behavior": "Isolated",
        "invert": false
      }
    ]
  },
  "post_processor": null,
  "decoder": null,
  "model": {
    "type": "BPE",
    "dropout": null,
    "unk_token": null,
    "continuing_subword_prefix": null,
    "end_of_word_suffix": null,
    "fuse_unk": false,
    "byte_fallback": false,
    "ignore_merges": false,
    "vocab": {
      "\n": 0,
      " ": 1,
      "!": 2,
      "\"": 3,
      "#": 4,
      "$": 5,
      "%": 6,
      "&": 7,
      "'": 8,
      "(": 9,
      ")": 10,
      "*": 11,
      "+": 12,
      ",": 13,
      "-": 14,
      ".": 15,
      "/": 16,
      "0": 17,
      "1": 18,
      "2": 19,
      "3": 20,
      "4": 21,
      "5": 22,
      "6": 23,
      "7": 24,
      "8": 25,
      "9": 26,
      ":": 27,
      ";": 28,
      "=": 29,
      ">": 30,
      "?": 31,
      "@": 32,
      "A": 33,
      "B": 34,
      "C": 35,
      "D": 36,
      "E": 37,
      "F": 38,
      "G": 39,
      "H": 40,
      "I": 41,
      "J": 42,
      "K": 43,
      "L": 44,
      "M": 45,
      "N": 46,
      "O": 47,
      "P": 48,
      "Q": 49,
      "R": 50,
      "S": 51,
      "T": 52,
      "U": 53,
      "V": 54,
      "W": 55,
      "X": 56,
      "Y": 57,
      "Z": 58,
      "[": 59,
      "\\": 60,
      "]": 61,
      "^": 62,
      "_": 63,
      "`": 64,
      "a": 65,
      "b": 66,
      "c": 67,
      "d": 68,
      "e": 69,
      "f": 70,
      "g": 71,
      "h": 72,
      "i": 73,
      "j": 74,
      "k": 75,
      "l": 76,
      "m": 77,
      "n": 78,
      "o": 79,
      "p": 80,
      "q": 81,
      "r": 82,
      "s": 83,
      "t": 84,
      "u": 85,
      "v": 86,
      "w": 87,
      "x": 88,
      "y": 89,
      "z": 90,
      "~": 91,
      "": 92,
      "": 93,
      "": 94,
      "": 95,
      "¡": 96,
      "£": 97,
      "¥": 98,
      "¦": 99,
      "¨": 100,
      "¬": 101,
      "­": 102,
      "®": 103,
      "°": 104,
      "²": 105,
      "·": 106,
      "¸": 107,
      "º": 108,
      "¼": 109,
      "½": 110,
      "¾": 111,
      "Â": 112,
      "Ä": 113,
      "Å": 114,
      "Ç": 115,
      "É": 116,
      "Î": 117,
      "Ñ": 118,
      "Ö": 119,
      "×": 120,
      "Ø": 121,
      "Û": 122,
      "Ü": 123,
      "ß": 124,
      "à": 125,
      "á": 126,
      "â": 127,
      "ã": 128,
      "ä": 129,
      "å": 130,
      "æ": 131,
      "ç": 132,
      "è": 133,
      "é": 134,
      "ê": 135,
      "ë": 136,
      "í": 137,
      "î": 138,
      "ï": 139,
      "ñ": 140,
      "ó": 141,
      "ö": 142,
      "ø": 143,
      "ù": 144,
      "ú": 145,
      "û": 146,
      "ü": 147,
      "ć": 148,
      "ē": 149,
      "Ğ": 150,
      "ğ": 151,
      "İ": 152,
      "ı": 153,
      "ł": 154,
      "Ş": 155,
      "ş": 156,
      "ƒ": 157,
      "ə": 158,
      "ˆ": 159,
      "̆": 160,
      "̇": 161,
      "̈": 162,
      "̧": 163,
      ";": 164,
      "α": 165,
      "μ": 166,
      "Л": 167,
      "а": 168,
      "е": 169,
      "к": 170,
      "н": 171,
      "о": 172,
      "п": 173,
      "с": 174,
      "т": 175,
      "у": 176,
      "і": 177,
      "ا": 178,
      "ة": 179,
      "ح": 180,
      "د": 181,
      "ر": 182,
      "س": 183,
      "غ": 184,
      "ق": 185,
      "ل": 186,
      "م": 187,
      "ن": 188,
      "و": 189,
      "ي": 190,
      "‎": 191,
      "‏": 192,
      "•": 193,
      "‫": 194,
      "‬": 195,
      "′": 196,
      "″": 197,
      "›": 198,
      "€": 199,
      "™": 200,
      "∂": 201,
      "■": 202,
      "◊": 203,
      "●": 204,
      "☮": 205,
      "⭐": 206,
      "️": 207,
      "�": 208,
      "🇷": 209,
      "🇹": 210,
      "🏆": 211,
      "🏻": 212,
      "👍": 213,
      "👑": 214,
      "💋": 215,
      "💧": 216,
      "💰": 217,
      "😁": 218,
      "😊": 219,
      "🙏": 220,
      "ar": 221,
      "an": 222,
      "er": 223,
      "in": 224,
      "ın": 225,
      " b": 226,
      "de": 227,
      ".\n": 228,
      "il": 229,
      " k": 230,
      "en": 231,
      "al": 232,
      " y": 233,
      "da": 234,
      " s": 235,
      "ir": 236,
      " g": 237,
      "ak": 238,
      "lar": 239,
      "el": 240,
      "ma": 241,
      "et": 242,
      "la": 243,
      " o": 244,
      "ek": 245,
      " v": 246,
      "iy": 247,
      " t": 248,
      "un": 249,
      " i": 250,
      "or": 251,
      " d": 252,
      "ler": 253,
      "at": 254,
      "ay": 255,
      "es": 256,
      "on": 257,
      "dı": 258,
      " h": 259,
      "di": 260,
      "as": 261,
      "ur": 262,
      "le": 263,
      " ve": 264,
      "aş": 265,
      "li": 266,
      "ün": 267,
      "ıl": 268,
      " de": 269,
      " bir": 270,
      "ür": 271,
      " m": 272,
      "im": 273,
      " ç": 274,
      "ık": 275,
      "iz": 276,
      "ul": 277,
      "em": 278,
      " ol": 279,
      "ap": 280,
      " A": 281,
      " a": 282,
      "ik": 283,
      "ır": 284,
      "st": 285,
      "am": 286,
      "ör": 287,
      "ında": 288,
      "ey": 289,
      "inde": 290,
      " B": 291,
      "dan": 292,
      "ış": 293,
      " il": 294,
      " T": 295,
      "iş": 296,
      " da": 297,
      "az": 298,
      " ö": 299,
      " p": 300,
      "ını": 301,
      "ab": 302,
      " e": 303,
      " K": 304,
      "ya": 305,
      "ğı": 306,
      "du": 307,
      " S": 308,
      "ki": 309,
      "um": 310,
      " M": 311,
      "'n": 312,
      "ini": 313,
      "ah": 314,
      " al": 315,
      "üz": 316,
      "den": 317,
      "ti": 318,
      " ş": 319,
      " yap": 320,
      "ine": 321,
      "tı": 322,
      " ar": 323,
      "it": 324,
      "ol": 325,
      "ec": 326,
      "lı": 327,
      "sı": 328,
      "esi": 329,
      " f": 330,
      "lan": 331,
      "ok": 332,
      "ım": 333,
      "iye": 334,
      " iç": 335,
      " \"": 336,
      "yor": 337,
      "ına": 338,
      "is": 339,
      "ları": 340,
      "ük": 341,
      " bu": 342,
      "ağ": 343,
      " n": 344,
      "iyor": 345,
      " D": 346,
      " G": 347,
      "ül": 348,
      "uz": 349,
      "leri": 350,
      "ev": 351,
      "inin": 352,
      " H": 353,
      "iler": 354,
      "ği": 355,
      " gör": 356,
      "uş": 357,
      " E": 358,
      "cak": 359,
      "af": 360,
      "ut": 361,
      "oğ": 362,
      " baş": 363,
      " kar": 364,
      "alar": 365,
      "ön": 366,
      "anı": 367,
      " et": 368,
      "ta": 369,
      "ez": 370,
      "ürk": 371,
      " için": 372,
      " son": 373,
      "ların": 374,
      "ız": 375,
      "eler": 376,
      " İ": 377,
      " ile": 378,
      "üm": 379,
      "us": 380,
      " gel": 381,
      "dır": 382,
      " oldu": 383,
      " ön": 384,
      "te": 385,
      "av": 386,
      "eç": 387,
      "ca": 388,
      "uk": 389,
      " ver": 390,
      " kon": 391,
      " r": 392,
      "lik": 393,
      " an": 394,
      "ad": 395,
      " z": 396,
      "ce": 397,
      " ed": 398,
      "üş": 399,
      " C": 400,
      "ından": 401,
      " Y": 402,
      "len": 403,
      " P": 404,
      "ması": 405,
      "se": 406,
      " aç": 407,
      "dir": 408,
      "yon": 409,
      " ger": 410,
      "uy": 411,
      " c": 412,
      "20": 413,
      "unu": 414,
      "öy": 415,
      "mak": 416,
      "me": 417,
      " F": 418,
      "ının": 419,
      " ay": 420,
      "öz": 421,
      " bul": 422,
      "laş": 423,
      "ra": 424,
      "lu": 425,
      "cı": 426,
      "lay": 427,
      "om": 428,
      " yıl": 429,
      "üy": 430,
      " ma": 431,
      " Türk": 432,
      "eş": 433,
      "ildi": 434,
      "op": 435,
      " tar": 436,
      "lık": 437,
      "ib": 438,
      "ip": 439,
      " çık": 440,
      "'da": 441,
      " en": 442,
      " yer": 443,
      "ası": 444,
      " kal": 445,
      " bel": 446,
      " bil": 447,
      " olduğ": 448,
      "Bu": 449,
      " değ": 450,
      "man": 451,
      " in": 452,
      "tir": 453,
      "larak": 454,
      "tan": 455,
      " sür": 456,
      " yaş": 457,
      " iş": 458,
      "ıyor": 459,
      "dığı": 460,
      "'de": 461,
      " gün": 462,
      " geç": 463,
      "mas": 464,
      "ken": 465,
      "mek": 466,
      "üt": 467,
      " olarak": 468,
      "'nin": 469,
      " yar": 470,
      "öyle": 471,
      "eh": 472,
      "ade": 473,
      " ist": 474,
      " (": 475,
      " kad": 476,
      "ıs": 477,
      " or": 478,
      "ro": 479,
      "aşk": 480,
      "ılan": 481,
      "tır": 482,
      "ede": 483,
      "iyle": 484,
      "ecek": 485,
      " çok": 486,
      " O": 487,
      "ama": 488,
      " ne": 489,
      "eni": 490,
      "eb": 491,
      "alı": 492,
      "ilm": 493,
      " olan": 494,
      "ada": 495,
      "ha": 496,
      "ili": 497,
      "ğini": 498,
      "iyet": 499,
      " üz": 500,
      " çal": 501,
      "asında": 502,
      "aya": 503,
      "aber": 504,
      "yla": 505,
      "let": 506,
      " kay": 507,
      "ist": 508,
      " mil": 509,
      " R": 510,
      "lü": 511,
      "imiz": 512,
      "ru": 513,
      "ece": 514,
      " kur": 515,
      "inden": 516,
      " bulun": 517,
      "ih": 518,
      "mış": 519,
      "ed": 520,
      " belir": 521,
      "ilen": 522,
      " Türkiye": 523,
      "cu": 524,
      " ise": 525,
      " çalış": 526,
      " üzer": 527,
      " karş": 528,
      " var": 529,
      "201": 530,
      "lama": 531,
      "eye": 532,
      "uşt": 533,
      " dev": 534,
      " açık": 535,
      " daha": 536,
      "unda": 537,
      "arı": 538,
      "aç": 539,
      " yön": 540,
      " kul": 541,
      "ibi": 542,
      " el": 543,
      " ter": 544,
      " -": 545,
      " sor": 546,
      "ci": 547,
      " ek": 548,
      "'in": 549,
      " oy": 550,
      "'ın": 551,
      "si": 552,
      " ken": 553,
      " top": 554,
      "lerin": 555,
      "larını": 556,
      "ğını": 557,
      "aman": 558,
      "..": 559,
      "öl": 560,
      "malar": 561,
      " yak": 562,
      "por": 563,
      " gü": 564,
      "eri": 565,
      "leş": 566,
      "os": 567,
      " yüz": 568,
      " bin": 569,
      " at": 570,
      "'y": 571,
      " düş": 572,
      " dur": 573,
      " kiş": 574,
      "ara": 575,
      "üyük": 576,
      "ıldı": 577,
      " Ş": 578,
      " N": 579,
      "ğr": 580,
      " gö": 581,
      " yan": 582,
      "ep": 583,
      " dön": 584,
      "dür": 585,
      "eli": 586,
      " taraf": 587,
      "erek": 588,
      "lem": 589,
      "arak": 590,
      "'nın": 591,
      "ilir": 592,
      " kullan": 593,
      " Ç": 594,
      " uy": 595,
      "erk": 596,
      "uç": 597,
      "sa": 598,
      "unun": 599,
      "lara": 600,
      "ark": 601,
      "ılı": 602,
      " sonra": 603,
      " gir": 604,
      "diği": 605,
      "oy": 606,
      " kadar": 607,
      "maya": 608,
      " sağ": 609,
      "ten": 610,
      " L": 611,
      " Ö": 612,
      " sah": 613,
      " gibi": 614,
      "lerini": 615,
      "miş": 616,
      "ladı": 617,
      "tığı": 618,
      " gerek": 619,
      " kap": 620,
      " etti": 621,
      "men": 622,
      "met": 623,
      " hal": 624,
      " kat": 625,
      "id": 626,
      " tek": 627,
      " ola": 628,
      " tak": 629,
      "dü": 630,
      "oli": 631,
      " söyle": 632,
      " mü": 633,
      " ül": 634,
      "anlı": 635,
      " Er": 636,
      "00": 637,
      "ayı": 638,
      " hak": 639,
      "esinde": 640,
      " ü": 641,
      " ak": 642,
      " karşı": 643,
      " dedi": 644,
      "aşkanı": 645,
      " terör": 646,
      "isi": 647,
      "acak": 648,
      "san": 649,
      "re": 650,
      "ran": 651,
      " yeni": 652,
      "asyon": 653,
      "aat": 654,
      " böl": 655,
      "may": 656,
      "ter": 657,
      "ımız": 658,
      " öz": 659,
      "art": 660,
      "dım": 661,
      "una": 662,
      " ilg": 663,
      " her": 664,
      " V": 665,
      " büyük": 666,
      " if": 667,
      "çek": 668,
      " ev": 669,
      "ot": 670,
      "ic": 671,
      " göre": 672,
      " ülk": 673,
      "?\n": 674,
      "kin": 675,
      " düz": 676,
      " as": 677,
      "etir": 678,
      "if": 679,
      "ğu": 680,
      " ilk": 681,
      " alın": 682,
      " hay": 683,
      "ven": 684,
      "hur": 685,
      " getir": 686,
      " dün": 687,
      "tr": 688,
      "ef": 689,
      "etim": 690,
      "ers": 691,
      " olduğunu": 692,
      "stan": 693,
      "elik": 694,
      " ifade": 695,
      "bul": 696,
      " olduğu": 697,
      "umhur": 698,
      " An": 699,
      " neden": 700,
      " ort": 701,
      " pro": 702,
      "üs": 703,
      " ör": 704,
      " doğ": 705,
      " do": 706,
      " zaman": 707,
      "dik": 708,
      " on": 709,
      "gi": 710,
      " belirt": 711,
      "larda": 712,
      " yol": 713,
      " alan": 714,
      " sal": 715,
      "'a": 716,
      " göz": 717,
      "per": 718,
      " yüzde": 719,
      " tut": 720,
      "larının": 721,
      "oc": 722,
      "alan": 723,
      "lat": 724,
      " sır": 725,
      "çe": 726,
      "Türk": 727,
      "azet": 728,
      "cağı": 729,
      "ac": 730,
      " öğr": 731,
      "iv": 732,
      " maç": 733,
      "üks": 734,
      "iyi": 735,
      " Haber": 736,
      "An": 737,
      " çek": 738,
      "tar": 739,
      " ama": 740,
      "gu": 741,
      " şek": 742,
      "uh": 743,
      " önem": 744,
      "ünde": 745,
      "uştur": 746,
      " U": 747,
      " u": 748,
      " değil": 749,
      " devam": 750,
      " has": 751,
      "rup": 752,
      "oğlu": 753,
      " tarafından": 754,
      "tık": 755,
      "der": 756,
      "güt": 757,
      " gerçek": 758,
      "lam": 759,
      " ih": 760,
      "iç": 761,
      "ster": 762,
      "iniz": 763,
      "tik": 764,
      " arasında": 765,
      " ot": 766,
      "uyor": 767,
      " uz": 768,
      " alt": 769,
      " biz": 770,
      " sev": 771,
      "stanbul": 772,
      "mesi": 773,
      "ünü": 774,
      "ley": 775,
      "dından": 776,
      " Ar": 777,
      " poli": 778,
      "erb": 779,
      " Al": 780,
      "10": 781,
      " yaz": 782,
      "bir": 783,
      "cü": 784,
      " yapılan": 785,
      "dık": 786,
      "enel": 787,
      " '": 788,
      "eyi": 789,
      "ındaki": 790,
      "ans": 791,
      "akan": 792,
      " göster": 793,
      " kendi": 794,
      "'ye": 795,
      "doğ": 796,
      "arb": 797,
      "tü": 798,
      " diye": 799,
      "lere": 800,
      "anın": 801,
      " durum": 802,
      "alık": 803,
      "gün": 804,
      " ardından": 805,
      " iki": 806,
      "15": 807,
      "dar": 808,
      "mız": 809,
      " milyon": 810,
      "ğer": 811,
      " düzen": 812,
      " saat": 813,
      " Z": 814,
      " l": 815,
      " kaz": 816,
      " ad": 817,
      "...\n": 818,
      " söz": 819,
      " ilgili": 820,
      "atı": 821,
      " önce": 822,
      "ub": 823,
      "19": 824,
      " li": 825,
      " saldır": 826,
      " başk": 827,
      " bek": 828,
      "larına": 829,
      "sız": 830,
      "liği": 831,
      "ob": 832,
      " olma": 833,
      "'nde": 834,
      "dığını": 835,
      "lerinin": 836,
      " eden": 837,
      "eleri": 838,
      " sav": 839,
      " bölg": 840,
      "atır": 841,
      "edi": 842,
      " har": 843,
      " görev": 844,
      "oz": 845,
      "han": 846,
      " es": 847,
      " örgüt": 848,
      " bulundu": 849,
      " öl": 850,
      "ğü": 851,
      "eti": 852,
      "uştu": 853,
      "usu": 854,
      "esine": 855,
      " bağ": 856,
      " önemli": 857,
      "atan": 858,
      " özel": 859,
      " öğren": 860,
      "ıp": 861,
      "sun": 862,
      " par": 863,
      " insan": 864,
      " Başkanı": 865,
      "Türkiye": 866,
      " yok": 867,
      " gelen": 868,
      "up": 869,
      " güven": 870,
      "ileri": 871,
      "ıla": 872,
      "ram": 873,
      " is": 874,
      "Bir": 875,
      " karar": 876,
      " ür": 877,
      "üp": 878,
      " hem": 879,
      " Mü": 880,
      "BD": 881,
      "ET": 882,
      "enin": 883,
      " dönem": 884,
      " yet": 885,
      " oyun": 886,
      "erkez": 887,
      "bol": 888,
      "lerde": 889,
      "ank": 890,
      "ocuk": 891,
      " Haberleri": 892,
      "ne": 893,
      " söyledi": 894,
      "'e": 895,
      "lerine": 896,
      " den": 897,
      "iyas": 898,
      " haf": 899,
      " san": 900,
      "ekt": 901,
      " dest": 902,
      " iz": 903,
      " Cumhur": 904,
      " Bak": 905,
      "leştir": 906,
      "işim": 907,
      "doğan": 908,
      " Öz": 909,
      "dur": 910,
      "rı": 911,
      "iliyor": 912,
      " değer": 913,
      "nı": 914,
      "azı": 915,
      " birlik": 916,
      "raf": 917,
      " duy": 918,
      "aret": 919,
      " içinde": 920,
      "rak": 921,
      "cel": 922,
      "esini": 923,
      " yüks": 924,
      " iyi": 925,
      "lendir": 926,
      "ika": 927,
      "ulu": 928,
      " yaptığı": 929,
      " fark": 930,
      " say": 931,
      " ben": 932,
      " tarih": 933,
      "siz": 934,
      " Ü": 935,
      " kam": 936,
      "perasyon": 937,
      "maz": 938,
      " hayat": 939,
      "!\n": 940,
      " der": 941,
      " kor": 942,
      "aşı": 943,
      " tem": 944,
      " Sur": 945,
      " Av": 946,
      " Ak": 947,
      " bak": 948,
      "'un": 949,
      " bas": 950,
      " dış": 951,
      " ko": 952,
      "det": 953,
      "tür": 954,
      "larında": 955,
      " Kur": 956,
      " ediyor": 957,
      " olay": 958,
      " geldi": 959,
      "'ya": 960,
      "ilecek": 961,
      " şeh": 962,
      "daş": 963,
      " ok": 964,
      "iyat": 965,
      "layan": 966,
      " vur": 967,
      "üyor": 968,
      "ilerin": 969,
      " I": 970,
      " iliş": 971,
      "'dan": 972,
      " oyn": 973,
      " yay": 974,
      " az": 975,
      " ede": 976,
      "cade": 977,
      " İstanbul": 978,
      "ilde": 979,
      "lerinde": 980,
      "ağı": 981,
      " haber": 982,
      "ig": 983,
      " kişi": 984,
      "ddi": 985,
      "eki": 986,
      " zor": 987,
      " görüş": 988,
      " edildi": 989,
      "lah": 990,
      " çıkar": 991,
      " tes": 992,
      " J": 993,
      "taş": 994,
      "asar": 995,
      " güç": 996,
      " ada": 997,
      " haz": 998,
      "larla": 999,
      " bulunan": 1000,
      " im": 1001,
      "ılık": 1002,
      "eyen": 1003,
      " kim": 1004,
      " ağ": 1005,
      "ali": 1006,
      " takım": 1007,
      "ısı": 1008,
      " ki": 1009,
      "ETÖ": 1010,
      "esinin": 1011,
      "\".": 1012,
      "ile": 1013,
      "eme": 1014,
      "'den": 1015,
      " konuş": 1016,
      " eş": 1017,
      "ülen": 1018,
      " açıklama": 1019,
      " tüm": 1020,
      " üzerine": 1021,
      "iştir": 1022,
      " mes": 1023,
      " Baş": 1024,
      " polis": 1025,
      " dik": 1026,
      "bet": 1027,
      " operasyon": 1028,
      " sat": 1029,
      " bilg": 1030,
      " şey": 1031,
      " lir": 1032,
      " ark": 1033,
      "azla": 1034,
      " çocuk": 1035,
      "anlığı": 1036,
      " şekilde": 1037,
      "ket": 1038,
      " hakk": 1039,
      " hav": 1040,
      "ğimiz": 1041,
      "masına": 1042,
      "masını": 1043,
      "uv": 1044,
      "rupa": 1045,
      " birlikte": 1046,
      "meye": 1047,
      " cez": 1048,
      " kes": 1049,
      "onom": 1050,
      "utbol": 1051,
      "lardan": 1052,
      "anan": 1053,
      " Gazet": 1054,
      "üne": 1055,
      " ser": 1056,
      " dav": 1057,
      "iğer": 1058,
      " seç": 1059,
      " verdi": 1060,
      " fazla": 1061,
      " hazır": 1062,
      "ov": 1063,
      "ektör": 1064,
      "ğit": 1065,
      " üst": 1066,
      " Mah": 1067,
      " gen": 1068,
      " vatan": 1069,
      "sel": 1070,
      "ilik": 1071,
      " git": 1072,
      " hiç": 1073,
      " em": 1074,
      "Biz": 1075,
      " Müdür": 1076,
      "kat": 1077,
      " geçir": 1078,
      " ulaş": 1079,
      " destek": 1080,
      "mir": 1081,
      "alat": 1082,
      " kan": 1083,
      "iyon": 1084,
      " olacak": 1085,
      " konuştu": 1086,
      " olmak": 1087,
      " yür": 1088,
      "istem": 1089,
      "ide": 1090,
      " mücade": 1091,
      "'nun": 1092,
      "bar": 1093,
      " yaptı": 1094,
      " önc": 1095,
      "12": 1096,
      " kaç": 1097,
      "30": 1098,
      " Erdoğan": 1099,
      "olo": 1100,
      "liğ": 1101,
      " ask": 1102,
      "ıcı": 1103,
      " tel": 1104,
      " Gazetesi": 1105,
      " tama": 1106,
      " aynı": 1107,
      "adece": 1108,
      "lanan": 1109,
      " yapıl": 1110,
      "yan": 1111,
      " ekip": 1112,
      " sayı": 1113,
      " bır": 1114,
      "lenen": 1115,
      "KK": 1116,
      "ret": 1117,
      "ahçe": 1118,
      "usunda": 1119,
      "ilmesi": 1120,
      " art": 1121,
      "alt": 1122,
      " kö": 1123,
      "ağını": 1124,
      "ulan": 1125,
      " darb": 1126,
      "kan": 1127,
      "tal": 1128,
      "landı": 1129,
      "est": 1130,
      "indeki": 1131,
      " iddi": 1132,
      " suç": 1133,
      "osy": 1134,
      "luk": 1135,
      " sahip": 1136,
      " saldırı": 1137,
      " kazan": 1138,
      " ya": 1139,
      "likle": 1140,
      " dikkat": 1141,
      "sam": 1142,
      "ğitim": 1143,
      " İs": 1144,
      " harek": 1145,
      " kab": 1146,
      " bugün": 1147,
      " bırak": 1148,
      " te": 1149,
      "'te": 1150,
      "mıştı": 1151,
      " bur": 1152,
      " sık": 1153,
      " fa": 1154,
      "ilah": 1155,
      "edef": 1156,
      " muh": 1157,
      " dak": 1158,
      "ımı": 1159,
      "AR": 1160,
      "ilece": 1161,
      "kara": 1162,
      " gön": 1163,
      "aları": 1164,
      "gan": 1165,
      " vatandaş": 1166,
      " veya": 1167,
      " konu": 1168,
      "200": 1169,
      " Par": 1170,
      " nedeniyle": 1171,
      " ABD": 1172,
      "hal": 1173,
      "kü": 1174,
      " yapan": 1175,
      "lığı": 1176,
      "'ta": 1177,
      "oloj": 1178,
      "),": 1179,
      " ortaya": 1180,
      "olu": 1181,
      "lantı": 1182,
      "11": 1183,
      "mi": 1184,
      " diğer": 1185,
      " sistem": 1186,
      " yakın": 1187,
      " Suriye": 1188,
      "eşik": 1189,
      " kıs": 1190,
      " üzere": 1191,
      "başkanı": 1192,
      " kez": 1193,
      "kil": 1194,
      " çıktı": 1195,
      " kr": 1196,
      "AN": 1197,
      "enerb": 1198,
      "'nda": 1199,
      " yardım": 1200,
      " Genel": 1201,
      "acağı": 1202,
      "iyoruz": 1203,
      "mer": 1204,
      " Avrupa": 1205,
      " İl": 1206,
      "eşiktaş": 1207,
      " uç": 1208,
      "maları": 1209,
      " açıkla": 1210,
      "larımız": 1211,
      " hedef": 1212,
      " şu": 1213,
      " tekn": 1214,
      " aş": 1215,
      " şir": 1216,
      " başladı": 1217,
      "muz": 1218,
      " TL": 1219,
      "meler": 1220,
      "asıl": 1221,
      "ınız": 1222,
      "usya": 1223,
      "ütün": 1224,
      "Ben": 1225,
      " gerçekleştir": 1226,
      "Ay": 1227,
      " üy": 1228,
      " devlet": 1229,
      " Yıl": 1230,
      "imi": 1231,
      "manın": 1232,
      " edilen": 1233,
      "bilir": 1234,
      "emiz": 1235,
      " Bel": 1236,
      " futbol": 1237,
      " merkez": 1238,
      " Ay": 1239,
      " isim": 1240,
      " yaklaş": 1241,
      "Al": 1242,
      "ing": 1243,
      "enerbahçe": 1244,
      "ri": 1245,
      " geçen": 1246,
      "mayı": 1247,
      " Gün": 1248,
      " içer": 1249,
      " yatır": 1250,
      "ök": 1251,
      "urt": 1252,
      "larından": 1253,
      "gı": 1254,
      "eğ": 1255,
      " olur": 1256,
      " kapsam": 1257,
      "yar": 1258,
      " yas": 1259,
      "üküm": 1260,
      " sadece": 1261,
      ":\n": 1262,
      " millet": 1263,
      "Ancak": 1264,
      " yönelik": 1265,
      "çı": 1266,
      "asaray": 1267,
      " bazı": 1268,
      "alatasaray": 1269,
      "ezon": 1270,
      "lak": 1271,
      " sı": 1272,
      "undan": 1273,
      " doğru": 1274,
      " pay": 1275,
      " aldı": 1276,
      " Tem": 1277,
      "50": 1278,
      "ünün": 1279,
      " er": 1280,
      " kend": 1281,
      " kaldır": 1282,
      "ons": 1283,
      " Or": 1284,
      " İn": 1285,
      " kadın": 1286,
      " siyas": 1287,
      "çi": 1288,
      " tutuk": 1289,
      "gil": 1290,
      " hast": 1291,
      "okt": 1292,
      "yı": 1293,
      "lüğü": 1294,
      "niyet": 1295,
      "ayan": 1296,
      " proj": 1297,
      " sonu": 1298,
      "oş": 1299,
      "lük": 1300,
      " tamam": 1301,
      " araç": 1302,
      " Kar": 1303,
      "Son": 1304,
      "ğın": 1305,
      "osyal": 1306,
      " üç": 1307,
      "'daki": 1308,
      " günü": 1309,
      "ılması": 1310,
      "'i": 1311,
      "ana": 1312,
      "ehir": 1313,
      "medi": 1314,
      " Em": 1315,
      " FETÖ": 1316,
      " sonr": 1317,
      " tab": 1318,
      "eden": 1319,
      " plan": 1320,
      "daki": 1321,
      " gönder": 1322,
      "gel": 1323,
      "14": 1324,
      " hafta": 1325,
      " boy": 1326,
      " bildir": 1327,
      " gol": 1328,
      "abilir": 1329,
      "ER": 1330,
      "nak": 1331,
      " PKK": 1332,
      "omb": 1333,
      "masının": 1334,
      "vet": 1335,
      " görün": 1336,
      "aşkan": 1337,
      "lerden": 1338,
      "dav": 1339,
      "lerinden": 1340,
      "üb": 1341,
      " düşün": 1342,
      "adaş": 1343,
      "van": 1344,
      "isinde": 1345,
      " ik": 1346,
      " yerine": 1347,
      "'ne": 1348,
      " uygu": 1349,
      "eci": 1350,
      "..\n": 1351,
      "eniz": 1352,
      " iht": 1353,
      "\"ın": 1354,
      "16": 1355,
      "asına": 1356,
      " girişim": 1357,
      "ust": 1358,
      "ivers": 1359,
      " üzerinde": 1360,
      " değerlendir": 1361,
      " dolar": 1362,
      "kı": 1363,
      "iyorum": 1364,
      " bit": 1365,
      "iversit": 1366,
      "Ar": 1367,
      "ahat": 1368,
      " güvenlik": 1369,
      " uyg": 1370,
      " silah": 1371,
      "cek": 1372,
      "'deki": 1373,
      "muş": 1374,
      " terörist": 1375,
      " düny": 1376,
      " ayr": 1377,
      "gram": 1378,
      "endi": 1379,
      "okr": 1380,
      "izmet": 1381,
      " nasıl": 1382,
      " gid": 1383,
      " tah": 1384,
      "lerle": 1385,
      " mey": 1386,
      " yılında": 1387,
      "ize": 1388,
      "deki": 1389,
      " lira": 1390,
      " hareket": 1391,
      " yönetim": 1392,
      " diy": 1393,
      " şöyle": 1394,
      "üph": 1395,
      " ilç": 1396,
      " milyar": 1397,
      " hakkında": 1398,
      "18": 1399,
      "las": 1400,
      " şirket": 1401,
      " pat": 1402,
      " sezon": 1403,
      "pr": 1404,
      " süre": 1405,
      " kız": 1406,
      " hat": 1407,
      " gazet": 1408,
      "bakan": 1409,
      " Mil": 1410,
      "ilere": 1411,
      "trol": 1412,
      " anlaş": 1413,
      "ınır": 1414,
      " sen": 1415,
      " kil": 1416,
      " kır": 1417,
      "dana": 1418,
      "orm": 1419,
      " yüksek": 1420,
      " tal": 1421,
      " işlem": 1422,
      " Spor": 1423,
      "eceğ": 1424,
      "HP": 1425,
      "ılacak": 1426,
      " çev": 1427,
      " yanı": 1428,
      "aştır": 1429,
      "17": 1430,
      " kurul": 1431,
      " değiş": 1432,
      "rar": 1433,
      "malı": 1434,
      "sini": 1435,
      "all": 1436,
      " mut": 1437,
      " konusunda": 1438,
      "istan": 1439,
      "\"n": 1440,
      "Ama": 1441,
      "kinci": 1442,
      "leme": 1443,
      "unları": 1444,
      " dünya": 1445,
      " oyuncu": 1446,
      " bile": 1447,
      "isyon": 1448,
      "mayan": 1449,
      "amp": 1450,
      " W": 1451,
      "25": 1452,
      "evlet": 1453,
      " Temmuz": 1454,
      "ehmet": 1455,
      "ge": 1456,
      " ancak": 1457,
      " biri": 1458,
      " yatırım": 1459,
      "üç": 1460,
      " farklı": 1461,
      "ebilir": 1462,
      " Bir": 1463,
      " tedav": 1464,
      " Has": 1465,
      "ilmiş": 1466,
      "laya": 1467,
      "ünya": 1468,
      " Cumhuriyet": 1469,
      "ğa": 1470,
      " Şub": 1471,
      " yayın": 1472,
      " etm": 1473,
      " açıklamada": 1474,
      "13": 1475,
      " kontrol": 1476,
      " met": 1477,
      "uma": 1478,
      "aliyet": 1479,
      " yaşındaki": 1480,
      " hız": 1481,
      " olması": 1482,
      " arkadaş": 1483,
      " paylaş": 1484,
      "İn": 1485,
      " kabul": 1486,
      " soruştur": 1487,
      "azar": 1488,
      "kem": 1489,
      " mah": 1490,
      "aj": 1491,
      "üldü": 1492,
      "ısında": 1493,
      "izi": 1494,
      " tan": 1495,
      "ledi": 1496,
      "efon": 1497,
      "üzel": 1498,
      " darbe": 1499,
      " ey": 1500,
      "ümüz": 1501,
      "rıca": 1502,
      " tur": 1503,
      " yönet": 1504,
      "min": 1505,
      " Söz": 1506,
      "altına": 1507,
      " iti": 1508,
      " mücadele": 1509,
      " sağlık": 1510,
      "afa": 1511,
      " ekonom": 1512,
      "lk": 1513,
      "...": 1514,
      "İş": 1515,
      " böyle": 1516,
      " geliş": 1517,
      " genel": 1518,
      " hizmet": 1519,
      "etin": 1520,
      "tin": 1521,
      " katıl": 1522,
      "tiği": 1523,
      "mekte": 1524,
      " başka": 1525,
      "'yi": 1526,
      "lum": 1527,
      " oluştur": 1528,
      " Ankara": 1529,
      " eğitim": 1530,
      " bölüm": 1531,
      "lerimiz": 1532,
      "lendi": 1533,
      "duğu": 1534,
      " Ün": 1535,
      " ağır": 1536,
      "fer": 1537,
      " şehit": 1538,
      " ilişkin": 1539,
      " asker": 1540,
      "mişti": 1541,
      "ğunu": 1542,
      "ça": 1543,
      "rab": 1544,
      "ver": 1545,
      " bütün": 1546,
      " hes": 1547,
      "üsü": 1548,
      " uzun": 1549,
      " eski": 1550,
      "tu": 1551,
      "suz": 1552,
      "dem": 1553,
      " bab": 1554,
      " Bakanı": 1555,
      "çok": 1556,
      " film": 1557,
      "oğun": 1558,
      "AK": 1559,
      " sınır": 1560,
      " mo": 1561,
      "oğraf": 1562,
      " şüph": 1563,
      " mi": 1564,
      "gin": 1565,
      "şam": 1566,
      " bomb": 1567,
      "ari": 1568,
      " teş": 1569,
      " olduk": 1570,
      " toplantı": 1571,
      "alarında": 1572,
      " kapsamında": 1573,
      "arası": 1574,
      " telefon": 1575,
      " tür": 1576,
      " Beled": 1577,
      "imdi": 1578,
      " ün": 1579,
      " teh": 1580,
      "tiğini": 1581,
      "erör": 1582,
      "tak": 1583,
      "ırken": 1584,
      " ber": 1585,
      "akat": 1586,
      " hep": 1587,
      " med": 1588,
      " Mehmet": 1589,
      " rağ": 1590,
      "esiyle": 1591,
      "Bur": 1592,
      "uyla": 1593,
      " yağ": 1594,
      " büy": 1595,
      " halk": 1596,
      " çalışan": 1597,
      "acı": 1598,
      "can": 1599,
      " Ek": 1600,
      "ala": 1601,
      " ülkeler": 1602,
      " bulunduğu": 1603,
      " yüksel": 1604,
      " kaybet": 1605,
      " gözaltına": 1606,
      " rağmen": 1607,
      "ışma": 1608,
      "'na": 1609,
      " rak": 1610,
      "din": 1611,
      " belirten": 1612,
      "ens": 1613,
      " koy": 1614,
      " dir": 1615,
      "ışı": 1616,
      "'ı": 1617,
      " yen": 1618,
      "lim": 1619,
      "asını": 1620,
      " etki": 1621,
      " seb": 1622,
      " çalışmalar": 1623,
      "tep": 1624,
      " Kom": 1625,
      "deş": 1626,
      "cağını": 1627,
      "net": 1628,
      " Dem": 1629,
      "mez": 1630,
      "vek": 1631,
      " su": 1632,
      "sine": 1633,
      " çıkan": 1634,
      " Parti": 1635,
      "vur": 1636,
      " hastan": 1637,
      " sok": 1638,
      " yaşa": 1639,
      " alınan": 1640,
      " kişinin": 1641,
      " Mahall": 1642,
      "üc": 1643,
      "anız": 1644,
      "ani": 1645,
      " sürdür": 1646,
      " Müdürlüğü": 1647,
      " ait": 1648,
      "Er": 1649,
      " örgütü": 1650,
      " tesp": 1651,
      "ekli": 1652,
      "ğında": 1653,
      " çöz": 1654,
      " ail": 1655,
      "esin": 1656,
      " dakik": 1657,
      "ünkü": 1658,
      " kararı": 1659,
      " la": 1660,
      "siniz": 1661,
      " genç": 1662,
      " Rusya": 1663,
      "uslar": 1664,
      "mı": 1665,
      " orta": 1666,
      "aha": 1667,
      "larıyla": 1668,
      " fiyat": 1669,
      " etk": 1670,
      " ziy": 1671,
      "erj": 1672,
      "Baş": 1673,
      " karşılaş": 1674,
      "On": 1675,
      "sal": 1676,
      " hüküm": 1677,
      "obil": 1678,
      " mev": 1679,
      " fin": 1680,
      " istedi": 1681,
      " yaklaşık": 1682,
      "umu": 1683,
      " taş": 1684,
      "azi": 1685,
      "ült": 1686,
      "yen": 1687,
      " sun": 1688,
      " başar": 1689,
      " gelir": 1690,
      "sin": 1691,
      " mı": 1692,
      " sektör": 1693,
      " çağ": 1694,
      " başlat": 1695,
      "fa": 1696,
      " ettiği": 1697,
      "dırım": 1698,
      " sonuç": 1699,
      " savaş": 1700,
      "lo": 1701,
      "ıt": 1702,
      " oluş": 1703,
      " mad": 1704,
      " öldür": 1705,
      "ayet": 1706,
      " anla": 1707,
      "tay": 1708,
      " taşı": 1709,
      " bağlı": 1710,
      "umuz": 1711,
      "dül": 1712,
      " beklen": 1713,
      " Mahallesi": 1714,
      " Beşiktaş": 1715,
      " sab": 1716,
      " Yar": 1717,
      " konusu": 1718,
      " Kon": 1719,
      " anlat": 1720,
      "Cumhur": 1721,
      "En": 1722,
      " bar": 1723,
      " hiçbir": 1724,
      "ici": 1725,
      "İstanbul": 1726,
      " etmek": 1727,
      "madı": 1728,
      " yaşan": 1729,
      " tep": 1730,
      " aldığı": 1731,
      " altında": 1732,
      "sil": 1733,
      "leyen": 1734,
      " yaralan": 1735,
      " dem": 1736,
      " başvur": 1737,
      "esel": 1738,
      " ceza": 1739,
      " tespit": 1740,
      " mem": 1741,
      "alet": 1742,
      "eği": 1743,
      " kom": 1744,
      " incel": 1745,
      "cısı": 1746,
      "eyin": 1747,
      " Alman": 1748,
      " ikinci": 1749,
      "ılığı": 1750,
      " hava": 1751,
      "ğına": 1752,
      " pu": 1753,
      " sosyal": 1754,
      "enk": 1755,
      " En": 1756,
      " yürüt": 1757,
      " program": 1758,
      "masında": 1759,
      "emek": 1760,
      " am": 1761,
      " Bur": 1762,
      " geri": 1763,
      " bunu": 1764,
      "unuyor": 1765,
      "amaz": 1766,
      " ihtiy": 1767,
      "uslararası": 1768,
      " güzel": 1769,
      " Hal": 1770,
      " imz": 1771,
      "ültür": 1772,
      " yeniden": 1773,
      "ıyoruz": 1774,
      " yaşam": 1775,
      "üf": 1776,
      " Kurulu": 1777,
      "ladığı": 1778,
      "24": 1779,
      "apor": 1780,
      "lıyor": 1781,
      " alındı": 1782,
      " Fenerbahçe": 1783,
      "100": 1784,
      "asının": 1785,
      "umlu": 1786,
      " Ah": 1787,
      "Öz": 1788,
      "rub": 1789,
      "Her": 1790,
      "arp": 1791,
      " As": 1792,
      " para": 1793,
      " Ko": 1794,
      "otoğraf": 1795,
      "ABD": 1796,
      " ateş": 1797,
      " beraber": 1798,
      " din": 1799,
      " Bakanlığı": 1800,
      "unca": 1801,
      " av": 1802,
      " Sözcü": 1803,
      "Bunun": 1804,
      " birçok": 1805,
      " un": 1806,
      "ch": 1807,
      " grup": 1808,
      "ustafa": 1809,
      " itibar": 1810,
      " savun": 1811,
      "ampiyon": 1812,
      "od": 1813,
      " başkan": 1814,
      "ayas": 1815,
      " tanı": 1816,
      " bizim": 1817,
      "rabz": 1818,
      "makta": 1819,
      " müz": 1820,
      "lek": 1821,
      " Galatasaray": 1822,
      "ullah": 1823,
      " üret": 1824,
      " engel": 1825,
      "üçük": 1826,
      " otom": 1827,
      " anlam": 1828,
      " öğrenc": 1829,
      " Cumhurbaşkanı": 1830,
      " Büyük": 1831,
      "lin": 1832,
      " artık": 1833,
      "ej": 1834,
      " ele": 1835,
      "uvvet": 1836,
      "leriyle": 1837,
      " söy": 1838,
      "aban": 1839,
      " kayde": 1840,
      " kamu": 1841,
      "rans": 1842,
      " yine": 1843,
      " veren": 1844,
      "elim": 1845,
      " kayb": 1846,
      " per": 1847,
      " res": 1848,
      " mak": 1849,
      " kullandı": 1850,
      " ülke": 1851,
      "ocu": 1852,
      "erken": 1853,
      "duk": 1854,
      " dile": 1855,
      "tat": 1856,
      " Tur": 1857,
      " okul": 1858,
      "dın": 1859,
      " bor": 1860,
      " geçti": 1861,
      "22": 1862,
      " Ali": 1863,
      " tart": 1864,
      " öde": 1865,
      " toplam": 1866,
      "AŞ": 1867,
      " üzerinden": 1868,
      "laştır": 1869,
      " hale": 1870,
      "tif": 1871,
      " belirtildi": 1872,
      " soru": 1873,
      " dönüş": 1874,
      " şekl": 1875,
      "talya": 1876,
      " yoğun": 1877,
      " bank": 1878,
      " kı": 1879,
      " rahat": 1880,
      "işleri": 1881,
      " Merkez": 1882,
      " Devlet": 1883,
      "mıştır": 1884,
      " his": 1885,
      " tük": 1886,
      "esinden": 1887,
      " sonrası": 1888,
      "AL": 1889,
      "sman": 1890,
      " oran": 1891,
      " vurgu": 1892,
      "lüğ": 1893,
      "ünden": 1894,
      " kardeş": 1895,
      " artır": 1896,
      " Yıldırım": 1897,
      "br": 1898,
      " hey": 1899,
      " Ad": 1900,
      " meydana": 1901,
      " dolay": 1902,
      "tiv": 1903,
      "akır": 1904,
      " tam": 1905,
      "anıyor": 1906,
      " satış": 1907,
      " ziyaret": 1908,
      " anda": 1909,
      " sorun": 1910,
      " fotoğraf": 1911,
      " herk": 1912,
      " sey": 1913,
      "pan": 1914,
      "eyaz": 1915,
      "elerin": 1916,
      " kav": 1917,
      " kurum": 1918,
      "Ak": 1919,
      " ses": 1920,
      " kısa": 1921,
      " bun": 1922,
      " mağ": 1923,
      "uldu": 1924,
      " kaynak": 1925,
      " for": 1926,
      " mer": 1927,
      " götür": 1928,
      " belirtti": 1929,
      "gen": 1930,
      " bilin": 1931,
      " San": 1932,
      "Kar": 1933,
      " adım": 1934,
      " ortak": 1935,
      "40": 1936,
      " adam": 1937,
      "uro": 1938,
      "adan": 1939,
      " bunun": 1940,
      " Kan": 1941,
      " Üniversit": 1942,
      " Zaman": 1943,
      "ecli": 1944,
      " içerisinde": 1945,
      "21": 1946,
      "üven": 1947,
      " zar": 1948,
      " gerçekleş": 1949,
      "İL": 1950,
      " Mar": 1951,
      " araştır": 1952,
      " medya": 1953,
      "aspor": 1954,
      " faaliyet": 1955,
      " burada": 1956,
      "of": 1957,
      " Ab": 1958,
      "AT": 1959,
      "ağa": 1960,
      " yaşanan": 1961,
      "akk": 1962,
      "na": 1963,
      " madde": 1964,
      " verdiği": 1965,
      " istem": 1966,
      " akşam": 1967,
      " ul": 1968,
      " seçim": 1969,
      " çevr": 1970,
      "madan": 1971,
      "ıntı": 1972,
      "23": 1973,
      "ince": 1974,
      "ale": 1975,
      " can": 1976,
      " belirterek": 1977,
      "eceği": 1978,
      " otur": 1979,
      " nokt": 1980,
      "mem": 1981,
      "aların": 1982,
      " müda": 1983,
      " kaydet": 1984,
      " edecek": 1985,
      "mektedir": 1986,
      " cev": 1987,
      "elere": 1988,
      " yakalan": 1989,
      " Mustafa": 1990,
      " verildi": 1991,
      " sırasında": 1992,
      " mesaj": 1993,
      "tem": 1994,
      " dah": 1995,
      " ekipleri": 1996,
      " kit": 1997,
      " hatır": 1998,
      " ilişk": 1999,
      " teknik": 2000,
      "uyu": 2001,
      " gi": 2002,
      " puan": 2003,
      "İN": 2004,
      " trans": 2005,
      "ukuk": 2006,
      "zmir": 2007,
      " fır": 2008,
      "mada": 2009,
      " kol": 2010,
      "enç": 2011,
      " hayatını": 2012,
      " basın": 2013,
      "ören": 2014,
      " kalan": 2015,
      "ğinde": 2016,
      " düzenlenen": 2017,
      "ere": 2018,
      "ılıyor": 2019,
      "landır": 2020,
      " Ahmet": 2021,
      "'ün": 2022,
      " Hav": 2023,
      " boz": 2024,
      "ga": 2025,
      "rum": 2026,
      "şehir": 2027,
      "etr": 2028,
      "ort": 2029,
      " futbolcu": 2030,
      "ast": 2031,
      " gelecek": 2032,
      " Doğ": 2033,
      "ğine": 2034,
      " Pro": 2035,
      " bah": 2036,
      " Es": 2037,
      "abancı": 2038,
      "ıldığı": 2039,
      " fir": 2040,
      "okras": 2041,
      " Bay": 2042,
      " toplum": 2043,
      "mey": 2044,
      " dil": 2045,
      "ilerine": 2046,
      " uzak": 2047,
      " Tek": 2048,
      " kent": 2049,
      " sonucu": 2050,
      ".,": 2051,
      "mızı": 2052,
      " pr": 2053,
      "siyon": 2054,
      " oluyor": 2055,
      "eştir": 2056,
      " mu": 2057,
      "uluk": 2058,
      " Başkan": 2059,
      "Daha": 2060,
      "sinin": 2061,
      " kalk": 2062,
      " eylem": 2063,
      "EN": 2064,
      "Geç": 2065,
      "mar": 2066,
      "eral": 2067,
      "layacak": 2068,
      " ayında": 2069,
      " man": 2070,
      " Yön": 2071,
      " Demir": 2072,
      "spor": 2073,
      " Üniversitesi": 2074,
      "alarda": 2075,
      " özellikle": 2076,
      "AB": 2077,
      " dönemde": 2078,
      " takip": 2079,
      " gerekiyor": 2080,
      " dol": 2081,
      " ürün": 2082,
      " sevk": 2083,
      "gın": 2084,
      " Emniyet": 2085,
      " olsun": 2086,
      " Mart": 2087,
      "teki": 2088,
      "ton": 2089,
      " giy": 2090,
      " yapılacak": 2091,
      "meden": 2092,
      " üretim": 2093,
      "ova": 2094,
      "ii": 2095,
      " sıra": 2096,
      " kapat": 2097,
      " Şubat": 2098,
      "ivil": 2099,
      " inş": 2100,
      " yaptık": 2101,
      " yapıldı": 2102,
      " sırada": 2103,
      " öğrenildi": 2104,
      "sunuz": 2105,
      "sik": 2106,
      " ce": 2107,
      " sanat": 2108,
      " çat": 2109,
      "gür": 2110,
      "ğim": 2111,
      "dak": 2112,
      " siz": 2113,
      "'nün": 2114,
      " diyor": 2115,
      "tığını": 2116,
      " üc": 2117,
      " boş": 2118,
      " Kay": 2119,
      "müş": 2120,
      " müdahal": 2121,
      "ternet": 2122,
      "diler": 2123,
      "su": 2124,
      " yor": 2125,
      "tım": 2126,
      " aktar": 2127,
      " kaydetti": 2128,
      "ilerinin": 2129,
      " indir": 2130,
      " yandan": 2131,
      " devr": 2132,
      "sın": 2133,
      " olabilir": 2134,
      " duyur": 2135,
      "for": 2136,
      "iyesi": 2137,
      " uygula": 2138,
      "kün": 2139,
      "'u": 2140,
      " yurt": 2141,
      " mal": 2142,
      " ihra": 2143,
      " benz": 2144,
      " benim": 2145,
      " piyas": 2146,
      " geliyor": 2147,
      " spor": 2148,
      "do": 2149,
      " AK": 2150,
      " pazar": 2151,
      " ölüm": 2152,
      " gal": 2153,
      " siyasi": 2154,
      " Hastan": 2155,
      " şeklinde": 2156,
      "Sur": 2157,
      " Sav": 2158,
      "elen": 2159,
      "ayın": 2160,
      " yıllık": 2161,
      "ent": 2162,
      " dair": 2163,
      "FETÖ": 2164,
      "Çünkü": 2165,
      "ünüyor": 2166,
      "erji": 2167,
      " tat": 2168,
      "asım": 2169,
      " AB": 2170,
      "Bugün": 2171,
      " rek": 2172,
      "As": 2173,
      " bay": 2174,
      "28": 2175,
      " aday": 2176,
      " yapmak": 2177,
      "sat": 2178,
      " temsil": 2179,
      "unuz": 2180,
      " değişik": 2181,
      " çocu": 2182,
      " yapıyor": 2183,
      " terc": 2184,
      " çalışma": 2185,
      " altına": 2186,
      " Başbakan": 2187,
      "eg": 2188,
      " diz": 2189,
      " çarp": 2190,
      " değiştir": 2191,
      "'yı": 2192,
      "erim": 2193,
      "taki": 2194,
      " isteyen": 2195,
      "düğ": 2196,
      " kesin": 2197,
      " İş": 2198,
      " cid": 2199,
      "şı": 2200,
      "avut": 2201,
      " Li": 2202,
      ".'": 2203,
      "Olay": 2204,
      " Der": 2205,
      " çif": 2206,
      " günde": 2207,
      "mesini": 2208,
      "yız": 2209,
      " han": 2210,
      " Deniz": 2211,
      "eza": 2212,
      " bulunuyor": 2213,
      " Sü": 2214,
      " cin": 2215,
      " Dr": 2216,
      " çiz": 2217,
      " önünde": 2218,
      " ederek": 2219,
      "altı": 2220,
      " lider": 2221,
      "ğının": 2222,
      "lamak": 2223,
      " Ser": 2224,
      "Ön": 2225,
      "ğin": 2226,
      " Ocak": 2227,
      " Dünya": 2228,
      " yana": 2229,
      "alama": 2230,
      " başarı": 2231,
      "ılıç": 2232,
      "oloji": 2233,
      " ann": 2234,
      " müm": 2235,
      " yetkil": 2236,
      "isinin": 2237,
      "alim": 2238,
      " uçak": 2239,
      "elç": 2240,
      "ınca": 2241,
      "lif": 2242,
      "meyi": 2243,
      " sahibi": 2244,
      "nik": 2245,
      "ola": 2246,
      " arac": 2247,
      " tekrar": 2248,
      "Av": 2249,
      "ört": 2250,
      " dok": 2251,
      " kir": 2252,
      "ilerini": 2253,
      " edil": 2254,
      "dikleri": 2255,
      "dıkları": 2256,
      "uzey": 2257,
      "Yeni": 2258,
      "İlk": 2259,
      " Yardım": 2260,
      "60": 2261,
      "erli": 2262,
      " sar": 2263,
      "izm": 2264,
      "düğü": 2265,
      " gec": 2266,
      " alıyor": 2267,
      " tercih": 2268,
      " mümkün": 2269,
      "liyor": 2270,
      " mens": 2271,
      "ula": 2272,
      "aba": 2273,
      " Fran": 2274,
      "erbest": 2275,
      "27": 2276,
      "yip": 2277,
      "ıda": 2278,
      " bölgede": 2279,
      "eşit": 2280,
      " tartış": 2281,
      "ektr": 2282,
      " tav": 2283,
      " cen": 2284,
      " kork": 2285,
      "onspor": 2286,
      "eceğiz": 2287,
      " gece": 2288,
      " Hol": 2289,
      "alk": 2290,
      "rabzonspor": 2291,
      " şunları": 2292,
      " iddia": 2293,
      " önceki": 2294,
      "jan": 2295,
      " dakika": 2296,
      " İngil": 2297,
      "og": 2298,
      "ye": 2299,
      " adet": 2300,
      "eceğini": 2301,
      " artış": 2302,
      "aşa": 2303,
      " kolay": 2304,
      "diklerini": 2305,
      " hap": 2306,
      " dışında": 2307,
      " politik": 2308,
      "Ayrıca": 2309,
      " dakikada": 2310,
      " kaldı": 2311,
      "İs": 2312,
      " Tay": 2313,
      "YD": 2314,
      " edilm": 2315,
      " bilgi": 2316,
      " sit": 2317,
      "redi": 2318,
      "ileceği": 2319,
      " sivil": 2320,
      " giriş": 2321,
      " soruşturma": 2322,
      " seviy": 2323,
      "lerce": 2324,
      "dük": 2325,
      "mat": 2326,
      " rapor": 2327,
      " zamanda": 2328,
      "kır": 2329,
      " ris": 2330,
      " mode": 2331,
      "tim": 2332,
      "one": 2333,
      " Ey": 2334,
      " inan": 2335,
      " kadro": 2336,
      " küçük": 2337,
      " elektr": 2338,
      "iyarb": 2339,
      "izyon": 2340,
      " muhal": 2341,
      " transfer": 2342,
      " Amer": 2343,
      " Osman": 2344,
      "imizin": 2345,
      " tepki": 2346,
      "abı": 2347,
      " ara": 2348,
      " halinde": 2349,
      " askeri": 2350,
      " zarar": 2351,
      " Top": 2352,
      "ileceğini": 2353,
      "acağız": 2354,
      "elerde": 2355,
      " Lig": 2356,
      "Terör": 2357,
      "alım": 2358,
      "tur": 2359,
      " sayıda": 2360,
      " talep": 2361,
      " otomobil": 2362,
      "iyarbakır": 2363,
      " koş": 2364,
      "26": 2365,
      " it": 2366,
      " sak": 2367,
      " net": 2368,
      " geliştir": 2369,
      " organ": 2370,
      " kuruluş": 2371,
      "yle": 2372,
      "dam": 2373,
      "üst": 2374,
      "vekili": 2375,
      "dum": 2376,
      " olmadığını": 2377,
      "emal": 2378,
      " Gök": 2379,
      "aşkanlığı": 2380,
      "Cumhurbaşkanı": 2381,
      "isini": 2382,
      " getirdi": 2383,
      " hemen": 2384,
      "Şİ": 2385,
      "etmen": 2386,
      "çesi": 2387,
      "utlu": 2388,
      "inci": 2389,
      "nek": 2390,
      " başlayan": 2391,
      " açıl": 2392,
      "osu": 2393,
      " gereken": 2394,
      "ami": 2395,
      " şah": 2396,
      ")\n": 2397,
      "Mil": 2398,
      " Can": 2399,
      "kenin": 2400,
      "erson": 2401,
      " ücret": 2402,
      " internet": 2403,
      "manı": 2404,
      " amacı": 2405,
      " uygun": 2406,
      " El": 2407,
      " Aralık": 2408,
      "cılık": 2409,
      " açıkladı": 2410,
      " tehdi": 2411,
      " birbir": 2412,
      " köy": 2413,
      " yanında": 2414,
      " tedavi": 2415,
      " yaşayan": 2416,
      " sayısı": 2417,
      "rek": 2418,
      "İşte": 2419,
      " ettik": 2420,
      " vardı": 2421,
      "Bun": 2422,
      "ısından": 2423,
      "\",": 2424,
      " Bil": 2425,
      " Yılmaz": 2426,
      "ni": 2427,
      "hangi": 2428,
      " eleştir": 2429,
      "aten": 2430,
      "ınav": 2431,
      "avutoğlu": 2432,
      "29": 2433,
      "AS": 2434,
      "lül": 2435,
      " öne": 2436,
      " gerektiğini": 2437,
      " oğ": 2438,
      " şid": 2439,
      " Az": 2440,
      "Özel": 2441,
      "ij": 2442,
      " tr": 2443,
      "IN": 2444,
      "iyatı": 2445,
      " taraftar": 2446,
      "Or": 2447,
      "OR": 2448,
      " hesap": 2449,
      "ürt": 2450,
      " Son": 2451,
      " başına": 2452,
      "maktadır": 2453,
      "miyor": 2454,
      " kah": 2455,
      " hen": 2456,
      "isan": 2457,
      "masıyla": 2458,
      " ciddi": 2459,
      "Beşiktaş": 2460,
      " yapı": 2461,
      " olab": 2462,
      " durumda": 2463,
      " itibaren": 2464,
      "Fenerbahçe": 2465,
      "DE": 2466,
      "arken": 2467,
      " teklif": 2468,
      "zı": 2469,
      " DE": 2470,
      " traf": 2471,
      " Bank": 2472,
      " boyunca": 2473,
      "FA": 2474,
      "Kon": 2475,
      "adolu": 2476,
      "ayasa": 2477,
      " sürec": 2478,
      " izin": 2479,
      "Poli": 2480,
      "dim": 2481,
      " Bar": 2482,
      "199": 2483,
      " görüntü": 2484,
      " dolayı": 2485,
      " erk": 2486,
      " Kara": 2487,
      " hukuk": 2488,
      " sabah": 2489,
      "dek": 2490,
      "500": 2491,
      "lamaya": 2492,
      " adına": 2493,
      "mesine": 2494,
      " mark": 2495,
      " olmaya": 2496,
      " kas": 2497,
      " Almanya": 2498,
      "'li": 2499,
      " Euro": 2500,
      " ifadelerini": 2501,
      " kayded": 2502,
      " çeşit": 2503,
      " olmayan": 2504,
      " şart": 2505,
      "ağlık": 2506,
      "elerinin": 2507,
      " edece": 2508,
      " söyleyen": 2509,
      "cağız": 2510,
      " Komut": 2511,
      "ildiği": 2512,
      "onomi": 2513,
      "lediği": 2514,
      " Kor": 2515,
      " iste": 2516,
      "Galatasaray": 2517,
      " yük": 2518,
      " Millet": 2519,
      " laz": 2520,
      " ner": 2521,
      " faiz": 2522,
      " elde": 2523,
      "oh": 2524,
      " serbest": 2525,
      "ete": 2526,
      " adlı": 2527,
      "Ne": 2528,
      "ant": 2529,
      " DA": 2530,
      "ğiniz": 2531,
      " mik": 2532,
      " oyunc": 2533,
      "ba": 2534,
      "kaç": 2535,
      "meyen": 2536,
      " Hastanesi": 2537,
      "üncü": 2538,
      "rubu": 2539,
      "EŞ": 2540,
      " CHP": 2541,
      " ora": 2542,
      " adı": 2543,
      " etkin": 2544,
      " Ligi": 2545,
      "cat": 2546,
      "bay": 2547,
      "ısıyla": 2548,
      "sak": 2549,
      "efer": 2550,
      " Mahkem": 2551,
      " uluslararası": 2552,
      " Gül": 2553,
      " başla": 2554,
      "45": 2555,
      " mas": 2556,
      "ısına": 2557,
      "okrat": 2558,
      "DP": 2559,
      " başında": 2560,
      " büyüm": 2561,
      "desi": 2562,
      " düştü": 2563,
      "lemek": 2564,
      "'tan": 2565,
      " Muh": 2566,
      " ayrı": 2567,
      " tasar": 2568,
      " cenaz": 2569,
      "yi": 2570,
      "ecep": 2571,
      " arasındaki": 2572,
      " karış": 2573,
      " yabancı": 2574,
      "ısını": 2575,
      "sta": 2576,
      " yat": 2577,
      "taj": 2578,
      " eşi": 2579,
      " Fat": 2580,
      " zorunda": 2581,
      "üvenlik": 2582,
      "Çok": 2583,
      " düşünüyor": 2584,
      " verilen": 2585,
      " şark": 2586,
      " bana": 2587,
      " istiyor": 2588,
      "tere": 2589,
      "dıklarını": 2590,
      "kur": 2591,
      " araya": 2592,
      " çözüm": 2593,
      "ılmış": 2594,
      "Yap": 2595,
      "Dün": 2596,
      "asıyla": 2597,
      " bize": 2598,
      " şimdi": 2599,
      "alara": 2600,
      " kurtar": 2601,
      " Irak": 2602,
      "lilik": 2603,
      " sig": 2604,
      "urat": 2605,
      " şehir": 2606,
      "Böyle": 2607,
      "fes": 2608,
      "mıyor": 2609,
      " Müdürü": 2610,
      " Yönetim": 2611,
      "SK": 2612,
      " Mecli": 2613,
      "ahim": 2614,
      "Dünya": 2615,
      "isine": 2616,
      " parç": 2617,
      " ilet": 2618,
      " geniş": 2619,
      "ber": 2620,
      "unan": 2621,
      " görül": 2622,
      "acağını": 2623,
      "he": 2624,
      " tic": 2625,
      " ayrıca": 2626,
      " herhangi": 2627,
      "Es": 2628,
      "cil": 2629,
      " belli": 2630,
      "abilecek": 2631,
      " istih": 2632,
      "oktor": 2633,
      "35": 2634,
      " süreç": 2635,
      " Yardımcısı": 2636,
      "rgüt": 2637,
      " Kasım": 2638,
      " konuda": 2639,
      " onun": 2640,
      " pek": 2641,
      " Tayyip": 2642,
      " karşısında": 2643,
      "darma": 2644,
      " dep": 2645,
      "ilerek": 2646,
      "üman": 2647,
      " ha": 2648,
      "liğini": 2649,
      " sonunda": 2650,
      " yarat": 2651,
      " haft": 2652,
      " katıldı": 2653,
      " kötü": 2654,
      "apı": 2655,
      " güçlü": 2656,
      " sin": 2657,
      " saatlerinde": 2658,
      " ünlü": 2659,
      " Per": 2660,
      " Fet": 2661,
      "iğ": 2662,
      "diş": 2663,
      " iler": 2664,
      " ödül": 2665,
      " Recep": 2666,
      " tören": 2667,
      " yıldı": 2668,
      "iliği": 2669,
      " tarihi": 2670,
      "ışişleri": 2671,
      " teslim": 2672,
      " kut": 2673,
      " mült": 2674,
      "İR": 2675,
      " şik": 2676,
      " sokak": 2677,
      " milli": 2678,
      " hastalık": 2679,
      " İzmir": 2680,
      " sağlan": 2681,
      " lazım": 2682,
      " parti": 2683,
      "'ten": 2684,
      "90": 2685,
      " taleb": 2686,
      "ucu": 2687,
      " mez": 2688,
      " ülkenin": 2689,
      " dünyanın": 2690,
      "Şimdi": 2691,
      "lüyor": 2692,
      " temiz": 2693,
      " avuk": 2694,
      " Har": 2695,
      "amaya": 2696,
      "ve": 2697,
      " resmi": 2698,
      "ısının": 2699,
      " Milli": 2700,
      "ag": 2701,
      " şampiyon": 2702,
      " mahkem": 2703,
      " cevap": 2704,
      "Yar": 2705,
      " alış": 2706,
      " nedenle": 2707,
      " şiddet": 2708,
      " uygulan": 2709,
      "har": 2710,
      " erkek": 2711,
      "IR": 2712,
      "diğini": 2713,
      " Gülen": 2714,
      " Ceza": 2715,
      "Rusya": 2716,
      "ayıs": 2717,
      " belg": 2718,
      " hükümet": 2719,
      "tın": 2720,
      " sol": 2721,
      " durumu": 2722,
      " açıklamalar": 2723,
      "Şu": 2724,
      " yaralı": 2725,
      " ilçesinde": 2726,
      " düşür": 2727,
      "cisi": 2728,
      "İki": 2729,
      " poz": 2730,
      " alacak": 2731,
      "eşil": 2732,
      " kayıt": 2733,
      "birliği": 2734,
      " yılda": 2735,
      " herkes": 2736,
      "ücü": 2737,
      "'la": 2738,
      "çak": 2739,
      "lında": 2740,
      "macı": 2741,
      " Sar": 2742,
      " yarış": 2743,
      "menin": 2744,
      " dahil": 2745,
      "rump": 2746,
      "ilmek": 2747,
      " kurt": 2748,
      "liy": 2749,
      "ser": 2750,
      "sav": 2751,
      " ileri": 2752,
      " maçında": 2753,
      " Uz": 2754,
      "antep": 2755,
      " Su": 2756,
      " ana": 2757,
      " durdur": 2758,
      "tatürk": 2759,
      " ip": 2760,
      "ebek": 2761,
      " temel": 2762,
      " oyna": 2763,
      " sonrasında": 2764,
      " taz": 2765,
      " yöntem": 2766,
      "liye": 2767,
      "emi": 2768,
      " demokras": 2769,
      "ŞİD": 2770,
      "to": 2771,
      " Birliği": 2772,
      "üyle": 2773,
      " Br": 2774,
      " Kılıç": 2775,
      "ölg": 2776,
      " part": 2777,
      " işaret": 2778,
      " çift": 2779,
      "tör": 2780,
      " yapacak": 2781,
      "'lı": 2782,
      "BM": 2783,
      "uml": 2784,
      " risk": 2785,
      " rol": 2786,
      " tehdit": 2787,
      " person": 2788,
      " dışı": 2789,
      " duruş": 2790,
      "70": 2791,
      "elerinde": 2792,
      "artesi": 2793,
      "aziantep": 2794,
      " uğr": 2795,
      "andır": 2796,
      " kaf": 2797,
      " tehlik": 2798,
      "Burada": 2799,
      "UR": 2800,
      "çık": 2801,
      "forman": 2802,
      " galib": 2803,
      " yansı": 2804,
      " ettiğini": 2805,
      " maçı": 2806,
      " almak": 2807,
      " mesel": 2808,
      " bilgiye": 2809,
      " kans": 2810,
      "imize": 2811,
      " başarılı": 2812,
      "üğ": 2813,
      " sözleş": 2814,
      "abet": 2815,
      " yılı": 2816,
      " göç": 2817,
      "evizyon": 2818,
      " Bakan": 2819,
      " öner": 2820,
      " kilo": 2821,
      " amacıyla": 2822,
      "keme": 2823,
      " olm": 2824,
      "deniz": 2825,
      " kriz": 2826,
      " giden": 2827,
      " Af": 2828,
      "eyle": 2829,
      " ülkede": 2830,
      "adem": 2831,
      "oca": 2832,
      " arada": 2833,
      " yanıt": 2834,
      " türlü": 2835,
      " açı": 2836,
      "Gün": 2837,
      "İT": 2838,
      " ham": 2839,
      " tarihinde": 2840,
      " onu": 2841,
      " sınav": 2842,
      "lış": 2843,
      " eder": 2844,
      " getiren": 2845,
      " bildirildi": 2846,
      "sanız": 2847,
      " kredi": 2848,
      " gez": 2849,
      "ST": 2850,
      "ime": 2851,
      " Eğitim": 2852,
      "uvar": 2853,
      " Belediye": 2854,
      " yorum": 2855,
      "sızlık": 2856,
      " iy": 2857,
      "Top": 2858,
      " canlı": 2859,
      "imizi": 2860,
      " hızlı": 2861,
      "Suriye": 2862,
      "ekk": 2863,
      " yaptır": 2864,
      " yık": 2865,
      " Rus": 2866,
      " Val": 2867,
      " Terör": 2868,
      " katkı": 2869,
      "Bizim": 2870,
      "AY": 2871,
      " Nisan": 2872,
      " düzey": 2873,
      " ülkemiz": 2874,
      "üle": 2875,
      "Ankara": 2876,
      " ted": 2877,
      " henüz": 2878,
      "meleri": 2879,
      " gazetec": 2880,
      " Bey": 2881,
      " görüyor": 2882,
      " gitti": 2883,
      " Davutoğlu": 2884,
      " ortam": 2885,
      "neği": 2886,
      "etrol": 2887,
      " model": 2888,
      " İlçesi": 2889,
      " fay": 2890,
      " Haz": 2891,
      " özgür": 2892,
      " list": 2893,
      " kart": 2894,
      " yemek": 2895,
      "dağ": 2896,
      " gide": 2897,
      " kişiler": 2898,
      "amız": 2899,
      "Başbakan": 2900,
      "nin": 2901,
      "inç": 2902,
      " kültür": 2903,
      " giz": 2904,
      " açısından": 2905,
      " isimli": 2906,
      "pek": 2907,
      "madığı": 2908,
      " kendisine": 2909,
      " ihtiyaç": 2910,
      " Cad": 2911,
      " galibiyet": 2912,
      "ayla": 2913,
      "layıcı": 2914,
      " sarı": 2915,
      " ediliyor": 2916,
      " maçta": 2917,
      "ormal": 2918,
      "elerini": 2919,
      " sistemi": 2920,
      " performan": 2921,
      "elerine": 2922,
      " ir": 2923,
      " Anadolu": 2924,
      " diyen": 2925,
      "iyah": 2926,
      "umsuz": 2927,
      " aylık": 2928,
      " emniyet": 2929,
      " kilom": 2930,
      " ekonomik": 2931,
      "tepe": 2932,
      " memur": 2933,
      "Ek": 2934,
      " çeken": 2935,
      "'nden": 2936,
      "layarak": 2937,
      " anlattı": 2938,
      " elektrik": 2939,
      " rej": 2940,
      " amaç": 2941,
      "rik": 2942,
      " Merkezi": 2943,
      " düşük": 2944,
      " sebeb": 2945,
      " yılın": 2946,
      " unut": 2947,
      "Tek": 2948,
      " kamer": 2949,
      "med": 2950,
      " nok": 2951,
      "ehit": 2952,
      " sığın": 2953,
      "EL": 2954,
      "ladık": 2955,
      "lanıyor": 2956,
      "evi": 2957,
      "avuş": 2958,
      "daroğlu": 2959,
      " üyesi": 2960,
      "liler": 2961,
      " kulüb": 2962,
      " atan": 2963,
      " Mahkemesi": 2964,
      " vak": 2965,
      " Mayıs": 2966,
      " doğal": 2967,
      "Oy": 2968,
      "ork": 2969,
      " derece": 2970,
      "asyonu": 2971,
      " azal": 2972,
      "çev": 2973,
      "EM": 2974,
      "luğu": 2975,
      " sıkıntı": 2976,
      " Kul": 2977,
      " sebep": 2978,
      "ena": 2979,
      " gören": 2980,
      "lacak": 2981,
      "doğu": 2982,
      "Do": 2983,
      "gun": 2984,
      "set": 2985,
      " Kuvvet": 2986,
      "usal": 2987,
      " olmadığı": 2988,
      " siyaset": 2989,
      " giren": 2990,
      " anlatan": 2991,
      " çeşitli": 2992,
      "asından": 2993,
      " Kemal": 2994,
      "DA": 2995,
      "be": 2996,
      "alarının": 2997,
      "İY": 2998,
      " Ber": 2999,
      " istik": 3000,
      " imza": 3001,
      "Yıl": 3002,
      " önlem": 3003,
      " ayak": 3004,
      "80": 3005,
      " çer": 3006,
      " ab": 3007,
      " Dir": 3008,
      " sıcak": 3009,
      " fiyatı": 3010,
      " veriyor": 3011,
      "rail": 3012,
      "miştir": 3013,
      " Allah": 3014,
      " Süper": 3015,
      " dört": 3016,
      " civ": 3017,
      " diyerek": 3018,
      " acı": 3019,
      "ağım": 3020,
      "Ev": 3021,
      "ıyla": 3022,
      "emin": 3023,
      " konuşan": 3024,
      "Hay": 3025,
      "eyn": 3026,
      " nit": 3027,
      " konut": 3028,
      " Mus": 3029,
      "eder": 3030,
      "ediye": 3031,
      " görüşmeler": 3032,
      "ydı": 3033,
      " olsa": 3034,
      "EK": 3035,
      "Eğer": 3036,
      "dal": 3037,
      " yerde": 3038,
      " öğretmen": 3039,
      " akıl": 3040,
      "yaspor": 3041,
      " yıldır": 3042,
      " kür": 3043,
      " Şen": 3044,
      " öncesi": 3045,
      " İslam": 3046,
      " bes": 3047,
      " Koç": 3048,
      " söylüyor": 3049,
      " çerçev": 3050,
      "masından": 3051,
      "onu": 3052,
      "üksek": 3053,
      " uzman": 3054,
      " biraz": 3055,
      " Murat": 3056,
      "31": 3057,
      "İK": 3058,
      "ağına": 3059,
      " gerekir": 3060,
      " ikti": 3061,
      "ES": 3062,
      "mesinin": 3063,
      " finans": 3064,
      "?\"": 3065,
      "uar": 3066,
      " birkaç": 3067,
      "adın": 3068,
      " yani": 3069,
      " otob": 3070,
      " başta": 3071,
      "sed": 3072,
      " şüphel": 3073,
      " hapis": 3074,
      "dip": 3075,
      "ıldığını": 3076,
      " mensup": 3077,
      "LAR": 3078,
      "fet": 3079,
      "gör": 3080,
      " Bu": 3081,
      " olup": 3082,
      " günlerde": 3083,
      " tec": 3084,
      " soruml": 3085,
      " çekti": 3086,
      "larca": 3087,
      " aralarında": 3088,
      " yarın": 3089,
      " aşk": 3090,
      "tıyor": 3091,
      " beni": 3092,
      " num": 3093,
      " Dışişleri": 3094,
      " İran": 3095,
      " çalışıyor": 3096,
      "bo": 3097,
      "lardır": 3098,
      " sürekli": 3099,
      "iyeli": 3100,
      "sınız": 3101,
      "err": 3102,
      "üsl": 3103,
      " buna": 3104,
      " yal": 3105,
      " Man": 3106,
      " enerji": 3107,
      " yönünde": 3108,
      "raman": 3109,
      "xx": 3110,
      "ışık": 3111,
      " eğ": 3112,
      "alarını": 3113,
      " önüne": 3114,
      " doğr": 3115,
      "Özellikle": 3116,
      " sene": 3117,
      "iran": 3118,
      "pany": 3119,
      "Pro": 3120,
      " gider": 3121,
      " üniversit": 3122,
      "nız": 3123,
      " At": 3124,
      " cih": 3125,
      " yaşadığı": 3126,
      "Polis": 3127,
      "cut": 3128,
      "meli": 3129,
      " bakan": 3130,
      " Kup": 3131,
      " Kürt": 3132,
      " arama": 3133,
      " girdi": 3134,
      " gösterdi": 3135,
      " Tak": 3136,
      " tahmin": 3137,
      " bekleniyor": 3138,
      " ces": 3139,
      " rakam": 3140,
      " etkili": 3141,
      "ON": 3142,
      "şem": 3143,
      "ira": 3144,
      " doktor": 3145,
      " yarg": 3146,
      "Yani": 3147,
      "udi": 3148,
      " kuvvet": 3149,
      " hayata": 3150,
      " işlet": 3151,
      " Çin": 3152,
      "ümüzdeki": 3153,
      "Avrupa": 3154,
      " dal": 3155,
      " yanlış": 3156,
      " tutuklandı": 3157,
      " mahal": 3158,
      "olojik": 3159,
      " geçmiş": 3160,
      " gerekli": 3161,
      "başı": 3162,
      " değildir": 3163,
      "vis": 3164,
      " Kö": 3165,
      " ekran": 3166,
      " alanda": 3167,
      "arında": 3168,
      "mam": 3169,
      " görevli": 3170,
      " yazılı": 3171,
      "brahim": 3172,
      " hangi": 3173,
      "Gör": 3174,
      "üler": 3175,
      "ğur": 3176,
      " yarar": 3177,
      " Tar": 3178,
      " hakim": 3179,
      " döneminde": 3180,
      " dö": 3181,
      "ow": 3182,
      " Dur": 3183,
      " um": 3184,
      " uyar": 3185,
      " bizi": 3186,
      "eyim": 3187,
      "oğu": 3188,
      " bomba": 3189,
      " dayan": 3190,
      " tüket": 3191,
      " sayesinde": 3192,
      " yerinde": 3193,
      "Öte": 3194,
      " meş": 3195,
      " Caddesi": 3196,
      "son": 3197,
      " ihracat": 3198,
      " gerekç": 3199,
      " kitap": 3200,
      " Eylül": 3201,
      " vaz": 3202,
      " ilan": 3203,
      "lenmesi": 3204,
      " Örgüt": 3205,
      "ulması": 3206,
      "abiliyor": 3207,
      " sert": 3208,
      " tedbir": 3209,
      "meni": 3210,
      "eyecek": 3211,
      " nokta": 3212,
      "geç": 3213,
      " karşılık": 3214,
      " vardır": 3215,
      " Başsav": 3216,
      "Kendi": 3217,
      " öyle": 3218,
      " geçiş": 3219,
      "'ndeki": 3220,
      " davran": 3221,
      " haline": 3222,
      "oda": 3223,
      "ıma": 3224,
      "demir": 3225,
      " olumsuz": 3226,
      " Ul": 3227,
      " müş": 3228,
      " yardımcı": 3229,
      " bildirdi": 3230,
      " cep": 3231,
      " DAEŞ": 3232,
      "Tar": 3233,
      "luğ": 3234,
      " Orta": 3235,
      " yönetic": 3236,
      "ona": 3237,
      " Atatürk": 3238,
      " Hak": 3239,
      "avaş": 3240,
      " edilmesi": 3241,
      " yere": 3242,
      "Erdoğan": 3243,
      "El": 3244,
      "akika": 3245,
      " oluşan": 3246,
      "matik": 3247,
      " Ekim": 3248,
      "uğ": 3249,
      " lig": 3250,
      " şüpheli": 3251,
      " personel": 3252,
      "AM": 3253,
      " str": 3254,
      "maması": 3255,
      " itir": 3256,
      "ayi": 3257,
      " Ol": 3258,
      " amel": 3259,
      "ümü": 3260,
      " Ok": 3261,
      " esn": 3262,
      "fi": 3263,
      "tel": 3264,
      " kendisini": 3265,
      "Bunu": 3266,
      "'ndan": 3267,
      "lanacak": 3268,
      " Şah": 3269,
      " söyley": 3270,
      " hastalı": 3271,
      " sona": 3272,
      "bama": 3273,
      "cılı": 3274,
      " IŞİD": 3275,
      " Prof": 3276,
      " yıldız": 3277,
      "air": 3278,
      "üslüman": 3279,
      "atif": 3280,
      " buluş": 3281,
      "sinde": 3282,
      "duğunu": 3283,
      " Antalya": 3284,
      " altın": 3285,
      "Alman": 3286,
      " olmaz": 3287,
      " Fatih": 3288,
      " hüc": 3289,
      " men": 3290,
      " Diyarbakır": 3291,
      " bakım": 3292,
      " Aydın": 3293,
      "lal": 3294,
      "ildiğini": 3295,
      " tamamen": 3296,
      " yaşında": 3297,
      "esindeki": 3298,
      "alarına": 3299,
      " ıs": 3300,
      " beri": 3301,
      " günlük": 3302,
      " etkisiz": 3303,
      " demek": 3304,
      " Belediyesi": 3305,
      "Kaz": 3306,
      " ders": 3307,
      "cılığı": 3308,
      "ultan": 3309,
      "anış": 3310,
      " Ne": 3311,
      "Kur": 3312,
      " çab": 3313,
      "okak": 3314,
      "ğust": 3315,
      "alel": 3316,
      "irken": 3317,
      " karak": 3318,
      " ruh": 3319,
      " kalp": 3320,
      "Bel": 3321,
      "Aynı": 3322,
      " Ekonomi": 3323,
      "dası": 3324,
      " def": 3325,
      " etkil": 3326,
      " kesim": 3327,
      " kaydedildi": 3328,
      "ırı": 3329,
      "Buna": 3330,
      " baz": 3331,
      " kuş": 3332,
      "etik": 3333,
      " kulüp": 3334,
      " cezası": 3335,
      " sonuc": 3336,
      "34": 3337,
      "sında": 3338,
      "mayacak": 3339,
      " plak": 3340,
      " Kal": 3341,
      "lığını": 3342,
      "üseyin": 3343,
      " Güncel": 3344,
      "ahç": 3345,
      "uc": 3346,
      " süren": 3347,
      "sur": 3348,
      " PYD": 3349,
      " Jan": 3350,
      " Bankası": 3351,
      "Par": 3352,
      " Haberler": 3353,
      " incelem": 3354,
      "lamen": 3355,
      " Grubu": 3356,
      " attı": 3357,
      "ğan": 3358,
      " mot": 3359,
      " Dakika": 3360,
      " kaybetti": 3361,
      "-G": 3362,
      "Ülk": 3363,
      "ektörü": 3364,
      "ekkür": 3365,
      "Devlet": 3366,
      "lanması": 3367,
      " Hay": 3368,
      " zaten": 3369,
      " Ch": 3370,
      " yarı": 3371,
      " final": 3372,
      "yum": 3373,
      "ang": 3374,
      " bö": 3375,
      "ışmalar": 3376,
      "za": 3377,
      " ediyorum": 3378,
      "dalı": 3379,
      " bede": 3380,
      " yayım": 3381,
      "sen": 3382,
      "TÜ": 3383,
      "şk": 3384,
      "unma": 3385,
      " Trump": 3386,
      " anne": 3387,
      " silahlı": 3388,
      " merak": 3389,
      " çocuğ": 3390,
      "engin": 3391,
      "emez": 3392,
      "lasyon": 3393,
      " Trabzonspor": 3394,
      "abir": 3395,
      " Sal": 3396,
      " yolcu": 3397,
      " babası": 3398,
      "Geçen": 3399,
      " tesi": 3400,
      " dağı": 3401,
      " Kupası": 3402,
      " Kır": 3403,
      " kıy": 3404,
      "ğustos": 3405,
      "irv": 3406,
      " belirlendi": 3407,
      " kendini": 3408,
      "Ve": 3409,
      "türk": 3410,
      " olduğuna": 3411,
      " davet": 3412,
      " yapıla": 3413,
      "mel": 3414,
      " ağr": 3415,
      " yargı": 3416,
      " kapı": 3417,
      " televizyon": 3418,
      " Derneği": 3419,
      "PG": 3420,
      "tiler": 3421,
      "wit": 3422,
      "inc": 3423,
      " durumunda": 3424,
      "sizlik": 3425,
      " hesab": 3426,
      "Bil": 3427,
      " dost": 3428,
      " dışarı": 3429,
      "alimanı": 3430,
      " tali": 3431,
      "uzur": 3432,
      " toprak": 3433,
      "ımızın": 3434,
      " avukat": 3435,
      " çıkış": 3436,
      "AD": 3437,
      " yüzden": 3438,
      "'le": 3439,
      "paşa": 3440,
      " bağım": 3441,
      " kullandığı": 3442,
      " prot": 3443,
      "vekil": 3444,
      "oto": 3445,
      " ,": 3446,
      "ren": 3447,
      " beş": 3448,
      "mail": 3449,
      "espor": 3450,
      " deniz": 3451,
      " Güney": 3452,
      " yaralandı": 3453,
      "Spor": 3454,
      "mut": 3455,
      "ınıf": 3456,
      " Güvenlik": 3457,
      " zam": 3458,
      "tren": 3459,
      "Yak": 3460,
      " gösteren": 3461,
      " oldukça": 3462,
      " orada": 3463,
      " bundan": 3464,
      "ımızı": 3465,
      "amak": 3466,
      "Kim": 3467,
      "gar": 3468,
      "madığını": 3469,
      "etre": 3470,
      "ılır": 3471,
      " petrol": 3472,
      " çalışmaları": 3473,
      "ıldız": 3474,
      " dava": 3475,
      " borç": 3476,
      " miktar": 3477,
      "EFA": 3478,
      "Uz": 3479,
      "bak": 3480,
      "yalı": 3481,
      " aile": 3482,
      "başkan": 3483,
      "Çocuk": 3484,
      " hik": 3485,
      " Genç": 3486,
      " dünyada": 3487,
      "düğünü": 3488,
      " Ham": 3489,
      " fik": 3490,
      "bur": 3491,
      "gü": 3492,
      " idar": 3493,
      " güncel": 3494,
      " teşekkür": 3495,
      "lamada": 3496,
      " kims": 3497,
      "barat": 3498,
      " fırsat": 3499,
      " otel": 3500,
      " mevcut": 3501,
      " Özel": 3502,
      "-b": 3503,
      "süz": 3504,
      " çey": 3505,
      " edin": 3506,
      " geril": 3507,
      " normal": 3508,
      " pozisyon": 3509,
      "ciler": 3510,
      "allah": 3511,
      " gay": 3512,
      " alarak": 3513,
      " du": 3514,
      " enf": 3515,
      " bitir": 3516,
      "Bakan": 3517,
      "ite": 3518,
      " krit": 3519,
      " Şube": 3520,
      "dat": 3521,
      " of": 3522,
      " gündem": 3523,
      " sanık": 3524,
      "ilmişti": 3525,
      "lılık": 3526,
      " yalnız": 3527,
      " j": 3528,
      "300": 3529,
      " HDP": 3530,
      "ebilecek": 3531,
      "Açık": 3532,
      " başvuru": 3533,
      "San": 3534,
      "eksiyon": 3535,
      " hâ": 3536,
      "iyeti": 3537,
      " edeb": 3538,
      " hazırlık": 3539,
      "36": 3540,
      " Bul": 3541,
      "duğ": 3542,
      "ham": 3543,
      " örnek": 3544,
      "rem": 3545,
      "yo": 3546,
      "ınan": 3547,
      "atta": 3548,
      " değişiklik": 3549,
      " muhalif": 3550,
      "res": 3551,
      " başken": 3552,
      " ona": 3553,
      "İM": 3554,
      " oda": 3555,
      " derin": 3556,
      " yapılması": 3557,
      "witter": 3558,
      "ati": 3559,
      " öden": 3560,
      " Başkanlığı": 3561,
      " hakem": 3562,
      "Hem": 3563,
      "eyazlı": 3564,
      " gündeme": 3565,
      " Meclis": 3566,
      " Bin": 3567,
      "İnsan": 3568,
      " mek": 3569,
      " Nur": 3570,
      " Ömer": 3571,
      " olmadı": 3572,
      " DEAŞ": 3573,
      " verilm": 3574,
      " edildiği": 3575,
      " teknoloj": 3576,
      " girişimi": 3577,
      "barı": 3578,
      " çıkıyor": 3579,
      "inizi": 3580,
      " ölç": 3581,
      " heyec": 3582,
      "panya": 3583,
      "Siz": 3584,
      " insanların": 3585,
      " çağrı": 3586,
      "PD": 3587,
      "Sal": 3588,
      "anlar": 3589,
      "iydi": 3590,
      "uluyor": 3591,
      " Sin": 3592,
      " müdahale": 3593,
      "pp": 3594,
      " İbrahim": 3595,
      " trafik": 3596,
      "his": 3597,
      "amsun": 3598,
      " ekibi": 3599,
      "ou": 3600,
      " yum": 3601,
      " olumlu": 3602,
      " vermek": 3603,
      " barış": 3604,
      " mağdur": 3605,
      " İngiltere": 3606,
      "ding": 3607,
      "imde": 3608,
      " müdür": 3609,
      " yasak": 3610,
      " başkanlık": 3611,
      " şikayet": 3612,
      " detay": 3613,
      " hatta": 3614,
      " İst": 3615,
      " ihtim": 3616,
      " Örgütü": 3617,
      " kuzey": 3618,
      " yerleş": 3619,
      " insanlar": 3620,
      "Tüm": 3621,
      "anet": 3622,
      " po": 3623,
      " forma": 3624,
      "yanın": 3625,
      "Mah": 3626,
      "kor": 3627,
      "ene": 3628,
      " Osmanlı": 3629,
      " nerede": 3630,
      " renk": 3631,
      " işç": 3632,
      " isten": 3633,
      " cihaz": 3634,
      " yola": 3635,
      " Mer": 3636,
      "ze": 3637,
      " ilaç": 3638,
      "mediği": 3639,
      " mutlu": 3640,
      "09": 3641,
      "bek": 3642,
      "larım": 3643,
      " Çelik": 3644,
      "ımıza": 3645,
      " yürüy": 3646,
      "liğe": 3647,
      " Halep": 3648,
      "Hal": 3649,
      "aka": 3650,
      "urken": 3651,
      " mar": 3652,
      "itir": 3653,
      "cılar": 3654,
      "lasman": 3655,
      "\"nın": 3656,
      " patlayıcı": 3657,
      ".B": 3658,
      "gr": 3659,
      " namaz": 3660,
      " geldiği": 3661,
      " sürede": 3662,
      " erken": 3663,
      " geçtiğimiz": 3664,
      " Amerika": 3665,
      "üstü": 3666,
      " tip": 3667,
      " diş": 3668,
      " ordu": 3669,
      " sakat": 3670,
      "198": 3671,
      "Benim": 3672,
      "siyle": 3673,
      "ğinin": 3674,
      " ekib": 3675,
      " müs": 3676,
      "nun": 3677,
      " defa": 3678,
      " Hüseyin": 3679,
      " etmesi": 3680,
      " Büyükşehir": 3681,
      "AP": 3682,
      "büs": 3683,
      " mutlak": 3684,
      "Fakat": 3685,
      " Ağustos": 3686,
      " pas": 3687,
      " Yunan": 3688,
      "blem": 3689,
      "ğiz": 3690,
      "İç": 3691,
      "ırnak": 3692,
      "ahmet": 3693,
      "'lik": 3694,
      "mur": 3695,
      " verecek": 3696,
      " hain": 3697,
      "32": 3698,
      " Kültür": 3699,
      " Müslüman": 3700,
      " içeri": 3701,
      " Gaziantep": 3702,
      " düzenlen": 3703,
      " düzenlem": 3704,
      " metre": 3705,
      " katılım": 3706,
      "ücu": 3707,
      " bölge": 3708,
      " Milletvekili": 3709,
      " Kılıçdaroğlu": 3710,
      "AH": 3711,
      "gisi": 3712,
      " ediyoruz": 3713,
      "malıdır": 3714,
      "Söz": 3715,
      " Sağlık": 3716,
      " getirildi": 3717,
      " tutuklan": 3718,
      " vurgulayan": 3719,
      " le": 3720,
      "erin": 3721,
      " grub": 3722,
      " öğ": 3723,
      "cüsü": 3724,
      " sefer": 3725,
      " tas": 3726,
      " şar": 3727,
      " yapma": 3728,
      " sürüyor": 3729,
      " peş": 3730,
      "BMM": 3731,
      "\".\n": 3732,
      " sınıf": 3733,
      " ilgi": 3734,
      " kamp": 3735,
      " çevir": 3736,
      "Gel": 3737,
      "onya": 3738,
      " yitir": 3739,
      " yıllarda": 3740,
      " kullanıcı": 3741,
      " kaçır": 3742,
      " rejim": 3743,
      "Genel": 3744,
      " mis": 3745,
      " maliyet": 3746,
      " yaparak": 3747,
      " Gür": 3748,
      "masın": 3749,
      "etici": 3750,
      "larımızın": 3751,
      "zi": 3752,
      "cadele": 3753,
      "edeki": 3754,
      " kanal": 3755,
      " ambul": 3756,
      " müzik": 3757,
      "ınar": 3758,
      " neler": 3759,
      " not": 3760,
      " sahn": 3761,
      "ban": 3762,
      " biç": 3763,
      "ulmuş": 3764,
      " anlay": 3765,
      " düşen": 3766,
      " aslında": 3767,
      "CHP": 3768,
      " kup": 3769,
      " ettir": 3770,
      " düşüş": 3771,
      " hayal": 3772,
      " istiyorum": 3773,
      "ilendir": 3774,
      " kullanılan": 3775,
      "muştu": 3776,
      " huzur": 3777,
      " Bal": 3778,
      " bilim": 3779,
      "car": 3780,
      "par": 3781,
      " olacağını": 3782,
      " mücadel": 3783,
      " Hava": 3784,
      "ılım": 3785,
      "ult": 3786,
      " Cen": 3787,
      " Yeni": 3788,
      " endiş": 3789,
      " varsa": 3790,
      "nan": 3791,
      "atej": 3792,
      "örü": 3793,
      " nak": 3794,
      "ilirken": 3795,
      "liğinde": 3796,
      " rakip": 3797,
      "PKK": 3798,
      " kişilik": 3799,
      " kaybeden": 3800,
      "Bazı": 3801,
      "ker": 3802,
      " Boz": 3803,
      " eksik": 3804,
      " karşıya": 3805,
      " yolu": 3806,
      "İZ": 3807,
      " ölü": 3808,
      " oranı": 3809,
      " bey": 3810,
      " Kap": 3811,
      " İç": 3812,
      " altını": 3813,
      " Hasan": 3814,
      " taşıyan": 3815,
      " unsur": 3816,
      " Fransa": 3817,
      " kayıp": 3818,
      " merkezi": 3819,
      "kurmay": 3820,
      "75": 3821,
      "deri": 3822,
      "ekiz": 3823,
      " birim": 3824,
      " St": 3825,
      " çıkacak": 3826,
      " katılan": 3827,
      " In": 3828,
      " dünyaya": 3829,
      " kırmızı": 3830,
      "Kay": 3831,
      "ku": 3832,
      " don": 3833,
      "lenme": 3834,
      " aşağı": 3835,
      "okratik": 3836,
      " içine": 3837,
      " güc": 3838,
      " Albay": 3839,
      " Cumhuriyeti": 3840,
      " kanser": 3841,
      " küresel": 3842,
      "rüb": 3843,
      "ğe": 3844,
      "anam": 3845,
      " ayır": 3846,
      " Emre": 3847,
      "Sadece": 3848,
      " kişilerin": 3849,
      "'ü": 3850,
      "abilirsiniz": 3851,
      " ameliyat": 3852,
      "utin": 3853,
      " yolc": 3854,
      " emek": 3855,
      " Fetullah": 3856,
      "39": 3857,
      "bi": 3858,
      "ğır": 3859,
      "ED": 3860,
      "slan": 3861,
      " halde": 3862,
      " müh": 3863,
      " alma": 3864,
      " problem": 3865,
      " ulaştı": 3866,
      " muhabir": 3867,
      " milletvekil": 3868,
      "rim": 3869,
      "sına": 3870,
      " gaz": 3871,
      " TV": 3872,
      " Sultan": 3873,
      "ilerden": 3874,
      " çap": 3875,
      "Peki": 3876,
      "mit": 3877,
      " etmeye": 3878,
      " cam": 3879,
      " civarında": 3880,
      "iyel": 3881,
      "elerle": 3882,
      " Güneş": 3883,
      "lardı": 3884,
      "ital": 3885,
      " çünkü": 3886,
      "emesi": 3887,
      " gelişmeler": 3888,
      "Em": 3889,
      "kr": 3890,
      "ersiz": 3891,
      " bağlantı": 3892,
      " imk": 3893,
      "mediğini": 3894,
      "unc": 3895,
      " yapmaya": 3896,
      " Bas": 3897,
      " gerçekleştirilen": 3898,
      " kilometre": 3899,
      " yargılan": 3900,
      "ahçeli": 3901,
      "sim": 3902,
      "yım": 3903,
      "aket": 3904,
      "ıyorum": 3905,
      " eser": 3906,
      " operasyonda": 3907,
      "Genç": 3908,
      "ğından": 3909,
      " depr": 3910,
      " pil": 3911,
      "lamaz": 3912,
      " üçüncü": 3913,
      " gerekçesiyle": 3914,
      "Ad": 3915,
      "adi": 3916,
      "tılı": 3917,
      "âr": 3918,
      "ester": 3919,
      " Mücadele": 3920,
      "liğine": 3921,
      " inşaat": 3922,
      " İngiliz": 3923,
      " sem": 3924,
      " yerleştir": 3925,
      " istiyoruz": 3926,
      " Vak": 3927,
      "ersin": 3928,
      " Araştır": 3929,
      " proje": 3930,
      "İl": 3931,
      "iyer": 3932,
      "estiv": 3933,
      "ikan": 3934,
      "Büyük": 3935,
      "sas": 3936,
      "lanma": 3937,
      "iyatro": 3938,
      " İsmail": 3939,
      " deplasman": 3940,
      "ral": 3941,
      " alına": 3942,
      "olkan": 3943,
      " lideri": 3944,
      " yoktur": 3945,
      " vuruş": 3946,
      "şık": 3947,
      " uyarı": 3948,
      " emekli": 3949,
      " dolarlık": 3950,
      " yürütülen": 3951,
      " oğlu": 3952,
      " şarkı": 3953,
      "Yapılan": 3954,
      " iktidar": 3955,
      "Diğer": 3956,
      "seri": 3957,
      "ağının": 3958,
      "mede": 3959,
      "ündem": 3960,
      " yakalandı": 3961,
      " bask": 3962,
      " hatırlat": 3963,
      " tatil": 3964,
      " vazgeç": 3965,
      " ade": 3966,
      " Hakan": 3967,
      "İngil": 3968,
      " turist": 3969,
      " Şahin": 3970,
      "hat": 3971,
      " büt": 3972,
      "onal": 3973,
      " hafif": 3974,
      " Suriyeli": 3975,
      " kamuoy": 3976,
      " Haziran": 3977,
      ".K": 3978,
      " soğ": 3979,
      " başlan": 3980,
      " öngör": 3981,
      " Van": 3982,
      "general": 3983,
      "33": 3984,
      "gül": 3985,
      "iber": 3986,
      " Çavuş": 3987,
      " baskı": 3988,
      "Ün": 3989,
      " yıla": 3990,
      " Mes": 3991,
      "osk": 3992,
      " sıralarında": 3993,
      " başkanı": 3994,
      " Hollan": 3995,
      "lâ": 3996,
      "ılmaz": 3997,
      " görüldü": 3998,
      " Poli": 3999
    },
    "merges": [
      [
        "a",
        "r"
      ],
      [
        "a",
        "n"
      ],
      [
        "e",
        "r"
      ],
      [
        "i",
        "n"
      ],
      [
        "ı",
        "n"
      ],
      [
        " ",
        "b"
      ],
      [
        "d",
        "e"
      ],
      [
        ".",
        "\n"
      ],
      [
        "i",
        "l"
      ],
      [
        " ",
        "k"
      ],
      [
        "e",
        "n"
      ],
      [
        "a",
        "l"
      ],
      [
        " ",
        "y"
      ],
      [
        "d",
        "a"
      ],
      [
        " ",
        "s"
      ],
      [
        "i",
        "r"
      ],
      [
        " ",
        "g"
      ],
      [
        "a",
        "k"
      ],
      [
        "l",
        "ar"
      ],
      [
        "e",
        "l"
      ],
      [
        "m",
        "a"
      ],
      [
        "e",
        "t"
      ],
      [
        "l",
        "a"
      ],
      [
        " ",
        "o"
      ],
      [
        "e",
        "k"
      ],
      [
        " ",
        "v"
      ],
      [
        "i",
        "y"
      ],
      [
        " ",
        "t"
      ],
      [
        "u",
        "n"
      ],
      [
        " ",
        "i"
      ],
      [
        "o",
        "r"
      ],
      [
        " ",
        "d"
      ],
      [
        "l",
        "er"
      ],
      [
        "a",
        "t"
      ],
      [
        "a",
        "y"
      ],
      [
        "e",
        "s"
      ],
      [
        "o",
        "n"
      ],
      [
        "d",
        "ı"
      ],
      [
        " ",
        "h"
      ],
      [
        "d",
        "i"
      ],
      [
        "a",
        "s"
      ],
      [
        "u",
        "r"
      ],
      [
        "l",
        "e"
      ],
      [
        " v",
        "e"
      ],
      [
        "a",
        "ş"
      ],
      [
        "l",
        "i"
      ],
      [
        "ü",
        "n"
      ],
      [
        "ı",
        "l"
      ],
      [
        " ",
        "de"
      ],
      [
        " b",
        "ir"
      ],
      [
        "ü",
        "r"
      ],
      [
        " ",
        "m"
      ],
      [
        "i",
        "m"
      ],
      [
        " ",
        "ç"
      ],
      [
        "ı",
        "k"
      ],
      [
        "i",
        "z"
      ],
      [
        "u",
        "l"
      ],
      [
        "e",
        "m"
      ],
      [
        " o",
        "l"
      ],
      [
        "a",
        "p"
      ],
      [
        " ",
        "A"
      ],
      [
        " ",
        "a"
      ],
      [
        "i",
        "k"
      ],
      [
        "ı",
        "r"
      ],
      [
        "s",
        "t"
      ],
      [
        "a",
        "m"
      ],
      [
        "ö",
        "r"
      ],
      [
        "ın",
        "da"
      ],
      [
        "e",
        "y"
      ],
      [
        "in",
        "de"
      ],
      [
        " ",
        "B"
      ],
      [
        "d",
        "an"
      ],
      [
        "ı",
        "ş"
      ],
      [
        " ",
        "il"
      ],
      [
        " ",
        "T"
      ],
      [
        "i",
        "ş"
      ],
      [
        " ",
        "da"
      ],
      [
        "a",
        "z"
      ],
      [
        " ",
        "ö"
      ],
      [
        " ",
        "p"
      ],
      [
        "ın",
        "ı"
      ],
      [
        "a",
        "b"
      ],
      [
        " ",
        "e"
      ],
      [
        " ",
        "K"
      ],
      [
        "y",
        "a"
      ],
      [
        "ğ",
        "ı"
      ],
      [
        "d",
        "u"
      ],
      [
        " ",
        "S"
      ],
      [
        "k",
        "i"
      ],
      [
        "u",
        "m"
      ],
      [
        " ",
        "M"
      ],
      [
        "'",
        "n"
      ],
      [
        "in",
        "i"
      ],
      [
        "a",
        "h"
      ],
      [
        " ",
        "al"
      ],
      [
        "ü",
        "z"
      ],
      [
        "de",
        "n"
      ],
      [
        "t",
        "i"
      ],
      [
        " ",
        "ş"
      ],
      [
        " y",
        "ap"
      ],
      [
        "in",
        "e"
      ],
      [
        "t",
        "ı"
      ],
      [
        " ",
        "ar"
      ],
      [
        "i",
        "t"
      ],
      [
        "o",
        "l"
      ],
      [
        "e",
        "c"
      ],
      [
        "l",
        "ı"
      ],
      [
        "s",
        "ı"
      ],
      [
        "es",
        "i"
      ],
      [
        " ",
        "f"
      ],
      [
        "l",
        "an"
      ],
      [
        "o",
        "k"
      ],
      [
        "ı",
        "m"
      ],
      [
        "iy",
        "e"
      ],
      [
        " i",
        "ç"
      ],
      [
        " ",
        "\""
      ],
      [
        "y",
        "or"
      ],
      [
        "ın",
        "a"
      ],
      [
        "i",
        "s"
      ],
      [
        "lar",
        "ı"
      ],
      [
        "ü",
        "k"
      ],
      [
        " b",
        "u"
      ],
      [
        "a",
        "ğ"
      ],
      [
        " ",
        "n"
      ],
      [
        "iy",
        "or"
      ],
      [
        " ",
        "D"
      ],
      [
        " ",
        "G"
      ],
      [
        "ü",
        "l"
      ],
      [
        "u",
        "z"
      ],
      [
        "ler",
        "i"
      ],
      [
        "e",
        "v"
      ],
      [
        "in",
        "in"
      ],
      [
        " ",
        "H"
      ],
      [
        "il",
        "er"
      ],
      [
        "ğ",
        "i"
      ],
      [
        " g",
        "ör"
      ],
      [
        "u",
        "ş"
      ],
      [
        " ",
        "E"
      ],
      [
        "c",
        "ak"
      ],
      [
        "a",
        "f"
      ],
      [
        "u",
        "t"
      ],
      [
        "o",
        "ğ"
      ],
      [
        " b",
        "aş"
      ],
      [
        " k",
        "ar"
      ],
      [
        "al",
        "ar"
      ],
      [
        "ö",
        "n"
      ],
      [
        "an",
        "ı"
      ],
      [
        " ",
        "et"
      ],
      [
        "t",
        "a"
      ],
      [
        "e",
        "z"
      ],
      [
        "ür",
        "k"
      ],
      [
        " iç",
        "in"
      ],
      [
        " s",
        "on"
      ],
      [
        "lar",
        "ın"
      ],
      [
        "ı",
        "z"
      ],
      [
        "el",
        "er"
      ],
      [
        " ",
        "İ"
      ],
      [
        " il",
        "e"
      ],
      [
        "ü",
        "m"
      ],
      [
        "u",
        "s"
      ],
      [
        " g",
        "el"
      ],
      [
        "dı",
        "r"
      ],
      [
        " ol",
        "du"
      ],
      [
        " ö",
        "n"
      ],
      [
        "t",
        "e"
      ],
      [
        "a",
        "v"
      ],
      [
        "e",
        "ç"
      ],
      [
        "c",
        "a"
      ],
      [
        "u",
        "k"
      ],
      [
        " v",
        "er"
      ],
      [
        " k",
        "on"
      ],
      [
        " ",
        "r"
      ],
      [
        "li",
        "k"
      ],
      [
        " ",
        "an"
      ],
      [
        "a",
        "d"
      ],
      [
        " ",
        "z"
      ],
      [
        "c",
        "e"
      ],
      [
        " e",
        "d"
      ],
      [
        "ü",
        "ş"
      ],
      [
        " ",
        "C"
      ],
      [
        "ın",
        "dan"
      ],
      [
        " ",
        "Y"
      ],
      [
        "l",
        "en"
      ],
      [
        " ",
        "P"
      ],
      [
        "ma",
        "sı"
      ],
      [
        "s",
        "e"
      ],
      [
        " a",
        "ç"
      ],
      [
        "d",
        "ir"
      ],
      [
        "y",
        "on"
      ],
      [
        " g",
        "er"
      ],
      [
        "u",
        "y"
      ],
      [
        " ",
        "c"
      ],
      [
        "2",
        "0"
      ],
      [
        "un",
        "u"
      ],
      [
        "ö",
        "y"
      ],
      [
        "m",
        "ak"
      ],
      [
        "m",
        "e"
      ],
      [
        " ",
        "F"
      ],
      [
        "ın",
        "ın"
      ],
      [
        " ",
        "ay"
      ],
      [
        "ö",
        "z"
      ],
      [
        " b",
        "ul"
      ],
      [
        "la",
        "ş"
      ],
      [
        "r",
        "a"
      ],
      [
        "l",
        "u"
      ],
      [
        "c",
        "ı"
      ],
      [
        "la",
        "y"
      ],
      [
        "o",
        "m"
      ],
      [
        " y",
        "ıl"
      ],
      [
        "ü",
        "y"
      ],
      [
        " ",
        "ma"
      ],
      [
        " T",
        "ürk"
      ],
      [
        "e",
        "ş"
      ],
      [
        "il",
        "di"
      ],
      [
        "o",
        "p"
      ],
      [
        " t",
        "ar"
      ],
      [
        "l",
        "ık"
      ],
      [
        "i",
        "b"
      ],
      [
        "i",
        "p"
      ],
      [
        " ç",
        "ık"
      ],
      [
        "'",
        "da"
      ],
      [
        " ",
        "en"
      ],
      [
        " y",
        "er"
      ],
      [
        "as",
        "ı"
      ],
      [
        " k",
        "al"
      ],
      [
        " b",
        "el"
      ],
      [
        " b",
        "il"
      ],
      [
        " oldu",
        "ğ"
      ],
      [
        "B",
        "u"
      ],
      [
        " de",
        "ğ"
      ],
      [
        "m",
        "an"
      ],
      [
        " ",
        "in"
      ],
      [
        "t",
        "ir"
      ],
      [
        "lar",
        "ak"
      ],
      [
        "t",
        "an"
      ],
      [
        " s",
        "ür"
      ],
      [
        " y",
        "aş"
      ],
      [
        " i",
        "ş"
      ],
      [
        "ı",
        "yor"
      ],
      [
        "dı",
        "ğı"
      ],
      [
        "'",
        "de"
      ],
      [
        " g",
        "ün"
      ],
      [
        " g",
        "eç"
      ],
      [
        "ma",
        "s"
      ],
      [
        "k",
        "en"
      ],
      [
        "m",
        "ek"
      ],
      [
        "ü",
        "t"
      ],
      [
        " o",
        "larak"
      ],
      [
        "'n",
        "in"
      ],
      [
        " y",
        "ar"
      ],
      [
        "öy",
        "le"
      ],
      [
        "e",
        "h"
      ],
      [
        "a",
        "de"
      ],
      [
        " i",
        "st"
      ],
      [
        " ",
        "("
      ],
      [
        " k",
        "ad"
      ],
      [
        "ı",
        "s"
      ],
      [
        " o",
        "r"
      ],
      [
        "r",
        "o"
      ],
      [
        "aş",
        "k"
      ],
      [
        "ıl",
        "an"
      ],
      [
        "t",
        "ır"
      ],
      [
        "e",
        "de"
      ],
      [
        "iy",
        "le"
      ],
      [
        "ec",
        "ek"
      ],
      [
        " ç",
        "ok"
      ],
      [
        " ",
        "O"
      ],
      [
        "a",
        "ma"
      ],
      [
        " n",
        "e"
      ],
      [
        "en",
        "i"
      ],
      [
        "e",
        "b"
      ],
      [
        "al",
        "ı"
      ],
      [
        "il",
        "m"
      ],
      [
        " ol",
        "an"
      ],
      [
        "a",
        "da"
      ],
      [
        "h",
        "a"
      ],
      [
        "il",
        "i"
      ],
      [
        "ğ",
        "ini"
      ],
      [
        "iy",
        "et"
      ],
      [
        " ",
        "üz"
      ],
      [
        " ç",
        "al"
      ],
      [
        "as",
        "ında"
      ],
      [
        "ay",
        "a"
      ],
      [
        "ab",
        "er"
      ],
      [
        "y",
        "la"
      ],
      [
        "l",
        "et"
      ],
      [
        " k",
        "ay"
      ],
      [
        "i",
        "st"
      ],
      [
        " m",
        "il"
      ],
      [
        " ",
        "R"
      ],
      [
        "l",
        "ü"
      ],
      [
        "im",
        "iz"
      ],
      [
        "r",
        "u"
      ],
      [
        "ec",
        "e"
      ],
      [
        " k",
        "ur"
      ],
      [
        "inde",
        "n"
      ],
      [
        " bul",
        "un"
      ],
      [
        "i",
        "h"
      ],
      [
        "m",
        "ış"
      ],
      [
        "e",
        "d"
      ],
      [
        " bel",
        "ir"
      ],
      [
        "il",
        "en"
      ],
      [
        " Türk",
        "iye"
      ],
      [
        "c",
        "u"
      ],
      [
        " i",
        "se"
      ],
      [
        " çal",
        "ış"
      ],
      [
        " üz",
        "er"
      ],
      [
        " kar",
        "ş"
      ],
      [
        " v",
        "ar"
      ],
      [
        "20",
        "1"
      ],
      [
        "la",
        "ma"
      ],
      [
        "ey",
        "e"
      ],
      [
        "uş",
        "t"
      ],
      [
        " de",
        "v"
      ],
      [
        " aç",
        "ık"
      ],
      [
        " da",
        "ha"
      ],
      [
        "un",
        "da"
      ],
      [
        "ar",
        "ı"
      ],
      [
        "a",
        "ç"
      ],
      [
        " y",
        "ön"
      ],
      [
        " k",
        "ul"
      ],
      [
        "ib",
        "i"
      ],
      [
        " ",
        "el"
      ],
      [
        " t",
        "er"
      ],
      [
        " ",
        "-"
      ],
      [
        " s",
        "or"
      ],
      [
        "c",
        "i"
      ],
      [
        " ",
        "ek"
      ],
      [
        "'",
        "in"
      ],
      [
        " o",
        "y"
      ],
      [
        "'",
        "ın"
      ],
      [
        "s",
        "i"
      ],
      [
        " k",
        "en"
      ],
      [
        " t",
        "op"
      ],
      [
        "ler",
        "in"
      ],
      [
        "lar",
        "ını"
      ],
      [
        "ğ",
        "ını"
      ],
      [
        "am",
        "an"
      ],
      [
        ".",
        "."
      ],
      [
        "ö",
        "l"
      ],
      [
        "m",
        "alar"
      ],
      [
        " y",
        "ak"
      ],
      [
        "p",
        "or"
      ],
      [
        " g",
        "ü"
      ],
      [
        "er",
        "i"
      ],
      [
        "le",
        "ş"
      ],
      [
        "o",
        "s"
      ],
      [
        " y",
        "üz"
      ],
      [
        " b",
        "in"
      ],
      [
        " ",
        "at"
      ],
      [
        "'",
        "y"
      ],
      [
        " d",
        "üş"
      ],
      [
        " d",
        "ur"
      ],
      [
        " k",
        "iş"
      ],
      [
        "ar",
        "a"
      ],
      [
        "üy",
        "ük"
      ],
      [
        "ıl",
        "dı"
      ],
      [
        " ",
        "Ş"
      ],
      [
        " ",
        "N"
      ],
      [
        "ğ",
        "r"
      ],
      [
        " g",
        "ö"
      ],
      [
        " y",
        "an"
      ],
      [
        "e",
        "p"
      ],
      [
        " d",
        "ön"
      ],
      [
        "d",
        "ür"
      ],
      [
        "el",
        "i"
      ],
      [
        " tar",
        "af"
      ],
      [
        "er",
        "ek"
      ],
      [
        "le",
        "m"
      ],
      [
        "ar",
        "ak"
      ],
      [
        "'n",
        "ın"
      ],
      [
        "il",
        "ir"
      ],
      [
        " kul",
        "lan"
      ],
      [
        " ",
        "Ç"
      ],
      [
        " ",
        "uy"
      ],
      [
        "er",
        "k"
      ],
      [
        "u",
        "ç"
      ],
      [
        "s",
        "a"
      ],
      [
        "un",
        "un"
      ],
      [
        "lar",
        "a"
      ],
      [
        "ar",
        "k"
      ],
      [
        "ıl",
        "ı"
      ],
      [
        " son",
        "ra"
      ],
      [
        " g",
        "ir"
      ],
      [
        "di",
        "ği"
      ],
      [
        "o",
        "y"
      ],
      [
        " kad",
        "ar"
      ],
      [
        "ma",
        "ya"
      ],
      [
        " s",
        "ağ"
      ],
      [
        "t",
        "en"
      ],
      [
        " ",
        "L"
      ],
      [
        " ",
        "Ö"
      ],
      [
        " s",
        "ah"
      ],
      [
        " g",
        "ibi"
      ],
      [
        "ler",
        "ini"
      ],
      [
        "m",
        "iş"
      ],
      [
        "la",
        "dı"
      ],
      [
        "tı",
        "ğı"
      ],
      [
        " ger",
        "ek"
      ],
      [
        " k",
        "ap"
      ],
      [
        " et",
        "ti"
      ],
      [
        "m",
        "en"
      ],
      [
        "m",
        "et"
      ],
      [
        " h",
        "al"
      ],
      [
        " k",
        "at"
      ],
      [
        "i",
        "d"
      ],
      [
        " t",
        "ek"
      ],
      [
        " o",
        "la"
      ],
      [
        " t",
        "ak"
      ],
      [
        "d",
        "ü"
      ],
      [
        "o",
        "li"
      ],
      [
        " s",
        "öyle"
      ],
      [
        " m",
        "ü"
      ],
      [
        " ",
        "ül"
      ],
      [
        "an",
        "lı"
      ],
      [
        " E",
        "r"
      ],
      [
        "0",
        "0"
      ],
      [
        "ay",
        "ı"
      ],
      [
        " h",
        "ak"
      ],
      [
        "es",
        "inde"
      ],
      [
        " ",
        "ü"
      ],
      [
        " ",
        "ak"
      ],
      [
        " karş",
        "ı"
      ],
      [
        " de",
        "di"
      ],
      [
        "aşk",
        "anı"
      ],
      [
        " ter",
        "ör"
      ],
      [
        "is",
        "i"
      ],
      [
        "a",
        "cak"
      ],
      [
        "s",
        "an"
      ],
      [
        "r",
        "e"
      ],
      [
        "r",
        "an"
      ],
      [
        " y",
        "eni"
      ],
      [
        "as",
        "yon"
      ],
      [
        "a",
        "at"
      ],
      [
        " b",
        "öl"
      ],
      [
        "ma",
        "y"
      ],
      [
        "t",
        "er"
      ],
      [
        "ım",
        "ız"
      ],
      [
        " ö",
        "z"
      ],
      [
        "ar",
        "t"
      ],
      [
        "dı",
        "m"
      ],
      [
        "un",
        "a"
      ],
      [
        " il",
        "g"
      ],
      [
        " h",
        "er"
      ],
      [
        " ",
        "V"
      ],
      [
        " b",
        "üyük"
      ],
      [
        " i",
        "f"
      ],
      [
        "ç",
        "ek"
      ],
      [
        " e",
        "v"
      ],
      [
        "o",
        "t"
      ],
      [
        "i",
        "c"
      ],
      [
        " gör",
        "e"
      ],
      [
        " ül",
        "k"
      ],
      [
        "?",
        "\n"
      ],
      [
        "k",
        "in"
      ],
      [
        " d",
        "üz"
      ],
      [
        " ",
        "as"
      ],
      [
        "et",
        "ir"
      ],
      [
        "i",
        "f"
      ],
      [
        "ğ",
        "u"
      ],
      [
        " il",
        "k"
      ],
      [
        " al",
        "ın"
      ],
      [
        " h",
        "ay"
      ],
      [
        "v",
        "en"
      ],
      [
        "h",
        "ur"
      ],
      [
        " g",
        "etir"
      ],
      [
        " d",
        "ün"
      ],
      [
        "t",
        "r"
      ],
      [
        "e",
        "f"
      ],
      [
        "et",
        "im"
      ],
      [
        "er",
        "s"
      ],
      [
        " olduğ",
        "unu"
      ],
      [
        "st",
        "an"
      ],
      [
        "el",
        "ik"
      ],
      [
        " if",
        "ade"
      ],
      [
        "b",
        "ul"
      ],
      [
        " olduğ",
        "u"
      ],
      [
        "um",
        "hur"
      ],
      [
        " A",
        "n"
      ],
      [
        " ne",
        "den"
      ],
      [
        " or",
        "t"
      ],
      [
        " p",
        "ro"
      ],
      [
        "ü",
        "s"
      ],
      [
        " ",
        "ör"
      ],
      [
        " d",
        "oğ"
      ],
      [
        " d",
        "o"
      ],
      [
        " z",
        "aman"
      ],
      [
        "di",
        "k"
      ],
      [
        " o",
        "n"
      ],
      [
        "g",
        "i"
      ],
      [
        " belir",
        "t"
      ],
      [
        "lar",
        "da"
      ],
      [
        " y",
        "ol"
      ],
      [
        " al",
        "an"
      ],
      [
        " s",
        "al"
      ],
      [
        "'",
        "a"
      ],
      [
        " g",
        "öz"
      ],
      [
        "p",
        "er"
      ],
      [
        " yüz",
        "de"
      ],
      [
        " t",
        "ut"
      ],
      [
        "ların",
        "ın"
      ],
      [
        "o",
        "c"
      ],
      [
        "al",
        "an"
      ],
      [
        "la",
        "t"
      ],
      [
        " s",
        "ır"
      ],
      [
        "ç",
        "e"
      ],
      [
        "T",
        "ürk"
      ],
      [
        "az",
        "et"
      ],
      [
        "ca",
        "ğı"
      ],
      [
        "a",
        "c"
      ],
      [
        " ö",
        "ğr"
      ],
      [
        "i",
        "v"
      ],
      [
        " ma",
        "ç"
      ],
      [
        "ük",
        "s"
      ],
      [
        "iy",
        "i"
      ],
      [
        " H",
        "aber"
      ],
      [
        "A",
        "n"
      ],
      [
        " ç",
        "ek"
      ],
      [
        "t",
        "ar"
      ],
      [
        " a",
        "ma"
      ],
      [
        "g",
        "u"
      ],
      [
        " ş",
        "ek"
      ],
      [
        "u",
        "h"
      ],
      [
        " ön",
        "em"
      ],
      [
        "ün",
        "de"
      ],
      [
        "uşt",
        "ur"
      ],
      [
        " ",
        "U"
      ],
      [
        " ",
        "u"
      ],
      [
        " değ",
        "il"
      ],
      [
        " dev",
        "am"
      ],
      [
        " h",
        "as"
      ],
      [
        "ru",
        "p"
      ],
      [
        "oğ",
        "lu"
      ],
      [
        " taraf",
        "ından"
      ],
      [
        "t",
        "ık"
      ],
      [
        "d",
        "er"
      ],
      [
        "g",
        "üt"
      ],
      [
        " ger",
        "çek"
      ],
      [
        "la",
        "m"
      ],
      [
        " i",
        "h"
      ],
      [
        "i",
        "ç"
      ],
      [
        "st",
        "er"
      ],
      [
        "in",
        "iz"
      ],
      [
        "t",
        "ik"
      ],
      [
        " ar",
        "asında"
      ],
      [
        " o",
        "t"
      ],
      [
        "u",
        "yor"
      ],
      [
        " ",
        "uz"
      ],
      [
        " al",
        "t"
      ],
      [
        " b",
        "iz"
      ],
      [
        " s",
        "ev"
      ],
      [
        "stan",
        "bul"
      ],
      [
        "m",
        "esi"
      ],
      [
        "ün",
        "ü"
      ],
      [
        "le",
        "y"
      ],
      [
        "d",
        "ından"
      ],
      [
        " A",
        "r"
      ],
      [
        " p",
        "oli"
      ],
      [
        "er",
        "b"
      ],
      [
        " A",
        "l"
      ],
      [
        "1",
        "0"
      ],
      [
        " y",
        "az"
      ],
      [
        "b",
        "ir"
      ],
      [
        "c",
        "ü"
      ],
      [
        " yap",
        "ılan"
      ],
      [
        "dı",
        "k"
      ],
      [
        "en",
        "el"
      ],
      [
        " ",
        "'"
      ],
      [
        "ey",
        "i"
      ],
      [
        "ında",
        "ki"
      ],
      [
        "an",
        "s"
      ],
      [
        "ak",
        "an"
      ],
      [
        " gö",
        "ster"
      ],
      [
        " ken",
        "di"
      ],
      [
        "'y",
        "e"
      ],
      [
        "d",
        "oğ"
      ],
      [
        "ar",
        "b"
      ],
      [
        "t",
        "ü"
      ],
      [
        " d",
        "iye"
      ],
      [
        "ler",
        "e"
      ],
      [
        "an",
        "ın"
      ],
      [
        " dur",
        "um"
      ],
      [
        "al",
        "ık"
      ],
      [
        "g",
        "ün"
      ],
      [
        " ar",
        "dından"
      ],
      [
        " i",
        "ki"
      ],
      [
        "1",
        "5"
      ],
      [
        "d",
        "ar"
      ],
      [
        "m",
        "ız"
      ],
      [
        " mil",
        "yon"
      ],
      [
        "ğ",
        "er"
      ],
      [
        " düz",
        "en"
      ],
      [
        " s",
        "aat"
      ],
      [
        " ",
        "Z"
      ],
      [
        " ",
        "l"
      ],
      [
        " k",
        "az"
      ],
      [
        " a",
        "d"
      ],
      [
        "..",
        ".\n"
      ],
      [
        " s",
        "öz"
      ],
      [
        " ilg",
        "ili"
      ],
      [
        "at",
        "ı"
      ],
      [
        " ön",
        "ce"
      ],
      [
        "u",
        "b"
      ],
      [
        "1",
        "9"
      ],
      [
        " ",
        "li"
      ],
      [
        " sal",
        "dır"
      ],
      [
        " baş",
        "k"
      ],
      [
        " b",
        "ek"
      ],
      [
        "lar",
        "ına"
      ],
      [
        "sı",
        "z"
      ],
      [
        "li",
        "ği"
      ],
      [
        "o",
        "b"
      ],
      [
        " ol",
        "ma"
      ],
      [
        "'n",
        "de"
      ],
      [
        "dı",
        "ğını"
      ],
      [
        "ler",
        "inin"
      ],
      [
        " e",
        "den"
      ],
      [
        "eler",
        "i"
      ],
      [
        " s",
        "av"
      ],
      [
        " böl",
        "g"
      ],
      [
        "at",
        "ır"
      ],
      [
        "e",
        "di"
      ],
      [
        " h",
        "ar"
      ],
      [
        " gör",
        "ev"
      ],
      [
        "o",
        "z"
      ],
      [
        "h",
        "an"
      ],
      [
        " ",
        "es"
      ],
      [
        " ör",
        "güt"
      ],
      [
        " bulun",
        "du"
      ],
      [
        " ö",
        "l"
      ],
      [
        "ğ",
        "ü"
      ],
      [
        "et",
        "i"
      ],
      [
        "uşt",
        "u"
      ],
      [
        "us",
        "u"
      ],
      [
        "es",
        "ine"
      ],
      [
        " b",
        "ağ"
      ],
      [
        " önem",
        "li"
      ],
      [
        "at",
        "an"
      ],
      [
        " öz",
        "el"
      ],
      [
        " öğr",
        "en"
      ],
      [
        "ı",
        "p"
      ],
      [
        "s",
        "un"
      ],
      [
        " p",
        "ar"
      ],
      [
        " in",
        "san"
      ],
      [
        " B",
        "aşkanı"
      ],
      [
        "Türk",
        "iye"
      ],
      [
        " y",
        "ok"
      ],
      [
        " gel",
        "en"
      ],
      [
        "u",
        "p"
      ],
      [
        " gü",
        "ven"
      ],
      [
        "iler",
        "i"
      ],
      [
        "ı",
        "la"
      ],
      [
        "r",
        "am"
      ],
      [
        " i",
        "s"
      ],
      [
        "B",
        "ir"
      ],
      [
        " kar",
        "ar"
      ],
      [
        " ",
        "ür"
      ],
      [
        "ü",
        "p"
      ],
      [
        " h",
        "em"
      ],
      [
        " M",
        "ü"
      ],
      [
        "B",
        "D"
      ],
      [
        "E",
        "T"
      ],
      [
        "en",
        "in"
      ],
      [
        " dön",
        "em"
      ],
      [
        " y",
        "et"
      ],
      [
        " oy",
        "un"
      ],
      [
        "erk",
        "ez"
      ],
      [
        "b",
        "ol"
      ],
      [
        "ler",
        "de"
      ],
      [
        "an",
        "k"
      ],
      [
        "oc",
        "uk"
      ],
      [
        " Haber",
        "leri"
      ],
      [
        "n",
        "e"
      ],
      [
        " söyle",
        "di"
      ],
      [
        "'",
        "e"
      ],
      [
        "ler",
        "ine"
      ],
      [
        " de",
        "n"
      ],
      [
        "iy",
        "as"
      ],
      [
        " h",
        "af"
      ],
      [
        " s",
        "an"
      ],
      [
        "ek",
        "t"
      ],
      [
        " de",
        "st"
      ],
      [
        " i",
        "z"
      ],
      [
        " C",
        "umhur"
      ],
      [
        " B",
        "ak"
      ],
      [
        "leş",
        "tir"
      ],
      [
        "iş",
        "im"
      ],
      [
        "doğ",
        "an"
      ],
      [
        " Ö",
        "z"
      ],
      [
        "d",
        "ur"
      ],
      [
        "r",
        "ı"
      ],
      [
        "il",
        "iyor"
      ],
      [
        " değ",
        "er"
      ],
      [
        "n",
        "ı"
      ],
      [
        "az",
        "ı"
      ],
      [
        " bir",
        "lik"
      ],
      [
        "r",
        "af"
      ],
      [
        " d",
        "uy"
      ],
      [
        "ar",
        "et"
      ],
      [
        " iç",
        "inde"
      ],
      [
        "r",
        "ak"
      ],
      [
        "c",
        "el"
      ],
      [
        "es",
        "ini"
      ],
      [
        " y",
        "üks"
      ],
      [
        " ",
        "iyi"
      ],
      [
        "len",
        "dir"
      ],
      [
        "ik",
        "a"
      ],
      [
        "ul",
        "u"
      ],
      [
        " yap",
        "tığı"
      ],
      [
        " f",
        "ark"
      ],
      [
        " s",
        "ay"
      ],
      [
        " b",
        "en"
      ],
      [
        " tar",
        "ih"
      ],
      [
        "s",
        "iz"
      ],
      [
        " ",
        "Ü"
      ],
      [
        " k",
        "am"
      ],
      [
        "per",
        "asyon"
      ],
      [
        "ma",
        "z"
      ],
      [
        " hay",
        "at"
      ],
      [
        "!",
        "\n"
      ],
      [
        " d",
        "er"
      ],
      [
        " k",
        "or"
      ],
      [
        "aş",
        "ı"
      ],
      [
        " t",
        "em"
      ],
      [
        " S",
        "ur"
      ],
      [
        " A",
        "v"
      ],
      [
        " A",
        "k"
      ],
      [
        " b",
        "ak"
      ],
      [
        "'",
        "un"
      ],
      [
        " b",
        "as"
      ],
      [
        " d",
        "ış"
      ],
      [
        " k",
        "o"
      ],
      [
        "de",
        "t"
      ],
      [
        "t",
        "ür"
      ],
      [
        "lar",
        "ında"
      ],
      [
        " K",
        "ur"
      ],
      [
        " ed",
        "iyor"
      ],
      [
        " o",
        "lay"
      ],
      [
        " gel",
        "di"
      ],
      [
        "'",
        "ya"
      ],
      [
        "il",
        "ecek"
      ],
      [
        " ş",
        "eh"
      ],
      [
        "da",
        "ş"
      ],
      [
        " o",
        "k"
      ],
      [
        "iy",
        "at"
      ],
      [
        "lay",
        "an"
      ],
      [
        " v",
        "ur"
      ],
      [
        "ü",
        "yor"
      ],
      [
        "iler",
        "in"
      ],
      [
        " ",
        "I"
      ],
      [
        " il",
        "iş"
      ],
      [
        "'",
        "dan"
      ],
      [
        " oy",
        "n"
      ],
      [
        " y",
        "ay"
      ],
      [
        " a",
        "z"
      ],
      [
        " e",
        "de"
      ],
      [
        "ca",
        "de"
      ],
      [
        " İ",
        "stanbul"
      ],
      [
        "il",
        "de"
      ],
      [
        "ler",
        "inde"
      ],
      [
        "a",
        "ğı"
      ],
      [
        " h",
        "aber"
      ],
      [
        "i",
        "g"
      ],
      [
        " kiş",
        "i"
      ],
      [
        "d",
        "di"
      ],
      [
        "ek",
        "i"
      ],
      [
        " z",
        "or"
      ],
      [
        " gör",
        "üş"
      ],
      [
        " ed",
        "ildi"
      ],
      [
        "la",
        "h"
      ],
      [
        " çık",
        "ar"
      ],
      [
        " t",
        "es"
      ],
      [
        " ",
        "J"
      ],
      [
        "t",
        "aş"
      ],
      [
        "as",
        "ar"
      ],
      [
        " gü",
        "ç"
      ],
      [
        " a",
        "da"
      ],
      [
        " h",
        "az"
      ],
      [
        "lar",
        "la"
      ],
      [
        " bulun",
        "an"
      ],
      [
        " i",
        "m"
      ],
      [
        "ıl",
        "ık"
      ],
      [
        "ey",
        "en"
      ],
      [
        " k",
        "im"
      ],
      [
        " a",
        "ğ"
      ],
      [
        "al",
        "i"
      ],
      [
        " tak",
        "ım"
      ],
      [
        "ı",
        "sı"
      ],
      [
        " k",
        "i"
      ],
      [
        "ET",
        "Ö"
      ],
      [
        "es",
        "inin"
      ],
      [
        "\"",
        "."
      ],
      [
        "il",
        "e"
      ],
      [
        "em",
        "e"
      ],
      [
        "'",
        "den"
      ],
      [
        " kon",
        "uş"
      ],
      [
        " e",
        "ş"
      ],
      [
        "ül",
        "en"
      ],
      [
        " açık",
        "lama"
      ],
      [
        " t",
        "üm"
      ],
      [
        " üzer",
        "ine"
      ],
      [
        "iş",
        "tir"
      ],
      [
        " m",
        "es"
      ],
      [
        " B",
        "aş"
      ],
      [
        " poli",
        "s"
      ],
      [
        " d",
        "ik"
      ],
      [
        "b",
        "et"
      ],
      [
        " o",
        "perasyon"
      ],
      [
        " s",
        "at"
      ],
      [
        " bil",
        "g"
      ],
      [
        " ş",
        "ey"
      ],
      [
        " l",
        "ir"
      ],
      [
        " ar",
        "k"
      ],
      [
        "az",
        "la"
      ],
      [
        " ç",
        "ocuk"
      ],
      [
        "anlı",
        "ğı"
      ],
      [
        " şek",
        "ilde"
      ],
      [
        "k",
        "et"
      ],
      [
        " hak",
        "k"
      ],
      [
        " h",
        "av"
      ],
      [
        "ğ",
        "imiz"
      ],
      [
        "mas",
        "ına"
      ],
      [
        "mas",
        "ını"
      ],
      [
        "u",
        "v"
      ],
      [
        "rup",
        "a"
      ],
      [
        " birlik",
        "te"
      ],
      [
        "m",
        "eye"
      ],
      [
        " c",
        "ez"
      ],
      [
        " k",
        "es"
      ],
      [
        "on",
        "om"
      ],
      [
        "ut",
        "bol"
      ],
      [
        "lar",
        "dan"
      ],
      [
        "an",
        "an"
      ],
      [
        " G",
        "azet"
      ],
      [
        "ün",
        "e"
      ],
      [
        " s",
        "er"
      ],
      [
        " da",
        "v"
      ],
      [
        "i",
        "ğer"
      ],
      [
        " s",
        "eç"
      ],
      [
        " ver",
        "di"
      ],
      [
        " f",
        "azla"
      ],
      [
        " haz",
        "ır"
      ],
      [
        "o",
        "v"
      ],
      [
        "ekt",
        "ör"
      ],
      [
        "ğ",
        "it"
      ],
      [
        " ü",
        "st"
      ],
      [
        " M",
        "ah"
      ],
      [
        " g",
        "en"
      ],
      [
        " v",
        "atan"
      ],
      [
        "s",
        "el"
      ],
      [
        "il",
        "ik"
      ],
      [
        " g",
        "it"
      ],
      [
        " h",
        "iç"
      ],
      [
        " ",
        "em"
      ],
      [
        "B",
        "iz"
      ],
      [
        " Mü",
        "dür"
      ],
      [
        "k",
        "at"
      ],
      [
        " geç",
        "ir"
      ],
      [
        " u",
        "laş"
      ],
      [
        " dest",
        "ek"
      ],
      [
        "m",
        "ir"
      ],
      [
        "al",
        "at"
      ],
      [
        " k",
        "an"
      ],
      [
        "iy",
        "on"
      ],
      [
        " ola",
        "cak"
      ],
      [
        " kon",
        "uştu"
      ],
      [
        " ol",
        "mak"
      ],
      [
        " y",
        "ür"
      ],
      [
        "ist",
        "em"
      ],
      [
        "i",
        "de"
      ],
      [
        " mü",
        "cade"
      ],
      [
        "'n",
        "un"
      ],
      [
        "b",
        "ar"
      ],
      [
        " yap",
        "tı"
      ],
      [
        " ön",
        "c"
      ],
      [
        "1",
        "2"
      ],
      [
        " k",
        "aç"
      ],
      [
        "3",
        "0"
      ],
      [
        " Er",
        "doğan"
      ],
      [
        "ol",
        "o"
      ],
      [
        "li",
        "ğ"
      ],
      [
        " as",
        "k"
      ],
      [
        "ı",
        "cı"
      ],
      [
        " t",
        "el"
      ],
      [
        " Gazet",
        "esi"
      ],
      [
        " t",
        "ama"
      ],
      [
        " ay",
        "nı"
      ],
      [
        "ade",
        "ce"
      ],
      [
        "lan",
        "an"
      ],
      [
        " yap",
        "ıl"
      ],
      [
        "y",
        "an"
      ],
      [
        " ek",
        "ip"
      ],
      [
        " s",
        "ayı"
      ],
      [
        " b",
        "ır"
      ],
      [
        "len",
        "en"
      ],
      [
        "K",
        "K"
      ],
      [
        "r",
        "et"
      ],
      [
        "ah",
        "çe"
      ],
      [
        "us",
        "unda"
      ],
      [
        "ilm",
        "esi"
      ],
      [
        " ar",
        "t"
      ],
      [
        "al",
        "t"
      ],
      [
        " k",
        "ö"
      ],
      [
        "ağ",
        "ını"
      ],
      [
        "ul",
        "an"
      ],
      [
        " d",
        "arb"
      ],
      [
        "k",
        "an"
      ],
      [
        "t",
        "al"
      ],
      [
        "lan",
        "dı"
      ],
      [
        "es",
        "t"
      ],
      [
        "inde",
        "ki"
      ],
      [
        " i",
        "ddi"
      ],
      [
        " s",
        "uç"
      ],
      [
        "os",
        "y"
      ],
      [
        "l",
        "uk"
      ],
      [
        " sah",
        "ip"
      ],
      [
        " saldır",
        "ı"
      ],
      [
        " kaz",
        "an"
      ],
      [
        " y",
        "a"
      ],
      [
        "lik",
        "le"
      ],
      [
        " dik",
        "kat"
      ],
      [
        "s",
        "am"
      ],
      [
        "ğit",
        "im"
      ],
      [
        " İ",
        "s"
      ],
      [
        " har",
        "ek"
      ],
      [
        " k",
        "ab"
      ],
      [
        " bu",
        "gün"
      ],
      [
        " bır",
        "ak"
      ],
      [
        " t",
        "e"
      ],
      [
        "'",
        "te"
      ],
      [
        "mış",
        "tı"
      ],
      [
        " b",
        "ur"
      ],
      [
        " s",
        "ık"
      ],
      [
        " f",
        "a"
      ],
      [
        "il",
        "ah"
      ],
      [
        "ede",
        "f"
      ],
      [
        " m",
        "uh"
      ],
      [
        " da",
        "k"
      ],
      [
        "ım",
        "ı"
      ],
      [
        "A",
        "R"
      ],
      [
        "il",
        "ece"
      ],
      [
        "k",
        "ara"
      ],
      [
        " g",
        "ön"
      ],
      [
        "alar",
        "ı"
      ],
      [
        "g",
        "an"
      ],
      [
        " vatan",
        "daş"
      ],
      [
        " ve",
        "ya"
      ],
      [
        " kon",
        "u"
      ],
      [
        "20",
        "0"
      ],
      [
        " P",
        "ar"
      ],
      [
        " neden",
        "iyle"
      ],
      [
        " A",
        "BD"
      ],
      [
        "h",
        "al"
      ],
      [
        "k",
        "ü"
      ],
      [
        " yap",
        "an"
      ],
      [
        "lı",
        "ğı"
      ],
      [
        "'",
        "ta"
      ],
      [
        "olo",
        "j"
      ],
      [
        ")",
        ","
      ],
      [
        " ort",
        "aya"
      ],
      [
        "ol",
        "u"
      ],
      [
        "lan",
        "tı"
      ],
      [
        "1",
        "1"
      ],
      [
        "m",
        "i"
      ],
      [
        " d",
        "iğer"
      ],
      [
        " s",
        "istem"
      ],
      [
        " yak",
        "ın"
      ],
      [
        " Sur",
        "iye"
      ],
      [
        "eş",
        "ik"
      ],
      [
        " k",
        "ıs"
      ],
      [
        " üzer",
        "e"
      ],
      [
        "b",
        "aşkanı"
      ],
      [
        " k",
        "ez"
      ],
      [
        "k",
        "il"
      ],
      [
        " çık",
        "tı"
      ],
      [
        " k",
        "r"
      ],
      [
        "A",
        "N"
      ],
      [
        "en",
        "erb"
      ],
      [
        "'n",
        "da"
      ],
      [
        " yar",
        "dım"
      ],
      [
        " G",
        "enel"
      ],
      [
        "a",
        "cağı"
      ],
      [
        "iyor",
        "uz"
      ],
      [
        "m",
        "er"
      ],
      [
        " Av",
        "rupa"
      ],
      [
        " İ",
        "l"
      ],
      [
        "eşik",
        "taş"
      ],
      [
        " ",
        "uç"
      ],
      [
        "malar",
        "ı"
      ],
      [
        " açık",
        "la"
      ],
      [
        "lar",
        "ımız"
      ],
      [
        " h",
        "edef"
      ],
      [
        " ş",
        "u"
      ],
      [
        " tek",
        "n"
      ],
      [
        " ",
        "aş"
      ],
      [
        " ş",
        "ir"
      ],
      [
        " baş",
        "ladı"
      ],
      [
        "m",
        "uz"
      ],
      [
        " T",
        "L"
      ],
      [
        "m",
        "eler"
      ],
      [
        "as",
        "ıl"
      ],
      [
        "ını",
        "z"
      ],
      [
        "us",
        "ya"
      ],
      [
        "üt",
        "ün"
      ],
      [
        "B",
        "en"
      ],
      [
        " gerçek",
        "leştir"
      ],
      [
        "A",
        "y"
      ],
      [
        " ",
        "üy"
      ],
      [
        " dev",
        "let"
      ],
      [
        " Y",
        "ıl"
      ],
      [
        "im",
        "i"
      ],
      [
        "man",
        "ın"
      ],
      [
        " ed",
        "ilen"
      ],
      [
        "b",
        "ilir"
      ],
      [
        "em",
        "iz"
      ],
      [
        " B",
        "el"
      ],
      [
        " f",
        "utbol"
      ],
      [
        " m",
        "erkez"
      ],
      [
        " A",
        "y"
      ],
      [
        " is",
        "im"
      ],
      [
        " yak",
        "laş"
      ],
      [
        "A",
        "l"
      ],
      [
        "in",
        "g"
      ],
      [
        "enerb",
        "ahçe"
      ],
      [
        "r",
        "i"
      ],
      [
        " geç",
        "en"
      ],
      [
        "may",
        "ı"
      ],
      [
        " G",
        "ün"
      ],
      [
        " iç",
        "er"
      ],
      [
        " y",
        "atır"
      ],
      [
        "ö",
        "k"
      ],
      [
        "ur",
        "t"
      ],
      [
        "ların",
        "dan"
      ],
      [
        "g",
        "ı"
      ],
      [
        "e",
        "ğ"
      ],
      [
        " ol",
        "ur"
      ],
      [
        " kap",
        "sam"
      ],
      [
        "y",
        "ar"
      ],
      [
        " y",
        "as"
      ],
      [
        "ük",
        "üm"
      ],
      [
        " s",
        "adece"
      ],
      [
        ":",
        "\n"
      ],
      [
        " mil",
        "let"
      ],
      [
        "An",
        "cak"
      ],
      [
        " yön",
        "elik"
      ],
      [
        "ç",
        "ı"
      ],
      [
        "asar",
        "ay"
      ],
      [
        " b",
        "azı"
      ],
      [
        "alat",
        "asaray"
      ],
      [
        "ez",
        "on"
      ],
      [
        "l",
        "ak"
      ],
      [
        " s",
        "ı"
      ],
      [
        "un",
        "dan"
      ],
      [
        " doğ",
        "ru"
      ],
      [
        " p",
        "ay"
      ],
      [
        " al",
        "dı"
      ],
      [
        " T",
        "em"
      ],
      [
        "5",
        "0"
      ],
      [
        "ün",
        "ün"
      ],
      [
        " ",
        "er"
      ],
      [
        " ken",
        "d"
      ],
      [
        " kal",
        "dır"
      ],
      [
        "on",
        "s"
      ],
      [
        " O",
        "r"
      ],
      [
        " İ",
        "n"
      ],
      [
        " kad",
        "ın"
      ],
      [
        " s",
        "iyas"
      ],
      [
        "ç",
        "i"
      ],
      [
        " tut",
        "uk"
      ],
      [
        "g",
        "il"
      ],
      [
        " has",
        "t"
      ],
      [
        "ok",
        "t"
      ],
      [
        "y",
        "ı"
      ],
      [
        "lü",
        "ğü"
      ],
      [
        "n",
        "iyet"
      ],
      [
        "ay",
        "an"
      ],
      [
        " pro",
        "j"
      ],
      [
        " son",
        "u"
      ],
      [
        "o",
        "ş"
      ],
      [
        "l",
        "ük"
      ],
      [
        " tama",
        "m"
      ],
      [
        " ar",
        "aç"
      ],
      [
        " K",
        "ar"
      ],
      [
        "S",
        "on"
      ],
      [
        "ğ",
        "ın"
      ],
      [
        "osy",
        "al"
      ],
      [
        " ü",
        "ç"
      ],
      [
        "'da",
        "ki"
      ],
      [
        " gün",
        "ü"
      ],
      [
        "ıl",
        "ması"
      ],
      [
        "'",
        "i"
      ],
      [
        "an",
        "a"
      ],
      [
        "eh",
        "ir"
      ],
      [
        "me",
        "di"
      ],
      [
        " E",
        "m"
      ],
      [
        " F",
        "ETÖ"
      ],
      [
        " son",
        "r"
      ],
      [
        " t",
        "ab"
      ],
      [
        "e",
        "den"
      ],
      [
        " p",
        "lan"
      ],
      [
        "da",
        "ki"
      ],
      [
        " gön",
        "der"
      ],
      [
        "g",
        "el"
      ],
      [
        "1",
        "4"
      ],
      [
        " haf",
        "ta"
      ],
      [
        " b",
        "oy"
      ],
      [
        " bil",
        "dir"
      ],
      [
        " g",
        "ol"
      ],
      [
        "ab",
        "ilir"
      ],
      [
        "E",
        "R"
      ],
      [
        "n",
        "ak"
      ],
      [
        " P",
        "KK"
      ],
      [
        "om",
        "b"
      ],
      [
        "mas",
        "ının"
      ],
      [
        "v",
        "et"
      ],
      [
        " gör",
        "ün"
      ],
      [
        "aşk",
        "an"
      ],
      [
        "ler",
        "den"
      ],
      [
        "da",
        "v"
      ],
      [
        "ler",
        "inden"
      ],
      [
        "ü",
        "b"
      ],
      [
        " düş",
        "ün"
      ],
      [
        "ada",
        "ş"
      ],
      [
        "v",
        "an"
      ],
      [
        "is",
        "inde"
      ],
      [
        " i",
        "k"
      ],
      [
        " yer",
        "ine"
      ],
      [
        "'n",
        "e"
      ],
      [
        " uy",
        "gu"
      ],
      [
        "ec",
        "i"
      ],
      [
        ".",
        ".\n"
      ],
      [
        "en",
        "iz"
      ],
      [
        " ih",
        "t"
      ],
      [
        "\"",
        "ın"
      ],
      [
        "1",
        "6"
      ],
      [
        "as",
        "ına"
      ],
      [
        " gir",
        "işim"
      ],
      [
        "u",
        "st"
      ],
      [
        "iv",
        "ers"
      ],
      [
        " üzer",
        "inde"
      ],
      [
        " değer",
        "lendir"
      ],
      [
        " do",
        "lar"
      ],
      [
        "k",
        "ı"
      ],
      [
        "iyor",
        "um"
      ],
      [
        " b",
        "it"
      ],
      [
        "ivers",
        "it"
      ],
      [
        "A",
        "r"
      ],
      [
        "ah",
        "at"
      ],
      [
        " güven",
        "lik"
      ],
      [
        " uy",
        "g"
      ],
      [
        " s",
        "ilah"
      ],
      [
        "c",
        "ek"
      ],
      [
        "'de",
        "ki"
      ],
      [
        "m",
        "uş"
      ],
      [
        " terör",
        "ist"
      ],
      [
        " dün",
        "y"
      ],
      [
        " ay",
        "r"
      ],
      [
        "g",
        "ram"
      ],
      [
        "en",
        "di"
      ],
      [
        "ok",
        "r"
      ],
      [
        "iz",
        "met"
      ],
      [
        " n",
        "asıl"
      ],
      [
        " g",
        "id"
      ],
      [
        " t",
        "ah"
      ],
      [
        "ler",
        "le"
      ],
      [
        " m",
        "ey"
      ],
      [
        " yıl",
        "ında"
      ],
      [
        "iz",
        "e"
      ],
      [
        "de",
        "ki"
      ],
      [
        " lir",
        "a"
      ],
      [
        " harek",
        "et"
      ],
      [
        " yön",
        "etim"
      ],
      [
        " d",
        "iy"
      ],
      [
        " ş",
        "öyle"
      ],
      [
        "üp",
        "h"
      ],
      [
        " il",
        "ç"
      ],
      [
        " mil",
        "yar"
      ],
      [
        " hakk",
        "ında"
      ],
      [
        "1",
        "8"
      ],
      [
        "la",
        "s"
      ],
      [
        " şir",
        "ket"
      ],
      [
        " p",
        "at"
      ],
      [
        " s",
        "ezon"
      ],
      [
        "p",
        "r"
      ],
      [
        " sür",
        "e"
      ],
      [
        " k",
        "ız"
      ],
      [
        " h",
        "at"
      ],
      [
        " g",
        "azet"
      ],
      [
        "b",
        "akan"
      ],
      [
        " M",
        "il"
      ],
      [
        "iler",
        "e"
      ],
      [
        "tr",
        "ol"
      ],
      [
        " an",
        "laş"
      ],
      [
        "ın",
        "ır"
      ],
      [
        " s",
        "en"
      ],
      [
        " k",
        "il"
      ],
      [
        " k",
        "ır"
      ],
      [
        "dan",
        "a"
      ],
      [
        "or",
        "m"
      ],
      [
        " yüks",
        "ek"
      ],
      [
        " t",
        "al"
      ],
      [
        " iş",
        "lem"
      ],
      [
        " S",
        "por"
      ],
      [
        "ece",
        "ğ"
      ],
      [
        "H",
        "P"
      ],
      [
        "ıla",
        "cak"
      ],
      [
        " ç",
        "ev"
      ],
      [
        " y",
        "anı"
      ],
      [
        "aş",
        "tır"
      ],
      [
        "1",
        "7"
      ],
      [
        " kur",
        "ul"
      ],
      [
        " değ",
        "iş"
      ],
      [
        "r",
        "ar"
      ],
      [
        "m",
        "alı"
      ],
      [
        "s",
        "ini"
      ],
      [
        "al",
        "l"
      ],
      [
        " m",
        "ut"
      ],
      [
        " kon",
        "usunda"
      ],
      [
        "ist",
        "an"
      ],
      [
        "\"",
        "n"
      ],
      [
        "A",
        "ma"
      ],
      [
        "kin",
        "ci"
      ],
      [
        "le",
        "me"
      ],
      [
        "un",
        "ları"
      ],
      [
        " dün",
        "ya"
      ],
      [
        " oyun",
        "cu"
      ],
      [
        " bil",
        "e"
      ],
      [
        "is",
        "yon"
      ],
      [
        "may",
        "an"
      ],
      [
        "am",
        "p"
      ],
      [
        " ",
        "W"
      ],
      [
        "2",
        "5"
      ],
      [
        "ev",
        "let"
      ],
      [
        " Tem",
        "muz"
      ],
      [
        "eh",
        "met"
      ],
      [
        "g",
        "e"
      ],
      [
        " an",
        "cak"
      ],
      [
        " bir",
        "i"
      ],
      [
        " yatır",
        "ım"
      ],
      [
        "ü",
        "ç"
      ],
      [
        " fark",
        "lı"
      ],
      [
        "eb",
        "ilir"
      ],
      [
        " B",
        "ir"
      ],
      [
        " te",
        "dav"
      ],
      [
        " H",
        "as"
      ],
      [
        "ilm",
        "iş"
      ],
      [
        "la",
        "ya"
      ],
      [
        "ün",
        "ya"
      ],
      [
        " Cumhur",
        "iyet"
      ],
      [
        "ğ",
        "a"
      ],
      [
        " Ş",
        "ub"
      ],
      [
        " yay",
        "ın"
      ],
      [
        " et",
        "m"
      ],
      [
        " açıklama",
        "da"
      ],
      [
        "1",
        "3"
      ],
      [
        " kon",
        "trol"
      ],
      [
        " m",
        "et"
      ],
      [
        "u",
        "ma"
      ],
      [
        "al",
        "iyet"
      ],
      [
        " yaş",
        "ındaki"
      ],
      [
        " h",
        "ız"
      ],
      [
        " ol",
        "ması"
      ],
      [
        " ark",
        "adaş"
      ],
      [
        " pay",
        "laş"
      ],
      [
        "İ",
        "n"
      ],
      [
        " kab",
        "ul"
      ],
      [
        " sor",
        "uştur"
      ],
      [
        "az",
        "ar"
      ],
      [
        "k",
        "em"
      ],
      [
        " ma",
        "h"
      ],
      [
        "a",
        "j"
      ],
      [
        "ül",
        "dü"
      ],
      [
        "ıs",
        "ında"
      ],
      [
        "iz",
        "i"
      ],
      [
        " t",
        "an"
      ],
      [
        "le",
        "di"
      ],
      [
        "ef",
        "on"
      ],
      [
        "üz",
        "el"
      ],
      [
        " darb",
        "e"
      ],
      [
        " ",
        "ey"
      ],
      [
        "üm",
        "üz"
      ],
      [
        "rı",
        "ca"
      ],
      [
        " t",
        "ur"
      ],
      [
        " yön",
        "et"
      ],
      [
        "m",
        "in"
      ],
      [
        " S",
        "öz"
      ],
      [
        "alt",
        "ına"
      ],
      [
        " i",
        "ti"
      ],
      [
        " mücade",
        "le"
      ],
      [
        " sağ",
        "lık"
      ],
      [
        "af",
        "a"
      ],
      [
        " ek",
        "onom"
      ],
      [
        "l",
        "k"
      ],
      [
        "..",
        "."
      ],
      [
        "İ",
        "ş"
      ],
      [
        " b",
        "öyle"
      ],
      [
        " gel",
        "iş"
      ],
      [
        " g",
        "enel"
      ],
      [
        " h",
        "izmet"
      ],
      [
        "et",
        "in"
      ],
      [
        "t",
        "in"
      ],
      [
        " kat",
        "ıl"
      ],
      [
        "ti",
        "ği"
      ],
      [
        "mek",
        "te"
      ],
      [
        " başk",
        "a"
      ],
      [
        "'y",
        "i"
      ],
      [
        "l",
        "um"
      ],
      [
        " ol",
        "uştur"
      ],
      [
        " An",
        "kara"
      ],
      [
        " e",
        "ğitim"
      ],
      [
        " böl",
        "üm"
      ],
      [
        "ler",
        "imiz"
      ],
      [
        "len",
        "di"
      ],
      [
        "du",
        "ğu"
      ],
      [
        " Ü",
        "n"
      ],
      [
        " ağ",
        "ır"
      ],
      [
        "f",
        "er"
      ],
      [
        " şeh",
        "it"
      ],
      [
        " iliş",
        "kin"
      ],
      [
        " ask",
        "er"
      ],
      [
        "miş",
        "ti"
      ],
      [
        "ğ",
        "unu"
      ],
      [
        "ç",
        "a"
      ],
      [
        "r",
        "ab"
      ],
      [
        "v",
        "er"
      ],
      [
        " b",
        "ütün"
      ],
      [
        " h",
        "es"
      ],
      [
        "üs",
        "ü"
      ],
      [
        " uz",
        "un"
      ],
      [
        " es",
        "ki"
      ],
      [
        "t",
        "u"
      ],
      [
        "s",
        "uz"
      ],
      [
        "de",
        "m"
      ],
      [
        " b",
        "ab"
      ],
      [
        " Bak",
        "anı"
      ],
      [
        "ç",
        "ok"
      ],
      [
        " f",
        "ilm"
      ],
      [
        "oğ",
        "un"
      ],
      [
        "A",
        "K"
      ],
      [
        " s",
        "ınır"
      ],
      [
        " m",
        "o"
      ],
      [
        "oğ",
        "raf"
      ],
      [
        " ş",
        "üph"
      ],
      [
        " m",
        "i"
      ],
      [
        "g",
        "in"
      ],
      [
        "ş",
        "am"
      ],
      [
        " b",
        "omb"
      ],
      [
        "ar",
        "i"
      ],
      [
        " t",
        "eş"
      ],
      [
        " oldu",
        "k"
      ],
      [
        " top",
        "lantı"
      ],
      [
        "alar",
        "ında"
      ],
      [
        " kapsam",
        "ında"
      ],
      [
        "ar",
        "ası"
      ],
      [
        " tel",
        "efon"
      ],
      [
        " t",
        "ür"
      ],
      [
        " Bel",
        "ed"
      ],
      [
        "im",
        "di"
      ],
      [
        " ",
        "ün"
      ],
      [
        " t",
        "eh"
      ],
      [
        "ti",
        "ğini"
      ],
      [
        "er",
        "ör"
      ],
      [
        "t",
        "ak"
      ],
      [
        "ır",
        "ken"
      ],
      [
        " b",
        "er"
      ],
      [
        "ak",
        "at"
      ],
      [
        " h",
        "ep"
      ],
      [
        " m",
        "ed"
      ],
      [
        " M",
        "ehmet"
      ],
      [
        " r",
        "ağ"
      ],
      [
        "es",
        "iyle"
      ],
      [
        "B",
        "ur"
      ],
      [
        "uy",
        "la"
      ],
      [
        " y",
        "ağ"
      ],
      [
        " b",
        "üy"
      ],
      [
        " hal",
        "k"
      ],
      [
        " çalış",
        "an"
      ],
      [
        "a",
        "cı"
      ],
      [
        "c",
        "an"
      ],
      [
        " E",
        "k"
      ],
      [
        "al",
        "a"
      ],
      [
        " ülk",
        "eler"
      ],
      [
        " bulundu",
        "ğu"
      ],
      [
        " yüks",
        "el"
      ],
      [
        " kay",
        "bet"
      ],
      [
        " göz",
        "altına"
      ],
      [
        " rağ",
        "men"
      ],
      [
        "ış",
        "ma"
      ],
      [
        "'n",
        "a"
      ],
      [
        " r",
        "ak"
      ],
      [
        "d",
        "in"
      ],
      [
        " belir",
        "ten"
      ],
      [
        "en",
        "s"
      ],
      [
        " k",
        "oy"
      ],
      [
        " d",
        "ir"
      ],
      [
        "ış",
        "ı"
      ],
      [
        "'",
        "ı"
      ],
      [
        " y",
        "en"
      ],
      [
        "li",
        "m"
      ],
      [
        "as",
        "ını"
      ],
      [
        " et",
        "ki"
      ],
      [
        " s",
        "eb"
      ],
      [
        " çalış",
        "malar"
      ],
      [
        "te",
        "p"
      ],
      [
        " K",
        "om"
      ],
      [
        "de",
        "ş"
      ],
      [
        "c",
        "ağını"
      ],
      [
        "n",
        "et"
      ],
      [
        " D",
        "em"
      ],
      [
        "m",
        "ez"
      ],
      [
        "v",
        "ek"
      ],
      [
        " s",
        "u"
      ],
      [
        "s",
        "ine"
      ],
      [
        " çık",
        "an"
      ],
      [
        " Par",
        "ti"
      ],
      [
        "v",
        "ur"
      ],
      [
        " has",
        "tan"
      ],
      [
        " s",
        "ok"
      ],
      [
        " yaş",
        "a"
      ],
      [
        " alın",
        "an"
      ],
      [
        " kiş",
        "inin"
      ],
      [
        " Mah",
        "all"
      ],
      [
        "ü",
        "c"
      ],
      [
        "anı",
        "z"
      ],
      [
        "an",
        "i"
      ],
      [
        " sür",
        "dür"
      ],
      [
        " Müdür",
        "lüğü"
      ],
      [
        " a",
        "it"
      ],
      [
        "E",
        "r"
      ],
      [
        " örgüt",
        "ü"
      ],
      [
        " tes",
        "p"
      ],
      [
        "ek",
        "li"
      ],
      [
        "ğ",
        "ında"
      ],
      [
        " ç",
        "öz"
      ],
      [
        " a",
        "il"
      ],
      [
        "es",
        "in"
      ],
      [
        " dak",
        "ik"
      ],
      [
        "ün",
        "kü"
      ],
      [
        " kar",
        "arı"
      ],
      [
        " ",
        "la"
      ],
      [
        "s",
        "iniz"
      ],
      [
        " gen",
        "ç"
      ],
      [
        " R",
        "usya"
      ],
      [
        "us",
        "lar"
      ],
      [
        "m",
        "ı"
      ],
      [
        " or",
        "ta"
      ],
      [
        "ah",
        "a"
      ],
      [
        "ları",
        "yla"
      ],
      [
        " f",
        "iyat"
      ],
      [
        " et",
        "k"
      ],
      [
        " z",
        "iy"
      ],
      [
        "er",
        "j"
      ],
      [
        "B",
        "aş"
      ],
      [
        " karşı",
        "laş"
      ],
      [
        "O",
        "n"
      ],
      [
        "s",
        "al"
      ],
      [
        " h",
        "üküm"
      ],
      [
        "ob",
        "il"
      ],
      [
        " m",
        "ev"
      ],
      [
        " f",
        "in"
      ],
      [
        " ist",
        "edi"
      ],
      [
        " yaklaş",
        "ık"
      ],
      [
        "um",
        "u"
      ],
      [
        " t",
        "aş"
      ],
      [
        "az",
        "i"
      ],
      [
        "ül",
        "t"
      ],
      [
        "y",
        "en"
      ],
      [
        " s",
        "un"
      ],
      [
        " baş",
        "ar"
      ],
      [
        " gel",
        "ir"
      ],
      [
        "s",
        "in"
      ],
      [
        " m",
        "ı"
      ],
      [
        " s",
        "ektör"
      ],
      [
        " ç",
        "ağ"
      ],
      [
        " baş",
        "lat"
      ],
      [
        "f",
        "a"
      ],
      [
        " etti",
        "ği"
      ],
      [
        "dır",
        "ım"
      ],
      [
        " son",
        "uç"
      ],
      [
        " sav",
        "aş"
      ],
      [
        "l",
        "o"
      ],
      [
        "ı",
        "t"
      ],
      [
        " ol",
        "uş"
      ],
      [
        " ma",
        "d"
      ],
      [
        " öl",
        "dür"
      ],
      [
        "ay",
        "et"
      ],
      [
        " an",
        "la"
      ],
      [
        "t",
        "ay"
      ],
      [
        " t",
        "aşı"
      ],
      [
        " bağ",
        "lı"
      ],
      [
        "um",
        "uz"
      ],
      [
        "d",
        "ül"
      ],
      [
        " bek",
        "len"
      ],
      [
        " Mahall",
        "esi"
      ],
      [
        " B",
        "eşiktaş"
      ],
      [
        " s",
        "ab"
      ],
      [
        " Y",
        "ar"
      ],
      [
        " kon",
        "usu"
      ],
      [
        " K",
        "on"
      ],
      [
        " an",
        "lat"
      ],
      [
        "C",
        "umhur"
      ],
      [
        "E",
        "n"
      ],
      [
        " b",
        "ar"
      ],
      [
        " hiç",
        "bir"
      ],
      [
        "i",
        "ci"
      ],
      [
        "İ",
        "stanbul"
      ],
      [
        " et",
        "mek"
      ],
      [
        "ma",
        "dı"
      ],
      [
        " yaş",
        "an"
      ],
      [
        " t",
        "ep"
      ],
      [
        " al",
        "dığı"
      ],
      [
        " alt",
        "ında"
      ],
      [
        "s",
        "il"
      ],
      [
        "ley",
        "en"
      ],
      [
        " yar",
        "alan"
      ],
      [
        " de",
        "m"
      ],
      [
        " baş",
        "vur"
      ],
      [
        "es",
        "el"
      ],
      [
        " cez",
        "a"
      ],
      [
        " tesp",
        "it"
      ],
      [
        " m",
        "em"
      ],
      [
        "al",
        "et"
      ],
      [
        "e",
        "ği"
      ],
      [
        " k",
        "om"
      ],
      [
        " in",
        "cel"
      ],
      [
        "cı",
        "sı"
      ],
      [
        "ey",
        "in"
      ],
      [
        " Al",
        "man"
      ],
      [
        " i",
        "kinci"
      ],
      [
        "ılı",
        "ğı"
      ],
      [
        " hav",
        "a"
      ],
      [
        "ğ",
        "ına"
      ],
      [
        " p",
        "u"
      ],
      [
        " s",
        "osyal"
      ],
      [
        "en",
        "k"
      ],
      [
        " E",
        "n"
      ],
      [
        " yür",
        "üt"
      ],
      [
        " pro",
        "gram"
      ],
      [
        "mas",
        "ında"
      ],
      [
        "em",
        "ek"
      ],
      [
        " a",
        "m"
      ],
      [
        " B",
        "ur"
      ],
      [
        " ger",
        "i"
      ],
      [
        " b",
        "unu"
      ],
      [
        "unu",
        "yor"
      ],
      [
        "ama",
        "z"
      ],
      [
        " iht",
        "iy"
      ],
      [
        "uslar",
        "arası"
      ],
      [
        " g",
        "üzel"
      ],
      [
        " H",
        "al"
      ],
      [
        " im",
        "z"
      ],
      [
        "ül",
        "tür"
      ],
      [
        " yeni",
        "den"
      ],
      [
        "ıyor",
        "uz"
      ],
      [
        " yaş",
        "am"
      ],
      [
        "ü",
        "f"
      ],
      [
        " Kur",
        "ulu"
      ],
      [
        "la",
        "dığı"
      ],
      [
        "2",
        "4"
      ],
      [
        "ap",
        "or"
      ],
      [
        "lı",
        "yor"
      ],
      [
        " alın",
        "dı"
      ],
      [
        " F",
        "enerbahçe"
      ],
      [
        "1",
        "00"
      ],
      [
        "as",
        "ının"
      ],
      [
        "um",
        "lu"
      ],
      [
        " A",
        "h"
      ],
      [
        "Ö",
        "z"
      ],
      [
        "ru",
        "b"
      ],
      [
        "H",
        "er"
      ],
      [
        "ar",
        "p"
      ],
      [
        " A",
        "s"
      ],
      [
        " p",
        "ara"
      ],
      [
        " K",
        "o"
      ],
      [
        "ot",
        "oğraf"
      ],
      [
        "A",
        "BD"
      ],
      [
        " at",
        "eş"
      ],
      [
        " ber",
        "aber"
      ],
      [
        " d",
        "in"
      ],
      [
        " Bak",
        "anlığı"
      ],
      [
        "un",
        "ca"
      ],
      [
        " a",
        "v"
      ],
      [
        " Söz",
        "cü"
      ],
      [
        "B",
        "unun"
      ],
      [
        " bir",
        "çok"
      ],
      [
        " ",
        "un"
      ],
      [
        "c",
        "h"
      ],
      [
        " g",
        "rup"
      ],
      [
        "ust",
        "afa"
      ],
      [
        " iti",
        "bar"
      ],
      [
        " sav",
        "un"
      ],
      [
        "amp",
        "iyon"
      ],
      [
        "o",
        "d"
      ],
      [
        " başk",
        "an"
      ],
      [
        "ay",
        "as"
      ],
      [
        " t",
        "anı"
      ],
      [
        " biz",
        "im"
      ],
      [
        "rab",
        "z"
      ],
      [
        "mak",
        "ta"
      ],
      [
        " m",
        "üz"
      ],
      [
        "l",
        "ek"
      ],
      [
        " G",
        "alatasaray"
      ],
      [
        "ul",
        "lah"
      ],
      [
        " ür",
        "et"
      ],
      [
        " en",
        "gel"
      ],
      [
        "üç",
        "ük"
      ],
      [
        " ot",
        "om"
      ],
      [
        " an",
        "lam"
      ],
      [
        " öğren",
        "c"
      ],
      [
        " Cumhur",
        "başkanı"
      ],
      [
        " B",
        "üyük"
      ],
      [
        "l",
        "in"
      ],
      [
        " ar",
        "tık"
      ],
      [
        "e",
        "j"
      ],
      [
        " el",
        "e"
      ],
      [
        "uv",
        "vet"
      ],
      [
        "ler",
        "iyle"
      ],
      [
        " s",
        "öy"
      ],
      [
        "ab",
        "an"
      ],
      [
        " kay",
        "de"
      ],
      [
        " kam",
        "u"
      ],
      [
        "ran",
        "s"
      ],
      [
        " y",
        "ine"
      ],
      [
        " ver",
        "en"
      ],
      [
        "el",
        "im"
      ],
      [
        " kay",
        "b"
      ],
      [
        " p",
        "er"
      ],
      [
        " r",
        "es"
      ],
      [
        " m",
        "ak"
      ],
      [
        " kullan",
        "dı"
      ],
      [
        " ülk",
        "e"
      ],
      [
        "o",
        "cu"
      ],
      [
        "er",
        "ken"
      ],
      [
        "du",
        "k"
      ],
      [
        " d",
        "ile"
      ],
      [
        "t",
        "at"
      ],
      [
        " T",
        "ur"
      ],
      [
        " ok",
        "ul"
      ],
      [
        "d",
        "ın"
      ],
      [
        " b",
        "or"
      ],
      [
        " geç",
        "ti"
      ],
      [
        "2",
        "2"
      ],
      [
        " A",
        "li"
      ],
      [
        " tar",
        "t"
      ],
      [
        " ö",
        "de"
      ],
      [
        " top",
        "lam"
      ],
      [
        "A",
        "Ş"
      ],
      [
        " üzer",
        "inden"
      ],
      [
        "laş",
        "tır"
      ],
      [
        " hal",
        "e"
      ],
      [
        "ti",
        "f"
      ],
      [
        " belirt",
        "ildi"
      ],
      [
        " sor",
        "u"
      ],
      [
        " dön",
        "üş"
      ],
      [
        " şek",
        "l"
      ],
      [
        "tal",
        "ya"
      ],
      [
        " y",
        "oğun"
      ],
      [
        " b",
        "ank"
      ],
      [
        " k",
        "ı"
      ],
      [
        " r",
        "ahat"
      ],
      [
        "iş",
        "leri"
      ],
      [
        " M",
        "erkez"
      ],
      [
        " D",
        "evlet"
      ],
      [
        "mış",
        "tır"
      ],
      [
        " h",
        "is"
      ],
      [
        " t",
        "ük"
      ],
      [
        "es",
        "inden"
      ],
      [
        " sonr",
        "ası"
      ],
      [
        "A",
        "L"
      ],
      [
        "s",
        "man"
      ],
      [
        " or",
        "an"
      ],
      [
        " vur",
        "gu"
      ],
      [
        "lü",
        "ğ"
      ],
      [
        "ün",
        "den"
      ],
      [
        " kar",
        "deş"
      ],
      [
        " ar",
        "tır"
      ],
      [
        " Yıl",
        "dırım"
      ],
      [
        "b",
        "r"
      ],
      [
        " h",
        "ey"
      ],
      [
        " A",
        "d"
      ],
      [
        " mey",
        "dana"
      ],
      [
        " do",
        "lay"
      ],
      [
        "ti",
        "v"
      ],
      [
        "ak",
        "ır"
      ],
      [
        " t",
        "am"
      ],
      [
        "anı",
        "yor"
      ],
      [
        " sat",
        "ış"
      ],
      [
        " ziy",
        "aret"
      ],
      [
        " an",
        "da"
      ],
      [
        " sor",
        "un"
      ],
      [
        " f",
        "otoğraf"
      ],
      [
        " h",
        "erk"
      ],
      [
        " s",
        "ey"
      ],
      [
        "p",
        "an"
      ],
      [
        "ey",
        "az"
      ],
      [
        "eler",
        "in"
      ],
      [
        " k",
        "av"
      ],
      [
        " kur",
        "um"
      ],
      [
        "A",
        "k"
      ],
      [
        " s",
        "es"
      ],
      [
        " kıs",
        "a"
      ],
      [
        " b",
        "un"
      ],
      [
        " ma",
        "ğ"
      ],
      [
        "ul",
        "du"
      ],
      [
        " kay",
        "nak"
      ],
      [
        " f",
        "or"
      ],
      [
        " m",
        "er"
      ],
      [
        " gö",
        "tür"
      ],
      [
        " belirt",
        "ti"
      ],
      [
        "g",
        "en"
      ],
      [
        " bil",
        "in"
      ],
      [
        " S",
        "an"
      ],
      [
        "K",
        "ar"
      ],
      [
        " a",
        "dım"
      ],
      [
        " ort",
        "ak"
      ],
      [
        "4",
        "0"
      ],
      [
        " ada",
        "m"
      ],
      [
        "ur",
        "o"
      ],
      [
        "a",
        "dan"
      ],
      [
        " b",
        "unun"
      ],
      [
        " K",
        "an"
      ],
      [
        " Ün",
        "iversit"
      ],
      [
        " Z",
        "aman"
      ],
      [
        "ec",
        "li"
      ],
      [
        " içer",
        "isinde"
      ],
      [
        "2",
        "1"
      ],
      [
        "ü",
        "ven"
      ],
      [
        " z",
        "ar"
      ],
      [
        " gerçek",
        "leş"
      ],
      [
        "İ",
        "L"
      ],
      [
        " M",
        "ar"
      ],
      [
        " ar",
        "aştır"
      ],
      [
        " med",
        "ya"
      ],
      [
        "as",
        "por"
      ],
      [
        " fa",
        "aliyet"
      ],
      [
        " bur",
        "ada"
      ],
      [
        "o",
        "f"
      ],
      [
        " A",
        "b"
      ],
      [
        "A",
        "T"
      ],
      [
        "ağ",
        "a"
      ],
      [
        " yaş",
        "anan"
      ],
      [
        "ak",
        "k"
      ],
      [
        "n",
        "a"
      ],
      [
        " mad",
        "de"
      ],
      [
        " ver",
        "diği"
      ],
      [
        " ist",
        "em"
      ],
      [
        " ak",
        "şam"
      ],
      [
        " ",
        "ul"
      ],
      [
        " seç",
        "im"
      ],
      [
        " çev",
        "r"
      ],
      [
        "ma",
        "dan"
      ],
      [
        "ın",
        "tı"
      ],
      [
        "2",
        "3"
      ],
      [
        "in",
        "ce"
      ],
      [
        "al",
        "e"
      ],
      [
        " c",
        "an"
      ],
      [
        " belirt",
        "erek"
      ],
      [
        "ece",
        "ği"
      ],
      [
        " ot",
        "ur"
      ],
      [
        " n",
        "okt"
      ],
      [
        "m",
        "em"
      ],
      [
        "alar",
        "ın"
      ],
      [
        " mü",
        "da"
      ],
      [
        " kay",
        "det"
      ],
      [
        " ede",
        "cek"
      ],
      [
        "mekte",
        "dir"
      ],
      [
        " c",
        "ev"
      ],
      [
        "eler",
        "e"
      ],
      [
        " yak",
        "alan"
      ],
      [
        " M",
        "ustafa"
      ],
      [
        " ver",
        "ildi"
      ],
      [
        " sır",
        "asında"
      ],
      [
        " mes",
        "aj"
      ],
      [
        "t",
        "em"
      ],
      [
        " da",
        "h"
      ],
      [
        " ekip",
        "leri"
      ],
      [
        " k",
        "it"
      ],
      [
        " h",
        "atır"
      ],
      [
        " iliş",
        "k"
      ],
      [
        " tekn",
        "ik"
      ],
      [
        "uy",
        "u"
      ],
      [
        " g",
        "i"
      ],
      [
        " pu",
        "an"
      ],
      [
        "İ",
        "N"
      ],
      [
        " t",
        "rans"
      ],
      [
        "uk",
        "uk"
      ],
      [
        "z",
        "mir"
      ],
      [
        " f",
        "ır"
      ],
      [
        "ma",
        "da"
      ],
      [
        " k",
        "ol"
      ],
      [
        "en",
        "ç"
      ],
      [
        " hayat",
        "ını"
      ],
      [
        " bas",
        "ın"
      ],
      [
        "ör",
        "en"
      ],
      [
        " kal",
        "an"
      ],
      [
        "ğ",
        "inde"
      ],
      [
        " düzen",
        "lenen"
      ],
      [
        "er",
        "e"
      ],
      [
        "ıl",
        "ıyor"
      ],
      [
        "lan",
        "dır"
      ],
      [
        " Ah",
        "met"
      ],
      [
        "'",
        "ün"
      ],
      [
        " H",
        "av"
      ],
      [
        " b",
        "oz"
      ],
      [
        "g",
        "a"
      ],
      [
        "r",
        "um"
      ],
      [
        "ş",
        "ehir"
      ],
      [
        "et",
        "r"
      ],
      [
        "or",
        "t"
      ],
      [
        " futbol",
        "cu"
      ],
      [
        "as",
        "t"
      ],
      [
        " gel",
        "ecek"
      ],
      [
        " D",
        "oğ"
      ],
      [
        "ğ",
        "ine"
      ],
      [
        " P",
        "ro"
      ],
      [
        " b",
        "ah"
      ],
      [
        " E",
        "s"
      ],
      [
        "aban",
        "cı"
      ],
      [
        "ıl",
        "dığı"
      ],
      [
        " f",
        "ir"
      ],
      [
        "okr",
        "as"
      ],
      [
        " B",
        "ay"
      ],
      [
        " top",
        "lum"
      ],
      [
        "m",
        "ey"
      ],
      [
        " d",
        "il"
      ],
      [
        "iler",
        "ine"
      ],
      [
        " uz",
        "ak"
      ],
      [
        " T",
        "ek"
      ],
      [
        " ken",
        "t"
      ],
      [
        " sonu",
        "cu"
      ],
      [
        ".",
        ","
      ],
      [
        "mız",
        "ı"
      ],
      [
        " p",
        "r"
      ],
      [
        "s",
        "iyon"
      ],
      [
        " ol",
        "uyor"
      ],
      [
        "eş",
        "tir"
      ],
      [
        " m",
        "u"
      ],
      [
        "ul",
        "uk"
      ],
      [
        " B",
        "aşkan"
      ],
      [
        "D",
        "aha"
      ],
      [
        "s",
        "inin"
      ],
      [
        " kal",
        "k"
      ],
      [
        " ey",
        "lem"
      ],
      [
        "E",
        "N"
      ],
      [
        "G",
        "eç"
      ],
      [
        "m",
        "ar"
      ],
      [
        "er",
        "al"
      ],
      [
        "laya",
        "cak"
      ],
      [
        " ay",
        "ında"
      ],
      [
        " m",
        "an"
      ],
      [
        " Y",
        "ön"
      ],
      [
        " Dem",
        "ir"
      ],
      [
        "s",
        "por"
      ],
      [
        " Üniversit",
        "esi"
      ],
      [
        "alar",
        "da"
      ],
      [
        " özel",
        "likle"
      ],
      [
        "A",
        "B"
      ],
      [
        " dönem",
        "de"
      ],
      [
        " tak",
        "ip"
      ],
      [
        " gerek",
        "iyor"
      ],
      [
        " d",
        "ol"
      ],
      [
        " ür",
        "ün"
      ],
      [
        " sev",
        "k"
      ],
      [
        "g",
        "ın"
      ],
      [
        " Em",
        "niyet"
      ],
      [
        " ol",
        "sun"
      ],
      [
        " M",
        "art"
      ],
      [
        "t",
        "eki"
      ],
      [
        "t",
        "on"
      ],
      [
        " g",
        "iy"
      ],
      [
        " yap",
        "ılacak"
      ],
      [
        "me",
        "den"
      ],
      [
        " ür",
        "etim"
      ],
      [
        "ov",
        "a"
      ],
      [
        "i",
        "i"
      ],
      [
        " sır",
        "a"
      ],
      [
        " kap",
        "at"
      ],
      [
        " Şub",
        "at"
      ],
      [
        "iv",
        "il"
      ],
      [
        " in",
        "ş"
      ],
      [
        " yap",
        "tık"
      ],
      [
        " yap",
        "ıldı"
      ],
      [
        " sır",
        "ada"
      ],
      [
        " öğren",
        "ildi"
      ],
      [
        "sun",
        "uz"
      ],
      [
        "s",
        "ik"
      ],
      [
        " ",
        "ce"
      ],
      [
        " san",
        "at"
      ],
      [
        " ç",
        "at"
      ],
      [
        "g",
        "ür"
      ],
      [
        "ğ",
        "im"
      ],
      [
        "da",
        "k"
      ],
      [
        " s",
        "iz"
      ],
      [
        "'n",
        "ün"
      ],
      [
        " d",
        "iyor"
      ],
      [
        "tı",
        "ğını"
      ],
      [
        " ü",
        "c"
      ],
      [
        " b",
        "oş"
      ],
      [
        " K",
        "ay"
      ],
      [
        "m",
        "üş"
      ],
      [
        " müda",
        "hal"
      ],
      [
        "ter",
        "net"
      ],
      [
        "d",
        "iler"
      ],
      [
        "s",
        "u"
      ],
      [
        " y",
        "or"
      ],
      [
        "tı",
        "m"
      ],
      [
        " ak",
        "tar"
      ],
      [
        " kaydet",
        "ti"
      ],
      [
        "iler",
        "inin"
      ],
      [
        " in",
        "dir"
      ],
      [
        " yan",
        "dan"
      ],
      [
        " dev",
        "r"
      ],
      [
        "s",
        "ın"
      ],
      [
        " ola",
        "bilir"
      ],
      [
        " duy",
        "ur"
      ],
      [
        "f",
        "or"
      ],
      [
        "iy",
        "esi"
      ],
      [
        " uygu",
        "la"
      ],
      [
        "k",
        "ün"
      ],
      [
        "'",
        "u"
      ],
      [
        " y",
        "urt"
      ],
      [
        " m",
        "al"
      ],
      [
        " ih",
        "ra"
      ],
      [
        " ben",
        "z"
      ],
      [
        " ben",
        "im"
      ],
      [
        " p",
        "iyas"
      ],
      [
        " gel",
        "iyor"
      ],
      [
        " s",
        "por"
      ],
      [
        "d",
        "o"
      ],
      [
        " A",
        "K"
      ],
      [
        " p",
        "azar"
      ],
      [
        " öl",
        "üm"
      ],
      [
        " g",
        "al"
      ],
      [
        " siyas",
        "i"
      ],
      [
        " Has",
        "tan"
      ],
      [
        " şekl",
        "inde"
      ],
      [
        "S",
        "ur"
      ],
      [
        " S",
        "av"
      ],
      [
        "el",
        "en"
      ],
      [
        "ay",
        "ın"
      ],
      [
        " yıl",
        "lık"
      ],
      [
        "en",
        "t"
      ],
      [
        " da",
        "ir"
      ],
      [
        "F",
        "ETÖ"
      ],
      [
        "Ç",
        "ünkü"
      ],
      [
        "ünü",
        "yor"
      ],
      [
        "erj",
        "i"
      ],
      [
        " t",
        "at"
      ],
      [
        "as",
        "ım"
      ],
      [
        " A",
        "B"
      ],
      [
        "Bu",
        "gün"
      ],
      [
        " r",
        "ek"
      ],
      [
        "A",
        "s"
      ],
      [
        " b",
        "ay"
      ],
      [
        "2",
        "8"
      ],
      [
        " ada",
        "y"
      ],
      [
        " yap",
        "mak"
      ],
      [
        "s",
        "at"
      ],
      [
        " tem",
        "sil"
      ],
      [
        "un",
        "uz"
      ],
      [
        " değiş",
        "ik"
      ],
      [
        " ç",
        "ocu"
      ],
      [
        " yap",
        "ıyor"
      ],
      [
        " ter",
        "c"
      ],
      [
        " çalış",
        "ma"
      ],
      [
        " alt",
        "ına"
      ],
      [
        " Baş",
        "bakan"
      ],
      [
        "e",
        "g"
      ],
      [
        " d",
        "iz"
      ],
      [
        " ç",
        "arp"
      ],
      [
        " değ",
        "iştir"
      ],
      [
        "'y",
        "ı"
      ],
      [
        "er",
        "im"
      ],
      [
        "tak",
        "i"
      ],
      [
        " ist",
        "eyen"
      ],
      [
        "dü",
        "ğ"
      ],
      [
        " kes",
        "in"
      ],
      [
        " İ",
        "ş"
      ],
      [
        " c",
        "id"
      ],
      [
        "ş",
        "ı"
      ],
      [
        "av",
        "ut"
      ],
      [
        " L",
        "i"
      ],
      [
        ".",
        "'"
      ],
      [
        "O",
        "lay"
      ],
      [
        " D",
        "er"
      ],
      [
        " ç",
        "if"
      ],
      [
        " gün",
        "de"
      ],
      [
        "m",
        "esini"
      ],
      [
        "y",
        "ız"
      ],
      [
        " h",
        "an"
      ],
      [
        " D",
        "eniz"
      ],
      [
        "ez",
        "a"
      ],
      [
        " bul",
        "unuyor"
      ],
      [
        " S",
        "ü"
      ],
      [
        " c",
        "in"
      ],
      [
        " D",
        "r"
      ],
      [
        " ç",
        "iz"
      ],
      [
        " ön",
        "ünde"
      ],
      [
        " ed",
        "erek"
      ],
      [
        "al",
        "tı"
      ],
      [
        " li",
        "der"
      ],
      [
        "ğ",
        "ının"
      ],
      [
        "la",
        "mak"
      ],
      [
        " S",
        "er"
      ],
      [
        "Ö",
        "n"
      ],
      [
        "ğ",
        "in"
      ],
      [
        " O",
        "cak"
      ],
      [
        " D",
        "ünya"
      ],
      [
        " yan",
        "a"
      ],
      [
        "al",
        "ama"
      ],
      [
        " baş",
        "arı"
      ],
      [
        "ılı",
        "ç"
      ],
      [
        "oloj",
        "i"
      ],
      [
        " an",
        "n"
      ],
      [
        " m",
        "üm"
      ],
      [
        " yet",
        "kil"
      ],
      [
        "is",
        "inin"
      ],
      [
        "al",
        "im"
      ],
      [
        " uç",
        "ak"
      ],
      [
        "el",
        "ç"
      ],
      [
        "ın",
        "ca"
      ],
      [
        "li",
        "f"
      ],
      [
        "m",
        "eyi"
      ],
      [
        " sah",
        "ibi"
      ],
      [
        "n",
        "ik"
      ],
      [
        "o",
        "la"
      ],
      [
        " ar",
        "ac"
      ],
      [
        " tek",
        "rar"
      ],
      [
        "A",
        "v"
      ],
      [
        "ör",
        "t"
      ],
      [
        " d",
        "ok"
      ],
      [
        " k",
        "ir"
      ],
      [
        "iler",
        "ini"
      ],
      [
        " ed",
        "il"
      ],
      [
        "dik",
        "leri"
      ],
      [
        "dık",
        "ları"
      ],
      [
        "uz",
        "ey"
      ],
      [
        "Y",
        "eni"
      ],
      [
        "İ",
        "lk"
      ],
      [
        " Yar",
        "dım"
      ],
      [
        "6",
        "0"
      ],
      [
        "er",
        "li"
      ],
      [
        " s",
        "ar"
      ],
      [
        "iz",
        "m"
      ],
      [
        "dü",
        "ğü"
      ],
      [
        " g",
        "ec"
      ],
      [
        " al",
        "ıyor"
      ],
      [
        " terc",
        "ih"
      ],
      [
        " müm",
        "kün"
      ],
      [
        "l",
        "iyor"
      ],
      [
        " m",
        "ens"
      ],
      [
        "u",
        "la"
      ],
      [
        "ab",
        "a"
      ],
      [
        " F",
        "ran"
      ],
      [
        "erb",
        "est"
      ],
      [
        "2",
        "7"
      ],
      [
        "y",
        "ip"
      ],
      [
        "ı",
        "da"
      ],
      [
        " bölg",
        "ede"
      ],
      [
        "eş",
        "it"
      ],
      [
        " tart",
        "ış"
      ],
      [
        "ek",
        "tr"
      ],
      [
        " t",
        "av"
      ],
      [
        " c",
        "en"
      ],
      [
        " kor",
        "k"
      ],
      [
        "ons",
        "por"
      ],
      [
        "eceğ",
        "iz"
      ],
      [
        " g",
        "ece"
      ],
      [
        " H",
        "ol"
      ],
      [
        "al",
        "k"
      ],
      [
        "rabz",
        "onspor"
      ],
      [
        " ş",
        "unları"
      ],
      [
        " iddi",
        "a"
      ],
      [
        " önc",
        "eki"
      ],
      [
        "j",
        "an"
      ],
      [
        " dak",
        "ika"
      ],
      [
        " İn",
        "gil"
      ],
      [
        "o",
        "g"
      ],
      [
        "y",
        "e"
      ],
      [
        " a",
        "det"
      ],
      [
        "ece",
        "ğini"
      ],
      [
        " art",
        "ış"
      ],
      [
        "aş",
        "a"
      ],
      [
        " ko",
        "lay"
      ],
      [
        "dik",
        "lerini"
      ],
      [
        " h",
        "ap"
      ],
      [
        " dış",
        "ında"
      ],
      [
        " poli",
        "tik"
      ],
      [
        "Ay",
        "rıca"
      ],
      [
        " dakik",
        "ada"
      ],
      [
        " kal",
        "dı"
      ],
      [
        "İ",
        "s"
      ],
      [
        " T",
        "ay"
      ],
      [
        "Y",
        "D"
      ],
      [
        " ed",
        "ilm"
      ],
      [
        " bil",
        "gi"
      ],
      [
        " s",
        "it"
      ],
      [
        "re",
        "di"
      ],
      [
        "ilece",
        "ği"
      ],
      [
        " s",
        "ivil"
      ],
      [
        " gir",
        "iş"
      ],
      [
        " soruştur",
        "ma"
      ],
      [
        " sev",
        "iy"
      ],
      [
        "ler",
        "ce"
      ],
      [
        "d",
        "ük"
      ],
      [
        "ma",
        "t"
      ],
      [
        " r",
        "apor"
      ],
      [
        " zaman",
        "da"
      ],
      [
        "k",
        "ır"
      ],
      [
        " r",
        "is"
      ],
      [
        " mo",
        "de"
      ],
      [
        "t",
        "im"
      ],
      [
        "on",
        "e"
      ],
      [
        " E",
        "y"
      ],
      [
        " in",
        "an"
      ],
      [
        " kad",
        "ro"
      ],
      [
        " k",
        "üçük"
      ],
      [
        " el",
        "ektr"
      ],
      [
        "iy",
        "arb"
      ],
      [
        "iz",
        "yon"
      ],
      [
        " muh",
        "al"
      ],
      [
        " trans",
        "fer"
      ],
      [
        " A",
        "mer"
      ],
      [
        " O",
        "sman"
      ],
      [
        "imiz",
        "in"
      ],
      [
        " tep",
        "ki"
      ],
      [
        "ab",
        "ı"
      ],
      [
        " ar",
        "a"
      ],
      [
        " hal",
        "inde"
      ],
      [
        " ask",
        "eri"
      ],
      [
        " zar",
        "ar"
      ],
      [
        " T",
        "op"
      ],
      [
        "ilece",
        "ğini"
      ],
      [
        "acağı",
        "z"
      ],
      [
        "eler",
        "de"
      ],
      [
        " L",
        "ig"
      ],
      [
        "T",
        "erör"
      ],
      [
        "al",
        "ım"
      ],
      [
        "t",
        "ur"
      ],
      [
        " sayı",
        "da"
      ],
      [
        " tal",
        "ep"
      ],
      [
        " otom",
        "obil"
      ],
      [
        "iyarb",
        "akır"
      ],
      [
        " ko",
        "ş"
      ],
      [
        "2",
        "6"
      ],
      [
        " i",
        "t"
      ],
      [
        " s",
        "ak"
      ],
      [
        " n",
        "et"
      ],
      [
        " gel",
        "iştir"
      ],
      [
        " or",
        "gan"
      ],
      [
        " kurul",
        "uş"
      ],
      [
        "y",
        "le"
      ],
      [
        "da",
        "m"
      ],
      [
        "ü",
        "st"
      ],
      [
        "vek",
        "ili"
      ],
      [
        "du",
        "m"
      ],
      [
        " olma",
        "dığını"
      ],
      [
        "em",
        "al"
      ],
      [
        " G",
        "ök"
      ],
      [
        "aşk",
        "anlığı"
      ],
      [
        "Cumhur",
        "başkanı"
      ],
      [
        "is",
        "ini"
      ],
      [
        " getir",
        "di"
      ],
      [
        " hem",
        "en"
      ],
      [
        "Ş",
        "İ"
      ],
      [
        "et",
        "men"
      ],
      [
        "ç",
        "esi"
      ],
      [
        "ut",
        "lu"
      ],
      [
        "in",
        "ci"
      ],
      [
        "n",
        "ek"
      ],
      [
        " baş",
        "layan"
      ],
      [
        " aç",
        "ıl"
      ],
      [
        "os",
        "u"
      ],
      [
        " gerek",
        "en"
      ],
      [
        "am",
        "i"
      ],
      [
        " ş",
        "ah"
      ],
      [
        ")",
        "\n"
      ],
      [
        "M",
        "il"
      ],
      [
        " C",
        "an"
      ],
      [
        "ken",
        "in"
      ],
      [
        "ers",
        "on"
      ],
      [
        " üc",
        "ret"
      ],
      [
        " in",
        "ternet"
      ],
      [
        "m",
        "anı"
      ],
      [
        " ama",
        "cı"
      ],
      [
        " uyg",
        "un"
      ],
      [
        " E",
        "l"
      ],
      [
        " Ar",
        "alık"
      ],
      [
        "c",
        "ılık"
      ],
      [
        " açık",
        "ladı"
      ],
      [
        " teh",
        "di"
      ],
      [
        " bir",
        "bir"
      ],
      [
        " k",
        "öy"
      ],
      [
        " yan",
        "ında"
      ],
      [
        " tedav",
        "i"
      ],
      [
        " yaş",
        "ayan"
      ],
      [
        " sayı",
        "sı"
      ],
      [
        "r",
        "ek"
      ],
      [
        "İş",
        "te"
      ],
      [
        " et",
        "tik"
      ],
      [
        " var",
        "dı"
      ],
      [
        "B",
        "un"
      ],
      [
        "ıs",
        "ından"
      ],
      [
        "\"",
        ","
      ],
      [
        " B",
        "il"
      ],
      [
        " Yıl",
        "maz"
      ],
      [
        "n",
        "i"
      ],
      [
        "han",
        "gi"
      ],
      [
        " el",
        "eştir"
      ],
      [
        "at",
        "en"
      ],
      [
        "ına",
        "v"
      ],
      [
        "avut",
        "oğlu"
      ],
      [
        "2",
        "9"
      ],
      [
        "A",
        "S"
      ],
      [
        "l",
        "ül"
      ],
      [
        " ön",
        "e"
      ],
      [
        " gerek",
        "tiğini"
      ],
      [
        " o",
        "ğ"
      ],
      [
        " ş",
        "id"
      ],
      [
        " A",
        "z"
      ],
      [
        "Öz",
        "el"
      ],
      [
        "i",
        "j"
      ],
      [
        " t",
        "r"
      ],
      [
        "I",
        "N"
      ],
      [
        "iy",
        "atı"
      ],
      [
        " taraf",
        "tar"
      ],
      [
        "O",
        "r"
      ],
      [
        "O",
        "R"
      ],
      [
        " hes",
        "ap"
      ],
      [
        "ür",
        "t"
      ],
      [
        " S",
        "on"
      ],
      [
        " baş",
        "ına"
      ],
      [
        "makta",
        "dır"
      ],
      [
        "m",
        "iyor"
      ],
      [
        " k",
        "ah"
      ],
      [
        " h",
        "en"
      ],
      [
        "is",
        "an"
      ],
      [
        "ması",
        "yla"
      ],
      [
        " cid",
        "di"
      ],
      [
        "B",
        "eşiktaş"
      ],
      [
        " yap",
        "ı"
      ],
      [
        " ola",
        "b"
      ],
      [
        " durum",
        "da"
      ],
      [
        " itibar",
        "en"
      ],
      [
        "F",
        "enerbahçe"
      ],
      [
        "D",
        "E"
      ],
      [
        "ar",
        "ken"
      ],
      [
        " tek",
        "lif"
      ],
      [
        "z",
        "ı"
      ],
      [
        " D",
        "E"
      ],
      [
        " t",
        "raf"
      ],
      [
        " B",
        "ank"
      ],
      [
        " boy",
        "unca"
      ],
      [
        "F",
        "A"
      ],
      [
        "K",
        "on"
      ],
      [
        "ad",
        "olu"
      ],
      [
        "ayas",
        "a"
      ],
      [
        " sür",
        "ec"
      ],
      [
        " iz",
        "in"
      ],
      [
        "P",
        "oli"
      ],
      [
        "di",
        "m"
      ],
      [
        " B",
        "ar"
      ],
      [
        "19",
        "9"
      ],
      [
        " görün",
        "tü"
      ],
      [
        " dolay",
        "ı"
      ],
      [
        " ",
        "erk"
      ],
      [
        " K",
        "ara"
      ],
      [
        " h",
        "ukuk"
      ],
      [
        " sab",
        "ah"
      ],
      [
        "de",
        "k"
      ],
      [
        "5",
        "00"
      ],
      [
        "lama",
        "ya"
      ],
      [
        " ad",
        "ına"
      ],
      [
        "m",
        "esine"
      ],
      [
        " m",
        "ark"
      ],
      [
        " ol",
        "maya"
      ],
      [
        " k",
        "as"
      ],
      [
        " Alman",
        "ya"
      ],
      [
        "'",
        "li"
      ],
      [
        " E",
        "uro"
      ],
      [
        " ifade",
        "lerini"
      ],
      [
        " kayde",
        "d"
      ],
      [
        " ç",
        "eşit"
      ],
      [
        " ol",
        "mayan"
      ],
      [
        " ş",
        "art"
      ],
      [
        "ağ",
        "lık"
      ],
      [
        "eler",
        "inin"
      ],
      [
        " ede",
        "ce"
      ],
      [
        " söyle",
        "yen"
      ],
      [
        "cağı",
        "z"
      ],
      [
        " Kom",
        "ut"
      ],
      [
        "ildi",
        "ği"
      ],
      [
        "onom",
        "i"
      ],
      [
        "le",
        "diği"
      ],
      [
        " K",
        "or"
      ],
      [
        " ist",
        "e"
      ],
      [
        "G",
        "alatasaray"
      ],
      [
        " y",
        "ük"
      ],
      [
        " Mil",
        "let"
      ],
      [
        " la",
        "z"
      ],
      [
        " n",
        "er"
      ],
      [
        " fa",
        "iz"
      ],
      [
        " el",
        "de"
      ],
      [
        "o",
        "h"
      ],
      [
        " s",
        "erbest"
      ],
      [
        "et",
        "e"
      ],
      [
        " ad",
        "lı"
      ],
      [
        "N",
        "e"
      ],
      [
        "an",
        "t"
      ],
      [
        " D",
        "A"
      ],
      [
        "ğ",
        "iniz"
      ],
      [
        " m",
        "ik"
      ],
      [
        " oyun",
        "c"
      ],
      [
        "b",
        "a"
      ],
      [
        "k",
        "aç"
      ],
      [
        "m",
        "eyen"
      ],
      [
        " Hastan",
        "esi"
      ],
      [
        "ün",
        "cü"
      ],
      [
        "rub",
        "u"
      ],
      [
        "E",
        "Ş"
      ],
      [
        " C",
        "HP"
      ],
      [
        " o",
        "ra"
      ],
      [
        " a",
        "dı"
      ],
      [
        " et",
        "kin"
      ],
      [
        " Li",
        "gi"
      ],
      [
        "c",
        "at"
      ],
      [
        "b",
        "ay"
      ],
      [
        "ısı",
        "yla"
      ],
      [
        "s",
        "ak"
      ],
      [
        "ef",
        "er"
      ],
      [
        " Mah",
        "kem"
      ],
      [
        " ul",
        "uslararası"
      ],
      [
        " G",
        "ül"
      ],
      [
        " baş",
        "la"
      ],
      [
        "4",
        "5"
      ],
      [
        " ma",
        "s"
      ],
      [
        "ıs",
        "ına"
      ],
      [
        "okr",
        "at"
      ],
      [
        "D",
        "P"
      ],
      [
        " baş",
        "ında"
      ],
      [
        " büy",
        "üm"
      ],
      [
        "de",
        "si"
      ],
      [
        " düş",
        "tü"
      ],
      [
        "le",
        "mek"
      ],
      [
        "'",
        "tan"
      ],
      [
        " M",
        "uh"
      ],
      [
        " ay",
        "rı"
      ],
      [
        " t",
        "asar"
      ],
      [
        " cen",
        "az"
      ],
      [
        "y",
        "i"
      ],
      [
        "ece",
        "p"
      ],
      [
        " arasında",
        "ki"
      ],
      [
        " kar",
        "ış"
      ],
      [
        " y",
        "abancı"
      ],
      [
        "ıs",
        "ını"
      ],
      [
        "st",
        "a"
      ],
      [
        " y",
        "at"
      ],
      [
        "ta",
        "j"
      ],
      [
        " eş",
        "i"
      ],
      [
        " F",
        "at"
      ],
      [
        " zor",
        "unda"
      ],
      [
        "üven",
        "lik"
      ],
      [
        "Ç",
        "ok"
      ],
      [
        " düş",
        "ünüyor"
      ],
      [
        " ver",
        "ilen"
      ],
      [
        " ş",
        "ark"
      ],
      [
        " b",
        "ana"
      ],
      [
        " ist",
        "iyor"
      ],
      [
        "ter",
        "e"
      ],
      [
        "dık",
        "larını"
      ],
      [
        "k",
        "ur"
      ],
      [
        " ar",
        "aya"
      ],
      [
        " çöz",
        "üm"
      ],
      [
        "ıl",
        "mış"
      ],
      [
        "Y",
        "ap"
      ],
      [
        "D",
        "ün"
      ],
      [
        "ası",
        "yla"
      ],
      [
        " biz",
        "e"
      ],
      [
        " ş",
        "imdi"
      ],
      [
        "alar",
        "a"
      ],
      [
        " kur",
        "tar"
      ],
      [
        " I",
        "rak"
      ],
      [
        "l",
        "ilik"
      ],
      [
        " s",
        "ig"
      ],
      [
        "ur",
        "at"
      ],
      [
        " şeh",
        "ir"
      ],
      [
        "B",
        "öyle"
      ],
      [
        "f",
        "es"
      ],
      [
        "m",
        "ıyor"
      ],
      [
        " Müdür",
        "ü"
      ],
      [
        " Yön",
        "etim"
      ],
      [
        "S",
        "K"
      ],
      [
        " M",
        "ecli"
      ],
      [
        "ah",
        "im"
      ],
      [
        "D",
        "ünya"
      ],
      [
        "is",
        "ine"
      ],
      [
        " par",
        "ç"
      ],
      [
        " il",
        "et"
      ],
      [
        " gen",
        "iş"
      ],
      [
        "b",
        "er"
      ],
      [
        "un",
        "an"
      ],
      [
        " gör",
        "ül"
      ],
      [
        "ac",
        "ağını"
      ],
      [
        "h",
        "e"
      ],
      [
        " t",
        "ic"
      ],
      [
        " ay",
        "rıca"
      ],
      [
        " her",
        "hangi"
      ],
      [
        "E",
        "s"
      ],
      [
        "c",
        "il"
      ],
      [
        " bel",
        "li"
      ],
      [
        "ab",
        "ilecek"
      ],
      [
        " ist",
        "ih"
      ],
      [
        "okt",
        "or"
      ],
      [
        "3",
        "5"
      ],
      [
        " sür",
        "eç"
      ],
      [
        " Yardım",
        "cısı"
      ],
      [
        "r",
        "güt"
      ],
      [
        " K",
        "asım"
      ],
      [
        " konu",
        "da"
      ],
      [
        " on",
        "un"
      ],
      [
        " p",
        "ek"
      ],
      [
        " Tay",
        "yip"
      ],
      [
        " karş",
        "ısında"
      ],
      [
        "dar",
        "ma"
      ],
      [
        " de",
        "p"
      ],
      [
        "iler",
        "ek"
      ],
      [
        "üm",
        "an"
      ],
      [
        " h",
        "a"
      ],
      [
        "li",
        "ğini"
      ],
      [
        " son",
        "unda"
      ],
      [
        " yar",
        "at"
      ],
      [
        " haf",
        "t"
      ],
      [
        " kat",
        "ıldı"
      ],
      [
        " kö",
        "tü"
      ],
      [
        "ap",
        "ı"
      ],
      [
        " güç",
        "lü"
      ],
      [
        " s",
        "in"
      ],
      [
        " saat",
        "lerinde"
      ],
      [
        " ün",
        "lü"
      ],
      [
        " P",
        "er"
      ],
      [
        " F",
        "et"
      ],
      [
        "i",
        "ğ"
      ],
      [
        "di",
        "ş"
      ],
      [
        " il",
        "er"
      ],
      [
        " ö",
        "dül"
      ],
      [
        " R",
        "ecep"
      ],
      [
        " t",
        "ören"
      ],
      [
        " yıl",
        "dı"
      ],
      [
        "ili",
        "ği"
      ],
      [
        " tarih",
        "i"
      ],
      [
        "ış",
        "işleri"
      ],
      [
        " tes",
        "lim"
      ],
      [
        " k",
        "ut"
      ],
      [
        " m",
        "ült"
      ],
      [
        "İ",
        "R"
      ],
      [
        " ş",
        "ik"
      ],
      [
        " sok",
        "ak"
      ],
      [
        " mil",
        "li"
      ],
      [
        " hast",
        "alık"
      ],
      [
        " İ",
        "zmir"
      ],
      [
        " sağ",
        "lan"
      ],
      [
        " laz",
        "ım"
      ],
      [
        " par",
        "ti"
      ],
      [
        "'",
        "ten"
      ],
      [
        "9",
        "0"
      ],
      [
        " tal",
        "eb"
      ],
      [
        "u",
        "cu"
      ],
      [
        " m",
        "ez"
      ],
      [
        " ül",
        "kenin"
      ],
      [
        " düny",
        "anın"
      ],
      [
        "Ş",
        "imdi"
      ],
      [
        "lü",
        "yor"
      ],
      [
        " tem",
        "iz"
      ],
      [
        " av",
        "uk"
      ],
      [
        " H",
        "ar"
      ],
      [
        "ama",
        "ya"
      ],
      [
        "v",
        "e"
      ],
      [
        " res",
        "mi"
      ],
      [
        "ıs",
        "ının"
      ],
      [
        " Mil",
        "li"
      ],
      [
        "a",
        "g"
      ],
      [
        " ş",
        "ampiyon"
      ],
      [
        " mah",
        "kem"
      ],
      [
        " cev",
        "ap"
      ],
      [
        "Y",
        "ar"
      ],
      [
        " al",
        "ış"
      ],
      [
        " neden",
        "le"
      ],
      [
        " şid",
        "det"
      ],
      [
        " uyg",
        "ulan"
      ],
      [
        "h",
        "ar"
      ],
      [
        " erk",
        "ek"
      ],
      [
        "I",
        "R"
      ],
      [
        "di",
        "ğini"
      ],
      [
        " G",
        "ülen"
      ],
      [
        " C",
        "eza"
      ],
      [
        "R",
        "usya"
      ],
      [
        "ay",
        "ıs"
      ],
      [
        " bel",
        "g"
      ],
      [
        " hüküm",
        "et"
      ],
      [
        "t",
        "ın"
      ],
      [
        " s",
        "ol"
      ],
      [
        " durum",
        "u"
      ],
      [
        " açıkla",
        "malar"
      ],
      [
        "Ş",
        "u"
      ],
      [
        " yar",
        "alı"
      ],
      [
        " ilç",
        "esinde"
      ],
      [
        " düş",
        "ür"
      ],
      [
        "c",
        "isi"
      ],
      [
        "İ",
        "ki"
      ],
      [
        " p",
        "oz"
      ],
      [
        " al",
        "acak"
      ],
      [
        "eş",
        "il"
      ],
      [
        " kay",
        "ıt"
      ],
      [
        "bir",
        "liği"
      ],
      [
        " yıl",
        "da"
      ],
      [
        " herk",
        "es"
      ],
      [
        "ü",
        "cü"
      ],
      [
        "'",
        "la"
      ],
      [
        "ç",
        "ak"
      ],
      [
        "l",
        "ında"
      ],
      [
        "ma",
        "cı"
      ],
      [
        " S",
        "ar"
      ],
      [
        " yar",
        "ış"
      ],
      [
        "men",
        "in"
      ],
      [
        " dah",
        "il"
      ],
      [
        "rum",
        "p"
      ],
      [
        "il",
        "mek"
      ],
      [
        " kur",
        "t"
      ],
      [
        "l",
        "iy"
      ],
      [
        "s",
        "er"
      ],
      [
        "s",
        "av"
      ],
      [
        " il",
        "eri"
      ],
      [
        " maç",
        "ında"
      ],
      [
        " U",
        "z"
      ],
      [
        "an",
        "tep"
      ],
      [
        " S",
        "u"
      ],
      [
        " an",
        "a"
      ],
      [
        " dur",
        "dur"
      ],
      [
        "tat",
        "ürk"
      ],
      [
        " i",
        "p"
      ],
      [
        "eb",
        "ek"
      ],
      [
        " tem",
        "el"
      ],
      [
        " oyn",
        "a"
      ],
      [
        " sonr",
        "asında"
      ],
      [
        " t",
        "az"
      ],
      [
        " yön",
        "tem"
      ],
      [
        "l",
        "iye"
      ],
      [
        "em",
        "i"
      ],
      [
        " dem",
        "okras"
      ],
      [
        "Şİ",
        "D"
      ],
      [
        "t",
        "o"
      ],
      [
        " Bir",
        "liği"
      ],
      [
        "üy",
        "le"
      ],
      [
        " B",
        "r"
      ],
      [
        " K",
        "ılıç"
      ],
      [
        "öl",
        "g"
      ],
      [
        " p",
        "art"
      ],
      [
        " iş",
        "aret"
      ],
      [
        " çif",
        "t"
      ],
      [
        "t",
        "ör"
      ],
      [
        " yap",
        "acak"
      ],
      [
        "'",
        "lı"
      ],
      [
        "B",
        "M"
      ],
      [
        "um",
        "l"
      ],
      [
        " ris",
        "k"
      ],
      [
        " r",
        "ol"
      ],
      [
        " tehdi",
        "t"
      ],
      [
        " p",
        "erson"
      ],
      [
        " dış",
        "ı"
      ],
      [
        " dur",
        "uş"
      ],
      [
        "7",
        "0"
      ],
      [
        "eler",
        "inde"
      ],
      [
        "art",
        "esi"
      ],
      [
        "azi",
        "antep"
      ],
      [
        " u",
        "ğr"
      ],
      [
        "an",
        "dır"
      ],
      [
        " k",
        "af"
      ],
      [
        " teh",
        "lik"
      ],
      [
        "Bur",
        "ada"
      ],
      [
        "U",
        "R"
      ],
      [
        "ç",
        "ık"
      ],
      [
        "for",
        "man"
      ],
      [
        " gal",
        "ib"
      ],
      [
        " yan",
        "sı"
      ],
      [
        " etti",
        "ğini"
      ],
      [
        " maç",
        "ı"
      ],
      [
        " al",
        "mak"
      ],
      [
        " mes",
        "el"
      ],
      [
        " bilg",
        "iye"
      ],
      [
        " k",
        "ans"
      ],
      [
        "imiz",
        "e"
      ],
      [
        " başar",
        "ılı"
      ],
      [
        "ü",
        "ğ"
      ],
      [
        " söz",
        "leş"
      ],
      [
        "ab",
        "et"
      ],
      [
        " yıl",
        "ı"
      ],
      [
        " gö",
        "ç"
      ],
      [
        "ev",
        "izyon"
      ],
      [
        " B",
        "akan"
      ],
      [
        " ön",
        "er"
      ],
      [
        " kil",
        "o"
      ],
      [
        " amacı",
        "yla"
      ],
      [
        "k",
        "eme"
      ],
      [
        " ol",
        "m"
      ],
      [
        "den",
        "iz"
      ],
      [
        " kr",
        "iz"
      ],
      [
        " gi",
        "den"
      ],
      [
        " A",
        "f"
      ],
      [
        "ey",
        "le"
      ],
      [
        " ülk",
        "ede"
      ],
      [
        "ade",
        "m"
      ],
      [
        "o",
        "ca"
      ],
      [
        " ar",
        "ada"
      ],
      [
        " yanı",
        "t"
      ],
      [
        " tür",
        "lü"
      ],
      [
        " aç",
        "ı"
      ],
      [
        "G",
        "ün"
      ],
      [
        "İ",
        "T"
      ],
      [
        " h",
        "am"
      ],
      [
        " tarih",
        "inde"
      ],
      [
        " on",
        "u"
      ],
      [
        " s",
        "ınav"
      ],
      [
        "l",
        "ış"
      ],
      [
        " ed",
        "er"
      ],
      [
        " getir",
        "en"
      ],
      [
        " bildir",
        "ildi"
      ],
      [
        "s",
        "anız"
      ],
      [
        " k",
        "redi"
      ],
      [
        " g",
        "ez"
      ],
      [
        "S",
        "T"
      ],
      [
        "im",
        "e"
      ],
      [
        " E",
        "ğitim"
      ],
      [
        "uv",
        "ar"
      ],
      [
        " Beled",
        "iye"
      ],
      [
        " yor",
        "um"
      ],
      [
        "sız",
        "lık"
      ],
      [
        " ",
        "iy"
      ],
      [
        "T",
        "op"
      ],
      [
        " c",
        "anlı"
      ],
      [
        "imiz",
        "i"
      ],
      [
        " hız",
        "lı"
      ],
      [
        "Sur",
        "iye"
      ],
      [
        "ek",
        "k"
      ],
      [
        " yap",
        "tır"
      ],
      [
        " y",
        "ık"
[...]
