{"\n":0," ":1,"!":2,"\"":3,"#":4,"$":5,"%":6,"&":7,"'":8,"(":9,")":10,"*":11,"+":12,",":13,"-":14,".":15,"/":16,"0":17,"1":18,"2":19,"3":20,"4":21,"5":22,"6":23,"7":24,"8":25,"9":26,":":27,";":28,"<":29,"=":30,">":31,"?":32,"@":33,"A":34,"B":35,"C":36,"D":37,"E":38,"F":39,"G":40,"H":41,"I":42,"J":43,"K":44,"L":45,"M":46,"N":47,"O":48,"P":49,"Q":50,"R":51,"S":52,"T":53,"U":54,"V":55,"W":56,"X":57,"Y":58,"Z":59,"[":60,"\\":61,"]":62,"^":63,"_":64,"`":65,"a":66,"b":67,"c":68,"d":69,"e":70,"f":71,"g":72,"h":73,"i":74,"j":75,"k":76,"l":77,"m":78,"n":79,"o":80,"p":81,"q":82,"r":83,"s":84,"t":85,"u":86,"v":87,"w":88,"x":89,"y":90,"z":91,"{":92,"}":93,"~":94,"":95,"":96,"":97,"":98,"":99,"":100,"":101,"":102,"":103,"":104,"¡":105,"¢":106,"£":107,"¦":108,"§":109,"¨":110,"©":111,"ª":112,"­":113,"®":114,"¯":115,"°":116,"±":117,"³":118,"µ":119,"·":120,"º":121,"¼":122,"½":123,"¾":124,"¿":125,"À":126,"Á":127,"Â":128,"Ã":129,"Ä":130,"Å":131,"Ç":132,"È":133,"É":134,"Í":135,"Î":136,"Ò":137,"Ó":138,"Ô":139,"Ö":140,"×":141,"Ø":142,"Ü":143,"ß":144,"à":145,"á":146,"â":147,"ã":148,"ä":149,"å":150,"æ":151,"ç":152,"è":153,"é":154,"ê":155,"ë":156,"ì":157,"í":158,"î":159,"ï":160,"ñ":161,"ò":162,"ó":163,"ô":164,"ö":165,"ø":166,"ù":167,"ú":168,"û":169,"ü":170,"ý":171,"þ":172,"ÿ":173,"ā":174,"ă":175,"ą":176,"Ć":177,"ć":178,"č":179,"Đ":180,"đ":181,"Ē":182,"ē":183,"ė":184,"ę":185,"ğ":186,"ģ":187,"ī":188,"İ":189,"ı":190,"ł":191,"ń":192,"ņ":193,"ň":194,"ō":195,"ř":196,"ś":197,"Ş":198,"ş":199,"Š":200,"š":201,"ţ":202,"ū":203,"ŵ":204,"ŷ":205,"ż":206,"ž":207,"ư":208,"ș":209,"ț":210,"ə":211,"ʔ":212,"ʷ":213,"ʻ":214,"̀":215,"́":216,"̃":217,"̈":218,"О":219,"С":220,"У":221,"а":222,"и":223,"к":224,"н":225,"р":226,"ї":227,"Ա":228,"Բ":229,"Գ":230,"Դ":231,"Ե":232,"Զ":233,"Է":234,"Ը":235,"Թ":236,"Ժ":237,"Ի":238,"Լ":239,"Խ":240,"Ծ":241,"Կ":242,"Հ":243,"Ձ":244,"Ղ":245,"Ճ":246,"Մ":247,"Յ":248,"Ն":249,"Շ":250,"Ո":251,"Չ":252,"Պ":253,"Ջ":254,"Ռ":255,"Ս":256,"Վ":257,"Տ":258,"Ր":259,"Ւ":260,"Փ":261,"Ք":262,"Օ":263,"Ֆ":264,"՛":265,"՝":266,"՞":267,"ա":268,"բ":269,"գ":270,"դ":271,"ե":272,"զ":273,"է":274,"ը":275,"թ":276,"ժ":277,"ի":278,"լ":279,"խ":280,"ծ":281,"կ":282,"հ":283,"ձ":284,"ղ":285,"ճ":286,"մ":287,"յ":288,"ն":289,"շ":290,"ո":291,"չ":292,"պ":293,"ջ":294,"ռ":295,"ս":296,"վ":297,"տ":298,"ր":299,"ց":300,"ւ":301,"փ":302,"ք":303,"օ":304,"ֆ":305,"և":306,"։":307,"฿":308,"ḥ":309,"Ṡ":310,"ṣ":311,"ạ":312,"ả":313,"ầ":314,"ắ":315,"ẹ":316,"ế":317,"ệ":318,"ị":319,"ọ":320,"ố":321,"ộ":322,"ờ":323,"ợ":324,"ừ":325,"ự":326,"ỹ":327,"‌":328,"‍":329,"‐":330,"‑":331,"―":332,"•":333,"․":334,"‬":335,"‭":336,"′":337,"″":338,"‴":339,"›":340,"‼":341,"⁠":342,"⁣":343,"⁤":344,"⁦":345,"⁩":346,"₂":347,"₦":348,"€":349,"₱":350,"₹":351,"℞":352,"™":353,"⅓":354,"⅔":355,"↔":356,"−":357,"⊕":358,"⏳":359,"■":360,"▶":361,"►":362,"◀":363,"●":364,"☀":365,"★":366,"☆":367,"♀":368,"♂":369,"♥":370,"♦":371,"♪":372,"♬":373,"⚽":374,"✅":375,"✔":376,"✨":377,"❌":378,"❤":379,"➡":380,"⭐":381,"・":382,"ﬁ":383,"ﬂ":384,"︎":385,"️":386,"�":387,"𝄒":388,"🇦":389,"🇱":390,"🇳":391,"🇸":392,"🇺":393,"🌪":394,"🌴":395,"🌹":396,"🍓":397,"🍹":398,"🍺":399,"🎁":400,"🎢":401,"🎪":402,"🏆":403,"🏻":404,"🏼":405,"🏽":406,"🏾":407,"🐎":408,"👀":409,"👈":410,"👉":411,"👍":412,"👏":413,"💕":414,"💙":415,"💥":416,"💨":417,"💬":418,"📋":419,"📍":420,"📷":421,"📸":422,"🔥":423,"😂":424,"😅":425,"😆":426,"😊":427,"😍":428,"😢":429,"😭":430,"😮":431,"😱":432,"😳":433,"🙄":434,"🙌":435,"🙏":436,"🚨":437,"🛒":438,"🤎":439,"🤔":440,"🤣":441,"🤦":442,"🤫":443,"🤯":444,"🤵":445,"🤷":446,"🥅":447,"🥇":448,"🥥":449,"🥪":450,"🥹":451,"🥺":452,"🫣":453,"e ":454," t":455,"s ":456,"in":457,"er":458," th":459,"d ":460,"t ":461,"an":462,"on":463,"en":464,"or":465," the ":466,", ":467,"y ":468,"ar":469,"al":470,"ing":471,"o ":472,"at":473,"re":474,"ou":475,"it":476,".\n":477,"st":478,"a ":479,"of":480,"ed ":481,"ing ":482,"ic":483,"and ":484,"er ":485,"th":486,"om":487," to ":488,"es":489,"il":490,"el":491,"ion":492,"ha":493,"ed":494,"is ":495,"in ":496,"of ":497,"ac":498,"h ":499,"for":500,"is":501,"id":502,"he ":503,"as":504,"es ":505,"ol":506,"ec":507,"ow":508,"an ":509,". ":510,"as ":511,"at ":512,"im":513,"am":514,"ur":515,"ent":516,"al ":517,"'s ":518,"ve ":519,"le":520,"en ":521,"wh":522,"ig":523,"ir":524,"on ":525,"us":526,"ro":527,"ad":528,"em":529,"l ":530,"un":531,"ag":532,"pl":533,"wit":534,"et":535,"ch":536,"ay":537,"ly ":538,"ver":539,"ab":540,"ion ":541,"k ":542,"os":543,"and":544,"for ":545,"The ":546,"ear":547," that ":548,"ent ":549,"e th":550,"our":551,"be":552,"ot":553,"res":554,"sa":555,"ri":556,"was ":557,"li":558,"com":559,"con":560,"op":561,"it ":562,"ex":563,"ut":564,"sh":565,"oun":566,"with ":567,"n ":568,"fr":569,"e t":570,",\"":571,"ul":572,"se":573,"ra":574,"um":575," the":576,"his ":577,"of the ":578,"ak":579,"p ":580,"I ":581,"lo":582,"or ":583,"igh":584,"di":585,"s, ":586,"pro":587,"in the ":588,"int":589," to":590,"ere ":591,"su":592,"de":593,"are ":594,"have ":595,"e, ":596,"ew":597,"from":598,"20":599,"be ":600,"ation":601,"ers ":602,"ap":603,"all":604,"est":605,"has ":606,"oul":607,"ay ":608,"ect":609,"ot ":610,"sp":611,"qu":612,"cl":613,"s.\n":614,"ut ":615,"ill ":616,"ce ":617,"art":618,"ev":619,"ir ":620,"per":621,"if":622,"e.\n":623,"he":624,": ":625,"oc":626,"ould ":627,"out ":628,"oth":629,"af":630,"you":631,"ow ":632,"ed to ":633,"our ":634,"by ":635,"go":636,"wor":637,"le ":638,"ort":639,"- ":640,"ist":641,"we":642,"end":643,"so ":644,"iv":645,".\"":646,"pr":647,"uc":648,"year":649,"from ":650,"ate ":651,"her ":652,"ic ":653,"ant":654,"one ":655,"\":":656,"ation ":657,"pe":658,"said":659,"ain":660,"ill":661,"e to ":662,"not ":663,"od":664,"ong":665,"ive ":666,"e the ":667,"id ":668,"rec":669,", the ":670,"act":671,"off":672,"will ":673,".\"\n":674,"y, ":675,"ter ":676,"oug":677,"00":678," and ":679,"ud":680,"ov":681," this ":682,"ast":683,"at the ":684,"ity ":685,"who ":686,"out":687,"mor":688,"gr":689,"bl":690,"form":691,"ing the ":692,"et ":693,"'t ":694,"ep":695,"s and ":696,"ess":697,"with":698,"ally ":699,"ter":700," their ":701,"str":702,"ew ":703,"co":704,"ment":705,"you ":706,"ar ":707,"all ":708,"been ":709,"enc":710,"est ":711,"pp":712,"had ":713,"but ":714,"th ":715,"s to ":716,"ing to ":717,"ef":718,"s of ":719,"anc":720," they ":721,"ast ":722,"she ":723,"Th":724,"m ":725,"whic":726,"\" ":727,"und":728,"e of ":729,"ne":730,"ack":731," to the ":732,"on the ":733,"ok":734,"ight":735,"fir":736,"we ":737,"were ":738,"ed the ":739,"202":740,"ies ":741,"ang":742,"som":743,"St":744,"st ":745,"av":746,"up":747,"si":748,"In":749,"el ":750,"ell":751,"lik":752,"es, ":753,"pres":754,"its ":755,"which ":756,"ust ":757,"man":758,"cont":759,"An":760,"ard":761,"att":762,"vi":763,"also ":764,"br":765,"\":\"":766,"Ch":767,"ial ":768," tr":769,"said ":770,"aw":771,"oll":772,"ight ":773,"ple ":774,"fin":775,"ass":776,"ice ":777,"cr":778,"ch ":779,"can ":780,"ord":781,"day":782,"do":783,"ment ":784,"i ":785,"port":786,"ug":787,"po":788,"comp":789,"ost ":790,"hat ":791,"min":792,"med":793,"dis":794,"other ":795,"y.\n":796,"would ":797,"ff":798,"ob":799,"ma":800,"acc":801,"for the ":802,"ever":803,", and ":804,"mak":805,"ough":806,"sc":807,"old ":808,"A ":809,"own ":810,"part":811,"her":812,"mon":813,"ount":814,"bec":815,"gu":816,"over":817,"fe":818,"par":819,"ous":820,"up ":821,"ens":822,"me":823,",\"\"":824,"ad ":825,"ack ":826,"after ":827,"fl":828,"es.\n":829,"kn":830,"inc":831,"bo":832,"about ":833,"Tr":834,"my ":835,"pol":836,"ser":837,"It ":838,"pos":839,"sec":840,"ict":841,"f ":842,"pre":843,"ia":844,"ure":845,"peo":846,"him":847,"ail":848,"sid":849,"lin":850,"ary ":851,"He ":852,"loc":853,"aus":854,"more ":855,"ame ":856,"ated ":857,"play":858,"arg":859," tim":860,"s. ":861,"ign":862,"in a ":863,"ound":864,"emb":865,"ely ":866,"er, ":867,"am ":868,"wid":869,"say":870,"and the ":871,"e and ":872,"just ":873,"ity":874,"dr":875,"ing a ":876,"ust":877,"og":878,"when ":879," that":880,"ubl":881,"Wh":882,"add":883," them":884,"od ":885,"ph":886,"dec":887,"ann":888,"e's ":889,"ult":890,"n't ":891,"wo ":892,"people ":893,"ant ":894,"inter":895,"s the ":896,"ed.\n":897,"ick":898,"ence ":899,"comm":900,"ed by ":901,"work":902,"ure ":903,"19":904,"I'":905,"ess ":906,"age ":907,"ound ":908,"own":909,"ly":910,"itt":911,"Trum":912,"leg":913,"ret":914,"rem":915,"red":916,"ond":917,"ose ":918,"sel":919,"eth":920," tak":921,"ish":922,"clud":923,"ous ":924,"ed a ":925,"ile ":926,"hel":927,"with the ":928,"ical ":929,"by":930,"ions ":931,"ach":932,"any ":933,"t of ":934,"inv":935,"re ":936,"In ":937,"e. ":938,"ia ":939,"could ":940,"car":941,": \"":942,"your ":943,"way":944,"ind":945,"again":946,"e-":947,"includ":948,"ance ":949,"ey ":950,"mar":951,"ek":952,"bet":953,"iz":954,"old":955,"reat":956,"ip":957,"new ":958,"ite ":959,"s in ":960,"ong ":961,"what ":962,"width":963,"We ":964,"It":965,"Al":966,"day ":967,"first ":968,"was":969,"mer":970,"ok ":971,"ett":972,"from the ":973,"ed in ":974,"x ":975,"like ":976,"vid":977,"count":978,"but":979,") ":980,"hom":981,"ese ":982,"able ":983,"pa":984,"most ":985,"ident":986,"last ":987,"sur":988,"But ":989,"rat":990,"stat":991,"over ":992,"some ":993,"befor":994,"il ":995,"reg":996,"This ":997,"ree ":998,"said.\n":999,"Is":1000,"ian ":1001,"bu":1002,"ough ":1003,"ace ":1004,"..":1005,"lat":1006,"{\"":1007,"no ":1008,"Br":1009,"Un":1010,"a f":1011,"ans ":1012,"eng":1013,"ht":1014,"ort ":1015,"des":1016,"uct":1017,"not":1018," m":1019,"Fr":1020,"don":1021,"into ":1022,"rain":1023,"urn":1024,"o the ":1025," there ":1026,"ps":1027,"ell ":1028,"gl":1029,"ed, ":1030,"cas":1031,"aut":1032,"ing, ":1033,"if ":1034,"a s":1035,"arr":1036,"end ":1037,"elect":1038,"The":1039,"supp":1040," two ":1041,"ext":1042,"ade ":1043,"becaus":1044,"eg":1045,"ish ":1046,"10":1047,"'re ":1048,"ard ":1049,"it's ":1050,"iss":1051,"fam":1052,"lead":1053,"ans":1054,"vern":1055,"want":1056,"e that ":1057,"get ":1058,"ident ":1059,"Mr":1060,"govern":1061,"au":1062,"serv":1063,"son ":1064," thr":1065,"us ":1066,"a, ":1067,"ever ":1068,"ition":1069,"er.\n":1070,"offic":1071,"ational ":1072," thin":1073,"very ":1074,"being ":1075,"riv":1076,"exp":1077,"ement":1078,"ire":1079,"son":1080,"inn":1081,"by the ":1082,"do ":1083,"vers":1084,"cer":1085,"cam":1086,"201":1087,"app":1088,"es and ":1089," that the ":1090,"ener":1091,"a b":1092,"a t":1093,"dur":1094,"y to ":1095,". The ":1096,"ros":1097,"under":1098,"vis":1099,"s that ":1100,"only ":1101,"e in ":1102,"ing.\n":1103,"abl":1104,"ub":1105,"uk":1106,"mat":1107,"Mar":1108,"es to ":1109,"qual":1110,"back":1111,"let":1112,"report":1113,"als ":1114,"show":1115,"reas":1116,"week":1117,"read":1118,"az":1119,"lock":1120,"so":1121,"ry ":1122,"eli":1123,"cho":1124,"publ":1125,"pt":1126,"any":1127,"ach ":1128,"resp":1129,"ory ":1130,"chang":1131,"fo":1132,"media":1133,"She ":1134,"wat":1135,"as a ":1136,"vel":1137,"now ":1138,"ke":1139,"ime ":1140,"Ar":1141,"where ":1142,"Trump ":1143,"aim":1144,"call":1145,"},":1146,"S ":1147,"ue ":1148,"famil":1149,"ash":1150,"ve":1151,"},{\"":1152,"Isra":1153,"chil":1154,"many ":1155,"has been ":1156,"On":1157,"cc":1158,"50":1159," te":1160,"oy":1161,". \"":1162,"how ":1163,"' ":1164,"cent":1165,"ath":1166,"run":1167,"It's ":1168,"cour":1169,"op ":1170,"30":1171," he ":1172,"?\n":1173,"back ":1174,"law":1175,"ings ":1176,"is a ":1177,"wom":1178,"lif":1179,"while ":1180,"vot":1181,"000":1182,"12":1183,"cha":1184,"rel":1185,"ol ":1186,"about":1187,"even ":1188,"aster":1189,"umb":1190,"him ":1191,"month":1192,"ations ":1193,"man ":1194,"ect ":1195,"ilit":1196,"ed that ":1197,"worl":1198,"ain ":1199,"ost":1200,"ist ":1201,"with a ":1202,"diff":1203,"air":1204,"ik":1205,"ents ":1206,"high":1207,"ed on ":1208,"arm":1209,"ement ":1210,"ank":1211,"And ":1212,"En":1213,"They ":1214,"ine ":1215,"meric":1216,"ul ":1217,"Americ":1218,"htt":1219,"//":1220,"://":1221,"https":1222,"hear":1223,"make ":1224,"I'm ":1225,"will be ":1226,"after":1227,"Le":1228,"ors ":1229,"cap":1230," p":1231,"fi":1232,"45":1233,"against ":1234,"bas":1235,", which ":1236,"eas":1237,"ounc":1238,"ince ":1239,"point":1240,"You":1241,"Jo":1242,", a ":1243,"org":1244,"before ":1245,"ers":1246,"15":1247,"have been ":1248,"contin":1249,"fac":1250,"to ":1251,"en the ":1252,"17":1253,", but ":1254,"for a ":1255,"cle":1256,"look":1257,"Rus":1258,"ful":1259,"land":1260,"made ":1261,"ign ":1262,"happ":1263,"ott":1264,"Pres":1265,"soc":1266,"ollow":1267,"Pr":1268,"cur":1269,"ited ":1270,"la":1271,"start":1272,"can":1273,"still ":1274," them ":1275,"e than ":1276,"40":1277,"invest":1278,"betwe":1279,"seas":1280,"es of ":1281," those ":1282,"alk":1283,"ep ":1284,"om ":1285,".co":1286,"polit":1287,"sy":1288,"exper":1289,"60":1290,"miss":1291,"ris":1292,"uch ":1293,"gam":1294,"don't ":1295,"ating ":1296,".uk":1297," S":1298,"Bid":1299,"as the ":1300,"ip ":1301,"should ":1302,".co.uk":1303,"such ":1304,"years ":1305,"ept":1306,"mp":1307,"rect":1308,"ib":1309,"prod":1310,"y and ":1311,"fit":1312,"year ":1313,"because ":1314," than ":1315,"ask":1316,"the ":1317,"gre":1318,"unt":1319,"Russi":1320,"plac":1321,"liv":1322,"rc":1323,"ember ":1324,"fer":1325,"y's ":1326,"claim":1327,"every":1328,"src":1329,"former ":1330,"war":1331,"sign":1332,"g ":1333,"18":1334,"um ":1335,", who ":1336,"fil":1337,"jp":1338,"lef":1339,".co.uk/":1340,".gu":1341,"New ":1342,"sk":1343,".jp":1344,".jpg":1345,"ition ":1346,".guim":1347,"prot":1348,"s are ":1349,"work ":1350,"a's ":1351,"stor":1352,"wr":1353,"did ":1354,".guim.co.uk/":1355,"ing and ":1356," then ":1357,"sm":1358,"really ":1359,"mark":1360,"leas":1361,"max":1362,"Sh":1363,"follow":1364,"Indi":1365,"grou":1366," M":1367,"ome ":1368,"issu":1369,"buil":1370,"it was ":1371,"much ":1372,"dem":1373,"11":1374,"new":1375,"did":1376,"me ":1377,"shar":1378,"a l":1379,"had":1380,"ey":1381,"is the ":1382," three ":1383,"illion ":1384," to be ":1385,"er of ":1386,"lement":1387,"master":1388,"sol":1389,"minist":1390,"ed with ":1391," these ":1392,"ers, ":1393,"age":1394,"both":1395,"o, ":1396,"heal":1397,"ond ":1398,"iti":1399,"er and ":1400,"now":1401,"Sc":1402,"format":1403,"mod":1404,"ah":1405,"continu":1406,"Con":1407,"ould":1408,"mov":1409,"auto":1410,"pit":1411,"ble":1412,"ific":1413,"dat":1414,"get":1415,"det":1416,"national ":1417,"quality":1418," ther":1419,"w ":1420,"giv":1421,"side ":1422,"hav":1423,"spe":1424," time ":1425,"bre":1426,"fri":1427,"def":1428,"ed for ":1429,"ing in ":1430,"ustr":1431,"more than ":1432,"ial":1433,"stand":1434,"ct":1435,"Par":1436,"ion.\n":1437,"g/":1438,"off ":1439,"ress":1440,"C ":1441,"well ":1442,"pow":1443,"sub":1444,".jpg?":1445,"/master":1446,"view":1447,"/master/":1448,"hand":1449,"spec":1450,"sum":1451,"s=":1452,"img/":1453," take ":1454,"&fit":1455,"&auto":1456,"&quality":1457,"&s=":1458,"=max":1459,"=format":1460,"bus":1461,"i.guim.co.uk/":1462,"way ":1463,"width=":1464,"&fit=max":1465,"&auto=format":1466,"&quality=":1467,"i.guim.co.uk/img/":1468,"&auto=format&fit=max":1469,"Israel":1470,"Rep":1471,".jpg?width=":1472,")\n":1473,"ious ":1474,"nam":1475,"ing that ":1476,"Com":1477,"clos":1478,"near":1479,"down":1480,"rac":1481,"appear":1482,"ie ":1483,"including ":1484,"media/":1485,"i.guim.co.uk/img/media/":1486,"may ":1487,"ual ":1488,"ship ":1489,"right":1490,"ently ":1491,"down ":1492,"-t":1493,"Uk":1494,"s t":1495,"fect":1496," think ":1497,"% ":1498,"ext ":1499,"There ":1500,"Ukrain":1501,"a.\n":1502,"big":1503,"star":1504,"rol":1505,"hn":1506,"200":1507,"ock":1508,"es in ":1509,"hal":1510,"ities ":1511,"are":1512,"</":1513," B":1514,"U.":1515,"14":1516,"enn":1517,"accord":1518,"see ":1519,"expect":1520,"wo":1521,"expl":1522,"Trump":1523,"forc":1524,"sl":1525,"And":1526,"vict":1527,"ove ":1528,"atur":1529,"85":1530,"'\n":1531,"ber":1532,"around ":1533,"ed and ":1534,"prom":1535,"se ":1536,"going to ":1537,"ebr":1538,"good ":1539,"ric":1540,"differ":1541,"since ":1542,"long":1543,"government ":1544,"come ":1545,"Harr":1546,"owever":1547,"UK":1548,"olog":1549,"another ":1550,"ste":1551,"If ":1552,"Re":1553,"quest":1554,"es. ":1555,"press":1556,"fort":1557,"childr":1558,"gener":1559,"into the ":1560,"bro":1561,"support":1562,"ble ":1563,"he was ":1564,"80":1565,"commun":1566,"ind ":1567,"campa":1568,"ave ":1569,"President ":1570,"numb":1571,"of a ":1572,"beli":1573,"rot":1574,"beg":1575,"need":1576,"post":1577,"go ":1578,"on, ":1579,"direct":1580,"25":1581,"Eur":1582,"know ":1583,"Ph":1584,"know":1585,"head ":1586," in ":1587,"cor":1588,"ion, ":1589,"\"I ":1590,"16":1591,"ning ":1592,"jo":1593,"24":1594,"ek ":1595,"ern ":1596," the t":1597,"onom":1598,"provid":1599,"oper":1600,"head":1601," ter":1602,"never ":1603,"between ":1604,"ject":1605," tra":1606,"increas":1607,"ise ":1608,"s for ":1609,"'ve ":1610," told ":1611,"state ":1612,"s on ":1613,"cond":1614,"year-":1615,"ry":1616,"P ":1617,"acros":1618,"For":1619,"ative ":1620,"polic":1621,"U.S":1622,"ty ":1623,"stud":1624,"ugh":1625,"over the ":1626,"person":1627,"col":1628,"rest":1629,"You ":1630,"en, ":1631,"ered ":1632,"Dem":1633,"next ":1634,"land ":1635,"cre":1636,"proc":1637,"stri":1638,"ways ":1639,"help":1640,"New":1641,"charg":1642," (":1643,"redit":1644,"put":1645,"stem":1646,"But":1647,"both ":1648,"scho":1649,"\"The ":1650,"fact":1651,"ually ":1652,"...":1653,"prof":1654,"block":1655,"youn":1656,"line ":1657,"ick ":1658,"able to ":1659,"Element":1660,"Don":1661," tri":1662,"igh ":1663,"imp":1664,"),":1665,"Chin":1666,"As ":1667,"about the ":1668,"someth":1669,"busin":1670,"best ":1671,"kill":1672,"hop":1673,"es that ":1674,"ful ":1675," she ":1676,"it is ":1677,"econom":1678,"Af":1679,"en's ":1680,"We":1681,"prov":1682,"Engl":1683,"a m":1684,"ion of ":1685,"one of the ":1686,"self":1687,"maj":1688,"os ":1689,"ought ":1690,"Bl":1691,"pass":1692,"ers.\n":1693,"first":1694,"13":1695,"larg":1696,"open":1697,"ivers":1698,"ther ":1699,"oft":1700,"right ":1701,"ional ":1702,"every ":1703,"just":1704,"-year-":1705,"four ":1706,"experi":1707,"Nor":1708,"releas":1709,"da":1710,"Brit":1711,"red ":1712,"didn't ":1713,"manag":1714,"er to ":1715,"world":1716,"decis":1717,"ship":1718,"sit":1719,"ing on ":1720,"nes":1721,"hist":1722,"I was ":1723,"ed in the ":1724,"rist":1725,"said: \"":1726,"a c":1727,"public ":1728,"le, ":1729,"ed by the ":1730,"opp":1731,"hous":1732,"Sou":1733,"bod":1734,"a and ":1735,"Democ":1736,"got ":1737,"ian":1738,"tr":1739,"ation.\n":1740,"import":1741,"curr":1742,"du":1743,"says ":1744,"ates ":1745,"ge ":1746,"requ":1747,"it.\n":1748,"well":1749,"ire ":1750,"pris":1751,"icul":1752,"second ":1753,"eld":1754,"set ":1755," through ":1756,"wher":1757,"Mr ":1758,"Biden ":1759,"That ":1760,"day, ":1761,"self ":1762,"Cl":1763,"Sp":1764,"ing for ":1765,"ez":1766,"plan":1767,"help ":1768,"sever":1769,"cent ":1770,"35":1771," they":1772,"each ":1773,"Republ":1774,"Credit":1775,"friend":1776,"president":1777,"ially ":1778,"ak ":1779,"Ad":1780,"look ":1781,"When ":1782,"U.S. ":1783,"hum":1784,"same ":1785,"announc":1786,"devel":1787,"eir ":1788,"22":1789,"exc":1790,"s\n":1791,"milit":1792,"under ":1793,"ready ":1794,"Pol":1795,"eni":1796,"es the ":1797,"Gr":1798,"respon":1799,"Im":1800,"Yor":1801,"concer":1802," think":1803,"always ":1804,"five ":1805,"ing to the ":1806,"ush":1807,"rece":1808," through":1809,"adv":1810,"olv":1811,"ll ":1812,"home ":1813,"Mr. ":1814,"ously ":1815,"pat":1816,"ark":1817,"possi":1818,"want to ":1819,"ward":1820,"job":1821,"police ":1822,"ering ":1823,"on.\n":1824,"Tu":1825,"mom":1826,"found":1827,"vide":1828,"Car":1829,"t of the ":1830,"coll":1831,"dep":1832,"strong":1833,"attack":1834,"perform":1835,"Europ":1836,"stit":1837,"ittle ":1838,"return":1839,"sim":1840,"ide":1841,"Mon":1842,"ype":1843,"minut":1844,"happen":1845," said ":1846,"other":1847,"Wor":1848,"s in the ":1849,"would be ":1850,"seen ":1851,"ean ":1852,"spok":1853,"ity of ":1854,"US ":1855,"rul":1856,"However":1857," this":1858,"90":1859,"opt":1860,"; ":1861,"-year-old ":1862,"less ":1863,"ham":1864,"might ":1865,"social ":1866,"Min":1867,"place ":1868,"have to ":1869,"ax":1870,"Credit: ":1871,".'\n":1872,"Pal":1873,"grow":1874,"pop":1875,"nor":1876,"after the ":1877,"auth":1878,"bor":1879,", they ":1880,"urg":1881,"support ":1882,"left ":1883,"s, and ":1884,"ith ":1885,"At":1886,"Mc":1887,"ency ":1888,"succ":1889,"real":1890,"I've ":1891,"eve ":1892,"wrot":1893,"reve":1894,"erg":1895,"political ":1896,"caus":1897,"ation, ":1898,"Republic":1899,"For ":1900,"del":1901,"infl":1902,"on S":1903,"ief":1904,"United ":1905,"inj":1906,"alleg":1907,"y. ":1908,"stag":1909,"los":1910,"secur":1911,"system":1912,"foot":1913,"play ":1914,"ball ":1915,"an, ":1916,"a h":1917,"without ":1918,"wer":1919,"whil":1920,"scor":1921,"al, ":1922,": '":1923,"vent":1924,"e to the ":1925,"ink":1926,"found ":1927,"set":1928,"s of the ":1929,"Democrat":1930,"urs":1931,"crim":1932,"put ":1933,"day.\n":1934,"int ":1935,"saf":1936,"feel":1937,"sist":1938,"build":1939,"26":1940,"s\" ":1941,"gg":1942,"sal":1943,"crit":1944,"fron":1945,"Jan":1946,"27":1947,"dra":1948,"used ":1949,"alleng":1950,"Be":1951,"had been ":1952,"u ":1953,"said the ":1954,"person ":1955,"doc":1956,"e to":1957,"allow":1958,"cri":1959,"ers and ":1960," per ":1961,"Gaz":1962,"during the ":1963,"One ":1964,"illi":1965,"how":1966,"esp":1967,"what":1968,"ake ":1969,"family ":1970,"New Yor":1971,"28":1972,"already ":1973,"some":1974,"TV":1975,"lim":1976,"develop":1977,"seem":1978,"ether ":1979,"'t":1980,"o.\n":1981,"ily ":1982,"fur":1983,"mus":1984,"e they ":1985,"e, and ":1986,"pri":1987,"investig":1988,"game ":1989,"organ":1990,"ton ":1991,"inform":1992,"ed to the ":1993,"ven":1994,"cover":1995,"sex":1996,"val":1997,"media ":1998,"product":1999,"33":2000,"a lo":2001,"pot":2002,"hold":2003," b":2004," of ":2005,"wif":2006,"Ham":2007,"cert":2008,"vir":2009,"previ":2010,"Man":2011,"port ":2012,"present":2013,"act ":2014,"It was ":2015,"peop":2016,", he ":2017,"ifi":2018,"100":2019,"ation of ":2020,"bab":2021,"erv":2022,"ing t":2023,"cel":2024,"ired ":2025,"ing his ":2026,"he's ":2027,"said, ":2028,"according to ":2029,"recent ":2030,"ploy":2031,"thing ":2032,"world ":2033,"away ":2034,"ices ":2035,"challeng":2036,"early ":2037,"fre":2038,"ank ":2039,"pay":2040,"ine":2041,"uck":2042,"pur":2043,"popul":2044,"consid":2045,"El":2046,"gett":2047,"remain":2048,"need to ":2049,"imm":2050,"viol":2051,"le.\n":2052,"American ":2053,"hour":2054,"ed his ":2055,"ress ":2056,"night":2057,"on a ":2058,"Ir":2059,"stitut":2060,"fund":2061,"use ":2062," trans":2063,"? ":2064,"ically ":2065,"was the ":2066,"47":2067,"ide ":2068,"compet":2069,"ali":2070,"eral ":2071,"y of ":2072,"abil":2073,"model":2074,"He":2075,"long ":2076,"ion to ":2077,"unch":2078,"fa":2079,"idd":2080,"ally":2081,"Col":2082,"came ":2083,"hol":2084,"deb":2085,"give ":2086,"char":2087,"al.\n":2088,"list":2089,"appro":2090,"week ":2091," million ":2092,"ly, ":2093,"show ":2094,"hard":2095,"As":2096,"Co":2097,"rais":2098," G":2099,"ospit":2100,"can be ":2101,"local ":2102,"going ":2103,"low":2104,"event":2105,"you're ":2106,"contr":2107,"empt":2108,"love ":2109,"called ":2110,"group ":2111,"ured ":2112,"high ":2113,"stre":2114,"I think ":2115,"- and ":2116,"igr":2117,"Lond":2118,"strik":2119,"fat":2120,"feel ":2121,"ed at ":2122,"Frid":2123,"memb":2124,"known ":2125,"ald ":2126,"meet":2127,"ures ":2128,"ing of ":2129,"sing":2130,"ought":2131,"government":2132,"ith":2133,"say ":2134,"fut":2135,"ity, ":2136," to t":2137,"iet":2138,"my":2139,"arly ":2140," team":2141,"On ":2142,"winn":2143,"fun":2144,"Christ":2145,"Lab":2146,"club":2147,"wa":2148,"i-":2149,"firm":2150,"election ":2151,"dro":2152,"feat":2153,"39":2154,"around":2155,"Fir":2156,"e\n":2157,"ribut":2158,"emp":2159,"coming ":2160,"regul":2161,"lob":2162,"ender":2163,"activ":2164,"compan":2165,"led ":2166,"Minist":2167,"36":2168,"ale ":2169,"\"We ":2170,"Mic":2171,"\"\n":2172," that's ":2173,"agre":2174,"life ":2175,"struct":2176,"does":2177,"went ":2178,"Mor":2179,"ee ":2180,"ys":2181,"Tues":2182,"compl":2183,"yp":2184,". S":2185,"What ":2186,"ird ":2187,"s were ":2188,"eb":2189,"In the ":2190,"reveal":2191,"foc":2192,"ies":2193,"result":2194,"does ":2195,"ately ":2196,"Oct":2197,"'ll ":2198,"win":2199,"ying ":2200,"proble":2201,"disc":2202,"Nov":2203,"Tim":2204,", th":2205,"light":2206,"win ":2207,"sugg":2208,"ld ":2209,"ies, ":2210,"ref":2211,"Dis":2212,"complet":2213,"no":2214,"ert":2215,"21":2216,"ue":2217,"ics ":2218,"six ":2219,"'s":2220,"ed as ":2221,"Gett":2222,"Wed":2223,"Jun":2224,"is not ":2225,"edly ":2226,"health ":2227,"out of ":2228,"final ":2229,"different ":2230,"echn":2231,"and t":2232,"element":2233,". He ":2234,"ben":2235,"company ":2236,"arn":2237,"mis":2238,"ven ":2239,"es are ":2240,"lov":2241,"Scot":2242,". I ":2243,", to ":2244,"ury ":2245,"urn ":2246,"amp":2247,"care":2248,"ood ":2249,"during ":2250,"rap":2251," took ":2252,"great ":2253,"must ":2254,"US":2255,"equ":2256,"s from ":2257,"country ":2258,"er's ":2259,"beh":2260,"party ":2261,"comment":2262,"children ":2263,"fail":2264,"andid":2265,"involv":2266,"Wednes":2267,"break":2268," too ":2269,"ed: \"":2270,"sport":2271,"ay, ":2272,"Cha":2273,"fel":2274,"become ":2275,"99":2276,"such as ":2277,"financ":2278,"receiv":2279,"potent":2280,"Hous":2281,"find ":2282,"a-":2283,"countr":2284,"ply ":2285,"got":2286,"women ":2287,", t":2288,"host":2289,"ing with ":2290,"a p":2291,"&auto=format&fit=max&s=":2292,"Ju":2293,"Am":2294,"sent":2295,"Thurs":2296,"concern":2297,"Pl":2298,"agu":2299,"several ":2300,"Ger":2301,"can't ":2302,"ass ":2303,"main ":2304,"23":2305,"star ":2306,", I ":2307,"usp":2308,"adi":2309,", with ":2310,"partn":2311,"secut":2312,"did not ":2313,"dd":2314,"second":2315,"Or":2316,"court ":2317," - ":2318,"view ":2319,").\n":2320,"president ":2321,"e, the ":2322,"ney ":2323,"up to ":2324,"jud":2325,"conf":2326,"Ex":2327,"something ":2328,"Gu":2329,"author":2330,"inal ":2331,"To ":2332,"group":2333,"cost":2334,"vel ":2335,"watch":2336,"ary":2337,"making ":2338,"often ":2339,"of their ":2340,"s with ":2341,"ath ":2342,"military ":2343,"descri":2344,"&d":2345,"cat":2346,"pr=":2347,"&auto=format&fit=max&d":2348,"depend":2349,"&auto=format&fit=max&dpr=":2350,"ativ":2351,"relation":2352,"season ":2353,"record":2354,"Ge":2355,"progr":2356,"South ":2357,"ball":2358,"29":2359,"medi":2360,"legal ":2361,"les ":2362,"ouldn't ":2363,"Bo":2364,"National ":2365,"ouse":2366,"at's ":2367,"48":2368,"His ":2369,"uary ":2370,"less":2371,"s have ":2372,"writ":2373,"health":2374," tog":2375,"suggest":2376,"nation":2377,"will":2378,"\\\"":2379,"Pro":2380,"Dr":2381," A":2382,"ah ":2383,"eck":2384,"ague ":2385,"until ":2386,"After ":2387,"experienc":2388,"bar":2389,"as well ":2390,"\"},{\"":2391,"on-":2392,"ity.\n":2393,"sch":2394,"ici":2395,"ca":2396,"Ro":2397,"employ":2398,"particul":2399,"Donald ":2400,"en.\n":2401,"celebr":2402,"ed. ":2403,"doesn't ":2404,"cust":2405,"all the ":2406,"s, the ":2407,"e their ":2408,"Mo":2409,"have a ":2410,"aur":2411,"ity to ":2412,"least ":2413,"t and ":2414,"It is ":2415,"driv":2416,"mer ":2417,"has":2418,"earli":2419,"e this ":2420,"it, ":2421,"ection ":2422,"against":2423,"Gre":2424,"campaign ":2425,"histor":2426,"raph":2427,"Cour":2428,"she was ":2429,"Cr":2430,"urd":2431,"49":2432,"Id":2433,"candid":2434,"jour":2435,"said. \"":2436,"ier ":2437,"his":2438,"room":2439,"live ":2440,"ense ":2441,"phot":2442,"ce":2443,"199":2444,"war ":2445,"susp":2446,"night ":2447,"book":2448,"hor":2449,"Dav":2450,"ism":2451,"far":2452,"staf":2453,"outh":2454,"could be ":2455,"oot":2456,"illion":2457,"en to ":2458,"ital ":2459,"edg":2460,"s a ":2461,"Israeli ":2462," is ":2463,"cou":2464,"dou":2465,"ord ":2466,"Jam":2467,"ood":2468,"gir":2469,"having ":2470,"ing. ":2471,"quart":2472,"capt":2473,"World ":2474,"keep ":2475,"Sec":2476,"fav":2477,"bel":2478,"school":2479,"Wal":2480,"comes ":2481,"Dec":2482,"hit ":2483,"s.":2484,"at a ":2485,"Austr":2486,"sw":2487,"ies.\n":2488,"ederal ":2489,"de ":2490,"per ":2491,"omin":2492,"ecut":2493,"Russian ":2494,"find":2495,"order ":2496,"New York ":2497,"creat":2498,"ures":2499,"reach":2500,"Israel ":2501,"young ":2502,"Octob":2503,"ials ":2504,"across the ":2505,"produc":2506,"was a ":2507,"ation and ":2508,"better ":2509,"Univers":2510,"dot":2511,"render":2512,"Se":2513,"half ":2514,"Trump's ":2515,"earch ":2516,"So ":2517,"far ":2518,"level":2519,"fric":2520,"type":2521," team ":2522,"body ":2523,"My ":2524,"Rob":2525,", in ":2526,"mean":2527,"ax ":2528,"flo":2529,"suff":2530," he said.\n":2531,"scen":2532,"mitt":2533,"why ":2534,"37":2535,"hospit":2536,"opport":2537,"opportun":2538,"deli":2539,"case ":2540,"leav":2541,"divid":2542,"page":2543,"ed to be ":2544,"ending ":2545,"field":2546,"in their ":2547,"hon":2548,"security ":2549,"year, ":2550,"energ":2551,"left":2552,"here ":2553,"ed from ":2554,"year.\n":2555,"canc":2556,"major ":2557,"Austral":2558,"Mus":2559,"ally, ":2560,"Harris ":2561,"priv":2562,"Afric":2563,"ed her ":2564,"move ":2565,"even":2566,"good":2567,"Dep":2568,"ra ":2569,"ing their ":2570," thre":2571,"imag":2572,"short":2573,"ean":2574,"Ed":2575,"tim":2576,"appl":2577,"or, ":2578,"ets ":2579,"upt":2580,"66":2581,"UK ":2582,"er in ":2583,"effort":2584,"campaign":2585,", there ":2586,"ed up ":2587,"fal":2588,"countri":2589,"four":2590,"keep":2591,"sen":2592,"rendering":2593,"past ":2594,"ensive ":2595,"Block":2596,"care ":2597,"when":2598,"effect":2599,"Palest":2600,"ley ":2601,"However, ":2602," turn":2603,"part of ":2604,"var":2605,"money ":2606,"dri":2607,"along":2608,"ere's ":2609,"avail":2610,"Off":2611,"] ":2612,"kid":2613,"ern":2614,"aj":2615,"ling ":2616,"days ":2617,"film":2618,"sett":2619,"eld ":2620,"one of ":2621,"agg":2622,"peri":2623,"bigg":2624,"38":2625,"speak":2626,"cut":2627,"number of ":2628,"almost ":2629,"fight":2630,"sinc":2631,"hap":2632,"dotcom":2633,".page":2634,".dotcom":2635,"Elements.":2636,"model.dotcom":2637,"rendering.page":2638,"model.dotcomrendering.page":2639,"model.dotcomrendering.pageElements.":2640,"55":2641,"imate ":2642,"bal":2643,"ants ":2644,",'":2645,"Acc":2646,"!\n":2647,"air ":2648,"dam":2649,"administ":2650,"respond":2651,"rang":2652,"once ":2653,"ism ":2654,"Cent":2655,"report ":2656,"great":2657,"While ":2658,"oppos":2659,"you can ":2660,"warn":2661,"er-":2662,"che":2663," trad":2664,"un ":2665,"benef":2666,"\" and ":2667,"aver":2668,"88":2669,"ograph":2670,", that ":2671,"face ":2672,"emerg":2673,"ST":2674,"round":2675,"Cong":2676,"fig":2677,"erc":2678,"ourc":2679,"peopl":2680,"cal":2681,"chief":2682,"run ":2683,"describ":2684,"har":2685,"ists ":2686,"signific":2687,"further ":2688,"mind":2689,"kind ":2690,"mess":2691,"err":2692,"getting ":2693,"Georg":2694,"es for ":2695,"proper":2696,"and, ":2697,"launch":2698,"believe ":2699,"walk":2700,"series ":2701,"Cor":2702,"conn":2703,"bb":2704,"we're ":2705,"ban":2706,"o-":2707,"visit":2708,"plat":2709,"eign ":2710,"ay.\n":2711,"key ":2712,"mad":2713,"icture":2714," year":2715,"execut":2716,"elementId":2717,"'s t":2718,"point ":2719,"ether":2720,"ed that the ":2721,"ards ":2722," per":2723,"international ":2724,"pric":2725,"solut":2726,"little ":2727,"British ":2728,"ers to ":2729," L":2730,"amb":2731,"attempt":2732,"'d ":2733,"Pe":2734,"ru":2735,"held ":2736,"design":2737,"refer":2738,"is, ":2739,"of this ":2740,"becom":2741,"dist":2742," that they ":2743,"Wash":2744,"With ":2745,"glob":2746,"mult":2747,"ages":2748,"West ":2749,"De":2750,"real ":2751,"video ":2752,"ed t":2753,"ult ":2754,"explain":2755,"34":2756,"spect":2757,"te":2758,"e for ":2759,"believ":2760,"later ":2761,"BlockElement":2762,"and that ":2763,"in this ":2764,"ers are ":2765,"prim":2766,"water ":2767,"Fl":2768,"ony ":2769," there's ":2770,"ur ":2771,"elling ":2772,"class":2773,"pay ":2774,"Apr":2775,"Em":2776,"cast":2777,"ity and ":2778,"strug":2779,"public":2780,"State ":2781,"scre":2782,"ting ":2783,"likel":2784,"ock ":2785,"Washing":2786,"be the ":2787,"servic":2788,"working ":2789,"ig ":2790,"attack ":2791," try":2792,"woman ":2793,"arrest":2794,"itive ":2795,"step":2796,"England ":2797,"Sen":2798,"ump":2799,"said that ":2800,"Di":2801,"last":2802,"custom":2803,", this ":2804,"z ":2805,"clear":2806,"500":2807,"audi":2808,"officials ":2809,"i, ":2810,"met":2811,"strat":2812,"committ":2813,"daugh":2814,"action ":2815,"ml":2816,"ed to":2817,"lymp":2818,"stu":2819,"food ":2820,"detail":2821,"Olymp":2822,"bir":2823,"These ":2824,"siz":2825,"full ":2826,"espec":2827,"program":2828,"Part":2829,"profess":2830,"interest":2831,"discus":2832,"Har":2833,"e\" ":2834,"court":2835,"Sy":2836,"success":2837,"roc":2838,"out the ":2839,"decid":2840,"wear":2841,"spir":2842,"Aug":2843,"an's ":2844,"icip":2845,"ech":2846,"im ":2847,"contribut":2848,"of t":2849,"s - ":2850,"en't ":2851,"itional ":2852,"Palestin":2853,"ed an ":2854,"road":2855," years ":2856,"46":2857,"ash ":2858,"html":2859,"Joh":2860,"fall":2861,"ipp":2862,"earch":2863,"quick":2864,"ole ":2865,"as he ":2866,"ument":2867,"but the ":2868,"young":2869,"Republican ":2870,"House ":2871,"BB":2872,"D ":2873,"'s the ":2874,"ingly ":2875,"school ":2876,"due to ":2877,"before the ":2878,"y\n":2879,"ral ":2880,"ward ":2881,"situ":2882,"ient":2883,"alk ":2884,"decad":2885,"er. ":2886," per cent ":2887,"uch":2888,"inst":2889,"let ":2890,"ia, ":2891,"won":2892,"arget":2893,"deal ":2894,">,\"\"":2895,"Count":2896,"when the ":2897,"against the ":2898," ...":2899,"s at ":2900,"78":2901,"a \"":2902,"champ":2903,"problem":2904,"season":2905,"spokes":2906,"market":2907,"critic":2908,"ors":2909,"felt ":2910,"using ":2911,"stagr":2912,"ahead ":2913,"es in the ":2914,"selv":2915,"given ":2916,"big ":2917,"edd":2918,"asked ":2919,"Net":2920,"cult":2921,"industr":2922,"TV ":2923,"members ":2924,"alth":2925,"access":2926,"protest":2927,"arriv":2928,"business ":2929,"y-":2930,"sam":2931,"Per":2932,"RE":2933,"io ":2934,"ather":2935,"heav":2936,"lex":2937,"That's ":2938,"Ang":2939,"European ":2940,"should be ":2941,"North ":2942,"someone ":2943,"appoint":2944,"meas":2945,"few ":2946,"lab":2947,"ership ":2948,"dev":2949,"account":2950,"\":\"<":2951,"fect ":2952,"ict ":2953,"City ":2954,"hus":2955,"noth":2956,"relat":2957,"immedi":2958,"ion and ":2959,"form ":2960,"wasn't ":2961,"Franc":2962,"join":2963,"fans ":2964,"poll":2965,"change ":2966,"ike ":2967,"cros":2968,"in his ":2969,"Stat":2970,"looking ":2971,"cit":2972," term":2973,"across ":2974,"ix":2975,"raf":2976,"pract":2977,"statement":2978,"chanc":2979,"ount ":2980,"we are ":2981,"plann":2982,"nearly ":2983,"Sup":2984,"alli":2985,"ull":2986,"mid":2987,"sect":2988,"around the ":2989,"ham ":2990,"ech ":2991,"whether ":2992,"match":2993,"a lot of ":2994,"financial ":2995,"Accord":2996,"moment":2997,"Instagr":2998,"based ":2999,"death":3000,"vo":3001,"stra":3002,"who":3003," to a ":3004,"valu":3005,"late ":3006,"presidential ":3007,"Char":3008,"players ":3009,"wind":3010,"publish":3011,"Willi":3012,"ed out ":3013,"31":3014,"sens":3015,"ani":3016,"cris":3017,"drug":3018,"start ":3019,"promis":3020,"propos":3021,"Cali":3022,"Inter":3023,".com":3024,"Sm":3025,"T ":3026,"ament":3027,"Joe ":3028,"civ":3029,"hy":3030,"John":3031,"death ":3032,"which":3033,"clear ":3034,"echnolog":3035,"men ":3036,"of his ":3037,"ich":3038,"at least ":3039,"market ":3040,"Police ":3041,"charact":3042,"Sund":3043,"vol":3044,"que ":3045,"latest ":3046,"a few ":3047,"iec":3048,"stand ":3049,"forn":3050,"chest":3051,"Black ":3052,"agn":3053,"John ":3054,"Can":3055,"er this ":3056,"e tim":3057,"artment ":3058,"Minister ":3059,"65":3060,"West":3061,"ford":3062,"official ":3063," through the ":3064,"Californ":3065," than":3066,"e tr":3067,"This is ":3068,"statement ":3069,", it ":3070,"Bar":3071,"No":3072,"eit":3073,"ator ":3074,"compar":3075,"current ":3076,"sty":3077,"mental ":3078,"had a ":3079,"month ":3080,"198":3081,"major":3082,"pen":3083,"ages ":3084,"e that":3085,"doing ":3086,"deal":3087,"evid":3088,"prosecut":3089,"pret":3090,"enj":3091,"else":3092,"44":3093,"used to ":3094,"blo":3095,"age of ":3096,"viron":3097,"ate":3098,"room ":3099,"months ":3100,"70":3101,"(P":3102,"Li":3103,"squ":3104,"dest":3105,"ively ":3106,"sor":3107,"business":3108," they're ":3109,"ery ":3110,"ones ":3111,"sav":3112,"protect":3113,"L ":3114,"em ":3115,"law ":3116,"At ":3117,"uck ":3118,"news ":3119,"wel":3120,"open ":3121,"rav":3122,"link":3123,"if you ":3124,"been":3125,"Text":3126,"batt":3127,"Publ":3128," threat":3129,"ions.\n":3130,"July ":3131,"done ":3132,"and then ":3133,"uge ":3134,"mot":3135,"quite ":3136,"ore ":3137,"draw":3138,"girl":3139,"Sept":3140,"rupt":3141,"ail ":3142,"cd":3143,"hold ":3144,"ench ":3145,"people":3146,"Ab":3147,"fear":3148,"surv":3149,"responsi":3150,"kind of ":3151,"call ":3152,"safet":3153,"No ":3154,"sle":3155,"ground":3156,"marri":3157,"75":3158,"dre":3159,"hic":3160,"ground ":3161,"ing in the ":3162,"is to ":3163,"inste":3164,"individ":3165,"record ":3166,"in t":3167,"por":3168,"represent":3169,"e, but ":3170,"actually ":3171,"ept ":3172,"ness ":3173,"ens ":3174,"makes ":3175,"book ":3176,"project":3177,"administr":3178,"especially ":3179,"struggl":3180," things ":3181,"again ":3182,"s to be ":3183,"said he ":3184,"power":3185,"in M":3186," trying to ":3187,"sess":3188,"itor":3189,"as they ":3190,"Res":3191,"hot":3192,"ended ":3193,"300":3194,"ed their ":3195,"husb":3196,"initi":3197,"one":3198,"half":3199,"69":3200,"ual":3201,"ions, ":3202,"ural ":3203,"beaut":3204,"Phot":3205,"An ":3206,"running ":3207,"brok":3208,"economic ":3209,"June ":3210,"ing up ":3211,"reason":3212,"injur":3213,"Democratic ":3214,"Labour ":3215,"leave ":3216,"Images":3217,"gave ":3218,"nec":3219,"among ":3220,"saw ":3221,"ts ":3222,"y t":3223,".</":3224,"dict":3225,"ild":3226,"house ":3227,"strong>":3228,"rate ":3229,"defin":3230,"ogn":3231,"42":3232,"educ":3233,"when he ":3234,"orig":3235,"ing her ":3236,"dang":3237,"word":3238,"surg":3239,"director ":3240,"net":3241,"model.dotcomrendering.pageElements.Text":3242,"model.dotcomrendering.pageElements.TextBlockElement":3243,"Some ":3244,"08":3245,"itch":3246,"part ":3247,"- the ":3248,"as well as ":3249,"ee":3250,"ness":3251,"politic":3252,"ba":3253,"became ":3254,"not be ":3255,"social media ":3256,"free ":3257,"es on ":3258,"I have ":3259,"seek":3260,"want ":3261,"ina ":3262,"confirm":3263,"finish":3264,"White ":3265,"added.\n":3266,"cost ":3267,"federal ":3268,"ardi":3269,"India ":3270,"October ":3271,"Ms ":3272,"Med":3273,"sup":3274,"League ":3275,"Nig":3276,"aged ":3277,"web":3278,"tern":3279,"eful":3280,"omb":3281,"otal ":3282,"comb":3283,"There's ":3284,"vehic":3285,"seven ":3286,"strong ":3287,". It ":3288,"overn":3289,"global ":3290,"estim":3291,"\":[":3292,"fully ":3293," R":3294,"cy":3295,"car ":3296,"etim":3297,"depart":3298,"part of the ":3299,"32":3300,"mem":3301,"recently ":3302,"March ":3303,"influ":3304,"lost ":3305,"shoot":3306,"recogn":3307,"p>":3308,"rid":3309,"won ":3310,"shot ":3311,"house":3312,"Getty ":3313,"murd":3314,"argu":3315,"probab":3316,"58":3317,"Gl":3318,"on's ":3319,"All":3320,"may":3321,"row":3322,"deter":3323,"in, ":3324,"68":3325,"bi":3326,"able":3327,"NA":3328," a ":3329,"exam":3330,"super":3331,"prepar":3332,"provide ":3333,"time ":3334,"anal":3335,"ousand":3336,"icket":3337,"strateg":3338,"two ":3339,"off the ":3340,"co-":3341,"O ":3342,"gen":3343,"whose ":3344,"organiz":3345,"rough":3346,"ww":3347,"reli":3348,"important ":3349,"s to the ":3350,"\"},{\"_":3351,"interest ":3352,". But ":3353,"life":3354," taken ":3355,"power ":3356,"Angel":3357,"Dur":3358,"past":3359,"only":3360,"extrem":3361,"film ":3362,"eight ":3363,"ago ":3364,"we have ":3365,"han ":3366,"spac":3367,"experience ":3368,"enior ":3369,"Just":3370,"assist":3371,"enough":3372,"along ":3373,"behind ":3374,"deliver":3375,"y that ":3376,"ator":3377,"I am ":3378,"ers in ":3379,"field ":3380,"Febr":3381,", as ":3382,"need ":3383,"better":3384,"everyone ":3385," T":3386,"likely to ":3387,"ae":3388,"forward":3389,"resident":3390,"risk ":3391,"May":3392,"environ":3393,"achi":3394,"potential ":3395,"ed on the ":3396,"sequ":3397," H":3398,"office ":3399,", \"":3400,"ather ":3401,"old the ":3402,"cli":3403,"from a ":3404,"strict":3405,"I don't ":3406,"'.\n":3407,"your":3408,"consider":3409,"false":3410,"appe":3411,"push":3412,"Display":3413,"online ":3414," to take ":3415,"Del":3416,"avo":3417,"risk":3418," K":3419,"sun":3420,"redi":3421,"affect":3422,"ies and ":3423," taking ":3424,"include ":3425,"simil":3426,"south":3427," third ":3428,"ins":3429,"aid":3430,"city ":3431,"dig":3432,"y the ":3433,"al t":3434,"Stre":3435,"special ":3436,"currently ":3437,"London ":3438,"clus":3439,"62":3440,"had to ":3441,"victim":3442,"previously ":3443,"Govern":3444,"sn":3445,"atter":3446,"human ":3447,"crow":3448,"**":3449,"bit":3450,"most":3451,"to":3452,"unch ":3453,"First":3454,"ap ":3455,"story ":3456,"is that ":3457,"event ":3458,"David ":3459,"ility ":3460,"level ":3461,"vert":3462," thing":3463,", S":3464,", she ":3465,"grad":3466,"foreign ":3467,"consum":3468," they were ":3469,"desp":3470," for ":3471,"ing an ":3472,"Ital":3473,"January ":3474,"Christm":3475,"09":3476,"ird":3477,"350":3478,"name ":3479,"accept":3480,"Ukraine ":3481,"future ":3482,"mo":3483,"biggest ":3484,"cut ":3485,"natur":3486,"neigh":3487,"fair":3488,"side the ":3489,"began ":3490,"important":3491,"Ap":3492,"ric ":3493,"itions ":3494,"rout":3495,"fb":3496,"went":3497,"AI ":3498,"coun":3499,"light ":3500,"won't ":3501,"a new ":3502,"er of the ":3503,"icture: ":3504,"nal":3505,"personal ":3506,"ed in a ":3507,"on M":3508,"raz":3509,"information ":3510,"much":3511,". H":3512,"ink ":3513,"thern ":3514,"maint":3515,"Scott":3516,"I think":3517,"Sun":3518,"pick":3519,"yet ":3520," tow":3521,"alt":3522,"multi":3523,"lad":3524,"with his ":3525,"les":3526,"according to the ":3527,"77":3528,"pan":3529,"seat":3530,"Department ":3531,"ing this ":3532,"advis":3533,"fire ":3534,"confl":3535,"express":3536,"intro":3537," they are ":3538," P":3539,"yn":3540,"via ":3541,"November ":3542,"discuss":3543,"uni":3544,"rain ":3545,"piec":3546,"roy":3547,"chief ":3548,"connect":3549,"ren":3550,"worth ":3551,"All ":3552,"-b":3553,"is also ":3554,"area ":3555,"energy ":3556,"Getty Images":3557,"pack":3558,"started ":3559,"does not ":3560,"aint":3561,"s like ":3562,"ouch":3563,"has a ":3564,"ength":3565,"Indian ":3566,"620":3567,"CE":3568,"ing it ":3569,"If you ":3570,"e, which ":3571,"way to ":3572,"Ag":3573,"Wat":3574,"cir":3575,"repe":3576,"is.\n":3577,"heart":3578,"--":3579,"anim":3580,"But the ":3581,"child":3582," talk":3583,"ised ":3584,"es, and ":3585,"particularly ":3586,"es a ":3587,"in an ":3588,"isn't ":3589,"exist":3590,"secret":3591," percent ":3592,"April ":3593,"prog":3594,"605":3595,"News ":3596,"approach":3597,"judg":3598," minut":3599,"59":3600,"ary, ":3601,"earn":3602,"best":3603,"aking ":3604,"high-":3605,"men":3606,"atel":3607,"likely ":3608,"ified ":3609,"a S":3610,"improv":3611,"weap":3612,"phys":3613,"in-":3614,"others ":3615,"cu":3616,"dom":3617,"on to ":3618,"ions":3619,", then ":3620,"Another ":3621,"holid":3622,"\"It's ":3623,"offer ":3624,"carri":3625,"child ":3626," terr":3627,"prior":3628,"small ":3629,"continue to ":3630,"uce ":3631,"press ":3632,"Cam":3633,"ence.\n":3634,"on his ":3635,"s. The ":3636,"ier":3637,"stay ":3638,"promot":3639,"general ":3640,"previous ":3641,"NB":3642,"Go":3643,"ford ":3644,"we've ":3645,"Prime ":3646,"despite ":3647,"Ever":3648,"reduc":3649,"Gaza ":3650,"wait":3651,"64":3652,"AP":3653,"n't":3654,"among":3655,"astr":3656,") and ":3657,"Pet":3658,"ij":3659,"}]":3660,"an.\n":3661,"ed out":3662,"es\" ":3663," that he ":3664,"establ":3665,"playing ":3666," D":3667," F":3668,"fill":3669,"accused ":3670,"people who ":3671,"French ":3672,"Flor":3673,"vill":3674,"prove ":3675,"back to ":3676,"private ":3677,"Last ":3678,"prec":3679,"ed it ":3680,"cons":3681,"eam ":3682,"see":3683,"everything ":3684," them.\n":3685,"ender ":3686,"into a ":3687,"determin":3688,"norm":3689,"Mat":3690,"as an ":3691,"goal":3692,"under the ":3693,"soci":3694,"ate the ":3695,"ung":3696,"enjoy":3697,"Fo":3698,"swe":3699,"learn":3700,"parent":3701,"policy ":3702,"immigr":3703,"met ":3704,"anch":3705,"iddle ":3706,"white ":3707,"cast ":3708,"s, but ":3709,"doct":3710,"dead":3711,"In a ":3712,"Champ":3713,"s, which ":3714,"himself ":3715,"bill":3716,"ark ":3717,"whole ":3718,"ensur":3719,"understand":3720,"Ne":3721,"mother ":3722,"ordin":3723,"respect":3724,"community ":3725,"available ":3726,"Ear":3727,"Kor":3728,"der":3729,"on and ":3730,"attend":3731,"ject ":3732,"icult":3733,"ment.\n":3734,"hur":3735,"es\n":3736,"box":3737,"expected to ":3738,"front":3739,"Court ":3740,"migr":3741,"yl":3742,"up the ":3743,"ure.\n":3744,"I'd ":3745,"surpris":3746,"remain ":3747,"between the ":3748,"Donald Trump ":3749,"cul":3750,"sil":3751,"67":3752,"fire":3753,"independ":3754,"are t":3755,"following ":3756,"history ":3757," \"":3758,"Sch":3759,"e on ":3760,"ala ":3761,"phone ":3762,"data ":3763,"Su":3764,"urb":3765,"check":3766,"staff ":3767,"445":3768,"600":3769,"Cap":3770,"bud":3771,"s on the ":3772,"emot":3773,"interview":3774,"service ":3775,"EU":3776,"for their ":3777,"There are ":3778,"collect":3779,"are the ":3780,"ence, ":3781,"medical ":3782,"Friday ":3783,"ym":3784,"necess":3785,"or.\n":3786,"conc":3787,"ible ":3788,"Jap":3789,"Spe":3790,"ne ":3791,"on their ":3792,"him.\n":3793,"Satur":3794,"s' ":3795,"enough ":3796,"es were ":3797,"decl":3798,"question":3799,"since the ":3800,"Sw":3801,"six":3802,"dog":3803,"ana ":3804,"some of the ":3805,"Russia ":3806,"human":3807,"ly.\n":3808,"ins ":3809,". (":3810,"attent":3811,"He was ":3812,"condition":3813,"art ":3814,"is an ":3815,"rif":3816,"boy":3817,"friend ":3818,"process":3819,"self-":3820,"probably ":3821,"Irel":3822,"pet":3823,"wond":3824,", we ":3825,"Micha":3826,"s-":3827,"for his ":3828," their":3829,"Niger":3830,"post ":3831,"in.\n":3832,"age.\n":3833,"Hamas ":3834,"relationship ":3835,"Chief":3836,"soon ":3837,"Our ":3838,"s: ":3839,"igg":3840,"wanted to ":3841,"games ":3842,".,":3843,"=\\\"":3844,"Mean":3845,"one.\n":3846,"ace":3847,"would have ":3848," people ":3849,", M":3850,"anti-":3851,"dram":3852,":\n":3853,"Sim":3854,"Tex":3855,"match ":3856,"aa":3857,"means ":3858,"a little ":3859,"certain":3860,"significant ":3861," thought":3862,"refl":3863,"share ":3864,"ished":3865,"First ":3866,"UN":3867,"ush ":3868,"ayl":3869,"broad":3870,"ai":3871,"top ":3872,"ing about ":3873,"ift":3874,"They":3875,"anyone ":3876,"popular ":3877,"be t":3878,"stop ":3879,"added: \"":3880,"pair ":3881,"400":3882,"the":3883,"control ":3884,"fall ":3885,"s or ":3886,"assa":3887,". We ":3888,"leagu":3889,"close ":3890,"climate ":3891,"out of the ":3892," tran":3893,"\":[{\"":3894,"sure ":3895,"one, ":3896,"stay":3897,"confer":3898,"ner":3899,"pict":3900,"rather":3901,"(Picture: ":3902,"Pat":3903,"Manchest":3904,"stain":3905,"iles ":3906,". B":3907,"board ":3908,"legis":3909,"uel":3910,"like the ":3911,"71":3912,"on Tues":3913,"ull ":3914,"df":3915,"ouncil ":3916,"lead ":3917,"have the ":3918,"quot":3919,"onday ":3920,"not to ":3921,"large ":3922,"job ":3923,"aid ":3924,"however":3925,"and to ":3926,"separ":3927,"after a ":3928,"We're ":3929,"How ":3930,"Serv":3931,"Up":3932,"weeks ":3933,"either ":3934,"Ke":3935,"Kam":3936,", was ":3937," themselv":3938," C":3939," says ":3940,"If":3941,"ea":3942,"ably ":3943,"encour":3944,"said in a ":3945,"on Sund":3946,"bur":3947,"e in the ":3948,"step ":3949,"particip":3950,"bank":3951,"atic ":3952,"er for ":3953," BST":3954,"era ":3955,"incident":3956," she said.\n":3957,"ky ":3958,"univers":3959,"y, and ":3960,"spr":3961,"offer":3962,"ance, ":3963,"decision ":3964,"non-":3965,"goal ":3966,"Scottish ":3967,"O'":3968,"gi":3969,"sent ":3970,"197":3971,"ance of ":3972,"Put":3973,"Type":3974,"><":3975,"ired":3976,"elev":3977,"ations, ":3978,"Fin":3979,"van":3980," tour":3981,"es of the ":3982,"oci":3983,"brought ":3984,"anything ":3985,"long-":3986,"hund":3987,"as \"":3988,"convers":3989,"ellig":3990,"AI":3991,"Jos":3992,"acy ":3993,"create ":3994,"weight":3995,"country":3996,"voters ":3997,"James ":3998,"Mad":3999,"ask ":4000,"Prem":4001,"hard ":4002,"it to ":4003,"es have ":4004,"age, ":4005,"spent ":4006,"Ukrainian ":4007,"possible ":4008,"pli":4009,"\":{\"":4010,"ia's ":4011,"moment ":4012,"57":4013,"Bel":4014,". They ":4015,"leader ":4016,"journal":4017,"saying ":4018,"democ":4019,"Los ":4020,"roll":4021,"price ":4022,"lawy":4023,"demand":4024,"wo-":4025,"organis":4026,"e: ":4027,"gun":4028,", you ":4029,"bour":4030,"erous ":4031," thousand":4032,"ific ":4033,"during a ":4034,"where the ":4035," thought ":4036,"ane ":4037,"estiv":4038,"day's ":4039,"Chinese ":4040,"while, ":4041,"Peo":4042,"icat":4043,"edul":4044,"it of ":4045,"said: '":4046,"date ":4047,"and a ":4048,"He's ":4049,"Sha":4050,"she":4051,"interview ":4052,"end of ":4053,"site ":4054,"er than ":4055,"s (":4056,"ert ":4057,"amm":4058,"coach ":4059,"stop":4060,"ellow ":4061,"Her ":4062,"bd":4063,"paid ":4064,"document":4065,"dropp":4066,"focus ":4067,"With":4068,"on Wednes":4069,"she's ":4070,"Now":4071,"bow":4072,"absolut":4073,"ations.\n":4074,"ers of ":4075,"grand":4076,"respons":4077,"introd":4078,"89":4079,"read ":4080,"convict":4081,"eful ":4082,"camp":4083," was ":4084,"Many ":4085,"hand ":4086,"lit":4087,", so ":4088,"Associ":4089,"Washington ":4090,"multiple ":4091,"Roy":4092,"couldn't ":4093,"pleas":4094,"lear":4095,"black ":4096,"Air":4097,"morn":4098,"played ":4099,"going to be ":4100,"focus":4101,"Que":4102,"yet":4103,"plan ":4104,"rip":4105,"excit":4106,"86":4107,"uel ":4108,"er is ":4109,"ion of the ":4110,"eff":4111,"angu":4112,"victory ":4113," together ":4114,"Ac":4115,"onn":4116,"alth ":4117,"replac":4118,"ation to ":4119," billion ":4120,"instead ":4121,"CB":4122,"burg":4123,"serious ":4124,"position ":4125,"ustri":4126,"pati":4127,"Jer":4128,"ing from ":4129,"comfort":4130,"term ":4131,"music ":4132,"William":4133,"Cel":4134,"bott":4135,"en and ":4136,"recover":4137,"essent":4138,"behind":4139,"52":4140,"Act":4141,"rief":4142,"largest ":4143,"AR":4144,"o and ":4145,"Mart":4146,"ed \"":4147,"ed its ":4148,"ing at ":4149,"wife ":4150,"executive ":4151,"72":4152,"den":4153,"ver ":4154,"of them ":4155,"ody ":4156,"who was ":4157,"heard ":4158,"ster":4159,"stopp":4160,"a B":4161,"research ":4162,"ify ":4163,"engag":4164,"Michael ":4165,"also":4166,"iff":4167,"e. The ":4168,"him to ":4169,"Published":4170,"AN":4171," train":4172,"antly ":4173,"platform":4174,"Tik":4175,"of those ":4176,"bring ":4177,"difficult":4178,"daughter ":4179,"declar":4180,"ag ":4181,"and they ":4182,"% of ":4183,"blockFirst":4184,"blockFirstPublished":4185,"ing them ":4186,"re-":4187,"that ":4188,"conv":4189,"weapon":4190,"E ":4191,"he had ":4192,"on Thurs":4193,"approv":4194,"obvi":4195,"servative ":4196,"August ":4197,"he is ":4198,"save ":4199,"years, ":4200,"Florid":4201,"of these ":4202,"unn":4203,"exic":4204,"company":4205,"set to ":4206,"December ":4207,"cb":4208,"round ":4209,"},\"":4210,", is ":4211,"emic":4212,"board":4213,"don't":4214,"Palestinian ":4215,"fast":4216,"zer":4217,"er was ":4218,"eter":4219,"196":4220,"s as ":4221,"ed at the ":4222,"force ":4223,"with her ":4224,"students ":4225,"China ":4226,"ability ":4227,"course":4228,"Biden's ":4229,"may be ":4230,"Jud":4231,". And ":4232,"associ":4233,"maz":4234,"restaur":4235,"impact":4236,"certain ":4237,"father ":4238,"studi":4239,"mass":4240,"an un":4241,"ers have ":4242,"ation in ":4243,"According to ":4244,"Ky":4245,"abort":4246,"shock":4247,"guil":4248,"Lo":4249,"Mac":4250,"Val":4251,"oud ":4252,"position":4253,"regard":4254,"club ":4255,"citiz":4256,"AF":4257,"egr":4258,"ed about ":4259,". In ":4260,"emper":4261,"abilit":4262," tru":4263,"says.\n":4264,"rock":4265,"ili":4266,"park":4267," time.\n":4268,"reme ":4269,"demon":4270,"Gener":4271,"sha":4272,"performance ":4273,"football ":4274,"County ":4275,"54":4276,"Qu":4277,"conduct":4278,"People ":4279,"Wil":4280,"fight ":4281,"next":4282,"sourc":4283,"Thom":4284,"criminal ":4285,"nothing ":4286,", to":4287,"ER":4288,"ron":4289,"arian ":4290,"Paris ":4291,"on Satur":4292,"jok":4293,"regist":4294,"matter ":4295,"build ":4296,"country's ":4297,"favour":4298,"Canad":4299,"pretty ":4300,"review":4301,"in B":4302,". She ":4303,"space ":4304,"TikT":4305,"Cup ":4306,", or ":4307,"an and ":4308,"research":4309,"prime ":4310,"building ":4311,"spokesperson ":4312,"ledg":4313,"stage ":4314,"or of ":4315,"incredi":4316,"CO":4317,"Gam":4318,"in S":4319,"shot":4320,".m":4321,"s about ":4322,"one-":4323,"ed with the ":4324,"last year":4325,"e is ":4326,"he has ":4327,"craf":4328,"in and ":4329,"sport ":4330," them to ":4331,"declin":4332,"food":4333,"fortun":4334,"Des":4335,"ed into ":4336,"es - ":4337,"sometim":4338,"-time ":4339,"staff":4340,"Her":4341,"fli":4342,"hit":4343,"senior ":4344,"birth":4345,"Just ":4346,"Ob":4347,"pap":4348,"ton":4349,"havi":4350,"born ":4351,"Mos":4352,"gold ":4353,"up.\n":4354,"icket ":4355,"Def":4356,"e of the ":4357,"road ":4358,"ance.\n":4359,"\"S":4360,"arch":4361,"ing out ":4362,"ago":4363,"ple of ":4364,"end of the ":4365,"official":4366,"IN":4367,"Ros":4368,"gn":4369,"me, ":4370,"coach":4371,"brand":4372,"player ":4373,"wood ":4374,"establish":4375,"han":4376,"brid":4377,"leading ":4378,"minister ":4379,"Of ":4380,"sell":4381,"investigation ":4382,"gar":4383,"if the ":4384,"who are ":4385,"ized ":4386,"BBC ":4387,"is no ":4388,"as it ":4389," there":4390,"killed ":4391,"crimin":4392,").":4393,"years.\n":4394," there are ":4395,"aul ":4396,"pressure ":4397,"sexual ":4398,"Christmas ":4399,"Not ":4400,"race ":4401,"aily ":4402,"on t":4403,"e there ":4404,"sure":4405,"remov":4406,"Andre":4407,"member ":4408,"ed of ":4409,"ess.\n":4410,"or and ":4411,"outside ":4412,"Star":4413,"key":4414,"down the ":4415,"companies ":4416,"Los Angel":4417,"cop":4418,"agenc":4419,"because of ":4420,"ught ":4421,"career ":4422," to have ":4423,"ent.\n":4424,"election":4425,"growing ":4426,"surviv":4427,"sustain":4428,"action":4429,"Amaz":4430,"May ":4431,"Tayl":4432,"ious":4433,"ing of the ":4434,"and their ":4435,"bey":4436," to their ":4437,"impact ":4438,"abb":4439,"into":4440,"allow ":4441,"we can ":4442,"small":4443,"Even ":4444,"border ":4445,"accus":4446,"Scotland ":4447,"Day ":4448,"zz":4449,"above ":4450,"consist":4451,"line":4452,"drink":4453,"higher ":4454,"wrong":4455," --":4456,"fem":4457,"final":4458,"parents ":4459,"cred":4460,"rev":4461,"recomm":4462,"it and ":4463,"lot ":4464,"epis":4465,"remark":4466,"Manchester ":4467,"es from ":4468,"behavi":4469,"comment ":4470," try to ":4471,"return ":4472,"schedul":4473,"Met":4474,"bly ":4475,"es, the ":4476,". This ":4477,"ure, ":4478,"beautif":4479,"?\"":4480,"NH":4481,"ate, ":4482,"guid":4483,"a sm":4484,"ators ":4485,"ure of ":4486,"ation of the ":4487,"knew ":4488,"central ":4489,"break ":4490,"longer ":4491,"front ":4492,"how to ":4493,"husband ":4494,"Two ":4495,"admitt":4496,"has also ":4497,"a big ":4498,"cross":4499,"Every":4500,"56":4501,"low ":4502,"ature ":4503,"is now ":4504,"spot":4505,"ments ":4506,"attor":4507,"order":4508," that, ":4509," test":4510,"with an ":4511,"ment, ":4512,"...\n":4513,"mission ":4514,"scr":4515," treat":4516,"edy ":4517,"incident ":4518,"stead":4519,"earlier this ":4520,"hi ":4521,"huge ":4522,"do not ":4523,"areas ":4524,"ing on the ":4525,"impress":4526,"answ":4527,"said, \"":4528,"various ":4529,"aud":4530,"ess, ":4531,"isc":4532,"ource ":4533,"ers were ":4534,"discover":4535,"ember":4536,"highlight":4537,"father":4538,"hundred":4539,"net ":4540,"told ":4541,"deep ":4542,"when it ":4543,"Harris":4544," J":4545,"ia.\n":4546,"Sam":4547,"fan":4548,"ester":4549,"with their ":4550,"wood":4551,"MT":4552,"enter":4553,"rect ":4554,"special":4555,"nine ":4556,"e that the ":4557," The ":4558,"outh ":4559,"was not ":4560,"bring":4561,"ack of ":4562,"remains ":4563,"Supreme ":4564,"Port":4565,"offers ":4566,"buy":4567,"la ":4568,"predict":4569,"authorities ":4570,"period ":4571,"quickly ":4572,"51":4573,"kick":4574," typ":4575,"intellig":4576,"doz":4577,"United Stat":4578,"Prime Minister ":4579,"eed":4580,"oud":4581,"ed this ":4582,"within ":4583,"parli":4584,"prison":4585,"Hol":4586,"bos":4587,"host ":4588,"rough ":4589,"al-":4590,"afford":4591," time, ":4592,"summer ":4593,"53":4594,"clo":4595,"cannot ":4596,"alongside ":4597,"East ":4598,"es with ":4599,"living ":4600,"Comm":4601,"colleg":4602,"BJ":4603,"on this ":4604,", it's ":4605,"Whil":4606,"defend":4607,"development ":4608,"Pak":4609,"ont":4610,"wide ":4611,"commit":4612,"ed by a ":4613,"rather than ":4614,"43":4615,"doll":4616,"o's ":4617,"examp":4618,"B ":4619,"as she ":4620,"active ":4621,"address":4622,"everyth":4623,"sentenc":4624,"immediately ":4625,"Premier ":4626,"Mur":4627,"Mexic":4628,"ai ":4629,"ings.\n":4630,"deni":4631,"gone ":4632,"olut":4633,"div":4634,"weight ":4635,"meet ":4636,"growth ":4637,"Sal":4638,"X ":4639,"non":4640,"tri":4641,"s will ":4642,"said it ":4643,"February ":4644,"reflect":4645,"Holl":4646,"lot":4647,"ories ":4648,"athlet":4649,"until":4650,"issue ":4651,"Israel's ":4652,"couple ":4653,"International ":4654,"ies to ":4655,"ich ":4656,"ear ":4657,"all of ":4658,"questions ":4659,"Phil":4660,"Rom":4661,"mob":4662,"ital":4663,"Soc":4664,".com/":4665,"farm":4666,"ision ":4667,"ence of ":4668,"-to-":4669,"New York":4670,"Congress ":4671,"79":4672,"should":4673,"peac":4674,"firm ":4675,"Mal":4676,"ers. ":4677,"height":4678,"actor ":4679,"flight":4680,"hospital ":4681,"gard":4682,"h, ":4683,"pain":4684,"y in ":4685,"debate ":4686,"ID":4687,"nomin":4688,"ux":4689,"strength":4690,"summ":4691,"student":4692,"achiev":4693,"\" to ":4694," tit":4695,"as, ":4696,"e the t":4697,"shows ":4698,"investment ":4699,"built ":4700,"Instagram ":4701,"langu":4702,"insist":4703,"ings, ":4704,"lex ":4705,"us.\n":4706,"has not ":4707,"perfect ":4708,"not the ":4709,"simply ":4710,"ypt":4711,"whether":4712,"iver ":4713,"last week":4714,"Leban":4715,"Fox ":4716,"rank":4717,"spl":4718,"ess of ":4719,"negot":4720,"applic":4721,"-th":4722,"Wom":4723,"would":4724," that is ":4725,"negoti":4726,"institut":4727,"alb":4728,"forward ":4729,"artic":4730,"eph":4731,"average ":4732,"and his ":4733,"which is ":4734,"son, ":4735,"vote ":4736,", which is ":4737,"Dev":4738,"a to ":4739,"gain":4740,"wouldn't ":4741,"introduc":4742,">\\":4743,"Nic":4744,"Paul ":4745,"i's ":4746,"sem":4747,". It's ":4748,"serve ":4749,"relationship":4750,"Kamala ":4751,"hib":4752,"nic":4753,"infr":4754,"amaz":4755," times ":4756,"Image":4757,"safety ":4758,"kept ":4759,"ris ":4760,"t, ":4761,"occas":4762,"out.\n":4763,"diseas":4764,"scar":4765,"index":4766,"reportedly ":4767,"when they ":4768,"bc":4769,"bad":4770,"me.\n":4771,"ated":4772,"spend":4773,"if they ":4774,"positive ":4775,"services ":4776,"reported ":4777,"confid":4778,"lam":4779,"I can ":4780,"gets ":4781,"Ry":4782,"Tod":4783,"bad ":4784,"oil":4785,"enforc":4786,"ive, ":4787,"prev":4788,"looked ":4789,"season.\n":4790,"Pakist":4791,"pand":4792,"saw":4793,"fell ":4794,"ield":4795,"ran ":4796,"ther":4797,"rop":4798,"e to be ":4799,"flow":4800,"surround":4801,"helped ":4802,"were t":4803,"Scotland":4804,"and's ":4805,"construct":4806,"while the ":4807,". A ":4808,"abor":4809,"rest ":4810,"Why ":4811,"including the ":4812,"idea ":4813,"sex ":4814,"watch ":4815,"runn":4816,"combin":4817,"asp":4818,"you've ":4819,"ity's ":4820,"fix":4821,"facilit":4822,"societ":4823,"purcha":4824,"Photograph":4825,"fres":4826,"able.\n":4827,"shop":4828,"by a ":4829,"ence and ":4830,"laugh":4831,"y, the ":4832,"item":4833,"roop":4834,"Som":4835,"t.\n":4836," target":4837,", and the ":4838,"lock ":4839,"Park":4840,"hours ":4841,"propert":4842,"Sing":4843,"bf":4844,"entire ":4845,"ion in ":4846,"employe":4847,"Ram":4848,"San ":4849,"bomb":4850,"suit ":4851,"opening ":4852,"September ":4853," or ":4854,"\"This ":4855,"Most ":4856,"ers who ":4857,"door ":4858,"additional ":4859,"bon":4860,"contain":4861,"highest ":4862,"ers\" ":4863,"Offic":4864,"Law":4865,"Rec":4866,"ing to":4867,"dead ":4868,"present ":4869,"chair":4870,"well-":4871,"Carol":4872,"a lot ":4873,"winning ":4874,"received ":4875,"Dani":4876,"rom":4877,"sat":4878,"uff":4879,"of that ":4880,"agency ":4881,"was \"":4882,"prices ":4883,"control":4884,"drive ":4885,"period":4886,"Royal ":4887,"Bre":4888,"within the ":4889,"away":4890,"music":4891,"mag":4892,"million":4893,"ate.\n":4894,"finally ":4895,"song":4896,"in that ":4897,", an ":4898,"improve ":4899,"aken ":4900,"ors, ":4901,"advanc":4902,"doub":4903,"a. ":4904,"bul":4905,"lay":4906,"usually ":4907,"rook":4908,"it will ":4909,"rapp":4910,"single ":4911,"astruct":4912,"Tur":4913,"en-":4914,"restrict":4915,"eck ":4916,"amid ":4917,"ago, ":4918,"leaders ":4919,"slow":4920,"At the ":4921,"University of ":4922," at ":4923,"\"It ":4924,"bil":4925,"in her ":4926,"short ":4927,"ment to ":4928,"beginn":4929," togeth":4930," than the ":4931,"Now ":4932,"mi":4933,"an-":4934,"full":4935,"passeng":4936,"natural ":4937,"120":4938,"41":4939,"Creat":4940,"or the ":4941,"Grou":4942,"receive ":4943,"Bal":4944,"Jon":4945,"Lat":4946,"domin":4947,"er in the ":4948,"asc":4949,"ent, ":4950,"le's ":4951,"aging ":4952,"when you ":4953,"study ":4954,"process ":4955,"ded":4956,"ու":4957,"beat":4958,"oth ":4959,"itting ":4960,"buy ":4961,"countries ":4962,"ising ":4963,"adem":4964,"ured":4965,"700":4966,"Lou":4967,"eam":4968,"s is ":4969,"make the ":4970,"get the ":4971,"certainly ":4972," point":4973,"Do":4974,"als":4975,"ing, and ":4976,"ed as a ":4977,"email":4978,"question ":4979,"industry ":4980,"Photograph: ":4981,"War":4982,"led to ":4983,"nuc":4984,"oral ":4985,"ret ":4986,"ster ":4987,"ly the ":4988,"So":4989,"yr":4990,"al to ":4991,"suit":4992,"apt":4993,"so much ":4994,"limit":4995," in the ":4996,"Mil":4997,"PA":4998,"mil":4999,"rad":5000,"ani ":5001,"attr":5002,"We are ":5003,"completely ":5004," thousands of ":5005,"\"the ":5006,"Reg":5007,"She":5008,"plant":5009,"diagn":5010,"medic":5011,"California ":5012,"Sar":5013,"adm":5014,", according to ":5015,"roph":5016,"her.\n":5017,"capital ":5018,"South":5019,"& ":5020,"800":5021,"By ":5022,"in my ":5023,"what the ":5024,"distr":5025,"- but ":5026,"ive":5027,"ic and ":5028,"includes ":5029,"Arsen":5030,"Ari":5031,"M ":5032,"reach ":5033,"quir":5034,"annual ":5035,"common ":5036,"sym":5037,"issues ":5038,"critical ":5039,"lower ":5040,"Instagram":5041,"analy":5042,"'r":5043,"140":5044,"547":5045,"warm":5046,"wedd":5047,"we were ":5048,"States ":5049,"mater":5050,"showed ":5051,"candidate ":5052,"King ":5053,"Ma":5054,"sound":5055,"rob":5056,"see the ":5057,"difficul":5058,"I'm not ":5059,"63":5060,"fast ":5061,"zon":5062,"ership":5063,"women's ":5064," those who ":5065,"manager ":5066,"Well":5067,"insur":5068,", but":5069,"esh ":5070,"ney":5071,"anyah":5072,"families ":5073,"Prince ":5074,"ability to ":5075," GMT":5076,"Justice ":5077,"Jack":5078,"elin":5079,"as well":5080,"ances ":5081,"giving ":5082,"wrote ":5083,"southern ":5084,"Ms. ":5085,"row ":5086,"vest":5087,"shel":5088,"occur":5089,"Chic":5090,"Chelse":5091," takes ":5092,"Mark ":5093,"weekend":5094,"Princ":5095,"Jew":5096,"ON":5097,"fash":5098,"ho":5099,"million ":5100,"- a ":5101,"From ":5102,"football":5103,"empor":5104,"problem ":5105,"German":5106,"Guardi":5107,"fourth ":5108,"Netanyah":5109,"?\"\n":5110,"Vict":5111,"ufact":5112,", B":5113,"abus":5114,"social media":5115,"schem":5116,"infrastruct":5117,"ians ":5118,"ongoing ":5119,"deep":5120,"quality ":5121,"venu":5122,"Secret":5123,"stuff":5124,"nov":5125,"reject":5126,"intend":5127,"Britain":5128,"possible":5129,"General ":5130,"le-":5131,"expos":5132,"addition":5133,"Arab":5134,"freed":5135,"definit":5136,"ան":5137,"insp":5138,"lear ":5139,"like, ":5140,"for the first":5141,"Americans ":5142,"based on ":5143,"people, ":5144,", though":5145,"daughter":5146,"Last":5147,"cup":5148,"lie ":5149,"ift ":5150,"goes ":5151,"acknow":5152," track":5153,"After":5154,"emergency ":5155,"fc":5156,"ime":5157,"who is ":5158,"On the ":5159,"role ":5160,"communic":5161,"created ":5162,"Meanwhile, ":5163,"Over":5164,"url":5165,"happy ":5166,"suspect":5167,"al and ":5168,"exact":5169,"s, including ":5170,"cruc":5171,"like a ":5172,"ouncil":5173,"Party ":5174,"ro ":5175,"award":5176,"number ":5177,"ed in":5178,"esh":5179,"image":5180," travel":5181,"administration ":5182,"counter":5183,"Updat":5184,"East":5185,"Vir":5186,"hood ":5187,"s by ":5188,"grat":5189,"Republicans ":5190,"strike ":5191,"primary ":5192,"among the ":5193,"ler ":5194,"uth":5195,". Th":5196,"lev":5197,"clim":5198,"pool ":5199,"way.\n":5200,"summer":5201,"You can ":5202,"complain":5203,"Sunday ":5204,"domest":5205,"Alth":5206,"cerem":5207,"writt":5208,"similar ":5209,"Red ":5210,"main":5211,"pick ":5212,"ed him ":5213,"e them":5214,"recall":5215,"champion":5216,"dream":5217,"democrac":5218,"ed, and ":5219,"plent":5220,"spark":5221,"Senate ":5222,"avoid ":5223,"rit":5224,"ing is ":5225,"when she ":5226,"pain ":5227,"Secur":5228," three-":5229,"Olympic ":5230,"diagnos":5231,"difficult ":5232,"hat":5233,"fram":5234,"cook":5235,"I'll ":5236,"matter":5237,"hard to ":5238,"street":5239,"Asi":5240,"ing \"":5241,"you'll ":5242,"Shar":5243,"soldi":5244,"ract ":5245,"hour ":5246,"130":5247,"Cal":5248,"MO":5249,"NF":5250,"mist":5251,", while ":5252,"e than":5253," there was ":5254,"shared ":5255,"Ser":5256,"bed":5257,"y\" ":5258,"er B":5259,"imately ":5260,"weather ":5261,"manufact":5262,"life.\n":5263,"Add":5264,"delay":5265,"alleged ":5266,"Liver":5267,"maintain":5268," with ":5269,"Far":5270,"Gar":5271,"onc":5272,"United States ":5273," has ":5274,"Kar":5275,"bag":5276,"arily ":5277,"a is ":5278,"edge ":5279,"league ":5280,"brand ":5281,"minim":5282,"shap":5283,"ode ":5284,"scri":5285,"here":5286,"mone":5287," that.\n":5288,"standing ":5289,"Park ":5290,"Mel":5291,"burn":5292,"mount":5293," though ":5294,"const":5295,"odg":5296,"last year ":5297,"heart ":5298,"Former ":5299,"decision to ":5300,"prison ":5301,"crowd":5302,"How":5303,"altern":5304,"Att":5305,"request":5306,"ed from the ":5307,"ice, ":5308,"shopp":5309,"different":5310,"spot ":5311,"ence":5312,"prevent":5313,"following the ":5314,"Conn":5315,"require":5316,"eventually ":5317,"stream":5318,"hospital":5319,"property ":5320,"Penn":5321,"could":5322,"fle":5323,"mark ":5324,"Goog":5325,"Kat":5326,"ray":5327,"ed: '":5328,"at the tim":5329,"commiss":5330,"sell ":5331,"later, ":5332,"Their ":5333,"camer":5334,"where he ":5335,"country.\n":5336,"Play":5337," but ":5338,"ening ":5339,"third ":5340,"rid ":5341,"it has ":5342,"disappoint":5343,"ember, ":5344,"cause ":5345,"Date":5346,"wild":5347,"ino ":5348,"I would ":5349,"clin":5350,"actions ":5351,"ang ":5352,"looks ":5353,"We've ":5354,"world's ":5355,"series of ":5356,"original ":5357,"',":5358,"Sir ":5359,"west":5360,"plom":5361,"famous ":5362,"a bit ":5363,"regular ":5364,"physical ":5365,"Ireland ":5366,"sometimes ":5367,"IS":5368,"MP":5369,"Scho":5370,"gas ":5371,"pul":5372,"ination ":5373,"rail":5374,"contro":5375,"contest":5376," that this ":5377,"launch ":5378,"demand ":5379,"named ":5380,"situation ":5381,"style ":5382,"Line":5383,"or to ":5384,"witter":5385,"ount of ":5386,"se.\n":5387,"ation that ":5388,"perhap":5389,"broth":5390,"Updated":5391,"-based ":5392,"hood":5393,"ton, ":5394,"bodi":5395,"wants to ":5396,"anyth":5397,"raised ":5398,"group of ":5399,"heavy ":5400,"Government ":5401,"boll":5402,"west ":5403,"s for the ":5404," thank":5405,"ice":5406,"so many ":5407,"ugg":5408,"workers ":5409,"course ":5410,"Sant":5411,"card":5412,"else ":5413,"plans to ":5414,"Op":5415,"ban ":5416,"orn":5417," today ":5418,"mean ":5419,"away from ":5420,"George ":5421,"Syri":5422," which ":5423,"87":5424,"ari":5425,"stock":5426,"of her ":5427,"Str":5428,"afterno":5429,"protect ":5430,"www":5431,"Street ":5432,"-up ":5433,"harm":5434,"atory ":5435,"us, ":5436,"ends ":5437,"ives ":5438,"she had ":5439,"psy":5440,"make a ":5441,"pitch":5442,"speech ":5443,"Harry ":5444,"minute ":5445,"allegedly ":5446,"aryDate":5447,"acknowledg":5448,"aryDateLine":5449,"ena ":5450,"sho":5451,"odd":5452,"again.\n":5453,"conditions ":5454,"-year ":5455,"Cov":5456,"a\n":5457,"radi":5458,"beat ":5459,"opin":5460,"scient":5461,"carry":5462,"reason ":5463,"student ":5464,"contract":5465,"German ":5466,"enough to ":5467,"/Getty Images":5468,"House":5469,"dut":5470,"hi":5471,"veter":5472,"ing: \"":5473,"ion that ":5474,"resourc":5475,"will not ":5476,"Ann":5477,"haven't ":5478,"known as ":5479,"driver":5480,"s,":5481," tell ":5482,"ing that the ":5483,"ecaus":5484,"plans ":5485,"continue ":5486,"ezboll":5487,"Office ":5488,"mos":5489,"tit":5490,"ing for the ":5491,"dee":5492,"select":5493,"rights ":5494,"absolutely ":5495,"ya ":5496,"icated ":5497,"fore ":5498,"divers":5499,"when I ":5500,"violence ":5501,"professional ":5502,"responsible ":5503,"Bas":5504,"pun":5505,"itself ":5506,"for this ":5507,"loy":5508,"defe":5509,"are not ":5510," time to ":5511,"speech":5512,"how the ":5513,"decided to ":5514,"a tr":5515,"bit ":5516,"ma ":5517,"ary.\n":5518,"edOn":5519,"near ":5520," traff":5521,"blockCreat":5522,"blockLast":5523," per cent":5524,"failed to ":5525,"conflict":5526,"blockFirstPublishedDisplay":5527,"blockCreatedOn":5528,"blockLastUpdated":5529,"! ":5530,"Desp":5531,"IC":5532,"shir":5533,"ells ":5534,"dog ":5535,"says":5536,"son's ":5537,"Australia ":5538,"civil ":5539,"www.":5540,"King":5541,"Po":5542,"and-":5543,"word ":5544,"subst":5545,"economy ":5546,"\\\">":5547,"websit":5548,"Holly":5549,"61":5550,"R ":5551,"all-":5552,"pool":5553,"meth":5554,"arget ":5555,"France ":5556,"because they ":5557,"capac":5558,"explor":5559,"oppon":5560,"Janu":5561,"flood":5562,"devast":5563,"prevent ":5564,"nuclear ":5565,"dy":5566,"lic":5567,"lant":5568,"list ":5569,"walk ":5570,"erly ":5571,"for an ":5572,"I had ":5573,"included ":5574,"water":5575,"Ha":5576,"danc":5577,"ied ":5578,"sign ":5579," thos":5580,"acqu":5581,"constitut":5582,"might be ":5583,"Friday":5584,"evidence ":5585,"83":5586,"GO":5587,"brief":5588,"eh":5589,"or's ":5590," took":5591,"leadership ":5592,"prompt":5593,"injured ":5594,"judge ":5595,"along with ":5596,"Luc":5597,"Mer":5598,"bord":5599," to get ":5600,"ament ":5601,"a sign":5602,"people to ":5603,"150":5604,"bill ":5605,"batter":5606,"mort":5607,"integr":5608,"apolog":5609,"ivel":5610,"princ":5611,"Russia's ":5612,"pite the ":5613,"path":5614,"age and ":5615,"events ":5616,"corn":5617,"English ":5618,"true":5619,"crisis ":5620,"Speak":5621,"Kenn":5622,"Mike ":5623,"Other ":5624,"Tom ":5625,"ray ":5626,"ive.\n":5627,"ities.\n":5628,"legisl":5629,"cf":5630,"gold":5631,"pens":5632,"ations and ":5633,"ations of ":5634,"ences ":5635,"anct":5636,"account ":5637,"could have ":5638,"understand ":5639,"purpos":5640,"Johnson ":5641,"Western ":5642,"welcom":5643,"Rich":5644,"fol":5645,"gather":5646,"vacc":5647,"ange ":5648,"pregn":5649,"funct":5650,"access to ":5651,"Hel":5652,"festiv":5653,"middle ":5654,"nav":5655,"enh":5656,"meant":5657,"last month":5658,"clean":5659,"draw ":5660,"Joe Biden ":5661,"Dist":5662,", has ":5663,"has the ":5664,"worth":5665,"potentially ":5666,"blood ":5667,"Hezboll":5668,"cover ":5669,"yn ":5670,"ating the ":5671,"illegal ":5672,"project ":5673,"spending ":5674,"card ":5675,"meeting ":5676,"Despite ":5677,"91":5678,"97":5679,"diplom":5680,"go to ":5681,"who has ":5682,"national":5683,"efully ":5684,"cloth":5685,"Set":5686,"pm":5687,"all, ":5688,"ize ":5689,"if he ":5690,"News":5691,"es to the ":5692,"ed\n":5693,"witness":5694,"able, ":5695,"result ":5696,"exerc":5697,"die ":5698,"all.\n":5699,"Stor":5700,"added ":5701,"centur":5702,"hope ":5703,"announced ":5704,"leaving ":5705,"95":5706,"in's ":5707,"on Mon":5708,"awar":5709,"week.\n":5710,"ological ":5711,"advant":5712,"revealed ":5713,"Alex":5714,"Ver":5715,"nom":5716,"wast":5717,"a good ":5718,"ions and ":5719,"intent":5720,"e of a ":5721,"underst":5722,"astern ":5723,"joy ":5724,"what's ":5725,"Health ":5726,"Taylor ":5727,"Ber":5728,"tain":5729,"ice.\n":5730,"astic ":5731,"make it ":5732,"green ":5733,"aggress":5734,"independent ":5735,"psych":5736," of the ":5737,", told ":5738,"ge":5739,"mal":5740,"source ":5741,"ic.\n":5742,"said they ":5743,"ated by ":5744,"because the ":5745,"cycl":5746,"II":5747,"pil":5748,"search ":5749,"stock ":5750,"seat ":5751,"money":5752,"people are ":5753,"paint":5754,"March":5755,"Australian ":5756,"Apple ":5757,"Gi":5758,"e with ":5759," thing ":5760,"ed after ":5761,"hair ":5762," that was ":5763,"pro-":5764,"heat ":5765,"skill":5766,"right to ":5767,"appropri":5768,"less than ":5769,"straight ":5770,"conference ":5771,"/j":5772,"Monday ":5773,"Sport":5774,"dc":5775,"won the ":5776,"for her ":5777,"seven":5778,"reci":5779,"man, ":5780,"phon":5781,"industri":5782,"model ":5783,"housing ":5784,"advoc":5785,"Getty\n":5786,"Champion":5787,"250":5788,"Den":5789,"rent":5790,"wish":5791,"ing\" ":5792,"th-":5793,"imin":5794,"The t":5795,"lost":5796,"assess":5797,"ensure ":5798,"older ":5799,"ed, \"":5800,"drop ":5801,"figure ":5802,"Mosc":5803,"Gold":5804,"Raf":5805,"Swif":5806,"moth":5807,"sold ":5808,"Art":5809,"colleagu":5810,"pursu":5811,"risk of ":5812,"07":5813,"jur":5814,"ke ":5815,"ket":5816,"ed\" ":5817,"consequ":5818,"istic ":5819,"box ":5820,"facing ":5821,"game.\n":5822,"now.\n":5823,"release ":5824,"people.\n":5825,"African ":5826,"successful ":5827,"civil":5828,"repeat":5829,"bound":5830,"on her ":5831,"e them ":5832,"I just ":5833,"Institut":5834,"attribut":5835,"pair":5836,"extra ":5837,"claimed ":5838,"Committ":5839,"forces ":5840,"success ":5841,"b ":5842,"gent":5843,"ations":5844,"worri":5845,"morning ":5846,"some of ":5847,"like to ":5848,"expert":5849,"abortion ":5850,"fan ":5851,"nal ":5852,"insid":5853,"as.\n":5854,"n <":5855,"More ":5856,"chance to ":5857,"suppl":5858,"influenc":5859,"definitely ":5860,"G ":5861,"der ":5862,"eal":5863,"mach":5864,"nar":5865,"amount":5866,"spend ":5867,"speak ":5868,"rich ":5869,"Tuesday ":5870,"holiday ":5871,"bann":5872,"eel":5873,"ex-":5874,"who have ":5875,"dismiss":5876,"lines ":5877,"collap":5878,"Iran":5879,"-of":5880,"ipl":5881,"atch":5882,"aware ":5883,"ities, ":5884," travel ":5885,"hasn't ":5886,"opposition ":5887,"Texas ":5888,"however, ":5889,"IP":5890,"s at the ":5891,"ing its ":5892,"forec":5893,": The ":5894,"Those ":5895," time":5896,") - ":5897,"look at ":5898,"loved ":5899,"a small ":5900,"gender ":5901,"kind":5902," top ":5903,"erve ":5904,"sudd":5905,"more.\n":5906,"ment of ":5907,"guy":5908,"inner ":5909,"back in ":5910,"increasingly ":5911,"stepp":5912,"White House ":5913,"example, ":5914,"Il":5915,"bol":5916,"nin":5917,"arant":5918,"still":5919,"amount of ":5920,"contact ":5921,"clearly ":5922,"found that ":5923,"Atlant":5924,"University ":5925,"Secretary ":5926,"Ev":5927,"To":5928,"W ":5929,"daily ":5930,"mix":5931,"aren't ":5932,"itarian ":5933,"come to ":5934,"raw":5935,"object":5936,"s. \"":5937," p.m":5938,"Netfli":5939,"although ":5940,"F ":5941,"cab":5942,"vul":5943," tre":5944,"di ":5945,"pre-":5946,"visit ":5947,"highly ":5948,"gives ":5949,"justice ":5950,"opportunity to ":5951,"jail":5952,"oil ":5953,"els":5954,"I didn't ":5955,"flight ":5956,"no longer ":5957,"ubb":5958,"America ":5959,"AT":5960,"Vice ":5961,"bank ":5962,"fit ":5963,"syl":5964,"had the ":5965,"There was ":5966,"behind the ":5967,"Tom":5968,"ha ":5969,"er\n":5970,"stret":5971,"escal":5972,"et, ":5973,"home.\n":5974,"growth":5975,"inflation ":5976,"majority ":5977,"Service ":5978,"Council ":5979,"Eg":5980,"Kel":5981,"eat":5982,"inside ":5983,"escap":5984,"ally.\n":5985,"contact":5986,"ollow ":5987,"scal":5988,"defence ":5989,"increase ":5990,"As a ":5991,"BBC":5992,"Er":5993,"pod":5994," told the ":5995,"ens of ":5996,"is \"":5997,"as much ":5998,"Chris ":5999,"poor ":6000,"himself":6001,"invas":6002,"subject":6003,"domestic ":6004,"Face":6005,"lack of ":6006," then":6007,", including ":6008,"review ":6009,"stick":6010,"ical":6011,"ago.\n":6012,"elections ":6013,"it's not ":6014,"system ":6015,"photo ":6016,"favor":6017,"damag":6018,"84":6019,"lin ":6020,"shad":6021," thes":6022,"acu":6023,"embr":6024,"mission":6025,"a href":6026,"Mich":6027,"ertain":6028,"\" and \"":6029,"Direct":6030,"Glas":6031,"beautiful ":6032,"written ":6033,"Is ":6034,"Meg":6035,"Ol":6036," tw":6037,"anth":6038,"ess and ":6039,"e time ":6040,"ble to ":6041,"election.\n":6042,"season, ":6043,"forced to ":6044,"video":6045,"feeling ":6046,"caught ":6047,"avoid":6048,"infect":6049,"ower ":6050,"for its ":6051,"riot":6052,"frustr":6053,"raise ":6054,"firmed":6055,"liter":6056,"aug":6057,"sanct":6058,"remind":6059,"itud":6060,"stress":6061,"ic, ":6062,"in which ":6063,"que":6064,"heat":6065,"said she ":6066,"What":6067,"relig":6068,", who was ":6069,"wrong ":6070,"defense ":6071,"where they ":6072,"hotel ":6073,"Department of ":6074,"female ":6075,"Cur":6076,"SP":6077,"me to ":6078,"an to ":6079,"oft ":6080,"use of ":6081,"spar":6082,"class ":6083,"ive-":6084,"overall ":6085,"cash ":6086,"origin":6087,"memor":6088,"dollar":6089,"Hal":6090,"cum":6091,"swit":6092,"ing-":6093,"a very ":6094,"is in ":6095,"chann":6096,"direct ":6097,"not only ":6098,"content ":6099,"officer ":6100,"President":6101,"along the ":6102,"01":6103,"dress":6104," tax ":6105,", L":6106,"els ":6107,"of its ":6108,"es at ":6109,"ump ":6110,"will also ":6111,"order to ":6112,"ment and ":6113,"up and ":6114,"digital ":6115,"until the ":6116,"High ":6117,"Pa":6118,"s from the ":6119,"ingham ":6120,". L":6121,"e, a ":6122,"disrupt":6123," trial ":6124,"team ":6125,"powerful ":6126,"progress":6127,"consult":6128,"nomine":6129,"ox":6130,"onlin":6131,", and":6132,"adult":6133,"chur":6134,"upcoming ":6135,"centre ":6136,"children":6137,"collabor":6138,"myself ":6139,"features ":6140,"Times ":6141,"cancer ":6142,"benefit":6143,"Swed":6144,"They're ":6145,"manufactur":6146,"!\"":6147,"Ri":6148,"breat":6149,"frequ":6150,"luck":6151,"us to ":6152,"cool":6153,"attle ":6154,"known":6155,"expected ":6156,"echnology ":6157,"extremely ":6158,"Bank ":6159,"Eth":6160,"fellow ":6161,"rum":6162,"wint":6163,"struck ":6164,"mention":6165,"Stadi":6166,"door":6167,"parties ":6168,"electric ":6169,"officers ":6170,"centr":6171," they've ":6172,"Credit: Getty\n":6173,"Smith ":6174,"parliament":6175,"Ash":6176,"mother":6177,"ation for ":6178,"ly to ":6179,"a sing":6180,"ready to ":6181,"Leagu":6182,"such a ":6183,"Kore":6184,"Bri":6185,"Fre":6186,"regional ":6187,"Brid":6188,"suffer":6189,"screen":6190,"crowd ":6191,"seeing ":6192,"></":6193,"Vill":6194,", when ":6195,"ing\n":6196,"is still ":6197,"ure and ":6198,"conclud":6199,"year's ":6200,"standard":6201,"required":6202,"must be ":6203,"Putin ":6204,"\"B":6205,"Hill":6206,"Kh":6207,"Nav":6208,"a th":6209," tax":6210,"ort of ":6211,"in L":6212,"his own ":6213,"display":6214,"here.\n":6215,"increased ":6216,"implement":6217,"myself":6218,"According to the ":6219,"ze ":6220,"he would ":6221,"lot of ":6222,"occup":6223,"blam":6224,"oke ":6225,"invit":6226,"team":6227,"mostly ":6228,"accused of ":6229,"emperat":6230,"vulner":6231,"wav":6232,"adopt":6233,"shire ":6234,"crime ":6235,"crash":6236,"servativ":6237,"India's ":6238,"complete ":6239,"analys":6240,"}],\"":6241,"Earli":6242,"massive ":6243,"db":6244,"in our ":6245,"liber":6246,"mind ":6247,"Whit":6248,"ia and ":6249,"surve":6250,"over a ":6251,"media.guim.co.uk/":6252,"storm":6253,"one of the most ":6254,"particular ":6255,"candidates ":6256,"Robert ":6257,"CN":6258,"Dut":6259,"Fam":6260,"hot ":6261,"vil":6262,"reform":6263,"ed-":6264,"confirmed":6265,"sci":6266,"\"He ":6267,"GB":6268,"Gal":6269,"SE":6270,"Sk":6271,"e: \"":6272,"i.\n":6273,", for ":6274,"oll ":6275,"convent":6276,"guardi":6277,"remember ":6278,"Islam":6279,"suppos":6280,"baby ":6281,"girl ":6282,"Victor":6283,"er, the ":6284,"ake":6285,"degre":6286,"coast":6287,"neg":6288,"Chil":6289,"ated with ":6290,"Colleg":6291,"effective ":6292,"range of ":6293,"hundreds of ":6294,"Kate ":6295,"Me":6296,"Rev":6297,"cept":6298,"s have been ":6299,"init":6300,"ald":6301,"it. ":6302,"chos":6303,"prefer":6304,"how much ":6305,"lawmak":6306," tried to ":6307,"decision":6308,"front of ":6309,"fair ":6310,"Green":6311,"neighbor":6312,"Gov":6313,"Leg":6314,"Ut":6315,"ling":6316,", where ":6317,"unk":6318,"oph":6319,"Ass":6320,"Queen ":6321,"s this ":6322,"s who ":6323,"ed for the ":6324,"irr":6325,"shift":6326,"have th":6327,"Then ":6328,"194":6329,"largely ":6330,"individual ":6331,"millions of ":6332,"\"},\"":6333,"03":6334,"LE":6335,"Man ":6336,"Tel":6337,"pm ":6338,"one's ":6339,"fort ":6340,"log":6341,"peg":6342," he said. \"":6343,"srcSet":6344,"close to ":6345,"venue ":6346,"weighting":6347,"Los Angeles ":6348,"credit ":6349," on ":6350,"!\"\n":6351,"Mill":6352,"few":6353,"rally ":6354,"areas":6355,"appar":6356,"195":6357,"home":6358,"cases ":6359,"points ":6360,"modern ":6361,"movie ":6362,"first-":6363,"Thursday ":6364,"patients ":6365,"NHS ":6366,"nut":6367,"one to ":6368,"ated the ":6369,"ed with a ":6370," today":6371,"we will ":6372,"commerc":6373,"retire":6374," mill":6375,"specific":6376,"doubl":6377,"Tor":6378,"enth":6379,"and I ":6380,"user ":6381,"what they ":6382,"limited ":6383,"900":6384,"As the ":6385,"CC":6386,"Keir ":6387,"yester":6388,"alty ":6389,"in D":6390,"being a ":6391,"weak":6392,"needed to ":6393,"program ":6394,"emotional ":6395,"Supreme Court ":6396,"\"I'm ":6397,"ais":6398,"jump":6399,"iment":6400,"s, a ":6401,"more than":6402,"near the ":6403,"However, the ":6404,"feels ":6405,"draf":6406,"night.\n":6407,", though ":6408,"fields":6409,"secretary ":6410,"demonstr":6411,"Ric":6412,"a, the ":6413,"ional":6414,"Invest":6415,"works ":6416,"having a ":6417," trip":6418,"drug ":6419,"gradu":6420,"Security ":6421,"Fil":6422,"Jul":6423,"Lib":6424,"Not":6425,"PM":6426,"restor":6427,"ed by":6428,"elig":6429,"debut ":6430,"ation. ":6431,"ancy ":6432," trou":6433," that there ":6434,"what he ":6435," there.\n":6436,"categ":6437,"Olympic":6438,"RE: ":6439,"volunt":6440,"CA":6441,"Pri":6442,"ck":6443,"ies. ":6444,"alco":6445,"boost":6446,"izz":6447,"She was ":6448,"rick ":6449,"One of the ":6450,"feature ":6451,"platform ":6452,"April":6453,"younger ":6454," terror":6455,"budget ":6456,"Japan":6457,"wonder":6458,"iny ":6459,"ar, ":6460,"load":6461,"outsid":6462,"brilli":6463,"states ":6464,"Britain ":6465,"Span":6466,"street ":6467,"members of the ":6468,"individu":6469,"Arizon":6470,"mime":6471,"lement ":6472,"it would ":6473,"spott":6474,"years of ":6475,"mediaType":6476,"cours":6477,"124":6478,"hear ":6479,"now, ":6480,"NAT":6481,"separate ":6482,"recommend":6483,"image/j":6484,"sylvan":6485,"mimeType":6486,"image/jpeg":6487,"Bor":6488,"Event":6489,"ournam":6490,"akes ":6491,"guarant":6492,"desper":6493,"innov":6494,"Black":6495,"maybe ":6496,"company's ":6497,"TikTok ":6498,"Premier League ":6499,"<a href":6500,"Laur":6501,"Veg":6502,"ield ":6503,"sli":6504,"search":6505,"ed into the ":6506,"et.\n":6507,"worst ":6508,"you are ":6509,"appreci":6510,"clean ":6511,"grew ":6512,"189":6513,"specific ":6514,"directly ":6515,"partner ":6516,"Hum":6517,"onic ":6518,"pledg":6519,"exchang":6520,"e told ":6521,"easy ":6522,"sports ":6523,"imagin":6524,"kids ":6525,"initially ":6526,"92":6527,"Sur":6528,"ons ":6529,"in its ":6530,"unable to ":6531,"comes to ":6532,"offensive ":6533,"assum":6534,"work.\n":6535,"what happen":6536,"faced ":6537,"wait ":6538,"neighbour":6539,"guardian":6540,"-w":6541,"rush":6542,"impos":6543,"s, with ":6544,"190":6545,"extra":6546,"expect ":6547,"Parli":6548,"appearance ":6549,"There is ":6550,"Grand ":6551,"Africa ":6552,"ahead of ":6553,"assault":6554,"exactly ":6555,"<strong>":6556,"Ko":6557,"Love ":6558,"Mi":6559,"het":6560,"ed up":6561,"entertain":6562,"conservative ":6563,"died ":6564,"deput":6565,"203":6566,"ers in the ":6567,"scap":6568," two years ":6569,"ub ":6570,"skin ":6571,"production ":6572,"consider ":6573,"earlier ":6574,"Central ":6575,"message ":6576,"dangerous ":6577,"Ven":6578,"ceas":6579,"fant":6580,"ings":6581,"check ":6582,"relief":6583,"Pennsylvan":6584,"Vice President ":6585,"Glasg":6586," k":6587,"Jack ":6588,"coff":6589,"lux":6590,", R":6591,"ston ":6592,"grant":6593,"herself ":6594,"letter":6595,"victor":6596,"communities ":6597,"value ":6598,"agreement ":6599,"second-":6600,"Dr. ":6601,"Muslim":6602," terms of ":6603,"learn ":6604,", there's ":6605,"Cas":6606,"a L":6607," this is ":6608,"ember.\n":6609,"Unit":6610,"design ":6611,"explos":6612,"made the ":6613,"responsib":6614,"purchas":6615,"06":6616,"Let":6617,"eur":6618,"mit":6619,"turn":6620,"yard":6621,"react":6622,"repli":6623,"eless ":6624,"you to ":6625,"Starm":6626,"her to ":6627,"flag":6628,"Who ":6629,"moving ":6630,"got to ":6631,"messag":6632,"Michig":6633,"AB":6634,"bear":6635,"bought ":6636,"has t":6637,"an R":6638,"ama ":6639,"add ":6640,"ed to a ":6641,"recent":6642,"cooper":6643,"you have ":6644,"poll ":6645,"notic":6646,"aircraf":6647,"claims ":6648,"evidenc":6649,"sleep":6650,"EU ":6651,"Saturday ":6652,"Judge ":6653,"emporary ":6654,"alone ":6655,"anda ":6656,"rates ":6657,"government's ":6658,"fresh ":6659,"328":6660,"fer ":6661,"selling ":6662,"Ant":6663,"rative ":6664,"expand":6665,"choos":6666,"American":6667,"And the ":6668," trav":6669,"refus":6670,"country, ":6671,"circum":6672,"effici":6673,"a signific":6674,"Sand":6675,"med ":6676,"sit ":6677,"er that ":6678,", D":6679,"uments ":6680,"in the first ":6681,"not just ":6682,"about his ":6683,"may have ":6684,"support for ":6685,"competition ":6686,"agreement":6687,", there are ":6688," percent":6689,"conflict ":6690,"Your ":6691,"iqu":6692,"ogu":6693,"e was ":6694,"ings and ":6695,"at this ":6696,"hair":6697,"iss ":6698,"least":6699,"e they":6700,"es, but ":6701,"He also ":6702,"reduce ":6703,"it's a ":6704,"week, ":6705,"armed ":6706,"They are ":6707,"Democrats ":6708,"controll":6709,"breaking ":6710,"IV":6711,"fif":6712,"mand":6713,"mill":6714,"sound ":6715,"whom ":6716,"unt ":6717,"exclus":6718,"ular ":6719,"starting ":6720,"a larg":6721,"wrote.\n":6722,"deliver ":6723,"historic ":6724,"cultural ":6725,"which the ":6726,"enforcement ":6727,"Google ":6728,"Bu":6729,"Youn":6730,"fd":6731,"marg":6732,"rar":6733,"ed. \"":6734,"island":6735,"users ":6736,"shire":6737,"of the t":6738,"he'd ":6739,"ocol":6740,"outside the ":6741,"boy ":6742,"ished ":6743,"171":6744,"given the ":6745,"post-":6746,"a cou":6747,"81":6748,"Ali":6749,"Air ":6750,"Federal ":6751,"band ":6752,"al of ":6753,"ado ":6754,"perfect":6755,"grow ":6756,"coal":6757,"after being ":6758,"addres":6759,"Union ":6760,"north ":6761,"double ":6762,"customers ":6763,"Found":6764,"Sab":6765,"Tes":6766,"bra":6767,"kitch":6768,"vice ":6769,"es' ":6770,"ed, the ":6771,"carry ":6772,"what we ":6773,"last week ":6774,"Biden":6775,"corpor":6776,"stribut":6777,"fact that ":6778,"Don't ":6779,"northern ":6780,"holiday":6781,"preced":6782,"Arsenal ":6783,"plenty of ":6784,"Braz":6785,"city of ":6786,"i and ":6787,"rare ":6788,"ors.\n":6789,"ing, the ":6790,"divis":6791,"ance":6792,"Its ":6793,"if it ":6794,"get a ":6795,"lift":6796,"expert ":6797,"released ":6798,"Syd":6799,"appeal":6800,"renew":6801,"immigration ":6802,"deeply ":6803,"repeatedly ":6804,"Post":6805,"whit":6806,"resist":6807,"spap":6808,"from his ":6809,"says, ":6810,"life, ":6811,"Mont":6812,"Wednesday ":6813,"attempt to ":6814,"existing ":6815,"Thomas ":6816,"attorney ":6817,"Det":6818,"I thought ":6819,"My":6820,"hu":6821,"wall":6822,"ի ":6823,"resign":6824,"from their ":6825,"retail":6826,"ition of ":6827,"movement":6828," the tim":6829,"due to the ":6830,"I've been ":6831,"Boe":6832,"Italian ":6833,"said in a statement":6834,"Jenn":6835,"Ken":6836,"Ul":6837,"Vi":6838,"ies that ":6839,"ine, ":6840,"ed over ":6841," to his ":6842,"ent and ":6843,"e these ":6844,"I know ":6845,"recru":6846,"knock":6847,"secure ":6848,"continues to ":6849,"charges ":6850," threaten":6851,"Febru":6852,"Although ":6853,"App":6854,"La":6855,"MA":6856,"Mah":6857,"follow ":6858,"iously ":6859,"push ":6860,"inburg":6861,"eder":6862,"remove ":6863,"identifi":6864,"last year, ":6865,"last year.\n":6866,"autom":6867,"a sim":6868,"lives ":6869,"data-":6870,"proced":6871,"Afg":6872,"management ":6873,"reality ":6874,"quarter":6875,"Kamala Harris ":6876,"initial ":6877,"Dig":6878,"Greg":6879,"NE":6880,"Pac":6881,"din":6882,"hatt":6883,"iet ":6884,"send ":6885,"ara ":6886,"um.\n":6887,"expensive ":6888,"related ":6889,"berg":6890,"Iran ":6891,"Donald Trump":6892,"Congres":6893,"\"You ":6894,"Zel":6895,"rig":6896,"s and the ":6897,"hab":6898,"of course":6899,"ist of ":6900,"ure to ":6901,"prise ":6902,"Instead":6903,"assass":6904,"guard":6905,"after he ":6906,"We have ":6907,"choice ":6908,"state of ":6909,"rying to ":6910,"world.\n":6911,"loss":6912,"considered ":6913,"sector ":6914,"humanitarian ":6915,"guilty ":6916,"Fox News ":6917,"980":6918,"Best ":6919,"High":6920,"dark ":6921," though":6922,"itor ":6923,"whol":6924,"oss":6925,"fru":6926,"deploy":6927,"s that are ":6928,"Cont":6929,"China's ":6930,"cost of ":6931,"%,":6932,"Hav":6933,"vs ":6934,"was also ":6935,"e two ":6936,"um, ":6937,"going":6938,"presid":6939,"172":6940,"Reut":6941,"needs to ":6942,"except":6943,"Edinburg":6944,"range ":6945,"voice ":6946,"college ":6947,"Twitter":6948,"pass ":6949,"soft":6950,"alway":6951,"ouch ":6952,"The S":6953,"y, but ":6954,"Stu":6955,"Steph":6956,"after his ":6957," take the ":6958,"region ":6959,"back to the ":6960,"weekend ":6961,"role in ":6962,"candidat":6963,"network ":6964,"Coll":6965,"Kev":6966,"OR":6967,"a, and ":6968,"anx":6969,"ed off ":6970,"er has ":6971,"ions of ":6972,"y, which ":6973,"something that ":6974,"a huge ":6975,"Court":6976,"efforts to ":6977,"practic":6978,"went to ":6979,"theguardian":6980,"on Sunday ":6981,"intelligence ":6982," hour":6983,"\"t":6984,"pas":6985,"wound":6986,"- which ":6987,"concern ":6988,"injury ":6989,"Ministry ":6990,"ahead of the ":6991," W":6992,": the ":6993,"Mag":6994,"bid":6995,"enag":6996,"plic":6997," that it ":6998,"beach":6999,"contract ":7000,"crack":7001,"located ":7002,"each other ":7003," minutes ":7004,"While the ":7005,"Av":7006,"council ":7007,"al's ":7008,"is t":7009,"ola ":7010,"whel":7011,"been the ":7012,"se, ":7013,"ifying ":7014,"up, ":7015,"Independ":7016," trust":7017,"means":7018,"ez ":7019,"Irish ":7020,"debt ":7021,"complaint":7022,"window":7023,"broke ":7024,"Eli":7025,"Follow":7026,"Middle ":7027,"gott":7028,"ny ":7029,"of our ":7030,"union ":7031,"utter":7032,"ation with ":7033,"coordin":7034,"121":7035,"Ukraine's ":7036,"equip":7037,"on Tuesday ":7038,"Amazon ":7039,"Jef":7040,"So, ":7041,"reck":7042,"out to ":7043,"premi":7044,"170":7045,"placed ":7046,"immediate ":7047,"Charles ":7048,"Smith":7049," themselves ":7050,"Group ":7051,"circumst":7052,"AD":7053,"Tra":7054,"flex":7055,"ed them ":7056,"is being ":7057,"distribut":7058,"perman":7059,"offered ":7060," time in ":7061,"a fam":7062,"raining ":7063," teach":7064,"rising ":7065,"Conservative ":7066,"return to ":7067,"destroy":7068,"vehicle ":7069,"episod":7070,"Jewish ":7071,"a significant ":7072,"Nat":7073,"St ":7074,"ait":7075,"dad ":7076,"gun ":7077,"south ":7078,"s can ":7079,"enjoy ":7080,"a great ":7081,"k and ":7082,"e then ":7083,"ers of the ":7084,"offering ":7085,"ightly ":7086,"just a ":7087,"chair ":7088,"former President ":7089,"Northern ":7090,"Germany ":7091,"driving ":7092,"left the ":7093,"sort of ":7094,"prime minist":7095,"perhaps ":7096,"www.theguardian":7097,".C":7098,"God":7099,"Maj":7100,"mic":7101,"veg":7102," troop":7103,"ines ":7104,"arm ":7105,"at his ":7106,"aband":7107,"reserv":7108,"disput":7109,"ength ":7110,"ptom":7111,"happen ":7112,"smart":7113,"safe ":7114,"Labour":7115,"honest":7116,"CEO":7117,"comfortable ":7118,"favourite ":7119,"Call":7120,"income ":7121,"oured ":7122,"olve ":7123,"usual ":7124,"app ":7125,"uct ":7126," they have ":7127,"feet ":7128,"indic":7129,"ance and ":7130,"engine":7131,"case, ":7132,"lead to ":7133,"mid-":7134,"beyond ":7135,"Virg":7136," as ":7137," from ":7138,"82":7139,"Hospit":7140,"ju":7141,"rug":7142,"s of":7143,"itz":7144,"itself":7145,"a (":7146,". R":7147,"endors":7148,"but also ":7149,"guest":7150,"commod":7151,"193":7152,"Island":7153,"Marc":7154,"profit ":7155,"William ":7156,"sleep ":7157,"roughly ":7158,"don't think ":7159,"Commun":7160,".A":7161,"a that ":7162,"fuel":7163,"iness ":7164,"ing him ":7165,"el, ":7166,"in recent ":7167,"ison ":7168,"and.\n":7169,"sey ":7170,"ument ":7171,"proud ":7172," he added.\n":7173,"drop":7174,"unique ":7175,"Celt":7176,"AP ":7177,"ber ":7178,"bath":7179,"ար":7180,"ionally ":7181,"oward":7182,"updat":7183,"herit":7184,"Mr S":7185,"letter ":7186,"popular":7187,"will take ":7188,"Great ":7189,"achieve ":7190,"Peter ":7191,"district ":7192,"Becaus":7193,"ET":7194,"fired ":7195,"pal":7196,"ench":7197,"a year ":7198,"olf ":7199,"resul":7200,"Int":7201,"featur":7202,"ultimately ":7203,"specul":7204," term ":7205,"August":7206,"voic":7207,"forward to ":7208,"www.theguardian.com/":7209,"Pre":7210,"Tri":7211,"Whe":7212,"pinn":7213,"s to":7214,"inem":7215,"ority ":7216,"reat ":7217,"has to ":7218,"entire":7219,"cong":7220,"s, who ":7221,"no one ":7222," there is ":7223,"foot ":7224,"maxim":7225,"Foreign ":7226," throughout the ":7227,"listen":7228,"figures ":7229,"on Monday ":7230,"royal ":7231,"obviously ":7232,"crucial ":7233,"Ok":7234,"Out":7235,"Ru":7236,"num":7237,"s that the ":7238,", said ":7239,"three ":7240,"conspir":7241,"artist":7242,"ies of ":7243,"finish ":7244,"get to ":7245," traditional ":7246,"}]},{\"":7247,"Social ":7248," day":7249,"Bud":7250,"Every ":7251,"Jones ":7252,"PS":7253,"Will ":7254,"War ":7255,"billion":7256,"lose ":7257,"rat ":7258," top":7259,"omet":7260,"ion. ":7261,"I love ":7262,"bling ":7263,"effect ":7264,"added that ":7265,"came to ":7266,"For the ":7267,"Clark":7268,"patient":7269,"Friday, ":7270,"inspired ":7271,"IT":7272,"Test ":7273,"wis":7274," turn ":7275,"rest of the ":7276,"his first ":7277,"intens":7278,"s of a ":7279,"Steve ":7280,"Chann":7281,"called the ":7282,"ers\n":7283,"Spain":7284,"spoke ":7285,"allowed ":7286,"Hamas":7287,"icians ":7288,"captain ":7289,"similar":7290,"citizen":7291,"Alexand":7292,"individuals ":7293,"Jas":7294,"Loc":7295,"s and":7296,"ented ":7297,"adapt":7298,"ignor":7299,"owned ":7300,"greater ":7301,"CNN":7302,"AC":7303,"iou":7304,"stood ":7305,"ing your ":7306,"could not ":7307,"state's ":7308,"needed ":7309,"plan to ":7310,"Work":7311,"catch":7312,"Capit":7313,"If the ":7314,"MORE: ":7315,"script":7316,"\"I think ":7317,"74":7318,"AM":7319,"Jord":7320,"Like ":7321,"cell":7322,"cities ":7323,"narr":7324,"one th":7325,"rog":7326,"advert":7327,"has become ":7328,"blow":7329,"a long":7330,"knows ":7331,"excell":7332,"approach ":7333,"estimat":7334,"normal ":7335,"giant ":7336,"long-term ":7337,"convinc":7338,"Zelens":7339,"Du":7340,"Der":7341,"Dun":7342,"Rang":7343,"eum ":7344,"picture":7345,"ors and ":7346,"th and ":7347,"as we ":7348,"chem":7349," that we ":7350,"e things ":7351,"so far":7352,"ate and ":7353,"ishing ":7354,"was to ":7355,"experts ":7356,"head of ":7357,"proceed":7358,"managed to ":7359,"require ":7360,"set up ":7361,"allowed to ":7362,"fighting ":7363,"western ":7364,"Hezbollah ":7365,"a single ":7366,"-a":7367,"Jr":7368,"Mail":7369,"song ":7370," two":7371,"es (":7372,"ife ":7373,"ation is ":7374,"blue ":7375,"would not ":7376,"a long ":7377,"down.\n":7378,"supporting ":7379,"providing ":7380,"scored ":7381,"e too ":7382,"Scott ":7383," together":7384,"belong":7385,"legislat":7386," it ":7387,"Al ":7388,"Carr":7389,"Miss":7390,"eth ":7391,"es. The ":7392,"never":7393,"Mark":7394,"choic":7395,"Europe ":7396,"product ":7397,"recognis":7398,"Associated ":7399,"'I ":7400,"Since ":7401,"versi":7402,"resent":7403,"condem":7404,"affair":7405,"scale ":7406,"ly, the ":7407,"Christian ":7408,"cheap":7409,"benefit ":7410,"Charl":7411,"broken ":7412,"NS":7413,"Team ":7414,"eat ":7415,"reput":7416,"ed down ":7417,"district":7418,"recip":7419,"Three ":7420,"es, which ":7421,"content":7422,"possess":7423,"rules ":7424,"squad ":7425," towards ":7426,"focus on ":7427,", that's ":7428,"02":7429,"AS":7430,"Day":7431,"Fri":7432,"kin":7433,"upp":7434,"al in ":7435,"en H":7436," that I ":7437," theat":7438,"e, with ":7439,"up to the ":7440,"crypt":7441,"electric":7442,"It's a ":7443,"faces ":7444,"children, ":7445,"payment":7446,"refug":7447,"supply ":7448,"level of ":7449,"Richard ":7450,"Foot":7451,"s was ":7452,"th.\n":7453,". That ":7454,"ion for ":7455,"oct":7456,"putting ":7457,"severe ":7458,"480":7459,"Ty":7460,"Tory ":7461,"Year":7462,"gap":7463,"el.\n":7464,"in Gaz":7465,"using the ":7466,"observ":7467,"missing ":7468,"because of the ":7469,"story":7470,"operating ":7471,"costs ":7472,"World Cup ":7473,"Britain's ":7474,"Associated Pres":7475,"Rs ":7476,"Red":7477,"bat":7478,"fuel ":7479,"aly":7480,"ed two ":7481,"island ":7482,"an \"":7483,"rive ":7484,"exhib":7485,"spread":7486,"spread ":7487,"address ":7488,"warning ":7489,"personal":7490,"footage ":7491,"immun":7492,"concerns ":7493,"shortly ":7494,"Open ":7495,"Lew":7496,"Raj":7497,"mut":7498,"vess":7499,"a was ":7500,"fore":7501,"on my ":7502,"root":7503,"unning ":7504,"boat":7505,"him and ":7506,"indicat":7507,"back.\n":7508,"women":7509,"months.\n":7510,"helping ":7511," transform":7512,"TikTok":7513,"commercial ":7514,"\"They ":7515,"Home ":7516,"Wood":7517,"cold ":7518,", N":7519,"ami ":7520,"ay's ":7521,"years":7522,"withdraw":7523," trade ":7524,"overwhel":7525,"including a ":7526,"what you ":7527,"famili":7528,"century ":7529,"virt":7530,"ures.\n":7531,"Robert":7532,"practice ":7533,"elevision ":7534,"interview with ":7535,"360":7536,"380":7537,"76":7538,"Auth":7539,"Bet":7540,"a C":7541,"it in ":7542,"obody ":7543,"home, ":7544,"showing ":7545,"following a ":7546,"newspap":7547,"down to ":7548,"ennis ":7549,"belief":7550,"horr":7551,"designed to ":7552,"install":7553,"danger":7554,"incredible ":7555,"Andrew ":7556," O":7557,"e?\n":7558,"town ":7559,"ions to ":7560,"ad.\n":7561,"plus ":7562,"shop ":7563,"loom":7564,"clar":7565,"aster ":7566,"Ind":7567,"said it was ":7568,"asset":7569,"comput":7570,"even more ":7571,"heard":7572,"Lead":7573,"between":7574,"Alex ":7575,"Bank":7576,"Yet ":7577,"sight":7578,"եր":7579,"in to ":7580,"alent ":7581,"es: ":7582," trigg":7583,"He has ":7584,"made a ":7585,", who is ":7586,"half of ":7587,"restaurant":7588,"98":7589,"inquir":7590,"ed or ":7591,"emic ":7592,"in the UK":7593,"who had ":7594,"That":7595,"its own ":7596,"scand":7597,"becam":7598,"posit":7599,"children.\n":7600,"policies ":7601,"Elect":7602,"competition":7603,"healthy ":7604,"suffered ":7605,"published on ":7606,"%.\n":7607,"Bi":7608,"a third ":7609,"incom":7610,"onto ":7611,"ing's ":7612,"shr":7613,"you.\n":7614,"with this ":7615,"lawsuit ":7616,"ification ":7617,"nearby ":7618,"berg ":7619,"future":7620,"More than ":7621,"Moham":7622,"screen ":7623,"beyond":7624,"insurance ":7625,"After the ":7626," N":7627,"\"But ":7628,"Do ":7629,"OK":7630,"pac":7631,"inary ":7632,"ely":7633,"resid":7634,"comed":7635,"wealth":7636,"will have ":7637,"ity. ":7638," million":7639,"colour":7640,"Polit":7641,"audi ":7642,"budget":7643,"CBS ":7644,"Florida ":7645,"\"H":7646,"Bur":7647,"ially":7648,"illeg":7649,"hail":7650,"in K":7651,"asyl":7652,"agend":7653,"sea ":7654,"goals ":7655,"mart ":7656,"what is ":7657,"optim":7658,"need to be ":7659,"empt ":7660,"label":7661,"department ":7662,"Champions ":7663,"on Wednesday ":7664,"pandemic":7665,"Chelsea ":7666," and the ":7667,"'The ":7668,"' and ":7669,"EV":7670,"Open":7671,"Will":7672,"onym":7673,"als, ":7674,"als.\n":7675,"emor":7676," that has ":7677,"franch":7678,"flu":7679,"widely ":7680," there were ":7681,"easily ":7682,"landscap":7683,"asking ":7684,"options ":7685,"weren't ":7686,"damage ":7687,"BJP":7688,"73":7689,"Ak":7690,"Ask":7691,"Ben":7692,"caut":7693,"east ":7694,"iev":7695," touch":7696,"stadi":7697,"shown ":7698,"defeat":7699,"here, ":7700,"boost ":7701,"detect":7702,"needs ":7703,"decisions ":7704,"354":7705,"suffering ":7706,"motiv":7707,"education ":7708,"restaurant ":7709,"alternative ":7710,"switch":7711,"890":7712,"ahead":7713,"cott":7714,"gang":7715,"iat":7716,"sand":7717,"inspir":7718,"and other ":7719," to see ":7720,"irt":7721,"encoun":7722,"Anth":7723,"expens":7724,"solid":7725,"summar":7726,"violent ":7727,"rock ":7728,"majority of ":7729,"people's ":7730,"freedom":7731,"enhanc":7732,"-of-":7733,"Tai":7734,"mass ":7735,"s/":7736,"inclus":7737,"on that ":7738,"es this ":7739,"resolut":7740,"ify":7741,"so far ":7742,"way, ":7743,"Mr M":7744,"403":7745,"don't know ":7746,"friends ":7747,"minutes ":7748,"photograph":7749,"survey ":7750,"BJP ":7751,"Spanish ":7752,"Hom":7753,"Ur":7754,"bn ":7755,"inist":7756,"another":7757,"lean":7758,"ion is ":7759,"and two ":7760,"perspect":7761,"anticip":7762,"said that the ":7763,"accident":7764,"arrang":7765,"You're ":7766,"YouTu":7767,"protest ":7768,"helps ":7769,"environmental ":7770,"symptom":7771,"stretch":7772," after ":7773,"+ ":7774,"624":7775,"SN":7776,"fold":7777,"gri":7778,"stone ":7779,"adjust":7780,"ula ":7781,"I feel ":7782,"we'll ":7783,"access ":7784,"command":7785,"rather ":7786,"if you're ":7787,", which was ":7788,"former president ":7789," there, ":7790,"required ":7791,"funding ":7792,"publicly ":7793,"Public ":7794,"focused on ":7795,"on Saturday ":7796,"Chicago ":7797,"defeat ":7798,"winter ":7799,"-and-":7800,"04":7801,"hidd":7802,"ras":7803,"in terms of ":7804,"es as ":7805,"The B":7806,"ed to have ":7807,"end the ":7808,"black":7809,"she has ":7810,"Star ":7811,"up with ":7812,"ittl":7813,"home to ":7814,"-year-old":7815,"advice ":7816,"whatever ":7817,". So ":7818,"becoming ":7819,"important to ":7820,"FA ":7821,"Hy":7822,"Of":7823,"Ter":7824,"dca":7825,"ix ":7826,"er, and ":7827,"enly ":7828,", C":7829,"elimin":7830,"provis":7831,"apart":7832,"estate ":7833,"she is ":7834,"do the ":7835,"place.\n":7836,"promin":7837," (£":7838,"Spec":7839,"examin":7840,"Delhi ":7841,"instead of ":7842,"bottom ":7843,"climb":7844,"740":7845,"96":7846,"kill ":7847,"pop ":7848,"vast ":7849,"ed as the ":7850,"entr":7851,"on X":7852,"e through":7853,"I could ":7854,"election, ":7855,"veil":7856,"ah, ":7857,"groups ":7858,"scene ":7859,"ately, ":7860,"necessary ":7861,"commitment to ":7862,"Hollywood ":7863,"mortg":7864,"Distric":7865,"\"My ":7866,"\"}],\"":7867,"Vlad":7868,"res ":7869,"ing at the ":7870,"on Friday ":7871,"conom":7872,"los ":7873,"presents ":7874,"ers' ":7875,"game, ":7876,"smok":7877,"pitch ":7878,"joint ":7879,"ruling ":7880,"low-":7881,"ought to ":7882,"winner ":7883,"Oct. ":7884," years.\n":7885,"committed to ":7886,"sense of ":7887,"genu":7888,"expressed ":7889,"whether the ":7890,"817":7891,"Luk":7892,"eight":7893,"win the ":7894,"wind ":7895,"ed to t":7896,"usi":7897,"emy ":7898,"ung ":7899,"plant ":7900,"rescu":7901,"out and ":7902,"strang":7903,"brut":7904," trust ":7905,"day that ":7906,"It's not ":7907,"Prof":7908,"featured ":7909,"committee ":7910,"spokesman ":7911,"battle ":7912,"Getty Images)\n":7913,"assault ":7914,"Kyiv":7915,"fashion ":7916,"substant":7917,"Fur":7918,"Prot":7919,"Sol":7920,"brain ":7921,"credit":7922,"each":7923,"mel":7924,"e a ":7925,"ing our ":7926,"emiss":7927,"other.\n":7928,"ence to ":7929,"es, including ":7930,"him, ":7931,"uction ":7932,"family, ":7933,"Once ":7934,"runs ":7935,"profile ":7936,"become the ":7937,"relatively ":7938,"website ":7939,"essential ":7940,"confidence ":7941,"Econom":7942,"Gen":7943,"band":7944,"dating ":7945,"in two ":7946,"instruct":7947,"inside the ":7948,", T":7949,"iconic ":7950,"and her ":7951,"in your ":7952,"ers for ":7953,"annivers":7954,"merg":7955,"ing, but ":7956,"respect ":7957,"athan ":7958,"made it ":7959,"corrupt":7960,"killing ":7961,"friendly ":7962,"Manhatt":7963,"remaining ":7964,"below":7965,"Look":7966,"bridg":7967,"Y ":7968,"fing":7969,"wil":7970,"its":7971,"a M":7972,"I will ":7973,"prop":7974,"deg":7975,"be a ":7976,"cle ":7977,"pressure":7978,"away.\n":7979,"day to ":7980,"monitor":7981,"knew":7982,"er, who ":7983,"back and ":7984,"correct":7985,"night, ":7986,"fund ":7987,"Green ":7988,"coupl":7989,"ordinary ":7990,"\"th":7991,"Pow":7992,"hang":7993,"iPh":7994,"male ":7995,", K":7996,"academ":7997,"es on the ":7998,"be.\n":7999,"off.\n":8000,"guard ":8001,"Island ":8002,"walking ":8003,"motor":8004,"Daniel ":8005,"also the ":8006,"Liverpool ":8007,"deputy ":8008,"Ben ":8009,"Both ":8010,"Gir":8011,"Sher":8012,"eastern ":8013,"lak":8014,"lack":8015,"nice ":8016,"vow":8017,"ine.\n":8018,"inet ":8019,"int of ":8020,"align":8021,"it the ":8022,"ation's ":8023," track ":8024,"assad":8025,"bus ":8026,"family":8027,"response ":8028,"comments ":8029,"watching ":8030,"greatest ":8031,"on Thursday ":8032,"commission":8033,"School ":8034,"Sinc":8035,"eating ":8036,"gan":8037,"warr":8038,"ened ":8039,"or a ":8040,"end to ":8041,"party's ":8042,"passed ":8043,"quarter ":8044,"Georgia ":8045,"surger":8046,"finished ":8047,"shooting ":8048,"During the ":8049,"response to ":8050,"Sil":8051,"Vol":8052,"f-":8053,"ted ":8054," ton":8055,"are th":8056,"aries ":8057," to re":8058,"amount ":8059,"on its ":8060,"The D":8061,"safe":8062,"loan ":8063,"a total ":8064,"If you're ":8065,"crew":8066,"holding ":8067,"champion ":8068,"Ryan ":8069,"controversi":8070,"Ho":8071,"Hor":8072,"Hear":8073,"Sum":8074,"cue ":8075,"e,":8076,"fare ":8077,"jury ":8078,"led by ":8079,"van ":8080,"ware ":8081," talk ":8082,"accommod":8083,"chip":8084,"common":8085,"e talk":8086,"ers from ":8087,"formerly ":8088,"complex":8089,"When the ":8090,"decade ":8091,"able and ":8092,"surprise ":8093,"Under":8094,"egg":8095,"Only ":8096,"capit":8097,"storm ":8098,"stories ":8099,"movement ":8100,"Wales ":8101,"part of a ":8102,"benefits ":8103,"proposed ":8104,"compared to ":8105,"individual":8106,"prime minister ":8107,"semi-":8108,"amazing ":8109,"satis":8110,"pulled ":8111,"lav":8112,"s with the ":8113,"of two ":8114,"chick":8115,"being":8116,"form of ":8117,"cru":8118,"up for ":8119,"ensions ":8120,"It also ":8121,"region":8122,"cash":8123,"case.\n":8124,"changed ":8125,"month.\n":8126,"store ":8127,"detain":8128,"closed ":8129,"brother ":8130,"Democrat ":8131,"driven ":8132,"opportunities ":8133,"destin":8134,"shak":8135," travell":8136,"Bill ":8137,"Cath":8138,"HE":8139,"Khan ":8140,"bar ":8141,"iop":8142,"ually":8143,"wave ":8144,"on an ":8145,"I can't ":8146,"peace ":8147,"paid":8148,"ed, but ":8149,"missil":8150,"ities":8151,"know, ":8152,"know that ":8153,"just the ":8154,"request ":8155,"delight":8156,"Coh":8157,"ballot":8158,"character ":8159,"Korean ":8160,"COV":8161,"wedding ":8162,"infrastructure ":8163,"A's ":8164,"Bob":8165,"a/":8166,"pull":8167,"inde":8168,"arrest ":8169,"iter":8170,"elop":8171,"uses ":8172,"use the ":8173,"e tog":8174,"evacu":8175,"actress ":8176,"Still":8177,"say that ":8178,"what it ":8179,"America's ":8180,"generally ":8181,"first time ":8182,"Adam":8183,"stitu":8184,"results ":8185,"willing to ":8186,"floor ":8187,"initiativ":8188,"broadcast":8189,"divor":8190,"numerous ":8191,"GP":8192,"ITV":8193,"Mid":8194,"Nar":8195,"Swit":8196,"bon ":8197,"sad":8198,"one that ":8199,", his ":8200,"stro":8201," to make ":8202,"deserv":8203,"so that ":8204,"easy to ":8205,"subsequ":8206,"Jan. ":8207,"paying ":8208,"singer ":8209,"writer ":8210,"seeking ":8211,"NAS":8212,"environment":8213,"attention ":8214,"Over the ":8215," a":8216,"El ":8217,"Walk":8218,"Zeal":8219,"city's ":8220,"kne":8221,"odi":8222,", with the ":8223,"relev":8224,"omor":8225,"amin ":8226,"who were ":8227,"like th":8228,"answer":8229,"camera ":8230,"cancell":8231,"significantly ":8232,"criticism ":8233,"straight":8234,"Camer":8235,"AP) - ":8236,"university ":8237,"Defense ":8238,"impressive ":8239,"NFL ":8240,"Moscow ":8241,"guarante":8242,"IM":8243,"Sus":8244,"Sky ":8245,"ie":8246,"s \"":8247,", G":8248,"ley, ":8249,"with my ":8250," try ":8251,"display ":8252,"accur":8253,"embly ":8254,"ograp":8255,"red to ":8256,"Brad":8257,"voting ":8258,"Commission ":8259,"Before ":8260,"variet":8261,"same tim":8262,"blood":8263,"strategic ":8264,"attract":8265,"ceremon":8266,"Committee ":8267,"enthusi":8268,"Vladim":8269,"Lad":8270,"Oh":8271,"Wis":8272,"nation ":8273,"eness ":8274,"in T":8275,"at least":8276,"The M":8277,"beach ":8278,"own.\n":8279,"From":8280," throw":8281,"changes ":8282,"ist and ":8283,"New Zeal":8284,"charged with ":8285,"returned to ":8286,"raising ":8287,"swimm":8288,"prosecutors ":8289,"extreme ":8290,"Iranian ":8291,"ND":8292,"Nev":8293,"bn":8294,"c/":8295,"jack":8296,"sat ":8297,"as to ":8298,"owards ":8299,"confront":8300,"shouldn't ":8301,"seen":8302,"seek ":8303," and a ":8304,"man's ":8305,"day, the ":8306,"airport ":8307,"rise ":8308,"standard ":8309,"performanc":8310,"realis":8311,"government.\n":8312,"mental health ":8313,"vehicl":8314," toward":8315,"iscal ":8316,"denied ":8317,"Netanyahu":8318,"05":8319,"Ath":8320,"Mun":8321,"five-":8322,"er the ":8323,"ende":8324,"enabl":8325,"ata ":8326,"ither ":8327,"th, ":8328,"outlet":8329,"contra":8330,"dish":8331,"drone ":8332,"103":8333,"family and ":8334,"looking for ":8335,"Pro ":8336,"more than a ":8337,"community":8338,"connection ":8339,"Matt ":8340,"encourag":8341," tournam":8342,"language ":8343,"Netanyahu ":8344,"navig":8345,"Taiw":8346,"Hen":8347,"IR":8348,"Nations ":8349,"ka ":8350,"me and ":8351,"wag":8352,"anonym":8353,"esc":8354,"elect ":8355,"is un":8356,"os, ":8357,"quick ":8358,"fine ":8359,"remember":8360,"reatment ":8361,"wanted ":8362,"152":8363,"eptember ":8364,"Represent":8365,"provides ":8366," trail":8367,"challenge ":8368,"Color":8369,"incredibly ":8370,"Award":8371,"Bay":8372,"eag":8373,"vac":8374,"ere":8375,"ane":8376,"ated.\n":8377,"ica ":8378,"ed through ":8379,"of my ":8380,"for those ":8381,". You ":8382,"chance ":8383,"do.\n":8384,"compon":8385,"meant ":8386," miles ":8387,"ement.\n":8388,"rose ":8389,"about their ":8390,"syn":8391,"numbers ":8392,"join ":8393,"over the past ":8394,"rule ":8395,"London":8396,"comment.\n":8397,"opportunity ":8398,"delivery ":8399,"full of ":8400,"ird-":8401,"title":8402,"negative ":8403,"abandon":8404,", these ":8405,"AL":8406,"Ah":8407,"Saf":8408,"council":8409,"ie, ":8410,"oo ":8411,"ple":8412,"really":8413,". F":8414,"The F":8415,"prospect":8416,"discrimin":8417,"when he was ":8418,"wash":8419,"home in ":8420,"reported.\n":8421,"eye ":8422,"side of the ":8423,"slightly ":8424,"were the ":8425,"away from the ":8426,"Friday.\n":8427,"No. ":8428,"Attor":8429,"exercis":8430,"consequenc":8431,"collaps":8432,"Brazil":8433,"Vladimir ":8434,"\"When ":8435,"Hot":8436,"MP ":8437,"Nik":8438,"s?\n":8439,"wall ":8440,"ingham":8441,"plo":8442,"s, he ":8443,"be able to ":8444," they can ":8445,"disappear":8446," them, ":8447,"indict":8448,"capital":8449,"111":8450,"closely ":8451,"develop ":8452," bill":8453,"future.\n":8454,"went on to ":8455,"refused to ":8456,"heavily ":8457,"chief executive ":8458,"NBA ":8459,"boss ":8460,"Pakistan ":8461,"Facebook ":8462,"Japanese ":8463,"became the ":8464,"- to ":8465,"Glob":8466,"Here ":8467,"voc":8468,"y is ":8469,"atic":8470,"as Veg":8471,"esty":8472,"park ":8473,"says the ":8474,"was t":8475,"Lee ":8476,"investment":8477,"Real ":8478,"Euro ":8479,"Mr. Trump ":8480,"seems ":8481,"Manag":8482,"couple of ":8483,"saw the ":8484,"overwhelm":8485,"Gall":8486,"gro":8487,"orm":8488,"olf":8489,"image ":8490,"emit":8491,"e through ":8492,"out, ":8493,"what I ":8494,"It's the ":8495,"during his ":8496,"because it ":8497,"place to ":8498,", who has ":8499,"Conservativ":8500,"moved ":8501,"Philli":8502,"wife, ":8503,"regularly ":8504,"activities ":8505,"Seattle ":8506,"archit":8507,"volunte":8508,"Cre":8509,"Gra":8510,"Wall":8511,"],\"":8512,"inch":8513,"army ":8514,"revers":8515,". T":8516,". It was ":8517,"e of his ":8518,"Chur":8519,"He said: \"":8520,"I'm":8521,"expans":8522,"reports ":8523," therap":8524,"% of the ":8525,"difference ":8526," ($":8527,"London, ":8528,"Juli":8529,"decades ":8530,"deal with ":8531,"pollut":8532,"director of ":8533,"yourself ":8534,"stopped ":8535,"dozens of ":8536,"article":8537,"material":8538,"embrac":8539,"\"It was ":8540,", their ":8541,"nerv":8542,"ing two ":8543,"atmos":8544,"it's the ":8545,"them":8546,"h and ":8547,"print":8548,"feed":8549,"about a ":8550,"people were ":8551,"a two-":8552,"aire ":8553,"produce ":8554,"protection ":8555,"UK's ":8556,"personn":8557,"wrote: \"":8558,"caused ":8559,"sales ":8560,"allowing ":8561,"miss ":8562,"ballot ":8563,"Washington, ":8564,"doctors ":8565,"With the ":8566,"hit the ":8567,"mobile ":8568,"Princess ":8569,"\"A ":8570,"Es":8571,"iest ":8572,"obl":8573,", but the ":8574,"ington ":8575,"ect of ":8576,"abuse ":8577,"for your ":8578,"come":8579,"s, or ":8580,"istic":8581,"serious":8582,"wider ":8583,"remot":8584,"so-":8585,"relax":8586,"suburb":8587,"\"We are ":8588,"driver ":8589,"Aff":8590,"Cart":8591,"Haw":8592,"Nad":8593,"Pel":8594,"ient ":8595,"mate ":8596,"pock":8597,". His ":8598,"river":8599,"debut":8600,"udd":8601,"terr":8602,"secret ":8603,"homes ":8604,"most of the ":8605,"ansas ":8606,"serving ":8607,"soon":8608,"claim ":8609,"smil":8610,"shared a ":8611,"continued ":8612,"continued to ":8613,"possibly ":8614,"activity ":8615,"health and ":8616,"journe":8617,"Musk ":8618,"effort to ":8619,"who's ":8620,"guilt":8621,"!!":8622,"Good ":8623,"top":8624,"ed about the ":8625,"ing or ":8626,"The new ":8627,"was in ":8628,"constitu":8629,"weet":8630,"pet ":8631,"hero":8632,"added: '":8633,"state.\n":8634,"There were ":8635,"Ander":8636,"charge ":8637,"Adam ":8638,"deleg":8639,"score ":8640,"development":8641,"revealed that ":8642,"opposition":8643,"audience ":8644,"culture ":8645,"network":8646,"confirmed ":8647,"Matth":8648,"anxiet":8649," I ":8650,"Can ":8651,"Gard":8652,"Old ":8653,"een ":8654,"hik":8655,"er at ":8656,"eler":8657,"habit":8658,"of an ":8659,"ation, and ":8660,"artific":8661,"He is ":8662,"ickets ":8663,"looking to ":8664,"much more ":8665,"operations ":8666,"where":8667,"felt":8668,"law enforcement ":8669,"household":8670,"journalist":8671," truly ":8672,"Afghan":8673,"Stephen ":8674,"summary":8675,"335":8676,"Bir":8677,"Council":8678,"Doug":8679,"Lu":8680,"Mas":8681,"No.\n":8682,"Opp":8683,"Redd":8684,"Ye":8685,"fab":8686,"zab":8687,"ate to ":8688,"revenu":8689,"their ":8690,"as I ":8691,"unit":8692,"ations in ":8693,"boat ":8694,"held":8695,"elected ":8696,"lett":8697,"President Joe Biden ":8698," this.\n":8699,"author ":8700,"confident":8701,"Prosecut":8702,"wear ":8703,"North Carol":8704,"album ":8705,"method":8706,"Egypt":8707,"Ethiop":8708,"Starmer ":8709,"Pay":8710,"dance ":8711,"men's ":8712,"uss":8713,"agon":8714,"fraud":8715,"deals ":8716,"ations to ":8717,"ant, ":8718,"grand ":8719,"many":8720,"compens":8721,"ratic ":8722,"despite the ":8723,"noted that ":8724,"showcas":8725,"investors ":8726,"politics ":8727,"places ":8728,"moder":8729,"increase in ":8730,"blockquot":8731,"losing ":8732,"seemed ":8733,"viral ":8734,"echnical ":8735,"injuries ":8736,"NBC":8737," title ":8738,"CH":8739,"Kir":8740,"Lak":8741,"Lord ":8742,"Mu":8743,"mum ":8744,"ye":8745," technolog":8746,"stabb":8747,"stunning ":8748,"icious ":8749," to do ":8750,"for our ":8751,"ers on ":8752,"spent":8753,"ive and ":8754,"need for ":8755,"up in ":8756,"saying":8757,"In addition":8758,"Frank":8759,"want to be ":8760,"as a \"":8761,"should have ":8762,"condition ":8763,"Beij":8764,"journey ":8765,"his t":8766,"welcome ":8767,"Martin ":8768,"bridge ":8769,"dozen ":8770,"affordable ":8771,"-the-":8772,"San Franc":8773,"ceremony ":8774,"a large ":8775,"Festiv":8776,"Hop":8777,"Rel":8778,"ior ":8779,"ers that ":8780,"'s \"":8781,"liqu":8782,"ation (":8783,"cricket":8784,"days, ":8785,"ways to ":8786,"if I ":8787,"electoral ":8788,"extr":8789,"Arch":8790,"months, ":8791,"issued a ":8792,"shares ":8793,"profit":8794,"stream ":8795,"penalty ":8796,"About ":8797,"genoc":8798,"Now, ":8799,"analyst":8800,"contrast":8801,"LA ":8802,"ini ":8803,"a in ":8804,"ing down ":8805,"is and ":8806,"ison":8807,"entry ":8808,"etic ":8809,"shut":8810,"has already ":8811,"partis":8812,"parts of the ":8813,"ension ":8814,"family.\n":8815,"make sure ":8816,"green":8817,"putt":8818,"England's ":8819,"have to be ":8820,"challenges ":8821,"competitive ":8822,"particular":8823,"estimated ":8824,"bowl":8825,"lots of ":8826,"veteran ":8827,"religious ":8828,"entirely ":8829,"Afghanist":8830,"Jim":8831,"Jour":8832,"Vis":8833,"gra":8834,"matt":8835,"r ":8836,"sitting ":8837,"s in a ":8838,"a P":8839,"act of ":8840,"ley":8841,"chocol":8842,"os.\n":8843,"intim":8844,"had no ":8845,"ously":8846,"status ":8847,"backed ":8848,"Prad":8849,"a lot":8850,"announcement ":8851,"population ":8852,"women and ":8853,"balanc":8854,"attack on ":8855,"ed to take ":8856,"contributors":8857,"when it comes to ":8858,"occurred ":8859,"Channel ":8860,"Bus":8861,"Bang":8862,"Che":8863,"Hur":8864,"Hun":8865,"bed ":8866,"buck":8867,"cinem":8868,"nor ":8869,"enz":8870,"ing with the ":8871,"haw":8872,"at an ":8873,"wheel":8874,"lip":8875,"s and a ":8876,"St. ":8877,"surfac":8878,"Brown ":8879,"leading to ":8880,"leadership":8881,"son.\n":8882,"chain ":8883,"supporters ":8884,"increasing ":8885,"Club":8886,"partnership ":8887,"village ":8888,"dynam":8889,"forecast":8890,"Bab":8891,"Barr":8892,"Post ":8893,"bell":8894,"figh":8895,"mun":8896,"nail":8897,"eline ":8898,"is expected to ":8899,"chef":8900,"seiz":8901," to this ":8902,"weather":8903,"with two ":8904,"presence ":8905,"crash ":8906,"mad ":8907,"say the ":8908,"any other ":8909,"basket":8910,"Common":8911,"remained ":8912,"involved ":8913,"secondaryDateLine":8914,"nation's ":8915,"meaning":8916,"primaryDateLine":8917,"joined ":8918,"vehicles ":8919,"yourself":8920,"CEO ":8921,"progres":8922,"First published on ":8923," transport":8924,"doubt":8925,"aircraft ":8926," by ":8927,"\"a ":8928,"660":8929,"Brook":8930,"Ga":8931,"Ira":8932,"gift":8933,"hug":8934,"kick ":8935,"nature ":8936,"ude":8937,"inf":8938,"one. ":8939,"esot":8940,"id-":8941,"email ":8942,"and this ":8943," that she ":8944,"it can ":8945,"have also ":8946,"le of ":8947,"said to ":8948,"Any":8949,"flav":8950,"addict":8951,"retired ":8952,"ette ":8953,"hearing ":8954,"because he ":8955,"charity ":8956,"Michel":8957,"photo":8958,"dream ":8959,"pair of ":8960,"appropriate ":8961,"attributes":8962,"=\"":8963,"Squ":8964,"Sever":8965,"ակ":8966,"s such as ":8967,"er - ":8968,"er who ":8969,"ed that":8970,"in some ":8971,"shut ":8972,"suic":8973,".\"\"\n":8974,"grown ":8975,"complex ":8976,"worked ":8977,"ishi ":8978,"has been a ":8979,"missile ":8980,"way of ":8981,"conduct ":8982,"borrow":8983,"Micros":8984,"received a ":8985,"Organ":8986,"ism and ":8987,"classic ":8988,"measures":8989,"as well.\n":8990,"Netflix ":8991,"Stadium ":8992,"\"If ":8993,", two ":8994,"-minute ":8995,"Bad":8996,"Cat":8997,"Ly":8998,"ger":8999,"ry, ":9000,"s into ":9001,"angr":9002,"and was ":9003,"isol":9004,"earn ":9005,"shift ":9006,"e, he ":9007,"clas":9008,"wealth ":9009,"you don't ":9010,"ence. ":9011,"internet ":9012,"such as the ":9013,"start of the ":9014,"put the ":9015,"window ":9016,"suppli":9017," percent of ":9018," territor":9019,"fifth ":9020,"District ":9021,"Gab":9022,"Minn":9023,"Rem":9024,"dated ":9025,"list of ":9026,"plead":9027,"ron ":9028,"for two ":9029,"why":9030,"on your ":9031,"unveil":9032,"ourselv":9033,"otic ":9034,"otally ":9035,"resum":9036,"consecut":9037,"e tod":9038,"super ":9039," trag":9040,"making a ":9041,"people in ":9042,"au ":9043,"Armen":9044,"i.guim.co.uk/img/media/a":9045,"bert ":9046,"provided ":9047,"ezone":9048,"moments ":9049,"causing ":9050,"allegations ":9051,"agreed to ":9052,"Timezone":9053,"experienced ":9054,"vari":9055," years, ":9056,"measures ":9057,"NoTimezone":9058,"UN ":9059,"Academ":9060,"keyEvent":9061,"blockFirstPublishedDisplayNoTimezone":9062,"blockCreatedOnDisplay":9063,"blockLastUpdatedDisplay":9064,"pinned":9065,"Abb":9066,"Gand":9067,"Ra":9068,"wise ":9069,", according to the ":9070,"alu":9071,"ilomet":9072,"acher ":9073,"adult ":9074,"age to ":9075,"208":9076,"coast ":9077,"oky":9078,"mann":9079," try and ":9080,", and I ":9081,"what was ":9082,"choose ":9083,"ilitary ":9084,"write ":9085,"both the ":9086,"Comb":9087,"president's ":9088,"simple ":9089,"got the ":9090,"suspect ":9091,"recogniz":9092,"sustainable ":9093,"Strict":9094,"luxury ":9095,"asylum ":9096,"Bow":9097,"Pen":9098,"a time ":9099,"craz":9100,"reh":9101,"its t":9102,"a has ":9103,"proper ":9104,"Thank":9105,"decide ":9106,"officially ":9107,"innoc":9108,"camp ":9109,"Polic":9110,"spoken ":9111,"Congress":9112,"described ":9113,"echan":9114,"beauty ":9115,"leave the ":9116,"relationship with ":9117,"demonstrat":9118,"split ":9119,"recruit":9120,"condemn":9121,"EN":9122,"Hay":9123,"Jess":9124,"hits ":9125,"ode":9126,"pub":9127,"us and ":9128,"s had ":9129,"ality ":9130,"ing that":9131,"oust":9132,"The first ":9133,"ott ":9134,"shock ":9135,"209":9136,"pray":9137,"more, ":9138,"\" in ":9139,"her, ":9140,"plays ":9141,"owners ":9142," thrill":9143,"114":9144,"wrote, ":9145,"far-":9146,"referr":9147,"committe":9148,"Research ":9149,"difficult to ":9150,"mother, ":9151,"Virgin":9152,"conspirac":9153,"Profess":9154," a.m":9155," one ":9156,"\"T":9157,"\" that ":9158,"Bost":9159,"a three-":9160,"led the ":9161,"send":9162,"er t":9163,"ari ":9164,"espre":9165,"immer":9166,"conclus":9167,"ex ":9168,"ounce ":9169,"ations that ":9170,"percent":9171,"not a ":9172,"brings ":9173,"obtain":9174,"line.\n":9175,"drink ":9176,"but they ":9177,"Share ":9178,"defensive ":9179,"Reev":9180," the tr":9181,"body":9182,"always been ":9183,"reveals ":9184,"certaint":9185,"Health":9186,"Columb":9187,"win over ":9188,"warned ":9189,"hotel":9190,"priorit":9191,"/Getty Images\n":9192,"GOP ":9193,"Anthony ":9194,"degree ":9195,"Iraq":9196,"consecutive ":9197,"Bell":9198,"God ":9199,"K ":9200,"Sam ":9201,"mouth":9202,"pound":9203,"ors to ":9204,"iring ":9205,"unfortun":9206,"proud":9207,"effort ":9208,"poor":9209,"centre":9210,"125":9211,"Energ":9212,"given":9213,"posted on ":9214,"possibil":9215,"allows ":9216,"bench":9217,"arrested ":9218,"Medic":9219,"influence ":9220,"appeal ":9221,"carried out ":9222,"smaller ":9223,"539":9224,"780":9225,"BI ":9226,"Kum":9227,"Rw":9228,"iy":9229,"page ":9230,"y)\n":9231,"ing through ":9232,"station ":9233,". And":9234,"The former ":9235,"has been":9236," their own ":9237,"a full ":9238,"if we ":9239,"so, ":9240,"aimed at ":9241,"called for ":9242,"didn't":9243,"trans":9244,"simpl":9245,"strikes ":9246,"potential":9247,"programm":9248,"character":9249,"***":9250,"Are ":9251,"Dam":9252,"MS":9253,"Ret":9254,"Rod":9255,"Rock":9256,"Vance ":9257,"paus":9258," tell":9259,"uring ":9260,"agree ":9261,"y, a ":9262," this year":9263,"all of the ":9264,"incor":9265,"about her ":9266,"played a ":9267,"In an ":9268,"do it ":9269,"undermin":9270,"airport":9271,"base ":9272,"basic ":9273,"ers, and ":9274,"begin ":9275,"242":9276,"path ":9277,"possible to ":9278,"birth ":9279,"wearing ":9280,"volum":9281,"murder ":9282,"on May ":9283,"encourage ":9284,"mistak":9285,"Taylor Swif":9286,"industrial ":9287,"Elizab":9288,"-day ":9289,"820":9290,"Big ":9291,"Hill ":9292,"Iow":9293,"Nick ":9294,"TS":9295,"d-":9296,"equal":9297,"fake ":9298,"er (":9299,"es-":9300,"on June ":9301,"embl":9302,"aked ":9303,"or in ":9304,"so much":9305," true ":9306,"ia\n":9307,"internal ":9308,"ok Sab":9309," met":9310,"arms ":9311,"409":9312,"Constitut":9313,"Blu":9314,"payment ":9315,"discipl":9316,"486":9317,"Donald Trump's ":9318,"planning ":9319,"picture ":9320,"onna ":9321,"registered ":9322,"chairman ":9323,"Studi":9324,"familiar ":9325,"wild ":9326,"Giv":9327,"Spain ":9328,"Us":9329,"gain ":9330,"taken ":9331,"ystem":9332,"y for ":9333,"ing these ":9334,"a d":9335," to help ":9336,"ion\n":9337,". E":9338,"destruct":9339,"est-":9340,"youth ":9341,"le and ":9342,"\" - ":9343,"flat ":9344,"inct":9345,"widespre":9346,"phen":9347,"smo":9348,"Report":9349,"core ":9350," train ":9351,"effectively ":9352,"launched ":9353,"becomes ":9354,"believes ":9355,"falling ":9356,"Speaking ":9357,"suddenly ":9358,"anniversary ":9359,"\"L":9360,"\"What ":9361,"94":9362,"Benj":9363,"Cab":9364,"Cop":9365,"De ":9366,"Pop":9367,"Sud":9368,"ram":9369,"enk":9370,"eless":9371,"hasiz":9372,"ewor":9373,"ended up ":9374,"actors ":9375,"award ":9376,"compreh":9377,"making the ":9378,"boot":9379,"Brown":9380,"make sur":9381,"started to ":9382,"color":9383,"seem ":9384,"emphasiz":9385,"receiving ":9386,"ism.\n":9387,"appli":9388,"drew ":9389,"NBC ":9390,"Develop":9391,"Fox News Dig":9392,"93":9393,"; the ":9394,"LA":9395,"U ":9396,"Vide":9397,"brain":9398,"cad":9399,"nur":9400," town ":9401,"anj":9402,", even ":9403,"it's":9404,". But":9405,"as and ":9406,"amin":9407,"e tri":9408,"I want to ":9409,"intense ":9410,"antic ":9411,"ough the ":9412,"owner ":9413,"Also ":9414," he told ":9415,"life and ":9416,"month, ":9417,"slow ":9418,"documents ":9419,"ability":9420,"wins ":9421,"false ":9422,"consumer ":9423,"Act ":9424,"bringing ":9425,"Addition":9426,"categor":9427,"860":9428,"Cle":9429,"Ray":9430,"dress ":9431,"fasc":9432,"ary to ":9433,"es or ":9434,"amid":9435,"ly and ":9436,"iff ":9437,"out for ":9438,"ught":9439,"a four":9440,"aud ":9441,"larger ":9442,"born":9443,"catch ":9444," per cent of ":9445,"history of ":9446,"Josh ":9447,"birthday ":9448,"Championship ":9449,"Paul":9450,"church ":9451,"permanent ":9452,"Ay":9453,"Saudi ":9454,"Tony ":9455,"oo":9456,"sitt":9457,"s his ":9458,"inch ":9459,"bet ":9460,"set of ":9461,"depress":9462,"antis":9463,"gram":9464,"er, a ":9465,"lying ":9466,"e-t":9467,"version of ":9468,"Army ":9469,"They were ":9470,"asked to ":9471,"ities to ":9472,"colon":9473,"employment ":9474,"suffici":9475,"Educ":9476," tradition":9477,"believe th":9478,"461":9479,"beautiful":9480,"River":9481,"Gov. ":9482,"veget":9483,"Because ":9484,"\"s ":9485,"717":9486,"Camp":9487,"Ren":9488,"Wel":9489,"cod":9490,"s) ":9491,"yard ":9492,"hack":9493,"as many ":9494,"ad, ":9495,"sees ":9496," tool":9497,"are also ":9498,"weigh":9499,"said. ":9500,"guy ":9501,"boast":9502,"when a ":9503," memb":9504,"Argent":9505," three years ":9506,"Rep. ":9507," (\"":9508,"history.\n":9509,"reached ":9510,"clip":9511,"construction ":9512,"circumstanc":9513,"Bro":9514,"CD":9515,"Ca":9516,"Cros":9517,"a>":9518,"bond":9519,"dar":9520,"dark":9521,"eer":9522,"prais":9523,"ariff":9524,"and that's ":9525,"rible ":9526,"spon":9527,"going on ":9528,"end.\n":9529,"from her ":9530,"man.\n":9531,"Mary":9532,"everybody ":9533,"Commission":9534,"forced ":9535,"Southern ":9536,"urged ":9537,"fundament":9538,"making it ":9539," turned ":9540,"Olympics ":9541,"styl":9542,"linked to ":9543,"favourit":9544,"Women's ":9545,"complaint ":9546,"brilliant ":9547,"responsibility ":9548,"so-called ":9549," Mr ":9550,"/ ":9551,"; and ":9552,"Civ":9553,"Spr":9554,"bes":9555,"f/":9556,"pt ":9557,"այ":9558,"s will be ":9559,"ing - ":9560,"icit ":9561,"think":9562,"in H":9563,"oler":9564,"ential ":9565," today.\n":9566,"ation, the ":9567,"arts ":9568,"not been ":9569,"grac":9570,"Stan":9571,"acceler":9572,"Tran":9573,"dry ":9574,"show.\n":9575,"claimed that ":9576,"work and ":9577,"ministr":9578,"Ukraine.\n":9579,"how they ":9580,"Election ":9581,"balance ":9582,"ronic ":9583,"behaviour":9584,"scrut":9585,"Group":9586,"Glasgow ":9587,"prominent ":9588,"939":9589,"GA ":9590,"Game ":9591,"Lis":9592,"Oth":9593,"Rah":9594,"gy":9595,"ium ":9596,"oon ":9597,"s: \"":9598,"tra":9599,"ene ":9600,"ing them":9601,"ingredi":9602,"ato":9603,"ated, ":9604,"adel":9605,"sad ":9606,"e, who ":9607,"artist ":9608,"ant.\n":9609,"acting ":9610,"flying ":9611,"Where ":9612,"later.\n":9613,"a tri":9614," Minist":9615,"rich":9616,"Newcast":9617,"When I ":9618,"attacks ":9619,"elements":9620,"Modi":9621,"Jamie ":9622,"below ":9623,"campaign.\n":9624,"people of ":9625,"Palestinian":9626,"\":[{\"_":9627,"conveni":9628," traffic ":9629,"a couple of ":9630,"result of ":9631,"RT":9632,"Sa":9633,"Turn":9634,"aed":9635,"k, ":9636,"m.\n":9637,"neck":9638,"sort":9639,"s up ":9640,", from ":9641,"alent":9642,"resili":9643,"umn":9644,"um and ":9645,"are now ":9646,"like that":9647,"When":9648," he said ":9649,"New Jer":9650,"area.\n":9651,"Andy ":9652,"Forc":9653,"emphas":9654,"creative ":9655,"levels of ":9656,"described the ":9657,"e trans":9658,"penalt":9659,"businesses ":9660,"doctor ":9661,"isco ":9662,"Kennedy ":9663,"Islamic ":9664,"Capitol ":9665,"- that ":9666,"225":9667,"D-":9668,"UC":9669,"ain the ":9670,"due ":9671,"fiscal ":9672,"las ":9673,"length":9674,"vital ":9675," tack":9676,"s after ":9677,"onz":9678,"ed - ":9679,"ilar ":9680,"age. ":9681,"and th":9682,"e those ":9683,"frag":9684,"parts of ":9685,"herself":9686,"icky ":9687,"land, ":9688,"living in ":9689,"Republican":9690,"system.\n":9691,"strugg":9692,"joined the ":9693,"battle":9694,"residents ":9695,"animal ":9696,"researchers ":9697,"Despite the ":9698,"Everyone ":9699,"parliament ":9700,"freedom ":9701,"Championship":9702,"alcohol":9703,"Dar":9704,"Div":9705,"fro":9706,"fish ":9707,"s it ":9708,"ings that ":9709,"oul ":9710,"omen":9711,"opol":9712,"shout":9713,"in the second ":9714,"grab":9715,"with t":9716,"said he was ":9717,"point of ":9718," time and ":9719,"say, ":9720,"just as ":9721,"again, ":9722,"izing ":9723,"lifesty":9724,"game":9725,"% in ":9726,"victim ":9727,"half of the ":9728,"keep the ":9729,"scream":9730,"midfield":9731,"surgery ":9732,"I don't know ":9733,"Again":9734,"waiting ":9735,"paper ":9736,"on top ":9737,"full-":9738,"controvers":9739,"diplomatic ":9740,"oblig":9741,"artificial ":9742,"widespread ":9743," at the ":9744," cr":9745,"099":9746,"Marg":9747,"Qat":9748,"hid":9749,"sac":9750,"stuck ":9751,"a K":9752,"icial ":9753,"ilar":9754,"plastic ":9755," that will ":9756,"with its ":9757,"clash":9758,"more":9759,"attempt ":9760,"prem":9761,"embarr":9762,"But he ":9763,"reported that ":9764,"azz":9765,"relations ":9766,"Indian":9767,"Read ":9768,"become a ":9769,"Among":9770,"Harv":9771,"White House":9772,"\":[],\"":9773,"yet to ":9774,"doubt ":9775,"Liverpool":9776,"punish":9777,"breath":9778,"coffee ":9779,"Football ":9780,"iPhone ":9781,"COVID":9782,"Wiscons":9783,"\"And ":9784,"\"We're ":9785,"220":9786,">,":9787,"Dodg":9788,"Four ":9789,"Vo":9790,"cos":9791,"cann":9792,"must":9793,"pull ":9794,"rural ":9795,"at their ":9796,"stol":9797,"and is ":9798,"e think":9799,"export":9800,"dial":9801,"proport":9802,"estive ":9803,"update ":9804,"compos":9805,"obsess":9806,"working with ":9807,"In fact":9808,"a fri":9809,"aims to ":9810,"fact ":9811,"appearanc":9812,"There is no ":9813,"Read":9814,"well.\n":9815,"scoring ":9816,"Cru":9817,"deliber":9818,"evening ":9819,"553":9820,"believe that ":9821,"customer ":9822,"Perhap":9823,"Super ":9824,"All-":9825,"circul":9826,"progress ":9827,"pictured ":9828," second":9829,"She's ":9830,"ik ":9831,"rent ":9832,"sending ":9833,"reated ":9834,"ion to the ":9835,"eman ":9836,"chat":9837,"abs":9838,"earth":9839,"was an ":9840,"s to a ":9841,"were not ":9842,"side, ":9843," time. ":9844,"later":9845,"Bry":9846,"roll ":9847,"explo":9848,"ology ":9849,"importance of ":9850,"Monday, ":9851,"loss of ":9852,"priz":9853," million in ":9854,"Robin":9855,"short-":9856,"environment ":9857,"maintain ":9858,"I think the ":9859,"dramatic ":9860,"garden ":9861,"minimum ":9862,"analysis ":9863,"controversial ":9864,"Cy":9865,"Dre":9866,"Dan ":9867,"Gary ":9868,"b-":9869,"mechan":9870,"are, ":9871,"of them":9872,"roy ":9873,"rik":9874,"consc":9875,"in the world":9876,"endra ":9877,"will continue to ":9878,"when we ":9879,"end up ":9880," he says.\n":9881,"it was a ":9882,"solv":9883,"defens":9884,"handl":9885,"President Biden ":9886,"right now":9887," took place ":9888,"leaves ":9889,"spectac":9890,"bird":9891,"won't be ":9892,"ately":9893,"for the first time ":9894,"Aust":9895,"Big":9896,"cock":9897,"pha":9898,"wage ":9899,"wicket":9900,"alis":9901,"adequ":9902,"li ":9903,"have an ":9904,"others.\n":9905,"Stud":9906,"manif":9907,"also be ":9908,"achel ":9909,"buying ":9910,"extend":9911,"North":9912,"got a ":9913,"return to the ":9914,"north":9915,"wrote on ":9916,"'ll be ":9917,"Dr ":9918,"creating ":9919,"assistant ":9920,"originally ":9921,"Earlier this ":9922,"Sydney ":9923,"embarrass":9924,"(R":9925,"Bill":9926,"Hung":9927,"Over ":9928,"caf":9929,"d/":9930,"atically ":9931,"illy ":9932,"as possible":9933,"agent ":9934,"e team":9935,"doing":9936,"Trans":9937,"adding that ":9938,"identified ":9939,"over his ":9940,"engage ":9941,"a te":9942,", which has ":9943,"Show":9944,"defend ":9945,"name":9946,"support the ":9947,"began to ":9948,"friends and ":9949,"furth":9950,"House of ":9951,"confus":9952,"South Afric":9953,"half-":9954,"hurt ":9955,"migrant":9956,"patient ":9957,"member of the ":9958,"Singh ":9959,"magaz":9960,"legislation ":9961,"Charlott":9962,"antisemit":9963,"\"M":9964,"C.\n":9965,"Vot":9966,"co ":9967,"gap ":9968,"nobody ":9969,"yellow ":9970,"alter":9971,"ings of ":9972,". W":9973,"abd":9974,"even the ":9975,"need a ":9976,"flat":9977,"But it ":9978,"do you ":9979,"a bre":9980,"changing ":9981,"capabilit":9982,"games.\n":9983,"more than $":9984,"operation ":9985,"four years ":9986,"considering ":9987,"harass":9988,"Palestinians ":9989,"related to ":9990,"allies ":9991,"Manchester United ":9992,"onto the ":9993,"devastating ":9994,"Childr":9995,"retirement ":9996,"Luke ":9997,"Abu":9998,"Dal":9999,"Mitch":10000,"Rub":10001,"Radi":10002,"ey, ":10003,"fish":10004,"ն ":10005,"s has ":10006,", not ":10007,"alg":10008,"ing: ":10009,"revenue ":10010,"er on ":10011,"for that ":10012,"enter ":10013,"ations. ":10014,"- or ":10015,"peak ":10016,"oved ":10017,"blu":10018,"on the t":10019,"pressur":10020,"assive ":10021,"intervent":10022,"capable ":10023,"warm ":10024,"slid":10025,"ness.\n":10026,"plane ":10027,"Hamp":10028,"involving ":10029,"settl":10030,"married ":10031,"Photo":10032,"took ":10033,"Sunak ":10034,"essential":10035,"restrictions ":10036,"Kevin ":10037,"Labour's ":10038,"congress":10039,"Zelensk":10040,"partisan ":10041,"\"N":10042,"\"This is ":10043,"-up":10044,"210":10045,"Hann":10046,"Kl":10047,"Treas":10048,"c-":10049,"code ":10050,"fought ":10051,"ki ":10052,"pip":10053,"vin":10054,"vet":10055,"wish ":10056,"s out ":10057,"orn ":10058,"a F":10059,"as his ":10060,"prohib":10061,"ellor ":10062,"ugh ":10063,"make":10064,"invest ":10065,"carbon ":10066," there is a ":10067,"a bit of ":10068,"how many ":10069,"war.\n":10070,"followed by ":10071,"hadn't ":10072,"ministry ":10073,"moved to ":10074,"appeared to ":10075,"Form":10076,"happened ":10077,"injured":10078,"even though ":10079,"Centre ":10080,"messages ":10081,"referenc":10082,"devic":10083,"planned ":10084,"proposal ":10085,"representativ":10086,"Portug":10087,"mobil":10088,"idea of ":10089,"n <li":10090,"Parliament ":10091," Mr. ":10092,"\"F":10093,"260":10094,"Dall":10095,"Hon":10096,"Pan":10097,"Wind":10098,"bik":10099,"gat":10100,"hall":10101,"mon ":10102,"oj":10103,"ers - ":10104,"ester ":10105,"ude ":10106,"at the University of ":10107,"\" of ":10108,"finance ":10109,"er, but ":10110,"old.\n":10111,"Mrs ":10112,"Convent":10113,"crew ":10114,"Clint":10115,"attacks on ":10116,"feel like ":10117,"involved in ":10118,"suggested ":10119,"etherland":10120,"documentary ":10121,"morning, ":10122,"consistent ":10123,"album":10124,"pandemic ":10125,"Louis":10126,"architect":10127,"adelph":10128,"\" the ":10129,"Cost":10130,"LO":10131,"Ron":10132,"block ":10133,"eigh":10134,"fill ":10135,"fell":10136,"hunt":10137,"pill":10138,"rack":10139,"revol":10140,"and we ":10141,". Photograph: ":10142,"rescue ":10143,"extern":10144,"in the last ":10145,"deem":10146,"evit":10147,"go.\n":10148,"ing the t":10149,"ing to be ":10150,"neither ":10151,"most of ":10152,"rival ":10153,"Comp":10154,"Trump, ":10155,"begin":10156,"charging ":10157,"focused ":10158,"healthcare ":10159,"death.\n":10160,"likely to be ":10161,"journalist ":10162,"learning ":10163,"comment on this ":10164,"beaten ":10165,"responsible for ":10166,"vaccin":10167," while ":10168,"Boy":10169,"Est":10170,"LGB":10171,"RO":10172,"Son":10173,"afr":10174,"gym":10175,"wake ":10176,"reward":10177,"itory ":10178,"The company ":10179,"it is":10180,"apartment ":10181,"actual ":10182,"cry":10183,", and a ":10184,"ated by the ":10185,"dron":10186,"background":10187,"how he ":10188,"End":10189,"Sci":10190,"know the ":10191,"cream":10192,"process.\n":10193,"Donald":10194,"England":10195,"according to a ":10196,"career.\n":10197,"find a ":10198,"cap ":10199,"hydr":10200,"Street":10201,"Chief Minist":10202," training ":10203,"article ":10204,"er Bow":10205,"golden ":10206,"literally ":10207,"wonderful ":10208,"ceasef":10209,"rarely ":10210,".A. ":10211,"Affair":10212," days ":10213," data-":10214,"Cast":10215,"J ":10216,"Naz":10217,"Rishi ":10218,"hate ":10219,"mir":10220,"midd":10221,"magn":10222,", after ":10223,"atch ":10224,"third":10225,"ed. The ":10226,"died in ":10227,"in the same ":10228,"ers can ":10229,"cool ":10230,"pped ":10231,"ights ":10232,"upgrad":10233,"prescri":10234,"days.\n":10235,"ug ":10236,"ously, ":10237,"It comes ":10238,"people have ":10239,"ly t":10240,"legend":10241,"let's ":10242,"slamm":10243,"each other":10244,"seemingly ":10245,"faith":10246,"South Kore":10247," Apr":10248,"strong> ":10249,"murder":10250,"panel ":10251,"Philadelph":10252," together.\n":10253,"Minnesot":10254,"\"W":10255,"Liv":10256,"Las Veg":10257,"Ref":10258,"Tal":10259,"aught ":10260,"och":10261,"ped":10262,"y. The ":10263,"es t":10264,". N":10265," that would ":10266,"rak":10267," theor":10268,"you, ":10269,"assert":10270,"side.\n":10271,"ions in ":10272,"In his ":10273,"sharp ":10274,"both sid":10275,"ness, ":10276,"look at the ":10277," team.\n":10278,"Wednesday, ":10279,"Road ":10280,"meaning ":10281,"leaving the ":10282,"error":10283,"Abd":10284,"affected ":10285,"Andrew":10286,"shopping ":10287,"requires ":10288,"fewer ":10289,"coalition ":10290,"gotten ":10291,"Cathol":10292,"CP":10293,"Kim":10294,"Mot":10295,"Max":10296,"Rac":10297,"oz":10298,"rup":10299,"erb":10300,"ree-":10301,"ous and ":10302,"a more ":10303,"ett ":10304,"has now ":10305,"worse ":10306,"pren":10307,"had an ":10308,"ance to ":10309,"upon ":10310,"Alli":10311,") in ":10312,"able for ":10313,"a sens":10314,"a, a ":10315,"change the ":10316,"don't have ":10317,"right.\n":10318,"factor":10319,"said: \"The ":10320,"For example, ":10321,"seems to ":10322,"ank you ":10323,"Getty)\n":10324,"as well as the ":10325,"honor":10326,"ernand":10327,"visitors ":10328,"ambassad":10329,"fallen ":10330,"Jeremy ":10331,"declined to ":10332,"above the ":10333,"behaviour ":10334,"Turk":10335,"'re t":10336,"Asian ":10337,"Bridg":10338,"Investig":10339,"-wing ":10340,"Attorney ":10341,"Elizabeth ":10342,"Benjamin ":10343,"manifest":10344,"Good":10345,"Rav":10346,"Sin":10347,"Sub":10348,"gall":10349,"nat":10350,"t's ":10351,"uth ":10352,"vit":10353,"é ":10354,"որ":10355,"alert":10356,"ing' ":10357,"ions. ":10358,"forest":10359,". If ":10360,"seed":10361,"or comment on this ":10362,"ic of ":10363,"\" (":10364,"seriously ":10365,"saying that ":10366,"decor":10367,"Al-":10368,"Alam":10369,"glass":10370,"Arm":10371,"speed":10372,"Ukraine, ":10373,"stars ":10374,"McC":10375,"realiz":10376,"information":10377,"freez":10378,"no-":10379,"ceiv":10380,"size ":10381,"Maybe ":10382,"response to the ":10383,"please ":10384,"studio ":10385,"constitutional ":10386,"hetor":10387,"Whether ":10388,"Share or comment on this ":10389,"Share or comment on this article":10390,"-in-":10391,"Krem":10392,"Lind":10393,"Mary ":10394,"River ":10395,"Var":10396,"bust":10397,"biz":10398,"gonna ":10399,"lap":10400,"enem":10401,"ous, ":10402,"ed for a ":10403,"el and ":10404,"on social media ":10405,"such":10406,"quiet":10407,"affect ":10408,"here to ":10409,"line, ":10410,"She also ":10411,", but it ":10412,"cannot be ":10413,"182":10414,"work with ":10415,"sharing ":10416,"having to ":10417,"expected to be ":10418,"Trump.\n":10419,"That is ":10420,"developing ":10421,"celebrate ":10422,"coup":10423,"politician":10424,"Governor ":10425,"Celebr":10426,"Philipp":10427,"parliamentary ":10428,"Banglad":10429,"\"Our ":10430,"C, ":10431,"Cup":10432,"Field":10433,"Houth":10434,"Kim ":10435,"Kansas ":10436,"Netherland":10437,"Te":10438,"Tit":10439,"ft ":10440,"kit":10441,"ring ":10442,"inspect":10443,"erial ":10444,"ensu":10445,"alread":10446,"ing for a ":10447,"in order to ":10448,"on social media":10449,"rail ":10450,"apply ":10451,"her own ":10452," this year ":10453,"blaz":10454,"ed the t":10455,"109":10456,"visited ":10457,"monthly ":10458,"ers, the ":10459,"issues.\n":10460," tribut":10461,"Blue ":10462," transfer":10463," teams ":10464,"Christop":10465,"regular":10466,"equiv":10467,"ism, ":10468,"Depart":10469," threat ":10470,"calcul":10471,"rate of ":10472,"memory ":10473,"climate chang":10474,"Canadian ":10475,"Obvi":10476,"Sarah ":10477,"Jackson ":10478,"Having ":10479,"Dy":10480,"Each ":10481,"GD":10482,"Jim ":10483,"Ker":10484,"Lev":10485,"Rog":10486,"WS":10487,"city":10488,"hol ":10489,"io":10490,"k.\n":10491,"rhetor":10492,"wrapp":10493,"y was ":10494,"icit":10495,"is so ":10496,"for t":10497,"he will ":10498,"ador":10499,"ion in the ":10500,"e three ":10501,"prob":10502,"you have to ":10503,"ella ":10504,"Anton":10505,"bright ":10506,"party":10507,"link ":10508,"He said ":10509,"last month ":10510,"a, which ":10511,"because I ":10512,"eyes ":10513,"hands ":10514,"es that are ":10515,"might have ":10516,"loss ":10517,"sister ":10518," transition":10519,"has taken ":10520,"spirit":10521,"better than ":10522,"Simon ":10523," transport ":10524,"Patrick ":10525,"conversation ":10526,"lawyer ":10527,"Wilson ":10528,"Mexico ":10529,"money.\n":10530,"Family ":10531,"YouTube ":10532,") to ":10533,"Bra":10534,"Back ":10535,"Bern":10536,"Deb":10537,"Daily ":10538,"Ep":10539,"Max ":10540,"Rachel ":10541,"den ":10542,"dinn":10543,"ks ":10544,"mit ":10545,"napp":10546,"ous.\n":10547,"ing from the ":10548,"ically":10549,"ed' ":10550,"of \"":10551,"as part of ":10552,"on our ":10553,"agon ":10554,"libr":10555,"with no ":10556,"worry ":10557,"ter, ":10558,"Any ":10559,"brought":10560,"day. ":10561,"would have been ":10562,"ization ":10563," throw ":10564,"months of ":10565,"They have ":10566,"159":10567,"176":10568,"ference ":10569,"ologist ":10570,"sale ":10571,"imagine ":10572,"sixth ":10573,"answer ":10574,"employees ":10575,"constantly ":10576,"Covid ":10577,"opponent":10578,"festival ":10579,"Netflix":10580,"eligible ":10581,"Boeing ":10582,"Edinburgh ":10583," when ":10584,", they're ":10585,"Beck":10586,"Here's ":10587,"Tam":10588,"Van ":10589,"ei ":10590,"ledge ":10591,"ud ":10592,"it to the ":10593,"ing into ":10594,"this ":10595,"in P":10596,"acher":10597,"comedy ":10598,"shown":10599,"umbl":10600,"outr":10601," that's the ":10602,"helic":10603,"Theat":10604,"wants ":10605,"governor ":10606,"afterward":10607,"politicians ":10608,"180":10609," traum":10610,"trad":10611,"five years ":10612,"found the ":10613,"celon":10614,"sentence ":10615,"barely ":10616,"Secret ":10617,"cutting ":10618,"price of ":10619,"a little bit ":10620," transpar":10621,"Scotland's ":10622,"championship":10623,"podcast ":10624,"Galax":10625,".)\n":10626,"Lam":10627,"Nas":10628,"Oli":10629,"eir":10630,"fly ":10631,"stak":10632,"es that the ":10633,"in front of ":10634,"chart":10635,"ears ":10636,"resident ":10637,"deport":10638,"ers at ":10639,"prol":10640,"one in ":10641,"out there ":10642,"blast":10643,"regim":10644,"cham":10645,"markets ":10646,"share":10647," time for ":10648,"government to ":10649,"winning the ":10650,"finding ":10651,", this is ":10652,"crisis":10653,"pushed ":10654,"elevis":10655,", too":10656,"criminal":10657,"summer.\n":10658,"mountain":10659,"mortgage ":10660,"phenomen":10661,"Bak":10662,"Broad":10663,"DI":10664,"Down":10665,"Jac":10666,"Oper":10667,"Toky":10668,"bid ":10669,"dad":10670,"grav":10671,"hub":10672,"lect":10673,"uzz":10674,"enorm":10675,", P":10676,"ar.\n":10677,"rein":10678,"a T":10679,"ed against ":10680,"ics, ":10681,"amend":10682,"agric":10683,"being t":10684,"fraud ":10685,"or not":10686,"aff":10687,"grade ":10688,"s and other ":10689,"ency.\n":10690,"Ste":10691,"medal ":10692,"state-":10693,"This is a ":10694,"pson ":10695,"Mr B":10696,"a bus":10697,"India, ":10698,"children's ":10699,"never been ":10700,"Force ":10701," throughout ":10702,"ideal ":10703,"Befor":10704,"Iran's ":10705,"records ":10706,"barri":10707,"war in ":10708,"New York City ":10709,"Senator ":10710,"looking at ":10711,"Sunday":10712,"interest rat":10713,"Agency ":10714,"earnings ":10715," typically ":10716,"surrounding ":10717,"meant to ":10718,"maximum ":10719," said the ":10720," seat":10721,"Aut":10722,"Cir":10723,"Get ":10724,"Hind":10725,"Lyn":10726,"Ow":10727,"ees ":10728,"ing those ":10729,"then ":10730,"agent":10731,"was found ":10732,"ist, ":10733,"ity of the ":10734,"attach":10735,"local":10736,"phil":10737,"people and ":10738,"ly-":10739,"ipul":10740,"if she ":10741,"office.\n":10742,"They also ":10743,"news":10744,"Paris":10745,"may not ":10746,"government has ":10747,"horrif":10748,"schools ":10749,"keeping ":10750,"Super Bow":10751,"sensitive ":10752,"hurt":10753,"six-":10754," treatment ":10755,"society ":10756,"advanced ":10757,"ournament ":10758,"Young ":10759,"a similar ":10760,"Ministry of ":10761,"Manhattan ":10762,"agricult":10763,"-elect ":10764,"Bey":10765,"Fans ":10766,"ME":10767,"Our":10768,"Ton":10769,"Viet":10770,"bie ":10771,"furn":10772,"mas":10773,"sh ":10774,"el's ":10775,"ed three ":10776,"is currently ":10777,"is set to ":10778,"at home ":10779,"whis":10780,"it for ":10781,"it was":10782,"exact ":10783,"ational":10784,"worn ":10785," this week ":10786,"upset ":10787,"portray":10788,"ated in ":10789,"just one ":10790,"invent":10791,"man who ":10792,"facility ":10793,"ski ":10794,"support.\n":10795,"credi":10796,"Carl":10797,"Elon ":10798,"approx":10799,"known as the ":10800,"rapid":10801,"confident ":10802,"find the ":10803,"disturb":10804,"programme ":10805,"deadly ":10806,"Japan ":10807,"sources ":10808,"Of course":10809,"School":10810,"understood":10811,"Golden ":10812,"machin":10813,"narrative ":10814,"corporate ":10815,"excellent ":10816,"Several ":10817," on the ":10818," degre":10819,"City, ":10820,"Dor":10821,"Lake ":10822,"Top ":10823,"bun":10824,"dos":10825,"ior":10826,"je":10827,"ll":10828,"lay ":10829,"y: ":10830,"ate t":10831,"them ":10832,"ada ":10833,"witness ":10834,"it would be ":10835,"at the end of the ":10836,"ies in ":10837,"discount":10838,"accept ":10839,"about how ":10840,"secured ":10841,"192":10842,"regret":10843,"Brand":10844,"a senior ":10845,"156":10846,"178":10847,"otten":10848,"solar ":10849,"role":10850,"correspond":10851,"jobs ":10852,"involved in the ":10853,"Board ":10854,"celebrity ":10855,"move to ":10856,"'s top ":10857,"interested in ":10858,"drawn ":10859,"migrants ":10860,"passengers ":10861,"Jordan ":10862,"Matthew ":10863,"\"un":10864,"062":10865,"FC ":10866,"Lor":10867,"Na":10868,"Ox":10869,"city, ":10870,"gas":10871,"gate ":10872,"hun":10873,"jab":10874,"littl":10875,"inely ":10876,"ano ":10877,"represents ":10878,"stair":10879,"ing in a ":10880,"ileg":10881,"is on ":10882,"as you ":10883,"it could ":10884,"out in ":10885,"ants.\n":10886,"outcom":10887,"This":10888,"assign":10889,"minor ":10890,"e. \"":10891,"It's":10892,"Alban":10893,"report.\n":10894,"weeks.\n":10895,"ption ":10896,"chas":10897,", a former ":10898,"ricane ":10899,"president, ":10900,", they are ":10901,"win.\n":10902,"failing to ":10903,"recorded ":10904,"Crim":10905,"caption":10906,"reach the ":10907,"Emma ":10908,"successfully ":10909,"California, ":10910,"initiative ":10911,"Italy ":10912,"radio ":10913,"pregnant ":10914,"podcast":10915,"favorite ":10916,"Pacific ":10917,"Beng":10918,"Sain":10919,"Wall ":10920,"dil":10921,"hyp":10922,"inevit":10923,", H":10924,". P":10925,"as long ":10926,"for \"":10927,"I don't think ":10928,"- who ":10929,"outdoor ":10930,"more to ":10931,"neut":10932,"ies are ":10933,"Inc":10934,"uggl":10935,"overturn":10936,"It has ":10937,"ustom":10938,"anne ":10939,"day and ":10940,"region.\n":10941,"calls ":10942,"woman":10943,"easi":10944,"happy to ":10945,"breach":10946,"viewers ":10947,"141":10948,"needs to be ":10949,"charged ":10950,"opened ":10951,"on September ":10952,". He was ":10953,"available to ":10954,"respond to ":10955," years of ":10956,"organization ":10957,"Watch ":10958,"Nigeria ":10959,"Brex":10960,"material ":10961,"afternoon ":10962," traffick":10963,"Meghan ":10964,"frequently ":10965,"nutr":10966,"Let's ":10967,"address the ":10968,"Share or comment on this article: ":10969,"\"D":10970,"\"It is ":10971,"240":10972,"Aar":10973,"Jaz":10974,"Lim":10975,"Way":10976,"instr":10977,"ense":10978,"ated to ":10979,"er with ":10980,"on July ":10981,"for all ":10982,"e ther":10983,"in the early ":10984,"clash ":10985,"heim":10986,"years. ":10987,"will not be ":10988,"you can't ":10989,"we need to ":10990,"ions for ":10991,"This is the ":10992,"101":10993,"102":10994,"a ter":10995,"able to":10996,"where she ":10997,"before he ":10998,"Prim":10999,"signs of ":11000," Mc":11001,"newly ":11002,"i.guim.co.uk/img/media/f":11003,"U.N":11004,"knowledg":11005,"passing ":11006,"Palace ":11007,"Hamil":11008,"event.\n":11009,"company, ":11010,"room.\n":11011,"Deput":11012,"California":11013,"struggled to ":11014,"only the ":11015," toward ":11016,"piece ":11017,"n't the ":11018,"engagement ":11019,"AFP":11020,"Metro":11021,"Everything ":11022,"soldiers ":11023,"church":11024,"Local ":11025,"C) ":11026,"ES":11027,"Mod":11028,"T-":11029,"ires":11030,"ner ":11031,"sover":11032,"sense ":11033,"of three ":11034,"ice-":11035,"edit":11036,"is very ":11037,". As ":11038,"iment ":11039,"uncertaint":11040,"etary ":11041,"for any ":11042,"it had ":11043," too":11044,"quit":11045,"illa ":11046,"without the ":11047,"negl":11048,"likes of ":11049,"cricket ":11050,"party, ":11051,"legit":11052,"underscor":11053,"law.\n":11054,"laid ":11055,"Biden, ":11056,"India":11057,"Israel and ":11058,"i.guim.co.uk/img/media/b":11059,"i.guim.co.uk/img/media/ae":11060," the time ":11061," she says.\n":11062,"a massive ":11063,"advent":11064,"attack.\n":11065,"products ":11066,"competit":11067,"Disney ":11068,"problems ":11069,"felt like ":11070,"Watch":11071,"ensure that ":11072,"necessarily ":11073,"Chief ":11074,", too.\n":11075,"boss":11076,"says: \"":11077,"Sports ":11078,"vulnerable ":11079,"Celtic ":11080,"LGBT":11081,"-in ":11082,"Jay":11083,"Le ":11084,"Lok Sab":11085,"pace ":11086,"e (":11087," ticket":11088,", it was ":11089,"y of the ":11090,"at all":11091,"resolv":11092,"perpet":11093,"worry":11094,"so I ":11095,"year, the ":11096,"bled":11097,"strict ":11098,"you could ":11099,"mans":11100,"ad of ":11101,"after she ":11102,"argument":11103,"legal":11104,"math ":11105,"many of the ":11106,"organ ":11107,"408":11108,"submitt":11109,"headlin":11110,"ful of ":11111,"e took ":11112,"336":11113,"faith ":11114,"career, ":11115," too much ":11116,"food and ":11117,"measure ":11118,"polling ":11119,"Sunday, ":11120,"Barcelon":11121,"either":11122,"No one ":11123,"Medical ":11124,"example ":11125,"Supp":11126,"essentially ":11127,"Valley ":11128,"drinking ":11129,"everything":11130,"Michigan ":11131,"Aber":11132,"FI":11133,"Gil":11134,"Mol":11135,"Yes, ":11136,"dict ":11137,"px":11138,"ps ":11139,"sun ":11140,"ել":11141,"er: ":11142,"y with ":11143,"ings. ":11144,"rely ":11145,"replace ":11146,"ico ":11147,"ice of ":11148,"ed they ":11149,"unless ":11150,"ourn":11151,"in the t":11152," today's ":11153,"pron":11154,"offens":11155,"et and ":11156,"ing to a ":11157," trend":11158,"mail":11159,"over.\n":11160,"saying, ":11161,"says. \"":11162,"phones ":11163,"legend ":11164,"state, ":11165,"notice ":11166,"backl":11167,"501":11168,"304":11169,"ations are ":11170,"ed on a ":11171,"basis ":11172,"point.\n":11173,"land.\n":11174,"missed ":11175,"mpath":11176,"skipp":11177,"solve ":11178," told The ":11179,"ness and ":11180,"York":11181,"setting ":11182,"square ":11183,"marriage ":11184,"better.\n":11185,"animals ":11186,"% to ":11187,"Sean ":11188,"bell ":11189,"e' ":11190,"h.\n":11191,"jew":11192,"native ":11193,"sits ":11194," total ":11195,"erupt":11196,"one t":11197,"repren":11198,"ically, ":11199,"ille ":11200,"ac ":11201,"accompan":11202,"accompl":11203,"rest of ":11204," too.\n":11205,"quiet ":11206,"persist":11207,"bless":11208,"Stew":11209,"Stock":11210,"ordered ":11211,"prep":11212,"What's ":11213,"adding ":11214,"identify ":11215,"before.\n":11216,"desir":11217,"ations for ":11218,"speed ":11219,"Israel.\n":11220,"generation ":11221," she said. \"":11222,"Administr":11223,"excited ":11224,"spoke to ":11225,"Musk":11226,"sized ":11227,"discuss ":11228,"Gaza St":11229,"absolute ":11230,"Williams ":11231,"has not been ":11232,"championship ":11233,"understand the ":11234,"aggressive ":11235,"civilian":11236,"emperatures ":11237,"Koh":11238,"Lewis ":11239,"hidden ":11240,"Global ":11241,"pleaded ":11242,"Land":11243,"NY":11244,"Out ":11245,"Sov":11246,"dir":11247,"eum":11248,"sack":11249,"stig":11250,"und ":11251,"agents ":11252,"cher":11253,"resh ":11254,"I do ":11255,"recept":11256,"action.\n":11257,"ency, ":11258,"s of his ":11259,"vibr":11260,"e. But ":11261,"back, ":11262,"so.\n":11263,"about to ":11264,"Eng":11265,"games, ":11266,"explain ":11267,"English":11268,"president.\n":11269,"otherwise ":11270,"lowest ":11271,"children and ":11272,"captured ":11273,"Washingt":11274,"wearing a ":11275,"protesters ":11276,"At least ":11277,"department":11278,"cliff":11279,"discussions ":11280,"Games ":11281,"admitted ":11282,"satell":11283,"Louis ":11284,"Sir Keir ":11285,"civilian ":11286,"College ":11287,"apparently ":11288,"Muslim ":11289,"margin":11290,"Okla":11291,"\"There's ":11292,"By":11293,"Dian":11294,"Food ":11295,"II ":11296,"Oreg":11297,"V ":11298,"count ":11299,"gift ":11300,"s they ":11301,"wal":11302,"wich ":11303," test ":11304,"or-":11305,"ar and ":11306,"arrive ":11307,"ion, and ":11308,"as soon ":11309,"ental ":11310,"on April ":11311,"using a ":11312,"from this ":11313,"ifer ":11314,"years in ":11315,"ney's ":11316,"maker ":11317,"scar ":11318,"about it":11319,"when she was ":11320,"only one ":11321,"reporters ":11322,". \"I ":11323,"because we ":11324,"movi":11325,"names ":11326,"appears to ":11327,"Phil ":11328,"join the ":11329," the two ":11330,"urgent ":11331,"333":11332,"concerns about ":11333,"Exper":11334,"295":11335,"lessly ":11336,"historical ":11337,"photograp":11338,"average of ":11339,"girlfriend ":11340,"Photo ":11341,"human rights ":11342,"between the two ":11343,"obvious ":11344,"analyst ":11345,"Victoria ":11346,"Independent ":11347,"encounter":11348,"Switzer":11349,"relevant ":11350,"omorrow":11351,"Ohio ":11352,"dialogu":11353," ...\n":11354,"(and ":11355,"HO":11356,"Jake ":11357,"Rad":11358,"Test":11359,"Warn":11360,"Yem":11361,"burd":11362,"fum":11363,"golf ":11364,"hint":11365,"length ":11366,"so the ":11367,"tak":11368,"u, ":11369," two-":11370,". For ":11371,"leak":11372,"unclear ":11373,"in the middle ":11374,"ivity ":11375,"ation in the ":11376,"off-":11377,"you will ":11378,"ing to do ":11379,"neur":11380,"presum":11381,"attend ":11382,"away, ":11383,"incent":11384," times, ":11385,"ed by his ":11386,"iz ":11387," may ":11388,"case of ":11389,"a team ":11390,"easier ":11391,"down and ":11392,"There is a ":11393,"option ":11394,"somebody ":11395,"Ell":11396,"Coop":11397,"hostages ":11398,"Peop":11399,"criticiz":11400,"ixel ":11401,"piece of ":11402,"reduce the ":11403,"Super":11404,"lawyers ":11405,"last year's ":11406,"Moscow":11407,"Parliament":11408,"narrow":11409,"Author":11410,"component":11411,"Strictly ":11412,"Galaxy ":11413,"-related ":11414,"560":11415,"Burn":11416,"Even":11417,"rated ":11418,"sight ":11419,"tain ":11420,"us in ":11421,"wip":11422,"anz":11423,"starr":11424,"advers":11425,"exchange ":11426,"years and ":11427,"with that ":11428,"Though ":11429,"elled ":11430,"retail ":11431,"ement, ":11432,"mates ":11433,"soar":11434,"where we ":11435,"Trump has ":11436,"I'm going to ":11437,"153":11438,"close to the ":11439,"race.\n":11440,"posted a ":11441,"possibl":11442," this, ":11443,"during an ":11444,"attempts to ":11445,"Emily ":11446,"someone who ":11447,"director of the ":11448,"strategy ":11449,"interest in ":11450,"residential ":11451,"Starmer":11452,"requirement":11453,"Katie ":11454,"January, ":11455,"Dutch ":11456,"chosen ":11457,"NATO":11458,"kitchen ":11459,"Hunter ":11460,"\"I've ":11461,"Dog":11462,"Domin":11463,"Kiev":11464,"Mumb":11465,"Sn":11466,"les, ":11467,"mum":11468,"mirr":11469,"snow ":11470,"s, t":11471,"al\n":11472,"ingu":11473,"ing. The ":11474,"is just ":11475,"es for the ":11476,"op-":11477,"exha":11478,"with our ":11479,"s, it ":11480,"depos":11481,"evalu":11482,"within a ":11483,"term":11484,"you need to ":11485,"like this ":11486,"which was ":11487,"manage ":11488,"disclos":11489,"scam":11490,"about $":11491,"says. ":11492,"decreas":11493,"This was ":11494," mil":11495,"rivate ":11496,"301":11497,"Enter":11498,"followed ":11499,"much of the ":11500,"subsid":11501,"area, ":11502," through a ":11503,"announced that ":11504,"strongly ":11505,"seemed to ":11506,"Tuesday, ":11507,"sent to ":11508,"Or ":11509,"writing ":11510,"history, ":11511,"bigger ":11512,"launched a ":11513,"makes it ":11514,"Christmas":11515,"earned ":11516,"press conference ":11517,"establish ":11518,"drama ":11519,"incident.\n":11520,"Women ":11521,"Well, ":11522,"Melbour":11523,"apparent ":11524,"draft ":11525,"NATO ":11526,"ABC ":11527,"quarterback ":11528,"variety of ":11529,"Deputy ":11530,"Oklahom":11531," yard":11532,"219":11533,"Austri":11534,"City":11535,"Doct":11536,"Hist":11537,"One":11538,"Sul":11539,"Yet":11540,"con ":11541,"jun":11542,"might":11543,"me that ":11544,"pump":11545,"ramp":11546," the same ":11547,"ings in ":11548,"repl":11549,"itle ":11550,"stick ":11551,"ely, ":11552,"es from the ":11553,". When ":11554,"on March ":11555,"chor":11556,"are still ":11557,"apart ":11558,"you'd ":11559,"you know ":11560,"said in ":11561,"said his ":11562,"makers ":11563,"my own ":11564,"says that ":11565,"added, ":11566,"intercept":11567,"county ":11568,"home and ":11569,"coron":11570,"China, ":11571,"Clark ":11572,"221":11573,"pattern":11574,"feels like ":11575,"nois":11576,"photos ":11577,"Edward":11578,"ambiti":11579,"attempting to ":11580,"explained.\n":11581,"labor ":11582,"priority ":11583,"filled with ":11584,"democratic ":11585,"exciting ":11586,"weapons ":11587,"episode ":11588,"Premier Leagu":11589,"aspect":11590,"romantic ":11591,"ան ":11592," took the ":11593,"princip":11594,"alcohol ":11595,"Miami ":11596,"rigu":11597,"Civil ":11598," month":11599,"-f":11600,"530":11601,"Cra":11602,"DE":11603,"DN":11604,"Gul":11605,"Master":11606,"Vik":11607,"by, ":11608,"barg":11609,"barr":11610,"cow":11611,"hes":11612,"punch":11613,"sham":11614,"we t":11615,"e has ":11616,", at ":11617,"stom":11618,"stunn":11619,"isher":11620,"is that the ":11621,". That's ":11622,"entit":11623,"whom":11624,"shall ":11625,"with your ":11626,"ulate ":11627,"seal":11628,"prosp":11629,"ation\n":11630,"- with ":11631,"print ":11632,"at the time ":11633,"anch ":11634,"He added: \"":11635,"oldest ":11636,"before they ":11637,"note ":11638,"support of ":11639,"water.\n":11640,"chap":11641," thinking ":11642," this time ":11643,"Gaza, ":11644,"drove ":11645,"Nov. ":11646,"double":11647," three tim":11648,"speaking ":11649,"walked ":11650,"Aug. ":11651,"787":11652,"based on the ":11653,"savings ":11654,"combat ":11655,"ed out to ":11656,"sweet":11657,"create a ":11658,"associated ":11659,", too, ":11660,"Obam":11661,"Today ":11662,"purchase ":11663,"money to ":11664,"advantage ":11665,"as much as ":11666,"Brian ":11667,"exclusive ":11668,"Special ":11669,"LGBTQ":11670," an ":11671,"766":11672,"Dol":11673,"Lif":11674,"Trav":11675,"Totten":11676,"eign":11677,"eball ":11678,"pack ":11679,"s; ":11680,"uli":11681,"in three ":11682,"in these ":11683,", F":11684,"er from ":11685,". It is ":11686,"e that's ":11687,"ours ":11688,"I am":11689,"evolv":11690,"will be the ":11691,"astic":11692,"blame ":11693,"were also ":11694,"In this ":11695,"Chanc":11696," truck":11697,"disgu":11698,"series, ":11699," time of ":11700,"e. It ":11701,"day of ":11702,"extended ":11703,"weeks, ":11704,"lawsu":11705,"women, ":11706,"life in ":11707,"157":11708,"social":11709,"colour ":11710,"authent":11711,"suggest ":11712,"Walz":11713,"372":11714,"good.\n":11715,"once again ":11716,"audienc":11717,"details ":11718,"North Kore":11719,"clip ":11720,"high-profile ":11721,"dropped ":11722,"consistently ":11723,"commitment":11724,"dedicat":11725," twice ":11726,"supposed to ":11727,"specifically ":11728,"e they're ":11729,"a family ":11730,"electricity ":11731,"\"In ":11732,"447":11733,"Az":11734,"Cow":11735,"Hus":11736,"I thought":11737,"Long":11738,"Live ":11739,"Tour ":11740,"Viv":11741,"bloc":11742,"bound ":11743,"fict":11744,"ld":11745,"ón ":11746,"ed that they ":11747,". However, ":11748,"why the ":11749,"on October ":11750,"be, ":11751,"sail":11752,"utt":11753,"I was":11754,"ers with ":11755,"apol":11756,"others, ":11757,"will help ":11758,"grabb":11759,"eping ":11760,"ever.\n":11761,"people in the ":11762,"work, ":11763,"rememb":11764," take":11765,"casual":11766,"extensive ":11767,"mission to ":11768,"Russia, ":11769,"prote":11770,"head of the ":11771,"hoping to ":11772,"Biden administration ":11773,"228":11774,"videos ":11775,"It was a ":11776,"ability and ":11777,"I think it's ":11778,"structure ":11779,"Morning ":11780,"confess":11781,"favour ":11782,"calend":11783,"detailed ":11784,"successful":11785,"polls ":11786,"childhood ":11787,"promote ":11788,"broadcast ":11789,"stop the ":11790,"approval ":11791," therefore ":11792,"novel ":11793,"exercise ":11794,"n <p>":11795,"sanctions ":11796,"Richard":11797,"vice president ":11798,"precedented ":11799,"Champions League ":11800," lak":11801,"'s, ":11802,"-led ":11803,".'":11804,".)":11805,"Bol":11806,"Bay ":11807,"Both":11808,"Gav":11809,"Ian ":11810,"Nag":11811,"Wim":11812,"coc":11813,"hill":11814,"ran":11815,"swif":11816,"winter":11817,"chill":11818,"absor":11819,"beating ":11820,"rip ":11821,"come in ":11822,"you and ":11823,"ter and ":11824,"pping ":11825,"\" for ":11826,"after her ":11827,"positions ":11828,"line-":11829,"ownership ":11830," taken to ":11831,"e. He ":11832,"old to ":11833,"Alab":11834,"office, ":11835,"shows the ":11836,"laws ":11837,"man and ":11838,"-tim":11839,"ities and ":11840,"\"I was ":11841,"patch":11842,"security":11843,"myster":11844,"funn":11845,"366":11846,"ypically ":11847,"find out ":11848,"watched ":11849,"Project ":11850,"suspended ":11851,"World War ":11852,"884":11853,"criticis":11854,"France, ":11855,"published ":11856,"Westmin":11857,"co-found":11858,"During ":11859,"only to ":11860,"urban ":11861,"don't think":11862,"items ":11863,"symbol":11864,"democracy ":11865,"Kelly ":11866,"said in a statement.\n":11867,"featuring ":11868,"Jason ":11869,"franchis":11870,"a total of ":11871,"revolut":11872,"Christopher ":11873,"'We ":11874,"438":11875,"Kap":11876,"Merc":11877,"Wild":11878,"],":11879,"bak":11880,"cart":11881,"juni":11882,"y to the ":11883,"yards ":11884,"inline":11885,"at that ":11886,"itch ":11887,"is going to ":11888,"is one of the ":11889,"ides ":11890,"owing ":11891,". C":11892,"chant":11893,"The two ":11894,"ute ":11895,"seg":11896,"all that ":11897,"other, ":11898,"we'd ":11899," this year.\n":11900,"contest ":11901,"days of ":11902,"party.\n":11903,"ated and ":11904,"phere ":11905,"Alan ":11906,"center ":11907,"Leic":11908,"sympath":11909," to be a ":11910,"\"I am ":11911,"something":11912,"often":11913,"holds ":11914,"\"We have ":11915,"equity ":11916,"Execut":11917,"Rohit ":11918,"left-":11919," trading ":11920,"referred to ":11921,"words ":11922,"household ":11923,"snap":11924,"conced":11925,"wonder ":11926,"on Sunday.\n":11927,"morning.\n":11928,"recovery ":11929,"agencies ":11930,"gained ":11931,"period.\n":11932,"ում":11933,"constant ":11934,"extraordinary ":11935,"United":11936,"Keny":11937,"rugby ":11938,"advertis":11939,"intimid":11940,"immers":11941,"comprehensive ":11942," for the ":11943,"Azer":11944,"D.C":11945,"LS":11946,"La ":11947,"PA ":11948,"ft":11949,"hitt":11950,"joy":11951,"zen ":11952,"inu":11953,"ine and ":11954,"ina, ":11955," then, ":11956,", like ":11957,"elle ":11958,"ion, the ":11959,". In the ":11960,"una ":11961,"shipp":11962,"raid":11963,"diab":11964,"in the world ":11965,"are in ":11966,"ers (":11967,"from an ":11968,"without":11969,"es, with ":11970,"awk":11971,"guest ":11972,"parad":11973,"flag ":11974,"playoff":11975,"Bright":11976,"family's ":11977,"man was ":11978,"asked the ":11979,"national security ":11980,"President Joe ":11981," she added.\n":11982,"provinc":11983,"possib":11984,"reveal ":11985,"limit ":11986,"debt":11987,"London.\n":11988,"Tim ":11989,"USA ":11990,"Thursday, ":11991,"Walz ":11992,"reaching ":11993,"honest ":11994,"distance ":11995,"profession":11996,"improved ":11997,"Meanwhil":11998,"Financ":11999,"Lebanon ":12000,"Jonathan ":12001,"capacity ":12002," p.m. ":12003,"Asked ":12004,"personnel ":12005,"struggle ":12006,"prepare ":12007,"433":12008,"BI":12009,"GB ":12010,"Mik":12011,"Tour":12012,"Vanc":12013,"Warr":12014,"bench ":12015,"ycl":12016,"zone ":12017,"eria ":12018,"haz":12019,"entrepren":12020,"plot":12021,"it all ":12022,"umn ":12023,"have been":12024,"ers will ":12025,"years to ":12026,"ody":12027,"at the end of ":12028,"formal ":12029,"ing a new ":12030,"leader, ":12031,"water, ":12032,". \"The ":12033,"And I ":12034,"starred ":12035,"head coach ":12036," the top ":12037," trip ":12038,"current":12039,"coverage ":12040," billion":12041,"complic":12042,"partnership":12043,"captain":12044,"beloved ":12045,"ures, ":12046,"Sea ":12047,"keeps ":12048,"Corn":12049,"young m":12050,"civili":12051,"ridicul":12052,"next to ":12053,"remarkable ":12054,"/Getty Images)\n":12055,"survey":12056,"Venez":12057,"of course, ":12058,"assassin":12059,"Henry ":12060,"far-right ":12061,"sponsor":12062,"\"P":12063,"425":12064,"942":12065,"Be ":12066,"Ed ":12067,"Feder":12068,"Iv":12069,"N ":12070,"Oh ":12071,"bury ":12072,"burn ":12073,"bull":12074,"border":12075,"gest":12076,"mast":12077,"nurs":12078,"pup":12079,"wice ":12080,"s would ":12081,"iness":12082,"inaug":12083,"he can ":12084,"implic":12085,"ure that ":12086,"ages, ":12087,"very, ":12088,"The P":12089,"being the ":12090,"it will be ":12091,"e tra":12092,"aine ":12093," and his ":12094,"flow ":12095,"flash":12096,"ures and ":12097,"when I was ":12098,"people with ":12099,"own, ":12100," he said, ":12101,"back on ":12102,"lived ":12103,"handle ":12104,"busy ":12105,"area":12106,"policy":12107,"it is not ":12108,"love to ":12109,"362":12110,"equipp":12111,"South Carol":12112,"Crown ":12113,", there was ":12114,"described as ":12115,"sampl":12116,"baij":12117,"seeking to ":12118,"picked up ":12119,"Saudi Arab":12120,"(N":12121,");":12122,"033":12123,"639":12124,"721":12125,"Hall ":12126,"Ot":12127,"cand":12128,"mouth ":12129,"s, they ":12130,"section ":12131,"sought to ":12132,"text":12133,"uer":12134,"wine ":12135," target ":12136,"als and ":12137,"ita ":12138,"a number of ":12139,"of thousands of ":12140,"hai ":12141,"an in":12142,"ion was ":12143,"rian ":12144,"fract":12145,"rap ":12146,"ucc":12147,"ants, ":12148,"been a ":12149,"sibl":12150,"which are ":12151,"finals ":12152,"mond ":12153,"side of ":12154,"working on ":12155,"ed in an ":12156,"identity ":12157,"Under ":12158,"opping ":12159,"video, ":12160,"World":12161,"caused by ":12162,"stage.\n":12163,"Gaza":12164,"musical ":12165," to tell ":12166,"eb ":12167,"group's ":12168,"celebrated ":12169,"attempted ":12170,"DeSant":12171,"device ":12172,"ousands of ":12173,"Madrid ":12174,"Martin":12175,"ranked ":12176,"colleagues ":12177,"Atlantic ":12178,"ossil ":12179,"stadium ":12180,"590":12181,"750":12182,"C's ":12183,"Cann":12184,"Ja":12185,"Jar":12186,"Kur":12187,"Men":12188,"Sel":12189,"Sun ":12190,"TH":12191,"bag ":12192,"e/":12193,"jer":12194,"jail ":12195,"jump ":12196,"oir":12197,"smart ":12198,"s over ":12199,"er\" ":12200,"stres":12201,"stable ":12202,"hak":12203,"rifi":12204,"or even ":12205,"in the past ":12206,"you think ":12207,"peak":12208,"odd ":12209,"parent ":12210,"mean, ":12211,"ureau":12212,"location ":12213," times.\n":12214,"interpret":12215,"old, ":12216,"later this ":12217,"Unfortun":12218,"glass ":12219,"serves ":12220,"votes ":12221,"vote.\n":12222,"rise in ":12223,"should not ":12224,"community.\n":12225,"posted ":12226,"process of ":12227,"England, ":12228,"buildings ":12229,"261":12230,"prize ":12231,"debat":12232,"experience.\n":12233,"visit to ":12234,"Sen. ":12235,"professor ":12236,"compared with ":12237,"assistance ":12238,"pushing ":12239,". He's ":12240,"determine ":12241,"respectivel":12242,"she'd ":12243," billion in ":12244,"on Thursday, ":12245,"associated with ":12246,"attorney":12247,"shirt":12248,"licens":12249,"Director ":12250,"required to ":12251,"Telegr":12252,"Vice President Kamala Harris ":12253,"helicop":12254,"Azerbaij":12255,"Venezuel":12256,"578":12257,"619":12258,"CS":12259,"Fort":12260,"Kn":12261,"Mir":12262,"Mak":12263,"Resp":12264,"Such ":12265,"Zo":12266,"dres":12267,"eon ":12268,"les.\n":12269,"pon":12270,"ride ":12271,"told the ":12272,"wak":12273,"án":12274,"ներ":12275,"at, ":12276,"itar":12277,"es) ":12278,"ily":12279,"ion's ":12280,"ampl":12281,"ulpt":12282,"umm":12283,"has made ":12284,"quant":12285,"by his ":12286,"wors":12287,"her husband ":12288,"you get ":12289,"anny ":12290,"into his ":12291,"a soc":12292,"weekly ":12293,"anywhere ":12294,"start to ":12295,"signed ":12296,"power to ":12297,"well, ":12298,"That was ":12299,"November, ":12300,"catast":12301," Aug":12302,"suspend":12303,"meanwhile, ":12304,"557":12305,"attempted to ":12306,"becoming a ":12307,"death of ":12308,"Liam ":12309,"695":12310,"reasons ":12311,"improvement":12312,"collective ":12313,"participate ":12314,"campus ":12315,"citizens ":12316,"principl":12317,"surveill":12318,"assassination ":12319,"micro":12320,"newspaper ":12321,"Wimbled":12322," presidential ":12323,"(the ":12324,"Dub":12325,"Eag":12326,"IS ":12327,"Mand":12328,"Night ":12329,"Vin":12330,"dinner ":12331,"gig":12332,"gear":12333,"gian ":12334,"nations ":12335,"pher":12336,"sought ":12337,"soft ":12338,"v ":12339,"enage ":12340,"aren":12341,"o was ":12342,"stall":12343,"haul":12344,". A":12345,"as of ":12346,"imps":12347,"for £":12348,"exit ":12349,"s, and the ":12350,"outlet ":12351,"we don't ":12352,"ies with ":12353,"Steven ":12354,"up-":12355,"which he ":12356,"povert":12357,"him the ":12358,"more and ":12359,"played by ":12360,"argets ":12361,"decent ":12362,"retain":12363," taking the ":12364,"ong K":12365,"what she ":12366,"but that ":12367,"a top ":12368,"453":12369,"ease ":12370,"storage ":12371,"supported ":12372,"801":12373,"hopefully ":12374,"where, ":12375,"352":12376,"collection ":12377,"without a ":12378,". Some ":12379,", then":12380,"his team ":12381,"suspic":12382,"privileg":12383,"four-":12384,"multi-":12385,"citing ":12386,"welfare ":12387,"instead":12388,"098":12389,"neighb":12390,"repeated ":12391,"Neil ":12392,"Texas":12393,"iff's ":12394,"shelter":12395,"carrying ":12396,"Glasgow":12397,"Lady ":12398,"Safet":12399,"San Francisco ":12400,"COVID-":12401,"exhaust":12402," run":12403,"-a-":12404,"A, ":12405,"Ale":12406,"Cham":12407,"Ni":12408,"Oscar ":12409,"Rs. ":12410,"Tak":12411,"Tories ":12412,"cous":12413,"gay ":12414,"lan":12415,"ni":12416,"wick":12417,"enous ":12418,"elite ":12419,"ed through the ":12420,"asy ":12421,". I'm ":12422,"urr":12423,"empl":12424,"unit ":12425,"The report ":12426,"ent of ":12427,"opt ":12428,"have not ":12429,"ify the ":12430,"we had ":12431,"some t":12432,"attitud":12433,"doors ":12434,", and he ":12435,"incumb":12436,"saying: \"":12437,"ity that ":12438,"phras":12439,"ultra":12440,"region, ":12441,"no matter ":12442,"notor":12443,"expand ":12444,"calling ":12445,"Russian":12446,"is the most ":12447,"closing ":12448,"start of ":12449,"British":12450,"body.\n":12451,"advance ":12452,"front of the ":12453,"sexually ":12454,"give the ":12455,"activist":12456,"young people ":12457,"Australia":12458,"fals":12459,"556":12460,"last two ":12461,"court.\n":12462,"Justin ":12463,"panic ":12464,"conversations ":12465,"dollar ":12466,"PA\n":12467,"streaming ":12468,"bodies ":12469,"guys ":12470,"cabinet ":12471,"Assembly ":12472,"Gabri":12473,"\"So ":12474,", they":12475,"613":12476,"988":12477,"Buck":12478,"Cub":12479,"Sl":12480,"Tenn":12481,"dom ":12482,"dce":12483,"kov":12484,"pav":12485,"s that":12486,"s than ":12487,"on\n":12488,", of ":12489,"almost":12490,"ates the ":12491,"ing over ":12492,"ics.\n":12493,"'s first ":12494,"otal":12495,"convert":12496,"spo":12497,"istics ":12498,"strength ":12499,"brush":12500,"orders ":12501,"do that ":12502,"meg":12503,"sidelin":12504,"ant and ":12505,"reduct":12506,"s in his ":12507,"We were ":12508,"deserve ":12509,"a, who ":12510,"s that have ":12511,"asks ":12512,"substitut":12513,"help.\n":12514,"puts ":12515,"Week":12516,"world/":12517,"delay ":12518,"United Nations ":12519,"somewhere ":12520," transfer ":12521,"hard-":12522,"Labor ":12523,"Amend":12524,"health.\n":12525,"opposite ":12526,"people that ":12527,"explained ":12528,"interesting ":12529,"situation":12530,"096":12531,"Nigerian ":12532,"893":12533,"Canada ":12534," type of ":12535,"nominated ":12536,"mix ":12537,"Illin":12538,"invasion of ":12539,"yesterday ":12540,"Pennsylvania ":12541,"Anderson ":12542," are ":12543," before ":12544,"\"Th":12545,".-":12546,"230":12547,"A) ":12548,"Eric ":12549,"LL":12550,"NO":12551,"].\n":12552,"auc":12553,"fossil ":12554,"nest":12555,"none ":12556," ti":12557," tour ":12558,"er than the ":12559,"on, the ":12560,"alarm":12561," to her ":12562,"at and ":12563,"The New York ":12564,"e tax ":12565,"ally. ":12566,"off, ":12567,"branch":12568,"A spokesperson ":12569,"guess ":12570,"s. But ":12571,"Which ":12572,"legacy ":12573,"latter ":12574,"Frank ":12575,"extens":12576,"back the ":12577,"soil":12578,"ounced ":12579,"filed a ":12580,"sky ":12581,"really good ":12582,"handed ":12583,"knowing ":12584,"open to ":12585,"ally, the ":12586,"empty ":12587,"meet the ":12588,"meeting with ":12589,"failed ":12590,"October, ":12591,"883":12592,"Mayor ":12593,"client":12594,"silver ":12595,"on Wednesday, ":12596,"Airport ":12597,"Look ":12598,"ability.\n":12599,"matter of ":12600,"Murph":12601,"Sometim":12602," together, ":12603,"weekend.\n":12604,"Garc":12605,"Committe":12606,"Arizona ":12607," kilomet":12608,"responsibilit":12609,"Middle East ":12610,"equipment ":12611,"grocer":12612,"sharehold":12613,"approximately ":12614," months ":12615,"Cry":12616,"Did ":12617,"Dubl":12618,"Et":12619,"GM":12620,"Low":12621,"Little ":12622,"UR":12623,"a the ":12624,"bdd":12625,"e) ":12626,"gar ":12627,"grap":12628,"mant":12629,"to the ":12630,"vig":12631,"s but ":12632,"ing three ":12633,"ing them to ":12634,"entered ":12635,"ched ":12636,"abol":12637,"resolve ":12638,"it doesn't ":12639,"with some ":12640,"devot":12641,"apor":12642,"go to the ":12643,"tery ":12644,"we have to ":12645,"es, a ":12646,"also a ":12647,"ountain ":12648,"fly":12649,"flam":12650,"series.\n":12651,"s. He ":12652,"ultimate ":12653,"leg ":12654,"ego ":12655,"do so ":12656,"so they ":12657,"back in the ":12658,"ed that he ":12659,"fix ":12660,"ibbe":12661,"work in ":12662,"story.\n":12663,"smash":12664,"power.\n":12665,"powered ":12666,"nearly":12667,"headquart":12668,"duo ":12669,"excess":12670,"Imag":12671,"certific":12672,"hours of ":12673,"revealed the ":12674,"Book":12675,"live in ":12676,"quarter-":12677,"Dec. ":12678,"kidnapp":12679,"market.\n":12680,"saving ":12681,"681":12682,"sweet ":12683,"on Tuesday.\n":12684,"parking ":12685,"Nichol":12686,"Arab ":12687,"mainly ":12688,"Hollywood":12689,"battery ":12690,"Rafah ":12691,"shadow ":12692,"progressive ":12693,"lawmakers ":12694,"beyond the ":12695,"Girl":12696,"Jimmy ":12697,"Aberde":12698,"Illino":12699,"His":12700,"J. ":12701,"Lov":12702,"X, ":12703,"a: ":12704,"ced":12705,"city.\n":12706,"eu":12707,"fans":12708,"gen ":12709,"mock":12710,"rical ":12711,"rubb":12712,"sick ":12713,"an\n":12714,"ionary ":12715,"ado":12716,"unfold":12717,"abroad":12718,"for my ":12719,"proof ":12720,"has since ":12721,"affirm":12722,"ate of ":12723,"ant to ":12724,"said to be ":12725,"will have to ":12726,"you know":12727,"like that ":12728,"up of ":12729,"line of ":12730,"legac":12731,"ether to ":12732,"cars ":12733,"was that ":12734,"a fil":12735,"Marin":12736,"qualify ":12737,"how it ":12738,"woman, ":12739,"airline ":12740,"ibility ":12741,"Russia.\n":12742,"modern":12743,"ble.\n":12744,"detent":12745," take a ":12746,"And then ":12747,"a member ":12748,"place in ":12749,"crimes ":12750,"however ":12751,"listed ":12752,"involvement ":12753,"South Africa ":12754,"Museum ":12755,"settlement":12756,"chees":12757,"figure":12758,"valuable ":12759,"house.\n":12760," things that ":12761,"via Getty Images)\n":12762,"591":12763,"normal":12764,"normally ":12765,"control of the ":12766,"declared ":12767,"registr":12768,"Samsun":12769,"enter the ":12770,"Today, ":12771,"facilities ":12772,", though, ":12773,"on Monday, ":12774,"narrat":12775,"Tommy ":12776,"Facebook":12777,"Bank of ":12778,"That's the ":12779,"substantial ":12780,"Colorado ":12781,"Microsoft ":12782,"rupt ":12783," He ":12784,"Beach ":12785,"Bull":12786,"DO":12787,"Gord":12788,"ML":12789,"Nott":12790,"Tig":12791,"na ":12792,"us of ":12793,"wy":12794,"inject":12795,"ing off ":12796,"eleg":12797,"editor":12798,"on of ":12799,"charm":12800,"chemic":12801,"utch":12802,"shell":12803,"has no ":12804,"moral ":12805,"eph ":12806,"preserv":12807,"up a ":12808,"up in the ":12809,"series":12810,"e and a ":12811,"worker ":12812,"work to ":12813," thrown ":12814,"version ":12815,"es to be ":12816,"aftermath ":12817,"You've ":12818,"Russell ":12819,"experiment":12820,"place, ":12821,"shared the ":12822,"had to be ":12823,"solid ":12824,"role of ":12825,"role in the ":12826,"profil":12827,"world, ":12828,"where.\n":12829,"Caribbe":12830,"collect ":12831,"presenter ":12832,"activist ":12833,"swing ":12834,"floor":12835,"calm":12836,"struggling to ":12837,"husband, ":12838,"Fox":12839,"met with ":12840,"boyfriend ":12841,"emperature ":12842,"episode":12843,"discovered ":12844,"father, ":12845,"sentenced to ":12846,"garden":12847,"novel":12848,"opinion ":12849,"on Monday.\n":12850,"Jennifer ":12851,"www.theguardian.com/world/":12852,"New Zealand ":12853,"Energy ":12854,"Soviet ":12855,"A.\n":12856,"Five ":12857,"MI":12858,"Pad":12859,"UP":12860,"ain a ":12861,"dubb":12862,"eab":12863,"fitt":12864,"festive ":12865,"gaz":12866,"ralli":12867,"ually, ":12868,"wing ":12869,"wal ":12870,"ano":12871,", it is ":12872,"inger ":12873,"ing through the ":12874,"in any ":12875,"as their ":12876,"at her ":12877,"at its ":12878,"chance of ":12879,"earning ":12880,"it was the ":12881,"uls":12882,"prox":12883,"percept":12884,"affil":12885,"anti":12886," this year, ":12887,"Indig":12888,"Cher":12889,"Chand":12890,"do that":12891,"scop":12892,"mond":12893,"after an ":12894,"Trad":12895,"way that ":12896,"glam":12897,"ably, ":12898,"vote for ":12899,"basically ":12900,"liver ":12901,"built":12902,"post.\n":12903,"police offic":12904,"productive ":12905,"November.\n":12906,", thank":12907,"Chair":12908,"Orig":12909,"lesson":12910,"journey":12911,"services.\n":12912,"Without ":12913,"Defence ":12914,"oil and ":12915,"ured the ":12916,"Guardian ":12917,"channel":12918,"channel ":12919,"lucky ":12920,"ville ":12921,"Detro":12922,"SNP ":12923,"Narendra ":12924,"Jacob":12925," [":12926," were ":12927," hours ":12928,"\"These ":12929,".I":12930,"732":12931,"Cit":12932,"Daw":12933,"ED":12934,"Has":12935,"Jay ":12936,"Lin":12937,"Nam":12938,"Pot":12939,"Rat":12940,"hem":12941,"ja ":12942,"penn":12943,"rol ":12944,"sy ":12945,"ta ":12946,"uk ":12947,", just ":12948,"aras":12949,"stapp":12950,"ionate ":12951,"ide.\n":12952,"it is a ":12953," to that ":12954," to try to ":12955,"ive. ":12956,"from its ":12957,"with.\n":12958,"covery ":12959,"had \"":12960,"boom":12961,"anna ":12962,"your own ":12963," there is no ":12964,"Trump and ":12965,"calls for ":12966,"issued ":12967,"down, ":12968,"generated ":12969,"community, ":12970,"Grand":12971,"actively ":12972,"Morris":12973,"echniqu":12974,"findings ":12975,"Coron":12976,"especially":12977,"professional":12978,"cross ":12979,"which they ":12980,"prosecutor ":12981,"squad":12982,"approach to ":12983,"reduced ":12984,"679":12985,"reflect ":12986,"round of ":12987,"zero ":12988,"entered the ":12989,"dedicated ":12990,"like, \"":12991,"Series ":12992,"Verstapp":12993,"forecast ":12994,"manufacturing ":12995,"perfectly ":12996,"remote ":12997,"Boston ":12998,"Additionally, ":12999,"Chief Minister ":13000,"\"As ":13001,"872":13002,"Danc":13003,"Emerg":13004,"Fe":13005,"Fund":13006,"Row":13007,"bond ":13008,"bit of ":13009,"kin ":13010,"mart":13011,"ry.\n":13012,"snow":13013,"ali ":13014,"ingly, ":13015,"ing my ":13016,"ed them to ":13017,"for.\n":13018,"for three ":13019,"es at the ":13020,"olar":13021,"and that the ":13022,"for example, ":13023,"exclud":13024,"s, she ":13025,"s, according to ":13026,"has gone ":13027,"y, who ":13028,"you want to ":13029,"ancient ":13030,"Stand":13031,"assist ":13032,"can also ":13033,"partly ":13034,"s. It ":13035,"pharm":13036,"retali":13037,"ions are ":13038,"merc":13039,"before, ":13040,"ross":13041,"vision ":13042,"change.\n":13043," teenag":13044,"don't want to ":13045,"fert":13046,"Pho":13047,"economy.\n":13048,"iano ":13049,"announced the ":13050,"stronger ":13051,"authority ":13052,"Israeli military ":13053,"Sea":13054,"example of ":13055,"aid to ":13056,"negotiations ":13057," thanks to ":13058,"diverse ":13059,"pension ":13060,"waste ":13061,"February, ":13062,"formerly Twitter":13063,"-point ":13064,"A-":13065,"ITV ":13066,"Jen":13067,"Mul":13068,"Met ":13069,"Six ":13070,"Wels":13071,"bal ":13072,"gorg":13073,"pper":13074,"sick":13075," ten":13076," telling ":13077,"s against ":13078,", one ":13079,", especially ":13080,"ati":13081,"of that":13082,"of time ":13083,"ed my ":13084,"ed more than ":13085,"ing by ":13086,"ing into the ":13087,"el-":13088,"eds ":13089,"is in the ":13090,"sauc":13091,"congrat":13092,"conservativ":13093,"in the United Stat":13094,"sus ":13095,"ewhat ":13096,"has an ":13097,"artists ":13098,"youth":13099,"- including ":13100," this week":13101,"can help ":13102,"say, \"":13103,"working to ":13104,"ed a \"":13105,"ed a new ":13106,"Brus":13107,"ing, which ":13108,"leading the ":13109,"very much ":13110,"voter ":13111,"after their ":13112,"175":13113,", but he ":13114,"defender ":13115,"way for ":13116,"down on ":13117,"operate ":13118,"ian, ":13119,"Space ":13120,"Gram":13121,"getting the ":13122,"fun ":13123,"What is ":13124,"sporting ":13125,"Seatt":13126,"speaks ":13127," term.\n":13128,"uniqu":13129," territory ":13130,"concret":13131,"coaching ":13132,"impact on ":13133,"summer, ":13134,"alternativ":13135,"Connect":13136,"apologis":13137,"science ":13138,"Rangers ":13139,"Al Jaz":13140,"foreign":13141,"wave of ":13142,"smooth":13143,"external ":13144,"Talib":13145," re":13146,"-sign":13147,"650":13148,"BR":13149,"Bloom":13150,"Cro":13151,"FBI ":13152,"Lot":13153,"Long ":13154,"Mov":13155,"Yan":13156,"ie's ":13157,"sop":13158,"sla":13159,"sburg":13160,"wrest":13161,"ing to t":13162,"reign":13163,"a of ":13164,"ing was ":13165,"ed: ":13166,"in January ":13167,"for them":13168,"impl":13169,"lever":13170,"on August ":13171,"used by ":13172,"unusual ":13173,"ays ":13174,"outcome ":13175,"blank":13176,"brown ":13177," trick":13178,"compass":13179,"obb":13180,"server":13181,"ed in his ":13182,"cases, ":13183,"ition.\n":13184,"rival":13185,"many of ":13186,"easy":13187,"173":13188,"187":13189,"Sharm":13190,"did the ":13191,"person.\n":13192,"cream ":13193,"managing ":13194,"military":13195,"Gaza.\n":13196,"Coast ":13197,"is not a ":13198," took a ":13199,"equally ":13200,"employee ":13201,"Court of ":13202,"Crow":13203,"hors":13204,"keeper ":13205,"likely":13206,"last time ":13207,"youngest ":13208,"instance, ":13209,"Johnson":13210,"dealing with ":13211,"girls ":13212,"reasonable ":13213,"prepared to ":13214,"routine ":13215,"determined to ":13216,"convicted ":13217,"on Saturday.\n":13218,"established ":13219,"Mexican ":13220,"Societ":13221,"disease ":13222,"website.\n":13223,"Middle East":13224,"Church ":13225,"conspiracy":13226,"sacrif":13227,"capable of ":13228,"\"He's ":13229,"Bon":13230,"Ball":13231,"Fer":13232,"Fernand":13233,"Kan":13234,"Lar":13235,"Maur":13236,"Pap":13237,"aunt":13238,"bot":13239,"cited ":13240,"dash":13241," tast":13242,"ania ":13243,"at.\n":13244,"ics and ":13245,"es his ":13246,"eted ":13247,"The R":13248,"shore ":13249,"e tax":13250,"manipul":13251,", and his ":13252,"flaw":13253,"more likely to ":13254," times":13255,"invited ":13256,"states.\n":13257,"into an ":13258,"son and ":13259,"qualifi":13260,"pointed out":13261,", but I ":13262,"place":13263,"lease ":13264,"appeared to be ":13265,"right-wing ":13266,"supports ":13267,"impact of ":13268,"except ":13269,"job.\n":13270,"place in the ":13271,"Prod":13272,"Road":13273,"Modi ":13274,"field.\n":13275,"warned that ":13276,"properly ":13277,"made to ":13278,"industry.\n":13279,"alliance ":13280,"September, ":13281,"in May ":13282,"forward.\n":13283,"judges ":13284,"physically ":13285,"reducing ":13286,"boys ":13287,"on Tuesday, ":13288,"Joshu":13289,"ING":13290,"pressure on ":13291,"peaceful ":13292,"stuff ":13293,"Newsweek ":13294,"software ":13295,"bid to ":13296,"upper ":13297,"horror ":13298,"Michelle ":13299,"Video ":13300,"Dallas ":13301,"Catholic ":13302,"junior ":13303,"diabet":13304,"Welsh ":13305," who ":13306,"Fed ":13307,"Gat":13308,"Gold ":13309,"HS":13310,"Oak":13311,"PR":13312,"Sav":13313,"cro":13314,"dying ":13315,"h's ":13316,"jar":13317,"piv":13318,"soul":13319," tend":13320,"s could ":13321,"y (":13322,"represent ":13323,"repair":13324,"eleph":13325,"ioned ":13326,"ed them":13327,"assu":13328,"igar":13329,"emer":13330,"plung":13331,"sak":13332,"riff":13333,"see that ":13334,"persu":13335,"bled ":13336,"you can":13337,"on the other ":13338,"somewhat ":13339,"sculpt":13340,"overnight ":13341,"boil":13342,"e. I ":13343,"buff":13344,"rained ":13345,"elections.\n":13346,"governing ":13347,"Trump is ":13348,". \"We ":13349,"how she ":13350,"Environ":13351,"America":13352,"alking ":13353,"claiming ":13354,"continued.\n":13355,"stands ":13356,"longtime ":13357,"steal":13358,"Reform ":13359," termin":13360,"happening ":13361,"might not ":13362,"inflation":13363,"critics ":13364,"275":13365,"Colomb":13366,"settlement ":13367,"we're going to ":13368,"real estate ":13369,"decided ":13370,"promised ":13371,"e trad":13372,"All the ":13373,"exampl":13374,"moist":13375,"fairly ":13376,"climate change ":13377,"example":13378,"bonus ":13379,"Lawr":13380,"email-sign":13381,"escape ":13382,"Jeff ":13383,"Budget ":13384,"academic ":13385,"chocolate ":13386,"Newcastle ":13387,"eighth ":13388,"Alamy\n":13389,"email-signup-":13390,"\"That ":13391,"-off ":13392,"212":13393,"Kal":13394,"Life ":13395,"Pun":13396,"Win":13397,"fame ":13398,"gender":13399,"iver":13400,"yt":13401," tech ":13402,"ating":13403,"revel":13404,"really, ":13405,"sta":13406,"olk":13407,"oward ":13408,"ent on ":13409,"e think ":13410,"with one ":13411,"lover":13412,"s, such as ":13413," today, ":13414,"esthet":13415,"he'll ":13416,"othing ":13417,"outlin":13418,"He had ":13419,"embass":13420,"drones ":13421,"lyn":13422,"selection ":13423,"hell ":13424,"betting ":13425,"state":13426,"status":13427,"notable ":13428,"a sol":13429,"do it":13430,"able t":13431,"background ":13432,"rell":13433,"umble ":13434,"starts ":13435,"appeared ":13436,"knowledge ":13437,"over the last ":13438,"hopeful":13439,"depict":13440,"hosts ":13441,"watch the ":13442,"Greek ":13443,"horse ":13444,"farm ":13445,"countries.\n":13446,"ruin":13447,"neck ":13448,"general election ":13449,"learned ":13450,"on Sunday, ":13451,"Kyle ":13452,"born in ":13453,"athletes ":13454,"Lebanese ":13455,"framewor":13456,"mother's ":13457," million.\n":13458,"Reeves ":13459,"exploit":13460," Trump ":13461,"):":13462,"AG":13463,"Dan":13464,"Kent":13465,"Nation":13466,"Pict":13467,"Pitt":13468,"del ":13469,"jri":13470,"kept":13471,"nast":13472,"twitter":13473," told":13474," tip":13475,"erm":13476,"ary. ":13477,"ario ":13478,"ateral ":13479,"rep":13480,"ou ":13481,"stal ":13482,"station":13483,"stated ":13484,"a H":13485,"a de ":13486,"er said.\n":13487,"in one ":13488,"an hour ":13489,"impe":13490,"ampt":13491,"used the ":13492,"The court ":13493,"The Sun":13494,"ri L":13495,"in the past":13496,"not going to ":13497,"Strat":13498,"contain ":13499,"Andr":13500,"dish ":13501,"displac":13502,"map ":13503,"ouse ":13504,"interim ":13505,"care.\n":13506,"French":13507,"arry ":13508,"leader of the ":13509,"want to":13510,"reports of ":13511,"change":13512,"Art ":13513,"about this ":13514,"made by ":13515,"way and ":13516,"right-":13517,"promise ":13518,"head.\n":13519,"Climate ":13520,"otherap":13521,"safe and ":13522,"Beach":13523,"president of the ":13524," turns ":13525,"cheap ":13526,"ambul":13527,"around the world ":13528,"representative ":13529,"session ":13530,"Media ":13531,"supervis":13532,"life-":13533,"Earth":13534,"organisation ":13535,"on Wednesday.\n":13536,"Obama ":13537,"specialist ":13538,"introduced ":13539,"intended to ":13540,"sparked ":13541,"diagnosed with ":13542," p.m.\n":13543,"desperate ":13544,"entertainment ":13545,"possibility of ":13546,"Turkish ":13547,"Aaron ":13548,"sovereign":13549,"(S":13550,"-link":13551,"Back":13552,"Card":13553,"Jes":13554,"JD ":13555,"Mass":13556,"Ohi":13557,"Rap":13558,"Van":13559,"]\n":13560,"cat ":13561,"hitting ":13562,"mu":13563,"nd ":13564,"uplo":13565,"yl ":13566,"inherit":13567,"ens, ":13568,", are ":13569,"ato ":13570,"through ":13571,"ions that ":13572,"forest ":13573,"he could ":13574,"amp ":13575,"comfort ":13576,"have no ":13577,"e, or ":13578,"- is ":13579,"her first ":13580,"offend":13581,"Cho":13582,"overse":13583,"megap":13584,"predec":13585,"argument ":13586,"involve ":13587,"served ":13588,"a team":13589,"visible ":13590,"show, ":13591,"relent":13592,"for a new ":13593,"still be ":13594,"because she ":13595,"everyday ":13596," Mo":13597,"see a ":13598,"factors ":13599,"idea that ":13600,"a high ":13601,"Beat":13602,"meetings ":13603,"company.\n":13604,"Tuesday.\n":13605,"ype of ":13606,"Chap":13607,"produced ":13608,"one of his ":13609,"damaged ":13610,"heavy":13611,"Earth ":13612,"migration ":13613,"register":13614,"scheduled to ":13615,"period of ":13616,"badly ":13617,"properties ":13618," there was no ":13619,"Santa ":13620,"Speaker ":13621,"mixed ":13622,"Liber":13623," trouble ":13624,"e through the ":13625,"vowed to ":13626," towards the ":13627,"incorpor":13628,"Perhaps ":13629,"Treasury ":13630,"accompani":13631,"Executive ":13632,"affili":13633,"ri Lank":13634,", those ":13635,"Cav":13636,"OS":13637,"Poll":13638,"Pier":13639,"Rid":13640,"Up ":13641,"WE":13642,"file ":13643,"led to the ":13644,"s, to ":13645," thank ":13646,"orous ":13647,"are.\n":13648,"icon ":13649,"thumb":13650,"eland ":13651,"es and the ":13652,"am.\n":13653," that his ":13654,"shor":13655,"I couldn't ":13656,"prospec":13657,"spik":13658,".\"</":13659,"actor":13660,"ency":13661,"encamp":13662,"Then, ":13663,"Through":13664,"\" by ":13665,"ney, ":13666,"brac":13667,"dispos":13668,"inct ":13669,"interrupt":13670,"owns ":13671," taking a ":13672,"care, ":13673,"carefully ":13674,"bub":13675,"glimps":13676,"after they ":13677," pand":13678,"181":13679,"New Hamp":13680,"ski":13681,"Sho":13682,"Short":13683,"subscript":13684,"164":13685,"joint":13686,"China.\n":13687,"right now ":13688,"a coll":13689,"look like ":13690,"announcement":13691,"Mr. Biden ":13692,"hardly ":13693,"eb. ":13694,"US and ":13695,"David":13696,"finds ":13697,"alongside the ":13698,"cutt":13699,"harm ":13700,"connect ":13701,"statement.\n":13702,"risks ":13703,"App ":13704,"fbfa":13705," talking ":13706,"enjoyed ":13707,"replacement ":13708,"into their ":13709,"aspir":13710,"fresh":13711,"NFL":13712,"neighborhood":13713,"bathroom":13714,"owards the ":13715,"inquiry ":13716," tonight":13717,"chicken ":13718,"Athlet":13719,"scrutin":13720,"Radio ":13721," degrees ":13722,"prospect of ":13723,"\"to ":13724,"960":13725,"Are":13726,"Amy ":13727,"Barn":13728,"Gen ":13729,"Have ":13730,"Ril":13731,"Rose ":13732,"Tre":13733,"by.\n":13734,"dign":13735,"ino":13736,"er to the ":13737,"arra":13738,"ating.\n":13739,"a D":13740,"er for the ":13741,". . ":13742,"on Friday.\n":13743,"rod":13744,"etime ":13745,"The Associated Pres":13746," that a ":13747,"lips":13748,"I really ":13749,"loan":13750,"all these ":13751,"wore ":13752,"illustr":13753,"knif":13754,"play.\n":13755,"anning ":13756,"old-":13757,"rivals ":13758,"ry and ":13759,"keen to ":13760,"will be able to ":13761,"game. ":13762,"sky":13763," there. ":13764,"power, ":13765,"U.K":13766,"ing on a ":13767,"response":13768,"McG":13769,"challenging ":13770,"group.\n":13771,"custody ":13772,"Greec":13773,"Second ":13774,"level.\n":13775,"Palestine ":13776,"believed ":13777,"echo":13778,"champions ":13779,"silence ":13780,"Saturday, ":13781,"questioned ":13782,"Kejri":13783,"Supreme Court":13784,"admir":13785,"pregnanc":13786,"President-elect ":13787,"Hospital ":13788,"Alexander ":13789,"Baden":13790,"U.N. ":13791,"Sulliv":13792,"Financial ":13793," will ":13794,"-winning ":13795,"460":13796,"Dave ":13797,"Eastern ":13798,"Fire ":13799,"Hu":13800,"Kash":13801,"Much ":13802,"Oscar":13803,"Ti":13804,"Teh":13805,"bact":13806,"dump":13807,"hide":13808,"ible to ":13809,"miles ":13810,"sel ":13811,"yield":13812,"e - ":13813,"s also ":13814," the first ":13815," the best ":13816,"alive ":13817,"reaction":13818,"a week ":13819,"ese t":13820,"in November ":13821,"and three ":13822,"ulg":13823,"end, ":13824,"year and ":13825,"all over the ":13826,"but it ":13827,"hero ":13828,"param":13829,"meal ":13830,"Trust ":13831,"by-":13832,"was taken ":13833,"elections, ":13834,"river ":13835,"inning ":13836,"only be ":13837,"reports.\n":13838,"water and ":13839,"back into the ":13840," pass":13841,"before a ":13842,"made his ":13843,"Prom":13844,"claimed the ":13845,"continuing to ":13846,"closer to ":13847,"areth ":13848,"Andro":13849,"help the ":13850,"hope that ":13851,"Web":13852,"ideas ":13853,"Credit: Instagram":13854,"developed ":13855,"known for ":13856,"compli":13857,"ies\" ":13858,"June, ":13859,"December, ":13860,"far more ":13861,"honour":13862,"held in ":13863,"designer ":13864,"promised to ":13865,"became a ":13866,"victims ":13867,"discussion ":13868,"broader ":13869,"Putin's ":13870,"journalists ":13871,"Kamala Harris":13872,"Baltim":13873,"rophy ":13874,"vaccine ":13875,"aware of the ":13876,"MailOn":13877,"Prosecutors ":13878,"enormous ":13879,"Wall Street ":13880,"civilians ":13881,"Brussel":13882,"predecess":13883," election ":13884,":</":13885,"Great":13886,"Krist":13887,"Link":13888,"Sir":13889,"Time ":13890,"Yad":13891,"ci":13892,"cer ":13893,"hind":13894," ticket ":13895,"erce ":13896,"reaction ":13897,"acre":13898,"isation ":13899,"ide, ":13900,"es by ":13901,"es about ":13902,"as a f":13903,"used for ":13904,"was still ":13905,"live":13906,"heating ":13907,"Initi":13908,"Inste":13909,"said \"":13910,"portfol":13911,"over, ":13912,"march":13913,") is ":13914,"paired ":13915,"Unt":13916,"being able to ":13917,"Onc":13918,"chain":13919,"rell ":13920,"heart of ":13921,"116":13922,"race, ":13923,"come from ":13924,"256":13925,"Week ":13926,"every day ":13927,"release.\n":13928,"duce ":13929,"Carlos ":13930,"would be a ":13931,"set.\n":13932,"getting a ":13933," transgender ":13934,"producer ":13935,"here and ":13936,"Music ":13937,", there is ":13938,"ruth":13939,"metal ":13940,"half.\n":13941,"cyber":13942,"attention to ":13943,"shocking ":13944,"AFP ":13945,"on Saturday, ":13946,"Not only ":13947,"passenger ":13948,"shirt ":13949,"King's ":13950,"January":13951,"shadow":13952,"Freed":13953,"Ultim":13954,"presidency ":13955,"always":13956,"Major ":13957,"Intellig":13958,"atmosphere ":13959,"terror":13960,"Professor ":13961,"Columbia ":13962,"lifestyle ":13963,"backlash ":13964,"Yanke":13965," vot":13966,"A third ":13967,"ESP":13968,"Feb. ":13969,"Hong K":13970,"MA ":13971,"Twit":13972,"eper":13973,"ey's ":13974,"pink ":13975,"vap":13976,"en, the ":13977,", whose ":13978,"reun":13979," to \"":13980,"asm":13981,"e then, ":13982,"ency and ":13983,"had not ":13984,"had already ":13985,"but not ":13986,"ackle ":13987,"were \"":13988,"await":13989,"crush":13990,"drill":13991,"lyric":13992,"ethn":13993,"betray":13994,"wanting to ":13995,"lets ":13996,"Israeli":13997,"point, ":13998,"now the ":13999,"144":14000,"differenc":14001,"began":14002,"police.\n":14003,"land and ":14004,"factory ":14005,"business.\n":14006,"released on ":14007,"world-":14008,"track":14009,"Monday.\n":14010,"seen as ":14011,"succeed":14012,"wrote in ":14013,"what to ":14014,"further":14015,"suggests ":14016,"efforts ":14017,"sense":14018,"cheer":14019,"significant":14020,"referend":14021,"pay for ":14022,"raft":14023,"matches ":14024,"fear ":14025,"educational ":14026,"Some of the ":14027,"memories ":14028,"dogs ":14029,"said in a statement ":14030,"on Sunday":14031,"craft":14032,"demand for ":14033,"scientists ":14034,"loyd ":14035,"pilot ":14036,"aware of ":14037,"stretch ":14038,"liberal ":14039,"divorc":14040,"strok":14041,"Academy ":14042,"Rwand":14043,"Taylor Swift ":14044,"Development ":14045,"stolen ":14046,"thumbnail":14047,"\"That's ":14048,"FA":14049,"Fab":14050,"Kid":14051,"Pi":14052,"RW":14053,"hired ":14054,"kins ":14055,"lunch":14056,"rice ":14057,"rhy":14058,"viv":14059,"wed":14060,"wart":14061,"another.\n":14062,", he was ":14063,"stim":14064,"stance ":14065,"er or ":14066,"ideas":14067,". After ":14068,"whist":14069,"e this":14070,"resh":14071,"consol":14072,"e team ":14073," tox":14074,"sugar":14075,"debr":14076,"deal.\n":14077,"with three ":14078,"ter.\n":14079,"Inde":14080,"Chat":14081,"assur":14082,"i was ":14083,"players, ":14084,"191":14085,"a fur":14086,"a few":14087,"glor":14088,"version of the ":14089,"shows that ":14090,"America, ":14091,"before his ":14092,"155":14093,"should not be ":14094,"issue.\n":14095,"issues, ":14096,"minister, ":14097,"Contr":14098,"date.\n":14099,"well and ":14100,"handful of ":14101,"racial ":14102,"-tag":14103,"around £":14104,"go on ":14105,"a mom":14106,"Club ":14107,"returning ":14108,"idea":14109,"At the tim":14110,"sets ":14111,"informed ":14112,"world of ":14113,"fatal ":14114,"loves ":14115,"far from ":14116,"cancel":14117,"Corpor":14118,"primarily ":14119,"Francis ":14120,"words, ":14121,"area of ":14122," talking about ":14123,"physic":14124,"press confer":14125,"campus":14126,"regarding ":14127,"accused the ":14128,"Manchester City ":14129,"tried to ":14130,"robust ":14131,"shelter ":14132,"scientific ":14133,"pension":14134,"As a result":14135,"Haley ":14136,"CCTV ":14137,"legislative ":14138,"genuine ":14139,"brutal ":14140,"Cohen ":14141,"subsequently ":14142,"blockquote":14143,"Rahul ":14144,"congressional ":14145," A ":14146,"\"She ":14147,"160":14148,"280":14149,"Han":14150,"Hall":14151,"Jon ":14152,"Jean":14153,"Nel":14154,"Ped":14155,"RT ":14156,"Swe":14157,"bish":14158,"cov":14159,"east":14160,"grief":14161,"har ":14162,"phas":14163,"rend":14164," ten ":14165,", also ":14166,"ing?\n":14167,"revis":14168,"a day ":14169,"ed there ":14170,"in March ":14171,"he didn't ":14172,"ecos":14173,"chip ":14174,"verdict ":14175,"The pair ":14176,"was un":14177,"seen the ":14178,"loos":14179,"s, so ":14180,"has long ":14181,"cloud":14182,"- it's ":14183,"weak ":14184,"pro ":14185,
[...]
