#version: 0.2
‌ ‌
ా ర
. 

  ప
న ి
న ్
్ ర
ర ్
స ్
  క
  వ
ల ు
ం ద
‌‌ ‌‌
ల ో
  మ
  చ
  అ
  స
ల ్
క ు
ార ు
్ య
ట ్
న్ న
ం చ
  త
  ర
గ ా
క ్
న ు
ంద ి
త ు
 ప ్ర
ా ల
‌‌‌‌ ‌‌‌‌
 చ ే
ి ంచ
  ఆ
డ ి
  బ
ం ట
డ ు
ర ి
ం త
  ఉ
ి న
  న
క ి
ప ్
ా య
  జ
ల ి
త ్
ర ు
  ఎ
  ఇ
ార ్
 వ ి
డ ్
  ద
  గ
ట ి
ల ా
ట ు
ం లో
ం గ
స ు
ం గా
ప్ ప
ట ీ
న్న ారు
ద ్
త ి
మ ా
  ని
డ ా
త ో
స్ తు
చ ్
య ా
వ ా
‌‌‌‌‌‌‌‌ ‌‌‌‌‌‌‌‌
స ి
 ర ా
ష ్
న ే
న్ ని
  స్
  ల
చ్ చ
గ ు
్య ా
  భ
ద ి
ర ా
స్ త
ం డ
  హ
. .

ాయ ి
 చ ె
ద ు
ి క
మ ్
క ా
 క ా
ంద ు
 త ె
ళ ్
  శ
ప ు
క్ ష
ే శ
ె ం
ప ీ
  ను
న ా
వ ి
  ఏ
 క ో
ల్ లో
ప ై
స ీ
మ ి
ల కు
వ ు
ార ం
  ఈ
్ర ి
ి ంది
  ఫ
ల ీ
ని కి
ె ట్
ల ను
ంత ో
 క ూ
 వ ె
ార ి
ంచ ి
ప ో
 క ొ
 ప ో
 మ ా
ట ్ర
క ో
  లో
 క ే
 క ు
ి ల్
ర ో
ించ ారు
ా మ
ంగ ్
 స ం
 త ీ
క్ క
 స ి
 ప ా
 మ ు
బ ా
ల ే
ె స్
ప ్ర
ా లు
బ ్
ి త
ద్ ద
‌‌‌‌‌‌‌‌‌‌‌‌‌‌‌‌ ‌‌‌‌‌‌‌‌‌‌‌‌‌‌‌‌
ప ా
 కూ డా
ై న
 ను ంచి
్ వ
మ్ మ
 చే శ
డ ం
 ఉ న్న
ద ీ
ట్ లు
త ం
 అ ధ
క ే
క ొ
న ీ
 వ ే
ంద ్ర
 ని ర్
స్తు న్న
  డ
ె డ్
 ల ే
ప్ప ు
ష న్
బ ు
  ఒ
ఆ ర్
గ ్
 చే య
వ ే
ట ర్
స ిన
య ం
సు కు
 గ ు
 స ీ
జ ు
 ప ె
ట్ ట
 స మ
 తె లి
త ్ర
ాల ని
ంట ి
ంద ని
య ో
త్ త
ల్ ల
త్ వ
 ప ార్
జ ీ
 ప్ర భ
ద ా
 వ ా
ంట ు
 చె ప్ప
గ ి
న ం
ర ీ
ప ి
ెడ్ డి
జ ్
 వ ్య
తు న్న
ం డి
వ ీ
 బ ీ
స ం
  ఓ
  ట
ందు కు
 ర ో
 న ే
 చేశ ారు
2 0
 ప రి
 వ చ్చ
ూ ర్
య ్య
ఎ స్
  (
డ ీ
 ర ూ
ంట ే
ించ ిన
స్ థ
ం ధ
ం డ్
 పార్ టీ
 అధ ిక
 అ వ
త ా
మ ు
ార ని
ద ్య
వ ర్
ష్ ట్ర
 ప్రభ ు
య న
ార ా
మ ె
 క ార
జ ా
ళ్ ల
 ప ే
‌ లో
ర ే
్ర ీ
ా డు
 స ా
 భ ార
ె ల్
 వ ై
ించ ి
ధ ా
ె ల
 మ ీ
వ ర
 అ ని
 బ ా
మ ే
 ప్ర ా
స ే
త ్య
ాల ి
ద ేశ
క ్ర
న్ని క
ె క్
క ీ
తో ంది
ెం ట్
ధ ి
ద ే
  గా
ర ం
హ ి
 ప్రభు త్వ
ాల ను
. .
స ా
ు లు
జ ే
 అ భ
 చే సి
ంత ్రి
  య
ం ప
  ష
చ ి
 తెలి ప
ట్ టు
రు గు
 చ ూ
య ి
 ఉ ండ
ిత ే
ఎ ం
 జ రి
ధ ్య
్ర ెస్
్ర ా
స్తు న్నారు
వా త
 చే సిన
క్ కు
ష్ ట
 ద ా
కో వ
 ఎ న్నిక
 ఆ యన
 శ ా
ఖ ్య
 త న
ంగ ్రెస్
ఫ ్
ల తో
మ ైన
 ప్ర క
య ంలో
ప్పు డు
ం డా
 వ ర
త ీ
 రా ష్ట్ర
య ే
 ఒ క
 మ ొ
ర్ శ
 స్ థ
బా ద్
ప్ప టి
 మ ంది
క ర
న్ స్
బ ీ
క ర్
 క ి
 జ ిల్
 ర ెడ్డి
డ ంతో
ం బ
 న ా
ించ ింది
 కో సం
 పో లీ
 రో జు
 ర ి
య ితే
వ ారం
  టీ
లు గు
‌‌‌‌‌‌‌‌‌‌‌‌‌‌‌‌‌‌‌‌‌‌‌‌‌‌‌‌‌‌‌‌ ‌‌‌‌‌‌‌‌‌‌‌‌‌‌‌‌‌‌‌‌‌‌‌‌‌‌‌‌‌‌‌‌
ంగా ణ
  ఖ
సు లు
  డి
న్ య
 చ ి
 మ ార్
  ధ
ర్ థ
ు కు
 వ ీ
మ ో
 జిల్ లా
 వి ష
శ ్
 స మా
 చెప్ప ారు
 స్ ట
ట్ ల
 రా జ
 వ ర్
ల్ లి
కు ండా
మ ీ
ద ని
? 

 ఇ చ్చ
ర్ చ
 తెలిప ారు
్య ూ
ాల ా
 కా ంగ్రెస్
 అ ను
 మ ూ
ామ ని
 మ ే
 మ ో
ర్ వాత
 భ ా
 స ు
క ూ
 ర ై
 తీ సుకు
ంట ూ
లో ని
 ప ెట్
ే వ
 కార ్య
ర్ య
 ప్రభుత్వ ం
వ హ
జే పీ
 మ ె
 జరి గ
అ యితే
డా నికి
 వ ారి
జ ి
పో య
తు న్నారు
 చే స్త
 ప ొ
ు ల
 స ె
 క లి
 అధిక ారు
ని మా
 వ్య క్
 ఉ ంది
 ఏ ర్
బ ంధ
ించ ే
 త ర్వాత
తు లు
ా న
డ ే
వ ్
 అ న్నారు
 త ి
గ ్ర
చ ే
 అ నే
శ ా
ాల కు
 త ే
 ప ై
 పా టు
లా ంటి
ట న
 వ ్యా
 ప ు
 ప్ర జ
 మ ంత్రి
మ ార్
మ్మ ెల్
ణ ా
  ఐ
 ఆ రో
ట ో
 సి నిమా
పా టు
 ఉ ంటు
 హ ై
ట ా
ళ్ లు
 త ా
హ ా
తు ంది
ల ం
ట్ లా
ర్ టు
  యా
 నే త
స్ తోంది
క్కు వ
ెం డు
 మా త్ర
బ్ బ
 ల క్ష
బా బు
 స్ ప
కా శ
గ ొ
 స ో
ంది న
ద్ ధ
రా బాద్
 ప్ర తి
కు లు
 ఎ మ్మెల్
ట్ టి
 గ ్ర
 తీ సు
 బీ జేపీ
 జ ా
 కే ంద్ర
వ ్వ
డ్ డ
త్ స
 చ ంద్ర
 త ో
 మా ట్లా
గ ే
 ప ని
ె న్
 ద ేశ
" "
ర్ లు
 చ ాలా
 శ ్రీ
 అభ ి
స్తు ంది
 త మ
దీ ంతో
‌ కు
 స భ
 వె ళ్
 న ెల
ద ల
1 0
 చే సుకు
ద రాబాద్
వ రి
 అవ కాశ
వ ేశ
 ద ి
 తె ల
గ్ గ
 సీ ఎం
ంత ్
ీ ల
 వి జ
 చె ందిన
 స ర్
మ ెంట్
 వర కు
ాయ ని
స ారి
త ే
 తెల ంగాణ
 చే స్తున్న
 జ ీ
స్త ే
 ప్రా ంత
  ఘ
‌ ను
త ూ
 ప ి
  ట్ర
 మ ధ్య
ణ ి
చ ారం
 సం బంధ
క ెట్
 చేసి ంది
ర్ యా
ర్ కొ
ప ే
ల లో
 స ూ
 క ్ర
 ఎ ం
 గు ర్
చ ార
 ర ెండు
 కే సు
 తె లు
ంద ర్
వ ై
 ప ూర్
ంది ంచ
20 2
బ ర్
 నిర్ వహ
ల పై
స్ ట్
 న ాయ
ణ ్
స్ య
 ఎమ్మెల్ యే
 అ స
 మ ి
త్ తు
 పోలీ సులు
 త ర
 ప్ర ధా
ార ీ
 పా ల్
ణ ం
 అధికారు లు
గ ం
గ ర్
ూ రు
 నిర్ ణ
 సమ యంలో
 మ రో
ై నా
ే షన్
హి ళ
ఆర్ ఎస్
ష ి
 గు ర
క పో
గ న్
 ఆ మె
ం పు
ృ ష్
  ک
ు డు
ంద ే
క్ స్
 బ ి
 ర ె
త ్రి
ారం భ
డి యా
 ద ్వ
 బ ్యా
ిన ా
ంలో ని
హ ్
 త ొ
 ఆ ర్
క్క డ
ద్య ో
వ న్
 క ని
 న ీ
క ాల
ప ించ
 చే సే
 క ార్
ా ం
 ప్ర ారంభ
 క ల
న ూ
 ము ఖ్య
  "
నా లు
 గ ంట
లో కి
 మ రి
యో జ
 హ ా
 ఎ క్కువ
సీ ఆర్
స్ ట
 అభ ్య
 బ ె
గ ో
 క ాల
లే దు
 భార ీ
 క ్
శ ి
 చంద్ర బాబు
ఫ ీ
చ్చ ు
ం ట్
ని ంచ
 పె ద్ద
కా నీ
ా న్
 కొ త్త
 ఇ వ్వ
ద ్ర
 గ ె
ర్ మ
 అ వు
డి న
 య ూ
మ ంత్రి
బ ో
0 0
త ంగా
 ఫ ో
 పే ర్కొ
 శ ి
 ద్వ ారా
 చె బు
స్థ ి
 మ హిళ
 మ ్యా
 మీ డియా
 ఏర్ పాటు
 ము ందు
క్ర మ
 య ు
ిల్ లీ
. ..

 భ ూ
భ ా
 అ య
 ప్రక ట
ాయ ం
 అ ంత
రు కు
ర ూ
 స ై
 అ మ
సీ పీ
ంద ో
 జ న
 జ గన్
 క ల్
  న్య
 అ ర
 జ రుగు
 అ య్య
 ఉంటు ంది
క ం
న ర్
స్త ూ
 కా వ
 రాజ కీ
 ప ్
తీ య
 ద ీ
వా ల్
త ర
 వచ్చ ిన
 కార ణ
 అవకాశ ం
 సమ స్య
ల్ స్
1 9
ెస్ ట్
 కు టు
వ ారి
 పెట్ ట
మ ని
య ర్
  లా
స్తు తం
 ఎన్నిక ల
 అ ంద
ను న్న
ట ం
ార్ థ
ంత ్ర
 ఫ ి
త న
 రూ ప
 పో టీ
క ంగా
 సా ధ
 జరిగ ిన
 స్థ ా
 ప్ర త్య
 వి ద్య
ప ూర్
 వ ల్ల
ంట ారు
ా ల్లో
 పూర్ తి
 ఆరో ప
 వె లుగు
 బ య
క ె
ఢ ిల్లీ
 పరి స్థి
గ త
 ప్ర మా
ం జ
 శా ఖ
 అధ ్య
ద ం
స్ టు
య ు
వ ్ర
 ధ ర
య న్
ల ై
టి ంగ్
సి ంది
త లు
ించ ుకు
ందు లో
య త్
డీ పీ
 చే స్తున్నారు
 ప లు
 లే దు
 సం స్థ
హ ై
 కొ న
ెక్ టర్
‌‌‌‌‌‌‌‌‌‌‌‌‌‌‌‌‌‌‌‌‌‌‌‌‌‌‌‌‌‌‌‌‌‌‌‌‌‌‌‌‌‌‌‌‌‌‌‌‌‌‌‌‌‌‌‌‌‌‌‌‌‌‌‌ ‌‌‌‌‌‌‌‌‌‌‌‌‌‌‌‌‌‌‌‌‌‌‌‌‌‌‌‌‌‌‌‌‌‌‌‌‌‌‌‌‌‌‌‌‌‌‌‌‌‌‌‌‌‌‌‌‌‌‌‌‌‌‌‌
ఇ క
 అభ్య ర్థ
వ ం
20 1
 కే సీఆర్
 ఎ దు
 మ ార
 పాల్ గొ
ద్ ధి
డి యో
 అధిక ార
 ర ేవ
ంట ర్
 డ ీ
 చే ప
  -
 స హ
 వ ద్ద
 ఉ ప
 తీ వ్ర
ండి యా
న్న ా
 ష ా
ప ంచ
 ఆ ధ
 పే రు
 ర ే
్య ం
హ ు
 స ందర్
 వె ల్ల
య ్
త్ తి
తు ల
 ప్ర యత్
ర గ
తున్న ాయి
 మా జీ
లు గా
 కలి సి
 ఎన్నిక ల్లో
 ఉ ద్యో
 న మో
ష ల్
 క మి
జ ర్
 మ ండ
 వి చార
 ఎం పీ
యోజ క
 బీ ఆర్ఎస్
మ ై
యో గ
 వర్ ష
వ ృ
స్త ారు
దేశ ్
 క ె
 అ ం
ర ణ
 సమా వేశ
త ెల
 తే దీ
ప ర్
 వి డు
తెల ంగాణ
 మ న
 చ ర్య
 కొన సా
 క ్యా
 అ త
 గుర ించి
హ ం
 క ీల
 రేవ ంత్
స ర్
1 5
స ర
 మ ంచి
 ఎ స్
ా నికి
ద ర్శ
 గ ో
ంగ ళ
  టి
 ఉ ందని
 కొ న్ని
 కు మార్
 మాత్ర ం
 పరి శ
  ,
 చ ర్చ
 ని యోజక
బ్ లీ
 భా గ
క్ తి
ప్పటి కే
ప ె
 ప ాల
 ఉ న్నారు
 విడు దల
 మ్యా చ్
 ప ట్ట
ిల్ ల
 ప్ర శ్
మా ండ్
 వచ్చ ే
 ఉన్న ాయి
త్ తం
 శా తం
డ్ డు
 వె ళ్ల
మ ర్శ
 ప్రత్య ే
 వెల్ల డ
 ఉ ంట
 గ్ర ామ
రా లు
 చ ో
 మొ ద
ార ెడ్డి
 వి వర
 ద ు
 త ప్ప
 న ో
ద్ దు
 వ ారు
 అధ్య క్ష
 ఒ క్క
ంటు న్న
ో ర్
ప ల్లి
 బ ు
ను న్నారు
 మాత్ర మే
కో ర్టు
 కుటు ంబ
 వీ డియో
 సందర్ భ
ర ల్
ష్ట ం
 మ హ
ించ ాలని
ప ెట్
 ప ీ
 వ్యక్ తం
  లి
ంటు న్నారు
న ల్
  ఛ
 క ంప
 న ె
 రా వ
ద న
 అ న్ని
 నియోజక వర్
ెం బ్లీ
హై దరాబాద్
ఇ ది
క్ష న్
 ద ూ
డా ది
 హ ి
గ ిన
 మూ డు
ిన ీ
లో నే
 ప్రభ ా
లి ంగ్
ాల తో
ర ెడ్డి
 సభ ్య
 విచార ణ
 ఇ న్
 విష యం
వ ో
 భార త్
 చేయ ాలని
ప డు
వ ల
 సూ చ
 వ్యక్ తి
ర ారు
వ ె
 మాట్లా డు
 వి ధ
దీ ని
 ఘ టన
ధ ిక
 ప ద
3 0
ప డ్డ
1 2
 శ ు
ను ంది
అ లా
ె నీ
 హ ె
 కో ట్ల
 హై దరాబాద్
ది క
ా న్ని
 వ ెం
 ఎ లా
రో జు
 రాజకీ య
న ంత
 వి మర్శ
 వ ంటి
 చే సు
 ను ండి
 వే ల
రి గి
ించ ు
 టీ డీపీ
 కీల క
గ్ గు
 ఆ దేశ
ామ ు
 ఉండ ే
టీ ఆర్
 సమా చారం
మ ూ
 ల ీ
ిన ే
 ప వన్
ేశ ారు
 సందర్భ ంగా
ంలో కి
కపో వ
ించ డం
 లక్ష ల
ాన ని
  ఊ
ట ే
 ప ం
 జ ో
ృ తి
  ا
 హ ో
కు న్న
 ప ూ
 ప్రక ారం
వృ ద్ధి
 ప ను
 గ త
! 

జ న్
 ఎ న్
 ఇ ప్పుడు
బ్బ ంది
 ప్రధా న
 ద ర్శ
  డా
ట మి
 భార త
 సం ఘ
ెం బర్
కు ల
త్ మ
 మీ ద
 అ మ్మ
 అ ర్
క్ టర్
మ ొ
 బయ ట
బ ి
క్క డి
టి ని
వి త
 కి ంద
 కంప ెనీ
క ల్
 డ ై
 వి ని
 వ ార్
 చ ిత
5 0
 చేయ డం
స్ ట్ర
 ఇ ంటి
స్ ప
 వై సీపీ
 అస ెంబ్లీ
ప్పటి కీ
యా లు
 ముఖ్య మంత్రి
 కో ర్టు
రి కా
లి చ
న్న ీ
ంత ా
ృష్ ణ
 లే దని
 పోలీ సు
ే మ
ీ రో
గ ్య
 ఇ ది
భ ార
వ త్స
తు ందని
 నేత లు
 ఏ పీ
 లే దా
 ప్రజ లు
 చర్య లు
ట క
ై న్
 ప్రత్యే క
బ్ బు
 నిర్ మా
 యు వ
జ ెక్
వు లు
స్ వా
 కా దు
‌ గా
ల్ సి
ద ారు
 ద గ్గ
 ప్ర యా
రా ష్ట్ర
 వ్య వ
 అ ందించ
గా నే
డు గు
స భ
 చేప ట్ట
 సం వత్స
 ఎ లాంటి
 త రు
ంధ ీ
భ ు
్య ంలో
 ఆ ల
 పె ంచ
 జ రగ
 పని చే
యా న్ని
ళ న
 పెట్ టు
 ఉ ద
త ాయి
 గుర్ త
స్ సు
 ప్ లా
‌ తో
ంద న్నారు
ప్ తంగా
త్ వా
 ప ర్య
మ రో
 ప రుగు
ంత ి
ేశ ్వ
 అ ందు
 అ త్య
 స్ వా
ప్ర దేశ్
నించ ారు
య ూ
 పేర్కొ న్నారు
ల్ డ్
 వారి కి
ప్ర స్తుతం
  م
1 1
 ప్రధా ని
ప థ
 న గ
 సి ద్ధ
చ ు
జా గా
ర కు
ండ ో
 సో షల్
) ,
 ర ంగ
 కో ట్లు
వ ారు
 ఆ ఫీ
 హ ీరో
 ఏ డాది
 అభి వృద్ధి
 స ే
ళ్ లి
న్ సి
త ారు
శ ్వ
 వెళ్ లి
 జ ై
జ న
 డి మాండ్
 ఉ త్త
స ె
దా పు
 తెలిప ింది
 న ాలు
స్త ామని
 చెబు తున్నారు
 క్ర మ
టి కి
 తీసు కోవ
ప్ ట
 ఇ తర
ల ర్
 ఇ ండియా
ల్ లు
ఫ ి
ూ డ
 దా డి
ప డి
ర ె
 మో దీ
 తెలి య
 అ ంటూ
 సంబంధ ించిన
న ని
 చే రుకు
 ఇచ్చ ిన
అ ంత
 ర ు
ంట నే
 అమ లు
లే దని
 వచ్చ ి
ామ ీ
ప డ
స ై
 రోజు ల
క ార్
 విజ య
 స్థ ాయి
 ట ై
ందో ళన
మ య్య
 విద్య ార్థ
 క ్రి
 తొ లి
  ఢిల్లీ
స్తున్న ాయి
 పరిస్థి తి
రీ క్ష
ప ొ
ు లకు
 ఇ ద్ద
ఒ క
 త గ్గ
ప క్ష
 మాట్లాడు తూ
 వెం క
ర ై
రి కి
 ప ిల్ల
 ఆ ర్థ
 ప్రా జెక్
 భాగ ంగా
కు డు
 క ర్
ేశ ్
మె రికా
 వ్య వహ
 చి న్న
చ ంద్ర
నంత రం
వ ్యా
ఆ యన
 క ౌ
1 4
 బ ల
 ప డు
స న
 మూ వీ
ద్ ది
 నే పథ
 కారణ ంగా
 కని పి
క్ ష్
భ ి
 జ ూ
 నమో దు
 ఆర్థ ిక
డ ర్
ని క
తు లకు
కొ చ్చ
 ట ా
ఎ ల్
 ఇ ం
 జరిగ ింది
శా ఖ
 అయ ిన
కొ ని
 విష యంలో
ప ార్
గా లు
 వ్యా ఖ్య
డ ని
ంధ ్ర
 నిర్ణ యం
 పె రుగు
 జ ారీ
 అం శ
క్ష ణ
 జ ట్టు
 గా ంధీ
‌ లు
 అ ంచ
ంద రు
క్ష ి
 గంట ల
ాల ీ
క ారు
పోయ ిన
ార ో
లు పు
 ప్ర పంచ
 తి రు
 వచ్చ ింది
 ప థ
ట్ స్
 నేపథ ్యంలో
ప తి
 ఆ ఫ్
ార్ డు
 రూప ాయ
 రా వు
పే ట
 సమ ీ
అ ందు
పడ్డ ారు
డ ో
 ఫ ్యా
a n
సే న
 మొ త్తం
 కే ట
‌ ,
రి క
ొ టో
ర్యా దు
  లు
ాయ ్
 స ొ
కా ంగ్రెస్
అలా గే
ధ ు
 అ న్న
 కేసు లో
 గ ొ
ట ంతో
 వ స్తు
 లే కుండా
 మాట్లా డ
 పా త్ర
 స రి
 భ క్
ాల పై
1 8
 ఆ శ
 ఇచ్చ ారు
  ہ
 బ్యా ం
 గ ౌ
 తెలి సి
 ఫో న్
చ ర్
 తె లుగు
బా టు
 చ ీ
 ల ె
 డ బ్బు
 చ ై
 హ ామీ
 స్ట ార్
 స్ వ
హు ల్
 డ ్ర
స్త ా
ర ంగా
 ఫి ర్యాదు
మ వు
ించే ందుకు
 అనే క
రా జ
 అ ంటే
కా లు
ంబ ర్
ఇ ప్పుడు
2 4
2 5
ర ంలో
 ప డి
 ప్ర చారం
ాల లో
క ార
 తా ను
ని వా
 ఆ ందోళన
లు వ
 గుర్ తు
 ప రీక్ష
 ఎక్కువ గా
ంట ీ
 ని య
బ డి
 క ళ
ని యర్
ంద ా
పోయ ింది
య ిల్
 వ ార
1 7
‌లో ని
 ట్ర ా
 పె రి
వ న
స ో
 మ ద్ద
వర ణ
ర్చ ు
 ర ిక
 సి ంగ్
స్ తో
 నిర్ణ య
 హా జ
 చిత ్ర
రు వు
 చూ డ
ద ో
న లు
య ల్
 బ ో
 ఫ లి
 త య
20 0
 మార్ పు
న్న ు
ండ గా
 రా మ
 ప ంప
 యూ ని
వా డ
 సం ఖ్య
 ఆరోప ణ
 వి వా
ెస్ టు
మ ారు
 బా ధ్య
 త ు
వై పు
 తరు వాత
తి రే
 మీడియా లో
త్వ ం
 చేసు కోవ
ను గో
మ ల
ళ్ లీ
 పాల్గొ న్నారు
ణ ాలు
త ె
 క్రమ ంలో
 ఆ ది
 తెలు స్తోంది
 ద ొ
 ఖ ా
 కార్య క్రమ
 స్ట ేషన్
చ ుకు
 చేస్త ూ
 స ర
 ఉ ంటే
 దగ్గ ర
 మరి ంత
ష నల్
 చ ట్ట
పెట్ ట
‌ పై
 రాష్ట్ర ంలో
జ ూ
్ర ే
 అభ్యర్థ ి
 కొనసా గు
యి న్
ర్మ న్
వ చ్చ
స ార్
స్ టర్
 జిల్లా లో
 త ల
 వ్య తిరే
 డ ే
 మే రకు
 అ ంది
 శ్రీ నివా
 ఆరోప ించారు
బు ల్
ప రి
ాల ే
1 6
 కాల ే
ళ ి
 నిర్ మ
 డ ె
ము ఖ
ట్టు కు
ిక ెట్
 దా దాపు
ప్ర తి
వి ధ
 ప్ర ి
రా వు
 తెలిసి ందే
 వై ఎస్
ల్ సిన
ట ల్
 వై ద్య
 న్య ాయ
పోయ ారు
డి గా
 ప్రభు త్వా
ప్ర ీ
న గర్
ఖ ా
  ట్
సీ సీ
 త ల్లి
 నాయ కులు
1 3
 అధ్యక్ష ుడు
ఏ పీ
ప ాల
 న్య ూ
టీ వల
 లో ని
 ఎ ందుకు
గ ంలో
 ప్రక టన
 ర ీ
 టి కెట్
త ను
 కొ ంత
 డా క్టర్
 అర ెస్ట్
 తీ ర్
 రి లీ
  '
గా ల
 ఎ ంత
 డై ర
 క థ
న్య ూ
 మద్ద తు
ణా టక
ی ں
్ర ో
 ప్ర జా
 స్థ ాన
 సి బ్బంది
 అ న
ట రీ
స్త ాయి
 వా తా
 వెల్లడ ించారు
హ న
మా న
 స ౌ
 బ ంగ
ార ణ
రే షన్
 దా ని
 క ంటే
ార ాయ
బీ సీ
 హై కోర్టు
 ఆ లో
 గ ్రా
 రా హుల్
శ ారు
జ య్
ే ందుకు
్య ార
 వె ంటనే
 ద ృష్
డు కు
 ప డ
 ని ల
 కల ెక్టర్
 చేసుకు న్న
క ారం
ఇ ందులో
‌ ల
స్థ ా
 వై రల్
ఎ న్
 స ేవ
బ ్ర
 కా కుండా
 బ ిల్
ె న్స్
టర్ ల
ండ ర్
 కొ నుగో
ಲ ್
 విజ యం
 నాలు గు
 కే టీఆర్
ం ప్
న ో
 ప్రాజెక్ టు
ంగళ ూరు
 ప ైన
స్ టి
 చ ా
 కమి టీ
 లో క్
ంధ్ర ప్రదేశ్
ద ాలు
 కో రారు
 చో టు
 స ాయ
 ఆ స
 చ ు
క్ కి
 కో ల్
చ ిత
ంద ్
 తీసుకు న్న
  థ
మ ంది
వర కు
మా ను
 తి రిగి
ణ ు
 అవ స
బ ె
 ఉప యోగ
అందు కే
ళ్ ళ
 భా వి
్య ు
డి ని
 ద ే
అ దే
 ఏ ం
 వ్యా ప
వ లం
ర ్ర
 మార ింది
స ూ
 ల ై
ల్ వే
ాల ంటే
 ప్ర స్తుతం
 భ ర్
 పార్ ల
 ఉ త్
 పరి ధి
ం తు
 స ంగ
 ఆధ ార
 అ ది
 న మ్మ
టర్ లు
కూ ల
 ఉద యం
 అ మెరికా
నే ందుకు
 ప ంచ
 హె చ్చ
ై ంది
కర ణ
ై ర్
 స్ప ందించ
 ప్రాంత ాల్లో
యా నికి
 సూచ ించారు
శ ు
 అ డుగు
 మొద టి
గ ింది
 రా శి
 పను లు
 వ ిన
గి రి
 ఉ ంచ
ల్ లా
 ఇ లా
ప ్రి
 ప్ర ొ
థ ్
 మొ దల
డి ంగ్
 ఏ ళ్ల
 స్ట ే
య్య ారు
ించ ా
 పోలీ స్
ర ంగ
ష ే
మ్ స్
 నిర్ వ
 త క్కువ
ామ న్నారు
 మ ై
 మ ళ్లీ
వ్యా ప్తంగా
 హ త్య
మా న్
ల్ ని
 ఐ దు
డ ంలో
 ని ర
ی ا
బీ జేపీ
 సా గు
 రా త్రి
 చ ని
న్న ాయి
క్ర మా
 చేశ ాడు
2 2
శ ే
 శి వ
 మ ృతి
ష ా
 కి లో
హ ె
రి యా
ప ం
 అ తి
 బ ాల
జ ్ర
ర్ స్
ెం డ్
 ఇ ప్పటికే
పా ల్
తి లో
 ఇ దే
 ష ే
 జా తీయ
‌‌‌‌‌‌‌‌‌‌‌‌‌‌‌‌‌‌‌‌‌‌‌‌‌‌‌‌‌‌‌‌‌‌‌‌‌‌‌‌‌‌‌‌‌‌‌‌‌‌‌‌‌‌‌‌‌‌‌‌‌‌‌‌‌‌‌‌‌‌‌‌‌‌‌‌‌‌‌‌‌‌‌‌‌‌‌‌‌‌‌‌‌‌‌‌‌‌‌‌‌‌‌‌‌‌‌‌‌‌‌‌‌‌‌‌‌‌‌‌‌‌‌‌‌‌‌‌ ‌‌‌‌‌‌‌‌‌‌‌‌‌‌‌‌‌‌‌‌‌‌‌‌‌‌‌‌‌‌‌‌‌‌‌‌‌‌‌‌‌‌‌‌‌‌‌‌‌‌‌‌‌‌‌‌‌‌‌‌‌‌‌‌‌‌‌‌‌‌‌‌‌‌‌‌‌‌‌‌‌‌‌‌‌‌‌‌‌‌‌‌‌‌‌‌‌‌‌‌‌‌‌‌‌‌‌‌‌‌‌‌‌‌‌‌‌‌‌‌‌‌‌‌‌‌‌‌
స్త ాన్
కోవ డం
 స్ప ష్టం
 ప్ర వేశ
 బ ౌ
 చె ప్పు
 భార ్య
 గె లి
 ఫ ు
 ము గి
 రె ండో
 ఉంట ాయి
 అవస రం
ద న్నారు
 స ంచ
 క ట్ట
కా గా
 కార్య కర్
కి ంగ్
 మ ండి
 మా ట
ధ ులు
ండ ్రి
త రు
4 0
 మార్ కెట్
 తర ల
  پ
ర్ ట్
 అను మ
తు లను
 రో డ్డు
 వర్ష ాలు
ఇ ప్పటికే
 స ంద
 ఆ ద
 ప్రజ ల
 తెలు సుకు
 ప్రకట ించారు
 ఆలో చ
ష ్య
 వి కెట్
క ృష్ణ
 గ ి
వ చ్చు
ప్రీ ం
 రిలీ జ్
 ఆస క్తి
 పో రా
వ ంత
 చె ల్ల
స్వా మి
  س
 అందు బాటు
ఎ న్నిక
్య ాల
 కొనుగో లు
స ెస్
 జన సేన
మై ంది
 తొ ల
 మ ారు
అ ని
 ఉద్యో గు
 ఇద్ద రు
 క ష్ట
 అ ల
ించ ాడు
 సమ యం
 పై గా
 మరి యు
ృ త
 ప్ర ే
 ఫ ్
ంట్ లో
 వ్యాఖ్య లు
స న్
ించ డానికి
ండ ీ
 పరుగు లు
న ంగా
డ మే
ా ను
ర గా
 వి ధా
 తె ర
ీ ర్
 భ ద్ర
మ న
ప్ తు
 ము ందుకు
 అధికార ంలోకి
 ఎ క్స్
 వే య
ద ్యా
 ద ో
 ఆరో గ్య
సి టీ
 గంట లకు
కొ న్ని
క్ర వారం
 కార్య ాల
 వెంక ట
జ ిక
 కా నీ
నా న్ని
క్ త
ల క్ష
 కొ ందరు
 నిర్వ హి
 నిర్వహ ించారు
క్ టో
చ్చ ి
 స్ కూ
అ నంతరం
 కూ టమి
 మో డీ
త మ
 ఇ బ్బ
 స్ వీ
స్తు ందని
 పె ళ్లి
మ వారం
ర్ మి
 అ ప్ప
ండ్ ల
 వై పు
వ రు
 పా ట
రా వ
పో వ
చ ూ
చ ె
రా జ్
వు డ్
 సంబంధ ించి
ని ంగ్
 బ ై
 వారి ని
వ ్య
న ె
 ఎ ంతో
 వివర ించారు
 రా జీ
ప్ర భు
 పరి ష్
తా జాగా
ండ ే
10 0
 ఇ ంటర్
ంగ ల్
ణ ీ
 ప్ర ై
 వే దిక
 పెట్ టి
 ఇబ్బ ందు
 మరో సారి
ప ించారు
 మ రణ
 ఎ వర
లా ండ్
 అభి ప్ర
 క ారు
 రై ల్వే
తి ని
ారి టీ
 ప్రజ లకు
 చై ర్మన్
ారాయ ణ
హ న్
‌ ర్
 ని లిచ
కొ త్త
 డైర ెక్టర్
‌ ని
టీ సీ
 కా ల్
ో త్స
 అ డి
ిన ట్లు
మి ళ
 కార్య క్రమా
 ఉంటు ందని
శ ్రీ
 అధ ినే
 సీ నియర్
 మ ర
లి యా
లే క
ంత్ర ం
జ్ ఞ
 భూ మి
 ఫ ా
 పో స్టు
 కని పించ
 త ్వ
 జరిగ ే
 పరిశ ీల
 రో డ్
 న రే
 ఫలి త
యి ర్
 అ క్కడ
ధా ని
.. .
 చేస్త ే
 ఆ హ
 రోజు ల్లో
ారా న్ని
ప ూ
ప్ షన్
 ప్రశ్ నించారు
ప డిన
 ప్ లే
ము ఖ్య
 కేంద్ర ం
 చేసే ందుకు
 ప్రమా దం
 వ స్తున్న
 ఇం కా
 ఇ ప్పటి
 సర్ వే
 అవ సర
 మండ ల
 వ స్తే
జ్ర ాయ
ప్పు డ
త ల
టి లో
 తన కు
 అ క్కడి
 ని వే
తున్న ారని
 బ స్సు
గ ల
 ఆ త్మ
 నమో ద
ంట ో
 అ ండ్
 శ్రీనివా స్
వా ళ
పు రం
గ్ర హం
ాల నే
ె బ్బ
ర్యా ప్తు
2 1
ండ ్ర
 నే ను
 తీసు కె
 వ ృ
 బయట కు
 ఫ ీ
 పేరు తో
న్సి ప
మ రి
 ల క్ష్
 ఎ వరి
ంగళ వారం
 దీ ని
 గ్ర ూ
 పేర్కొ ంది
ర ాల
 అ దే
ను క
గ ్రా
రు గా
రు పు
 అనే ది
మ ిక
 చే రి
 కే సులు
 న గర్
 జై లు
ొ చ్చు
 ని ంది
ని వారం
 చేయ డానికి
 పూ జ
దు పు
నా డు
 బా గా
బీ ఐ
గ ూడ
 అ ప్
 సు ప్రీం
మ్ మి
 పాల న
 సొ ంత
2 3
ఎ ఫ్
్రి య
 ర ద్దు
ట్ర ో
 జ ే
హ్ మ
 ప్రమా ద
ృ ష్ట
 కేట ాయ
ు లను
 బా ధ
చంద్ర బాబు
 అ ందుకు
ళ్ లకు
 ప క్క
 ఆరోపణ లు
 చే స
 యా ద
 అ ర్థ
 పో లింగ్
 నా గ
కపోవ డంతో
భ వ
 అయ్య ారు
 బ ోర్
దేశ ం
 ఏర్ పా
 స ెల
జ్రాయ ెల్
ల్ యా
హె చ్
ం క
ాలీ వుడ్
ం కర్
పో యి
 తేదీ న
 అంచ నా
న ాల
ని యా
 చీ ఫ్
 వి స్త
ంలో నే
క ౌ
 క్ర ికెట్
 అధినే త
దర్శ ి
 చేశ ారని
కొ ండ
జ ం
 ఎన్నిక లు
్యూ టీ
 మండ లం
డి కి
 వి విధ
 జరుగు తున్న
రీ స్
 వ్యవ స్థ
 కొ ట్ట
 గా య
మ ర్
 వి లువ
కూ డ
 స హా
 సం క్ష
 రై తు
స్థ ాన్
 రి జర్
మరో వైపు
సు ప
 కల్ యా
2 8
 త ప్పు
కి త్స
 ఓ వర్
 సా మా
 ద క్క
 ప్ర స
 న డు
 అభి మాను
అంత ే
a r
 ద ాడు
 అత ని
్ర మ
 ద ర్యాప్తు
 త గ్
ాల న్నారు
రి కీ
ట్ర ా
ించిన ట్లు
ళ్ల లో
రు వారం
ం క్
 బ ొ
ఆ మె
 ద ేవ
పు ణ
కు లకు
ణ ంలో
 సభ్య ులు
 సం జయ్
ప్ప ి
 పి టి
 పా కి
 వ రు
 బ ్
డ్ జ
 త ది
 విమర్శ ించారు
కపో తే
మా నం
గత ంలో
ఫ ొటో
ల్లో కి
 సహ ాయ
ప్ తి
 పో స్ట్
 కే వలం
భ ూ
 తయ ారు
 పార్టీ కి
 వర కూ
 స ూర్
 మాట్లాడ ారు
 జరి గి
స ాయ
 ప్ర ముఖ
జా తీయ
గా యి
 ఎ న్న
 కళ ్యా
ించ ారని
 ఆ ట
స్త ్ర
 మొద లు
 పద వి
 వాతా వరణ
  ب
 ఎ త్తు
్య ంగా
డ వ
 పం పి
ళ్ లను
ించ ాలి
 విధ ంగా
 న ట
 నెల కొ
  లాంటి
బ ట్టి
న ంద
 జ ి
ం స
జ ె
 ఎదు ర్కొ
ధ ్యా
 వి వ
వాల్ సి
 నివే దిక
 కర్ ణాటక
ం బా
ద్ద ీ
 మ ంత్ర
 ఆ ప
 ని లి
 చేస్త ామని
 చి వరి
ధ వారం
స్తున్న ారని
 ఓ టు
 రై తులు
ಲ್ ಲ
 స ంతో
బ ిత
 ప ర్
 సమస్య లు
శ ాల
 చే రు
వు ల
 లే ని
 ఎమ్మెల్ సీ
 కావ డంతో
ట్ లను
డ్జ ెట్
 ప ంట
 గె లు
కే ంద్ర
 బా ధి
 కా పా
 ప్రాంత ంలో
ನ ್
 అ యితే
ఖా స్తు
 ప్రభా వం
 పర్య టన
దు లు
 చేసిన ట్లు
 ప్రకట ించింది
ప్రి ల్
 త ాము
 ని మి
 ک ے
 ప్రయా ణి
 దా ఖ
 అర ెస్టు
రి య
 వి క్ర
వా స
గ్ర త్త
 వ య
లి ం
బీ ఆర్ఎస్
స్ట్ర ే
  و
2 7
 అ డ్డు
 క ృష్ణ
 మా న
 బిల్ లు
 నిర సన
ఠ ా
 మంది కి
 ఇ లాంటి
 తీసు కో
వ ంటి
 రోజు లు
 బంగ ారం
వ ాల
 స్థాయి లో
ర స్
 ఇవ్వ ాలని
గ తి
 క ప్
 ట ె
ై ల్
క్ ట్
 గ ే
 అత్య ంత
2 6
సీ ఎం
 ఆ గ
 రై లు
 ఖ ర్చు
ం పై
 ర ాయ
ిక ా
నా నికి
 ప్లా న్
 అ క్రమ
 ద శ
సి డ
 భారీ గా
ప ర
ర ెండు
 కా మెంట్
వారి కి
 అ ంటున్నారు
ము ందు
 మండి పడ్డారు
 భా వ
 సమీ ప
క్టో బర్
 పిటి షన్
డు క
దేశ ంలో
స ెంబర్
 అ ంగ
ెన్ సీ
ిత ంగా
 చి కిత్స
ర్ ల
 ఆ సుప
 డ్ర ై
అ స
లి క
 ము గ్గు
ంప ిక
 కళ్యా ణ్
 క విత
 ద ెబ్బ
స్తున్న ట్లు
 ఆ రు
 బ ంధ
 హ క్కు
ప్ర జ
ండ్ లు
న్ లు
 ట ్యా
 వర ద
 అ లా
మ్మ డి
కోవ ాలని
 భూ ము
ర ఖాస్తు
ొ క
 ప ట్టు
 జిల్లా ల్లో
వ ల్ల
 చేయ ాలి
 క్ ష
బ డు
 మ ెంట్
 బ ్ర
యో గం
 నరే ంద్ర
  ن
గా ల్లో
టి వ్
  ಮ
ఇ దే
టి ఫ
 తె చ్చ
 పార్టీ లో
ప్ట ెంబర్
మి త్
 భక్ తులు
గ ారు
ౌ న్
నా మా
య్య ాయి
 బా బు
భార త్
 ఉన్న ట్లు
 విమర్శ లు
ఫ ా
య ిన
ంగ ి
ంగ్ స్
ు త్
 స ార్
 ک ی
న్న ాడు
 వి ద్యా
 విని యోగ
ళ ీ
 బీ బీసీ
పార్ టీ
 ఇ ంట్లో
 ప్రతి పక్ష
ార న్నారు
 విష యాన్ని
 వెళ్ లే
 ఇబ్బందు లు
ె డ
 م یں
ల న
‌ న
‌ మెంట్
 అ డ్
య ్యా
లి యన్
 శ రీ
 జా గ్రత్త
 అ యి
 గె లిచ
 తీర్ పు
 ఎ ంపిక
 సి రీస్
 నో టీ
 గత ంలో
రి త్ర
 ఒ కే
 తా జాగా
 బ హి
 పా ఠ
 సాయ ంత్రం
 ప్రై వే
ార నే
 వా టిని
య న్స్
 రిక ార్డు
ంబ ై
 అవకాశ ాలు
 ఎదు రు
 ఉ పా
య ంగా
హ త్య
 సమావేశ ం
కపోవ డం
ప్ర ద
 బె యిల్
 చేస ారు
సి ంగ్
 సై తం
రి లో
 వచ్చ ాయి
 అధిక ారి
 సూ పర్
 పలు వు
ంచ ే
 ష ర్మి
 పూర్తి గా
వ ంబర్
అ ధిక
 వే డుక
 కు రి
 ఉండ గా
 జీ విత
  ల్యా
 చే స్తు
 న ష్ట
 న టి
 ల భ
ండ ె
భార త
 స్వా మి
 సె ంటర్
 రూప ొ
ించు కో
వ ార
పో యా
క ంటే
 ము న్సిప
 జీ వి
ఫ ు
ర ించారు
 వే గ
ర ణ్
డు తున్న
 సి టీ
 చేసుకు న్నారు
 వ ంద
 కో రు
ధ్యా హ్
ఫ ర్
 ధర లు
 గ్రా మా
 క ంట
 సమ ర్
 బ ్రి
డ్ స్
 న ామ
తా ను
కోవ డానికి
 కార్ మి
 స్థా నిక
 ఇంటి కి
 అ దుపు
 ఎ యిర్
 మహిళ ా
6 0
ఇ లా
ర వ
 ల ైన్
 బె ంగళూరు
 స్థాన ంలో
  ت
 ఆ క
  ಸ
అ ందులో
ది రి
 ట్ వీ
హ ీ
నా థ్
 ప్ర యోజ
 ట ెక్
పె ద్ద
 గ వర్
 కార్య దర్శి
క ల
ంటు ంది
ించ నున్నారు
తి కి
 జా బిత
టు వంటి
 ప ౌ
 కల్యా ణ్
  د
  ج
  .

 చెప్ప ిన
రాష్ట్ర ంలో
 ప ది
రే ట్
 అభిప్ర ాయ
 ప్ర ేమ
ష్ ణ
 తీసు కొచ్చ
 తెలు సు
 బీ సీ
ఖ ీ
కు మార్
 ఆరో గ
 డబ్బు లు
 బ ృ
 తీసుకు న్నారు
శ ్ర
i n
ఫ ె
బ ూ
 ద క్షి
 పొ ంద
ణ ంగా
 క్ ల
ంద నే
a l
 ద రఖాస్తు
ల క్
2 9
 చ ొ
 ఇ బ్బంది
 ప్రా ధా
 బ డ్జెట్
 మీ రు
ే స్
న్ యం
ట్ లో
పా ద
 ఇచ్చ ింది
 సుప్రీం కోర్టు
ತ ್
ర్ యంలో
మ హ
కు న్నారు
రా నికి
 సి ద్ద
ష ం
 క మ
 క ృ
రా మ
 స్ప ష్ట
 పార్టీ ల
 చేస్త ారు
 పార్ల మెంట్
ఫి క్
్యా న్ని
 తమ కు
 ఆ డ
ంప ల్లి
 ప్రే క్ష
 క ర
 చ రిత్ర
 ఇ జ్రాయెల్
యా ల్లో
మ్మ ం
ష నర్
 వి దేశ
ెట్ టి
 న డి
 జూ న్
 త ండ్రి
 శ క్తి
అ ది
క ్యూ
ಿ ದ
ారు లు
 ప్ర చార
కే ష్
తెలంగాణ లో
5 00
ద ్రా
స రి
 ఇ క్కడ
 తీ రు
ద్ద ని
ద్య ం
 కని ప
వి ష్య
 ప త్ర
 వ ాయి
 కాలే జీ
క రి
వ ల్
దు వు
ద్ద ేశ
కా ం
 చే ర
టి ల్
ప్ట ెన్
 లె క్క
 భర్ త
 వరు స
  R
ఖ ్యా
రి ంగ్
్వ ర్యంలో
  ವ
 ఇ ండి
 పార్టీ లు
హి త్
 వ్యా ప్తంగా
 యా త్ర
 హ ు
 ఇచ్చ ి
 ప ్యా
ిన ేషన్
కు లను
 ఇ టీవల
ఖ ర్
ట న్
 వ స్తుంది
 హ రీ
 మార్ చ
ట ెడ్
 భార తీయ
 పలువు రు
 వ ది
 ఆ న్
 గుర్ తి
 క్యా ప్షన్
 సీ ట్లు
ఫ్ ట్
 మార్ చి
 కార్ పొ
స్ట్రే లియా
త ొ
و ر
గ ్రీ
సా ద్
 ప్రయత్ నం
 కో ట్
 రాజీ నామా
 కలి గి
ంద ం
సార్ లు
‌ సభ
 పోలీసు లకు
‌ ర
 న ూ
దీ నికి
 నిర్వహ ించిన
 లా భ
 వి భా
 కా దని
క్క డే
 అంత ర్
 గ్రూ ప్
 యాద వ్
 తెలి సింది
 కార ణం
 కార్ డు
 ప ెం
 ఆధ ్వర్యంలో
 ఉత్ ప
కే సీఆర్
 సంక్ష ేమ
ధ్యాహ్ నం
ం డు
 న ై
 నీ టి
 బాధ్య త
 నీ రు
జ ిల్
రా త్రి
 శు క్రవారం
 ఒక టి
 స్ప ె
 తెలంగాణ లో
 ఆ స్ప
రి ని
నే ను
  ..

తు ల్లో
వే ల
 శు భ
 హాజ ర
మ న్
 మ హా
 భ య
 చేస్తున్న ారని
 ట్వీ ట్
 చే యా
 సర్ వీ
 త మిళ
 లే ఖ
ఏపీ లో
త ాయని
వి ద్య
నున్న ాయి
 అందుబాటు లో
 వా టి
న్న ై
 కమి షన్
 గ ణ
 ఫ ై
 స్ట ా
 ఉండ ాలని
 అ ద్
 యు ద్ధ
 క న్
ంగ ు
 భ ే
 ఫ ొటో
పో లీ
ారా ష్ట్ర
 చూ ప
 అను కూల
 నెల ల
 తీవ్ర ంగా
స్త ాయని
 గుర్త ించారు
 స్థ ి
 పొ ందు
 పం డు
 తొల గ
 ఆసుప త్రి
మొ ద
పడి ంది
 యూని వర్
 స ామ
 త ిన
 ఆ ంధ్రప్రదేశ్
ం శ
ఫ ్ర
కోవ ాలి
ఎన్నిక ల
దీని పై
ల్ చ
ا ن
ల ిన
 ఆ మో
లే ని
 ఉన్న ా
 నియ మ
ఆ ది
మ్మ ు
 విష య
 దాఖ లు
 ఉ ద్య
 ని పుణ
 వర ల్డ్
 పొ త్తు
య ింది
ించ ాయి
 ఉన్న ాయని
 మ ారి
వే త్త
 కాల ంలో
 చే స్తోంది
 తీసుకోవ ాలని
 ప్రతి ని
 ష ో
వాల్ సిన
 జ గ
 సో మవారం
 వివ రాలు
రా జు
ಿ ಯ
 అ ప్పు
 నే డు
 కుటు ంబా
డ త
దా ని
 సమావేశ ంలో
ద ండ్ర
.. ?

ళ ం
 ప్రక ్రియ
 ధ ర్
 స్థా ని
ో న్
 రా జ్
 అధికార ిక
ల్ చి
గా నికి
క్ కో
పు లు
 ఫ ్ర
 వెల్లడ ించింది
 షే ర్
 నిమి ష
7 0
గొ ండ
ا ر
ష ్యా
ెం ట్లు
ష ణ
 వ న్
 వ్య ూ
 రాష్ట్ర ాల్లో
 క న
నా ల్లో
 స ంత
 స బ్
అ త
మ ూర్
ర లో
 ఆ గ్రహం
 ఉ చిత
 షర్మి ల
ౌ ండ్
ట ్రి
 చ ైనా
 జ రుపు
 సామా జిక
 ఆ డి
 వె న
 ఉ ద్దేశ
 ఒ త్తి
 పూర్ త
 చే స్తుంది
ించ డంతో
 సి ంగ
ం హ
 విద్య ుత్
ద ్రి
 ప్ర ో
 వి శ్వ
 సినిమా లో
పోయ ాయి
లై న్
 తగ్ గి
 ర వి
 ఇ ంట
 వి వే
 ని రా
వా సం
 రి పో
ేవ ారు
 ని జ
 సీ జన్
ಲ್ಲ ಿ
 ఆధార ంగా
స్ క
రా ల్లో
పీ ఎల్
 వే సి
 నా కు
కు ంటే
లా క్
గు లు
డ్ డా
 ఖ ాన్
 ఆత్మ హత్య
ో ధ
 వర్ష ం
 హాజ రు
 క స్ట
 ని బంధ
 స్ పీ
ఇ టీవల
స్ పి
హ్ వా
3 1
ం భ
ం కు
థ ి
 వె నుక
 దేశ ంలో
 సంఘ ం
 ప్రభుత్వా నికి
 స త్య
కు ని
 అవ ినీ
స్తో ందని
 ఆదేశ ించారు
r a
ఇ ప్పటి
 కు రు
ంప ే
 గ ్యా
స్త ారని
 ہ ے
ారా నికి
తు డు
 బ ండి
మా నా
ప్ర పంచ
ంద్ర ా
నున్న ట్లు
 అ రు
 లే క
 బ్యాం క్
కు నే
లి క్
ెక్ ట్
 రావ డం
 రూపాయ లు
 కిలో మీ
ನ್ ನ
 చ దువు
 అ నంతరం
లి ంది
 ఎ గ్
 వా హన
 దృష్ టి
ేశ్వ ర
 భే టీ
చ్చ ని
 చూ సి
 వర ంగల్
 ఇచ్చ ే
సిడ ెంట్
వ ని
 ప దే
 ఐ టీ
షి యల్
 వేదిక గా
త మైన
 వె బ్
వే షన్
బో యే
 ఫో టో
  گ
ం నగర్
ల ాల
 అ మిత్
ణ ్య
వ ్యూ
 శ ర్మ
 మూ డో
 ప ారి
గ్ర హ
 అనుమ తి
డ ప
 స్ నే
 కార్యక్రమ ంలో
 ఏర్పా ట్లు
 ర హ
 పంపి ణీ
ర మ
 ప ట్ల
వా హ
 గ ్
 ఆలోచ న
 ఇ ండ
సు లో
తో ందని
ంగ్ లా
ారా వు
 కల్ పించ
తి క
్రీ న్
 ముగ్గు రు
 ఎ క
 ప్రయత్ ని
త కు
ప్ర ా
 వా హ
 బ ్రా
 జ య
రు గ
 షా క్
 బహి రంగ
 కృ షి
జ ార్
కర ించారు
తె లుగు
 ఆది వారం
 బోర్ డు
 ఇ ంజ
 సమా ధా
 క్రి తం
అ క్కడ
ధ ీ
తరు లు
 అద్ భు
 అ డ
 ద ారి
 వా దన
 ఆయన కు
 మె డి
ంచ ు
వా లు
 సీ బీఐ
 తర లి
 గుర్తి ంపు
 వి శాఖ
దా నికి
ెక్ ట
 హి ంద
ంచ ్
టా నికి
ట్టి ంది
 వ్యతిరే క
అంతే కా
ని మ
 సభ లో
 పెట్ట ారు
 ఎన్న ో
గ ీ
ే ష్
 రూపాయ ల
4 5
గ ణ
 రా జు
 ఫ ైన
స్ట ే
ట్ట ే
 చెప్ప ింది
రీ ంనగర్
 ఓ డి
 అవ ార్డు
 అయ ింది
దారు లు
 క ్రీ
 ఇ ంత
 శ నివారం
ముఖ్య ంగా
 వ్యా ఖ్యా
 న్యూ స్
 ర ాలే
చ్చ ారు
 కూ డిన
 కొ ద్ది
క్క ర్
 క నీ
కో సం
శ్ చి
 ప్రారంభ ించారు
‌ క
స్తు లు
కే షన్
 ఉండ ాలి
సారి గా
 మార్పు లు
 సీ త
తి రు
ణా నికి
 ఎ ల్
  ನ
యా త్ర
 పో ష
ా డని
 అ ల్
 ఆ హ్వా
 ఎ వరు
 ది గు
హ్ లీ
ార్ గ
 సం ప్రద
ంట ాయి
 వచ్చ ారు
 ఫ్యా న్స్
  A
 ప్ర ె
బ్ర వరి
ట్ట ిన
ಂ ದ
 వా ళ్లు
 అయ్య ింది
 సంగ తి
హ ార్
  ఔ
జ రా
 క ీ
 ఈ డీ
 ఆఫీ సర్
 ఆస్ప త్రి
 మహిళ లు
 మ ంగళవారం
 గ ర్
 సంవత్స రం
ాయి ంట్
 ద ారు
 అయ ినా
 ఇ క
 బీ ఆర్
వ్ వు
00 0
ద ర
 వ డ్
వి ట్
 అవు తుంది
ాల ామ
లి కి
ష ీ
 మ ంజ
ాల ంటూ
 సీ పీ
తు ండ
 కు మారు
గ్ స్
3 5
 ఇ ంగ్
 ను ంచే
జీ వి
ప డే
 స ృష్ట
 గు రువారం
 ష ూ
ఇ లాంటి
క్ష లు
జు న్
 సర్ కార్
 వెళ్ల ిన
 ఎన్ టీఆర్
ప్పుడ ూ
న ంలో
్య ో
 వ్యతిరే కంగా
 సమ ు
 తి రుగు
 గవర్ నర్
ద ైనా
 చ ౌ
 చ ార్
 పరిధి లో
ెడ ్యూ
ఆ ంధ్రప్రదేశ్
 వ ేశారు
 తల్లి దండ్ర
ద రు
 కామెంట్ స్
 లో కేష్
 ఎమ్మెల్యే లు
 అత్య ధిక
ాలామ ంది
ట్ నం
 బా గు
 కావ డం
 సంఘ టన
స ర్లు
హ ో
ౌ స్
ిక ేషన్
 వాయి దా
ట ్యూ
 తరల ించారు
ొ క్క
 ప్ర దర్శ
 ని రు
 ప్రశ్ న
ا ئ
 సాధ ారణ
పడు తుంది
 రు ణ
వర ం
 దు ర్
జ గన్
స్ టా
టీ డీపీ
 చె ప్
 మొ త్త
 ది శ
8 0
 శ ్రే
ఎం సీ
త ్యా
 కా న్
 గు ండె
 అర్థ ం
ప ్యూటీ
 క ్యూ
తున్న ట్లు
 జిల్లా లోని
 ప్రారంభ ం
మా ని
య్య ి
ెక్ స్
 కమి షనర్
ಾ ರ
 మ నం
 సీ ఐ
య్య ే
 చూ సిన
హా న్ని
 వి శ్
 ట్ర ై
 సీ టు
దా వరి
 పరిశ ోధ
t h
ల ూ
న్న ది
ించుకు న్నారు
కర ించ
 అంద రూ
 జాబిత ా
 అ ప్ర
న్న ే
 రా మ్
 అ వి
 అ ంబ
 భ విష్య
 రై తులకు
ర వే
 వా డ
కి ల్
శ్ చ
ی ک
ార్ డ్
మ హిళ
వా ళ్లు
 ఒ ప్ప
ఎస్ సీ
న్ మ
ర్ చి
 చె ంద
 ప్రయత్ నాలు
డ ెన్
ర లోనే
 స ాయం
ల్ లే
ాయ ు
ల్ల ం
 చూ పి
 సూర్ య
 క ్వ
 బ ే
స్త ానని
 ఏ ప్రిల్
 పరి మి
 తీసుకు ని
 నియోజకవర్ గం
 యూనివర్ సిటీ
 హ ్యా
 పి లుపు
 చేపట్ట ారు
 తిరు పతి
 పాకి స్తాన్
బ ెట్
 ప్ర ీ
 వే ళ
 నాయ ుడు
వచ్చ ే
 స ెల్
 లక్ష లు
 రూపొ ందించ
ని ఖీ
జరా త్
  ಕ
‌ లను
 న ష్టం
స్తు త
ాలి టీ
ించుకు న్న
 ఆదేశ ాలు
 పె రిగి
స్ట్ర ీ
స్వా మ
 ఖా ళీ
ె యిన్
ందు కంటే
 రో హిత్
 సె క్ర
 విద్యార్థ ులు
త్ర ం
 మంత్ర ులు
 స్వా ధీ
 కార్యకర్ తలు
 ఎ క్కడ
 ఓ ట్లు
 ఉ ంటారు
 గౌ డ్
 ని ద్ర
 జన వరి
 వ్యాప ార
ట ై
 మ ద్యం
 ఇ ష్ట
గ్ గా
 తన ను
 వ సూ
 ఏ డు
 చేసుకు ంది
 ట్రా ఫిక్
న ాలను
పు న
మి ండియా
 అ గ్ర
పో యే
 సు మారు
ు డి
కాల ం
 బంధ ు
క లు
 వా ళ్ల
 మి గి
 నిపుణ ులు
ార్గ ెట్
త ర్వాత
 ఎ క్క
 ము ందే
స్థ ాయి
 బు ధవారం
 ఉత్త ర్
త్త ా
 హా స్పి
 ఓ టమి
 కె ప్టెన్
 బ్యాం కు
 సర ైన
 స్కూ ల్
 ఎవర ూ
 న ర్
ధ ుల
సీ బీ
 తీసుకు ంట
వారి ని
e r
 పెంచ ు
 విజయ వాడ
 దాడు లు
వ ెల్
 పే ద
మీ ర్
 పరుగు ల
 ఆద ాయం
 సార్ లు
గ తా
ప న
ని ఫ
 ని ధులు
 ము ంబై
 కొనసా గ
చ ాలా
 భ ు
 కూ తు
 తే డా
 జ డ్
 కొ డుకు
ము లు
మొ త్తం
 నిర్వహ ణ
 తిరు మల
 పండు గ
 స్వాధీ నం
 ఆ స్ట్రేలియా
 బాధ్య తలు
 ప్రాధా న్య
 భ ో
 నియోజకవర్ గంలో
 నిర్మా ణ
  ధా
 స ల
 స ారి
 ల బ్
 అధ ి
 పు న
 సంఖ్య లో
 కి షన్
 సంతో ష
ನ್ನ ು
o n
ంగ ం
ష్ణ ో
అ నే
ధ ారణ
 ర కాల
కర్ స్
 నీ ళ్లు
 చిత్ర ం
 అదుపు లోకి
ధ ర్
హ ాలు
 టీ మ్
 అంతర్ జాతీయ
 మ ంట
 త నిఖీ
 ఏ మి
 నే షనల్
 ఒక రు
 గి రి
జ ్రీ
 వే సిన
 పె రగ
కర మైన
 ఆహ ార
 ప్ర స్తా
 ఉ ండి
 స్ కో
 ఖా తా
 మున్సిప ల్
రు ష
 లో ప
చే సుకు
 పథ కం
ద ర్
న ాయ
 ట ార్గెట్
 స ాయి
 శి క్ష
 చో ట్ల
 పిల్ల లు
మ ారెడ్డి
ರ ು
 డి సెంబర్
 అభిమాను లు
శ్చి మ
ఘ ా
 ఉన్న ారని
ఘ ు
ప వన్
 మ ధ్యాహ్నం
 అ దన
 స ినీ
డి తే
కొ ందరు
 నిర్మా ణం
 కౌ న్సి
 చెప్పు కొచ్చ
కు ంటున్న
 స్ కా
 వె ళ
 యా ప్
  యో
ించ గా
 రా శ
 ఈ సారి
జ్రీ వాల్
 సా ం
 విజ య్
  ఢ
ی و
యే షన్
మా బాద్
 రి జి
 కుటుంబ ం
 విని పి
 స్పందించ ారు
 అంగ ీ
  S
యా న్
ృత దే
వ ార్
క్ సెస్
 త గ్గు
ంట ్ర
 కో రుకు
జ్ జ
సే ందుకు
 రాష్ట్ర ం
 డి ప్యూటీ
న్యూ ఢిల్లీ
అ మెరికా
రం జీవి
 రావ డంతో
 విద్యార్థ ి
 అప్ప గ
 జ ె
 లే ద
 దేశ ం
 డి గ్రీ
 ప్రజ లను
ట ె
ంచ రీ
 చె య్య
 గు డ్
 ష ెడ్యూ
 తది తరులు
ది లీ
 కాల ం
 అభ్యర్థ ులు
 సంద ర్శ
 నోటీ సులు
చ్చ ితంగా
త్మ క
 న ంబర్
టీ డీ
వి జ
 సు ర
ళ్లు గా
 పెరి గింది
 అవినీ తి
 గ డు
 కో హ్లీ
 ప్రా ణ
 రాష్ట్ర ాల
 అర్ హ
 రిజర్ వేషన్
క ంప
 ఆట గా
s h
స్ క్
చ్ ఛ
 అస లు
19 9
 ప్రమా ణ
 ఉద్య మ
న ెల
 ఇ న్ని
 బ్యా టింగ్
 చు ట్ట
  ಪ
 ఫ ే
 స్పె షల్
ద ైన
స్ లిం
 ప్ర శా
వై సీపీ
 అంత ా
చ ేశారు
లో నూ
 ని వ
 ల భి
 హ ెల్
 ట ెస్టు
 నేత ల
 చేసు కో
శే ఖర్
  ر
  କ
ఇ ంత
ళ ిక
 నా టికి
 డె వల
 త గిన
 లక్ష ్యంగా
మూ డు
 పర్య ట
‌ కి
 సంబంధ ం
 దూ రంగా
 ఉత్త ర
ప్రభు త్వ
 ఫలిత ాలు
ప ద
್ ರ
 అ క్టోబర్
 ప్ర తీ
 రాజ ధాని
 మె గా
ర ళ
ను మ
 వి భ
తా న్ని
 ఉండ టంతో
ెన్ షన్
 చేపట్ట ిన
వ సర
 ఇ వాళ
 గు రి
ూ రి
లా ది
సి యా
 బ్ లాక్
 ప్రైవే ట్
 కొ ండ
 వి రా
 వెళ్ల ారు
 మంజ ూరు
రా శి
 కా ంట
 అవ గా
 వార్ త
ఇ క్కడ
ఠ ిన
ల ె
 క ్యార
! !

 న ెట్
 అ ందులో
 న లుగు
 ని జా
 వికెట్ లు
9 0
‌ మ
 మ ల్ల
సి ంహ
 మన ో
ని మి
 జరుగు తోంది
లా లు
 పార్ల మె
హ ారం
ెట్ ల
 లో కి
 ము ంద
 పరిశ ్రమ
 ఫు డ్
ఎ ందుకంటే
 పే పర్
 సె ప్టెంబర్
 నెల లో
 ک و
దీ ప్
 సౌ కర్
య ిత
 వి మాన
 ద ిన
 ఏ జ
ంపు లు
 కనిపి స్తోంది
ల్ యూ
 వి డి
 ఎన్నిక లకు
 సె ంచరీ
 ఆర్ టీసీ
 గ్రామ ంలో
 ప ట్టుకు
 నిర్ మి
ತ್ ತ
 వ ారం
 గ ూ
 ష ి
కాల ంలో
 కళ ా
బ రు
కి ంద్రా
యో ధ్య
 మే నే
 సంస్థ లు
 గొ ప్ప
 పాఠ శాల
న ారాయణ
 మ ౌ
 ఓ డ
 హె చ్
 ఒత్తి డి
అ న్ని
ఉ త్త
న ై
య ినా
 మ ైన
 చేయ డంతో
దా ంతో
 జరుగు తుంది
బ ే
⁬ లో
 బ దిలీ
వే ళ
 పొ డి
కింద్రా బాద్
ల క్ష్
ార ంటూ
 ప ర
టి కల్
వి ంద్
పా డు
 ఏపీ లో
 వ్యవహ ార
 చట్ట ం
న్ సర్
 ర ెస్
 ర క్షణ
 జ ర్
 ఆగ స్టు
జా బ్
ాయ ా
 చెప్ప ి
.. !

 కలి పి
 అధికారు లకు
 కె మె
బె ంగళూరు
ర త్
 ప డ్డ
 ప ర్యా
 రా జే
ిల్ స్
 హీరో యిన్
 డ్రై వర్
 ఫ ార్
 చేయ నున్నారు
 రై తుల
లం క
 అమ్మ ాయి
జె పి
ఇ ం
 సిద్ధ ం
ಾ ಗ
 క ఠిన
 చె క్
 శా స్త్ర
 హో ం
ఫ్ర ికా
 అవగా హన
  C
  ಹ
 అధికారు ల
 సర ఫ
పోయా డు
 వే సింది
 శా ంతి
 అధికారు లను
డ ర్లు
రా న్
 ఏ క
 చూ పు
 ఖ మ్మం
ర్చ ుకు
త ారని
 ఆ వి
 చె న్నై
ెం డా
 మె ద
 మెడి కల్
ిక ె
 వే లు
ించా ల్సి
 నామ ినేషన్
బ ల్
య ాలని
మి లీ
 జరి ప
 ధ ్వ
 అర్ జున్
 థ ి
క స్
 ఇ రు
 ట ెస్ట్
 రే పు
కా ంత్
 ప్రయత్ నించ
హ ించ
 చ ాలామంది
 డ ాల
 మో సం
 ప్రకట ించిన
ష్ణో గ్ర
బ ద్ధ
ర ని
 అ గ్
 సు రే
 పక్క న
 ర ంగా
 పరిస్థి తులు
ర క
ు లతో
 న వంబర్
టి క్
కా న్ని
 ము ఖ
 నే రుగా
 చేస్తున్న ట్లు
 پ ر
క త్వం
ము ల
 జన రల్
 వ్యవ సాయ
స్టి స్
వంత ంగా
 లక్ష్ మీ
టిఫ ికేషన్
ంగ్లా దేశ్
 సము ద్ర
య ాల
 గా లి
 తర ఫు
 పరిధి లోని
 హెచ్చ రించారు
 ప్రె సిడెంట్
త ాలు
 ర ఘు
 న ారాయణ
  P
స్ వ
 కో రి
అ లాంటి
‌ ఫ
డు తున్నారు
ాయ తీ
 జ ు
 వి జ్ఞ
 కా గా
రో నా
ప్పు డే
కర్ ణాటక
 రోజు లుగా
 పు ష్
 న్య ాయం
 కేట ాయి
చ్చ ిన
వీ టి
 ధ ీ
పెట్ టి
 వస్తు ందని
కార ్య
 త ్రి
లి స్తే
 చె ల్లి
వే దన
 ఉండ టం
 పడి ంది
 ఎత్తు న
ని క్
 ద ళ
వి డ్
 తీసుకె ళ్ల
 వ్యాఖ్యా నించారు
 అ కౌ
 ఉ మ్మడి
 పా ద
 చేసుకు ని
 ఆశ ్ర
చ ిన
ఎస్ పీ
 రోజు న
 లీ డర్
 గొ డవ
 ప్రభుత్వా న్ని
 అప్ర మ
ఉ ద్యో
క ాలను
 చ క్క
 కు ల
లే కపో
 ప్రత్యే కంగా
 మర ొక
 దక్షి ణ
ఎ మ్మెల్
ని ర్
మా లు
తో పాటు
వి ని
 చేసిన ా
్యో తి
గ డ్డ
కొ ంత
 అయ్య ాయి
 దొ ంగ
కూడ దు
 కా స్త
ెస్ టో
 కావ ాలని
ର େ
 ప వర్
 స ార
 ఫ స్ట్
ప్పు న
దా న్ని
 వి శే
 సా ధ్య
 మె రుగు
 భావి స్తున్నారు
 భద్ర త
ప్రభు త్వం
 కిలోమీ టర్ల
 కనీ సం
 ఢ ీ
 ప డే
 మ ందు
మా స్
 మీ టింగ్
 పెట్ట ిన
 షెడ్యూ ల్
 ర ష్యా
వు లను
ెట్ లు
 సి నిమ
 ا س
7 5
 అ ల్లు
 ఆ య
 జ నా
 సంవత్స రాల
 డే టా
జ ేశారు
ంద న్న
 చేయ గా
త్వ ంలో
ప ిల్ల
 వి ప
 కా ని
చి న్న
 తీసుకు ంది
 సె క్షన్
 అధ్యక్ష ు
 నగ ర
 బ ూ
 అత ను
మో హన్
 మో హన్
నాల జీ
 చొ ప్పున
 నిబంధ న
ఉ ద
 మ ృతదే
టీ వ
 ల ను
 సం పాద
 స్థా నాల్లో
 ప్రాజెక్ ట్
 సరఫ రా
దు గా
ర్య ాల
 నెలకొ ంది
 వేగ ంగా
 ఉత్ప త్తి
జిల్ లా
ی ڈ
వా న్
 కే జ్రీవాల్
పడు తున్న
అ మ
ంద న
స్తున్న ాడు
ించి ందని
విట్ టర్
నిఫ ెస్టో
 అ ట
స్తున్న ామని
హ్మ ద్
డా న్ని
 స్ క
 కు ట్ర
జి ట్
 కార్యక్రమ ం
 అన ారో
‌‌‌‌‌‌‌‌‌‌‌‌‌‌‌‌‌‌‌‌‌‌‌‌‌‌‌‌‌‌‌‌‌‌‌‌‌‌‌‌‌‌‌‌‌‌‌‌‌‌‌‌‌‌‌‌‌‌‌‌‌‌‌‌‌‌‌‌‌‌‌‌‌‌‌‌‌‌‌‌‌‌‌‌‌‌‌‌‌‌‌‌‌‌‌‌‌‌‌‌‌‌‌‌‌‌‌‌‌‌‌‌‌‌‌‌‌‌‌‌‌‌‌‌‌‌‌‌‌‌‌‌‌‌‌‌‌‌‌‌‌‌‌‌‌‌‌‌‌‌‌‌‌‌‌‌‌‌‌‌‌‌‌‌‌‌‌‌‌‌‌‌‌‌‌‌‌‌‌‌‌‌‌‌‌‌‌‌‌‌‌‌‌‌‌‌‌‌‌‌‌‌‌‌‌‌‌‌‌‌‌‌‌‌‌‌‌‌‌‌‌‌‌‌‌‌‌‌‌‌‌‌‌‌‌‌‌‌‌‌‌‌‌‌‌‌‌‌‌‌‌‌‌‌‌‌ ‌‌‌‌‌‌‌‌‌‌‌‌‌‌‌‌‌‌‌‌‌‌‌‌‌‌‌‌‌‌‌‌‌‌‌‌‌‌‌‌‌‌‌‌‌‌‌‌‌‌‌‌‌‌‌‌‌‌‌‌‌‌‌‌‌‌‌‌‌‌‌‌‌‌‌‌‌‌‌‌‌‌‌‌‌‌‌‌‌‌‌‌‌‌‌‌‌‌‌‌‌‌‌‌‌‌‌‌‌‌‌‌‌‌‌‌‌‌‌‌‌‌‌‌‌‌‌‌‌‌‌‌‌‌‌‌‌‌‌‌‌‌‌‌‌‌‌‌‌‌‌‌‌‌‌‌‌‌‌‌‌‌‌‌‌‌‌‌‌‌‌‌‌‌‌‌‌‌‌‌‌‌‌‌‌‌‌‌‌‌‌‌‌‌‌‌‌‌‌‌‌‌‌‌‌‌‌‌‌‌‌‌‌‌‌‌‌‌‌‌‌‌‌‌‌‌‌‌‌‌‌‌‌‌‌‌‌‌‌‌‌‌‌‌‌‌‌‌‌‌‌‌‌‌‌‌
డ ల్
 అ ప్పటి
 ఆ ల్
యే టర్
 కార్యకర్ త
ని జా
 గ ్యార
లా నికి
మయ్య ారు
 ప్రొ ఫె
గ్రా మ్
గ లి
మా జీ
 బయ లు
స్థా నం
 విలువ ైన
ప ెన్
 న టు
 ఎ ఫ్
వా ణా
స్త ాం
పా టి
 ఉ ష్ణోగ్ర
 ఎ న్ని
జూ న్
ఒ క్క
మ ైనా
 పరి చ
 వీ రి
మీ రు
ించే లా
 దేశ ాల
అ ంటే
క ్య
బ ిన
 న ారా
ప్ ల
 వె ంట
 సంచ లన
 నిరు ద్యో
బ ైల్
 క న్న
 న ర
 ఎ ంట
 భ ి
స్త ీ
 మే కర్స్
 భా ష
 అవసర మైన
బ ్యా
ల ైన
ల్ల ె
 రాజ ్యా
 స్ప ంది
 ఘ న
 మహ ారాష్ట్ర
 వార్ తలు
ట్రి క్
್ ದ
‌ న్
 ఆ యా
 ఆ టో
బ్ లిక్
 వ్యక్ తులు
బో తున్న
రాజ కీ
 తర హా
 గె లుపు
ళ ా
ెక్ కి
 కల్ పి
 ప్రయా ణ
 అభ ిన
 మీడియా తో
 వివే క్
గ ితే
న లి
పి ంగ్
 అయ్య ే
 సమస్య లను
 బయలు దే
 ర క్త
 ఆ వేదన
 చర్చ లు
) 

ಕ ್
ెల్ లి
 స్ట ూడ
 యా క్
బిన ెట్
గు రు
కర ంగా
 చి రంజీవి
 సు నీ
డ ్ర
ద ార్
 వ న
 లే దన్నారు
 న్యాయ వా
బ డిన
భ ారీ
ರ ್
 ప్ర సాద్
 టా ప్
స మా
ಸ ್
 బ ్రే
 స్ కీ
 ఈ రోజు
వర ణం
్యూ ని
 ఇండి యన్
మొద టి
 డెవల ప్
మ నం
ీ స్
ట్ లే
డి యం
 ని షే
 నాయ కుడు
 స్నే హి
ం సం
ధ ం
 ర మ
 ఆల య
 పూజ లు
a m
ించ లేదు
రీ ర్
తా నికి
3 3
ప ట్నం
 హ యా
రు ద్ధ
 సూ చి
 టి క్క
 దిశ గా
ాయ న్నారు
 ఫ ర్
 వర్ గాలు
 క్ర ికె
 ک ر
ంట్ర ల్
జు న
 ఎస్ పీ
 ఉ త్స
 జ న్మ
 ఎ కర
 కా నుంది
 రె డీ
 సాధ ించిన
 రంగ ు
 వన్ డే
 హాస్పి టల్
  ర్యా
ప ాయ
 స మ్మ
 స క్సెస్
 బ రువు
 ఉ ందన్నారు
 పా త
 వెళ్ లా
రావ తి
 హరీ శ్
 ఇన్ని ంగ్స్
ం జ్
య ని
ا ل
జ ిన
 వే ధి
 సీ ట్ల
 అందుబాటు లోకి
ర్ ఘ
 ఖ ాయ
 నాయ కు
 ఆరోగ ్యం
 ఆ నంద
 గ ెల
 ము స్లిం
దా దాపు
 పరి ణ
 నె రవే
వె ంటనే
 చుట్ట ూ
 ఎ ప్పుడూ
 స్ ట్ర
 వీ ర
 నో టిఫికేషన్
 నియోజకవర్ గ
 వ్యవహ ర
‌ రి
 మ ధు
తు ండగా
 న ొ
రు లు
ప్ర మా
 టీ మిండియా
శా బ్
 ఇవ్వ డం
 వివర ాలను
 ర క్ష
 ప్ర ణా
పోయ ినా
 అంద రి
ేశ్వ ర్
 స్పీ కర్
కు ంట
 జ స్టిస్
దా నీ
 ర వాణా
 జ ర
కా బట్టి
 ఏ దైనా
ష్ట ా
 ఫి బ్రవరి
స్తో న్న
 పిలుపు ని
ప టి
మ న్నారు
 బ రి
 ఫ ైర్
 రి ట
 కొత్త గా
 నియ ంత్ర
గూడ ెం
 అనుకూల ంగా
  ସ
వ డం
 సంబంధ ిత
 బి డ్డ
 కొనసా గి
ినే ని
 భర్ తీ
 స్థాని కులు
  ?

గా న్ని
ష్ ణు
 సినిమా లు
 కోర్టు లో
ల్ ప
 షూ టింగ్
చ ో
 క ను
రు ల
 భ వ
 పు రుష
 తెలియ జే
 క లుగు
ార్ జ్
 దూ రం
 విచారణ కు
పార్ ట్
 స్టే ట్
ె త్త
 నా టి
 ధ ర్మ
 ముఖ్య మైన
 కాంట ్రా
 స చి
 ట ోర్
 పార్టీ ని
 పట్ట ించుకో
 ఫైన ల్
క లా
 చే రారు
 సా ను
 దీ న్ని
 తీసుకోవ డం
 కార్పొ రేషన్
మ ణి
ె ర
సి క
పా దన
 కాల నీ
 నిలిచ ింది
ో సి
 తె ల్ల
నీ య
సా ధారణ
 చూ పించ
 టీ టీడీ
 సర్ కారు
 పెద్ద గా
సో మవారం
పర మైన
 సమాధా నం
‌ గ
సు ల
నా కు
 ఒ క్కో
 అవు తోంది
 అంద రికీ
 స్థా నం
 పోలీసు ల
 ప క్ష
వా ద
 కా క
 చి రు
 రాజ ్య
మ ంగళవారం
 చె ల
పా న్
 ప్రా ణాలు
 ఇండ స్ట్రీ
స ూర్
 ప్రభా కర్
పడు తున్నారు
 తయ ారీ
ళ్ళ ు
 ప్రాధాన్య త
హ ద్దు
వా న్ని
దే వి
 ఆమె ను
ేశ్వ రం
ఖ ్
చ ల్
చ ారాన్ని
ల్లో నే
 నె టి
 జనా భా
ఇ ండియా
ఈ రోజు
ా క
ర్ ణ
 ట ే
 శా సన
వ ంత్
 చ ంప
 స న్ని
 గ డి
క్క లు
పి క్
 బీజేపీ కి
  ل
చ యిత
 ప్ర ెస్
్యా నికి
 చూ స్తే
 పరీక్ష లు
 టెక్ నాలజీ
జ ై
య స్
ంద రూ
 మ ిన
 ఎ టువంటి
 ఎ లక్
కే జీ
ం ఛ
 జ ల
 ఎ ర్ర
శ్ మీర్
 కల్ ప
ెక్ట రేట్
ವ ು
యే ట్
 మే ం
 ఎన్ డీ
 సమీప ంలో
అ ప్పటి
శ ో
 స వాల్
 ఇ స్తామని
రా న్ని
 వే సుకు
 డ ్రా
 క్ లి
 డీ కే
 దర్శ కుడు
ట ిన
స మ
 హ ౌస్
 నగ దు
శు క్రవారం
 మొదల ైంది
ఆది వారం
ంద రి
 ని యా
సి నిమా
 ప ద్
చ్చ ే
 గు జరాత్
 ک ا
 ఆఫీ స్
 చేరి న
ీ య
ాల న్న
 అధిక ారం
ెంట్ స్
 బౌ లింగ్
 ప్రణా ళిక
  ପ
  ಬ
  ""
ఆ గ
 భ వన్
 చె రువు
పో ర్ట్
 ఛ ా
 మ ్యూ
 ఏ కంగా
త్య ం
 బౌ లర్
 ఎంట ్రీ
జ ో
ల ర్లు
స మే
 హ ార్
 ట ో
 నేత ృ
 బాల ిక
 ప శ్చిమ
డి పి
మా ఫీ
 డ ్యా
షన్ స్
 నా ని
జి క్
 అవు తున్న
 నియోజకవర్ గాల్లో
 హి ట్
 అంచ నాలు
 సమీ క్ష
తొ లి
అ వ
 చిత ్రా
 చెప్పుకొచ్చ ారు
ృ హ
 ట ౌన్
 పరిణ ామ
  क
డ ె
ప ణ
‌ ఎస్
 ప ండ
ంత ర
 జ ంట
 ని లు
రా మయ్య
 శ ంకర్
 మహిళ ల
 సిద్ధ ంగా
 చోటు చేసుకు
 తరఫు న
 గ మ
లే ద
కర ించిన
ణా న్ని
 అవకాశ ము
 గెలిచ ిన
 ఉపా ధ్య
 కుమారు డు
  B
మ ార
್ ಯ
 ప్ర శ
 చి క్కు
 మె ట్రో
జి ంగ్
 పు స్త
 ది గారు
 పట్ట ణ
 హెచ్చ రిక
 పరిశీల ించారు
ర ాలి
ార న్న
 అ ద
 అ లీ
 చే తిలో
 ఆ కర్
 గ ల
 గ డ్
 వా టర్
 హో దా
 ఉద్యోగు లు
ಿ ಸ
ంద ాం
 కొనసాగు తోంది
 నిలి చి
 వయ సు
 బరి లోకి
హ ార
 చె ందు
 దా న్ని
 క్ లా
 విషయం పై
అధిక ార
 క ట్టు
 భ ీ
దీ న్ని
 నిర్ లక్ష
 ఫ్యా మిలీ
 జరిగి ందని
 సెక్ర టరీ
వ రీ
 న ల్ల
 ని నా
పై గా
 మీ దుగా
కోవ చ్చు
 బి జెపి
 ప్రయా ణం
గ ౌ
మ ిన
3 6
గా లను
క్క ల
 పార్లమె ంటు
 నియా మ
ಗ ೆ
 వ ల
 అ ండగా
 గ ట్టి
గు ల
 పరి గణ
 రెడ్డి కి
 అయ ్యా
 س ے
 ن ے
ే డ్
 క రీంనగర్
 అ లాంటి
ర్య ాలీ
దారు ల
 హయా ంలో
ద ారి
శ నివారం
ని కే
ర్ చ్
 స న్
 స్ట ో
 కలి గ
 గో దావరి
 ఆఫీ సర్లు
అంత కు
ంటో ంది
 దీని పై
4 8
 క ్రా
 వ స
క్ కా
 న ది
 ము ని
 చేశ ామని
క్ర ా
 బల ంగా
 క్ల ారిటీ
న గ
ీ ట్
 మ ల్
 కొ ట్టి
 జీ వ
 బ్యా క్
 పరిస్థి తుల్లో
 హీరో గా
ప్ర ధా
 కంపెనీ లు
 ప్రి యా
మ ర
 ఘటన లో
 చూడ ాలి
3 00
లా బాద్
పో టు
 వైద్య ులు
 వ ల్లే
రి టీ
ద్ ధా
ప్ర జా
యో గి
 సా ధి
 నిర్వహ ించ
వె న్యూ
 వరుస గా
 ఐ పీఎల్
పెట్ట ారు
 నలుగు రు
5 5
e l
ం బు
డ ్రా
 వ స్తున్నాయి
 ఆ రా
 ఇ ందులో
 ఓ పెన్
 ఉండ దు
 ఉద్యో గం
 ప్రచార ంలో
ార ామ
 ప ద్ధ
ంటూ రు
 లక్ష ్య
 నిర్ణ యాలు
 ఆడి యన్స్
ాయ ో
 ఘ ో
 జీవిత ంలో
 గ్రామా నికి
అంతేకా దు
  ಎ
బ ్రి
గు ణంగా
 చేరుకు న్న
 డ్ర గ్స్
 కార్యక్రమా లు
 వసూ లు
a t
ಿ ಕ
 ఆ యు
వి జన్
 సె క
 మహ బూ
 పద ార్థ
 జరగ నుంది
 తొల గి
: 

ఖ ండ్
 వ ంశ
క్ టరీ
 ఆ న
ిక ంగా
 కా బట్టి
 ఉన్న ప్పుడు
 వర్ గాల
 మహిళ లకు
 వద్ద కు
 పెట్టు బడు
మ ్రా
ల ెట్
ೆ ಯ
 ర ద్దీ
 ఎ ప్పటి
 ద ంప
పో తున్న
ప్ర ధాని
 ట్ర ంప్
 ర వీ
 ప్ర మో
రి సి
 జ నం
 లీ డర్లు
 అల వా
 కోట్ లకు
 హింద ూ
క్ర ెయిన్
స్ట ార్
 పంచ ాయతీ
 ఉపా ధి
  M
e n
‌ లైన్
 బ హు
తూ నే
 టా క్
త ామని
ే జీ
 అ న్
 అను చ
 మి షన్
క్రమ ంలో
 వ్యవహ రి
 ప్రొఫె సర్
  ಅ
మ ంచి
ంద ీ
 చే ర్చ
 ఆ స్
 ఎ డ
ఒక వేళ
 ట్ విట్టర్
 ఆప రేషన్
 లబ్ ధి
 మొ బైల్
 వాతా వరణం
 ఫు ల్
ద రి
మ టి
ర్ లను
 మ త
 ఓ ట్ల
 కేంద్ర ంలో
 హా ట్
 మంచి ది
 ప్రొ డ
 తది తర
 న ాడు
రా మ్
ళ్ లే
త్త ంగా
ుకు న్న
 వారి లో
 నీ టిని
 వచ్చి ందని
 తమిళ నాడు
ట ెస్ట్
ంత రం
నే షనల్
ించిన ా
 ఖ రారు
 ప్రశ్ నించ
ା ର
కు టు
 బ ట్టి
 ఈ సీ
 రెడ్డి ని
 ప్రమాద ంలో
 ఆశ్ర య
ఎమ్మెల్ యే
గ ంట
సి స్ట
 ఏ ఐ
 డ బుల్
 టీ చర్
 తా జా
 మాట్లా డిన
 అధ్య య
జర్ స్
 ఆహ ారం
ం ట్ల
రే ణి
 వివా దం
ఉద యం
ఈ సారి
మ తి
న్న ం
 వర్ మ
 సె ంట్రల్
 వెం డి
ద్ది పేట
ఢ ్
బ డ
ొ ద్దని
రి ట
 భ ట్టి
 పె న్
 మంది ని
 మే ర
 విధా నం
 పాద యాత్ర
స ాయి
 అ లర్
 కో చ్
 ఫ ె
లే టి
 లే వు
 గ్ర హ
 పోరా టం
ంపే ట
ీ త
 ర జ
 బ స్
ట్టు గా
 ఆమె కు
 తప్ప ని
 ట్రా న్స్
 చేయా ల్సి
య డం
ని న్న
 ద ృ
ాయి తీ
లే దన్నారు
వీ ణ్
 జరి గాయి
19 8
 బై క్
 బృ ందం
  ర్యాలీ
క ాయ
ట ప్పుడు
 క దా
రి త
 ఎ నిమి
 శ ్ర
 తే లింది
 దీ నికి
 ఎస్ సీ
అస లు
స్క ృతి
విజ య
 థి యేటర్
ట ెక్
ఫ ల
ఫ ోన్
ల భ
వ ారా
స ొ
ంద రికీ
 సో దరు
 అస ోసి
 లి క్కర్
రె న్స్
 రాశ ుల
న కు
 మ ను
తో నే
 రా క
ద్ద ె
ుల ై
ుల ర్
 అభ్య ర్
 అంద జే
 త్వ రగా
 విజ్ఞ ప్తి
 అను భ
 గౌ ర
 తెలుగు దేశం
 అభ్యర్థి గా
 ధీ మా
వ ిక
 ఎ ండ
 ఆరో పి
 ఎదు ర
 గెలి చి
మూర్ తి
‌ ప్ర
గా లకు
 ద ్ర
 ద శాబ్
 రా శారు
లే రు
 ది గ
 సాధ ించింది
ించు కోవడం
 దర్శ నం
 కమ ్యూని
  I
و ں
స ్రో
ంట ా
సు పు
 పా స్
పా కి
స్తున్న ా
 తర గతి
 ఉద్యో గాలు
 ఉండే ది
ను ంచి
 బ ంతు
మా నాలు
 పో స్టర్
 చెప్ప ాడు
వీ రి
 య జ
 సినిమా కు
 తొ మ్మి
 కె రీర్
 కౌ ంటర్
 హాజర య్యారు
9 9
స్ కర్
లో క్
రా ం
 ఏ రియా
కె క్క
15 0
3 4
ప ాలు
 మా కు
 మీ కు
 తీసుకు నే
 తక్కువ గా
తు లతో
 ఎ ప్పుడు
 గ ్రీన్
మి తి
బు ధవారం
 సరి హద్దు
 సేవ లు
య్యా డు
ే జ్
ಗ ಳ
ని ంది
స్తు ండ
గు రువారం
 హ ర్
 ఒ డి
 చేసి ందని
 దాని పై
 జీవి తం
చ ా
చ ీ
మ ధ్య
వ తి
 వ ంట
కు న్నా
 న ార్
చ్చ ింది
 సీ సీ
 దేశ వ్యాప్తంగా
వై ఎస్
పోవ డంతో
ముఖ్య మంత్రి
ల క
 ప న్ను
సు క
వా టి
నే త
 ఈ వ
స్ట ల్
 కంట ్రో
 కుటుంబా నికి
 రాలే దు
క ూర్
ర క్షణ
పో తుంది
 రాజకీ యాలు
 గ్రామ ుల
 వీడియో ను
 పర్య వే
రె ండో
 పిల్ల ల
 కార్యాల యంలో
క్యూ రిటీ
అ క్టోబర్
సి న్
 ఏ దో
 అధికార ంలో
 ఇప్పటి వరకు
 అలా గే
పోలీ సులు
 సుర క్ష
 బ్రే క్
ంగా నే
స్తు ంటారు
 అభ్యర్థ ుల
కూడ దని
 చెల రే
  ش
ంద ంటూ
 తీసుకు రావ
 ప్రేక్ష కుల
 పెం డింగ్
 అదన పు
a d
వి శాఖ
 రూ మ్
స్ట్ర ేషన్
 నిర్మ ించిన
అ ప్పుడు
ప డ్డా
పి యన్
మే ష్
 వెళ్ తున్న
సె ప్టెంబర్
ନ ୍
 అ ప
 రాష్ట్ర ంలోని
మార్ ట్
 యా జ
 రుణ మాఫీ
ధ ార
న్న ర
 ఫ ్రీ
 అందించ ారు
 ప్రశ ంస
అ యినా
బ న్
 వ స్తోంది
ంద ర
 ఎ గు
 ని ల్
నే డు
 మే నిఫెస్టో
 ప్రాంత ాల
 మి లియన్
మానా శ్ర
 ప్రస్తా వ
త గా
‌ వ
 ప ండి
 ప్ర వర్
ూర్ పు
 పరిశ ీ
 ఢిల్లీ లో
హ ర్
 ఇ ప్పటికీ
కే వలం
 ప్రతి పాదన
 తర పున
 బు క్
 వ్యవహ ారం
 దే వు
 నట ించిన
 ఉత్తర్ వులు
 వ హ
 స స్ప
దు రు
 ఫ ్రా
 అను గుణంగా
 మో స
వచ్చ ని
 పరిష్ కర
  T
గ డ
త నం
లి జ
ందు న
పు ల
 కో సమే
 కూ ర్చు
 కే రళ
 ధ ో
 పు ట్టిన
 శ్రీ వారి
 పాల్గొ న
ంటున్న ారని
దారు లకు
మవు తుంది
 వెళ ు
కుటు ంబ
ا م
 తీ సి
ిత ్యాల
 కుమార్ తె
 జో న్
అస ెంబ్లీ
 బీబీసీ తో
 ఆమో దం
 విశ్ లే
ا ت
ూ న్
‌ లలో
ంగా ల్
సీ మ
 కు ప్ప
రో సా
 కల క
 పెట్టు బడి
 కనిపి స్తుంది
  ಆ
3 2
న వంబర్
 కార్య కలా
గొ ట్ట
 నాయ క్
ృష్ ణా
  #
r i
ی ن
୍ ର
పీ ఎస్
 చేయ కుండా
 వై స్
 ది గిన
 పి లు
 తిరు మ
 తు ది
 కర ెంట్
 సర్వీ స్
 భవిష్య త్తు
 ముంద స్తు
గ ల్
ృ ప్తి
తు ంటారు
 పొ ందిన
 తా గు
 చెబు తున్న
 పాల సీ
 సభ్య ుల
 కొంత మంది
 నిలి పి
 దిన ోత్స
 పో ర్టు
తే డాది
 కార్యాల యం
 తల్లిదండ్ర ులు
 అగ్ ని
e s
స్ యం
 న ెంబర్
 ట న్న
 దశ లో
 మిగి లిన
 ప్రశా ంత్
 అకౌ ంట్
ు ల్లో
 లో నే
 చెప్ప ే
 ఆద ాయ
 ఆక ట్టుకు
 వెన క్కి
 రాజ్య సభ
 ఇ క్కడి
 కా లు
 ముందు గా
 తెలుసుకు ందాం
పోవ డం
 టోర్ నీ
 వంశ ీ
a y
 క లు
 భ వన
 పో లిస్తే
 కే బినెట్
తా ధిక
 చేస్త ానని
 సినిమా ను
 ఎమ్మెల్యే గా
 కూతు రు
 వ స్తాయి
గు ల్
 ఐ దే
 నిల దీ
అత ని
 వ ందే
 అ బ్
ద్ కర్
బ్ ల్యూ
ంటి ంగ్
 అను కున్న
శా తం
జన సేన
 స ెట్
వా ళ్ల
ిక ల్
జీ గా
డ్డ ూ
 ప్ర ోత్స
 ఎ ంటర్
 ఇ స్త
 సై ని
పెట్ట ిన
 ఎదురు చూ
అ ర్
 త ప్పుడు
 కో డ్
డే ట్
 ట్ర ో
 జర్ నలి
ధ ర
న డా
ార ిన
 ప లి
 బ ంగ్లాదేశ్
 జ ులై
వా డు
 లే కపోవడంతో
 గు డి
 త్వ రలో
 త్వ రలోనే
3 8
భ ్య
 అ క్కడే
దు ల
ట్లు గా
 వారి పై
 సమీప ంలోని
ప లు
కే తిక
ుకు న్నారు
 విష ా
 వర్ క్
 రె వెన్యూ
 ఫో కస్
స్టు లు
 అత ్యా
 ఆదేశ ించింది
మయ్య ాయి
 గెలి పించ
 ఇంటర్ వ్యూ
 కంట్రో ల్
" 

గ తం
ల న్నీ
ళ ేశ్వరం
 హ ెడ్
ద్ద రూ
వర్ గ
 జా త
 ఓవర్ లలో
 కనిప ించింది
ో భ
 ప రా
 ఏ మీ
 కో మటి
ఆర్ థ
 సా గ
టీవ లే
త ాము
 ప్ర స్తుత
 మే ము
కం ఠ
 పను లను
 నిర్ణయ ించారు
 ఉంచ ు
త మిళ
ಡ ಿಯ
‌ రెడ్డి
 ప్రభుత్వ ంలో
 మార్ గ
 వ్యా ధి
 యా క్షన్
 మి గతా
 శి క్షణ
 కార్యక్రమా నికి
ఇ వి
ధ న్
ే ద్కర్
 ఇ ంది
పో తున్నారు
 పా క్
 ఓ టర్లు
 అవ ్వ
జి త్
 వీడియో లు
 తొలి సారి
 బృ ంద
ంగు లేటి
 కస్ట డీ
కార్య క్రమంలో
అ ందుకు
చ ారు
 మ ృ
 వి డత
 ఇన్ వ
 పడు తున్నారు
 వెంకట స్వామి
 పాకి స్థాన్
ఏ ప్రిల్
 అ ంటారు
 బ ాలు
 జ ెండా
 జ ్యోతి
ేశ ాడు
రో ధ
 ا ور
 పనిచే స్తున్న
 సామ ర్థ
 అట వీ
3 7
 ప్ర వీణ్
 వి మానాశ్ర
 భ రోసా
మి డి
 చేయ లేదు
 గ్ర ౌండ్
 చేసుకు నే
 చేరుకు న్నారు
 యుద్ధ ం
 వడ్ డీ
 హెల్ త్
జ ైన్
లా ల్లో
 కు ంభ
ద్ద ే
 సీ ఈ
జీ లు
డీ ఎస్
 మీ టర్ల
 ک ہ
 పాల్గొ న్న
  !

స లు
 అ మె
డి సెంబర్
 బ ర్
ల్ల ూరు
 వా స్త
 ఏర్ పడింది
శా న్ని
నర్ జీ
ించుకు ని
 మార ాయి
 భద్ర తా
శ ంకర్
ట్ లకు
ూర్ తి
 దా నికి
 సె క్యూరిటీ
 సై బర్
 క్యా న్సర్
 రావ ాలని
 అలర్ ట్
d e
ద ొ
 ప్ర దేశ్
 వే ర్
 ఎస్ టీ
 పెరుగు తుంది
 శివ కుమార్
 పాలన లో
కు డి
లై ట్
 ప్రభా వ
4 2
 ప ాయింట్
 వి పక్ష
టీ షన్
 విష యాలు
 ہ و
 సెల వు
 ఆమో ద
 గ్యా స్
 సల హా
  N
లో పే
 వి సి
 టీ వీ
 ఏర్ పడిన
 వంటి వి
 ప్లే యర్
 జాగ్రత్త గా
జార్ టీ
 శాస్త్ర వేత్త
 గెల వ
 పిలుపుని చ్చారు
మా స
ది గా
 దేశ ాలు
 నెల ల్లో
 ఒక్క సారిగా
۔ 

జ నం
ట నా
హ రణ
వా నికి
రే వంత్
 రూప ంలో
స్ప ద
 కోట్ లతో
 ప్రియా ంక
 అసోసి యేషన్
న ెట్
ప దే
బ ొ
‌ ట
్యా లు
 సి కింద్రాబాద్
 చూ సుకు
 శ్రీ లంక
 ప్లా ంట్
 కర్ నూ
 ముగి సిన
 సంతోష ంగా
ఉ మ్మడి
క మాండ్
మ ండ
‌‌‌‌ ,
 ఉ గ్ర
పు డు
 పా లు
జీ పీ
 అమ్మ ు
 ఉద ్రి
 జూ నియర్
ించా ల్సిన
 అతి పెద్ద
 జాబితా లో
  v
  ବ
అ క్కడి
ర ాయి
‌‌ ,
 ఆ శి
 న ల్
 కలి గిన
 ک یا
 సాధ ించారు
ించుకు ంది
 ఛ ార్
 ఊ హించ
 అంశ ం
 రిట ైర్
 ఈవ ెంట్
భ ద్ర
డు తూ
 జ ్
తి న్
ట్టి ంగ్
 పం జాబ్
 దృష్ టికి
 ప ల్లి
 క ప్పు
 వ ాల
 వి న్న
మా ట
 వే రే
 ఎవర ైనా
సిస్ట ెంట్
3 9
ం సా
జ గ
ద న్
 ని న్న
 సం భవ
 కి డ్
 చేస్తున్న ాయి
 ప్రాంత ం
 రె ండ
 విద్యార్థ ులకు
 అంశ ంపై
ై ర్మన్
 ర ౌ
 ల కు
వి న్
 చేరుకు ంది
 తెర కెక్క
 కురి సే
 రిపో ర్టు
4 4
క ్యు
 బ తు
నే ది
 వే డి
 అని ల్
 టి డిపి
 నిర్ణయ ించింది
 చేరి ంది
 ఇ ళ్ల
 వి ష్ణు
మ్మ ల
 పె ట్రో
తా బ్
 తీసు కొని
 పేరు ను
 ఘటన పై
 అనుమ త
 మండల ంలోని
 హరీ ష్
 ప బ్లిక్
 బ ాలీవుడ్
రి గే
పై కి
 రాజ స్థాన్
 పాటు గా
తన కు
 మద్దతు గా
 అభిప్ర ాయం
 వది లే
 తేడా తో
 మంట లు
అ ంటూ
ద క్షి
ప ించింది
శ ీ
ార ే
తు ంటే
టీ టీ
 సీ రియ
 బా ల్
 ఖ ర్చ
పాల న
 మాన వ
 నూ తన
ఆగ స్టు
 తె గ
పో ర్
 గు రు
దా ద్రి
 టై మ్
 భక్ తులకు
 క్రమంలో నే
 టిక్క ెట్
 క డు
 అ దానీ
 స దు
 రా సిన
 తా గ
 రె ండే
 స్థా నాలు
 సంస్థ ల
 అంశ ాలపై
 కాలే దు
ಿದ ್ದ
 సీఐ డీ
క్ష ంలో
త్ర ీ
 ఉంటు న్న
 ఘ ా
 ఆర్ డర్
 లి మి
 పడు తున్న
హ ిత
ర్ షణ
 న ంద
 ఇ వి
 గ ంగ
తి ప
స్తు ండగా
మి ంగ్
 కూ ల్చి
 హో టల్
 నమ్మ కం
 పెట్టి ంది
 నింది తు
 ವ ಿ
విద్య ార్థ
 క్రికె టర్
థ మిక
ొ చ్చని
ార ట
 క చ్చితంగా
 కో ర్
జా న్
మార్ చి
 ఉద్యో గ
 వ్యక్తి గత
 యువ తి
 తీసుకుంట ామని
 గడు వు
 ఢీ కొ
6 5
తు ందో
ష్ ఠ
య్య ం
 రాష్ట్ర ానికి
 కి రణ్
ర్థ ి
 అర్ ధ
 రంగ ంలో
భి వృద్ధి
 స్వ యంగా
4 00
శ ్రా
 ఇ ల్లు
 భ గ
 చెప్ప ాలని
 నా ణ్య
 ప్రత్య క్ష
వంత మైన
 జాగ్రత్త లు
 కార్మి కులు
 నిజా మాబాద్
 కలక లం
 కోమటి రెడ్డి
. మీ
క త్వంలో
ప ించిన
 ఇ స్తే
పు ల్
మో దీ
 గౌ రవ
ی ر
వ కు
 స తీ
 న వ
 వె లువ
త్ర ిక
 రాజ మ
జి టల్
 ఎదు ర్
 సమావేశ ాలు
 ఉంట ాయని
 దు కా
 పరిచ యం
 ప డిన
 జ ంతు
 వి ఫల
 జిల్ లాల
 డి విజన్
 వ్యక్ త
 ప్లా ట్
 టై టిల్
 దాని ని
 సమర్ పించ
 విరా ట్
 విశే షం
 స్ నా
 ఏ ంటి
 సం బ
 వర్ గం
 సహ ాయం
త్మ కంగా
 గుర్త ించి
 భక్ తుల
 పరిష్ కారం
 ఫీ జు
ేశ్వర రావు
 అనారో గ్య
క ైనా
 చ రణ్
 ఆ దు
మా నికి
ెం డి
 మా స్టర్
 చేశ ాయి
 ఉన్న ాడు
వీ న్
 రే టు
 ఎంపీ గా
 గుర్త ించ
సై డ్
 ఉత్ కంఠ
వ్య వ
 ఫా మ్
 ఆసుపత్రి కి
 ప్రతిని ధి
 నల్ గొండ
ంద ంటే
 అ న్య
 ప్ర చు
 ప్రాంత ాలకు
 పి టీషన్
 సమస్య ల
 పెన్ షన్
  ଏ
. ఈ
ప ట్ట
వ ళి
హ ర
 అ న్నీ
 ఆ శ్చ
 రా జా
 పు లి
టే ల్
 ఏజ ెన్సీ
 భి న్న
 జ్ ఞ
జ ల్
 మ రీ
 అ యోధ్య
 న న్ను
టు గా
 పొ ంగులేటి
 జరుగు తున్నాయి
 ఫ్యా క్టరీ
 నమోద ైంది
 వంద ల
 అద్భు తమైన
జిన ెస్
t i
వ య
 ఆ గి
వా టిని
 హ నుమ
 ము ద్ర
త్త ూరు
 డాక్టర్ లు
 కాపా డు
ఇ న్
ఖ ి
ఫ ార్
ా ల్సిన
ౌ ట్
 మ ల
 రా ం
 మె జార్టీ
 సో ర్స్
కాం క్షలు
ల్లం ఘ
 నటు డు
 తప్పని సరి
ం క్షన్
 రా కుండా
 శ ని
వర్ ణ
 రోజు కు
 అవు తున్నాయి
 ఛ ాన
 నగ రంలో
 విదేశ ీ
 వది లి
జ రీ
 ఆ ం
లి కా
 ఎ క్
 ని ధు
నా టక
 ష ు
బంధ ు
 మాన సిక
 బంతు ల్లో
ئ ے
‌ పూర్
 అవ ినా
 మే లు
 అధికారు లతో
 సర్ టిఫ
 ఘ నంగా
 నూ నె
్ర ూ
సి ఆర్
 జిల్ ల
 ఖ ై
 గ్ర ే
 మరి న్ని
 చేసుకోవ చ్చు
 దృష్ టిలో
 ప్రయాణి కులు
 వాదన లు
స్థాయి లో
రాజకీ య
రిసి ల్ల
ی ہ
 ర ెడ్
లా న్ని
ంటు ందని
మె న్
 సంచ ల
 నెటి జన్
క ప్పుడు
త్ తులు
ండ ం
 సా గర్
చి వరి
 విజ యాన్ని
 రంగ ంలోకి
 సే కర
 పోస్టు లు
లక్ష్ మి
 ఆవి ష్
 వ స్త
ట్ సా
 ఉ ల్లంఘ
ిక ే
 ఏ ళ్లు
 హై కమాండ్
 దేశ ాల్లో
 సర్ పంచ
 యువ త
 బల మైన
 బల హీ
 రామ కృష్ణ
 మాట లు
 పద్ మ
4 1
 ప్ర దేశ
లి ంగ
 ని జం
వి త్ర
జి లాండ్
 ఆర్ మీ
 వివా హం
‌ప్ర ెస్
ె త్తు
 అ క్క
 త గి
మే ం
 సంవత్స రంలో
కారు లు
 పెరి గే
 అందుకు న్న
 పర్ వ
 దక్షి ణా
హ రి
 ప ాయి
 స్ప ందన
 బి గ్
 బె దిరి
 క్ షే
 ఉద్రి క్త
) .

కు ంది
ను లు
ంట రీ
ాయ ర్
 వి ధి
 గ ంజ
 కొ ర
 ఉన్న ప్పటికీ
 ఉన్న తాధిక
 చేయ ి
 ఓ టర్
 తే ల్చి
 ఛ ైర్మన్
సో షల్
 లై ంగ
 ల్యా ండ్
 ఫ్ర ెండ్
ఇం కా
స్తు ల
 భ ద్రా
కొ ద్ది
 చేయ ండి
పి రి
 మంత్రి త్వ
 రె గ్య
 రాజకీ యాల్లో
19 7
 వ్యవ ధి
 మొదల ైన
 కను గొ
 యాజ మాన్
  ।
4 9
‌ ఆర్
 ప టేల్
 మ నీ
 రా నున్న
 ఆయన ను
 డి స్
 మె రుగ
గ్ర ామ
 శ్రీ ధర్
 సర్ వ
 వెంక ట్
 బంగ ారు
 ప్రదర్శ న
లిజ ెన్స్
 గంజ ాయి
అ వి
 క రోనా
 మ ల్లి
 ఇ స్రో
 గ ిల్
వు గా
ప్ర త్య
ద్ద రి
వే త
ారీ గా
గో పాల్
 ప్రభా స్
  ..
A L
బ ై
‌ ల్
 ప సుపు
 చ ది
గా ంధీ
ార్ జున
త్ర ా
తా డు
 రి మాండ్
 క్ర ై
 విన ో
వంత ం
 ಮ ಾ
ే లా
ై తే
ಟ ್
 అ శ్
ప్ ట్
 ఇ ండ్లు
డా ల్సి
 ఉన్న త
 గు ంటూరు
 నే ర
 చో ట
 వీడియో లో
 హి ంస
 సూచ న
 భారత దేశ
 తీసుకోవ ాలి
 క్యార ెట్ల
  ମ
క ప్
ై లి
లు త
 అ స్
ెం బరు
 ఖ ర్
 జిల్లా కు
 అర వింద్
 పథ కాలు
పూ డి
ట ైన
స రా
 బ ెడ్
 ఎ త్తి
 హ రి
మ్మ ల్ని
 సీ ఎ
త్త ీస్
 అంద జేశారు
 సాధ ించ
 ప్రశ్ నలు
పార్ ల
 స్వీ కారం
 పరిశోధ న
ఇ వాళ
మ ంతా
 అ సిస్టెంట్
 ర ొ
 ఇ స్తున్న
వి ల్
 మంత్రి గా
 సహ జ
 రిక ార్డ్
 అధికారిక ంగా
 సత్య నారాయణ
 ట్రై లర్
 గమ నించ
o r
ప రు
 మ ిత
 అ ల్ల
 ఇ రాన్
ప్పు లు
 సా ంగ్
 యూ పీ
బో తోంది
 సాం కేతిక
శో క్
 ఎనిమి ది
 నిల్ వ
 సీరియ స్
 క సర
గా మ
సీ స్
 పే ర్లు
 మార ిన
 లీ గ్
 బ్రి డ్
 రిపో ర్ట్
 విప రీ
ఇ ందు
డ క
ర ించింది
హ ే
‌ సై
కి లీ
 ఏ కా
 రాష్ట్ర పతి
 కొనసాగు తున్న
 దెబ్బ తి
 గ్రామా ల్లో
విజయ వాడ
 మ ని
 స ద
 ఎ ద్దే
 వి టమి
 కో లు
బా బాద్
దీ ర్ఘ
 నిర్ వాహ
 వై రస్
 చూ సు
 యా ంటీ
 అస ంత
 గుర ైన
 ఆల యంలో
 టై ం
 తెర క
 అధ్యయ నం
 ఎద్దే వా
" .
ن ے
ର ି
అ న్న
ఆ రో
క ంలో
ాయ క
 వి గ్రహ
 తీ సిన
మార్ క
 మధ్య లో
దీని వల్ల
 రాజకీయ ంగా
చ ారి
ర న్
 క ంప్
ంట రి
 ని వాసం
నా లుగు
్వ ే
నీ టి
 బ్యా టర్
 శు భా
 నాలు గో
 పిల్ల లకు
 ఉద్యోగు ల
ప్రజ ల
୍ ୟ
గ మ
తా నని
 ఉండ డంతో
 యూ ట్యూ
 భూ కంప
ాము న
 ا یک
 దే వర
 జడ్ పీ
 బయలుదే రి
A D
ష ిక
ంత ం
టి క్స్
దు పరి
 కా మారెడ్డి
 పార్ క్
 వా టా
 రో జూ
ఎం పీ
 ప్రక టి
శి వ
బో తున్నారు
 అభ్యర్థ ులను
 ا ن
మవు తోంది
 స్పష్ట ంగా
 ఇంజ ినీ
 మెద క్
a s
 వి గ్ర
టీ స్
సి ంగ
 చెప్ప ాలి
ము ద్ర
 పే రిట
 బా ంబు
సా ని
 ముఖ్య ంగా
 దీ క్ష
 కారణ ాలు
 కోర్టు కు
 పనిచే సే
 చేరుకు ని
 క్రి యేట్
 తెలుసుకు న్న
 స్పష్ట త
డ ైన
ఫ లి
ీ ణ
 ప్ర కా
రి యల్
 ఇ సుక
ప్ర సాద్
త్వ రలో
 ట ాలీవుడ్
 సు లభ
 ఛ ే
 చేసుకోవ ాలని
 ఒప్ప ందం
అ త్య
క ేశ్
నే శ్వ
 కా మ
 వె ల్
 వచ్చ ినా
 బి జినెస్
 జరగ నున్న
 అభివృద్ధి కి
 చని పోయిన
 భూము లు
 ఎకర ాల
ద ాల
 ర మేష్
 న ౌ
 ని వాస
మి క్
 కే జీ
 అధిక ంగా
 ఉండ డం
తీ రు
 పొ లి
 పి లి
 అవు తున్నారు
 చేసుకోవ ాలి
స్టి క్
 మరణ ించారు
ద్దీ న్
 గెలు చుకు
 రమ ేశ్
 లిమి టెడ్
  آ
a k
ఐ ఆర్
జ ారిటీ
ఫ ై
 ఎ ల
ార్ క్
యా పేట
 భ యం
వు తున్న
ండ్ లలో
 బా క్
 సంప్రద ాయ
 శ్రే ణ
 న్యాయవా ది
ئ ی
గ ె
మ ారి
ర చయిత
 మ ట్టి
 సి స్ట
ంటు న్నా
రే పు
 ఒక రి
స్తూ నే
an d
ట్సా ప్
 క్షే త్ర
  .
ఇ తర
మ ళ్లీ
 మ ించి
 బ ్యార
 స్ టీ
 ఏ ంట
 సమ క్షంలో
 టీ ం
 బె ంగాల్
 అవు తుందని
 దూ రంలో
 ముఖ్యమంత్రి గా
త్వా న్ని
 తెలియ దు
 సాను కూల
ఐ పీఎల్
 ప ట్టి
 మ ణి
 అ క్ష
 బ ారిన
 రా కపో
పీ సీసీ
 పో రు
 సం పద
ము ంబై
 జరిగ ితే
 విచారణ లో
రగా య
 నియంత్ర ణ
 సచి వాల
ఖ మ్మం
త ంత్ర
ర ించ
 ని ండి
చే సి
పూర్ వ
బడి ంది
 పెరి గిన
 అభిప్రాయ పడ్డారు
 హింద ీ
یڈ یو
4 6
 క ంటి
 బ ట్ట
 బ రిలో
 రా గానే
మ్మ ూ
 ప్రా థమిక
 అను బంధ
 చేస్త ారని
 సంబంధ ాలు
 వివర ణ
 పీ సీసీ
 ఉండే లా
ండీ స్
 పలి కారు
  G
భ ర్
‌ డ
ర్ తి
 ప్ర సా
మా న్ని
స్తు ంటే
ందు కే
 ఫ ిల్
ామ ిక
 చెప్ప డం
 పే లు
ఫ్ టీ
ుకు ని
 తీసుకు ంటున్న
మై తే
 చు ట్టు
 విక్ర మార్క
తుండ టంతో
ప ాలి
లో బల్
 ఆ ఫర్
 ఎ క్కడి
రా హుల్
వే ర్
ండి ంగ్
 వీ టిని
కాశ ం
 చెబు తోంది
 కీల కంగా
 ఆల స్య
 రిజి స్ట్రేషన్
 చోటుచేసుకు ంది
S O
బ ాల
‌ -
ని జ
 ఆ ప్
ప్ స్
రు డు
 శ ే
క్ష ే
 వే స్తున్నారు
 వా గ్
వర ంగల్
 పాత్ర లో
 మిత ్ర
గ టు
ಂ ಡ
క్ ల
 ఎ వ
క్ష న్స్
 లే కపోవడం
 ట ్రి
 నే టి
 తీసు కొ
రై తు
 కాని స్టే
4 7
ా డ
 ని వా
 తీ శారు
 పరి హారం
వర్ స్
 గంట లు
 వైఎస్ సార్
 భూమి ని
 తెల్ల వారు
అంతకు ముందు
8 5
o m
న ైనా
స ార
 మా దిరి
 సె మీ
 వెలుగు లోకి
 మొద ట
 దేవ ాల
ప్రజ లు
 మున్సిప ాలిటీ
మహ ారాష్ట్ర
 సీత ారామ
ಂದ ು
ఉత్త ర
ା ଇ
డ ై
మ ్యా
స్ మ
 వ ాయు
 చ ల్ల
తు ందన్నారు
త్ న
టి స్
స్త ామన్నారు
త్వ ంలోని
యి ంగ్
న్య ు
 ప్రాంత ానికి
 ఘ ర్షణ
 ప్రశ్ ని
 మహ ేష్
 హైకోర్టు లో
ಿದ ೆ
ం జు
ష ు
వా ణి
దా హరణ
ఇది లా
 సభ్య ుడు
 నిర్మా ణానికి
ھ ا
ଥ ି
మ ంత్ర
 ప్ర యోగ
 బ ార్
టర్ స్
కూ రు
 పు రా
 చేస్తున్న ామని
 పెద్ద పల్లి
 షా పు
 ఆది త్య
 ఎవరి కి
బెట్ ట
 గడ్ డం
 శుభా కాంక్షలు
బ ంగా
వ ిన
 వ హి
సి స్
 లక్ష ్యం
 వ్యక్తి ని
సభ ్య
 అంశ ాలు
  ف
‌ హ
గు ట్ట
 వే ణు
 ఓ పె
 అని పి
 గా నీ
ధ్య ం
 పు ట్ట
 సో నియా
 కల ె
 గో ల్డ్
 విద్యార్థ ుల
 విభా గం
 పుష్ ప
  ఠా
క ్రియ
త న్య
ర ించి
ల ండ్
కు ంటారు
 ఎ మో
గు లకు
 వె లు
ెస్ టి
ద్ద ాం
 వే చి
 నిర్వహ ించే
 వివర ాల
 అడుగు లు
 و یڈیو
 లభ ించింది
 ఎక రాల్లో
 వాహ నాలు
 స్కా మ్
ಡಿಯ ೋ
E AD
క మ్మ
త తో
బ ట్ట
 క ాలి
 ర ేషన్
‌‌‌‌‌‌‌‌ ,
 ఏ సీబీ
ల్లో నూ
సా హ
 మూ డే
 కల ెక్టరేట్
 రే ప
 కుటుంబ ాలకు
 హి ందు
 ఫలి తం
సాధారణ ంగా
ప ిల్
బ డ్డ
ల ంలో
 క డప
 త ూర్పు
 ఆ క్రమ
 బ లోపే
యా ంశ
మ్మ ద్
రాజ ్య
 నోటీ సు
 ఔ ట్
వ ంగా
హ ిల్స్
ె న
న్ ల
 వ స్తాయని
ల్ లీ
 సం కే
స్తున్న ాం
సే పు
 చర్చ నీ
 పెట్టు కున్న
 తెలియ ని
 కార్యక్రమా న్ని
 ప్లే స్
 కోరు తూ
స్టే ట్
 అంబ ేద్కర్
 ఛా న్స్
AL SO
 ఖర్ గే
చ లం
ర ాయ
ె డి
ంది ంది
ద్ద రు
 ఓ టింగ్
సే జ్
 తే లిక
 తే ల్చ
 నేత లతో
 నిర్వహ ించి
 చిన్న ారి
 టా పిక్
 షే క్
 گ یا
 ఇంగ్ లాండ్
 వాల ంటీ
అ టు
⁬ కు
ించ డంలో
 బ ్యాల
లి వరీ
 స్ మార్ట్
 హ మాస్
 కో రిక
 పా న్
 బా డీ
 మె జారిటీ
గ్ర ే
పే ద
 తెలు స్తుంది
త్తు ల
 దాడి కి
 వృ ద్ధ
 ప్రస ంగ
ل ی
ఏ ఎస్
క రీంనగర్
చ న
ప ించి
న్ యా
ించ వచ్చు
 ఇ ంట్
ద్ వే
స్త ాడు
రో జూ
త్వ రలోనే
 నాయ కత్వం
 తు పా
 బాల కృష్ణ
పోయి ందని
అ ను
డ ారు
ల ెన్స్
డి యంలో
 రో జా
 ప్రారంభ ి
 యూని యన్
 లక్ష్ మ
 ఆస్పత్రి కి
 అర్హ త
మ ాల
ార్ ట్
 ఫ ండ్
 వా డు
 డి పార్ట్
హా నికి
 హా ల్
 చంద్రబాబు కు
 స్వా గతం
 పెరి గాయి
 ఫ్ లా
 తీసుకె ళ్
 అక్రమ ంగా
 అడ్ మి
అమ రావతి
 రాజ్యా ంగ
ବ ା
న్న ో
 ఉ ంటూ
పా తం
డే ందుకు
స్ట ్రి
 లి స్ట్
వ్యా ప
 సొంత ం
శ్ర ామిక
 R EAD
 నిమిష ాల
 చర్చనీ యాంశ
 అ టు
ంత ్రా
ప్ప ల్
 ని ఘా
 సి ట్టింగ్
ప్ర స్తుత
 ఓ టీటీ
ుల ైన
 అయ్య ి
 కె నడా
 తేదీ ల్లో
 యువ కుడు
 జట్టు కు
 బిల్ డింగ్
 ఉష్ణోగ్ర తలు
గ ్రి
డ ూ
ధ న
న న్న
ె లిజెన్స్
న్న ర్
నీ రు
డీ వో
 వీ లు
 మూ సి
 తీసుకు వచ్చ
 మి స్
షి ప్
 కసర త్తు
i t
త ంలో
్ర ు
కు లతో
 వి మానం
 సమ న్
 డి జైన్
 నేత లకు
 కార్ తీ
 మన కు
 పడు తుంది
 ఫ్ ల
 ప్రైవే టు
 కోరు తున్నారు
 నిరా శ
 ధ్వ ంసం
 స్క ్రీన్
 గ్యార ంటీ
 పెట్టుబడు లు
ఆర్థ ిక
చ ైనా
్ర ం
 అ శోక్
 జ మ
 దేశ ంలోని
 పెరుగు తున్న
 జట్టు లో
 జైలు కు
 ఎదుర్కొ ంటున్న
 వేడుక లు
 లభి స్తుంది
ద ిన
 ప రంగా
 క త్తి
లి కేషన్
నే య
 శ ్
 ము ప్పు
జు లై
ళ్ల తో
రే టర్
ంబ యి
షి యా
 ఉప యోగి
 సూచ ించింది
 ట్రా క్
 సస్ప ెండ్
ం ట్లు
న మెంట్
 పో ర్
 పె డు
 వా ణి
ాం పియన్
 పథ కాల
 ఫా లో
 తనిఖీ లు
 కెమె రా
7 7
ఇ జ్రాయెల్
ఎ వర
ట ల్స్
ల ార్
‌ లకు
 ఇ ష్టం
ార్ హం
 మా ల్
 సమ ర్థ
 దా టి
 కారణ మని
యు వ
పెట్ టు
జన వరి
 ఫ్ లో
 గాయ ాల
r e
వ త్
 స ప్
 గ మన
ండ ెంట్
 ఏ టా
 కో ట
 వచ్చ ాక
 చూ సే
 స్థ లానికి
 డి జిటల్
 భా గం
 జన తా
 సూచ నలు
 డా క్యు
 టికెట్ లు
 కిలో ల
 బాధి తులు
ر ی
 ల డ్డూ
ిక ొ
 కొ డ
 ము ర
బా ల్
ాలు గా
 మాట్లా డి
 సంఘ ాల
 ఆల యం
 ఉద్యోగు లకు
 విక్ర య
 ఫార్ మా
 స్కీ మ్
 మ్యూ జిక్
 లైంగ ిక
ھ ی
 ప విత్ర
స్ లా
 వ లన
 స గటు
 వి రు
వా దం
వి ంగ్
 చెబు తున్నాయి
 నమ్మ ు
లక్ష ల
 నిర్వహి స్తున్నారు
 ఫలిత ాలను
 జైలు లో
తిరు మల
 ఫే క్
 వేధి ంపు
 ఆ సియా
 గ ృహ
వా స్త
 ల లో
స్త ం
కా ని
కా నికి
 కో టా
ంతో నే
 నా ట
 టీ ఎస్
 సిద్ద ం
 ఇంజ నీ
 నొ ప్పి
అ ప్ప
ఎ లాంటి
స ౌ
 మ న్
 ఇ ళ్లు
 సి క్
 కేసు ను
 కనిపి స్తున్నాయి
 స్వ ల్ప
 తీర్ మానం
 అడి షనల్
 వయ స్సు
  K
ప ది
ು ತ್ತ
స్ కూ
 శ ంకు
 ఉన్న ట్టు
 మార్ గం
 సభ కు
 నెల లు
 ఆఫీ సు
సీసీ ఐ
 ఆధార ాలు
 అడుగు ల
 తిన డం
 మొత్త ంలో
 గమన ార్హం
ఐ ఎం
ప క
మ ల్
ಂ ಬ
 అ హ్మద్
సి పి
వు ల్లో
 ఒ లిం
 సీ ఎస్
క్ర ో
 చి ంత
చే య
 జీ వో
 నాయ కుల
 సమయంలో నే
 బె ది
 ఫో ర్స్
 రాజకీ యం
 దూ ర
 ఘటన లు
 ప్రి య
పోర్ ట్స్
 మని షి
త ల్లి
ించ ామని
 ఉ ందా
వు లకు
 పో షి
కో వాల్సి
 పా ప
స్తున్న ది
ట్ట ం
ించు కోవ
 అక్కడి కి
 భవిష్య త్
 స్కో రు
 మెరుగ ైన
4 3
6 6
ఎ వరి
ఐ టీ
మ ృ
 ప త
 మ ంద
ల్ తా
ించ కుండా
 ఆ శా
 ఎ ండీ
 వి రమ
 ఫ ార
 కూ ర్చ
 మా స్
ెస్ ట
వీ ఎం
 సా క్ష
 భా స్కర్
 గంట ల్లో
 ఫో ర్
 ఆధ ార్
 ప్రపంచ వ్యాప్తంగా
 ఒప్ప ంద
- -
i c
హ నం
 వి గ్రహం
నా ల్
 తెలి సిన
 ఖ ండ
పోయ ారని
 అంత ే
ంజ ర్
 భాగ స్వామ
 ప్రభా వి
 లై ఫ్
 క్ష మా
 నేతృ త్వంలోని
 ఎప్పటి కప్పుడు
5 9
ର ୍
స ల్
 వ రి
 బ లం
 సీ జ్
 గా జా
 నా శ
 రి యల్
 మో డల్
 బి లియన్
 కాల ంగా
 దీ ప
 ఎంపీ లు
 గో డ
 అందు కే
 ఇద్ద రి
 సూచి స్తున్నారు
ప్రధా న
 సదు పాయ
  ଦ
క థ
త ార
 క ృష్ణా
ంగ ో
 తీ య
 తెలిప ిన
కర ించింది
 కలి సిన
19 6
పె ళ్లి
 పెట్టు కుని
 జూ లై
 వైఎస్ ఆర్
 సాగు తోంది
 నింది తుడు
 సింగ రేణి
  ರ
ార ంటే
్ర ్
 వ ు
 చ క్ర
 ద ిల్లీ
లా ల్
 ల ూ
ండ న్
 కూ రగాయ
తా ం
 లీ క్
 పను లకు
 నిర్మా త
 యూని ట్
 ప్రకటన లో
 క ై
 చే రే
 స్ ఫ
 శ ం
 య ొక్క
 అను సర
 చంద్ర శేఖర్
ృష్ టి
 బి య్యం
ప్రతి ని
భూ మి
 పదవి కి
 గూ గుల్
 ఆశ్చ ర్య
ద ూ
ద శి
వ ద్దని
 క ట్
న్న ె
 ని రూ
 రా ము
 డి పా
 మార్ క్
 వీ రు
 ఏర్ పడి
 దేశ ానికి
 రు తు
 హామీ లు
వన గిరి
చె న్నై
 క్వ ార్
పాకి స్తాన్
 తొమ్మి ది
a b
అ తను
ద ంతా
 స ందే
 స త్తా
తు ందా
 గ ది
ద్ వారా
కో ట
‌లో కి
 మొ క్క
శ్ వాస
కాల ిక
 పేర్కొ న్న
భా వం
 తీవ్ర మైన
 ఆశ ీర్
 ہ یں
 ధర్ నా
 ఇంట ెలిజెన్స్
అంతేకా కుండా
 భో జనం
 యాజమాన్ యం
 ప ిల్
పి క్స్
వీ టిని
స్థ ాన
 మార్ గంలో
చే సిన
 సో దాలు
 వెళ్ ళ
షి ంగ్
 ప్రారంభ ించిన
 సహ కార
పర్ తి
 బాధి తు
 ప్రతిని ధులు
 జగ దీ
 కోరి ంది
 పరా మర్శ
 శంకు స్థా
 ప్రభావి తం
 క లుపు
 అ ంట
 బ దు
మ్ మా
వు తుంది
 ఫ ైనా
 వై ఖ
క్కు లు
 సమా చారాన్ని
 బీజేపీ లో
 జా న్
 ప్రధాన మంత్రి
 ఇద్ద రూ
 చై ర్
 శ్రీనివా స
 డె లివరీ
 గెలు పొ
 అధ్యక్షు డిగా
 కన్న డ
 ఆయు ధ
 యూట్యూ బ్
  ଅ
5 2
5 8
6 00
o l
ధ ్
 క బ్
 క న్నా
 తె రి
 పో ర్ట్
 రి వ్యూ
 ప్రభుత్వం పై
ణా ల్లో
ర్యా నా
 పాల్ పడిన
 దూ సు
 కనిపించ డం
 రిజర్ వ్
 క్రీ డా
 ఏమి టి
 మేనే జ్
మ నే
 ప ార
 మ ిల్
 త హ
 చే స్తుందని
రి క్ష
 జ ట్లు
 ఎ ంచ
 గ జ
 చె న్న
 కూ లీ
పా వళి
కే సు
 రూ రల్
 ఎన్నిక లలో
 పు ర
 సినిమా తో
 కల సి
 జరుగు తుందని
 సంచ ారం
 వృ ద్ధి
 లెక్క లు
 బ్రా ండ్
కొంత మంది
 విశ్లే ష
 జ్ఞ ా
ఏ సీ
 అ నంత
ట్ లతో
 సి ద్దిపేట
 సమ యానికి
వీ టిలో
సా గర్
 టీ జర్
 వర్ కింగ్
 అను భవ
 సె గ్
 గుర య్యారు
కాల ంగా
 బయ టికి
 రంగ ారెడ్డి
 దొ రక
 స్థాన ాలకు
 సహాయ క
 ధర్ మాస
 వివే కా
 వల స
 ఘో ర
‌సై ట్
బ ాయ్
య ాలను
ర ించిన
వ ారీ
ని స్తాన్
 గ ార్
పో తే
 డ ో
 పరి ణా
 మార్ చు
 ధ న
 తో డు
 చంద్రబాబు ను
 అవు ట్
 తప్ప కుండా
ంటున్న ాయి
ేశ్వ రి
 కారు లో
 రోడ్ లు
 ఆసుపత్రి లో
 అత్యధిక ంగా
 గిరి జన
బ ల
 క రు
ంద ూ
 చే తులు
 ఉ ప్పు
 ఎ గ
 లే వని
 బీ మా
ినా డ
 రే ంజ్
చర్ ల
 ప్రముఖ ులు
 ప్రయోజ నాలు
 దళ ిత
 నిలిపి వే
a g
ఇ ంటి
 మ ంగళ
 స్ త్రీ
 తి రస్
 ముందు గానే
 వచ్చిన ట్లు
19 5
 లి ంక్
 అసెంబ్లీ లో
 చేసుకోవ డం
 సామా న్య
 కౌన్సి ల్
 పడ్డ ారు
 ఊహించ ని
5 6
క రం
గ ంగా
చ రణ
థ ా
ద ె
ఫ ్యా
ల సీమ
స ాయం
ದ ಲ್ಲಿ
 చ ాలు
 స్ మ
 కొ ండా
 కొ ట్టుకు
 సి రిసిల్ల
 పార్టీ లకు
 ఖ ు
 కలి శారు
 పని తీరు
వారి లో
 కీలక మైన
 సంగ ీ
షే క్
 పోరా ట
 ఆన ంద్
 దృ శ
1 20
అ ర
ఇ ందుకు
క ్యా
 క ండ
 న వీన్
స్త రు
ామ ో
 సం స్
 బా స్
శా ంతి
 అత్య ు
 ట్ వి
 స్టే డియంలో
 ఐదు గురు
 గే మ్
 బ్ర హ్
 విషయ ాలను
 సునీ ల్
 స్టో రీ
 కానిస్టే బుల్
  D
l e
ఈ డీ
భ ద్రా
 ప ాలి
 వి ల
 ల ొ
 కూ లి
 లో పు
 ఒ ప్పు
యి ంట్
 ప్రజ ల్లో
 వార్ డు
 పనిచే సిన
 ఉత్త రా
 పిల్ల లను
 గ్రూ పు
 నడు పు
 లాభ ాలు
 చౌ దరి
రోధ క
 నెటిజన్ లు
  ತ
ట ార్
భ ం
ర ద
 ఇ ంద్ర
 వి లీ
 గ ీ
 కు క్క
జీ వ
పి డీ
ారా బాద్
వర కూ
 తి ప్ప
 లక్ష ణాలు
ూరు లో
 ఎదు ట
 విభ ే
 సురే ష్
 పెట్రో ల్
 సర్టిఫ ికెట్
 విటమి న్
5 1
‌ య
 వ ారా
పై న
పా ఠ
 డ ౌన్
 ఒ ంటరి
సే న్
 సమా చార
 హై డ్రా
 నె య్యి
 ముగి య
 కాల్ పులు
 దారు ణంగా
 నివ సి
 బ్రిడ్ జి
  ନ
" ,
ప ారు
బ ంగ
ే క
న్న ాయని
గా యని
ను మాన్
 బ ెస్ట్
 న కిలీ
ేశ ారని
వి టీ
 కొ రియా
 సి లి
 డై లా
సై టీ
 కోల్ పోయిన
 రహ దారి
స హ
 వ ారీగా
కు ంటున్నారు
 ఏ ండ్ల
 ఫ ౌ
 వె హ
 ము లుగు
లే ం
 టీ ఎంసీ
 మార్ చుకు
 అను మానం
 మే యర్
 తీసుకు ంటే
 ముఖ్య ం
 డీ జీపీ
 మండ లి
 డే ట్
 సీత క్క
 ವಿ ಡಿಯೋ
ଛ ି
ఎ ండీ
క ్రి
క్ వా
 ఉ ల్లి
 ఎ ల్ల
 ని తీ
పై నే
వీ రిలో
 నా న్
 తే లి
 ఉత్త మ
 అంశ ాలను
 గొ ంతు
 సరి గా
 న్యూ జిలాండ్
 తరహా లో
 ఒడి శా
  ٹ
i r
ل ا
చ ారానికి
డ బ్ల్యూ
వ నేశ్వ
 క ృత
ెం జ్
 ఏ ను
 సమ గ్ర
 ప్రా తిని
జి న్
 జీ హెచ్
 మరి కొన్ని
 తీవ్ర త
 అం బా
 శు క్ర
 వినిపి స్తున్నాయి
 అలవా టు
 అసంత ృప్తి
వ న్నీ
 క న్నీ
 వ స్తున్నారు
 రా నుంది
పు ర
 సి గ్
పా త
 విష యానికి
ట్ల లో
 ఏర్ పడ
 హై వే
 దర్శ కత్వంలో
 చూడ ాలని
 చేసుకున్న ాడు
 అప్ లికేషన్
 వెళ్లే ందుకు
 జయ ంతి
 మహబూ బ్
5 4
5 7
ఎ క్స్
ష న
 క క్ష
 త ుల
 ర ాయ్
 తెలంగాణ కు
 కొత్త గూడెం
 వెల్ల డి
 ఆందోళన కు
 ప్రజా స్వామ
 మారు తోంది
 ఇంటర్ నేషనల్
 నిలిచ ారు
 అడి గి
 ఉచిత ంగా
ఇప్పటి వరకు
 ఆకర్ ష
 సర్పంచ ్
 బలహీ న
  V
  ଭ
2 50
ఐ దు
వ త్రిక
 ఇ స్తున్నారు
 ఇ యర్
 వి జే
 ఏ మైనా
 సో మ
 నిర్వహ ించాలని
 అందించ ిన
 టా టా
 వివా హ
 ఆది లాబాద్
 మై దా
 ఫీ చర్
 దీని ని
 శరీ ర
మహ బూ
 చెంద ారు
 ధా న్యం
 జరిప ిన
ద ాయ
ల ెస్
ొ ద్దు
 ఆ రుగు
 కా ంబ
బా ధి
ులు గా
 ఒక సారి
 ఐ క్య
మెంట్ స్
 నియ మి
 స్పందించ ిన
 రాజీ వ్
పర చ
 ప్రాధా న్యం
 పారి శ్రామిక
 ఎక్క డా
 పరిశీ లి
ఇందు కోసం
ఇ ంగ్
ఎ ంత
గ తేడాది
 వ డ
 చ ర్మ
ల్ దార్
గా య
ను ందని
ంట ారని
దు ర్
వి చార
వీ ర్
 బా ట
 రాష్ట్ర ాలకు
 పెట్ట ే
 మన సు
 తగ్గ ింది
 రీ సె
 సౌ త్
 విధా న
 కాపా డ
 కార్మి కుల
 సీపీ ఐ
 జడ్ జి
 అప్రమ త్తంగా
ళా ఖా
 ధర్మాస నం
ం థ
ఎ క్కువ
‌ పీ
గా డు
 ఉ ండా
 ఇ టు
వి దేశ
 వారి తో
 కేంద్ర ంగా
 సహ కర
 వ్యాఖ్య లపై
 డిగ్రీ ల
 కేటాయి ంపు
 రవీ ంద్ర
d i
మ త
ు ని
 క ేశ
 అ ంజ
 స జ్జ
ను ల
పు రంలో
.. ..

 జా తర
 తెలు పు
 చర్చ ించారు
 విధ ించింది
 కింద ట
 స్కో ర్
 పండ గ
 సెగ్ మెంట్
  ହ
ఒ కే
 మ ంచు
 స్ పి
 వే టు
 చేయ డంలో
 చూ స్తున్న
 పని చేశారు
 కల వ
 సాధ ించి
వో యి
 వైసీపీ కి
 ఢిల్లీ కి
 వాహ నం
 ఆస్పత్రి లో
 ಪ ್ರ
 సాధ్య ం
 నిర్లక్ష ్యం
 అబ్ దు
 కడు పు
 క న్ను
 కో టి
 వె లి
 రాజ శేఖర్
 ఇచ్చ ాడు
 రై ళ్లు
 సంఘ ాలు
 ప్రభుత్వా లు
క్కి ంది
 చని పోయారు
 బొ మ్మ
 టె లి
 చరిత్ర లో
 వ్యూ హ
 చెప్ తున్నారు
 అన్య ాయం
జ ామున
‌ 

న్న ట్లు
 ప్ర గతి
 బ ్యూటీ
 పో ల్
 వర్ గానికి
 మె సేజ్
 పొ ర
 పొ న్నం
 నేత లను
 జా బ్
గో దావరి
ించుకు నే
ించుకు నేందుకు
మై ందని
 చో రీ
 చేసు కొని
ల్సి ందే
 రిక ార్
 తల ెత్త
ప్రతి పక్ష
 హత్య కు
 ఎవరి కీ
 శరీ రంలో
‌క తా
a i
ఒ క్కో
 రా ఘ
 వె ల్లు
 పే ట
కోవ డంతో
 తమ ను
 చేస్తున్న ాడు
 సమావేశ ానికి
 అందించ ే
 దే వి
 వ్యవస్థ ను
 చేయా ల్సిన
  ಇ
7 8
s t
ତ ି
చ ర్లు
త క
భ క్
ర ష్యా
వ ంద
ిక ీ
 డ ొ
గి లిన
వర ద
 చేస్త ాయి
ాన న్నారు
ోర్ స్
ఫా బాద్
 మల్లి కార్
 క్షమా పణ
మ హా
ని య
 బ స
ప్ టర్
వా దాలు
రా బోయే
 లే టెస్ట్
 చేయ లేదని
 వా ళ్లకు
 వా ట్సాప్
 ట ెన్షన్
 గా యాలు
సా నికి
 వర్ తి
 ది గి
 పట్ట ించుకోవడం
 వెన క
 దారి తీ
 ఇంది రా
 బలోపే తం
 అ నూ
 వి రుద్ధ
కా ల్
 సి విల్
 చూ స్తున్నారు
 చేసిన ట్టు
 అత నికి
 రంగ ం
 హామీ లను
 టన్న ుల
". "

 పొలి టికల్
 పరిణా మాలు
  L
  چ
  ఝ
u n
క నీ
గ ూ
ీ ప్
 జ పాన్
 కా మె
లే దా
ఆర్ టీసీ
 వా ల్
 దా కా
 క్ లీ
ించు కోవాలని
 లీ కేజీ
 చేపట్ట ాలని
 కథ నం
 తెలుసుకు న్నారు
 బై డెన్
 నాగ ార్జున
 పౌ ర
 శాసన సభ
 వినో ద్
విచార ణ
u m
త మ్
బ ౌ
స ెంట్
 స పోర్ట్
గా లి
 స్ పా
కా డ
 సం స్కృతి
ప్ర భా
 వే సు
మె న్స్
 సా ఫ్ట్
 రాష్ట్ర వ్యాప్తంగా
 ధ ృ
చే ందుకు
 యా క్ట్
వేశ ారు
బి యా
 టై ంలో
 ప్రజా ప్రతిని
 నింది తులు
 కస్ట మర్
 షి ప్
 మేనే జర్
 బస్ సులు
 ప్రభావ ంతో
 సీఎ ంగా
  యోగ
క ాయి
ఘ టన
ట ూ
 స మితి
తు లపై
ంత ంగా
 కొ డు
 మా నే
 డ యా
డీ ఏ
మె ద
 డి ఫ
 ఇచ్చ ేందుకు
 సినిమా ల్లో
 సహ కారం
ఫి బ్రవరి
 న్యాయ మూర్తి
 గ్యా ంగ్
 గ్ లోబల్
 అనుభ వం
 యజ మాని
గ ్యం
ట ార
ప ని
ల వ
ాల ూ
 తె చ్చి
 సి ట్
త్ర ు
సా ం
 పు రో
 మధ్య ప్రదేశ్
తన ను
సై జ్
 స్థాయి కి
 భూము ల
 స్థి ర
 గ్ లా
 ఖాతా లో
 విభ జన
పెట్టి ంది
 ఉపాధ్య ాయ
ప ిన
శ ై
శ ాయి
‌ త
‌ థ
లో గా
 స న్న
న్న త
 ర న్
ాల ె
ప్ లే
 ఎ ఫ
 స్ వాత
 ల క్
 మో స్తరు
 ఐ ఏఎస్
 స్ప ేస్
 కేంద్ర ానికి
 బి ఆర్ఎస్
కె ళ్ల
 కె సిఆర్
 మంచి ర్యాల
 లి ంగ
 సరి గ్గా
గాల ని
 థ ్రి
 ముగి సింది
 కష్ట ాలు
 నిలిచ ిన
 గుండె పోటు
 రెస్ టార
 స్టూడ ెంట్
 స్ట్ర ీ
 అవినా ష్
ెడి ట్
అ న
అ మ్మ
శ ాలలో
ವ ನ್ನು
ಿ ಗೆ
 ఎ లి
డ్ చల్
 స్ ట్రా
కో ండి
 మె డ
 తా త్
మూ రి
 యువ కులు
 సంవత్స రాలు
 వస్తు వులు
 ఆసక్తి కర
 ఎగ్ జా
 దారు ణ
 మొత్త ాన్ని
 చిత్రా న్ని
  یہ
ట ేషన్
ప డా
శ రీ
ೈ ರ
కు నేందుకు
 ఆ యిల్
సి ఫాబాద్
 తీ సే
ఆర్ ఆర్
 ట ూ
 ట ూర్
మో డీ
 ఇచ్చ ారని
 పు రస్
 ప్ ల
 అత న్ని
పెట్ టే
 పరిస్థితి ని
 స్టార్ ట్
 రామ చంద్ర
 వైద్య ం
తరు వాత
 ఆరోగ ్యానికి
 అదన ంగా
  ಜ
ఆ రు
ట ల
ట మే
 చ ారి
 అ ండర్
 ఇ వ్
టి కీ
 చె త్త
మి గతా
 మా మిడి
 తన పై
 పై కి
 కేసు ల్లో
 పెట్ట డం
పల్లి లో
 పద ో
త్వా నికి
 నాలు గే
 సంద ేశ
 లాభ ం
 చక్క ెర
 ముని గి
 శాస్త్రవేత్త లు
జ ంలో
జ ాయ్
డ ార్
‌ స
 క ీర్
 ఆ డిన
 బ ెల్
ప్ లా
 ఎ త్త
 ని ధుల
 స్ వే
 ల ారీ
బ్ బా
జే షన్
టా న్
 పి ంఛ
 దగ్గ రకు
 క్రి మిన
 దో పిడీ
 ప్రీ మి
 రాజే ందర్
 అవకాశము ందని
6 8
జ ెన్సీ
ద ండ
ల ెక్స్
‌ స్టా
ని వ్వ
ంద ట
ంచ ెం
 బ ంగా
 బ ాలా
 ఎ డి
 ఇ ప్ప
 ని త్యం
 వె ను
ారి స్
ప్ర ముఖ
 వే సే
 ధ న్య
 కేంద్ర ంలోని
 పెద్ద లు
మయ్య ే
 నిర్మ ించారు
మొద ట
 అప్పు లు
 నిబంధ నలు
 కురు స్తాయని
 భవ నం
 సోదరు డు
7 2
ఆ ల
క త
జ ్య
ల వరం
 ప టి
 క ండు
 చ ర్చి
 బ ల్
 వి క
 గ రి
నా గ
లే షన్
ఎస్ టీ
ండ్ లను
చి ంగ్
 మె రుపు
 పొ ందే
 జీ వన
 చెబు తారు
 సై న్
19 4
 నె లకు
 పనిచే య
 పొందు తారు
 అరు దైన
 టే బుల్
 పండి తులు
ೈರ ಲ್
ن د
క ారానికి
ష ాలు
 మ హ్మద్
 ఆ స్తులు
 మా స
 పా ండ
 వే లకు
 పె డితే
సం స్థ
మే ము
 తెలు సా
 కావ ాలి
మూ ల
 ఊ ర
 నగ రం
 లు క్
 సొ సైటీ
 న్యాయ స్థానం
 సంద ీప్
 దో చుకు
ట్యూ ట్
నిజా మాబాద్
 నినా దాలు
 రాజమ ండ్రి
 నాశ నం
 శంకుస్థా పన
క ట్
స వి
స ముద్ర
ా ంగ
స్ వీ
 క ష్టం
 స రికా
ము ందే
 చి న్నారు
 సినిమా పై
 ప్రారంభ ించింది
 సమస్య ను
 అందించ ాలని
 దాడి లో
 సొ మ్ము
 రాశి లో
 భావ ించారు
 భూము లను
 అంబ టి
 ఎన్డీ ఏ
తమిళ నాడు
  టర్
ఫ ే
 త ార
లి న్
రా నున్న
వి విధ
 చేయ ాలనే
 ట ెం
వర ల్డ్
బీ ర్
 చేస్త ాం
 చంద్ర ుడి
 కల గ
 ఇవ్వ లేదు
 స్వ తంత్ర
 సేవ లను
 వ్యాప ారం
 పర్యటన లో
 కంట ెంట్
 హు స్
 మిన హ
 అయ్యా డు
 నిలదీ శారు
 సద స్సు
 మ ంచ
 స ంతా
ించ ండి
 బ ంద్
 గ ూడ
ష్ ప
కా న్
కా మారెడ్డి
 కో ర
 ము గ
 సై ట్
 అమ రావతి
 నె ల్లూరు
పడ్డ ాయి
ఎన్నిక ల్లో
 విభా గంలో
 కల్పించ ాలని
 మను ష
 ట్రో ఫీ
 వేర్ వే
  E
అ యోధ్య
డ బ్బు
ద వ
 ఆ ప్షన్
 ఎ స్టేట్
 ఇ ష
టీ వీ
ల్లో ని
 తీ ర
‌లో నే
 తి రి
 ఆర్ టి
 ఫోటో లు
 భు వనగిరి
 ಮಾ ಡ
ଙ ୍
ప క్క
స గా
ృ ద
ర్ లకు
 చ ంపే
మా త్రం
సి కింద్రాబాద్
 హ ౌ
మి గిలిన
పా న్ని
షన్ లు
తున్న ాడు
 వీ టి
 జీ వన్
 సై న్యం
 ఫి క్స్
 తప్ప ి
 అధ్యక్ష ులు
 మహ ే
 హె లికా
 పోలీసు లను
అంత ర్
 వ్యాప ారులు
 స్టే డియం
 బ్రి టన్
 ఆం క్షలు
ఆ స్ట్రేలియా
క ్రీ
బ ార్
ಿ ರು
 అ థ
 త దుపరి
 రా సి
రా ము
 ఏ సీ
 లో నూ
హి ందూ
 పని లో
త్తు లో
 ప్రారంభ ోత్స
 ఏర్పాటు కు
 జరగ నున్నాయి
 ఆర్థిక ంగా
 తయ ార
న్సిప ల్
 జే డీఎస్
 జు ట్టు
నిజా నికి
 స్పంది స్తూ
 క్లా స్
పడ్డా డు
 బ్యార ేజీ
 లక్ష్మ ణ్
చ ింది
ద ంలో
 ఆ క్
 ఆ దర్శ
 బ ంతి
ంట ాడు
ాయ త్
 జ ాన
 స్ పోర్ట్స్
స్త ారా
నా థ
లీ ట్
 బీ సీసీఐ
 పార్టీ లోకి
ట్టు కున్న
 ఉంటు న్నారు
 అంత రిక్ష
 పీ ఎస్
ించు కొని
 బయట పడ
భార తీయ
 విస్త రణ
సాయ ంత్రం
 కుంభ కో
 కబ్ జా
ం ఠ
ల ూరు
‌ ప
 ప వార్
ంట ినీ
ార్ జి
 వి డా
 గ మని
తో న్న
రో డ్డు
దే వ
డే జా
 అత డి
 గో ల్
 విడుదల ైన
 వేయ ాలని
 నిర్వహి స్తున్న
 నిర్వహి స్తారు
 నమోద ైన
 శరీ రం
 ఉద్దేశ ించి
 కళా శాల
 రెస్ పా
 సెక ండ్
କ ୁ
స ెన్
⁬ ను
 ప నికి
 అ బ్బ
 త ్యా
 గ డ్డ
లా డు
 వే లాది
 సీ న్
ంబ ి
 తా నే
 సమస్య లపై
పూర్ ణ
 ఫిర్యాదు లు
పాల పల్లి
 అమెరికా లో
 హక్కు ల
 ప్రయోజ నం
 గిరి జ
 మృతదే హాన్ని
 జర ప
 ప్రోత్స హ
దక్షి ణ
డ వు
డ ్యు
ప ించే
స ెల్
ು ದ
‌ :
 వ ో
 అ జయ్
 స ల్
 ప్ర ార్థ
లా ట
క్క ీ
 నిర్ ధార
ెక్ కు
 ప్రతి కూల
 నిర్ణ యాన్ని
 ఫో ర్లు
 పాల్గొ ని
 పెరుగు తోంది
 చిత్ర ంలో
 ఆలో చి
 తీరు పై
 కోరి న
పార్ల మెంట్
‌ ..

స్ మా
 స ృష్టి
 ద యా
ష్ టి
 వా టికి
వీ ర
 ట ూరి
ండ్ లుగా
 కి ంగ్స్
్యూ టర్
 సు ధా
 చేస్త ామన్నారు
 కేసు ల
 లా వా
కె ప్టెన్
 ఉప శ
 గ్రామ ీణ
 ఊ పిరి
 వార్ తా
 ఆల స్యం
 అప్ప ట్లో
 కర్ణాటక లో
in g
 పేద లకు
 నెరవే ర్చ
 సిస్ట మ్
6 9
వా లో
 స్ వి
 స్ కిల్
 పో యి
 వే రు
 తెలి పాడు
 ఓ టే
 సా గి
మీ ద
 బి జీగా
 తు మ్మల
 పత్ర ిక
 తీసుకెళ్ల ారు
 నిషే ధం
 ఆస్ తి
 భిన్న ంగా
 కృత జ్ఞ
ఇ ండి
త ిన
‌ ನ
 అ చ్చ
ారు ల
 ప్ర యో
 ద ౌ
నా మ
 ఈ వో
 చేశ ాం
 నే ల
 స్థ లం
 దేశ ాలకు
 ట్ర ెండ్
 నిర్వహ ించనున్నారు
 శి శు
 వచ్చిన ప్పుడు
 ఉంట ారని
 కుటుంబ ంలో
 వివా దా
విధ ంగా
 విధా నాన్ని
 జీవి తాన్ని
 దక్షిణా ఫ్రికా
  యోగం
క రోనా
వ ాలను
 ప ాలకు
 అ ఫ్
 త ినే
 ఇ తరు
టీ ఎస్
క్ష ా
పో తాయి
 ప్రాంత ాలు
త్తు గా
 కల్ తీ
 పెట్ట ాలని
 ఒక్క రూ
 మహ ేశ్
మూ డో
 అర్ బన్
 ప్రత్యేక మైన
 ఆశ లు
 ఫోన్ లు
 మండల ంలో
 పున రుద్ధ
లక్ష్ మీ
 విపరీ తంగా
 రీసె ర్చ్
  ह
u r
త లను
హ ీరో
‌ నాథ్
 అ ఖి
 ఆ రం
 న ంది
సి ద్ధ
నా టి
 గు లా
దే వీ
 దా నం
 మొ గ్గు
బీ ఆర్
 రి టర్
వై సీ
 హా స్టల్
 బె ంచ్
 శి వారు
 ఆధ ిక
 గ్రామ ాల
రోజు ల
 ప్రధాన ంగా
 జై ల్లో
రిక న్
ైర్ యం
 అడి గిన
 గెలిచ ారు
ప్రమా దం
 బతు కమ్మ
 నిధు లను
ప్రత్య ేక
" .

అ యిన
ద ించారు
ఫ ైన
ష ్యం
‌ ట్లు
 ఇ స్తారు
 ఇ ండ్ల
 రా ణ
 లో కేశ్
ప్ర యా
డం పై
ల్ల ంపల్లి
 చెప్ప ినట్లు
వర్ క్
వర్ గం
దేశ వ్యాప్తంగా
ట్టు కో
కర కాల
 ప్రతి ష్టా
ఫీ స్
 ఒక్క ొక్క
 దూ కుడు
దీని ని
 వార్ నింగ్
 సరి కొత్త
ళ్ళ ీ
 పత్ర ాలు
 R e
 కన్ వీ
 ఆయ న్ను
 దంప తులు
 గౌర వం
ందర గో
 ఉగ్ర వా
 విరు చుకు
  p
6 4
శ క్తి
 అ ద్దె
 చే స్తోందని
 ద ్
 ని మ
వి ష
మే జ్
 ఖ చ్చితంగా
 పొ గ
 ప్రారంభ మైన
శి క్
 సభ్య ులతో
 విచారణ ను
 ఉత్త మ్
 కర్ నాటక
 ఉపయోగ ించి
 సిద్ద రామయ్య
త్యా మ్
 సురే ఖ
 శ్రేణ ులు
 సంగీ తం
6 7
క మైన
హ త
హ ూర్
 వ దులు
 అ నర్
 స గం
క్ టు
 కా వాల్సిన
 కా ళేశ్వరం
 పో య
కే రళ
 చేయ డమే
 గా ను
 దా ట
 శా తానికి
తే జ
 మరి కొందరు
 పలు కు
 భాగంగా నే
ఆయన కు
 అన్న ది
 చై తన్య
 తు ఫ
 నాగ ేశ్వరరావు
 లబ్ ది
 అధి ష్టా
 ఎన్డీ యే
 హెచ్చరిక లు
 ప్రశంస లు
 భూకంప ం
 ఎల క్షన్
  *
ر ا
ن گ
ం పి
 అ ప్పుడు
 ఎ ందు
 వి త్త
దా బాద్
గి ంపు
వీ డియో
 ఓ ట
 పే ర్
 నా న్న
 సు దీర్ఘ
 ప్రారంభ మైంది
ఢిల్లీ లో
 మండ లాల్లో
 సిద్ధ రామయ్య
 వార ే
ఎన్ టీఆర్
చిత ్ర
 కేటాయ ించారు
 వ్యతిరేక త
 ఆహ్వా నించ
రిగే షన్
8 00
ఇ ంటర్
ట ాలీవుడ్
‌ .

‌ స్
 మ ిల్ల
 త ూ
 జ ట్ల
 ని దర్శ
గు జరాత్
 పో ల్స్
 లో తు
ామ ంటూ
 లే కపోతే
 అను మానాలు
 సె న్
 మాట్లా డే
 మి లి
 ప్రారంభ ించ
 చేప ట్టింది
 వ్యక్తి కి
 వెళ్లి ంది
 జట్టు ను
 వికెట్ ల
 పరిశీల ించి
 పర్ సన్
 సంక్షేమ ం
 పరిమి త
 మనో జ్
  ح
. c
a v
ଡ ି
ఆ న్
క ్యం
 స త్
 ని ంప
డా డు
 ల ెక్కి
పీ సీ
 వె య్యి
కో ల్
 కు మార
 వే ముల
వర్ తి
 కార ్యా
వర ూ
సా మా
ుకు ంది
 తర చూ
స్ట ేషన్
 రూప ాయి
పూర్ తి
 డీ ఎం
 క్యా ంప
 పద వీ
 కంపెనీ ల
 వ్యతిరే కి
షా బాద్
భవ ార్
 భు వనేశ్వ
అనే క
 మౌ లిక
 రాజే ంద్ర
విని యోగం
 ఇంటర్వ్యూ లో
 తెల్లవారు జామున
e w
ఇ ద్దరు
క ట్ట
న ొ
న మి
మ ూరు
మ ధ్యాహ్నం
ృ తంగా
క్ వ
 బ యో
 ఇ ందుకు
ండ టంతో
 హ ృద
వు ను
ద్ద ర్
 పే ర్లను
 వై యస్
 రి యా
 వీ రికి
 సె ర్చ్
క్రమ ంగా
కె ళ్
 వర్ష ాల
 ఆదేశ ాల
 కౌ ంటింగ్
 అడ్ డం
 జగ ిత్యాల
 బంధు వులు
 କ ରି
 నిషే ధ
 ఏకా దశి
 స్టీ ల్
  టు
ర మ్మ
 ప న్న
 అ లియా
 స వరణ
 ఆ సీస్
 ఎ నర్జీ
 ద క్కు
 చె రు
 పో యింది
 మా ధ
 పా టి
ంటి కి
మె గా
 బ్యా నర్
 అభ్య ంతరం
 కల్ వకు
ంజ నేయ
 జరగ కుండా
 అత్య వసర
 చా ట్
కేంద్ర ం
 తీర్పు ను
 సిటీ లో
 కీ పర్
 ఖాయ మని
క్రా ంతి
ష భ
‌ డం
 గ ందరగో
ంగా న్ని
 ఈ వీఎం
కో లేదు
 కు దు
 పార్ ట్
గి రీ
తున్న ా
 పరి గ
మే నని
దేశ ంలోని
 కి ంగ్
షి యం
 అభ్యర్థ ులకు
 వర్ష పాతం
 అం శాన్ని
 సభ్య ులకు
 ا ی
 సిద్ధ మవు
 ہ م
 కొట్ట ే
 విదేశ ాంగ
తిరు పతి
 పర్యా వరణ
 అభిన ంద
 స్టూడ ెంట్స్
 ఆరోపి స్తున్నారు
 పిలు స్తారు
అప్ప ట్లో
 సిలి ండర్
) :
5 3
ع و
క డ
ದ ೇ
 ప ర్మి
 మ ళ్ల
 గ ై
 శ తాబ్
పు రి
లకు ండా
 ఫ ేస్
పో లింగ్
 సి క్స్
సా న్
 చూ పించారు
 రాష్ట్ర ాలు
 రె జ్
 దొ రుకు
 గ్రా ండ్
స్థా నిక
 రిజర్ వ
 సంతో ష్
 పంట లు
 కమ లా
 నై పుణ
 స్టా క్
చో ట్ల
 కాంట్రా క్టర్
 ఎలక్ ట్రిక్
 సంచల నం
ఎ లా
డ ్రో
ద ెబ్బ
ఫ రెన్స్
 ప సి
ర్ వా
 క ట్టి
 మ స్క్
 ర ౌండ్
 బ ాయ్
రి న
సీ ల్దార్
 కొ ద్దీ
 ప్రా క్
 చూ సేందుకు
 జీ ర్ణ
 చెబు తూ
 సై న్స్
 జరిగిన ట్లు
 పాల స్తీ
 గ్రామ స్తులు
 నిర్మ ల్
 లక్ష్ మి
ముందు గా
 సార్ వత్రిక
 ఒకే సారి
 పున రా
 ఉత్తర ప్రదేశ్
 డాల ర్లు
 చెల్లి ంపు
 నర సింహ
 ధన్య వాదాలు
  U
ఇ ంట్లో
ణ ాల
థ ో
ಾ ನ
కు ంటూ
ంట ె
 న ెట్టి
టీ న్
 భ ారం
 కా ద
 శ ్రమ
లీ ష్
 వె యి
పో త
 శా శ్వ
 మధ్య ంతర
 పోటీ లో
వె ళ్ల
 విజయ వంతంగా
 అంది స్తున్నారు
 బిల్లు లు
 జాబిత ాను
 మల్ల ారెడ్డి
 విడి చి
 కిడ్ నా
ر ل
ణ ిక
బ య
హ ్రూ
 ర ెండి
పీ డ
వు తున్నారు
 చెప్ప డంతో
 రో ల్
 చి త్తూరు
 వర్ గాల్లో
 తే జ
 చంద్ర యాన్
 అంత ర
 వెళ్ల డం
 విధ ించారు
 పద వులు
 శు భవార్
సె న్స్
 కొనసాగు తున్నాయి
 తీర్ చి
ంప్ లెక్స్
 ఫొటో లు
 సాధారణ ంగా
 ఉద్యమ ం
 నివ స
 క్యార ెక్టర్
 అభిన ందించ
 కాక ినాడ
 అద ృ
 లావా దేవీ
6 3
ت ے
ొ చ్చ
 చే తి
 తీ ర్చ
 సి ం
 చేయ ాలన్నారు
సే పటి
 ధ ్రు
 కార్ డ్
 క్ వి
 ఇవ్వ ాలి
 లా ంచ్
 లి స్టు
నల్ గొండ
 ఊ రు
 విని పించ
 సాయ ంతో
 ఫా స్ట్
 కనిప ించే
 ఇంగ్ లండ్
 రిజర్వేషన్ లు
మ్రా న్
 ఎడ ్యు
 ప్రవర్ త
 సీఈ వో
జగ ిత్యాల
 పేలు డు
 స్వే చ్ఛ
 కార్యా చరణ
  ల్లో
6 2
ప రంగా
భ య
మ న్న
ంద ారు
 మ గ
 స రే
 ప్ర చారాన్ని
డి గడ్డ
ాయ ుడు
 జ ్వ
సు లకు
 భ ర
కా కు
 తే జ్
 పై ల
 శ్రీ కాంత్
 యూ జర్
వె లుగు
ించు కోవడానికి
 భారత దేశంలో
 పథ కాన్ని
 హాజరు కా
 లేద ంటే
 గట్టి గా
 కమ్యూని టీ
 అర్ధ రాత్రి
 క్రై మ్
 విగ్ర హాన్ని
  خ
h e
ہ یں
ఇ టీవలే
మ ను
 వ ్ర
 త మి
వా సీ
 రా కెట్
 కా నుక
 శ ైలి
 ఏ ళ్లుగా
 ఈ నెల
 సి ంహ
త్త ారు
 చెప్ప ారని
ధి ప
మో త్స
కుండా నే
 ప్రతి పాద
 కేంద్ర ాల్లో
 చేసుకు ంటున్నారు
 ది గ్గ
 యూ ఎస్
 మీద కు
 ఆరోగ్య ంగా
 నమోద య్యాయి
 దేవ స్థానం
 అరు ణ్
 బూ త్
 దినోత్స వం
 విషా దం
 జిల్ల ాలకు
 విలీ నం
 ఆరుగు రు
 క్రిమిన ల్
‌ క్
 అ బద్ధ
పై నా
వు తాయి
 మా వోయి
 చేయ ాలను
 వా న
 నే పాల్
 యా దాద్రి
 అమ ర్
 జగన్ మోహన్
 నె లా
 విధ ్వ
 నిల వ
 నిమి త్తం
 కౌన్సి లర్లు
 కార్యకలా ప
 నిర్వాహ కులు
ఫలి తంగా
 ప్రాతిని ధ్యం
 సజ్జ ల
  ಗ
అ భ్య
భ రణ
స ెట్
ొ మా
ವ ಿ
ಾ ವು
స్ పె
 క ద
 స దరు
ంచ ీ
తు డి
 బ ండ
 ద క్కింది
 శ ్యా
సీ ఐ
వే య
దా నం
తా జా
 జరి మానా
లతో పాటు
 చేసే లా
 చర్చ కు
 సభ్య ు
త్మ ిక
 తరు ణంలో
 కొనసాగు తుంది
 గెలి స్తే
 విక్ర మ్
 నిరసన లు
 స్థి తిలో
తెలుగు దేశం
 విశాఖ పట్నం
 లోప ల
 ఛాన ెల్
  स
క ాలకు
ఖ ిల్
జ య
ర థ
శ ్రమ
 ప ంపు
 ఆ ర
 ఇ స్తుంది
యా ల్సి
సి ం
 హ నుమాన్
 కొ బ్బ
వే లు
ాలి న్
కర ించి
 ట్ర ీట్
 పథ కాలను
 గుర్తు చేశారు
 తీసుకున్న ట్లు
జిక ల్
చె ప్ప
లేక పోయారు
 ట్యా పింగ్
 సింగ ిల్
 పరిమి తం
 సినిమ ాల
 శ్ర ద్ధ
 ఫిల్ మ్
 క్వార్ టర్
  म
గ ని
మ ౌ
శ ం
స ాలు
ా ల్సి
ని యన్
 అ ద్ద
 త వ్వ
 ఇ వే
ద్ వాల
డా నికే
 భ యా
 గు ప్
 నే ర్చుకు
దే వ్
 భా వన
 క్ర ెడిట్
 ఉద్యో గి
 పను ల
 సంగ ారెడ్డి
 బాధ పడుతున్న
 సహాయ పడుతుంది
 మహబూ బాబాద్
 ఎవ రో
భ విష్య
 అ లం
ాయ నే
సు మారు
 కా ల్స్
క్ష ంగా
 కొ ంచెం
 బా గానే
 గా లు
 ఖ రీ
 ఎమ్మెల్యే ల
 నీ ర
 మీడియా కు
 ప్రకట ించ
 కారణ ాల
 లా ల్
 క్యా ంప్
 ఆందోళన లు
 తీసుకె ళ్లి
 సెల వులు
 కార్డు లు
 పట్టుకు ని
 రంగా ల్లో
 చిరు త
 కట్టు బడి
 ప్రస్తావ ించారు
 తప్పనిసరి గా
 కన్వీ నర్
  ط
6 1
7 9
ఎ క్కడ
త న్
త ారా
వ ైన
‌ షిప్
 ప ల్లె
ని రు
 చే రిక
 ఆ కు
ార్ ఖండ్
 ని వాళ
పి స్తే
 దా స్
 కలి గే
భా ల్లో
 పరిస్థి తులను
 బు మ్రా
 ఏడాది కి
 ఢిల్లీ లోని
 సరి పో
 స్థాన ాలను
 సేవ ల
 వయ సులో
 సురక్ష ితంగా
 గెలిపించ ాలని
 మార్గ దర్శ
 అశ్ విన్
7 00
‌ నగర్
 న చ్చ
ార్ టీ
మా టా
ష్ ఠా
 చె ట్టు
సీ దు
 సమ ంత
 చూ శా
 రాష్ట్ర ాన్ని
 రి ంగ్
 వ్యక్ తుల
 తి ంటే
హా న్
 పోటీ కి
 ప్రత్య ర్థి
యు డి
 సందర్ బంగా
 అత డు
an g
 చేసుకోవ డానికి
 హెచ్చ రించింది
 గాయ పడ్డారు
 సమ్మ ె
 మల్ కా
 ఎక్ సైజ్
 అనూ హ
మెద క్
 రెస్టార ెంట్
అంతర్ జాతీయ
అయిన ప్పటికీ
  H
  ಚ
କ ୍
చ ర
జ ైన
య ార్క్
‌ ణ
 ఆ కాం
రు స
 ఇ టీవలే
స్తు లను
యా ళ
 రా ణి
 హ ేమ
నా న్
 స్ట డీ
 మో టార్
 పి ఠా
 ఎం జాయ్
 శాఖ ల
 సే వా
 సే ఫ్టీ
 మారు తుంది
కొత్త గా
 విద్యా శాఖ
ಾಗ ಿ
 సునీ త
 ఇంజినీ రింగ్
 ఒలిం పిక్స్
ళాఖా తంలో
కనీ సం
? ,
ی ش
ఏ ం
ద ళ
న స్
ఫ ో
భ వన్
వ ెం
 క ంగ
న్న ారని
 ఆ డు
 జ డేజా
 లో పం
 వర్ గ
 మూ ల
 ఐ దో
 నెల లుగా
ణ్ ణ
 అం కి
 క్యా డర్
జెక్ టు
 పంప ించారు
 క్ల బ్
 పెం పు
విద్య ాల
 క్రీ డ
 ఘన త
లేద ంటే
సొ ంత
 స్ఫ ూర్తి
 అంబా నీ
ହ ି
డ తారు
ష ణ్
స్ టింగ్
 ఇ స్తూ
 వి డ
తి కే
 రా బోయే
 శ ోభ
మి లి
 పె డుతున్నారు
 రూ ల్స్
 పే ర
 దీ ర్ఘ
 కాలే జ్
 పక్క నే
 సూర్ యాపేట
 మొదలు పెట్ట
ఫా మ్
 బాధ్యత లను
 నగర ంలోని
 ఉపాధ్య క్ష
 ఆలస్య ంగా
a p
క విత
ట ప్
‌ సీ
ని యోజక
 అ వా
 న ెక్
 వి రిగి
సు లను
గు ండం
ండ ర్లు
కా లుగా
 కా నున్నారు
రో డ్
 డ ్యూటీ
 చేయ నున్న
 ప్రజ ల్లోకి
 పాత్ర లు
 జి యో
ائ رل
 పరుగుల కే
 సౌకర్ యాలు
 మందు లు
 ఉష్ణోగ్ర త
 ఆశ్రయ ించారు
 కర్నూ ల్
క్షే త్ర
 తహ సీల్దార్
 ఉపశ మనం
  X
7 1
8 8
‌ బ
సు ప్రీం
 ని వార
పో తున్నాయి
ామ ీల
 ము మ్మ
 డ ెడ్
వర్ ధన్
.. !!

ష్ట ంగా
 పు నర్
 చేస్తున్న ా
 అమ ల్లోకి
 సంవత్స ర
an a
 భావి స్తోంది
మర్ షియల్
ారనే ది
 నై ట్
 కుటుంబా లు
 అద్భు తంగా
ెక్ట ార్
 వ్యవహార ాల
 సచి న్
 కొర త
ا ب
జ ెండా
తు కు
 గ ంగా
 రా వాల్సి
 శ ారీ
ెం డింగ్
 ము డి
కొ నే
 నా ంపల్లి
 సు ఖ
 రై ళ్లను
 తో పాటు
 శి బి
 క్యా ంపు
ఫె క్షన్
ತ್ತ ು
లేకపో యా
 సన్ని హి
 రవీ ందర్
 సురక్ష ిత
 రెగ్య ులర్
 అథ ారిటీ
و س
ప ల్లె
ొ న్న
ంద రికి
్య ంతో
తు ంటాయి
 బ ేస్
 ఎ ప్పుడ
స్త ్రీ
 ఏ మాత్రం
 కొ లు
 లే న
ల్ల ర్
కూ ర
ందో బ
 వెళ్ల ాలని
 ఒక్క టే
బె టిస్
 బొ గ్గు
 మొదలు పెట్టారు
 సంత కం
 రహ స్య
 ఆహ్వా నించారు
 పట్టుకు న్నారు
 కర్నూ లు
 v s
 మణి పూర్
 రెస్పా న్స్
ର ା
ା ନ
ఏ డాది
జ ాల
ఫ ల్
 ప చ్చ
స్ తి
 త క్షణ
 జ రగా
 ఇ రిగేషన్
 ద ళి
ంగ ే
ష్ క
 య ంత్రా
 వర్ గీ
 తీసుకు ంటున్నారు
 తర్వాత ే
 తో ట
 యూ త్
 ఉప సం
 పట్ట ా
 దర్శ కత్వం
 ఇంటి ని
 క్రమ ంగా
 ఇంటర్ నెట్
మర్ జెన్సీ
మహిళ ా
నాయ క్
 షు గర్
 తీర్చి ది
7 3
t er
అ ప్పుడే
న న్నారు
శ ీల
 ర క్
 ర ాయి
 ప్ర త్యామ్
 ఆ త్
 ఆ ంధ్ర
 బ ్యూ
 ఉ ందో
 జ ్యు
మా నాన్ని
‌‌‌‌‌‌‌‌‌‌‌‌‌‌‌‌ ,
 కా ంప్లెక్స్
 గు ప్ప
పి డి
ెక్ సీ
 ధ ైర్యం
 అను మాని
 పు ట్టి
 డీ సీపీ
 రే ట్లు
 ఎంపీ పీ
 కీల కం
 గో పాల్
 ఉండే ందుకు
 స్వ చ్ఛ
క్టో బరు
 అప్ డేట్
 పర్యటన కు
 లేఖ లో
 కనీ స
 వ్యవహార ంలో
‌‌‌‌‌‌‌‌‌‌‌‌‌‌‌‌‌‌‌‌‌‌‌‌‌‌‌‌‌‌‌‌‌‌‌‌‌‌‌‌‌‌‌‌‌‌‌‌‌‌‌‌‌‌‌‌‌‌‌‌‌‌‌‌‌‌‌‌‌‌‌‌‌‌‌‌‌‌‌‌‌‌‌‌‌‌‌‌‌‌‌‌‌‌‌‌‌‌‌‌‌‌‌‌‌‌‌‌‌‌‌‌‌‌‌‌‌‌‌‌‌‌‌‌‌‌‌‌‌‌‌‌‌‌‌‌‌‌‌‌‌‌‌‌‌‌‌‌‌‌‌‌‌‌‌‌‌‌‌‌‌‌‌‌‌‌‌‌‌‌‌‌‌‌‌‌‌‌‌‌‌‌‌‌‌‌‌‌‌‌‌‌‌‌‌‌‌‌‌‌‌‌‌‌‌‌‌‌‌‌‌‌‌‌‌‌‌‌‌‌‌‌‌‌‌‌‌‌‌‌‌‌‌‌‌‌‌‌‌‌‌‌‌‌‌‌‌‌‌‌‌‌‌‌‌‌‌‌‌‌‌‌‌‌‌‌‌‌‌‌‌‌‌‌‌‌‌‌‌‌‌‌‌‌‌‌‌‌‌‌‌‌‌‌‌‌‌‌‌‌‌‌‌‌‌‌‌‌‌‌‌‌‌‌‌‌‌‌‌‌‌‌‌‌‌‌‌‌‌‌‌‌‌‌‌‌‌‌‌‌‌‌‌‌‌‌‌‌‌‌‌‌‌‌‌‌‌‌‌‌‌‌‌‌‌‌‌‌‌‌‌‌‌‌‌‌‌‌‌‌‌‌‌‌‌‌‌‌‌‌‌‌‌‌‌‌‌‌‌‌‌‌‌‌‌‌‌‌‌‌‌‌‌‌‌‌‌‌‌‌‌‌‌‌‌‌‌‌‌‌‌‌‌‌‌‌‌‌‌‌‌‌‌‌‌‌‌‌‌‌‌‌‌‌‌‌‌‌‌‌‌‌‌‌‌‌‌‌‌‌‌‌‌‌‌‌‌‌‌‌‌‌‌‌‌‌‌‌‌‌‌‌‌‌‌‌‌‌‌‌‌‌‌‌‌‌‌‌‌‌‌‌ ‌‌‌‌‌‌‌‌‌‌‌‌‌‌‌‌‌‌‌‌‌‌‌‌‌‌‌‌‌‌‌‌‌‌‌‌‌‌‌‌‌‌‌‌‌‌‌‌‌‌‌‌‌‌‌‌‌‌‌‌‌‌‌‌‌‌‌‌‌‌‌‌‌‌‌‌‌‌‌‌‌‌‌‌‌‌‌‌‌‌‌‌‌‌‌‌‌‌‌‌‌‌‌‌‌‌‌‌‌‌‌‌‌‌‌‌‌‌‌‌‌‌‌‌‌‌‌‌‌‌‌‌‌‌‌‌‌‌‌‌‌‌‌‌‌‌‌‌‌‌‌‌‌‌‌‌‌‌‌‌‌‌‌‌‌‌‌‌‌‌‌‌‌‌‌‌‌‌‌‌‌‌‌‌‌‌‌‌‌‌‌‌‌‌‌‌‌‌‌‌‌‌‌‌‌‌‌‌‌‌‌‌‌‌‌‌‌‌‌‌‌‌‌‌‌‌‌‌‌‌‌‌‌‌‌‌‌‌‌‌‌‌‌‌‌‌‌‌‌‌‌‌‌‌‌‌‌‌‌‌‌‌‌‌‌‌‌‌‌‌‌‌‌‌‌‌‌‌‌‌‌‌‌‌‌‌‌‌‌‌‌‌‌‌‌‌‌‌‌‌‌‌‌‌‌‌‌‌‌‌‌‌‌‌‌‌‌‌‌‌‌‌‌‌‌‌‌‌‌‌‌‌‌‌‌‌‌‌‌‌‌‌‌‌‌‌‌‌‌‌‌‌‌‌‌‌‌‌‌‌‌‌‌‌‌‌‌‌‌‌‌‌‌‌‌‌‌‌‌‌‌‌‌‌‌‌‌‌‌‌‌‌‌‌‌‌‌‌‌‌‌‌‌‌‌‌‌‌‌‌‌‌‌‌‌‌‌‌‌‌‌‌‌‌‌‌‌‌‌‌‌‌‌‌‌‌‌‌‌‌‌‌‌‌‌‌‌‌‌‌‌‌‌‌‌‌‌‌‌‌‌‌‌‌‌‌‌‌‌‌‌‌‌‌‌‌‌‌‌‌‌‌‌‌‌‌‌‌‌‌‌‌‌‌‌‌‌‌‌‌‌‌‌‌‌‌‌‌‌‌‌‌
  J
ఇ క్కడి
జ ర్లు
త లకు
ర ెన్
 బ కాయి
 న టన
మా నించ
 స్ కాం
ిక ెన్
నా ని
లీ ల
 సం రక్షణ
 రూ ట్
యన గ
ుకు నే
 సు ధ
 అభి షేక్
 ప్రాంత ంలోని
 ఘ టనా
 ఫి ట్
 జో క్యం
రై ంది
 కౌ శిక్
మవు తాయి
 భావి స్తున్న
బడు తుంది
 వేగ ంతో
 తీసుకొచ్చ ారు
 శక్తి ని
 మిగి లి
 పర్యట ించారు
 టోర్నీ లో
 బట్ట లు
 రేప ింది
 కండు వా
 ఊర ట
 కృతజ్ఞ తలు
ا س
జ ్యోతి
ప త్ర
బ ంగ్లాదేశ్
ల ాలను
ష ోర్
‌ టి
 ప త్తి
డి క
 బ ందోబ
 న డ్డా
డా క్టర్
వి వే
 చేశ ాడని
 ట చ్
దే వు
 ఉండ దని
 శ్రీ హరి
 నాయ క
 భూ పాలపల్లి
 భారత దేశం
 పెంచ ే
 తెలియ జేశారు
 రు ణాలు
 పడు తుందని
 కేట గిరీ
 కేటాయ ించిన
 చార్ జి
బెట్ టు
 గ్యార ె
 కలుగు తుంది
 తిరుమ లలో
 ఎమో షనల్
 తేలిక పాటి
 జీహెచ్ ఎంసీ
و ن
ప ట్
బ ిల్
బ ెల్లి
శ ాడు
ె త్తి
‌ యం
ంట ర్లు
 ఇ స్లా
 ద సరా
 శ ్రా
 ఏ డుగు
 పె ంచి
తా ల్లో
వర్ గంలో
దే ళ్ల
 ప్రతి ష్ట
 కని పించారు
 క్ లిక్
ర్మ నీ
 పాల్గొ ంటారు
 ఉద్యో గాల
 ఆఫీ సులో
 వెళ్లి పోయారు
పడ తాయి
 గౌ తమ్
 ఆరోపణ లపై
 నిర్మ ించ
స్థా ని
స్టి ట్యూట్
తమ కు
 మర ణం
జ్ఞ ా
 ఫలిత ాల
 చేస్తు ండగా
 ఆరోగ ్యాన్ని
 ವ ೈರಲ್
ಾರ ೆ
 పెరగ డంతో
 ఆవి ర్
 అవకాశము ంది
 వంశీ కృష్ణ
వ్యాప ార
.c om
7 6
క పోయినా
ప రీక్ష
భ ో
ೊ ಂಡ
 అ ణ
 త లుపు
రు గ్గా
 రా గా
 హ ే
 హ ర్యానా
 శ బ్
 మా ఫీ
 లో న్
 సం యు
 ఓ టర్ల
 వచ్చ ాడు
చి వరకు
 రి పే
 ఏపీ కి
 చెల్ల ించ
 నిలిచ ాడు
 రాయ లసీమ
 మనో హర్
 అప్రమ త్త
 సామర్థ ్యం
 గ్రే టర్
  ع
c h
అ తి
ఈ నెల
 ప రో
 త ృ
 ఎ ది
 వి వరి
స్తు లకు
 రా ధా
 కా శ్మీర్
ప్ర ై
పా త్ర
గ్ న
 చేయ నుంది
 పరి సర
 పై నే
 లక్ష లకు
ర్యా నీ
 ఇవ్వ లేదని
 వివర ించింది
 దొ రికి
 చేరు కో
ఆది లాబాద్
తిరు మ
 కాన్ ఫరెన్స్
 ఏజ ెంట్
 విశే ష
స్కృతి క
 రాకపో కలు
 కూర్చ ో
క్వా డ్
 సిగ్ నల్
 అధిష్టా నం
‌ కే
 ప ండ్లు
 చ వి
 ని మ్మ
రా డు
 సా గింది
 ఉండ ొచ్చు
 రై స్
చే సే
 కేంద్ర మంత్రి
 బు ధ
 ఊ రే
 వార ంలో
 డైర ెక్ట్
 సిబ్బంది కి
 రోడ్డు పై
 సంద డి
 రోడ్ లపై
 ఆటగా ళ్లు
 విమాన ంలో
 డాల ర్ల
 సాను భూ
 తెరక ెక్కి
 రుతు ప
స్థాన ంలో
 సుధా కర్
ట ాల
వ డంతో
ూ ప్
 మ ర్చి
 మ ళ్ళీ
తు ందనే
 ఆ భరణ
ండ ేషన్
 తీ ర్థ
రే జ్
 టీ పీసీసీ
 సమా న
పే రు
 ఇవ్వ డంతో
 శి వా
 సై నిక
 ఎస్ సై
 దూ సుకు
పడ్డ ారని
 జో రుగా
 ముగి సే
నంద న్
 శరీ రానికి
 ఇష్ట పడ
 పొడి గ
‌గ ఢ్
 పర్యవే క్షణ
 అత్యా చారం
 కలె క్షన్స్
 మినహ ాయి
 కిడ్నా ప్
7 4
ఆ యా
ఒ డి
ై క
‌ పో
 క మీ
 క ాలా
్య క్రియ
 ర ష్
 ర న్స్
 ర చయిత
 చే తుల
 ఆ మ్
 కా పీ
 సం ప
ప్ర ొ
 చేయ వచ్చు
రీ లు
 అవ కా
 వీ సా
 రై తులను
 ట్ర ైన్
 ఇవ్వ కుండా
 నగ రాల్లో
పేట లో
 సిబ్బంది ని
ారాయ న
 కార్యకర్ తల
 ఫ్ లై
 సంతో షం
 د عو
al a
ائ ی
 మల్ల న్న
 నిరుద్యో గ
 మిన హా
 ପ ୍ର
 పరిగణ న
 అనుచ రు
 అమె రికన్
 పాయి ంట్లు
 దేవర కొండ
 క్లీ న్
ప ట్ల
శ ్య
ంట ికీ
రి యం
లి య
డా న్
సి ద్దిపేట
 కూ ల్
స్తున్న ాయని
 చెప్ప ినా
 స్ట ాలిన్
 రై జర్స్
 బీజేపీ ని
 చేసుకు ంటున్న
 తర బడి
 తొ లుత
 కారణ ాలతో
 భాగ స్వామి
వో ద్వే
 అమ్మ కాలు
 సంవత్స రానికి
చంద్ర యాన్
 మొదటి సారి
 సంక్ష ోభ
 గే మ్స్
 దరఖాస్తు లు
 అల్ ప
 నిర్మి స్తున్నారు
 గొడవ లు
నిర్ మా
 డ్యా న్స్
 తగి లింది
 లక్ నో
 స్ట్రీ మింగ్
రుస టి
 బందోబ స్తు
  प
గ లుగు
న ూరు
ప ల
వ ణ
 ఉ ంచి
ాయ ామ
 జ ంక్షన్
కా క
 కొ నియా
 పా జి
 ఉన్న ందున
 వై ట్
 చూ సింది
 చేసుకు నేందుకు
 జన ార్
కున్న ాడు
 పర్య టి
 తెలుగు లో
 చా న్స్
 నింది తులను
 కురి సిన
 చేస్తు ంటారు
 ఇండి యన్స్
 సంఘటన లు
 అప్పగ ించారు
 క్రా స్
ఆరో గ్య
 కన్ను మూ
నొ ప్పి
 అలియా స్
i l
ఛ ార్జ్
స ారు
 వ స్త్ర
 మ ాల
 మ లుపు
 అ న్నా
 అ ప్పటికే
 చే తికి
ించ ేవారు
 ఆ పే
 బ దులు
 జ న్
త్ స్య
వి జయ్
సీ నియర్
 వా డుకు
 మొ హ
 మె యిన్
 ది గ్
 హా ఫ్
 క్యా పి
 మంచి దని
కపోవ చ్చు
రాష్ట్ర ంలోని
 అందించ ేందుకు
 గుర్త ించిన
 ప్రపంచ ంలో
 బ్యాం కులు
ತ್ ರ
 విశ్వ విద్యాల
 అందరి నీ
విక ్ర
 ఖర్చ ులు
 సల్ మాన్
  O
