{
  "version": "1.0",
  "truncation": null,
  "padding": null,
  "added_tokens": [],
  "normalizer": null,
  "pre_tokenizer": {
    "type": "Sequence",
    "pretokenizers": [
      {
        "type": "Split",
        "pattern": {
          "Regex": "[^\\r\\n\\p{L}\\p{N}]?[\\p{Lu}\\p{Lt}\\p{Lm}\\p{Lo}\\p{M}]*[\\p{Ll}\\p{Lm}\\p{Lo}\\p{M}]+|[^\\r\\n\\p{L}\\p{N}]?[\\p{Lu}\\p{Lt}\\p{Lm}\\p{Lo}\\p{M}]+[\\p{Ll}\\p{Lm}\\p{Lo}\\p{M}]*|\\p{N}{1,3}| ?[^\\s\\p{L}\\p{N}]+[\\r\\n/]*|\\s*[\\r\\n]+|\\s+(?!\\S)|\\s+"
        },
        "behavior": "Isolated",
        "invert": false
      }
    ]
  },
  "post_processor": null,
  "decoder": null,
  "model": {
    "type": "BPE",
    "dropout": null,
    "unk_token": null,
    "continuing_subword_prefix": null,
    "end_of_word_suffix": null,
    "fuse_unk": false,
    "byte_fallback": false,
    "ignore_merges": false,
    "vocab": {
      "\n": 0,
      " ": 1,
      "!": 2,
      "\"": 3,
      "#": 4,
      "$": 5,
      "%": 6,
      "&": 7,
      "'": 8,
      "(": 9,
      ")": 10,
      "*": 11,
      "+": 12,
      ",": 13,
      "-": 14,
      ".": 15,
      "/": 16,
      "0": 17,
      "1": 18,
      "2": 19,
      "3": 20,
      "4": 21,
      "5": 22,
      "6": 23,
      "7": 24,
      "8": 25,
      "9": 26,
      ":": 27,
      ";": 28,
      "<": 29,
      "=": 30,
      ">": 31,
      "?": 32,
      "@": 33,
      "A": 34,
      "B": 35,
      "C": 36,
      "D": 37,
      "E": 38,
      "F": 39,
      "G": 40,
      "H": 41,
      "I": 42,
      "J": 43,
      "K": 44,
      "L": 45,
      "M": 46,
      "N": 47,
      "O": 48,
      "P": 49,
      "Q": 50,
      "R": 51,
      "S": 52,
      "T": 53,
      "U": 54,
      "V": 55,
      "W": 56,
      "X": 57,
      "Y": 58,
      "Z": 59,
      "[": 60,
      "\\": 61,
      "]": 62,
      "_": 63,
      "`": 64,
      "a": 65,
      "b": 66,
      "c": 67,
      "d": 68,
      "e": 69,
      "f": 70,
      "g": 71,
      "h": 72,
      "i": 73,
      "j": 74,
      "k": 75,
      "l": 76,
      "m": 77,
      "n": 78,
      "o": 79,
      "p": 80,
      "q": 81,
      "r": 82,
      "s": 83,
      "t": 84,
      "u": 85,
      "v": 86,
      "w": 87,
      "x": 88,
      "y": 89,
      "z": 90,
      "~": 91,
      "£": 92,
      "©": 93,
      "­": 94,
      "°": 95,
      "·": 96,
      "º": 97,
      "¼": 98,
      "½": 99,
      "Á": 100,
      "×": 101,
      "â": 102,
      "æ": 103,
      "đ": 104,
      "ơ": 105,
      "ư": 106,
      "ʼ": 107,
      "́": 108,
      "α": 109,
      "β": 110,
      "،": 111,
      "؛": 112,
      "؟": 113,
      "ء": 114,
      "آ": 115,
      "أ": 116,
      "ؤ": 117,
      "إ": 118,
      "ئ": 119,
      "ا": 120,
      "ب": 121,
      "ت": 122,
      "ث": 123,
      "ج": 124,
      "ح": 125,
      "خ": 126,
      "د": 127,
      "ذ": 128,
      "ر": 129,
      "ز": 130,
      "س": 131,
      "ش": 132,
      "ص": 133,
      "ض": 134,
      "ط": 135,
      "ظ": 136,
      "ع": 137,
      "غ": 138,
      "ف": 139,
      "ق": 140,
      "ل": 141,
      "م": 142,
      "ن": 143,
      "ه": 144,
      "و": 145,
      "ى": 146,
      "ي": 147,
      "ً": 148,
      "َ": 149,
      "ُ": 150,
      "ِ": 151,
      "ّ": 152,
      "ٓ": 153,
      "ٰ": 154,
      "ٹ": 155,
      "پ": 156,
      "چ": 157,
      "ڈ": 158,
      "ڑ": 159,
      "ڕ": 160,
      "ژ": 161,
      "ک": 162,
      "گ": 163,
      "ڵ": 164,
      "ں": 165,
      "ھ": 166,
      "ہ": 167,
      "ۆ": 168,
      "ی": 169,
      "ێ": 170,
      "ے": 171,
      "۔": 172,
      "ە": 173,
      "ँ": 174,
      "ं": 175,
      "ः": 176,
      "अ": 177,
      "आ": 178,
      "इ": 179,
      "ई": 180,
      "उ": 181,
      "ऊ": 182,
      "ए": 183,
      "ऐ": 184,
      "ऑ": 185,
      "ओ": 186,
      "औ": 187,
      "क": 188,
      "ख": 189,
      "ग": 190,
      "घ": 191,
      "च": 192,
      "छ": 193,
      "ज": 194,
      "झ": 195,
      "ञ": 196,
      "ट": 197,
      "ठ": 198,
      "ड": 199,
      "ढ": 200,
      "ण": 201,
      "त": 202,
      "थ": 203,
      "द": 204,
      "ध": 205,
      "न": 206,
      "प": 207,
      "फ": 208,
      "ब": 209,
      "भ": 210,
      "म": 211,
      "य": 212,
      "र": 213,
      "ल": 214,
      "व": 215,
      "श": 216,
      "ष": 217,
      "स": 218,
      "ह": 219,
      "़": 220,
      "ा": 221,
      "ि": 222,
      "ी": 223,
      "ु": 224,
      "ू": 225,
      "ृ": 226,
      "े": 227,
      "ै": 228,
      "ॉ": 229,
      "ो": 230,
      "ौ": 231,
      "्": 232,
      "ड़": 233,
      "ढ़": 234,
      "।": 235,
      "॥": 236,
      "०": 237,
      "२": 238,
      "४": 239,
      "ঃ": 240,
      "অ": 241,
      "আ": 242,
      "এ": 243,
      "ও": 244,
      "ক": 245,
      "গ": 246,
      "চ": 247,
      "জ": 248,
      "ট": 249,
      "ড": 250,
      "ত": 251,
      "দ": 252,
      "ধ": 253,
      "ন": 254,
      "প": 255,
      "ফ": 256,
      "ব": 257,
      "ভ": 258,
      "ম": 259,
      "য": 260,
      "র": 261,
      "ল": 262,
      "শ": 263,
      "স": 264,
      "হ": 265,
      "়": 266,
      "া": 267,
      "ি": 268,
      "ী": 269,
      "ু": 270,
      "ে": 271,
      "ৈ": 272,
      "ো": 273,
      "্": 274,
      "য়": 275,
      "ৰ": 276,
      "ৱ": 277,
      "ଁ": 278,
      "ଂ": 279,
      "ଃ": 280,
      "ଅ": 281,
      "ଆ": 282,
      "ଇ": 283,
      "ଈ": 284,
      "ଉ": 285,
      "ଏ": 286,
      "ଓ": 287,
      "କ": 288,
      "ଖ": 289,
      "ଗ": 290,
      "ଘ": 291,
      "ଙ": 292,
      "ଚ": 293,
      "ଛ": 294,
      "ଜ": 295,
      "ଝ": 296,
      "ଞ": 297,
      "ଟ": 298,
      "ଠ": 299,
      "ଡ": 300,
      "ଢ": 301,
      "ଣ": 302,
      "ତ": 303,
      "ଥ": 304,
      "ଦ": 305,
      "ଧ": 306,
      "ନ": 307,
      "ପ": 308,
      "ଫ": 309,
      "ବ": 310,
      "ଭ": 311,
      "ମ": 312,
      "ଯ": 313,
      "ର": 314,
      "ଲ": 315,
      "ଳ": 316,
      "ଵ": 317,
      "ଶ": 318,
      "ଷ": 319,
      "ସ": 320,
      "ହ": 321,
      "଼": 322,
      "ା": 323,
      "ି": 324,
      "ୀ": 325,
      "ୁ": 326,
      "ୂ": 327,
      "ୃ": 328,
      "େ": 329,
      "ୈ": 330,
      "ୋ": 331,
      "ୌ": 332,
      "୍": 333,
      "ଡ଼": 334,
      "ୟ": 335,
      "୦": 336,
      "୧": 337,
      "୨": 338,
      "୩": 339,
      "୪": 340,
      "୫": 341,
      "୬": 342,
      "୭": 343,
      "୮": 344,
      "୯": 345,
      "ୱ": 346,
      "அ": 347,
      "ஆ": 348,
      "இ": 349,
      "உ": 350,
      "ஊ": 351,
      "எ": 352,
      "ஏ": 353,
      "க": 354,
      "ங": 355,
      "ச": 356,
      "ஜ": 357,
      "ட": 358,
      "ண": 359,
      "த": 360,
      "ந": 361,
      "ன": 362,
      "ப": 363,
      "ம": 364,
      "ய": 365,
      "ர": 366,
      "ற": 367,
      "ல": 368,
      "ள": 369,
      "வ": 370,
      "ஸ": 371,
      "ா": 372,
      "ி": 373,
      "ீ": 374,
      "ு": 375,
      "ூ": 376,
      "ெ": 377,
      "ே": 378,
      "ை": 379,
      "ொ": 380,
      "ோ": 381,
      "்": 382,
      "ఁ": 383,
      "ం": 384,
      "ః": 385,
      "అ": 386,
      "ఆ": 387,
      "ఇ": 388,
      "ఈ": 389,
      "ఉ": 390,
      "ఊ": 391,
      "ఋ": 392,
      "ఎ": 393,
      "ఏ": 394,
      "ఐ": 395,
      "ఒ": 396,
      "ఓ": 397,
      "ఔ": 398,
      "క": 399,
      "ఖ": 400,
      "గ": 401,
      "ఘ": 402,
      "ఙ": 403,
      "చ": 404,
      "ఛ": 405,
      "జ": 406,
      "ఝ": 407,
      "ఞ": 408,
      "ట": 409,
      "ఠ": 410,
      "డ": 411,
      "ఢ": 412,
      "ణ": 413,
      "త": 414,
      "థ": 415,
      "ద": 416,
      "ధ": 417,
      "న": 418,
      "ప": 419,
      "ఫ": 420,
      "బ": 421,
      "భ": 422,
      "మ": 423,
      "య": 424,
      "ర": 425,
      "ఱ": 426,
      "ల": 427,
      "ళ": 428,
      "వ": 429,
      "శ": 430,
      "ష": 431,
      "స": 432,
      "హ": 433,
      "ఽ": 434,
      "ా": 435,
      "ి": 436,
      "ీ": 437,
      "ు": 438,
      "ూ": 439,
      "ృ": 440,
      "ౄ": 441,
      "ె": 442,
      "ే": 443,
      "ై": 444,
      "ొ": 445,
      "ో": 446,
      "ౌ": 447,
      "్": 448,
      "ౖ": 449,
      "౦": 450,
      "౧": 451,
      "౩": 452,
      "౪": 453,
      "౬": 454,
      "౹": 455,
      "ಂ": 456,
      "ಃ": 457,
      "ಅ": 458,
      "ಆ": 459,
      "ಇ": 460,
      "ಈ": 461,
      "ಉ": 462,
      "ಊ": 463,
      "ಎ": 464,
      "ಏ": 465,
      "ಐ": 466,
      "ಒ": 467,
      "ಓ": 468,
      "ಔ": 469,
      "ಕ": 470,
      "ಖ": 471,
      "ಗ": 472,
      "ಘ": 473,
      "ಚ": 474,
      "ಛ": 475,
      "ಜ": 476,
      "ಝ": 477,
      "ಞ": 478,
      "ಟ": 479,
      "ಠ": 480,
      "ಡ": 481,
      "ಢ": 482,
      "ಣ": 483,
      "ತ": 484,
      "ಥ": 485,
      "ದ": 486,
      "ಧ": 487,
      "ನ": 488,
      "ಪ": 489,
      "ಫ": 490,
      "ಬ": 491,
      "ಭ": 492,
      "ಮ": 493,
      "ಯ": 494,
      "ರ": 495,
      "ಲ": 496,
      "ಳ": 497,
      "ವ": 498,
      "ಶ": 499,
      "ಷ": 500,
      "ಸ": 501,
      "ಹ": 502,
      "ಾ": 503,
      "ಿ": 504,
      "ೀ": 505,
      "ು": 506,
      "ೂ": 507,
      "ೃ": 508,
      "ೆ": 509,
      "ೇ": 510,
      "ೈ": 511,
      "ೊ": 512,
      "ೋ": 513,
      "ೌ": 514,
      "್": 515,
      "ം": 516,
      "അ": 517,
      "ആ": 518,
      "ഇ": 519,
      "ഈ": 520,
      "എ": 521,
      "ഒ": 522,
      "ക": 523,
      "ഗ": 524,
      "ങ": 525,
      "ച": 526,
      "ജ": 527,
      "ട": 528,
      "ഡ": 529,
      "ണ": 530,
      "ത": 531,
      "ദ": 532,
      "ധ": 533,
      "ന": 534,
      "പ": 535,
      "ബ": 536,
      "ഭ": 537,
      "മ": 538,
      "യ": 539,
      "ര": 540,
      "റ": 541,
      "ല": 542,
      "ള": 543,
      "ഴ": 544,
      "വ": 545,
      "ശ": 546,
      "ഷ": 547,
      "സ": 548,
      "ാ": 549,
      "ി": 550,
      "ീ": 551,
      "ു": 552,
      "ൂ": 553,
      "ൃ": 554,
      "െ": 555,
      "േ": 556,
      "ൈ": 557,
      "ൊ": 558,
      "ോ": 559,
      "്": 560,
      "ൗ": 561,
      "ൻ": 562,
      "ർ": 563,
      "ൽ": 564,
      "ൾ": 565,
      "ả": 566,
      "ầ": 567,
      "ậ": 568,
      "ệ": 569,
      "ố": 570,
      "ớ": 571,
      "ờ": 572,
      "ở": 573,
      "ợ": 574,
      "ứ": 575,
      "‌": 576,
      "‍": 577,
      "‎": 578,
      "‏": 579,
      "‑": 580,
      "‒": 581,
      "•": 582,
      "‪": 583,
      "‫": 584,
      "‬": 585,
      "‭": 586,
      "′": 587,
      "″": 588,
      "⁠": 589,
      "⁪": 590,
      "⁫": 591,
      "⁬": 592,
      "⁭": 593,
      "⁯": 594,
      "€": 595,
      "₹": 596,
      "⃣": 597,
      "∙": 598,
      "≠": 599,
      "▪": 600,
      "►": 601,
      "◆": 602,
      "◉": 603,
      "●": 604,
      "★": 605,
      "☛": 606,
      "♥": 607,
      "♦": 608,
      "✳": 609,
      "❌": 610,
      "➡": 611,
      "➦": 612,
      "⦁": 613,
      "️": 614,
      "ﹰ": 615,
      "🇪": 616,
      "🇬": 617,
      "🇮": 618,
      "🇳": 619,
      "🌹": 620,
      "🏼": 621,
      "👇": 622,
      "👉": 623,
      "👊": 624,
      "👋": 625,
      "👌": 626,
      "💐": 627,
      "💚": 628,
      "💥": 629,
      "💪": 630,
      "🔥": 631,
      "🔴": 632,
      "🔸": 633,
      "🔹": 634,
      "😂": 635,
      "😉": 636,
      "😊": 637,
      "😜": 638,
      "😞": 639,
      "😠": 640,
      "😡": 641,
      "😥": 642,
      "🙂": 643,
      "🙏": 644,
      "🚩": 645,
      "🤜": 646,
      "🤭": 647,
      "‌‌": 648,
      "ార": 649,
      ".\n": 650,
      " ప": 651,
      "ని": 652,
      "న్": 653,
      "్ర": 654,
      "ర్": 655,
      "స్": 656,
      " క": 657,
      " వ": 658,
      "లు": 659,
      "ంద": 660,
      "‌‌‌‌": 661,
      "లో": 662,
      " మ": 663,
      " చ": 664,
      " అ": 665,
      " స": 666,
      "ల్": 667,
      "కు": 668,
      "ారు": 669,
      "్య": 670,
      "ట్": 671,
      "న్న": 672,
      "ంచ": 673,
      " త": 674,
      " ర": 675,
      "గా": 676,
      "క్": 677,
      "ను": 678,
      "ంది": 679,
      "తు": 680,
      " ప్ర": 681,
      "ాల": 682,
      "‌‌‌‌‌‌‌‌": 683,
      " చే": 684,
      "ించ": 685,
      " ఆ": 686,
      "డి": 687,
      " బ": 688,
      "ంట": 689,
      "డు": 690,
      "రి": 691,
      "ంత": 692,
      " ఉ": 693,
      "ిన": 694,
      " న": 695,
      "కి": 696,
      "ప్": 697,
      "ాయ": 698,
      " జ": 699,
      "లి": 700,
      "త్": 701,
      "రు": 702,
      " ఎ": 703,
      " ఇ": 704,
      "ార్": 705,
      " వి": 706,
      "డ్": 707,
      " ద": 708,
      " గ": 709,
      "టి": 710,
      "లా": 711,
      "టు": 712,
      "ంలో": 713,
      "ంగ": 714,
      "సు": 715,
      "ంగా": 716,
      "ప్ప": 717,
      "టీ": 718,
      "న్నారు": 719,
      "ద్": 720,
      "తి": 721,
      "మా": 722,
      " ని": 723,
      "డా": 724,
      "తో": 725,
      "స్తు": 726,
      "చ్": 727,
      "యా": 728,
      "వా": 729,
      "‌‌‌‌‌‌‌‌‌‌‌‌‌‌‌‌": 730,
      "సి": 731,
      " రా": 732,
      "ష్": 733,
      "నే": 734,
      "న్ని": 735,
      " స్": 736,
      " ల": 737,
      "చ్చ": 738,
      "గు": 739,
      "్యా": 740,
      " భ": 741,
      "ది": 742,
      "రా": 743,
      "స్త": 744,
      "ండ": 745,
      " హ": 746,
      "..\n": 747,
      "ాయి": 748,
      " చె": 749,
      "దు": 750,
      "ిక": 751,
      "మ్": 752,
      "కా": 753,
      " కా": 754,
      "ందు": 755,
      " తె": 756,
      "ళ్": 757,
      " శ": 758,
      "పు": 759,
      "క్ష": 760,
      "ేశ": 761,
      "ెం": 762,
      "పీ": 763,
      " ను": 764,
      "నా": 765,
      "వి": 766,
      " ఏ": 767,
      " కో": 768,
      "ల్లో": 769,
      "పై": 770,
      "సీ": 771,
      "మి": 772,
      "లకు": 773,
      "వు": 774,
      "ారం": 775,
      " ఈ": 776,
      "్రి": 777,
      "ింది": 778,
      " ఫ": 779,
      "లీ": 780,
      "నికి": 781,
      "ెట్": 782,
      "లను": 783,
      "ంతో": 784,
      " కూ": 785,
      " వె": 786,
      "ారి": 787,
      "ంచి": 788,
      "పో": 789,
      " కొ": 790,
      " పో": 791,
      " మా": 792,
      "ట్ర": 793,
      "కో": 794,
      " లో": 795,
      " కే": 796,
      " కు": 797,
      "ిల్": 798,
      "రో": 799,
      "ించారు": 800,
      "ామ": 801,
      "ంగ్": 802,
      " సం": 803,
      " తీ": 804,
      "క్క": 805,
      " సి": 806,
      " పా": 807,
      " ము": 808,
      "బా": 809,
      "లే": 810,
      "ెస్": 811,
      "ప్ర": 812,
      "ాలు": 813,
      "బ్": 814,
      "ిత": 815,
      "ద్ద": 816,
      "‌‌‌‌‌‌‌‌‌‌‌‌‌‌‌‌‌‌‌‌‌‌‌‌‌‌‌‌‌‌‌‌": 817,
      "పా": 818,
      " కూడా": 819,
      "ైన": 820,
      " నుంచి": 821,
      "్వ": 822,
      "మ్మ": 823,
      " చేశ": 824,
      "డం": 825,
      " ఉన్న": 826,
      "దీ": 827,
      "ట్లు": 828,
      "తం": 829,
      " అధ": 830,
      "కే": 831,
      "కొ": 832,
      "నీ": 833,
      " వే": 834,
      "ంద్ర": 835,
      " నిర్": 836,
      "స్తున్న": 837,
      " డ": 838,
      "ెడ్": 839,
      " లే": 840,
      "ప్పు": 841,
      "షన్": 842,
      "బు": 843,
      " ఒ": 844,
      "ఆర్": 845,
      "గ్": 846,
      " చేయ": 847,
      "వే": 848,
      "టర్": 849,
      "సిన": 850,
      "యం": 851,
      "సుకు": 852,
      " గు": 853,
      " సీ": 854,
      "జు": 855,
      " పె": 856,
      "ట్ట": 857,
      " సమ": 858,
      " తెలి": 859,
      "త్ర": 860,
      "ాలని": 861,
      "ంటి": 862,
      "ందని": 863,
      "యో": 864,
      "త్త": 865,
      "ల్ల": 866,
      "త్వ": 867,
      " పార్": 868,
      "జీ": 869,
      " ప్రభ": 870,
      "దా": 871,
      " వా": 872,
      "ంటు": 873,
      " చెప్ప": 874,
      "గి": 875,
      "నం": 876,
      "రీ": 877,
      "పి": 878,
      "ెడ్డి": 879,
      "జ్": 880,
      " వ్య": 881,
      "తున్న": 882,
      "ండి": 883,
      "వీ": 884,
      " బీ": 885,
      "సం": 886,
      " ఓ": 887,
      " ట": 888,
      "ందుకు": 889,
      " రో": 890,
      " నే": 891,
      " చేశారు": 892,
      "20": 893,
      " పరి": 894,
      " వచ్చ": 895,
      "ూర్": 896,
      "య్య": 897,
      "ఎస్": 898,
      " (": 899,
      "డీ": 900,
      " రూ": 901,
      "ంటే": 902,
      "ించిన": 903,
      "స్థ": 904,
      "ంధ": 905,
      "ండ్": 906,
      " పార్టీ": 907,
      " అధిక": 908,
      " అవ": 909,
      "తా": 910,
      "ము": 911,
      "ారని": 912,
      "ద్య": 913,
      "వర్": 914,
      "ష్ట్ర": 915,
      " ప్రభు": 916,
      "యన": 917,
      "ారా": 918,
      "మె": 919,
      " కార": 920,
      "జా": 921,
      "ళ్ల": 922,
      " పే": 923,
      "‌లో": 924,
      "రే": 925,
      "్రీ": 926,
      "ాడు": 927,
      " సా": 928,
      " భార": 929,
      "ెల్": 930,
      " వై": 931,
      "ించి": 932,
      "ధా": 933,
      "ెల": 934,
      " మీ": 935,
      "వర": 936,
      " అని": 937,
      " బా": 938,
      "మే": 939,
      " ప్రా": 940,
      "సే": 941,
      "త్య": 942,
      "ాలి": 943,
      "దేశ": 944,
      "క్ర": 945,
      "న్నిక": 946,
      "ెక్": 947,
      "కీ": 948,
      "తోంది": 949,
      "ెంట్": 950,
      "ధి": 951,
      "దే": 952,
      " గా": 953,
      "రం": 954,
      "హి": 955,
      " ప్రభుత్వ": 956,
      "ాలను": 957,
      "..": 958,
      "సా": 959,
      "ులు": 960,
      "జే": 961,
      " అభ": 962,
      " చేసి": 963,
      "ంత్రి": 964,
      " య": 965,
      "ంప": 966,
      " ష": 967,
      "చి": 968,
      " తెలిప": 969,
      "ట్టు": 970,
      "రుగు": 971,
      " చూ": 972,
      "యి": 973,
      " ఉండ": 974,
      "ితే": 975,
      "ఎం": 976,
      " జరి": 977,
      "ధ్య": 978,
      "్రెస్": 979,
      "్రా": 980,
      "స్తున్నారు": 981,
      "వాత": 982,
      " చేసిన": 983,
      "క్కు": 984,
      "ష్ట": 985,
      " దా": 986,
      "కోవ": 987,
      " ఎన్నిక": 988,
      " ఆయన": 989,
      " శా": 990,
      "ఖ్య": 991,
      " తన": 992,
      "ంగ్రెస్": 993,
      "ఫ్": 994,
      "లతో": 995,
      "మైన": 996,
      " ప్రక": 997,
      "యంలో": 998,
      "ప్పుడు": 999,
      "ండా": 1000,
      " వర": 1001,
      "తీ": 1002,
      " రాష్ట్ర": 1003,
      "యే": 1004,
      " ఒక": 1005,
      " మొ": 1006,
      "ర్శ": 1007,
      " స్థ": 1008,
      "బాద్": 1009,
      "ప్పటి": 1010,
      " మంది": 1011,
      "కర": 1012,
      "న్స్": 1013,
      "బీ": 1014,
      "కర్": 1015,
      " కి": 1016,
      " జిల్": 1017,
      " రెడ్డి": 1018,
      "డంతో": 1019,
      "ంబ": 1020,
      " నా": 1021,
      "ించింది": 1022,
      " కోసం": 1023,
      " పోలీ": 1024,
      " రోజు": 1025,
      " రి": 1026,
      "యితే": 1027,
      "వారం": 1028,
      " టీ": 1029,
      "లుగు": 1030,
      "‌‌‌‌‌‌‌‌‌‌‌‌‌‌‌‌‌‌‌‌‌‌‌‌‌‌‌‌‌‌‌‌‌‌‌‌‌‌‌‌‌‌‌‌‌‌‌‌‌‌‌‌‌‌‌‌‌‌‌‌‌‌‌‌": 1031,
      "ంగాణ": 1032,
      " ఖ": 1033,
      "సులు": 1034,
      " డి": 1035,
      "న్య": 1036,
      " చి": 1037,
      " మార్": 1038,
      " ధ": 1039,
      "ర్థ": 1040,
      "ుకు": 1041,
      " వీ": 1042,
      "మో": 1043,
      " జిల్లా": 1044,
      " విష": 1045,
      "శ్": 1046,
      " సమా": 1047,
      " చెప్పారు": 1048,
      " స్ట": 1049,
      "ట్ల": 1050,
      " రాజ": 1051,
      " వర్": 1052,
      "ల్లి": 1053,
      "కుండా": 1054,
      "మీ": 1055,
      "దని": 1056,
      "?\n": 1057,
      " ఇచ్చ": 1058,
      "ర్చ": 1059,
      " తెలిపారు": 1060,
      "్యూ": 1061,
      "ాలా": 1062,
      " కాంగ్రెస్": 1063,
      " అను": 1064,
      " మూ": 1065,
      "ామని": 1066,
      " మే": 1067,
      " మో": 1068,
      "ర్వాత": 1069,
      " భా": 1070,
      " సు": 1071,
      "కూ": 1072,
      " రై": 1073,
      " తీసుకు": 1074,
      "ంటూ": 1075,
      "లోని": 1076,
      " పెట్": 1077,
      "ేవ": 1078,
      " కార్య": 1079,
      "ర్య": 1080,
      " ప్రభుత్వం": 1081,
      "వహ": 1082,
      "జేపీ": 1083,
      " మె": 1084,
      " జరిగ": 1085,
      "అయితే": 1086,
      "డానికి": 1087,
      " వారి": 1088,
      "జి": 1089,
      "పోయ": 1090,
      "తున్నారు": 1091,
      " చేస్త": 1092,
      " పొ": 1093,
      "ుల": 1094,
      " సె": 1095,
      " కలి": 1096,
      " అధికారు": 1097,
      "నిమా": 1098,
      " వ్యక్": 1099,
      " ఉంది": 1100,
      " ఏర్": 1101,
      "బంధ": 1102,
      "ించే": 1103,
      " తర్వాత": 1104,
      "తులు": 1105,
      "ాన": 1106,
      "డే": 1107,
      "వ్": 1108,
      " అన్నారు": 1109,
      " తి": 1110,
      "గ్ర": 1111,
      "చే": 1112,
      " అనే": 1113,
      "శా": 1114,
      "ాలకు": 1115,
      " తే": 1116,
      " పై": 1117,
      " పాటు": 1118,
      "లాంటి": 1119,
      "టన": 1120,
      " వ్యా": 1121,
      " పు": 1122,
      " ప్రజ": 1123,
      " మంత్రి": 1124,
      "మార్": 1125,
      "మ్మెల్": 1126,
      "ణా": 1127,
      " ఐ": 1128,
      " ఆరో": 1129,
      "టో": 1130,
      " సినిమా": 1131,
      "పాటు": 1132,
      " ఉంటు": 1133,
      " హై": 1134,
      "టా": 1135,
      "ళ్లు": 1136,
      " తా": 1137,
      "హా": 1138,
      "తుంది": 1139,
      "లం": 1140,
      "ట్లా": 1141,
      "ర్టు": 1142,
      " యా": 1143,
      " నేత": 1144,
      "స్తోంది": 1145,
      "క్కువ": 1146,
      "ెండు": 1147,
      " మాత్ర": 1148,
      "బ్బ": 1149,
      " లక్ష": 1150,
      "బాబు": 1151,
      " స్ప": 1152,
      "కాశ": 1153,
      "గొ": 1154,
      " సో": 1155,
      "ందిన": 1156,
      "ద్ధ": 1157,
      "రాబాద్": 1158,
      " ప్రతి": 1159,
      "కులు": 1160,
      " ఎమ్మెల్": 1161,
      "ట్టి": 1162,
      " గ్ర": 1163,
      " తీసు": 1164,
      " బీజేపీ": 1165,
      " జా": 1166,
      " కేంద్ర": 1167,
      "వ్వ": 1168,
      "డ్డ": 1169,
      "త్స": 1170,
      " చంద్ర": 1171,
      " తో": 1172,
      " మాట్లా": 1173,
      "గే": 1174,
      " పని": 1175,
      "ెన్": 1176,
      " దేశ": 1177,
      "\"\"": 1178,
      "ర్లు": 1179,
      " చాలా": 1180,
      " శ్రీ": 1181,
      " అభి": 1182,
      "స్తుంది": 1183,
      " తమ": 1184,
      "దీంతో": 1185,
      "‌కు": 1186,
      " సభ": 1187,
      " వెళ్": 1188,
      " నెల": 1189,
      "దల": 1190,
      "10": 1191,
      " చేసుకు": 1192,
      "దరాబాద్": 1193,
      "వరి": 1194,
      " అవకాశ": 1195,
      "వేశ": 1196,
      " ది": 1197,
      " తెల": 1198,
      "గ్గ": 1199,
      " సీఎం": 1200,
      "ంత్": 1201,
      "ీల": 1202,
      " విజ": 1203,
      " చెందిన": 1204,
      " సర్": 1205,
      "మెంట్": 1206,
      " వరకు": 1207,
      "ాయని": 1208,
      "సారి": 1209,
      "తే": 1210,
      " తెలంగాణ": 1211,
      " చేస్తున్న": 1212,
      " జీ": 1213,
      "స్తే": 1214,
      " ప్రాంత": 1215,
      " ఘ": 1216,
      "‌ను": 1217,
      "తూ": 1218,
      " పి": 1219,
      " ట్ర": 1220,
      " మధ్య": 1221,
      "ణి": 1222,
      "చారం": 1223,
      " సంబంధ": 1224,
      "కెట్": 1225,
      " చేసింది": 1226,
      "ర్యా": 1227,
      "ర్కొ": 1228,
      "పే": 1229,
      "లలో": 1230,
      " సూ": 1231,
      " క్ర": 1232,
      " ఎం": 1233,
      " గుర్": 1234,
      "చార": 1235,
      " రెండు": 1236,
      " కేసు": 1237,
      " తెలు": 1238,
      "ందర్": 1239,
      "వై": 1240,
      " పూర్": 1241,
      "ందించ": 1242,
      "202": 1243,
      "బర్": 1244,
      " నిర్వహ": 1245,
      "లపై": 1246,
      "స్ట్": 1247,
      " నాయ": 1248,
      "ణ్": 1249,
      "స్య": 1250,
      " ఎమ్మెల్యే": 1251,
      " అస": 1252,
      " మి": 1253,
      "త్తు": 1254,
      " పోలీసులు": 1255,
      " తర": 1256,
      " ప్రధా": 1257,
      "ారీ": 1258,
      " పాల్": 1259,
      "ణం": 1260,
      " అధికారులు": 1261,
      "గం": 1262,
      "గర్": 1263,
      "ూరు": 1264,
      " నిర్ణ": 1265,
      " సమయంలో": 1266,
      " మరో": 1267,
      "ైనా": 1268,
      "ేషన్": 1269,
      "హిళ": 1270,
      "ఆర్ఎస్": 1271,
      "షి": 1272,
      " గుర": 1273,
      "కపో": 1274,
      "గన్": 1275,
      " ఆమె": 1276,
      "ంపు": 1277,
      "ృష్": 1278,
      " ک": 1279,
      "ుడు": 1280,
      "ందే": 1281,
      "క్స్": 1282,
      " బి": 1283,
      " రె": 1284,
      "త్రి": 1285,
      "ారంభ": 1286,
      "డియా": 1287,
      " ద్వ": 1288,
      " బ్యా": 1289,
      "ినా": 1290,
      "ంలోని": 1291,
      "హ్": 1292,
      " తొ": 1293,
      " ఆర్": 1294,
      "క్కడ": 1295,
      "ద్యో": 1296,
      "వన్": 1297,
      " కని": 1298,
      " నీ": 1299,
      "కాల": 1300,
      "పించ": 1301,
      " చేసే": 1302,
      " కార్": 1303,
      "ాం": 1304,
      " ప్రారంభ": 1305,
      " కల": 1306,
      "నూ": 1307,
      " ముఖ్య": 1308,
      " \"": 1309,
      "నాలు": 1310,
      " గంట": 1311,
      "లోకి": 1312,
      " మరి": 1313,
      "యోజ": 1314,
      " హా": 1315,
      " ఎక్కువ": 1316,
      "సీఆర్": 1317,
      "స్ట": 1318,
      " అభ్య": 1319,
      " బె": 1320,
      "గో": 1321,
      " కాల": 1322,
      "లేదు": 1323,
      " భారీ": 1324,
      " క్": 1325,
      "శి": 1326,
      " చంద్రబాబు": 1327,
      "ఫీ": 1328,
      "చ్చు": 1329,
      "ంట్": 1330,
      "నించ": 1331,
      " పెద్ద": 1332,
      "కానీ": 1333,
      "ాన్": 1334,
      " కొత్త": 1335,
      " ఇవ్వ": 1336,
      "ద్ర": 1337,
      " గె": 1338,
      "ర్మ": 1339,
      " అవు": 1340,
      "డిన": 1341,
      " యూ": 1342,
      "మంత్రి": 1343,
      "బో": 1344,
      "00": 1345,
      "తంగా": 1346,
      " ఫో": 1347,
      " పేర్కొ": 1348,
      " శి": 1349,
      " ద్వారా": 1350,
      " చెబు": 1351,
      "స్థి": 1352,
      " మహిళ": 1353,
      " మ్యా": 1354,
      " మీడియా": 1355,
      " ఏర్పాటు": 1356,
      " ముందు": 1357,
      "క్రమ": 1358,
      " యు": 1359,
      "ిల్లీ": 1360,
      "...\n": 1361,
      " భూ": 1362,
      "భా": 1363,
      " అయ": 1364,
      " ప్రకట": 1365,
      "ాయం": 1366,
      " అంత": 1367,
      "రుకు": 1368,
      "రూ": 1369,
      " సై": 1370,
      " అమ": 1371,
      "సీపీ": 1372,
      "ందో": 1373,
      " జన": 1374,
      " జగన్": 1375,
      " కల్": 1376,
      " న్య": 1377,
      " అర": 1378,
      " జరుగు": 1379,
      " అయ్య": 1380,
      " ఉంటుంది": 1381,
      "కం": 1382,
      "నర్": 1383,
      "స్తూ": 1384,
      " కావ": 1385,
      " రాజకీ": 1386,
      " ప్": 1387,
      "తీయ": 1388,
      " దీ": 1389,
      "వాల్": 1390,
      "తర": 1391,
      " వచ్చిన": 1392,
      " కారణ": 1393,
      " అవకాశం": 1394,
      " సమస్య": 1395,
      "ల్స్": 1396,
      "19": 1397,
      "ెస్ట్": 1398,
      " కుటు": 1399,
      "వారి": 1400,
      " పెట్ట": 1401,
      "మని": 1402,
      "యర్": 1403,
      " లా": 1404,
      "స్తుతం": 1405,
      " ఎన్నికల": 1406,
      " అంద": 1407,
      "నున్న": 1408,
      "టం": 1409,
      "ార్థ": 1410,
      "ంత్ర": 1411,
      " ఫి": 1412,
      "తన": 1413,
      " రూప": 1414,
      " పోటీ": 1415,
      "కంగా": 1416,
      " సాధ": 1417,
      " జరిగిన": 1418,
      " స్థా": 1419,
      " ప్రత్య": 1420,
      " విద్య": 1421,
      "పూర్": 1422,
      " వల్ల": 1423,
      "ంటారు": 1424,
      "ాల్లో": 1425,
      " పూర్తి": 1426,
      " ఆరోప": 1427,
      " వెలుగు": 1428,
      " బయ": 1429,
      "కె": 1430,
      "ఢిల్లీ": 1431,
      " పరిస్థి": 1432,
      "గత": 1433,
      " ప్రమా": 1434,
      "ంజ": 1435,
      " శాఖ": 1436,
      " అధ్య": 1437,
      "దం": 1438,
      "స్టు": 1439,
      "యు": 1440,
      "వ్ర": 1441,
      " ధర": 1442,
      "యన్": 1443,
      "లై": 1444,
      "టింగ్": 1445,
      "సింది": 1446,
      "తలు": 1447,
      "ించుకు": 1448,
      "ందులో": 1449,
      "యత్": 1450,
      "డీపీ": 1451,
      " చేస్తున్నారు": 1452,
      " పలు": 1453,
      " లేదు": 1454,
      " సంస్థ": 1455,
      "హై": 1456,
      " కొన": 1457,
      "ెక్టర్": 1458,
      "‌‌‌‌‌‌‌‌‌‌‌‌‌‌‌‌‌‌‌‌‌‌‌‌‌‌‌‌‌‌‌‌‌‌‌‌‌‌‌‌‌‌‌‌‌‌‌‌‌‌‌‌‌‌‌‌‌‌‌‌‌‌‌‌‌‌‌‌‌‌‌‌‌‌‌‌‌‌‌‌‌‌‌‌‌‌‌‌‌‌‌‌‌‌‌‌‌‌‌‌‌‌‌‌‌‌‌‌‌‌‌‌‌‌‌‌‌‌‌‌‌‌‌‌‌‌‌‌": 1459,
      "ఇక": 1460,
      " అభ్యర్థ": 1461,
      "వం": 1462,
      "201": 1463,
      " కేసీఆర్": 1464,
      " ఎదు": 1465,
      " మార": 1466,
      " పాల్గొ": 1467,
      "ద్ధి": 1468,
      "డియో": 1469,
      " అధికార": 1470,
      " రేవ": 1471,
      "ంటర్": 1472,
      " డీ": 1473,
      " చేప": 1474,
      " -": 1475,
      " సహ": 1476,
      " వద్ద": 1477,
      " ఉప": 1478,
      " తీవ్ర": 1479,
      "ండియా": 1480,
      "న్నా": 1481,
      " షా": 1482,
      "పంచ": 1483,
      " ఆధ": 1484,
      " పేరు": 1485,
      " రే": 1486,
      "్యం": 1487,
      "హు": 1488,
      " సందర్": 1489,
      " వెల్ల": 1490,
      "య్": 1491,
      "త్తి": 1492,
      "తుల": 1493,
      " ప్రయత్": 1494,
      "రగ": 1495,
      "తున్నాయి": 1496,
      " మాజీ": 1497,
      "లుగా": 1498,
      " కలిసి": 1499,
      " ఎన్నికల్లో": 1500,
      " ఉద్యో": 1501,
      " నమో": 1502,
      "షల్": 1503,
      " కమి": 1504,
      "జర్": 1505,
      " మండ": 1506,
      " విచార": 1507,
      " ఎంపీ": 1508,
      "యోజక": 1509,
      " బీఆర్ఎస్": 1510,
      "మై": 1511,
      "యోగ": 1512,
      " వర్ష": 1513,
      "వృ": 1514,
      "స్తారు": 1515,
      "దేశ్": 1516,
      " కె": 1517,
      " అం": 1518,
      "రణ": 1519,
      " సమావేశ": 1520,
      "తెల": 1521,
      " తేదీ": 1522,
      "పర్": 1523,
      " విడు": 1524,
      "తెలంగాణ": 1525,
      " మన": 1526,
      " చర్య": 1527,
      " కొనసా": 1528,
      " క్యా": 1529,
      " అత": 1530,
      " గురించి": 1531,
      "హం": 1532,
      " కీల": 1533,
      " రేవంత్": 1534,
      "సర్": 1535,
      "15": 1536,
      "సర": 1537,
      " మంచి": 1538,
      " ఎస్": 1539,
      "ానికి": 1540,
      "దర్శ": 1541,
      " గో": 1542,
      "ంగళ": 1543,
      " టి": 1544,
      " ఉందని": 1545,
      " కొన్ని": 1546,
      " కుమార్": 1547,
      " మాత్రం": 1548,
      " పరిశ": 1549,
      " ,": 1550,
      " చర్చ": 1551,
      " నియోజక": 1552,
      "బ్లీ": 1553,
      " భాగ": 1554,
      "క్తి": 1555,
      "ప్పటికే": 1556,
      "పె": 1557,
      " పాల": 1558,
      " ఉన్నారు": 1559,
      " విడుదల": 1560,
      " మ్యాచ్": 1561,
      " పట్ట": 1562,
      "ిల్ల": 1563,
      " ప్రశ్": 1564,
      "మాండ్": 1565,
      " వచ్చే": 1566,
      " ఉన్నాయి": 1567,
      "త్తం": 1568,
      " శాతం": 1569,
      "డ్డు": 1570,
      " వెళ్ల": 1571,
      "మర్శ": 1572,
      " ప్రత్యే": 1573,
      " వెల్లడ": 1574,
      " ఉంట": 1575,
      " గ్రామ": 1576,
      "రాలు": 1577,
      " చో": 1578,
      " మొద": 1579,
      "ారెడ్డి": 1580,
      " వివర": 1581,
      " దు": 1582,
      " తప్ప": 1583,
      " నో": 1584,
      "ద్దు": 1585,
      " వారు": 1586,
      " అధ్యక్ష": 1587,
      " ఒక్క": 1588,
      "ంటున్న": 1589,
      "ోర్": 1590,
      "పల్లి": 1591,
      " బు": 1592,
      "నున్నారు": 1593,
      " మాత్రమే": 1594,
      "కోర్టు": 1595,
      " కుటుంబ": 1596,
      " వీడియో": 1597,
      " సందర్భ": 1598,
      "రల్": 1599,
      "ష్టం": 1600,
      " మహ": 1601,
      "ించాలని": 1602,
      "పెట్": 1603,
      " పీ": 1604,
      " వ్యక్తం": 1605,
      " లి": 1606,
      "ంటున్నారు": 1607,
      "నల్": 1608,
      " ఛ": 1609,
      " కంప": 1610,
      " నె": 1611,
      " రావ": 1612,
      "దన": 1613,
      " అన్ని": 1614,
      " నియోజకవర్": 1615,
      "ెంబ్లీ": 1616,
      "హైదరాబాద్": 1617,
      "ఇది": 1618,
      "క్షన్": 1619,
      " దూ": 1620,
      "డాది": 1621,
      " హి": 1622,
      "గిన": 1623,
      " మూడు": 1624,
      "ినీ": 1625,
      "లోనే": 1626,
      " ప్రభా": 1627,
      "లింగ్": 1628,
      "ాలతో": 1629,
      "రెడ్డి": 1630,
      " సభ్య": 1631,
      " విచారణ": 1632,
      " ఇన్": 1633,
      " విషయం": 1634,
      "వో": 1635,
      " భారత్": 1636,
      " చేయాలని": 1637,
      "పడు": 1638,
      "వల": 1639,
      " సూచ": 1640,
      " వ్యక్తి": 1641,
      "రారు": 1642,
      "వె": 1643,
      " మాట్లాడు": 1644,
      " విధ": 1645,
      "దీని": 1646,
      " ఘటన": 1647,
      "ధిక": 1648,
      " పద": 1649,
      "30": 1650,
      "పడ్డ": 1651,
      "12": 1652,
      " శు": 1653,
      "నుంది": 1654,
      "అలా": 1655,
      "ెనీ": 1656,
      " హె": 1657,
      " కోట్ల": 1658,
      " హైదరాబాద్": 1659,
      "దిక": 1660,
      "ాన్ని": 1661,
      " వెం": 1662,
      " ఎలా": 1663,
      "రోజు": 1664,
      " రాజకీయ": 1665,
      "నంత": 1666,
      " విమర్శ": 1667,
      " వంటి": 1668,
      " చేసు": 1669,
      " నుండి": 1670,
      " వేల": 1671,
      "రిగి": 1672,
      "ించు": 1673,
      " టీడీపీ": 1674,
      " కీలక": 1675,
      "గ్గు": 1676,
      " ఆదేశ": 1677,
      "ాము": 1678,
      " ఉండే": 1679,
      "టీఆర్": 1680,
      " సమాచారం": 1681,
      "మూ": 1682,
      " లీ": 1683,
      "ినే": 1684,
      " పవన్": 1685,
      "ేశారు": 1686,
      " సందర్భంగా": 1687,
      "ంలోకి": 1688,
      "కపోవ": 1689,
      "ించడం": 1690,
      " లక్షల": 1691,
      "ానని": 1692,
      " ఊ": 1693,
      "టే": 1694,
      " పం": 1695,
      " జో": 1696,
      "ృతి": 1697,
      " ا": 1698,
      " హో": 1699,
      "కున్న": 1700,
      " పూ": 1701,
      " ప్రకారం": 1702,
      "వృద్ధి": 1703,
      " పను": 1704,
      " గత": 1705,
      "!\n": 1706,
      "జన్": 1707,
      " ఎన్": 1708,
      " ఇప్పుడు": 1709,
      "బ్బంది": 1710,
      " ప్రధాన": 1711,
      " దర్శ": 1712,
      " డా": 1713,
      "టమి": 1714,
      " భారత": 1715,
      " సంఘ": 1716,
      "ెంబర్": 1717,
      "కుల": 1718,
      "త్మ": 1719,
      " మీద": 1720,
      " అమ్మ": 1721,
      " అర్": 1722,
      "క్టర్": 1723,
      "మొ": 1724,
      " బయట": 1725,
      "బి": 1726,
      "క్కడి": 1727,
      "టిని": 1728,
      "విత": 1729,
      " కింద": 1730,
      " కంపెనీ": 1731,
      "కల్": 1732,
      " డై": 1733,
      " విని": 1734,
      " వార్": 1735,
      " చిత": 1736,
      "50": 1737,
      " చేయడం": 1738,
      "స్ట్ర": 1739,
      " ఇంటి": 1740,
      "స్ప": 1741,
      " వైసీపీ": 1742,
      " అసెంబ్లీ": 1743,
      "ప్పటికీ": 1744,
      "యాలు": 1745,
      " ముఖ్యమంత్రి": 1746,
      " కోర్టు": 1747,
      "రికా": 1748,
      "లిచ": 1749,
      "న్నీ": 1750,
      "ంతా": 1751,
      "ృష్ణ": 1752,
      " లేదని": 1753,
      " పోలీసు": 1754,
      "ేమ": 1755,
      "ీరో": 1756,
      "గ్య": 1757,
      " ఇది": 1758,
      "భార": 1759,
      "వత్స": 1760,
      "తుందని": 1761,
      " నేతలు": 1762,
      " ఏపీ": 1763,
      " లేదా": 1764,
      " ప్రజలు": 1765,
      " చర్యలు": 1766,
      "టక": 1767,
      "ైన్": 1768,
      " ప్రత్యేక": 1769,
      "బ్బు": 1770,
      " నిర్మా": 1771,
      " యువ": 1772,
      "జెక్": 1773,
      "వులు": 1774,
      "స్వా": 1775,
      " కాదు": 1776,
      "‌గా": 1777,
      "ల్సి": 1778,
      "దారు": 1779,
      " దగ్గ": 1780,
      " ప్రయా": 1781,
      "రాష్ట్ర": 1782,
      " వ్యవ": 1783,
      " అందించ": 1784,
      "గానే": 1785,
      "డుగు": 1786,
      "సభ": 1787,
      " చేపట్ట": 1788,
      " సంవత్స": 1789,
      " ఎలాంటి": 1790,
      " తరు": 1791,
      "ంధీ": 1792,
      "భు": 1793,
      "్యంలో": 1794,
      " ఆల": 1795,
      " పెంచ": 1796,
      " జరగ": 1797,
      " పనిచే": 1798,
      "యాన్ని": 1799,
      "ళన": 1800,
      " పెట్టు": 1801,
      " ఉద": 1802,
      "తాయి": 1803,
      " గుర్త": 1804,
      "స్సు": 1805,
      " ప్లా": 1806,
      "‌తో": 1807,
      "ందన్నారు": 1808,
      "ప్తంగా": 1809,
      "త్వా": 1810,
      " పర్య": 1811,
      "మరో": 1812,
      " పరుగు": 1813,
      "ంతి": 1814,
      "ేశ్వ": 1815,
      " అందు": 1816,
      " అత్య": 1817,
      " స్వా": 1818,
      "ప్రదేశ్": 1819,
      "నించారు": 1820,
      "యూ": 1821,
      " పేర్కొన్నారు": 1822,
      "ల్డ్": 1823,
      " వారికి": 1824,
      "ప్రస్తుతం": 1825,
      " م": 1826,
      "11": 1827,
      " ప్రధాని": 1828,
      "పథ": 1829,
      " నగ": 1830,
      " సిద్ధ": 1831,
      "చు": 1832,
      "జాగా": 1833,
      "రకు": 1834,
      "ండో": 1835,
      " సోషల్": 1836,
      "),": 1837,
      " రంగ": 1838,
      " కోట్లు": 1839,
      "వారు": 1840,
      " ఆఫీ": 1841,
      " హీరో": 1842,
      " ఏడాది": 1843,
      " అభివృద్ధి": 1844,
      " సే": 1845,
      "ళ్లి": 1846,
      "న్సి": 1847,
      "తారు": 1848,
      "శ్వ": 1849,
      " వెళ్లి": 1850,
      " జై": 1851,
      "జన": 1852,
      " డిమాండ్": 1853,
      " ఉత్త": 1854,
      "సె": 1855,
      "దాపు": 1856,
      " తెలిపింది": 1857,
      " నాలు": 1858,
      "స్తామని": 1859,
      " చెబుతున్నారు": 1860,
      " క్రమ": 1861,
      "టికి": 1862,
      " తీసుకోవ": 1863,
      "ప్ట": 1864,
      " ఇతర": 1865,
      "లర్": 1866,
      " ఇండియా": 1867,
      "ల్లు": 1868,
      "ఫి": 1869,
      "ూడ": 1870,
      " దాడి": 1871,
      "పడి": 1872,
      "రె": 1873,
      " మోదీ": 1874,
      " తెలియ": 1875,
      " అంటూ": 1876,
      " సంబంధించిన": 1877,
      "నని": 1878,
      " చేరుకు": 1879,
      " ఇచ్చిన": 1880,
      "అంత": 1881,
      " రు": 1882,
      "ంటనే": 1883,
      " అమలు": 1884,
      "లేదని": 1885,
      " వచ్చి": 1886,
      "ామీ": 1887,
      "పడ": 1888,
      "సై": 1889,
      " రోజుల": 1890,
      "కార్": 1891,
      " విజయ": 1892,
      " స్థాయి": 1893,
      " టై": 1894,
      "ందోళన": 1895,
      "మయ్య": 1896,
      " విద్యార్థ": 1897,
      " క్రి": 1898,
      " తొలి": 1899,
      " ఢిల్లీ": 1900,
      "స్తున్నాయి": 1901,
      " పరిస్థితి": 1902,
      "రీక్ష": 1903,
      "పొ": 1904,
      "ులకు": 1905,
      " ఇద్ద": 1906,
      "ఒక": 1907,
      " తగ్గ": 1908,
      "పక్ష": 1909,
      " మాట్లాడుతూ": 1910,
      " వెంక": 1911,
      "రై": 1912,
      "రికి": 1913,
      " పిల్ల": 1914,
      " ఆర్థ": 1915,
      " ప్రాజెక్": 1916,
      " భాగంగా": 1917,
      "కుడు": 1918,
      " కర్": 1919,
      "ేశ్": 1920,
      "మెరికా": 1921,
      " వ్యవహ": 1922,
      " చిన్న": 1923,
      "చంద్ర": 1924,
      "నంతరం": 1925,
      "వ్యా": 1926,
      "ఆయన": 1927,
      " కౌ": 1928,
      "14": 1929,
      " బల": 1930,
      " పడు": 1931,
      "సన": 1932,
      " మూవీ": 1933,
      "ద్ది": 1934,
      " నేపథ": 1935,
      " కారణంగా": 1936,
      " కనిపి": 1937,
      "క్ష్": 1938,
      "భి": 1939,
      " జూ": 1940,
      " నమోదు": 1941,
      " ఆర్థిక": 1942,
      "డర్": 1943,
      "నిక": 1944,
      "తులకు": 1945,
      "కొచ్చ": 1946,
      " టా": 1947,
      "ఎల్": 1948,
      " ఇం": 1949,
      " జరిగింది": 1950,
      "శాఖ": 1951,
      " అయిన": 1952,
      "కొని": 1953,
      " విషయంలో": 1954,
      "పార్": 1955,
      "గాలు": 1956,
      " వ్యాఖ్య": 1957,
      "డని": 1958,
      "ంధ్ర": 1959,
      " నిర్ణయం": 1960,
      " పెరుగు": 1961,
      " జారీ": 1962,
      " అంశ": 1963,
      "క్షణ": 1964,
      " జట్టు": 1965,
      " గాంధీ": 1966,
      "‌లు": 1967,
      " అంచ": 1968,
      "ందరు": 1969,
      "క్షి": 1970,
      " గంటల": 1971,
      "ాలీ": 1972,
      "కారు": 1973,
      "పోయిన": 1974,
      "ారో": 1975,
      "లుపు": 1976,
      " ప్రపంచ": 1977,
      " తిరు": 1978,
      " వచ్చింది": 1979,
      " పథ": 1980,
      "ట్స్": 1981,
      " నేపథ్యంలో": 1982,
      "పతి": 1983,
      " ఆఫ్": 1984,
      "ార్డు": 1985,
      " రూపాయ": 1986,
      " రావు": 1987,
      "పేట": 1988,
      " సమీ": 1989,
      "అందు": 1990,
      "పడ్డారు": 1991,
      "డో": 1992,
      " ఫ్యా": 1993,
      "an": 1994,
      "సేన": 1995,
      " మొత్తం": 1996,
      " కేట": 1997,
      "‌,": 1998,
      "రిక": 1999,
      "ొటో": 2000,
      "ర్యాదు": 2001,
      " లు": 2002,
      "ాయ్": 2003,
      " సొ": 2004,
      "కాంగ్రెస్": 2005,
      "అలాగే": 2006,
      "ధు": 2007,
      " అన్న": 2008,
      " కేసులో": 2009,
      " గొ": 2010,
      "టంతో": 2011,
      " వస్తు": 2012,
      " లేకుండా": 2013,
      " మాట్లాడ": 2014,
      " పాత్ర": 2015,
      " సరి": 2016,
      " భక్": 2017,
      "ాలపై": 2018,
      "18": 2019,
      " ఆశ": 2020,
      " ఇచ్చారు": 2021,
      " ہ": 2022,
      " బ్యాం": 2023,
      " గౌ": 2024,
      " తెలిసి": 2025,
      " ఫోన్": 2026,
      "చర్": 2027,
      " తెలుగు": 2028,
      "బాటు": 2029,
      " చీ": 2030,
      " లె": 2031,
      " డబ్బు": 2032,
      " చై": 2033,
      " హామీ": 2034,
      " స్టార్": 2035,
      " స్వ": 2036,
      "హుల్": 2037,
      " డ్ర": 2038,
      "స్తా": 2039,
      "రంగా": 2040,
      " ఫిర్యాదు": 2041,
      "మవు": 2042,
      "ించేందుకు": 2043,
      " అనేక": 2044,
      "రాజ": 2045,
      " అంటే": 2046,
      "కాలు": 2047,
      "ంబర్": 2048,
      "ఇప్పుడు": 2049,
      "24": 2050,
      "25": 2051,
      "రంలో": 2052,
      " పడి": 2053,
      " ప్రచారం": 2054,
      "ాలలో": 2055,
      "కార": 2056,
      " తాను": 2057,
      "నివా": 2058,
      " ఆందోళన": 2059,
      "లువ": 2060,
      " గుర్తు": 2061,
      " పరీక్ష": 2062,
      " ఎక్కువగా": 2063,
      "ంటీ": 2064,
      " నియ": 2065,
      "బడి": 2066,
      " కళ": 2067,
      "నియర్": 2068,
      "ందా": 2069,
      "పోయింది": 2070,
      "యిల్": 2071,
      " వార": 2072,
      "17": 2073,
      "‌లోని": 2074,
      " ట్రా": 2075,
      " పెరి": 2076,
      "వన": 2077,
      "సో": 2078,
      " మద్ద": 2079,
      "వరణ": 2080,
      "ర్చు": 2081,
      " రిక": 2082,
      " సింగ్": 2083,
      "స్తో": 2084,
      " నిర్ణయ": 2085,
      " హాజ": 2086,
      " చిత్ర": 2087,
      "రువు": 2088,
      " చూడ": 2089,
      "దో": 2090,
      "నలు": 2091,
      "యల్": 2092,
      " బో": 2093,
      " ఫలి": 2094,
      " తయ": 2095,
      "200": 2096,
      " మార్పు": 2097,
      "న్ను": 2098,
      "ండగా": 2099,
      " రామ": 2100,
      " పంప": 2101,
      " యూని": 2102,
      "వాడ": 2103,
      " సంఖ్య": 2104,
      " ఆరోపణ": 2105,
      " వివా": 2106,
      "ెస్టు": 2107,
      "మారు": 2108,
      " బాధ్య": 2109,
      " తు": 2110,
      "వైపు": 2111,
      " తరువాత": 2112,
      "తిరే": 2113,
      " మీడియాలో": 2114,
      "త్వం": 2115,
      " చేసుకోవ": 2116,
      "నుగో": 2117,
      "మల": 2118,
      "ళ్లీ": 2119,
      " పాల్గొన్నారు": 2120,
      "ణాలు": 2121,
      "తె": 2122,
      " క్రమంలో": 2123,
      " ఆది": 2124,
      " తెలుస్తోంది": 2125,
      " దొ": 2126,
      " ఖా": 2127,
      " కార్యక్రమ": 2128,
      " స్టేషన్": 2129,
      "చుకు": 2130,
      " చేస్తూ": 2131,
      " సర": 2132,
      " ఉంటే": 2133,
      " దగ్గర": 2134,
      " మరింత": 2135,
      "షనల్": 2136,
      " చట్ట": 2137,
      "పెట్ట": 2138,
      "‌పై": 2139,
      " రాష్ట్రంలో": 2140,
      "జూ": 2141,
      "్రే": 2142,
      " అభ్యర్థి": 2143,
      " కొనసాగు": 2144,
      "యిన్": 2145,
      "ర్మన్": 2146,
      "వచ్చ": 2147,
      "సార్": 2148,
      "స్టర్": 2149,
      " జిల్లాలో": 2150,
      " తల": 2151,
      " వ్యతిరే": 2152,
      " డే": 2153,
      " మేరకు": 2154,
      " అంది": 2155,
      " శ్రీనివా": 2156,
      " ఆరోపించారు": 2157,
      "బుల్": 2158,
      "పరి": 2159,
      "ాలే": 2160,
      "16": 2161,
      " కాలే": 2162,
      "ళి": 2163,
      " నిర్మ": 2164,
      " డె": 2165,
      "ముఖ": 2166,
      "ట్టుకు": 2167,
      "ికెట్": 2168,
      " దాదాపు": 2169,
      "ప్రతి": 2170,
      "విధ": 2171,
      " ప్రి": 2172,
      "రావు": 2173,
      " తెలిసిందే": 2174,
      " వైఎస్": 2175,
      "ల్సిన": 2176,
      "టల్": 2177,
      " వైద్య": 2178,
      " న్యాయ": 2179,
      "పోయారు": 2180,
      "డిగా": 2181,
      " ప్రభుత్వా": 2182,
      "ప్రీ": 2183,
      "నగర్": 2184,
      "ఖా": 2185,
      " ట్": 2186,
      "సీసీ": 2187,
      " తల్లి": 2188,
      " నాయకులు": 2189,
      "13": 2190,
      " అధ్యక్షుడు": 2191,
      "ఏపీ": 2192,
      "పాల": 2193,
      " న్యూ": 2194,
      "టీవల": 2195,
      " లోని": 2196,
      " ఎందుకు": 2197,
      "గంలో": 2198,
      " ప్రకటన": 2199,
      " రీ": 2200,
      " టికెట్": 2201,
      "తను": 2202,
      " కొంత": 2203,
      " డాక్టర్": 2204,
      " అరెస్ట్": 2205,
      " తీర్": 2206,
      " రిలీ": 2207,
      " '": 2208,
      "గాల": 2209,
      " ఎంత": 2210,
      " డైర": 2211,
      " కథ": 2212,
      "న్యూ": 2213,
      " మద్దతు": 2214,
      "ణాటక": 2215,
      "یں": 2216,
      "్రో": 2217,
      " ప్రజా": 2218,
      " స్థాన": 2219,
      " సిబ్బంది": 2220,
      " అన": 2221,
      "టరీ": 2222,
      "స్తాయి": 2223,
      " వాతా": 2224,
      " వెల్లడించారు": 2225,
      "హన": 2226,
      "మాన": 2227,
      " సౌ": 2228,
      " బంగ": 2229,
      "ారణ": 2230,
      "రేషన్": 2231,
      " దాని": 2232,
      " కంటే": 2233,
      "ారాయ": 2234,
      "బీసీ": 2235,
      " హైకోర్టు": 2236,
      " ఆలో": 2237,
      " గ్రా": 2238,
      " రాహుల్": 2239,
      "శారు": 2240,
      "జయ్": 2241,
      "ేందుకు": 2242,
      "్యార": 2243,
      " వెంటనే": 2244,
      " దృష్": 2245,
      "డుకు": 2246,
      " పడ": 2247,
      " నిల": 2248,
      " కలెక్టర్": 2249,
      " చేసుకున్న": 2250,
      "కారం": 2251,
      "ఇందులో": 2252,
      "‌ల": 2253,
      "స్థా": 2254,
      " వైరల్": 2255,
      "ఎన్": 2256,
      " సేవ": 2257,
      "బ్ర": 2258,
      " కాకుండా": 2259,
      " బిల్": 2260,
      "ెన్స్": 2261,
      "టర్ల": 2262,
      "ండర్": 2263,
      " కొనుగో": 2264,
      "ಲ್": 2265,
      " విజయం": 2266,
      " నాలుగు": 2267,
      " కేటీఆర్": 2268,
      "ంప్": 2269,
      "నో": 2270,
      " ప్రాజెక్టు": 2271,
      "ంగళూరు": 2272,
      " పైన": 2273,
      "స్టి": 2274,
      " చా": 2275,
      " కమిటీ": 2276,
      " లోక్": 2277,
      "ంధ్రప్రదేశ్": 2278,
      "దాలు": 2279,
      " కోరారు": 2280,
      " చోటు": 2281,
      " సాయ": 2282,
      " ఆస": 2283,
      " చు": 2284,
      "క్కి": 2285,
      " కోల్": 2286,
      "చిత": 2287,
      "ంద్": 2288,
      " తీసుకున్న": 2289,
      " థ": 2290,
      "మంది": 2291,
      "వరకు": 2292,
      "మాను": 2293,
      " తిరిగి": 2294,
      "ణు": 2295,
      " అవస": 2296,
      "బె": 2297,
      " ఉపయోగ": 2298,
      "అందుకే": 2299,
      "ళ్ళ": 2300,
      " భావి": 2301,
      "్యు": 2302,
      "డిని": 2303,
      " దే": 2304,
      "అదే": 2305,
      " ఏం": 2306,
      " వ్యాప": 2307,
      "వలం": 2308,
      "ర్ర": 2309,
      " మారింది": 2310,
      "సూ": 2311,
      " లై": 2312,
      "ల్వే": 2313,
      "ాలంటే": 2314,
      " ప్రస్తుతం": 2315,
      " భర్": 2316,
      " పార్ల": 2317,
      " ఉత్": 2318,
      " పరిధి": 2319,
      "ంతు": 2320,
      " సంగ": 2321,
      " ఆధార": 2322,
      " అది": 2323,
      " నమ్మ": 2324,
      "టర్లు": 2325,
      "కూల": 2326,
      " ఉదయం": 2327,
      " అమెరికా": 2328,
      "నేందుకు": 2329,
      " పంచ": 2330,
      " హెచ్చ": 2331,
      "ైంది": 2332,
      "కరణ": 2333,
      "ైర్": 2334,
      " స్పందించ": 2335,
      " ప్రాంతాల్లో": 2336,
      "యానికి": 2337,
      " సూచించారు": 2338,
      "శు": 2339,
      " అడుగు": 2340,
      " మొదటి": 2341,
      "గింది": 2342,
      " రాశి": 2343,
      " పనులు": 2344,
      " విన": 2345,
      "గిరి": 2346,
      " ఉంచ": 2347,
      "ల్లా": 2348,
      " ఇలా": 2349,
      "ప్రి": 2350,
      " ప్రొ": 2351,
      "థ్": 2352,
      " మొదల": 2353,
      "డింగ్": 2354,
      " ఏళ్ల": 2355,
      " స్టే": 2356,
      "య్యారు": 2357,
      "ించా": 2358,
      " పోలీస్": 2359,
      "రంగ": 2360,
      "షే": 2361,
      "మ్స్": 2362,
      " నిర్వ": 2363,
      " తక్కువ": 2364,
      "ామన్నారు": 2365,
      " మై": 2366,
      " మళ్లీ": 2367,
      "వ్యాప్తంగా": 2368,
      " హత్య": 2369,
      "మాన్": 2370,
      "ల్ని": 2371,
      " ఐదు": 2372,
      "డంలో": 2373,
      " నిర": 2374,
      "یا": 2375,
      "బీజేపీ": 2376,
      " సాగు": 2377,
      " రాత్రి": 2378,
      " చని": 2379,
      "న్నాయి": 2380,
      "క్రమా": 2381,
      " చేశాడు": 2382,
      "22": 2383,
      "శే": 2384,
      " శివ": 2385,
      " మృతి": 2386,
      "షా": 2387,
      " కిలో": 2388,
      "హె": 2389,
      "రియా": 2390,
      "పం": 2391,
      " అతి": 2392,
      " బాల": 2393,
      "జ్ర": 2394,
      "ర్స్": 2395,
      "ెండ్": 2396,
      " ఇప్పటికే": 2397,
      "పాల్": 2398,
      "తిలో": 2399,
      " ఇదే": 2400,
      " షే": 2401,
      " జాతీయ": 2402,
      "‌‌‌‌‌‌‌‌‌‌‌‌‌‌‌‌‌‌‌‌‌‌‌‌‌‌‌‌‌‌‌‌‌‌‌‌‌‌‌‌‌‌‌‌‌‌‌‌‌‌‌‌‌‌‌‌‌‌‌‌‌‌‌‌‌‌‌‌‌‌‌‌‌‌‌‌‌‌‌‌‌‌‌‌‌‌‌‌‌‌‌‌‌‌‌‌‌‌‌‌‌‌‌‌‌‌‌‌‌‌‌‌‌‌‌‌‌‌‌‌‌‌‌‌‌‌‌‌‌‌‌‌‌‌‌‌‌‌‌‌‌‌‌‌‌‌‌‌‌‌‌‌‌‌‌‌‌‌‌‌‌‌‌‌‌‌‌‌‌‌‌‌‌‌‌‌‌‌‌‌‌‌‌‌‌‌‌‌‌‌‌‌‌‌‌‌‌‌‌‌‌‌‌‌‌‌‌‌‌‌‌‌‌‌‌‌‌‌‌‌‌‌‌‌‌‌‌‌‌‌‌‌‌‌‌‌‌‌‌‌‌‌‌‌‌‌‌‌‌‌‌‌‌‌‌‌": 2403,
      "స్తాన్": 2404,
      "కోవడం": 2405,
      " స్పష్టం": 2406,
      " ప్రవేశ": 2407,
      " బౌ": 2408,
      " చెప్పు": 2409,
      " భార్య": 2410,
      " గెలి": 2411,
      " ఫు": 2412,
      " ముగి": 2413,
      " రెండో": 2414,
      " ఉంటాయి": 2415,
      " అవసరం": 2416,
      "దన్నారు": 2417,
      " సంచ": 2418,
      " కట్ట": 2419,
      "కాగా": 2420,
      " కార్యకర్": 2421,
      "కింగ్": 2422,
      " మండి": 2423,
      " మాట": 2424,
      "ధులు": 2425,
      "ండ్రి": 2426,
      "తరు": 2427,
      "40": 2428,
      " మార్కెట్": 2429,
      " తరల": 2430,
      " پ": 2431,
      "ర్ట్": 2432,
      " అనుమ": 2433,
      "తులను": 2434,
      " రోడ్డు": 2435,
      " వర్షాలు": 2436,
      "ఇప్పటికే": 2437,
      " సంద": 2438,
      " ఆద": 2439,
      " ప్రజల": 2440,
      " తెలుసుకు": 2441,
      " ప్రకటించారు": 2442,
      " ఆలోచ": 2443,
      "ష్య": 2444,
      " వికెట్": 2445,
      "కృష్ణ": 2446,
      " గి": 2447,
      "వచ్చు": 2448,
      "ప్రీం": 2449,
      " రిలీజ్": 2450,
      " ఆసక్తి": 2451,
      " పోరా": 2452,
      "వంత": 2453,
      " చెల్ల": 2454,
      "స్వామి": 2455,
      " س": 2456,
      " అందుబాటు": 2457,
      "ఎన్నిక": 2458,
      "్యాల": 2459,
      " కొనుగోలు": 2460,
      "సెస్": 2461,
      " జనసేన": 2462,
      "మైంది": 2463,
      " తొల": 2464,
      " మారు": 2465,
      "అని": 2466,
      " ఉద్యోగు": 2467,
      " ఇద్దరు": 2468,
      " కష్ట": 2469,
      " అల": 2470,
      "ించాడు": 2471,
      " సమయం": 2472,
      " పైగా": 2473,
      " మరియు": 2474,
      "ృత": 2475,
      " ప్రే": 2476,
      " ఫ్": 2477,
      "ంట్లో": 2478,
      " వ్యాఖ్యలు": 2479,
      "సన్": 2480,
      "ించడానికి": 2481,
      "ండీ": 2482,
      " పరుగులు": 2483,
      "నంగా": 2484,
      "డమే": 2485,
      "ాను": 2486,
      "రగా": 2487,
      " విధా": 2488,
      " తెర": 2489,
      "ీర్": 2490,
      " భద్ర": 2491,
      "మన": 2492,
      "ప్తు": 2493,
      " ముందుకు": 2494,
      " అధికారంలోకి": 2495,
      " ఎక్స్": 2496,
      " వేయ": 2497,
      "ద్యా": 2498,
      " దో": 2499,
      " ఆరోగ్య": 2500,
      "సిటీ": 2501,
      " గంటలకు": 2502,
      "కొన్ని": 2503,
      "క్రవారం": 2504,
      " కార్యాల": 2505,
      " వెంకట": 2506,
      "జిక": 2507,
      " కానీ": 2508,
      "నాన్ని": 2509,
      "క్త": 2510,
      "లక్ష": 2511,
      " కొందరు": 2512,
      " నిర్వహి": 2513,
      " నిర్వహించారు": 2514,
      "క్టో": 2515,
      "చ్చి": 2516,
      " స్కూ": 2517,
      "అనంతరం": 2518,
      " కూటమి": 2519,
      " మోడీ": 2520,
      "తమ": 2521,
      " ఇబ్బ": 2522,
      " స్వీ": 2523,
      "స్తుందని": 2524,
      " పెళ్లి": 2525,
      "మవారం": 2526,
      "ర్మి": 2527,
      " అప్ప": 2528,
      "ండ్ల": 2529,
      " వైపు": 2530,
      "వరు": 2531,
      " పాట": 2532,
      "రావ": 2533,
      "పోవ": 2534,
      "చూ": 2535,
      "చె": 2536,
      "రాజ్": 2537,
      "వుడ్": 2538,
      " సంబంధించి": 2539,
      "నింగ్": 2540,
      " బై": 2541,
      " వారిని": 2542,
      "వ్య": 2543,
      "నె": 2544,
      " ఎంతో": 2545,
      " వివరించారు": 2546,
      " రాజీ": 2547,
      "ప్రభు": 2548,
      " పరిష్": 2549,
      "తాజాగా": 2550,
      "ండే": 2551,
      "100": 2552,
      " ఇంటర్": 2553,
      "ంగల్": 2554,
      "ణీ": 2555,
      " ప్రై": 2556,
      " వేదిక": 2557,
      " పెట్టి": 2558,
      " ఇబ్బందు": 2559,
      " మరోసారి": 2560,
      "పించారు": 2561,
      " మరణ": 2562,
      " ఎవర": 2563,
      "లాండ్": 2564,
      " అభిప్ర": 2565,
      " కారు": 2566,
      " రైల్వే": 2567,
      "తిని": 2568,
      "ారిటీ": 2569,
      " ప్రజలకు": 2570,
      " చైర్మన్": 2571,
      "ారాయణ": 2572,
      "హన్": 2573,
      "‌ర్": 2574,
      " నిలిచ": 2575,
      "కొత్త": 2576,
      " డైరెక్టర్": 2577,
      "‌ని": 2578,
      "టీసీ": 2579,
      " కాల్": 2580,
      "ోత్స": 2581,
      " అడి": 2582,
      "ినట్లు": 2583,
      "మిళ": 2584,
      " కార్యక్రమా": 2585,
      " ఉంటుందని": 2586,
      "శ్రీ": 2587,
      " అధినే": 2588,
      " సీనియర్": 2589,
      " మర": 2590,
      "లియా": 2591,
      "లేక": 2592,
      "ంత్రం": 2593,
      "జ్ఞ": 2594,
      " భూమి": 2595,
      " ఫా": 2596,
      " పోస్టు": 2597,
      " కనిపించ": 2598,
      " త్వ": 2599,
      " జరిగే": 2600,
      " పరిశీల": 2601,
      " రోడ్": 2602,
      " నరే": 2603,
      " ఫలిత": 2604,
      "యిర్": 2605,
      " అక్కడ": 2606,
      "ధాని": 2607,
      "...": 2608,
      " చేస్తే": 2609,
      " ఆహ": 2610,
      " రోజుల్లో": 2611,
      "ారాన్ని": 2612,
      "పూ": 2613,
      "ప్షన్": 2614,
      " ప్రశ్నించారు": 2615,
      "పడిన": 2616,
      " ప్లే": 2617,
      "ముఖ్య": 2618,
      " కేంద్రం": 2619,
      " చేసేందుకు": 2620,
      " ప్రమాదం": 2621,
      " వస్తున్న": 2622,
      " ఇంకా": 2623,
      " ఇప్పటి": 2624,
      " సర్వే": 2625,
      " అవసర": 2626,
      " మండల": 2627,
      " వస్తే": 2628,
      "జ్రాయ": 2629,
      "ప్పుడ": 2630,
      "తల": 2631,
      "టిలో": 2632,
      " తనకు": 2633,
      " అక్కడి": 2634,
      " నివే": 2635,
      "తున్నారని": 2636,
      " బస్సు": 2637,
      "గల": 2638,
      " ఆత్మ": 2639,
      " నమోద": 2640,
      "ంటో": 2641,
      " అండ్": 2642,
      " శ్రీనివాస్": 2643,
      "వాళ": 2644,
      "పురం": 2645,
      "గ్రహం": 2646,
      "ాలనే": 2647,
      "ెబ్బ": 2648,
      "ర్యాప్తు": 2649,
      "21": 2650,
      "ండ్ర": 2651,
      " నేను": 2652,
      " తీసుకె": 2653,
      " వృ": 2654,
      " బయటకు": 2655,
      " ఫీ": 2656,
      " పేరుతో": 2657,
      "న్సిప": 2658,
      "మరి": 2659,
      " లక్ష్": 2660,
      " ఎవరి": 2661,
      "ంగళవారం": 2662,
      " దీని": 2663,
      " గ్రూ": 2664,
      " పేర్కొంది": 2665,
      "రాల": 2666,
      " అదే": 2667,
      "నుక": 2668,
      "గ్రా": 2669,
      "రుగా": 2670,
      "రుపు": 2671,
      " అనేది": 2672,
      "మిక": 2673,
      " చేరి": 2674,
      " కేసులు": 2675,
      " నగర్": 2676,
      " జైలు": 2677,
      "ొచ్చు": 2678,
      " నింది": 2679,
      "నివారం": 2680,
      " చేయడానికి": 2681,
      " పూజ": 2682,
      "దుపు": 2683,
      "నాడు": 2684,
      " బాగా": 2685,
      "బీఐ": 2686,
      "గూడ": 2687,
      " అప్": 2688,
      " సుప్రీం": 2689,
      "మ్మి": 2690,
      " పాలన": 2691,
      " సొంత": 2692,
      "23": 2693,
      "ఎఫ్": 2694,
      "్రియ": 2695,
      " రద్దు": 2696,
      "ట్రో": 2697,
      " జే": 2698,
      "హ్మ": 2699,
      " ప్రమాద": 2700,
      "ృష్ట": 2701,
      " కేటాయ": 2702,
      "ులను": 2703,
      " బాధ": 2704,
      "చంద్రబాబు": 2705,
      " అందుకు": 2706,
      "ళ్లకు": 2707,
      " పక్క": 2708,
      " ఆరోపణలు": 2709,
      " చేస": 2710,
      " యాద": 2711,
      " అర్థ": 2712,
      " పోలింగ్": 2713,
      " నాగ": 2714,
      "కపోవడంతో": 2715,
      "భవ": 2716,
      " అయ్యారు": 2717,
      " బోర్": 2718,
      "దేశం": 2719,
      " ఏర్పా": 2720,
      " సెల": 2721,
      "జ్రాయెల్": 2722,
      "ల్యా": 2723,
      "హెచ్": 2724,
      "ంక": 2725,
      "ాలీవుడ్": 2726,
      "ంకర్": 2727,
      "పోయి": 2728,
      " తేదీన": 2729,
      " అంచనా": 2730,
      "నాల": 2731,
      "నియా": 2732,
      " చీఫ్": 2733,
      " విస్త": 2734,
      "ంలోనే": 2735,
      "కౌ": 2736,
      " క్రికెట్": 2737,
      " అధినేత": 2738,
      "దర్శి": 2739,
      " చేశారని": 2740,
      "కొండ": 2741,
      "జం": 2742,
      " ఎన్నికలు": 2743,
      "్యూటీ": 2744,
      " మండలం": 2745,
      "డికి": 2746,
      " వివిధ": 2747,
      " జరుగుతున్న": 2748,
      "రీస్": 2749,
      " వ్యవస్థ": 2750,
      " కొట్ట": 2751,
      " గాయ": 2752,
      "మర్": 2753,
      " విలువ": 2754,
      "కూడ": 2755,
      " సహా": 2756,
      " సంక్ష": 2757,
      " రైతు": 2758,
      "స్థాన్": 2759,
      " రిజర్": 2760,
      "మరోవైపు": 2761,
      "సుప": 2762,
      " కల్యా": 2763,
      "28": 2764,
      " తప్పు": 2765,
      "కిత్స": 2766,
      " ఓవర్": 2767,
      " సామా": 2768,
      " దక్క": 2769,
      " ప్రస": 2770,
      " నడు": 2771,
      " అభిమాను": 2772,
      "అంతే": 2773,
      "ar": 2774,
      " దాడు": 2775,
      " అతని": 2776,
      "్రమ": 2777,
      " దర్యాప్తు": 2778,
      " తగ్": 2779,
      "ాలన్నారు": 2780,
      "రికీ": 2781,
      "ట్రా": 2782,
      "ించినట్లు": 2783,
      "ళ్లలో": 2784,
      "రువారం": 2785,
      "ంక్": 2786,
      " బొ": 2787,
      "ఆమె": 2788,
      " దేవ": 2789,
      "పుణ": 2790,
      "కులకు": 2791,
      "ణంలో": 2792,
      " సభ్యులు": 2793,
      " సంజయ్": 2794,
      "ప్పి": 2795,
      " పిటి": 2796,
      " పాకి": 2797,
      " వరు": 2798,
      " బ్": 2799,
      "డ్జ": 2800,
      " తది": 2801,
      " విమర్శించారు": 2802,
      "కపోతే": 2803,
      "మానం": 2804,
      "గతంలో": 2805,
      "ఫొటో": 2806,
      "ల్లోకి": 2807,
      " సహాయ": 2808,
      "ప్తి": 2809,
      " పోస్ట్": 2810,
      " కేవలం": 2811,
      "భూ": 2812,
      " తయారు": 2813,
      " పార్టీకి": 2814,
      " వరకూ": 2815,
      " సూర్": 2816,
      " మాట్లాడారు": 2817,
      " జరిగి": 2818,
      "సాయ": 2819,
      " ప్రముఖ": 2820,
      "జాతీయ": 2821,
      "గాయి": 2822,
      " ఎన్న": 2823,
      " కళ్యా": 2824,
      "ించారని": 2825,
      " ఆట": 2826,
      "స్త్ర": 2827,
      " మొదలు": 2828,
      " పదవి": 2829,
      " వాతావరణ": 2830,
      " ب": 2831,
      " ఎత్తు": 2832,
      "్యంగా": 2833,
      "డవ": 2834,
      " పంపి": 2835,
      "ళ్లను": 2836,
      "ించాలి": 2837,
      " విధంగా": 2838,
      " నట": 2839,
      " నెలకొ": 2840,
      " లాంటి": 2841,
      "బట్టి": 2842,
      "నంద": 2843,
      " జి": 2844,
      "ంస": 2845,
      "జె": 2846,
      " ఎదుర్కొ": 2847,
      "ధ్యా": 2848,
      " వివ": 2849,
      "వాల్సి": 2850,
      " నివేదిక": 2851,
      " కర్ణాటక": 2852,
      "ంబా": 2853,
      "ద్దీ": 2854,
      " మంత్ర": 2855,
      " ఆప": 2856,
      " నిలి": 2857,
      " చేస్తామని": 2858,
      " చివరి": 2859,
      "ధవారం": 2860,
      "స్తున్నారని": 2861,
      " ఓటు": 2862,
      " రైతులు": 2863,
      "ಲ್ಲ": 2864,
      " సంతో": 2865,
      "బిత": 2866,
      " పర్": 2867,
      " సమస్యలు": 2868,
      "శాల": 2869,
      " చేరు": 2870,
      "వుల": 2871,
      " లేని": 2872,
      " ఎమ్మెల్సీ": 2873,
      " కావడంతో": 2874,
      "ట్లను": 2875,
      "డ్జెట్": 2876,
      " పంట": 2877,
      " గెలు": 2878,
      "కేంద్ర": 2879,
      " బాధి": 2880,
      " కాపా": 2881,
      " ప్రాంతంలో": 2882,
      "ನ್": 2883,
      " అయితే": 2884,
      "ఖాస్తు": 2885,
      " ప్రభావం": 2886,
      " పర్యటన": 2887,
      "దులు": 2888,
      " చేసినట్లు": 2889,
      " ప్రకటించింది": 2890,
      "ప్రిల్": 2891,
      " తాము": 2892,
      " నిమి": 2893,
      " کے": 2894,
      " ప్రయాణి": 2895,
      " దాఖ": 2896,
      " అరెస్టు": 2897,
      "రియ": 2898,
      " విక్ర": 2899,
      "వాస": 2900,
      "గ్రత్త": 2901,
      " వయ": 2902,
      "లిం": 2903,
      "బీఆర్ఎస్": 2904,
      "స్ట్రే": 2905,
      " و": 2906,
      "27": 2907,
      " అడ్డు": 2908,
      " కృష్ణ": 2909,
      " మాన": 2910,
      " బిల్లు": 2911,
      " నిరసన": 2912,
      "ఠా": 2913,
      " మందికి": 2914,
      " ఇలాంటి": 2915,
      " తీసుకో": 2916,
      "వంటి": 2917,
      " రోజులు": 2918,
      " బంగారం": 2919,
      "వాల": 2920,
      " స్థాయిలో": 2921,
      "రస్": 2922,
      " ఇవ్వాలని": 2923,
      "గతి": 2924,
      " కప్": 2925,
      " టె": 2926,
      "ైల్": 2927,
      "క్ట్": 2928,
      " గే": 2929,
      " అత్యంత": 2930,
      "26": 2931,
      "సీఎం": 2932,
      " ఆగ": 2933,
      " రైలు": 2934,
      " ఖర్చు": 2935,
      "ంపై": 2936,
      " రాయ": 2937,
      "ికా": 2938,
      "నానికి": 2939,
      " ప్లాన్": 2940,
      " అక్రమ": 2941,
      " దశ": 2942,
      "సిడ": 2943,
      " భారీగా": 2944,
      "పర": 2945,
      "రెండు": 2946,
      " కామెంట్": 2947,
      "వారికి": 2948,
      " అంటున్నారు": 2949,
      "ముందు": 2950,
      " మండిపడ్డారు": 2951,
      " భావ": 2952,
      " సమీప": 2953,
      "క్టోబర్": 2954,
      " పిటిషన్": 2955,
      "డుక": 2956,
      "దేశంలో": 2957,
      "సెంబర్": 2958,
      " అంగ": 2959,
      "ెన్సీ": 2960,
      "ితంగా": 2961,
      " చికిత్స": 2962,
      "ర్ల": 2963,
      " ఆసుప": 2964,
      " డ్రై": 2965,
      "అస": 2966,
      "లిక": 2967,
      " ముగ్గు": 2968,
      "ంపిక": 2969,
      " కళ్యాణ్": 2970,
      " కవిత": 2971,
      " దెబ్బ": 2972,
      "స్తున్నట్లు": 2973,
      " ఆరు": 2974,
      " బంధ": 2975,
      " హక్కు": 2976,
      "ప్రజ": 2977,
      "ండ్లు": 2978,
      "న్లు": 2979,
      " ట్యా": 2980,
      " వరద": 2981,
      " అలా": 2982,
      "మ్మడి": 2983,
      "కోవాలని": 2984,
      " భూము": 2985,
      "రఖాస్తు": 2986,
      "ొక": 2987,
      " పట్టు": 2988,
      " జిల్లాల్లో": 2989,
      "వల్ల": 2990,
      " చేయాలి": 2991,
      " క్ష": 2992,
      "బడు": 2993,
      " మెంట్": 2994,
      " బ్ర": 2995,
      "యోగం": 2996,
      " నరేంద్ర": 2997,
      " ن": 2998,
      "గాల్లో": 2999,
      "టివ్": 3000,
      " ಮ": 3001,
      "ఇదే": 3002,
      "టిఫ": 3003,
      " తెచ్చ": 3004,
      " పార్టీలో": 3005,
      "ప్టెంబర్": 3006,
      "మిత్": 3007,
      " భక్తులు": 3008,
      "గారు": 3009,
      "ౌన్": 3010,
      "నామా": 3011,
      "య్యాయి": 3012,
      " బాబు": 3013,
      "భారత్": 3014,
      " ఉన్నట్లు": 3015,
      " విమర్శలు": 3016,
      "ఫా": 3017,
      "యిన": 3018,
      "ంగి": 3019,
      "ంగ్స్": 3020,
      "ుత్": 3021,
      " సార్": 3022,
      " کی": 3023,
      "న్నాడు": 3024,
      " విద్యా": 3025,
      " వినియోగ": 3026,
      "ళీ": 3027,
      " బీబీసీ": 3028,
      "పార్టీ": 3029,
      " ఇంట్లో": 3030,
      " ప్రతిపక్ష": 3031,
      "ారన్నారు": 3032,
      " విషయాన్ని": 3033,
      " వెళ్లే": 3034,
      " ఇబ్బందులు": 3035,
      "ెడ": 3036,
      " میں": 3037,
      "లన": 3038,
      "‌న": 3039,
      "‌మెంట్": 3040,
      " అడ్": 3041,
      "య్యా": 3042,
      "లియన్": 3043,
      " శరీ": 3044,
      " జాగ్రత్త": 3045,
      " అయి": 3046,
      " గెలిచ": 3047,
      " తీర్పు": 3048,
      " ఎంపిక": 3049,
      " సిరీస్": 3050,
      " నోటీ": 3051,
      " గతంలో": 3052,
      "రిత్ర": 3053,
      " ఒకే": 3054,
      " తాజాగా": 3055,
      " బహి": 3056,
      " పాఠ": 3057,
      " సాయంత్రం": 3058,
      " ప్రైవే": 3059,
      "ారనే": 3060,
      " వాటిని": 3061,
      "యన్స్": 3062,
      " రికార్డు": 3063,
      "ంబై": 3064,
      " అవకాశాలు": 3065,
      " ఎదురు": 3066,
      " ఉపా": 3067,
      "యంగా": 3068,
      "హత్య": 3069,
      " సమావేశం": 3070,
      "కపోవడం": 3071,
      "ప్రద": 3072,
      " బెయిల్": 3073,
      " చేసారు": 3074,
      "సింగ్": 3075,
      " సైతం": 3076,
      "రిలో": 3077,
      " వచ్చాయి": 3078,
      " అధికారి": 3079,
      " సూపర్": 3080,
      " పలువు": 3081,
      "ంచే": 3082,
      " షర్మి": 3083,
      " పూర్తిగా": 3084,
      "వంబర్": 3085,
      "అధిక": 3086,
      " వేడుక": 3087,
      " కురి": 3088,
      " ఉండగా": 3089,
      " జీవిత": 3090,
      " ల్యా": 3091,
      " చేస్తు": 3092,
      " నష్ట": 3093,
      " నటి": 3094,
      " లభ": 3095,
      "ండె": 3096,
      "భారత": 3097,
      " స్వామి": 3098,
      " సెంటర్": 3099,
      " రూపొ": 3100,
      "ించుకో": 3101,
      "వార": 3102,
      "పోయా": 3103,
      "కంటే": 3104,
      " మున్సిప": 3105,
      " జీవి": 3106,
      "ఫు": 3107,
      "రించారు": 3108,
      " వేగ": 3109,
      "రణ్": 3110,
      "డుతున్న": 3111,
      " సిటీ": 3112,
      " చేసుకున్నారు": 3113,
      " వంద": 3114,
      " కోరు": 3115,
      "ధ్యాహ్": 3116,
      "ఫర్": 3117,
      " ధరలు": 3118,
      " గ్రామా": 3119,
      " కంట": 3120,
      " సమర్": 3121,
      " బ్రి": 3122,
      "డ్స్": 3123,
      " నామ": 3124,
      "తాను": 3125,
      "కోవడానికి": 3126,
      " కార్మి": 3127,
      " స్థానిక": 3128,
      " ఇంటికి": 3129,
      " అదుపు": 3130,
      " ఎయిర్": 3131,
      " మహిళా": 3132,
      "60": 3133,
      "ఇలా": 3134,
      "రవ": 3135,
      " లైన్": 3136,
      " బెంగళూరు": 3137,
      " స్థానంలో": 3138,
      " ت": 3139,
      " ఆక": 3140,
      " ಸ": 3141,
      "అందులో": 3142,
      "దిరి": 3143,
      " ట్వీ": 3144,
      "హీ": 3145,
      "నాథ్": 3146,
      " ప్రయోజ": 3147,
      " టెక్": 3148,
      "పెద్ద": 3149,
      " గవర్": 3150,
      " కార్యదర్శి": 3151,
      "కల": 3152,
      "ంటుంది": 3153,
      "ించనున్నారు": 3154,
      "తికి": 3155,
      " జాబిత": 3156,
      "టువంటి": 3157,
      " పౌ": 3158,
      " కల్యాణ్": 3159,
      " د": 3160,
      " ج": 3161,
      " .\n": 3162,
      " చెప్పిన": 3163,
      "రాష్ట్రంలో": 3164,
      " పది": 3165,
      "రేట్": 3166,
      " అభిప్రాయ": 3167,
      " ప్రేమ": 3168,
      "ష్ణ": 3169,
      " తీసుకొచ్చ": 3170,
      " తెలుసు": 3171,
      " బీసీ": 3172,
      "ఖీ": 3173,
      "కుమార్": 3174,
      " ఆరోగ": 3175,
      " డబ్బులు": 3176,
      " బృ": 3177,
      " తీసుకున్నారు": 3178,
      "శ్ర": 3179,
      "in": 3180,
      "ఫె": 3181,
      "బూ": 3182,
      " దక్షి": 3183,
      " పొంద": 3184,
      "ణంగా": 3185,
      " క్ల": 3186,
      "ందనే": 3187,
      "al": 3188,
      " దరఖాస్తు": 3189,
      "లక్": 3190,
      "29": 3191,
      " చొ": 3192,
      " ఇబ్బంది": 3193,
      " ప్రాధా": 3194,
      " బడ్జెట్": 3195,
      " మీరు": 3196,
      "ేస్": 3197,
      "న్యం": 3198,
      "ట్లో": 3199,
      "పాద": 3200,
      " ఇచ్చింది": 3201,
      " సుప్రీంకోర్టు": 3202,
      "ತ್": 3203,
      "ర్యంలో": 3204,
      "మహ": 3205,
      "కున్నారు": 3206,
      "రానికి": 3207,
      " సిద్ద": 3208,
      "షం": 3209,
      " కమ": 3210,
      " కృ": 3211,
      "రామ": 3212,
      " స్పష్ట": 3213,
      " పార్టీల": 3214,
      " చేస్తారు": 3215,
      " పార్లమెంట్": 3216,
      "ఫిక్": 3217,
      "్యాన్ని": 3218,
      " తమకు": 3219,
      " ఆడ": 3220,
      "ంపల్లి": 3221,
      " ప్రేక్ష": 3222,
      " కర": 3223,
      " చరిత్ర": 3224,
      " ఇజ్రాయెల్": 3225,
      "యాల్లో": 3226,
      "మ్మం": 3227,
      "షనర్": 3228,
      " విదేశ": 3229,
      "ెట్టి": 3230,
      " నడి": 3231,
      " జూన్": 3232,
      " తండ్రి": 3233,
      " శక్తి": 3234,
      "అది": 3235,
      "క్యూ": 3236,
      "ಿದ": 3237,
      "ారులు": 3238,
      " ప్రచార": 3239,
      "కేష్": 3240,
      "తెలంగాణలో": 3241,
      "500": 3242,
      "ద్రా": 3243,
      "సరి": 3244,
      " ఇక్కడ": 3245,
      " తీరు": 3246,
      "ద్దని": 3247,
      "ద్యం": 3248,
      " కనిప": 3249,
      "విష్య": 3250,
      " పత్ర": 3251,
      " వాయి": 3252,
      " కాలేజీ": 3253,
      "కరి": 3254,
      "వల్": 3255,
      "దువు": 3256,
      "ద్దేశ": 3257,
      "కాం": 3258,
      " చేర": 3259,
      "టిల్": 3260,
      "ప్టెన్": 3261,
      " లెక్క": 3262,
      " భర్త": 3263,
      " వరుస": 3264,
      " R": 3265,
      "ఖ్యా": 3266,
      "రింగ్": 3267,
      "్వర్యంలో": 3268,
      " ವ": 3269,
      " ఇండి": 3270,
      " పార్టీలు": 3271,
      "హిత్": 3272,
      " వ్యాప్తంగా": 3273,
      " యాత్ర": 3274,
      " హు": 3275,
      " ఇచ్చి": 3276,
      " ప్యా": 3277,
      "ినేషన్": 3278,
      "కులను": 3279,
      " ఇటీవల": 3280,
      "ఖర్": 3281,
      "టన్": 3282,
      " వస్తుంది": 3283,
      " హరీ": 3284,
      " మార్చ": 3285,
      "టెడ్": 3286,
      " భారతీయ": 3287,
      " పలువురు": 3288,
      " వది": 3289,
      " ఆన్": 3290,
      " గుర్తి": 3291,
      " క్యాప్షన్": 3292,
      " సీట్లు": 3293,
      "ఫ్ట్": 3294,
      " మార్చి": 3295,
      " కార్పొ": 3296,
      "స్ట్రేలియా": 3297,
      "తొ": 3298,
      "ور": 3299,
      "గ్రీ": 3300,
      "సాద్": 3301,
      " ప్రయత్నం": 3302,
      " కోట్": 3303,
      " రాజీనామా": 3304,
      " కలిగి": 3305,
      "ందం": 3306,
      "సార్లు": 3307,
      "‌సభ": 3308,
      " పోలీసులకు": 3309,
      "‌ర": 3310,
      " నూ": 3311,
      "దీనికి": 3312,
      " నిర్వహించిన": 3313,
      " లాభ": 3314,
      " విభా": 3315,
      " కాదని": 3316,
      "క్కడే": 3317,
      " అంతర్": 3318,
      " గ్రూప్": 3319,
      " యాదవ్": 3320,
      " తెలిసింది": 3321,
      " కారణం": 3322,
      " కార్డు": 3323,
      " పెం": 3324,
      " ఆధ్వర్యంలో": 3325,
      " ఉత్ప": 3326,
      "కేసీఆర్": 3327,
      " సంక్షేమ": 3328,
      "ధ్యాహ్నం": 3329,
      "ండు": 3330,
      " నై": 3331,
      " నీటి": 3332,
      " బాధ్యత": 3333,
      " నీరు": 3334,
      "జిల్": 3335,
      "రాత్రి": 3336,
      " శుక్రవారం": 3337,
      " ఒకటి": 3338,
      " స్పె": 3339,
      " తెలంగాణలో": 3340,
      " ఆస్ప": 3341,
      "రిని": 3342,
      "నేను": 3343,
      " ..\n": 3344,
      "తుల్లో": 3345,
      "వేల": 3346,
      " శుభ": 3347,
      " హాజర": 3348,
      "మన్": 3349,
      " మహా": 3350,
      " భయ": 3351,
      " చేస్తున్నారని": 3352,
      " ట్వీట్": 3353,
      " చేయా": 3354,
      " సర్వీ": 3355,
      " తమిళ": 3356,
      " లేఖ": 3357,
      "ఏపీలో": 3358,
      "తాయని": 3359,
      "విద్య": 3360,
      "నున్నాయి": 3361,
      " అందుబాటులో": 3362,
      " వాటి": 3363,
      "న్నై": 3364,
      " కమిషన్": 3365,
      " గణ": 3366,
      " ఫై": 3367,
      " స్టా": 3368,
      " ఉండాలని": 3369,
      " అద్": 3370,
      " యుద్ధ": 3371,
      " కన్": 3372,
      "ంగు": 3373,
      " భే": 3374,
      " ఫొటో": 3375,
      "పోలీ": 3376,
      "ారాష్ట్ర": 3377,
      " చూప": 3378,
      " అనుకూల": 3379,
      " నెలల": 3380,
      " తీవ్రంగా": 3381,
      "స్తాయని": 3382,
      " గుర్తించారు": 3383,
      " స్థి": 3384,
      " పొందు": 3385,
      " పండు": 3386,
      " తొలగ": 3387,
      " ఆసుపత్రి": 3388,
      "మొద": 3389,
      "పడింది": 3390,
      " యూనివర్": 3391,
      " సామ": 3392,
      " తిన": 3393,
      " ఆంధ్రప్రదేశ్": 3394,
      "ంశ": 3395,
      "ఫ్ర": 3396,
      "కోవాలి": 3397,
      "ఎన్నికల": 3398,
      "దీనిపై": 3399,
      "ల్చ": 3400,
      "ان": 3401,
      "లిన": 3402,
      " ఆమో": 3403,
      "లేని": 3404,
      " ఉన్నా": 3405,
      " నియమ": 3406,
      "ఆది": 3407,
      "మ్ము": 3408,
      " విషయ": 3409,
      " దాఖలు": 3410,
      " ఉద్య": 3411,
      " నిపుణ": 3412,
      " వరల్డ్": 3413,
      " పొత్తు": 3414,
      "యింది": 3415,
      "ించాయి": 3416,
      " ఉన్నాయని": 3417,
      " మారి": 3418,
      "వేత్త": 3419,
      " కాలంలో": 3420,
      " చేస్తోంది": 3421,
      " తీసుకోవాలని": 3422,
      " ప్రతిని": 3423,
      " షో": 3424,
      "వాల్సిన": 3425,
      " జగ": 3426,
      " సోమవారం": 3427,
      " వివరాలు": 3428,
      "రాజు": 3429,
      "ಿಯ": 3430,
      " అప్పు": 3431,
      " నేడు": 3432,
      " కుటుంబా": 3433,
      "డత": 3434,
      "దాని": 3435,
      " సమావేశంలో": 3436,
      "దండ్ర": 3437,
      "..?\n": 3438,
      "ళం": 3439,
      " ప్రక్రియ": 3440,
      " ధర్": 3441,
      " స్థాని": 3442,
      "ోన్": 3443,
      " రాజ్": 3444,
      " అధికారిక": 3445,
      "ల్చి": 3446,
      "గానికి": 3447,
      "క్కో": 3448,
      "పులు": 3449,
      " ఫ్ర": 3450,
      " వెల్లడించింది": 3451,
      " షేర్": 3452,
      " నిమిష": 3453,
      "70": 3454,
      "గొండ": 3455,
      "ار": 3456,
      "ష్యా": 3457,
      "ెంట్లు": 3458,
      "షణ": 3459,
      " వన్": 3460,
      " వ్యూ": 3461,
      " రాష్ట్రాల్లో": 3462,
      " కన": 3463,
      "నాల్లో": 3464,
      " సంత": 3465,
      " సబ్": 3466,
      "అత": 3467,
      "మూర్": 3468,
      "రలో": 3469,
      " ఆగ్రహం": 3470,
      " ఉచిత": 3471,
      " షర్మిల": 3472,
      "ౌండ్": 3473,
      "ట్రి": 3474,
      " చైనా": 3475,
      " జరుపు": 3476,
      " సామాజిక": 3477,
      " ఆడి": 3478,
      " వెన": 3479,
      " ఉద్దేశ": 3480,
      " ఒత్తి": 3481,
      " పూర్త": 3482,
      " చేస్తుంది": 3483,
      "ించడంతో": 3484,
      " సింగ": 3485,
      "ంహ": 3486,
      " విద్యుత్": 3487,
      "ద్రి": 3488,
      " ప్రో": 3489,
      " విశ్వ": 3490,
      " సినిమాలో": 3491,
      "పోయాయి": 3492,
      "లైన్": 3493,
      " తగ్గి": 3494,
      " రవి": 3495,
      " ఇంట": 3496,
      " వివే": 3497,
      " నిరా": 3498,
      "వాసం": 3499,
      " రిపో": 3500,
      "ేవారు": 3501,
      " నిజ": 3502,
      " సీజన్": 3503,
      "ಲ್ಲಿ": 3504,
      " ఆధారంగా": 3505,
      "స్క": 3506,
      "రాల్లో": 3507,
      "పీఎల్": 3508,
      " వేసి": 3509,
      " నాకు": 3510,
      "కుంటే": 3511,
      "లాక్": 3512,
      "గులు": 3513,
      "డ్డా": 3514,
      " ఖాన్": 3515,
      " ఆత్మహత్య": 3516,
      "ోధ": 3517,
      " వర్షం": 3518,
      " హాజరు": 3519,
      " కస్ట": 3520,
      " నిబంధ": 3521,
      " స్పీ": 3522,
      "ఇటీవల": 3523,
      "స్పి": 3524,
      "హ్వా": 3525,
      "31": 3526,
      "ంభ": 3527,
      "ంకు": 3528,
      "థి": 3529,
      " వెనుక": 3530,
      " దేశంలో": 3531,
      " సంఘం": 3532,
      " ప్రభుత్వానికి": 3533,
      " సత్య": 3534,
      "కుని": 3535,
      " అవినీ": 3536,
      "స్తోందని": 3537,
      " ఆదేశించారు": 3538,
      "ra": 3539,
      "ఇప్పటి": 3540,
      " కురు": 3541,
      "ంపే": 3542,
      " గ్యా": 3543,
      "స్తారని": 3544,
      " ہے": 3545,
      "ారానికి": 3546,
      "తుడు": 3547,
      " బండి": 3548,
      "మానా": 3549,
      "ప్రపంచ": 3550,
      "ంద్రా": 3551,
      "నున్నట్లు": 3552,
      " అరు": 3553,
      " లేక": 3554,
      " బ్యాంక్": 3555,
      "కునే": 3556,
      "లిక్": 3557,
      "ెక్ట్": 3558,
      " రావడం": 3559,
      " రూపాయలు": 3560,
      " కిలోమీ": 3561,
      "ನ್ನ": 3562,
      " చదువు": 3563,
      " అనంతరం": 3564,
      "లింది": 3565,
      " ఎగ్": 3566,
      " వాహన": 3567,
      " దృష్టి": 3568,
      "ేశ్వర": 3569,
      " భేటీ": 3570,
      "చ్చని": 3571,
      " చూసి": 3572,
      " వరంగల్": 3573,
      " ఇచ్చే": 3574,
      "సిడెంట్": 3575,
      "వని": 3576,
      " పదే": 3577,
      " ఐటీ": 3578,
      "షియల్": 3579,
      " వేదికగా": 3580,
      "తమైన": 3581,
      " వెబ్": 3582,
      "వేషన్": 3583,
      "బోయే": 3584,
      " ఫోటో": 3585,
      " گ": 3586,
      "ంనగర్": 3587,
      "లాల": 3588,
      " అమిత్": 3589,
      "ణ్య": 3590,
      "వ్యూ": 3591,
      " శర్మ": 3592,
      " మూడో": 3593,
      " పారి": 3594,
      "గ్రహ": 3595,
      " అనుమతి": 3596,
      "డప": 3597,
      " స్నే": 3598,
      " కార్యక్రమంలో": 3599,
      " ఏర్పాట్లు": 3600,
      " రహ": 3601,
      " పంపిణీ": 3602,
      "రమ": 3603,
      " పట్ల": 3604,
      "వాహ": 3605,
      " గ్": 3606,
      " ఆలోచన": 3607,
      " ఇండ": 3608,
      "సులో": 3609,
      "తోందని": 3610,
      "ంగ్లా": 3611,
      "ారావు": 3612,
      " కల్పించ": 3613,
      "తిక": 3614,
      "్రీన్": 3615,
      " ముగ్గురు": 3616,
      " ఎక": 3617,
      " ప్రయత్ని": 3618,
      "తకు": 3619,
      "ప్రా": 3620,
      " వాహ": 3621,
      " బ్రా": 3622,
      " జయ": 3623,
      "రుగ": 3624,
      " షాక్": 3625,
      " బహిరంగ": 3626,
      " కృషి": 3627,
      "జార్": 3628,
      "కరించారు": 3629,
      "తెలుగు": 3630,
      " ఆదివారం": 3631,
      " బోర్డు": 3632,
      " ఇంజ": 3633,
      " సమాధా": 3634,
      " క్రితం": 3635,
      "అక్కడ": 3636,
      "ధీ": 3637,
      "తరులు": 3638,
      " అద్భు": 3639,
      " అడ": 3640,
      " దారి": 3641,
      " వాదన": 3642,
      " ఆయనకు": 3643,
      " మెడి": 3644,
      "ంచు": 3645,
      "వాలు": 3646,
      " సీబీఐ": 3647,
      " తరలి": 3648,
      " గుర్తింపు": 3649,
      " విశాఖ": 3650,
      "దానికి": 3651,
      "ెక్ట": 3652,
      " హింద": 3653,
      "ంచ్": 3654,
      "టానికి": 3655,
      "ట్టింది": 3656,
      " వ్యతిరేక": 3657,
      "అంతేకా": 3658,
      "నిమ": 3659,
      " సభలో": 3660,
      " పెట్టారు": 3661,
      " ఎన్నో": 3662,
      "గీ": 3663,
      "ేష్": 3664,
      " రూపాయల": 3665,
      "45": 3666,
      "గణ": 3667,
      " రాజు": 3668,
      " ఫైన": 3669,
      "స్టే": 3670,
      "ట్టే": 3671,
      " చెప్పింది": 3672,
      "రీంనగర్": 3673,
      " ఓడి": 3674,
      " అవార్డు": 3675,
      " అయింది": 3676,
      "దారులు": 3677,
      " క్రీ": 3678,
      " ఇంత": 3679,
      " శనివారం": 3680,
      "ముఖ్యంగా": 3681,
      " వ్యాఖ్యా": 3682,
      " న్యూస్": 3683,
      " రాలే": 3684,
      "చ్చారు": 3685,
      " కూడిన": 3686,
      " కొద్ది": 3687,
      "క్కర్": 3688,
      " కనీ": 3689,
      "కోసం": 3690,
      "శ్చి": 3691,
      " ప్రారంభించారు": 3692,
      "‌క": 3693,
      "స్తులు": 3694,
      "కేషన్": 3695,
      " ఉండాలి": 3696,
      "సారిగా": 3697,
      " మార్పులు": 3698,
      " సీత": 3699,
      "తిరు": 3700,
      "ణానికి": 3701,
      " ఎల్": 3702,
      " ನ": 3703,
      "యాత్ర": 3704,
      " పోష": 3705,
      "ాడని": 3706,
      " అల్": 3707,
      " ఆహ్వా": 3708,
      " ఎవరు": 3709,
      " దిగు": 3710,
      "హ్లీ": 3711,
      "ార్గ": 3712,
      " సంప్రద": 3713,
      "ంటాయి": 3714,
      " వచ్చారు": 3715,
      " ఫ్యాన్స్": 3716,
      " A": 3717,
      " ప్రె": 3718,
      "బ్రవరి": 3719,
      "ట్టిన": 3720,
      "ಂದ": 3721,
      " వాళ్లు": 3722,
      " అయ్యింది": 3723,
      " సంగతి": 3724,
      "హార్": 3725,
      " ఔ": 3726,
      "జరా": 3727,
      " కీ": 3728,
      " ఈడీ": 3729,
      " ఆఫీసర్": 3730,
      " ఆస్పత్రి": 3731,
      " మహిళలు": 3732,
      " మంగళవారం": 3733,
      " గర్": 3734,
      " సంవత్సరం": 3735,
      "ాయింట్": 3736,
      " దారు": 3737,
      " అయినా": 3738,
      " ఇక": 3739,
      " బీఆర్": 3740,
      "వ్వు": 3741,
      "000": 3742,
      "దర": 3743,
      " వడ్": 3744,
      "విట్": 3745,
      " అవుతుంది": 3746,
      "ాలామ": 3747,
      "లికి": 3748,
      "షీ": 3749,
      " మంజ": 3750,
      "ాలంటూ": 3751,
      " సీపీ": 3752,
      "తుండ": 3753,
      " కుమారు": 3754,
      "గ్స్": 3755,
      "35": 3756,
      " ఇంగ్": 3757,
      " నుంచే": 3758,
      "జీవి": 3759,
      "పడే": 3760,
      " సృష్ట": 3761,
      " గురువారం": 3762,
      " షూ": 3763,
      "ఇలాంటి": 3764,
      "క్షలు": 3765,
      "జున్": 3766,
      " సర్కార్": 3767,
      " వెళ్లిన": 3768,
      " ఎన్టీఆర్": 3769,
      "ప్పుడూ": 3770,
      "నంలో": 3771,
      "్యో": 3772,
      " వ్యతిరేకంగా": 3773,
      " సము": 3774,
      " తిరుగు": 3775,
      " గవర్నర్": 3776,
      "దైనా": 3777,
      " చౌ": 3778,
      " చార్": 3779,
      " పరిధిలో": 3780,
      "ెడ్యూ": 3781,
      "ఆంధ్రప్రదేశ్": 3782,
      " వేశారు": 3783,
      " తల్లిదండ్ర": 3784,
      "దరు": 3785,
      " కామెంట్స్": 3786,
      " లోకేష్": 3787,
      " ఎమ్మెల్యేలు": 3788,
      " అత్యధిక": 3789,
      "ాలామంది": 3790,
      "ట్నం": 3791,
      " బాగు": 3792,
      " కావడం": 3793,
      " సంఘటన": 3794,
      "సర్లు": 3795,
      "హో": 3796,
      "ౌస్": 3797,
      "ికేషన్": 3798,
      " వాయిదా": 3799,
      "ట్యూ": 3800,
      " తరలించారు": 3801,
      "ొక్క": 3802,
      " ప్రదర్శ": 3803,
      " నిరు": 3804,
      " ప్రశ్న": 3805,
      "ائ": 3806,
      " సాధారణ": 3807,
      "పడుతుంది": 3808,
      " రుణ": 3809,
      "వరం": 3810,
      " దుర్": 3811,
      "జగన్": 3812,
      "స్టా": 3813,
      "టీడీపీ": 3814,
      " చెప్": 3815,
      " మొత్త": 3816,
      " దిశ": 3817,
      "80": 3818,
      " శ్రే": 3819,
      "ఎంసీ": 3820,
      "త్యా": 3821,
      " కాన్": 3822,
      " గుండె": 3823,
      " అర్థం": 3824,
      "ప్యూటీ": 3825,
      " క్యూ": 3826,
      "తున్నట్లు": 3827,
      " జిల్లాలోని": 3828,
      " ప్రారంభం": 3829,
      "మాని": 3830,
      "య్యి": 3831,
      "ెక్స్": 3832,
      " కమిషనర్": 3833,
      "ಾರ": 3834,
      " మనం": 3835,
      " సీఐ": 3836,
      "య్యే": 3837,
      " చూసిన": 3838,
      "హాన్ని": 3839,
      " విశ్": 3840,
      " ట్రై": 3841,
      " సీటు": 3842,
      "దావరి": 3843,
      " పరిశోధ": 3844,
      "th": 3845,
      "లూ": 3846,
      "న్నది": 3847,
      "ించుకున్నారు": 3848,
      "కరించ": 3849,
      " అందరూ": 3850,
      " జాబితా": 3851,
      " అప్ర": 3852,
      "న్నే": 3853,
      " రామ్": 3854,
      " అవి": 3855,
      " అంబ": 3856,
      " భవిష్య": 3857,
      " రైతులకు": 3858,
      "రవే": 3859,
      " వాడ": 3860,
      "కిల్": 3861,
      "శ్చ": 3862,
      "یک": 3863,
      "ార్డ్": 3864,
      "మహిళ": 3865,
      "వాళ్లు": 3866,
      " ఒప్ప": 3867,
      "ఎస్సీ": 3868,
      "న్మ": 3869,
      "ర్చి": 3870,
      " చెంద": 3871,
      " ప్రయత్నాలు": 3872,
      "డెన్": 3873,
      "రలోనే": 3874,
      " సాయం": 3875,
      "ల్లే": 3876,
      "ాయు": 3877,
      "ల్లం": 3878,
      " చూపి": 3879,
      " సూర్య": 3880,
      " క్వ": 3881,
      " బే": 3882,
      "స్తానని": 3883,
      " ఏప్రిల్": 3884,
      " పరిమి": 3885,
      " తీసుకుని": 3886,
      " నియోజకవర్గం": 3887,
      " యూనివర్సిటీ": 3888,
      " హ్యా": 3889,
      " పిలుపు": 3890,
      " చేపట్టారు": 3891,
      " తిరుపతి": 3892,
      " పాకిస్తాన్": 3893,
      "బెట్": 3894,
      " ప్రీ": 3895,
      " వేళ": 3896,
      " నాయుడు": 3897,
      "వచ్చే": 3898,
      " సెల్": 3899,
      " లక్షలు": 3900,
      " రూపొందించ": 3901,
      "నిఖీ": 3902,
      "జరాత్": 3903,
      " ಕ": 3904,
      "‌లను": 3905,
      " నష్టం": 3906,
      "స్తుత": 3907,
      "ాలిటీ": 3908,
      "ించుకున్న": 3909,
      " ఆదేశాలు": 3910,
      " పెరిగి": 3911,
      "స్ట్రీ": 3912,
      "స్వామ": 3913,
      " ఖాళీ": 3914,
      "ెయిన్": 3915,
      "ందుకంటే": 3916,
      " రోహిత్": 3917,
      " సెక్ర": 3918,
      " విద్యార్థులు": 3919,
      "త్రం": 3920,
      " మంత్రులు": 3921,
      " స్వాధీ": 3922,
      " కార్యకర్తలు": 3923,
      " ఎక్కడ": 3924,
      " ఓట్లు": 3925,
      " ఉంటారు": 3926,
      " గౌడ్": 3927,
      " నిద్ర": 3928,
      " జనవరి": 3929,
      " వ్యాపార": 3930,
      "టై": 3931,
      " మద్యం": 3932,
      " ఇష్ట": 3933,
      "గ్గా": 3934,
      " తనను": 3935,
      " వసూ": 3936,
      " ఏడు": 3937,
      " చేసుకుంది": 3938,
      " ట్రాఫిక్": 3939,
      "నాలను": 3940,
      "పున": 3941,
      "మిండియా": 3942,
      " అగ్ర": 3943,
      "పోయే": 3944,
      " సుమారు": 3945,
      "ుడి": 3946,
      "కాలం": 3947,
      " బంధు": 3948,
      "కలు": 3949,
      " వాళ్ల": 3950,
      " మిగి": 3951,
      " నిపుణులు": 3952,
      "ార్గెట్": 3953,
      "తర్వాత": 3954,
      " ఎక్క": 3955,
      " ముందే": 3956,
      "స్థాయి": 3957,
      " బుధవారం": 3958,
      " ఉత్తర్": 3959,
      "త్తా": 3960,
      " హాస్పి": 3961,
      " ఓటమి": 3962,
      " కెప్టెన్": 3963,
      " బ్యాంకు": 3964,
      " సరైన": 3965,
      " స్కూల్": 3966,
      " ఎవరూ": 3967,
      " నర్": 3968,
      "ధుల": 3969,
      "సీబీ": 3970,
      " తీసుకుంట": 3971,
      "వారిని": 3972,
      "er": 3973,
      " పెంచు": 3974,
      " విజయవాడ": 3975,
      " దాడులు": 3976,
      "వెల్": 3977,
      " పేద": 3978,
      "మీర్": 3979,
      " పరుగుల": 3980,
      " ఆదాయం": 3981,
      " సార్లు": 3982,
      "గతా": 3983,
      "పన": 3984,
      "నిఫ": 3985,
      " నిధులు": 3986,
      " ముంబై": 3987,
      " కొనసాగ": 3988,
      "చాలా": 3989,
      " భు": 3990,
      " కూతు": 3991,
      " తేడా": 3992,
      " జడ్": 3993,
      " కొడుకు": 3994,
      "ములు": 3995,
      "మొత్తం": 3996,
      " నిర్వహణ": 3997,
      " తిరుమల": 3998,
      " పండుగ": 3999,
      " స్వాధీనం": 4000,
      " ఆస్ట్రేలియా": 4001,
      " బాధ్యతలు": 4002,
      " ప్రాధాన్య": 4003,
      " భో": 4004,
      " నియోజకవర్గంలో": 4005,
      " నిర్మాణ": 4006,
      " ధా": 4007,
      " సల": 4008,
      " సారి": 4009,
      " లబ్": 4010,
      " అధి": 4011,
      " పున": 4012,
      " సంఖ్యలో": 4013,
      " కిషన్": 4014,
      " సంతోష": 4015,
      "ನ್ನು": 4016,
      "on": 4017,
      "ంగం": 4018,
      "ష్ణో": 4019,
      "అనే": 4020,
      "ధారణ": 4021,
      " రకాల": 4022,
      "కర్స్": 4023,
      " నీళ్లు": 4024,
      " చిత్రం": 4025,
      " అదుపులోకి": 4026,
      "ధర్": 4027,
      "హాలు": 4028,
      " టీమ్": 4029,
      " అంతర్జాతీయ": 4030,
      " మంట": 4031,
      " తనిఖీ": 4032,
      " ఏమి": 4033,
      " నేషనల్": 4034,
      " ఒకరు": 4035,
      " గిరి": 4036,
      "జ్రీ": 4037,
      " వేసిన": 4038,
      " పెరగ": 4039,
      "కరమైన": 4040,
      " ఆహార": 4041,
      " ప్రస్తా": 4042,
      " ఉండి": 4043,
      " స్కో": 4044,
      " ఖాతా": 4045,
      " మున్సిపల్": 4046,
      "రుష": 4047,
      " లోప": 4048,
      "చేసుకు": 4049,
      " పథకం": 4050,
      "దర్": 4051,
      "నాయ": 4052,
      " టార్గెట్": 4053,
      " సాయి": 4054,
      " శిక్ష": 4055,
      " చోట్ల": 4056,
      " పిల్లలు": 4057,
      "మారెడ్డి": 4058,
      "ರು": 4059,
      " డిసెంబర్": 4060,
      " అభిమానులు": 4061,
      "శ్చిమ": 4062,
      "ఘా": 4063,
      " ఉన్నారని": 4064,
      "ఘు": 4065,
      "పవన్": 4066,
      " మధ్యాహ్నం": 4067,
      " అదన": 4068,
      " సినీ": 4069,
      "డితే": 4070,
      "కొందరు": 4071,
      " నిర్మాణం": 4072,
      " కౌన్సి": 4073,
      " చెప్పుకొచ్చ": 4074,
      "కుంటున్న": 4075,
      " స్కా": 4076,
      " వెళ": 4077,
      " యాప్": 4078,
      " యో": 4079,
      "ించగా": 4080,
      " రాశ": 4081,
      " ఈసారి": 4082,
      "జ్రీవాల్": 4083,
      " సాం": 4084,
      " విజయ్": 4085,
      " ఢ": 4086,
      "یو": 4087,
      "యేషన్": 4088,
      "మాబాద్": 4089,
      " రిజి": 4090,
      " కుటుంబం": 4091,
      " వినిపి": 4092,
      " స్పందించారు": 4093,
      " అంగీ": 4094,
      " S": 4095,
      "యాన్": 4096,
      "ృతదే": 4097,
      "వార్": 4098,
      "క్సెస్": 4099,
      " తగ్గు": 4100,
      "ంట్ర": 4101,
      " కోరుకు": 4102,
      "జ్జ": 4103,
      "సేందుకు": 4104,
      " రాష్ట్రం": 4105,
      " డిప్యూటీ": 4106,
      "న్యూఢిల్లీ": 4107,
      "అమెరికా": 4108,
      "రంజీవి": 4109,
      " రావడంతో": 4110,
      " విద్యార్థి": 4111,
      " అప్పగ": 4112,
      " జె": 4113,
      " లేద": 4114,
      " దేశం": 4115,
      " డిగ్రీ": 4116,
      " ప్రజలను": 4117,
      "టె": 4118,
      "ంచరీ": 4119,
      " చెయ్య": 4120,
      " గుడ్": 4121,
      " షెడ్యూ": 4122,
      " తదితరులు": 4123,
      "దిలీ": 4124,
      " కాలం": 4125,
      " అభ్యర్థులు": 4126,
      " సందర్శ": 4127,
      " నోటీసులు": 4128,
      "చ్చితంగా": 4129,
      "త్మక": 4130,
      " నంబర్": 4131,
      "టీడీ": 4132,
      "విజ": 4133,
      " సుర": 4134,
      "ళ్లుగా": 4135,
      " పెరిగింది": 4136,
      " అవినీతి": 4137,
      " గడు": 4138,
      " కోహ్లీ": 4139,
      " ప్రాణ": 4140,
      " రాష్ట్రాల": 4141,
      " అర్హ": 4142,
      " రిజర్వేషన్": 4143,
      "కంప": 4144,
      " ఆటగా": 4145,
      "sh": 4146,
      "స్క్": 4147,
      "చ్ఛ": 4148,
      " అసలు": 4149,
      "199": 4150,
      " ప్రమాణ": 4151,
      " ఉద్యమ": 4152,
      "నెల": 4153,
      " ఇన్ని": 4154,
      " బ్యాటింగ్": 4155,
      " చుట్ట": 4156,
      " ಪ": 4157,
      " ఫే": 4158,
      " స్పెషల్": 4159,
      "దైన": 4160,
      "స్లిం": 4161,
      " ప్రశా": 4162,
      "వైసీపీ": 4163,
      " అంతా": 4164,
      "చేశారు": 4165,
      "లోనూ": 4166,
      " నివ": 4167,
      " లభి": 4168,
      " హెల్": 4169,
      " టెస్టు": 4170,
      " నేతల": 4171,
      " చేసుకో": 4172,
      "శేఖర్": 4173,
      " ر": 4174,
      " କ": 4175,
      "ఇంత": 4176,
      "ళిక": 4177,
      " నాటికి": 4178,
      " డెవల": 4179,
      " తగిన": 4180,
      " లక్ష్యంగా": 4181,
      "మూడు": 4182,
      " పర్యట": 4183,
      "‌కి": 4184,
      " సంబంధం": 4185,
      " దూరంగా": 4186,
      " ఉత్తర": 4187,
      "ప్రభుత్వ": 4188,
      " ఫలితాలు": 4189,
      "పద": 4190,
      "್ರ": 4191,
      " అక్టోబర్": 4192,
      " ప్రతీ": 4193,
      " రాజధాని": 4194,
      " మెగా": 4195,
      "రళ": 4196,
      "నుమ": 4197,
      " విభ": 4198,
      "తాన్ని": 4199,
      " ఉండటంతో": 4200,
      "ెన్షన్": 4201,
      " చేపట్టిన": 4202,
      "వసర": 4203,
      " ఇవాళ": 4204,
      " గురి": 4205,
      "ూరి": 4206,
      "లాది": 4207,
      "సియా": 4208,
      " బ్లాక్": 4209,
      " ప్రైవేట్": 4210,
      " కొండ": 4211,
      " విరా": 4212,
      " వెళ్లారు": 4213,
      " మంజూరు": 4214,
      "రాశి": 4215,
      " కాంట": 4216,
      " అవగా": 4217,
      " వార్త": 4218,
      "ఇక్కడ": 4219,
      "ఠిన": 4220,
      "లె": 4221,
      " క్యార": 4222,
      "!!\n": 4223,
      " నెట్": 4224,
      " అందులో": 4225,
      " నలుగు": 4226,
      " నిజా": 4227,
      " వికెట్లు": 4228,
      "90": 4229,
      "‌మ": 4230,
      " మల్ల": 4231,
      "సింహ": 4232,
      " మనో": 4233,
      "నిమి": 4234,
      " జరుగుతోంది": 4235,
      "లాలు": 4236,
      " పార్లమె": 4237,
      "హారం": 4238,
      "ెట్ల": 4239,
      " లోకి": 4240,
      " ముంద": 4241,
      " పరిశ్రమ": 4242,
      " ఫుడ్": 4243,
      "ఎందుకంటే": 4244,
      " పేపర్": 4245,
      " సెప్టెంబర్": 4246,
      " నెలలో": 4247,
      " کو": 4248,
      "దీప్": 4249,
      " సౌకర్": 4250,
      "యిత": 4251,
      " విమాన": 4252,
      " దిన": 4253,
      " ఏజ": 4254,
      "ంపులు": 4255,
      " కనిపిస్తోంది": 4256,
      "ల్యూ": 4257,
      " విడి": 4258,
      " ఎన్నికలకు": 4259,
      " సెంచరీ": 4260,
      " ఆర్టీసీ": 4261,
      " గ్రామంలో": 4262,
      " పట్టుకు": 4263,
      " నిర్మి": 4264,
      "ತ್ತ": 4265,
      " వారం": 4266,
      " గూ": 4267,
      " షి": 4268,
      "కాలంలో": 4269,
      " కళా": 4270,
      "బరు": 4271,
      "కింద్రా": 4272,
      "యోధ్య": 4273,
      " మేనే": 4274,
      " సంస్థలు": 4275,
      " గొప్ప": 4276,
      " పాఠశాల": 4277,
      "నారాయణ": 4278,
      " మౌ": 4279,
      " ఓడ": 4280,
      " హెచ్": 4281,
      " ఒత్తిడి": 4282,
      "అన్ని": 4283,
      "ఉత్త": 4284,
      "నై": 4285,
      "యినా": 4286,
      " మైన": 4287,
      " చేయడంతో": 4288,
      "దాంతో": 4289,
      " జరుగుతుంది": 4290,
      "బే": 4291,
      "⁬లో": 4292,
      " బదిలీ": 4293,
      "వేళ": 4294,
      " పొడి": 4295,
      "కింద్రాబాద్": 4296,
      "లక్ష్": 4297,
      "ారంటూ": 4298,
      " పర": 4299,
      "టికల్": 4300,
      "వింద్": 4301,
      "పాడు": 4302,
      " ఏపీలో": 4303,
      " వ్యవహార": 4304,
      " చట్టం": 4305,
      "న్సర్": 4306,
      " రెస్": 4307,
      " రక్షణ": 4308,
      " జర్": 4309,
      " ఆగస్టు": 4310,
      "జాబ్": 4311,
      "ాయా": 4312,
      " చెప్పి": 4313,
      "..!\n": 4314,
      " కలిపి": 4315,
      " అధికారులకు": 4316,
      " కెమె": 4317,
      "బెంగళూరు": 4318,
      "రత్": 4319,
      " పడ్డ": 4320,
      " పర్యా": 4321,
      " రాజే": 4322,
      "ిల్స్": 4323,
      " హీరోయిన్": 4324,
      " డ్రైవర్": 4325,
      " ఫార్": 4326,
      " చేయనున్నారు": 4327,
      " రైతుల": 4328,
      "లంక": 4329,
      " అమ్మాయి": 4330,
      "జెపి": 4331,
      "ఇం": 4332,
      " సిద్ధం": 4333,
      "ಾಗ": 4334,
      " కఠిన": 4335,
      " చెక్": 4336,
      " శాస్త్ర": 4337,
      " హోం": 4338,
      "ఫ్రికా": 4339,
      " అవగాహన": 4340,
      " C": 4341,
      " ಹ": 4342,
      " అధికారుల": 4343,
      " సరఫ": 4344,
      "పోయాడు": 4345,
      " వేసింది": 4346,
      " శాంతి": 4347,
      " అధికారులను": 4348,
      "డర్లు": 4349,
      "రాన్": 4350,
      " ఏక": 4351,
      " చూపు": 4352,
      " ఖమ్మం": 4353,
      "ర్చుకు": 4354,
      "తారని": 4355,
      " ఆవి": 4356,
      " చెన్నై": 4357,
      "ెండా": 4358,
      " మెద": 4359,
      " మెడికల్": 4360,
      "ికె": 4361,
      " వేలు": 4362,
      "ించాల్సి": 4363,
      " నామినేషన్": 4364,
      "బల్": 4365,
      "యాలని": 4366,
      "మిలీ": 4367,
      " జరిప": 4368,
      " ధ్వ": 4369,
      " అర్జున్": 4370,
      " థి": 4371,
      "కస్": 4372,
      " ఇరు": 4373,
      " టెస్ట్": 4374,
      " రేపు": 4375,
      "కాంత్": 4376,
      " ప్రయత్నించ": 4377,
      "హించ": 4378,
      " చాలామంది": 4379,
      " డాల": 4380,
      " మోసం": 4381,
      " ప్రకటించిన": 4382,
      "ష్ణోగ్ర": 4383,
      "బద్ధ": 4384,
      "రని": 4385,
      " అగ్": 4386,
      " సురే": 4387,
      " పక్కన": 4388,
      " రంగా": 4389,
      " పరిస్థితులు": 4390,
      "రక": 4391,
      "ులతో": 4392,
      " నవంబర్": 4393,
      "టిక్": 4394,
      "కాన్ని": 4395,
      " ముఖ": 4396,
      " నేరుగా": 4397,
      " చేస్తున్నట్లు": 4398,
      " پر": 4399,
      "కత్వం": 4400,
      "ముల": 4401,
      " జనరల్": 4402,
      " వ్యవసాయ": 4403,
      "స్టిస్": 4404,
      "వంతంగా": 4405,
      " లక్ష్మీ": 4406,
      "టిఫికేషన్": 4407,
      "ంగ్లాదేశ్": 4408,
      " సముద్ర": 4409,
      "యాల": 4410,
      " గాలి": 4411,
      " తరఫు": 4412,
      " పరిధిలోని": 4413,
      " హెచ్చరించారు": 4414,
      " ప్రెసిడెంట్": 4415,
      "తాలు": 4416,
      " రఘు": 4417,
      " నారాయణ": 4418,
      " P": 4419,
      "స్వ": 4420,
      " కోరి": 4421,
      "అలాంటి": 4422,
      "‌ఫ": 4423,
      "డుతున్నారు": 4424,
      "ాయతీ": 4425,
      " జు": 4426,
      " విజ్ఞ": 4427,
      " కాగా": 4428,
      "రోనా": 4429,
      "ప్పుడే": 4430,
      "కర్ణాటక": 4431,
      " రోజులుగా": 4432,
      " పుష్": 4433,
      " న్యాయం": 4434,
      " కేటాయి": 4435,
      "చ్చిన": 4436,
      "వీటి": 4437,
      " ధీ": 4438,
      "పెట్టి": 4439,
      " వస్తుందని": 4440,
      "కార్య": 4441,
      " త్రి": 4442,
      "లిస్తే": 4443,
      " చెల్లి": 4444,
      "వేదన": 4445,
      " ఉండటం": 4446,
      " పడింది": 4447,
      " ఎత్తున": 4448,
      "నిక్": 4449,
      " దళ": 4450,
      "విడ్": 4451,
      " తీసుకెళ్ల": 4452,
      " వ్యాఖ్యానించారు": 4453,
      " అకౌ": 4454,
      " ఉమ్మడి": 4455,
      " పాద": 4456,
      " చేసుకుని": 4457,
      " ఆశ్ర": 4458,
      "చిన": 4459,
      "ఎస్పీ": 4460,
      " రోజున": 4461,
      " లీడర్": 4462,
      " గొడవ": 4463,
      " ప్రభుత్వాన్ని": 4464,
      " అప్రమ": 4465,
      "ఉద్యో": 4466,
      "కాలను": 4467,
      " చక్క": 4468,
      " కుల": 4469,
      "లేకపో": 4470,
      " ప్రత్యేకంగా": 4471,
      " మరొక": 4472,
      " దక్షిణ": 4473,
      "ఎమ్మెల్": 4474,
      "నిర్": 4475,
      "మాలు": 4476,
      "తోపాటు": 4477,
      "విని": 4478,
      " చేసినా": 4479,
      "్యోతి": 4480,
      "గడ్డ": 4481,
      "కొంత": 4482,
      " అయ్యాయి": 4483,
      " దొంగ": 4484,
      "కూడదు": 4485,
      " కాస్త": 4486,
      "ెస్టో": 4487,
      " కావాలని": 4488,
      "ରେ": 4489,
      " పవర్": 4490,
      " సార": 4491,
      " ఫస్ట్": 4492,
      "ప్పున": 4493,
      "దాన్ని": 4494,
      " విశే": 4495,
      " సాధ్య": 4496,
      " మెరుగు": 4497,
      " భావిస్తున్నారు": 4498,
      " భద్రత": 4499,
      "ప్రభుత్వం": 4500,
      " కిలోమీటర్ల": 4501,
      " కనీసం": 4502,
      " ఢీ": 4503,
      " పడే": 4504,
      " మందు": 4505,
      "మాస్": 4506,
      " మీటింగ్": 4507,
      " పెట్టిన": 4508,
      " షెడ్యూల్": 4509,
      " రష్యా": 4510,
      "వులను": 4511,
      "ెట్లు": 4512,
      " సినిమ": 4513,
      " اس": 4514,
      "75": 4515,
      " అల్లు": 4516,
      " ఆయ": 4517,
      " జనా": 4518,
      " సంవత్సరాల": 4519,
      " డేటా": 4520,
      "జేశారు": 4521,
      "ందన్న": 4522,
      " చేయగా": 4523,
      "త్వంలో": 4524,
      "పిల్ల": 4525,
      " విప": 4526,
      " కాని": 4527,
      "చిన్న": 4528,
      " తీసుకుంది": 4529,
      " సెక్షన్": 4530,
      " అధ్యక్షు": 4531,
      " నగర": 4532,
      " బూ": 4533,
      " అతను": 4534,
      "మోహన్": 4535,
      " మోహన్": 4536,
      "నాలజీ": 4537,
      " చొప్పున": 4538,
      " నిబంధన": 4539,
      "ఉద": 4540,
      " మృతదే": 4541,
      "టీవ": 4542,
      " లను": 4543,
      " సంపాద": 4544,
      " స్థానాల్లో": 4545,
      " ప్రాజెక్ట్": 4546,
      " సరఫరా": 4547,
      "దుగా": 4548,
      "ర్యాల": 4549,
      " నెలకొంది": 4550,
      " వేగంగా": 4551,
      " ఉత్పత్తి": 4552,
      "జిల్లా": 4553,
      "یڈ": 4554,
      "వాన్": 4555,
      " కేజ్రీవాల్": 4556,
      "పడుతున్న": 4557,
      "అమ": 4558,
      "ందన": 4559,
      "స్తున్నాడు": 4560,
      "ించిందని": 4561,
      "విట్టర్": 4562,
      "నిఫెస్టో": 4563,
      " అట": 4564,
      "స్తున్నామని": 4565,
      "హ్మద్": 4566,
      "డాన్ని": 4567,
      " స్క": 4568,
      " కుట్ర": 4569,
      "జిట్": 4570,
      " కార్యక్రమం": 4571,
      " అనారో": 4572,
      "‌‌‌‌‌‌‌‌‌‌‌‌‌‌‌‌‌‌‌‌‌‌‌‌‌‌‌‌‌‌‌‌‌‌‌‌‌‌‌‌‌‌‌‌‌‌‌‌‌‌‌‌‌‌‌‌‌‌‌‌‌‌‌‌‌‌‌‌‌‌‌‌‌‌‌‌‌‌‌‌‌‌‌‌‌‌‌‌‌‌‌‌‌‌‌‌‌‌‌‌‌‌‌‌‌‌‌‌‌‌‌‌‌‌‌‌‌‌‌‌‌‌‌‌‌‌‌‌‌‌‌‌‌‌‌‌‌‌‌‌‌‌‌‌‌‌‌‌‌‌‌‌‌‌‌‌‌‌‌‌‌‌‌‌‌‌‌‌‌‌‌‌‌‌‌‌‌‌‌‌‌‌‌‌‌‌‌‌‌‌‌‌‌‌‌‌‌‌‌‌‌‌‌‌‌‌‌‌‌‌‌‌‌‌‌‌‌‌‌‌‌‌‌‌‌‌‌‌‌‌‌‌‌‌‌‌‌‌‌‌‌‌‌‌‌‌‌‌‌‌‌‌‌‌‌‌‌‌‌‌‌‌‌‌‌‌‌‌‌‌‌‌‌‌‌‌‌‌‌‌‌‌‌‌‌‌‌‌‌‌‌‌‌‌‌‌‌‌‌‌‌‌‌‌‌‌‌‌‌‌‌‌‌‌‌‌‌‌‌‌‌‌‌‌‌‌‌‌‌‌‌‌‌‌‌‌‌‌‌‌‌‌‌‌‌‌‌‌‌‌‌‌‌‌‌‌‌‌‌‌‌‌‌‌‌‌‌‌‌‌‌‌‌‌‌‌‌‌‌‌‌‌‌‌‌‌‌‌‌‌‌‌‌‌‌‌‌‌‌‌‌‌‌‌‌‌‌‌‌‌‌‌‌‌‌‌‌‌‌‌‌‌‌‌‌‌‌‌‌‌‌‌‌‌‌‌‌‌‌‌‌‌‌‌‌‌‌‌‌‌‌‌‌‌‌‌‌‌‌‌‌‌‌‌‌‌‌‌‌‌‌‌‌‌‌‌‌‌‌‌‌‌‌‌‌‌‌‌‌‌‌‌‌‌‌‌‌‌‌‌‌‌‌‌‌‌‌‌‌‌‌‌": 4573,
      "డల్": 4574,
      " అప్పటి": 4575,
      " ఆల్": 4576,
      "యేటర్": 4577,
      " కార్యకర్త": 4578,
      "నిజా": 4579,
      " గ్యార": 4580,
      "లానికి": 4581,
      "మయ్యారు": 4582,
      " ప్రొఫె": 4583,
      "గ్రామ్": 4584,
      "గలి": 4585,
      "మాజీ": 4586,
      " బయలు": 4587,
      "స్థానం": 4588,
      " విలువైన": 4589,
      "పెన్": 4590,
      " నటు": 4591,
      " ఎఫ్": 4592,
      "వాణా": 4593,
      "స్తాం": 4594,
      "పాటి": 4595,
      " ఉష్ణోగ్ర": 4596,
      " ఎన్ని": 4597,
      "జూన్": 4598,
      "ఒక్క": 4599,
      "మైనా": 4600,
      " పరిచ": 4601,
      " వీరి": 4602,
      "మీరు": 4603,
      "ించేలా": 4604,
      " దేశాల": 4605,
      "అంటే": 4606,
      "క్య": 4607,
      "బిన": 4608,
      " నారా": 4609,
      "ప్ల": 4610,
      " వెంట": 4611,
      " సంచలన": 4612,
      " నిరుద్యో": 4613,
      "బైల్": 4614,
      " కన్న": 4615,
      " నర": 4616,
      " ఎంట": 4617,
      " భి": 4618,
      "స్తీ": 4619,
      " మేకర్స్": 4620,
      " భాష": 4621,
      " అవసరమైన": 4622,
      "బ్యా": 4623,
      "లైన": 4624,
      "ల్లె": 4625,
      " రాజ్యా": 4626,
      " స్పంది": 4627,
      " ఘన": 4628,
      " మహారాష్ట్ర": 4629,
      " వార్తలు": 4630,
      "ట్రిక్": 4631,
      "್ದ": 4632,
      "‌న్": 4633,
      " ఆయా": 4634,
      " ఆటో": 4635,
      "బ్లిక్": 4636,
      " వ్యక్తులు": 4637,
      "బోతున్న": 4638,
      "రాజకీ": 4639,
      " తరహా": 4640,
      " గెలుపు": 4641,
      "ళా": 4642,
      "ెక్కి": 4643,
      " కల్పి": 4644,
      " ప్రయాణ": 4645,
      " అభిన": 4646,
      " మీడియాతో": 4647,
      " వివేక్": 4648,
      "గితే": 4649,
      "నలి": 4650,
      "పింగ్": 4651,
      " అయ్యే": 4652,
      " సమస్యలను": 4653,
      " బయలుదే": 4654,
      " రక్త": 4655,
      " ఆవేదన": 4656,
      " చర్చలు": 4657,
      ")\n": 4658,
      "ಕ್": 4659,
      "ెల్లి": 4660,
      " స్టూడ": 4661,
      " యాక్": 4662,
      "బినెట్": 4663,
      "గురు": 4664,
      "కరంగా": 4665,
      " చిరంజీవి": 4666,
      " సునీ": 4667,
      "డ్ర": 4668,
      "దార్": 4669,
      " వన": 4670,
      " లేదన్నారు": 4671,
      " న్యాయవా": 4672,
      "బడిన": 4673,
      "భారీ": 4674,
      "ರ್": 4675,
      " ప్రసాద్": 4676,
      " టాప్": 4677,
      "సమా": 4678,
      "ಸ್": 4679,
      " బ్రే": 4680,
      " స్కీ": 4681,
      " ఈరోజు": 4682,
      "వరణం": 4683,
      "్యూని": 4684,
      " ఇండియన్": 4685,
      "మొదటి": 4686,
      " డెవలప్": 4687,
      "మనం": 4688,
      "ీస్": 4689,
      "ట్లే": 4690,
      "డియం": 4691,
      " నిషే": 4692,
      " నాయకుడు": 4693,
      " స్నేహి": 4694,
      "ంసం": 4695,
      "ధం": 4696,
      " రమ": 4697,
      " ఆలయ": 4698,
      " పూజలు": 4699,
      "am": 4700,
      "ించలేదు": 4701,
      "రీర్": 4702,
      "తానికి": 4703,
      "33": 4704,
      "పట్నం": 4705,
      " హయా": 4706,
      "రుద్ధ": 4707,
      " సూచి": 4708,
      " టిక్క": 4709,
      " దిశగా": 4710,
      "ాయన్నారు": 4711,
      " ఫర్": 4712,
      " వర్గాలు": 4713,
      " క్రికె": 4714,
      " کر": 4715,
      "ంట్రల్": 4716,
      "జున": 4717,
      " ఎస్పీ": 4718,
      " ఉత్స": 4719,
      " జన్మ": 4720,
      " ఎకర": 4721,
      " కానుంది": 4722,
      " రెడీ": 4723,
      " సాధించిన": 4724,
      " రంగు": 4725,
      " వన్డే": 4726,
      " హాస్పిటల్": 4727,
      " ర్యా": 4728,
      "పాయ": 4729,
      " సమ్మ": 4730,
      " సక్సెస్": 4731,
      " బరువు": 4732,
      " ఉందన్నారు": 4733,
      " పాత": 4734,
      " వెళ్లా": 4735,
      "రావతి": 4736,
      " హరీశ్": 4737,
      " ఇన్నింగ్స్": 4738,
      "ంజ్": 4739,
      "యని": 4740,
      "ال": 4741,
      "జిన": 4742,
      " వేధి": 4743,
      " సీట్ల": 4744,
      " అందుబాటులోకి": 4745,
      "ర్ఘ": 4746,
      " ఖాయ": 4747,
      " నాయకు": 4748,
      " ఆరోగ్యం": 4749,
      " ఆనంద": 4750,
      " గెల": 4751,
      " ముస్లిం": 4752,
      "దాదాపు": 4753,
      " పరిణ": 4754,
      " నెరవే": 4755,
      "వెంటనే": 4756,
      " చుట్టూ": 4757,
      " ఎప్పుడూ": 4758,
      " స్ట్ర": 4759,
      " వీర": 4760,
      " నోటిఫికేషన్": 4761,
      " నియోజకవర్గ": 4762,
      " వ్యవహర": 4763,
      "‌రి": 4764,
      " మధు": 4765,
      "తుండగా": 4766,
      " నొ": 4767,
      "రులు": 4768,
      "ప్రమా": 4769,
      " టీమిండియా": 4770,
      "శాబ్": 4771,
      " ఇవ్వడం": 4772,
      " వివరాలను": 4773,
      " రక్ష": 4774,
      " ప్రణా": 4775,
      "పోయినా": 4776,
      " అందరి": 4777,
      "ేశ్వర్": 4778,
      " స్పీకర్": 4779,
      "కుంట": 4780,
      " జస్టిస్": 4781,
      "దానీ": 4782,
      " రవాణా": 4783,
      " జర": 4784,
      "కాబట్టి": 4785,
      " ఏదైనా": 4786,
      "ష్టా": 4787,
      " ఫిబ్రవరి": 4788,
      "స్తోన్న": 4789,
      " పిలుపుని": 4790,
      "పటి": 4791,
      "మన్నారు": 4792,
      " బరి": 4793,
      " ఫైర్": 4794,
      " రిట": 4795,
      " కొత్తగా": 4796,
      " నియంత్ర": 4797,
      "గూడెం": 4798,
      " అనుకూలంగా": 4799,
      " ସ": 4800,
      "వడం": 4801,
      " సంబంధిత": 4802,
      " బిడ్డ": 4803,
      " కొనసాగి": 4804,
      "ినేని": 4805,
      " భర్తీ": 4806,
      " స్థానికులు": 4807,
      " ?\n": 4808,
      "గాన్ని": 4809,
      "ష్ణు": 4810,
      " సినిమాలు": 4811,
      " కోర్టులో": 4812,
      "ల్ప": 4813,
      " షూటింగ్": 4814,
      "చో": 4815,
      " కను": 4816,
      "రుల": 4817,
      " భవ": 4818,
      " పురుష": 4819,
      " తెలియజే": 4820,
      " కలుగు": 4821,
      "ార్జ్": 4822,
      " దూరం": 4823,
      " విచారణకు": 4824,
      "పార్ట్": 4825,
      " స్టేట్": 4826,
      "ెత్త": 4827,
      " నాటి": 4828,
      " ధర్మ": 4829,
      " ముఖ్యమైన": 4830,
      " కాంట్రా": 4831,
      " సచి": 4832,
      " టోర్": 4833,
      " పార్టీని": 4834,
      " పట్టించుకో": 4835,
      " ఫైనల్": 4836,
      "కలా": 4837,
      " చేరారు": 4838,
      " సాను": 4839,
      " దీన్ని": 4840,
      " తీసుకోవడం": 4841,
      " కార్పొరేషన్": 4842,
      "మణి": 4843,
      "ెర": 4844,
      "సిక": 4845,
      "పాదన": 4846,
      " కాలనీ": 4847,
      " నిలిచింది": 4848,
      "ోసి": 4849,
      " తెల్ల": 4850,
      "నీయ": 4851,
      "సాధారణ": 4852,
      " చూపించ": 4853,
      " టీటీడీ": 4854,
      " సర్కారు": 4855,
      " పెద్దగా": 4856,
      "సోమవారం": 4857,
      "పరమైన": 4858,
      " సమాధానం": 4859,
      "‌గ": 4860,
      "సుల": 4861,
      "నాకు": 4862,
      " ఒక్కో": 4863,
      " అవుతోంది": 4864,
      " అందరికీ": 4865,
      " స్థానం": 4866,
      " పోలీసుల": 4867,
      " పక్ష": 4868,
      "వాద": 4869,
      " కాక": 4870,
      " చిరు": 4871,
      " రాజ్య": 4872,
      "మంగళవారం": 4873,
      " చెల": 4874,
      "పాన్": 4875,
      " ప్రాణాలు": 4876,
      " ఇండస్ట్రీ": 4877,
      "సూర్": 4878,
      " ప్రభాకర్": 4879,
      "పడుతున్నారు": 4880,
      " తయారీ": 4881,
      "ళ్ళు": 4882,
      " ప్రాధాన్యత": 4883,
      "హద్దు": 4884,
      "వాన్ని": 4885,
      "దేవి": 4886,
      " ఆమెను": 4887,
      "ేశ్వరం": 4888,
      "ఖ్": 4889,
      "చల్": 4890,
      "చారాన్ని": 4891,
      "ల్లోనే": 4892,
      " నెటి": 4893,
      " జనాభా": 4894,
      "ఇండియా": 4895,
      "ఈరోజు": 4896,
      "ాక": 4897,
      "ర్ణ": 4898,
      " టే": 4899,
      " శాసన": 4900,
      "వంత్": 4901,
      " చంప": 4902,
      " సన్ని": 4903,
      " గడి": 4904,
      "క్కలు": 4905,
      "పిక్": 4906,
      " బీజేపీకి": 4907,
      " ل": 4908,
      "చయిత": 4909,
      " ప్రెస్": 4910,
      "్యానికి": 4911,
      " చూస్తే": 4912,
      " పరీక్షలు": 4913,
      " టెక్నాలజీ": 4914,
      "జై": 4915,
      "యస్": 4916,
      "ందరూ": 4917,
      " మిన": 4918,
      " ఎటువంటి": 4919,
      " ఎలక్": 4920,
      "కేజీ": 4921,
      "ంఛ": 4922,
      " జల": 4923,
      " ఎర్ర": 4924,
      "శ్మీర్": 4925,
      " కల్ప": 4926,
      "ెక్టరేట్": 4927,
      "ವು": 4928,
      "యేట్": 4929,
      " మేం": 4930,
      " ఎన్డీ": 4931,
      " సమీపంలో": 4932,
      "అప్పటి": 4933,
      "శో": 4934,
      " సవాల్": 4935,
      " ఇస్తామని": 4936,
      "రాన్ని": 4937,
      " వేసుకు": 4938,
      " డ్రా": 4939,
      " క్లి": 4940,
      " డీకే": 4941,
      " దర్శకుడు": 4942,
      "టిన": 4943,
      "సమ": 4944,
      " హౌస్": 4945,
      " నగదు": 4946,
      "శుక్రవారం": 4947,
      " మొదలైంది": 4948,
      "ఆదివారం": 4949,
      "ందరి": 4950,
      " నియా": 4951,
      "సినిమా": 4952,
      " పద్": 4953,
      "చ్చే": 4954,
      " గుజరాత్": 4955,
      " کا": 4956,
      " ఆఫీస్": 4957,
      " చేరిన": 4958,
      "ీయ": 4959,
      "ాలన్న": 4960,
      " అధికారం": 4961,
      "ెంట్స్": 4962,
      " బౌలింగ్": 4963,
      " ప్రణాళిక": 4964,
      " ପ": 4965,
      " ಬ": 4966,
      " \"\"": 4967,
      "ఆగ": 4968,
      " భవన్": 4969,
      " చెరువు": 4970,
      "పోర్ట్": 4971,
      " ఛా": 4972,
      " మ్యూ": 4973,
      " ఏకంగా": 4974,
      "త్యం": 4975,
      " బౌలర్": 4976,
      " ఎంట్రీ": 4977,
      "జో": 4978,
      "లర్లు": 4979,
      "సమే": 4980,
      " హార్": 4981,
      " టో": 4982,
      " నేతృ": 4983,
      " బాలిక": 4984,
      " పశ్చిమ": 4985,
      "డిపి": 4986,
      "మాఫీ": 4987,
      " డ్యా": 4988,
      "షన్స్": 4989,
      " నాని": 4990,
      "జిక్": 4991,
      " అవుతున్న": 4992,
      " నియోజకవర్గాల్లో": 4993,
      " హిట్": 4994,
      " అంచనాలు": 4995,
      " సమీక్ష": 4996,
      "తొలి": 4997,
      "అవ": 4998,
      " చిత్రా": 4999,
      " చెప్పుకొచ్చారు": 5000,
      "ృహ": 5001,
      " టౌన్": 5002,
      " పరిణామ": 5003,
      " क": 5004,
      "డె": 5005,
      "పణ": 5006,
      "‌ఎస్": 5007,
      " పండ": 5008,
      "ంతర": 5009,
      " జంట": 5010,
      " నిలు": 5011,
      "రామయ్య": 5012,
      " శంకర్": 5013,
      " మహిళల": 5014,
      " సిద్ధంగా": 5015,
      " చోటుచేసుకు": 5016,
      " తరఫున": 5017,
      " గమ": 5018,
      "లేద": 5019,
      "కరించిన": 5020,
      "ణాన్ని": 5021,
      " అవకాశము": 5022,
      " గెలిచిన": 5023,
      " ఉపాధ్య": 5024,
      " కుమారుడు": 5025,
      " B": 5026,
      "మార": 5027,
      "್ಯ": 5028,
      " ప్రశ": 5029,
      " చిక్కు": 5030,
      " మెట్రో": 5031,
      "జింగ్": 5032,
      " పుస్త": 5033,
      " దిగారు": 5034,
      " పట్టణ": 5035,
      " హెచ్చరిక": 5036,
      " పరిశీలించారు": 5037,
      "రాలి": 5038,
      "ారన్న": 5039,
      " అద": 5040,
      " అలీ": 5041,
      " చేతిలో": 5042,
      " ఆకర్": 5043,
      " గల": 5044,
      " గడ్": 5045,
      " వాటర్": 5046,
      " హోదా": 5047,
      " ఉద్యోగులు": 5048,
      "ಿಸ": 5049,
      "ందాం": 5050,
      " కొనసాగుతోంది": 5051,
      " నిలిచి": 5052,
      " వయసు": 5053,
      " బరిలోకి": 5054,
      "హార": 5055,
      " చెందు": 5056,
      " దాన్ని": 5057,
      " క్లా": 5058,
      " విషయంపై": 5059,
      "అధికార": 5060,
      " కట్టు": 5061,
      " భీ": 5062,
      "దీన్ని": 5063,
      " నిర్లక్ష": 5064,
      " ఫ్యామిలీ": 5065,
      " జరిగిందని": 5066,
      " సెక్రటరీ": 5067,
      "వరీ": 5068,
      " నల్ల": 5069,
      " నినా": 5070,
      "పైగా": 5071,
      " మీదుగా": 5072,
      "కోవచ్చు": 5073,
      " బిజెపి": 5074,
      " ప్రయాణం": 5075,
      "గౌ": 5076,
      "మిన": 5077,
      "36": 5078,
      "గాలను": 5079,
      "క్కల": 5080,
      " పార్లమెంటు": 5081,
      " నియామ": 5082,
      "ಗೆ": 5083,
      " వల": 5084,
      " అండగా": 5085,
      " గట్టి": 5086,
      "గుల": 5087,
      " పరిగణ": 5088,
      " రెడ్డికి": 5089,
      " అయ్యా": 5090,
      " سے": 5091,
      " نے": 5092,
      "ేడ్": 5093,
      " కరీంనగర్": 5094,
      " అలాంటి": 5095,
      "ర్యాలీ": 5096,
      "దారుల": 5097,
      " హయాంలో": 5098,
      "దారి": 5099,
      "శనివారం": 5100,
      "నికే": 5101,
      "ర్చ్": 5102,
      " సన్": 5103,
      " స్టో": 5104,
      " కలిగ": 5105,
      " గోదావరి": 5106,
      " ఆఫీసర్లు": 5107,
      "అంతకు": 5108,
      "ంటోంది": 5109,
      " దీనిపై": 5110,
      "48": 5111,
      " క్రా": 5112,
      " వస": 5113,
      "క్కా": 5114,
      " నది": 5115,
      " ముని": 5116,
      " చేశామని": 5117,
      "క్రా": 5118,
      " బలంగా": 5119,
      " క్లారిటీ": 5120,
      "నగ": 5121,
      "ీట్": 5122,
      " మల్": 5123,
      " కొట్టి": 5124,
      " జీవ": 5125,
      " బ్యాక్": 5126,
      " పరిస్థితుల్లో": 5127,
      " హీరోగా": 5128,
      "ప్రధా": 5129,
      " కంపెనీలు": 5130,
      " ప్రియా": 5131,
      "మర": 5132,
      " ఘటనలో": 5133,
      " చూడాలి": 5134,
      "300": 5135,
      "లాబాద్": 5136,
      "పోటు": 5137,
      " వైద్యులు": 5138,
      " వల్లే": 5139,
      "రిటీ": 5140,
      "ద్ధా": 5141,
      "ప్రజా": 5142,
      "యోగి": 5143,
      " సాధి": 5144,
      " నిర్వహించ": 5145,
      "వెన్యూ": 5146,
      " వరుసగా": 5147,
      " ఐపీఎల్": 5148,
      "పెట్టారు": 5149,
      " నలుగురు": 5150,
      "55": 5151,
      "el": 5152,
      "ంబు": 5153,
      "డ్రా": 5154,
      " వస్తున్నాయి": 5155,
      " ఆరా": 5156,
      " ఇందులో": 5157,
      " ఓపెన్": 5158,
      " ఉండదు": 5159,
      " ఉద్యోగం": 5160,
      " ప్రచారంలో": 5161,
      "ారామ": 5162,
      " పద్ధ": 5163,
      "ంటూరు": 5164,
      " లక్ష్య": 5165,
      " నిర్ణయాలు": 5166,
      " ఆడియన్స్": 5167,
      "ాయో": 5168,
      " ఘో": 5169,
      " జీవితంలో": 5170,
      " గ్రామానికి": 5171,
      "అంతేకాదు": 5172,
      " ಎ": 5173,
      "బ్రి": 5174,
      "గుణంగా": 5175,
      " చేరుకున్న": 5176,
      " డ్రగ్స్": 5177,
      " కార్యక్రమాలు": 5178,
      " వసూలు": 5179,
      "at": 5180,
      "ಿಕ": 5181,
      " ఆయు": 5182,
      "విజన్": 5183,
      " సెక": 5184,
      " మహబూ": 5185,
      " పదార్థ": 5186,
      " జరగనుంది": 5187,
      " తొలగి": 5188,
      ":\n": 5189,
      "ఖండ్": 5190,
      " వంశ": 5191,
      "క్టరీ": 5192,
      " ఆన": 5193,
      "ికంగా": 5194,
      " కాబట్టి": 5195,
      " ఉన్నప్పుడు": 5196,
      " వర్గాల": 5197,
      " మహిళలకు": 5198,
      " వద్దకు": 5199,
      " పెట్టుబడు": 5200,
      "మ్రా": 5201,
      "లెట్": 5202,
      "ೆಯ": 5203,
      " రద్దీ": 5204,
      " ఎప్పటి": 5205,
      " దంప": 5206,
      "పోతున్న": 5207,
      "ప్రధాని": 5208,
      " ట్రంప్": 5209,
      " రవీ": 5210,
      " ప్రమో": 5211,
      "రిసి": 5212,
      " జనం": 5213,
      " లీడర్లు": 5214,
      " అలవా": 5215,
      " కోట్లకు": 5216,
      " హిందూ": 5217,
      "క్రెయిన్": 5218,
      "స్టార్": 5219,
      " పంచాయతీ": 5220,
      " ఉపాధి": 5221,
      " M": 5222,
      "en": 5223,
      "‌లైన్": 5224,
      " బహు": 5225,
      "తూనే": 5226,
      " టాక్": 5227,
      "తామని": 5228,
      "ేజీ": 5229,
      " అన్": 5230,
      " అనుచ": 5231,
      " మిషన్": 5232,
      "క్రమంలో": 5233,
      " వ్యవహరి": 5234,
      " ప్రొఫెసర్": 5235,
      " ಅ": 5236,
      "మంచి": 5237,
      "ందీ": 5238,
      " చేర్చ": 5239,
      " ఆస్": 5240,
      " ఎడ": 5241,
      "ఒకవేళ": 5242,
      " ట్విట్టర్": 5243,
      " ఆపరేషన్": 5244,
      " లబ్ధి": 5245,
      " మొబైల్": 5246,
      " వాతావరణం": 5247,
      " ఫుల్": 5248,
      "దరి": 5249,
      "మటి": 5250,
      "ర్లను": 5251,
      " మత": 5252,
      " ఓట్ల": 5253,
      " కేంద్రంలో": 5254,
      " హాట్": 5255,
      " మంచిది": 5256,
      " ప్రొడ": 5257,
      " తదితర": 5258,
      " నాడు": 5259,
      "రామ్": 5260,
      "ళ్లే": 5261,
      "త్తంగా": 5262,
      "ుకున్న": 5263,
      " వారిలో": 5264,
      " నీటిని": 5265,
      " వచ్చిందని": 5266,
      " తమిళనాడు": 5267,
      "టెస్ట్": 5268,
      "ంతరం": 5269,
      "నేషనల్": 5270,
      "ించినా": 5271,
      " ఖరారు": 5272,
      " ప్రశ్నించ": 5273,
      "ାର": 5274,
      "కుటు": 5275,
      " బట్టి": 5276,
      " ఈసీ": 5277,
      " రెడ్డిని": 5278,
      " ప్రమాదంలో": 5279,
      " ఆశ్రయ": 5280,
      "ఎమ్మెల్యే": 5281,
      "గంట": 5282,
      "సిస్ట": 5283,
      " ఏఐ": 5284,
      " డబుల్": 5285,
      " టీచర్": 5286,
      " తాజా": 5287,
      " మాట్లాడిన": 5288,
      " అధ్యయ": 5289,
      "జర్స్": 5290,
      " ఆహారం": 5291,
      "ంట్ల": 5292,
      "రేణి": 5293,
      " వివాదం": 5294,
      "ఉదయం": 5295,
      "ఈసారి": 5296,
      "మతి": 5297,
      "న్నం": 5298,
      " వర్మ": 5299,
      " సెంట్రల్": 5300,
      " వెండి": 5301,
      "ద్దిపేట": 5302,
      "ఢ్": 5303,
      "బడ": 5304,
      "ొద్దని": 5305,
      "రిట": 5306,
      " భట్టి": 5307,
      " పెన్": 5308,
      " మందిని": 5309,
      " మేర": 5310,
      " విధానం": 5311,
      " పాదయాత్ర": 5312,
      "సాయి": 5313,
      " అలర్": 5314,
      " కోచ్": 5315,
      " ఫె": 5316,
      "లేటి": 5317,
      " లేవు": 5318,
      " గ్రహ": 5319,
      " పోరాటం": 5320,
      "ంపేట": 5321,
      "ీత": 5322,
      " రజ": 5323,
      " బస్": 5324,
      "ట్టుగా": 5325,
      " ఆమెకు": 5326,
      " తప్పని": 5327,
      " ట్రాన్స్": 5328,
      " చేయాల్సి": 5329,
      "యడం": 5330,
      "నిన్న": 5331,
      " దృ": 5332,
      "ాయితీ": 5333,
      "లేదన్నారు": 5334,
      "వీణ్": 5335,
      " జరిగాయి": 5336,
      "198": 5337,
      " బైక్": 5338,
      " బృందం": 5339,
      " ర్యాలీ": 5340,
      "కాయ": 5341,
      "టప్పుడు": 5342,
      " కదా": 5343,
      "రిత": 5344,
      " ఎనిమి": 5345,
      " శ్ర": 5346,
      " తేలింది": 5347,
      " దీనికి": 5348,
      " ఎస్సీ": 5349,
      "అసలు": 5350,
      "స్కృతి": 5351,
      "విజయ": 5352,
      " థియేటర్": 5353,
      "టెక్": 5354,
      "ఫల": 5355,
      "ఫోన్": 5356,
      "లభ": 5357,
      "వారా": 5358,
      "సొ": 5359,
      "ందరికీ": 5360,
      " సోదరు": 5361,
      " అసోసి": 5362,
      " లిక్కర్": 5363,
      "రెన్స్": 5364,
      " రాశుల": 5365,
      "నకు": 5366,
      " మను": 5367,
      "తోనే": 5368,
      " రాక": 5369,
      "ద్దె": 5370,
      "ులై": 5371,
      "ులర్": 5372,
      " అభ్యర్": 5373,
      " అందజే": 5374,
      " త్వరగా": 5375,
      " విజ్ఞప్తి": 5376,
      " అనుభ": 5377,
      " గౌర": 5378,
      " తెలుగుదేశం": 5379,
      " అభ్యర్థిగా": 5380,
      " ధీమా": 5381,
      "విక": 5382,
      " ఎండ": 5383,
      " ఆరోపి": 5384,
      " ఎదుర": 5385,
      " గెలిచి": 5386,
      "మూర్తి": 5387,
      "‌ప్ర": 5388,
      "గాలకు": 5389,
      " ద్ర": 5390,
      " దశాబ్": 5391,
      " రాశారు": 5392,
      "లేరు": 5393,
      " దిగ": 5394,
      " సాధించింది": 5395,
      "ించుకోవడం": 5396,
      " దర్శనం": 5397,
      " కమ్యూని": 5398,
      " I": 5399,
      "وں": 5400,
      "స్రో": 5401,
      "ంటా": 5402,
      "సుపు": 5403,
      " పాస్": 5404,
      "పాకి": 5405,
      "స్తున్నా": 5406,
      " తరగతి": 5407,
      " ఉద్యోగాలు": 5408,
      " ఉండేది": 5409,
      "నుంచి": 5410,
      " బంతు": 5411,
      "మానాలు": 5412,
      " పోస్టర్": 5413,
      " చెప్పాడు": 5414,
      "వీరి": 5415,
      " యజ": 5416,
      " సినిమాకు": 5417,
      " తొమ్మి": 5418,
      " కెరీర్": 5419,
      " కౌంటర్": 5420,
      " హాజరయ్యారు": 5421,
      "99": 5422,
      "స్కర్": 5423,
      "లోక్": 5424,
      "రాం": 5425,
      " ఏరియా": 5426,
      "కెక్క": 5427,
      "150": 5428,
      "34": 5429,
      "పాలు": 5430,
      " మాకు": 5431,
      " మీకు": 5432,
      " తీసుకునే": 5433,
      " తక్కువగా": 5434,
      "తులతో": 5435,
      " ఎప్పుడు": 5436,
      " గ్రీన్": 5437,
      "మితి": 5438,
      "బుధవారం": 5439,
      " సరిహద్దు": 5440,
      " సేవలు": 5441,
      "య్యాడు": 5442,
      "ేజ్": 5443,
      "ಗಳ": 5444,
      "నింది": 5445,
      "స్తుండ": 5446,
      "గురువారం": 5447,
      " హర్": 5448,
      " ఒడి": 5449,
      " చేసిందని": 5450,
      " దానిపై": 5451,
      " జీవితం": 5452,
      "చా": 5453,
      "చీ": 5454,
      "మధ్య": 5455,
      "వతి": 5456,
      " వంట": 5457,
      "కున్నా": 5458,
      " నార్": 5459,
      "చ్చింది": 5460,
      " సీసీ": 5461,
      " దేశవ్యాప్తంగా": 5462,
      "వైఎస్": 5463,
      "పోవడంతో": 5464,
      "ముఖ్యమంత్రి": 5465,
      "లక": 5466,
      " పన్ను": 5467,
      "సుక": 5468,
      "వాటి": 5469,
      "నేత": 5470,
      " ఈవ": 5471,
      "స్టల్": 5472,
      " కంట్రో": 5473,
      " కుటుంబానికి": 5474,
      " రాలేదు": 5475,
      "కూర్": 5476,
      "రక్షణ": 5477,
      "పోతుంది": 5478,
      " రాజకీయాలు": 5479,
      " గ్రాముల": 5480,
      " వీడియోను": 5481,
      " పర్యవే": 5482,
      "రెండో": 5483,
      " పిల్లల": 5484,
      " కార్యాలయంలో": 5485,
      "క్యూరిటీ": 5486,
      "అక్టోబర్": 5487,
      "సిన్": 5488,
      " ఏదో": 5489,
      " అధికారంలో": 5490,
      " ఇప్పటివరకు": 5491,
      " అలాగే": 5492,
      "పోలీసులు": 5493,
      " సురక్ష": 5494,
      " బ్రేక్": 5495,
      "ంగానే": 5496,
      "స్తుంటారు": 5497,
      " అభ్యర్థుల": 5498,
      "కూడదని": 5499,
      " చెలరే": 5500,
      " ش": 5501,
      "ందంటూ": 5502,
      " తీసుకురావ": 5503,
      " ప్రేక్షకుల": 5504,
      " పెండింగ్": 5505,
      " అదనపు": 5506,
      "ad": 5507,
      "విశాఖ": 5508,
      " రూమ్": 5509,
      "స్ట్రేషన్": 5510,
      " నిర్మించిన": 5511,
      "అప్పుడు": 5512,
      "పడ్డా": 5513,
      "పియన్": 5514,
      "మేష్": 5515,
      " వెళ్తున్న": 5516,
      "సెప్టెంబర్": 5517,
      "ନ୍": 5518,
      " అప": 5519,
      " రాష్ట్రంలోని": 5520,
      "మార్ట్": 5521,
      " యాజ": 5522,
      " రుణమాఫీ": 5523,
      "ధార": 5524,
      "న్నర": 5525,
      " ఫ్రీ": 5526,
      " అందించారు": 5527,
      " ప్రశంస": 5528,
      "అయినా": 5529,
      "బన్": 5530,
      " వస్తోంది": 5531,
      "ందర": 5532,
      " ఎగు": 5533,
      " నిల్": 5534,
      "నేడు": 5535,
      " మేనిఫెస్టో": 5536,
      " ప్రాంతాల": 5537,
      " మిలియన్": 5538,
      "మానాశ్ర": 5539,
      " ప్రస్తావ": 5540,
      "తగా": 5541,
      "‌వ": 5542,
      " పండి": 5543,
      " ప్రవర్": 5544,
      "ూర్పు": 5545,
      " పరిశీ": 5546,
      " ఢిల్లీలో": 5547,
      "హర్": 5548,
      " ఇప్పటికీ": 5549,
      "కేవలం": 5550,
      " ప్రతిపాదన": 5551,
      " తరపున": 5552,
      " బుక్": 5553,
      " వ్యవహారం": 5554,
      " దేవు": 5555,
      " నటించిన": 5556,
      " ఉత్తర్వులు": 5557,
      " వహ": 5558,
      " సస్ప": 5559,
      "దురు": 5560,
      " ఫ్రా": 5561,
      " అనుగుణంగా": 5562,
      " మోస": 5563,
      "వచ్చని": 5564,
      " పరిష్కర": 5565,
      " T": 5566,
      "గడ": 5567,
      "తనం": 5568,
      "లిజ": 5569,
      "ందున": 5570,
      "పుల": 5571,
      " కోసమే": 5572,
      " కూర్చు": 5573,
      " కేరళ": 5574,
      " ధో": 5575,
      " పుట్టిన": 5576,
      " శ్రీవారి": 5577,
      " పాల్గొన": 5578,
      "ంటున్నారని": 5579,
      "దారులకు": 5580,
      "మవుతుంది": 5581,
      " వెళు": 5582,
      "కుటుంబ": 5583,
      "ام": 5584,
      " తీసి": 5585,
      "ిత్యాల": 5586,
      " కుమార్తె": 5587,
      " జోన్": 5588,
      "అసెంబ్లీ": 5589,
      " బీబీసీతో": 5590,
      " ఆమోదం": 5591,
      " విశ్లే": 5592,
      "ات": 5593,
      "ూన్": 5594,
      "‌లలో": 5595,
      "ంగాల్": 5596,
      "సీమ": 5597,
      " కుప్ప": 5598,
      "రోసా": 5599,
      " కలక": 5600,
      " పెట్టుబడి": 5601,
      " కనిపిస్తుంది": 5602,
      " ಆ": 5603,
      "32": 5604,
      "నవంబర్": 5605,
      " కార్యకలా": 5606,
      "గొట్ట": 5607,
      " నాయక్": 5608,
      "ృష్ణా": 5609,
      " #": 5610,
      "ri": 5611,
      "ین": 5612,
      "୍ର": 5613,
      "పీఎస్": 5614,
      " చేయకుండా": 5615,
      " వైస్": 5616,
      " దిగిన": 5617,
      " పిలు": 5618,
      " తిరుమ": 5619,
      " తుది": 5620,
      " కరెంట్": 5621,
      " సర్వీస్": 5622,
      " భవిష్యత్తు": 5623,
      " ముందస్తు": 5624,
      "గల్": 5625,
      "ృప్తి": 5626,
      "తుంటారు": 5627,
      " పొందిన": 5628,
      " తాగు": 5629,
      " చెబుతున్న": 5630,
      " పాలసీ": 5631,
      " సభ్యుల": 5632,
      " కొంతమంది": 5633,
      " నిలిపి": 5634,
      " దినోత్స": 5635,
      " పోర్టు": 5636,
      "తేడాది": 5637,
      " కార్యాలయం": 5638,
      " తల్లిదండ్రులు": 5639,
      " అగ్ని": 5640,
      "es": 5641,
      "స్యం": 5642,
      " నెంబర్": 5643,
      " టన్న": 5644,
      " దశలో": 5645,
      " మిగిలిన": 5646,
      " ప్రశాంత్": 5647,
      " అకౌంట్": 5648,
      "ుల్లో": 5649,
      " లోనే": 5650,
      " చెప్పే": 5651,
      " ఆదాయ": 5652,
      " ఆకట్టుకు": 5653,
      " వెనక్కి": 5654,
      " రాజ్యసభ": 5655,
      " ఇక్కడి": 5656,
      " కాలు": 5657,
      " ముందుగా": 5658,
      " తెలుసుకుందాం": 5659,
      "పోవడం": 5660,
      " టోర్నీ": 5661,
      " వంశీ": 5662,
      "ay": 5663,
      " కలు": 5664,
      " భవన": 5665,
      " పోలిస్తే": 5666,
      " కేబినెట్": 5667,
      "తాధిక": 5668,
      " చేస్తానని": 5669,
      " సినిమాను": 5670,
      " ఎమ్మెల్యేగా": 5671,
      " కూతురు": 5672,
      " వస్తాయి": 5673,
      "గుల్": 5674,
      " ఐదే": 5675,
      " నిలదీ": 5676,
      "అతని": 5677,
      " వందే": 5678,
      " అబ్": 5679,
      "ద్కర్": 5680,
      "బ్ల్యూ": 5681,
      "ంటింగ్": 5682,
      " అనుకున్న": 5683,
      "శాతం": 5684,
      "జనసేన": 5685,
      " సెట్": 5686,
      "వాళ్ల": 5687,
      "ికల్": 5688,
      "జీగా": 5689,
      "డ్డూ": 5690,
      " ప్రోత్స": 5691,
      " ఎంటర్": 5692,
      " ఇస్త": 5693,
      " సైని": 5694,
      "పెట్టిన": 5695,
      " ఎదురుచూ": 5696,
      "అర్": 5697,
      " తప్పుడు": 5698,
      " కోడ్": 5699,
      "డేట్": 5700,
      " ట్రో": 5701,
      " జర్నలి": 5702,
      "ధర": 5703,
      "నడా": 5704,
      "ారిన": 5705,
      " పలి": 5706,
      " బంగ్లాదేశ్": 5707,
      " జులై": 5708,
      "వాడు": 5709,
      " లేకపోవడంతో": 5710,
      " గుడి": 5711,
      " త్వరలో": 5712,
      " త్వరలోనే": 5713,
      "38": 5714,
      "భ్య": 5715,
      " అక్కడే": 5716,
      "దుల": 5717,
      "ట్లుగా": 5718,
      " వారిపై": 5719,
      " సమీపంలోని": 5720,
      "పలు": 5721,
      "కేతిక": 5722,
      "ుకున్నారు": 5723,
      " విషా": 5724,
      " వర్క్": 5725,
      " రెవెన్యూ": 5726,
      " ఫోకస్": 5727,
      "స్టులు": 5728,
      " అత్యా": 5729,
      " ఆదేశించింది": 5730,
      "మయ్యాయి": 5731,
      " గెలిపించ": 5732,
      " ఇంటర్వ్యూ": 5733,
      " కంట్రోల్": 5734,
      "\"\n": 5735,
      "గతం": 5736,
      "లన్నీ": 5737,
      "ళేశ్వరం": 5738,
      " హెడ్": 5739,
      "ద్దరూ": 5740,
      "వర్గ": 5741,
      " జాత": 5742,
      " ఓవర్లలో": 5743,
      " కనిపించింది": 5744,
      "ోభ": 5745,
      " పరా": 5746,
      " ఏమీ": 5747,
      " కోమటి": 5748,
      "ఆర్థ": 5749,
      " సాగ": 5750,
      "టీవలే": 5751,
      "తాము": 5752,
      " ప్రస్తుత": 5753,
      " మేము": 5754,
      "కంఠ": 5755,
      " పనులను": 5756,
      " నిర్ణయించారు": 5757,
      " ఉంచు": 5758,
      "తమిళ": 5759,
      "ಡಿಯ": 5760,
      "‌రెడ్డి": 5761,
      " ప్రభుత్వంలో": 5762,
      " మార్గ": 5763,
      " వ్యాధి": 5764,
      " యాక్షన్": 5765,
      " మిగతా": 5766,
      " శిక్షణ": 5767,
      " కార్యక్రమానికి": 5768,
      "ఇవి": 5769,
      "ధన్": 5770,
      "ేద్కర్": 5771,
      " ఇంది": 5772,
      "పోతున్నారు": 5773,
      " పాక్": 5774,
      " ఓటర్లు": 5775,
      " అవ్వ": 5776,
      "జిత్": 5777,
      " వీడియోలు": 5778,
      " తొలిసారి": 5779,
      " బృంద": 5780,
      "ంగులేటి": 5781,
      " కస్టడీ": 5782,
      "కార్యక్రమంలో": 5783,
      "అందుకు": 5784,
      "చారు": 5785,
      " మృ": 5786,
      " విడత": 5787,
      " ఇన్వ": 5788,
      " పడుతున్నారు": 5789,
      " వెంకటస్వామి": 5790,
      " పాకిస్థాన్": 5791,
      "ఏప్రిల్": 5792,
      " అంటారు": 5793,
      " బాలు": 5794,
      " జెండా": 5795,
      " జ్యోతి": 5796,
      "ేశాడు": 5797,
      "రోధ": 5798,
      " اور": 5799,
      " పనిచేస్తున్న": 5800,
      " సామర్థ": 5801,
      " అటవీ": 5802,
      "37": 5803,
      " ప్రవీణ్": 5804,
      " విమానాశ్ర": 5805,
      " భరోసా": 5806,
      "మిడి": 5807,
      " చేయలేదు": 5808,
      " గ్రౌండ్": 5809,
      " చేసుకునే": 5810,
      " చేరుకున్నారు": 5811,
      " యుద్ధం": 5812,
      " వడ్డీ": 5813,
      " హెల్త్": 5814,
      "జైన్": 5815,
      "లాల్లో": 5816,
      " కుంభ": 5817,
      "ద్దే": 5818,
      " సీఈ": 5819,
      "జీలు": 5820,
      "డీఎస్": 5821,
      " మీటర్ల": 5822,
      " کہ": 5823,
      " పాల్గొన్న": 5824,
      " !\n": 5825,
      "సలు": 5826,
      " అమె": 5827,
      "డిసెంబర్": 5828,
      " బర్": 5829,
      "ల్లూరు": 5830,
      " వాస్త": 5831,
      " ఏర్పడింది": 5832,
      "శాన్ని": 5833,
      "నర్జీ": 5834,
      "ించుకుని": 5835,
      " మారాయి": 5836,
      " భద్రతా": 5837,
      "శంకర్": 5838,
      "ట్లకు": 5839,
      "ూర్తి": 5840,
      " దానికి": 5841,
      " సెక్యూరిటీ": 5842,
      " సైబర్": 5843,
      " క్యాన్సర్": 5844,
      " రావాలని": 5845,
      " అలర్ట్": 5846,
      "de": 5847,
      "దొ": 5848,
      " ప్రదేశ్": 5849,
      " వేర్": 5850,
      " ఎస్టీ": 5851,
      " పెరుగుతుంది": 5852,
      " శివకుమార్": 5853,
      " పాలనలో": 5854,
      "కుడి": 5855,
      "లైట్": 5856,
      " ప్రభావ": 5857,
      "42": 5858,
      " పాయింట్": 5859,
      " విపక్ష": 5860,
      "టీషన్": 5861,
      " విషయాలు": 5862,
      " ہو": 5863,
      " సెలవు": 5864,
      " ఆమోద": 5865,
      " గ్యాస్": 5866,
      " సలహా": 5867,
      " N": 5868,
      "లోపే": 5869,
      " విసి": 5870,
      " టీవీ": 5871,
      " ఏర్పడిన": 5872,
      " వంటివి": 5873,
      " ప్లేయర్": 5874,
      " జాగ్రత్తగా": 5875,
      "జార్టీ": 5876,
      " శాస్త్రవేత్త": 5877,
      " గెలవ": 5878,
      " పిలుపునిచ్చారు": 5879,
      "మాస": 5880,
      "దిగా": 5881,
      " దేశాలు": 5882,
      " నెలల్లో": 5883,
      " ఒక్కసారిగా": 5884,
      "۔\n": 5885,
      "జనం": 5886,
      "టనా": 5887,
      "హరణ": 5888,
      "వానికి": 5889,
      "రేవంత్": 5890,
      " రూపంలో": 5891,
      "స్పద": 5892,
      " కోట్లతో": 5893,
      " ప్రియాంక": 5894,
      " అసోసియేషన్": 5895,
      "నెట్": 5896,
      "పదే": 5897,
      "బొ": 5898,
      "‌ట": 5899,
      "్యాలు": 5900,
      " సికింద్రాబాద్": 5901,
      " చూసుకు": 5902,
      " శ్రీలంక": 5903,
      " ప్లాంట్": 5904,
      " కర్నూ": 5905,
      " ముగిసిన": 5906,
      " సంతోషంగా": 5907,
      "ఉమ్మడి": 5908,
      "కమాండ్": 5909,
      "మండ": 5910,
      "‌‌‌‌,": 5911,
      " ఉగ్ర": 5912,
      "పుడు": 5913,
      " పాలు": 5914,
      "జీపీ": 5915,
      " అమ్ము": 5916,
      " ఉద్రి": 5917,
      " జూనియర్": 5918,
      "ించాల్సిన": 5919,
      " అతిపెద్ద": 5920,
      " జాబితాలో": 5921,
      " v": 5922,
      " ବ": 5923,
      "అక్కడి": 5924,
      "రాయి": 5925,
      "‌‌,": 5926,
      " ఆశి": 5927,
      " నల్": 5928,
      " కలిగిన": 5929,
      " کیا": 5930,
      " సాధించారు": 5931,
      "ించుకుంది": 5932,
      " ఛార్": 5933,
      " ఊహించ": 5934,
      " అంశం": 5935,
      " రిటైర్": 5936,
      " ఈవెంట్": 5937,
      "భద్ర": 5938,
      "డుతూ": 5939,
      " జ్": 5940,
      "తిన్": 5941,
      "ట్టింగ్": 5942,
      " పంజాబ్": 5943,
      " దృష్టికి": 5944,
      " పల్లి": 5945,
      " కప్పు": 5946,
      " వాల": 5947,
      " విన్న": 5948,
      "మాట": 5949,
      " వేరే": 5950,
      " ఎవరైనా": 5951,
      "సిస్టెంట్": 5952,
      "39": 5953,
      "ంసా": 5954,
      "జగ": 5955,
      "దన్": 5956,
      " నిన్న": 5957,
      " సంభవ": 5958,
      " కిడ్": 5959,
      " చేస్తున్నాయి": 5960,
      " ప్రాంతం": 5961,
      " రెండ": 5962,
      " విద్యార్థులకు": 5963,
      " అంశంపై": 5964,
      "ైర్మన్": 5965,
      " రౌ": 5966,
      " లకు": 5967,
      "విన్": 5968,
      " చేరుకుంది": 5969,
      " తెరకెక్క": 5970,
      " కురిసే": 5971,
      " రిపోర్టు": 5972,
      "44": 5973,
      "క్యు": 5974,
      " బతు": 5975,
      "నేది": 5976,
      " వేడి": 5977,
      " అనిల్": 5978,
      " టిడిపి": 5979,
      " నిర్ణయించింది": 5980,
      " చేరింది": 5981,
      " ఇళ్ల": 5982,
      " విష్ణు": 5983,
      "మ్మల": 5984,
      " పెట్రో": 5985,
      "తాబ్": 5986,
      " తీసుకొని": 5987,
      " పేరును": 5988,
      " ఘటనపై": 5989,
      " అనుమత": 5990,
      " మండలంలోని": 5991,
      " హరీష్": 5992,
      " పబ్లిక్": 5993,
      " బాలీవుడ్": 5994,
      "రిగే": 5995,
      "పైకి": 5996,
      " రాజస్థాన్": 5997,
      " పాటుగా": 5998,
      "తనకు": 5999,
      " మద్దతుగా": 6000,
      " అభిప్రాయం": 6001,
      " వదిలే": 6002,
      " తేడాతో": 6003,
      " మంటలు": 6004,
      "అంటూ": 6005,
      "దక్షి": 6006,
      "పించింది": 6007,
      "శీ": 6008,
      "ారే": 6009,
      "తుంటే": 6010,
      "టీటీ": 6011,
      " సీరియ": 6012,
      " బాల్": 6013,
      " ఖర్చ": 6014,
      "పాలన": 6015,
      " మానవ": 6016,
      " నూతన": 6017,
      "ఆగస్టు": 6018,
      " తెగ": 6019,
      "పోర్": 6020,
      " గురు": 6021,
      "దాద్రి": 6022,
      " టైమ్": 6023,
      " భక్తులకు": 6024,
      " క్రమంలోనే": 6025,
      " టిక్కెట్": 6026,
      " కడు": 6027,
      " అదానీ": 6028,
      " సదు": 6029,
      " రాసిన": 6030,
      " తాగ": 6031,
      " రెండే": 6032,
      " స్థానాలు": 6033,
      " సంస్థల": 6034,
      " అంశాలపై": 6035,
      " కాలేదు": 6036,
      "ಿದ್ದ": 6037,
      " సీఐడీ": 6038,
      "క్షంలో": 6039,
      "త్రీ": 6040,
      " ఉంటున్న": 6041,
      " ఘా": 6042,
      " ఆర్డర్": 6043,
      " లిమి": 6044,
      " పడుతున్న": 6045,
      "హిత": 6046,
      "ర్షణ": 6047,
      " నంద": 6048,
      " ఇవి": 6049,
      " గంగ": 6050,
      "తిప": 6051,
      "స్తుండగా": 6052,
      "మింగ్": 6053,
      " కూల్చి": 6054,
      " హోటల్": 6055,
      " నమ్మకం": 6056,
      " పెట్టింది": 6057,
      " నిందితు": 6058,
      " ವಿ": 6059,
      "విద్యార్థ": 6060,
      " క్రికెటర్": 6061,
      "థమిక": 6062,
      "ొచ్చని": 6063,
      "ారట": 6064,
      " కచ్చితంగా": 6065,
      " కోర్": 6066,
      "జాన్": 6067,
      "మార్చి": 6068,
      " ఉద్యోగ": 6069,
      " వ్యక్తిగత": 6070,
      " యువతి": 6071,
      " తీసుకుంటామని": 6072,
      " గడువు": 6073,
      " ఢీకొ": 6074,
      "65": 6075,
      "తుందో": 6076,
      "ష్ఠ": 6077,
      "య్యం": 6078,
      " రాష్ట్రానికి": 6079,
      " కిరణ్": 6080,
      "ర్థి": 6081,
      " అర్ధ": 6082,
      " రంగంలో": 6083,
      "భివృద్ధి": 6084,
      " స్వయంగా": 6085,
      "400": 6086,
      "శ్రా": 6087,
      " ఇల్లు": 6088,
      " భగ": 6089,
      " చెప్పాలని": 6090,
      " నాణ్య": 6091,
      " ప్రత్యక్ష": 6092,
      "వంతమైన": 6093,
      " జాగ్రత్తలు": 6094,
      " కార్మికులు": 6095,
      " నిజామాబాద్": 6096,
      " కలకలం": 6097,
      " కోమటిరెడ్డి": 6098,
      ".మీ": 6099,
      "కత్వంలో": 6100,
      "పించిన": 6101,
      " ఇస్తే": 6102,
      "పుల్": 6103,
      "మోదీ": 6104,
      " గౌరవ": 6105,
      "یر": 6106,
      "వకు": 6107,
      " సతీ": 6108,
      " నవ": 6109,
      " వెలువ": 6110,
      "త్రిక": 6111,
      " రాజమ": 6112,
      "జిటల్": 6113,
      " ఎదుర్": 6114,
      " సమావేశాలు": 6115,
      " ఉంటాయని": 6116,
      " దుకా": 6117,
      " పరిచయం": 6118,
      " పడిన": 6119,
      " జంతు": 6120,
      " విఫల": 6121,
      " జిల్లాల": 6122,
      " డివిజన్": 6123,
      " వ్యక్త": 6124,
      " ప్లాట్": 6125,
      " టైటిల్": 6126,
      " దానిని": 6127,
      " సమర్పించ": 6128,
      " విరాట్": 6129,
      " విశేషం": 6130,
      " స్నా": 6131,
      " ఏంటి": 6132,
      " సంబ": 6133,
      " వర్గం": 6134,
      " సహాయం": 6135,
      "త్మకంగా": 6136,
      " గుర్తించి": 6137,
      " భక్తుల": 6138,
      " పరిష్కారం": 6139,
      " ఫీజు": 6140,
      "ేశ్వరరావు": 6141,
      " అనారోగ్య": 6142,
      "కైనా": 6143,
      " చరణ్": 6144,
      " ఆదు": 6145,
      "మానికి": 6146,
      "ెండి": 6147,
      " మాస్టర్": 6148,
      " చేశాయి": 6149,
      " ఉన్నాడు": 6150,
      "వీన్": 6151,
      " రేటు": 6152,
      " ఎంపీగా": 6153,
      " గుర్తించ": 6154,
      "సైడ్": 6155,
      " ఉత్కంఠ": 6156,
      "వ్యవ": 6157,
      " ఫామ్": 6158,
      " ఆసుపత్రికి": 6159,
      " ప్రతినిధి": 6160,
      " నల్గొండ": 6161,
      "ందంటే": 6162,
      " అన్య": 6163,
      " ప్రచు": 6164,
      " ప్రాంతాలకు": 6165,
      " పిటీషన్": 6166,
      " సమస్యల": 6167,
      " పెన్షన్": 6168,
      " ଏ": 6169,
      ".ఈ": 6170,
      "పట్ట": 6171,
      "వళి": 6172,
      "హర": 6173,
      " అన్నీ": 6174,
      " ఆశ్చ": 6175,
      " రాజా": 6176,
      " పులి": 6177,
      "టేల్": 6178,
      " ఏజెన్సీ": 6179,
      " భిన్న": 6180,
      " జ్ఞ": 6181,
      "జల్": 6182,
      " మరీ": 6183,
      " అయోధ్య": 6184,
      " నన్ను": 6185,
      "టుగా": 6186,
      " పొంగులేటి": 6187,
      " జరుగుతున్నాయి": 6188,
      " ఫ్యాక్టరీ": 6189,
      " నమోదైంది": 6190,
      " వందల": 6191,
      " అద్భుతమైన": 6192,
      "జినెస్": 6193,
      "ti": 6194,
      "వయ": 6195,
      " ఆగి": 6196,
      "వాటిని": 6197,
      " హనుమ": 6198,
      " ముద్ర": 6199,
      "త్తూరు": 6200,
      " డాక్టర్లు": 6201,
      " కాపాడు": 6202,
      "ఇన్": 6203,
      "ఖి": 6204,
      "ఫార్": 6205,
      "ాల్సిన": 6206,
      "ౌట్": 6207,
      " మల": 6208,
      " రాం": 6209,
      " మెజార్టీ": 6210,
      " సోర్స్": 6211,
      "కాంక్షలు": 6212,
      "ల్లంఘ": 6213,
      " నటుడు": 6214,
      " తప్పనిసరి": 6215,
      "ంక్షన్": 6216,
      " రాకుండా": 6217,
      " శని": 6218,
      "వర్ణ": 6219,
      " రోజుకు": 6220,
      " అవుతున్నాయి": 6221,
      " ఛాన": 6222,
      " నగరంలో": 6223,
      " విదేశీ": 6224,
      " వదిలి": 6225,
      "జరీ": 6226,
      " ఆం": 6227,
      "లికా": 6228,
      " ఎక్": 6229,
      " నిధు": 6230,
      "నాటక": 6231,
      " షు": 6232,
      "బంధు": 6233,
      " మానసిక": 6234,
      " బంతుల్లో": 6235,
      "ئے": 6236,
      "‌పూర్": 6237,
      " అవినా": 6238,
      " మేలు": 6239,
      " అధికారులతో": 6240,
      " సర్టిఫ": 6241,
      " ఘనంగా": 6242,
      " నూనె": 6243,
      "్రూ": 6244,
      "సిఆర్": 6245,
      " జిల్ల": 6246,
      " ఖై": 6247,
      " గ్రే": 6248,
      " మరిన్ని": 6249,
      " చేసుకోవచ్చు": 6250,
      " దృష్టిలో": 6251,
      " ప్రయాణికులు": 6252,
      " వాదనలు": 6253,
      "స్థాయిలో": 6254,
      "రాజకీయ": 6255,
      "రిసిల్ల": 6256,
      "یہ": 6257,
      " రెడ్": 6258,
      "లాన్ని": 6259,
      "ంటుందని": 6260,
      "మెన్": 6261,
      " సంచల": 6262,
      " నెటిజన్": 6263,
      "కప్పుడు": 6264,
      "త్తులు": 6265,
      "ండం": 6266,
      " సాగర్": 6267,
      "చివరి": 6268,
      " విజయాన్ని": 6269,
      " రంగంలోకి": 6270,
      " సేకర": 6271,
      " పోస్టులు": 6272,
      "లక్ష్మి": 6273,
      " ఆవిష్": 6274,
      " వస్త": 6275,
      "ట్సా": 6276,
      " ఉల్లంఘ": 6277,
      "ికే": 6278,
      " ఏళ్లు": 6279,
      " హైకమాండ్": 6280,
      " దేశాల్లో": 6281,
      " సర్పంచ": 6282,
      " యువత": 6283,
      " బలమైన": 6284,
      " బలహీ": 6285,
      " రామకృష్ణ": 6286,
      " మాటలు": 6287,
      " పద్మ": 6288,
      "41": 6289,
      " ప్రదేశ": 6290,
      "లింగ": 6291,
      " నిజం": 6292,
      "విత్ర": 6293,
      "జిలాండ్": 6294,
      " ఆర్మీ": 6295,
      " వివాహం": 6296,
      "‌ప్రెస్": 6297,
      "ెత్తు": 6298,
      " అక్క": 6299,
      " తగి": 6300,
      "మేం": 6301,
      " సంవత్సరంలో": 6302,
      "కారులు": 6303,
      " పెరిగే": 6304,
      " అందుకున్న": 6305,
      " పర్వ": 6306,
      " దక్షిణా": 6307,
      "హరి": 6308,
      " పాయి": 6309,
      " స్పందన": 6310,
      " బిగ్": 6311,
      " బెదిరి": 6312,
      " క్షే": 6313,
      " ఉద్రిక్త": 6314,
      ").\n": 6315,
      "కుంది": 6316,
      "నులు": 6317,
      "ంటరీ": 6318,
      "ాయర్": 6319,
      " విధి": 6320,
      " గంజ": 6321,
      " కొర": 6322,
      " ఉన్నప్పటికీ": 6323,
      " ఉన్నతాధిక": 6324,
      " చేయి": 6325,
      " ఓటర్": 6326,
      " తేల్చి": 6327,
      " ఛైర్మన్": 6328,
      "సోషల్": 6329,
      " లైంగ": 6330,
      " ల్యాండ్": 6331,
      " ఫ్రెండ్": 6332,
      "ఇంకా": 6333,
      "స్తుల": 6334,
      " భద్రా": 6335,
      "కొద్ది": 6336,
      " చేయండి": 6337,
      "పిరి": 6338,
      " మంత్రిత్వ": 6339,
      " రెగ్య": 6340,
      " రాజకీయాల్లో": 6341,
      "197": 6342,
      " వ్యవధి": 6343,
      " మొదలైన": 6344,
      " కనుగొ": 6345,
      " యాజమాన్": 6346,
      " ।": 6347,
      "49": 6348,
      "‌ఆర్": 6349,
      " పటేల్": 6350,
      " మనీ": 6351,
      " రానున్న": 6352,
      " ఆయనను": 6353,
      " డిస్": 6354,
      " మెరుగ": 6355,
      "గ్రామ": 6356,
      " శ్రీధర్": 6357,
      " సర్వ": 6358,
      " వెంకట్": 6359,
      " బంగారు": 6360,
      " ప్రదర్శన": 6361,
      "లిజెన్స్": 6362,
      " గంజాయి": 6363,
      "అవి": 6364,
      " కరోనా": 6365,
      " మల్లి": 6366,
      " ఇస్రో": 6367,
      " గిల్": 6368,
      "వుగా": 6369,
      "ప్రత్య": 6370,
      "ద్దరి": 6371,
      "వేత": 6372,
      "ారీగా": 6373,
      "గోపాల్": 6374,
      " ప్రభాస్": 6375,
      " ..": 6376,
      "AL": 6377,
      "బై": 6378,
      "‌ల్": 6379,
      " పసుపు": 6380,
      " చది": 6381,
      "గాంధీ": 6382,
      "ార్జున": 6383,
      "త్రా": 6384,
      "తాడు": 6385,
      " రిమాండ్": 6386,
      " క్రై": 6387,
      " వినో": 6388,
      "వంతం": 6389,
      " ಮಾ": 6390,
      "ేలా": 6391,
      "ైతే": 6392,
      "ಟ್": 6393,
      " అశ్": 6394,
      "ప్ట్": 6395,
      " ఇండ్లు": 6396,
      "డాల్సి": 6397,
      " ఉన్నత": 6398,
      " గుంటూరు": 6399,
      " నేర": 6400,
      " చోట": 6401,
      " వీడియోలో": 6402,
      " హింస": 6403,
      " సూచన": 6404,
      " భారతదేశ": 6405,
      " తీసుకోవాలి": 6406,
      " క్యారెట్ల": 6407,
      " ମ": 6408,
      "కప్": 6409,
      "ైలి": 6410,
      "లుత": 6411,
      " అస్": 6412,
      "ెంబరు": 6413,
      " ఖర్": 6414,
      " జిల్లాకు": 6415,
      " అరవింద్": 6416,
      " పథకాలు": 6417,
      "పూడి": 6418,
      "టైన": 6419,
      "సరా": 6420,
      " బెడ్": 6421,
      " ఎత్తి": 6422,
      " హరి": 6423,
      "మ్మల్ని": 6424,
      " సీఎ": 6425,
      "త్తీస్": 6426,
      " అందజేశారు": 6427,
      " సాధించ": 6428,
      " ప్రశ్నలు": 6429,
      "పార్ల": 6430,
      " స్వీకారం": 6431,
      " పరిశోధన": 6432,
      "ఇవాళ": 6433,
      "మంతా": 6434,
      " అసిస్టెంట్": 6435,
      " రొ": 6436,
      " ఇస్తున్న": 6437,
      "విల్": 6438,
      " మంత్రిగా": 6439,
      " సహజ": 6440,
      " రికార్డ్": 6441,
      " అధికారికంగా": 6442,
      " సత్యనారాయణ": 6443,
      " ట్రైలర్": 6444,
      " గమనించ": 6445,
      "or": 6446,
      "పరు": 6447,
      " మిత": 6448,
      " అల్ల": 6449,
      " ఇరాన్": 6450,
      "ప్పులు": 6451,
      " సాంగ్": 6452,
      " యూపీ": 6453,
      "బోతోంది": 6454,
      " సాంకేతిక": 6455,
      "శోక్": 6456,
      " ఎనిమిది": 6457,
      " నిల్వ": 6458,
      " సీరియస్": 6459,
      " కసర": 6460,
      "గామ": 6461,
      "సీస్": 6462,
      " పేర్లు": 6463,
      " మారిన": 6464,
      " లీగ్": 6465,
      " బ్రిడ్": 6466,
      " రిపోర్ట్": 6467,
      " విపరీ": 6468,
      "ఇందు": 6469,
      "డక": 6470,
      "రించింది": 6471,
      "హే": 6472,
      "‌సై": 6473,
      "కిలీ": 6474,
      " ఏకా": 6475,
      " రాష్ట్రపతి": 6476,
      " కొనసాగుతున్న": 6477,
      " దెబ్బతి": 6478,
      " గ్రామాల్లో": 6479,
      "విజయవాడ": 6480,
      " మని": 6481,
      " సద": 6482,
      " ఎద్దే": 6483,
      " విటమి": 6484,
      " కోలు": 6485,
      "బాబాద్": 6486,
      "దీర్ఘ": 6487,
      " నిర్వాహ": 6488,
      " వైరస్": 6489,
      " చూసు": 6490,
      " యాంటీ": 6491,
      " అసంత": 6492,
      " గురైన": 6493,
      " ఆలయంలో": 6494,
      " టైం": 6495,
      " తెరక": 6496,
      " అధ్యయనం": 6497,
      " ఎద్దేవా": 6498,
      "\".": 6499,
      "نے": 6500,
      "ରି": 6501,
      "అన్న": 6502,
      "ఆరో": 6503,
      "కంలో": 6504,
      "ాయక": 6505,
      " విగ్రహ": 6506,
      " తీసిన": 6507,
      "మార్క": 6508,
      " మధ్యలో": 6509,
      "దీనివల్ల": 6510,
      " రాజకీయంగా": 6511,
      "చారి": 6512,
      "రన్": 6513,
      " కంప్": 6514,
      "ంటరి": 6515,
      " నివాసం": 6516,
      "నాలుగు": 6517,
      "్వే": 6518,
      "నీటి": 6519,
      " బ్యాటర్": 6520,
      " శుభా": 6521,
      " నాలుగో": 6522,
      " పిల్లలకు": 6523,
      " ఉద్యోగుల": 6524,
      "ప్రజల": 6525,
      "୍ୟ": 6526,
      "గమ": 6527,
      "తానని": 6528,
      " ఉండడంతో": 6529,
      " యూట్యూ": 6530,
      " భూకంప": 6531,
      "ామున": 6532,
      " ایک": 6533,
      " దేవర": 6534,
      " జడ్పీ": 6535,
      " బయలుదేరి": 6536,
      "AD": 6537,
      "షిక": 6538,
      "ంతం": 6539,
      "టిక్స్": 6540,
      "దుపరి": 6541,
      " కామారెడ్డి": 6542,
      " పార్క్": 6543,
      " వాటా": 6544,
      " రోజూ": 6545,
      "ఎంపీ": 6546,
      " ప్రకటి": 6547,
      "శివ": 6548,
      "బోతున్నారు": 6549,
      " అభ్యర్థులను": 6550,
      " ان": 6551,
      "మవుతోంది": 6552,
      " స్పష్టంగా": 6553,
      " ఇంజినీ": 6554,
      " మెదక్": 6555,
      "as": 6556,
      " విగ్ర": 6557,
      "టీస్": 6558,
      "సింగ": 6559,
      " చెప్పాలి": 6560,
      "ముద్ర": 6561,
      " పేరిట": 6562,
      " బాంబు": 6563,
      "సాని": 6564,
      " ముఖ్యంగా": 6565,
      " దీక్ష": 6566,
      " కారణాలు": 6567,
      " కోర్టుకు": 6568,
      " పనిచేసే": 6569,
      " చేరుకుని": 6570,
      " క్రియేట్": 6571,
      " తెలుసుకున్న": 6572,
      " స్పష్టత": 6573,
      "డైన": 6574,
      "ఫలి": 6575,
      "ీణ": 6576,
      " ప్రకా": 6577,
      "రియల్": 6578,
      " ఇసుక": 6579,
      "ప్రసాద్": 6580,
      "త్వరలో": 6581,
      " టాలీవుడ్": 6582,
      " సులభ": 6583,
      " ఛే": 6584,
      " చేసుకోవాలని": 6585,
      " ఒప్పందం": 6586,
      "అత్య": 6587,
      "కేశ్": 6588,
      "నేశ్వ": 6589,
      " కామ": 6590,
      " వెల్": 6591,
      " వచ్చినా": 6592,
      " బిజినెస్": 6593,
      " జరగనున్న": 6594,
      " అభివృద్ధికి": 6595,
      " చనిపోయిన": 6596,
      " భూములు": 6597,
      " ఎకరాల": 6598,
      "దాల": 6599,
      " రమేష్": 6600,
      " నౌ": 6601,
      " నివాస": 6602,
      "మిక్": 6603,
      " కేజీ": 6604,
      " అధికంగా": 6605,
      " ఉండడం": 6606,
      "తీరు": 6607,
      " పొలి": 6608,
      " పిలి": 6609,
      " అవుతున్నారు": 6610,
      " చేసుకోవాలి": 6611,
      "స్టిక్": 6612,
      " మరణించారు": 6613,
      "ద్దీన్": 6614,
      " గెలుచుకు": 6615,
      " రమేశ్": 6616,
      " లిమిటెడ్": 6617,
      " آ": 6618,
      "ak": 6619,
      "ఐఆర్": 6620,
      "జారిటీ": 6621,
      "ఫై": 6622,
      " ఎల": 6623,
      "ార్క్": 6624,
      "యాపేట": 6625,
      " భయం": 6626,
      "వుతున్న": 6627,
      "ండ్లలో": 6628,
      " బాక్": 6629,
      " సంప్రదాయ": 6630,
      " శ్రేణ": 6631,
      " న్యాయవాది": 6632,
      "ئی": 6633,
      "గె": 6634,
      "మారి": 6635,
      "రచయిత": 6636,
      " మట్టి": 6637,
      " సిస్ట": 6638,
      "ంటున్నా": 6639,
      "రేపు": 6640,
      " ఒకరి": 6641,
      "స్తూనే": 6642,
      "and": 6643,
      "ట్సాప్": 6644,
      " క్షేత్ర": 6645,
      " .": 6646,
      "ఇతర": 6647,
      "మళ్లీ": 6648,
      " మించి": 6649,
      " బ్యార": 6650,
      " స్టీ": 6651,
      " ఏంట": 6652,
      " సమక్షంలో": 6653,
      " టీం": 6654,
      " బెంగాల్": 6655,
      " అవుతుందని": 6656,
      " దూరంలో": 6657,
      " ముఖ్యమంత్రిగా": 6658,
      "త్వాన్ని": 6659,
      " తెలియదు": 6660,
      " సానుకూల": 6661,
      "ఐపీఎల్": 6662,
      " పట్టి": 6663,
      " మణి": 6664,
      " అక్ష": 6665,
      " బారిన": 6666,
      " రాకపో": 6667,
      "పీసీసీ": 6668,
      " పోరు": 6669,
      " సంపద": 6670,
      "ముంబై": 6671,
      " జరిగితే": 6672,
      " విచారణలో": 6673,
      "రగాయ": 6674,
      " నియంత్రణ": 6675,
      " సచివాల": 6676,
      "ఖమ్మం": 6677,
      "తంత్ర": 6678,
      "రించ": 6679,
      " నిండి": 6680,
      "చేసి": 6681,
      "పూర్వ": 6682,
      "బడింది": 6683,
      " పెరిగిన": 6684,
      " అభిప్రాయపడ్డారు": 6685,
      " హిందీ": 6686,
      "یڈیو": 6687,
      "46": 6688,
      " కంటి": 6689,
      " బట్ట": 6690,
      " బరిలో": 6691,
      " రాగానే": 6692,
      "మ్మూ": 6693,
      " ప్రాథమిక": 6694,
      " అనుబంధ": 6695,
      " చేస్తారని": 6696,
      " సంబంధాలు": 6697,
      " వివరణ": 6698,
      " పీసీసీ": 6699,
      " ఉండేలా": 6700,
      "ండీస్": 6701,
      " పలికారు": 6702,
      " G": 6703,
      "భర్": 6704,
      "‌డ": 6705,
      "ర్తి": 6706,
      " ప్రసా": 6707,
      "మాన్ని": 6708,
      "స్తుంటే": 6709,
      "ందుకే": 6710,
      " ఫిల్": 6711,
      "ామిక": 6712,
      " చెప్పడం": 6713,
      " పేలు": 6714,
      "ఫ్టీ": 6715,
      "ుకుని": 6716,
      " తీసుకుంటున్న": 6717,
      "మైతే": 6718,
      " చుట్టు": 6719,
      " విక్రమార్క": 6720,
      "తుండటంతో": 6721,
      "పాలి": 6722,
      "లోబల్": 6723,
      " ఆఫర్": 6724,
      " ఎక్కడి": 6725,
      "రాహుల్": 6726,
      "వేర్": 6727,
      "ండింగ్": 6728,
      " వీటిని": 6729,
      "కాశం": 6730,
      " చెబుతోంది": 6731,
      " కీలకంగా": 6732,
      " ఆలస్య": 6733,
      " రిజిస్ట్రేషన్": 6734,
      " చోటుచేసుకుంది": 6735,
      "SO": 6736,
      "బాల": 6737,
      "‌-": 6738,
      "నిజ": 6739,
      " ఆప్": 6740,
      "ప్స్": 6741,
      "రుడు": 6742,
      " శే": 6743,
      "క్షే": 6744,
      " వేస్తున్నారు": 6745,
      " వాగ్": 6746,
      "వరంగల్": 6747,
      " పాత్రలో": 6748,
      " మిత్ర": 6749,
      "గటు": 6750,
      "ಂಡ": 6751,
      "క్ల": 6752,
      " ఎవ": 6753,
      "క్షన్స్": 6754,
      " లేకపోవడం": 6755,
      " ట్రి": 6756,
      " నేటి": 6757,
      " తీసుకొ": 6758,
      "రైతు": 6759,
      " కానిస్టే": 6760,
      "47": 6761,
      "ాడ": 6762,
      " నివా": 6763,
      " తీశారు": 6764,
      " పరిహారం": 6765,
      "వర్స్": 6766,
      " గంటలు": 6767,
      " వైఎస్సార్": 6768,
      " భూమిని": 6769,
      " తెల్లవారు": 6770,
      "అంతకుముందు": 6771,
      "85": 6772,
      "om": 6773,
      "నైనా": 6774,
      "సార": 6775,
      " మాదిరి": 6776,
      " సెమీ": 6777,
      " వెలుగులోకి": 6778,
      " మొదట": 6779,
      " దేవాల": 6780,
      "ప్రజలు": 6781,
      " మున్సిపాలిటీ": 6782,
      "మహారాష్ట్ర": 6783,
      " సీతారామ": 6784,
      "ಂದು": 6785,
      "ఉత్తర": 6786,
      "ାଇ": 6787,
      "డై": 6788,
      "మ్యా": 6789,
      "స్మ": 6790,
      " వాయు": 6791,
      " చల్ల": 6792,
      "తుందన్నారు": 6793,
      "త్న": 6794,
      "టిస్": 6795,
      "స్తామన్నారు": 6796,
      "త్వంలోని": 6797,
      "యింగ్": 6798,
      "న్యు": 6799,
      " ప్రాంతానికి": 6800,
      " ఘర్షణ": 6801,
      " ప్రశ్ని": 6802,
      " మహేష్": 6803,
      " హైకోర్టులో": 6804,
      "ಿದೆ": 6805,
      "ంజు": 6806,
      "షు": 6807,
      "వాణి": 6808,
      "దాహరణ": 6809,
      "ఇదిలా": 6810,
      " సభ్యుడు": 6811,
      " నిర్మాణానికి": 6812,
      "ھا": 6813,
      "ଥି": 6814,
      "మంత్ర": 6815,
      " ప్రయోగ": 6816,
      " బార్": 6817,
      "టర్స్": 6818,
      "కూరు": 6819,
      " పురా": 6820,
      " చేస్తున్నామని": 6821,
      " పెద్దపల్లి": 6822,
      " షాపు": 6823,
      " ఆదిత్య": 6824,
      " ఎవరికి": 6825,
      "బెట్ట": 6826,
      " గడ్డం": 6827,
      " శుభాకాంక్షలు": 6828,
      "బంగా": 6829,
      "విన": 6830,
      " వహి": 6831,
      "సిస్": 6832,
      " లక్ష్యం": 6833,
      " వ్యక్తిని": 6834,
      "సభ్య": 6835,
      " అంశాలు": 6836,
      " ف": 6837,
      "‌హ": 6838,
      "గుట్ట": 6839,
      " వేణు": 6840,
      " ఓపె": 6841,
      " అనిపి": 6842,
      " గానీ": 6843,
      "ధ్యం": 6844,
      " పుట్ట": 6845,
      " సోనియా": 6846,
      " కలె": 6847,
      " గోల్డ్": 6848,
      " విద్యార్థుల": 6849,
      " విభాగం": 6850,
      " పుష్ప": 6851,
      " ఠా": 6852,
      "క్రియ": 6853,
      "తన్య": 6854,
      "రించి": 6855,
      "లండ్": 6856,
      "కుంటారు": 6857,
      " ఎమో": 6858,
      "గులకు": 6859,
      " వెలు": 6860,
      "ెస్టి": 6861,
      "ద్దాం": 6862,
      " వేచి": 6863,
      " నిర్వహించే": 6864,
      " వివరాల": 6865,
      " అడుగులు": 6866,
      " ویڈیو": 6867,
      " లభించింది": 6868,
      " ఎకరాల్లో": 6869,
      " వాహనాలు": 6870,
      " స్కామ్": 6871,
      "ಡಿಯೋ": 6872,
      "EAD": 6873,
      "కమ్మ": 6874,
      "తతో": 6875,
      "బట్ట": 6876,
      " కాలి": 6877,
      " రేషన్": 6878,
      "‌‌‌‌‌‌‌‌,": 6879,
      " ఏసీబీ": 6880,
      "ల్లోనూ": 6881,
      "సాహ": 6882,
      " మూడే": 6883,
      " కలెక్టరేట్": 6884,
      " రేప": 6885,
      " కుటుంబాలకు": 6886,
      " హిందు": 6887,
      " ఫలితం": 6888,
      "సాధారణంగా": 6889,
      "పిల్": 6890,
      "బడ్డ": 6891,
      "లంలో": 6892,
      " కడప": 6893,
      " తూర్పు": 6894,
      " ఆక్రమ": 6895,
      " బలోపే": 6896,
      "యాంశ": 6897,
      "మ్మద్": 6898,
      "రాజ్య": 6899,
      " నోటీసు": 6900,
      " ఔట్": 6901,
      "వంగా": 6902,
      "హిల్స్": 6903,
      "ెన": 6904,
      "న్ల": 6905,
      " వస్తాయని": 6906,
      "ల్లీ": 6907,
      " సంకే": 6908,
      "స్తున్నాం": 6909,
      "సేపు": 6910,
      " చర్చనీ": 6911,
      " పెట్టుకున్న": 6912,
      " తెలియని": 6913,
      " కార్యక్రమాన్ని": 6914,
      " ప్లేస్": 6915,
      " కోరుతూ": 6916,
      "స్టేట్": 6917,
      " అంబేద్కర్": 6918,
      " ఛాన్స్": 6919,
      "ALSO": 6920,
      " ఖర్గే": 6921,
      "చలం": 6922,
      "రాయ": 6923,
      "ెడి": 6924,
      "ందింది": 6925,
      "ద్దరు": 6926,
      " ఓటింగ్": 6927,
      "సేజ్": 6928,
      " తేలిక": 6929,
      " తేల్చ": 6930,
      " నేతలతో": 6931,
      " నిర్వహించి": 6932,
      " చిన్నారి": 6933,
      " టాపిక్": 6934,
      " షేక్": 6935,
      " گیا": 6936,
      " ఇంగ్లాండ్": 6937,
      " వాలంటీ": 6938,
      "అటు": 6939,
      "⁬కు": 6940,
      "ించడంలో": 6941,
      " బ్యాల": 6942,
      "లివరీ": 6943,
      " స్మార్ట్": 6944,
      " హమాస్": 6945,
      " కోరిక": 6946,
      " పాన్": 6947,
      " బాడీ": 6948,
      " మెజారిటీ": 6949,
      "గ్రే": 6950,
      "పేద": 6951,
      " తెలుస్తుంది": 6952,
      "త్తుల": 6953,
      " దాడికి": 6954,
      " వృద్ధ": 6955,
      " ప్రసంగ": 6956,
      "لی": 6957,
      "ఏఎస్": 6958,
      "కరీంనగర్": 6959,
      "చన": 6960,
      "పించి": 6961,
      "న్యా": 6962,
      "ించవచ్చు": 6963,
      " ఇంట్": 6964,
      "ద్వే": 6965,
      "స్తాడు": 6966,
      "రోజూ": 6967,
      "త్వరలోనే": 6968,
      " నాయకత్వం": 6969,
      " తుపా": 6970,
      " బాలకృష్ణ": 6971,
      "పోయిందని": 6972,
      "అను": 6973,
      "డారు": 6974,
      "లెన్స్": 6975,
      "డియంలో": 6976,
      " రోజా": 6977,
      " ప్రారంభి": 6978,
      " యూనియన్": 6979,
      " లక్ష్మ": 6980,
      " ఆస్పత్రికి": 6981,
      " అర్హత": 6982,
      "మాల": 6983,
      "ార్ట్": 6984,
      " ఫండ్": 6985,
      " వాడు": 6986,
      " డిపార్ట్": 6987,
      "హానికి": 6988,
      " హాల్": 6989,
      " చంద్రబాబుకు": 6990,
      " స్వాగతం": 6991,
      " పెరిగాయి": 6992,
      " ఫ్లా": 6993,
      " తీసుకెళ్": 6994,
      " అక్రమంగా": 6995,
      " అడ్మి": 6996,
      "అమరావతి": 6997,
      " రాజ్యాంగ": 6998,
      "ବା": 6999,
      "న్నో": 7000,
      " ఉంటూ": 7001,
      "పాతం": 7002,
      "డేందుకు": 7003,
      "స్ట్రి": 7004,
      " లిస్ట్": 7005,
      "వ్యాప": 7006,
      " సొంతం": 7007,
      "శ్రామిక": 7008,
      " READ": 7009,
      " నిమిషాల": 7010,
      " చర్చనీయాంశ": 7011,
      " అటు": 7012,
      "ంత్రా": 7013,
      "ప్పల్": 7014,
      " నిఘా": 7015,
      " సిట్టింగ్": 7016,
      "ప్రస్తుత": 7017,
      " ఓటీటీ": 7018,
      "ులైన": 7019,
      " అయ్యి": 7020,
      " కెనడా": 7021,
      " తేదీల్లో": 7022,
      " యువకుడు": 7023,
      " జట్టుకు": 7024,
      " బిల్డింగ్": 7025,
      " ఉష్ణోగ్రతలు": 7026,
      "గ్రి": 7027,
      "డూ": 7028,
      "ధన": 7029,
      "నన్న": 7030,
      "ెలిజెన్స్": 7031,
      "న్నర్": 7032,
      "నీరు": 7033,
      "డీవో": 7034,
      " వీలు": 7035,
      " మూసి": 7036,
      " తీసుకువచ్చ": 7037,
      " మిస్": 7038,
      "షిప్": 7039,
      " కసరత్తు": 7040,
      "it": 7041,
      "తంలో": 7042,
      "్రు": 7043,
      "కులతో": 7044,
      " విమానం": 7045,
      " సమన్": 7046,
      " డిజైన్": 7047,
      " నేతలకు": 7048,
      " కార్తీ": 7049,
      " మనకు": 7050,
      " పడుతుంది": 7051,
      " ఫ్ల": 7052,
      " ప్రైవేటు": 7053,
      " కోరుతున్నారు": 7054,
      " నిరాశ": 7055,
      " ధ్వంసం": 7056,
      " స్క్రీన్": 7057,
      " గ్యారంటీ": 7058,
      " పెట్టుబడులు": 7059,
      "ఆర్థిక": 7060,
      "చైనా": 7061,
      "్రం": 7062,
      " అశోక్": 7063,
      " జమ": 7064,
      " దేశంలోని": 7065,
      " పెరుగుతున్న": 7066,
      " జట్టులో": 7067,
      " జైలుకు": 7068,
      " ఎదుర్కొంటున్న": 7069,
      " వేడుకలు": 7070,
      " లభిస్తుంది": 7071,
      "దిన": 7072,
      " పరంగా": 7073,
      " కత్తి": 7074,
      "లికేషన్": 7075,
      "నేయ": 7076,
      " శ్": 7077,
      " ముప్పు": 7078,
      "జులై": 7079,
      "ళ్లతో": 7080,
      "రేటర్": 7081,
      "ంబయి": 7082,
      "షియా": 7083,
      " ఉపయోగి": 7084,
      " సూచించింది": 7085,
      " ట్రాక్": 7086,
      " సస్పెండ్": 7087,
      "ంట్లు": 7088,
      "నమెంట్": 7089,
      " పోర్": 7090,
      " పెడు": 7091,
      " వాణి": 7092,
      "ాంపియన్": 7093,
      " పథకాల": 7094,
      " ఫాలో": 7095,
      " తనిఖీలు": 7096,
      " కెమెరా": 7097,
      "77": 7098,
      "ఇజ్రాయెల్": 7099,
      "ఎవర": 7100,
      "టల్స్": 7101,
      "లార్": 7102,
      "‌లకు": 7103,
      " ఇష్టం": 7104,
      "ార్హం": 7105,
      " మాల్": 7106,
      " సమర్థ": 7107,
      " దాటి": 7108,
      " కారణమని": 7109,
      "యువ": 7110,
      "పెట్టు": 7111,
      "జనవరి": 7112,
      " ఫ్లో": 7113,
      " గాయాల": 7114,
      "re": 7115,
      "వత్": 7116,
      " సప్": 7117,
      " గమన": 7118,
      "ండెంట్": 7119,
      " ఏటా": 7120,
      " కోట": 7121,
      " వచ్చాక": 7122,
      " చూసే": 7123,
      " స్థలానికి": 7124,
      " డిజిటల్": 7125,
      " భాగం": 7126,
      " జనతా": 7127,
      " సూచనలు": 7128,
      " డాక్యు": 7129,
      " టికెట్లు": 7130,
      " కిలోల": 7131,
      " బాధితులు": 7132,
      "ری": 7133,
      " లడ్డూ": 7134,
      "ికొ": 7135,
      " కొడ": 7136,
      " ముర": 7137,
      "బాల్": 7138,
      "ాలుగా": 7139,
      " మాట్లాడి": 7140,
      " సంఘాల": 7141,
      " ఆలయం": 7142,
      " ఉద్యోగులకు": 7143,
      " విక్రయ": 7144,
      " ఫార్మా": 7145,
      " స్కీమ్": 7146,
      " మ్యూజిక్": 7147,
      " లైంగిక": 7148,
      "ھی": 7149,
      " పవిత్ర": 7150,
      "స్లా": 7151,
      " వలన": 7152,
      " సగటు": 7153,
      " విరు": 7154,
      "వాదం": 7155,
      "వింగ్": 7156,
      " చెబుతున్నాయి": 7157,
      " నమ్ము": 7158,
      "లక్షల": 7159,
      " నిర్వహిస్తున్నారు": 7160,
      " ఫలితాలను": 7161,
      " జైలులో": 7162,
      "తిరుమల": 7163,
      " ఫేక్": 7164,
      " వేధింపు": 7165,
      " ఆసియా": 7166,
      " గృహ": 7167,
      "వాస్త": 7168,
      " లలో": 7169,
      "స్తం": 7170,
      "కాని": 7171,
      "కానికి": 7172,
      " కోటా": 7173,
      "ంతోనే": 7174,
      " నాట": 7175,
      " టీఎస్": 7176,
      " సిద్దం": 7177,
      " ఇంజనీ": 7178,
      " నొప్పి": 7179,
      "అప్ప": 7180,
      "ఎలాంటి": 7181,
      "సౌ": 7182,
      " మన్": 7183,
      " ఇళ్లు": 7184,
      " సిక్": 7185,
      " కేసును": 7186,
      " కనిపిస్తున్నాయి": 7187,
      " స్వల్ప": 7188,
      " తీర్మానం": 7189,
      " అడిషనల్": 7190,
      " వయస్సు": 7191,
      " K": 7192,
      "పది": 7193,
      "ುತ್ತ": 7194,
      "స్కూ": 7195,
      " శంకు": 7196,
      " ఉన్నట్టు": 7197,
      " మార్గం": 7198,
      " సభకు": 7199,
      " నెలలు": 7200,
      " ఆఫీసు": 7201,
      "సీసీఐ": 7202,
      " ఆధారాలు": 7203,
      " అడుగుల": 7204,
      " తినడం": 7205,
      " మొత్తంలో": 7206,
      " గమనార్హం": 7207,
      "ఐఎం": 7208,
      "పక": 7209,
      "మల్": 7210,
      "ಂಬ": 7211,
      " అహ్మద్": 7212,
      "సిపి": 7213,
      "వుల్లో": 7214,
      " ఒలిం": 7215,
      " సీఎస్": 7216,
      "క్రో": 7217,
      " చింత": 7218,
      "చేయ": 7219,
      " జీవో": 7220,
      " నాయకుల": 7221,
      " సమయంలోనే": 7222,
      " బెది": 7223,
      " ఫోర్స్": 7224,
      " రాజకీయం": 7225,
      " దూర": 7226,
      " ఘటనలు": 7227,
      " ప్రియ": 7228,
      "పోర్ట్స్": 7229,
      " మనిషి": 7230,
      "తల్లి": 7231,
      "ించామని": 7232,
      " ఉందా": 7233,
      "వులకు": 7234,
      " పోషి": 7235,
      "కోవాల్సి": 7236,
      " పాప": 7237,
      "స్తున్నది": 7238,
      "ట్టం": 7239,
      "ించుకోవ": 7240,
      " అక్కడికి": 7241,
      " భవిష్యత్": 7242,
      " స్కోరు": 7243,
      " మెరుగైన": 7244,
      "43": 7245,
      "66": 7246,
      "ఎవరి": 7247,
      "ఐటీ": 7248,
      "మృ": 7249,
      " పత": 7250,
      " మంద": 7251,
      "ల్తా": 7252,
      "ించకుండా": 7253,
      " ఆశా": 7254,
      " ఎండీ": 7255,
      " విరమ": 7256,
      " ఫార": 7257,
      " కూర్చ": 7258,
      " మాస్": 7259,
      "ెస్ట": 7260,
      "వీఎం": 7261,
      " సాక్ష": 7262,
      " భాస్కర్": 7263,
      " గంటల్లో": 7264,
      " ఫోర్": 7265,
      " ఆధార్": 7266,
      " ప్రపంచవ్యాప్తంగా": 7267,
      " ఒప్పంద": 7268,
      "--": 7269,
      "ic": 7270,
      "హనం": 7271,
      " విగ్రహం": 7272,
      "నాల్": 7273,
      " తెలిసిన": 7274,
      " ఖండ": 7275,
      "పోయారని": 7276,
      " అంతే": 7277,
      "ంజర్": 7278,
      " భాగస్వామ": 7279,
      " ప్రభావి": 7280,
      " లైఫ్": 7281,
      " క్షమా": 7282,
      " నేతృత్వంలోని": 7283,
      " ఎప్పటికప్పుడు": 7284,
      "59": 7285,
      "ର୍": 7286,
      "సల్": 7287,
      " వరి": 7288,
      " బలం": 7289,
      " సీజ్": 7290,
      " గాజా": 7291,
      " నాశ": 7292,
      " రియల్": 7293,
      " మోడల్": 7294,
      " బిలియన్": 7295,
      " కాలంగా": 7296,
      " దీప": 7297,
      " ఎంపీలు": 7298,
      " గోడ": 7299,
      " అందుకే": 7300,
      " ఇద్దరి": 7301,
      " సూచిస్తున్నారు": 7302,
      "ప్రధాన": 7303,
      " సదుపాయ": 7304,
      " ଦ": 7305,
      "కథ": 7306,
      "తార": 7307,
      " కృష్ణా": 7308,
      "ంగో": 7309,
      " తీయ": 7310,
      " తెలిపిన": 7311,
      "కరించింది": 7312,
      " కలిసిన": 7313,
      "196": 7314,
      "పెళ్లి": 7315,
      " పెట్టుకుని": 7316,
      " జూలై": 7317,
      " వైఎస్ఆర్": 7318,
      " సాగుతోంది": 7319,
      " నిందితుడు": 7320,
      " సింగరేణి": 7321,
      " ರ": 7322,
      "ారంటే": 7323,
      "్ర్": 7324,
      " వు": 7325,
      " చక్ర": 7326,
      " దిల్లీ": 7327,
      "లాల్": 7328,
      " లూ": 7329,
      "ండన్": 7330,
      " కూరగాయ": 7331,
      "తాం": 7332,
      " లీక్": 7333,
      " పనులకు": 7334,
      " నిర్మాత": 7335,
      " యూనిట్": 7336,
      " ప్రకటనలో": 7337,
      " కై": 7338,
      " చేరే": 7339,
      " స్ఫ": 7340,
      " శం": 7341,
      " యొక్క": 7342,
      " అనుసర": 7343,
      " చంద్రశేఖర్": 7344,
      "ృష్టి": 7345,
      " బియ్యం": 7346,
      "ప్రతిని": 7347,
      "భూమి": 7348,
      " పదవికి": 7349,
      " గూగుల్": 7350,
      " ఆశ్చర్య": 7351,
      "దూ": 7352,
      "దశి": 7353,
      "వద్దని": 7354,
      " కట్": 7355,
      "న్నె": 7356,
      " నిరూ": 7357,
      " రాము": 7358,
      " డిపా": 7359,
      " మార్క్": 7360,
      " వీరు": 7361,
      " ఏర్పడి": 7362,
      " దేశానికి": 7363,
      " రుతు": 7364,
      " హామీలు": 7365,
      "వనగిరి": 7366,
      "చెన్నై": 7367,
      " క్వార్": 7368,
      "పాకిస్తాన్": 7369,
      " తొమ్మిది": 7370,
      "ab": 7371,
      "అతను": 7372,
      "దంతా": 7373,
      " సందే": 7374,
      " సత్తా": 7375,
      "తుందా": 7376,
      " గది": 7377,
      "ద్వారా": 7378,
      "కోట": 7379,
      "‌లోకి": 7380,
      " మొక్క": 7381,
      "శ్వాస": 7382,
      "కాలిక": 7383,
      " పేర్కొన్న": 7384,
      "భావం": 7385,
      " తీవ్రమైన": 7386,
      " ఆశీర్": 7387,
      " ہیں": 7388,
      " ధర్నా": 7389,
      " ఇంటెలిజెన్స్": 7390,
      "అంతేకాకుండా": 7391,
      " భోజనం": 7392,
      " యాజమాన్యం": 7393,
      " పిల్": 7394,
      "పిక్స్": 7395,
      "వీటిని": 7396,
      "స్థాన": 7397,
      " మార్గంలో": 7398,
      "చేసిన": 7399,
      " సోదాలు": 7400,
      " వెళ్ళ": 7401,
      "షింగ్": 7402,
      " ప్రారంభించిన": 7403,
      " సహకార": 7404,
      "పర్తి": 7405,
      " బాధితు": 7406,
      " ప్రతినిధులు": 7407,
      " జగదీ": 7408,
      " కోరింది": 7409,
      " పరామర్శ": 7410,
      " శంకుస్థా": 7411,
      " ప్రభావితం": 7412,
      " కలుపు": 7413,
      " అంట": 7414,
      " బదు": 7415,
      "మ్మా": 7416,
      "వుతుంది": 7417,
      " ఫైనా": 7418,
      " వైఖ": 7419,
      "క్కులు": 7420,
      " సమాచారాన్ని": 7421,
      " బీజేపీలో": 7422,
      " జాన్": 7423,
      " ప్రధానమంత్రి": 7424,
      " ఇద్దరూ": 7425,
      " చైర్": 7426,
      " శ్రీనివాస": 7427,
      " డెలివరీ": 7428,
      " గెలుపొ": 7429,
      " అధ్యక్షుడిగా": 7430,
      " కన్నడ": 7431,
      " ఆయుధ": 7432,
      " యూట్యూబ్": 7433,
      " ଅ": 7434,
      "52": 7435,
      "58": 7436,
      "600": 7437,
      "ol": 7438,
      "ధ్": 7439,
      " కబ్": 7440,
      " కన్నా": 7441,
      " తెరి": 7442,
      " పోర్ట్": 7443,
      " రివ్యూ": 7444,
      " ప్రభుత్వంపై": 7445,
      "ణాల్లో": 7446,
      "ర్యానా": 7447,
      " పాల్పడిన": 7448,
      " దూసు": 7449,
      " కనిపించడం": 7450,
      " రిజర్వ్": 7451,
      " క్రీడా": 7452,
      " ఏమిటి": 7453,
      " మేనేజ్": 7454,
      "మనే": 7455,
      " పార": 7456,
      " మిల్": 7457,
      " తహ": 7458,
      " చేస్తుందని": 7459,
      "రిక్ష": 7460,
      " జట్లు": 7461,
      " ఎంచ": 7462,
      " గజ": 7463,
      " చెన్న": 7464,
      " కూలీ": 7465,
      "పావళి": 7466,
      "కేసు": 7467,
      " రూరల్": 7468,
      " ఎన్నికలలో": 7469,
      " పుర": 7470,
      " సినిమాతో": 7471,
      " కలసి": 7472,
      " జరుగుతుందని": 7473,
      " సంచారం": 7474,
      " వృద్ధి": 7475,
      " లెక్కలు": 7476,
      " బ్రాండ్": 7477,
      "కొంతమంది": 7478,
      " విశ్లేష": 7479,
      " జ్ఞా": 7480,
      "ఏసీ": 7481,
      " అనంత": 7482,
      "ట్లతో": 7483,
      " సిద్దిపేట": 7484,
      " సమయానికి": 7485,
      "వీటిలో": 7486,
      "సాగర్": 7487,
      " టీజర్": 7488,
      " వర్కింగ్": 7489,
      " అనుభవ": 7490,
      " సెగ్": 7491,
      " గురయ్యారు": 7492,
      "కాలంగా": 7493,
      " బయటికి": 7494,
      " రంగారెడ్డి": 7495,
      " దొరక": 7496,
      " స్థానాలకు": 7497,
      " సహాయక": 7498,
      " ధర్మాస": 7499,
      " వివేకా": 7500,
      " వలస": 7501,
      " ఘోర": 7502,
      "‌సైట్": 7503,
      "బాయ్": 7504,
      "యాలను": 7505,
      "రించిన": 7506,
      "వారీ": 7507,
      "నిస్తాన్": 7508,
      " గార్": 7509,
      "పోతే": 7510,
      " డో": 7511,
      " పరిణా": 7512,
      " మార్చు": 7513,
      " ధన": 7514,
      " తోడు": 7515,
      " చంద్రబాబును": 7516,
      " అవుట్": 7517,
      " తప్పకుండా": 7518,
      "ంటున్నాయి": 7519,
      "ేశ్వరి": 7520,
      " కారులో": 7521,
      " రోడ్లు": 7522,
      " ఆసుపత్రిలో": 7523,
      " అత్యధికంగా": 7524,
      " గిరిజన": 7525,
      "బల": 7526,
      " కరు": 7527,
      "ందూ": 7528,
      " చేతులు": 7529,
      " ఉప్పు": 7530,
      " ఎగ": 7531,
      " లేవని": 7532,
      " బీమా": 7533,
      "ినాడ": 7534,
      " రేంజ్": 7535,
      "చర్ల": 7536,
      " ప్రముఖులు": 7537,
      " ప్రయోజనాలు": 7538,
      " దళిత": 7539,
      " నిలిపివే": 7540,
      "ag": 7541,
      "ఇంటి": 7542,
      " మంగళ": 7543,
      " స్త్రీ": 7544,
      " తిరస్": 7545,
      " ముందుగానే": 7546,
      " వచ్చినట్లు": 7547,
      "195": 7548,
      " లింక్": 7549,
      " అసెంబ్లీలో": 7550,
      " చేసుకోవడం": 7551,
      " సామాన్య": 7552,
      " కౌన్సిల్": 7553,
      " పడ్డారు": 7554,
      " ఊహించని": 7555,
      "56": 7556,
      "కరం": 7557,
      "గంగా": 7558,
      "చరణ": 7559,
      "థా": 7560,
      "దె": 7561,
      "ఫ్యా": 7562,
      "లసీమ": 7563,
      "సాయం": 7564,
      "ದಲ್ಲಿ": 7565,
      " చాలు": 7566,
      " స్మ": 7567,
      " కొండా": 7568,
      " కొట్టుకు": 7569,
      " సిరిసిల్ల": 7570,
      " పార్టీలకు": 7571,
      " ఖు": 7572,
      " కలిశారు": 7573,
      " పనితీరు": 7574,
      "వారిలో": 7575,
      " కీలకమైన": 7576,
      " సంగీ": 7577,
      "షేక్": 7578,
      " పోరాట": 7579,
      " ఆనంద్": 7580,
      " దృశ": 7581,
      "120": 7582,
      "అర": 7583,
      "ఇందుకు": 7584,
      "క్యా": 7585,
      " కండ": 7586,
      " నవీన్": 7587,
      "స్తరు": 7588,
      "ామో": 7589,
      " సంస్": 7590,
      " బాస్": 7591,
      "శాంతి": 7592,
      " అత్యు": 7593,
      " ట్వి": 7594,
      " స్టేడియంలో": 7595,
      " ఐదుగురు": 7596,
      " గేమ్": 7597,
      " బ్రహ్": 7598,
      " విషయాలను": 7599,
      " సునీల్": 7600,
      " స్టోరీ": 7601,
      " కానిస్టేబుల్": 7602,
      " D": 7603,
      "le": 7604,
      "ఈడీ": 7605,
      "భద్రా": 7606,
      " పాలి": 7607,
      " విల": 7608,
      " లొ": 7609,
      " కూలి": 7610,
      " లోపు": 7611,
      " ఒప్పు": 7612,
      "యింట్": 7613,
      " ప్రజల్లో": 7614,
      " వార్డు": 7615,
      " పనిచేసిన": 7616,
      " ఉత్తరా": 7617,
      " పిల్లలను": 7618,
      " గ్రూపు": 7619,
      " నడుపు": 7620,
      " లాభాలు": 7621,
      " చౌదరి": 7622,
      "రోధక": 7623,
      " నెటిజన్లు": 7624,
      " ತ": 7625,
      "టార్": 7626,
      "భం": 7627,
      "రద": 7628,
      " ఇంద్ర": 7629,
      " విలీ": 7630,
      " గీ": 7631,
      " కుక్క": 7632,
      "జీవ": 7633,
      "పిడీ": 7634,
      "ారాబాద్": 7635,
      "వరకూ": 7636,
      " తిప్ప": 7637,
      " లక్షణాలు": 7638,
      "ూరులో": 7639,
      " ఎదుట": 7640,
      " విభే": 7641,
      " సురేష్": 7642,
      " పెట్రోల్": 7643,
      " సర్టిఫికెట్": 7644,
      " విటమిన్": 7645,
      "51": 7646,
      "‌య": 7647,
      " వారా": 7648,
      "పైన": 7649,
      "పాఠ": 7650,
      " డౌన్": 7651,
      " ఒంటరి": 7652,
      "సేన్": 7653,
      " సమాచార": 7654,
      " హైడ్రా": 7655,
      " నెయ్యి": 7656,
      " ముగియ": 7657,
      " కాల్పులు": 7658,
      " దారుణంగా": 7659,
      " నివసి": 7660,
      " బ్రిడ్జి": 7661,
      " ନ": 7662,
      "\",": 7663,
      "పారు": 7664,
      "బంగ": 7665,
      "ేక": 7666,
      "న్నాయని": 7667,
      "గాయని": 7668,
      "నుమాన్": 7669,
      " బెస్ట్": 7670,
      " నకిలీ": 7671,
      "ేశారని": 7672,
      "విటీ": 7673,
      " కొరియా": 7674,
      " సిలి": 7675,
      " డైలా": 7676,
      "సైటీ": 7677,
      " కోల్పోయిన": 7678,
      " రహదారి": 7679,
      "సహ": 7680,
      " వారీగా": 7681,
      "కుంటున్నారు": 7682,
      " ఏండ్ల": 7683,
      " ఫౌ": 7684,
      " వెహ": 7685,
      " ములుగు": 7686,
      "లేం": 7687,
      " టీఎంసీ": 7688,
      " మార్చుకు": 7689,
      " అనుమానం": 7690,
      " మేయర్": 7691,
      " తీసుకుంటే": 7692,
      " ముఖ్యం": 7693,
      " డీజీపీ": 7694,
      " మండలి": 7695,
      " డేట్": 7696,
      " సీతక్క": 7697,
      " ವಿಡಿಯೋ": 7698,
      "ଛି": 7699,
      "ఎండీ": 7700,
      "క్రి": 7701,
      "క్వా": 7702,
      " ఉల్లి": 7703,
      " ఎల్ల": 7704,
      " నితీ": 7705,
      "పైనే": 7706,
      "వీరిలో": 7707,
      " నాన్": 7708,
      " తేలి": 7709,
      " ఉత్తమ": 7710,
      " అంశాలను": 7711,
      " గొంతు": 7712,
      " సరిగా": 7713,
      " న్యూజిలాండ్": 7714,
      " తరహాలో": 7715,
      " ఒడిశా": 7716,
      " ٹ": 7717,
      "ir": 7718,
      "لا": 7719,
      "చారానికి": 7720,
      "డబ్ల్యూ": 7721,
      "వనేశ్వ": 7722,
      " కృత": 7723,
      "ెంజ్": 7724,
      " ఏను": 7725,
      " సమగ్ర": 7726,
      " ప్రాతిని": 7727,
      "జిన్": 7728,
      " జీహెచ్": 7729,
      " మరికొన్ని": 7730,
      " తీవ్రత": 7731,
      " అంబా": 7732,
      " శుక్ర": 7733,
      " వినిపిస్తున్నాయి": 7734,
      " అలవాటు": 7735,
      " అసంతృప్తి": 7736,
      "వన్నీ": 7737,
      " కన్నీ": 7738,
      " వస్తున్నారు": 7739,
      " రానుంది": 7740,
      "పుర": 7741,
      " సిగ్": 7742,
      "పాత": 7743,
      " విషయానికి": 7744,
      "ట్లలో": 7745,
      " ఏర్పడ": 7746,
      " హైవే": 7747,
      " దర్శకత్వంలో": 7748,
      " చూడాలని": 7749,
      " చేసుకున్నాడు": 7750,
      " అప్లికేషన్": 7751,
      " వెళ్లేందుకు": 7752,
      " జయంతి": 7753,
      " మహబూబ్": 7754,
      "54": 7755,
      "57": 7756,
      "ఎక్స్": 7757,
      "షన": 7758,
      " కక్ష": 7759,
      " తుల": 7760,
      " రాయ్": 7761,
      " తెలంగాణకు": 7762,
      " కొత్తగూడెం": 7763,
      " వెల్లడి": 7764,
      " ఆందోళనకు": 7765,
      " ప్రజాస్వామ": 7766,
      " మారుతోంది": 7767,
      " ఇంటర్నేషనల్": 7768,
      " నిలిచారు": 7769,
      " అడిగి": 7770,
      " ఉచితంగా": 7771,
      "ఇప్పటివరకు": 7772,
      " ఆకర్ష": 7773,
      " సర్పంచ్": 7774,
      " బలహీన": 7775,
      " V": 7776,
      " ଭ": 7777,
      "250": 7778,
      "ఐదు": 7779,
      "వత్రిక": 7780,
      " ఇస్తున్నారు": 7781,
      " ఇయర్": 7782,
      " విజే": 7783,
      " ఏమైనా": 7784,
      " సోమ": 7785,
      " నిర్వహించాలని": 7786,
      " అందించిన": 7787,
      " టాటా": 7788,
      " వివాహ": 7789,
      " ఆదిలాబాద్": 7790,
      " మైదా": 7791,
      " ఫీచర్": 7792,
      " దీనిని": 7793,
      " శరీర": 7794,
      "మహబూ": 7795,
      " చెందారు": 7796,
      " ధాన్యం": 7797,
      " జరిపిన": 7798,
      "దాయ": 7799,
      "లెస్": 7800,
      "ొద్దు": 7801,
      " ఆరుగు": 7802,
      " కాంబ": 7803,
      "బాధి": 7804,
      "ులుగా": 7805,
      " ఒకసారి": 7806,
      " ఐక్య": 7807,
      "మెంట్స్": 7808,
      " నియమి": 7809,
      " స్పందించిన": 7810,
      " రాజీవ్": 7811,
      "పరచ": 7812,
      " ప్రాధాన్యం": 7813,
      " పారిశ్రామిక": 7814,
      " ఎక్కడా": 7815,
      " పరిశీలి": 7816,
      "ఇందుకోసం": 7817,
      "ఇంగ్": 7818,
      "ఎంత": 7819,
      "గతేడాది": 7820,
      " వడ": 7821,
      " చర్మ": 7822,
      "ల్దార్": 7823,
      "గాయ": 7824,
      "నుందని": 7825,
      "ంటారని": 7826,
      "దుర్": 7827,
      "విచార": 7828,
      "వీర్": 7829,
      " బాట": 7830,
      " రాష్ట్రాలకు": 7831,
      " పెట్టే": 7832,
      " మనసు": 7833,
      " తగ్గింది": 7834,
      " రీసె": 7835,
      " సౌత్": 7836,
      " విధాన": 7837,
      " కాపాడ": 7838,
      " కార్మికుల": 7839,
      " సీపీఐ": 7840,
      " జడ్జి": 7841,
      " అప్రమత్తంగా": 7842,
      "ళాఖా": 7843,
      " ధర్మాసనం": 7844,
      "ంథ": 7845,
      "ఎక్కువ": 7846,
      "‌పీ": 7847,
      "గాడు": 7848,
      " ఉండా": 7849,
      " ఇటు": 7850,
      "విదేశ": 7851,
      " వారితో": 7852,
      " కేంద్రంగా": 7853,
      " సహకర": 7854,
      " వ్యాఖ్యలపై": 7855,
      " డిగ్రీల": 7856,
      " కేటాయింపు": 7857,
      " రవీంద్ర": 7858,
      "di": 7859,
      "మత": 7860,
      "ుని": 7861,
      " కేశ": 7862,
      " అంజ": 7863,
      " సజ్జ": 7864,
      "నుల": 7865,
      "పురంలో": 7866,
      "....\n": 7867,
      " జాతర": 7868,
      " తెలుపు": 7869,
      " చర్చించారు": 7870,
      " విధించింది": 7871,
      " కిందట": 7872,
      " స్కోర్": 7873,
      " పండగ": 7874,
      " సెగ్మెంట్": 7875,
      " ହ": 7876,
      "ఒకే": 7877,
      " మంచు": 7878,
      " స్పి": 7879,
      " వేటు": 7880,
      " చేయడంలో": 7881,
      " చూస్తున్న": 7882,
      " పనిచేశారు": 7883,
      " కలవ": 7884,
      " సాధించి": 7885,
      "వోయి": 7886,
      " వైసీపీకి": 7887,
      " ఢిల్లీకి": 7888,
      " వాహనం": 7889,
      " ఆస్పత్రిలో": 7890,
      " ಪ್ರ": 7891,
      " సాధ్యం": 7892,
      " నిర్లక్ష్యం": 7893,
      " అబ్దు": 7894,
      " కడుపు": 7895,
      " కన్ను": 7896,
      " కోటి": 7897,
      " వెలి": 7898,
      " రాజశేఖర్": 7899,
      " ఇచ్చాడు": 7900,
      " రైళ్లు": 7901,
      " సంఘాలు": 7902,
      " ప్రభుత్వాలు": 7903,
      "క్కింది": 7904,
      " చనిపోయారు": 7905,
      " బొమ్మ": 7906,
      " టెలి": 7907,
      " చరిత్రలో": 7908,
      " వ్యూహ": 7909,
      " చెప్తున్నారు": 7910,
      " అన్యాయం": 7911,
      "జామున": 7912,
      "‌\n": 7913,
      "న్నట్లు": 7914,
      " ప్రగతి": 7915,
      " బ్యూటీ": 7916,
      " పోల్": 7917,
      " వర్గానికి": 7918,
      " మెసేజ్": 7919,
      " పొర": 7920,
      " పొన్నం": 7921,
      " నేతలను": 7922,
      " జాబ్": 7923,
      "గోదావరి": 7924,
      "ించుకునే": 7925,
      "ించుకునేందుకు": 7926,
      "మైందని": 7927,
      " చోరీ": 7928,
      " చేసుకొని": 7929,
      "ల్సిందే": 7930,
      " రికార్": 7931,
      " తలెత్త": 7932,
      "ప్రతిపక్ష": 7933,
      " హత్యకు": 7934,
      " ఎవరికీ": 7935,
      " శరీరంలో": 7936,
      "‌కతా": 7937,
      "ai": 7938,
      "ఒక్కో": 7939,
      " రాఘ": 7940,
      " వెల్లు": 7941,
      " పేట": 7942,
      "కోవడంతో": 7943,
      " తమను": 7944,
      " చేస్తున్నాడు": 7945,
      " సమావేశానికి": 7946,
      " అందించే": 7947,
      " దేవి": 7948,
      " వ్యవస్థను": 7949,
      " చేయాల్సిన": 7950,
      " ಇ": 7951,
      "78": 7952,
      "st": 7953,
      "ତି": 7954,
      "చర్లు": 7955,
      "తక": 7956,
      "భక్": 7957,
      "రష్యా": 7958,
      "వంద": 7959,
      "ికీ": 7960,
      " డొ": 7961,
      "గిలిన": 7962,
      "వరద": 7963,
      " చేస్తాయి": 7964,
      "ానన్నారు": 7965,
      "ోర్స్": 7966,
      "ఫాబాద్": 7967,
      " మల్లికార్": 7968,
      " క్షమాపణ": 7969,
      "మహా": 7970,
      "నియ": 7971,
      " బస": 7972,
      "ప్టర్": 7973,
      "వాదాలు": 7974,
      "రాబోయే": 7975,
      " లేటెస్ట్": 7976,
      " చేయలేదని": 7977,
      " వాళ్లకు": 7978,
      " వాట్సాప్": 7979,
      " టెన్షన్": 7980,
      " గాయాలు": 7981,
      "సానికి": 7982,
      " వర్తి": 7983,
      " దిగి": 7984,
      " పట్టించుకోవడం": 7985,
      " వెనక": 7986,
      " దారితీ": 7987,
      " ఇందిరా": 7988,
      " బలోపేతం": 7989,
      " అనూ": 7990,
      " విరుద్ధ": 7991,
      "కాల్": 7992,
      " సివిల్": 7993,
      " చూస్తున్నారు": 7994,
      " చేసినట్టు": 7995,
      " అతనికి": 7996,
      " రంగం": 7997,
      " హామీలను": 7998,
      " టన్నుల": 7999,
      "\".\"\n": 8000,
      " పొలిటికల్": 8001,
      " పరిణామాలు": 8002,
      " L": 8003,
      " چ": 8004,
      " ఝ": 8005,
      "un": 8006,
      "కనీ": 8007,
      "గూ": 8008,
      "ీప్": 8009,
      " జపాన్": 8010,
      " కామె": 8011,
      "లేదా": 8012,
      "ఆర్టీసీ": 8013,
      " వాల్": 8014,
      " దాకా": 8015,
      " క్లీ": 8016,
      "ించుకోవాలని": 8017,
      " లీకేజీ": 8018,
      " చేపట్టాలని": 8019,
      " కథనం": 8020,
      " తెలుసుకున్నారు": 8021,
      " బైడెన్": 8022,
      " నాగార్జున": 8023,
      " పౌర": 8024,
      " శాసనసభ": 8025,
      " వినోద్": 8026,
      "విచారణ": 8027,
      "um": 8028,
      "తమ్": 8029,
      "బౌ": 8030,
      "సెంట్": 8031,
      " సపోర్ట్": 8032,
      "గాలి": 8033,
      " స్పా": 8034,
      "కాడ": 8035,
      " సంస్కృతి": 8036,
      "ప్రభా": 8037,
      " వేసు": 8038,
      "మెన్స్": 8039,
      " సాఫ్ట్": 8040,
      " రాష్ట్రవ్యాప్తంగా": 8041,
      " ధృ": 8042,
      "చేందుకు": 8043,
      " యాక్ట్": 8044,
      "వేశారు": 8045,
      "బియా": 8046,
      " టైంలో": 8047,
      " ప్రజాప్రతిని": 8048,
      " నిందితులు": 8049,
      " కస్టమర్": 8050,
      " షిప్": 8051,
      " మేనేజర్": 8052,
      " బస్సులు": 8053,
      " ప్రభావంతో": 8054,
      " సీఎంగా": 8055,
      " యోగ": 8056,
      "కాయి": 8057,
      "ఘటన": 8058,
      "టూ": 8059,
      " సమితి": 8060,
      "తులపై": 8061,
      "ంతంగా": 8062,
      " కొడు": 8063,
      " మానే": 8064,
      " డయా": 8065,
      "డీఏ": 8066,
      "మెద": 8067,
      " డిఫ": 8068,
      " ఇచ్చేందుకు": 8069,
      " సినిమాల్లో": 8070,
      " సహకారం": 8071,
      "ఫిబ్రవరి": 8072,
      " న్యాయమూర్తి": 8073,
      " గ్యాంగ్": 8074,
      " గ్లోబల్": 8075,
      " అనుభవం": 8076,
      " యజమాని": 8077,
      "గ్యం": 8078,
      "టార": 8079,
      "పని": 8080,
      "లవ": 8081,
      "ాలూ": 8082,
      " తెచ్చి": 8083,
      " సిట్": 8084,
      "త్రు": 8085,
      "సాం": 8086,
      " పురో": 8087,
      " మధ్యప్రదేశ్": 8088,
      "తనను": 8089,
      "సైజ్": 8090,
      " స్థాయికి": 8091,
      " భూముల": 8092,
      " స్థిర": 8093,
      " గ్లా": 8094,
      " ఖాతాలో": 8095,
      " విభజన": 8096,
      "పెట్టింది": 8097,
      " ఉపాధ్యాయ": 8098,
      "పిన": 8099,
      "శై": 8100,
      "శాయి": 8101,
      "‌త": 8102,
      "‌థ": 8103,
      "లోగా": 8104,
      " సన్న": 8105,
      "న్నత": 8106,
      " రన్": 8107,
      "ాలె": 8108,
      "ప్లే": 8109,
      " ఎఫ": 8110,
      " స్వాత": 8111,
      " లక్": 8112,
      " మోస్తరు": 8113,
      " ఐఏఎస్": 8114,
      " స్పేస్": 8115,
      " కేంద్రానికి": 8116,
      " బిఆర్ఎస్": 8117,
      "కెళ్ల": 8118,
      " కెసిఆర్": 8119,
      " మంచిర్యాల": 8120,
      " లింగ": 8121,
      " సరిగ్గా": 8122,
      "గాలని": 8123,
      " థ్రి": 8124,
      " ముగిసింది": 8125,
      " కష్టాలు": 8126,
      " నిలిచిన": 8127,
      " గుండెపోటు": 8128,
      " రెస్టార": 8129,
      " స్టూడెంట్": 8130,
      " స్ట్రీ": 8131,
      " అవినాష్": 8132,
      "ెడిట్": 8133,
      "అన": 8134,
      "అమ్మ": 8135,
      "శాలలో": 8136,
      "ವನ್ನು": 8137,
      "ಿಗೆ": 8138,
      " ఎలి": 8139,
      "డ్చల్": 8140,
      " స్ట్రా": 8141,
      "కోండి": 8142,
      " మెడ": 8143,
      " తాత్": 8144,
      "మూరి": 8145,
      " యువకులు": 8146,
      " సంవత్సరాలు": 8147,
      " వస్తువులు": 8148,
      " ఆసక్తికర": 8149,
      " ఎగ్జా": 8150,
      " దారుణ": 8151,
      " మొత్తాన్ని": 8152,
      " చిత్రాన్ని": 8153,
      " یہ": 8154,
      "టేషన్": 8155,
      "పడా": 8156,
      "శరీ": 8157,
      "ೈರ": 8158,
      "కునేందుకు": 8159,
      " ఆయిల్": 8160,
      "సిఫాబాద్": 8161,
      " తీసే": 8162,
      "ఆర్ఆర్": 8163,
      " టూ": 8164,
      " టూర్": 8165,
      "మోడీ": 8166,
      " ఇచ్చారని": 8167,
      " పురస్": 8168,
      " ప్ల": 8169,
      " అతన్ని": 8170,
      "పెట్టే": 8171,
      " పరిస్థితిని": 8172,
      " స్టార్ట్": 8173,
      " రామచంద్ర": 8174,
      " వైద్యం": 8175,
      "తరువాత": 8176,
      " ఆరోగ్యానికి": 8177,
      " అదనంగా": 8178,
      " ಜ": 8179,
      "ఆరు": 8180,
      "టల": 8181,
      "టమే": 8182,
      " చారి": 8183,
      " అండర్": 8184,
      " ఇవ్": 8185,
      "టికీ": 8186,
      " చెత్త": 8187,
      "మిగతా": 8188,
      " మామిడి": 8189,
      " తనపై": 8190,
      " పైకి": 8191,
      " కేసుల్లో": 8192,
      " పెట్టడం": 8193,
      "పల్లిలో": 8194,
      " పదో": 8195,
      "త్వానికి": 8196,
      " నాలుగే": 8197,
      " సందేశ": 8198,
      " లాభం": 8199,
      " చక్కెర": 8200,
      " మునిగి": 8201,
      " శాస్త్రవేత్తలు": 8202,
      "జంలో": 8203,
      "జాయ్": 8204,
      "డార్": 8205,
      "‌స": 8206,
      " కీర్": 8207,
      " ఆడిన": 8208,
      " బెల్": 8209,
      "ప్లా": 8210,
      " ఎత్త": 8211,
      " నిధుల": 8212,
      " స్వే": 8213,
      " లారీ": 8214,
      "బ్బా": 8215,
      "జేషన్": 8216,
      "టాన్": 8217,
      " పింఛ": 8218,
      " దగ్గరకు": 8219,
      " క్రిమిన": 8220,
      " దోపిడీ": 8221,
      " ప్రీమి": 8222,
      " రాజేందర్": 8223,
      " అవకాశముందని": 8224,
      "68": 8225,
      "జెన్సీ": 8226,
      "దండ": 8227,
      "లెక్స్": 8228,
      "‌స్టా": 8229,
      "నివ్వ": 8230,
      "ందట": 8231,
      "ంచెం": 8232,
      " బంగా": 8233,
      " బాలా": 8234,
      " ఎడి": 8235,
      " ఇప్ప": 8236,
      " నిత్యం": 8237,
      " వెను": 8238,
      "ారిస్": 8239,
      "ప్రముఖ": 8240,
      " వేసే": 8241,
      " ధన్య": 8242,
      " కేంద్రంలోని": 8243,
      " పెద్దలు": 8244,
      "మయ్యే": 8245,
      " నిర్మించారు": 8246,
      "మొదట": 8247,
      " అప్పులు": 8248,
      " నిబంధనలు": 8249,
      " కురుస్తాయని": 8250,
      " భవనం": 8251,
      " సోదరుడు": 8252,
      "72": 8253,
      "ఆల": 8254,
      "కత": 8255,
      "జ్య": 8256,
      "లవరం": 8257,
      " పటి": 8258,
      " కండు": 8259,
      " చర్చి": 8260,
      " బల్": 8261,
      " విక": 8262,
      " గరి": 8263,
      "నాగ": 8264,
      "లేషన్": 8265,
      "ఎస్టీ": 8266,
      "ండ్లను": 8267,
      "చింగ్": 8268,
      " మెరుపు": 8269,
      " పొందే": 8270,
      " జీవన": 8271,
      " చెబుతారు": 8272,
      " సైన్": 8273,
      "194": 8274,
      " నెలకు": 8275,
      " పనిచేయ": 8276,
      " పొందుతారు": 8277,
      " అరుదైన": 8278,
      " టేబుల్": 8279,
      " పండితులు": 8280,
      "ೈರಲ್": 8281,
      "ند": 8282,
      "కారానికి": 8283,
      "షాలు": 8284,
      " మహ్మద్": 8285,
      " ఆస్తులు": 8286,
      " మాస": 8287,
      " పాండ": 8288,
      " వేలకు": 8289,
      " పెడితే": 8290,
      "సంస్థ": 8291,
      "మేము": 8292,
      " తెలుసా": 8293,
      " కావాలి": 8294,
      "మూల": 8295,
      " ఊర": 8296,
      " నగరం": 8297,
      " లుక్": 8298,
      " సొసైటీ": 8299,
      " న్యాయస్థానం": 8300,
      " సందీప్": 8301,
      " దోచుకు": 8302,
      "ట్యూట్": 8303,
      "నిజామాబాద్": 8304,
      " నినాదాలు": 8305,
      " రాజమండ్రి": 8306,
      " నాశనం": 8307,
      " శంకుస్థాపన": 8308,
      "కట్": 8309,
      "సవి": 8310,
      "సముద్ర": 8311,
      "ాంగ": 8312,
      "స్వీ": 8313,
      " కష్టం": 8314,
      " సరికా": 8315,
      "ముందే": 8316,
      " చిన్నారు": 8317,
      " సినిమాపై": 8318,
      " ప్రారంభించింది": 8319,
      " సమస్యను": 8320,
      " అందించాలని": 8321,
      " దాడిలో": 8322,
      " సొమ్ము": 8323,
      " రాశిలో": 8324,
      " భావించారు": 8325,
      " భూములను": 8326,
      " అంబటి": 8327,
      " ఎన్డీఏ": 8328,
      "తమిళనాడు": 8329,
      " టర్": 8330,
      "ఫే": 8331,
      " తార": 8332,
      "లిన్": 8333,
      "రానున్న": 8334,
      "వివిధ": 8335,
      " చేయాలనే": 8336,
      " టెం": 8337,
      "వరల్డ్": 8338,
      "బీర్": 8339,
      " చేస్తాం": 8340,
      " చంద్రుడి": 8341,
      " కలగ": 8342,
      " ఇవ్వలేదు": 8343,
      " స్వతంత్ర": 8344,
      " సేవలను": 8345,
      " వ్యాపారం": 8346,
      " పర్యటనలో": 8347,
      " కంటెంట్": 8348,
      " హుస్": 8349,
      " మినహ": 8350,
      " అయ్యాడు": 8351,
      " నిలదీశారు": 8352,
      " సదస్సు": 8353,
      " మంచ": 8354,
      " సంతా": 8355,
      "ించండి": 8356,
      " బంద్": 8357,
      " గూడ": 8358,
      "ష్ప": 8359,
      "కాన్": 8360,
      "కామారెడ్డి": 8361,
      " కోర": 8362,
      " ముగ": 8363,
      " సైట్": 8364,
      " అమరావతి": 8365,
      " నెల్లూరు": 8366,
      "పడ్డాయి": 8367,
      "ఎన్నికల్లో": 8368,
      " విభాగంలో": 8369,
      " కల్పించాలని": 8370,
      " మనుష": 8371,
      " ట్రోఫీ": 8372,
      " వేర్వే": 8373,
      " E": 8374,
      "అయోధ్య": 8375,
      "డబ్బు": 8376,
      "దవ": 8377,
      " ఆప్షన్": 8378,
      " ఎస్టేట్": 8379,
      " ఇష": 8380,
      "టీవీ": 8381,
      "ల్లోని": 8382,
      " తీర": 8383,
      "‌లోనే": 8384,
      " తిరి": 8385,
      " ఆర్టి": 8386,
      " ఫోటోలు": 8387,
      " భువనగిరి": 8388,
      " ಮಾಡ": 8389,
      "ଙ୍": 8390,
      "పక్క": 8391,
      "సగా": 8392,
      "ృద": 8393,
      "ర్లకు": 8394,
      " చంపే": 8395,
      "మాత్రం": 8396,
      "సికింద్రాబాద్": 8397,
      " హౌ": 8398,
      "మిగిలిన": 8399,
      "పాన్ని": 8400,
      "షన్లు": 8401,
      "తున్నాడు": 8402,
      " వీటి": 8403,
      " జీవన్": 8404,
      " సైన్యం": 8405,
      " ఫిక్స్": 8406,
      " తప్పి": 8407,
      " అధ్యక్షులు": 8408,
      " మహే": 8409,
      " హెలికా": 8410,
      " పోలీసులను": 8411,
      "అంతర్": 8412,
      " వ్యాపారులు": 8413,
      " స్టేడియం": 8414,
      " బ్రిటన్": 8415,
      " ఆంక్షలు": 8416,
      "ఆస్ట్రేలియా": 8417,
      "క్రీ": 8418,
      "బార్": 8419,
      "ಿರು": 8420,
      " అథ": 8421,
      " తదుపరి": 8422,
      " రాసి": 8423,
      "రాము": 8424,
      " ఏసీ": 8425,
      " లోనూ": 8426,
      "హిందూ": 8427,
      " పనిలో": 8428,
      "త్తులో": 8429,
      " ప్రారంభోత్స": 8430,
      " ఏర్పాటుకు": 8431,
      " జరగనున్నాయి": 8432,
      " ఆర్థికంగా": 8433,
      " తయార": 8434,
      "న్సిపల్": 8435,
      " జేడీఎస్": 8436,
      " జుట్టు": 8437,
      "నిజానికి": 8438,
      " స్పందిస్తూ": 8439,
      " క్లాస్": 8440,
      "పడ్డాడు": 8441,
      " బ్యారేజీ": 8442,
      " లక్ష్మణ్": 8443,
      "చింది": 8444,
      "దంలో": 8445,
      " ఆక్": 8446,
      " ఆదర్శ": 8447,
      " బంతి": 8448,
      "ంటాడు": 8449,
      "ాయత్": 8450,
      " జాన": 8451,
      " స్పోర్ట్స్": 8452,
      "స్తారా": 8453,
      "నాథ": 8454,
      "లీట్": 8455,
      " బీసీసీఐ": 8456,
      " పార్టీలోకి": 8457,
      "ట్టుకున్న": 8458,
      " ఉంటున్నారు": 8459,
      " అంతరిక్ష": 8460,
      " పీఎస్": 8461,
      "ించుకొని": 8462,
      " బయటపడ": 8463,
      "భారతీయ": 8464,
      " విస్తరణ": 8465,
      "సాయంత్రం": 8466,
      " కుంభకో": 8467,
      " కబ్జా": 8468,
      "ంఠ": 8469,
      "లూరు": 8470,
      "‌ప": 8471,
      " పవార్": 8472,
      "ంటినీ": 8473,
      "ార్జి": 8474,
      " విడా": 8475,
      " గమని": 8476,
      "తోన్న": 8477,
      "రోడ్డు": 8478,
      "దేవ": 8479,
      "డేజా": 8480,
      " అతడి": 8481,
      " గోల్": 8482,
      " విడుదలైన": 8483,
      " వేయాలని": 8484,
      " నిర్వహిస్తున్న": 8485,
      " నిర్వహిస్తారు": 8486,
      " నమోదైన": 8487,
      " శరీరం": 8488,
      " ఉద్దేశించి": 8489,
      " కళాశాల": 8490,
      " రెస్పా": 8491,
      " సెకండ్": 8492,
      "କୁ": 8493,
      "సెన్": 8494,
      "⁬ను": 8495,
      " పనికి": 8496,
      " అబ్బ": 8497,
      " త్యా": 8498,
      " గడ్డ": 8499,
      "లాడు": 8500,
      " వేలాది": 8501,
      " సీన్": 8502,
      "ంబి": 8503,
      " తానే": 8504,
      " సమస్యలపై": 8505,
      "పూర్ణ": 8506,
      " ఫిర్యాదులు": 8507,
      "పాలపల్లి": 8508,
      " అమెరికాలో": 8509,
      " హక్కుల": 8510,
      " ప్రయోజనం": 8511,
      " గిరిజ": 8512,
      " మృతదేహాన్ని": 8513,
      " జరప": 8514,
      " ప్రోత్సహ": 8515,
      "దక్షిణ": 8516,
      "డవు": 8517,
      "డ్యు": 8518,
      "పించే": 8519,
      "సెల్": 8520,
      "ುದ": 8521,
      "‌:": 8522,
      " వో": 8523,
      " అజయ్": 8524,
      " సల్": 8525,
      " ప్రార్థ": 8526,
      "లాట": 8527,
      "క్కీ": 8528,
      " నిర్ధార": 8529,
      "ెక్కు": 8530,
      " ప్రతికూల": 8531,
      " నిర్ణయాన్ని": 8532,
      " ఫోర్లు": 8533,
      " పాల్గొని": 8534,
      " పెరుగుతోంది": 8535,
      " చిత్రంలో": 8536,
      " ఆలోచి": 8537,
      " తీరుపై": 8538,
      " కోరిన": 8539,
      "పార్లమెంట్": 8540,
      "‌..\n": 8541,
      "స్మా": 8542,
      " సృష్టి": 8543,
      " దయా": 8544,
      "ష్టి": 8545,
      " వాటికి": 8546,
      "వీర": 8547,
      " టూరి": 8548,
      "ండ్లుగా": 8549,
      " కింగ్స్": 8550,
      "్యూటర్": 8551,
      " సుధా": 8552,
      " చేస్తామన్నారు": 8553,
      " కేసుల": 8554,
      " లావా": 8555,
      "కెప్టెన్": 8556,
      " ఉపశ": 8557,
      " గ్రామీణ": 8558,
      " ఊపిరి": 8559,
      " వార్తా": 8560,
      " ఆలస్యం": 8561,
      " అప్పట్లో": 8562,
      " కర్ణాటకలో": 8563,
      "ing": 8564,
      " పేదలకు": 8565,
      " నెరవేర్చ": 8566,
      " సిస్టమ్": 8567,
      "69": 8568,
      "వాలో": 8569,
      " స్వి": 8570,
      " స్కిల్": 8571,
      " పోయి": 8572,
      " వేరు": 8573,
      " తెలిపాడు": 8574,
      " ఓటే": 8575,
      " సాగి": 8576,
      "మీద": 8577,
      " బిజీగా": 8578,
      " తుమ్మల": 8579,
      " పత్రిక": 8580,
      " తీసుకెళ్లారు": 8581,
      " నిషేధం": 8582,
      " ఆస్తి": 8583,
      " భిన్నంగా": 8584,
      " కృతజ్ఞ": 8585,
      "ఇండి": 8586,
      "తిన": 8587,
      "‌ನ": 8588,
      " అచ్చ": 8589,
      "ారుల": 8590,
      " ప్రయో": 8591,
      " దౌ": 8592,
      "నామ": 8593,
      " ఈవో": 8594,
      " చేశాం": 8595,
      " నేల": 8596,
      " స్థలం": 8597,
      " దేశాలకు": 8598,
      " ట్రెండ్": 8599,
      " నిర్వహించనున్నారు": 8600,
      " శిశు": 8601,
      " వచ్చినప్పుడు": 8602,
      " ఉంటారని": 8603,
      " కుటుంబంలో": 8604,
      " వివాదా": 8605,
      "విధంగా": 8606,
      " విధానాన్ని": 8607,
      " జీవితాన్ని": 8608,
      " దక్షిణాఫ్రికా": 8609,
      " యోగం": 8610,
      "కరోనా": 8611,
      "వాలను": 8612,
      " పాలకు": 8613,
      " అఫ్": 8614,
      " తినే": 8615,
      " ఇతరు": 8616,
      "టీఎస్": 8617,
      "క్షా": 8618,
      "పోతాయి": 8619,
      " ప్రాంతాలు": 8620,
      "త్తుగా": 8621,
      " కల్తీ": 8622,
      " పెట్టాలని": 8623,
      " ఒక్కరూ": 8624,
      " మహేశ్": 8625,
      "మూడో": 8626,
      " అర్బన్": 8627,
      " ప్రత్యేకమైన": 8628,
      " ఆశలు": 8629,
      " ఫోన్లు": 8630,
      " మండలంలో": 8631,
      " పునరుద్ధ": 8632,
      "లక్ష్మీ": 8633,
      " విపరీతంగా": 8634,
      " రీసెర్చ్": 8635,
      " ह": 8636,
      "ur": 8637,
      "తలను": 8638,
      "హీరో": 8639,
      "‌నాథ్": 8640,
      " అఖి": 8641,
      " ఆరం": 8642,
      " నంది": 8643,
      "సిద్ధ": 8644,
      "నాటి": 8645,
      " గులా": 8646,
      "దేవీ": 8647,
      " దానం": 8648,
      " మొగ్గు": 8649,
      "బీఆర్": 8650,
      " రిటర్": 8651,
      "వైసీ": 8652,
      " హాస్టల్": 8653,
      " బెంచ్": 8654,
      " శివారు": 8655,
      " ఆధిక": 8656,
      " గ్రామాల": 8657,
      "రోజుల": 8658,
      " ప్రధానంగా": 8659,
      " జైల్లో": 8660,
      "రికన్": 8661,
      "ైర్యం": 8662,
      " అడిగిన": 8663,
      " గెలిచారు": 8664,
      "ప్రమాదం": 8665,
      " బతుకమ్మ": 8666,
      " నిధులను": 8667,
      "ప్రత్యేక": 8668,
      "\".\n": 8669,
      "అయిన": 8670,
      "దించారు": 8671,
      "ఫైన": 8672,
      "ష్యం": 8673,
      "‌ట్లు": 8674,
      " ఇస్తారు": 8675,
      " ఇండ్ల": 8676,
      " రాణ": 8677,
      " లోకేశ్": 8678,
      "ప్రయా": 8679,
      "డంపై": 8680,
      "ల్లంపల్లి": 8681,
      " చెప్పినట్లు": 8682,
      "వర్క్": 8683,
      "వర్గం": 8684,
      "దేశవ్యాప్తంగా": 8685,
      "ట్టుకో": 8686,
      "కరకాల": 8687,
      " ప్రతిష్టా": 8688,
      "ఫీస్": 8689,
      " ఒక్కొక్క": 8690,
      " దూకుడు": 8691,
      "దీనిని": 8692,
      " వార్నింగ్": 8693,
      " సరికొత్త": 8694,
      "ళ్ళీ": 8695,
      " పత్రాలు": 8696,
      " Re": 8697,
      " కన్వీ": 8698,
      " ఆయన్ను": 8699,
      " దంపతులు": 8700,
      " గౌరవం": 8701,
      "ందరగో": 8702,
      " ఉగ్రవా": 8703,
      " విరుచుకు": 8704,
      " p": 8705,
      "64": 8706,
      "శక్తి": 8707,
      " అద్దె": 8708,
      " చేస్తోందని": 8709,
      " ద్": 8710,
      " నిమ": 8711,
      "విష": 8712,
      "మేజ్": 8713,
      " ఖచ్చితంగా": 8714,
      " పొగ": 8715,
      " ప్రారంభమైన": 8716,
      "శిక్": 8717,
      " సభ్యులతో": 8718,
      " విచారణను": 8719,
      " ఉత్తమ్": 8720,
      " కర్నాటక": 8721,
      " ఉపయోగించి": 8722,
      " సిద్దరామయ్య": 8723,
      "త్యామ్": 8724,
      " సురేఖ": 8725,
      " శ్రేణులు": 8726,
      " సంగీతం": 8727,
      "67": 8728,
      "కమైన": 8729,
      "హత": 8730,
      "హూర్": 8731,
      " వదులు": 8732,
      " అనర్": 8733,
      " సగం": 8734,
      "క్టు": 8735,
      " కావాల్సిన": 8736,
      " కాళేశ్వరం": 8737,
      " పోయ": 8738,
      "కేరళ": 8739,
      " చేయడమే": 8740,
      " గాను": 8741,
      " దాట": 8742,
      " శాతానికి": 8743,
      "తేజ": 8744,
      " మరికొందరు": 8745,
      " పలుకు": 8746,
      " భాగంగానే": 8747,
      "ఆయనకు": 8748,
      " అన్నది": 8749,
      " చైతన్య": 8750,
      " తుఫ": 8751,
      " నాగేశ్వరరావు": 8752,
      " లబ్ది": 8753,
      " అధిష్టా": 8754,
      " ఎన్డీయే": 8755,
      " హెచ్చరికలు": 8756,
      " ప్రశంసలు": 8757,
      " భూకంపం": 8758,
      " ఎలక్షన్": 8759,
      " *": 8760,
      "را": 8761,
      "نگ": 8762,
      "ంపి": 8763,
      " అప్పుడు": 8764,
      " ఎందు": 8765,
      " విత్త": 8766,
      "దాబాద్": 8767,
      "గింపు": 8768,
      "వీడియో": 8769,
      " ఓట": 8770,
      " పేర్": 8771,
      " నాన్న": 8772,
      " సుదీర్ఘ": 8773,
      " ప్రారంభమైంది": 8774,
      "ఢిల్లీలో": 8775,
      " మండలాల్లో": 8776,
      " సిద్ధరామయ్య": 8777,
      " వారే": 8778,
      "ఎన్టీఆర్": 8779,
      "చిత్ర": 8780,
      " కేటాయించారు": 8781,
      " వ్యతిరేకత": 8782,
      " ఆహ్వానించ": 8783,
      "రిగేషన్": 8784,
      "800": 8785,
      "ఇంటర్": 8786,
      "టాలీవుడ్": 8787,
      "‌.\n": 8788,
      "‌స్": 8789,
      " మిల్ల": 8790,
      " తూ": 8791,
      " జట్ల": 8792,
      " నిదర్శ": 8793,
      "గుజరాత్": 8794,
      " పోల్స్": 8795,
      " లోతు": 8796,
      "ామంటూ": 8797,
      " లేకపోతే": 8798,
      " అనుమానాలు": 8799,
      " సెన్": 8800,
      " మాట్లాడే": 8801,
      " మిలి": 8802,
      " ప్రారంభించ": 8803,
      " చేపట్టింది": 8804,
      " వ్యక్తికి": 8805,
      " వెళ్లింది": 8806,
      " జట్టును": 8807,
      " వికెట్ల": 8808,
      " పరిశీలించి": 8809,
      " పర్సన్": 8810,
      " సంక్షేమం": 8811,
      " పరిమిత": 8812,
      " మనోజ్": 8813,
      " ح": 8814,
      ".c": 8815,
      "av": 8816,
      "ଡି": 8817,
      "ఆన్": 8818,
      "క్యం": 8819,
      " సత్": 8820,
      " నింప": 8821,
      "డాడు": 8822,
      " లెక్కి": 8823,
      "పీసీ": 8824,
      " వెయ్యి": 8825,
      "కోల్": 8826,
      " కుమార": 8827,
      " వేముల": 8828,
      "వర్తి": 8829,
      " కార్యా": 8830,
      "వరూ": 8831,
      "సామా": 8832,
      "ుకుంది": 8833,
      " తరచూ": 8834,
      "స్టేషన్": 8835,
      " రూపాయి": 8836,
      "పూర్తి": 8837,
      " డీఎం": 8838,
      " క్యాంప": 8839,
      " పదవీ": 8840,
      " కంపెనీల": 8841,
      " వ్యతిరేకి": 8842,
      "షాబాద్": 8843,
      "భవార్": 8844,
      " భువనేశ్వ": 8845,
      "అనేక": 8846,
      " మౌలిక": 8847,
      " రాజేంద్ర": 8848,
      "వినియోగం": 8849,
      " ఇంటర్వ్యూలో": 8850,
      " తెల్లవారుజామున": 8851,
      "ew": 8852,
      "ఇద్దరు": 8853,
      "కట్ట": 8854,
      "నొ": 8855,
      "నమి": 8856,
      "మూరు": 8857,
      "మధ్యాహ్నం": 8858,
      "ృతంగా": 8859,
      "క్వ": 8860,
      " బయో": 8861,
      " ఇందుకు": 8862,
      "ండటంతో": 8863,
      " హృద": 8864,
      "వును": 8865,
      "ద్దర్": 8866,
      " పేర్లను": 8867,
      " వైయస్": 8868,
      " రియా": 8869,
      " వీరికి": 8870,
      " సెర్చ్": 8871,
      "క్రమంగా": 8872,
      "కెళ్": 8873,
      " వర్షాల": 8874,
      " ఆదేశాల": 8875,
      " కౌంటింగ్": 8876,
      " అడ్డం": 8877,
      " జగిత్యాల": 8878,
      " బంధువులు": 8879,
      " କରି": 8880,
      " నిషేధ": 8881,
      " ఏకాదశి": 8882,
      " స్టీల్": 8883,
      " టు": 8884,
      "రమ్మ": 8885,
      " పన్న": 8886,
      " అలియా": 8887,
      " సవరణ": 8888,
      " ఆసీస్": 8889,
      " ఎనర్జీ": 8890,
      " దక్కు": 8891,
      " చెరు": 8892,
      " పోయింది": 8893,
      " మాధ": 8894,
      " పాటి": 8895,
      "ంటికి": 8896,
      "మెగా": 8897,
      " బ్యానర్": 8898,
      " అభ్యంతరం": 8899,
      " కల్వకు": 8900,
      "ంజనేయ": 8901,
      " జరగకుండా": 8902,
      " అత్యవసర": 8903,
      " చాట్": 8904,
      "కేంద్రం": 8905,
      " తీర్పును": 8906,
      " సిటీలో": 8907,
      " కీపర్": 8908,
      " ఖాయమని": 8909,
      "క్రాంతి": 8910,
      "షభ": 8911,
      "‌డం": 8912,
      " గందరగో": 8913,
      "ంగాన్ని": 8914,
      " ఈవీఎం": 8915,
      "కోలేదు": 8916,
      " కుదు": 8917,
      " పార్ట్": 8918,
      "గిరీ": 8919,
      "తున్నా": 8920,
      " పరిగ": 8921,
      "మేనని": 8922,
      "దేశంలోని": 8923,
      " కింగ్": 8924,
      "షియం": 8925,
      " అభ్యర్థులకు": 8926,
      " వర్షపాతం": 8927,
      " అంశాన్ని": 8928,
      " సభ్యులకు": 8929,
      " ای": 8930,
      " సిద్ధమవు": 8931,
      " ہم": 8932,
      " కొట్టే": 8933,
      " విదేశాంగ": 8934,
      "తిరుపతి": 8935,
      " పర్యావరణ": 8936,
      " అభినంద": 8937,
      " స్టూడెంట్స్": 8938,
      " ఆరోపిస్తున్నారు": 8939,
      " పిలుస్తారు": 8940,
      "అప్పట్లో": 8941,
      " సిలిండర్": 8942,
      "):": 8943,
      "53": 8944,
      "عو": 8945,
      "కడ": 8946,
      "ದೇ": 8947,
      " పర్మి": 8948,
      " మళ్ల": 8949,
      " గై": 8950,
      " శతాబ్": 8951,
      "పురి": 8952,
      "లకుండా": 8953,
      " ఫేస్": 8954,
      "పోలింగ్": 8955,
      " సిక్స్": 8956,
      "సాన్": 8957,
      " చూపించారు": 8958,
      " రాష్ట్రాలు": 8959,
      " రెజ్": 8960,
      " దొరుకు": 8961,
      " గ్రాండ్": 8962,
      "స్థానిక": 8963,
      " రిజర్వ": 8964,
      " సంతోష్": 8965,
      " పంటలు": 8966,
      " కమలా": 8967,
      " నైపుణ": 8968,
      " స్టాక్": 8969,
      "చోట్ల": 8970,
      " కాంట్రాక్టర్": 8971,
      " ఎలక్ట్రిక్": 8972,
      " సంచలనం": 8973,
      "ఎలా": 8974,
      "డ్రో": 8975,
      "దెబ్బ": 8976,
      "ఫరెన్స్": 8977,
      " పసి": 8978,
      "ర్వా": 8979,
      " కట్టి": 8980,
      " మస్క్": 8981,
      " రౌండ్": 8982,
      " బాయ్": 8983,
      "రిన": 8984,
      "సీల్దార్": 8985,
      " కొద్దీ": 8986,
      " ప్రాక్": 8987,
      " చూసేందుకు": 8988,
      " జీర్ణ": 8989,
      " చెబుతూ": 8990,
      " సైన్స్": 8991,
      " జరిగినట్లు": 8992,
      " పాలస్తీ": 8993,
      " గ్రామస్తులు": 8994,
      " నిర్మల్": 8995,
      " లక్ష్మి": 8996,
      "ముందుగా": 8997,
      " సార్వత్రిక": 8998,
      " ఒకేసారి": 8999,
      " పునరా": 9000,
      " ఉత్తరప్రదేశ్": 9001,
      " డాలర్లు": 9002,
      " చెల్లింపు": 9003,
      " నరసింహ": 9004,
      " ధన్యవాదాలు": 9005,
      " U": 9006,
      "ఇంట్లో": 9007,
      "ణాల": 9008,
      "థో": 9009,
      "ಾನ": 9010,
      "కుంటూ": 9011,
      "ంటె": 9012,
      " నెట్టి": 9013,
      "టీన్": 9014,
      " భారం": 9015,
      " కాద": 9016,
      " శ్రమ": 9017,
      "లీష్": 9018,
      " వెయి": 9019,
      "పోత": 9020,
      " శాశ్వ": 9021,
      " మధ్యంతర": 9022,
      " పోటీలో": 9023,
      "వెళ్ల": 9024,
      " విజయవంతంగా": 9025,
      " అందిస్తున్నారు": 9026,
      " బిల్లులు": 9027,
      " జాబితాను": 9028,
      " మల్లారెడ్డి": 9029,
      " విడిచి": 9030,
      " కిడ్నా": 9031,
      "رل": 9032,
      "ణిక": 9033,
      "బయ": 9034,
      "హ్రూ": 9035,
      " రెండి": 9036,
      "పీడ": 9037,
      "వుతున్నారు": 9038,
      " చెప్పడంతో": 9039,
      " రోల్": 9040,
      " చిత్తూరు": 9041,
      " వర్గాల్లో": 9042,
      " తేజ": 9043,
      " చంద్రయాన్": 9044,
      " అంతర": 9045,
      " వెళ్లడం": 9046,
      " విధించారు": 9047,
      " పదవులు": 9048,
      " శుభవార్": 9049,
      "సెన్స్": 9050,
      " కొనసాగుతున్నాయి": 9051,
      " తీర్చి": 9052,
      "ంప్లెక్స్": 9053,
      " ఫొటోలు": 9054,
      " సాధారణంగా": 9055,
      " ఉద్యమం": 9056,
      " నివస": 9057,
      " క్యారెక్టర్": 9058,
      " అభినందించ": 9059,
      " కాకినాడ": 9060,
      " అదృ": 9061,
      " లావాదేవీ": 9062,
      "63": 9063,
      "تے": 9064,
      "ొచ్చ": 9065,
      " చేతి": 9066,
      " తీర్చ": 9067,
      " సిం": 9068,
      " చేయాలన్నారు": 9069,
      "సేపటి": 9070,
      " ధ్రు": 9071,
      " కార్డ్": 9072,
      " క్వి": 9073,
      " ఇవ్వాలి": 9074,
      " లాంచ్": 9075,
      " లిస్టు": 9076,
      "నల్గొండ": 9077,
      " ఊరు": 9078,
      " వినిపించ": 9079,
      " సాయంతో": 9080,
      " ఫాస్ట్": 9081,
      " కనిపించే": 9082,
      " ఇంగ్లండ్": 9083,
      " రిజర్వేషన్లు": 9084,
      "మ్రాన్": 9085,
      " ఎడ్యు": 9086,
      " ప్రవర్త": 9087,
      " సీఈవో": 9088,
      "జగిత్యాల": 9089,
      " పేలుడు": 9090,
      " స్వేచ్ఛ": 9091,
      " కార్యాచరణ": 9092,
      " ల్లో": 9093,
      "62": 9094,
      "పరంగా": 9095,
      "భయ": 9096,
      "మన్న": 9097,
      "ందారు": 9098,
      " మగ": 9099,
      " సరే": 9100,
      " ప్రచారాన్ని": 9101,
      "డిగడ్డ": 9102,
      "ాయుడు": 9103,
      " జ్వ": 9104,
      "సులకు": 9105,
      " భర": 9106,
      "కాకు": 9107,
      " తేజ్": 9108,
      " పైల": 9109,
      " శ్రీకాంత్": 9110,
      " యూజర్": 9111,
      "వెలుగు": 9112,
      "ించుకోవడానికి": 9113,
      " భారతదేశంలో": 9114,
      " పథకాన్ని": 9115,
      " హాజరుకా": 9116,
      " లేదంటే": 9117,
      " గట్టిగా": 9118,
      " కమ్యూనిటీ": 9119,
      " అర్ధరాత్రి": 9120,
      " క్రైమ్": 9121,
      " విగ్రహాన్ని": 9122,
      " خ": 9123,
      "he": 9124,
      "ہیں": 9125,
      "ఇటీవలే": 9126,
      "మను": 9127,
      " వ్ర": 9128,
      " తమి": 9129,
      "వాసీ": 9130,
      " రాకెట్": 9131,
      " కానుక": 9132,
      " శైలి": 9133,
      " ఏళ్లుగా": 9134,
      " ఈనెల": 9135,
      " సింహ": 9136,
      "త్తారు": 9137,
      " చెప్పారని": 9138,
      "ధిప": 9139,
      "మోత్స": 9140,
      "కుండానే": 9141,
      " ప్రతిపాద": 9142,
      " కేంద్రాల్లో": 9143,
      " చేసుకుంటున్నారు": 9144,
      " దిగ్గ": 9145,
      " యూఎస్": 9146,
      " మీదకు": 9147,
      " ఆరోగ్యంగా": 9148,
      " నమోదయ్యాయి": 9149,
      " దేవస్థానం": 9150,
      " అరుణ్": 9151,
      " బూత్": 9152,
      " దినోత్సవం": 9153,
      " విషాదం": 9154,
      " జిల్లాలకు": 9155,
      " విలీనం": 9156,
      " ఆరుగురు": 9157,
      " క్రిమినల్": 9158,
      "‌క్": 9159,
      " అబద్ధ": 9160,
      "పైనా": 9161,
      "వుతాయి": 9162,
      " మావోయి": 9163,
      " చేయాలను": 9164,
      " వాన": 9165,
      " నేపాల్": 9166,
      " యాదాద్రి": 9167,
      " అమర్": 9168,
      " జగన్మోహన్": 9169,
      " నెలా": 9170,
      " విధ్వ": 9171,
      " నిలవ": 9172,
      " నిమిత్తం": 9173,
      " కౌన్సిలర్లు": 9174,
      " కార్యకలాప": 9175,
      " నిర్వాహకులు": 9176,
      "ఫలితంగా": 9177,
      " ప్రాతినిధ్యం": 9178,
      " సజ్జల": 9179,
      " ಗ": 9180,
      "అభ్య": 9181,
      "భరణ": 9182,
      "సెట్": 9183,
      "ొమా": 9184,
      "ವಿ": 9185,
      "ಾವು": 9186,
      "స్పె": 9187,
      " కద": 9188,
      " సదరు": 9189,
      "ంచీ": 9190,
      "తుడి": 9191,
      " బండ": 9192,
      " దక్కింది": 9193,
      " శ్యా": 9194,
      "సీఐ": 9195,
      "వేయ": 9196,
      "దానం": 9197,
      "తాజా": 9198,
      " జరిమానా": 9199,
      "లతోపాటు": 9200,
      " చేసేలా": 9201,
      " చర్చకు": 9202,
      " సభ్యు": 9203,
      "త్మిక": 9204,
      " తరుణంలో": 9205,
      " కొనసాగుతుంది": 9206,
      " గెలిస్తే": 9207,
      " విక్రమ్": 9208,
      " నిరసనలు": 9209,
      " స్థితిలో": 9210,
      "తెలుగుదేశం": 9211,
      " విశాఖపట్నం": 9212,
      " లోపల": 9213,
      " ఛానెల్": 9214,
      " स": 9215,
      "కాలకు": 9216,
      "ఖిల్": 9217,
      "జయ": 9218,
      "రథ": 9219,
      "శ్రమ": 9220,
      " పంపు": 9221,
      " ఆర": 9222,
      " ఇస్తుంది": 9223,
      "యాల్సి": 9224,
      "సిం": 9225,
      " హనుమాన్": 9226,
      " కొబ్బ": 9227,
      "వేలు": 9228,
      "ాలిన్": 9229,
      "కరించి": 9230,
      " ట్రీట్": 9231,
      " పథకాలను": 9232,
      " గుర్తుచేశారు": 9233,
      " తీసుకున్నట్లు": 9234,
      "జికల్": 9235,
      "చెప్ప": 9236,
      "లేకపోయారు": 9237,
      " ట్యాపింగ్": 9238,
      " సింగిల్": 9239,
      " పరిమితం": 9240,
      " సినిమాల": 9241,
      " శ్రద్ధ": 9242,
      " ఫిల్మ్": 9243,
      " క్వార్టర్": 9244,
      " म": 9245,
      "గని": 9246,
      "మౌ": 9247,
      "శం": 9248,
      "సాలు": 9249,
      "ాల్సి": 9250,
      "నియన్": 9251,
      " అద్ద": 9252,
      " తవ్వ": 9253,
      " ఇవే": 9254,
      "ద్వాల": 9255,
      "డానికే": 9256,
      " భయా": 9257,
      " గుప్": 9258,
      " నేర్చుకు": 9259,
      "దేవ్": 9260,
      " భావన": 9261,
      " క్రెడిట్": 9262,
      " ఉద్యోగి": 9263,
      " పనుల": 9264,
      " సంగారెడ్డి": 9265,
      " బాధపడుతున్న": 9266,
      " సహాయపడుతుంది": 9267,
      " మహబూబాబాద్": 9268,
      " ఎవరో": 9269,
      "భవిష్య": 9270,
      " అలం": 9271,
      "ాయనే": 9272,
      "సుమారు": 9273,
      " కాల్స్": 9274,
      "క్షంగా": 9275,
      " కొంచెం": 9276,
      " బాగానే": 9277,
      " గాలు": 9278,
      " ఖరీ": 9279,
      " ఎమ్మెల్యేల": 9280,
      " నీర": 9281,
      " మీడియాకు": 9282,
      " ప్రకటించ": 9283,
      " కారణాల": 9284,
      " లాల్": 9285,
      " క్యాంప్": 9286,
      " ఆందోళనలు": 9287,
      " తీసుకెళ్లి": 9288,
      " సెలవులు": 9289,
      " కార్డులు": 9290,
      " పట్టుకుని": 9291,
      " రంగాల్లో": 9292,
      " చిరుత": 9293,
      " కట్టుబడి": 9294,
      " ప్రస్తావించారు": 9295,
      " తప్పనిసరిగా": 9296,
      " కన్వీనర్": 9297,
      " ط": 9298,
      "61": 9299,
      "79": 9300,
      "ఎక్కడ": 9301,
      "తన్": 9302,
      "తారా": 9303,
      "వైన": 9304,
      "‌షిప్": 9305,
      " పల్లె": 9306,
      "నిరు": 9307,
      " చేరిక": 9308,
      " ఆకు": 9309,
      "ార్ఖండ్": 9310,
      " నివాళ": 9311,
      "పిస్తే": 9312,
      " దాస్": 9313,
      " కలిగే": 9314,
      "భాల్లో": 9315,
      " పరిస్థితులను": 9316,
      " బుమ్రా": 9317,
      " ఏడాదికి": 9318,
      " ఢిల్లీలోని": 9319,
      " సరిపో": 9320,
      " స్థానాలను": 9321,
      " సేవల": 9322,
      " వయసులో": 9323,
      " సురక్షితంగా": 9324,
      " గెలిపించాలని": 9325,
      " మార్గదర్శ": 9326,
      " అశ్విన్": 9327,
      "700": 9328,
      "‌నగర్": 9329,
      " నచ్చ": 9330,
      "ార్టీ": 9331,
      "మాటా": 9332,
      "ష్ఠా": 9333,
      " చెట్టు": 9334,
      "సీదు": 9335,
      " సమంత": 9336,
      " చూశా": 9337,
      " రాష్ట్రాన్ని": 9338,
      " రింగ్": 9339,
      " వ్యక్తుల": 9340,
      " తింటే": 9341,
      "హాన్": 9342,
      " పోటీకి": 9343,
      " ప్రత్యర్థి": 9344,
      "యుడి": 9345,
      " సందర్బంగా": 9346,
      " అతడు": 9347,
      "ang": 9348,
      " చేసుకోవడానికి": 9349,
      " హెచ్చరించింది": 9350,
      " గాయపడ్డారు": 9351,
      " సమ్మె": 9352,
      " మల్కా": 9353,
      " ఎక్సైజ్": 9354,
      " అనూహ": 9355,
      "మెదక్": 9356,
      " రెస్టారెంట్": 9357,
      "అంతర్జాతీయ": 9358,
      "అయినప్పటికీ": 9359,
      " H": 9360,
      " ಚ": 9361,
      "କ୍": 9362,
      "చర": 9363,
      "జైన": 9364,
      "యార్క్": 9365,
      "‌ణ": 9366,
      " ఆకాం": 9367,
      "రుస": 9368,
      " ఇటీవలే": 9369,
      "స్తులను": 9370,
      "యాళ": 9371,
      " రాణి": 9372,
      " హేమ": 9373,
      "నాన్": 9374,
      " స్టడీ": 9375,
[...]
