{
  "version": "1.0",
  "truncation": null,
  "padding": null,
  "added_tokens": [],
  "normalizer": null,
  "pre_tokenizer": {
    "type": "Sequence",
    "pretokenizers": [
      {
        "type": "Split",
        "pattern": {
          "Regex": "[^\\r\\n\\p{L}\\p{N}]?[\\p{Lu}\\p{Lt}\\p{Lm}\\p{Lo}\\p{M}]*[\\p{Ll}\\p{Lm}\\p{Lo}\\p{M}]+|[^\\r\\n\\p{L}\\p{N}]?[\\p{Lu}\\p{Lt}\\p{Lm}\\p{Lo}\\p{M}]+[\\p{Ll}\\p{Lm}\\p{Lo}\\p{M}]*|\\p{N}{1,3}| ?[^\\s\\p{L}\\p{N}]+[\\r\\n/]*|\\s*[\\r\\n]+|\\s+(?!\\S)|\\s+"
        },
        "behavior": "Isolated",
        "invert": false
      }
    ]
  },
  "post_processor": null,
  "decoder": null,
  "model": {
    "type": "BPE",
    "dropout": null,
    "unk_token": null,
    "continuing_subword_prefix": null,
    "end_of_word_suffix": null,
    "fuse_unk": false,
    "byte_fallback": false,
    "ignore_merges": false,
    "vocab": {
      "\n": 0,
      " ": 1,
      "!": 2,
      "\"": 3,
      "#": 4,
      "$": 5,
      "%": 6,
      "&": 7,
      "'": 8,
      "(": 9,
      ")": 10,
      "*": 11,
      "+": 12,
      ",": 13,
      "-": 14,
      ".": 15,
      "/": 16,
      "0": 17,
      "1": 18,
      "2": 19,
      "3": 20,
      "4": 21,
      "5": 22,
      "6": 23,
      "7": 24,
      "8": 25,
      "9": 26,
      ":": 27,
      ";": 28,
      "<": 29,
      "=": 30,
      ">": 31,
      "?": 32,
      "@": 33,
      "A": 34,
      "B": 35,
      "C": 36,
      "D": 37,
      "E": 38,
      "F": 39,
      "G": 40,
      "H": 41,
      "I": 42,
      "J": 43,
      "K": 44,
      "L": 45,
      "M": 46,
      "N": 47,
      "O": 48,
      "P": 49,
      "Q": 50,
      "R": 51,
      "S": 52,
      "T": 53,
      "U": 54,
      "V": 55,
      "W": 56,
      "X": 57,
      "Y": 58,
      "Z": 59,
      "[": 60,
      "\\": 61,
      "]": 62,
      "_": 63,
      "`": 64,
      "a": 65,
      "b": 66,
      "c": 67,
      "d": 68,
      "e": 69,
      "f": 70,
      "g": 71,
      "h": 72,
      "i": 73,
      "j": 74,
      "k": 75,
      "l": 76,
      "m": 77,
      "n": 78,
      "o": 79,
      "p": 80,
      "q": 81,
      "r": 82,
      "s": 83,
      "t": 84,
      "u": 85,
      "v": 86,
      "w": 87,
      "x": 88,
      "y": 89,
      "z": 90,
      "~": 91,
      "": 92,
      "": 93,
      "": 94,
      "¡": 95,
      "¤": 96,
      "§": 97,
      "©": 98,
      "­": 99,
      "®": 100,
      "°": 101,
      "±": 102,
      "³": 103,
      "µ": 104,
      "¶": 105,
      "·": 106,
      "¼": 107,
      "½": 108,
      "À": 109,
      "Á": 110,
      "Â": 111,
      "Ã": 112,
      "Ä": 113,
      "Å": 114,
      "Æ": 115,
      "Ç": 116,
      "É": 117,
      "Í": 118,
      "Ò": 119,
      "Ó": 120,
      "Õ": 121,
      "Ö": 122,
      "×": 123,
      "Ø": 124,
      "Ú": 125,
      "Û": 126,
      "Ü": 127,
      "Þ": 128,
      "ß": 129,
      "à": 130,
      "á": 131,
      "â": 132,
      "ã": 133,
      "ä": 134,
      "å": 135,
      "æ": 136,
      "ç": 137,
      "è": 138,
      "é": 139,
      "ê": 140,
      "ë": 141,
      "ì": 142,
      "í": 143,
      "î": 144,
      "ï": 145,
      "ð": 146,
      "ñ": 147,
      "ò": 148,
      "ó": 149,
      "ô": 150,
      "õ": 151,
      "ö": 152,
      "ø": 153,
      "ú": 154,
      "û": 155,
      "ü": 156,
      "ý": 157,
      "ÿ": 158,
      "ā": 159,
      "ă": 160,
      "ą": 161,
      "ć": 162,
      "Č": 163,
      "č": 164,
      "đ": 165,
      "ē": 166,
      "ė": 167,
      "ę": 168,
      "ě": 169,
      "ğ": 170,
      "ģ": 171,
      "ī": 172,
      "İ": 173,
      "ı": 174,
      "Ķ": 175,
      "ľ": 176,
      "Ł": 177,
      "ł": 178,
      "ń": 179,
      "ņ": 180,
      "ň": 181,
      "ō": 182,
      "ŏ": 183,
      "œ": 184,
      "ř": 185,
      "ś": 186,
      "ş": 187,
      "Š": 188,
      "š": 189,
      "ū": 190,
      "ů": 191,
      "ų": 192,
      "ź": 193,
      "ż": 194,
      "Ž": 195,
      "ž": 196,
      "ǎ": 197,
      "Ș": 198,
      "ș": 199,
      "ț": 200,
      "ə": 201,
      "˗": 202,
      "́": 203,
      "̈": 204,
      "α": 205,
      "μ": 206,
      "А": 207,
      "Б": 208,
      "В": 209,
      "Д": 210,
      "Ж": 211,
      "З": 212,
      "И": 213,
      "К": 214,
      "Л": 215,
      "Н": 216,
      "О": 217,
      "П": 218,
      "С": 219,
      "Т": 220,
      "Ф": 221,
      "Ш": 222,
      "Э": 223,
      "а": 224,
      "б": 225,
      "в": 226,
      "г": 227,
      "д": 228,
      "е": 229,
      "ж": 230,
      "з": 231,
      "и": 232,
      "й": 233,
      "к": 234,
      "л": 235,
      "м": 236,
      "н": 237,
      "о": 238,
      "п": 239,
      "р": 240,
      "с": 241,
      "т": 242,
      "у": 243,
      "ф": 244,
      "х": 245,
      "ц": 246,
      "ч": 247,
      "ш": 248,
      "щ": 249,
      "ы": 250,
      "ь": 251,
      "э": 252,
      "ю": 253,
      "я": 254,
      "ỏ": 255,
      "ố": 256,
      "‍": 257,
      "‑": 258,
      "‒": 259,
      "•": 260,
      "‰": 261,
      "″": 262,
      "⁣": 263,
      "₁": 264,
      "₂": 265,
      "€": 266,
      "℃": 267,
      "⅓": 268,
      "−": 269,
      "∞": 270,
      "■": 271,
      "●": 272,
      "★": 273,
      "⭐": 274,
      "😂": 275,
      "🤌": 276,
      "en": 277,
      "ta": 278,
      "is": 279,
      "in": 280,
      "an": 281,
      " k": 282,
      "ll": 283,
      ".\n": 284,
      " o": 285,
      "tt": 286,
      "sa": 287,
      "si": 288,
      " j": 289,
      "va": 290,
      " m": 291,
      " p": 292,
      " t": 293,
      "ka": 294,
      "it": 295,
      "es": 296,
      "el": 297,
      "än": 298,
      "er": 299,
      "ut": 300,
      "uo": 301,
      " s": 302,
      " h": 303,
      "us": 304,
      "ik": 305,
      " v": 306,
      "un": 307,
      " e": 308,
      "on": 309,
      "al": 310,
      "as": 311,
      "ti": 312,
      " l": 313,
      " ja": 314,
      "oi": 315,
      "tä": 316,
      " on": 317,
      "il": 318,
      "lla": 319,
      "et": 320,
      "ma": 321,
      " a": 322,
      "uk": 323,
      " va": 324,
      "li": 325,
      "een": 326,
      "ja": 327,
      "os": 328,
      "ää": 329,
      " n": 330,
      "ra": 331,
      "uu": 332,
      "ttä": 333,
      "ist": 334,
      " ta": 335,
      "lle": 336,
      "ul": 337,
      "ko": 338,
      "ar": 339,
      "ki": 340,
      "ista": 341,
      "te": 342,
      "sä": 343,
      "den": 344,
      "mm": 345,
      "isi": 346,
      " y": 347,
      " ko": 348,
      "aa": 349,
      "tti": 350,
      " jo": 351,
      "inen": 352,
      "to": 353,
      "llä": 354,
      "ri": 355,
      "yö": 356,
      "vat": 357,
      " ka": 358,
      "ksi": 359,
      "vä": 360,
      " S": 361,
      " mu": 362,
      "ys": 363,
      " si": 364,
      "yt": 365,
      "ke": 366,
      "le": 367,
      "ur": 368,
      "ks": 369,
      " sa": 370,
      " vi": 371,
      "hd": 372,
      "taa": 373,
      "mi": 374,
      " että": 375,
      "vi": 376,
      "pa": 377,
      "ei": 378,
      "kaan": 379,
      "ään": 380,
      "kin": 381,
      " ei": 382,
      "uks": 383,
      "ih": 384,
      "issa": 385,
      "utta": 386,
      "isen": 387,
      " se": 388,
      "mp": 389,
      "ku": 390,
      " oli": 391,
      "la": 392,
      " r": 393,
      "äh": 394,
      " K": 395,
      "ina": 396,
      "uh": 397,
      "assa": 398,
      "essa": 399,
      "jo": 400,
      " ma": 401,
      "ie": 402,
      " M": 403,
      "op": 404,
      "taan": 405,
      " ku": 406,
      " ker": 407,
      "de": 408,
      "yn": 409,
      "im": 410,
      " vuo": 411,
      " en": 412,
      "or": 413,
      "ee": 414,
      " T": 415,
      "ir": 416,
      "tu": 417,
      " hän": 418,
      " P": 419,
      "är": 420,
      " H": 421,
      "unn": 422,
      "usta": 423,
      " al": 424,
      "ann": 425,
      "ot": 426,
      "itä": 427,
      "uom": 428,
      " te": 429,
      "ty": 430,
      "esta": 431,
      "kä": 432,
      " to": 433,
      "mä": 434,
      "istä": 435,
      "ia": 436,
      " pää": 437,
      "ttu": 438,
      "yös": 439,
      "iin": 440,
      "at": 441,
      "ttel": 442,
      " la": 443,
      "jan": 444,
      " V": 445,
      "van": 446,
      " ole": 447,
      " ra": 448,
      " mukaan": 449,
      "man": 450,
      "maan": 451,
      "oit": 452,
      "äl": 453,
      " kä": 454,
      " L": 455,
      " A": 456,
      "yy": 457,
      " tä": 458,
      "ala": 459,
      "asta": 460,
      " po": 461,
      "äi": 462,
      "jä": 463,
      "ika": 464,
      "ossa": 465,
      "llis": 466,
      " -": 467,
      " R": 468,
      "oin": 469,
      "vät": 470,
      "pp": 471,
      " pa": 472,
      " voi": 473,
      "20": 474,
      "mis": 475,
      " ha": 476,
      "sia": 477,
      "uol": 478,
      " myös": 479,
      " kes": 480,
      "se": 481,
      "ussa": 482,
      " san": 483,
      "ne": 484,
      "esti": 485,
      " per": 486,
      "na": 487,
      "ssa": 488,
      " J": 489,
      " kan": 490,
      "re": 491,
      "oa": 492,
      "ten": 493,
      "jen": 494,
      "ol": 495,
      "elä": 496,
      "ien": 497,
      "ui": 498,
      " nä": 499,
      " E": 500,
      " kun": 501,
      "sta": 502,
      " val": 503,
      " N": 504,
      " ol": 505,
      "essä": 506,
      " ovat": 507,
      "uksen": 508,
      "ike": 509,
      "up": 510,
      "llut": 511,
      " I": 512,
      "tta": 513,
      " hy": 514,
      "sin": 515,
      "he": 516,
      "ua": 517,
      " mutta": 518,
      "eri": 519,
      "ana": 520,
      " toi": 521,
      "ssä": 522,
      "min": 523,
      "oo": 524,
      "eli": 525,
      "eh": 526,
      " li": 527,
      "estä": 528,
      " yh": 529,
      "ön": 530,
      "ttiin": 531,
      " pal": 532,
      "om": 533,
      " as": 534,
      " B": 535,
      " läh": 536,
      "issä": 537,
      " mi": 538,
      "toi": 539,
      "itt": 540,
      "ise": 541,
      " tar": 542,
      " saa": 543,
      "ikka": 544,
      "kka": 545,
      " tul": 546,
      "ha": 547,
      "taja": 548,
      "ust": 549,
      "ime": 550,
      "osta": 551,
      " pel": 552,
      "ro": 553,
      " kerto": 554,
      " il": 555,
      " esi": 556,
      "lta": 557,
      "stä": 558,
      "vin": 559,
      "ken": 560,
      "Hän": 561,
      "tan": 562,
      "iten": 563,
      "mme": 564,
      "iko": 565,
      "men": 566,
      "lo": 567,
      "00": 568,
      "kk": 569,
      " par": 570,
      "iksi": 571,
      "eet": 572,
      " ih": 573,
      "ve": 574,
      " pit": 575,
      "iden": 576,
      " Suom": 577,
      "tö": 578,
      " ollut": 579,
      "etta": 580,
      "da": 581,
      "yks": 582,
      "hti": 583,
      "ura": 584,
      "ky": 585,
      "kon": 586,
      "tka": 587,
      " jäl": 588,
      "isten": 589,
      " tuo": 590,
      "keen": 591,
      "rin": 592,
      "isä": 593,
      " tai": 594,
      " kuin": 595,
      " kuu": 596,
      " kertoo": 597,
      "mer": 598,
      " er": 599,
      "isia": 600,
      "itse": 601,
      " tu": 602,
      " joka": 603,
      " ki": 604,
      " ar": 605,
      "oh": 606,
      " C": 607,
      "teen": 608,
      "maa": 609,
      "vän": 610,
      "ytt": 611,
      "uut": 612,
      " (": 613,
      "uus": 614,
      " O": 615,
      " ti": 616,
      "enä": 617,
      "hin": 618,
      "tin": 619,
      "män": 620,
      " puol": 621,
      " tapa": 622,
      "mmin": 623,
      " var": 624,
      "ila": 625,
      "vaa": 626,
      ":n": 627,
      " he": 628,
      "ita": 629,
      "ikä": 630,
      "vo": 631,
      "minen": 632,
      " tie": 633,
      " \"": 634,
      "hdo": 635,
      " sen": 636,
      "mat": 637,
      "vuo": 638,
      " jälkeen": 639,
      " vas": 640,
      " men": 641,
      "di": 642,
      " osa": 643,
      "sti": 644,
      "nna": 645,
      "uun": 646,
      "ikki": 647,
      "isin": 648,
      "anta": 649,
      "iset": 650,
      "tty": 651,
      "lleen": 652,
      "isesti": 653,
      " viime": 654,
      "mista": 655,
      " kanssa": 656,
      "ud": 657,
      "kö": 658,
      " U": 659,
      "ran": 660,
      " puh": 661,
      "unut": 662,
      "rit": 663,
      " na": 664,
      "jän": 665,
      " niin": 666,
      "ella": 667,
      " ed": 668,
      "mmä": 669,
      "202": 670,
      " so": 671,
      "kan": 672,
      " us": 673,
      " maa": 674,
      " kir": 675,
      "inn": 676,
      "yh": 677,
      " huo": 678,
      "mmen": 679,
      "ton": 680,
      "voi": 681,
      " suo": 682,
      "pä": 683,
      " työ": 684,
      " vä": 685,
      "tään": 686,
      "mään": 687,
      "illa": 688,
      "uud": 689,
      "sen": 690,
      " F": 691,
      "do": 692,
      "me": 693,
      "kil": 694,
      "ille": 695,
      " lop": 696,
      "joit": 697,
      "kko": 698,
      " kor": 699,
      " olisi": 700,
      "Se": 701,
      "tto": 702,
      " ensi": 703,
      "jon": 704,
      "est": 705,
      "ärj": 706,
      " Y": 707,
      "asti": 708,
      "aan": 709,
      " ke": 710,
      "kaa": 711,
      " päi": 712,
      " sanoo": 713,
      " asi": 714,
      " vuonna": 715,
      "ili": 716,
      "val": 717,
      "isto": 718,
      " sai": 719,
      "ellä": 720,
      "elle": 721,
      "so": 722,
      "kra": 723,
      " G": 724,
      "Tä": 725,
      "uden": 726,
      "ukku": 727,
      " D": 728,
      " min": 729,
      "massa": 730,
      " teh": 731,
      " kol": 732,
      " kuiten": 733,
      " til": 734,
      " is": 735,
      " jul": 736,
      "uuta": 737,
      " yli": 738,
      "yttä": 739,
      " sel": 740,
      "hta": 741,
      " ky": 742,
      "ksen": 743,
      " eur": 744,
      " olla": 745,
      "eita": 746,
      "joi": 747,
      " kul": 748,
      "kun": 749,
      " suu": 750,
      "uomala": 751,
      " aik": 752,
      "vel": 753,
      " kos": 754,
      "oli": 755,
      " kys": 756,
      " luo": 757,
      "Ka": 758,
      "ea": 759,
      " enn": 760,
      " hal": 761,
      "tte": 762,
      "han": 763,
      "isiin": 764,
      " sekä": 765,
      "ali": 766,
      "ikko": 767,
      "rä": 768,
      "kki": 769,
      "jat": 770,
      "uksia": 771,
      "ni": 772,
      "osen": 773,
      "siden": 774,
      " aika": 775,
      "oja": 776,
      "residen": 777,
      " Venä": 778,
      " ni": 779,
      " vielä": 780,
      " hen": 781,
      " kertoi": 782,
      "mpi": 783,
      " hall": 784,
      " jä": 785,
      "tää": 786,
      "isti": 787,
      " poli": 788,
      "una": 789,
      " pi": 790,
      "uttaa": 791,
      " hänen": 792,
      "pu": 793,
      " tapah": 794,
      " yhte": 795,
      " oike": 796,
      " uu": 797,
      " yksi": 798,
      " ver": 799,
      " Sa": 800,
      "gin": 801,
      "inä": 802,
      " su": 803,
      " koko": 804,
      "iste": 805,
      "uva": 806,
      " vuoden": 807,
      "pi": 808,
      " kil": 809,
      " nyt": 810,
      " ul": 811,
      " Suomen": 812,
      "malla": 813,
      " miel": 814,
      "alta": 815,
      "ru": 816,
      "ite": 817,
      " seura": 818,
      "itta": 819,
      "tiin": 820,
      " tur": 821,
      "misen": 822,
      " vain": 823,
      "uto": 824,
      "päi": 825,
      "änyt": 826,
      "jaa": 827,
      "koi": 828,
      "merk": 829,
      "En": 830,
      " lö": 831,
      "eiden": 832,
      "ed": 833,
      "lan": 834,
      " siitä": 835,
      "usi": 836,
      " lä": 837,
      " hyvin": 838,
      "ulla": 839,
      " kuitenkin": 840,
      " no": 841,
      "ynyt": 842,
      "all": 843,
      "ari": 844,
      "vää": 845,
      "iken": 846,
      "-vuo": 847,
      " väh": 848,
      " W": 849,
      "nut": 850,
      "kas": 851,
      " jat": 852,
      " sy": 853,
      "ast": 854,
      "ue": 855,
      "iv": 856,
      "ap": 857,
      "ttää": 858,
      " mahdo": 859,
      "uv": 860,
      " f": 861,
      "oita": 862,
      " van": 863,
      " tiet": 864,
      "ihe": 865,
      " an": 866,
      "ele": 867,
      "19": 868,
      " le": 869,
      "nä": 870,
      "ystä": 871,
      " kuo": 872,
      " sitä": 873,
      " os": 874,
      "hde": 875,
      " tut": 876,
      " ri": 877,
      "?\n": 878,
      "kunn": 879,
      "merkiksi": 880,
      "am": 881,
      " tunn": 882,
      " elä": 883,
      "della": 884,
      "kään": 885,
      "mia": 886,
      " mon": 887,
      " oh": 888,
      "htaja": 889,
      "-vuoti": 890,
      " har": 891,
      "istu": 892,
      " kat": 893,
      "dän": 894,
      " hyvä": 895,
      " vasta": 896,
      "llinen": 897,
      " presiden": 898,
      "hdys": 899,
      "tten": 900,
      "mo": 901,
      " ensimmä": 902,
      "anne": 903,
      " jossa": 904,
      " kaikki": 905,
      " sanoi": 906,
      "minist": 907,
      "yr": 908,
      "llo": 909,
      " kesk": 910,
      " ne": 911,
      " b": 912,
      " aikana": 913,
      "dä": 914,
      " myö": 915,
      " jon": 916,
      "itus": 917,
      " tun": 918,
      " jos": 919,
      " kann": 920,
      " noin": 921,
      " aina": 922,
      " itse": 923,
      "din": 924,
      "lä": 925,
      "uksi": 926,
      "upun": 927,
      " pr": 928,
      " koh": 929,
      "emm": 930,
      "ttei": 931,
      "ihin": 932,
      "elin": 933,
      "lloin": 934,
      "yty": 935,
      "ttia": 936,
      "nyt": 937,
      " paljon": 938,
      " kas": 939,
      "oon": 940,
      "ilta": 941,
      "tun": 942,
      "erä": 943,
      "ula": 944,
      "jel": 945,
      "pail": 946,
      " mie": 947,
      " vaik": 948,
      " ennen": 949,
      "isäksi": 950,
      " syy": 951,
      "Vi": 952,
      "kilö": 953,
      "tui": 954,
      " eivät": 955,
      " lo": 956,
      "ver": 957,
      "kis": 958,
      " sitten": 959,
      "uste": 960,
      "tanut": 961,
      "via": 962,
      "uksessa": 963,
      " kiin": 964,
      "uuden": 965,
      " re": 966,
      "Sa": 967,
      "201": 968,
      " pys": 969,
      " suomala": 970,
      "pal": 971,
      "ig": 972,
      " ai": 973,
      " epä": 974,
      " sillä": 975,
      "äärä": 976,
      " käy": 977,
      "tio": 978,
      " vaa": 979,
      " kaksi": 980,
      "utu": 981,
      " Ukra": 982,
      " teke": 983,
      " kuul": 984,
      "llista": 985,
      " ottel": 986,
      "Suom": 987,
      " keh": 988,
      " väl": 989,
      "esk": 990,
      "elsin": 991,
      " keski": 992,
      " ilm": 993,
      " muun": 994,
      " järj": 995,
      "johtaja": 996,
      "otta": 997,
      " eri": 998,
      "uutta": 999,
      "ch": 1000,
      " maan": 1001,
      " ettei": 1002,
      " ään": 1003,
      "ikon": 1004,
      " muassa": 1005,
      " Mar": 1006,
      " An": 1007,
      " lap": 1008,
      " jää": 1009,
      "lin": 1010,
      " mil": 1011,
      "tuu": 1012,
      "lais": 1013,
      "rump": 1014,
      "son": 1015,
      " me": 1016,
      "mien": 1017,
      " tuli": 1018,
      " mer": 1019,
      "elta": 1020,
      "isiä": 1021,
      " las": 1022,
      "ikke": 1023,
      "valta": 1024,
      " kuva": 1025,
      "uot": 1026,
      "ministeri": 1027,
      "isa": 1028,
      " esimerkiksi": 1029,
      " vastaan": 1030,
      " väli": 1031,
      " hä": 1032,
      "san": 1033,
      "ven": 1034,
      "yttää": 1035,
      " Ma": 1036,
      " pelaa": 1037,
      "ojen": 1038,
      "uka": 1039,
      "je": 1040,
      "llisen": 1041,
      "len": 1042,
      "erin": 1043,
      "kkä": 1044,
      " liitt": 1045,
      "valla": 1046,
      "iseen": 1047,
      " voit": 1048,
      "olla": 1049,
      " ede": 1050,
      " La": 1051,
      "onen": 1052,
      " toimin": 1053,
      " tote": 1054,
      " tulee": 1055,
      "tteli": 1056,
      "unta": 1057,
      " tule": 1058,
      "oku": 1059,
      " Ka": 1060,
      " nuo": 1061,
      "oike": 1062,
      " aie": 1063,
      " lis": 1064,
      "urhe": 1065,
      "llisesti": 1066,
      " prosen": 1067,
      "000": 1068,
      " henkilö": 1069,
      "ustel": 1070,
      "pan": 1071,
      " maail": 1072,
      "ukset": 1073,
      " ihm": 1074,
      "ksa": 1075,
      " pitää": 1076,
      " hyö": 1077,
      " kommen": 1078,
      "iti": 1079,
      " toimi": 1080,
      " olivat": 1081,
      "ian": 1082,
      " mitä": 1083,
      "eksi": 1084,
      "Ta": 1085,
      " ulko": 1086,
      "hden": 1087,
      " kunn": 1088,
      " sija": 1089,
      " hel": 1090,
      "yksen": 1091,
      "vasti": 1092,
      "alla": 1093,
      "lli": 1094,
      "To": 1095,
      "istö": 1096,
      "tar": 1097,
      " maal": 1098,
      " euroa": 1099,
      " luk": 1100,
      "ssi": 1101,
      "mma": 1102,
      "st": 1103,
      " alu": 1104,
      "oma": 1105,
      " ve": 1106,
      "eseen": 1107,
      " het": 1108,
      " tehd": 1109,
      "inan": 1110,
      "era": 1111,
      "ikan": 1112,
      "ttua": 1113,
      "yttö": 1114,
      " asia": 1115,
      " pien": 1116,
      " vuotta": 1117,
      " kut": 1118,
      "tia": 1119,
      "Jos": 1120,
      " muu": 1121,
      " paika": 1122,
      " hei": 1123,
      " julka": 1124,
      "ing": 1125,
      " jotka": 1126,
      "its": 1127,
      "po": 1128,
      " el": 1129,
      "Va": 1130,
      " ter": 1131,
      "uomi": 1132,
      "änä": 1133,
      " Venäjän": 1134,
      "ho": 1135,
      " kär": 1136,
      " arvi": 1137,
      "emmän": 1138,
      "der": 1139,
      " mies": 1140,
      " nel": 1141,
      "ttom": 1142,
      " vah": 1143,
      "jien": 1144,
      " uh": 1145,
      "Kun": 1146,
      "tyi": 1147,
      " toim": 1148,
      "On": 1149,
      " yle": 1150,
      "eltä": 1151,
      "uuri": 1152,
      "uro": 1153,
      " uut": 1154,
      "kona": 1155,
      "ity": 1156,
      "eella": 1157,
      " ajan": 1158,
      " jonka": 1159,
      " eli": 1160,
      "dan": 1161,
      "uta": 1162,
      "enn": 1163,
      "matta": 1164,
      " joh": 1165,
      " kaupun": 1166,
      "uudessa": 1167,
      "yyn": 1168,
      "ukseen": 1169,
      "kia": 1170,
      " eikä": 1171,
      "llan": 1172,
      "ito": 1173,
      "mpia": 1174,
      " aihe": 1175,
      "Poli": 1176,
      " met": 1177,
      " saan": 1178,
      "antaina": 1179,
      "ker": 1180,
      " kansa": 1181,
      " tuk": 1182,
      " turva": 1183,
      "arr": 1184,
      " kon": 1185,
      "ihen": 1186,
      " sop": 1187,
      " käsi": 1188,
      " op": 1189,
      "viä": 1190,
      " joukku": 1191,
      "La": 1192,
      " yhd": 1193,
      "llaan": 1194,
      "kseen": 1195,
      "til": 1196,
      "ale": 1197,
      " hi": 1198,
      "pää": 1199,
      "inta": 1200,
      "Ko": 1201,
      " koul": 1202,
      "joon": 1203,
      " vuosi": 1204,
      " Trump": 1205,
      "miseen": 1206,
      "bb": 1207,
      " kau": 1208,
      "-a": 1209,
      " et": 1210,
      "hen": 1211,
      " yllä": 1212,
      "uksesta": 1213,
      "oihin": 1214,
      "ansa": 1215,
      "yky": 1216,
      "sar": 1217,
      "ttävä": 1218,
      "isessa": 1219,
      "Nä": 1220,
      "vien": 1221,
      " vaikka": 1222,
      "nn": 1223,
      "\".\n": 1224,
      "dot": 1225,
      " lisää": 1226,
      " tämän": 1227,
      " aut": 1228,
      "ano": 1229,
      "ärke": 1230,
      "tion": 1231,
      " Helsin": 1232,
      " koska": 1233,
      " siir": 1234,
      "ans": 1235,
      "iseksi": 1236,
      " puo": 1237,
      " raken": 1238,
      " olevan": 1239,
      "kke": 1240,
      "var": 1241,
      "istel": 1242,
      " mit": 1243,
      "neet": 1244,
      "ren": 1245,
      " laa": 1246,
      " tor": 1247,
      " suunn": 1248,
      "kel": 1249,
      "ustus": 1250,
      " seuraa": 1251,
      "oiden": 1252,
      " tö": 1253,
      " teki": 1254,
      " sil": 1255,
      "kuussa": 1256,
      "kul": 1257,
      "ttele": 1258,
      "paa": 1259,
      " vaih": 1260,
      "ope": 1261,
      "gel": 1262,
      " Ta": 1263,
      "ukka": 1264,
      " aja": 1265,
      "iä": 1266,
      " miljoon": 1267,
      "ino": 1268,
      "10": 1269,
      "Jo": 1270,
      "ria": 1271,
      " pitä": 1272,
      " talo": 1273,
      "misesta": 1274,
      "um": 1275,
      " syn": 1276,
      "pe": 1277,
      "tel": 1278,
      " aiemmin": 1279,
      "erg": 1280,
      " siihen": 1281,
      " miten": 1282,
      "puol": 1283,
      " Yhdys": 1284,
      " vir": 1285,
      "Myös": 1286,
      "oitti": 1287,
      "kir": 1288,
      "uja": 1289,
      "asto": 1290,
      "oilla": 1291,
      "yys": 1292,
      " tilan": 1293,
      "annut": 1294,
      " tapahtu": 1295,
      "llään": 1296,
      "ett": 1297,
      " näh": 1298,
      " jota": 1299,
      "mman": 1300,
      " päätö": 1301,
      " enemmän": 1302,
      " tutki": 1303,
      "tubb": 1304,
      "ga": 1305,
      " kar": 1306,
      " muuta": 1307,
      "usti": 1308,
      " tällä": 1309,
      "janta": 1310,
      "ettu": 1311,
      " Sal": 1312,
      " tämä": 1313,
      "ituksen": 1314,
      " muut": 1315,
      "ter": 1316,
      "ym": 1317,
      "llisuus": 1318,
      "oitta": 1319,
      " juo": 1320,
      "jassa": 1321,
      " in": 1322,
      " kirjoit": 1323,
      " tarko": 1324,
      " Ilta": 1325,
      "ittaa": 1326,
      " presidentti": 1327,
      "15": 1328,
      "utui": 1329,
      " maailman": 1330,
      " lisäksi": 1331,
      "Suomen": 1332,
      " kesä": 1333,
      "alu": 1334,
      "ytö": 1335,
      "nan": 1336,
      "kea": 1337,
      "änn": 1338,
      "Tämä": 1339,
      "masta": 1340,
      "don": 1341,
      "200": 1342,
      "tila": 1343,
      " Ro": 1344,
      "oissa": 1345,
      "iku": 1346,
      "itsi": 1347,
      "este": 1348,
      " In": 1349,
      "hi": 1350,
      " yrit": 1351,
      "tyy": 1352,
      " nous": 1353,
      "yi": 1354,
      "yksi": 1355,
      " määrä": 1356,
      " yl": 1357,
      "toa": 1358,
      " kolm": 1359,
      " puheen": 1360,
      "kuu": 1361,
      "ein": 1362,
      "ota": 1363,
      "pel": 1364,
      "kesk": 1365,
      "jana": 1366,
      "osti": 1367,
      " haasta": 1368,
      " kertaa": 1369,
      " kannat": 1370,
      "joukku": 1371,
      " vaan": 1372,
      " lopp": 1373,
      " mikä": 1374,
      "ukana": 1375,
      "järj": 1376,
      "ähkö": 1377,
      "kunnan": 1378,
      "uroop": 1379,
      "ine": 1380,
      "daan": 1381,
      "Pa": 1382,
      " Suomessa": 1383,
      "Nyt": 1384,
      " taka": 1385,
      " kohd": 1386,
      "Ei": 1387,
      "eensa": 1388,
      " mitään": 1389,
      "isille": 1390,
      " näy": 1391,
      "ttö": 1392,
      "mus": 1393,
      "kellä": 1394,
      "Si": 1395,
      " tärke": 1396,
      "Kuva": 1397,
      " kyse": 1398,
      "eensä": 1399,
      " ent": 1400,
      "estaan": 1401,
      " len": 1402,
      "sina": 1403,
      " tiedo": 1404,
      " d": 1405,
      " pääs": 1406,
      "ost": 1407,
      "sra": 1408,
      " Jo": 1409,
      " mei": 1410,
      " Ra": 1411,
      " ava": 1412,
      "Ma": 1413,
      " vara": 1414,
      " lau": 1415,
      "ppi": 1416,
      "oista": 1417,
      " urhe": 1418,
      "-S": 1419,
      "30": 1420,
      " koti": 1421,
      "utti": 1422,
      "kuun": 1423,
      "kunta": 1424,
      " syö": 1425,
      "von": 1426,
      " jopa": 1427,
      "tys": 1428,
      " suosi": 1429,
      " täh": 1430,
      "ikin": 1431,
      "unnunta": 1432,
      "mässä": 1433,
      "lainen": 1434,
      "osa": 1435,
      " kolme": 1436,
      " Pa": 1437,
      " ihan": 1438,
      " kommentoi": 1439,
      " osall": 1440,
      "miin": 1441,
      " sää": 1442,
      " kis": 1443,
      " sisä": 1444,
      " usko": 1445,
      " päivä": 1446,
      "ic": 1447,
      " prosenttia": 1448,
      "-vuotias": 1449,
      "ulun": 1450,
      " nyky": 1451,
      "istaa": 1452,
      "12": 1453,
      "voin": 1454,
      "vit": 1455,
      "mää": 1456,
      " saira": 1457,
      " esiin": 1458,
      " vaike": 1459,
      " MM": 1460,
      " vastaa": 1461,
      " tehdä": 1462,
      " perjanta": 1463,
      " kilpail": 1464,
      "ulta": 1465,
      "ile": 1466,
      "nte": 1467,
      "isu": 1468,
      "väl": 1469,
      "ani": 1470,
      " enää": 1471,
      "yd": 1472,
      "llin": 1473,
      " kuuka": 1474,
      " kaa": 1475,
      "Poliisi": 1476,
      " sis": 1477,
      "gen": 1478,
      "gra": 1479,
      " vo": 1480,
      " auto": 1481,
      " ymp": 1482,
      "jois": 1483,
      "iton": 1484,
      " juh": 1485,
      "llen": 1486,
      " hui": 1487,
      " suh": 1488,
      "tien": 1489,
      "HL": 1490,
      " kerro": 1491,
      " yri": 1492,
      " viikon": 1493,
      "haa": 1494,
      "utin": 1495,
      "uri": 1496,
      " Venäjä": 1497,
      "palvel": 1498,
      "ksan": 1499,
      " sella": 1500,
      " lähes": 1501,
      "isella": 1502,
      " erity": 1503,
      "He": 1504,
      "ustaja": 1505,
      " tal": 1506,
      "älä": 1507,
      " mo": 1508,
      " kier": 1509,
      "itel": 1510,
      " pala": 1511,
      "toja": 1512,
      " muo": 1513,
      " lähe": 1514,
      "olo": 1515,
      "kkin": 1516,
      " ty": 1517,
      "ytyy": 1518,
      " uusi": 1519,
      "kuuta": 1520,
      "jia": 1521,
      "utus": 1522,
      " mukana": 1523,
      "opp": 1524,
      " liik": 1525,
      " terve": 1526,
      "lleet": 1527,
      " sähkö": 1528,
      " kymmen": 1529,
      " saat": 1530,
      " koke": 1531,
      " ihmis": 1532,
      " vide": 1533,
      "keä": 1534,
      " vaati": 1535,
      " oly": 1536,
      "tynyt": 1537,
      " tarv": 1538,
      " lu": 1539,
      "isesta": 1540,
      "tik": 1541,
      "Sen": 1542,
      "mmat": 1543,
      " pois": 1544,
      "ju": 1545,
      " ven": 1546,
      " ehdo": 1547,
      " kats": 1548,
      " alku": 1549,
      " todella": 1550,
      "su": 1551,
      " kello": 1552,
      " saanut": 1553,
      " tilante": 1554,
      " ho": 1555,
      "Ra": 1556,
      " jal": 1557,
      "ase": 1558,
      "mar": 1559,
      " han": 1560,
      " joul": 1561,
      " pol": 1562,
      " oma": 1563,
      "Mi": 1564,
      " rii": 1565,
      "yä": 1566,
      "toon": 1567,
      " Ruot": 1568,
      "ilu": 1569,
      " Ha": 1570,
      " Ne": 1571,
      "mistä": 1572,
      "ttaa": 1573,
      "ynn": 1574,
      " py": 1575,
      " arvioi": 1576,
      " pitkä": 1577,
      "tävä": 1578,
      "vänä": 1579,
      "mpaa": 1580,
      "uvo": 1581,
      " vuoksi": 1582,
      "-l": 1583,
      "etaan": 1584,
      "kit": 1585,
      "Vuo": 1586,
      "ukko": 1587,
      " ik": 1588,
      " ruo": 1589,
      " aikaa": 1590,
      "iselle": 1591,
      " poliisi": 1592,
      " poh": 1593,
      " ase": 1594,
      " sunnunta": 1595,
      "yllä": 1596,
      " peruste": 1597,
      "ttäin": 1598,
      "istui": 1599,
      " mat": 1600,
      "id": 1601,
      " ratka": 1602,
      "mon": 1603,
      " jatka": 1604,
      "voit": 1605,
      " huol": 1606,
      "iston": 1607,
      "kku": 1608,
      " halu": 1609,
      "vassa": 1610,
      "18": 1611,
      " täys": 1612,
      " jäi": 1613,
      " yleis": 1614,
      " tuh": 1615,
      " kuten": 1616,
      "tiiv": 1617,
      " kautta": 1618,
      "essaan": 1619,
      "vansa": 1620,
      "Viime": 1621,
      " kaik": 1622,
      "lu": 1623,
      "jet": 1624,
      " olen": 1625,
      "äjä": 1626,
      "ff": 1627,
      "ini": 1628,
      " puoli": 1629,
      "Venä": 1630,
      " tässä": 1631,
      " vähän": 1632,
      " Ukrainan": 1633,
      "anna": 1634,
      " yhteis": 1635,
      " juuri": 1636,
      "tettiin": 1637,
      " perus": 1638,
      " tiista": 1639,
      "tteen": 1640,
      " torsta": 1641,
      " suur": 1642,
      "tojen": 1643,
      " onn": 1644,
      "por": 1645,
      "isena": 1646,
      "har": 1647,
      " Euroop": 1648,
      "unsa": 1649,
      " sar": 1650,
      "jö": 1651,
      " aikaan": 1652,
      "50": 1653,
      "viik": 1654,
      "mentaja": 1655,
      "riä": 1656,
      " tarjo": 1657,
      "Ja": 1658,
      "kos": 1659,
      " voisi": 1660,
      " alle": 1661,
      " Le": 1662,
      " Na": 1663,
      "per": 1664,
      " de": 1665,
      " valta": 1666,
      "Hänen": 1667,
      " liitty": 1668,
      "ce": 1669,
      "ksin": 1670,
      ":lle": 1671,
      " rauh": 1672,
      " neljä": 1673,
      " nim": 1674,
      " ken": 1675,
      " tuomi": 1676,
      " tullut": 1677,
      "usten": 1678,
      "onsa": 1679,
      " lähte": 1680,
      "iva": 1681,
      " sä": 1682,
      "tyn": 1683,
      " kiinni": 1684,
      "kkaa": 1685,
      "ostaa": 1686,
      "asi": 1687,
      "ttelee": 1688,
      " vahv": 1689,
      "oittaa": 1690,
      "Lisäksi": 1691,
      "kus": 1692,
      "ron": 1693,
      "ikolla": 1694,
      "elen": 1695,
      " Stubb": 1696,
      " siinä": 1697,
      "ulle": 1698,
      " sin": 1699,
      " palvel": 1700,
      " edus": 1701,
      "missa": 1702,
      " alkoi": 1703,
      " hyökkä": 1704,
      "isista": 1705,
      " lin": 1706,
      "kana": 1707,
      " eh": 1708,
      " joten": 1709,
      "antun": 1710,
      "mmär": 1711,
      " Li": 1712,
      "raa": 1713,
      "eto": 1714,
      " muist": 1715,
      "yyttä": 1716,
      " työs": 1717,
      "jät": 1718,
      " av": 1719,
      " pain": 1720,
      " halua": 1721,
      " matka": 1722,
      " otta": 1723,
      " nope": 1724,
      "uksista": 1725,
      " Ar": 1726,
      "alin": 1727,
      " ä": 1728,
      "jasta": 1729,
      " suuri": 1730,
      " käyttä": 1731,
      " ilman": 1732,
      " mur": 1733,
      " eloku": 1734,
      "yl": 1735,
      "tunut": 1736,
      " yhteen": 1737,
      "ikkaa": 1738,
      "össä": 1739,
      " ongel": 1740,
      " sosia": 1741,
      "tal": 1742,
      "Val": 1743,
      " käyttö": 1744,
      "ilee": 1745,
      "usa": 1746,
      "alan": 1747,
      "hemmin": 1748,
      "estel": 1749,
      "17": 1750,
      "uudesta": 1751,
      " kauden": 1752,
      "ttelussa": 1753,
      "näkö": 1754,
      " To": 1755,
      " parha": 1756,
      "eilla": 1757,
      "\"\n": 1758,
      "ettiin": 1759,
      "uole": 1760,
      " selvi": 1761,
      " saada": 1762,
      "gi": 1763,
      "ohjois": 1764,
      " taas": 1765,
      " hetkellä": 1766,
      " lisä": 1767,
      " liiken": 1768,
      "omet": 1769,
      "16": 1770,
      "!\n": 1771,
      " edelleen": 1772,
      "ona": 1773,
      "Olen": 1774,
      "laa": 1775,
      "kie": 1776,
      " pare": 1777,
      "eille": 1778,
      " huomi": 1779,
      " takia": 1780,
      " kuitenkaan": 1781,
      " Tur": 1782,
      "ppu": 1783,
      "no": 1784,
      " Isra": 1785,
      "jär": 1786,
      " vuod": 1787,
      " ro": 1788,
      " katso": 1789,
      "ttämä": 1790,
      " lää": 1791,
      " pitäisi": 1792,
      "kkää": 1793,
      "yhti": 1794,
      "kkö": 1795,
      " toinen": 1796,
      " /": 1797,
      "kohta": 1798,
      "visi": 1799,
      " Ki": 1800,
      " löy": 1801,
      " Helsingin": 1802,
      "11": 1803,
      "isissa": 1804,
      "oim": 1805,
      " keskustel": 1806,
      "ikos": 1807,
      "Li": 1808,
      "kor": 1809,
      " nuor": 1810,
      " onne": 1811,
      " Suomi": 1812,
      " hie": 1813,
      " tavalla": 1814,
      "kasta": 1815,
      "kee": 1816,
      "dennäkö": 1817,
      " Val": 1818,
      "ttelu": 1819,
      "ber": 1820,
      "sson": 1821,
      " pu": 1822,
      "ck": 1823,
      " jäsen": 1824,
      "Al": 1825,
      "antunti": 1826,
      "llon": 1827,
      "vasta": 1828,
      "tua": 1829,
      "Mutta": 1830,
      "ohjel": 1831,
      "isenä": 1832,
      " vie": 1833,
      ":ssä": 1834,
      "kiin": 1835,
      " EU": 1836,
      " perä": 1837,
      " ainakin": 1838,
      "valtain": 1839,
      "uttu": 1840,
      "jaan": 1841,
      "iss": 1842,
      "tetty": 1843,
      " voitti": 1844,
      "äär": 1845,
      "koh": 1846,
      " ilma": 1847,
      "ela": 1848,
      "utun": 1849,
      " medi": 1850,
      " un": 1851,
      "uon": 1852,
      " tasa": 1853,
      " olleet": 1854,
      " Nor": 1855,
      " kään": 1856,
      " asti": 1857,
      "Kys": 1858,
      "estö": 1859,
      " tila": 1860,
      " sano": 1861,
      "14": 1862,
      "uku": 1863,
      "paan": 1864,
      "inväl": 1865,
      "mies": 1866,
      "utki": 1867,
      "eelle": 1868,
      "ppo": 1869,
      "kset": 1870,
      " valm": 1871,
      "ill": 1872,
      "yden": 1873,
      " merki": 1874,
      " kiinn": 1875,
      "utunut": 1876,
      " eten": 1877,
      " yhdessä": 1878,
      " ras": 1879,
      " tör": 1880,
      " vaka": 1881,
      "nteki": 1882,
      "hoit": 1883,
      "eillä": 1884,
      " perjantaina": 1885,
      "lehti": 1886,
      "ttänyt": 1887,
      " Ko": 1888,
      " uuden": 1889,
      " näin": 1890,
      " riko": 1891,
      " pide": 1892,
      "astaan": 1893,
      " viera": 1894,
      " piste": 1895,
      "astus": 1896,
      "13": 1897,
      " uutis": 1898,
      " kansan": 1899,
      " tode": 1900,
      "äri": 1901,
      " puheenjohtaja": 1902,
      " mahdollis": 1903,
      "isessä": 1904,
      " Putin": 1905,
      " g": 1906,
      "jää": 1907,
      "-Sano": 1908,
      "ket": 1909,
      " lauantaina": 1910,
      "oni": 1911,
      " perh": 1912,
      " pyö": 1913,
      "teet": 1914,
      " seur": 1915,
      "tyä": 1916,
      "Per": 1917,
      "Esi": 1918,
      " iso": 1919,
      " hallitus": 1920,
      "uko": 1921,
      "Min": 1922,
      "sky": 1923,
      " kilomet": 1924,
      " tiedotte": 1925,
      " saman": 1926,
      "itto": 1927,
      "iska": 1928,
      " ymmär": 1929,
      "päivä": 1930,
      " mar": 1931,
      "itsee": 1932,
      " tilanne": 1933,
      "viikkona": 1934,
      "urin": 1935,
      " amp": 1936,
      "aika": 1937,
      " sopim": 1938,
      "iltä": 1939,
      " hava": 1940,
      " kaupungin": 1941,
      " Z": 1942,
      "ääri": 1943,
      "vaan": 1944,
      " her": 1945,
      "tetaan": 1946,
      " perin": 1947,
      "ltä": 1948,
      "istori": 1949,
      " kirjoittaa": 1950,
      ").\n": 1951,
      " kyllä": 1952,
      "estin": 1953,
      "stagra": 1954,
      " lämp": 1955,
      "-kis": 1956,
      " johta": 1957,
      " yhden": 1958,
      " presidentin": 1959,
      "uma": 1960,
      " toisen": 1961,
      " edusta": 1962,
      " miljoonaa": 1963,
      " kaudella": 1964,
      " päästä": 1965,
      "res": 1966,
      " vali": 1967,
      " hallituksen": 1968,
      " kuinka": 1969,
      "Na": 1970,
      " heti": 1971,
      " kyl": 1972,
      "imo": 1973,
      " pah": 1974,
      "uki": 1975,
      "ikuussa": 1976,
      " erila": 1977,
      "talo": 1978,
      " niitä": 1979,
      " alka": 1980,
      " hieman": 1981,
      "ussi": 1982,
      " pan": 1983,
      "vänsä": 1984,
      " tän": 1985,
      "Kor": 1986,
      "utuu": 1987,
      "uke": 1988,
      " täysin": 1989,
      "itos": 1990,
      " kahden": 1991,
      " alkaa": 1992,
      " välillä": 1993,
      " X": 1994,
      " epäi": 1995,
      " väi": 1996,
      " siis": 1997,
      " yhtä": 1998,
      " ryh": 1999,
      " viikolla": 2000,
      " vast": 2001,
      " jatku": 2002,
      "ba": 2003,
      "alainen": 2004,
      " näky": 2005,
      "uuteen": 2006,
      "tettu": 2007,
      " tehnyt": 2008,
      " eriko": 2009,
      " Or": 2010,
      " vai": 2011,
      " ystä": 2012,
      " heidän": 2013,
      " tänä": 2014,
      " mielestä": 2015,
      " korke": 2016,
      " Se": 2017,
      " Instagra": 2018,
      " häntä": 2019,
      "ranoma": 2020,
      "äjäoike": 2021,
      " i": 2022,
      "yyd": 2023,
      " miehen": 2024,
      "25": 2025,
      "Pää": 2026,
      " nor": 2027,
      " palj": 2028,
      " its": 2029,
      "uli": 2030,
      "kar": 2031,
      "uksissa": 2032,
      " Ale": 2033,
      " vier": 2034,
      "vir": 2035,
      " myöhemmin": 2036,
      "nin": 2037,
      " maksa": 2038,
      "ukkaan": 2039,
      " varm": 2040,
      "viin": 2041,
      " missä": 2042,
      "äni": 2043,
      " jatkaa": 2044,
      " huu": 2045,
      " useita": 2046,
      " pääsi": 2047,
      "ilä": 2048,
      " kerran": 2049,
      "ttui": 2050,
      " piti": 2051,
      " sur": 2052,
      "isuus": 2053,
      "esty": 2054,
      "uksiin": 2055,
      " edes": 2056,
      " aam": 2057,
      "kkaan": 2058,
      " epäil": 2059,
      " todennäkö": 2060,
      " lento": 2061,
      " He": 2062,
      " sosiaal": 2063,
      "las": 2064,
      "mieh": 2065,
      "estar": 2066,
      " mielen": 2067,
      " torstaina": 2068,
      " puu": 2069,
      "llisia": 2070,
      " pyy": 2071,
      " vaal": 2072,
      " joukkue": 2073,
      "vinto": 2074,
      "johta": 2075,
      " nähd": 2076,
      " meni": 2077,
      " julk": 2078,
      "Ilta": 2079,
      "hdelle": 2080,
      "-vuotia": 2081,
      " suun": 2082,
      "isk": 2083,
      "uttanut": 2084,
      " kysym": 2085,
      "kän": 2086,
      " tavoi": 2087,
      "),": 2088,
      " kuole": 2089,
      " Ukraina": 2090,
      " oman": 2091,
      " euron": 2092,
      " Harr": 2093,
      "Näin": 2094,
      " näyttää": 2095,
      " arvo": 2096,
      " Trumpin": 2097,
      " siv": 2098,
      "Tuo": 2099,
      " herä": 2100,
      " tava": 2101,
      "ytyi": 2102,
      "hän": 2103,
      "esin": 2104,
      "ehto": 2105,
      "ttuna": 2106,
      "kossa": 2107,
      " myön": 2108,
      " tulo": 2109,
      " maanantaina": 2110,
      " tiistaina": 2111,
      "her": 2112,
      "ttuu": 2113,
      " poikke": 2114,
      " ohjel": 2115,
      " aivan": 2116,
      "illaan": 2117,
      "udessa": 2118,
      " voivat": 2119,
      " huoli": 2120,
      " peli": 2121,
      "yvä": 2122,
      "Vaikka": 2123,
      " keskiviikkona": 2124,
      " alussa": 2125,
      " saap": 2126,
      " voin": 2127,
      " muka": 2128,
      "oille": 2129,
      " omista": 2130,
      " perhe": 2131,
      "ryh": 2132,
      " Har": 2133,
      " Es": 2134,
      " kuoli": 2135,
      " joita": 2136,
      " mahdollista": 2137,
      " hänet": 2138,
      " tiedot": 2139,
      " mene": 2140,
      " usein": 2141,
      " sul": 2142,
      " puolestaan": 2143,
      " venälä": 2144,
      "istun": 2145,
      " koskaan": 2146,
      "vissa": 2147,
      "menta": 2148,
      " pro": 2149,
      " käytö": 2150,
      " alueella": 2151,
      " lain": 2152,
      " otti": 2153,
      "arin": 2154,
      "-luv": 2155,
      " tuu": 2156,
      "sivat": 2157,
      " lei": 2158,
      " Pohjois": 2159,
      "\",": 2160,
      "uista": 2161,
      " kie": 2162,
      " yksity": 2163,
      "perä": 2164,
      " sunnuntaina": 2165,
      " amma": 2166,
      "lliset": 2167,
      "kut": 2168,
      " Al": 2169,
      " viesti": 2170,
      " maks": 2171,
      " mieh": 2172,
      " kävi": 2173,
      " odot": 2174,
      " nousi": 2175,
      "yssä": 2176,
      "tee": 2177,
      " kamp": 2178,
      "Ar": 2179,
      " Pe": 2180,
      " hoi": 2181,
      "ira": 2182,
      "ksia": 2183,
      "joukkue": 2184,
      "puole": 2185,
      " Lin": 2186,
      "isellä": 2187,
      " ottaa": 2188,
      "vaksi": 2189,
      " Vir": 2190,
      "vana": 2191,
      "joiden": 2192,
      " perusteella": 2193,
      "astaa": 2194,
      "Ne": 2195,
      "isestä": 2196,
      " ala": 2197,
      " julkis": 2198,
      "Kaikki": 2199,
      "paika": 2200,
      "miä": 2201,
      " toteaa": 2202,
      " ir": 2203,
      "ude": 2204,
      "uteen": 2205,
      " siellä": 2206,
      " pur": 2207,
      " aiko": 2208,
      "gan": 2209,
      " puolustus": 2210,
      "Yksi": 2211,
      " väki": 2212,
      "ältä": 2213,
      " Biden": 2214,
      " huoma": 2215,
      "ly": 2216,
      " toista": 2217,
      " tätä": 2218,
      "vaal": 2219,
      " asiasta": 2220,
      "199": 2221,
      "ittää": 2222,
      "ily": 2223,
      " pe": 2224,
      " yhä": 2225,
      " por": 2226,
      " Kar": 2227,
      "Ha": 2228,
      "ensa": 2229,
      "tali": 2230,
      "Yhdys": 2231,
      " syks": 2232,
      " tälla": 2233,
      " Re": 2234,
      "dia": 2235,
      " silloin": 2236,
      "ppa": 2237,
      " hyväks": 2238,
      "liig": 2239,
      "ola": 2240,
      "itys": 2241,
      "kat": 2242,
      "kapa": 2243,
      " vih": 2244,
      "llik": 2245,
      "ilja": 2246,
      "40": 2247,
      "ksiä": 2248,
      "miseksi": 2249,
      " Iltale": 2250,
      "hdot": 2251,
      " rakenn": 2252,
      "ge": 2253,
      " arv": 2254,
      "ttoa": 2255,
      " jään": 2256,
      "onn": 2257,
      "ulo": 2258,
      "illä": 2259,
      "änsi": 2260,
      "maal": 2261,
      "toin": 2262,
      " NHL": 2263,
      "mokra": 2264,
      " viikko": 2265,
      " pä": 2266,
      "yhtiö": 2267,
      "Kes": 2268,
      "ry": 2269,
      "hall": 2270,
      " vanhe": 2271,
      " työsken": 2272,
      " uud": 2273,
      "äällä": 2274,
      "ilun": 2275,
      " ympäri": 2276,
      " käyt": 2277,
      "telä": 2278,
      "tur": 2279,
      " suk": 2280,
      " ap": 2281,
      " fina": 2282,
      "estari": 2283,
      " työnteki": 2284,
      " mukaansa": 2285,
      " kansainväl": 2286,
      " asu": 2287,
      " ensimmäinen": 2288,
      "äneet": 2289,
      "issaan": 2290,
      " ehkä": 2291,
      " tied": 2292,
      " kirja": 2293,
      " tehty": 2294,
      "Ensi": 2295,
      " poi": 2296,
      "innan": 2297,
      " tiedotteessa": 2298,
      "Ki": 2299,
      "nö": 2300,
      " saattaa": 2301,
      " tyy": 2302,
      " ilmoit": 2303,
      " sijaan": 2304,
      "Asi": 2305,
      "tiet": 2306,
      "istunut": 2307,
      "mper": 2308,
      " ihmistä": 2309,
      "uor": 2310,
      "kär": 2311,
      "teita": 2312,
      " Ke": 2313,
      "misestä": 2314,
      " ran": 2315,
      "eeksi": 2316,
      " do": 2317,
      "Lue": 2318,
      " tien": 2319,
      " muita": 2320,
      "ihto": 2321,
      " Ja": 2322,
      " pysty": 2323,
      "eihin": 2324,
      " joissa": 2325,
      " vel": 2326,
      "ata": 2327,
      " Ga": 2328,
      " jolla": 2329,
      "ukse": 2330,
      " suora": 2331,
      " kasv": 2332,
      "eraa": 2333,
      "uha": 2334,
      " enna": 2335,
      " selvä": 2336,
      " mel": 2337,
      "Kyse": 2338,
      " pysä": 2339,
      " erittäin": 2340,
      " jotta": 2341,
      " keske": 2342,
      "berg": 2343,
      "vas": 2344,
      " ilta": 2345,
      " jälleen": 2346,
      " josta": 2347,
      "ittaja": 2348,
      "Il": 2349,
      "alais": 2350,
      "iheessa": 2351,
      " odo": 2352,
      "kem": 2353,
      "jille": 2354,
      " ajo": 2355,
      " tapahtui": 2356,
      " tänään": 2357,
      "Var": 2358,
      "pah": 2359,
      "onal": 2360,
      " menn": 2361,
      " New": 2362,
      "io": 2363,
      "määrä": 2364,
      " kokona": 2365,
      " olympia": 2366,
      "kti": 2367,
      "pol": 2368,
      "hing": 2369,
      " vaikuttaa": 2370,
      " Suomeen": 2371,
      "kilpail": 2372,
      "tetään": 2373,
      "joitus": 2374,
      " tekee": 2375,
      " täy": 2376,
      "ers": 2377,
      " neljän": 2378,
      "ydessä": 2379,
      " pitkään": 2380,
      "kse": 2381,
      "opim": 2382,
      " lopulta": 2383,
      " jotain": 2384,
      " takaisin": 2385,
      "ilija": 2386,
      " tähän": 2387,
      "Mar": 2388,
      " poliitt": 2389,
      "stö": 2390,
      " Euroopan": 2391,
      "ros": 2392,
      " lapsi": 2393,
      "An": 2394,
      " kahde": 2395,
      "suomala": 2396,
      " kuulu": 2397,
      "22": 2398,
      " sotil": 2399,
      " it": 2400,
      " pidä": 2401,
      " tutkin": 2402,
      "yksessä": 2403,
      " antaa": 2404,
      " järjestä": 2405,
      " kaup": 2406,
      " käynn": 2407,
      " myy": 2408,
      "pon": 2409,
      "Pel": 2410,
      " seitse": 2411,
      " käyttää": 2412,
      "imi": 2413,
      " ain": 2414,
      " vuosina": 2415,
      "kerta": 2416,
      " myötä": 2417,
      "Sal": 2418,
      " yhteist": 2419,
      "ulu": 2420,
      " sijaitse": 2421,
      " main": 2422,
      " tuleva": 2423,
      " auton": 2424,
      " niiden": 2425,
      " Haa": 2426,
      " pyr": 2427,
      "osin": 2428,
      " syys": 2429,
      " ensimmäisen": 2430,
      " kohtaa": 2431,
      " suorit": 2432,
      "Suomala": 2433,
      "päin": 2434,
      "reen": 2435,
      "uksella": 2436,
      " ottelun": 2437,
      " järjeste": 2438,
      "Ukra": 2439,
      " kai": 2440,
      " ur": 2441,
      " samalla": 2442,
      " voidaan": 2443,
      "arras": 2444,
      "par": 2445,
      " hänelle": 2446,
      " puolu": 2447,
      " lasten": 2448,
      "järjestel": 2449,
      " huolimatta": 2450,
      "utkin": 2451,
      "liiton": 2452,
      "ser": 2453,
      " opp": 2454,
      " ajat": 2455,
      "24": 2456,
      " lapsen": 2457,
      "tit": 2458,
      "anen": 2459,
      "llyt": 2460,
      "joitti": 2461,
      " anta": 2462,
      "kusta": 2463,
      "Ti": 2464,
      "istuu": 2465,
      " yö": 2466,
      " turvallisuus": 2467,
      " nopeasti": 2468,
      " voima": 2469,
      " hyvinvoin": 2470,
      " loukkaan": 2471,
      "anska": 2472,
      " eteen": 2473,
      " maahan": 2474,
      "teessa": 2475,
      " käräjäoike": 2476,
      " Yhdysvaltain": 2477,
      " haluaa": 2478,
      "Esimerkiksi": 2479,
      "mät": 2480,
      "sy": 2481,
      " voitto": 2482,
      " liian": 2483,
      "Ku": 2484,
      "edia": 2485,
      " elämän": 2486,
      " vaihto": 2487,
      "met": 2488,
      " päätty": 2489,
      " tulla": 2490,
      "ander": 2491,
      " pud": 2492,
      "mu": 2493,
      "öl": 2494,
      "ottaa": 2495,
      " huon": 2496,
      "istää": 2497,
      " jär": 2498,
      "mmi": 2499,
      "ire": 2500,
      "yksiä": 2501,
      " huh": 2502,
      " vapa": 2503,
      "laisen": 2504,
      " joutui": 2505,
      "mpiala": 2506,
      " läpi": 2507,
      " puhu": 2508,
      "Mies": 2509,
      "inna": 2510,
      " kesken": 2511,
      " löytyy": 2512,
      "23": 2513,
      "jista": 2514,
      "onin": 2515,
      "kiä": 2516,
      "tuo": 2517,
      "ttila": 2518,
      " erityisesti": 2519,
      "iso": 2520,
      "pit": 2521,
      " uude": 2522,
      " joukko": 2523,
      "olta": 2524,
      "uraa": 2525,
      " ihmisiä": 2526,
      "Par": 2527,
      "otus": 2528,
      " laus": 2529,
      "vara": 2530,
      "tteet": 2531,
      "mppan": 2532,
      " ikä": 2533,
      " Il": 2534,
      "ii": 2535,
      "alle": 2536,
      "utua": 2537,
      "ville": 2538,
      " kohta": 2539,
      "ksua": 2540,
      " kerrotaan": 2541,
      "21": 2542,
      "-Sanomat": 2543,
      " luonn": 2544,
      " paik": 2545,
      " toiv": 2546,
      " hoit": 2547,
      "tor": 2548,
      " viikonl": 2549,
      " tehtä": 2550,
      " yhteensä": 2551,
      " raja": 2552,
      " puole": 2553,
      " kymmenen": 2554,
      " jolloin": 2555,
      " nainen": 2556,
      "valmentaja": 2557,
      " yhteydessä": 2558,
      " äänestä": 2559,
      "hy": 2560,
      " tan": 2561,
      "olm": 2562,
      " lähti": 2563,
      " kuuluu": 2564,
      "rik": 2565,
      " asiaa": 2566,
      "kön": 2567,
      "uissa": 2568,
      " tosi": 2569,
      ")\n": 2570,
      " vapaa": 2571,
      " poliisin": 2572,
      " aiheutta": 2573,
      "Venäjän": 2574,
      "Hall": 2575,
      " valtion": 2576,
      " suunnitel": 2577,
      "vallan": 2578,
      "-ilta": 2579,
      "ustaa": 2580,
      " kansaned": 2581,
      " viisi": 2582,
      " näk": 2583,
      " varsin": 2584,
      "ttain": 2585,
      " liig": 2586,
      "nen": 2587,
      " kahd": 2588,
      "ves": 2589,
      " osaa": 2590,
      " yliop": 2591,
      " joiden": 2592,
      "puh": 2593,
      " Ho": 2594,
      "ban": 2595,
      " laps": 2596,
      "ttävän": 2597,
      " kerton": 2598,
      " valmista": 2599,
      " tästä": 2600,
      " help": 2601,
      "pelaa": 2602,
      "ilan": 2603,
      "ete": 2604,
      "koa": 2605,
      " Mä": 2606,
      " Ruotsin": 2607,
      "co": 2608,
      " mitta": 2609,
      "ero": 2610,
      " vaikutta": 2611,
      "iaa": 2612,
      "siin": 2613,
      " meidän": 2614,
      "istus": 2615,
      " kilpa": 2616,
      "hä": 2617,
      "tilan": 2618,
      "tyksen": 2619,
      "kinen": 2620,
      "tanen": 2621,
      " terveys": 2622,
      " myyn": 2623,
      "ttäjä": 2624,
      "Tämän": 2625,
      " tieto": 2626,
      " tausta": 2627,
      "ttämään": 2628,
      " nimi": 2629,
      "vy": 2630,
      " histori": 2631,
      " lyh": 2632,
      "riin": 2633,
      "Pal": 2634,
      "voima": 2635,
      "pahtu": 2636,
      "vista": 2637,
      "isko": 2638,
      "isuudessa": 2639,
      " kuljet": 2640,
      " ihmiset": 2641,
      "llisuuden": 2642,
      " ympär": 2643,
      " Kan": 2644,
      " koi": 2645,
      " sään": 2646,
      "eena": 2647,
      "Ro": 2648,
      "siv": 2649,
      " viranoma": 2650,
      " saav": 2651,
      "muksen": 2652,
      "öy": 2653,
      "kaup": 2654,
      " Ri": 2655,
      " jaks": 2656,
      " vähen": 2657,
      " kannattaa": 2658,
      "tele": 2659,
      "ttien": 2660,
      "bo": 2661,
      " musi": 2662,
      "ehti": 2663,
      " pari": 2664,
      " ruoka": 2665,
      "Te": 2666,
      " krit": 2667,
      " marras": 2668,
      " El": 2669,
      " kierro": 2670,
      "uton": 2671,
      "ksella": 2672,
      " En": 2673,
      "aton": 2674,
      "kaupun": 2675,
      "Kä": 2676,
      " valtio": 2677,
      " tulisi": 2678,
      "uvos": 2679,
      "itoksen": 2680,
      " vaikea": 2681,
      " hien": 2682,
      "asin": 2683,
      " Oulun": 2684,
      " näyttä": 2685,
      " mole": 2686,
      " onko": 2687,
      " yksin": 2688,
      "Suomessa": 2689,
      " toiminta": 2690,
      "läh": 2691,
      "konen": 2692,
      "laista": 2693,
      " runsa": 2694,
      " Itä": 2695,
      " kirjoitti": 2696,
      "kanen": 2697,
      " osallistu": 2698,
      "usto": 2699,
      "fi": 2700,
      " taso": 2701,
      "ehdo": 2702,
      "ttyä": 2703,
      "ttunut": 2704,
      " lämpö": 2705,
      " erä": 2706,
      "Helsin": 2707,
      "yksestä": 2708,
      " minkä": 2709,
      " ura": 2710,
      "rien": 2711,
      " Kor": 2712,
      " koske": 2713,
      "uur": 2714,
      " naisten": 2715,
      " ilmoitti": 2716,
      "sissa": 2717,
      " prin": 2718,
      "änsä": 2719,
      "ksesta": 2720,
      "100": 2721,
      "aleissa": 2722,
      "jun": 2723,
      "tänyt": 2724,
      "joita": 2725,
      "att": 2726,
      " EM": 2727,
      " päivän": 2728,
      " kal": 2729,
      "matto": 2730,
      "iha": 2731,
      " rikos": 2732,
      " sota": 2733,
      " suurin": 2734,
      "onald": 2735,
      "kymmen": 2736,
      " moni": 2737,
      "änen": 2738,
      "Ni": 2739,
      " tek": 2740,
      " kolmen": 2741,
      "istaan": 2742,
      " loka": 2743,
      "kää": 2744,
      " ratkais": 2745,
      "Lap": 2746,
      "tteita": 2747,
      "jar": 2748,
      " joista": 2749,
      " päälle": 2750,
      " työn": 2751,
      "Ruot": 2752,
      " Israelin": 2753,
      "Ke": 2754,
      " keskusta": 2755,
      "kissa": 2756,
      "etin": 2757,
      "60": 2758,
      "isilla": 2759,
      " kohti": 2760,
      "ttivät": 2761,
      " kaiken": 2762,
      " tunte": 2763,
      "dy": 2764,
      "jalla": 2765,
      " tuke": 2766,
      " ravinto": 2767,
      " totesi": 2768,
      "ps": 2769,
      " olleen": 2770,
      "yön": 2771,
      " yhti": 2772,
      "ykset": 2773,
      "-P": 2774,
      "vissä": 2775,
      " ris": 2776,
      " maali": 2777,
      " Ukrain": 2778,
      "hte": 2779,
      "iemi": 2780,
      "annetta": 2781,
      " julkaisi": 2782,
      " pohti": 2783,
      " kapp": 2784,
      " ulos": 2785,
      "rö": 2786,
      "ttelun": 2787,
      " Var": 2788,
      " asun": 2789,
      " uutisoi": 2790,
      " Ve": 2791,
      " helm": 2792,
      "ineen": 2793,
      "-p": 2794,
      "ynä": 2795,
      "palvelu": 2796,
      "tis": 2797,
      "ikku": 2798,
      " vaiheessa": 2799,
      " muiden": 2800,
      " tehtävä": 2801,
      " onnettom": 2802,
      " pako": 2803,
      " metsä": 2804,
      " nime": 2805,
      " suure": 2806,
      " verran": 2807,
      "järjestö": 2808,
      "-Suomen": 2809,
      "aston": 2810,
      "eijon": 2811,
      " päätt": 2812,
      " sodan": 2813,
      " neuvo": 2814,
      " oikeus": 2815,
      " uutta": 2816,
      "vali": 2817,
      "kal": 2818,
      " Va": 2819,
      " tamm": 2820,
      "mpp": 2821,
      " vaikut": 2822,
      " som": 2823,
      "matka": 2824,
      " jouk": 2825,
      "väli": 2826,
      " viestin": 2827,
      "sel": 2828,
      " viiden": 2829,
      "mäki": 2830,
      " heinä": 2831,
      " muistuttaa": 2832,
      "Ol": 2833,
      " kah": 2834,
      " muuto": 2835,
      "und": 2836,
      "tetta": 2837,
      "mpien": 2838,
      " Ch": 2839,
      " oikein": 2840,
      " vesi": 2841,
      "antuntija": 2842,
      "ose": 2843,
      " Joh": 2844,
      "Läh": 2845,
      "iki": 2846,
      "ihd": 2847,
      " joku": 2848,
      " elin": 2849,
      " takana": 2850,
      "mästä": 2851,
      " maalis": 2852,
      "-sar": 2853,
      "Le": 2854,
      " hir": 2855,
      "ttävät": 2856,
      " Da": 2857,
      "ttävästi": 2858,
      "oili": 2859,
      " silti": 2860,
      " perinte": 2861,
      " use": 2862,
      " muod": 2863,
      "gissä": 2864,
      " miksi": 2865,
      "kok": 2866,
      " asioita": 2867,
      " haastattelussa": 2868,
      "kauden": 2869,
      " sair": 2870,
      " Leh": 2871,
      " edessä": 2872,
      "Tällä": 2873,
      " kärsi": 2874,
      " perheen": 2875,
      "Me": 2876,
      "uksena": 2877,
      "uilla": 2878,
      "isuuden": 2879,
      "ess": 2880,
      " vanke": 2881,
      "tava": 2882,
      "mana": 2883,
      "kau": 2884,
      " johtaja": 2885,
      "vio": 2886,
      "kansa": 2887,
      "estys": 2888,
      " mediassa": 2889,
      "Vir": 2890,
      " hänellä": 2891,
      " näkö": 2892,
      " varmasti": 2893,
      " alue": 2894,
      " ulkoma": 2895,
      "cup": 2896,
      " liikenne": 2897,
      " ohj": 2898,
      " tuolloin": 2899,
      "Van": 2900,
      "27": 2901,
      "paikka": 2902,
      " asian": 2903,
      " Alex": 2904,
      " lähtö": 2905,
      "mällä": 2906,
      " tietoa": 2907,
      "-ar": 2908,
      "iks": 2909,
      " paikka": 2910,
      "uper": 2911,
      "pin": 2912,
      "ör": 2913,
      "assi": 2914,
      "istön": 2915,
      " antoi": 2916,
      "annin": 2917,
      " seitsemän": 2918,
      " täällä": 2919,
      " leikka": 2920,
      " juhli": 2921,
      " ykkö": 2922,
      " kampan": 2923,
      "hon": 2924,
      " olympiala": 2925,
      " pääministeri": 2926,
      " mieli": 2927,
      "yhte": 2928,
      " loppu": 2929,
      "-iltana": 2930,
      "Osa": 2931,
      "tissa": 2932,
      "olin": 2933,
      " päivänä": 2934,
      " päätös": 2935,
      " tarvitse": 2936,
      "Tur": 2937,
      " pelasi": 2938,
      "maton": 2939,
      "Trump": 2940,
      " haa": 2941,
      " Etelä": 2942,
      " ennä": 2943,
      " ottelussa": 2944,
      " Salon": 2945,
      "astusla": 2946,
      "laisia": 2947,
      "residentti": 2948,
      "tsa": 2949,
      "mpää": 2950,
      "mansa": 2951,
      " IS": 2952,
      " toimitus": 2953,
      "puolella": 2954,
      " tapahtun": 2955,
      " demokra": 2956,
      " Van": 2957,
      "-ta": 2958,
      "enkin": 2959,
      " jalkapa": 2960,
      "-A": 2961,
      "vina": 2962,
      "isuutta": 2963,
      "Tar": 2964,
      " yhde": 2965,
      " teko": 2966,
      "ikaa": 2967,
      "poli": 2968,
      "raken": 2969,
      " Kr": 2970,
      " miesten": 2971,
      "llikkö": 2972,
      "umer": 2973,
      "aste": 2974,
      "oiv": 2975,
      "imen": 2976,
      " markkin": 2977,
      "go": 2978,
      " vase": 2979,
      "vet": 2980,
      "oitus": 2981,
      "ttelijä": 2982,
      "huo": 2983,
      " liikku": 2984,
      "Vuonna": 2985,
      "Mon": 2986,
      " etsi": 2987,
      " Lap": 2988,
      " laske": 2989,
      " ääri": 2990,
      "kier": 2991,
      "ykseen": 2992,
      " kevä": 2993,
      " luki": 2994,
      " johon": 2995,
      " Rovan": 2996,
      "luo": 2997,
      "aat": 2998,
      " kaikke": 2999,
      " inn": 3000,
      "ritan": 3001,
      " Per": 3002,
      " tarkoitus": 3003,
      "So": 3004,
      "ujen": 3005,
      " pist": 3006,
      "tie": 3007,
      " usea": 3008,
      "jetta": 3009,
      " The": 3010,
      "Venäjä": 3011,
      "Tässä": 3012,
      "hoi": 3013,
      " luke": 3014,
      " kuts": 3015,
      " talous": 3016,
      "IS": 3017,
      " laj": 3018,
      "198": 3019,
      " joukkueen": 3020,
      " suunni": 3021,
      " sisäl": 3022,
      "politi": 3023,
      "Oli": 3024,
      " Lo": 3025,
      " pian": 3026,
      " vaara": 3027,
      "tän": 3028,
      "Kir": 3029,
      " Hä": 3030,
      "suo": 3031,
      " kertonut": 3032,
      "Kyllä": 3033,
      "TV": 3034,
      "ena": 3035,
      "tavat": 3036,
      " Kos": 3037,
      "intään": 3038,
      "kkos": 3039,
      " Car": 3040,
      " verkko": 3041,
      " välttämä": 3042,
      " Tamper": 3043,
      " kr": 3044,
      " kri": 3045,
      "kien": 3046,
      "mille": 3047,
      "tteja": 3048,
      "ttely": 3049,
      " suomalais": 3050,
      " tuom": 3051,
      "ister": 3052,
      " tod": 3053,
      "dio": 3054,
      " avaus": 3055,
      "Sitt": 3056,
      " hinta": 3057,
      "oimin": 3058,
      "jala": 3059,
      " lähellä": 3060,
      " mistä": 3061,
      " kuollut": 3062,
      "TT": 3063,
      "mit": 3064,
      "pen": 3065,
      "ull": 3066,
      " Mikko": 3067,
      "essään": 3068,
      " hyvinvointi": 3069,
      " tarp": 3070,
      ".)": 3071,
      "jalta": 3072,
      " kuvaa": 3073,
      "oitu": 3074,
      " valmi": 3075,
      "kot": 3076,
      " kisa": 3077,
      " SM": 3078,
      " suoraan": 3079,
      "imm": 3080,
      " tiedä": 3081,
      " ydin": 3082,
      "sit": 3083,
      "Oike": 3084,
      " tapaa": 3085,
      "Puol": 3086,
      "Suomi": 3087,
      "htiin": 3088,
      " toimii": 3089,
      "Maa": 3090,
      "alo": 3091,
      "ysti": 3092,
      "ohjan": 3093,
      " tietojen": 3094,
      "neen": 3095,
      " ilmi": 3096,
      " ero": 3097,
      "ttori": 3098,
      " voinut": 3099,
      " tyh": 3100,
      " Yle": 3101,
      " poika": 3102,
      "Siin": 3103,
      "urs": 3104,
      "hdist": 3105,
      "lamen": 3106,
      " Me": 3107,
      " Ba": 3108,
      " For": 3109,
      " etelä": 3110,
      "26": 3111,
      " sanoa": 3112,
      " kuusi": 3113,
      "hyö": 3114,
      " hur": 3115,
      " hilja": 3116,
      "Kar": 3117,
      "tinen": 3118,
      "ttun": 3119,
      " alla": 3120,
      "ttiä": 3121,
      " Iltalehdelle": 3122,
      " tv": 3123,
      " kuning": 3124,
      "udu": 3125,
      "can": 3126,
      "misessa": 3127,
      "tonen": 3128,
      " melko": 3129,
      "tyks": 3130,
      "eitä": 3131,
      "käri": 3132,
      " Vi": 3133,
      " korja": 3134,
      " olevansa": 3135,
      " seksua": 3136,
      " uusia": 3137,
      " syytä": 3138,
      " sairaala": 3139,
      " paras": 3140,
      " rea": 3141,
      "ät": 3142,
      " alkoh": 3143,
      " entinen": 3144,
      " todennäköisesti": 3145,
      " Gaz": 3146,
      "ivo": 3147,
      " tekemään": 3148,
      "olog": 3149,
      " Pari": 3150,
      " di": 3151,
      " Te": 3152,
      "kenut": 3153,
      " isä": 3154,
      "Ole": 3155,
      "lly": 3156,
      " tee": 3157,
      " olemme": 3158,
      " puhel": 3159,
      " vanh": 3160,
      " pelaaja": 3161,
      "lliseen": 3162,
      " vuosien": 3163,
      " urheil": 3164,
      "Siinä": 3165,
      "eidän": 3166,
      " alusta": 3167,
      "joitta": 3168,
      " vaali": 3169,
      " nosta": 3170,
      " tuttu": 3171,
      " Yhdysval": 3172,
      "use": 3173,
      " yön": 3174,
      " lah": 3175,
      " miljar": 3176,
      "joukkueen": 3177,
      " kuukauden": 3178,
      "gissa": 3179,
      " aset": 3180,
      " minuu": 3181,
      " löyt": 3182,
      " jääkie": 3183,
      " lauanta": 3184,
      "gn": 3185,
      " oikeuden": 3186,
      " meillä": 3187,
      " kilometrin": 3188,
      "29": 3189,
      "ktiiv": 3190,
      " maalin": 3191,
      "iemen": 3192,
      " aloitti": 3193,
      " Antti": 3194,
      " merkit": 3195,
      " tietää": 3196,
      "asen": 3197,
      "ännössä": 3198,
      "Ensimmä": 3199,
      "yrit": 3200,
      "Tie": 3201,
      " puolesta": 3202,
      " hyökkäys": 3203,
      " uudelleen": 3204,
      " Nato": 3205,
      "eor": 3206,
      "teiden": 3207,
      " uhka": 3208,
      " näkyy": 3209,
      " yritys": 3210,
      "Yle": 3211,
      "ule": 3212,
      "lehden": 3213,
      " osalta": 3214,
      " euro": 3215,
      "koko": 3216,
      " Lind": 3217,
      "ip": 3218,
      "ukoku": 3219,
      " yleisö": 3220,
      "kari": 3221,
      "olle": 3222,
      " kei": 3223,
      " asunn": 3224,
      " korva": 3225,
      "markkin": 3226,
      "sien": 3227,
      " hallin": 3228,
      " metrin": 3229,
      "Koko": 3230,
      "juo": 3231,
      " ruu": 3232,
      "inin": 3233,
      "istoim": 3234,
      "äiri": 3235,
      " menee": 3236,
      " löytyi": 3237,
      " media": 3238,
      "alis": 3239,
      " tappi": 3240,
      " mennessä": 3241,
      "ttor": 3242,
      "malle": 3243,
      " puolue": 3244,
      " ensimmäistä": 3245,
      " nimen": 3246,
      " mestar": 3247,
      " kuvan": 3248,
      " päätti": 3249,
      " No": 3250,
      "ooli": 3251,
      " Instagram": 3252,
      " päiv": 3253,
      " huipp": 3254,
      "28": 3255,
      " oleva": 3256,
      " kyseessä": 3257,
      " määr": 3258,
      " poikkeukse": 3259,
      "nassa": 3260,
      "mir": 3261,
      "muut": 3262,
      " ympäristö": 3263,
      "35": 3264,
      "yyden": 3265,
      " Fa": 3266,
      " paikalla": 3267,
      "Re": 3268,
      " tehdään": 3269,
      " tilanteessa": 3270,
      "for": 3271,
      "itin": 3272,
      " naisen": 3273,
      "Nor": 3274,
      " loppuun": 3275,
      " vaatii": 3276,
      " kahdeksan": 3277,
      "uita": 3278,
      " mieltä": 3279,
      "ytti": 3280,
      " up": 3281,
      "Lop": 3282,
      "milla": 3283,
      " kerä": 3284,
      " ihme": 3285,
      " kannalta": 3286,
      "tämään": 3287,
      " ensin": 3288,
      " kuvailee": 3289,
      "uoli": 3290,
      " So": 3291,
      "estään": 3292,
      " käyttöön": 3293,
      "Har": 3294,
      "eesta": 3295,
      " Mer": 3296,
      " harr": 3297,
      " selvästi": 3298,
      "jal": 3299,
      " osta": 3300,
      "isteri": 3301,
      "aran": 3302,
      " kovin": 3303,
      "BC": 3304,
      "eista": 3305,
      "uni": 3306,
      " ruot": 3307,
      " lähet": 3308,
      " aiku": 3309,
      " pyrki": 3310,
      " vastusta": 3311,
      "lon": 3312,
      " hake": 3313,
      " pitänyt": 3314,
      " Yor": 3315,
      " normaal": 3316,
      "liitto": 3317,
      "sessa": 3318,
      "udesta": 3319,
      " jatkuu": 3320,
      "llistä": 3321,
      "Kaksi": 3322,
      "sää": 3323,
      " raa": 3324,
      " rah": 3325,
      " tuotan": 3326,
      " kaikkien": 3327,
      "Työ": 3328,
      "bi": 3329,
      " tapauksessa": 3330,
      " ikään": 3331,
      "llisten": 3332,
      "isemmin": 3333,
      " opet": 3334,
      " äiti": 3335,
      "jalle": 3336,
      "Isra": 3337,
      "musta": 3338,
      "tähti": 3339,
      "ikkoja": 3340,
      "etteri": 3341,
      "ivi": 3342,
      " klo": 3343,
      "elma": 3344,
      " palaa": 3345,
      " lähtien": 3346,
      " päivää": 3347,
      " jonkin": 3348,
      " vuodesta": 3349,
      " mihin": 3350,
      "teissa": 3351,
      " nähtiin": 3352,
      " Por": 3353,
      "uksien": 3354,
      " perussuomala": 3355,
      "PS": 3356,
      " naa": 3357,
      " perust": 3358,
      " dolla": 3359,
      "Sitten": 3360,
      " vet": 3361,
      "ulussa": 3362,
      " kova": 3363,
      " tarkoittaa": 3364,
      "Meillä": 3365,
      "hto": 3366,
      "isivat": 3367,
      "opea": 3368,
      "irin": 3369,
      " aloit": 3370,
      " politi": 3371,
      "Hy": 3372,
      " vil": 3373,
      "tävät": 3374,
      "paikan": 3375,
      " kevää": 3376,
      " verra": 3377,
      "htaa": 3378,
      "ttuuri": 3379,
      "ca": 3380,
      " juttu": 3381,
      "ettava": 3382,
      " tärkeä": 3383,
      " tyyty": 3384,
      " etenkin": 3385,
      " omaa": 3386,
      " kotiin": 3387,
      " vii": 3388,
      " pääse": 3389,
      " poliis": 3390,
      "Mo": 3391,
      "esi": 3392,
      "inaan": 3393,
      "insa": 3394,
      "neksi": 3395,
      " Donald": 3396,
      "Niin": 3397,
      " sata": 3398,
      "bri": 3399,
      "peli": 3400,
      "ikenne": 3401,
      " asiakka": 3402,
      " u": 3403,
      " paikalle": 3404,
      "del": 3405,
      " joilla": 3406,
      "mari": 3407,
      "tajat": 3408,
      " energ": 3409,
      "vallo": 3410,
      "etun": 3411,
      "deksi": 3412,
      " Hen": 3413,
      " harjoit": 3414,
      " paremmin": 3415,
      "mättä": 3416,
      " tuore": 3417,
      "stään": 3418,
      " niistä": 3419,
      " päättyi": 3420,
      "ris": 3421,
      "anskan": 3422,
      " Israel": 3423,
      " yhteistyö": 3424,
      "Kat": 3425,
      " tavoit": 3426,
      "menn": 3427,
      "-vuotiaan": 3428,
      "ministeriön": 3429,
      "anin": 3430,
      "uiden": 3431,
      " varten": 3432,
      "ens": 3433,
      "isaa": 3434,
      " kur": 3435,
      "istan": 3436,
      " luon": 3437,
      "90": 3438,
      "voimien": 3439,
      " suhteen": 3440,
      "-ti": 3441,
      "veri": 3442,
      " rapor": 3443,
      "gaist": 3444,
      " paris": 3445,
      " aikoo": 3446,
      " suuntaan": 3447,
      "mur": 3448,
      " mennä": 3449,
      "kunnassa": 3450,
      " Naton": 3451,
      "oppuna": 3452,
      "-o": 3453,
      "vistä": 3454,
      "..": 3455,
      "ts": 3456,
      " ry": 3457,
      " Bo": 3458,
      " uk": 3459,
      "80": 3460,
      "gl": 3461,
      "alissa": 3462,
      " tärkeää": 3463,
      "dyn": 3464,
      "aren": 3465,
      " Mo": 3466,
      " täytyy": 3467,
      " isku": 3468,
      "vist": 3469,
      " lähi": 3470,
      " milla": 3471,
      " jatko": 3472,
      " tuntuu": 3473,
      "mmista": 3474,
      " minuut": 3475,
      " vasemm": 3476,
      "osuh": 3477,
      " taa": 3478,
      "laiset": 3479,
      " rahaa": 3480,
      " kasva": 3481,
      " yleensä": 3482,
      "prin": 3483,
      "ähän": 3484,
      " kantaa": 3485,
      " saapui": 3486,
      "500": 3487,
      "rän": 3488,
      "kassa": 3489,
      " itsen": 3490,
      "tra": 3491,
      "vos": 3492,
      "isku": 3493,
      " eniten": 3494,
      "äiriö": 3495,
      "sut": 3496,
      " hyvää": 3497,
      " juon": 3498,
      "my": 3499,
      "isyys": 3500,
      " Tim": 3501,
      " kertovat": 3502,
      " Alexander": 3503,
      "ksista": 3504,
      " vira": 3505,
      "Poliisin": 3506,
      "gas": 3507,
      "Til": 3508,
      "eria": 3509,
      " ohi": 3510,
      "oikeus": 3511,
      " aiheuttaa": 3512,
      " urheili": 3513,
      " sellainen": 3514,
      "miel": 3515,
      " paran": 3516,
      "delle": 3517,
      "alia": 3518,
      "Voi": 3519,
      " päällä": 3520,
      "hka": 3521,
      "itetty": 3522,
      " ihmisten": 3523,
      " avulla": 3524,
      "Po": 3525,
      " pot": 3526,
      " nämä": 3527,
      "päätö": 3528,
      "valle": 3529,
      "atin": 3530,
      " voittanut": 3531,
      ":\n": 3532,
      " Mi": 3533,
      " hallit": 3534,
      " jatkoi": 3535,
      "istelee": 3536,
      " ui": 3537,
      "70": 3538,
      "and": 3539,
      " run": 3540,
      " tapahtunut": 3541,
      " jäänyt": 3542,
      "llisi": 3543,
      " Un": 3544,
      " jatkossa": 3545,
      "Olemme": 3546,
      "teeseen": 3547,
      " laitt": 3548,
      " teho": 3549,
      " lähde": 3550,
      " nuori": 3551,
      "auto": 3552,
      " mik": 3553,
      " nostaa": 3554,
      "kkiä": 3555,
      "-s": 3556,
      "Mitä": 3557,
      " minulle": 3558,
      " Turun": 3559,
      " kappal": 3560,
      " kusta": 3561,
      "tenä": 3562,
      " tuotta": 3563,
      " pahoin": 3564,
      "uttua": 3565,
      "ikoi": 3566,
      "nettom": 3567,
      " luku": 3568,
      "yteen": 3569,
      " nuorten": 3570,
      " toistaiseksi": 3571,
      " seksuaal": 3572,
      " sijoi": 3573,
      " kohtaan": 3574,
      "tön": 3575,
      " etu": 3576,
      " Par": 3577,
      " korkea": 3578,
      "keskus": 3579,
      " koton": 3580,
      " lopussa": 3581,
      " pieni": 3582,
      " kolmann": 3583,
      "Kesk": 3584,
      "Pit": 3585,
      "Sitä": 3586,
      "tteiden": 3587,
      "istua": 3588,
      " epäillään": 3589,
      "Kos": 3590,
      " Su": 3591,
      " nähty": 3592,
      " mö": 3593,
      " epäilty": 3594,
      "uskin": 3595,
      " kanta": 3596,
      "äärin": 3597,
      " päävalmentaja": 3598,
      "olan": 3599,
      "Vä": 3600,
      " tas": 3601,
      " nähdään": 3602,
      " anne": 3603,
      "mei": 3604,
      " Pal": 3605,
      " rahoit": 3606,
      " pääsee": 3607,
      "Helsingin": 3608,
      "valio": 3609,
      "hun": 3610,
      "tilais": 3611,
      " luotta": 3612,
      " puna": 3613,
      " toukoku": 3614,
      " tilannetta": 3615,
      "ministeriö": 3616,
      " pistettä": 3617,
      "lassa": 3618,
      " sama": 3619,
      " suhta": 3620,
      "Ed": 3621,
      "Kär": 3622,
      "isteli": 3623,
      "uttamaan": 3624,
      " Co": 3625,
      " huomatta": 3626,
      "päivän": 3627,
      " miljoonan": 3628,
      "Ul": 3629,
      " aino": 3630,
      " tuki": 3631,
      " samaan": 3632,
      " välttämättä": 3633,
      "-liig": 3634,
      "alassa": 3635,
      " länsi": 3636,
      "kanut": 3637,
      " nähdä": 3638,
      "kr": 3639,
      " mä": 3640,
      " kausi": 3641,
      "laisten": 3642,
      " valmis": 3643,
      " Ur": 3644,
      " Ander": 3645,
      "dotta": 3646,
      "meen": 3647,
      " Po": 3648,
      " saakka": 3649,
      " esit": 3650,
      " kiinte": 3651,
      " pääss": 3652,
      " säil": 3653,
      " minuuttia": 3654,
      " Mika": 3655,
      "Hä": 3656,
      "bli": 3657,
      "sitiiv": 3658,
      "vaik": 3659,
      " Oy": 3660,
      " julkais": 3661,
      " tapahtuma": 3662,
      "ene": 3663,
      " om": 3664,
      " sala": 3665,
      " Kat": 3666,
      " pakka": 3667,
      " halunn": 3668,
      "ttuja": 3669,
      " Bar": 3670,
      "jone": 3671,
      " Ylen": 3672,
      " saivat": 3673,
      "ritanni": 3674,
      "astu": 3675,
      " puhe": 3676,
      " ottelua": 3677,
      " sukup": 3678,
      " Pi": 3679,
      " Saksa": 3680,
      " esiinty": 3681,
      " jätti": 3682,
      " uskoo": 3683,
      " puolella": 3684,
      "Es": 3685,
      "het": 3686,
      "eloku": 3687,
      " alueen": 3688,
      " sopi": 3689,
      " toimitusjohtaja": 3690,
      "ger": 3691,
      " sisällä": 3692,
      "ere": 3693,
      " ylä": 3694,
      " kokoon": 3695,
      " vähintään": 3696,
      "Ho": 3697,
      "työ": 3698,
      "ttinen": 3699,
      " rä": 3700,
      "valloissa": 3701,
      "teli": 3702,
      " kunnossa": 3703,
      " Helsingissä": 3704,
      " rakenta": 3705,
      "johtajan": 3706,
      " lie": 3707,
      "tär": 3708,
      " minä": 3709,
      " virka": 3710,
      "Stubb": 3711,
      " rik": 3712,
      " vähemmän": 3713,
      " kaikkea": 3714,
      "lää": 3715,
      "llist": 3716,
      "utettu": 3717,
      "illia": 3718,
      " Putinin": 3719,
      " vahing": 3720,
      " halusi": 3721,
      " kannatta": 3722,
      "Ih": 3723,
      "ttelua": 3724,
      "konaan": 3725,
      " jouluk": 3726,
      " sosiaalisessa": 3727,
      " tyttö": 3728,
      "hdon": 3729,
      " kukaan": 3730,
      " Ham": 3731,
      " ollaan": 3732,
      " kokoom": 3733,
      "dc": 3734,
      "zz": 3735,
      "ute": 3736,
      "alue": 3737,
      " päässä": 3738,
      " kiel": 3739,
      " johtaa": 3740,
      " vaku": 3741,
      " muista": 3742,
      "uran": 3743,
      " puolis": 3744,
      " linja": 3745,
      " Sch": 3746,
      "estön": 3747,
      " toimitta": 3748,
      " Kiin": 3749,
      " päätöksen": 3750,
      " lyhy": 3751,
      "uti": 3752,
      "ikk": 3753,
      " ajoi": 3754,
      " kap": 3755,
      "yttänyt": 3756,
      " pysy": 3757,
      "SA": 3758,
      "villa": 3759,
      " tarvi": 3760,
      "lori": 3761,
      " tekn": 3762,
      "hu": 3763,
      "pposi": 3764,
      "toista": 3765,
      " saata": 3766,
      " saatu": 3767,
      " pelannut": 3768,
      " liitto": 3769,
      " liittyy": 3770,
      " sarja": 3771,
      "Us": 3772,
      " vaim": 3773,
      "ladi": 3774,
      " Hi": 3775,
      " maailmanm": 3776,
      "-ma": 3777,
      "publi": 3778,
      " toimittaja": 3779,
      "iskeli": 3780,
      " odottaa": 3781,
      "rilla": 3782,
      "Mikä": 3783,
      "Sie": 3784,
      "ytys": 3785,
      "non": 3786,
      "oida": 3787,
      "istään": 3788,
      " toivo": 3789,
      " liike": 3790,
      " eteenpäin": 3791,
      "-Kor": 3792,
      " hu": 3793,
      "ikö": 3794,
      " vei": 3795,
      "yneet": 3796,
      " Is": 3797,
      "Silloin": 3798,
      " Pekka": 3799,
      "Kyseessä": 3800,
      "publikaan": 3801,
      "In": 3802,
      "sivät": 3803,
      " ehdot": 3804,
      "Samalla": 3805,
      "keskuksen": 3806,
      " kokonaan": 3807,
      " maassa": 3808,
      " toiminut": 3809,
      "llia": 3810,
      "kein": 3811,
      "otto": 3812,
      "kiel": 3813,
      " Kes": 3814,
      "atta": 3815,
      " liikke": 3816,
      " taloude": 3817,
      " kohdalla": 3818,
      " keväällä": 3819,
      "ean": 3820,
      " kesän": 3821,
      "toihin": 3822,
      "maalla": 3823,
      " itä": 3824,
      "hei": 3825,
      "vittä": 3826,
      "annan": 3827,
      " tehtiin": 3828,
      "-luvun": 3829,
      " moo": 3830,
      "ilman": 3831,
      "alaisen": 3832,
      " pela": 3833,
      " ihmisen": 3834,
      " pitkän": 3835,
      " hiih": 3836,
      " kesällä": 3837,
      "kkääjä": 3838,
      "Euroop": 3839,
      "lö": 3840,
      " STT": 3841,
      "strö": 3842,
      "miehen": 3843,
      "muka": 3844,
      " ehti": 3845,
      "ilpail": 3846,
      "koja": 3847,
      " sam": 3848,
      "uston": 3849,
      "istettu": 3850,
      " vastasi": 3851,
      "ksän": 3852,
      " matkusta": 3853,
      " vär": 3854,
      " Vil": 3855,
      " voitta": 3856,
      " kutsu": 3857,
      "päällikkö": 3858,
      "län": 3859,
      "pur": 3860,
      " seli": 3861,
      " es": 3862,
      " Lu": 3863,
      "hansa": 3864,
      " Ku": 3865,
      " Ver": 3866,
      "voim": 3867,
      " johto": 3868,
      " tapahtuu": 3869,
      " ykkös": 3870,
      "jään": 3871,
      "ard": 3872,
      " c": 3873,
      " taistel": 3874,
      " teo": 3875,
      " laula": 3876,
      " järjestel": 3877,
      "45": 3878,
      " saadaan": 3879,
      " suor": 3880,
      "197": 3881,
      " prosentin": 3882,
      " Char": 3883,
      " huono": 3884,
      "-vuotiaana": 3885,
      " Petteri": 3886,
      " näkem": 3887,
      " tarkas": 3888,
      "Is": 3889,
      " turvallis": 3890,
      " muutos": 3891,
      " viikonloppuna": 3892,
      " päässyt": 3893,
      "Kan": 3894,
      "Päi": 3895,
      "mitta": 3896,
      " Tor": 3897,
      " sanon": 3898,
      " ansi": 3899,
      " juhla": 3900,
      "usin": 3901,
      "utuvat": 3902,
      "järvi": 3903,
      " Sano": 3904,
      "innon": 3905,
      " olisivat": 3906,
      " mahdollisuus": 3907,
      " yksityis": 3908,
      " Ukrainassa": 3909,
      " Br": 3910,
      " päin": 3911,
      " apua": 3912,
      " ruotsa": 3913,
      "Aie": 3914,
      "Mie": 3915,
      "ikkaan": 3916,
      "mattom": 3917,
      " käynyt": 3918,
      " saavat": 3919,
      "Ennen": 3920,
      " sinne": 3921,
      " hin": 3922,
      " ohja": 3923,
      " tukea": 3924,
      " tilanteen": 3925,
      " käytännössä": 3926,
      "kelä": 3927,
      "inti": 3928,
      " näi": 3929,
      " Pur": 3930,
      "sarjan": 3931,
      "Oh": 3932,
      " pih": 3933,
      " onkin": 3934,
      " suoja": 3935,
      " kansanedustaja": 3936,
      "Nyky": 3937,
      " De": 3938,
      "ralla": 3939,
      " tuntia": 3940,
      "rah": 3941,
      " Puol": 3942,
      " ilo": 3943,
      " riittää": 3944,
      "tteena": 3945,
      "ladimir": 3946,
      " emme": 3947,
      "oivat": 3948,
      "istossa": 3949,
      " sarjan": 3950,
      "Lä": 3951,
      "Su": 3952,
      "pot": 3953,
      "sille": 3954,
      " Suomea": 3955,
      "merikka": 3956,
      " tuntu": 3957,
      " tulevat": 3958,
      " metriä": 3959,
      " alkaen": 3960,
      "Tutki": 3961,
      "ant": 3962,
      " luva": 3963,
      " Si": 3964,
      "uudet": 3965,
      "Vide": 3966,
      " siltä": 3967,
      " ainoa": 3968,
      " vuoteen": 3969,
      " miestä": 3970,
      "vallat": 3971,
      " takaa": 3972,
      " positiiv": 3973,
      " elämä": 3974,
      "Toinen": 3975,
      " konser": 3976,
      " näytti": 3977,
      "tella": 3978,
      "teeksi": 3979,
      "issään": 3980,
      "Iltalehti": 3981,
      " vau": 3982,
      "pain": 3983,
      " kysel": 3984,
      " hätä": 3985,
      " erityisen": 3986,
      " Espan": 3987,
      " järky": 3988,
      "istoimisto": 3989,
      " ex": 3990,
      "ttävää": 3991,
      "tola": 3992,
      " kunin": 3993,
      " kehitt": 3994,
      "mb": 3995,
      "maksi": 3996,
      " rooli": 3997,
      " Haav": 3998,
      "osoit": 3999
    },
    "merges": [
      [
        "e",
        "n"
      ],
      [
        "t",
        "a"
      ],
      [
        "i",
        "s"
      ],
      [
        "i",
        "n"
      ],
      [
        "a",
        "n"
      ],
      [
        " ",
        "k"
      ],
      [
        "l",
        "l"
      ],
      [
        ".",
        "\n"
      ],
      [
        " ",
        "o"
      ],
      [
        "t",
        "t"
      ],
      [
        "s",
        "a"
      ],
      [
        "s",
        "i"
      ],
      [
        " ",
        "j"
      ],
      [
        "v",
        "a"
      ],
      [
        " ",
        "m"
      ],
      [
        " ",
        "p"
      ],
      [
        " ",
        "t"
      ],
      [
        "k",
        "a"
      ],
      [
        "i",
        "t"
      ],
      [
        "e",
        "s"
      ],
      [
        "e",
        "l"
      ],
      [
        "ä",
        "n"
      ],
      [
        "e",
        "r"
      ],
      [
        "u",
        "t"
      ],
      [
        "u",
        "o"
      ],
      [
        " ",
        "s"
      ],
      [
        " ",
        "h"
      ],
      [
        "u",
        "s"
      ],
      [
        "i",
        "k"
      ],
      [
        " ",
        "v"
      ],
      [
        "u",
        "n"
      ],
      [
        " ",
        "e"
      ],
      [
        "o",
        "n"
      ],
      [
        "a",
        "l"
      ],
      [
        "a",
        "s"
      ],
      [
        "t",
        "i"
      ],
      [
        " ",
        "l"
      ],
      [
        " j",
        "a"
      ],
      [
        "o",
        "i"
      ],
      [
        "t",
        "ä"
      ],
      [
        " o",
        "n"
      ],
      [
        "i",
        "l"
      ],
      [
        "ll",
        "a"
      ],
      [
        "e",
        "t"
      ],
      [
        "m",
        "a"
      ],
      [
        " ",
        "a"
      ],
      [
        "u",
        "k"
      ],
      [
        " ",
        "va"
      ],
      [
        "l",
        "i"
      ],
      [
        "e",
        "en"
      ],
      [
        "j",
        "a"
      ],
      [
        "o",
        "s"
      ],
      [
        "ä",
        "ä"
      ],
      [
        " ",
        "n"
      ],
      [
        "r",
        "a"
      ],
      [
        "u",
        "u"
      ],
      [
        "tt",
        "ä"
      ],
      [
        "is",
        "t"
      ],
      [
        " ",
        "ta"
      ],
      [
        "ll",
        "e"
      ],
      [
        "u",
        "l"
      ],
      [
        "k",
        "o"
      ],
      [
        "a",
        "r"
      ],
      [
        "k",
        "i"
      ],
      [
        "is",
        "ta"
      ],
      [
        "t",
        "e"
      ],
      [
        "s",
        "ä"
      ],
      [
        "d",
        "en"
      ],
      [
        "m",
        "m"
      ],
      [
        "is",
        "i"
      ],
      [
        " ",
        "y"
      ],
      [
        " k",
        "o"
      ],
      [
        "a",
        "a"
      ],
      [
        "tt",
        "i"
      ],
      [
        " j",
        "o"
      ],
      [
        "in",
        "en"
      ],
      [
        "t",
        "o"
      ],
      [
        "ll",
        "ä"
      ],
      [
        "r",
        "i"
      ],
      [
        "y",
        "ö"
      ],
      [
        "va",
        "t"
      ],
      [
        " k",
        "a"
      ],
      [
        "k",
        "si"
      ],
      [
        "v",
        "ä"
      ],
      [
        " ",
        "S"
      ],
      [
        " m",
        "u"
      ],
      [
        "y",
        "s"
      ],
      [
        " ",
        "si"
      ],
      [
        "y",
        "t"
      ],
      [
        "k",
        "e"
      ],
      [
        "l",
        "e"
      ],
      [
        "u",
        "r"
      ],
      [
        "k",
        "s"
      ],
      [
        " ",
        "sa"
      ],
      [
        " v",
        "i"
      ],
      [
        "h",
        "d"
      ],
      [
        "ta",
        "a"
      ],
      [
        "m",
        "i"
      ],
      [
        " e",
        "ttä"
      ],
      [
        "v",
        "i"
      ],
      [
        "p",
        "a"
      ],
      [
        "e",
        "i"
      ],
      [
        "ka",
        "an"
      ],
      [
        "ä",
        "än"
      ],
      [
        "k",
        "in"
      ],
      [
        " e",
        "i"
      ],
      [
        "uk",
        "s"
      ],
      [
        "i",
        "h"
      ],
      [
        "is",
        "sa"
      ],
      [
        "ut",
        "ta"
      ],
      [
        "is",
        "en"
      ],
      [
        " s",
        "e"
      ],
      [
        "m",
        "p"
      ],
      [
        "k",
        "u"
      ],
      [
        " o",
        "li"
      ],
      [
        "l",
        "a"
      ],
      [
        " ",
        "r"
      ],
      [
        "ä",
        "h"
      ],
      [
        " ",
        "K"
      ],
      [
        "in",
        "a"
      ],
      [
        "u",
        "h"
      ],
      [
        "as",
        "sa"
      ],
      [
        "es",
        "sa"
      ],
      [
        "j",
        "o"
      ],
      [
        " m",
        "a"
      ],
      [
        "i",
        "e"
      ],
      [
        " ",
        "M"
      ],
      [
        "o",
        "p"
      ],
      [
        "ta",
        "an"
      ],
      [
        " k",
        "u"
      ],
      [
        " k",
        "er"
      ],
      [
        "d",
        "e"
      ],
      [
        "y",
        "n"
      ],
      [
        "i",
        "m"
      ],
      [
        " v",
        "uo"
      ],
      [
        " ",
        "en"
      ],
      [
        "o",
        "r"
      ],
      [
        "e",
        "e"
      ],
      [
        " ",
        "T"
      ],
      [
        "i",
        "r"
      ],
      [
        "t",
        "u"
      ],
      [
        " h",
        "än"
      ],
      [
        " ",
        "P"
      ],
      [
        "ä",
        "r"
      ],
      [
        " ",
        "H"
      ],
      [
        "un",
        "n"
      ],
      [
        "us",
        "ta"
      ],
      [
        " ",
        "al"
      ],
      [
        "an",
        "n"
      ],
      [
        "o",
        "t"
      ],
      [
        "it",
        "ä"
      ],
      [
        "uo",
        "m"
      ],
      [
        " t",
        "e"
      ],
      [
        "t",
        "y"
      ],
      [
        "es",
        "ta"
      ],
      [
        "k",
        "ä"
      ],
      [
        " t",
        "o"
      ],
      [
        "m",
        "ä"
      ],
      [
        "is",
        "tä"
      ],
      [
        "i",
        "a"
      ],
      [
        " p",
        "ää"
      ],
      [
        "tt",
        "u"
      ],
      [
        "yö",
        "s"
      ],
      [
        "i",
        "in"
      ],
      [
        "a",
        "t"
      ],
      [
        "tt",
        "el"
      ],
      [
        " l",
        "a"
      ],
      [
        "j",
        "an"
      ],
      [
        " ",
        "V"
      ],
      [
        "v",
        "an"
      ],
      [
        " o",
        "le"
      ],
      [
        " ",
        "ra"
      ],
      [
        " mu",
        "kaan"
      ],
      [
        "m",
        "an"
      ],
      [
        "ma",
        "an"
      ],
      [
        "o",
        "it"
      ],
      [
        "ä",
        "l"
      ],
      [
        " k",
        "ä"
      ],
      [
        " ",
        "L"
      ],
      [
        " ",
        "A"
      ],
      [
        "y",
        "y"
      ],
      [
        " t",
        "ä"
      ],
      [
        "al",
        "a"
      ],
      [
        "as",
        "ta"
      ],
      [
        " p",
        "o"
      ],
      [
        "ä",
        "i"
      ],
      [
        "j",
        "ä"
      ],
      [
        "i",
        "ka"
      ],
      [
        "os",
        "sa"
      ],
      [
        "ll",
        "is"
      ],
      [
        " ",
        "-"
      ],
      [
        " ",
        "R"
      ],
      [
        "o",
        "in"
      ],
      [
        "vä",
        "t"
      ],
      [
        "p",
        "p"
      ],
      [
        " p",
        "a"
      ],
      [
        " v",
        "oi"
      ],
      [
        "2",
        "0"
      ],
      [
        "m",
        "is"
      ],
      [
        " h",
        "a"
      ],
      [
        "si",
        "a"
      ],
      [
        "uo",
        "l"
      ],
      [
        " m",
        "yös"
      ],
      [
        " k",
        "es"
      ],
      [
        "s",
        "e"
      ],
      [
        "us",
        "sa"
      ],
      [
        " s",
        "an"
      ],
      [
        "n",
        "e"
      ],
      [
        "es",
        "ti"
      ],
      [
        " p",
        "er"
      ],
      [
        "n",
        "a"
      ],
      [
        "s",
        "sa"
      ],
      [
        " ",
        "J"
      ],
      [
        " k",
        "an"
      ],
      [
        "r",
        "e"
      ],
      [
        "o",
        "a"
      ],
      [
        "t",
        "en"
      ],
      [
        "j",
        "en"
      ],
      [
        "o",
        "l"
      ],
      [
        "el",
        "ä"
      ],
      [
        "i",
        "en"
      ],
      [
        "u",
        "i"
      ],
      [
        " n",
        "ä"
      ],
      [
        " ",
        "E"
      ],
      [
        " k",
        "un"
      ],
      [
        "s",
        "ta"
      ],
      [
        " va",
        "l"
      ],
      [
        " ",
        "N"
      ],
      [
        " o",
        "l"
      ],
      [
        "es",
        "sä"
      ],
      [
        " o",
        "vat"
      ],
      [
        "uks",
        "en"
      ],
      [
        "ik",
        "e"
      ],
      [
        "u",
        "p"
      ],
      [
        "ll",
        "ut"
      ],
      [
        " ",
        "I"
      ],
      [
        "t",
        "ta"
      ],
      [
        " h",
        "y"
      ],
      [
        "s",
        "in"
      ],
      [
        "h",
        "e"
      ],
      [
        "u",
        "a"
      ],
      [
        " m",
        "utta"
      ],
      [
        "er",
        "i"
      ],
      [
        "an",
        "a"
      ],
      [
        " t",
        "oi"
      ],
      [
        "s",
        "sä"
      ],
      [
        "m",
        "in"
      ],
      [
        "o",
        "o"
      ],
      [
        "el",
        "i"
      ],
      [
        "e",
        "h"
      ],
      [
        " l",
        "i"
      ],
      [
        "es",
        "tä"
      ],
      [
        " y",
        "h"
      ],
      [
        "ö",
        "n"
      ],
      [
        "tti",
        "in"
      ],
      [
        " p",
        "al"
      ],
      [
        "o",
        "m"
      ],
      [
        " ",
        "as"
      ],
      [
        " ",
        "B"
      ],
      [
        " l",
        "äh"
      ],
      [
        "is",
        "sä"
      ],
      [
        " m",
        "i"
      ],
      [
        "t",
        "oi"
      ],
      [
        "i",
        "tt"
      ],
      [
        "is",
        "e"
      ],
      [
        " ta",
        "r"
      ],
      [
        " sa",
        "a"
      ],
      [
        "ik",
        "ka"
      ],
      [
        "k",
        "ka"
      ],
      [
        " t",
        "ul"
      ],
      [
        "h",
        "a"
      ],
      [
        "ta",
        "ja"
      ],
      [
        "us",
        "t"
      ],
      [
        "im",
        "e"
      ],
      [
        "os",
        "ta"
      ],
      [
        " p",
        "el"
      ],
      [
        "r",
        "o"
      ],
      [
        " ker",
        "to"
      ],
      [
        " ",
        "il"
      ],
      [
        " e",
        "si"
      ],
      [
        "l",
        "ta"
      ],
      [
        "s",
        "tä"
      ],
      [
        "v",
        "in"
      ],
      [
        "k",
        "en"
      ],
      [
        "H",
        "än"
      ],
      [
        "ta",
        "n"
      ],
      [
        "it",
        "en"
      ],
      [
        "mm",
        "e"
      ],
      [
        "ik",
        "o"
      ],
      [
        "m",
        "en"
      ],
      [
        "l",
        "o"
      ],
      [
        "0",
        "0"
      ],
      [
        "k",
        "k"
      ],
      [
        " p",
        "ar"
      ],
      [
        "ik",
        "si"
      ],
      [
        "e",
        "et"
      ],
      [
        " ",
        "ih"
      ],
      [
        "v",
        "e"
      ],
      [
        " p",
        "it"
      ],
      [
        "i",
        "den"
      ],
      [
        " S",
        "uom"
      ],
      [
        "t",
        "ö"
      ],
      [
        " o",
        "llut"
      ],
      [
        "et",
        "ta"
      ],
      [
        "d",
        "a"
      ],
      [
        "y",
        "ks"
      ],
      [
        "h",
        "ti"
      ],
      [
        "u",
        "ra"
      ],
      [
        "k",
        "y"
      ],
      [
        "k",
        "on"
      ],
      [
        "t",
        "ka"
      ],
      [
        " j",
        "äl"
      ],
      [
        "ist",
        "en"
      ],
      [
        " t",
        "uo"
      ],
      [
        "k",
        "een"
      ],
      [
        "r",
        "in"
      ],
      [
        "is",
        "ä"
      ],
      [
        " ta",
        "i"
      ],
      [
        " ku",
        "in"
      ],
      [
        " k",
        "uu"
      ],
      [
        " kerto",
        "o"
      ],
      [
        "m",
        "er"
      ],
      [
        " ",
        "er"
      ],
      [
        "isi",
        "a"
      ],
      [
        "it",
        "se"
      ],
      [
        " t",
        "u"
      ],
      [
        " jo",
        "ka"
      ],
      [
        " k",
        "i"
      ],
      [
        " a",
        "r"
      ],
      [
        "o",
        "h"
      ],
      [
        " ",
        "C"
      ],
      [
        "t",
        "een"
      ],
      [
        "ma",
        "a"
      ],
      [
        "v",
        "än"
      ],
      [
        "y",
        "tt"
      ],
      [
        "u",
        "ut"
      ],
      [
        " ",
        "("
      ],
      [
        "u",
        "us"
      ],
      [
        " ",
        "O"
      ],
      [
        " t",
        "i"
      ],
      [
        "en",
        "ä"
      ],
      [
        "h",
        "in"
      ],
      [
        "t",
        "in"
      ],
      [
        "m",
        "än"
      ],
      [
        " p",
        "uol"
      ],
      [
        " ta",
        "pa"
      ],
      [
        "mm",
        "in"
      ],
      [
        " va",
        "r"
      ],
      [
        "il",
        "a"
      ],
      [
        "va",
        "a"
      ],
      [
        ":",
        "n"
      ],
      [
        " h",
        "e"
      ],
      [
        "i",
        "ta"
      ],
      [
        "ik",
        "ä"
      ],
      [
        "v",
        "o"
      ],
      [
        "m",
        "inen"
      ],
      [
        " t",
        "ie"
      ],
      [
        " ",
        "\""
      ],
      [
        "hd",
        "o"
      ],
      [
        " s",
        "en"
      ],
      [
        "ma",
        "t"
      ],
      [
        "v",
        "uo"
      ],
      [
        " jäl",
        "keen"
      ],
      [
        " va",
        "s"
      ],
      [
        " m",
        "en"
      ],
      [
        "d",
        "i"
      ],
      [
        " o",
        "sa"
      ],
      [
        "s",
        "ti"
      ],
      [
        "n",
        "na"
      ],
      [
        "u",
        "un"
      ],
      [
        "ik",
        "ki"
      ],
      [
        "is",
        "in"
      ],
      [
        "an",
        "ta"
      ],
      [
        "is",
        "et"
      ],
      [
        "tt",
        "y"
      ],
      [
        "ll",
        "een"
      ],
      [
        "is",
        "esti"
      ],
      [
        " vi",
        "ime"
      ],
      [
        "m",
        "ista"
      ],
      [
        " kan",
        "ssa"
      ],
      [
        "u",
        "d"
      ],
      [
        "k",
        "ö"
      ],
      [
        " ",
        "U"
      ],
      [
        "r",
        "an"
      ],
      [
        " p",
        "uh"
      ],
      [
        "un",
        "ut"
      ],
      [
        "r",
        "it"
      ],
      [
        " n",
        "a"
      ],
      [
        "j",
        "än"
      ],
      [
        " n",
        "iin"
      ],
      [
        "e",
        "lla"
      ],
      [
        " e",
        "d"
      ],
      [
        "mm",
        "ä"
      ],
      [
        "20",
        "2"
      ],
      [
        " s",
        "o"
      ],
      [
        "k",
        "an"
      ],
      [
        " ",
        "us"
      ],
      [
        " m",
        "aa"
      ],
      [
        " k",
        "ir"
      ],
      [
        "in",
        "n"
      ],
      [
        "y",
        "h"
      ],
      [
        " h",
        "uo"
      ],
      [
        "mm",
        "en"
      ],
      [
        "t",
        "on"
      ],
      [
        "v",
        "oi"
      ],
      [
        " s",
        "uo"
      ],
      [
        "p",
        "ä"
      ],
      [
        " t",
        "yö"
      ],
      [
        " v",
        "ä"
      ],
      [
        "tä",
        "än"
      ],
      [
        "m",
        "ään"
      ],
      [
        "i",
        "lla"
      ],
      [
        "uu",
        "d"
      ],
      [
        "s",
        "en"
      ],
      [
        " ",
        "F"
      ],
      [
        "d",
        "o"
      ],
      [
        "m",
        "e"
      ],
      [
        "k",
        "il"
      ],
      [
        "i",
        "lle"
      ],
      [
        " l",
        "op"
      ],
      [
        "jo",
        "it"
      ],
      [
        "k",
        "ko"
      ],
      [
        " ko",
        "r"
      ],
      [
        " ol",
        "isi"
      ],
      [
        "S",
        "e"
      ],
      [
        "tt",
        "o"
      ],
      [
        " en",
        "si"
      ],
      [
        "j",
        "on"
      ],
      [
        "es",
        "t"
      ],
      [
        "är",
        "j"
      ],
      [
        " ",
        "Y"
      ],
      [
        "as",
        "ti"
      ],
      [
        "a",
        "an"
      ],
      [
        " k",
        "e"
      ],
      [
        "ka",
        "a"
      ],
      [
        " p",
        "äi"
      ],
      [
        " san",
        "oo"
      ],
      [
        " a",
        "si"
      ],
      [
        " vuo",
        "nna"
      ],
      [
        "il",
        "i"
      ],
      [
        "va",
        "l"
      ],
      [
        "ist",
        "o"
      ],
      [
        " sa",
        "i"
      ],
      [
        "e",
        "llä"
      ],
      [
        "e",
        "lle"
      ],
      [
        "s",
        "o"
      ],
      [
        "k",
        "ra"
      ],
      [
        " ",
        "G"
      ],
      [
        "T",
        "ä"
      ],
      [
        "u",
        "den"
      ],
      [
        "uk",
        "ku"
      ],
      [
        " ",
        "D"
      ],
      [
        " m",
        "in"
      ],
      [
        "m",
        "assa"
      ],
      [
        " te",
        "h"
      ],
      [
        " ko",
        "l"
      ],
      [
        " ku",
        "iten"
      ],
      [
        " t",
        "il"
      ],
      [
        " ",
        "is"
      ],
      [
        " j",
        "ul"
      ],
      [
        "uu",
        "ta"
      ],
      [
        " y",
        "li"
      ],
      [
        "y",
        "ttä"
      ],
      [
        " s",
        "el"
      ],
      [
        "h",
        "ta"
      ],
      [
        " k",
        "y"
      ],
      [
        "ks",
        "en"
      ],
      [
        " e",
        "ur"
      ],
      [
        " o",
        "lla"
      ],
      [
        "ei",
        "ta"
      ],
      [
        "j",
        "oi"
      ],
      [
        " k",
        "ul"
      ],
      [
        "k",
        "un"
      ],
      [
        " s",
        "uu"
      ],
      [
        "uom",
        "ala"
      ],
      [
        " a",
        "ik"
      ],
      [
        "v",
        "el"
      ],
      [
        " k",
        "os"
      ],
      [
        "o",
        "li"
      ],
      [
        " k",
        "ys"
      ],
      [
        " l",
        "uo"
      ],
      [
        "K",
        "a"
      ],
      [
        "e",
        "a"
      ],
      [
        " en",
        "n"
      ],
      [
        " h",
        "al"
      ],
      [
        "tt",
        "e"
      ],
      [
        "h",
        "an"
      ],
      [
        "isi",
        "in"
      ],
      [
        " se",
        "kä"
      ],
      [
        "al",
        "i"
      ],
      [
        "ik",
        "ko"
      ],
      [
        "r",
        "ä"
      ],
      [
        "k",
        "ki"
      ],
      [
        "ja",
        "t"
      ],
      [
        "uk",
        "sia"
      ],
      [
        "n",
        "i"
      ],
      [
        "os",
        "en"
      ],
      [
        "si",
        "den"
      ],
      [
        " a",
        "ika"
      ],
      [
        "o",
        "ja"
      ],
      [
        "re",
        "siden"
      ],
      [
        " V",
        "enä"
      ],
      [
        " n",
        "i"
      ],
      [
        " vi",
        "elä"
      ],
      [
        " h",
        "en"
      ],
      [
        " ker",
        "toi"
      ],
      [
        "mp",
        "i"
      ],
      [
        " ha",
        "ll"
      ],
      [
        " j",
        "ä"
      ],
      [
        "tä",
        "ä"
      ],
      [
        "is",
        "ti"
      ],
      [
        " po",
        "li"
      ],
      [
        "un",
        "a"
      ],
      [
        " p",
        "i"
      ],
      [
        "ut",
        "taa"
      ],
      [
        " hän",
        "en"
      ],
      [
        "p",
        "u"
      ],
      [
        " tapa",
        "h"
      ],
      [
        " yh",
        "te"
      ],
      [
        " o",
        "ike"
      ],
      [
        " ",
        "uu"
      ],
      [
        " y",
        "ksi"
      ],
      [
        " v",
        "er"
      ],
      [
        " S",
        "a"
      ],
      [
        "g",
        "in"
      ],
      [
        "in",
        "ä"
      ],
      [
        " s",
        "u"
      ],
      [
        " ko",
        "ko"
      ],
      [
        "ist",
        "e"
      ],
      [
        "u",
        "va"
      ],
      [
        " vuo",
        "den"
      ],
      [
        "p",
        "i"
      ],
      [
        " k",
        "il"
      ],
      [
        " n",
        "yt"
      ],
      [
        " ",
        "ul"
      ],
      [
        " Suom",
        "en"
      ],
      [
        "ma",
        "lla"
      ],
      [
        " mi",
        "el"
      ],
      [
        "al",
        "ta"
      ],
      [
        "r",
        "u"
      ],
      [
        "it",
        "e"
      ],
      [
        " se",
        "ura"
      ],
      [
        "it",
        "ta"
      ],
      [
        "ti",
        "in"
      ],
      [
        " t",
        "ur"
      ],
      [
        "m",
        "isen"
      ],
      [
        " va",
        "in"
      ],
      [
        "ut",
        "o"
      ],
      [
        "p",
        "äi"
      ],
      [
        "än",
        "yt"
      ],
      [
        "ja",
        "a"
      ],
      [
        "k",
        "oi"
      ],
      [
        "mer",
        "k"
      ],
      [
        "E",
        "n"
      ],
      [
        " l",
        "ö"
      ],
      [
        "ei",
        "den"
      ],
      [
        "e",
        "d"
      ],
      [
        "l",
        "an"
      ],
      [
        " si",
        "itä"
      ],
      [
        "u",
        "si"
      ],
      [
        " l",
        "ä"
      ],
      [
        " hy",
        "vin"
      ],
      [
        "u",
        "lla"
      ],
      [
        " kuiten",
        "kin"
      ],
      [
        " n",
        "o"
      ],
      [
        "yn",
        "yt"
      ],
      [
        "a",
        "ll"
      ],
      [
        "ar",
        "i"
      ],
      [
        "v",
        "ää"
      ],
      [
        "ik",
        "en"
      ],
      [
        "-",
        "vuo"
      ],
      [
        " v",
        "äh"
      ],
      [
        " ",
        "W"
      ],
      [
        "n",
        "ut"
      ],
      [
        "ka",
        "s"
      ],
      [
        " ja",
        "t"
      ],
      [
        " s",
        "y"
      ],
      [
        "as",
        "t"
      ],
      [
        "u",
        "e"
      ],
      [
        "i",
        "v"
      ],
      [
        "a",
        "p"
      ],
      [
        "tt",
        "ää"
      ],
      [
        " ma",
        "hdo"
      ],
      [
        "u",
        "v"
      ],
      [
        " ",
        "f"
      ],
      [
        "oi",
        "ta"
      ],
      [
        " v",
        "an"
      ],
      [
        " ti",
        "et"
      ],
      [
        "ih",
        "e"
      ],
      [
        " ",
        "an"
      ],
      [
        "el",
        "e"
      ],
      [
        "1",
        "9"
      ],
      [
        " l",
        "e"
      ],
      [
        "n",
        "ä"
      ],
      [
        "ys",
        "tä"
      ],
      [
        " k",
        "uo"
      ],
      [
        " si",
        "tä"
      ],
      [
        " o",
        "s"
      ],
      [
        "hd",
        "e"
      ],
      [
        " t",
        "ut"
      ],
      [
        " ",
        "ri"
      ],
      [
        "?",
        "\n"
      ],
      [
        "k",
        "unn"
      ],
      [
        "merk",
        "iksi"
      ],
      [
        "a",
        "m"
      ],
      [
        " t",
        "unn"
      ],
      [
        " ",
        "elä"
      ],
      [
        "de",
        "lla"
      ],
      [
        "k",
        "ään"
      ],
      [
        "mi",
        "a"
      ],
      [
        " m",
        "on"
      ],
      [
        " o",
        "h"
      ],
      [
        "h",
        "taja"
      ],
      [
        "-vuo",
        "ti"
      ],
      [
        " h",
        "ar"
      ],
      [
        "ist",
        "u"
      ],
      [
        " ka",
        "t"
      ],
      [
        "d",
        "än"
      ],
      [
        " hy",
        "vä"
      ],
      [
        " va",
        "sta"
      ],
      [
        "ll",
        "inen"
      ],
      [
        " p",
        "residen"
      ],
      [
        "hd",
        "ys"
      ],
      [
        "tt",
        "en"
      ],
      [
        "m",
        "o"
      ],
      [
        " ensi",
        "mmä"
      ],
      [
        "ann",
        "e"
      ],
      [
        " j",
        "ossa"
      ],
      [
        " ka",
        "ikki"
      ],
      [
        " san",
        "oi"
      ],
      [
        "min",
        "ist"
      ],
      [
        "y",
        "r"
      ],
      [
        "ll",
        "o"
      ],
      [
        " kes",
        "k"
      ],
      [
        " n",
        "e"
      ],
      [
        " ",
        "b"
      ],
      [
        " aik",
        "ana"
      ],
      [
        "d",
        "ä"
      ],
      [
        " m",
        "yö"
      ],
      [
        " j",
        "on"
      ],
      [
        "it",
        "us"
      ],
      [
        " t",
        "un"
      ],
      [
        " j",
        "os"
      ],
      [
        " k",
        "ann"
      ],
      [
        " n",
        "oin"
      ],
      [
        " a",
        "ina"
      ],
      [
        " ",
        "itse"
      ],
      [
        "d",
        "in"
      ],
      [
        "l",
        "ä"
      ],
      [
        "uk",
        "si"
      ],
      [
        "up",
        "un"
      ],
      [
        " p",
        "r"
      ],
      [
        " ko",
        "h"
      ],
      [
        "e",
        "mm"
      ],
      [
        "tt",
        "ei"
      ],
      [
        "ih",
        "in"
      ],
      [
        "el",
        "in"
      ],
      [
        "ll",
        "oin"
      ],
      [
        "yt",
        "y"
      ],
      [
        "tti",
        "a"
      ],
      [
        "n",
        "yt"
      ],
      [
        " pal",
        "jon"
      ],
      [
        " k",
        "as"
      ],
      [
        "o",
        "on"
      ],
      [
        "il",
        "ta"
      ],
      [
        "t",
        "un"
      ],
      [
        "er",
        "ä"
      ],
      [
        "ul",
        "a"
      ],
      [
        "j",
        "el"
      ],
      [
        "pa",
        "il"
      ],
      [
        " m",
        "ie"
      ],
      [
        " va",
        "ik"
      ],
      [
        " enn",
        "en"
      ],
      [
        "isä",
        "ksi"
      ],
      [
        " s",
        "yy"
      ],
      [
        "V",
        "i"
      ],
      [
        "kil",
        "ö"
      ],
      [
        "tu",
        "i"
      ],
      [
        " ei",
        "vät"
      ],
      [
        " l",
        "o"
      ],
      [
        "v",
        "er"
      ],
      [
        "k",
        "is"
      ],
      [
        " si",
        "tten"
      ],
      [
        "us",
        "te"
      ],
      [
        "tan",
        "ut"
      ],
      [
        "vi",
        "a"
      ],
      [
        "uks",
        "essa"
      ],
      [
        " k",
        "iin"
      ],
      [
        "uu",
        "den"
      ],
      [
        " r",
        "e"
      ],
      [
        "S",
        "a"
      ],
      [
        "20",
        "1"
      ],
      [
        " p",
        "ys"
      ],
      [
        " s",
        "uomala"
      ],
      [
        "p",
        "al"
      ],
      [
        "i",
        "g"
      ],
      [
        " a",
        "i"
      ],
      [
        " e",
        "pä"
      ],
      [
        " si",
        "llä"
      ],
      [
        "ää",
        "rä"
      ],
      [
        " kä",
        "y"
      ],
      [
        "ti",
        "o"
      ],
      [
        " va",
        "a"
      ],
      [
        " ka",
        "ksi"
      ],
      [
        "ut",
        "u"
      ],
      [
        " U",
        "kra"
      ],
      [
        " te",
        "ke"
      ],
      [
        " kuu",
        "l"
      ],
      [
        "ll",
        "ista"
      ],
      [
        " o",
        "ttel"
      ],
      [
        "S",
        "uom"
      ],
      [
        " k",
        "eh"
      ],
      [
        " v",
        "äl"
      ],
      [
        "es",
        "k"
      ],
      [
        "el",
        "sin"
      ],
      [
        " kes",
        "ki"
      ],
      [
        " il",
        "m"
      ],
      [
        " mu",
        "un"
      ],
      [
        " j",
        "ärj"
      ],
      [
        "jo",
        "htaja"
      ],
      [
        "ot",
        "ta"
      ],
      [
        " ",
        "eri"
      ],
      [
        "u",
        "utta"
      ],
      [
        "c",
        "h"
      ],
      [
        " ma",
        "an"
      ],
      [
        " e",
        "ttei"
      ],
      [
        " ",
        "ään"
      ],
      [
        "ik",
        "on"
      ],
      [
        " mu",
        "assa"
      ],
      [
        " M",
        "ar"
      ],
      [
        " A",
        "n"
      ],
      [
        " la",
        "p"
      ],
      [
        " j",
        "ää"
      ],
      [
        "l",
        "in"
      ],
      [
        " m",
        "il"
      ],
      [
        "t",
        "uu"
      ],
      [
        "la",
        "is"
      ],
      [
        "ru",
        "mp"
      ],
      [
        "s",
        "on"
      ],
      [
        " m",
        "e"
      ],
      [
        "mi",
        "en"
      ],
      [
        " tu",
        "li"
      ],
      [
        " m",
        "er"
      ],
      [
        "el",
        "ta"
      ],
      [
        "isi",
        "ä"
      ],
      [
        " l",
        "as"
      ],
      [
        "ik",
        "ke"
      ],
      [
        "va",
        "lta"
      ],
      [
        " ku",
        "va"
      ],
      [
        "uo",
        "t"
      ],
      [
        "minist",
        "eri"
      ],
      [
        "is",
        "a"
      ],
      [
        " esi",
        "merkiksi"
      ],
      [
        " vas",
        "taan"
      ],
      [
        " vä",
        "li"
      ],
      [
        " h",
        "ä"
      ],
      [
        "s",
        "an"
      ],
      [
        "v",
        "en"
      ],
      [
        "ytt",
        "ää"
      ],
      [
        " M",
        "a"
      ],
      [
        " pel",
        "aa"
      ],
      [
        "o",
        "jen"
      ],
      [
        "u",
        "ka"
      ],
      [
        "j",
        "e"
      ],
      [
        "ll",
        "isen"
      ],
      [
        "l",
        "en"
      ],
      [
        "er",
        "in"
      ],
      [
        "k",
        "kä"
      ],
      [
        " li",
        "itt"
      ],
      [
        "va",
        "lla"
      ],
      [
        "is",
        "een"
      ],
      [
        " v",
        "oit"
      ],
      [
        "o",
        "lla"
      ],
      [
        " e",
        "de"
      ],
      [
        " L",
        "a"
      ],
      [
        "on",
        "en"
      ],
      [
        " toi",
        "min"
      ],
      [
        " to",
        "te"
      ],
      [
        " tul",
        "ee"
      ],
      [
        "ttel",
        "i"
      ],
      [
        "un",
        "ta"
      ],
      [
        " tul",
        "e"
      ],
      [
        "o",
        "ku"
      ],
      [
        " K",
        "a"
      ],
      [
        " n",
        "uo"
      ],
      [
        "o",
        "ike"
      ],
      [
        " a",
        "ie"
      ],
      [
        " l",
        "is"
      ],
      [
        "ur",
        "he"
      ],
      [
        "llis",
        "esti"
      ],
      [
        " pr",
        "osen"
      ],
      [
        "00",
        "0"
      ],
      [
        " hen",
        "kilö"
      ],
      [
        "ust",
        "el"
      ],
      [
        "p",
        "an"
      ],
      [
        " maa",
        "il"
      ],
      [
        "uks",
        "et"
      ],
      [
        " ih",
        "m"
      ],
      [
        "k",
        "sa"
      ],
      [
        " pit",
        "ää"
      ],
      [
        " h",
        "yö"
      ],
      [
        " ko",
        "mmen"
      ],
      [
        "it",
        "i"
      ],
      [
        " toi",
        "mi"
      ],
      [
        " oli",
        "vat"
      ],
      [
        "i",
        "an"
      ],
      [
        " m",
        "itä"
      ],
      [
        "e",
        "ksi"
      ],
      [
        "T",
        "a"
      ],
      [
        " ul",
        "ko"
      ],
      [
        "h",
        "den"
      ],
      [
        " k",
        "unn"
      ],
      [
        " si",
        "ja"
      ],
      [
        " h",
        "el"
      ],
      [
        "yks",
        "en"
      ],
      [
        "va",
        "sti"
      ],
      [
        "a",
        "lla"
      ],
      [
        "ll",
        "i"
      ],
      [
        "T",
        "o"
      ],
      [
        "ist",
        "ö"
      ],
      [
        "ta",
        "r"
      ],
      [
        " ma",
        "al"
      ],
      [
        " eur",
        "oa"
      ],
      [
        " l",
        "uk"
      ],
      [
        "s",
        "si"
      ],
      [
        "m",
        "ma"
      ],
      [
        "s",
        "t"
      ],
      [
        " al",
        "u"
      ],
      [
        "o",
        "ma"
      ],
      [
        " v",
        "e"
      ],
      [
        "es",
        "een"
      ],
      [
        " h",
        "et"
      ],
      [
        " te",
        "hd"
      ],
      [
        "in",
        "an"
      ],
      [
        "er",
        "a"
      ],
      [
        "ik",
        "an"
      ],
      [
        "ttu",
        "a"
      ],
      [
        "ytt",
        "ö"
      ],
      [
        " a",
        "sia"
      ],
      [
        " p",
        "ien"
      ],
      [
        " vuo",
        "tta"
      ],
      [
        " k",
        "ut"
      ],
      [
        "ti",
        "a"
      ],
      [
        "J",
        "os"
      ],
      [
        " m",
        "uu"
      ],
      [
        " pa",
        "ika"
      ],
      [
        " h",
        "ei"
      ],
      [
        " jul",
        "ka"
      ],
      [
        "in",
        "g"
      ],
      [
        " jo",
        "tka"
      ],
      [
        "it",
        "s"
      ],
      [
        "p",
        "o"
      ],
      [
        " ",
        "el"
      ],
      [
        "V",
        "a"
      ],
      [
        " t",
        "er"
      ],
      [
        "uo",
        "mi"
      ],
      [
        "än",
        "ä"
      ],
      [
        " Venä",
        "jän"
      ],
      [
        "h",
        "o"
      ],
      [
        " k",
        "är"
      ],
      [
        " ar",
        "vi"
      ],
      [
        "emm",
        "än"
      ],
      [
        "d",
        "er"
      ],
      [
        " mi",
        "es"
      ],
      [
        " n",
        "el"
      ],
      [
        "tt",
        "om"
      ],
      [
        " va",
        "h"
      ],
      [
        "j",
        "ien"
      ],
      [
        " ",
        "uh"
      ],
      [
        "K",
        "un"
      ],
      [
        "ty",
        "i"
      ],
      [
        " toi",
        "m"
      ],
      [
        "O",
        "n"
      ],
      [
        " y",
        "le"
      ],
      [
        "el",
        "tä"
      ],
      [
        "uu",
        "ri"
      ],
      [
        "ur",
        "o"
      ],
      [
        " ",
        "uut"
      ],
      [
        "kon",
        "a"
      ],
      [
        "it",
        "y"
      ],
      [
        "ee",
        "lla"
      ],
      [
        " a",
        "jan"
      ],
      [
        " jon",
        "ka"
      ],
      [
        " ",
        "eli"
      ],
      [
        "d",
        "an"
      ],
      [
        "u",
        "ta"
      ],
      [
        "en",
        "n"
      ],
      [
        "ma",
        "tta"
      ],
      [
        " jo",
        "h"
      ],
      [
        " ka",
        "upun"
      ],
      [
        "uud",
        "essa"
      ],
      [
        "y",
        "yn"
      ],
      [
        "uks",
        "een"
      ],
      [
        "ki",
        "a"
      ],
      [
        " e",
        "ikä"
      ],
      [
        "ll",
        "an"
      ],
      [
        "it",
        "o"
      ],
      [
        "mp",
        "ia"
      ],
      [
        " a",
        "ihe"
      ],
      [
        "P",
        "oli"
      ],
      [
        " m",
        "et"
      ],
      [
        " sa",
        "an"
      ],
      [
        "anta",
        "ina"
      ],
      [
        "k",
        "er"
      ],
      [
        " kan",
        "sa"
      ],
      [
        " t",
        "uk"
      ],
      [
        " tur",
        "va"
      ],
      [
        "ar",
        "r"
      ],
      [
        " k",
        "on"
      ],
      [
        "ih",
        "en"
      ],
      [
        " s",
        "op"
      ],
      [
        " kä",
        "si"
      ],
      [
        " o",
        "p"
      ],
      [
        "vi",
        "ä"
      ],
      [
        " jo",
        "ukku"
      ],
      [
        "L",
        "a"
      ],
      [
        " y",
        "hd"
      ],
      [
        "lla",
        "an"
      ],
      [
        "ks",
        "een"
      ],
      [
        "ti",
        "l"
      ],
      [
        "al",
        "e"
      ],
      [
        " h",
        "i"
      ],
      [
        "p",
        "ää"
      ],
      [
        "in",
        "ta"
      ],
      [
        "K",
        "o"
      ],
      [
        " ko",
        "ul"
      ],
      [
        "jo",
        "on"
      ],
      [
        " vuo",
        "si"
      ],
      [
        " T",
        "rump"
      ],
      [
        "mis",
        "een"
      ],
      [
        "b",
        "b"
      ],
      [
        " ka",
        "u"
      ],
      [
        "-",
        "a"
      ],
      [
        " e",
        "t"
      ],
      [
        "h",
        "en"
      ],
      [
        " y",
        "llä"
      ],
      [
        "uks",
        "esta"
      ],
      [
        "oi",
        "hin"
      ],
      [
        "an",
        "sa"
      ],
      [
        "y",
        "ky"
      ],
      [
        "sa",
        "r"
      ],
      [
        "ttä",
        "vä"
      ],
      [
        "is",
        "essa"
      ],
      [
        "N",
        "ä"
      ],
      [
        "vi",
        "en"
      ],
      [
        " va",
        "ikka"
      ],
      [
        "n",
        "n"
      ],
      [
        "\"",
        ".\n"
      ],
      [
        "d",
        "ot"
      ],
      [
        " lis",
        "ää"
      ],
      [
        " tä",
        "män"
      ],
      [
        " a",
        "ut"
      ],
      [
        "an",
        "o"
      ],
      [
        "är",
        "ke"
      ],
      [
        "ti",
        "on"
      ],
      [
        " H",
        "elsin"
      ],
      [
        " kos",
        "ka"
      ],
      [
        " si",
        "ir"
      ],
      [
        "an",
        "s"
      ],
      [
        "ise",
        "ksi"
      ],
      [
        " p",
        "uo"
      ],
      [
        " ra",
        "ken"
      ],
      [
        " ole",
        "van"
      ],
      [
        "k",
        "ke"
      ],
      [
        "va",
        "r"
      ],
      [
        "ist",
        "el"
      ],
      [
        " m",
        "it"
      ],
      [
        "ne",
        "et"
      ],
      [
        "r",
        "en"
      ],
      [
        " l",
        "aa"
      ],
      [
        " t",
        "or"
      ],
      [
        " su",
        "unn"
      ],
      [
        "k",
        "el"
      ],
      [
        "ust",
        "us"
      ],
      [
        " seura",
        "a"
      ],
      [
        "oi",
        "den"
      ],
      [
        " t",
        "ö"
      ],
      [
        " te",
        "ki"
      ],
      [
        " si",
        "l"
      ],
      [
        "ku",
        "ussa"
      ],
      [
        "k",
        "ul"
      ],
      [
        "ttel",
        "e"
      ],
      [
        "p",
        "aa"
      ],
      [
        " va",
        "ih"
      ],
      [
        "op",
        "e"
      ],
      [
        "g",
        "el"
      ],
      [
        " T",
        "a"
      ],
      [
        "uk",
        "ka"
      ],
      [
        " a",
        "ja"
      ],
      [
        "i",
        "ä"
      ],
      [
        " mil",
        "joon"
      ],
      [
        "in",
        "o"
      ],
      [
        "1",
        "0"
      ],
      [
        "J",
        "o"
      ],
      [
        "ri",
        "a"
      ],
      [
        " p",
        "itä"
      ],
      [
        " ta",
        "lo"
      ],
      [
        "mis",
        "esta"
      ],
      [
        "u",
        "m"
      ],
      [
        " s",
        "yn"
      ],
      [
        "p",
        "e"
      ],
      [
        "t",
        "el"
      ],
      [
        " aie",
        "mmin"
      ],
      [
        "er",
        "g"
      ],
      [
        " si",
        "ihen"
      ],
      [
        " m",
        "iten"
      ],
      [
        "p",
        "uol"
      ],
      [
        " Y",
        "hdys"
      ],
      [
        " vi",
        "r"
      ],
      [
        "M",
        "yös"
      ],
      [
        "oi",
        "tti"
      ],
      [
        "ki",
        "r"
      ],
      [
        "u",
        "ja"
      ],
      [
        "as",
        "to"
      ],
      [
        "oi",
        "lla"
      ],
      [
        "y",
        "ys"
      ],
      [
        " til",
        "an"
      ],
      [
        "ann",
        "ut"
      ],
      [
        " tapah",
        "tu"
      ],
      [
        "llä",
        "än"
      ],
      [
        "e",
        "tt"
      ],
      [
        " n",
        "äh"
      ],
      [
        " jo",
        "ta"
      ],
      [
        "mm",
        "an"
      ],
      [
        " pää",
        "tö"
      ],
      [
        " en",
        "emmän"
      ],
      [
        " tut",
        "ki"
      ],
      [
        "tu",
        "bb"
      ],
      [
        "g",
        "a"
      ],
      [
        " k",
        "ar"
      ],
      [
        " m",
        "uuta"
      ],
      [
        "us",
        "ti"
      ],
      [
        " tä",
        "llä"
      ],
      [
        "jan",
        "ta"
      ],
      [
        "e",
        "ttu"
      ],
      [
        " S",
        "al"
      ],
      [
        " tä",
        "mä"
      ],
      [
        "it",
        "uksen"
      ],
      [
        " mu",
        "ut"
      ],
      [
        "t",
        "er"
      ],
      [
        "y",
        "m"
      ],
      [
        "llis",
        "uus"
      ],
      [
        "oit",
        "ta"
      ],
      [
        " j",
        "uo"
      ],
      [
        "j",
        "assa"
      ],
      [
        " ",
        "in"
      ],
      [
        " kir",
        "joit"
      ],
      [
        " tar",
        "ko"
      ],
      [
        " I",
        "lta"
      ],
      [
        "it",
        "taa"
      ],
      [
        " presiden",
        "tti"
      ],
      [
        "1",
        "5"
      ],
      [
        "ut",
        "ui"
      ],
      [
        " maail",
        "man"
      ],
      [
        " l",
        "isäksi"
      ],
      [
        "Suom",
        "en"
      ],
      [
        " kes",
        "ä"
      ],
      [
        "al",
        "u"
      ],
      [
        "yt",
        "ö"
      ],
      [
        "n",
        "an"
      ],
      [
        "ke",
        "a"
      ],
      [
        "än",
        "n"
      ],
      [
        "Tä",
        "mä"
      ],
      [
        "m",
        "asta"
      ],
      [
        "d",
        "on"
      ],
      [
        "20",
        "0"
      ],
      [
        "ti",
        "la"
      ],
      [
        " R",
        "o"
      ],
      [
        "o",
        "issa"
      ],
      [
        "ik",
        "u"
      ],
      [
        "it",
        "si"
      ],
      [
        "es",
        "te"
      ],
      [
        " I",
        "n"
      ],
      [
        "h",
        "i"
      ],
      [
        " y",
        "rit"
      ],
      [
        "ty",
        "y"
      ],
      [
        " no",
        "us"
      ],
      [
        "y",
        "i"
      ],
      [
        "y",
        "ksi"
      ],
      [
        " m",
        "äärä"
      ],
      [
        " y",
        "l"
      ],
      [
        "to",
        "a"
      ],
      [
        " kol",
        "m"
      ],
      [
        " puh",
        "een"
      ],
      [
        "k",
        "uu"
      ],
      [
        "e",
        "in"
      ],
      [
        "o",
        "ta"
      ],
      [
        "p",
        "el"
      ],
      [
        "k",
        "esk"
      ],
      [
        "jan",
        "a"
      ],
      [
        "os",
        "ti"
      ],
      [
        " ha",
        "asta"
      ],
      [
        " ker",
        "taa"
      ],
      [
        " kann",
        "at"
      ],
      [
        "jo",
        "ukku"
      ],
      [
        " va",
        "an"
      ],
      [
        " lop",
        "p"
      ],
      [
        " m",
        "ikä"
      ],
      [
        "uk",
        "ana"
      ],
      [
        "j",
        "ärj"
      ],
      [
        "äh",
        "kö"
      ],
      [
        "kunn",
        "an"
      ],
      [
        "uro",
        "op"
      ],
      [
        "in",
        "e"
      ],
      [
        "da",
        "an"
      ],
      [
        "P",
        "a"
      ],
      [
        " Suom",
        "essa"
      ],
      [
        "N",
        "yt"
      ],
      [
        " ta",
        "ka"
      ],
      [
        " ko",
        "hd"
      ],
      [
        "E",
        "i"
      ],
      [
        "een",
        "sa"
      ],
      [
        " mit",
        "ään"
      ],
      [
        "isi",
        "lle"
      ],
      [
        " nä",
        "y"
      ],
      [
        "tt",
        "ö"
      ],
      [
        "m",
        "us"
      ],
      [
        "ke",
        "llä"
      ],
      [
        "S",
        "i"
      ],
      [
        " t",
        "ärke"
      ],
      [
        "K",
        "uva"
      ],
      [
        " kys",
        "e"
      ],
      [
        "een",
        "sä"
      ],
      [
        " en",
        "t"
      ],
      [
        "es",
        "taan"
      ],
      [
        " l",
        "en"
      ],
      [
        "s",
        "ina"
      ],
      [
        " tie",
        "do"
      ],
      [
        " ",
        "d"
      ],
      [
        " pää",
        "s"
      ],
      [
        "os",
        "t"
      ],
      [
        "s",
        "ra"
      ],
      [
        " J",
        "o"
      ],
      [
        " m",
        "ei"
      ],
      [
        " R",
        "a"
      ],
      [
        " a",
        "va"
      ],
      [
        "M",
        "a"
      ],
      [
        " va",
        "ra"
      ],
      [
        " la",
        "u"
      ],
      [
        "pp",
        "i"
      ],
      [
        "o",
        "ista"
      ],
      [
        " ",
        "urhe"
      ],
      [
        "-",
        "S"
      ],
      [
        "3",
        "0"
      ],
      [
        " ko",
        "ti"
      ],
      [
        "u",
        "tti"
      ],
      [
        "ku",
        "un"
      ],
      [
        "kun",
        "ta"
      ],
      [
        " s",
        "yö"
      ],
      [
        "v",
        "on"
      ],
      [
        " jo",
        "pa"
      ],
      [
        "t",
        "ys"
      ],
      [
        " suo",
        "si"
      ],
      [
        " t",
        "äh"
      ],
      [
        "ik",
        "in"
      ],
      [
        "unn",
        "unta"
      ],
      [
        "mä",
        "ssä"
      ],
      [
        "la",
        "inen"
      ],
      [
        "o",
        "sa"
      ],
      [
        " kol",
        "me"
      ],
      [
        " P",
        "a"
      ],
      [
        " ih",
        "an"
      ],
      [
        " kommen",
        "toi"
      ],
      [
        " osa",
        "ll"
      ],
      [
        "mi",
        "in"
      ],
      [
        " s",
        "ää"
      ],
      [
        " k",
        "is"
      ],
      [
        " s",
        "isä"
      ],
      [
        " us",
        "ko"
      ],
      [
        " päi",
        "vä"
      ],
      [
        "i",
        "c"
      ],
      [
        " prosen",
        "ttia"
      ],
      [
        "-vuoti",
        "as"
      ],
      [
        "ul",
        "un"
      ],
      [
        " n",
        "yky"
      ],
      [
        "ista",
        "a"
      ],
      [
        "1",
        "2"
      ],
      [
        "v",
        "oin"
      ],
      [
        "v",
        "it"
      ],
      [
        "m",
        "ää"
      ],
      [
        " sai",
        "ra"
      ],
      [
        " esi",
        "in"
      ],
      [
        " va",
        "ike"
      ],
      [
        " M",
        "M"
      ],
      [
        " vas",
        "taa"
      ],
      [
        " tehd",
        "ä"
      ],
      [
        " per",
        "janta"
      ],
      [
        " kil",
        "pail"
      ],
      [
        "ul",
        "ta"
      ],
      [
        "il",
        "e"
      ],
      [
        "n",
        "te"
      ],
      [
        "is",
        "u"
      ],
      [
        "vä",
        "l"
      ],
      [
        "an",
        "i"
      ],
      [
        " en",
        "ää"
      ],
      [
        "y",
        "d"
      ],
      [
        "ll",
        "in"
      ],
      [
        " kuu",
        "ka"
      ],
      [
        " k",
        "aa"
      ],
      [
        "Poli",
        "isi"
      ],
      [
        " s",
        "is"
      ],
      [
        "g",
        "en"
      ],
      [
        "g",
        "ra"
      ],
      [
        " v",
        "o"
      ],
      [
        " a",
        "uto"
      ],
      [
        " y",
        "mp"
      ],
      [
        "jo",
        "is"
      ],
      [
        "it",
        "on"
      ],
      [
        " j",
        "uh"
      ],
      [
        "ll",
        "en"
      ],
      [
        " h",
        "ui"
      ],
      [
        " s",
        "uh"
      ],
      [
        "ti",
        "en"
      ],
      [
        "H",
        "L"
      ],
      [
        " ker",
        "ro"
      ],
      [
        " y",
        "ri"
      ],
      [
        " vi",
        "ikon"
      ],
      [
        "h",
        "aa"
      ],
      [
        "ut",
        "in"
      ],
      [
        "u",
        "ri"
      ],
      [
        " Venä",
        "jä"
      ],
      [
        "pal",
        "vel"
      ],
      [
        "ks",
        "an"
      ],
      [
        " se",
        "lla"
      ],
      [
        " läh",
        "es"
      ],
      [
        "ise",
        "lla"
      ],
      [
        " er",
        "ity"
      ],
      [
        "H",
        "e"
      ],
      [
        "usta",
        "ja"
      ],
      [
        " ta",
        "l"
      ],
      [
        "äl",
        "ä"
      ],
      [
        " m",
        "o"
      ],
      [
        " ki",
        "er"
      ],
      [
        "it",
        "el"
      ],
      [
        " p",
        "ala"
      ],
      [
        "to",
        "ja"
      ],
      [
        " m",
        "uo"
      ],
      [
        " läh",
        "e"
      ],
      [
        "ol",
        "o"
      ],
      [
        "k",
        "kin"
      ],
      [
        " t",
        "y"
      ],
      [
        "yt",
        "yy"
      ],
      [
        " uu",
        "si"
      ],
      [
        "k",
        "uuta"
      ],
      [
        "j",
        "ia"
      ],
      [
        "ut",
        "us"
      ],
      [
        " m",
        "ukana"
      ],
      [
        "op",
        "p"
      ],
      [
        " li",
        "ik"
      ],
      [
        " ter",
        "ve"
      ],
      [
        "lle",
        "et"
      ],
      [
        " s",
        "ähkö"
      ],
      [
        " ky",
        "mmen"
      ],
      [
        " sa",
        "at"
      ],
      [
        " ko",
        "ke"
      ],
      [
        " ih",
        "mis"
      ],
      [
        " vi",
        "de"
      ],
      [
        "ke",
        "ä"
      ],
      [
        " vaa",
        "ti"
      ],
      [
        " ol",
        "y"
      ],
      [
        "t",
        "ynyt"
      ],
      [
        " tar",
        "v"
      ],
      [
        " l",
        "u"
      ],
      [
        "is",
        "esta"
      ],
      [
        "t",
        "ik"
      ],
      [
        "S",
        "en"
      ],
      [
        "m",
        "mat"
      ],
      [
        " po",
        "is"
      ],
      [
        "j",
        "u"
      ],
      [
        " v",
        "en"
      ],
      [
        " e",
        "hdo"
      ],
      [
        " kat",
        "s"
      ],
      [
        " al",
        "ku"
      ],
      [
        " to",
        "della"
      ],
      [
        "s",
        "u"
      ],
      [
        " ke",
        "llo"
      ],
      [
        " saan",
        "ut"
      ],
      [
        " tilan",
        "te"
      ],
      [
        " h",
        "o"
      ],
      [
        "R",
        "a"
      ],
      [
        " j",
        "al"
      ],
      [
        "as",
        "e"
      ],
      [
        "ma",
        "r"
      ],
      [
        " h",
        "an"
      ],
      [
        " jo",
        "ul"
      ],
      [
        " po",
        "l"
      ],
      [
        " o",
        "ma"
      ],
      [
        "M",
        "i"
      ],
      [
        " ri",
        "i"
      ],
      [
        "y",
        "ä"
      ],
      [
        "to",
        "on"
      ],
      [
        " R",
        "uot"
      ],
      [
        "il",
        "u"
      ],
      [
        " H",
        "a"
      ],
      [
        " N",
        "e"
      ],
      [
        "m",
        "istä"
      ],
      [
        "t",
        "taa"
      ],
      [
        "yn",
        "n"
      ],
      [
        " p",
        "y"
      ],
      [
        " arvi",
        "oi"
      ],
      [
        " pit",
        "kä"
      ],
      [
        "tä",
        "vä"
      ],
      [
        "vän",
        "ä"
      ],
      [
        "mp",
        "aa"
      ],
      [
        "u",
        "vo"
      ],
      [
        " vuo",
        "ksi"
      ],
      [
        "-",
        "l"
      ],
      [
        "e",
        "taan"
      ],
      [
        "k",
        "it"
      ],
      [
        "V",
        "uo"
      ],
      [
        "uk",
        "ko"
      ],
      [
        " ",
        "ik"
      ],
      [
        " r",
        "uo"
      ],
      [
        " aika",
        "a"
      ],
      [
        "ise",
        "lle"
      ],
      [
        " poli",
        "isi"
      ],
      [
        " po",
        "h"
      ],
      [
        " as",
        "e"
      ],
      [
        " s",
        "unnunta"
      ],
      [
        "y",
        "llä"
      ],
      [
        " per",
        "uste"
      ],
      [
        "ttä",
        "in"
      ],
      [
        "ist",
        "ui"
      ],
      [
        " ma",
        "t"
      ],
      [
        "i",
        "d"
      ],
      [
        " ra",
        "tka"
      ],
      [
        "m",
        "on"
      ],
      [
        " ja",
        "tka"
      ],
      [
        "v",
        "oit"
      ],
      [
        " h",
        "uol"
      ],
      [
        "ist",
        "on"
      ],
      [
        "k",
        "ku"
      ],
      [
        " hal",
        "u"
      ],
      [
        "va",
        "ssa"
      ],
      [
        "1",
        "8"
      ],
      [
        " tä",
        "ys"
      ],
      [
        " j",
        "äi"
      ],
      [
        " yle",
        "is"
      ],
      [
        " t",
        "uh"
      ],
      [
        " kut",
        "en"
      ],
      [
        "ti",
        "iv"
      ],
      [
        " ka",
        "utta"
      ],
      [
        "essa",
        "an"
      ],
      [
        "van",
        "sa"
      ],
      [
        "Vi",
        "ime"
      ],
      [
        " ka",
        "ik"
      ],
      [
        "l",
        "u"
      ],
      [
        "j",
        "et"
      ],
      [
        " ol",
        "en"
      ],
      [
        "ä",
        "jä"
      ],
      [
        "f",
        "f"
      ],
      [
        "in",
        "i"
      ],
      [
        " puo",
        "li"
      ],
      [
        "V",
        "enä"
      ],
      [
        " tä",
        "ssä"
      ],
      [
        " väh",
        "än"
      ],
      [
        " Ukra",
        "inan"
      ],
      [
        "ann",
        "a"
      ],
      [
        " yhte",
        "is"
      ],
      [
        " j",
        "uuri"
      ],
      [
        "te",
        "ttiin"
      ],
      [
        " per",
        "us"
      ],
      [
        " ti",
        "ista"
      ],
      [
        "tt",
        "een"
      ],
      [
        " tor",
        "sta"
      ],
      [
        " suu",
        "r"
      ],
      [
        "to",
        "jen"
      ],
      [
        " on",
        "n"
      ],
      [
        "p",
        "or"
      ],
      [
        "isen",
        "a"
      ],
      [
        "h",
        "ar"
      ],
      [
        " E",
        "uroop"
      ],
      [
        "un",
        "sa"
      ],
      [
        " sa",
        "r"
      ],
      [
        "j",
        "ö"
      ],
      [
        " ai",
        "kaan"
      ],
      [
        "5",
        "0"
      ],
      [
        "vi",
        "ik"
      ],
      [
        "men",
        "taja"
      ],
      [
        "ri",
        "ä"
      ],
      [
        " tar",
        "jo"
      ],
      [
        "J",
        "a"
      ],
      [
        "k",
        "os"
      ],
      [
        " vo",
        "isi"
      ],
      [
        " a",
        "lle"
      ],
      [
        " L",
        "e"
      ],
      [
        " N",
        "a"
      ],
      [
        "p",
        "er"
      ],
      [
        " ",
        "de"
      ],
      [
        " val",
        "ta"
      ],
      [
        "Hän",
        "en"
      ],
      [
        " liitt",
        "y"
      ],
      [
        "c",
        "e"
      ],
      [
        "ks",
        "in"
      ],
      [
        ":",
        "lle"
      ],
      [
        " ra",
        "uh"
      ],
      [
        " nel",
        "jä"
      ],
      [
        " n",
        "im"
      ],
      [
        " k",
        "en"
      ],
      [
        " tuo",
        "mi"
      ],
      [
        " tu",
        "llut"
      ],
      [
        "us",
        "ten"
      ],
      [
        "on",
        "sa"
      ],
      [
        " läh",
        "te"
      ],
      [
        "i",
        "va"
      ],
      [
        " s",
        "ä"
      ],
      [
        "t",
        "yn"
      ],
      [
        " kiin",
        "ni"
      ],
      [
        "kka",
        "a"
      ],
      [
        "os",
        "taa"
      ],
      [
        "a",
        "si"
      ],
      [
        "ttel",
        "ee"
      ],
      [
        " vah",
        "v"
      ],
      [
        "oit",
        "taa"
      ],
      [
        "L",
        "isäksi"
      ],
      [
        "k",
        "us"
      ],
      [
        "r",
        "on"
      ],
      [
        "iko",
        "lla"
      ],
      [
        "el",
        "en"
      ],
      [
        " S",
        "tubb"
      ],
      [
        " si",
        "inä"
      ],
      [
        "u",
        "lle"
      ],
      [
        " s",
        "in"
      ],
      [
        " pal",
        "vel"
      ],
      [
        " ed",
        "us"
      ],
      [
        "m",
        "issa"
      ],
      [
        " al",
        "koi"
      ],
      [
        " hyö",
        "kkä"
      ],
      [
        "is",
        "ista"
      ],
      [
        " l",
        "in"
      ],
      [
        "k",
        "ana"
      ],
      [
        " e",
        "h"
      ],
      [
        " jo",
        "ten"
      ],
      [
        "an",
        "tun"
      ],
      [
        "mm",
        "är"
      ],
      [
        " L",
        "i"
      ],
      [
        "ra",
        "a"
      ],
      [
        "et",
        "o"
      ],
      [
        " mu",
        "ist"
      ],
      [
        "yy",
        "ttä"
      ],
      [
        " t",
        "yös"
      ],
      [
        "jä",
        "t"
      ],
      [
        " a",
        "v"
      ],
      [
        " pa",
        "in"
      ],
      [
        " hal",
        "ua"
      ],
      [
        " ma",
        "tka"
      ],
      [
        " o",
        "tta"
      ],
      [
        " n",
        "ope"
      ],
      [
        "uks",
        "ista"
      ],
      [
        " A",
        "r"
      ],
      [
        "al",
        "in"
      ],
      [
        " ",
        "ä"
      ],
      [
        "j",
        "asta"
      ],
      [
        " suu",
        "ri"
      ],
      [
        " kä",
        "yttä"
      ],
      [
        " il",
        "man"
      ],
      [
        " mu",
        "r"
      ],
      [
        " el",
        "oku"
      ],
      [
        "y",
        "l"
      ],
      [
        "t",
        "unut"
      ],
      [
        " yh",
        "teen"
      ],
      [
        "ikka",
        "a"
      ],
      [
        "ö",
        "ssä"
      ],
      [
        " on",
        "gel"
      ],
      [
        " so",
        "sia"
      ],
      [
        "ta",
        "l"
      ],
      [
        "V",
        "al"
      ],
      [
        " kä",
        "yttö"
      ],
      [
        "il",
        "ee"
      ],
      [
        "u",
        "sa"
      ],
      [
        "al",
        "an"
      ],
      [
        "he",
        "mmin"
      ],
      [
        "est",
        "el"
      ],
      [
        "1",
        "7"
      ],
      [
        "uud",
        "esta"
      ],
      [
        " ka",
        "uden"
      ],
      [
        "ttel",
        "ussa"
      ],
      [
        "nä",
        "kö"
      ],
      [
        " T",
        "o"
      ],
      [
        " par",
        "ha"
      ],
      [
        "ei",
        "lla"
      ],
      [
        "\"",
        "\n"
      ],
      [
        "e",
        "ttiin"
      ],
      [
        "uo",
        "le"
      ],
      [
        " sel",
        "vi"
      ],
      [
        " saa",
        "da"
      ],
      [
        "g",
        "i"
      ],
      [
        "oh",
        "jois"
      ],
      [
        " ta",
        "as"
      ],
      [
        " het",
        "kellä"
      ],
      [
        " l",
        "isä"
      ],
      [
        " li",
        "iken"
      ],
      [
        "om",
        "et"
      ],
      [
        "1",
        "6"
      ],
      [
        "!",
        "\n"
      ],
      [
        " ede",
        "lleen"
      ],
      [
        "on",
        "a"
      ],
      [
        "O",
        "len"
      ],
      [
        "l",
        "aa"
      ],
      [
        "ki",
        "e"
      ],
      [
        " par",
        "e"
      ],
      [
        "ei",
        "lle"
      ],
      [
        " huo",
        "mi"
      ],
      [
        " ta",
        "kia"
      ],
      [
        " kuiten",
        "kaan"
      ],
      [
        " T",
        "ur"
      ],
      [
        "pp",
        "u"
      ],
      [
        "n",
        "o"
      ],
      [
        " I",
        "sra"
      ],
      [
        "j",
        "är"
      ],
      [
        " vuo",
        "d"
      ],
      [
        " r",
        "o"
      ],
      [
        " kat",
        "so"
      ],
      [
        "ttä",
        "mä"
      ],
      [
        " l",
        "ää"
      ],
      [
        " pitä",
        "isi"
      ],
      [
        "kk",
        "ää"
      ],
      [
        "y",
        "hti"
      ],
      [
        "kk",
        "ö"
      ],
      [
        " to",
        "inen"
      ],
      [
        " ",
        "/"
      ],
      [
        "ko",
        "hta"
      ],
      [
        "v",
        "isi"
      ],
      [
        " K",
        "i"
      ],
      [
        " lö",
        "y"
      ],
      [
        " Helsin",
        "gin"
      ],
      [
        "1",
        "1"
      ],
      [
        "is",
        "issa"
      ],
      [
        "oi",
        "m"
      ],
      [
        " kesk",
        "ustel"
      ],
      [
        "ik",
        "os"
      ],
      [
        "L",
        "i"
      ],
      [
        "ko",
        "r"
      ],
      [
        " nuo",
        "r"
      ],
      [
        " on",
        "ne"
      ],
      [
        " S",
        "uomi"
      ],
      [
        " h",
        "ie"
      ],
      [
        " ta",
        "valla"
      ],
      [
        "ka",
        "sta"
      ],
      [
        "ke",
        "e"
      ],
      [
        "den",
        "näkö"
      ],
      [
        " V",
        "al"
      ],
      [
        "ttel",
        "u"
      ],
      [
        "b",
        "er"
      ],
      [
        "s",
        "son"
      ],
      [
        " p",
        "u"
      ],
      [
        "c",
        "k"
      ],
      [
        " jä",
        "sen"
      ],
      [
        "A",
        "l"
      ],
      [
        "antun",
        "ti"
      ],
      [
        "ll",
        "on"
      ],
      [
        "va",
        "sta"
      ],
      [
        "tu",
        "a"
      ],
      [
        "M",
        "utta"
      ],
      [
        "oh",
        "jel"
      ],
      [
        "isen",
        "ä"
      ],
      [
        " vi",
        "e"
      ],
      [
        ":",
        "ssä"
      ],
      [
        "ki",
        "in"
      ],
      [
        " E",
        "U"
      ],
      [
        " per",
        "ä"
      ],
      [
        " aina",
        "kin"
      ],
      [
        "valta",
        "in"
      ],
      [
        "u",
        "ttu"
      ],
      [
        "ja",
        "an"
      ],
      [
        "is",
        "s"
      ],
      [
        "te",
        "tty"
      ],
      [
        " voi",
        "tti"
      ],
      [
        "ää",
        "r"
      ],
      [
        "ko",
        "h"
      ],
      [
        " il",
        "ma"
      ],
      [
        "el",
        "a"
      ],
      [
        "ut",
        "un"
      ],
      [
        " me",
        "di"
      ],
      [
        " ",
        "un"
      ],
      [
        "uo",
        "n"
      ],
      [
        " ta",
        "sa"
      ],
      [
        " o",
        "lleet"
      ],
      [
        " N",
        "or"
      ],
      [
        " k",
        "ään"
      ],
      [
        " as",
        "ti"
      ],
      [
        "K",
        "ys"
      ],
      [
        "es",
        "tö"
      ],
      [
        " t",
        "ila"
      ],
      [
        " san",
        "o"
      ],
      [
        "1",
        "4"
      ],
      [
        "uk",
        "u"
      ],
      [
        "pa",
        "an"
      ],
      [
        "in",
        "väl"
      ],
      [
        "mi",
        "es"
      ],
      [
        "ut",
        "ki"
      ],
      [
        "ee",
        "lle"
      ],
      [
        "pp",
        "o"
      ],
      [
        "ks",
        "et"
      ],
      [
        " val",
        "m"
      ],
      [
        "i",
        "ll"
      ],
      [
        "y",
        "den"
      ],
      [
        " mer",
        "ki"
      ],
      [
        " kiin",
        "n"
      ],
      [
        "ut",
        "unut"
      ],
      [
        " e",
        "ten"
      ],
      [
        " yhd",
        "essä"
      ],
      [
        " r",
        "as"
      ],
      [
        " tö",
        "r"
      ],
      [
        " va",
        "ka"
      ],
      [
        "nte",
        "ki"
      ],
      [
        "h",
        "oit"
      ],
      [
        "ei",
        "llä"
      ],
      [
        " perjanta",
        "ina"
      ],
      [
        "le",
        "hti"
      ],
      [
        "tt",
        "änyt"
      ],
      [
        " K",
        "o"
      ],
      [
        " uu",
        "den"
      ],
      [
        " nä",
        "in"
      ],
      [
        " r",
        "iko"
      ],
      [
        " pi",
        "de"
      ],
      [
        "as",
        "taan"
      ],
      [
        " vi",
        "era"
      ],
      [
        " p",
        "iste"
      ],
      [
        "ast",
        "us"
      ],
      [
        "1",
        "3"
      ],
      [
        " uut",
        "is"
      ],
      [
        " kan",
        "san"
      ],
      [
        " to",
        "de"
      ],
      [
        "ä",
        "ri"
      ],
      [
        " puheen",
        "johtaja"
      ],
      [
        " mahdo",
        "llis"
      ],
      [
        "is",
        "essä"
      ],
      [
        " P",
        "utin"
      ],
      [
        " ",
        "g"
      ],
      [
        "j",
        "ää"
      ],
      [
        "-S",
        "ano"
      ],
      [
        "k",
        "et"
      ],
      [
        " lau",
        "antaina"
      ],
      [
        "on",
        "i"
      ],
      [
        " per",
        "h"
      ],
      [
        " p",
        "yö"
      ],
      [
        "te",
        "et"
      ],
      [
        " se",
        "ur"
      ],
      [
        "ty",
        "ä"
      ],
      [
        "P",
        "er"
      ],
      [
        "E",
        "si"
      ],
      [
        " is",
        "o"
      ],
      [
        " hall",
        "itus"
      ],
      [
        "uk",
        "o"
      ],
      [
        "M",
        "in"
      ],
      [
        "s",
        "ky"
      ],
      [
        " kil",
        "omet"
      ],
      [
        " tiedo",
        "tte"
      ],
      [
        " sa",
        "man"
      ],
      [
        "itt",
        "o"
      ],
      [
        "is",
        "ka"
      ],
      [
        " y",
        "mmär"
      ],
      [
        "päi",
        "vä"
      ],
      [
        " m",
        "ar"
      ],
      [
        "its",
        "ee"
      ],
      [
        " til",
        "anne"
      ],
      [
        "viik",
        "kona"
      ],
      [
        "ur",
        "in"
      ],
      [
        " a",
        "mp"
      ],
      [
        "a",
        "ika"
      ],
      [
        " sop",
        "im"
      ],
      [
        "il",
        "tä"
      ],
      [
        " ha",
        "va"
      ],
      [
        " kaupun",
        "gin"
      ],
      [
        " ",
        "Z"
      ],
      [
        "ää",
        "ri"
      ],
      [
        "va",
        "an"
      ],
      [
        " h",
        "er"
      ],
      [
        "te",
        "taan"
      ],
      [
        " per",
        "in"
      ],
      [
        "l",
        "tä"
      ],
      [
        "isto",
        "ri"
      ],
      [
        " kirjoit",
        "taa"
      ],
      [
        ")",
        ".\n"
      ],
      [
        " ky",
        "llä"
      ],
      [
        "es",
        "tin"
      ],
      [
        "sta",
        "gra"
      ],
      [
        " lä",
        "mp"
      ],
      [
        "-",
        "kis"
      ],
      [
        " jo",
        "hta"
      ],
      [
        " yh",
        "den"
      ],
      [
        " presiden",
        "tin"
      ],
      [
        "u",
        "ma"
      ],
      [
        " to",
        "isen"
      ],
      [
        " ed",
        "usta"
      ],
      [
        " miljoon",
        "aa"
      ],
      [
        " kau",
        "della"
      ],
      [
        " pää",
        "stä"
      ],
      [
        "r",
        "es"
      ],
      [
        " va",
        "li"
      ],
      [
        " hall",
        "ituksen"
      ],
      [
        " kuin",
        "ka"
      ],
      [
        "N",
        "a"
      ],
      [
        " he",
        "ti"
      ],
      [
        " ky",
        "l"
      ],
      [
        "im",
        "o"
      ],
      [
        " pa",
        "h"
      ],
      [
        "uk",
        "i"
      ],
      [
        "iku",
        "ussa"
      ],
      [
        " er",
        "ila"
      ],
      [
        "ta",
        "lo"
      ],
      [
        " ni",
        "itä"
      ],
      [
        " al",
        "ka"
      ],
      [
        " hie",
        "man"
      ],
      [
        "us",
        "si"
      ],
      [
        " p",
        "an"
      ],
      [
        "vän",
        "sä"
      ],
      [
        " t",
        "än"
      ],
      [
        "K",
        "or"
      ],
      [
        "ut",
        "uu"
      ],
      [
        "uk",
        "e"
      ],
      [
        " täys",
        "in"
      ],
      [
        "it",
        "os"
      ],
      [
        " ka",
        "hden"
      ],
      [
        " al",
        "kaa"
      ],
      [
        " väli",
        "llä"
      ],
      [
        " ",
        "X"
      ],
      [
        " e",
        "päi"
      ],
      [
        " v",
        "äi"
      ],
      [
        " si",
        "is"
      ],
      [
        " yh",
        "tä"
      ],
      [
        " r",
        "yh"
      ],
      [
        " vi",
        "ikolla"
      ],
      [
        " vas",
        "t"
      ],
      [
        " jat",
        "ku"
      ],
      [
        "b",
        "a"
      ],
      [
        "ala",
        "inen"
      ],
      [
        " nä",
        "ky"
      ],
      [
        "uut",
        "een"
      ],
      [
        "te",
        "ttu"
      ],
      [
        " teh",
        "nyt"
      ],
      [
        " er",
        "iko"
      ],
      [
        " O",
        "r"
      ],
      [
        " va",
        "i"
      ],
      [
        " y",
        "stä"
      ],
      [
        " hei",
        "dän"
      ],
      [
        " t",
        "änä"
      ],
      [
        " miel",
        "estä"
      ],
      [
        " kor",
        "ke"
      ],
      [
        " S",
        "e"
      ],
      [
        " In",
        "stagra"
      ],
      [
        " hän",
        "tä"
      ],
      [
        "ran",
        "oma"
      ],
      [
        "äjä",
        "oike"
      ],
      [
        " ",
        "i"
      ],
      [
        "yy",
        "d"
      ],
      [
        " mie",
        "hen"
      ],
      [
        "2",
        "5"
      ],
      [
        "P",
        "ää"
      ],
      [
        " n",
        "or"
      ],
      [
        " pal",
        "j"
      ],
      [
        " ",
        "its"
      ],
      [
        "u",
        "li"
      ],
      [
        "ka",
        "r"
      ],
      [
        "uks",
        "issa"
      ],
      [
        " A",
        "le"
      ],
      [
        " vi",
        "er"
      ],
      [
        "vi",
        "r"
      ],
      [
        " myö",
        "hemmin"
      ],
      [
        "n",
        "in"
      ],
      [
        " ma",
        "ksa"
      ],
      [
        "uk",
        "kaan"
      ],
      [
        " var",
        "m"
      ],
      [
        "vi",
        "in"
      ],
      [
        " m",
        "issä"
      ],
      [
        "än",
        "i"
      ],
      [
        " jatka",
        "a"
      ],
      [
        " h",
        "uu"
      ],
      [
        " us",
        "eita"
      ],
      [
        " pää",
        "si"
      ],
      [
        "il",
        "ä"
      ],
      [
        " ker",
        "ran"
      ],
      [
        "ttu",
        "i"
      ],
      [
        " pit",
        "i"
      ],
      [
        " s",
        "ur"
      ],
      [
        "is",
        "uus"
      ],
      [
        "es",
        "ty"
      ],
      [
        "uksi",
        "in"
      ],
      [
        " ed",
        "es"
      ],
      [
        " a",
        "am"
      ],
      [
        "k",
        "kaan"
      ],
      [
        " epä",
        "il"
      ],
      [
        " to",
        "dennäkö"
      ],
      [
        " len",
        "to"
      ],
      [
        " H",
        "e"
      ],
      [
        " sosia",
        "al"
      ],
      [
        "l",
        "as"
      ],
      [
        "mi",
        "eh"
      ],
      [
        "esta",
        "r"
      ],
      [
        " miel",
        "en"
      ],
      [
        " torsta",
        "ina"
      ],
      [
        " p",
        "uu"
      ],
      [
        "ll",
        "isia"
      ],
      [
        " p",
        "yy"
      ],
      [
        " va",
        "al"
      ],
      [
        " joukku",
        "e"
      ],
      [
        "vin",
        "to"
      ],
      [
        "jo",
        "hta"
      ],
      [
        " nä",
        "hd"
      ],
      [
        " men",
        "i"
      ],
      [
        " jul",
        "k"
      ],
      [
        "I",
        "lta"
      ],
      [
        "hd",
        "elle"
      ],
      [
        "-vuoti",
        "a"
      ],
      [
        " s",
        "uun"
      ],
      [
        "is",
        "k"
      ],
      [
        "utta",
        "nut"
      ],
      [
        " kys",
        "ym"
      ],
      [
        "k",
        "än"
      ],
      [
        " ta",
        "voi"
      ],
      [
        ")",
        ","
      ],
      [
        " kuo",
        "le"
      ],
      [
        " Ukra",
        "ina"
      ],
      [
        " o",
        "man"
      ],
      [
        " eur",
        "on"
      ],
      [
        " H",
        "arr"
      ],
      [
        "Nä",
        "in"
      ],
      [
        " nä",
        "yttää"
      ],
      [
        " ar",
        "vo"
      ],
      [
        " Trump",
        "in"
      ],
      [
        " si",
        "v"
      ],
      [
        "T",
        "uo"
      ],
      [
        " h",
        "erä"
      ],
      [
        " ta",
        "va"
      ],
      [
        "yty",
        "i"
      ],
      [
        "h",
        "än"
      ],
      [
        "es",
        "in"
      ],
      [
        "eh",
        "to"
      ],
      [
        "tt",
        "una"
      ],
      [
        "k",
        "ossa"
      ],
      [
        " myö",
        "n"
      ],
      [
        " tul",
        "o"
      ],
      [
        " maan",
        "antaina"
      ],
      [
        " tiista",
        "ina"
      ],
      [
        "h",
        "er"
      ],
      [
        "tt",
        "uu"
      ],
      [
        " po",
        "ikke"
      ],
      [
        " oh",
        "jel"
      ],
      [
        " ai",
        "van"
      ],
      [
        "illa",
        "an"
      ],
      [
        "ud",
        "essa"
      ],
      [
        " voi",
        "vat"
      ],
      [
        " huo",
        "li"
      ],
      [
        " p",
        "eli"
      ],
      [
        "y",
        "vä"
      ],
      [
        "Va",
        "ikka"
      ],
      [
        " keski",
        "viikkona"
      ],
      [
        " al",
        "ussa"
      ],
      [
        " saa",
        "p"
      ],
      [
        " v",
        "oin"
      ],
      [
        " mu",
        "ka"
      ],
      [
        "oi",
        "lle"
      ],
      [
        " o",
        "mista"
      ],
      [
        " per",
        "he"
      ],
      [
        "r",
        "yh"
      ],
      [
        " H",
        "ar"
      ],
      [
        " E",
        "s"
      ],
      [
        " kuo",
        "li"
      ],
      [
        " j",
        "oita"
      ],
      [
        " mahdo",
        "llista"
      ],
      [
        " hän",
        "et"
      ],
      [
        " tie",
        "dot"
      ],
      [
        " men",
        "e"
      ],
      [
        " us",
        "ein"
      ],
      [
        " s",
        "ul"
      ],
      [
        " puol",
        "estaan"
      ],
      [
        " ven",
        "älä"
      ],
      [
        "ist",
        "un"
      ],
      [
        " kos",
        "kaan"
      ],
      [
        "v",
        "issa"
      ],
      [
        "men",
        "ta"
      ],
      [
        " p",
        "ro"
      ],
      [
        " kä",
        "ytö"
      ],
      [
        " alu",
        "eella"
      ],
      [
        " la",
        "in"
      ],
      [
        " o",
        "tti"
      ],
      [
        "ar",
        "in"
      ],
      [
        "-l",
        "uv"
      ],
      [
        " t",
        "uu"
      ],
      [
        "si",
        "vat"
      ],
      [
        " l",
        "ei"
      ],
      [
        " P",
        "ohjois"
      ],
      [
        "\"",
        ","
      ],
      [
        "u",
        "ista"
      ],
      [
        " k",
        "ie"
      ],
      [
        " yksi",
        "ty"
      ],
      [
        "p",
        "erä"
      ],
      [
        " sunnunta",
        "ina"
      ],
      [
        " a",
        "mma"
      ],
      [
        "llis",
        "et"
      ],
      [
        "k",
        "ut"
      ],
      [
        " A",
        "l"
      ],
      [
        " vi",
        "esti"
      ],
      [
        " ma",
        "ks"
      ],
      [
        " mie",
        "h"
      ],
      [
        " kä",
        "vi"
      ],
      [
        " o",
        "dot"
      ],
      [
        " no",
        "usi"
      ],
      [
        "ys",
        "sä"
      ],
      [
        "te",
        "e"
      ],
      [
        " ka",
        "mp"
      ],
      [
        "A",
        "r"
      ],
      [
        " P",
        "e"
      ],
      [
        " h",
        "oi"
      ],
      [
        "i",
        "ra"
      ],
      [
        "ksi",
        "a"
      ],
      [
        "joukku",
        "e"
      ],
      [
        "p",
        "uole"
      ],
      [
        " L",
        "in"
      ],
      [
        "ise",
        "llä"
      ],
      [
        " o",
        "ttaa"
      ],
      [
        "va",
        "ksi"
      ],
      [
        " V",
        "ir"
      ],
      [
        "van",
        "a"
      ],
      [
        "joi",
        "den"
      ],
      [
        " peruste",
        "ella"
      ],
      [
        "as",
        "taa"
      ],
      [
        "N",
        "e"
      ],
      [
        "is",
        "estä"
      ],
      [
        " al",
        "a"
      ],
      [
        " jul",
        "kis"
      ],
      [
        "Ka",
        "ikki"
      ],
      [
        "pa",
        "ika"
      ],
      [
        "mi",
        "ä"
      ],
      [
        " tote",
        "aa"
      ],
      [
        " ",
        "ir"
      ],
      [
        "u",
        "de"
      ],
      [
        "ut",
        "een"
      ],
      [
        " si",
        "ellä"
      ],
      [
        " p",
        "ur"
      ],
      [
        " a",
        "iko"
      ],
      [
        "g",
        "an"
      ],
      [
        " puol",
        "ustus"
      ],
      [
        "Y",
        "ksi"
      ],
      [
        " vä",
        "ki"
      ],
      [
        "äl",
        "tä"
      ],
      [
        " B",
        "iden"
      ],
      [
        " huo",
        "ma"
      ],
      [
        "l",
        "y"
      ],
      [
        " to",
        "ista"
      ],
      [
        " tä",
        "tä"
      ],
      [
        "va",
        "al"
      ],
      [
        " asi",
        "asta"
      ],
      [
        "19",
        "9"
      ],
      [
        "itt",
        "ää"
      ],
      [
        "il",
        "y"
      ],
      [
        " p",
        "e"
      ],
      [
        " yh",
        "ä"
      ],
      [
        " p",
        "or"
      ],
      [
        " K",
        "ar"
      ],
      [
        "H",
        "a"
      ],
      [
        "en",
        "sa"
      ],
      [
        "ta",
        "li"
      ],
      [
        "Y",
        "hdys"
      ],
      [
        " s",
        "yks"
      ],
      [
        " tä",
        "lla"
      ],
      [
        " R",
        "e"
      ],
      [
        "d",
        "ia"
      ],
      [
        " si",
        "lloin"
      ],
      [
        "p",
        "pa"
      ],
      [
        " hyvä",
        "ks"
      ],
      [
        "li",
        "ig"
      ],
      [
        "o",
        "la"
      ],
      [
        "it",
        "ys"
      ],
      [
        "ka",
        "t"
      ],
      [
        "ka",
        "pa"
      ],
      [
        " vi",
        "h"
      ],
      [
        "ll",
        "ik"
      ],
      [
        "il",
        "ja"
      ],
      [
        "4",
        "0"
      ],
      [
        "ksi",
        "ä"
      ],
      [
        "mis",
        "eksi"
      ],
      [
        " Ilta",
        "le"
      ],
      [
        "hd",
        "ot"
      ],
      [
        " raken",
        "n"
      ],
      [
        "g",
        "e"
      ],
      [
        " ar",
        "v"
      ],
      [
        "tt",
        "oa"
      ],
      [
        " j",
        "ään"
      ],
      [
        "on",
        "n"
      ],
      [
        "ul",
        "o"
      ],
      [
        "i",
        "llä"
      ],
      [
        "än",
        "si"
      ],
      [
        "ma",
        "al"
      ],
      [
        "to",
        "in"
      ],
      [
        " N",
        "HL"
      ],
      [
        "mo",
        "kra"
      ],
      [
        " vi",
        "ikko"
      ],
      [
        " p",
        "ä"
      ],
      [
        "yhti",
        "ö"
      ],
      [
        "K",
        "es"
      ],
      [
        "r",
        "y"
      ],
      [
        "ha",
        "ll"
      ],
      [
        " van",
        "he"
      ],
      [
        " työs",
        "ken"
      ],
      [
        " ",
        "uud"
      ],
      [
        "ää",
        "llä"
      ],
      [
        "il",
        "un"
      ],
      [
        " ymp",
        "äri"
      ],
      [
        " kä",
        "yt"
      ],
      [
        "t",
        "elä"
      ],
      [
        "t",
        "ur"
      ],
      [
        " s",
        "uk"
      ],
      [
        " a",
        "p"
      ],
      [
        " f",
        "ina"
      ],
      [
        "esta",
        "ri"
      ],
      [
        " työ",
        "nteki"
      ],
      [
        " mukaan",
        "sa"
      ],
      [
        " kansa",
        "inväl"
      ],
      [
        " as",
        "u"
      ],
      [
        " ensimmä",
        "inen"
      ],
      [
        "än",
        "eet"
      ],
      [
        "issa",
        "an"
      ],
      [
        " eh",
        "kä"
      ],
      [
        " tie",
        "d"
      ],
      [
        " kir",
        "ja"
      ],
      [
        " teh",
        "ty"
      ],
      [
        "En",
        "si"
      ],
      [
        " p",
        "oi"
      ],
      [
        "inn",
        "an"
      ],
      [
        " tiedotte",
        "essa"
      ],
      [
        "K",
        "i"
      ],
      [
        "n",
        "ö"
      ],
      [
        " saat",
        "taa"
      ],
      [
        " t",
        "yy"
      ],
      [
        " ilm",
        "oit"
      ],
      [
        " sija",
        "an"
      ],
      [
        "A",
        "si"
      ],
      [
        "ti",
        "et"
      ],
      [
        "ist",
        "unut"
      ],
      [
        "mp",
        "er"
      ],
      [
        " ihm",
        "istä"
      ],
      [
        "uo",
        "r"
      ],
      [
        "k",
        "är"
      ],
      [
        "te",
        "ita"
      ],
      [
        " K",
        "e"
      ],
      [
        "mis",
        "estä"
      ],
      [
        " r",
        "an"
      ],
      [
        "ee",
        "ksi"
      ],
      [
        " ",
        "do"
      ],
      [
        "L",
        "ue"
      ],
      [
        " t",
        "ien"
      ],
      [
        " mu",
        "ita"
      ],
      [
        "ih",
        "to"
      ],
      [
        " J",
        "a"
      ],
      [
        " pys",
        "ty"
      ],
      [
        "ei",
        "hin"
      ],
      [
        " jo",
        "issa"
      ],
      [
        " v",
        "el"
      ],
      [
        "a",
        "ta"
      ],
      [
        " G",
        "a"
      ],
      [
        " jo",
        "lla"
      ],
      [
        "uks",
        "e"
      ],
      [
        " suo",
        "ra"
      ],
      [
        " kas",
        "v"
      ],
      [
        "er",
        "aa"
      ],
      [
        "uh",
        "a"
      ],
      [
        " en",
        "na"
      ],
      [
        " sel",
        "vä"
      ],
      [
        " m",
        "el"
      ],
      [
        "Kys",
        "e"
      ],
      [
        " py",
        "sä"
      ],
      [
        " eri",
        "ttäin"
      ],
      [
        " jo",
        "tta"
      ],
      [
        " kes",
        "ke"
      ],
      [
        "b",
        "erg"
      ],
      [
        "va",
        "s"
      ],
      [
        " il",
        "ta"
      ],
      [
        " jä",
        "lleen"
      ],
      [
        " j",
        "osta"
      ],
      [
        "it",
        "taja"
      ],
      [
        "I",
        "l"
      ],
      [
        "ala",
        "is"
      ],
      [
        "ihe",
        "essa"
      ],
      [
        " o",
        "do"
      ],
      [
        "ke",
        "m"
      ],
      [
        "j",
        "ille"
      ],
      [
        " a",
        "jo"
      ],
      [
        " tapah",
        "tui"
      ],
      [
        " tän",
        "ään"
      ],
      [
        "V",
        "ar"
      ],
      [
        "pa",
        "h"
      ],
      [
        "on",
        "al"
      ],
      [
        " men",
        "n"
      ],
      [
        " Ne",
        "w"
      ],
      [
        "i",
        "o"
      ],
      [
        "m",
        "äärä"
      ],
      [
        " ko",
        "kona"
      ],
      [
        " oly",
        "mpia"
      ],
      [
        "k",
        "ti"
      ],
      [
        "p",
        "ol"
      ],
      [
        "hin",
        "g"
      ],
      [
        " vaik",
        "uttaa"
      ],
      [
        " Suom",
        "een"
      ],
      [
        "kil",
        "pail"
      ],
      [
        "te",
        "tään"
      ],
      [
        "joit",
        "us"
      ],
      [
        " teke",
        "e"
      ],
      [
        " tä",
        "y"
      ],
      [
        "er",
        "s"
      ],
      [
        " nel",
        "jän"
      ],
      [
        "yd",
        "essä"
      ],
      [
        " pit",
        "kään"
      ],
      [
        "ks",
        "e"
      ],
      [
        "op",
        "im"
      ],
      [
        " lop",
        "ulta"
      ],
      [
        " jota",
        "in"
      ],
      [
        " taka",
        "isin"
      ],
      [
        "ili",
        "ja"
      ],
      [
        " täh",
        "än"
      ],
      [
        "M",
        "ar"
      ],
      [
        " poli",
        "itt"
      ],
      [
        "s",
        "tö"
      ],
      [
        " Euroop",
        "an"
      ],
      [
        "r",
        "os"
      ],
      [
        " lap",
        "si"
      ],
      [
        "A",
        "n"
      ],
      [
        " ka",
        "hde"
      ],
      [
        "s",
        "uomala"
      ],
      [
        " kuul",
        "u"
      ],
      [
        "2",
        "2"
      ],
      [
        " so",
        "til"
      ],
      [
        " ",
        "it"
      ],
      [
        " pi",
        "dä"
      ],
      [
        " tut",
        "kin"
      ],
      [
        "yks",
        "essä"
      ],
      [
        " an",
        "taa"
      ],
      [
        " järj",
        "estä"
      ],
      [
        " ka",
        "up"
      ],
      [
        " kä",
        "ynn"
      ],
      [
        " m",
        "yy"
      ],
      [
        "p",
        "on"
      ],
      [
        "P",
        "el"
      ],
      [
        " se",
        "itse"
      ],
      [
        " kä",
        "yttää"
      ],
      [
        "i",
        "mi"
      ],
      [
        " a",
        "in"
      ],
      [
        " vuo",
        "sina"
      ],
      [
        "ker",
        "ta"
      ],
      [
        " myö",
        "tä"
      ],
      [
        "S",
        "al"
      ],
      [
        " yhte",
        "ist"
      ],
      [
        "ul",
        "u"
      ],
      [
        " sija",
        "itse"
      ],
      [
        " ma",
        "in"
      ],
      [
        " tule",
        "va"
      ],
      [
        " aut",
        "on"
      ],
      [
        " ni",
        "iden"
      ],
      [
        " H",
        "aa"
      ],
      [
        " p",
        "yr"
      ],
      [
        "os",
        "in"
      ],
      [
        " sy",
        "ys"
      ],
      [
        " ensimmä",
        "isen"
      ],
      [
        " koh",
        "taa"
      ],
      [
        " suo",
        "rit"
      ],
      [
        "S",
        "uomala"
      ],
      [
        "pä",
        "in"
      ],
      [
        "r",
        "een"
      ],
      [
        "uks",
        "ella"
      ],
      [
        " ottel",
        "un"
      ],
      [
        " järj",
        "este"
      ],
      [
        "U",
        "kra"
      ],
      [
        " ka",
        "i"
      ],
      [
        " ",
        "ur"
      ],
      [
        " sa",
        "malla"
      ],
      [
        " voi",
        "daan"
      ],
      [
        "arr",
        "as"
      ],
      [
        "p",
        "ar"
      ],
      [
        " hän",
        "elle"
      ],
      [
        " puol",
        "u"
      ],
      [
        " las",
        "ten"
      ],
      [
        "järj",
        "estel"
      ],
      [
        " huoli",
        "matta"
      ],
      [
        "ut",
        "kin"
      ],
      [
        "li",
        "iton"
      ],
      [
        "s",
        "er"
      ],
      [
        " o",
        "pp"
      ],
      [
        " a",
        "jat"
      ],
      [
        "2",
        "4"
      ],
      [
        " lap",
        "sen"
      ],
      [
        "t",
        "it"
      ],
      [
        "an",
        "en"
      ],
      [
        "ll",
        "yt"
      ],
      [
        "joi",
        "tti"
      ],
      [
        " ",
        "anta"
      ],
      [
        "k",
        "usta"
      ],
      [
        "T",
        "i"
      ],
      [
        "ist",
        "uu"
      ],
      [
        " y",
        "ö"
      ],
      [
        " turva",
        "llisuus"
      ],
      [
        " nope",
        "asti"
      ],
      [
        " voi",
        "ma"
      ],
      [
        " hyvin",
        "voin"
      ],
      [
        " lo",
        "ukkaan"
      ],
      [
        "ans",
        "ka"
      ],
      [
        " e",
        "teen"
      ],
      [
        " maa",
        "han"
      ],
      [
        "te",
        "essa"
      ],
      [
        " kär",
        "äjäoike"
      ],
      [
        " Yhdys",
        "valtain"
      ],
      [
        " halu",
        "aa"
      ],
      [
        "Esi",
        "merkiksi"
      ],
      [
        "mä",
        "t"
      ],
      [
        "s",
        "y"
      ],
      [
        " voi",
        "tto"
      ],
      [
        " li",
        "ian"
      ],
      [
        "K",
        "u"
      ],
      [
        "ed",
        "ia"
      ],
      [
        " elä",
        "män"
      ],
      [
        " vaih",
        "to"
      ],
      [
        "m",
        "et"
      ],
      [
        " pää",
        "tty"
      ],
      [
        " tu",
        "lla"
      ],
      [
        "an",
        "der"
      ],
      [
        " p",
        "ud"
      ],
      [
        "m",
        "u"
      ],
      [
        "ö",
        "l"
      ],
      [
        "ot",
        "taa"
      ],
      [
        " huo",
        "n"
      ],
      [
        "istä",
        "ä"
      ],
      [
        " j",
        "är"
      ],
      [
        "mm",
        "i"
      ],
      [
        "ir",
        "e"
      ],
      [
        "yksi",
        "ä"
      ],
      [
        " h",
        "uh"
      ],
      [
        " va",
        "pa"
      ],
      [
        "la",
        "isen"
      ],
      [
        " jo",
        "utui"
      ],
      [
        "mpi",
        "ala"
      ],
      [
        " lä",
        "pi"
      ],
      [
        " puh",
        "u"
      ],
      [
        "Mi",
        "es"
      ],
      [
        "in",
        "na"
      ],
      [
        " kes",
        "ken"
      ],
      [
        " lö",
        "ytyy"
      ],
      [
        "2",
        "3"
      ],
      [
        "j",
        "ista"
      ],
      [
        "on",
        "in"
      ],
      [
        "ki",
        "ä"
      ],
      [
        "t",
        "uo"
      ],
      [
        "tt",
        "ila"
      ],
      [
        " erity",
        "isesti"
      ],
      [
        "is",
        "o"
      ],
      [
        "p",
        "it"
      ],
      [
        " uu",
        "de"
      ],
      [
        " jo",
        "ukko"
      ],
      [
        "ol",
        "ta"
      ],
      [
        "ura",
        "a"
      ],
      [
        " ihm",
        "isiä"
      ],
      [
        "P",
        "ar"
      ],
      [
        "ot",
        "us"
      ],
      [
        " la",
        "us"
      ],
      [
        "va",
        "ra"
      ],
      [
        "tt",
        "eet"
      ],
      [
        "mp",
        "pan"
      ],
      [
        " ",
        "ikä"
      ],
      [
        " I",
        "l"
      ],
      [
        "i",
        "i"
      ],
      [
        "a",
        "lle"
      ],
      [
        "ut",
        "ua"
      ],
      [
        "vi",
        "lle"
      ],
      [
        " ko",
        "hta"
      ],
      [
        "ks",
        "ua"
      ],
      [
        " kerro",
        "taan"
      ],
      [
        "2",
        "1"
      ],
      [
        "-Sano",
        "mat"
      ],
      [
        " luo",
        "nn"
      ],
      [
        " pa",
        "ik"
      ],
      [
        " toi",
        "v"
      ],
      [
        " h",
        "oit"
      ],
      [
        "to",
        "r"
      ],
      [
        " viikon",
        "l"
      ],
      [
        " teh",
        "tä"
      ],
      [
        " yhteen",
        "sä"
      ],
      [
        " ra",
        "ja"
      ],
      [
        " puo",
        "le"
      ],
      [
        " kymmen",
        "en"
      ],
      [
        " jo",
        "lloin"
      ],
      [
        " na",
        "inen"
      ],
      [
        "val",
        "mentaja"
      ],
      [
        " yhte",
        "ydessä"
      ],
      [
        " ään",
        "estä"
      ],
      [
        "h",
        "y"
      ],
      [
        " ta",
        "n"
      ],
      [
        "ol",
        "m"
      ],
      [
        " läh",
        "ti"
      ],
      [
        " kuul",
        "uu"
      ],
      [
        "r",
        "ik"
      ],
      [
        " asi",
        "aa"
      ],
      [
        "k",
        "ön"
      ],
      [
        "u",
        "issa"
      ],
      [
        " to",
        "si"
      ],
      [
        ")",
        "\n"
      ],
      [
        " va",
        "paa"
      ],
      [
        " poli",
        "isin"
      ],
      [
        " aihe",
        "utta"
      ],
      [
        "Venä",
        "jän"
      ],
      [
        "H",
        "all"
      ],
      [
        " val",
        "tion"
      ],
      [
        " suunn",
        "itel"
      ],
      [
        "va",
        "llan"
      ],
      [
        "-",
        "ilta"
      ],
      [
        "us",
        "taa"
      ],
      [
        " kansan",
        "ed"
      ],
      [
        " vi",
        "isi"
      ],
      [
        " nä",
        "k"
      ],
      [
        " var",
        "sin"
      ],
      [
        "tta",
        "in"
      ],
      [
        " li",
        "ig"
      ],
      [
        "n",
        "en"
      ],
      [
        " ka",
        "hd"
      ],
      [
        "v",
        "es"
      ],
      [
        " osa",
        "a"
      ],
      [
        " yli",
        "op"
      ],
      [
        " j",
        "oiden"
      ],
      [
        "p",
        "uh"
      ],
      [
        " H",
        "o"
      ],
      [
        "b",
        "an"
      ],
      [
        " lap",
        "s"
      ],
      [
        "ttä",
        "vän"
      ],
      [
        " ker",
        "ton"
      ],
      [
        " val",
        "mista"
      ],
      [
        " tä",
        "stä"
      ],
      [
        " hel",
        "p"
      ],
      [
        "pel",
        "aa"
      ],
      [
        "il",
        "an"
      ],
      [
        "et",
        "e"
      ],
      [
        "ko",
        "a"
      ],
      [
        " M",
        "ä"
      ],
      [
        " Ruot",
        "sin"
      ],
      [
        "c",
        "o"
      ],
      [
        " m",
        "itta"
      ],
      [
        "er",
        "o"
      ],
      [
        " vaik",
        "utta"
      ],
      [
        "i",
        "aa"
      ],
      [
        "si",
        "in"
      ],
      [
        " mei",
        "dän"
      ],
      [
        "ist",
        "us"
      ],
      [
        " kil",
        "pa"
      ],
      [
        "h",
        "ä"
      ],
      [
        "ti",
        "lan"
      ],
      [
        "ty",
        "ksen"
      ],
      [
        "k",
        "inen"
      ],
      [
        "tan",
        "en"
      ],
      [
        " terve",
        "ys"
      ],
      [
        " m",
        "yyn"
      ],
      [
        "ttä",
        "jä"
      ],
      [
        "Tä",
        "män"
      ],
      [
        " tiet",
        "o"
      ],
      [
        " ta",
        "usta"
      ],
      [
        "ttä",
        "mään"
      ],
      [
        " ni",
        "mi"
      ],
      [
        "v",
        "y"
      ],
      [
        " h",
        "istori"
      ],
      [
        " l",
        "yh"
      ],
      [
        "ri",
        "in"
      ],
      [
        "P",
        "al"
      ],
      [
        "voi",
        "ma"
      ],
      [
        "pah",
        "tu"
      ],
      [
        "v",
        "ista"
      ],
      [
        "is",
        "ko"
      ],
      [
        "is",
        "uudessa"
      ],
      [
        " kul",
        "jet"
      ],
      [
        " ihmis",
        "et"
      ],
      [
        "llis",
        "uuden"
      ],
      [
        " ymp",
        "är"
      ],
      [
        " K",
        "an"
      ],
      [
        " k",
        "oi"
      ],
      [
        " s",
        "ään"
      ],
      [
        "een",
        "a"
      ],
      [
        "R",
        "o"
      ],
      [
        "si",
        "v"
      ],
      [
        " vi",
        "ranoma"
      ],
      [
        " saa",
        "v"
      ],
      [
        "m",
        "uksen"
      ],
      [
        "ö",
        "y"
      ],
      [
        "ka",
        "up"
      ],
      [
        " R",
        "i"
      ],
      [
        " ja",
        "ks"
      ],
      [
        " väh",
        "en"
      ],
      [
        " kannat",
        "taa"
      ],
      [
        "t",
        "ele"
      ],
      [
        "tti",
        "en"
      ],
      [
        "b",
        "o"
      ],
      [
        " mu",
        "si"
      ],
      [
        "eh",
        "ti"
      ],
      [
        " par",
        "i"
      ],
      [
        " ruo",
        "ka"
      ],
      [
        "T",
        "e"
      ],
      [
        " k",
        "rit"
      ],
      [
        " m",
        "arras"
      ],
      [
        " E",
        "l"
      ],
      [
        " kier",
        "ro"
      ],
      [
        "ut",
        "on"
      ],
      [
        "ks",
        "ella"
      ],
      [
        " E",
        "n"
      ],
      [
        "at",
        "on"
      ],
      [
        "ka",
        "upun"
      ],
      [
        "K",
        "ä"
      ],
      [
        " val",
        "tio"
      ],
      [
        " tul",
        "isi"
      ],
      [
        "uv",
        "os"
      ],
      [
        "ito",
        "ksen"
      ],
      [
        " vaike",
        "a"
      ],
      [
        " h",
        "ien"
      ],
      [
        "as",
        "in"
      ],
      [
        " O",
        "ulun"
      ],
      [
        " nä",
        "yttä"
      ],
      [
        " mo",
        "le"
      ],
      [
        " on",
        "ko"
      ],
      [
        " y",
        "ksin"
      ],
      [
        "Suom",
        "essa"
      ],
      [
        " toimin",
        "ta"
      ],
      [
        "l",
        "äh"
      ],
      [
        "kon",
        "en"
      ],
      [
        "la",
        "ista"
      ],
      [
        " r",
        "unsa"
      ],
      [
        " I",
        "tä"
      ],
      [
        " kir",
        "joitti"
      ],
      [
        "kan",
        "en"
      ],
      [
        " osall",
        "istu"
      ],
      [
        "us",
        "to"
      ],
      [
        "f",
        "i"
      ],
      [
        " ta",
        "so"
      ],
      [
        "e",
        "hdo"
      ],
      [
        "tty",
        "ä"
      ],
      [
        "tt",
        "unut"
      ],
      [
        " lämp",
        "ö"
      ],
      [
        " er",
        "ä"
      ],
      [
        "H",
        "elsin"
      ],
      [
        "yks",
        "estä"
      ],
      [
        " min",
        "kä"
      ],
      [
        " ",
        "ura"
      ],
      [
        "ri",
        "en"
      ],
      [
        " K",
        "or"
      ],
      [
        " kos",
        "ke"
      ],
      [
        "uu",
        "r"
      ],
      [
        " na",
        "isten"
      ],
      [
        " ilm",
        "oitti"
      ],
      [
        "s",
        "issa"
      ],
      [
        " p",
        "rin"
      ],
      [
        "än",
        "sä"
      ],
      [
        "ks",
        "esta"
      ],
      [
        "1",
        "00"
      ],
      [
        "ale",
        "issa"
      ],
      [
        "j",
        "un"
      ],
      [
        "t",
        "änyt"
      ],
      [
        "joi",
        "ta"
      ],
      [
        "a",
        "tt"
      ],
      [
        " E",
        "M"
      ],
      [
        " päi",
        "vän"
      ],
      [
        " k",
        "al"
      ],
      [
        "ma",
        "tto"
      ],
      [
        "ih",
        "a"
      ],
      [
        " r",
        "ikos"
      ],
      [
        " so",
        "ta"
      ],
      [
        " suu",
        "rin"
      ],
      [
        "onal",
        "d"
      ],
      [
        "ky",
        "mmen"
      ],
      [
        " mon",
        "i"
      ],
      [
        "än",
        "en"
      ],
      [
        "N",
        "i"
      ],
      [
        " te",
        "k"
      ],
      [
        " kol",
        "men"
      ],
      [
        "ista",
        "an"
      ],
      [
        " lo",
        "ka"
      ],
      [
        "k",
        "ää"
      ],
      [
        " ratka",
        "is"
      ],
      [
        "L",
        "ap"
      ],
      [
        "tt",
        "eita"
      ],
      [
        "ja",
        "r"
      ],
      [
        " jo",
        "ista"
      ],
      [
        " pää",
        "lle"
      ],
      [
        " työ",
        "n"
      ],
      [
        "R",
        "uot"
      ],
      [
        " Isra",
        "elin"
      ],
      [
        "K",
        "e"
      ],
      [
        " kesk",
        "usta"
      ],
      [
        "k",
        "issa"
      ],
      [
        "et",
        "in"
      ],
      [
        "6",
        "0"
      ],
      [
        "isi",
        "lla"
      ],
      [
        " ko",
        "hti"
      ],
      [
        "tti",
        "vät"
      ],
      [
        " ka",
        "iken"
      ],
      [
        " tun",
        "te"
      ],
      [
        "d",
        "y"
      ],
      [
        "ja",
        "lla"
      ],
      [
        " tuk",
        "e"
      ],
      [
        " ra",
        "vinto"
      ],
      [
        " tote",
        "si"
      ],
      [
        "p",
        "s"
      ],
      [
        " o",
        "lleen"
      ],
      [
        "yö",
        "n"
      ],
      [
        " yh",
        "ti"
      ],
      [
        "yks",
        "et"
      ],
      [
        "-",
        "P"
      ],
      [
        "v",
        "issä"
      ],
      [
        " r",
        "is"
      ],
      [
        " ma",
        "ali"
      ],
      [
        " Ukra",
        "in"
      ],
      [
        "h",
        "te"
      ],
      [
        "ie",
        "mi"
      ],
      [
        "ann",
        "etta"
      ],
      [
        " julka",
        "isi"
      ],
      [
        " po",
        "hti"
      ],
      [
        " ka",
        "pp"
      ],
      [
        " ul",
        "os"
      ],
      [
        "r",
        "ö"
      ],
      [
        "ttel",
        "un"
      ],
      [
        " V",
        "ar"
      ],
      [
        " as",
        "un"
      ],
      [
        " uutis",
        "oi"
      ],
      [
        " V",
        "e"
      ],
      [
        " hel",
        "m"
      ],
      [
        "in",
        "een"
      ],
      [
        "-",
        "p"
      ],
      [
        "yn",
        "ä"
      ],
      [
        "palvel",
        "u"
      ],
      [
        "t",
        "is"
      ],
      [
        "ik",
        "ku"
      ],
      [
        " va",
        "iheessa"
      ],
      [
        " mu",
        "iden"
      ],
      [
        " teh",
        "tävä"
      ],
      [
        " onne",
        "ttom"
      ],
      [
        " pa",
        "ko"
      ],
      [
        " met",
        "sä"
      ],
      [
        " n",
        "ime"
      ],
      [
        " suu",
        "re"
      ],
      [
        " ver",
        "ran"
      ],
      [
        "järj",
        "estö"
      ],
      [
        "-",
        "Suomen"
      ],
      [
        "as",
        "ton"
      ],
      [
        "ei",
        "jon"
      ],
      [
        " pää",
        "tt"
      ],
      [
        " so",
        "dan"
      ],
      [
        " ne",
        "uvo"
      ],
      [
        " oike",
        "us"
      ],
      [
        " ",
        "uutta"
      ],
      [
        "va",
        "li"
      ],
      [
        "ka",
        "l"
      ],
      [
        " V",
        "a"
      ],
      [
        " ta",
        "mm"
      ],
      [
        "mp",
        "p"
      ],
      [
        " vaik",
        "ut"
      ],
      [
        " s",
        "om"
      ],
      [
        "ma",
        "tka"
      ],
      [
        " jo",
        "uk"
      ],
      [
        "vä",
        "li"
      ],
      [
        " vi",
        "estin"
      ],
      [
        "s",
        "el"
      ],
      [
        " vi",
        "iden"
      ],
      [
        "mä",
        "ki"
      ],
      [
        " he",
        "inä"
      ],
      [
        " muist",
        "uttaa"
      ],
      [
        "O",
        "l"
      ],
      [
        " ka",
        "h"
      ],
      [
        " mu",
        "uto"
      ],
      [
        "un",
        "d"
      ],
      [
        "t",
        "etta"
      ],
      [
        "mp",
        "ien"
      ],
      [
        " C",
        "h"
      ],
      [
        " oike",
        "in"
      ],
      [
        " ve",
        "si"
      ],
      [
        "antunti",
        "ja"
      ],
      [
        "os",
        "e"
      ],
      [
        " J",
        "oh"
      ],
      [
        "L",
        "äh"
      ],
      [
        "ik",
        "i"
      ],
      [
        "i",
        "hd"
      ],
      [
        " jo",
        "ku"
      ],
      [
        " ",
        "elin"
      ],
      [
        " ta",
        "kana"
      ],
      [
        "mä",
        "stä"
      ],
      [
        " maal",
        "is"
      ],
      [
        "-",
        "sar"
      ],
      [
        "L",
        "e"
      ],
      [
        " h",
        "ir"
      ],
      [
        "ttä",
        "vät"
      ],
      [
        " D",
        "a"
      ],
      [
        "ttävä",
        "sti"
      ],
      [
        "oi",
        "li"
      ],
      [
        " sil",
        "ti"
      ],
      [
        " perin",
        "te"
      ],
      [
        " us",
        "e"
      ],
      [
        " muo",
        "d"
      ],
      [
        "g",
        "issä"
      ],
      [
        " m",
        "iksi"
      ],
      [
        "ko",
        "k"
      ],
      [
        " asi",
        "oita"
      ],
      [
        " haasta",
        "ttelussa"
      ],
      [
        "ka",
        "uden"
      ],
      [
        " sa",
        "ir"
      ],
      [
        " L",
        "eh"
      ],
      [
        " ed",
        "essä"
      ],
      [
        "Tä",
        "llä"
      ],
      [
        " kär",
        "si"
      ],
      [
        " perh",
        "een"
      ],
      [
        "M",
        "e"
      ],
      [
        "uksen",
        "a"
      ],
      [
        "ui",
        "lla"
      ],
      [
        "is",
        "uuden"
      ],
      [
        "es",
        "s"
      ],
      [
        " van",
        "ke"
      ],
      [
        "ta",
        "va"
      ],
      [
        "man",
        "a"
      ],
      [
        "ka",
        "u"
      ],
      [
        " jo",
        "htaja"
      ],
      [
        "vi",
        "o"
      ],
      [
        "kan",
        "sa"
      ],
      [
        "est",
        "ys"
      ],
      [
        " medi",
        "assa"
      ],
      [
        "V",
        "ir"
      ],
      [
        " hän",
        "ellä"
      ],
      [
        " nä",
        "kö"
      ],
      [
        " varm",
        "asti"
      ],
      [
        " al",
        "ue"
      ],
      [
        " ulko",
        "ma"
      ],
      [
        "c",
        "up"
      ],
      [
        " liiken",
        "ne"
      ],
      [
        " oh",
        "j"
      ],
      [
        " tuo",
        "lloin"
      ],
      [
        "V",
        "an"
      ],
      [
        "2",
        "7"
      ],
      [
        "pa",
        "ikka"
      ],
      [
        " asi",
        "an"
      ],
      [
        " Ale",
        "x"
      ],
      [
        " läh",
        "tö"
      ],
      [
        "mä",
        "llä"
      ],
      [
        " tiet",
        "oa"
      ],
      [
        "-",
        "ar"
      ],
      [
        "ik",
        "s"
      ],
      [
        " pa",
        "ikka"
      ],
      [
        "up",
        "er"
      ],
      [
        "p",
        "in"
      ],
      [
        "ö",
        "r"
      ],
      [
        "as",
        "si"
      ],
      [
        "ist",
        "ön"
      ],
      [
        " an",
        "toi"
      ],
      [
        "ann",
        "in"
      ],
      [
        " seitse",
        "män"
      ],
      [
        " t",
        "äällä"
      ],
      [
        " le",
        "ikka"
      ],
      [
        " juh",
        "li"
      ],
      [
        " y",
        "kkö"
      ],
      [
        " kamp",
        "an"
      ],
      [
        "h",
        "on"
      ],
      [
        " oly",
        "mpiala"
      ],
      [
        " pää",
        "ministeri"
      ],
      [
        " mi",
        "eli"
      ],
[...]
