#version: 0.2
  ה
  ל
  א
י ם
ו ת
  מ
  ש
  ב
. 

  ע
  ו
  כ
נ י
 ש ל
ו ר
  י
ו ל
נ ו
 א ת
י ת
ר ו
 ה מ
ו ד
ר י
 ל ה
י ה
  ח
י ו
 ל א
י ל
ב ר
נ ה
ד י
ו א
  ת
ז ה
  נ
 ע ל
ו ב
י ר
  פ
י ות
 ה א
  ק
מ ו
ר א
י ש
מ ה
  ג
י ן
ת י
כ ל
ו ן
  ס
י א
נ ים
ו מ
ל י
  ר
מ ש
י ב
י ד
  ד
ו פ
נ ות
ש ר
 מ ה
ל א
א ת
ל ו
? 

ל ה
 ש ה
 ה ש
 א ח
 ב א
י ק
י ים
 ה ח
  ז
  צ
 א ו
ר ים
י ע
ב ו
 ה ע
  זה
ש ה
ת ו
ו ם
 כ ל
 ב מ
ב ל
ס פ
כ ול
 ו ה
 מ א
 ה וא
ש ים
ו ק
 מ ש
  ט
 ה ת
 ב ע
ר ה
 ל ע
ו ח
י נ
 ל מ
ו ג
 ע ם
ר ב
י פ
 ה פ
 ה ב
 א ות
 י ש
י ט
  "
  (
ר ג
ות ר
ו ע
 ל ש
ר כ
י מ
ת ח
 ש א
 ב ש
י ס
 ה ק
ש ו
ו ס
ני ת
 י ותר
ו ש
י נו
" .

 מ ע
 ה ג
י צ
נ ת
 י כול
 ל פ
 ה ה
מ י
מ ת
  רו
 ל ב
כ ו
 ה ס
 ה יא
ד ים
י ח
 ב ה
ול ם
ב ע
 ה יה
ד ר
 ל ח
א ני
 ג ם
כ ם
מ צ
א י
מ ע
 מ ס
ו צ
א ם
 מ ת
 מ ח
ט ר
נ ס
ל ק
נ ח
 ה צ
ר ח
ו כ
 מ ק
מ ן
 כ י
ש ות
ח ר
ו ו
2 0
 ל ק
מ ים
מ ר
ש ת
ב ים
ב ה
ל ים
י ית
  נו
ר ט
 ב ח
 ה כ
ד ם
נ ט
ר ת
  -
 א י
יו ם
ד ה
כ ה
 ל י
 ה ז
 ו א
ע ות
צ ה
כ ן
א ים
 ה נ
ור ה
 לה יות
 כ א
 ה ד
ה ם
  –
 א ל
 ה ם
א ה
 מ צ
א ות
ע ת
ע ה
נ שים
ב י
פ י
ש י
ל ח
 כ די
יר ות
" 

יות ר
ח ק
ב ור
ו ף
נח נו
ק ה
בר ים
 ר ק
ד ו
ע ם
 א ני
ב וד
כ ת
 אח ד
ספ ר
 ו מ
מ ות
ע ל
פ ר
 א ם
 ב ס
1 9
יל ה
 ע צ
ח ד
 ו ב
 ו ל
יו ן
נ ג
 ה ט
ע ים
ור ים
ו י
ש א
ו ז
 צ רי
 א פ
 ש מ
ה וא
ר ות
ס ט
יר ה
ש וב
ד ול
ח ת
ל ב
כ ים
 ל ג
ח ה
ב ות
 ב יותר
רא ל
פ ה
ח ות
 של ך
 מ ב
 ב ת
ב ת
יל ו
 ב ק
 כ מו
מ יד
 ה רא
 כ ך
 את ה
יש ה
י ני
י ג
כ ות
  ני
ל ת
ל ות
 ט וב
 י ה
כ ש
. .
א ו
 ל ת
ל ט
 א בל
 א מ
ר ק
 ל ו
! 

ר צ
ס ק
 לה ת
0 0
 ב כל
נ ק
 המ ש
 י די
 ה זה
ב א
e r
רא ה
י רו
ומ ר
 אות ו
 ב פ
 ע ד
ו ט
 ה יו
י י
ז ור
 מ פ
 מ ג
 של י
 ז את
 של ו
 ב ג
כ ך
 של נו
את ה
ז ו
מ א
מ ד
 ל ד
 ז ו
 מ י
 ב ב
ני ות
i n
מ וד
רב ה
 ב ין
 מא וד
ד ות
ופ ן
 מ מ
 ה יית
א בל
20 1
 ח ד
רו ן
  רא
 ל צ
 ש נ
 מ די
ו ני
פ ת
 ל ך
ה אם
 ב ד
ש ב
" ,
ס ף
 מ כ
o n
 ל נו
ול ה
 ח י
ר ך
פ ו
 ש ע
נ ד
יל ים
 פ ע
 ע בור
a n
ול י
מ ק
ט ים
ג ם
בר ה
 כ מה
 לע שות
 מ ד
 א ינ
) .

פ ק
ל ך
  די
א ר
ק ר
ס י
 ב ר
 ב ט
ע ד
ו נים
 ה ר
 שה וא
א ל
פ שר
יר ים
כ ון
דר ך
  S
 ע ו
ני ה
 ב ו
 י וד
 הא ח
יה ם
תו ך
יב ה
צ ים
 ב צ
בוד ה
 א נשים
 לפ ני
 ש ב
ק ים
 צרי ך
: 

 ד בר
ית י
 לה ג
ה מ
 כ בר
פ ות
 ו לא
 של הם
 ב ני
 של א
 ב כ
 ה כל
 א שר
 ה רבה
 ג דול
 יש ראל
ח ים
פ ט
ח ו
 המ ק
 א מר
ית ה
 ע וד
ב ד
י מו
ס ים
) 

ור ת
  A
ט ור
כ א
ו נ
ת ה
יק ה
 א ז
 מ מש
 ל ס
  C
כ נ
רי ק
יל ות
 ש ני
 ש נים
נית ן
.. .

 ב מש
רו ב
20 0
פ ל
 רו צה
 בא ופן
ק ות
. "

 ה י
 ו ש
ת ק
 א ך
a r
 של ה
 א לה
ור ך
 א לו
o r
מ ית
ס ת
בר ת
יד ע
א ז
 א דם
פ ים
 י צ
ג ר
ט י
 ש יש
ב ח
וו ה
 ש בו
ו ה
ול ים
ול וג
e n
 אח ר
יע ה
צ ע
ש ון
ב רי
כ י
 ו ע
 ש ם
 אח ת
 א נחנו
a l
רא ות
צ ת
 לא חר
 י ל
e s
 יכול ים
 ת ק
a t
 לה ם
שה ו
י ך
  M
ג ע
 ו ח
 י ד
 א ין
נ צ
 הע ולם
ר ד
ה א
 ז מן
ה ה
ימ ים
  ות
 במ ק
 ח לק
 מ ז
 ה יום
ב ק
ור ות
  T
 ש ק
 אות ם
ו ות
 מ יל
 כ ול
 נ ש
ה ים
כש יו
א נחנו
ו כל
ר ס
 היית ה
ג ד
 ל מש
די ין
ע י
 ל כל
 ב מה
ח י
ב ט
ה יא
שו ט
 ו לה
 א נו
ל ית
 א יש
 שא ני
 של כם
ב ש
 יה יה
 ח וש
ומ י
יב ות
פ ש
ור י
רכ ת
 את ם
פ ע
תי ים
 אח רים
  P
 כ ש
 ק ט
צ ב
שו נה
צ ר
 כא שר
 מ תח
 ב ל
די נה
 שה ם
ר ץ
י נים
 מ ט
  '
ופ ה
יד ה
רכ ז
פ ור
 המ ע
ני ים
 ת ה
כ נס
וד ה
h e
 ה נו
 ה רו
 פ עם
ו נה
 אח רי
 ה ל
 י ום
יש ראל
 אות ה
 המ ח
יו חד
וב ה
ומ ים
ד ת
 ל ל
וח ות
 ב נו
 כ ן
ג ל
יפ ה
י ז
פ ס
את ם
 נ ע
 ל ט
 ש נה
 למ ע
 מ וצ
 כא ן
 ב ז
לו ם
  B
 י ח
 ב ית
ד ש
 בע ולם
ני ין
א מ
א ין
" ה
 ב י
 נ מצ
ק ט
 הא מ
 הג דול
 ר בים
 ב רי
1 0
 מ שהו
 מ ספ
" ב
פ תח
רו נות
ו ץ
) ,
 אפ שר
 י ע
 ח ז
 ל כם
 מ ספר
i c
 ת מיד
 מש ת
יפ ור
 ח שוב
בו ע
מע ות
 ת ח
 ש ת
  נה
 נ ק
מ ח
 א לא
רו ם
 א ומר
 ע דיין
 בא מצ
 ר צ
 ח ש
י נה
ט ה
ב יר
 ל לא
ימו ש
 ל ראות
 ש כ
 ש ח
i t
 הת ק
  ניתן
רי ך
 ע וב
ק ת
ה ש
ומ ות
וד ים
יב ור
 פ שוט
ג ים
 אי ך
רג יש
 ד רך
ס ה
ה ח
יל דים
צ ות
 הרא שון
ו מה
ה ב
 בא מת
מו נה
מ ל
  D
 ש אתה
 אות י
 לה ב
 נו ספ
מ נו
ה ת
ש ית
ל פ
 לה שת
יר ת
  I
ל ל
פ רי
צ יה
ו ך
לי ך
וד ות
אי ך
ל ם
וד י
 לה צ
  W
 ע שו
 ל כ
 ש זה
בר ית
ב יב
מו ק
 פ י
 הז מן
מע ט
ב יל
ול ות
 ו את
 ח יים
 הש ני
 המ ס
בר ות
 ה ול
רב ות
s t
מ ור
 מש פ
 ב תח
 בב ית
יפ ול
 ה תי
 הא דם
ג ה
 א ף
נ ש
יצ ד
א נו
1 8
l e
 ה ספר
יס טור
ש ם
 חי יב
  רי
 יוד ע
  H
 ו כ
א ן
 נ פ
 בש נת
 ה ן
כ נית
ר מ
 ת ש
 המ ת
 כ ת
יצ ור
 מ וכ
יק ר
 נ ח
 ג בו
טר נט
י יה
 הח יים
רי ות
כ ר
o u
ו נות
 לק בל
 ר ג
צ וע
ה ע
 א ינו
צ י
ול יט
  G
ק ו
 באמצ עות
  L
 מק ום
 כל ל
ימ ות
r e
 שה יא
ד ור
ט רה
פ א
 ה יתה
 למ צ
ח ון
מ ס
 ר ח
רכ ים
וד ש
ל מה
מ ין
תו צ
יט ה
 אפ ילו
צ מ
ר ע
ג ור
ישה ו
 ת ע
ב רו
 א ומ
וא ה
 מ לא
 ה יח
ל סט
  R
רצ ות
 ש י
יע ים
 ה ופ
ימ ת
  [
 צרי כים
 ח וק
 עצ מ
 מס ו
 הרא שונה
יו ק
 מ וד
 ה רג
וב ן
o m
 ב דרך
ז ר
ות ו
 הא לה
 יכול ה
 לה ש
 ד ברים
 הת ח
 ר ע
 מ ן
 ק ור
  F
ז רח
נ ע
ב ס
ינו י
" ל
 ל ז
 חד ש
ק י
 במה לך
ינ לא
 ש בה
] 

 א רו
1 5
 מ וס
 ש וב
יו ון
 א נ
ב ית
ט ו
 ע כשיו
  E
ת ם
 מס וג
בר ס
ל ד
 ק שה
 נ גד
מש ך
 ה די
 הכ י
לב ד
 ב ן
 ת וכ
 פ חות
 ר ב
פק יד
  .

ה ס
ח ור
ת ר
מו ן
 ל מה
i s
 רו צים
  t
 כ מ
 י וצ
ג ו
 ב לי
 א ס
תו ח
? "

 א ית
 ס וג
ק ד
 מ כל
כנ ולוג
נו ע
לח מה
צ ל
יע ו
ל יה
ור ג
 ס ט
 המ א
רי ים
יני ים
 עצ מו
 מ וש
 א לי
 כ שה
יש י
ב מ
 ד ול
i on
ע ו
 ש ש
וס ט
ומ ת
לי ים
 ה לא
ה י
ק ס
יל ת
 הז ו
יל ד
 ג ור
כ ב
 מש מעות
, 

 ה יש
 מה ם
 פ ני
 עו שה
 אות ך
נ א
 ע סק
 ק רו
  “
ק ש
ני ס
 ה ברית
 מיל יון
e l
 יל דים
00 0
 נ ראה
 צ ע
 הא ם
 אי רו
 מ ל
r o
 אלו הים
 הת ע
ק ל
ומ ית
יו ני
כ מו
חק ר
in g
19 9
תו נים
 מ ידע
תי ד
 ש ונים
 הט וב
א ח
נו ן
 ס פר
ח לט
 כ מעט
וד ם
 למצ וא
 ר בות
 המ צ
יח ס
 בל תי
 ס י
 במש ך
 לה ע
כ מה
נ ם
נ ן
 המ דינה
 הח ברה
ש תי
 הש ת
דו בר
1 2
 מ נה
יא ות
מ פ
 נ ת
ב נו
י די
 ע בודה
  N
3 0
ינ טרנט
וא ר
 במק ום
מש לה
רג ון
e t
 ה רי
ד בר
 לד עת
מ נות
ה פ
 הז את
כא שר
לא חר
 להשת מש
 ש תי
 ב תוך
ב ול
 ל כך
א לה
 כול ל
לו ט
כו יות
וח ר
ינ ג
 מ וע
 ס פ
o f
ר ש
 ק בו
 ש ום
רג ע
 א ה
לי ט
רט ים
 ב מו
 יוד עים
ל מיד
 א ד
ז ק
 ב רח
רו נה
" אני
די נות
 מא ז
ג ות
 לה ח
 מ בו
ינ ת
  O
 היית י
 תה יה
 פ רו
רא ש
 חוש ב
ג ת
 בש ביל
 בט וח
 בד יוק
 ח ס
 בצ ורה
ט ח
 אח רת
שר ים
a c
ז את
 כ פי
כ ור
את ר
 לה תח
רב ים
i l
 בה ם
 בז מן
 כ זה
 על יו
יית י
 א ש
יב ים
" א
 ב יט
רו ש
רי ה
 כ ה
 י ת
מש יך
ז רה
כת ב
 במ יוחד
יסטור יה
 ו ס
 נ כון
 הע בודה
 לג בי
פ חה
ור ק
 במ ח
פו ך
רי קה
מש ים
 בע לי
 ו פ
ג ש
 לע צ
כו נה
 מספ יק
י ף
 ק י
 מא שר
 מש חק
o l
נס ה
 ו ק
 הש נה
 דול ר
e d
 שא נחנו
 טוב ה
 במ ע
 ה לי
 בה ת
ול ד
 הע יר
 לה כ
 הב רי
ע ר
 האמ ריק
 י ק
רו א
א פשר
לי ח
וק ים
 מ נת
 ב יום
 נ ס
ופ י
 ב יק
מו ך
 ב לבד
 אות נו
 בג לל
 ו נ
י כ
 א ור
 להג יע
 ק צת
 י חד
ינ ם
וד שים
 הד ברים
5 0
ג רים
 ר ש
 הד בר
 ק ל
 מ ור
 ני ס
 מ תוך
 ה וד
 להב ין
ג יע
 ש אתם
מ יים
 ה ני
a m
 ע ומ
 לפ ע
 וה וא
א ך
 ה תו
מי נים
ה ו
וב ות
 ש עות
 נ א
 אינ ם
 י מים
  ,
 ל זה
שר ה
 ב ישראל
 מ ופ
 הח ד
י ין
יב ל
ר פ
ות ה
” 

1 7
 מ וג
 מ כן
 הה ת
כול ם
ס טר
 אח רות
ספ ק
ה ק
י מה
ל מ
 ו גם
יא ה
 א ולי
 מ וז
 לה ס
 ט בע
 ש ירות
 ה ור
ל כן
 כ סף
 נמצ א
 ה ו
1 6
 מת ק
o o
 ש מע
רג יה
ס ם
ע וד
 ח ופ
 או ה
ד ל
 או כל
 ו מש
רכ ות
 כ ולם
 א ב
 לפ חות
 אי נה
c h
 ת וך
שי מה
 עו שים
 הא ירו
מר ות
שוב ה
 המש פט
a s
יט ת
 הל לו
 מק בל
 ל מו
כ ח
 הש ל
 הב ית
וא י
1 1
 ד ו
 הב יט
וק ה
an d
 מע רכת
 ח ברת
 לק חת
 ו אני
 פ ת
מו נות
 כ יצד
ב מק
ז יה
 מ יו
יק ט
ס יה
 הא רץ
מ ט
יח וד
 נ שים
 לע בוד
רב ית
 ת וכל
 לת ת
ל ון
 שה יה
ופ ו
 ק ש
 המ ט
 רו ב
ה צ
כ ס
ינו ך
 לל מוד
 מ זה
 לד בר
 ה ספ
 הפ ע
 יד ע
ש ל
א ולי
ח לק
 ש יע
 ב די
 במ ס
 ו על
  of
 מ רו
יל י
נ תי
ר פת
 פ ר
ית וח
ד ע
צ רים
פ ון
 ש ימוש
 ה דרך
תוצ אה
א ב
ל ע
  /
 לע זור
יב י
 רא ש
 הח וק
יו נות
' .

נ ראה
 נ ות
ק ב
 ו זה
 נ שא
ז ון
צ ריך
 מ רגיש
 הא נו
כת וב
 נ ג
ג ון
 גדול ה
 מ ול
שב ון
1 4
 ל ומר
 בע צ
יד ים
 הא נשים
 ו ג
נה ל
 המ וצ
לו הים
1 3
ור ט
 ד קות
יס ט
 אפ ש
ה ג
ת ים
 הרא שו
 א רב
 פע מים
en t
 ק רי
 מע ל
 הח לט
 ה לב
 מ תו
 הש נים
 נו סף
 ב תי
 פ ה
רכ ה
 ק ול
 המ משלה
וס ר
a d
נט ים
 האח רון
 ח יו
 ל יצור
 מ ישהו
ד ק
 לפ י
 מח דש
 ת א
 רו אה
a y
 לע ולם
 ה כול
 פ רי
 הב א
ר ם
 ב תו
 של וש
ומ יים
 לב ד
 ש כל
 הנ ש
לח ה
פ ילו
 בפ ני
ופ ים
 מצ ב
כל ה
 קרו בות
 פ רט
ז יק
 ס יפ
 מ וק
 ש נות
 הח ל
 גבו ה
כו נות
 ע ש
 ק שר
יע ות
ב וא
 א ופ
בנו סף
 נוספ ים
 הע וב
 מק צוע
ו יות
 מ תי
 חד שים
 ת ג
וב יל
 צרי כה
ה ול
ינו יים
 יה יו
ג רת
נג לית
" מ
וני ברס
י נית
רא ו
 ס וף
 ת חת
ור יה
 יל ד
 ח מ
 שה ת
 פע ולה
 ב יצ
מ רי
 כ וח
ומ רים
 ל ר
 בכל ל
 הק ט
1 00
 לב ית
 אז רח
 ח ודשים
שי ג
ו נג
לו ח
 בע יקר
 ו ד
 שא ין
 מע ט
 ז ק
 בתח ום
ה מש
 מס ת
 ש ונות
 צ ורך
ס ון
 הב ע
 לה פ
 ח בר
o w
כ די
בו צה
 ג יל
וע ל
 ס פק
מי כה
ב נה
 הפ לסט
וג מה
 ב רו
" ח
ב כל
 ר פ
i v
ד מנות
i g
בל ת
 כא לה
 ש מו
יח ות
יס ה
 ו מת
ימ י
 הב ינלא
 ח ל
א לי
 הח דש
יח ד
 T he
 או הב
 מ יוחד
 ס רט
שר ת
מ נים
ופ ת
 א צל
19 8
מ תי
 ק ורה
לק ט
ז ם
 בע ל
 ברח בי
o t
 הש פ
 ש פ
 ו מע
” .

 ס ביב
ינ ט
רא י
 קט ן
 ה רכ
 כ גון
 פ רס
 רו ח
 ש נת
 ר כ
ס וף
נט י
 מדי נות
ב יבה
ד רה
 ו מו
 בס יס
 חד שה
 ש מש
וכ ר
 כ יום
 המש חק
 הג וף
 ה ילדים
 ב אתר
זה ו
ז כ
 בש ל
ה יה
 ש ונה
 וה ת
לח מת
 לל כת
ע ש
למיד ים
 ו י
 ת וצ
 עוב ד
לו וי
ק ור
 מ ים
 ב כך
2 5
i d
ל מרות
  V
יש ים
א נשים
 פ וליט
 הע סק
 מ וח
ס יק
 מ רכז
 לת ק
 ו מה
ור ר
נס ות
וו יר
u s
ט וב
 א רה
 עצ מי
 ו כל
 המ וד
בו קר
 ה רצ
כול ת
 ל נ
א מר
 לא ח
 לש מור
ל תי
 הא ד
וו ים
וצ יא
19 4
  U
ב ין
ג ן
י ץ
 אח וז
בש נת
 מ ר
ה ל
  ?

 לה שיג
מצ א
רו יות
… 

 מפ ני
19 7
 ממ נו
 בר ור
ק בות
 למ ח
צ ו
לוט ין
יש אר
א ף
 ק ר
רט יס
ב יא
 לה פוך
4 0
 וה ח
ס ל
 מב ט
מוק רט
ש ני
 לק רוא
 מה מ
יט ב
רכ ו
וד ת
 לח לוטין
.. .
יצ וב
כנולוג יה
 לה י
 לש נות
 שלו שה
 יד וע
 t he
א ית
 ת פ
מו ש
 מ ו
 לב ין
ש ורת
 ש בע
יצ ר
יש ות
ני ק
כל ו
יק ום
ס ית
בו ק
 ש נו
 ש יו
רו ע
 ת רו
וד ית
שר ות
at ion
ז ל
די ר
 למ ק
 לב צע
כ ני
 מ ומ
 הט בע
 שא נו
 טוב ים
 ש ג
רח ב
א ס
טר ות
 הא ל
 המ וע
 הע ל
 נ ור
 מש ום
יפ ות
ע כשיו
יר אן
" ר
 מ כו
 לא ורך
 הא יש
 כ כל
 מא פשר
a g
צ יות
פר ס
 כמ ובן
וס יף
 ת לו
וס ים
 לח שוב
 בע וד
א ג
ד אי
 הב ח
ב ן
 בא זור
ז מן
ל פי
 ו בע
 הה ש
לפ ני
 ק ודם
19 6
מוד ד
 בק רב
; 

 להת ק
 בת ק
 פ ור
 ח יי
 כ דור
יה יה
 אמ רה
 את כם
 אל יו
 ג ל
 ס ימ
 בח יים
 י וכל
u t
א ט
ופ ר
 הול ך
מו ע
 נ כנס
לפ ון
ת ף
ול ט
יח ה
כ נה
 לח יות
 ב נ
u r
כ יצד
רב י
שא לה
ו ון
. [
מ נה
רא ת
 עוב דים
 מא ד
 בש ם
אח רי
נו עה
 האח רונות
 מ יד
דר ת
ו יים
רו פ
 השני יה
 ו יש
נ אי
 ל וק
 ט יפ
 עשו י
 א רצות
 מש נה
 בש נה
ד ן
רח ק
נ אים
 הג יע
ז רת
 ר בה
 הח ש
 בא ותו
 הס רט
נג ד
 גבו הה
לווי זיה
מ כ
 ה נה
 מג יע
כא ן
 המ רכז
 ז כויות
ב חר
ו זה
 על י
וח ים
 נ צ
ה ליך
 ו עד
ט רי
 I n
ית ים
ט ג
וז ר
ול ח
לק וחות
 הא מת
 הצ יבור
 ד ור
 רו אים
 נוספ ת
ש בים
 בי די
 ח ברות
כל י
ק שה
 מ דובר
 בע יר
' י
 י ורק
 ל ימ
' ,
i r
וב ת
 כת ב
 ע בוד
ס יס
 מח קר
 ש מת
 ב ינלא
 ול כן
 מע ור
 מ נו
ע תי
ב ני
רא ים
פע מים
יפ וש
 כ ח
 המ צב
ירו ש
- א
יה ן
וב י
לו ו
 עצ מה
 אמ ריק
 לה סת
מה לך
 ש ומ
פתח ות
6 0
 ת צ
 הא ו
מש ל
ט ל
 פע ילות
 עצמ ם
 הגדול ה
רו ג
 ת ת
וצ ה
ה ילה
 להתח יל
 ה רב
 המ שת
 בע יות
 למש ל
 ק ו
נצ ח
 פ לסט
 מש פט
 לח זור
 המש פחה
ני ח
מ דה
 הק ש
יו ע
  ...

י רי
  J
ט ון
 ב רצ
t er
א חד
 ל יד
רא לי
 לע תים
 אומ רת
ב לו
ס ר
 ש ט
תוצ אות
 על יהם
מנו יות
 ב ספ
מ ך
 חד שות
ברי ו
נ ר
 ל רו
 וה ש
 לג רום
 א כ
 מ וב
וד נטים
ק ול
 ש ינוי
 מע בר
 בנו שא
i m
2 4
צ יפ
 מש ק
בל ות
 לה משיך
 ק רה
 בג יל
 ל תוך
 ש ית
 מ שר
 ב יני
 S t
יא ון
 וה יא
 מב ין
רק ע
 מא ח
ע בור
 ד ומה
 הע יק
 ברי אות
 מה ר
ה ד
נ דר
 לב חור
וכ ן
 הע ול
u n
 ש ר
 המ ידע
 וה מ
ס ס
u m
 מד וע
ופ ול
וע ים
פ ג
 ת פקיד
 מ רג
 ק לי
 בע יה
 הג בו
ז ע
 משת משים
 הפ ר
ופ ות
e c
 ת יא
יד ו
 וה א
 למ רות
  p
  s
וב ל
כ שה
וא ל
 יה ודים
 אומ רים
ו וח
י יס
 כ פ
ני ברס
 מח וץ
 מדי נה
 ד יו
ה וב
 ו ט
 כא ילו
 פ ג
כו י
ל מע
 כל פי
 לג מרי
ש ע
  f
 וא ז
 למע שה
ב ורה
ט ניה
 מ ות
פס יק
י נות
 בע בר
 הע צ
  :
ול ת
 ט ע
מד וע
 החד שה
 ט יפול
 אות ן
 ני צ
ש וא
 לש חק
יג ה
רמ ניה
 ש ס
מוד ים
די ף
יד ות
 פ ל
 חייב ים
 הס י
 מק ור
ש אים
 א ג
 ב זה
 וה ם
 וה ע
 הר ע
בט יח
 י פה
וק ר
 שבו ע
 בא ירו
ה נה
 שמ ח
 מ בי
 הר פ
 בס דר
 המ ג
 ח ברים
 שה ח
ק רים
 בא רה
 ל רא
 האח רונה
" י
ש בות
 רא שון
 נמצ אים
 ו צ
יפ ים
וד ל
די ניות
, "
 ב רא
נ רגיה
 מ את
 כ לי
 י ס
 ק צר
 הצ ד
רח ש
 א צ
 בא רץ
ולוג יה
לי ק
ט ית
מ ול
יב ית
בל תי
יג ים
נו ק
 נ תונים
 בה חלט
מ יות
 ל ספק
מש ת
 ה ילד
 המ כ
 לא נשים
 מיל יא
 שי כול
 הצ ע
  K
ל ול
 המ וס
 ח ול
 בא י
 מתח יל
  c
e m
וק א
 לצ את
 הרו ח
  d
א ור
 למע ן
 ש חק
נה גות
ת ג
נד ון
 להב יא
 למ נוע
 להת מודד
ה בה
 ק יים
 ה וצ
 צ י
 מא ות
ה יום
מ לי
 ג ר
 ש על
 ע ולם
 על ינו
יב ת
 בע ת
רי ז
 הע ם
- ידי
 ש ות
 אה בה
כ ום
רו צים
 מה ע
נצ יא
 פ ול
 הב אה
 ל רכ
מ בר
חר ות
 אל ף
 כ נראה
 נע שה
מ ובן
סי יע
ל ס
 ב לו
 כ עת
ב לה
כל ית
o c
 ה יטב
 המ אה
 הא ינטרנט
רא מפ
 ס יפור
! "

ב צע
 ג ברים
 הת א
 הברי אות
רו ך
יק ים
וו י
ב תי
נס ים
 מה ח
רוש לים
וא ז
 הת ג
מו צע
] .

פשר ות
 ל כתוב
 מ נסה
 שה יו
 אי כות
 ה נח
 ק יבל
 יוד עת
ל ג
 איש י
 בא ינטרנט
 מש א
19 5
o s
 תוכ נית
 ע רך
ה ט
 ע מו
 וה פ
 מ כך
 המ ל
 מע ולם
ב אי
ה מו
 המ ה
 להג יד
א ולם
ב מהלך
 המ לחמה
 מא וחר
ור ד
 המ וש
 נו ס
רו נים
 לפ ג
er s
 לא כול
 הש ק
 מ מה
לי טה
 ד א
יצ וני
וט נציא
 מד ע
  and
שב תי
" כ
 ול ע
 המק ום
r a
 שנ ע
 א רג
 הב יתה
 לש א
 מש ות
 ט וע
 יכול ות
 המ חקר
 ק יב
 הפ ס
 אי זה
 ו לח
 וע וד
 מסו ימים
ה כ
es s
כו נים
 ול ש
על ות
פור ט
וב ע
פ וי
 צ בע
 ה יע
ופ ט
 ט ר
 מת ע
 מתח ת
 בהת אם
 אנ שי
א ק
פ ח
 כ ב
רו ס
 ח וו
 לה ק
 ע ניין
ב יע
ל נד
מ ם
 ו כן
מא ז
 במה ירות
 ע שה
 י ג
יש ית
" זה
 מח ו
 לק נות
ז ים
וד עה
 עשו יים
ית ר
 לע צמ
בע ה
 אינ ט
נת ה
 הה ג
 מז ון
 ה יד
 ש וק
 הא י
יית ה
 בס וף
 הראשו נים
יט ות
 היה ודים
  m
 י ית
 י יש
רא ית
 צ בא
 היח ידה
 עסק ים
  Y
נ דה
 המ ד
 תה ליך
8 0
אמ ין
 למ ד
 היח יד
 מ דו
 לה רגיש
 בא ותה
 מ ני
 שה ע
 לע בור
 ל יה
רי ון
 מה ש
 משפ חה
לקט רו
2 1
ט ות
 ח ברה
וא ם
 מ דה
 חוש בים
 המ וח
ש בה
 כ וחות
 ת רבות
 ר גע
ג וד
 לפ ת
 על יך
 הפ ך
ד יו
רו ק
זו הי
. .

ח וק
בו ם
 הפ וליט
a b
רא לים
 ב ינו
 מסוג ל
 ק צ
תח יל
 לב נות
 להי כנס
- ה
 ד רכים
  b
יש ור
בל ים
 התע ופה
 תוכל ו
 ה רח
 מ לחמת
 ע ולה
 הה צ
 אמ ית
מ יה
 כ מות
 לש ם
טר ף
עי ף
צמ בר
 מ יני
 מא מין
נ די
 של ום
 לה ישאר
 מת כו
 נ מ
 על יה
ניה ול
 הביט חון
כול נו
ת מיד
ני יה
מצ ב
" ש
 הש ימוש
 הר ש
 משת מש
t h
 שה מ
ז ב
 פ רק
 ג ישה
 ה נס
 ת כ
 גדול ים
 הב ט
 הז דמנות
ו נית
ה ייתי
נו יות
 ז וג
 ע ק
 במ דינה
 מיליא רד
י ינו
 ת ומ
לי חה
 הצ בא
7 0
בר תי
נק ים
 קט נה
ד מות
 וא ח
 להג ן
 א ק
 מד ברים
פ ן
יל ום
 מסו ים
 אירו פה
 ש את
 ע ור
i a
פ וס
 ש יח
 ת וש
רו ח
 הא ינ
 ב יחד
 המ וז
 נ מו
לי טים
 לש לם
רו ץ
א ום
 הא תר
 ח ודש
 הפ רט
 אמ יתי
 אוה בים
ו שר
יש ון
 הש בוע
c e
 א רגון
 פ וע
שי יה
צ ית
 נ ד
 ק רוב
שא ר
במ בר
2 2
ז רו
רי כה
 הא לו
 הע תי
 הה ז
 ממש לת
. ”

 ל נסות
 ח ק
ספ ים
 משמעות י
 עומ ד
o p
א לו
ז יר
שו יות
 אפש רי
ס ור
ת ן
ני ינים
 המ דינות
 הא ור
 ס ג
פ יע
 מק רה
 מד בר
א רק
ו מו
לו ש
 אמ ריקה
 למע לה
 גור ם
 א וב
 ר שת
 הפ עם
 מב ח
  w
פ יה
וב ים
 ס יבה
 לרא שונה
מק ום
 ו יותר
רו יקט
 הי ינו
 ד ם
 שה א
 צ יבור
ט א
ר ית
 פ נים
 די ן
 ק וד
 הדי ן
 לה ימ
 פ ס
ומ יות
 הב אים
כש יר
ל מים
 ל ילדים
 מדי נת
 שבו עות
ח ית
 כ דאי
 במ צב
 מא מינים
 המ ים
 שא לות
 עצמ ך
 הא וויר
 הכ נס
 הנ תונים
נש יא
 את ר
 ז וכ
 חז ק
 הנש יא
למע שה
 ל תח
 הש ם
 הט ובה
 ת ופ
 בע קבות
" לא
 ש רי
 נ דר
לו שה
תח לה
 היה ודי
 נוספ ות
פ ול
ש יים
 ב וד
חר ת
 מ נ
 ו בה
 הא ש
לח ת
 בנו גע
ב ולות
ג יט
 ח וסר
 צ ד
מיד ה
 אית ו
u l
ה ר
ע בר
פ חות
צ א
תו נה
וח ה
 הק רו
 בא רצות
 ט י
פ שים
 ש יהיה
 מוצ רים
r i
 ז מ
 לש מוע
 תק ופה
2 3
ח דים
פ ני
 א ישה
 לע ומת
 קט נים
 שבה ם
 ע ול
 ע יר
פר ק
 ממש י
o v
 ה וכ
 כ כה
 לק וחות
ירות ים
" ם
 הא וכל
יכ רון
' 

יק טים
 הח ולים
 לח ץ
ו בר
 ל תו
 ש צריך
ומ ד
 הח שוב
 איש ית
 ה וק
 ו לק
טר ור
 הנו כ
 כל לי
 הת פ
רג ל
 מב לי
  in
כ תי
 כ ות
 י רושלים
 נ ט
 ממ נה
 במק רה
 כ רטיס
 הק רי
 ל וח
 ש נק
 ש ווה
וד ו
 לה ז
מי נה
 בת ור
 מלא ה
 ה כו
יד ת
 הס יבה
 בעצ ם
פ עם
 שא לה
 בה ן
 מדי ניות
 יוצ א
ig h
ה ן
 ת י
ומ דים
יד ן
וע ה
 הק ור
 הבע יה
יי ך
 רח ב
 לפע ול
 א ולם
 הש אלה
 ז כות
 האח רונים
 מוכ ן
ה יו
ע ון
 ל ספר
 ל נק
 ניס יון
ז ית
 ר כב
 ד עת
 צ פו
 הבינלא ומי
ד ון
 שה צ
a p
 ל ישראל
 שה ש
 ני הול
 א נג
 ח ברי
לי ף
 בש בוע
בע ות
 כ זו
 הט יפול
 א יראן
יל וב
 מע רכות
 מצ ד
ולח ן
 אל פי
 אנ רגיה
 תוצ אות
 באירו פה
ת ית
 ה לו
 צ וות
כנ ן
n e
ז וב
 כ וכ
 מה א
ל ין
 לע מוד
מא ס
 דו וקא
 המ לא
 לש פר
 ש צ
 ת מונות
 יה ודי
 ש בא
 ש גם
לו נות
אי זה
סי כול
ב ג
 ה ים
תי יחס
 הכ סף
  —
T he
ח ם
ל פעמים
 ע בר
 ע רב
 הא זרח
 הג יעו
 התי כון
 משר ד
ב ירה
 ל שים
 מ וט
ור ף
 י רי
ופ ש
 הס יפור
 מק ווה
19 3
 הופ ך
מו נים
ב צ
 ע תי
 ע מד
מש ו
i e
כ יר
ר תי
ני סט
ומ ט
 מת א
יש ת
ילו יות
 חוש בת
" אנחנו
9 0
ספ ת
 הה יסטוריה
על ם
חי נה
ו נת
ח תי
ית נו
 ג ופ
 או ניברס
דר ות
סיכול וג
ור ו
 הא ופ
 ומ ח
 אמ רו
ט מבר
 א יט
 כ לום
וג ל
 ני ו
ת ודה
ו וא
ז יקה
ש ום
 מ זו
it y
כ בר
ע לי
 ש תו
צ יב
 א זור
ומ ן
 הק וד
 מאח ורי
ה כל
 ת מ
כל ומר
 מה ת
רכ י
 הס ת
 אמ א
חלט ה
א ש
 לא ור
 בק לות
 ש ניתן
 ט ראמפ
 נש מע
דו מה
 אוה בת
 מקבל ים
ו נו
 ה וג
 מה ס
 הק ד
לט ון
בוא ו
o g
ג רי
יב וש
 אפשר ות
 למק ום
 מ לחמה
 ח וז
 שה ג
 במ צ
 בש וק
 נו שא
 נש יא
 ה יצ
 ש וא
יו נים
 בש נים
וס ייה
5 00
ה רי
 על ול
es t
 ספ רים
ו יח
 לה יפ
בע ת
ברו אר
 א יב
 ע וצ
ית ונ
יד או
 מג יעים
א יפה
וש י
in d
מ חה
 צ רפת
 לפ תח
 לג לות
ה דבר
 א כן
 לה בטיח
 מי יצ
 קבו צה
 טבע י
 ת ס
לו ק
 הצ ה
 בפ עם
 כול ו
 השל ישי
מ דו
 ס ין
 לע יתים
יט ר
טר ת
בט חה
ל מי
 א מת
ני סה
די ים
 או ו
in e
ש לום
פל גה
 כ ע
 הב סיס
 שא פשר
ָ ה
 ו רק
 י וש
 ח מש
יד ול
 היש ראלי
כ יום
מו ס
 בא וק
 שא ינם
 הס ט
 וש ל
 הגדול ים
 הא ס
 הי כולת
 המע רכת
 לא דם
חו ץ
 נות ן
ד ברים
י כול
כ בים
 מצ ו
 תש ומת
2 6
 ש עה
 ח ג
 מע וני
 יק רה
יל וס
 בס ופו
 ארו ך
 לבד וק
 א ודות
 ב בוקר
 מא יתנו
 וא ף
מק ד
a v
די רה
 השפ עה
מ אות
רו ד
רי כים
 וה צ
 הק ול
טו בר
 ב וח
 או ט
יפ ורים
2 8
 הד רו
 המוד ר
א פילו
 ב יד
 ב נק
 לה יר
כו נית
 ה ימ
 ל כן
 המ שי
 ח ולים
מי חה
מ דובר
ות ם
 ת מיכה
 פ יז
בע יה
טר ך
 הנ כון
 לצ ד
 המ בו
 מנה יג
שת ה
נג דות
 בע תיד
 למ ס
 נמצ את
 נק ודות
 צע ירים
מ כים
 הטוב ים
כ ניות
ל ש
 א יפה
 המ פ
יצ ה
נט ית
 ארב עה
3 5
א ד
פ יים
וב דים
 ק רא
בו ש
 נשא ר
- מ
ק רא
 י יע
רי שות
 ס מ
יב ורי
אי רו
 מכ יוון
2 7
 ש יק
 ו מצ
 ח ת
 נ פר
 ס פורט
 יצ א
 א מצ
לק וח
 רח וק
  נית
ס קה
 המ נה
מו יות
 הח לק
יע י
 וה ג
 ארב ע
! !

ח שוב
 ת יק
 להע ביר
מ דים
 ב לב
 לה ור
 שא נשים
 הל ילה
 מסוג לים
 קבו צות
 מוק דם
 תלו י
ה ז
ינ נס
 לש עבר
ou r
 לפע מים
כ וח
ס ות
 ב בר
לא ות
 מג וון
 אינ טרנט
 הג רמ
 לאח רונה
ב אות
 מ רי
 בא וניברס
בו צות
ספ רים
 הה ס
 מצ א
 ש ינויים
יש ורים
 בע יני
וג ה
 הפ ני
 בס רט
 המק ור
ירוש לים
ש בו
וד אי
יב ו
נצ ל
 המ דע
מו ם
וע דה
 העל יון
' ר
 מ ראש
 ע וז
 האירו פי
a k
 ט כנולוג
 חז רה
ק רי
 ה בו
 שא ם
 ל סייע
די נת
i f
n d
 ה וש
 מ ילים
בע ים
o d
 ה בר
 ח יל
 חי יו
ל יות
מ ץ
 ש יר
 ש כן
יט ים
שי מוש
לח ץ
 להת ע
 העוב דה
 המ ון
 ז כ
 ב יו
 ולא חר
 הלא ומי
 מ מוק
 ב ראש
ור א
רג ה
 ומ ס
ט ן
 ת נו
ימ ס
לק ת
יל יא
 וא פילו
 ל נצח
 ב פי
 הח לו
 הק הילה
בד ל
ה תח
ע דה
ת נו
רא יתי
 בא פרי
 במ רכז
יס ות
 בח ברה
זו נה
 בר שת
 כ יוון
 ח צי
וג וסט
יס בוק
 הק שר
 אל יה
סק ים
ar d
 הק בוצה
 הכ וח
מוקרט יה
ב דרך
ק סט
 ע נק
וס ף
 הנ פ
לד וגמה
 תרו פות
מ חים
 ה ישראל
 ה יסטור
 לב קר
ד יה
וד א
 הס כם
 פת רון
 יית כן
כ נת
 א ר
 ע זרה
iv e
 בינו אר
א רי
ק וב
וב דה
 הא רגון
 לש ימוש
al l
ית ון
 מסו ימת
במק ום
א לא
יק ור
 האח רים
 במס גרת
צ רו
 בח ודש
 בני ו
 חס ר
ז ורים
ל ץ
מ ספר
 ה יר
 הש מש
 בע צמ
 הג ור
מע רכת
19 1
 בר מה
 אחרי ות
 יח סים
 אס טר
 יוכל ו
ו נס
ת ות
 ה ינו
 מת אים
 מפ תח
 מכ יר
 משפ חת
igh t
ד מנויות
 א בא
 ק בוע
 ס ק
 הש חק
 שכ בר
 לז כור
" ג
נה ג
 הנוכ חי
א ינ
וא ו
 מה ן
 הע תיד
רג ו
 מח יר
 קי ימת
ל מת
 ת ודה
 לע בודה
 הפ ל
כו הול
 תוכ ניות
 צע יר
 לשא ול
ב נות
 ל תי
יו ס
די מה
וש ת
 נק רא
 להכ יר
נ שי
 ש ד
 ש רו
 ע בד
 ס וכ
 ז יה
 אמ ור
 ע שר
 המ לך
 הח מ
 כל ומר
רח ים
 C h
 ו ו
יו נ
 ג ד
שו ואה
 חש בו
כ פי
 ל ני
 יש ירות
 לצ פות
 גדול ות
כנ ע
 האמ יתי
 האד מה
 במ אי
 בע רך
 הפ ת
 לב וא
המ ח
 הרכ ב
ד ית
כ מובן
 י א
 לא פשר
יפ ת
יט י
 לח פש
פי ין
 וב א
מא ל
oo k
 מ מו
 ו בר
 הס כ
 טוב ות
פור סם
 משחק ים
 המוצ ר
" ?

o b
וא ני
 הח ינוך
 היה ודית
 מוכ נים
a st
 זה ו
ar t
 חייב ת
 ע ב
 לה אמין
וב ד
חו שה
 חוק י
 מבי נים
ב לי
פ עה
 נ מוך
יד ום
יית כן
 ומ ק
on e
 האמריק אי
' '
רו כה
 בפ ע
 ע ת
  |
 וה ס
 ו ז
וב לים
 כל שה
ש בת
 היח סים
c om
 ה יל
 ח ומ
 בח שבון
ל נו
בר ר
 רו סיה
 בצ ד
 חשוב ה
 מנה ל
 ספ ציפ
 להס ביר
 חופ ש
 מ ין
רו פות
 ת ר
 הצ ורך
 אל יהם
 עצ מנו
 רצ ון
א רו
ג נון
מ רו
 ל די
כל ל
 אסטר טג
 מ ראה
 ש מה
 כ בוד
 מפ ל
 התי נוק
 מה פ
ת פים
 מ יק
וב לי
 הא מית
 בש לב
 הול כים
ול א
 פ וג
לי חו
מש י
ינ ס
 בספ טמבר
 ע שרות
 מצ יע
 רא ו
 למש ך
 לוק ח
  a
כ חות
 א לקטרו
כל ים
 צ עד
יע ר
 במע רכת
c t
ו שים
 ס יבות
 שא ינו
 לק ראת
בא ופן
 העול מי
ח רי
 ב יוני
 לה פסיק
יח סים
 מב חינה
 העוב דים
2 9
 ש יצ
 ת ינו
 כל שהו
 ט רי
 הפ ג
 מע ניין
 הנ א
 גור מים
  ראה
ב יט
 הא זור
 שא ינ
 שא מר
 הג ל
מצ אים
 וא ין
 כול נו
" ס
י יב
ת ע
 ב רגע
 יכול ת
 בה צ
19 2
 בל ילה
 לט פל
 כ שא
 ח שבון
 נ ולד
 הא נרגיה
 לפ תוח
 נש ק
" יש
ופ ית
 הע רב
בע וד
ה נ
ל כל
” ,
 ה יב
 שה ן
ותר ת
 ממ ני
 בד צמבר
 תק שורת
' s
g le
ג ובה
 רפ וא
 יצ ירת
בס וף
 אחוז ים
 מ וות
 ש זו
 ת מונה
 פ תו
 פ יתוח
יצ וע
 הז וג
 מתח ילים
 פ ק
יע ור
 וה ן
 בב רי
ימו ן
גד ל
ניס יון
 ל כולם
 ב ספר
 ג וף
 שה פ
ז י
 לה וסיף
 ר מת
 מש נת
 ק פה
 רא שו
at e
 הבח ירות
ג יש
ש ׁ
 הה ורים
 בח לק
גו ון
  X
- ע
ִ י
 ה דם
 נ פש
 מה ווה
 מא י
 וב מ
 מב ק
 שע בר
ס ו
ע ן
 ב וקר
 ח ינוך
 במ ידה
 להצ יל
il l
ק ף
 ה ימים
 י מי
וס טר
 מק ומות
 בח דר
 ארו כה
 התו כנית
4 5
פ ית
 ו רו
 ח לב
 ז וכר
 מא ו
 לח יים
 בי ולי
 ב יחס
בר ט
ופ עה
 הח לה
עת ים
 אפ ריקה
 המק צוע
 עשו יה
 אית ם
יו ו
 החלט ה
 להימ נע
 ה וסיף
 ל נס
 ג דל
 הת רבות
 המש טרה
 שנ תיים
נו ס
 ת רג
 צ ל
ק שר
 ש מצ
 ע שרה
וו יה
 לט יפול
 משמעות ית
 האנו שי
כ נו
כ עת
ור יות
 נ זק
וג מא
 בג וף
 אינ ן
 המצ יאות
 לרכ וש
וטנציא ל
 טר ור
 המ זרח
די ק
 הפ נים
20 2
 הא ת
תו כנית
וצ ים
 מכ ירים
 t o
 א קד
 ו עם
מש חק
 הש א
 בע בודה
 אינ נו
 שלה ן
 מיוחד ת
 ה וע
 המ ור
 המ וב
 בע זרת
 הנו שא
 מרגיש ים
or t
ר ן
 ג רמניה
לו קת
תו ם
 ב שר
 המ ילה
 הח י
 שא ר
 לב ן
 מח פשים
 וא נחנו
בק ש
 הפלסט ינים
 הישראל ית
 ל ספ
 ש ינה
 פ ופול
על ת
ינג טון
' ון
e x
 ל יצ
 מ רח
 ו לי
יב יות
לו יות
תח ילה
an t
 להצ יג
 באוק טובר
 הב אות
רג ונים
 ממ לי
 ברי א
oo gle
א וג
ש ור
 א יר
ופ ל
 למ י
 וא מר
שוב ות
 לעצ ור
 ה ית
 ו כך
 במ זרח
 ביט חון
 הצד דים
ז יאון
 א נט
לו וה
 אמ נות
ירו ם
 מז רח
 צ ה
 נו כל
 רא יתי
סטר טג
 החלט ות
 מוח לט
 ביני הם
כ רת
 ת ור
 ק וב
לי סט
 בח זרה
בח ן
 מוצ ר
 נח שב
 ל יום
 כ וו
 המ יו
 ח וץ
 נ כונה
וג ם
i st
 א הב
 הנ שים
 להת ג
ניה ו
 חז ר
 נמו כה
 אוו יר
ק יע
 הח ק
 כא ב
נ פ
 ל לי
 ש נח
 נ אל
 הש וק
 הפ כה
 שא ל
 קור אים
 הבינלא ומית
ית ם
רב ע
 הכ ת
 בנו במבר
 הלא ומית
 אפש רויות
 שית וף
 ל ילה
ופ לים
מד ת
 במש חק
 מ שה
 נ כ
 הא ג
יד ור
 לע זוב
 בה יסטוריה
 סוג י
ה תק
 ו מי
 המ וק
 הא פ
 ק פ
 שה ופ
 מע ני
רצ ו
 שע ברה
el l
u b
נ ז
 ב וג
 לצ יין
ל משל
נ תו
 פ תח
ינ תיים
גל ל
 סוג ים
 שירות י
3 00
e v
ז ות
נ אה
פ יל
יש נם
 לב ני
 בכ די
 סי כוי
 אזרח ים
 ע יני
 כ תוצאה
 של ישי
 המ טרה
 לה ראות
וב ב
נח ה
 חש יבות
 פע ולות
 כשה וא
 לזה ות
 ל רוב
 ל נהל
 ג רי
 ג רם
 ד ה
 הע ור
ספ י
פע יל
 יח סית
 התק שורת
נ ב
פ אים
רי סט
 ת כנית
 פ חד
לא ים
כ נות
 מ נסים
 ו אם
ית וף
 הצ ליח
במק רה
 העיק רי
  $
כ רח
 ב ירושלים
 של יטה
 לה ן
 הש לום
 הנ ק
 מי די
 להצ יע
י ור
כ ית
 לא תר
 הא וניברס
 שה ס
 הח ברת
 הג יעה
 הכ ב
 המח שב
ic e
 הפע ולה
 הגבו ה
  &
יב וד
 קבו צת
- S
 א יתי
 ב חר
די רות
 פ תוח
 בא וגוסט
 הב נק
 בז כות
 חמ ישה
ו שה
צ ד
 לפת ור
? ”

ק ן
 המ וות
תי ע
 האנו שות
% .

 ו אי
 נ תק
 פ ו
 בש ני
 ומ א
צ רי
 א ופן
 ש בר
 ו שוב
 הת נהגות
 הפ רי
 לב קש
חק רים
פו ץ
 חברת ית
 קש ור
 ליה נות
ל ן
רו ט
 המ תק
 לי יצר
 בס ין
  »
' ורג
ב משך
ד רים
 ו נו
 על ה
 ק יו
רא שית
יא ו
 הע ניין
 למ די
 יש נם
 בש נות
 לי די
 אמר תי
 ל ישון
 לק בוע
נט ה
מיד ע
 אלי נו
 כ יש
 נ ז
 הא פשרות
 ג בר
 בח יי
 עו נה
 התח יל
- A
די א
 ד ח
 במ ספר
 חז קה
ד ף
כ נים
ק ח
 ר צה
מצ או
 ו בו
 ד ג
 בח וץ
 באמצ ע
 מבו סס
 קי ימים
 נא מר
3 6
 לה יע
 הא פש
רכ ב
יס ון
חר ר
 הרא ש
כש ירים
 מפ ור
 תע ש
" אם
e w
ב יעה
 ה יס
 ו יר
ימ א
- C
ט ע
ע ק
ת פות
 לה ד
 נ ול
ימ פרי
שא יר
 A l
" ד
נ כון
 מ ונ
 י פ
לי מות
 צ וד
 לב ע
 לעצ מי
ד יל
 ש ו
 ו כו
די קה
 פ יק
 במ א
וכ ים
חר ור
 מב יא
 אמית ית
g e
מ תו
 לה ניח
 מס ע
 לג יל
 חי יהם
 רע יון
h er
 ה וב
 ש תה
 המ ופ
ופ יה
 ז כה
 חופ שי
 ביצ וע
שוא ין
ס וק
 ש מונה
וד ד
 ק דימה
 מוש ג
 מ טרות
 ב בע
 ע תה
 ו כי
ול ין
 ח וזר
 ס ביר
 - 

 הגדול ות
 זק וקים
 כ זאת
 לה וביל
 ת ו
וש ות
 הג נה
 הנ ראה
 מוד ר
 אית ך
 עומ דים
 הפלסט ינית
 סרט ן
ל מד
פ חת
​ ​
 ש מות
 כ ולה
 לה וציא
 פ ט
 ( "
וצ ר
סק י
 קור א
e b
ע תו
 נפ ג
  >
  l
. com
ד רי
ר די
 הש ירות
רג שות
 מת רח
כנ ראה
 הרע יון
e p
כ ז
כ רה
ל ר
מ רים
 ה לקוחות
 א רץ
 ר מות
 במ דינות
 יש וע
 פע יל
ow s
 אוט ומ
B A
ה רבה
מ יר
נ כ
נ נים
ס ן
 מ ידה
 ע ז
 לה א
 ח ומר
 במ טרה
וק טור
 עצמ כם
ro s
o st
מ מש
 מ ילה
 ו יצ
 למ כור
נס ו
 בב ח
 בתח ילת
  ‘
 ה ידע
 ה בלתי
 לצ ורך
 קט נות
 להש פיע
ב יק
מ ז
 ל כא
 כ נגד
 ת נאי
 נ על
 ק ד
 ס בל
אי מה
פי יה
 חשוב ים
 באפרי ל
ה לי
ז יל
 כ רגע
וא ן
 ני תוח
 ממ ח
 לעצ מו
. "
מ ישהו
רי אות
 הת מונה
 מס י
f f
 ח דר
 הא ישה
 לש ני
קה ילה
 יצ ר
זכ יר
 ל רד
 צ פוי
 הפ יז
 רו פא
 עו בר
נ תיים
 ו אתה
 של ם
 י ז
 הת הליך
 בק רוב
 ע יצוב
 הש ונים
וש ינגטון
 מע מד
וכ יח
 הנ ע
 משפ חות
צ ור
 ל נש
 ש יא
 ע מוק
רו פה
לה יות
 הפ רס
נט יות
 חי ילים
 הי נה
ar k
 תש לום
 הפע ילות
 פרט י
 זק וק
 ע תיד
 את מול
 מה יר
 לע לות
 הי כן
 י יח
 נ פתח
 הע יקר
 הס ביבה
כת ה
 בת הליך
 מט רה
 לתק ן
 מדה ים
p p
ז רים
ני ו
יו ט
 פ רטים
 הע בר
 ט לוויזיה
 בע ניין
 הה חלטה
שת מש
 עצ מית
 בתק ופה
 לימ וד
ס ום
רו ויח
יל חם
 ס תם
 לש תף
 יח סי
 ביק ורת
 רפ ואי
ר מו
 ע קב
 המ זון
 הא ישי
 למ ות
 מק רים
 בפ ברואר
 המע רבית
 דיו וח
ג לה
כ מים
 ק ונ
 מה ה
 מש קל
 הת למידים
 לי יש
 בב תי
פור ס
 הנו כח
 ביט וח
 ההג נה
  ״
 ק בלת
 ז מין
ימ ן
 מצ רים
מו נת
 הח וצה
 לע בר
 למ צב
 מת קד
וט ים
 שק ורה
ק ודם
 ש יפ
 המ שות
 מצ וי
 ממ ך
 הלי מודים
3 1
מ תוך
יל ית
 בע לת
 בש עה
 לפ נות
כא ון
 מספ ק
 מ טר
 ש טח
וא לי
 ת ד
 הא הבה
 בע לות
 רו וח
 הכל כלי
  ריק
s e
ע נה
בר ג
יס וי
בור ים
צ ם
 י מ
רי יה
עת ם
 הרא שי
פק ד
or d
 ברי טניה
 אירו עים
" ת
E B
ז מ
ט וס
 ש ול
 ח שבתי
 נ בחר
 מפ ע
 תק ופת
 הראשו נות
 ש בת
 י רד
 המ ילים
 הפ כו
רכ יב
סט רו
כ מעט
 מ כם
 מ רק
 ש חי
 ק ה
 ד ת
 הח וץ
 לח וק
 וב ש
 רא שונה
 בר ורה
ac k
 מרג ישה
א חת
כ בת
ס וג
 ח רי
 הח ברות
 ממש יך
פל סט
 נת ן
 f or
א דם
 ס פרי
 לש מש
בע ו
 שמ א
 פע מיים
 פשוט ה
 ידע תי
 ההז דמנות
מ ג
מ ורה
 א ול
 ב יל
 כ ד
 ד ופן
 הש יר
 הש פה
 מא חור
יס ת
 הק י
וכ ה
 מצ ליח
 מוש לם
מפ רט
 ומת ן
 מרכז י
 הסי כון
ס סת
צ רה
 י תר
 הא יחוד
יק ת
 וה ק
 למ דינה
 הנ דר
 בד רום
ּ ְ
ש ן
 ה יפ
 א ילו
 ב נות
די ן
 נ כתב
 ק יל
רא וי
ופ ס
 הח ז
בו צת
 הע ת
 מש לו
טי ין
בס ופו
 הלב ן
- F
ה שאלה
 מה ג
 לש לוט
 מח לות
 להת א
לד ברי
צ ח
 ש יל
 מח ר
 לק ח
 ביט וי
ּ ָ
ב נים
ב יעות
וא ים
 פ ירו
יק אים
 הת שובה
רב עה
 לש לוח
מצ ד
 שמ חה
 S h
פע ילות
' א
מ ריקה
 ב ך
 בח י
 הז כות
רס ה
 המח יר
 שח ור
 א ספ
 בש ימוש
 נו שאים
 מצ יאות
 בצ פון
 לפג וע
 ש ונ
 ר לוו
 הה תק
 לח לק
 וב ין
א לוהים
 ע וס
 ו יו
 ג זע
 הש טח
 ול ת
סט ודנטים
סק ת
 בטוח ה
 פוע לים
ב יה
ק ון
 ע ץ
 ו ידאו
יק ות
 בה רבה
19 0
 הט לפון
סי כ
 הרו פא
למ נט
a in
q u
 ל נשים
 א בי
 מ לח
 ש יה
 המ הפ
רי ט
רי ס
 לא ירו
 ד וג
לא ה
מי נות
 רג יל
 הקט ן
 ש יג
 ת ואר
 פ ועל
 ד רום
 הצ לחה
 וח צי
כ נון
 ב ימים
 ע וזר
רג יל
 פרס ום
ind ows
- ח
- ק
 ה לקוח
 א יס
 לה רוג
יק ל
 הכ ח
אמ נות
 ה וו
וב כן
תי בה
 מש מש
 מת נה
 מח שב
 מח קרים
וכ נות
 מב ית
 רע יונות
 סט ודנטים
 המוצ רים
 עלי כם
" הוא
 ה תוצאות
 פ ות
מר ת
 הז דמנויות
פר סם
מק ור
רע יון
  ​​
ה מא
 לא חד
לו ג
 בה שוואה
 בק ול
עו יות
ח רים
 מ נג
 ב כו
 ע יק
 על ולים
 ס נט
נח ים
 בפ ועל
 שני ים
הח ברה
לד בריו
 בטוח ים
 סימ ן
 כלשה י
 ב ור
 ב פר
די ות
יא ת
יס טים
שו ף
 הכ דור
 המרכז י
ט חים
 ש ז
 ס ול
 יכול תי
שא ל
 מתח ילה
 המח לה
ק עה
 ה בוקר
 ה טרור
 ח יות
 מיו חדים
כס וך
 העתי קה
 ק מ
 הע ונה
טר ס
 הט כנולוגיה
 אלי מות
 פת רונות
 כות ב
  !

" ע
נ ף
 מ ותר
 ת שובה
 הצ לח
 לק רות
 הכ רח
 ה יסטוריה
 של ב
מה ו
 ד ר
שי מו
 במק ומות
 התק ופה
  n
 ה ומ
 לא ט
 ג רו
לי חים
 בא ו
 הח ופ
 כל כל
 יש ראלים
טר סים
 המש מעות
 לט ובת
 מוצ א
 י יצור
 המ פלגה
יו וק
נט יים
 משת נה
 להש קיע
" אתה
ב ילה
ל מות
ש יר
 ש וכ
 ש וו
 לה רח
 ת נועה
ופ יע
מצ ים
מצ עות
 מס כים
 הד לת
 בק שר
או כל
יי מו
 A n
 להצ טרף
i an
ו ֹ
ות י
בר גע
 שה תק
 למ לא
שו י
 להח ליט
 להח זיר
  ‏
ד מת
ח תו
 כ נס
 ק רב
יא ן
 שה ייתי
 וה יה
יפ ן
רכ יבים
 מוד עים
 להכ ין
 האמריק אית
 מקצוע י
- כך
ל לא
ל לה
 ע זה
 ת חרות
 ר גל
 בא נגלית
 בע ד
וג יות
פר ד
 לת מוך
 בכ מה
 ולה ת
 איש ור
 האירו ע
אמר תי
 בלו נדון
4 00
7 5
ז ין
 ע ברו
וד יים
 הא קד
יב יים
 לק דם
 לו ודא
ולוג י
 מתכו ון
e ar
ר ר
יו נית
 ק לה
 ס פי
 לפ רס
סט יבל
 מור כב
 לה ילחם
 ח ר
 ח יפוש
 על ולה
 שה ייתה
 הת נועה
וצ ות
לח ם
 וב כל
 מז ל
 [ …
ש מע
 ו יק
לא י
 למ טה
יצ ים
 אי זו
 אל כוהול
 וב כך
 בר ית
בק רים
קש ורת
 סי כון
 הגבו הה
 משות ף
u re
מ בח
 מ ותו
 י קר
 לא י
 ת כונות
 על יי
 מה ו
 במ אה
 לע נות
 הק רוב
 נו ח
מד ות
 לד אוג
צב יע
 לל מד
 נור א
 העיקר ית
" מה
i b
ה ור
פ לים
 ע דיף
 הפ ופול
 הק ודש
 הק ודם
יג ות
 רא וי
 A r
 שק רה
 ארו חת
15 0
ec t
ב ון
כ בות
מ ניה
וד יות
רי דה
בר א
 הש אר
 הפ רו
יט ליה
לק ה
 הנ כונה
לט פור
 בכ וח
 במש קל
 תוכ ן
 פוליט ית
ב יום
 י ב
 פ יצ
וג ים
מי ין
 כי ף
 C om
 T h
 להפ חית
r an
יק ף
 ז רים
 הק פ
 הכ וחות
גר ם
 P ro
 יע יל
 חש מל
 דור ש
 כ ס
ני ט
 ח ם
 לש בת
 מס ר
 מס ביב
 יע שה
 האנו שית
- M
ה ספר
 ש יב
 לה יש
 לא ן
 הא וט
תו ק
 למ א
 הה יסטור
 הנ פש
 לג ור
נק ודת
פור ניה
 אירו ע
 שיע ור
 באוניברס יטת
' ק
e g
i z
ב יו
ב יבות
מ ישה
 ל טי
 ו ר
 כל כלית
 מח פש
 הד ת
 הר שת
 אד מה
 מומ לץ
 אוניברס יטת
ל פו
 ש ישה
 ע ני
 ח ינם
 הא יר
 ק לא
 צ ורה
 שא ף
 הה ול
 הה בדל
 וא ילו
 בת ע
 בד בר
 תק ווה
 חלק ים
 דול רים
 אכ פת
' ה
i p
א חר
ו ּ
 ע ורך
 י ר
 במ רץ
 בה כרח
 בס ך
 רח בי
 E x
ד מה
פ נים
 לא הוב
 ת למידים
 ת חושה
 ג א
 ג רמ
 וא ל
פי ינים
 רצ יתי
 הטוב ות
 הבח ירה
 אמצ עי
  g
פ תי
‏ 

 ס ופ
 צ פון
ימ ור
 הק יץ
 מע צ
דו ני
 בב קשה
סיק ו
 בינלא ומיים
ש ט
ור ש
 בש טח
כת בה
 בצ רפת
 שחק ן
ז ת
 א נד
 ש פה
 ב וט
 י יחוד
 הע יניים
 שיש י
 הבע יות
 פלסט ינים
 הקש ורים
שוא ים
 ממשי כים
i es
ז כות
 לה ר
 לא רץ
יל נד
 ז ר
 קיב לו
ה דרך
מ ירה
 ש רק
 לה עלות
 נ ראים
 נ ראית
 ג בולות
ינ ר
רג ות
 בש פה
רצ יתי
 המק רים
 מוז יקה
 ארג ונים
" פ
ס ד
 ג רוע
 הת חת
 יש נה
רג ש
וו נים
 המק ורי
ar e
 שחק נים
 בברי טניה
ב גלל
נ נו
רי ע
 מה י
 לח ברה
 מח שבות
מד ע
 נק ודת
  h
/ או
r y
ַ י
א ילו
ב יות
צ ילום
 ל לקוחות
רי ח
 לה וכיח
 פ ית
 הא ק
 ס דר
 צ ו
 מע וד
 מח זיק
 מצ יעים
נג ליה
לט ה
 החד שים
 הפלסט יני
ט רכו
כ ירה
 ל ומדים
יר ור
 הח יפוש
 הת רח
פס ור
om e
 עומ דת
 סיפ ר
l d
א יש
ה בעיה
נ ך
 פ יל
 הת פתחות
 הצ ליחו
 די גיט
 גבו הים
 רג שות
 כשה ם
 להסת כל
- I
 ג ז
כול ות
 הב נה
וס י
 הג יל
 לח כות
 לח קור
 הצ וות
 נו צר
יג י
ולוג ית
נצ יה
 מוד ע
בס ס
יתונ אים
 להור יד
 [… ]

א טה
 כ ימ
 כ חלק
 לה תייחס
 פ צ
לו י
 הנ צ
 בת פקיד
שב יל
 הלא ה
 מבט יח
 א ליך
 י וע
 המ תח
 ח ובה
די רים
 הא פשר
 ס יר
 זה ב
רג ום
 בח ירה
 ני ק
on t
 הכל ב
 כול לים
 האמ נות
 מסו ימות
) :
u d
 בה ש
 כול לת
לפ חות
 לאח רים
u st
ב דים
 ח ט
בר הם
לי ג
 ד וד
 במ ל
 להשת תף
 ה בל
 לב חון
 הס ימ
 בה משך
טר ם
 מק ורות
 מב קש
of t
רפ תי
 שיע ר
 מאפשר ת
? ".

ע ולם
 ח יה
מו ח
ומ ם
 במ רחק
 מג יעה
 מי נית
en d
 האס לא
- P
ש יות
 ל יו
 מ לבד
 ד ומים
 בא ה
 וה ה
 מא וח
 מע ולה
 ממ ק
 לז כות
 חוו יה
נ אות
ע נו
ע שה
 ב יש
די ש
 הח יו
 הת פקיד
 מס וכן
פר ץ
 נה רגו
 מוכ ר
 G oogle
- ש
 נ מש
 פ א
 ד ברי
 הש ינה
 הח ברים
 כל ב
 בש ום
 הצ י
יז ם
 מספ קת
 תח ום
 שכ ר
 קור יאה
 להח ליף
 הברי טי
 בינלא ומי
3 2
מ ני
פ יות
 ש יניים
 ש יטות
 ח ומרים
יס ים
הח וק
 אס ור
 אב יו
4 8
ח נו
 מ יי
 ש יפור
 המ נו
 לה קים
 ח כם
 ח שב
 ק שים
 הח לל
 במ ד
 וה ד
יצ ו
וצ אות
 מק רי
אה בה
 יל די
 הול כת
 שירות ים
 נדר ש
  +
ח זר
ס יקה
ת א
 ס וריה
 הש ראה
 מס חר
 בח ינם
 שמ ישהו
 מי יד
 שבה ן
 מל ון
 מופ יע
i re
פ שוט
 א ביב
 מ לך
 ח פ
 לא ומי
 ט ווח
 לע יר
 הפ דר
 מע לה
 הה ור
 עוב דת
 אית נו
מוקרט ית
 א נגלית
 ו ני
 ו ול
ית ונות
 ד לת
ופ עות
 הח ול
 מש ני
 מש לה
תח ת
 מכ יל
עש יית
 U n
 Y ou
מ כות
ש תו
 א ט
רי ד
 לצ יבור
וני ים
 להג דיל
 מוצ רי
 הרג ע
הס רט
 החד שות
 העול מית
 טוע ן
 תוש בי
 האזרח ים
ב דה
 ה יתר
 ו ְ
 ג ול
 ג רע
 ס רטים
כו ז
 נה דר
 האמריק ני
 הקרי ירה
כ כה
 ל רגע
 א מון
מו ט
 ג ודל
 מא ה
יי נה
פל ל
 פת אום
p er
פ עות
 ש יי
 ת וק
 הח בר
 הח ומר
 כל בים
 ומ ג
 עצ מא
בת א
מוד דות
אל ון
oo d
 שלוש ת
 ההש פעה
 נוס עים
ז ציה
ש בי
 הא רי
 ד רו
 הע ד
 להשת נות
 W indows
 המא וח
- B
u e
ג י
 ל בו
 ל כאן
 מ לה
 ב רוב
 ע יניים
 ו יע
 י תק
 הח ליט
 או סטר
 ט לפון
יט חון
 מח לה
 מצ יעה
צר פת
 אופ ט
 קצ רה
 בוח רים
p l
ג דים
 א יתה
 ש ניות
 ב את
 המ שא
 ג בי
 ס ופר
 מה צ
 הת ש
 לש תות
 הק מת
 הק רקע
 הג בול
 כא לו
רצ ח
 מג לה
 אינ נה
בש לב
 להש לים
 פרו יקט
 האד ום
 הכנס ת
ו יש
ו הוא
 המ י
 ח תי
 ד מות
וו יות
 הד ור
לח ו
 בס וריה
או ניברס
גע ו
 יד עו
 P l
 המא פשר
הפ עם
 אד ום
 שנק רא
 גופ נית
- G
ס רט
 ל כו
 ל ילד
 ש וט
 ש ימו
 ת שת
 הא ב
ופ טים
 במ ג
 הב נתי
 עצ ום
 בט ח
 בני ס
 לט ווח
 יע זור
וליט יקה
 שיו וק
3 3
m er
v er
ס ין
 ה לה
 א מונה
 ב לא
 ו שה
נו שא
 המ ות
 צ יפ
 מצ ט
עת ה
תה ליך
 שק ט
 B l
 וכ מה
 נח ש
 חיו בית
ונג רס
 תוצ אה
 הרצ ון
ל ף
 י רו
 י יצ
 המ שר
 ט עות
יט אות
 לש לב
 שא י
 וב ח
יג ו
.. ."

 שב ין
המ טרה
 בכ נס
אמ ץ
 המס חר
 השת מש
 הצע יר
ג יל
ל ומים
פ ך
 מ בע
 ח וב
 פ ש
 ק ומ
 ס מים
 הב ן
 לש ינוי
מצ ם
 לק יים
 לו ותר
 די בר
 מוצ לח
 יוצ את
 נת ניהו
 רש מי
 נות נים
 סיפ ורים
 המשחק ים
 לרד ת
  i
9 9
ה מע
מ יו
מ נט
מ חקר
 ה וס
 ה תוצאה
 כ בד
 בא ים
ינ תי
ינו ן
 נו טים
 ני סה
 רא שי
 ממש לה
 הנו ס
מס ר
 אש תו
 שומ ן
 האוכל וסייה
  ים
N A
ִ ים
ג ישה
ה רו
 א מו
 ש פות
 כ וס
 מה בית
לו ס
 צ יין
 רק ע
 פע ילויות
אר ץ
 רצ יני
צוע ים
 להח זיק
ט בע
מ לה
 י ו
 לה שאיר
 הא הוב
 ס יוע
 אח ראי
ירות י
 תח ילת
 התי יחס
 יוצ ר
 השל ישית
ובי יקט
3 4
מ נת
 ה לך
וד עות
 לה ט
 נ פט
 ק בע
לי יה
יד וע
 בא ח
 וה מש
 " 

 לש נת
 הק הל
מי ני
כו ניות
 בח ו
 מצ פה
 ומ ד
 לו נדון
 הכל כלה
 שני יה
קט יבי
 מבו גרים
מ לא
 ש ואל
 ב פרס
 של מה
יו מים
 פ יננס
 ג ב
בו גרים
 הת כו
 וא נו
 שני הם
 הוד עה
- D
ב יס
מ רה
 ל נה
 לא בד
בו יות
 כל ים
ספ יק
 יש יר
 המש ך
 בג רמניה
 בדי קות
oc k
ט יים
 ש כולם
 ו יט
 פ סיכולוג
 ס ובל
יב וב
 הע רבי
 הק רב
אל ית
 לס יים
 למש חק
 חוק ים
 בעצ מו
ation al
 המוז יקה
 ה יות
 ש דה
 המ ספר
 מה ק
ספ ו
 ט כני
 מד עי
 הופ כים
 ברח וב
/ ה
ל כה
 ה ורים
 א בטחה
 ש מי
 המ פתח
 לה ודות
מו ני
 ג אה
 צ דק
 במ ים
בור ג
פט ומים
or e
 להצ ליח
 מומ חים
'י ימס
 עבוד ות
 העיק ריים
 המשי ך
 לנס וע
כ שא
ל צ
 מ רבית
ור ית
יה ודים
בר ור
 ג מ
 ד וא
 זה ות
 הפ רויקט
מצ יאות
 מת ן
וו ית
אות ו
 ות ח
 מספ רים
 נה יה
 אמריק אי
 קיב לה
ובלי קה
 האוניברס יטה
i al
ג ב
 ט עם
 בש תי
יצ יה
 הופ כת
 הוד עות
 המשת מש
יצוני ים
 השחק נים
E R
o x
פ רו
 כ רו
 המ ומ
 ק וס
 ס עיף
לי טו
מש הו
 הח וף
 הב ין
 מצ או
עד ון
אמ נם
מט יקה
א רה
ס וך
ע ור
ע רה
ת ול
ני ן
 י שר
 הא ינט
 ר שות
 זה ה
 כל כלי
 במ חקר
וע לים
 שא ולי
ic ros
 אש ראי
 אוכל ים
 הספ רים
 ברצ ינות
 מבח ינת
ו יה
כ תוצאה
 המ ין
 נ ותר
 בא ש
 בא ור
 מש ם
וע לת
וצ יה
 שמ ס
הת שובה
 מוד עות
 עבוד ת
ג רות
 א ורג
רי כת
 לה צביע
 ק שות
 הש ונות
 הב ה
בע קבות
 מת רג
פת רון
on d
סת כל
 מוצ אים
 עוב דות
 הו ועדה
 מכו ניות
 השא לות
" כל
ה רא
ח ש
 לה פעיל
די קות
וא ות
 ד לק
תו ני
 הק ו
 וב ס
סק נה
גר ש
 רצ ח
 בשביל י
ג לים
צ עים
וא רד
 הא רו
מה י
 ס יום
 ז כו
 ז יכרון
 יה ודית
בא נגלית
 S p
 במש רד
 יח יד
 צע דים
as s
לפי כך
ילוס ופיה
l y
ח ברת
כ מות
 ו איך
 פ לא
מר ק
 בס ביבה
מא מר
 בשביל ך
 להס יר
 פוליט י
 ביני נו
 היר ח
? ?

נ נות
 ה ירו
 המ מוצע
 ת למיד
לי זם
 הש ח
 צ באי
 מא מץ
 נו עד
 מב צע
 בת ים
 למש ת
 לכ יוון
 חבר תי
 טע ן
" ק
3 8
מ יק
ש נים
ש יון
 ל נצל
וד ע
 מה ירה
 צ ור
הא דם
 השת נה
 ביק ש
 המל כות
 מצו ין
 בבח ירות
- N
ל עתים
פ טים
ק ציה
 ה רגיש
 ב ואו
 את רים
 פ יר
 ס קר
 למ ישהו
רג ן
 הק ב
 מע שה
מות ה
 וב ט
 בק שה
 שנ ש
 שע ש
הא מת
 יוצ אים
ter n
 מ נצ
 לא ל
וק ס
 יש ת
 מב נה
 פרו יקטים
 הרכ בת
 אלקטרו ני
 ייח ודי
ָ א
מ יל
 כ ראוי
 י גיע
 י כלו
וד ר
 לש אלה
יס א
 הס דרה
או נה
 להג דיר
 לס רט
בח רו
 אב ן
 מסת כל
ב ב
ד לים
 ב ימ
 ר שימה
 הש לטון
וק י
 ט כנולוגיה
 מע לות
רצ ון
סק ס
 הי יצור
 P h
הס יבה
 הלי דה
 חיו בי
 גבוה ות
 האל בום
 המהפ כה
ב דות
מ יון
 ש נג
 ב דם
 ע שרים
 י ור
 ח ירום
 נ כש
בו ט
וכ ך
 הט לוויזיה
 לג דול
כנס ות
 מתי יחס
 האמית ית
 הנוכח ית
" ך
- ס
m ent
א מה
ד תי
י ירה
 לה רוויח
תי חה
לו נה
 הש ות
 מא חר
 הק ל
שו ו
 מס ביר
לב סוף
 לת פוס
 זו הי
 מכ ירות
 במק רים
 ציבור ית
  on
ע דיין
 א ופי
 ב ול
 ע מדה
וא ב
 מה ד
 הפ יננס
 לש את
 בה ק
בוד ות
סט ון
 הכל לי
 A d
 איש יות
 המע רב
 W EB
קש יב
ac e
 פר נק
 בינלא ומית
 עמו קה
 כוכ בים
" ו
 ש גור
 ח ולה
 הא מונה
יש וב
 ד רכ
 הש רי
 וה ט
מע ולם
 מס ור
 נו ש
 מב ני
יני ות
 מפ ח
 יוצ רים
 תג ובה
 להתג בר
icros oft
 ש ירים
 ו די
 המ דיניות
 הע רך
יס י
 מס וכ
 בס י
 מג ע
it h
למ רבה
 לעצמ ך
וסטר ליה
 לכא ורה
I S
פ ד
 י רוק
בר ך
 פ ח
 ס קס
 ס כום
 ד ני
יק אי
 וה כ
 לע קוב
 בה ד
 להצ לחה
 מוכ נה
 הקט נה
 לפג וש
 הקרו בה
  re
ג ול
צ חון
 לה תי
 לא חור
 להת אים
בא מצעות
 להג יש
 חלק י
אט רון
 ה ַ
 ש רוב
רי ו
 ת ל
 פ ארק
 ק שרים
 הת ורה
 הס יבות
 עו ברים
 מיל יוני
 כש אני
 תח ושת
 הוד ו
 לוק חים
ימפרי ה
  Z
  y
 מ וביל
 ת פק
 בא חד
 לש כוח
 לב ריאות
 הס תי
 לח וות
 בס גנון
לט ת
 שנ ראה
 האח ריות
or y
 מז מן
 בנו סף
 W h
 מוס דות
 עש יתי
 תג ובות
 באי כות
 הקד וש
' ו
מ לית
 ש יותר
 ע וק
ול ל
 לב ח
 לב טל
 להת מקד
וה ר
חלט ות
 במח יר
 היע ד
 החברת ית
 תעש יית
" ט
5 5
ב ינתיים
 ה וח
 ל רי
 מ כתב
 המ ז
 המ בנה
 נ עים
 נ משך
 הע יצוב
אר ד
 פרט יות
 אזרח י
 צי וד
 ירי דה
 מעוני ין
  Q
- "
6 00
ט ין
כ כל
ע יר
 המ דו
וד אות
 הש ינוי
 הח ודש
וצ מה
 משפ חתו
 אס יה
 בהצ לחה
" אין
ז כור
ט יסט
פ רט
 ב וו
ני תי
 ס ל
 ס ובלים
 שה ק
 מא מינה
 ט ור
 למ ספר
 יש ירה
לק ח
המ ס
פש ט
קט יבית
 יע ילה
 נח מד
 הכול ל
 זמ נית
 הית רונות
 צוד ק
 ע מוד
 י יק
וא ת
 הא חר
לי כים
 הצ יבורי
 מצ ליחים
לט ות
 בפ נים
 לד מיין
 המק ומית
 הרג שתי
 נס יעה
 המשת משים
למי די
כ יל
מ די
 ח מאס
 יש ן
 יש ראלי
 הג ישה
כת בו
ונ ש
צע ו
 מט רים
 לז מן
 מוג בלת
 בתק ופת
 הקוד מת
 שתה יה
ב ירים
ק אות
 ב רכ
 ב רק
 המ ו
רי ן
 מע שי
 הה ע
 לח ג
דו יות
 לד וגמה
בד יוק
 מספ קים
 בדי קה
" אבל
a z
פ לי
״ .

 ה טר
 ה לח
 ה יקום
 ל וב
 מ רת
 ע זר
 ו אתם
 ו נש
 המ משל
יש ר
יק ורת
 הפ רק
נס יה
בה ת
 הזה ב
 בט יחות
it e
 להע ניק
 הלי כה
 משות פת
 להיר אות
i k
נ ור
 מ ודה
 כ ספ
ני ית
ול ו
 מה ירות
 או שר
 הת פתח
רכ נים
 לב רוח
בח ין
הח יים
 משפ יע
 להע ריך
 ביק ור
 החוק רים
" את
o in
א בים
ה אי
 מ ורה
 ש ילוב
 הא ופן
 מה מש
בו ס
 במ לחמה
מת ין
 מק ומיים
 יל דה
בש נים
 ארו כות
ורק יה
 קי ימות
 רש מית
 היד וע
 ממשי כה
 החשוב ים
משי כו
  v
E S
a w
p h
א מא
 ע ברה
ני הם
 המ כונית
 הא ר
 ק א
 ד עות
 שה ה
יע ית
וג ות
 הצ רפת
 בח ירות
 הכ נסה
חת ה
 לת אר
 מפ ג
 בג דים
 B e
 פרט יים
 איט ליה
 מבק שים
א בא
 ל כת
 ש מן
וב לת
תח ילת
 הק שה
 הצ פ
 בח ש
 ול ג
 לת פקיד
 ידי דות
 שע דיין
 C l
 מז ג
 רג ילים
id e
... .

 מכו נית
3 7
י כה
 ע מ
 י פן
וד יה
 הא יס
 הש יניים
יס ר
 הג ברים
 מס כ
 הד רכים
 וב ק
וז ן
 ממש ל
 יח ידות
 חוק רים
 חופ שית
ag e
 לעצמ כם
 יוש ב
  .
. )

 ל וו
 הא ול
ומ ץ
ומ ק
 הב יא
 מצ ח
נק ציות
חי יה
 מוז ר
לע ומת
 להתק יים
i o
ב זמן
ס וקה
פ גש
 י וני
די ב
 הא צ
 צ יבורי
 בע רב
 למ מש
 הב דל
 לפ יתוח
 מס ך
 נו כחות
 לג וף
יי מה
 מכ ירה
or k
A S
ע די
 ע ירו
 המ תו
לו שת
 מש מע
יט לק
 מס ורת
 הצ באי
 הד ו
 לת רום
כנ נים
בט חת
 נפ לא
 מוע צת
 אוב דן
 שוא לים
6 5
o y
r ess
מ פיין
 לא לוהים
 הא לקטרו
 הת מונות
 למ טרות
 בש דה
 מע רב
 מע דיף
 הצ רכים
עד ת
ונ ך
אמ רו
 ברי אים
כנולוג יות
 המא מר
 אוכל וס
 מקצוע ית
 הרב יעי
ד רו
 ל נג
 מ מצ
 של ח
יד ר
 הש יער
 הע רבים
 במ ט
 מש ול
יפ ו
אי זו
בד לים
 וע כשיו
מל כה
 כת וב
 לקבל ת
הע ולם
 היש ן
 הספ ורט
 נג מר
 כדור גל
רופ אים
 המודר נית
 אוטומ טי
ס ימ
ק רונות
 ו יל
 ח יפ
יל יות
יש ו
 לש רוד
 מת רחש
 הכל לית
 יצ או
ic s
הי ינו
ֶ ר
א בי
ות ק
רו צה
 לה ופיע
 הא חד
 הא רוך
 ס יג
בו עות
 הכ פר
 הנ ג
 בק רי
 בד רכים
 הי די
 ולה יות
 היש ראלים
 הביט וח
במק רים
יליא ם
" )
] ,
 הע רים
כול ל
 לש נה
 בה ס
 מח שבה
 וא ולי
 מסוג לת
 המרכז ית
 לרו ץ
 הרש מי
b er
ה לו
ל כ
 ל ְ
 ל יותר
 מ מע
 ת נאים
תי ב
 ס וד
 הש ו
 ז ול
 בכל א
 היית ם
 חז קים
מס גרת
 מוג בל
 הבע לים
 קר ן
 סמ כות
 הפני מי
u c
ז מה
ש נה
” ב
 ל שרת
 ב כתב
ני יני
ול ק
ית ות
 המ שימה
 ת אי
 ד גים
וכ מה
 בני גוד
 המע רבי
 רח בה
וחר ר
 טוע נים
 הפוליט ית
 הכנס ייה
 ההס כם
B C
א תי
מ חות
רי שה
 ח ום
 הת מיכה
 לע תיד
 לח י
 מח וז
 וא חד
בא מת
 להג יב
גור יה
 פר נס
 המוע צה
 אג ב
ֶ ת
פ על
ק יעים
 ש קר
 ע רים
ני קה
 ח יס
 ג בול
 הש ינויים
 ז ור
בו נן
 מח כה
 הכ אב
 הז מנים
 הנ פט
 אמ ורה
ולוג יות
en ce
 נה ג
גור ר
 משחק י
 להתק דם
 מעור ב
יינו ס
 תינו ק
" ן
ה מת
כ ירות
ת פו
ני ע
 י ין
 ת יע
 נ בנה
 על ייה
יר ס
 פ סק
 פ וטנציא
 ק ובע
מה ות
יע ין
 הת נגדות
 לש לום
 הס ינית
בע לי
 הצ ליחה
 הכ בוד
 שנ מצא
 וח לק
 ארו כים
 אלי י
 פג יעה
 ליצ ירת
! !!

' לס
 ל דרך
 ע י
ור ס
 הח וקים
 למ ט
מי ץ
 הכ ניסה
 אמ נם
 מפ חד
גע תי
 שק יבל
 מט עם
כר תי
 תוכ נה
 למו ות
 פוע לת
באות ו
 הגור מים
A T
ב דו
ה תי
ק עות
 ב וצ
 ח לום
 ח יבור
 לא רו
 הע רכה
שו וי
 רו ק
 כא חד
 מצ יג
עי מה
 כש אתה
יכ רונות
 מרו צה
 הקט נים
 המקור ית
I C
א יות
 א נטי
 מ טור
 המ בט
 המ יוחד
 לה פרי
 ח יוני
 ג ן
ספ ס
 מת אימה
 שמ אל
 בק יץ
יי נים
 הר שות
 M an
 בתח ומי
 שי מש
 קרו בים
 עור כי
 הכרח י
 אוסטר ליה
? !

ה ית
ח ל
ח יים
 ב נה
 ו ית
 ו זאת
יק ו
 במ ילים
ימ יות
אה ב
שי רי
 עבור י
 אינ ך
כא ב
בק שה
 השת משו
 מאת נו
תג ית
 זוכ רת
4 4
א נ
ס מים
ר דים
 ע שתה
נו קות
וב כל
 בא מריקה
רג שתי
 שא ינה
 מע די
מת ם
 רא יות
 חי ינו
 בט לוויזיה
 המק ומי
פס ה
 אפשר ית
 I s
צמ אות
ניס וי
 אצל נו
 הכו כבים
A R
p t
ּ ַ
כ רו
פ וט
 ל יש
 ש ור
 ש תק
 ש יחות
 ש ייך
 ע יו
 המ זל
 לא סוף
וב וס
יש מיות
 וה תח
 מא ושר
וע ד
 הג רע
 לח דר
 מת ים
 הצ ער
 נו ע
דו שה
 ני יר
סק ר
 המש יח
 S c
כנס ו
אמ ריק
 להכ ניס
 עש יר
 הצע ירים
 שות פים
 אוב מה
 הקרו בים
 להז מין
 תינו קות
 להרח יב
" ).

3 9
כ רים
ל מו
ע דות
 ל רש
 ע רכים
 של פני
 נ ר
 ק ופ
 בא זורים
יע ילות
 הע רבית
 רו מ
מצ עי
 אל כס
חת ת
 H e
 וכ יצד
 תע שה
 [ +
 אה יה
 העסק ים
 האיש יים
 צבא ית
 עק רונות
 עול מית
 אהב תי
ב ירות
ד לת
 א בות
 ו זו
 י וז
 ח לו
וא ולם
ומ ך
 ד וגמה
 בא שר
 הח דר
 וה כל
 הת נאים
 לש יר
 לש כנע
שו טים
יצ ונית
 בה ריון
 מת ה
 נו ער
 מצ פים
וז ים
 הופ יע
 צע ירה
 חס רי
המש חק
 ההצ לחה
 ממלי צים
" הם
א נא
ז יות
כ יים
 ש מר
נה יג
 ג ידול
כל ות
יב וי
לו נן
יט לר
רג יות
 הק ומו
נס יבות
וו ירה
פר ש
נד ס
 איש יים
יז ציה
 עצמ אי
 מעור בים
 לנק וט
 כוכ ב
 הפת רון
 מסכ ימים
- פי
צ עת
 מ לו
ני עת
 לה קל
 ק יום
מו י
מש מעות
ופ ק
 בש יתוף
כו נת
 מס מכים
 לק רי
חד שות
an g
בש ל
18 9
 E n
 פני מה
 אה בת
 תא ריך
 עבוד תו
 מבי נה
 שות ף
 ארג וני
 תוש בים
 תמ ורת
 מעוני ינים
 בפי יסבוק
  =
ב יים
פ כה
 ל יל
 ו נע
וד שי
 מש בר
 שא לוהים
 הה ד
בי רו
 ול מ
 אמ ורים
 בו ודאי
כנס ה
 מבו ססת
כתוב ת
 שבע ה
 פופול רי
 המשר ד
% )
I V
ז ן
ט יפול
ל כת
 י בוא
 י וסף
 המ וט
 פ ירות
 פ ורט
 במ ת
 במ צרים
 לח שוף
 מס וב
 וב ת
 צרי כות
 מב קרים
נק ודה
on s
אל בום
 האח ים
גר פיה
יז ון
פס יד
נש ק
is h
 חס רת
 אור ח
 הנש ק
וניברס יטת
ביע ת
עלי נו
 פתו חה
סטרטג יה
 ל רבות
 ל בלות
 ב בת
 לא זור
 ר דיו
מש רד
 הש טן
 צ מיחה
 הפ וסט
 הפ רטים
וס ק
חד ש
כש אני
 בר מת
 הכל כלית
 המק דש
 המע בר
 חש יבה
 D e
 O n
 הור אות
 לעצמ ם
 המודר ני
 ייע וץ
 נפר ד
 ש גר
וד נט
 ח ור
 ח וס
 ג ילה
יק רו
 או ג
 בש עות
 רו ברט
וכ ח
 נו חות
 הכ יבוש
פי ץ
 הט יפ
וט י
 בג ודל
 לכל ול
 כת ובת
 סט נדר
רפ ואה
 ידוע ה
 סימ נים
 שבוע יים
 חוז רת
 פיז ית
I N
p e
ק ציות
 א יום
 ע רבים
 ו נת
רי זה
 לא רה
זה רה
יר תו
 ז מינים
 ול צ
 שמ חים
on g
 ברי רה
 הרג ליים
 עסק י
 נת ון
ol og
 מומ חה
 התג ובה
 הפרט י
 הוק מה
  ...
- W
8 00
A N
ָ ר
א גה
ב תוך
ח שבתי
ומ נים
יד וד
 מה מק
 בא וויר
 הת חי
 לש חרר
יס קו
 בת א
לת ה
 ידי ים
 מפ תיע
 בצ ורת
or ld
פע ול
ic al
 רצ ו
הח ל
 המס ך
18 8
 האירו עים
 פוליט יים
 מדע נים
 חוז רים
  #
t s
ז ינו
ט וף
 ש יחה
 ע ין
רי א
יו נה
 ק ונים
 ק הל
 ד ף
 למ ידה
 לש קול
 הה וא
מצ יה
שא לות
ar y
 ית רונות
 הביט וי
מכ יוון
 שומ ע
 טכנולוג יות
ג יד
 ה ורה
 ע נה
 ו בי
ול דות
רו ף
 ק ב
 הש ואה
 הש ולחן
 או טוב
וג יה
 הפ ה
 הג ז
 הס וף
 מת ג
טר פו
נט ון
 שמ ג
 שמ ק
 להת עלם
פת אום
 המק ומות
 שק יב
בט ח
 תח ילה
 שח לק
 משפ חתי
 לעצ מנו
 התו כן
 הצה ריים
 הסט ודנטים
  :

- י
א מת
א ווה
ב נית
 מ כש
 ב ימי
 פ נו
יש ום
 ד רמ
 הש חור
יק ס
 צ ורות
 או יב
 וה תק
 לע יל
 בש ירות
יס ד
 הק פה
כו יים
 אי מון
דו וח
 המש טר
 די רה
ונ ן
 מז כיר
 שק ל
 אנו שי
 הרו סית
אמ נים
 ברי אה
 יע ילות
 התק דמות
מל ץ
פרי ט
 לכ מה
במ יוחד
 החש מל
 הוג ן
 שיה יו
ד ני
כ יוון
ש יב
 ה לחץ
 ל ינ
 מ ראים
 ע די
 ו לו
 כ ספים
ול דת
 לא ף
 הא וק
יא ים
 ר בי
 ד יון
 הש עה
 מא וב
 בע לה
 הב יניים
 הצ בע
 שלא חר
 למש וך
 לל בוש
 נק י
 התע שייה
 הברי טית
 שמע תי
 ממוק ם
 תנו עת
 שהופ ך
4 2
S t
k y
m an
ה ילדים
כ רות
 א בו
 א טר
 לה קשיב
 ג לי
 ט קסט
 לע ורר
 הפ ק
 יש ו
וע ת
מצ ע
 המש בר
 בט לפון
בד וק
 אחרי ו
 מוד ל
ac h
 הוד יעה
לע ולם
 הכול לת
 לר שות
 המוע צות
 השק עות
 בעצמ ך
סיכ יא
- ג
- לא
C D
r om
א צ
ז רי
כ ין
ק יה
 מ ניח
 לה בחין
יו ב
 ת מי
 ג ילו
 שה גיע
 הע ש
 מא ל
 למ לחמה
 לח ש
 מת אר
 הז כויות
 כא מור
מא חר
 שע ר
 הכל ל
 לס בול
at ch
 M icrosoft
מח יר
 שח שוב
 הול דת
18 6
 [ -
לע יתים
 שיכול ים
 מנ כ
ניסט ית
1 20
9 5
ד מים
י יר
ע מ
 ב ים
 המ מש
 המ ורה
רי ב
 נ עלם
 ק הילה
 ס וכר
 ס דרת
 הש ניים
 הש ירותים
 צ ילום
 מש ל
 בני ית
 בכ יר
ou n
ou nd
 כשה יא
 הפרט יות
 רשת ות
D A
a h
ב פ
ה ייתה
 ל רצ
 א רכ
 ש פע
 ו נח
ול כן
 את רי
 המ וג
 לה רוס
 נ רחב
 שה תח
 בא ל
 במ דינת
 מש ימה
 ט עויות
 בש קט
 הס דר
מצ ן
 הד יו
חק נים
 עד ן
ונ ם
en s
 תק ציב
 למע רכת
 נמצ או
 הדי גיט
 מור כבת
 לתק ופה
 זמ ני
 לפרס ם
 [- ]

א רט
ש מות
 א ברהם
 מ רט
 המ כונה
נה לות
 פ יג
לא ת
 ט יסה
 לע רוך
 הפ ול
 מע ין
 הג ב
בע ל
בע יקר
מע בר
לק ות
 הד עת
 בק צב
 בפ יתוח
 שנ פ
 הי דיים
 שת מיד
 נה רג
 המת אים
הע יר
 מלא כות
 R e
לד עתי
בול וציה
 להתח בר
 הוד יע
 קש ורים
 המט ופל
 תיא ור
ov e
4 7
l l
 י י
 המ לון
 לא ת
 נ תוני
 הא נ
 ק יר
 ק נדה
 ס ח
 ס וציא
יע ץ
 מא בק
 לע ד
 הפ ליטים
וע ר
 לש וק
 לח בר
מע שה
שא לו
 שמ דובר
בת ק
 לת למידים
 מי מון
 פע ילים
כא ילו
 הרו סי
 נק בע
 המת א
 במע רב
 רש ימת
 בתו כנית
 שנע רך
 אמית יים
 חשבו נות
מפרט ורה
 מיי די
 בסי כון
O S
s s
ב שביל
נ ל
 ש רוצים
וד יו
 לה ורג
יש נן
לי פות
 שה שת
בו נות
ינ תה
 מת מיד
בה משך
 להת רחש
 הר ס
 במש פחה
בח רים
 המס ורת
 מוכ רים
 לז כויות
 האמריק נית
 חבר תיים
 אמריק אים
 בפע ילות
 הכב יש
a x
a il
ְ ר
ּ ִ
ג רה
כ דאי
פ סת
 ה שר
 א רצ
 ע שית
 הח ורף
 הת כנית
וח ח
ימ ר
יס וק
יצ ג
 לח סוך
מע לה
 מח לת
 מק ומי
 בח וק
 הז יכרון
מות ו
 וב ני
כש אתה
או נות
 בפ ריז
יי בר
 חי יל
פו יות
נד בים
 לס מוך
הא יש
ic k
 נה דרת
 מוס יקה
 חברת יות
 האו יב
 » 

א פ
א כן
ו יד
י כם
מ חו
צ וות
 ה דר
 א ימ
 ש ולח
 של יש
 המ כשיר
 ת ז
יע ד
 וה מו
 הת ר
 לש יפור
יס טי
 הס רטים
 הנ כ
וני ה
 מד ברת
ac t
יסט ית
 הרפ ואי
 איב ד
 שאמר תי
 דוג מאות
  *
P S
נ דו
פ יו
 ה ון
 מ ניות
 המ וני
 פ וטנציאל
כל לה
 שה כל
 הפ חד
 הה ריון
כת בים
 בב ירור
 O ff
 יק בל
 שהא דם
באות ה
פלסט ינים
 בהד רגה
- T
t e
ז וג
ז קים
כ חו
 מ ימ
 ש פת
 ש יטת
 י מין
 המ פורסם
 הא נגלית
יב ורים
יב ציה
 הח וויה
 ז כתה
 למ רכז
 הפ יתוח
 " .

יח ת
 בה תחלה
קה ל
שא לתי
בא ללה
 בג ין
 לצ ע
אז ל
 חשוב ות
18 0
 כת בה
 מנה לים
 ניס ו
 קרי ירה
זכ רו
יתונ אי
' ".

' ונס
ֶ ה
ֹ ת
ל ילה
 ש בי
 ש שי
 ע מית
 המ יני
 המ פורס
 ד וח
 ד מי
תו כלו
 הת חרות
 הפ א
 הפ ור
 נו ג
 בח לל
חק ו
יי ף
פת ור
מק רה
 המק רה
הה ת
 נק ודה
 נפ טר
il d
 טבע ית
 d e
 משא בים
 צבע ים
 עול מי
  …

נו סף
 המ ולד
וד עת
 ח מור
 נ דיר
 על ויות
 פ וסט
 הת רופות
וע כשיו
 רו פאים
 מת מק
 שע לי
 בט יפול
 למש הו
 מט וס
 מוש למת
הי כן
 O ne
אס ור
 ועד ת
 מרג ש
 הפוליט י
 שיח ק
ומט רים
 שרו צה
2 50
I T
i x
ז ול
 המ זו
 ח וזה
תי חת
 הע ין
ספ קת
 ט קס
 יש נו
 הק ונ
 הג יוני
אות ה
 בק בוצה
ירו ף
 מפ ות
 בד ברים
 בט ווח
 בצ ע
כנ נת
פל גות
 האיש ית
 תכ נון
 מוחלט ת
 לייש ם
ב ך
ב ילות
ג יה
מ לים
ע ז
פ רים
 ה רחב
 המ די
 על יהן
 הא חרות
לה לן
 כל לית
ספ ור
 ט רם
 הת על
 הב ניין
וש ך
 מת פתח
 מח י
נח לויות
שת ות
 הנ ור
 בפ רט
 לד ון
 רא ייה
 בכ יוון
 לס גור
 יח ס
 בתח ומים
 אלי כם
 מיו מנויות
אב דות
im e
 זוכ ה
  …
א וריה
ד ג
ק צת
ש ומת
 ל ניהול
 ש נית
 ע רו
 המ וכ
 ק ונג
 מה ווים
 לע ודד
 למ ג
יט ול
 הס בר
יח ים
וו נת
 הד יון
 עבור כם
 בני יה
בח נה
 המח וז
 לט ע
 יע קב
 התח ילו
 N ew
 בעצ מי
 השק עה
 מדה ימה
 הנס יעה
 שאינ ן
 [+ ]

צ רת
ק רו
 מ יה
 ש כתב
 ב ולט
יל ר
 ת שובות
 הש יחה
 צ יל
 צ מח
 וה ב
בע בר
 לח זק
 מח שבים
 לק וח
 יה ודה
 לת ואר
מוד י
 שע שו
 הכל ים
ולוג ים
 במק ור
 המס ר
נא ביס
ol d
 פרט ית
 נד מה
 צפו יה
 צפו יים
 מאו שרים
 מתרח שת
ה בת
ה גיע
פ ילה
“ אני
 א ורך
 ש חר
 ת אים
 ת ועלת
 הא לוהים
 ד ואר
 ד רכו
 או סף
 במ מוצע
 בע בוד
וג ע
 הב ורא
 הה ר
 בח ורה
 לי בר
 עצ ומה
או ט
לט ו
 מכ אן
 בר זל
at h
 נע צר
 האמריק אים
 ליה ודים
 המוז יאון
 שונ א
" [
ָ ּ
ג נו
ח ז
ט ציה
מ אי
פ לת
 ש פורסם
 י ומ
רו עות
 לא ו
 פ וט
רא ליים
 בא פשרות
בו נים
 מא מר
 מש כ
תח שב
 בה קשר
 לח לוק
 הצ עות
וו ין
 בח ור
 מצ בים
 מצ יין
 בת גובה
 יה וה
 בר שות
 הר שויות
 המח שבה
 יע שו
 מלא ים
 גור מת
 תצ טרך
 המשת תפים
 העצ מי
אירו עים
 רפוא ית
 מתקד מים
4 9
e y
י יט
פ כו
צ רות
 ה יק
 ה לוח
 ל סי
 מ מוצע
 ב רג
 המ טרות
 ח נות
 ח כמים
 לא לה
 לא ומית
 ק וק
תי בת
כל ת
 ס חר
 ד וקטור
 שה וק
 בא נשים
 הב י
 לב נים
 הס חר
שת תפות
 עצ ם
 לג שת
לת ם
.. ..
פט ן
טור יה
וה נה
 עשו יות
 פי יסבוק
 התח לתי
 רע ב
 הרי ון
 ית רון
 חל ומות
 הציבור ית
 יס וד
זב ז
 שבא מת
 מייצ ג
 הגרמ ני
לפו נים
  st
ד וד
ק חו
ש לא
 ש ולחן
ני ב
 נ שימה
וב לית
וב ליק
 ק ולות
 ד רישות
 הח ודשים
 במ לחמת
 במ גוון
 הב מה
 בה ג
 מס וי
וו יטר
 חי ז
 אז ורים
 M e
 מט וסים
הש נה
 רי צ
לג בי
 מדו יק
 תומ ך
 השחק ן
 האפש רויות
! )

ט יות
 מ מוש
 מ כשיר
 ב לה
 ב יפן
 נ ב
מו ז
ופ שה
 שה ב
 אח יו
 לע ם
ותר ות
 הה חלטות
כו נן
בע יות
 הנ ד
 לת כנן
 לד ברים
 שיש ראל
הס יפור
מפ וס
 מוז יאון
 מצו ינת
 זיה ום
 לבע יות
I n
O N
ּ וֹ
ה תו
ה בא
ע ס
ק לי
 ל ידה
 א יל
 ב יס
 המ ראה
 נ בד
וב דן
 ק צב
 ק צרים
יש לון
 שה כ
 הת רופה
 בע זה
 בע יית
רכ ן
יצ ועים
דר ש
 מח זור
 הצ יע
יג יון
 ני כר
בח ון
בש נה
 המח ירים
 G r
 אומ ץ
 פני מי
 קול נוע
 נכנס ים
 מוב ילה
 באוניברס יטה
 הפרס ום
א שר
ח יות
מ ליים
צ תי
ת ת
 ה יפה
 מ ורים
 ו בלתי
רי ץ
 נ פוץ
 הא ידי
יד וש
 ד יוק
לא ם
 הע מים
 הפ וטנציאל
 הצ פו
 הצ מיחה
 הצ רפתי
בה יר
 הכ ר
 אי זון
חק ן
 צרי כת
סק ו
 בר ש
 עו נש
 להג ביר
בט א
 R es
 F or
קי ימים
 נת פס
 ברו סיה
 ידוע ים
 משק יעים
 אנג ליה
 קיל ומטרים
  ”
8 5
ה בח
מ רכז
פ יא
 א שה
 מ נות
 כ ניסה
 של ג
ית ונים
 ח נויות
 ת תק
רא תה
 ס א
 בא רגון
 הח ג
בו י
 הע ברת
 הב ק
 הב נייה
לח מות
 A ir
 מספ רת
 נח שבת
ou t
 רב יעי
 מכל ל
 ספר ד
 מוע ד
סיק ים
 המכ ירות
 באי זה
 נמ נע
 הצבא ית
 החי ילים
 בבע לות
 חר דה
- ת
ח ן
מ יקה
מ חקרים
צ יית
 א רי
 ש ומרים
 ב יר
יל יים
 ק ונה
מו מלץ
 ס ביבה
יק י
 הק לא
 מע ש
 הה פ
מע רב
 ול ס
 הרא ו
 בג ן
מוד דים
 הכל כל
בד ת
 יצ ירות
 P r
אמ ינו
 נה נה
 שכ זה
 עוב די
 חוק ית
 t h
 משמעות יים
 קל וריות
 אב נים
 מקבל ת
 קש ורה
 הנש מה
נר ל
 קלי פורניה
 ולק בל
 במצ יאות
 סוכ רת
 גרע יני
 אוג וסט
  r
ס דות
 ה וז
 ל וא
 ב וחר
וד יע
יש ן
 צ וע
 הע נק
 ט ילים
תח רר
 לג יט
 מי יקל
המ חקר
 להב יע
ליט ות
 קי ץ
 קרי אה
בני גוד
אינ ני
 ספציפ י
 החברת יות
 נול דה
4 6
7 00
A C
ו ברת
מ יע
 ל רע
 ע זב
 כ ריסט
 י יר
 את ן
 המ ספרים
זה ר
 ג וגל
 ס דרה
 הש ירים
 במ ובן
 יש נים
 לש ירות
 הק בוצות
 מע טים
 לנו שא
 עבור נו
ידע תי
ולוג יים
 T r
 למש פחה
 I I
 תע ופה
 במח שב
 התו שבים
 מתק דם
במק ביל
 המוס למים
 הוצ אות
 חוו יות
 טי ול
בג יל
 שתו כל
 תיק ון
 רפוא יים
 עצמא ית
 שימו שי
 לנה וג
- E
ד שות
י יקט
מ טרת
צ פו
 ב ינ
 ו פע
 י וח
 י פים
 י ומיים
 את גר
רי ל
 הא יטלק
 ק רקע
 ג ונג
 שה וצ
 הח שבון
 צ פ
 צ יון
 ט ורקיה
 בע בור
מע ו
 לק בוצה
דו שים
וט ה
 בר שימה
 בכ דור
 בנו שאים
 רח וב
 הרג ל
 סט יב
 המא בק
 מל כ
 נות רו
שני הם
 שנו כל
 כח ול
 הרפ ואה
if e
 מסי יע
E D
א ון
כ ניים
 ל נח
 ו מר
 המ יל
וא לים
 הא נט
 הש ניה
 הש יטה
 הב ת
מת ה
נח לים
 – 

 אל בום
 בס דרה
 בס ביבות
 להת פ
 עבור ך
גר מניה
בק שים
 אנו שית
 תח בורה
 למצ יאות
 טבע יים
 דא עש
 אינט רא
U S
l and
w w
ט רים
כ ירים
ס יפור
 א יפ
 ו רי
ול מה
 המ נהל
 המ בקרים
 נ מסר
 על ות
 פ שע
 מש ימות
 שא ומר
 הג ול
 הד ג
 הט רי
 אינ ס
פק ט
 הרו וח
 למע ט
 נה נים
 הני תוח
ow n
 ומע לה
 משפט ית
 הבט יח
 הדרו שים
 מצא תי
 בחי יו
/ ת
ה ות
מ סת
ס ביר
 ל רח
 ש תיים
 י דו
יר תי
לי ד
 ד קה
 הח ופש
 הת נ
 הב ינו
ימ נע
וש בים
ינו ס
 לב סוף
מע ל
 מק ווים
 S er
 אנו ש
 מט ופלים
קס ון
 פני ו
 מל מד
 הו נג
 רכ בת
ירוש ין
 ובמ יוחד
 רלוו נטי
' יה
ז מים
פ שת
ש ק
 ה רוב
 ה וביל
 מ כה
 מ כשירים
 ב קהילה
 ח לל
יא וג
 הש מים
 הח יות
 הת פר
רב ת
 בה ודו
 לח ם
 הצ ל
 אפ ל
 שמ אפשר
 שמ גיע
 להת פתח
 בצ בא
 אלו קים
 יל דות
 תש ע
 פרו פסור
 אופ ניים
 רכ וש
 מאפשר ים
 הרוח ני
ex t
- L
ֵ י
ל כו
ק ירה
 ה ינם
ני זם
 לה יו
מש כת
יב טים
 שה יתה
 הש לב
 הח ומרים
 הע צמאות
 מש וכ
 למ טרה
צה רה
 כא ל
 הד מוקרטיה
 אל פים
 עד ות
גר ס
כי מה
 M y
 נה ר
 התי ירות
 נת נו
 ההת נגדות
 המט וס
 בדי קת
 נות נת
 השפ עות
 רוח נית
 הטבע י
 נור מלי
 מעור בות
 הקוד מים
 מפל גת
 האמית יים
" המ
" היא
% ,
- ד
מ לבד
 ה רבים
 ב וא
 ב כם
 ו נשים
 לה זכיר
 ח ן
 ת פס
 ס ן
 במ ז
 מא מרים
 מש תי
 לב עלי
 הס ביר
 הכ רה
 בס ט
וז רים
 שב ני
 חש ש
 המס ע
אח רים
 שמע ולם
 מרו צים
 פרס ם
 משפט י
 תופ עות
 היסטור י
 האק לים
- O
P h
o k
ב קים
ש ש
 ש רה
 ו נה
 ק ידום
 ס יטי
 הח וב
 וה נ
 הפ ועלים
טר ית
 הנ ביא
 בק ט
 בק נה
in k
גד רה
 יע לה
ou s
גור יות
זרח ים
רוא יד
as h
 מקצוע יים
 מו נח
 הנק ודה
 אופט ימ
 בניס יון
 Off ice
  )
כ מת
ל רוב
נ נת
ש רו
ש וק
ש מים
 ל סט
 ש מים
 י נו
 לה רג
וא נה
 ת וה
 נ חת
רא שי
ומ כים
 ר מה
 אח ורה
יק ון
יק וח
 הח יס
 הח ברתי
 או סט
רג ול
יצ וץ
 הס וציא
 הצ לב
 מב צעים
 בת נאים
לט ים
יי ץ
 חי יה
 במש רה
 וע דיין
בט יה
 משת נים
הת ע
 רג ילה
 תע רו
is s
נא ט
 עסק יים
 מל כות
 מנה יגים
 במו ע
 יק בלו
 חמ ישי
כני סה
מכ רות
 קיבל תי
 סג נון
 נית נת
 הפיז י
 המשות ף
ח ח
פ סים
ש נית
ש לושה
ש טיין
 מ ונה
 כ וע
ית כן
 על תה
 ק ראו
 צ ופים
 למ ת
 שא וה
 בש לום
 הק ונגרס
 לב יצוע
נס י
בה תחלה
אה בתי
 הר שימה
 להג נה
 שק י
iv ers
 וי כול
 המוד עות
 תרו פה
 הרפ ובליקה
 מבח ן
 נדר שים
 גד לה
 חומ רי
 חלב ון
 הלה קה
  ~
ַ ל
ג לו
ד יון
ט יפ
ל ֹ
מ יום
ת כנית
 כ ספי
 של טון
נו ב
וא לית
 ק רח
 ד וב
 הש ב
 ט רא
 לע ניין
רג ת
וע ות
 לש מר
מת ק
 הצ עת
 הכ רטיס
 הד ואר
 שמ ירה
סט י
 מב נים
 בת קשורת
פק וד
 די אטה
 ישראל ית
פע לה
 עסק ית
 מוע מד
רוא ידים
 דו בר
 דור שים
 ייש ום
 ואח רים
 הוק ם
 להיפ גש
 סק וט
 ממלי ץ
 במא בק
זמ ורת
, ”
] ]
u p
ֶ ם
ה ילד
ח ס
ט רון
כ וד
מ חי
ע בד
 ל ים
 ב טרם
כל ול
יא מר
ומ רי
 ר עה
 בא יטליה
בל נות
 וה יו
 לע זרה
 הה ודעה
 רו מא
וצ אה
 מת נג
 הנ מו
 בס יפור
 לצ מצם
פל ציה
 חלק ית
עי נית
 D r
 רג עים
 הרג יל
 השת תפות
 מתי יחסים
 לר מה
 המלא ה
 שהג יעו
 הגרמ נים
 פתו חים
בהת אם
- פ
6 6
M S
ה שת
ח ול
 ה נת
 ל לב
 ל ראש
 מ יש
 מ רחב
 את גרים
 ח וג
ופ נה
 צ מחים
 שא לו
 מח ירים
 בח רו
 וא חר
דו נ
 היו פי
 בני ין
 חלק ם
 ספר ות
 מבו גר
 יק רים
 מופ יעה
 לתק שר
 ואח רי
 חק ירה
 בוד ד
 להיפ טר
 עוצ מה
 ייחוד ית
  e
א חרת
ב קות
ח רונה
” ל
 ל רצות
 ל ומד
 ש יט
 י וק
 י ולי
 המ ניות
נה גו
 ת וב
 ת זונה
 פ שוטים
 ד תיים
 בא נגליה
 הע שרים
יפ י
יט וא
 הה ון
 בס כנה
 ול לא
 שנ א
 שע שה
 שב ח
 תח ומי
18 7
 רי ח
הע רה
במ ילים
 ופ יתוח
 הני שואין
 הפע ולות
אג ב
 בנ פרד
um an
 מהח יים
 האש ראי
 איט לק
 בעצמ ם
 סבל נות
ְ ּ
ב קר
ה יי
ט חה
ס סים
ע בודה
ר ְ
 ל יב
 ל סטודנטים
 א די
 מ ית
 ש יטה
 ע ר
 ח וות
 ח ובות
 פ רא
מש ום
מש פחה
 הש ליטה
 הש ופט
 הש יווק
 בא חת
 או ס
 או קט
 הע רכים
ספ רי
וע וד
שו וה
וש ב
 מע ניינים
 הס יני
 לח וש
נק ו
 מג ורים
מא וחר
סת ם
 ות ק
 T e
 ' '
 המע ור
 הנו ער
 התח ילה
קי ף
 פני מית
 לפע ילות
 הרצ פה
 In tern
 דא גה
 למד תי
 לנק ות
 נכ סים
 תו ספת
5 1
i le
’ s
 מ נקודת
 ש ׁ
 י תח
 י ישאר
 ח ווים
 נ כונות
תו חים
 במ ידע
 מש ך
 לע צב
 לק ידום
 נו ה
 עצ מן
יג ן
סק ות
 מג ן
 M ar
וכל וס
 המח שבות
 [ [
 סי כונים
 ברח ובות
 פרו פ
 הלי מוד
 המט בע
ינט ולוגיה
 להסת יר
 המל כה
 תי ירים
 הגרמ נית
ight s
 כוו נה
 הקי ימים
ליג נציה
mer ic
" הא
ב פעם
ב מסגרת
כ יה
כ יות
מ ימות
ע נות
צ יל
 ה ונ
 מ נוע
ול נד
 הא ימפריה
 ס ד
 מה כ
 מא לה
 הב נקים
 הק לה
 הה תחלה
 הס ופי
 מס לול
יית ו
יית ם
 שמ טר
 הרא ה
er t
 בכ פר
 A c
 וש ם
בט לה
פש רויות
 עוב דה
רגיש ו
 רי שיון
 במו ח
 לעצ מה
 הו מו
 רוח ני
 פור סם
 האינ טרסים
 הנא צים
לטפור מה
" זו
4 3
ז בת
פ ליק
ת שובה
 ע סקה
 כ ואב
 הא נג
 ס בור
 ד מ
 הח לום
 במ דיניות
 שא חרי
 הק יים
 מע נה
 הה ומ
מצ את
 מס יבות
 מק ומית
 אי די
 בק ושי
 מפ ורט
 לד עתי
an c
 בל עד
 חז ון
ic h
 תח נת
הב ית
is e
 חופ שיים
 פרי טים
 דור שת
 יית ן
 פירו שו
 ספי נות
 להר שות
 הנוס עים
" .[
' ור
P N
ב ינו
ש לב
 ה וציא
 ל לח
 ע מודים
 ו נק
 ת למידי
 הא ות
יד קים
יע ורים
 הע סקה
 למ חקר
רג ם
 הס ופית
בע ולם
 לח ברות
 הצ עה
 לק ום
 מב ול
 כמו ך
פש רו
 משת תפים
 מוס למים
קד מיה
רש מה
 אד רי
 ההת נהגות
 מוב ילים
 הנח ה
 שנע שה
 כרטיס ים
 מנהיג ות
 האת גרים
 דני אל
 לחג וג
ב די
ה כול
ך ְ
ק תי
״ 

 ו שא
 כ ק
נו ם
יו וד
 ת וא
 נ רח
וב ץ
 פ נט
 פ רחים
 הא ומה
 ק ניות
 ד ק
לה בות
 בא ות
 צ ורת
ספ רו
 מא וניברסיטת
 מש למים
יפ יור
 לש וב
וס ה
 הס ול
 נו כח
 רא שית
 שע ושה
 עבור ו
 נש לח
 L e
 הרג שות
 פרי ז
 לר שת
 תלו יה
 הסרט ן
 האו שר
 הקש ור
 Al l
ואלי ציה
" אז
' ינג
5 2
6 7
o h
ח וף
כ רגע
מ נית
נ דים
ש מו
 ש די
 ש נוע
 י וון
 לה יח
תי יש
ופ רת
 הש קט
 לע סקים
 הב ירה
 הב תים
 לח ודש
וצ רות
 בח ינוך
 אינ ני
 די פל
קר ן
 שב ס
 הל כה
הח לק
18 5
טו נו
 ית כן
 ניס וי
 ההש קעה
 המוש לם
 פרק ים
 תומ כים
 מתא ימים
 משלה ם
 אוקט ובר
ה פר
ה נשיא
ל פת
פ עת
צ יר
 ה ניסיון
 ל בר
 ב רכב
 ע ולים
ור ידה
רו מה
 ח וט
 על ו
 ס כנה
 שה וש
 מא סר
 הפ ארק
רג לים
 שא דם
 הק וס
 מע קב
יצ ב
 הכ שרה
 הנ רי
 עצ וב
 הט ור
 רא ינו
 שנ אמר
 די רות
 בר ע
המ דינה
 קט ל
 המח בר
 מוס יף
 רש אי
חלק ם
 סיפ רה
 רכ ישת
 מוח מד
 לימ ודים
 הקש ורות
 צי ור
 שתו כלו
 הכדור גל
 מייד ית
 הצרפת ית
 הצפ וני
- H
ָ ם
ה או
ט ת
נ מרק
פ יד
 א דוני
 מ פר
 מ רצ
 ע ידן
רא ינו
 ס יב
 ר עים
 אח י
 הע ץ
 הע יתון
 הת ור
 הת נג
ינ ק
 הפ סקת
 הק לי
 הג ר
יח סי
 בה ע
יי נות
 חד רים
וני ינים
 עבור ם
 שב יצ
 בכ ירים
 קור בנות
 אנ א
as e
 חמ ורה
 ההש פעות
רופ יל
 בידי ים
ירי יה
פח תו
 הרח וב
אלו ג
 הוכ חה
 הקול נוע
 היס וד
יצו ניות
 הסתי ימה
 האול ימ
א וס
מ תח
מ ריק
צ אים
 ל רק
 ש יד
 ב יקר
 כ ני
 י יפ
 י עד
 י ביא
נו ג
נו ני
 לא רצות
מו ות
תי ק
 ס ע
ומ בי
 ד תי
יע וט
 למ משלה
יפ ון
 לש ום
וש ע
 נו במבר
נט ו
 אי כ
דו וקא
 ול ד
 בפ ור
וט רים
נד מה
 בר זיל
 בכ יתה
 ולה ע
 הנו ג
 הרו פאים
 חז רו
 להש גת
 אס ון
עוד יה
 העל יונה
 הגבו הים
 הפר למנט
 הרפ וא
' ין
8 8
צ ץ
 מ כונות
 מ שרת
 מ יקום
 ש ראיתי
 ח יצוני
וב ש
 הא וצר
 ד מויות
 הש נתי
 בא וט
 וה ז
 לע סוק
 למ סקנה
 הק ה
מצ עים
 מס ק
 בס מים
לט ינית
 שלו שים
 רא תה
 לס וג
בח ודש
כנס ת
פא רק
 הדי רה
של כות
 שיע ורי
 להפ יק
ot el
 פול ין
 ולע שות
 שהע ולם
 לפת רון
 מזו נות
 פיז י
 המבו סס
 הצלח תי
נ עים
נ ולד
פ ין
ש לוש
 ה יותר
 ה ודות
 מ ילות
 מ לווה
 ש תח
 ש חרור
 ע דים
 ו יה
 ו ושינגטון
 לא חת
וא ולי
 נ פל
ומ יני
מש ה
 ד ומות
 הח ליטה
 מש ע
 ט יסות
 הת ס
ינ ור
 למ נה
 למ דינות
 הק יר
נת ם
 מח ליט
 בח ברת
 הכ ות
 וא ינ
וז יציה
ירו ץ
 בב ני
an ce
 יצ אה
 תק בל
 יד עה
 להש יב
 השל כות
 העוב דות
רוס ופט
בצ עים
 הפני מית
 החמ ישי
." [
 באח ריות
  k
' )
6 4
l ine
ה תוצאה
ז וקה
ח בר
מ כו
נ ץ
נ נה
נ קה
ר דות
 מ ובן
 כ יסוי
 הא לימות
 ס גור
יא ונים
 מה מח
 שה דבר
 ז מנים
וע דת
נת ר
 לפ לסט
 הס כמה
 הס כסוך
 אי ז
 עצ ים
 לג ברים
 בת נאי
 ני ג
כש יטים
 לנו ע
 יצ חק
גור ם
קי ימת
 אד מות
 ומש ת
ig n
 בסיס י
מצא תי
 טיפ ולים
 פלסט ין
מלי ץ
 יג יעו
גרי רות
 ויט מין
ִ ּ
ח ף
ך ָ
ע צ
ר צה
 ל תוצאות
 ש ינו
 ש רבים
 ב נים
 ב ירה
 ו ילדים
 כ ג
 י בש
ול יה
 המ מוק
 ח ינו
יו וי
 ת משיך
 ת מצאו
וב דות
 שה וב
יק רון
 הע די
 מא ורג
 לח דש
מע ניין
 הט כנולוג
 שנ אה
 די כאון
 וח ס
 למש רד
פש טות
 הנו גע
 B r
 נה יגה
 התק ציב
לד וגמא
 שש מע
 אה וב
 מוק דמת
 שמש ת
 שמש הו
 הפס קה
 מתכו ונים
 פוג ע
 המוב ילים
 שוו יון
 פיל יפ
 מעדי פים
! ".

' '

ב תחילת
ה ורים
ה מקום
ש נו
 ש פי
 ב קה
רו ני
 ח ירות
 ח כמה
 לא ינטרנט
 לא מץ
וא יך
 ת ורה
 הא ט
ומ רת
 ד פוס
 ז ע
יע וץ
ספ ות
 למ ים
 הב דיקה
 שא ח
 הג בר
 הס ובי
מצ יא
 הצ עד
 הצ טרף
וו נות
 וא ינו
 הנ זק
 אחד ות
 בג וד
 יצ יבות
 כש אתם
פור ד
כנס ייה
 הנו שאים
 נמצ אות
 W orld
גור מים
ion s
ליט ת
 החלט תי
 גיל וי
 ההצ עה
 תופ עה
 הדרו מי
ak e
דיב יד
" אנו
א וק
ה נס
ה אתר
כ ורה
נ שא
ש ירות
 ש ומר
 ב בו
 ע כ
ית ן
יו מה
 לא ישה
 ס מוך
 מה תק
 הת ודעה
 בע ידן
 לע וד
ינ סון
 לש תי
 בש ילוב
 הג זע
 הג בולות
 לפ רק
 לב כות
רט י
 הד מויות
 בק ר
יג ר
או נד
ירו ס
 בג דה
מד תי
נד סה
 די ס
 בט בע
 במש הו
 יצ ליח
יז ר
 יחד יו
 הטבע ית
 טיפ ים
 ניצ חון
 הגור ם
 שיצ א
" :
' '.

5 3
5 9
B S
R E
פ ץ
 מ יט
 המ דה
 לה רים
 נ מל
 ס יני
 ס פט
 ס גן
 ר שויות
יב ט
 ד תית
 מה לך
את גר
 אח רונה
יק לים
 הח תונה
 במ י
 מש טר
 מש לם
 הת שלום
ינ ד
 למ ידע
וג ו
יפ יות
 הב נות
 לב דו
 מס חרי
 הצ דק
דו נים
 וב מק
 הט יסה
 ני שואין
 מג לים
 מכ די
 S u
 בכ בוד
 המק ומיים
בק יצור
 הל כו
 הל כת
גור רים
 חוק ר
 אירו עי
 המשפט י
 האיש יות
 חיי ך
 שומ עים
 לרו פא
נדר טים
 כפ ול
 לתו כנית
 המשי כה
-י ורק
- ט
A P
א רגון
ה תוכנית
ה רעיון
ו ין
ח יש
מ מות
 ש וח
 לא ותו
יל יון
 נ מכ
 פ ליטים
יד ס
 ד בריו
 אח ים
בל בל
 מש לי
 מש משים
 הת אים
ימ ית
ימ יה
 בש ו
 בש אלה
 מע ריך
 מע ורר
כת בי
 ול ראות
 לג דל
 A nd
פע ולה
פרי קה
 הול נד
 התח לה
 קור סים
 קש יים
 לתק וף
 U S
 ובע לי
 פלסט ינית
ואל יות
 בוד דים
 הכו ונה
יוו יד
 נאל ץ
 החופ שי
 פרנס יסקו
 ספט מבר
- -
4 1
7 2
כ ילה
מ כאן
 מ יום
 המ כון
 המ בצע
 הא בטחה
ופ יות
 שה ט
 הח ליטו
 ז רה
 צ ופה
 הת ואר
 לע שן
 למ חרת
 הפ יל
רג וני
 מח ירי
רט ה
צה יר
יני ה
 בפ רו
 להג שים
 יח זור
 נק ראת
בס יס
רש מו
 O ut
יכ וח
 מופ יעים
פרס ום
 הנה ג
 שעל יו
סיכולוג יה
' רד
e e
y s
ּ ֵ
מ יט
מ טר
’ 

 ה ליך
 ה יטלר
 ל נשיא
 ל ברר
 מ רע
ול ית
 המ לו
 ח שים
 ח ווה
 לא שר
יל ך
 פ רש
 הא רצ
 ס יל
יא ל
ומ דת
לי נג
 הפ שוט
שו ות
יח ידה
 מת פ
 הצ יג
 מק לט
 בס עיף
 הט י
 כמו ני
המ משלה
 הי רי
 יצ יב
 תה יו
 H IV
 התו כנה
 מיו עד
 נשא רו
ad e
 החל ומות
 קו נס
 נמו כים
 דיווח ו
 עוס ק
 כלכל יים
ז אזל
ל שם
צ יונ
ק ע
ש ׂ
’ .

 ב יה
 ב רב
 ע יתונאים
 י ורד
 המ ידה
 נ סי
 ק סם
 ר ד
 מה אנשים
 הח ס
וק ות
וח י
יט וי
 בש יעור
 מע ריכים
כו ון
 לק חו
 בח יפוש
 הכ נסות
לח ות
 ומ נה
 לג עת
פו נים
אר ית
 בצ בע
 יצ טרכו
טי יל
 במק ביל
 רצ תה
מל ון
 המס לול
 נפ גע
 נפ וצה
 כת בי
 רג שית
 מוע יל
 ופ שוט
 הספ ינה
 החלט ת
 לר עה
 השפ עת
 למח וק
בחר ת
לוו ים
 מתע ור
 האי כות
 תכ ניות
 טי ימס
 באפרי קה
 מביא ים
 מלח מות
 פות ח
 מצח יק
" צ
5 8
g h
o ol
y n
ּ ת
ב ימים
ה מה
ח יל
ל צע
מ כה
נ אם
ס ליחה
ת ש
 ה רים
 ה וכר
 א ֶת
 ב נא
 כ ושר
 י כ
 י ופי
יו ונים
 ק לים
 ק ווי
 ד לקת
ופ יים
 ז רי
 צ הוב
 בע ונה
 לע ת
 הק ר
יצ ות
 בה תק
 מח לקת
 מק י
יית ית
 ומ תי
 לד רוש
 מכ ר
 המח לקה
 המת ים
בס ך
 עש ורים
 אינט נס
 הרש מית
 הנס יך
ul t
 היל דה
 ספציפ יים
 ייק ח
ב מה
ה די
ל מוד
 ה ות
 א עשה
ות קים
 מ נע
 ש גו
 ב נג
 ב ניהול
 ב רגל
 כ פר
רו גים
 ח מים
יל דה
 נ רצ
 נ גר
 ד מוקרט
 ד מוקרטיה
ופ רים
 מה ות
 מה נה
יק ן
ספ ורט
וק ול
 מש וב
 הק רח
 מס מך
 הצ ו
שת ם
 נו טה
 וא ומר
 הד גיש
 וב צ
כש ל
er n
 לד ברי
בק ת
רס ו
 מט ע
 הרו גים
 נע ליים
פתח ו
 רצ ינית
 אס ירים
 החש יבות
 : )

 התג לה
 עוז רים
 ענק ית
 היסטור ית
 איר לנד
 צה ריים
her e
 לטי יל
 האיר א
  is
R I
s h
ג לות
ה ני
ה רב
ה כי
ט ראמפ
ס יים
ע מוד
פ יס
ש ינוי
 מ בר
 ו בל
 ו וי
 י ראה
 י משיכו
 ח ות
 ח מו
 לא רגון
וא לה
 הא רגונים
מש ק
