{"\n":0," ":1,"!":2,"\"":3,"#":4,"$":5,"%":6,"&":7,"'":8,"(":9,")":10,"*":11,"+":12,",":13,"-":14,".":15,"/":16,"0":17,"1":18,"2":19,"3":20,"4":21,"5":22,"6":23,"7":24,"8":25,"9":26,":":27,";":28,"<":29,"=":30,">":31,"?":32,"@":33,"A":34,"B":35,"C":36,"D":37,"E":38,"F":39,"G":40,"H":41,"I":42,"J":43,"K":44,"L":45,"M":46,"N":47,"O":48,"P":49,"Q":50,"R":51,"S":52,"T":53,"U":54,"V":55,"W":56,"X":57,"Y":58,"Z":59,"[":60,"\\":61,"]":62,"^":63,"_":64,"`":65,"a":66,"b":67,"c":68,"d":69,"e":70,"f":71,"g":72,"h":73,"i":74,"j":75,"k":76,"l":77,"m":78,"n":79,"o":80,"p":81,"q":82,"r":83,"s":84,"t":85,"u":86,"v":87,"w":88,"x":89,"y":90,"z":91,"{":92,"|":93,"}":94,"~":95,"":96,"":97,"":98,"":99,"":100,"":101,"":102,"":103,"":104,"":105,"":106,"":107," ":108,"¡":109,"¢":110,"£":111,"¦":112,"§":113,"¨":114,"©":115,"ª":116,"«":117,"¬":118,"­":119,"®":120,"¯":121,"°":122,"±":123,"²":124,"´":125,"¶":126,"·":127,"º":128,"»":129,"¼":130,"½":131,"¿":132,"Á":133,"Ç":134,"È":135,"É":136,"Ë":137,"Î":138,"Ó":139,"Ö":140,"×":141,"Ø":142,"Ú":143,"Û":144,"Ü":145,"ß":146,"à":147,"á":148,"â":149,"ã":150,"ä":151,"å":152,"æ":153,"ç":154,"è":155,"é":156,"ê":157,"ë":158,"í":159,"ï":160,"ð":161,"ñ":162,"ò":163,"ó":164,"ô":165,"õ":166,"ö":167,"÷":168,"ø":169,"ù":170,"ú":171,"û":172,"ü":173,"ý":174,"ÿ":175,"ā":176,"ă":177,"ć":178,"Č":179,"č":180,"Đ":181,"ę":182,"ğ":183,"Ġ":184,"ħ":185,"ī":186,"İ":187,"Ł":188,"ł":189,"ň":190,"ŋ":191,"ō":192,"ő":193,"œ":194,"Ś":195,"ś":196,"ş":197,"Š":198,"š":199,"ţ":200,"ū":201,"Ÿ":202,"Ż":203,"ż":204,"Ž":205,"ž":206,"ư":207,"ș":208,"ț":209,"ɒ":210,"ɓ":211,"ə":212,"ɛ":213,"ɸ":214,"ɾ":215,"ʉ":216,"ʊ":217,"ʌ":218,"ʻ":219,"ʼ":220,"ˈ":221,"ˌ":222,"ː":223,"́":224,"Α":225,"Β":226,"Δ":227,"Ε":228,"Θ":229,"Κ":230,"Σ":231,"Τ":232,"Φ":233,"Χ":234,"Ψ":235,"Ω":236,"ά":237,"έ":238,"ή":239,"ί":240,"α":241,"β":242,"γ":243,"δ":244,"ε":245,"η":246,"θ":247,"ι":248,"κ":249,"λ":250,"μ":251,"ν":252,"ο":253,"π":254,"ρ":255,"ς":256,"σ":257,"τ":258,"υ":259,"φ":260,"χ":261,"ω":262,"ό":263,"ϑ":264,"ϕ":265,"Б":266,"В":267,"Д":268,"К":269,"Н":270,"О":271,"П":272,"Р":273,"С":274,"Т":275,"Ы":276,"Я":277,"а":278,"в":279,"г":280,"д":281,"е":282,"ж":283,"и":284,"й":285,"к":286,"л":287,"н":288,"о":289,"п":290,"р":291,"с":292,"т":293,"у":294,"ф":295,"х":296,"ц":297,"ч":298,"ш":299,"ы":300,"я":301,"і":302,"Ҫ":303,"Ӑ":304,"Ӗ":305,"ӝ":306,"Ӳ":307,"Ե":308,"Խ":309,"Յ":310,"Ս":311,"֖":312,"֥":313,"ְ":314,"ֱ":315,"ֲ":316,"ֳ":317,"ִ":318,"ֵ":319,"ֶ":320,"ַ":321,"ָ":322,"ֹ":323,"ֺ":324,"ֻ":325,"ּ":326,"ֽ":327,"־":328,"ֿ":329,"ׁ":330,"ׂ":331,"׃":332,"ׅ":333,"א":334,"ב":335,"ג":336,"ד":337,"ה":338,"ו":339,"ז":340,"ח":341,"ט":342,"י":343,"ך":344,"כ":345,"ל":346,"ם":347,"מ":348,"ן":349,"נ":350,"ס":351,"ע":352,"ף":353,"פ":354,"ץ":355,"צ":356,"ק":357,"ר":358,"ש":359,"ת":360,"װ":361,"ױ":362,"׳":363,"״":364,"آ":365,"أ":366,"إ":367,"ئ":368,"ا":369,"ب":370,"ة":371,"ت":372,"ث":373,"ج":374,"ح":375,"خ":376,"د":377,"ذ":378,"ر":379,"س":380,"ش":381,"ص":382,"ط":383,"ع":384,"ف":385,"ق":386,"ك":387,"ل":388,"م":389,"ن":390,"ه":391,"و":392,"ى":393,"ي":394,"َ":395,"ُ":396,"ِ":397,"ْ":398,"٠":399,"١":400,"٢":401,"٨":402,"٩":403,"ٰ":404,"ٹ":405,"چ":406,"ھ":407,"ی":408,"ߟ":409,"ߡ":410,"ं":411,"औ":412,"ग":413,"त":414,"द":415,"न":416,"ब":417,"ल":418,"ा":419,"ि":420,"ी":421,"े":422,"्":423,"ં":424,"ગ":425,"બ":426,"લ":427,"ો":428,"༓":429,"ខ":430,"ភ":431,"ម":432,"រ":433,"ស":434,"ា":435,"ែ":436,"្":437,"ṅ":438,"ạ":439,"ả":440,"ἀ":441,"ὥ":442,"ῦ":443," ":444," ":445," ":446,"​":447,"‌":448,"‍":449,"‎":450,"‏":451,"‐":452,"‑":453,"‒":454,"–":455,"—":456,"―":457,"‘":458,"’":459,"‚":460,"“":461,"”":462,"„":463,"†":464,"‡":465,"•":466,"…":467," ":468," ":469,"‪":470,"‫":471,"‬":472,"‭":473,"‮":474," ":475,"‰":476,"′":477,"″":478,"‹":479,"›":480,"⁠":481,"⁡":482,"⁨":483,"⁩":484,"⁻":485,"₪":486,"€":487,"₹":488,"№":489,"℠":490,"™":491,"Ⅰ":492,"Ⅲ":493,"←":494,"↑":495,"→":496,"↓":497,"↩":498,"⇒":499,"∀":500,"∂":501,"∆":502,"∈":503,"−":504,"∗":505,"∘":506,"∙":507,"√":508,"∞":509,"∽":510,"≠":511,"≥":512,"≪":513,"≿":514,"⋅":515,"⋯":516,"Ⓘ":517,"─":518,"■":519,"□":520,"▪":521,"▲":522,"▶":523,"▸":524,"►":525,"▼":526,"▾":527,"◄":528,"●":529,"◻":530,"◼":531,"☀":532,"★":533,"☆":534,"☚":535,"☝":536,"☺":537,"♔":538,"♠":539,"♣":540,"♥":541,"♦":542,"♪":543,"♫":544,"⚡":545,"✌":546,"✔":547,"✯":548,"✰":549,"❁":550,"❓":551,"❤":552,"❷":553,"❻":554,"❼":555,"❽":556,"❾":557,"➝":558,"⟨":559,"⟩":560,"⟵":561,"⦁":562,"⬅":563,"⭐":564,"、":565,"の":566,"ア":567,"ギ":568,"コ":569,"シ":570,"ス":571,"ド":572,"ュ":573,"ル":574,"ー":575,"㪗":576,"三":577,"东":578,"主":579,"九":580,"京":581,"介":582,"以":583,"会":584,"元":585,"列":586,"反":587,"古":588,"名":589,"士":590,"大":591,"学":592,"川":593,"工":594,"幕":595,"广":596,"府":597,"式":598,"徳":599,"慢":600,"拾":601,"日":602,"旦":603,"本":604,"来":605,"株":606,"民":607,"浪":608,"海":609,"点":610,"理":611,"疽":612,"社":613,"穂":614,"空":615,"章":616,"第":617,"简":618,"算":619,"絵":620,"義":621,"聲":622,"航":623,"色":624,"茶":625,"蒙":626,"術":627,"襲":628,"詞":629,"赤":630,"逆":631,"道":632,"都":633,"鈴":634,"院":635,"髓":636,"黑":637,"黒":638,"랙":639,"블":640,"엠":641,"":642,"":643,"":644,"":645,"":646,"":647,"":648,"":649,"":650,"":651,"":652,"":653,"":654,"":655,"":656,"ﬠ":657,"אַ":658,"בּ":659,"הּ":660,"וּ":661,"פּ":662,"תּ":663,"וֹ":664,"﴾":665,"﴿":666,"️":667,"﻿":668,"（":669,"）":670,"，":671,"：":672,"￼":673,"�":674,"🇸":675,"🇾":676,"🌈":677,"🌎":678,"🍻":679,"🎉":680,"🎶":681,"🏽":682,"🐔":683,"👈":684,"👉":685,"👑":686,"💉":687,"💔":688,"💖":689,"💜":690,"💫":691,"📁":692,"📄":693,"🔥":694,"😀":695,"😁":696,"😂":697,"😃":698,"😄":699,"😅":700,"😆":701,"😈":702,"😉":703,"😊":704,"😍":705,"😏":706,"😐":707,"😒":708,"😚":709,"😛":710,"😜":711,"😦":712,"🙁":713,"🙂":714,"🙌":715,"🚖":716,"🚘":717,"🤔":718,"🤨":719,"🦁":720,"🧼":721," ה":722," ל":723," א":724,"ים":725,"ות":726," מ":727," ש":728," ב":729,".\n":730," ע":731," ו":732," כ":733,"ני":734," של":735,"ור":736," י":737,"ול":738,"נו":739," את":740,"ית":741,"רו":742," המ":743,"וד":744,"רי":745," לה":746,"יה":747," ח":748,"יו":749," לא":750,"יל":751,"בר":752,"נה":753,"די":754,"וא":755," ת":756,"זה":757," נ":758," על":759,"וב":760,"יר":761," פ":762,"יות":763," הא":764," ק":765,"מו":766,"רא":767,"יש":768,"מה":769," ג":770,"ין":771,"תי":772,"כל":773,"ון":774," ס":775,"יא":776,"נים":777,"ומ":778,"לי":779," ר":780,"מש":781,"יב":782,"יד":783," ד":784,"ופ":785,"נות":786,"שר":787," מה":788,"לא":789,"את":790,"לו":791,"?\n":792,"לה":793," שה":794," הש":795," אח":796," בא":797,"יק":798,"יים":799," הח":800," ז":801," צ":802," או":803,"רים":804,"יע":805,"בו":806," הע":807," זה":808,"שה":809,"תו":810,"ום":811," כל":812," במ":813,"בל":814,"ספ":815,"כול":816," וה":817," מא":818," הוא":819,"שים":820,"וק":821," מש":822," ט":823," הת":824," בע":825,"רה":826," לע":827,"וח":828,"ינ":829," למ":830,"וג":831," עם":832,"רב":833,"יפ":834," הפ":835," הב":836," אות":837," יש":838,"יט":839," \"":840," (":841,"רג":842,"ותר":843,"וע":844," לש":845,"רכ":846,"ימ":847,"תח":848," שא":849," בש":850,"יס":851," הק":852,"שו":853,"וס":854,"נית":855," יותר":856,"וש":857,"ינו":858,"\".\n":859," מע":860," הג":861,"יצ":862,"נת":863," יכול":864," לפ":865," הה":866,"מי":867,"מת":868," רו":869," לב":870,"כו":871," הס":872," היא":873,"דים":874,"יח":875," בה":876,"ולם":877,"בע":878," היה":879,"דר":880," לח":881,"אני":882," גם":883,"כם":884,"מצ":885,"אי":886,"מע":887," מס":888,"וצ":889,"אם":890," מת":891," מח":892,"טר":893,"נס":894,"לק":895,"נח":896," הצ":897,"רח":898,"וכ":899," מק":900,"מן":901," כי":902,"שות":903,"חר":904,"וו":905,"20":906," לק":907,"מים":908,"מר":909,"שת":910,"בים":911,"בה":912,"לים":913,"יית":914," נו":915,"רט":916," בח":917," הכ":918,"דם":919,"נט":920,"רת":921," -":922," אי":923,"יום":924,"דה":925,"כה":926," לי":927," הז":928," וא":929,"עות":930,"צה":931,"כן":932,"אים":933," הנ":934,"ורה":935," להיות":936," כא":937," הד":938,"הם":939," –":940," אל":941," הם":942,"אה":943," מצ":944,"אות":945,"עת":946,"עה":947,"נשים":948,"בי":949,"פי":950,"שי":951,"לח":952," כדי":953,"ירות":954,"\"\n":955,"יותר":956,"חק":957,"בור":958,"וף":959,"נחנו":960,"קה":961,"ברים":962," רק":963,"דו":964,"עם":965," אני":966,"בוד":967,"כת":968," אחד":969,"ספר":970," ומ":971,"מות":972,"על":973,"פר":974," אם":975," בס":976,"19":977,"ילה":978," עצ":979,"חד":980," וב":981," ול":982,"יון":983,"נג":984," הט":985,"עים":986,"ורים":987,"וי":988,"שא":989,"וז":990," צרי":991," אפ":992," שמ":993,"הוא":994,"רות":995,"סט":996,"ירה":997,"שוב":998,"דול":999,"חת":1000,"לב":1001,"כים":1002," לג":1003,"חה":1004,"בות":1005," ביותר":1006,"ראל":1007,"פה":1008,"חות":1009," שלך":1010," מב":1011," בת":1012,"בת":1013,"ילו":1014," בק":1015," כמו":1016,"מיד":1017," הרא":1018," כך":1019," אתה":1020,"ישה":1021,"יני":1022,"יג":1023,"כות":1024," ני":1025,"לת":1026,"לות":1027," טוב":1028," יה":1029,"כש":1030,"..":1031,"או":1032," לת":1033,"לט":1034," אבל":1035," אמ":1036,"רק":1037," לו":1038,"!\n":1039,"רצ":1040,"סק":1041," להת":1042,"00":1043," בכל":1044,"נק":1045," המש":1046," ידי":1047," הזה":1048,"בא":1049,"er":1050,"ראה":1051,"ירו":1052,"ומר":1053," אותו":1054," בפ":1055," עד":1056,"וט":1057," היו":1058,"יי":1059,"זור":1060," מפ":1061," מג":1062," שלי":1063," זאת":1064," שלו":1065," בג":1066,"כך":1067," שלנו":1068,"אתה":1069,"זו":1070,"מא":1071,"מד":1072," לד":1073," זו":1074," מי":1075," בב":1076,"ניות":1077,"in":1078,"מוד":1079,"רבה":1080," בין":1081," מאוד":1082,"דות":1083,"ופן":1084," ממ":1085," היית":1086,"אבל":1087,"201":1088," חד":1089,"רון":1090," רא":1091," לצ":1092," שנ":1093," מדי":1094,"וני":1095,"פת":1096," לך":1097,"האם":1098," בד":1099,"שב":1100,"\",":1101,"סף":1102," מכ":1103,"on":1104," לנו":1105,"ולה":1106," חי":1107,"רך":1108,"פו":1109," שע":1110,"נד":1111,"ילים":1112," פע":1113," עבור":1114,"an":1115,"ולי":1116,"מק":1117,"טים":1118,"גם":1119,"ברה":1120," כמה":1121," לעשות":1122," מד":1123," אינ":1124,").\n":1125,"פק":1126,"לך":1127," די":1128,"אר":1129,"קר":1130,"סי":1131," בר":1132," בט":1133,"עד":1134,"ונים":1135," הר":1136," שהוא":1137,"אל":1138,"פשר":1139,"ירים":1140,"כון":1141,"דרך":1142," S":1143," עו":1144,"ניה":1145," בו":1146," יוד":1147," האח":1148,"יהם":1149,"תוך":1150,"יבה":1151,"צים":1152," בצ":1153,"בודה":1154," אנשים":1155," לפני":1156," שב":1157,"קים":1158," צריך":1159,":\n":1160," דבר":1161,"יתי":1162," להג":1163,"המ":1164," כבר":1165,"פות":1166," ולא":1167," שלהם":1168," בני":1169," שלא":1170," בכ":1171," הכל":1172," אשר":1173," הרבה":1174," גדול":1175," ישראל":1176,"חים":1177,"פט":1178,"חו":1179," המק":1180," אמר":1181,"יתה":1182," עוד":1183,"בד":1184,"ימו":1185,"סים":1186,")\n":1187,"ורת":1188," A":1189,"טור":1190,"כא":1191,"ונ":1192,"תה":1193,"יקה":1194," אז":1195," ממש":1196," לס":1197," C":1198,"כנ":1199,"ריק":1200,"ילות":1201," שני":1202," שנים":1203,"ניתן":1204,"...\n":1205," במש":1206,"רוב":1207,"200":1208,"פל":1209," רוצה":1210," באופן":1211,"קות":1212,".\"\n":1213," הי":1214," וש":1215,"תק":1216," אך":1217,"ar":1218," שלה":1219," אלה":1220,"ורך":1221," אלו":1222,"or":1223,"מית":1224,"סת":1225,"ברת":1226,"ידע":1227,"אז":1228," אדם":1229,"פים":1230," יצ":1231,"גר":1232,"טי":1233," שיש":1234,"בח":1235,"ווה":1236," שבו":1237,"וה":1238,"ולים":1239,"ולוג":1240,"en":1241," אחר":1242,"יעה":1243,"צע":1244,"שון":1245,"ברי":1246,"כי":1247," וע":1248," שם":1249," אחת":1250," אנחנו":1251,"al":1252,"ראות":1253,"צת":1254," לאחר":1255," יל":1256,"es":1257," יכולים":1258," תק":1259,"at":1260," להם":1261,"שהו":1262,"יך":1263," M":1264,"גע":1265," וח":1266," יד":1267," אין":1268,"נצ":1269," העולם":1270,"רד":1271,"הא":1272," זמן":1273,"הה":1274,"ימים":1275," ות":1276," במק":1277," חלק":1278," מז":1279," היום":1280,"בק":1281,"ורות":1282," T":1283," שק":1284," אותם":1285,"וות":1286," מיל":1287," כול":1288," נש":1289,"הים":1290,"כשיו":1291,"אנחנו":1292,"וכל":1293,"רס":1294," הייתה":1295,"גד":1296," למש":1297,"דיין":1298,"עי":1299," לכל":1300," במה":1301,"חי":1302,"בט":1303,"היא":1304,"שוט":1305," ולה":1306," אנו":1307,"לית":1308," איש":1309," שאני":1310," שלכם":1311,"בש":1312," יהיה":1313," חוש":1314,"ומי":1315,"יבות":1316,"פש":1317,"ורי":1318,"רכת":1319," אתם":1320,"פע":1321,"תיים":1322," אחרים":1323," P":1324," כש":1325," קט":1326,"צב":1327,"שונה":1328,"צר":1329," כאשר":1330," מתח":1331," בל":1332,"דינה":1333," שהם":1334,"רץ":1335,"ינים":1336," מט":1337," '":1338,"ופה":1339,"ידה":1340,"רכז":1341,"פור":1342," המע":1343,"ניים":1344," תה":1345,"כנס":1346,"ודה":1347,"he":1348," הנו":1349," הרו":1350," פעם":1351,"ונה":1352," אחרי":1353," הל":1354," יום":1355,"ישראל":1356," אותה":1357," המח":1358,"יוחד":1359,"ובה":1360,"ומים":1361,"דת":1362," לל":1363,"וחות":1364," בנו":1365," כן":1366,"גל":1367,"יפה":1368,"יז":1369,"פס":1370,"אתם":1371," נע":1372," לט":1373," שנה":1374," למע":1375," מוצ":1376," כאן":1377," בז":1378,"לום":1379," B":1380," יח":1381," בית":1382,"דש":1383," בעולם":1384,"ניין":1385,"אמ":1386,"אין":1387,"\"ה":1388," בי":1389," נמצ":1390,"קט":1391," האמ":1392," הגדול":1393," רבים":1394," ברי":1395,"10":1396," משהו":1397," מספ":1398,"\"ב":1399,"פתח":1400,"רונות":1401,"וץ":1402,"),":1403," אפשר":1404," יע":1405," חז":1406," לכם":1407," מספר":1408,"ic":1409," תמיד":1410," משת":1411,"יפור":1412," חשוב":1413,"בוע":1414,"מעות":1415," תח":1416," שת":1417," נה":1418," נק":1419,"מח":1420," אלא":1421,"רום":1422," אומר":1423," עדיין":1424," באמצ":1425," רצ":1426," חש":1427,"ינה":1428,"טה":1429,"ביר":1430," ללא":1431,"ימוש":1432," לראות":1433," שכ":1434," שח":1435,"it":1436," התק":1437," ניתן":1438,"ריך":1439," עוב":1440,"קת":1441,"הש":1442,"ומות":1443,"ודים":1444,"יבור":1445," פשוט":1446,"גים":1447," איך":1448,"רגיש":1449," דרך":1450,"סה":1451,"הח":1452,"ילדים":1453,"צות":1454," הראשון":1455,"ומה":1456,"הב":1457," באמת":1458,"מונה":1459,"מל":1460," D":1461," שאתה":1462," אותי":1463," להב":1464," נוספ":1465,"מנו":1466,"הת":1467,"שית":1468,"לפ":1469," להשת":1470,"ירת":1471," I":1472,"לל":1473,"פרי":1474,"ציה":1475,"וך":1476,"ליך":1477,"ודות":1478,"איך":1479,"לם":1480,"ודי":1481," להצ":1482," W":1483," עשו":1484," לכ":1485," שזה":1486,"ברית":1487,"ביב":1488,"מוק":1489," פי":1490," הזמן":1491,"מעט":1492,"ביל":1493,"ולות":1494," ואת":1495," חיים":1496," השני":1497," המס":1498,"ברות":1499," הול":1500,"רבות":1501,"st":1502,"מור":1503," משפ":1504," בתח":1505," בבית":1506,"יפול":1507," התי":1508," האדם":1509,"גה":1510," אף":1511,"נש":1512,"יצד":1513,"אנו":1514,"18":1515,"le":1516," הספר":1517,"יסטור":1518,"שם":1519," חייב":1520," רי":1521," יודע":1522," H":1523," וכ":1524,"אן":1525," נפ":1526," בשנת":1527," הן":1528,"כנית":1529,"רמ":1530," תש":1531," המת":1532," כת":1533,"יצור":1534," מוכ":1535,"יקר":1536," נח":1537," גבו":1538,"טרנט":1539,"ייה":1540," החיים":1541,"ריות":1542,"כר":1543,"ou":1544,"ונות":1545," לקבל":1546," רג":1547,"צוע":1548,"הע":1549," אינו":1550,"צי":1551,"וליט":1552," G":1553,"קו":1554," באמצעות":1555," L":1556," מקום":1557," כלל":1558,"ימות":1559,"re":1560," שהיא":1561,"דור":1562,"טרה":1563,"פא":1564," היתה":1565," למצ":1566,"חון":1567,"מס":1568," רח":1569,"רכים":1570,"ודש":1571,"למה":1572,"מין":1573,"תוצ":1574,"יטה":1575," אפילו":1576,"צמ":1577,"רע":1578,"גור":1579,"ישהו":1580," תע":1581,"ברו":1582," אומ":1583,"ואה":1584," מלא":1585," היח":1586,"לסט":1587," R":1588,"רצות":1589," שי":1590,"יעים":1591," הופ":1592,"ימת":1593," [":1594," צריכים":1595," חוק":1596," עצמ":1597," מסו":1598," הראשונה":1599,"יוק":1600," מוד":1601," הרג":1602,"ובן":1603,"om":1604," בדרך":1605,"זר":1606,"ותו":1607," האלה":1608," יכולה":1609," להש":1610," דברים":1611," התח":1612," רע":1613," מן":1614," קור":1615," F":1616,"זרח":1617,"נע":1618,"בס":1619,"ינוי":1620,"\"ל":1621," לז":1622," חדש":1623,"קי":1624," במהלך":1625,"ינלא":1626," שבה":1627,"]\n":1628," ארו":1629,"15":1630," מוס":1631," שוב":1632,"יוון":1633," אנ":1634,"בית":1635,"טו":1636," עכשיו":1637," E":1638,"תם":1639," מסוג":1640,"ברס":1641,"לד":1642," קשה":1643," נגד":1644,"משך":1645," הדי":1646," הכי":1647,"לבד":1648," בן":1649," תוכ":1650," פחות":1651," רב":1652,"פקיד":1653," .\n":1654,"הס":1655,"חור":1656,"תר":1657,"מון":1658," למה":1659,"is":1660," רוצים":1661," t":1662," כמ":1663," יוצ":1664,"גו":1665," בלי":1666," אס":1667,"תוח":1668,"?\"\n":1669," אית":1670," סוג":1671,"קד":1672," מכל":1673,"כנולוג":1674,"נוע":1675,"לחמה":1676,"צל":1677,"יעו":1678,"ליה":1679,"ורג":1680," סט":1681," המא":1682,"ריים":1683,"יניים":1684," עצמו":1685," מוש":1686," אלי":1687," כשה":1688,"ישי":1689,"במ":1690," דול":1691,"ion":1692,"עו":1693," שש":1694,"וסט":1695,"ומת":1696,"ליים":1697," הלא":1698,"הי":1699,"קס":1700,"ילת":1701," הזו":1702,"ילד":1703," גור":1704,"כב":1705," משמעות":1706,",\n":1707," היש":1708," מהם":1709," פני":1710," עושה":1711," אותך":1712,"נא":1713," עסק":1714," קרו":1715," “":1716,"קש":1717,"ניס":1718," הברית":1719," מיליון":1720,"el":1721," ילדים":1722,"000":1723," נראה":1724," צע":1725," האם":1726," אירו":1727," מל":1728,"ro":1729," אלוהים":1730," התע":1731,"קל":1732,"ומית":1733,"יוני":1734,"כמו":1735,"חקר":1736,"ing":1737,"199":1738,"תונים":1739," מידע":1740,"תיד":1741," שונים":1742," הטוב":1743,"אח":1744,"נון":1745," ספר":1746,"חלט":1747," כמעט":1748,"ודם":1749," למצוא":1750," רבות":1751," המצ":1752,"יחס":1753," בלתי":1754," סי":1755," במשך":1756," להע":1757,"כמה":1758,"נם":1759,"נן":1760," המדינה":1761," החברה":1762,"שתי":1763," השת":1764,"דובר":1765,"12":1766," מנה":1767,"יאות":1768,"מפ":1769," נת":1770,"בנו":1771,"ידי":1772," עבודה":1773," N":1774,"30":1775,"ינטרנט":1776,"ואר":1777," במקום":1778,"משלה":1779,"רגון":1780,"et":1781," הרי":1782,"דבר":1783," לדעת":1784,"מנות":1785,"הפ":1786," הזאת":1787,"כאשר":1788,"לאחר":1789," להשתמש":1790," שתי":1791," בתוך":1792,"בול":1793," לכך":1794,"אלה":1795," כולל":1796,"לוט":1797,"כויות":1798,"וחר":1799,"ינג":1800," מוע":1801," ספ":1802,"of":1803,"רש":1804," קבו":1805," שום":1806,"רגע":1807," אה":1808,"ליט":1809,"רטים":1810," במו":1811," יודעים":1812,"למיד":1813," אד":1814,"זק":1815," ברח":1816,"רונה":1817,"\"אני":1818,"דינות":1819," מאז":1820,"גות":1821," להח":1822," מבו":1823,"ינת":1824," O":1825," הייתי":1826," תהיה":1827," פרו":1828,"ראש":1829," חושב":1830,"גת":1831," בשביל":1832," בטוח":1833," בדיוק":1834," חס":1835," בצורה":1836,"טח":1837," אחרת":1838,"שרים":1839,"ac":1840,"זאת":1841," כפי":1842,"כור":1843,"אתר":1844," להתח":1845,"רבים":1846,"il":1847," בהם":1848," בזמן":1849," כזה":1850," עליו":1851,"ייתי":1852," אש":1853,"יבים":1854,"\"א":1855," ביט":1856,"רוש":1857,"ריה":1858," כה":1859," ית":1860,"משיך":1861,"זרה":1862,"כתב":1863," במיוחד":1864,"יסטוריה":1865," וס":1866," נכון":1867," העבודה":1868," לגבי":1869,"פחה":1870,"ורק":1871," במח":1872,"פוך":1873,"ריקה":1874,"משים":1875," בעלי":1876," ופ":1877,"גש":1878," לעצ":1879,"כונה":1880," מספיק":1881,"יף":1882," קי":1883," מאשר":1884," משחק":1885,"ol":1886,"נסה":1887," וק":1888," השנה":1889," דולר":1890,"ed":1891," שאנחנו":1892," טובה":1893," במע":1894," הלי":1895," בהת":1896,"ולד":1897," העיר":1898," להכ":1899," הברי":1900,"ער":1901," האמריק":1902," יק":1903,"רוא":1904,"אפשר":1905,"ליח":1906,"וקים":1907," מנת":1908," ביום":1909," נס":1910,"ופי":1911," ביק":1912,"מוך":1913," בלבד":1914," אותנו":1915," בגלל":1916," ונ":1917,"יכ":1918," אור":1919," להגיע":1920," קצת":1921," יחד":1922,"ינם":1923,"ודשים":1924," הדברים":1925,"50":1926,"גרים":1927," רש":1928," הדבר":1929," קל":1930," מור":1931," ניס":1932," מתוך":1933," הוד":1934," להבין":1935,"גיע":1936," שאתם":1937,"מיים":1938," הני":1939,"am":1940," עומ":1941," לפע":1942," והוא":1943,"אך":1944," התו":1945,"מינים":1946,"הו":1947,"ובות":1948," שעות":1949," נא":1950," אינם":1951," ימים":1952," ,":1953," לזה":1954,"שרה":1955," בישראל":1956," מופ":1957," החד":1958,"יין":1959,"יבל":1960,"רפ":1961,"ותה":1962,"”\n":1963,"17":1964," מוג":1965," מכן":1966," ההת":1967,"כולם":1968,"סטר":1969," אחרות":1970,"ספק":1971,"הק":1972,"ימה":1973,"למ":1974," וגם":1975,"יאה":1976," אולי":1977," מוז":1978," להס":1979," טבע":1980," שירות":1981," הור":1982,"לכן":1983," כסף":1984," נמצא":1985," הו":1986,"16":1987," מתק":1988,"oo":1989," שמע":1990,"רגיה":1991,"סם":1992,"עוד":1993," חופ":1994," אוה":1995,"דל":1996," אוכל":1997," ומש":1998,"רכות":1999," כולם":2000," אב":2001," לפחות":2002," אינה":2003,"ch":2004," תוך":2005,"שימה":2006," עושים":2007," האירו":2008,"מרות":2009,"שובה":2010," המשפט":2011,"as":2012,"יטת":2013," הללו":2014," מקבל":2015," למו":2016,"כח":2017," השל":2018," הבית":2019,"ואי":2020,"11":2021," דו":2022," הביט":2023,"וקה":2024,"and":2025," מערכת":2026," חברת":2027," לקחת":2028," ואני":2029," פת":2030,"מונות":2031," כיצד":2032,"במק":2033,"זיה":2034," מיו":2035,"יקט":2036,"סיה":2037," הארץ":2038,"מט":2039,"יחוד":2040," נשים":2041," לעבוד":2042,"רבית":2043," תוכל":2044," לתת":2045,"לון":2046," שהיה":2047,"ופו":2048," קש":2049," המט":2050," רוב":2051,"הצ":2052,"כס":2053,"ינוך":2054," ללמוד":2055," מזה":2056," לדבר":2057," הספ":2058," הפע":2059," ידע":2060,"של":2061,"אולי":2062,"חלק":2063," שיע":2064," בדי":2065," במס":2066," ועל":2067," of":2068," מרו":2069,"ילי":2070,"נתי":2071,"רפת":2072," פר":2073,"יתוח":2074,"דע":2075,"צרים":2076,"פון":2077," שימוש":2078," הדרך":2079,"תוצאה":2080,"אב":2081,"לע":2082," /":2083," לעזור":2084,"יבי":2085," ראש":2086," החוק":2087,"יונות":2088,"'.\n":2089,"נראה":2090," נות":2091,"קב":2092," וזה":2093," נשא":2094,"זון":2095,"צריך":2096," מרגיש":2097," האנו":2098,"כתוב":2099," נג":2100,"גון":2101," גדולה":2102," מול":2103,"שבון":2104,"14":2105," לומר":2106," בעצ":2107,"ידים":2108," האנשים":2109," וג":2110,"נהל":2111," המוצ":2112,"לוהים":2113,"13":2114,"ורט":2115," דקות":2116,"יסט":2117," אפש":2118,"הג":2119,"תים":2120," הראשו":2121," ארב":2122," פעמים":2123,"ent":2124," קרי":2125," מעל":2126," החלט":2127," הלב":2128," מתו":2129," השנים":2130," נוסף":2131," בתי":2132," פה":2133,"רכה":2134," קול":2135," הממשלה":2136,"וסר":2137,"ad":2138,"נטים":2139," האחרון":2140," חיו":2141," ליצור":2142," מישהו":2143,"דק":2144," לפי":2145," מחדש":2146," תא":2147," רואה":2148,"ay":2149," לעולם":2150," הכול":2151," פרי":2152," הבא":2153,"רם":2154," בתו":2155," שלוש":2156,"ומיים":2157," לבד":2158," שכל":2159," הנש":2160,"לחה":2161,"פילו":2162," בפני":2163,"ופים":2164," מצב":2165,"כלה":2166," קרובות":2167," פרט":2168,"זיק":2169," סיפ":2170," מוק":2171," שנות":2172," החל":2173," גבוה":2174,"כונות":2175," עש":2176," קשר":2177,"יעות":2178,"בוא":2179," אופ":2180,"בנוסף":2181," נוספים":2182," העוב":2183," מקצוע":2184,"ויות":2185," מתי":2186," חדשים":2187," תג":2188,"וביל":2189," צריכה":2190,"הול":2191,"ינויים":2192," יהיו":2193,"גרת":2194,"נגלית":2195,"\"מ":2196,"וניברס":2197,"ינית":2198,"ראו":2199," סוף":2200," תחת":2201,"וריה":2202," ילד":2203," חמ":2204," שהת":2205," פעולה":2206," ביצ":2207,"מרי":2208," כוח":2209,"ומרים":2210," לר":2211," בכלל":2212," הקט":2213,"100":2214," לבית":2215," אזרח":2216," חודשים":2217,"שיג":2218,"ונג":2219,"לוח":2220," בעיקר":2221," וד":2222," שאין":2223," מעט":2224," זק":2225," בתחום":2226,"המש":2227," מסת":2228," שונות":2229," צורך":2230,"סון":2231," הבע":2232," להפ":2233," חבר":2234,"ow":2235,"כדי":2236,"בוצה":2237," גיל":2238,"ועל":2239," ספק":2240,"מיכה":2241,"בנה":2242," הפלסט":2243,"וגמה":2244," ברו":2245,"\"ח":2246,"בכל":2247," רפ":2248,"iv":2249,"דמנות":2250,"ig":2251,"בלת":2252," כאלה":2253," שמו":2254,"יחות":2255,"יסה":2256," ומת":2257,"ימי":2258," הבינלא":2259," חל":2260,"אלי":2261," החדש":2262,"יחד":2263," The":2264," אוהב":2265," מיוחד":2266," סרט":2267,"שרת":2268,"מנים":2269,"ופת":2270," אצל":2271,"198":2272,"מתי":2273," קורה":2274,"לקט":2275,"זם":2276," בעל":2277," ברחבי":2278,"ot":2279," השפ":2280," שפ":2281," ומע":2282,"”.\n":2283," סביב":2284,"ינט":2285,"ראי":2286," קטן":2287," הרכ":2288," כגון":2289," פרס":2290," רוח":2291," שנת":2292," רכ":2293,"סוף":2294,"נטי":2295," מדינות":2296,"ביבה":2297,"דרה":2298," ומו":2299," בסיס":2300," חדשה":2301," שמש":2302,"וכר":2303," כיום":2304," המשחק":2305," הגוף":2306," הילדים":2307," באתר":2308,"זהו":2309,"זכ":2310," בשל":2311,"היה":2312," שונה":2313," והת":2314,"לחמת":2315," ללכת":2316,"עש":2317,"למידים":2318," וי":2319," תוצ":2320," עובד":2321,"לווי":2322,"קור":2323," מים":2324," בכך":2325,"25":2326,"id":2327,"למרות":2328," V":2329,"ישים":2330,"אנשים":2331," פוליט":2332," העסק":2333," מוח":2334,"סיק":2335," מרכז":2336," לתק":2337," ומה":2338,"ורר":2339,"נסות":2340,"וויר":2341,"us":2342,"טוב":2343," ארה":2344," עצמי":2345," וכל":2346," המוד":2347,"בוקר":2348," הרצ":2349,"כולת":2350," לנ":2351,"אמר":2352," לאח":2353," לשמור":2354,"לתי":2355," האד":2356,"ווים":2357,"וציא":2358,"194":2359," U":2360,"בין":2361,"גן":2362,"יץ":2363," אחוז":2364,"בשנת":2365," מר":2366,"הל":2367," ?\n":2368," להשיג":2369,"מצא":2370,"רויות":2371,"…\n":2372," מפני":2373,"197":2374," ממנו":2375," ברור":2376,"קבות":2377," למח":2378,"צו":2379,"לוטין":2380,"ישאר":2381,"אף":2382," קר":2383,"רטיס":2384,"ביא":2385," להפוך":2386,"40":2387," והח":2388,"סל":2389," מבט":2390,"מוקרט":2391,"שני":2392," לקרוא":2393," מהמ":2394,"יטב":2395,"רכו":2396,"ודת":2397," לחלוטין":2398,"...":2399,"יצוב":2400,"כנולוגיה":2401," להי":2402," לשנות":2403," שלושה":2404," ידוע":2405," the":2406,"אית":2407," תפ":2408,"מוש":2409," מו":2410," לבין":2411,"שורת":2412," שבע":2413,"יצר":2414,"ישות":2415,"ניק":2416,"כלו":2417,"יקום":2418,"סית":2419,"בוק":2420," שנו":2421," שיו":2422,"רוע":2423," תרו":2424,"ודית":2425,"שרות":2426,"ation":2427,"זל":2428,"דיר":2429," למק":2430," לבצע":2431,"כני":2432," מומ":2433," הטבע":2434," שאנו":2435," טובים":2436," שג":2437,"רחב":2438,"אס":2439,"טרות":2440," האל":2441," המוע":2442," העל":2443," נור":2444," משום":2445,"יפות":2446,"עכשיו":2447,"יראן":2448,"\"ר":2449," מכו":2450," לאורך":2451," האיש":2452," ככל":2453," מאפשר":2454,"ag":2455,"ציות":2456,"פרס":2457," כמובן":2458,"וסיף":2459," תלו":2460,"וסים":2461," לחשוב":2462," בעוד":2463,"אג":2464,"דאי":2465," הבח":2466,"בן":2467," באזור":2468,"זמן":2469,"לפי":2470," ובע":2471," ההש":2472,"לפני":2473," קודם":2474,"196":2475,"מודד":2476," בקרב":2477,";\n":2478," להתק":2479," בתק":2480," פור":2481," חיי":2482," כדור":2483,"יהיה":2484," אמרה":2485," אתכם":2486," אליו":2487," גל":2488," סימ":2489," בחיים":2490," יוכל":2491,"ut":2492,"אט":2493,"ופר":2494," הולך":2495,"מוע":2496," נכנס":2497,"לפון":2498,"תף":2499,"ולט":2500,"יחה":2501,"כנה":2502," לחיות":2503," בנ":2504,"ur":2505,"כיצד":2506,"רבי":2507,"שאלה":2508,"וון":2509,".[":2510,"מנה":2511,"ראת":2512," עובדים":2513," מאד":2514," בשם":2515,"אחרי":2516,"נועה":2517," האחרונות":2518," מיד":2519,"דרת":2520,"ויים":2521,"רופ":2522," השנייה":2523," ויש":2524,"נאי":2525," לוק":2526," טיפ":2527," עשוי":2528," ארצות":2529," משנה":2530," בשנה":2531,"דן":2532,"רחק":2533,"נאים":2534," הגיע":2535,"זרת":2536," רבה":2537," החש":2538," באותו":2539," הסרט":2540,"נגד":2541," גבוהה":2542,"לוויזיה":2543,"מכ":2544," הנה":2545," מגיע":2546,"כאן":2547," המרכז":2548," זכויות":2549,"בחר":2550,"וזה":2551," עלי":2552,"וחים":2553," נצ":2554,"הליך":2555," ועד":2556,"טרי":2557," In":2558,"יתים":2559,"טג":2560,"וזר":2561,"ולח":2562,"לקוחות":2563," האמת":2564," הציבור":2565," דור":2566," רואים":2567," נוספת":2568,"שבים":2569," בידי":2570," חברות":2571,"כלי":2572,"קשה":2573," מדובר":2574," בעיר":2575,"'י":2576," יורק":2577," לימ":2578,"',":2579,"ir":2580,"ובת":2581," כתב":2582," עבוד":2583,"סיס":2584," מחקר":2585," שמת":2586," בינלא":2587," ולכן":2588," מעור":2589," מנו":2590,"עתי":2591,"בני":2592,"ראים":2593,"פעמים":2594,"יפוש":2595," כח":2596," המצב":2597,"ירוש":2598,"-א":2599,"יהן":2600,"ובי":2601,"לוו":2602," עצמה":2603," אמריק":2604," להסת":2605,"מהלך":2606," שומ":2607,"פתחות":2608,"60":2609," תצ":2610," האו":2611,"משל":2612,"טל":2613," פעילות":2614," עצמם":2615," הגדולה":2616,"רוג":2617," תת":2618,"וצה":2619,"הילה":2620," להתחיל":2621," הרב":2622," המשת":2623," בעיות":2624," למשל":2625," קו":2626,"נצח":2627," פלסט":2628," משפט":2629," לחזור":2630," המשפחה":2631,"ניח":2632,"מדה":2633," הקש":2634,"יוע":2635," ...\n":2636,"ירי":2637," J":2638,"טון":2639," ברצ":2640,"ter":2641,"אחד":2642," ליד":2643,"ראלי":2644," לעתים":2645," אומרת":2646,"בלו":2647,"סר":2648," שט":2649,"תוצאות":2650," עליהם":2651,"מנויות":2652," בספ":2653,"מך":2654," חדשות":2655,"בריו":2656,"נר":2657," לרו":2658," והש":2659," לגרום":2660," אכ":2661," מוב":2662,"ודנטים":2663,"קול":2664," שינוי":2665," מעבר":2666," בנושא":2667,"im":2668,"24":2669,"ציפ":2670," משק":2671,"בלות":2672," להמשיך":2673," קרה":2674," בגיל":2675," לתוך":2676," שית":2677," משר":2678," ביני":2679," St":2680,"יאון":2681," והיא":2682," מבין":2683,"רקע":2684," מאח":2685,"עבור":2686," דומה":2687," העיק":2688," בריאות":2689," מהר":2690,"הד":2691,"נדר":2692," לבחור":2693,"וכן":2694," העול":2695,"un":2696," שר":2697," המידע":2698," והמ":2699,"סס":2700,"um":2701," מדוע":2702,"ופול":2703,"ועים":2704,"פג":2705," תפקיד":2706," מרג":2707," קלי":2708," בעיה":2709," הגבו":2710,"זע":2711," משתמשים":2712," הפר":2713,"ופות":2714,"ec":2715," תיא":2716,"ידו":2717," והא":2718," למרות":2719," p":2720," s":2721,"ובל":2722,"כשה":2723,"ואל":2724," יהודים":2725," אומרים":2726,"ווח":2727,"ייס":2728," כפ":2729,"ניברס":2730," מחוץ":2731," מדינה":2732," דיו":2733,"הוב":2734," וט":2735," כאילו":2736," פג":2737,"כוי":2738,"למע":2739," כלפי":2740," לגמרי":2741,"שע":2742," f":2743," ואז":2744," למעשה":2745,"בורה":2746,"טניה":2747," מות":2748,"פסיק":2749,"ינות":2750," בעבר":2751," העצ":2752," :":2753,"ולת":2754," טע":2755,"מדוע":2756," החדשה":2757," טיפול":2758," אותן":2759," ניצ":2760,"שוא":2761," לשחק":2762,"יגה":2763,"רמניה":2764," שס":2765,"מודים":2766,"דיף":2767,"ידות":2768," פל":2769," חייבים":2770," הסי":2771," מקור":2772,"שאים":2773," אג":2774," בזה":2775," והם":2776," והע":2777," הרע":2778,"בטיח":2779," יפה":2780,"וקר":2781," שבוע":2782," באירו":2783,"הנה":2784," שמח":2785," מבי":2786," הרפ":2787," בסדר":2788," המג":2789," חברים":2790," שהח":2791,"קרים":2792," בארה":2793," לרא":2794," האחרונה":2795,"\"י":2796,"שבות":2797," ראשון":2798," נמצאים":2799," וצ":2800,"יפים":2801,"ודל":2802,"דיניות":2803,",\"":2804," ברא":2805,"נרגיה":2806," מאת":2807," כלי":2808," יס":2809," קצר":2810," הצד":2811,"רחש":2812," אצ":2813," בארץ":2814,"ולוגיה":2815,"ליק":2816,"טית":2817,"מול":2818,"יבית":2819,"בלתי":2820,"יגים":2821,"נוק":2822," נתונים":2823," בהחלט":2824,"מיות":2825," לספק":2826,"משת":2827," הילד":2828," המכ":2829," לאנשים":2830," מיליא":2831," שיכול":2832," הצע":2833," K":2834,"לול":2835," המוס":2836," חול":2837," באי":2838," מתחיל":2839," c":2840,"em":2841,"וקא":2842," לצאת":2843," הרוח":2844," d":2845,"אור":2846," למען":2847," שחק":2848,"נהגות":2849,"תג":2850,"נדון":2851," להביא":2852," למנוע":2853," להתמודד":2854,"הבה":2855," קיים":2856," הוצ":2857," צי":2858," מאות":2859,"היום":2860,"מלי":2861," גר":2862," שעל":2863," עולם":2864," עלינו":2865,"יבת":2866," בעת":2867,"ריז":2868," העם":2869,"-ידי":2870," שות":2871," אהבה":2872,"כום":2873,"רוצים":2874," מהע":2875,"נציא":2876," פול":2877," הבאה":2878," לרכ":2879,"מבר":2880,"חרות":2881," אלף":2882," כנראה":2883," נעשה":2884,"מובן":2885,"סייע":2886,"לס":2887," בלו":2888," כעת":2889,"בלה":2890,"כלית":2891,"oc":2892," היטב":2893," המאה":2894," האינטרנט":2895,"ראמפ":2896," סיפור":2897,"!\"\n":2898,"בצע":2899," גברים":2900," התא":2901," הבריאות":2902,"רוך":2903,"יקים":2904,"ווי":2905,"בתי":2906,"נסים":2907," מהח":2908,"רושלים":2909,"ואז":2910," התג":2911,"מוצע":2912,"].\n":2913,"פשרות":2914," לכתוב":2915," מנסה":2916," שהיו":2917," איכות":2918," הנח":2919," קיבל":2920," יודעת":2921,"לג":2922," אישי":2923," באינטרנט":2924," משא":2925,"195":2926,"os":2927," תוכנית":2928," ערך":2929,"הט":2930," עמו":2931," והפ":2932," מכך":2933," המל":2934," מעולם":2935,"באי":2936,"המו":2937," המה":2938," להגיד":2939,"אולם":2940,"במהלך":2941," המלחמה":2942," מאוחר":2943,"ורד":2944," המוש":2945," נוס":2946,"רונים":2947," לפג":2948,"ers":2949," לאכול":2950," השק":2951," ממה":2952,"ליטה":2953," דא":2954,"יצוני":2955,"וטנציא":2956," מדע":2957," and":2958,"שבתי":2959,"\"כ":2960," ולע":2961," המקום":2962,"ra":2963," שנע":2964," ארג":2965," הביתה":2966," לשא":2967," משות":2968," טוע":2969," יכולות":2970," המחקר":2971," קיב":2972," הפס":2973," איזה":2974," ולח":2975," ועוד":2976," מסוימים":2977,"הכ":2978,"ess":2979,"כונים":2980," ולש":2981,"עלות":2982,"פורט":2983,"ובע":2984,"פוי":2985," צבע":2986," היע":2987,"ופט":2988," טר":2989," מתע":2990," מתחת":2991," בהתאם":2992," אנשי":2993,"אק":2994,"פח":2995," כב":2996,"רוס":2997," חוו":2998," להק":2999," עניין":3000,"ביע":3001,"לנד":3002,"מם":3003," וכן":3004,"מאז":3005," במהירות":3006," עשה":3007," יג":3008,"ישית":3009,"\"זה":3010," מחו":3011," לקנות":3012,"זים":3013,"ודעה":3014," עשויים":3015,"יתר":3016," לעצמ":3017,"בעה":3018," אינט":3019,"נתה":3020," ההג":3021," מזון":3022," היד":3023," שוק":3024," האי":3025,"ייתה":3026," בסוף":3027," הראשונים":3028,"יטות":3029," היהודים":3030," m":3031," יית":3032," ייש":3033,"ראית":3034," צבא":3035," היחידה":3036," עסקים":3037," Y":3038,"נדה":3039," המד":3040," תהליך":3041,"80":3042,"אמין":3043," למד":3044," היחיד":3045," מדו":3046," להרגיש":3047," באותה":3048," מני":3049," שהע":3050," לעבור":3051," ליה":3052,"ריון":3053," מהש":3054," משפחה":3055,"לקטרו":3056,"21":3057,"טות":3058," חברה":3059,"ואם":3060," מדה":3061," חושבים":3062," המוח":3063,"שבה":3064," כוחות":3065," תרבות":3066," רגע":3067,"גוד":3068," לפת":3069," עליך":3070," הפך":3071,"דיו":3072,"רוק":3073,"זוהי":3074,"..\n":3075,"חוק":3076,"בום":3077," הפוליט":3078,"ab":3079,"ראלים":3080," בינו":3081," מסוגל":3082," קצ":3083,"תחיל":3084," לבנות":3085," להיכנס":3086,"-ה":3087," דרכים":3088," b":3089,"ישור":3090,"בלים":3091," התעופה":3092," תוכלו":3093," הרח":3094," מלחמת":3095," עולה":3096," ההצ":3097," אמית":3098,"מיה":3099," כמות":3100," לשם":3101,"טרף":3102,"עיף":3103,"צמבר":3104," מיני":3105," מאמין":3106,"נדי":3107," שלום":3108," להישאר":3109," מתכו":3110," נמ":3111," עליה":3112,"ניהול":3113," הביטחון":3114,"כולנו":3115,"תמיד":3116,"נייה":3117,"מצב":3118,"\"ש":3119," השימוש":3120," הרש":3121," משתמש":3122,"th":3123," שהמ":3124,"זב":3125," פרק":3126," גישה":3127," הנס":3128," תכ":3129," גדולים":3130," הבט":3131," הזדמנות":3132,"ונית":3133,"הייתי":3134,"נויות":3135," זוג":3136," עק":3137," במדינה":3138," מיליארד":3139,"יינו":3140," תומ":3141,"ליחה":3142," הצבא":3143,"70":3144,"ברתי":3145,"נקים":3146," קטנה":3147,"דמות":3148," ואח":3149," להגן":3150," אק":3151," מדברים":3152,"פן":3153,"ילום":3154," מסוים":3155," אירופה":3156," שאת":3157," עור":3158,"ia":3159,"פוס":3160," שיח":3161," תוש":3162,"רוח":3163," האינ":3164," ביחד":3165," המוז":3166," נמו":3167,"ליטים":3168," לשלם":3169,"רוץ":3170,"אום":3171," האתר":3172," חודש":3173," הפרט":3174," אמיתי":3175," אוהבים":3176,"ושר":3177,"ישון":3178," השבוע":3179,"ce":3180," ארגון":3181," פוע":3182,"שייה":3183,"צית":3184," נד":3185," קרוב":3186,"שאר":3187,"במבר":3188,"22":3189,"זרו":3190,"ריכה":3191," האלו":3192," העתי":3193," ההז":3194," ממשלת":3195,".”\n":3196," לנסות":3197," חק":3198,"ספים":3199," משמעותי":3200," עומד":3201,"op":3202,"אלו":3203,"זיר":3204,"שויות":3205," אפשרי":3206,"סור":3207,"תן":3208,"ניינים":3209," המדינות":3210," האור":3211," סג":3212,"פיע":3213," מקרה":3214," מדבר":3215,"ארק":3216,"ומו":3217,"לוש":3218," אמריקה":3219," למעלה":3220," גורם":3221," אוב":3222," רשת":3223," הפעם":3224," מבח":3225," w":3226,"פיה":3227,"ובים":3228," סיבה":3229," לראשונה":3230,"מקום":3231," ויותר":3232,"רויקט":3233," היינו":3234," דם":3235," שהא":3236," ציבור":3237,"טא":3238,"רית":3239," פנים":3240," דין":3241," קוד":3242," הדין":3243," להימ":3244," פס":3245,"ומיות":3246," הבאים":3247,"כשיר":3248,"למים":3249," לילדים":3250," מדינת":3251," שבועות":3252,"חית":3253," כדאי":3254," במצב":3255," מאמינים":3256," המים":3257," שאלות":3258," עצמך":3259," האוויר":3260," הכנס":3261," הנתונים":3262,"נשיא":3263," אתר":3264," זוכ":3265," חזק":3266," הנשיא":3267,"למעשה":3268," לתח":3269," השם":3270," הטובה":3271," תופ":3272," בעקבות":3273,"\"לא":3274," שרי":3275," נדר":3276,"לושה":3277,"תחלה":3278," היהודי":3279," נוספות":3280,"פול":3281,"שיים":3282," בוד":3283,"חרת":3284," מנ":3285," ובה":3286," האש":3287,"לחת":3288," בנוגע":3289,"בולות":3290,"גיט":3291," חוסר":3292," צד":3293,"מידה":3294," איתו":3295,"ul":3296,"הר":3297,"עבר":3298,"פחות":3299,"צא":3300,"תונה":3301,"וחה":3302," הקרו":3303," בארצות":3304," טי":3305,"פשים":3306," שיהיה":3307," מוצרים":3308,"ri":3309," זמ":3310," לשמוע":3311," תקופה":3312,"23":3313,"חדים":3314,"פני":3315," אישה":3316," לעומת":3317," קטנים":3318," שבהם":3319," עול":3320," עיר":3321,"פרק":3322," ממשי":3323,"ov":3324," הוכ":3325," ככה":3326," לקוחות":3327,"ירותים":3328,"\"ם":3329," האוכל":3330,"יכרון":3331,"'\n":3332,"יקטים":3333," החולים":3334," לחץ":3335,"ובר":3336," לתו":3337," שצריך":3338,"ומד":3339," החשוב":3340," אישית":3341," הוק":3342," ולק":3343,"טרור":3344," הנוכ":3345," כללי":3346," התפ":3347,"רגל":3348," מבלי":3349," in":3350,"כתי":3351," כות":3352," ירושלים":3353," נט":3354," ממנה":3355," במקרה":3356," כרטיס":3357," הקרי":3358," לוח":3359," שנק":3360," שווה":3361,"ודו":3362," להז":3363,"מינה":3364," בתור":3365," מלאה":3366," הכו":3367,"ידת":3368," הסיבה":3369," בעצם":3370,"פעם":3371," שאלה":3372," בהן":3373," מדיניות":3374," יוצא":3375,"igh":3376,"הן":3377," תי":3378,"ומדים":3379,"ידן":3380,"ועה":3381," הקור":3382," הבעיה":3383,"ייך":3384," רחב":3385," לפעול":3386," אולם":3387," השאלה":3388," זכות":3389," האחרונים":3390," מוכן":3391,"היו":3392,"עון":3393," לספר":3394," לנק":3395," ניסיון":3396,"זית":3397," רכב":3398," דעת":3399," צפו":3400," הבינלאומי":3401,"דון":3402," שהצ":3403,"ap":3404," לישראל":3405," שהש":3406," ניהול":3407," אנג":3408," חברי":3409,"ליף":3410," בשבוע":3411,"בעות":3412," כזו":3413," הטיפול":3414," איראן":3415,"ילוב":3416," מערכות":3417," מצד":3418,"ולחן":3419," אלפי":3420," אנרגיה":3421," תוצאות":3422," באירופה":3423,"תית":3424," הלו":3425," צוות":3426,"כנן":3427,"ne":3428,"זוב":3429," כוכ":3430," מהא":3431,"לין":3432," לעמוד":3433,"מאס":3434," דווקא":3435," המלא":3436," לשפר":3437," שצ":3438," תמונות":3439," יהודי":3440," שבא":3441," שגם":3442,"לונות":3443,"איזה":3444,"סיכול":3445,"בג":3446," הים":3447,"תייחס":3448," הכסף":3449," —":3450,"The":3451,"חם":3452,"לפעמים":3453," עבר":3454," ערב":3455," האזרח":3456," הגיעו":3457," התיכון":3458," משרד":3459,"בירה":3460," לשים":3461," מוט":3462,"ורף":3463," ירי":3464,"ופש":3465," הסיפור":3466," מקווה":3467,"193":3468," הופך":3469,"מונים":3470,"בצ":3471," עתי":3472," עמד":3473,"משו":3474,"ie":3475,"כיר":3476,"רתי":3477,"ניסט":3478,"ומט":3479," מתא":3480,"ישת":3481,"ילויות":3482," חושבת":3483,"\"אנחנו":3484,"90":3485,"ספת":3486," ההיסטוריה":3487,"עלם":3488,"חינה":3489,"ונת":3490,"חתי":3491,"יתנו":3492," גופ":3493," אוניברס":3494,"דרות":3495,"סיכולוג":3496,"ורו":3497," האופ":3498," ומח":3499," אמרו":3500,"טמבר":3501," איט":3502," כלום":3503,"וגל":3504," ניו":3505,"תודה":3506,"ווא":3507,"זיקה":3508,"שום":3509," מזו":3510,"ity":3511,"כבר":3512,"עלי":3513," שתו":3514,"ציב":3515," אזור":3516,"ומן":3517," הקוד":3518," מאחורי":3519,"הכל":3520," תמ":3521,"כלומר":3522," מהת":3523,"רכי":3524," הסת":3525," אמא":3526,"חלטה":3527,"אש":3528," לאור":3529," בקלות":3530," שניתן":3531," טראמפ":3532," נשמע":3533,"דומה":3534," אוהבת":3535," מקבלים":3536,"ונו":3537," הוג":3538," מהס":3539," הקד":3540,"לטון":3541,"בואו":3542,"og":3543,"גרי":3544,"יבוש":3545," אפשרות":3546," למקום":3547," מלחמה":3548," חוז":3549," שהג":3550," במצ":3551," בשוק":3552," נושא":3553," נשיא":3554," היצ":3555," שוא":3556,"יונים":3557," בשנים":3558,"וסייה":3559,"500":3560,"הרי":3561," עלול":3562,"est":3563," ספרים":3564,"ויח":3565," להיפ":3566,"בעת":3567,"ברואר":3568," איב":3569," עוצ":3570,"יתונ":3571,"ידאו":3572," מגיעים":3573,"איפה":3574,"ושי":3575,"ind":3576,"מחה":3577," צרפת":3578," לפתח":3579," לגלות":3580,"הדבר":3581," אכן":3582," להבטיח":3583," מייצ":3584," קבוצה":3585," טבעי":3586," תס":3587,"לוק":3588," הצה":3589," בפעם":3590," כולו":3591," השלישי":3592,"מדו":3593," סין":3594," לעיתים":3595,"יטר":3596,"טרת":3597,"בטחה":3598,"למי":3599," אמת":3600,"ניסה":3601,"דיים":3602," אוו":3603,"ine":3604,"שלום":3605,"פלגה":3606," כע":3607," הבסיס":3608," שאפשר":3609,"ָה":3610," ורק":3611," יוש":3612," חמש":3613,"ידול":3614," הישראלי":3615,"כיום":3616,"מוס":3617," באוק":3618," שאינם":3619," הסט":3620," ושל":3621," הגדולים":3622," האס":3623," היכולת":3624," המערכת":3625," לאדם":3626,"חוץ":3627," נותן":3628,"דברים":3629,"יכול":3630,"כבים":3631," מצו":3632," תשומת":3633,"26":3634," שעה":3635," חג":3636," מעוני":3637," יקרה":3638,"ילוס":3639," בסופו":3640," ארוך":3641," לבדוק":3642," אודות":3643," בבוקר":3644," מאיתנו":3645," ואף":3646,"מקד":3647,"av":3648,"דירה":3649," השפעה":3650,"מאות":3651,"רוד":3652,"ריכים":3653," והצ":3654," הקול":3655,"טובר":3656," בוח":3657," אוט":3658,"יפורים":3659,"28":3660," הדרו":3661," המודר":3662,"אפילו":3663," ביד":3664," בנק":3665," להיר":3666,"כונית":3667," הימ":3668," לכן":3669," המשי":3670," חולים":3671,"מיחה":3672,"מדובר":3673,"ותם":3674," תמיכה":3675," פיז":3676,"בעיה":3677,"טרך":3678," הנכון":3679," לצד":3680," המבו":3681," מנהיג":3682,"שתה":3683,"נגדות":3684," בעתיד":3685," למס":3686," נמצאת":3687," נקודות":3688," צעירים":3689,"מכים":3690," הטובים":3691,"כניות":3692,"לש":3693," איפה":3694," המפ":3695,"יצה":3696,"נטית":3697," ארבעה":3698,"35":3699,"אד":3700,"פיים":3701,"ובדים":3702," קרא":3703,"בוש":3704," נשאר":3705,"-מ":3706,"קרא":3707," ייע":3708,"רישות":3709," סמ":3710,"יבורי":3711,"אירו":3712," מכיוון":3713,"27":3714," שיק":3715," ומצ":3716," חת":3717," נפר":3718," ספורט":3719," יצא":3720," אמצ":3721,"לקוח":3722," רחוק":3723," נית":3724,"סקה":3725," המנה":3726,"מויות":3727," החלק":3728,"יעי":3729," והג":3730," ארבע":3731,"!!\n":3732,"חשוב":3733," תיק":3734," להעביר":3735,"מדים":3736," בלב":3737," להור":3738," שאנשים":3739," הלילה":3740," מסוגלים":3741," קבוצות":3742," מוקדם":3743," תלוי":3744,"הז":3745,"יננס":3746," לשעבר":3747,"our":3748," לפעמים":3749,"כוח":3750,"סות":3751," בבר":3752,"לאות":3753," מגוון":3754," אינטרנט":3755," הגרמ":3756," לאחרונה":3757,"באות":3758," מרי":3759," באוניברס":3760,"בוצות":3761,"ספרים":3762," ההס":3763," מצא":3764," שינויים":3765,"ישורים":3766," בעיני":3767,"וגה":3768," הפני":3769," בסרט":3770," המקור":3771,"ירושלים":3772,"שבו":3773,"ודאי":3774,"יבו":3775,"נצל":3776," המדע":3777,"מום":3778,"ועדה":3779," העליון":3780,"'ר":3781," מראש":3782," עוז":3783," האירופי":3784,"ak":3785," טכנולוג":3786," חזרה":3787,"קרי":3788," הבו":3789," שאם":3790," לסייע":3791,"דינת":3792,"if":3793,"nd":3794," הוש":3795," מילים":3796,"בעים":3797,"od":3798," הבר":3799," חיל":3800," חייו":3801,"ליות":3802,"מץ":3803," שיר":3804," שכן":3805,"יטים":3806,"שימוש":3807,"לחץ":3808," להתע":3809," העובדה":3810," המון":3811," זכ":3812," ביו":3813," ולאחר":3814," הלאומי":3815," ממוק":3816," בראש":3817,"ורא":3818,"רגה":3819," ומס":3820,"טן":3821," תנו":3822,"ימס":3823,"לקת":3824,"יליא":3825," ואפילו":3826," לנצח":3827," בפי":3828," החלו":3829," הקהילה":3830,"בדל":3831,"התח":3832,"עדה":3833,"תנו":3834,"ראיתי":3835," באפרי":3836," במרכז":3837,"יסות":3838," בחברה":3839,"זונה":3840," ברשת":3841," כיוון":3842," חצי":3843,"וגוסט":3844,"יסבוק":3845," הקשר":3846," אליה":3847,"סקים":3848,"ard":3849," הקבוצה":3850," הכוח":3851,"מוקרטיה":3852,"בדרך":3853,"קסט":3854," ענק":3855,"וסף":3856," הנפ":3857,"לדוגמה":3858," תרופות":3859,"מחים":3860," הישראל":3861," היסטור":3862," לבקר":3863,"דיה":3864,"ודא":3865," הסכם":3866," פתרון":3867," ייתכן":3868,"כנת":3869," אר":3870," עזרה":3871,"ive":3872," בינואר":3873,"ארי":3874,"קוב":3875,"ובדה":3876," הארגון":3877," לשימוש":3878,"all":3879,"יתון":3880," מסוימת":3881,"במקום":3882,"אלא":3883,"יקור":3884," האחרים":3885," במסגרת":3886,"צרו":3887," בחודש":3888," בניו":3889," חסר":3890,"זורים":3891,"לץ":3892,"מספר":3893," היר":3894," השמש":3895," בעצמ":3896," הגור":3897,"מערכת":3898,"191":3899," ברמה":3900," אחריות":3901," יחסים":3902," אסטר":3903," יוכלו":3904,"ונס":3905,"תות":3906," הינו":3907," מתאים":3908," מפתח":3909," מכיר":3910," משפחת":3911,"ight":3912,"דמנויות":3913," אבא":3914," קבוע":3915," סק":3916," השחק":3917," שכבר":3918," לזכור":3919,"\"ג":3920,"נהג":3921," הנוכחי":3922,"אינ":3923,"ואו":3924," מהן":3925," העתיד":3926,"רגו":3927," מחיר":3928," קיימת":3929,"למת":3930," תודה":3931," לעבודה":3932," הפל":3933,"כוהול":3934," תוכניות":3935," צעיר":3936," לשאול":3937,"בנות":3938," לתי":3939,"יוס":3940,"דימה":3941,"ושת":3942," נקרא":3943," להכיר":3944,"נשי":3945," שד":3946," שרו":3947," עבד":3948," סוכ":3949," זיה":3950," אמור":3951," עשר":3952," המלך":3953," החמ":3954," כלומר":3955,"רחים":3956," Ch":3957," וו":3958,"יונ":3959," גד":3960,"שוואה":3961," חשבו":3962,"כפי":3963," לני":3964," ישירות":3965," לצפות":3966," גדולות":3967,"כנע":3968," האמיתי":3969," האדמה":3970," במאי":3971," בערך":3972," הפת":3973," לבוא":3974,"המח":3975," הרכב":3976,"דית":3977,"כמובן":3978," יא":3979," לאפשר":3980,"יפת":3981,"יטי":3982," לחפש":3983,"פיין":3984," ובא":3985,"מאל":3986,"ook":3987," ממו":3988," ובר":3989," הסכ":3990," טובות":3991,"פורסם":3992," משחקים":3993," המוצר":3994,"\"?\n":3995,"ob":3996,"ואני":3997," החינוך":3998," היהודית":3999," מוכנים":4000,"ast":4001," זהו":4002,"art":4003," חייבת":4004," עב":4005," להאמין":4006,"ובד":4007,"חושה":4008," חוקי":4009," מבינים":4010,"בלי":4011,"פעה":4012," נמוך":4013,"ידום":4014,"ייתכן":4015," ומק":4016,"one":4017," האמריקאי":4018,"''":4019,"רוכה":4020," בפע":4021," עת":4022," |":4023," והס":4024," וז":4025,"ובלים":4026," כלשה":4027,"שבת":4028," היחסים":4029,"com":4030," היל":4031," חומ":4032," בחשבון":4033,"לנו":4034,"ברר":4035," רוסיה":4036," בצד":4037," חשובה":4038," מנהל":4039," ספציפ":4040," להסביר":4041," חופש":4042," מין":4043,"רופות":4044," תר":4045," הצורך":4046," אליהם":4047," עצמנו":4048," רצון":4049,"ארו":4050,"גנון":4051,"מרו":4052," לדי":4053,"כלל":4054," אסטרטג":4055," מראה":4056," שמה":4057," כבוד":4058," מפל":4059," התינוק":4060," מהפ":4061,"תפים":4062," מיק":4063,"ובלי":4064," האמית":4065," בשלב":4066," הולכים":4067,"ולא":4068," פוג":4069,"ליחו":4070,"משי":4071,"ינס":4072," בספטמבר":4073," עשרות":4074," מציע":4075," ראו":4076," למשך":4077," לוקח":4078," a":4079,"כחות":4080," אלקטרו":4081,"כלים":4082," צעד":4083,"יער":4084," במערכת":4085,"ct":4086,"ושים":4087," סיבות":4088," שאינו":4089," לקראת":4090,"באופן":4091," העולמי":4092,"חרי":4093," ביוני":4094," להפסיק":4095,"יחסים":4096," מבחינה":4097," העובדים":4098,"29":4099," שיצ":4100," תינו":4101," כלשהו":4102," טרי":4103," הפג":4104," מעניין":4105," הנא":4106," גורמים":4107," ראה":4108,"ביט":4109," האזור":4110," שאינ":4111," שאמר":4112," הגל":4113,"מצאים":4114," ואין":4115," כולנו":4116,"\"ס":4117,"ייב":4118,"תע":4119," ברגע":4120," יכולת":4121," בהצ":4122,"192":4123," בלילה":4124," לטפל":4125," כשא":4126," חשבון":4127," נולד":4128," האנרגיה":4129," לפתוח":4130," נשק":4131,"\"יש":4132,"ופית":4133," הערב":4134,"בעוד":4135,"הנ":4136,"לכל":4137,"”,":4138," היב":4139," שהן":4140,"ותרת":4141," ממני":4142," בדצמבר":4143," תקשורת":4144,"'s":4145,"gle":4146,"גובה":4147," רפוא":4148," יצירת":4149,"בסוף":4150," אחוזים":4151," מוות":4152," שזו":4153," תמונה":4154," פתו":4155," פיתוח":4156,"יצוע":4157," הזוג":4158," מתחילים":4159," פק":4160,"יעור":4161," והן":4162," בברי":4163,"ימון":4164,"גדל":4165,"ניסיון":4166," לכולם":4167," בספר":4168," גוף":4169," שהפ":4170,"זי":4171," להוסיף":4172," רמת":4173," משנת":4174," קפה":4175," ראשו":4176,"ate":4177," הבחירות":4178,"גיש":4179,"שׁ":4180," ההורים":4181," בחלק":4182,"גוון":4183," X":4184,"-ע":4185,"ִי":4186," הדם":4187," נפש":4188," מהווה":4189," מאי":4190," ובמ":4191," מבק":4192," שעבר":4193,"סו":4194,"ען":4195," בוקר":4196," חינוך":4197," במידה":4198," להציל":4199,"ill":4200,"קף":4201," הימים":4202," ימי":4203,"וסטר":4204," מקומות":4205," בחדר":4206," ארוכה":4207," התוכנית":4208,"45":4209,"פית":4210," ורו":4211," חלב":4212," זוכר":4213," מאו":4214," לחיים":4215," ביולי":4216," ביחס":4217,"ברט":4218,"ופעה":4219," החלה":4220,"עתים":4221," אפריקה":4222," המקצוע":4223," עשויה":4224," איתם":4225,"יוו":4226," החלטה":4227," להימנע":4228," הוסיף":4229," לנס":4230," גדל":4231," התרבות":4232," המשטרה":4233," שנתיים":4234,"נוס":4235," תרג":4236," צל":4237,"קשר":4238," שמצ":4239," עשרה":4240,"וויה":4241," לטיפול":4242," משמעותית":4243," האנושי":4244,"כנו":4245,"כעת":4246,"וריות":4247," נזק":4248,"וגמא":4249," בגוף":4250," אינן":4251," המציאות":4252," לרכוש":4253,"וטנציאל":4254," טרור":4255," המזרח":4256,"דיק":4257," הפנים":4258,"202":4259," האת":4260,"תוכנית":4261,"וצים":4262," מכירים":4263," to":4264," אקד":4265," ועם":4266,"משחק":4267," השא":4268," בעבודה":4269," איננו":4270," שלהן":4271," מיוחדת":4272," הוע":4273," המור":4274," המוב":4275," בעזרת":4276," הנושא":4277," מרגישים":4278,"ort":4279,"רן":4280," גרמניה":4281,"לוקת":4282,"תום":4283," בשר":4284," המילה":4285," החי":4286," שאר":4287," לבן":4288," מחפשים":4289," ואנחנו":4290,"בקש":4291," הפלסטינים":4292," הישראלית":4293," לספ":4294," שינה":4295," פופול":4296,"עלת":4297,"ינגטון":4298,"'ון":4299,"ex":4300," ליצ":4301," מרח":4302," ולי":4303,"יביות":4304,"לויות":4305,"תחילה":4306,"ant":4307," להציג":4308," באוקטובר":4309," הבאות":4310,"רגונים":4311," ממלי":4312," בריא":4313,"oogle":4314,"אוג":4315,"שור":4316," איר":4317,"ופל":4318," למי":4319," ואמר":4320,"שובות":4321," לעצור":4322," הית":4323," וכך":4324," במזרח":4325," ביטחון":4326," הצדדים":4327,"זיאון":4328," אנט":4329,"לווה":4330," אמנות":4331,"ירום":4332," מזרח":4333," צה":4334," נוכל":4335," ראיתי":4336,"סטרטג":4337," החלטות":4338," מוחלט":4339," ביניהם":4340,"כרת":4341," תור":4342," קוב":4343,"ליסט":4344," בחזרה":4345,"בחן":4346," מוצר":4347," נחשב":4348," ליום":4349," כוו":4350," המיו":4351," חוץ":4352," נכונה":4353,"וגם":4354,"ist":4355," אהב":4356," הנשים":4357," להתג":4358,"ניהו":4359," חזר":4360," נמוכה":4361," אוויר":4362,"קיע":4363," החק":4364," כאב":4365,"נפ":4366," ללי":4367," שנח":4368," נאל":4369," השוק":4370," הפכה":4371," שאל":4372," קוראים":4373," הבינלאומית":4374,"יתם":4375,"רבע":4376," הכת":4377," בנובמבר":4378," הלאומית":4379," אפשרויות":4380," שיתוף":4381," לילה":4382,"ופלים":4383,"מדת":4384," במשחק":4385," משה":4386," נכ":4387," האג":4388,"ידור":4389," לעזוב":4390," בהיסטוריה":4391," סוגי":4392,"התק":4393," ומי":4394," המוק":4395," האפ":4396," קפ":4397," שהופ":4398," מעני":4399,"רצו":4400," שעברה":4401,"ell":4402,"ub":4403,"נז":4404," בוג":4405," לציין":4406,"למשל":4407,"נתו":4408," פתח":4409,"ינתיים":4410,"גלל":4411," סוגים":4412," שירותי":4413,"300":4414,"ev":4415,"זות":4416,"נאה":4417,"פיל":4418,"ישנם":4419," לבני":4420," בכדי":4421," סיכוי":4422," אזרחים":4423," עיני":4424," כתוצאה":4425," שלישי":4426," המטרה":4427," להראות":4428,"ובב":4429,"נחה":4430," חשיבות":4431," פעולות":4432," כשהוא":4433," לזהות":4434," לרוב":4435," לנהל":4436," גרי":4437," גרם":4438," דה":4439," העור":4440,"ספי":4441,"פעיל":4442," יחסית":4443," התקשורת":4444,"נב":4445,"פאים":4446,"ריסט":4447," תכנית":4448," פחד":4449,"לאים":4450,"כנות":4451," מנסים":4452," ואם":4453,"יתוף":4454," הצליח":4455,"במקרה":4456," העיקרי":4457," $":4458,"כרח":4459," בירושלים":4460," שליטה":4461," להן":4462," השלום":4463," הנק":4464," מידי":4465," להציע":4466,"יור":4467,"כית":4468," לאתר":4469," האוניברס":4470," שהס":4471," החברת":4472," הגיעה":4473," הכב":4474," המחשב":4475,"ice":4476," הפעולה":4477," הגבוה":4478," &":4479,"יבוד":4480," קבוצת":4481,"-S":4482," איתי":4483," בחר":4484,"דירות":4485," פתוח":4486," באוגוסט":4487," הבנק":4488," בזכות":4489," חמישה":4490,"ושה":4491,"צד":4492," לפתור":4493,"?”\n":4494,"קן":4495," המוות":4496,"תיע":4497," האנושות":4498,"%.\n":4499," ואי":4500," נתק":4501," פו":4502," בשני":4503," ומא":4504,"צרי":4505," אופן":4506," שבר":4507," ושוב":4508," התנהגות":4509," הפרי":4510," לבקש":4511,"חקרים":4512,"פוץ":4513," חברתית":4514," קשור":4515," ליהנות":4516,"לן":4517,"רוט":4518," המתק":4519," לייצר":4520," בסין":4521," »":4522,"'ורג":4523,"במשך":4524,"דרים":4525," ונו":4526," עלה":4527," קיו":4528,"ראשית":4529,"יאו":4530," העניין":4531," למדי":4532," ישנם":4533," בשנות":4534," לידי":4535," אמרתי":4536," לישון":4537," לקבוע":4538,"נטה":4539,"מידע":4540," אלינו":4541," כיש":4542," נז":4543," האפשרות":4544," גבר":4545," בחיי":4546," עונה":4547," התחיל":4548,"-A":4549,"דיא":4550," דח":4551," במספר":4552," חזקה":4553,"דף":4554,"כנים":4555,"קח":4556," רצה":4557,"מצאו":4558," ובו":4559," דג":4560," בחוץ":4561," באמצע":4562," מבוסס":4563," קיימים":4564," נאמר":4565,"36":4566," להיע":4567," האפש":4568,"רכב":4569,"יסון":4570,"חרר":4571," הראש":4572,"כשירים":4573," מפור":4574," תעש":4575,"\"אם":4576,"ew":4577,"ביעה":4578," היס":4579," ויר":4580,"ימא":4581,"-C":4582,"טע":4583,"עק":4584,"תפות":4585," להד":4586," נול":4587,"ימפרי":4588,"שאיר":4589," Al":4590,"\"ד":4591,"נכון":4592," מונ":4593," יפ":4594,"לימות":4595," צוד":4596," לבע":4597," לעצמי":4598,"דיל":4599," שו":4600," וכו":4601,"דיקה":4602," פיק":4603," במא":4604,"וכים":4605,"חרור":4606," מביא":4607," אמיתית":4608,"ge":4609,"מתו":4610," להניח":4611," מסע":4612," לגיל":4613," חייהם":4614," רעיון":4615,"her":4616," הוב":4617," שתה":4618," המופ":4619,"ופיה":4620," זכה":4621," חופשי":4622," ביצוע":4623,"שואין":4624,"סוק":4625," שמונה":4626,"ודד":4627," קדימה":4628," מושג":4629," מטרות":4630," בבע":4631," עתה":4632," וכי":4633,"ולין":4634," חוזר":4635," סביר":4636," -\n":4637," הגדולות":4638," זקוקים":4639," כזאת":4640," להוביל":4641," תו":4642,"ושות":4643," הגנה":4644," הנראה":4645," מודר":4646," איתך":4647," עומדים":4648," הפלסטינית":4649," סרטן":4650,"למד":4651,"פחת":4652,"​​":4653," שמות":4654," כולה":4655," להוציא":4656," פט":4657," (\"":4658,"וצר":4659,"סקי":4660," קורא":4661,"eb":4662,"עתו":4663," נפג":4664," >":4665," l":4666,".com":4667,"דרי":4668,"רדי":4669," השירות":4670,"רגשות":4671," מתרח":4672,"כנראה":4673," הרעיון":4674,"ep":4675,"כז":4676,"כרה":4677,"לר":4678,"מרים":4679," הלקוחות":4680," ארץ":4681," רמות":4682," במדינות":4683," ישוע":4684," פעיל":4685,"ows":4686," אוטומ":4687,"BA":4688,"הרבה":4689,"מיר":4690,"נכ":4691,"ננים":4692,"סן":4693," מידה":4694," עז":4695," להא":4696," חומר":4697," במטרה":4698,"וקטור":4699," עצמכם":4700,"ros":4701,"ost":4702,"ממש":4703," מילה":4704," ויצ":4705," למכור":4706,"נסו":4707," בבח":4708," בתחילת":4709," ‘":4710," הידע":4711," הבלתי":4712," לצורך":4713," קטנות":4714," להשפיע":4715,"ביק":4716,"מז":4717," לכא":4718," כנגד":4719," תנאי":4720," נעל":4721," קד":4722," סבל":4723,"אימה":4724,"פייה":4725," חשובים":4726," באפריל":4727,"הלי":4728,"זיל":4729," כרגע":4730,"ואן":4731," ניתוח":4732," ממח":4733," לעצמו":4734,".\"":4735,"מישהו":4736,"ריאות":4737," התמונה":4738," מסי":4739,"ff":4740," חדר":4741," האישה":4742," לשני":4743,"קהילה":4744," יצר":4745,"זכיר":4746," לרד":4747," צפוי":4748," הפיז":4749," רופא":4750," עובר":4751,"נתיים":4752," ואתה":4753," שלם":4754," יז":4755," התהליך":4756," בקרוב":4757," עיצוב":4758," השונים":4759,"ושינגטון":4760," מעמד":4761,"וכיח":4762," הנע":4763," משפחות":4764,"צור":4765," לנש":4766," שיא":4767," עמוק":4768,"רופה":4769,"להיות":4770," הפרס":4771,"נטיות":4772," חיילים":4773," הינה":4774,"ark":4775," תשלום":4776," הפעילות":4777," פרטי":4778," זקוק":4779," עתיד":4780," אתמול":4781," מהיר":4782," לעלות":4783," היכן":4784," ייח":4785," נפתח":4786," העיקר":4787," הסביבה":4788,"כתה":4789," בתהליך":4790," מטרה":4791," לתקן":4792," מדהים":4793,"pp":4794,"זרים":4795,"ניו":4796,"יוט":4797," פרטים":4798," העבר":4799," טלוויזיה":4800," בעניין":4801," ההחלטה":4802,"שתמש":4803," עצמית":4804," בתקופה":4805," לימוד":4806,"סום":4807,"רוויח":4808,"ילחם":4809," סתם":4810," לשתף":4811," יחסי":4812," ביקורת":4813," רפואי":4814,"רמו":4815," עקב":4816," המזון":4817," האישי":4818," למות":4819," מקרים":4820," בפברואר":4821," המערבית":4822," דיווח":4823,"גלה":4824,"כמים":4825," קונ":4826," מהה":4827," משקל":4828," התלמידים":4829," לייש":4830," בבתי":4831,"פורס":4832," הנוכח":4833," ביטוח":4834," ההגנה":4835," ״":4836," קבלת":4837," זמין":4838,"ימן":4839," מצרים":4840,"מונת":4841," החוצה":4842," לעבר":4843," למצב":4844," מתקד":4845,"וטים":4846," שקורה":4847,"קודם":4848," שיפ":4849," המשות":4850," מצוי":4851," ממך":4852," הלימודים":4853,"31":4854,"מתוך":4855,"ילית":4856," בעלת":4857," בשעה":4858," לפנות":4859,"כאון":4860," מספק":4861," מטר":4862," שטח":4863,"ואלי":4864," תד":4865," האהבה":4866," בעלות":4867," רווח":4868," הכלכלי":4869," ריק":4870,"se":4871,"ענה":4872,"ברג":4873,"יסוי":4874,"בורים":4875,"צם":4876," ימ":4877,"רייה":4878,"עתם":4879," הראשי":4880,"פקד":4881,"ord":4882," בריטניה":4883," אירועים":4884,"\"ת":4885,"EB":4886,"זמ":4887,"טוס":4888," שול":4889," חשבתי":4890," נבחר":4891," מפע":4892," תקופת":4893," הראשונות":4894," שבת":4895," ירד":4896," המילים":4897," הפכו":4898,"רכיב":4899,"סטרו":4900,"כמעט":4901," מכם":4902," מרק":4903," שחי":4904," קה":4905," דת":4906," החוץ":4907," לחוק":4908," ובש":4909," ראשונה":4910," ברורה":4911,"ack":4912," מרגישה":4913,"אחת":4914,"כבת":4915,"סוג":4916," חרי":4917," החברות":4918," ממשיך":4919,"פלסט":4920," נתן":4921," for":4922,"אדם":4923," ספרי":4924," לשמש":4925,"בעו":4926," שמא":4927," פעמיים":4928," פשוטה":4929," ידעתי":4930," ההזדמנות":4931,"מג":4932,"מורה":4933," אול":4934," ביל":4935," כד":4936," דופן":4937," השיר":4938," השפה":4939," מאחור":4940,"יסת":4941," הקי":4942,"וכה":4943," מצליח":4944," מושלם":4945,"מפרט":4946," ומתן":4947," מרכזי":4948," הסיכון":4949,"ססת":4950,"צרה":4951," יתר":4952," האיחוד":4953,"יקת":4954," והק":4955," למדינה":4956," הנדר":4957," בדרום":4958,"ְּ":4959,"שן":4960," היפ":4961," אילו":4962," בנות":4963,"דין":4964," נכתב":4965," קיל":4966,"ראוי":4967,"ופס":4968," החז":4969,"בוצת":4970," העת":4971," משלו":4972,"טיין":4973,"בסופו":4974," הלבן":4975,"-F":4976,"השאלה":4977," מהג":4978," לשלוט":4979," מחלות":4980," להתא":4981,"לדברי":4982,"צח":4983," שיל":4984," מחר":4985," לקח":4986," ביטוי":4987,"ָּ":4988,"בנים":4989,"ביעות":4990,"ואים":4991," פירו":4992,"יקאים":4993," התשובה":4994,"רבעה":4995," לשלוח":4996,"מצד":4997," שמחה":4998," Sh":4999,"פעילות":5000,"'א":5001,"מריקה":5002," בך":5003," בחי":5004," הזכות":5005,"רסה":5006," המחיר":5007," שחור":5008," אספ":5009," בשימוש":5010," נושאים":5011," מציאות":5012," בצפון":5013," לפגוע":5014," שונ":5015," רלוו":5016," ההתק":5017," לחלק":5018," ובין":5019,"אלוהים":5020," עוס":5021," ויו":5022," גזע":5023," השטח":5024," ולת":5025,"סטודנטים":5026,"סקת":5027," בטוחה":5028," פועלים":5029,"ביה":5030,"קון":5031," עץ":5032," וידאו":5033,"יקות":5034," בהרבה":5035,"190":5036," הטלפון":5037,"סיכ":5038," הרופא":5039,"למנט":5040,"ain":5041,"qu":5042," לנשים":5043," אבי":5044," מלח":5045," שיה":5046," המהפ":5047,"ריט":5048,"ריס":5049," לאירו":5050," דוג":5051,"לאה":5052,"מינות":5053," רגיל":5054," הקטן":5055," שיג":5056," תואר":5057," פועל":5058," דרום":5059," הצלחה":5060," וחצי":5061,"כנון":5062," בימים":5063," עוזר":5064,"רגיל":5065," פרסום":5066,"indows":5067,"-ח":5068,"-ק":5069," הלקוח":5070," איס":5071," להרוג":5072,"יקל":5073," הכח":5074,"אמנות":5075," הוו":5076,"ובכן":5077,"תיבה":5078," משמש":5079," מתנה":5080," מחשב":5081," מחקרים":5082,"וכנות":5083," מבית":5084," רעיונות":5085," סטודנטים":5086," המוצרים":5087," עליכם":5088,"\"הוא":5089," התוצאות":5090," פות":5091,"מרת":5092," הזדמנויות":5093,"פרסם":5094,"מקור":5095,"רעיון":5096," ​​":5097,"המא":5098," לאחד":5099,"לוג":5100," בהשוואה":5101," בקול":5102,"עויות":5103,"חרים":5104," מנג":5105," בכו":5106," עיק":5107," עלולים":5108," סנט":5109,"נחים":5110," בפועל":5111," שניים":5112,"החברה":5113,"לדבריו":5114," בטוחים":5115," סימן":5116," כלשהי":5117," בור":5118," בפר":5119,"דיות":5120,"יאת":5121,"יסטים":5122,"שוף":5123," הכדור":5124," המרכזי":5125,"טחים":5126," שז":5127," סול":5128," יכולתי":5129,"שאל":5130," מתחילה":5131," המחלה":5132,"קעה":5133," הבוקר":5134," הטרור":5135," חיות":5136," מיוחדים":5137,"כסוך":5138," העתיקה":5139," קמ":5140," העונה":5141,"טרס":5142," הטכנולוגיה":5143," אלימות":5144," פתרונות":5145," כותב":5146," !\n":5147,"\"ע":5148,"נף":5149," מותר":5150," תשובה":5151," הצלח":5152," לקרות":5153," הכרח":5154," היסטוריה":5155," שלב":5156,"מהו":5157," דר":5158,"שימו":5159," במקומות":5160," התקופה":5161," n":5162," הומ":5163," לאט":5164," גרו":5165,"ליחים":5166," באו":5167," החופ":5168," כלכל":5169," ישראלים":5170,"טרסים":5171," המשמעות":5172," לטובת":5173," מוצא":5174," ייצור":5175," המפלגה":5176,"יווק":5177,"נטיים":5178," משתנה":5179," להשקיע":5180,"\"אתה":5181,"בילה":5182,"למות":5183,"שיר":5184," שוכ":5185," שוו":5186," להרח":5187," תנועה":5188,"ופיע":5189,"מצים":5190,"מצעות":5191," מסכים":5192," הדלת":5193," בקשר":5194,"אוכל":5195,"יימו":5196," An":5197," להצטרף":5198,"ian":5199,"וֹ":5200,"ותי":5201,"ברגע":5202," שהתק":5203," למלא":5204,"שוי":5205," להחליט":5206," להחזיר":5207," ‏":5208,"דמת":5209,"חתו":5210," כנס":5211," קרב":5212,"יאן":5213," שהייתי":5214," והיה":5215,"יפן":5216,"רכיבים":5217," מודעים":5218," להכין":5219," האמריקאית":5220," מקצועי":5221,"-כך":5222,"ללא":5223,"ללה":5224," עזה":5225," תחרות":5226," רגל":5227," באנגלית":5228," בעד":5229,"וגיות":5230,"פרד":5231," לתמוך":5232," בכמה":5233," ולהת":5234," אישור":5235," האירוע":5236,"אמרתי":5237," בלונדון":5238,"400":5239,"75":5240,"זין":5241," עברו":5242,"ודיים":5243," האקד":5244,"יביים":5245," לקדם":5246," לוודא":5247,"ולוגי":5248," מתכוון":5249,"ear":5250,"רר":5251,"יונית":5252," קלה":5253," ספי":5254," לפרס":5255,"סטיבל":5256," מורכב":5257," להילחם":5258," חר":5259," חיפוש":5260," עלולה":5261," שהייתה":5262," התנועה":5263,"וצות":5264,"לחם":5265," ובכל":5266," מזל":5267," […":5268,"שמע":5269," ויק":5270,"לאי":5271," למטה":5272,"יצים":5273," איזו":5274," אלכוהול":5275," ובכך":5276," ברית":5277,"בקרים":5278,"קשורת":5279," סיכון":5280," הגבוהה":5281," משותף":5282,"ure":5283,"מבח":5284," מותו":5285," יקר":5286," לאי":5287," תכונות":5288," עליי":5289," מהו":5290," במאה":5291," לענות":5292," הקרוב":5293," נוח":5294,"מדות":5295," לדאוג":5296,"צביע":5297," ללמד":5298," נורא":5299," העיקרית":5300,"\"מה":5301,"ib":5302,"הור":5303,"פלים":5304," עדיף":5305," הפופול":5306," הקודש":5307," הקודם":5308,"יגות":5309," ראוי":5310," Ar":5311," שקרה":5312," ארוחת":5313,"150":5314,"ect":5315,"בון":5316,"כבות":5317,"מניה":5318,"ודיות":5319,"רידה":5320,"ברא":5321," השאר":5322," הפרו":5323,"יטליה":5324,"לקה":5325," הנכונה":5326,"לטפור":5327," בכוח":5328," במשקל":5329," תוכן":5330," פוליטית":5331,"ביום":5332," יב":5333," פיצ":5334,"וגים":5335,"מיין":5336," כיף":5337," Com":5338," Th":5339," להפחית":5340,"ran":5341,"יקף":5342," זרים":5343," הקפ":5344," הכוחות":5345,"גרם":5346," Pro":5347," יעיל":5348," חשמל":5349," דורש":5350," כס":5351,"ניט":5352," חם":5353," לשבת":5354," מסר":5355," מסביב":5356," יעשה":5357," האנושית":5358,"-M":5359,"הספר":5360," שיב":5361," להיש":5362," לאן":5363," האוט":5364,"תוק":5365," למא":5366," ההיסטור":5367," הנפש":5368," לגור":5369,"נקודת":5370,"פורניה":5371," אירוע":5372," שיעור":5373," באוניברסיטת":5374,"'ק":5375,"eg":5376,"iz":5377,"ביו":5378,"ביבות":5379,"מישה":5380," לטי":5381," ור":5382," כלכלית":5383," מחפש":5384," הדת":5385," הרשת":5386," אדמה":5387," מומלץ":5388," אוניברסיטת":5389,"לפו":5390," שישה":5391," עני":5392," חינם":5393," האיר":5394," קלא":5395," צורה":5396," שאף":5397," ההול":5398," ההבדל":5399," ואילו":5400," בתע":5401," בדבר":5402," תקווה":5403," חלקים":5404," דולרים":5405," אכפת":5406,"'ה":5407,"ip":5408,"אחר":5409,"וּ":5410," עורך":5411," יר":5412," במרץ":5413," בהכרח":5414," בסך":5415," רחבי":5416," Ex":5417,"דמה":5418,"פנים":5419," לאהוב":5420," תלמידים":5421," תחושה":5422," גא":5423," גרמ":5424," ואל":5425,"פיינים":5426," רציתי":5427," הטובות":5428," הבחירה":5429," אמצעי":5430," g":5431,"פתי":5432,"‏\n":5433," סופ":5434," צפון":5435,"ימור":5436," הקיץ":5437," מעצ":5438,"דוני":5439," בבקשה":5440,"סיקו":5441," בינלאומיים":5442,"שט":5443,"ורש":5444," בשטח":5445,"כתבה":5446," בצרפת":5447," שחקן":5448,"זת":5449," אנד":5450," שפה":5451," בוט":5452," ייחוד":5453," העיניים":5454," שישי":5455," הבעיות":5456," פלסטינים":5457," הקשורים":5458,"שואים":5459," ממשיכים":5460,"ies":5461,"זכות":5462," להר":5463," לארץ":5464,"ילנד":5465," זר":5466," קיבלו":5467,"הדרך":5468,"מירה":5469," שרק":5470," להעלות":5471," נראים":5472," נראית":5473," גבולות":5474,"ינר":5475,"רגות":5476," בשפה":5477,"רציתי":5478," המקרים":5479," מוזיקה":5480," ארגונים":5481,"\"פ":5482,"סד":5483," גרוע":5484," התחת":5485," ישנה":5486,"רגש":5487,"וונים":5488," המקורי":5489,"are":5490," שחקנים":5491," בבריטניה":5492,"בגלל":5493,"ננו":5494,"ריע":5495," מהי":5496," לחברה":5497," מחשבות":5498,"מדע":5499," נקודת":5500," h":5501,"/או":5502,"ry":5503,"ַי":5504,"אילו":5505,"ביות":5506,"צילום":5507," ללקוחות":5508,"ריח":5509," להוכיח":5510," פית":5511," האק":5512," סדר":5513," צו":5514," מעוד":5515," מחזיק":5516," מציעים":5517,"נגליה":5518,"לטה":5519," החדשים":5520," הפלסטיני":5521,"טרכו":5522,"כירה":5523," לומדים":5524,"ירור":5525," החיפוש":5526," התרח":5527,"פסור":5528,"ome":5529," עומדת":5530," סיפר":5531,"ld":5532,"איש":5533,"הבעיה":5534,"נך":5535," פיל":5536," התפתחות":5537," הצליחו":5538," דיגיט":5539," גבוהים":5540," רגשות":5541," כשהם":5542," להסתכל":5543,"-I":5544," גז":5545,"כולות":5546," הבנה":5547,"וסי":5548," הגיל":5549," לחכות":5550," לחקור":5551," הצוות":5552," נוצר":5553,"יגי":5554,"ולוגית":5555,"נציה":5556," מודע":5557,"בסס":5558,"יתונאים":5559," להוריד":5560," […]\n":5561,"אטה":5562," כימ":5563," כחלק":5564," להתייחס":5565," פצ":5566,"לוי":5567," הנצ":5568," בתפקיד":5569,"שביל":5570," הלאה":5571," מבטיח":5572," אליך":5573," יוע":5574," המתח":5575," חובה":5576,"דירים":5577," האפשר":5578," סיר":5579," זהב":5580,"רגום":5581," בחירה":5582," ניק":5583,"ont":5584," הכלב":5585," כוללים":5586," האמנות":5587," מסוימות":5588,"):":5589,"ud":5590," בהש":5591," כוללת":5592,"לפחות":5593," לאחרים":5594,"ust":5595,"בדים":5596," חט":5597,"ברהם":5598,"ליג":5599," דוד":5600," במל":5601," להשתתף":5602," הבל":5603," לבחון":5604," הסימ":5605," בהמשך":5606,"טרם":5607," מקורות":5608," מבקש":5609,"oft":5610,"רפתי":5611," שיער":5612," מאפשרת":5613,"?\".\n":5614,"עולם":5615," חיה":5616,"מוח":5617,"ומם":5618," במרחק":5619," מגיעה":5620," מינית":5621,"end":5622," האסלא":5623,"-P":5624,"שיות":5625," ליו":5626," מלבד":5627," דומים":5628," באה":5629," והה":5630," מאוח":5631," מעולה":5632," ממק":5633," לזכות":5634," חוויה":5635,"נאות":5636,"ענו":5637,"עשה":5638," ביש":5639,"דיש":5640," החיו":5641," התפקיד":5642," מסוכן":5643,"פרץ":5644," נהרגו":5645," מוכר":5646," Google":5647,"-ש":5648," נמש":5649," פא":5650," דברי":5651," השינה":5652," החברים":5653," כלב":5654," בשום":5655," הצי":5656,"יזם":5657," מספקת":5658," תחום":5659," שכר":5660," קוריאה":5661," להחליף":5662," הבריטי":5663," בינלאומי":5664,"32":5665,"מני":5666,"פיות":5667," שיניים":5668," שיטות":5669," חומרים":5670,"יסים":5671,"החוק":5672," אסור":5673," אביו":5674,"48":5675,"חנו":5676," מיי":5677," שיפור":5678," המנו":5679," להקים":5680," חכם":5681," חשב":5682," קשים":5683," החלל":5684," במד":5685," והד":5686,"יצו":5687,"וצאות":5688," מקרי":5689,"אהבה":5690," ילדי":5691," הולכת":5692," שירותים":5693," נדרש":5694," +":5695,"חזר":5696,"סיקה":5697,"תא":5698," סוריה":5699," השראה":5700," מסחר":5701," בחינם":5702," שמישהו":5703," מייד":5704," שבהן":5705," מלון":5706," מופיע":5707,"ire":5708,"פשוט":5709," אביב":5710," מלך":5711," חפ":5712," לאומי":5713," טווח":5714," לעיר":5715," הפדר":5716," מעלה":5717," ההור":5718," עובדת":5719," איתנו":5720,"מוקרטית":5721," אנגלית":5722," וני":5723," וול":5724,"יתונות":5725," דלת":5726,"ופעות":5727," החול":5728," משני":5729," משלה":5730,"תחת":5731," מכיל":5732,"עשיית":5733," Un":5734," You":5735,"מכות":5736,"שתו":5737," אט":5738,"ריד":5739," לציבור":5740,"וניים":5741," להגדיל":5742," מוצרי":5743," הרגע":5744,"הסרט":5745," החדשות":5746," העולמית":5747," טוען":5748," תושבי":5749," האזרחים":5750,"בדה":5751," היתר":5752," וְ":5753," גול":5754," גרע":5755," סרטים":5756,"כוז":5757," נהדר":5758," האמריקני":5759," הקריירה":5760,"ככה":5761," לרגע":5762," אמון":5763,"מוט":5764," גודל":5765," מאה":5766,"יינה":5767,"פלל":5768," פתאום":5769,"per":5770,"פעות":5771," שיי":5772," תוק":5773," החבר":5774," החומר":5775," כלבים":5776," ומג":5777," עצמא":5778,"בתא":5779,"מודדות":5780,"אלון":5781,"ood":5782," שלושת":5783," ההשפעה":5784," נוסעים":5785,"זציה":5786,"שבי":5787," הארי":5788," דרו":5789," העד":5790," להשתנות":5791," Windows":5792," המאוח":5793,"-B":5794,"ue":5795,"גי":5796," לבו":5797," לכאן":5798," מלה":5799," ברוב":5800," עיניים":5801," ויע":5802," יתק":5803," החליט":5804," אוסטר":5805," טלפון":5806,"יטחון":5807," מחלה":5808," מציעה":5809,"צרפת":5810," אופט":5811," קצרה":5812," בוחרים":5813,"pl":5814,"גדים":5815," איתה":5816," שניות":5817," באת":5818," המשא":5819," גבי":5820," סופר":5821," מהצ":5822," התש":5823," לשתות":5824," הקמת":5825," הקרקע":5826," הגבול":5827," כאלו":5828,"רצח":5829," מגלה":5830," איננה":5831,"בשלב":5832," להשלים":5833," פרויקט":5834," האדום":5835," הכנסת":5836,"ויש":5837,"והוא":5838," המי":5839," חתי":5840," דמות":5841,"וויות":5842," הדור":5843,"לחו":5844," בסוריה":5845,"אוניברס":5846,"געו":5847," ידעו":5848," Pl":5849," המאפשר":5850,"הפעם":5851," אדום":5852," שנקרא":5853," גופנית":5854,"-G":5855,"סרט":5856," לכו":5857," לילד":5858," שוט":5859," שימו":5860," תשת":5861," האב":5862,"ופטים":5863," במג":5864," הבנתי":5865," עצום":5866," בטח":5867," בניס":5868," לטווח":5869," יעזור":5870,"וליטיקה":5871," שיווק":5872,"33":5873,"mer":5874,"ver":5875,"סין":5876," הלה":5877," אמונה":5878," בלא":5879," ושה":5880,"נושא":5881," המות":5882," ציפ":5883," מצט":5884,"עתה":5885,"תהליך":5886," שקט":5887," Bl":5888," וכמה":5889," נחש":5890," חיובית":5891,"ונגרס":5892," תוצאה":5893," הרצון":5894,"לף":5895," ירו":5896," ייצ":5897," המשר":5898," טעות":5899,"יטאות":5900," לשלב":5901," שאי":5902," ובח":5903,"יגו":5904,"...\"\n":5905," שבין":5906,"המטרה":5907," בכנס":5908,"אמץ":5909," המסחר":5910," השתמש":5911," הצעיר":5912,"גיל":5913,"לומים":5914,"פך":5915," מבע":5916," חוב":5917," פש":5918," קומ":5919," סמים":5920," הבן":5921," לשינוי":5922,"מצם":5923," לקיים":5924," לוותר":5925," דיבר":5926," מוצלח":5927," יוצאת":5928," נתניהו":5929," רשמי":5930," נותנים":5931," סיפורים":5932," המשחקים":5933," לרדת":5934," i":5935,"99":5936,"המע":5937,"מיו":5938,"מנט":5939,"מחקר":5940," הוס":5941," התוצאה":5942," כבד":5943," באים":5944,"ינתי":5945,"ינון":5946," נוטים":5947," ניסה":5948," ראשי":5949," ממשלה":5950," הנוס":5951,"מסר":5952," אשתו":5953," שומן":5954," האוכלוסייה":5955," ים":5956,"NA":5957,"ִים":5958,"גישה":5959,"הרו":5960," אמו":5961," שפות":5962," כוס":5963," מהבית":5964,"לוס":5965," ציין":5966," רקע":5967," פעילויות":5968,"ארץ":5969," רציני":5970,"צועים":5971," להחזיק":5972,"טבע":5973,"מלה":5974," יו":5975," להשאיר":5976," האהוב":5977," סיוע":5978," אחראי":5979,"ירותי":5980," תחילת":5981," התייחס":5982," יוצר":5983," השלישית":5984,"ובייקט":5985,"34":5986,"מנת":5987," הלך":5988,"ודעות":5989," להט":5990," נפט":5991," קבע":5992,"לייה":5993,"ידוע":5994," באח":5995," והמש":5996," \"\n":5997," לשנת":5998," הקהל":5999,"מיני":6000,"כוניות":6001," בחו":6002," מצפה":6003," ומד":6004," לונדון":6005," הכלכלה":6006," שנייה":6007,"קטיבי":6008," מבוגרים":6009,"מלא":6010," שואל":6011," בפרס":6012," שלמה":6013,"יומים":6014," פיננס":6015," גב":6016,"בוגרים":6017," התכו":6018," ואנו":6019," שניהם":6020," הודעה":6021,"-D":6022,"ביס":6023,"מרה":6024," לנה":6025," לאבד":6026,"בויות":6027," כלים":6028,"ספיק":6029," ישיר":6030," המשך":6031," בגרמניה":6032," בדיקות":6033,"ock":6034,"טיים":6035," שכולם":6036," ויט":6037," פסיכולוג":6038," סובל":6039,"יבוב":6040," הערבי":6041," הקרב":6042,"אלית":6043," לסיים":6044," למשחק":6045," חוקים":6046," בעצמו":6047,"ational":6048," המוזיקה":6049," היות":6050," שדה":6051," המספר":6052," מהק":6053,"ספו":6054," טכני":6055," מדעי":6056," הופכים":6057," ברחוב":6058,"/ה":6059,"לכה":6060," הורים":6061," אבטחה":6062," שמי":6063," המפתח":6064," להודות":6065,"מוני":6066," גאה":6067," צדק":6068," במים":6069,"בורג":6070,"פטומים":6071,"ore":6072," להצליח":6073," מומחים":6074,"'יימס":6075," עבודות":6076," העיקריים":6077," המשיך":6078," לנסוע":6079,"כשא":6080,"לצ":6081," מרבית":6082,"ורית":6083,"יהודים":6084,"ברור":6085," גמ":6086," דוא":6087," זהות":6088," הפרויקט":6089,"מציאות":6090," מתן":6091,"ווית":6092,"אותו":6093," ותח":6094," מספרים":6095," נהיה":6096," אמריקאי":6097," קיבלה":6098,"ובליקה":6099," האוניברסיטה":6100,"ial":6101,"גב":6102," טעם":6103," בשתי":6104,"יציה":6105," הופכת":6106," הודעות":6107," המשתמש":6108,"יצוניים":6109," השחקנים":6110,"ER":6111,"ox":6112,"פרו":6113," כרו":6114," המומ":6115," קוס":6116," סעיף":6117,"ליטו":6118,"משהו":6119," החוף":6120," הבין":6121," מצאו":6122,"עדון":6123,"אמנם":6124,"מטיקה":6125,"ארה":6126,"סוך":6127,"עור":6128,"ערה":6129,"תול":6130,"נין":6131," ישר":6132," האינט":6133," רשות":6134," זהה":6135," כלכלי":6136," במחקר":6137,"ועלים":6138," שאולי":6139,"icros":6140," אשראי":6141," אוכלים":6142," הספרים":6143," ברצינות":6144," מבחינת":6145,"ויה":6146,"כתוצאה":6147," המין":6148," נותר":6149," באש":6150," באור":6151," משם":6152,"ועלת":6153,"וציה":6154," שמס":6155,"התשובה":6156," מודעות":6157," עבודת":6158,"גרות":6159," אורג":6160,"ריכת":6161," להצביע":6162," קשות":6163," השונות":6164," הבה":6165,"בעקבות":6166," מתרג":6167,"פתרון":6168,"ond":6169,"סתכל":6170," מוצאים":6171," עובדות":6172," הוועדה":6173," מכוניות":6174," השאלות":6175,"\"כל":6176,"הרא":6177,"חש":6178," להפעיל":6179,"דיקות":6180,"ואות":6181," דלק":6182,"תוני":6183," הקו":6184," ובס":6185,"סקנה":6186,"גרש":6187," רצח":6188," בשבילי":6189,"גלים":6190,"צעים":6191,"וארד":6192," הארו":6193,"מהי":6194," סיום":6195," זכו":6196," זיכרון":6197," יהודית":6198,"באנגלית":6199," Sp":6200," במשרד":6201," יחיד":6202," צעדים":6203,"ass":6204,"לפיכך":6205,"ילוסופיה":6206,"ly":6207,"חברת":6208,"כמות":6209," ואיך":6210," פלא":6211,"מרק":6212," בסביבה":6213,"מאמר":6214," בשבילך":6215," להסיר":6216," פוליטי":6217," בינינו":6218," הירח":6219,"??\n":6220,"ננות":6221," הירו":6222," הממוצע":6223," תלמיד":6224,"ליזם":6225," השח":6226," צבאי":6227," מאמץ":6228," נועד":6229," מבצע":6230," בתים":6231," למשת":6232," לכיוון":6233," חברתי":6234," טען":6235,"\"ק":6236,"38":6237,"מיק":6238,"שנים":6239,"שיון":6240," לנצל":6241,"ודע":6242," מהירה":6243," צור":6244,"האדם":6245," השתנה":6246," ביקש":6247," המלכות":6248," מצוין":6249," בבחירות":6250,"-N":6251,"לעתים":6252,"פטים":6253,"קציה":6254," הרגיש":6255," בואו":6256," אתרים":6257," פיר":6258," סקר":6259," למישהו":6260,"רגן":6261," הקב":6262," מעשה":6263,"מותה":6264," ובט":6265," בקשה":6266," שנש":6267," שעש":6268,"האמת":6269," יוצאים":6270,"tern":6271," מנצ":6272," לאל":6273,"וקס":6274," ישת":6275," מבנה":6276," פרויקטים":6277," הרכבת":6278," אלקטרוני":6279," ייחודי":6280,"ָא":6281,"מיל":6282," כראוי":6283," יגיע":6284," יכלו":6285,"ודר":6286," לשאלה":6287,"יסא":6288," הסדרה":6289,"אונה":6290," להגדיר":6291," לסרט":6292,"בחרו":6293," אבן":6294," מסתכל":6295,"בב":6296,"דלים":6297," בימ":6298," רשימה":6299," השלטון":6300,"וקי":6301," טכנולוגיה":6302," מעלות":6303,"רצון":6304,"סקס":6305," הייצור":6306," Ph":6307,"הסיבה":6308," הלידה":6309," חיובי":6310," גבוהות":6311," האלבום":6312," המהפכה":6313,"בדות":6314,"מיון":6315," שנג":6316," בדם":6317," עשרים":6318," יור":6319," חירום":6320," נכש":6321,"בוט":6322,"וכך":6323," הטלוויזיה":6324," לגדול":6325,"כנסות":6326," מתייחס":6327," האמיתית":6328," הנוכחית":6329,"\"ך":6330,"-ס":6331,"ment":6332,"אמה":6333,"דתי":6334,"יירה":6335," להרוויח":6336,"תיחה":6337,"לונה":6338," השות":6339," מאחר":6340," הקל":6341,"שוו":6342," מסביר":6343,"לבסוף":6344," לתפוס":6345," זוהי":6346," מכירות":6347," במקרים":6348," ציבורית":6349," on":6350,"עדיין":6351," אופי":6352," בול":6353," עמדה":6354,"ואב":6355," מהד":6356," הפיננס":6357," לשאת":6358," בהק":6359,"בודות":6360,"סטון":6361," הכללי":6362," Ad":6363," אישיות":6364," המערב":6365," WEB":6366,"קשיב":6367,"ace":6368," פרנק":6369," בינלאומית":6370," עמוקה":6371," כוכבים":6372,"\"ו":6373," שגור":6374," חולה":6375," האמונה":6376,"ישוב":6377," דרכ":6378," השרי":6379," והט":6380,"מעולם":6381," מסור":6382," נוש":6383," מבני":6384,"יניות":6385," מפח":6386," יוצרים":6387," תגובה":6388," להתגבר":6389,"icrosoft":6390," שירים":6391," ודי":6392," המדיניות":6393," הערך":6394,"יסי":6395," מסוכ":6396," בסי":6397," מגע":6398,"ith":6399,"למרבה":6400," לעצמך":6401,"וסטרליה":6402," לכאורה":6403,"IS":6404,"פד":6405," ירוק":6406,"ברך":6407," פח":6408," סקס":6409," סכום":6410," דני":6411,"יקאי":6412," והכ":6413," לעקוב":6414," בהד":6415," להצלחה":6416," מוכנה":6417," הקטנה":6418," לפגוש":6419," הקרובה":6420," re":6421,"גול":6422,"צחון":6423," להתי":6424," לאחור":6425," להתאים":6426,"באמצעות":6427," להגיש":6428," חלקי":6429,"אטרון":6430," הַ":6431," שרוב":6432,"ריו":6433," תל":6434," פארק":6435," קשרים":6436," התורה":6437," הסיבות":6438," עוברים":6439," מיליוני":6440," כשאני":6441," תחושת":6442," הודו":6443," לוקחים":6444,"ימפריה":6445," Z":6446," y":6447," מוביל":6448," תפק":6449," באחד":6450," לשכוח":6451," לבריאות":6452," הסתי":6453," לחוות":6454," בסגנון":6455,"לטת":6456," שנראה":6457," האחריות":6458,"ory":6459," מזמן":6460," בנוסף":6461," Wh":6462," מוסדות":6463," עשיתי":6464," תגובות":6465," באיכות":6466," הקדוש":6467,"'ו":6468,"מלית":6469," שיותר":6470," עוק":6471,"ולל":6472," לבח":6473," לבטל":6474," להתמקד":6475,"והר":6476,"חלטות":6477," במחיר":6478," היעד":6479," החברתית":6480," תעשיית":6481,"\"ט":6482,"55":6483,"בינתיים":6484," הוח":6485," לרי":6486," מכתב":6487," המז":6488," המבנה":6489," נעים":6490," נמשך":6491," העיצוב":6492,"ארד":6493," פרטיות":6494," אזרחי":6495," ציוד":6496," ירידה":6497," מעוניין":6498," Q":6499,"-\"":6500,"600":6501,"טין":6502,"ככל":6503,"עיר":6504," המדו":6505,"ודאות":6506," השינוי":6507," החודש":6508,"וצמה":6509," משפחתו":6510," אסיה":6511," בהצלחה":6512,"\"אין":6513,"זכור":6514,"טיסט":6515,"פרט":6516," בוו":6517,"ניתי":6518," סל":6519," סובלים":6520," שהק":6521," מאמינה":6522," טור":6523," למספר":6524," ישירה":6525,"לקח":6526,"המס":6527,"פשט":6528,"קטיבית":6529," יעילה":6530," נחמד":6531," הכולל":6532," זמנית":6533," היתרונות":6534," צודק":6535," עמוד":6536," ייק":6537,"ואת":6538," האחר":6539,"ליכים":6540," הציבורי":6541," מצליחים":6542,"לטות":6543," בפנים":6544," לדמיין":6545," המקומית":6546," הרגשתי":6547," נסיעה":6548," המשתמשים":6549,"למידי":6550,"כיל":6551,"מדי":6552," חמאס":6553," ישן":6554," ישראלי":6555," הגישה":6556,"כתבו":6557,"ונש":6558,"צעו":6559," מטרים":6560," לזמן":6561," מוגבלת":6562," בתקופת":6563," הקודמת":6564," שתהיה":6565,"בירים":6566,"קאות":6567," ברכ":6568," ברק":6569," המו":6570,"רין":6571," מעשי":6572," ההע":6573," לחג":6574,"דויות":6575," לדוגמה":6576,"בדיוק":6577," מספקים":6578," בדיקה":6579,"\"אבל":6580,"az":6581,"פלי":6582,"״.\n":6583," הטר":6584," הלח":6585," היקום":6586," לוב":6587," מרת":6588," עזר":6589," ואתם":6590," ונש":6591," הממשל":6592,"ישר":6593,"יקורת":6594," הפרק":6595,"נסיה":6596,"בהת":6597," הזהב":6598," בטיחות":6599,"ite":6600," להעניק":6601," הליכה":6602," משותפת":6603," להיראות":6604,"ik":6605,"נור":6606," מודה":6607," כספ":6608,"ניית":6609,"ולו":6610," מהירות":6611," אושר":6612," התפתח":6613,"רכנים":6614," לברוח":6615,"בחין":6616,"החיים":6617," משפיע":6618," להעריך":6619," ביקור":6620," החוקרים":6621,"\"את":6622,"oin":6623,"אבים":6624,"האי":6625," מורה":6626," שילוב":6627," האופן":6628," מהמש":6629,"בוס":6630," במלחמה":6631,"מתין":6632," מקומיים":6633," ילדה":6634,"בשנים":6635," ארוכות":6636,"ורקיה":6637," קיימות":6638," רשמית":6639," הידוע":6640," ממשיכה":6641," החשובים":6642,"משיכו":6643," v":6644,"ES":6645,"aw":6646,"ph":6647,"אמא":6648," עברה":6649,"ניהם":6650," המכונית":6651," האר":6652," קא":6653," דעות":6654," שהה":6655,"יעית":6656,"וגות":6657," הצרפת":6658," בחירות":6659," הכנסה":6660,"חתה":6661," לתאר":6662," מפג":6663," בגדים":6664," Be":6665," פרטיים":6666," איטליה":6667," מבקשים":6668,"אבא":6669," לכת":6670," שמן":6671,"ובלת":6672,"תחילת":6673," הקשה":6674," הצפ":6675," בחש":6676," ולג":6677," לתפקיד":6678," ידידות":6679," שעדיין":6680," Cl":6681," מזג":6682," רגילים":6683,"ide":6684,"....\n":6685," מכונית":6686,"37":6687,"יכה":6688," עמ":6689," יפן":6690,"ודיה":6691," האיס":6692," השיניים":6693,"יסר":6694," הגברים":6695," מסכ":6696," הדרכים":6697," ובק":6698,"וזן":6699," ממשל":6700," יחידות":6701," חוקרים":6702," חופשית":6703,"age":6704," לעצמכם":6705," יושב":6706," .":6707,".)\n":6708," לוו":6709," האול":6710,"ומץ":6711,"ומק":6712," הביא":6713," מצח":6714,"נקציות":6715,"חייה":6716," מוזר":6717,"לעומת":6718," להתקיים":6719,"io":6720,"בזמן":6721,"סוקה":6722,"פגש":6723," יוני":6724,"דיב":6725," האצ":6726," ציבורי":6727," בערב":6728," לממש":6729," הבדל":6730," לפיתוח":6731," מסך":6732," נוכחות":6733," לגוף":6734,"יימה":6735," מכירה":6736,"ork":6737,"AS":6738,"עדי":6739," עירו":6740," המתו":6741,"לושת":6742," משמע":6743,"יטלק":6744," מסורת":6745," הצבאי":6746," הדו":6747," לתרום":6748,"כננים":6749,"בטחת":6750," נפלא":6751," מועצת":6752," אובדן":6753," שואלים":6754,"65":6755,"oy":6756,"ress":6757,"מפיין":6758," לאלוהים":6759," האלקטרו":6760," התמונות":6761," למטרות":6762," בשדה":6763," מערב":6764," מעדיף":6765," הצרכים":6766,"עדת":6767,"ונך":6768,"אמרו":6769," בריאים":6770,"כנולוגיות":6771," המאמר":6772," אוכלוס":6773," מקצועית":6774," הרביעי":6775,"דרו":6776," לנג":6777," ממצ":6778," שלח":6779,"ידר":6780," השיער":6781," הערבים":6782," במט":6783," משול":6784,"יפו":6785,"איזו":6786,"בדלים":6787," ועכשיו":6788,"מלכה":6789," כתוב":6790," לקבלת":6791,"העולם":6792," הישן":6793," הספורט":6794," נגמר":6795," כדורגל":6796,"רופאים":6797," המודרנית":6798," אוטומטי":6799,"סימ":6800,"קרונות":6801," ויל":6802," חיפ":6803,"יליות":6804,"ישו":6805," לשרוד":6806," מתרחש":6807," הכללית":6808," יצאו":6809,"ics":6810,"היינו":6811,"ֶר":6812,"אבי":6813,"ותק":6814,"רוצה":6815," להופיע":6816," האחד":6817," הארוך":6818," סיג":6819,"בועות":6820," הכפר":6821," הנג":6822," בקרי":6823," בדרכים":6824," הידי":6825," ולהיות":6826," הישראלים":6827," הביטוח":6828,"במקרים":6829,"יליאם":6830,"\")":6831,"],":6832," הערים":6833,"כולל":6834," לשנה":6835," בהס":6836," מחשבה":6837," ואולי":6838," מסוגלת":6839," המרכזית":6840," לרוץ":6841," הרשמי":6842,"ber":6843,"הלו":6844,"לכ":6845," לְ":6846," ליותר":6847," ממע":6848," תנאים":6849,"תיב":6850," סוד":6851," השו":6852," זול":6853," בכלא":6854," הייתם":6855," חזקים":6856,"מסגרת":6857," מוגבל":6858," הבעלים":6859," קרן":6860," סמכות":6861," הפנימי":6862,"uc":6863,"זמה":6864,"שנה":6865,"”ב":6866," לשרת":6867," בכתב":6868,"נייני":6869,"ולק":6870,"יתות":6871," המשימה":6872," תאי":6873," דגים":6874,"וכמה":6875," בניגוד":6876," המערבי":6877," רחבה":6878,"וחרר":6879," טוענים":6880," הפוליטית":6881," הכנסייה":6882," ההסכם":6883,"BC":6884,"אתי":6885,"מחות":6886,"רישה":6887," חום":6888," התמיכה":6889," לעתיד":6890," לחי":6891," מחוז":6892," ואחד":6893,"באמת":6894," להגיב":6895,"גוריה":6896," פרנס":6897," המועצה":6898," אגב":6899,"ֶת":6900,"פעל":6901,"קיעים":6902," שקר":6903," ערים":6904,"ניקה":6905," חיס":6906," גבול":6907," השינויים":6908," זור":6909,"בונן":6910," מחכה":6911," הכאב":6912," הזמנים":6913," הנפט":6914," אמורה":6915,"ולוגיות":6916,"ence":6917," נהג":6918,"גורר":6919," משחקי":6920," להתקדם":6921," מעורב":6922,"יינוס":6923," תינוק":6924,"\"ן":6925,"המת":6926,"כירות":6927,"תפו":6928,"ניע":6929," יין":6930," תיע":6931," נבנה":6932," עלייה":6933,"ירס":6934," פסק":6935," פוטנציא":6936," קובע":6937,"מהות":6938,"יעין":6939," התנגדות":6940," לשלום":6941," הסינית":6942,"בעלי":6943," הצליחה":6944," הכבוד":6945," שנמצא":6946," וחלק":6947," ארוכים":6948," אליי":6949," פגיעה":6950," ליצירת":6951,"!!!\n":6952,"'לס":6953," לדרך":6954," עי":6955,"ורס":6956," החוקים":6957," למט":6958,"מיץ":6959," הכניסה":6960," אמנם":6961," מפחד":6962,"געתי":6963," שקיבל":6964," מטעם":6965,"כרתי":6966," תוכנה":6967," למוות":6968," פועלת":6969,"באותו":6970," הגורמים":6971,"AT":6972,"בדו":6973,"התי":6974,"קעות":6975," בוצ":6976," חלום":6977," חיבור":6978," לארו":6979," הערכה":6980,"שווי":6981," רוק":6982," כאחד":6983," מציג":6984,"עימה":6985," כשאתה":6986,"יכרונות":6987," מרוצה":6988," הקטנים":6989," המקורית":6990,"IC":6991,"איות":6992," אנטי":6993," מטור":6994," המבט":6995," המיוחד":6996," להפרי":6997," חיוני":6998," גן":6999,"ספס":7000," מתאימה":7001," שמאל":7002," בקיץ":7003,"יינים":7004," הרשות":7005," Man":7006," בתחומי":7007," שימש":7008," קרובים":7009," עורכי":7010," הכרחי":7011," אוסטרליה":7012,"?!\n":7013,"הית":7014,"חל":7015,"חיים":7016," בנה":7017," וית":7018," וזאת":7019,"יקו":7020," במילים":7021,"ימיות":7022,"אהב":7023,"שירי":7024," עבורי":7025," אינך":7026,"כאב":7027,"בקשה":7028," השתמשו":7029," מאתנו":7030,"תגית":7031," זוכרת":7032,"44":7033,"אנ":7034,"סמים":7035,"רדים":7036," עשתה":7037,"נוקות":7038,"ובכל":7039," באמריקה":7040,"רגשתי":7041," שאינה":7042," מעדי":7043,"מתם":7044," ראיות":7045," חיינו":7046," בטלוויזיה":7047," המקומי":7048,"פסה":7049," אפשרית":7050," Is":7051,"צמאות":7052,"ניסוי":7053," אצלנו":7054," הכוכבים":7055,"AR":7056,"pt":7057,"ַּ":7058,"כרו":7059,"פוט":7060," ליש":7061," שור":7062," שתק":7063," שיחות":7064," שייך":7065," עיו":7066," המזל":7067," לאסוף":7068,"ובוס":7069,"ישמיות":7070," והתח":7071," מאושר":7072,"ועד":7073," הגרע":7074," לחדר":7075," מתים":7076," הצער":7077," נוע":7078,"דושה":7079," נייר":7080,"סקר":7081," המשיח":7082," Sc":7083,"כנסו":7084,"אמריק":7085," להכניס":7086," עשיר":7087," הצעירים":7088," שותפים":7089," אובמה":7090," הקרובים":7091," להזמין":7092," תינוקות":7093," להרחיב":7094,"\").\n":7095,"39":7096,"כרים":7097,"למו":7098,"עדות":7099," לרש":7100," ערכים":7101," שלפני":7102," נר":7103," קופ":7104," באזורים":7105,"יעילות":7106," הערבית":7107," רומ":7108,"מצעי":7109," אלכס":7110,"חתת":7111," He":7112," וכיצד":7113," תעשה":7114," [+":7115," אהיה":7116," העסקים":7117," האישיים":7118," צבאית":7119," עקרונות":7120," עולמית":7121," אהבתי":7122,"בירות":7123,"דלת":7124," אבות":7125," וזו":7126," יוז":7127," חלו":7128,"ואולם":7129,"ומך":7130," דוגמה":7131," באשר":7132," החדר":7133," והכל":7134," התנאים":7135," לשיר":7136," לשכנע":7137,"שוטים":7138,"יצונית":7139," בהריון":7140," מתה":7141," נוער":7142," מצפים":7143,"וזים":7144," הופיע":7145," צעירה":7146," חסרי":7147,"המשחק":7148," ההצלחה":7149," ממליצים":7150,"\"הם":7151,"אנא":7152,"זיות":7153,"כיים":7154," שמר":7155,"נהיג":7156," גידול":7157,"כלות":7158,"יבוי":7159,"לונן":7160,"יטלר":7161,"רגיות":7162," הקומו":7163,"נסיבות":7164,"ווירה":7165,"פרש":7166,"נדס":7167," אישיים":7168,"יזציה":7169," עצמאי":7170," מעורבים":7171," לנקוט":7172," כוכב":7173," הפתרון":7174," מסכימים":7175,"-פי":7176,"צעת":7177," מלו":7178,"ניעת":7179," להקל":7180," קיום":7181,"מוי":7182,"משמעות":7183,"ופק":7184," בשיתוף":7185,"כונת":7186," מסמכים":7187," לקרי":7188,"חדשות":7189,"ang":7190,"בשל":7191,"189":7192," En":7193," פנימה":7194," אהבת":7195," תאריך":7196," עבודתו":7197," מבינה":7198," שותף":7199," ארגוני":7200," תושבים":7201," תמורת":7202," מעוניינים":7203," בפייסבוק":7204," =":7205,"ביים":7206,"פכה":7207," ליל":7208," ונע":7209,"ודשי":7210," משבר":7211," שאלוהים":7212," ההד":7213,"בירו":7214," ולמ":7215," אמורים":7216," בוודאי":7217,"כנסה":7218," מבוססת":7219,"כתובת":7220," שבעה":7221," פופולרי":7222," המשרד":7223,"%)":7224,"IV":7225,"זן":7226,"טיפול":7227,"לכת":7228," יבוא":7229," יוסף":7230," המוט":7231," פירות":7232," פורט":7233," במת":7234," במצרים":7235," לחשוף":7236," מסוב":7237," ובת":7238," צריכות":7239," מבקרים":7240,"נקודה":7241,"ons":7242,"אלבום":7243," האחים":7244,"גרפיה":7245,"יזון":7246,"פסיד":7247,"נשק":7248,"ish":7249," חסרת":7250," אורח":7251," הנשק":7252,"וניברסיטת":7253,"ביעת":7254,"עלינו":7255," פתוחה":7256,"סטרטגיה":7257," לרבות":7258," לבלות":7259," בבת":7260," לאזור":7261," רדיו":7262,"משרד":7263," השטן":7264," צמיחה":7265," הפוסט":7266," הפרטים":7267,"וסק":7268,"חדש":7269,"כשאני":7270," ברמת":7271," הכלכלית":7272," המקדש":7273," המעבר":7274," חשיבה":7275," De":7276," On":7277," הוראות":7278," לעצמם":7279," המודרני":7280," ייעוץ":7281," נפרד":7282," שגר":7283,"ודנט":7284," חור":7285," חוס":7286," גילה":7287,"יקרו":7288," אוג":7289," בשעות":7290," רוברט":7291,"וכח":7292," נוחות":7293," הכיבוש":7294,"פיץ":7295," הטיפ":7296,"וטי":7297," בגודל":7298," לכלול":7299," כתובת":7300," סטנדר":7301,"רפואה":7302," ידועה":7303," סימנים":7304," שבועיים":7305," חוזרת":7306," פיזית":7307,"IN":7308,"pe":7309,"קציות":7310," איום":7311," ערבים":7312," ונת":7313,"ריזה":7314," לארה":7315,"זהרה":7316,"ירתו":7317," זמינים":7318," ולצ":7319," שמחים":7320,"ong":7321," ברירה":7322," הרגליים":7323," עסקי":7324," נתון":7325,"olog":7326," מומחה":7327," התגובה":7328," הפרטי":7329," הוקמה":7330," ...":7331,"-W":7332,"800":7333,"AN":7334,"ָר":7335,"אגה":7336,"בתוך":7337,"חשבתי":7338,"ומנים":7339,"ידוד":7340," מהמק":7341," באוויר":7342," התחי":7343," לשחרר":7344,"יסקו":7345," בתא":7346,"לתה":7347," ידיים":7348," מפתיע":7349," בצורת":7350,"orld":7351,"פעול":7352,"ical":7353," רצו":7354,"החל":7355," המסך":7356,"188":7357," האירועים":7358," פוליטיים":7359," מדענים":7360," חוזרים":7361," #":7362,"ts":7363,"זינו":7364,"טוף":7365," שיחה":7366," עין":7367,"ריא":7368,"יונה":7369," קונים":7370," קהל":7371," דף":7372," למידה":7373," לשקול":7374," ההוא":7375,"מציה":7376,"שאלות":7377,"ary":7378," יתרונות":7379," הביטוי":7380,"מכיוון":7381," שומע":7382," טכנולוגיות":7383,"גיד":7384," הורה":7385," ענה":7386," ובי":7387,"ולדות":7388,"רוף":7389," קב":7390," השואה":7391," השולחן":7392," אוטוב":7393,"וגיה":7394," הפה":7395," הגז":7396," הסוף":7397," מתג":7398,"טרפו":7399,"נטון":7400," שמג":7401," שמק":7402," להתעלם":7403,"פתאום":7404," המקומות":7405," שקיב":7406,"בטח":7407," תחילה":7408," שחלק":7409," משפחתי":7410," לעצמנו":7411," התוכן":7412," הצהריים":7413," הסטודנטים":7414," :\n":7415,"-י":7416,"אמת":7417,"אווה":7418,"בנית":7419," מכש":7420," בימי":7421," פנו":7422,"ישום":7423," דרמ":7424," השחור":7425,"יקס":7426," צורות":7427," אויב":7428," והתק":7429," לעיל":7430," בשירות":7431,"יסד":7432," הקפה":7433,"כויים":7434," אימון":7435,"דווח":7436," המשטר":7437," דירה":7438,"ונן":7439," מזכיר":7440," שקל":7441," אנושי":7442," הרוסית":7443,"אמנים":7444," בריאה":7445," יעילות":7446," התקדמות":7447,"מלץ":7448,"פריט":7449," לכמה":7450,"במיוחד":7451," החשמל":7452," הוגן":7453," שיהיו":7454,"דני":7455,"כיוון":7456,"שיב":7457," הלחץ":7458," לינ":7459," מראים":7460," עדי":7461," ולו":7462," כספים":7463,"ולדת":7464," לאף":7465," האוק":7466,"יאים":7467," רבי":7468," דיון":7469," השעה":7470," מאוב":7471," בעלה":7472," הביניים":7473," הצבע":7474," שלאחר":7475," למשוך":7476," ללבוש":7477," נקי":7478," התעשייה":7479," הבריטית":7480," שמעתי":7481," ממוקם":7482," תנועת":7483," שהופך":7484,"42":7485,"St":7486,"ky":7487,"man":7488,"הילדים":7489,"כרות":7490," אבו":7491," אטר":7492," להקשיב":7493," גלי":7494," טקסט":7495," לעורר":7496," הפק":7497," ישו":7498,"ועת":7499,"מצע":7500," המשבר":7501," בטלפון":7502,"בדוק":7503," אחריו":7504," מודל":7505,"ach":7506," הודיעה":7507,"לעולם":7508," הכוללת":7509," לרשות":7510," המועצות":7511," השקעות":7512," בעצמך":7513,"סיכיא":7514,"-ג":7515,"-לא":7516,"CD":7517,"rom":7518,"אצ":7519,"זרי":7520,"כין":7521,"קיה":7522," מניח":7523," להבחין":7524,"יוב":7525," תמי":7526," גילו":7527," שהגיע":7528," העש":7529," מאל":7530," למלחמה":7531," לחש":7532," מתאר":7533," הזכויות":7534," כאמור":7535,"מאחר":7536," שער":7537," הכלל":7538," לסבול":7539,"atch":7540," Microsoft":7541,"מחיר":7542," שחשוב":7543," הולדת":7544,"186":7545," [-":7546,"לעיתים":7547," שיכולים":7548," מנכ":7549,"ניסטית":7550,"120":7551,"95":7552,"דמים":7553,"ייר":7554,"עמ":7555," בים":7556," הממש":7557," המורה":7558,"ריב":7559," נעלם":7560," קהילה":7561," סוכר":7562," סדרת":7563," השניים":7564," השירותים":7565," צילום":7566," משל":7567," בניית":7568," בכיר":7569,"oun":7570,"ound":7571," כשהיא":7572," הפרטיות":7573," רשתות":7574,"DA":7575,"ah":7576,"בפ":7577,"הייתה":7578," לרצ":7579," ארכ":7580," שפע":7581," ונח":7582,"ולכן":7583," אתרי":7584," המוג":7585," להרוס":7586," נרחב":7587," שהתח":7588," באל":7589," במדינת":7590," משימה":7591," טעויות":7592," בשקט":7593," הסדר":7594,"מצן":7595," הדיו":7596,"חקנים":7597," עדן":7598,"ונם":7599,"ens":7600," תקציב":7601," למערכת":7602," נמצאו":7603," הדיגיט":7604," מורכבת":7605," לתקופה":7606," זמני":7607," לפרסם":7608," [-]\n":7609,"ארט":7610,"שמות":7611," אברהם":7612," מרט":7613," המכונה":7614,"נהלות":7615," פיג":7616,"לאת":7617," טיסה":7618," לערוך":7619," הפול":7620," מעין":7621," הגב":7622,"בעל":7623,"בעיקר":7624,"מעבר":7625,"לקות":7626," הדעת":7627," בקצב":7628," בפיתוח":7629," שנפ":7630," הידיים":7631," שתמיד":7632," נהרג":7633," המתאים":7634,"העיר":7635," מלאכות":7636," Re":7637,"לדעתי":7638,"בולוציה":7639," להתחבר":7640," הודיע":7641," קשורים":7642," המטופל":7643," תיאור":7644,"ove":7645,"47":7646,"ll":7647," יי":7648," המלון":7649," לאת":7650," נתוני":7651," האנ":7652," קיר":7653," קנדה":7654," סח":7655," סוציא":7656,"יעץ":7657," מאבק":7658," לעד":7659," הפליטים":7660,"וער":7661," לשוק":7662," לחבר":7663,"מעשה":7664,"שאלו":7665," שמדובר":7666,"בתק":7667," לתלמידים":7668," מימון":7669," פעילים":7670,"כאילו":7671," הרוסי":7672," נקבע":7673," המתא":7674," במערב":7675," רשימת":7676," בתוכנית":7677," שנערך":7678," אמיתיים":7679," חשבונות":7680,"מפרטורה":7681," מיידי":7682," בסיכון":7683,"OS":7684,"ss":7685,"בשביל":7686,"נל":7687," שרוצים":7688,"ודיו":7689," להורג":7690,"ישנן":7691,"ליפות":7692," שהשת":7693,"בונות":7694,"ינתה":7695," מתמיד":7696,"בהמשך":7697," להתרחש":7698," הרס":7699," במשפחה":7700,"בחרים":7701," המסורת":7702," מוכרים":7703," לזכויות":7704," האמריקנית":7705," חברתיים":7706," אמריקאים":7707," בפעילות":7708," הכביש":7709,"ax":7710,"ail":7711,"ְר":7712,"ִּ":7713,"גרה":7714,"כדאי":7715,"פסת":7716," השר":7717," ארצ":7718," עשית":7719," החורף":7720," התכנית":7721,"וחח":7722,"ימר":7723,"יסוק":7724,"יצג":7725," לחסוך":7726,"מעלה":7727," מחלת":7728," מקומי":7729," בחוק":7730," הזיכרון":7731,"מותו":7732," ובני":7733,"כשאתה":7734,"אונות":7735," בפריז":7736,"ייבר":7737," חייל":7738,"פויות":7739,"נדבים":7740," לסמוך":7741,"האיש":7742,"ick":7743," נהדרת":7744," מוסיקה":7745," חברתיות":7746," האויב":7747," »\n":7748,"אפ":7749,"אכן":7750,"ויד":7751,"יכם":7752,"מחו":7753,"צוות":7754," הדר":7755," אימ":7756," שולח":7757," שליש":7758," המכשיר":7759," תז":7760,"יעד":7761," והמו":7762," התר":7763," לשיפור":7764,"יסטי":7765," הסרטים":7766," הנכ":7767,"וניה":7768," מדברת":7769,"act":7770,"יסטית":7771," הרפואי":7772," איבד":7773," שאמרתי":7774," דוגמאות":7775," *":7776,"PS":7777,"נדו":7778,"פיו":7779," הון":7780," מניות":7781," המוני":7782," פוטנציאל":7783,"כללה":7784," שהכל":7785," הפחד":7786," ההריון":7787,"כתבים":7788," בבירור":7789," Off":7790," יקבל":7791," שהאדם":7792,"באותה":7793,"פלסטינים":7794," בהדרגה":7795,"-T":7796,"te":7797,"זוג":7798,"זקים":7799,"כחו":7800," מימ":7801," שפת":7802," שיטת":7803," ימין":7804," המפורסם":7805," האנגלית":7806,"יבורים":7807,"יבציה":7808," החוויה":7809," זכתה":7810," למרכז":7811," הפיתוח":7812," \".\n":7813,"יחת":7814," בהתחלה":7815,"קהל":7816,"שאלתי":7817,"באללה":7818," בגין":7819," לצע":7820,"אזל":7821," חשובות":7822,"180":7823," כתבה":7824," מנהלים":7825," ניסו":7826," קריירה":7827,"זכרו":7828,"יתונאי":7829,"'\".\n":7830,"'ונס":7831,"ֶה":7832,"ֹת":7833,"לילה":7834," שבי":7835," ששי":7836," עמית":7837," המיני":7838," המפורס":7839," דוח":7840," דמי":7841,"תוכלו":7842," התחרות":7843," הפא":7844," הפור":7845," נוג":7846," בחלל":7847,"חקו":7848,"ייף":7849,"פתור":7850,"מקרה":7851," המקרה":7852,"ההת":7853," נקודה":7854," נפטר":7855,"ild":7856," טבעית":7857," de":7858," משאבים":7859," צבעים":7860," עולמי":7861," …\n":7862,"נוסף":7863," המולד":7864,"ודעת":7865," חמור":7866," נדיר":7867," עלויות":7868," פוסט":7869," התרופות":7870,"ועכשיו":7871," רופאים":7872," מתמק":7873," שעלי":7874," בטיפול":7875," למשהו":7876," מטוס":7877," מושלמת":7878,"היכן":7879," One":7880,"אסור":7881," ועדת":7882," מרגש":7883," הפוליטי":7884," שיחק":7885,"ומטרים":7886," שרוצה":7887,"250":7888,"IT":7889,"ix":7890,"זול":7891," המזו":7892," חוזה":7893,"תיחת":7894," העין":7895,"ספקת":7896," טקס":7897," ישנו":7898," הקונ":7899," הגיוני":7900,"אותה":7901," בקבוצה":7902,"ירוף":7903," מפות":7904," בדברים":7905," בטווח":7906," בצע":7907,"כננת":7908,"פלגות":7909," האישית":7910," תכנון":7911," מוחלטת":7912," ליישם":7913,"בך":7914,"בילות":7915,"גיה":7916,"מלים":7917,"עז":7918,"פרים":7919," הרחב":7920," המדי":7921," עליהן":7922," האחרות":7923,"להלן":7924," כללית":7925,"ספור":7926," טרם":7927," התעל":7928," הבניין":7929,"ושך":7930," מתפתח":7931," מחי":7932,"נחלויות":7933,"שתות":7934," הנור":7935," בפרט":7936," לדון":7937," ראייה":7938," בכיוון":7939," לסגור":7940," יחס":7941," בתחומים":7942," אליכם":7943," מיומנויות":7944,"אבדות":7945,"ime":7946," זוכה":7947," …":7948,"אוריה":7949,"דג":7950,"קצת":7951,"שומת":7952," לניהול":7953," שנית":7954," ערו":7955," המוכ":7956," קונג":7957," מהווים":7958," לעודד":7959," למג":7960,"יטול":7961," הסבר":7962,"יחים":7963,"וונת":7964," הדיון":7965," עבורכם":7966," בנייה":7967,"בחנה":7968," המחוז":7969," לטע":7970," יעקב":7971," התחילו":7972," New":7973," בעצמי":7974," השקעה":7975," מדהימה":7976," הנסיעה":7977," שאינן":7978," [+]\n":7979,"צרת":7980,"קרו":7981," מיה":7982," שכתב":7983," בולט":7984,"ילר":7985," תשובות":7986," השיחה":7987," ציל":7988," צמח":7989," והב":7990,"בעבר":7991," לחזק":7992," מחשבים":7993," לקוח":7994," יהודה":7995," לתואר":7996,"מודי":7997," שעשו":7998," הכלים":7999,"ולוגים":8000," במקור":8001," המסר":8002,"נאביס":8003,"old":8004," פרטית":8005," נדמה":8006," צפויה":8007," צפויים":8008," מאושרים":8009," מתרחשת":8010,"הבת":8011,"הגיע":8012,"פילה":8013,"“אני":8014," אורך":8015," שחר":8016," תאים":8017," תועלת":8018," האלוהים":8019," דואר":8020," דרכו":8021," אוסף":8022," בממוצע":8023," בעבוד":8024,"וגע":8025," הבורא":8026," ההר":8027," בחורה":8028," ליבר":8029," עצומה":8030,"אוט":8031,"לטו":8032," מכאן":8033," ברזל":8034,"ath":8035," נעצר":8036," האמריקאים":8037," ליהודים":8038," המוזיאון":8039," שונא":8040,"\"[":8041,"ָּ":8042,"גנו":8043,"חז":8044,"טציה":8045,"מאי":8046,"פלת":8047," שפורסם":8048," יומ":8049,"רועות":8050," לאו":8051," פוט":8052,"ראליים":8053," באפשרות":8054,"בונים":8055," מאמר":8056," משכ":8057,"תחשב":8058," בהקשר":8059," לחלוק":8060," הצעות":8061,"ווין":8062," בחור":8063," מצבים":8064," מציין":8065," בתגובה":8066," יהוה":8067," ברשות":8068," הרשויות":8069," המחשבה":8070," יעשו":8071," מלאים":8072," גורמת":8073," תצטרך":8074," המשתתפים":8075," העצמי":8076,"אירועים":8077," רפואית":8078," מתקדמים":8079,"49":8080,"ey":8081,"ייט":8082,"פכו":8083,"צרות":8084," היק":8085," הלוח":8086," לסי":8087," ממוצע":8088," ברג":8089," המטרות":8090," חנות":8091," חכמים":8092," לאלה":8093," לאומית":8094," קוק":8095,"תיבת":8096,"כלת":8097," סחר":8098," דוקטור":8099," שהוק":8100," באנשים":8101," הבי":8102," לבנים":8103," הסחר":8104,"שתתפות":8105," עצם":8106," לגשת":8107,"לתם":8108,"....":8109,"פטן":8110,"טוריה":8111,"והנה":8112," עשויות":8113," פייסבוק":8114," התחלתי":8115," רעב":8116," הריון":8117," יתרון":8118," חלומות":8119," הציבורית":8120," יסוד":8121,"זבז":8122," שבאמת":8123," מייצג":8124," הגרמני":8125,"לפונים":8126," st":8127,"דוד":8128,"קחו":8129,"שלא":8130," שולחן":8131,"ניב":8132," נשימה":8133,"ובלית":8134,"ובליק":8135," קולות":8136," דרישות":8137," החודשים":8138," במלחמת":8139," במגוון":8140," הבמה":8141," בהג":8142," מסוי":8143,"וויטר":8144," חיז":8145," אזורים":8146," Me":8147," מטוסים":8148,"השנה":8149," ריצ":8150,"לגבי":8151," מדויק":8152," תומך":8153," השחקן":8154," האפשרויות":8155,"!)\n":8156,"טיות":8157," ממוש":8158," מכשיר":8159," בלה":8160," ביפן":8161," נב":8162,"מוז":8163,"ופשה":8164," שהב":8165," אחיו":8166," לעם":8167,"ותרות":8168," ההחלטות":8169,"כונן":8170,"בעיות":8171," הנד":8172," לתכנן":8173," לדברים":8174," שישראל":8175,"הסיפור":8176,"מפוס":8177," מוזיאון":8178," מצוינת":8179," זיהום":8180," לבעיות":8181,"In":8182,"ON":8183,"ּוֹ":8184,"התו":8185,"הבא":8186,"עס":8187,"קלי":8188," לידה":8189," איל":8190," ביס":8191," המראה":8192," נבד":8193,"ובדן":8194," קצב":8195," קצרים":8196,"ישלון":8197," שהכ":8198," התרופה":8199," בעזה":8200," בעיית":8201,"רכן":8202,"יצועים":8203,"דרש":8204," מחזור":8205," הציע":8206,"יגיון":8207," ניכר":8208,"בחון":8209,"בשנה":8210," המחירים":8211," Gr":8212," אומץ":8213," פנימי":8214," קולנוע":8215," נכנסים":8216," מובילה":8217," באוניברסיטה":8218," הפרסום":8219,"אשר":8220,"חיות":8221,"מליים":8222,"צתי":8223,"תת":8224," היפה":8225," מורים":8226," ובלתי":8227,"ריץ":8228," נפוץ":8229," האידי":8230,"ידוש":8231," דיוק":8232,"לאם":8233," העמים":8234," הפוטנציאל":8235," הצפו":8236," הצמיחה":8237," הצרפתי":8238,"בהיר":8239," הכר":8240," איזון":8241,"חקן":8242," צריכת":8243,"סקו":8244," ברש":8245," עונש":8246," להגביר":8247,"בטא":8248," Res":8249," For":8250,"קיימים":8251," נתפס":8252," ברוסיה":8253," ידועים":8254," משקיעים":8255," אנגליה":8256," קילומטרים":8257," ”":8258,"85":8259,"הבח":8260,"מרכז":8261,"פיא":8262," אשה":8263," מנות":8264," כניסה":8265," שלג":8266,"יתונים":8267," חנויות":8268," תתק":8269,"ראתה":8270," סא":8271," בארגון":8272," החג":8273,"בוי":8274," העברת":8275," הבק":8276," הבנייה":8277,"לחמות":8278," Air":8279," מספרת":8280," נחשבת":8281,"out":8282," רביעי":8283," מכלל":8284," ספרד":8285," מועד":8286,"סיקים":8287," המכירות":8288," באיזה":8289," נמנע":8290," הצבאית":8291," החיילים":8292," בבעלות":8293," חרדה":8294,"-ת":8295,"חן":8296,"מיקה":8297,"מחקרים":8298,"ציית":8299," ארי":8300," שומרים":8301," ביר":8302,"יליים":8303," קונה":8304,"מומלץ":8305," סביבה":8306,"יקי":8307," הקלא":8308," מעש":8309," ההפ":8310,"מערב":8311," ולס":8312," הראו":8313," בגן":8314,"מודדים":8315," הכלכל":8316,"בדת":8317," יצירות":8318," Pr":8319,"אמינו":8320," נהנה":8321," שכזה":8322," עובדי":8323," חוקית":8324," th":8325," משמעותיים":8326," קלוריות":8327," אבנים":8328," מקבלת":8329," קשורה":8330," הנשמה":8331,"נרל":8332," קליפורניה":8333," ולקבל":8334," במציאות":8335," סוכרת":8336," גרעיני":8337," אוגוסט":8338," r":8339,"סדות":8340," הוז":8341," לוא":8342," בוחר":8343,"ודיע":8344,"ישן":8345," צוע":8346," הענק":8347," טילים":8348,"תחרר":8349," לגיט":8350," מייקל":8351,"המחקר":8352," להביע":8353,"ליטות":8354," קיץ":8355," קריאה":8356,"בניגוד":8357,"אינני":8358," ספציפי":8359," החברתיות":8360," נולדה":8361,"46":8362,"700":8363,"AC":8364,"וברת":8365,"מיע":8366," לרע":8367," עזב":8368," כריסט":8369," ייר":8370," אתן":8371," המספרים":8372,"זהר":8373," גוגל":8374," סדרה":8375," השירים":8376," במובן":8377," ישנים":8378," לשירות":8379," הקבוצות":8380," מעטים":8381," לנושא":8382," עבורנו":8383,"ידעתי":8384,"ולוגיים":8385," Tr":8386," למשפחה":8387," II":8388," תעופה":8389," במחשב":8390," התושבים":8391," מתקדם":8392,"במקביל":8393," המוסלמים":8394," הוצאות":8395," חוויות":8396," טיול":8397,"בגיל":8398," שתוכל":8399," תיקון":8400," רפואיים":8401," עצמאית":8402," שימושי":8403," לנהוג":8404,"-E":8405,"דשות":8406,"ייקט":8407,"מטרת":8408,"צפו":8409," בינ":8410," ופע":8411," יוח":8412," יפים":8413," יומיים":8414," אתגר":8415,"ריל":8416," האיטלק":8417," קרקע":8418," גונג":8419," שהוצ":8420," החשבון":8421," צפ":8422," ציון":8423," טורקיה":8424," בעבור":8425,"מעו":8426," לקבוצה":8427,"דושים":8428,"וטה":8429," ברשימה":8430," בכדור":8431," בנושאים":8432," רחוב":8433," הרגל":8434," סטיב":8435," המאבק":8436," מלכ":8437," נותרו":8438,"שניהם":8439," שנוכל":8440," כחול":8441," הרפואה":8442,"ife":8443," מסייע":8444,"ED":8445,"און":8446,"כניים":8447," לנח":8448," ומר":8449," המיל":8450,"ואלים":8451," האנט":8452," השניה":8453," השיטה":8454," הבת":8455,"מתה":8456,"נחלים":8457," –\n":8458," אלבום":8459," בסדרה":8460," בסביבות":8461," להתפ":8462," עבורך":8463,"גרמניה":8464,"בקשים":8465," אנושית":8466," תחבורה":8467," למציאות":8468," טבעיים":8469," דאעש":8470," אינטרא":8471,"US":8472,"land":8473,"ww":8474,"טרים":8475,"כירים":8476,"סיפור":8477," איפ":8478," ורי":8479,"ולמה":8480," המנהל":8481," המבקרים":8482," נמסר":8483," עלות":8484," פשע":8485," משימות":8486," שאומר":8487," הגול":8488," הדג":8489," הטרי":8490," אינס":8491,"פקט":8492," הרווח":8493," למעט":8494," נהנים":8495," הניתוח":8496,"own":8497," ומעלה":8498," משפטית":8499," הבטיח":8500," הדרושים":8501," מצאתי":8502," בחייו":8503,"/ת":8504,"הות":8505,"מסת":8506,"סביר":8507," לרח":8508," שתיים":8509," ידו":8510,"ירתי":8511,"ליד":8512," דקה":8513," החופש":8514," התנ":8515," הבינו":8516,"ימנע":8517,"ושבים":8518,"ינוס":8519," לבסוף":8520,"מעל":8521," מקווים":8522," Ser":8523," אנוש":8524," מטופלים":8525,"קסון":8526," פניו":8527," מלמד":8528," הונג":8529," רכבת":8530,"ירושין":8531," ובמיוחד":8532," רלוונטי":8533,"'יה":8534,"זמים":8535,"פשת":8536,"שק":8537," הרוב":8538," הוביל":8539," מכה":8540," מכשירים":8541," בקהילה":8542," חלל":8543,"יאוג":8544," השמים":8545," החיות":8546," התפר":8547,"רבת":8548," בהודו":8549," לחם":8550," הצל":8551," אפל":8552," שמאפשר":8553," שמגיע":8554," להתפתח":8555," בצבא":8556," אלוקים":8557," ילדות":8558," תשע":8559," פרופסור":8560," אופניים":8561," רכוש":8562," מאפשרים":8563," הרוחני":8564,"ext":8565,"-L":8566,"ֵי":8567,"לכו":8568,"קירה":8569," הינם":8570,"ניזם":8571," להיו":8572,"משכת":8573,"יבטים":8574," שהיתה":8575," השלב":8576," החומרים":8577," העצמאות":8578," משוכ":8579," למטרה":8580,"צהרה":8581," כאל":8582," הדמוקרטיה":8583," אלפים":8584," עדות":8585,"גרס":8586,"כימה":8587," My":8588," נהר":8589," התיירות":8590," נתנו":8591," ההתנגדות":8592," המטוס":8593," בדיקת":8594," נותנת":8595," השפעות":8596," רוחנית":8597," הטבעי":8598," נורמלי":8599," מעורבות":8600," הקודמים":8601," מפלגת":8602," האמיתיים":8603,"\"המ":8604,"\"היא":8605,"%,":8606,"-ד":8607,"מלבד":8608," הרבים":8609," בוא":8610," בכם":8611," ונשים":8612," להזכיר":8613," חן":8614," תפס":8615," סן":8616," במז":8617," מאמרים":8618," משתי":8619," לבעלי":8620," הסביר":8621," הכרה":8622," בסט":8623,"וזרים":8624," שבני":8625," חשש":8626," המסע":8627,"אחרים":8628," שמעולם":8629," מרוצים":8630," פרסם":8631," משפטי":8632," תופעות":8633," היסטורי":8634," האקלים":8635,"-O":8636,"Ph":8637,"ok":8638,"בקים":8639,"שש":8640," שרה":8641," ונה":8642," קידום":8643," סיטי":8644," החוב":8645," והנ":8646," הפועלים":8647,"טרית":8648," הנביא":8649," בקט":8650," בקנה":8651,"ink":8652,"גדרה":8653," יעלה":8654,"ous":8655,"גוריות":8656,"זרחים":8657,"רואיד":8658,"ash":8659," מקצועיים":8660," מונח":8661," הנקודה":8662," אופטימ":8663," בניסיון":8664," Office":8665," )":8666,"כמת":8667,"לרוב":8668,"ננת":8669,"שרו":8670,"שוק":8671,"שמים":8672," לסט":8673," שמים":8674," ינו":8675," להרג":8676,"ואנה":8677," תוה":8678," נחת":8679,"ראשי":8680,"ומכים":8681," רמה":8682," אחורה":8683,"יקון":8684,"יקוח":8685," החיס":8686," החברתי":8687," אוסט":8688,"רגול":8689,"יצוץ":8690," הסוציא":8691," הצלב":8692," מבצעים":8693," בתנאים":8694,"לטים":8695,"ייץ":8696," חייה":8697," במשרה":8698," ועדיין":8699,"בטיה":8700," משתנים":8701,"התע":8702," רגילה":8703," תערו":8704,"iss":8705,"נאט":8706," עסקיים":8707," מלכות":8708," מנהיגים":8709," במוע":8710," יקבלו":8711," חמישי":8712,"כניסה":8713,"מכרות":8714," קיבלתי":8715," סגנון":8716," ניתנת":8717," הפיזי":8718," המשותף":8719,"חח":8720,"פסים":8721,"שנית":8722,"שלושה":8723,"שטיין":8724," מונה":8725," כוע":8726,"יתכן":8727," עלתה":8728," קראו":8729," צופים":8730," למת":8731," שאוה":8732," בשלום":8733," הקונגרס":8734," לביצוע":8735,"נסי":8736,"בהתחלה":8737,"אהבתי":8738," הרשימה":8739," להגנה":8740," שקי":8741,"ivers":8742," ויכול":8743," המודעות":8744," תרופה":8745," הרפובליקה":8746," מבחן":8747," נדרשים":8748," גדלה":8749," חומרי":8750," חלבון":8751," הלהקה":8752," ~":8753,"ַל":8754,"גלו":8755,"דיון":8756,"טיפ":8757,"לֹ":8758,"מיום":8759,"תכנית":8760," כספי":8761," שלטון":8762,"נוב":8763,"ואלית":8764," קרח":8765," דוב":8766," השב":8767," טרא":8768," לעניין":8769,"רגת":8770,"ועות":8771," לשמר":8772,"מתק":8773," הצעת":8774," הכרטיס":8775," הדואר":8776," שמירה":8777,"סטי":8778," מבנים":8779," בתקשורת":8780,"פקוד":8781," דיאטה":8782," ישראלית":8783,"פעלה":8784," עסקית":8785," מועמד":8786,"רואידים":8787," דובר":8788," דורשים":8789," יישום":8790," ואחרים":8791," הוקם":8792," להיפגש":8793," סקוט":8794," ממליץ":8795," במאבק":8796,"זמורת":8797,",”":8798,"]]":8799,"up":8800,"ֶם":8801,"הילד":8802,"חס":8803,"טרון":8804,"כוד":8805,"מחי":8806,"עבד":8807," לים":8808," בטרם":8809,"כלול":8810,"יאמר":8811,"ומרי":8812," רעה":8813," באיטליה":8814,"בלנות":8815," והיו":8816," לעזרה":8817," ההודעה":8818," רומא":8819,"וצאה":8820," מתנג":8821," הנמו":8822," בסיפור":8823," לצמצם":8824,"פלציה":8825," חלקית":8826,"עינית":8827," Dr":8828," רגעים":8829," הרגיל":8830," השתתפות":8831," מתייחסים":8832," לרמה":8833," המלאה":8834," שהגיעו":8835," הגרמנים":8836," פתוחים":8837,"בהתאם":8838,"-פ":8839,"66":8840,"MS":8841,"השת":8842,"חול":8843," הנת":8844," ללב":8845," לראש":8846," מיש":8847," מרחב":8848," אתגרים":8849," חוג":8850,"ופנה":8851," צמחים":8852," שאלו":8853," מחירים":8854," בחרו":8855," ואחר":8856,"דונ":8857," היופי":8858," בניין":8859," חלקם":8860," ספרות":8861," מבוגר":8862," יקרים":8863," מופיעה":8864," לתקשר":8865," ואחרי":8866," חקירה":8867," בודד":8868," להיפטר":8869," עוצמה":8870," ייחודית":8871," e":8872,"אחרת":8873,"בקות":8874,"חרונה":8875,"”ל":8876," לרצות":8877," לומד":8878," שיט":8879," יוק":8880," יולי":8881," המניות":8882,"נהגו":8883," תוב":8884," תזונה":8885," פשוטים":8886," דתיים":8887," באנגליה":8888," העשרים":8889,"יפי":8890,"יטוא":8891," ההון":8892," בסכנה":8893," וללא":8894," שנא":8895," שעשה":8896," שבח":8897," תחומי":8898,"187":8899," ריח":8900,"הערה":8901,"במילים":8902," ופיתוח":8903," הנישואין":8904," הפעולות":8905,"אגב":8906," בנפרד":8907,"uman":8908," מהחיים":8909," האשראי":8910," איטלק":8911," בעצמם":8912," סבלנות":8913,"ְּ":8914,"בקר":8915,"היי":8916,"טחה":8917,"ססים":8918,"עבודה":8919,"רְ":8920," ליב":8921," לסטודנטים":8922," אדי":8923," מית":8924," שיטה":8925," ער":8926," חוות":8927," חובות":8928," פרא":8929,"משום":8930,"משפחה":8931," השליטה":8932," השופט":8933," השיווק":8934," באחת":8935," אוס":8936," אוקט":8937," הערכים":8938,"ספרי":8939,"ועוד":8940,"שווה":8941,"ושב":8942," מעניינים":8943," הסיני":8944," לחוש":8945,"נקו":8946," מגורים":8947,"מאוחר":8948,"סתם":8949," ותק":8950," Te":8951," ''":8952," המעור":8953," הנוער":8954," התחילה":8955,"קיף":8956," פנימית":8957," לפעילות":8958," הרצפה":8959," Intern":8960," דאגה":8961," למדתי":8962," לנקות":8963," נכסים":8964," תוספת":8965,"51":8966,"ile":8967,"’s":8968," מנקודת":8969," שׁ":8970," יתח":8971," יישאר":8972," חווים":8973," נכונות":8974,"תוחים":8975," במידע":8976," משך":8977," לעצב":8978," לקידום":8979," נוה":8980," עצמן":8981,"יגן":8982,"סקות":8983," מגן":8984," Mar":8985,"וכלוס":8986," המחשבות":8987," [[":8988," סיכונים":8989," ברחובות":8990," פרופ":8991," הלימוד":8992," המטבע":8993,"ינטולוגיה":8994," להסתיר":8995," המלכה":8996," תיירים":8997," הגרמנית":8998,"ights":8999," כוונה":9000," הקיימים":9001,"ליגנציה":9002,"meric":9003,"\"הא":9004,"בפעם":9005,"במסגרת":9006,"כיה":9007,"כיות":9008,"מימות":9009,"ענות":9010,"ציל":9011," הונ":9012," מנוע":9013,"ולנד":9014," האימפריה":9015," סד":9016," מהכ":9017," מאלה":9018," הבנקים":9019," הקלה":9020," ההתחלה":9021," הסופי":9022," מסלול":9023,"ייתו":9024,"ייתם":9025," שמטר":9026," הראה":9027,"ert":9028," בכפר":9029," Ac":9030," ושם":9031,"בטלה":9032,"פשרויות":9033," עובדה":9034,"רגישו":9035," רישיון":9036," במוח":9037," לעצמה":9038," הומו":9039," רוחני":9040," פורסם":9041," האינטרסים":9042," הנאצים":9043,"לטפורמה":9044,"\"זו":9045,"43":9046,"זבת":9047,"פליק":9048,"תשובה":9049," עסקה":9050," כואב":9051," האנג":9052," סבור":9053," דמ":9054," החלום":9055," במדיניות":9056," שאחרי":9057," הקיים":9058," מענה":9059," ההומ":9060,"מצאת":9061," מסיבות":9062," מקומית":9063," אידי":9064," בקושי":9065," מפורט":9066," לדעתי":9067,"anc":9068," בלעד":9069," חזון":9070,"ich":9071," תחנת":9072,"הבית":9073,"ise":9074," חופשיים":9075," פריטים":9076," דורשת":9077," ייתן":9078," פירושו":9079," ספינות":9080," להרשות":9081," הנוסעים":9082,"\".[":9083,"'ור":9084,"PN":9085,"בינו":9086,"שלב":9087," הוציא":9088," ללח":9089," עמודים":9090," ונק":9091," תלמידי":9092," האות":9093,"ידקים":9094,"יעורים":9095," העסקה":9096," למחקר":9097,"רגם":9098," הסופית":9099,"בעולם":9100," לחברות":9101," הצעה":9102," לקום":9103," מבול":9104," כמוך":9105,"פשרו":9106," משתתפים":9107," מוסלמים":9108,"קדמיה":9109,"רשמה":9110," אדרי":9111," ההתנהגות":9112," מובילים":9113," הנחה":9114," שנעשה":9115," כרטיסים":9116," מנהיגות":9117," האתגרים":9118," דניאל":9119," לחגוג":9120,"בדי":9121,"הכול":9122,"ךְ":9123,"קתי":9124,"״\n":9125," ושא":9126," כק":9127,"נום":9128,"יווד":9129," תוא":9130," נרח":9131,"ובץ":9132," פנט":9133," פרחים":9134," האומה":9135," קניות":9136," דק":9137,"להבות":9138," באות":9139," צורת":9140,"ספרו":9141," מאוניברסיטת":9142," משלמים":9143,"יפיור":9144," לשוב":9145,"וסה":9146," הסול":9147," נוכח":9148," ראשית":9149," שעושה":9150," עבורו":9151," נשלח":9152," Le":9153," הרגשות":9154," פריז":9155," לרשת":9156," תלויה":9157," הסרטן":9158," האושר":9159," הקשור":9160," All":9161,"ואליציה":9162,"\"אז":9163,"'ינג":9164,"52":9165,"67":9166,"oh":9167,"חוף":9168,"כרגע":9169,"מנית":9170,"נדים":9171,"שמו":9172," שדי":9173," שנוע":9174," יוון":9175," להיח":9176,"תייש":9177,"ופרת":9178," השקט":9179," לעסקים":9180," הבירה":9181," הבתים":9182," לחודש":9183,"וצרות":9184," בחינוך":9185," אינני":9186," דיפל":9187,"קרן":9188," שבס":9189," הלכה":9190,"החלק":9191,"185":9192,"טונו":9193," יתכן":9194," ניסוי":9195," ההשקעה":9196," המושלם":9197," פרקים":9198," תומכים":9199," מתאימים":9200," משלהם":9201," אוקטובר":9202,"הפר":9203,"הנשיא":9204,"לפת":9205,"פעת":9206,"ציר":9207," הניסיון":9208," לבר":9209," ברכב":9210," עולים":9211,"ורידה":9212,"רומה":9213," חוט":9214," עלו":9215," סכנה":9216," שהוש":9217," מאסר":9218," הפארק":9219,"רגלים":9220," שאדם":9221," הקוס":9222," מעקב":9223,"יצב":9224," הכשרה":9225," הנרי":9226," עצוב":9227," הטור":9228," ראינו":9229," שנאמר":9230," דירות":9231," ברע":9232,"המדינה":9233," קטל":9234," המחבר":9235," מוסיף":9236," רשאי":9237,"חלקם":9238," סיפרה":9239," רכישת":9240," מוחמד":9241," לימודים":9242," הקשורות":9243," ציור":9244," שתוכלו":9245," הכדורגל":9246," מיידית":9247," הצרפתית":9248," הצפוני":9249,"-H":9250,"ָם":9251,"האו":9252,"טת":9253,"נמרק":9254,"פיד":9255," אדוני":9256," מפר":9257," מרצ":9258," עידן":9259,"ראינו":9260," סיב":9261," רעים":9262," אחי":9263," העץ":9264," העיתון":9265," התור":9266," התנג":9267,"ינק":9268," הפסקת":9269," הקלי":9270," הגר":9271,"יחסי":9272," בהע":9273,"יינות":9274," חדרים":9275,"וניינים":9276," עבורם":9277," שביצ":9278," בכירים":9279," קורבנות":9280," אנא":9281,"ase":9282," חמורה":9283," ההשפעות":9284,"רופיל":9285," בידיים":9286,"ירייה":9287,"פחתו":9288," הרחוב":9289,"אלוג":9290," הוכחה":9291," הקולנוע":9292," היסוד":9293,"יצוניות":9294," הסתיימה":9295," האולימ":9296,"אוס":9297,"מתח":9298,"מריק":9299,"צאים":9300," לרק":9301," שיד":9302," ביקר":9303," כני":9304," ייפ":9305," יעד":9306," יביא":9307,"נוג":9308,"נוני":9309," לארצות":9310,"מוות":9311,"תיק":9312," סע":9313,"ומבי":9314," דתי":9315,"יעוט":9316," לממשלה":9317,"יפון":9318," לשום":9319,"ושע":9320," נובמבר":9321,"נטו":9322," איכ":9323,"דווקא":9324," ולד":9325," בפור":9326,"וטרים":9327,"נדמה":9328," ברזיל":9329," בכיתה":9330," ולהע":9331," הנוג":9332," הרופאים":9333," חזרו":9334," להשגת":9335," אסון":9336,"עודיה":9337," העליונה":9338," הגבוהים":9339," הפרלמנט":9340," הרפוא":9341,"'ין":9342,"88":9343,"צץ":9344," מכונות":9345," משרת":9346," מיקום":9347," שראיתי":9348," חיצוני":9349,"ובש":9350," האוצר":9351," דמויות":9352," השנתי":9353," באוט":9354," והז":9355," לעסוק":9356," למסקנה":9357," הקה":9358,"מצעים":9359," מסק":9360," בסמים":9361,"לטינית":9362," שלושים":9363," ראתה":9364," לסוג":9365,"בחודש":9366,"כנסת":9367,"פארק":9368," הדירה":9369,"שלכות":9370," שיעורי":9371," להפיק":9372,"otel":9373," פולין":9374," ולעשות":9375," שהעולם":9376," לפתרון":9377," מזונות":9378," פיזי":9379," המבוסס":9380," הצלחתי":9381,"נעים":9382,"נולד":9383,"פין":9384,"שלוש":9385," היותר":9386," הודות":9387," מילות":9388," מלווה":9389," שתח":9390," שחרור":9391," עדים":9392," ויה":9393," וושינגטון":9394," לאחת":9395,"ואולי":9396," נפל":9397,"ומיני":9398,"משה":9399," דומות":9400," החליטה":9401," משע":9402," טיסות":9403," התס":9404,"ינור":9405," למנה":9406," למדינות":9407," הקיר":9408,"נתם":9409," מחליט":9410," בחברת":9411," הכות":9412," ואינ":9413,"וזיציה":9414,"ירוץ":9415," בבני":9416,"ance":9417," יצאה":9418," תקבל":9419," ידעה":9420," להשיב":9421," השלכות":9422," העובדות":9423,"רוסופט":9424,"בצעים":9425," הפנימית":9426," החמישי":9427,".\"[":9428," באחריות":9429," k":9430,"')":9431,"64":9432,"line":9433,"התוצאה":9434,"זוקה":9435,"חבר":9436,"מכו":9437,"נץ":9438,"ננה":9439,"נקה":9440,"רדות":9441," מובן":9442," כיסוי":9443," האלימות":9444," סגור":9445,"יאונים":9446," מהמח":9447," שהדבר":9448," זמנים":9449,"ועדת":9450,"נתר":9451," לפלסט":9452," הסכמה":9453," הסכסוך":9454," איז":9455," עצים":9456," לגברים":9457," בתנאי":9458," ניג":9459,"כשיטים":9460," לנוע":9461," יצחק":9462,"גורם":9463,"קיימת":9464," אדמות":9465," ומשת":9466,"ign":9467," בסיסי":9468,"מצאתי":9469," טיפולים":9470," פלסטין":9471,"מליץ":9472," יגיעו":9473,"גרירות":9474," ויטמין":9475,"ִּ":9476,"חף":9477,"ךָ":9478,"עצ":9479,"רצה":9480," לתוצאות":9481," שינו":9482," שרבים":9483," בנים":9484," בירה":9485," וילדים":9486," כג":9487," יבש":9488,"וליה":9489," הממוק":9490," חינו":9491,"יווי":9492," תמשיך":9493," תמצאו":9494,"ובדות":9495," שהוב":9496,"יקרון":9497," העדי":9498," מאורג":9499," לחדש":9500,"מעניין":9501," הטכנולוג":9502," שנאה":9503," דיכאון":9504," וחס":9505," למשרד":9506,"פשטות":9507," הנוגע":9508," Br":9509," נהיגה":9510," התקציב":9511,"לדוגמא":9512," ששמע":9513," אהוב":9514," מוקדמת":9515," שמשת":9516," שמשהו":9517," הפסקה":9518," מתכוונים":9519," פוגע":9520," המובילים":9521," שוויון":9522," פיליפ":9523," מעדיפים":9524,"!\".\n":9525,"''\n":9526,"בתחילת":9527,"הורים":9528,"המקום":9529,"שנו":9530," שפי":9531," בקה":9532,"רוני":9533," חירות":9534," חכמה":9535," לאינטרנט":9536," לאמץ":9537,"ואיך":9538," תורה":9539," האט":9540,"ומרת":9541," דפוס":9542," זע":9543,"יעוץ":9544,"ספות":9545," למים":9546," הבדיקה":9547," שאח":9548," הגבר":9549," הסובי":9550,"מציא":9551," הצעד":9552," הצטרף":9553,"וונות":9554," ואינו":9555," הנזק":9556," אחדות":9557," בגוד":9558," יציבות":9559," כשאתם":9560,"פורד":9561,"כנסייה":9562," הנושאים":9563," נמצאות":9564," World":9565,"גורמים":9566,"ions":9567,"ליטת":9568," החלטתי":9569," גילוי":9570," ההצעה":9571," תופעה":9572," הדרומי":9573,"ake":9574,"דיביד":9575,"\"אנו":9576,"אוק":9577,"הנס":9578,"האתר":9579,"כורה":9580,"נשא":9581,"שירות":9582," שומר":9583," בבו":9584," עכ":9585,"יתן":9586,"יומה":9587," לאישה":9588," סמוך":9589," מהתק":9590," התודעה":9591," בעידן":9592," לעוד":9593,"ינסון":9594," לשתי":9595," בשילוב":9596," הגזע":9597," הגבולות":9598," לפרק":9599," לבכות":9600,"רטי":9601," הדמויות":9602," בקר":9603,"יגר":9604,"אונד":9605,"ירוס":9606," בגדה":9607,"מדתי":9608,"נדסה":9609," דיס":9610," בטבע":9611," במשהו":9612," יצליח":9613,"יזר":9614," יחדיו":9615," הטבעית":9616," טיפים":9617," ניצחון":9618," הגורם":9619," שיצא":9620,"\":":9621,"''.\n":9622,"53":9623,"59":9624,"BS":9625,"RE":9626,"פץ":9627," מיט":9628," המדה":9629," להרים":9630," נמל":9631," סיני":9632," ספט":9633," סגן":9634," רשויות":9635,"יבט":9636," דתית":9637," מהלך":9638,"אתגר":9639," אחרונה":9640,"יקלים":9641," החתונה":9642," במי":9643," משטר":9644," משלם":9645," התשלום":9646,"ינד":9647," למידע":9648,"וגו":9649,"יפיות":9650," הבנות":9651," לבדו":9652," מסחרי":9653," הצדק":9654,"דונים":9655," ובמק":9656," הטיסה":9657," נישואין":9658," מגלים":9659," מכדי":9660," Su":9661," בכבוד":9662," המקומיים":9663,"בקיצור":9664," הלכו":9665," הלכת":9666,"גוררים":9667," חוקר":9668," אירועי":9669," המשפטי":9670," האישיות":9671," חייך":9672," שומעים":9673," לרופא":9674,"נדרטים":9675," כפול":9676," לתוכנית":9677," המשיכה":9678,"-יורק":9679,"-ט":9680,"AP":9681,"ארגון":9682,"התוכנית":9683,"הרעיון":9684,"וין":9685,"חיש":9686,"ממות":9687," שוח":9688," לאותו":9689,"יליון":9690," נמכ":9691," פליטים":9692,"ידס":9693," דבריו":9694," אחים":9695,"בלבל":9696," משלי":9697," משמשים":9698," התאים":9699,"ימית":9700,"ימיה":9701," בשו":9702," בשאלה":9703," מעריך":9704," מעורר":9705,"כתבי":9706," ולראות":9707," לגדל":9708," And":9709,"פעולה":9710,"פריקה":9711," הולנד":9712," התחלה":9713," קורסים":9714," קשיים":9715," לתקוף":9716," US":9717," ובעלי":9718," פלסטינית":9719,"ואליות":9720," בודדים":9721," הכוונה":9722,"יוויד":9723," נאלץ":9724," החופשי":9725," פרנסיסקו":9726," ספטמבר":9727,"--":9728,"41":9729,"72":9730,"כילה":9731,"מכאן":9732," מיום":9733," המכון":9734," המבצע":9735," האבטחה":9736,"ופיות":9737," שהט":9738," החליטו":9739," זרה":9740," צופה":9741," התואר":9742," לעשן":9743," למחרת":9744," הפיל":9745,"רגוני":9746," מחירי":9747,"רטה":9748,"צהיר":9749,"יניה":9750," בפרו":9751," להגשים":9752," יחזור":9753," נקראת":9754,"בסיס":9755,"רשמו":9756," Out":9757,"יכוח":9758," מופיעים":9759,"פרסום":9760," הנהג":9761," שעליו":9762,"סיכולוגיה":9763,"'רד":9764,"ee":9765,"ys":9766,"ֵּ":9767,"מיט":9768,"מטר":9769,"’\n":9770," הליך":9771," היטלר":9772," לנשיא":9773," לברר":9774," מרע":9775,"ולית":9776," המלו":9777," חשים":9778," חווה":9779," לאשר":9780,"ילך":9781," פרש":9782," הארצ":9783," סיל":9784,"יאל":9785,"ומדת":9786,"לינג":9787," הפשוט":9788,"שוות":9789,"יחידה":9790," מתפ":9791," הציג":9792," מקלט":9793," בסעיף":9794," הטי":9795," כמוני":9796,"הממשלה":9797," הירי":9798," יציב":9799," תהיו":9800," HIV":9801," התוכנה":9802," מיועד":9803," נשארו":9804,"ade":9805," החלומות":9806," קונס":9807," נמוכים":9808," דיווחו":9809," עוסק":9810," כלכליים":9811,"זאזל":9812,"לשם":9813,"ציונ":9814,"קע":9815,"שׂ":9816,"’.\n":9817," ביה":9818," ברב":9819," עיתונאים":9820," יורד":9821," המידה":9822," נסי":9823," קסם":9824," רד":9825," מהאנשים":9826," החס":9827,"וקות":9828,"וחי":9829,"יטוי":9830," בשיעור":9831," מעריכים":9832,"כוון":9833," לקחו":9834," בחיפוש":9835," הכנסות":9836,"לחות":9837," ומנה":9838," לגעת":9839,"פונים":9840,"ארית":9841," בצבע":9842," יצטרכו":9843,"טייל":9844," במקביל":9845," רצתה":9846,"מלון":9847," המסלול":9848," נפגע":9849," נפוצה":9850," כתבי":9851," רגשית":9852," מועיל":9853," ופשוט":9854," הספינה":9855," החלטת":9856," לרעה":9857," השפעת":9858," למחוק":9859,"בחרת":9860,"לווים":9861," מתעור":9862," האיכות":9863," תכניות":9864," טיימס":9865," באפריקה":9866," מביאים":9867," מלחמות":9868," פותח":9869," מצחיק":9870,"\"צ":9871,"58":9872,"gh":9873,"ool":9874,"yn":9875,"ּת":9876,"בימים":9877,"המה":9878,"חיל":9879,"לצע":9880,"מכה":9881,"נאם":9882,"סליחה":9883,"תש":9884," הרים":9885," הוכר":9886," אֶת":9887," בנא":9888," כושר":9889," יכ":9890," יופי":9891,"יוונים":9892," קלים":9893," קווי":9894," דלקת":9895,"ופיים":9896," זרי":9897," צהוב":9898," בעונה":9899," לעת":9900," הקר":9901,"יצות":9902," בהתק":9903," מחלקת":9904," מקי":9905,"ייתית":9906," ומתי":9907," לדרוש":9908," מכר":9909," המחלקה":9910," המתים":9911,"בסך":9912," עשורים":9913," אינטנס":9914," הרשמית":9915," הנסיך":9916,"ult":9917," הילדה":9918," ספציפיים":9919," ייקח":9920,"במה":9921,"הדי":9922,"למוד":9923," הות":9924," אעשה":9925,"ותקים":9926," מנע":9927," שגו":9928," בנג":9929," בניהול":9930," ברגל":9931," כפר":9932,"רוגים":9933," חמים":9934,"ילדה":9935," נרצ":9936," נגר":9937," דמוקרט":9938," דמוקרטיה":9939,"ופרים":9940," מהות":9941," מהנה":9942,"יקן":9943,"ספורט":9944,"וקול":9945," משוב":9946," הקרח":9947," מסמך":9948," הצו":9949,"שתם":9950," נוטה":9951," ואומר":9952," הדגיש":9953," ובצ":9954,"כשל":9955,"ern":9956," לדברי":9957,"בקת":9958,"רסו":9959," מטע":9960," הרוגים":9961," נעליים":9962,"פתחו":9963," רצינית":9964," אסירים":9965," החשיבות":9966," :)\n":9967," התגלה":9968," עוזרים":9969," ענקית":9970," היסטורית":9971," אירלנד":9972," צהריים":9973,"here":9974," לטייל":9975," האירא":9976," is":9977,"RI":9978,"sh":9979,"גלות":9980,"הני":9981,"הרב":9982,"הכי":9983,"טראמפ":9984,"סיים":9985,"עמוד":9986,"פיס":9987,"שינוי":9988," מבר":9989," ובל":9990," ווי":9991," יראה":9992," ימשיכו":9993," חות":9994," חמו":9995," לארגון":9996,"ואלה":9997," הארגונים":9998,"משק":9999}