#version: 0.2
  п
с т
  в
  с
е н
о в
р а
  н
. 

  о
т о
н о
р е
к о
  и
р о
г о
л и
 п о
а н
е т
  д
л ь
р и
 н а
н ы
к а
  м
т е
л а
з а
н и
е р
  б
т а
ен и
к и
л е
н а
т ь
  ч
д а
л о
т и
  у
в а
 н е
с я
ц и
  ко
  за
м и
р у
д и
в о
в и
  "
с с
 с о
 п ро
  ра
е м
  а
ан и
  э
л я
  -
д е
р ов
  к
с ко
ст и
ст а
  го
 о т
 ч то
 о б
 д о
н е
п о
м о
  г
 п ри
 п ре
р ы
е й
д у
 в о
ч а
ч е
ч и
ст о
б о
м а
с ки
ж е
  ре
 в ы
ени я
но й
  С
  е
  т
те ль
в е
ны х
х о
  Р
  то
сс и
 и з
к у
ов о
д о
с ь
но го
с е
л у
 б ы
  ка
ж и
м е
ш и
ов а
  М
г и
ст в
 э то
щ и
н у
 м о
  ф
з и
о б
м ен
  К
ю т
е ре
ени е
ци и
п а
ны е
  те
ны й
с и
ст ь
П о
м у
т у
п и
  ст
 ко то
  та
к ов
" ,
г а
2 0
р я
 по д
т ы
ш е
щ е
 д е
 б о
  А
н я
а р
о н
ет ся
  з
 м е
 Р о
 ра з
б и
л ю
с а
  В
 пре д
п е
  (
л ов
л ен
ско й
т ов
к е
 м и
о р
 Ро сси
ж а
  ро
ц е
с у
ны м
д ен
ани я
 п ере
е к
в ы
а к
 и н
ра н
ст ва
 б у
л ет
с ле
п ро
п у
ско го
20 1
  П
с по
" .

ств ен
 д ля
ст во
  ли
б ы
и н
Н а
  ру
 ко м
 м а
ка за
  ста
 в се
  Д
м ы
 с во
  Б
ж но
 кото ры
д ет
 ко н
д ы
 с у
  Г
 с а
 с и
щ а
е з
  я
 н о
а ль
в ер
 го да
с к
 п ра
но м
  Т
 та к
о на
 ка к
к ра
ть ся
у р
г ра
на я
ц ен
ан а
 со об
б а
ле й
 н и
 Росси и
ти в
 во з
но е
но сти
с ка
з ы
б е
ч ен
д ер
п ра
ски х
ени и
ов ы
г у
с о
т ся
  И
л ся
 е го
и з
ст у
ж ен
ф и
 в е
 с е
в ля
п ре
к с
  Н
ров а
ски й
  хо
  О
н ов
  сто
ци я
д ов
д ни
ш а
 о н
ль ко
 ра бо
ре м
 до л
ани е
 ст ра
хо ди
ю щи
ани и
ст ви
ет и
ко й
 по сле
  Л
ет а
м ер
ли сь
р г
я ви
  жи
ну ю
сси й
но сть
з у
  У
л ения
ста ви
 это м
  Е
ц а
  Ф
я т
ж д
ро м
ст ан
 п ер
 ч е
 ком п
 д а
ри и
е в
г да
х а
 п а
т ра
 по лу
  же
ло сь
ж ет
 п ров
ре д
ст ра
 бу дет
п ри
 ч а
г ла
в ши
 г ла
 в и
 ру б
ко м
 ра сс
 го ду
зи ден
 о с
л ы
ди н
 о д
то м
  ш
 а в
 в рем
с ли
 бо ль
 с ов
ени ю
сто я
р ен
 по ли
 так же
в у
ро д
ни к
да р
ски е
п ер
ру п
в я
т я
 д и
 ро ссий
 д ру
ф ор
 М о
ств у
 а к
б ли
ен ь
те р
с ов
ци ю
З а
ени й
 у же
ро й
ле е
ко но
 м л
  лю
л ова
то р
ла сь
в ет
 с лу
ют ся
 о рг
 бы л
з на
 об ъ
 бы ло
б у
 у ча
 че лов
ста в
ла сти
т ри
  цен
е с
зы ва
ти че
ем у
ны ми
 врем я
ж ду
 п ар
 которы е
те ля
 т ы
 б ез
пра в
г ово
о м
 об ра
с ы
 пре зиден
п ы
к ан
ле к
 и х
 за яви
г е
ска я
ни ка
р т
те лей
 про из
 на ча
ст ре
в ро
 д ан
ци он
 то м
 в а
 м ы
а з
ци аль
 г ра
ко н
л ение
ч но
 ч и
 г ово
ско м
0 0
не й
 ав то
хо д
б ря
 то лько
Ш А
 т ре
 ч ем
 и ли
р ь
ш ен
до м
ва ть
 са мо
к ры
 с по
) .

ен е
1 9
 е ще
го д
л ан
 те р
стан ов
ст е
 у с
  лет
 м у
 то го
 сооб ща
те ли
 С ША
она ль
 мо жет
 п у
ду т
т ре
су дар
ш ения
 з на
р та
 бо лее
не е
 с лова
ц ы
ти я
 ф и
каза л
ш ение
 что бы
з ов
 п и
 сооб щи
? 

а ли
 бы ли
ни ков
т ро
 с ле
чи та
 ра с
по л
 которы й
Н о
 орг ани
м ети
о й
 пра ви
К ак
  ле
 е е
о т
 о ни
П ри
кра и
 к у
) ,
о не
  х
ре ди
 Мо ск
ни ст
ло м
коно ми
 гово ри
тель но
 Р Ф
ле кс
к ово
ни ма
е д
 и спо
ст ро
ло ги
 в з
 го судар
 от но
 д ей
с ку
Э то
ло ж
 с вя
с ла
 ре ги
ти н
  Х
де ра
фор ма
 У краи
ени ем
ь ю
ль та
 М и
ст ве
 по мо
ки х
ст ов
 э ти
ан к
 ме жду
 и м
 во про
л ли
 сво и
 полу чи
ни м
сту п
о с
у т
ж да
 заяви л
 К а
р д
 с пе
т ру
ни ки
ан е
я в
 пред стави
дер ж
 и сто
ци й
п ла
ем ы
 е сть
к лю
  Ш
ч ет
па с
 в ер
 по л
 челов ек
ме ри
де й
щ ен
  ры
e n
О б
 это го
я с
год ня
ча с
 воз мо
e r
 те х
 го ро
 С и
ла ди
з д
ров ан
мен та
м ан
с лу
то ра
ей час
1 0
  Ч
 рабо та
зу льта
 М а
ль но
 с чита
 о к
 ре зульта
 К и
це в
ка х
 слова м
пе ра
ве ст
  По
ри й
 об ласти
ше го
 от мети
  Ц
ово й
 дру ги
з ова
  ки
чен ь
пу бли
 э кономи
с мо
 органи за
 э кс
стви я
 сто ро
е дера
на ко
тель ства
 со б
к ла
 мл н
ки е
 г руп
до л
те ри
у ю
ани й
 к ра
ве сти
 ч ет
г ен
  ж
 м ар
ц у
 де ла
- то
ва ет
во д
. .
 с ред
  це
 о на
гу т
ла га
 про ек
ски м
ч ения
мен т
 А лекс
 бу дут
 е сли
 А н
тру дни
ан д
ка з
ста вля
Р о
 пере да
 бы ла
 ин форма
ло жи
1 5
ко го
 п е
 В лади
 про ш
де ла
ч ение
бо р
ст ы
то му
 при ня
х и
 со трудни
ту а
де ль
 ко гда
 т у
 во ен
 н овы
 со гла
во й
 об о
 те м
ра бо
ри я
 б а
би ра
ре к
 руб лей
 а д
 слу ча
 мо жно
ш ей
 я вля
 б е
 бы ть
с но
 по до
лов и
 ос нов
ни стра
б ле
ра в
сси я
 б ан
ва ли
- за
О н
 о чень
и т
 не ско
 г де
 Е вро
ря д
ра к
 К о
 кото ро
 д ень
ве д
 гра жд
 С а
  L
 д ет
 стра ны
 раз ви
Т ак
В о
 ст ан
ра м
ч ь
 мл рд
р ти
 комп ании
 возмо жно
  На
Н е
t a
ка зыва
 го д
ра ни
ре мен
рова ть
 си ст
 Влади ми
 н у
н ер
ме ча
ф е
мери кан
 су д
ющи х
ан ы
 сообща ет
 ру ково
то ры
ч ер
 в стре
 П у
с ков
 ст ро
сс а
ри т
т вер
ско е
 ра й
  Э
ва л
те ре
на род
 ни х
 си туа
 дол ж
 п ов
ет е
не с
по м
20 0
 ко ми
ри то
ин ан
ши х
ще го
 о ста
но му
вши й
 в с
гра м
 ты ся
 не об
 гла в
 с мо
 жи з
ни й
 С ер
 д ву
де ли
ко ло
ти и
  S
ру к
С о
та й
ль ного
ст ран
 у да
r u
щ ей
М ы
ж ения
во ди
тель ство
 д ва
 пров е
ств ова
я ть
т ен
 и ме
пу та
 тер рито
 уча ст
 ты с
 ми лли
 с ер
мо би
 н ет
 про тив
ово го
ь я
ч у
 про бле
 о дин
o n
тя бря
б я
 да же
ров о
б ер
н ен
 про дол
 испо ль
С С
  ю
 пра во
 с казал
ра я
 на с
при я
О д
 м ного
  Ю
 В о
1 2
 дан ным
че ской
лу ч
ни и
 не ф
ш ь
ве ли
 мо гут
ж ден
  Я
л ани
ки м
3 0
не го
с об
сту пи
ка ми
 В а
 о фи
  A
ем о
. ru
 боль ше
ску ю
 необ ходи
 от кры
д ова
я х
 Алекс анд
 об ще
ше л
о пас
 по з
 о че
яс ни
 ком ан
г ро
 по ка
 все го
ро ме
 с ейчас
ли н
 Н и
ши н
Т а
 ф инан
 на з
 президен та
 Украи ны
 вы бо
 ры н
 по ч
н ь
ш ении
 это т
 у ров
 п ло
ани ю
 п ла
ми нистра
м ени
 со стоя
  T
 пер вы
 с ен
ли я
 пре сс
щ ения
 Б а
 а мерикан
 авто моби
ру ет
н ем
ле м
 про да
 кото рая
 сообщи л
 а р
ген т
 во й
ере з
 челов е
 до ро
 неско лько
 о пера
 ко р
и с
ци ональ
 о коло
 т ран
i n
 се годня
е ль
ю д
н ению
 о п
ж ение
 в ла
е ва
 П а
ющи й
 до ку
 из вест
о д
  жен
ане е
к ова
ани ма
Р анее
 уча сти
ст ей
 б ли
ющи е
м ет
ци ей
и мо
н ения
 Б о
 все х
к ре
 т ри
ль ной
 и то
от вет
ль ный
 про грам
ла го
 э к
 К у
 с ем
он ов
 са мы
 с ни
 ме ся
 по бе
дер жа
П ро
 ми нист
 с ко
О т
ра з
 отмети л
б ов
кра ин
 с дела
ро ри
 ф ор
 на ходи
че ских
a n
ви а
 т ра
б ур
ле дов
ли ч
  ан
 президен т
ло го
 и с
ва ют
 которы х
 во с
 д у
ки й
 поли ти
 го тов
 ф ак
 явля ется
ро н
1 8
5 0
з я
 ка ж
ту ры
о ру
 горо да
ре й
ль я
 ме сто
лен ы
то ч
пра ви
 без опас
 г аз
 и ю
 это й
 вы со
 за яв
т р
 ре шение
 стро и
  B
 де пута
ность ю
 об ви
 ме ст
  За
т ки
х ов
д ь
ти й
 к руп
 от меча
 се бя
че ского
 сво е
 в то
жд ения
- лет
ур на
 г а
  I
 в не
ну т
  C
ка м
 к ри
б ра
л ении
сту па
 Н ово
ль ных
 гражд ан
Е сли
ер ы
вши х
 на ру
з да
ще е
  F
ра х
 у станов
 ч ерез
 чем пи
чи на
в но
 Си рии
и л
 к то
 сов ер
бо й
 М ин
 дву х
 С о
 произ о
И з
 о каза
Од нако
 з анима
  M
 ма тери
 м ен
 чи сле
н ова
С а
  З
1 1
 на д
 у прав
 сво ю
 а гент
И н
 у го
Д о
 при зна
па д
 поз во
 тыся ч
 по с
 ин тер
ч ем
з е
 гла ва
 переда ет
 с пи
 к ва
ход я
 ко л
 ди рек
С е
смо т
з о
че ство
 об я
 экс пер
з ан
ен а
 между народ
ли м
 тер рори
пи са
го тов
м ь
ми три
мен но
но ги
 за пре
ци а
в ра
ми на
 д ви
 за коно
  $
 б юд
ду к
 е вро
 пере д
ка я
 про це
г ли
та м
К а
К роме
 т ру
 ин тере
По сле
к ну
 в ласти
овы х
 за щи
с пе
М И
 со ответ
 об ла
ло г
К о
 го ло
1 6
 ус лови
 а виа
ч ной
 по ль
 Т а
б ре
 у краин
 пер во
щ ение
 де ка
 ж урна
 Росси я
ходи т
 го спо
o r
 Моск ве
В се
ва ется
 сле ду
у н
т ета
 э та
 де я
 офи циаль
тель ных
г ей
 по ги
ти е
 я н
 ста ть
en ta
 от вет
 ре жи
 те ле
т но
 Т ур
в ан
ш ли
 И н
  луч
за ции
 до ма
ев ра
 у вели
 сво ей
й те
ко е
ти ть
 после дни
1 4
 раз ме
 ста л
 бо е
  R
! 

1 7
 а пре
 ян ва
 результа те
e s
 в ме
овы е
стви е
 Владими р
 ча ст
Т о
с ке
я м
 за клю
  G
сс е
 до ба
 ви де
вы е
 б из
ш о
 L enta
ан ди
 со зд
й ти
сси и
ствен ной
в шего
 рабо ты
 ш ко
н ет
 при з
ф ф
э тому
лен а
 на прав
 ф едера
А СС
 долж ны
ва я
 п лани
 ф евра
 мен я
 с ы
ру жи
 мо ло
в ле
 дол ла
 оче ред
о то
мо й
 ст ран
 кото рой
 дол жно
лим пи
2 5
 не го
 ад министра
 про сто
 пров о
 Д митри
 сторо ны
слу ж
М о
п ло
ст рой
се да
ем а
 безопас ности
пре де
ствен ного
 с ро
 лю дей
  P
  ци
ша я
a r
ни е
 свя зи
 к реди
 му ж
 и ск
то н
 произ вод
  ему
г ан
ди ть
 но я
 ак тив
П ре
 по каза
 ма т
 де ло
щи х
 необходи мо
чи ть
гра ни
ы х
 други х
пом ним
пу сти
1 3
г ре
 под держ
И А
п ей
 э лек
 Г ос
 го род
 испо л
 кон ку
та ли
 ре ши
дер жи
 об су
 уго лов
ес пе
се д
 случа е
" 

 по тре
 б и
 со зда
 слу ж
во з
ци али
ф ер
 ра нее
  ше
Р е
 помо щ
 и но
 про д
 про дук
 дея тель
На помним
ет ер
 со стави
 обра з
 на стоя
 до гово
 су ще
 б лаго
 не за
 ча сть
 В и
 вопро с
 террито рии
при мер
х рани
 ми ра
 продол жа
ани ем
 у ли
 с бор
ут бо
 по зи
Б о
 исто ч
 у би
 фи ль
 про ис
 ка че
 пра в
 челове ка
ши е
 расс казал
анди да
 кон тро
 жиз ни
В ы
 н ово
тиче ски
ки н
ы ре
 про цен
  Ж
ра зи
 ус пе
пер ь
к та
 под чер
 пред по
 з д
 об еспе
ди тель
 дру го
 с каза
  ана
 пре до
 В е
су т
 мар та
  ла
Г ла
 г у
ствен но
Д а
р ту
 организа ции
 п лан
 жен щи
 ве дом
 пе ри
 ч у
ль ные
 не ко
 ра спо
 то рг
 хо де
пол ни
 которо го
 Сер гей
 ли шь
 на зыва
 м нению
 россий ских
ра ви
ле з
ст рук
ров ания
пы т
ри ю
 матери а
к ти
 хо ро
 счита ет
то й
a l
 комп ания
та ми
 само лет
2 4
 со циаль
и ть
со м
 говори т
 де ся
  ша
де л
то ров
 пло ща
м ов
 пре ступ
ы е
щ ем
тель ные
ство м
ско му
 мо мент
 ну жно
ру ю
тель ной
ч ки
 свои х
те м
  ц
 за ме
ин ов
 Д ж
ствен ных
то к
 к андида
 ф он
ща я
 ста ло
ч ных
 Моск вы
е дин
 пре ду
 под твер
с ло
 о су
сти ту
 со кра
 Р а
 дей стви
 м ноги
 су м
ро ны
 ме ди
Так же
ь е
ен но
М и
 м ене
 Ново сти
ло н
 С МИ
 Г о
 по да
 на се
 тран спо
ля р
 Ф едера
ц ей
щ ении
 к ур
ту р
 Б е
 с ек
ло жен
 журна ли
е ха
 с чет
ен си
т ных
 поли тиче
 о жи
 со ставля
l e
 К ры
с публи
 та м
Се годня
т ан
 по яви
 полу ча
етер бур
 кон це
 у ни
ству ет
 отно шении
 чет ыре
 Л а
 доба ви
 до сти
ши й
 чет вер
 поч ти
 п овы
 ко ли
 пар тии
 об на
щи й
на д
че ские
 ра м
 зна чи
де сь
 на у
 сле д
 объ ек
ш ений
Д ля
ер ов
 п ы
 под готов
  ри
 по ку
ни цу
в ания
 ф утбо
 пар ла
 спо соб
 и менно
ни х
ди и
до й
лен о
пра вля
 О О
 ре спубли
 дет ей
 Т АСС
 после д
и м
ч ный
 стра не
 Гос ду
 Александ р
2 2
ди на
 за держ
вши е
у д
 в ра
i t
 Т рам
рова л
рова ли
 сов ет
ч ные
 ча сти
 лю ди
 А р
 пере гово
ро по
  N
 з ем
 бу ду
 апре ля
П ред
 д аль
ти во
ро т
вы х
ст ана
 говори тся
Ч то
ен ы
 н ор
ту ра
 сен тября
 с сы
  W
ра зу
 к ли
па ра
 од нако
 ре али
ене ра
б ан
 за ко
% .

та р
 С е
 гла вы
 государ ства
 к лу
 ав гу
 Ан д
 пре мь
Р а
я вля
га м
 элек тро
си ли
ер т
ви си
 Пу тин
 о г
ни я
ру г
 пре кра
 об ы
н ю
ж у
 пров ер
 ста ли
ст я
 в клю
 з ан
стра да
 С ов
 за кон
 из мен
 ро ссия
ч ного
ски ми
пи с
ь ез
 и г
б ен
 и сс
к т
 рам ках
ро б
 у твер
с мен
ня ть
 сообщи ли
н ение
 за вер
чен ко
 прави тельства
 стра на
- служ
 дол жен
 руково д
 чемпи она
 пред прия
но логи
ур ман
 ку ль
 на м
 пров ед
1 00
 спо рт
 доку мен
В е
По д
 са м
ст ри
- пре
Г аз
 на зна
по зи
л ению
 су б
М е
и ли
 у ч
ши м
 ре й
б лю
ше е
 ан ти
 от каза
 иск лю
 при чи
ва ться
 и дет
 ино стран
 с анк
 о преде
ди л
мы ш
 од ной
 участи е
 февра ля
 Л и
 финан с
 т я
ак си
o o
О ни
 сво бо
ри н
 не до
во р
 при мер
. ,
4 0
 цен тра
 Ф ран
 ос об
 подчер кну
М а
ф а
ко ла
че го
 Росси й
 образ ом
 спе циали
 бо рь
ви д
те лем
чи ты
 мене е
  ло
 п я
 врем ени
 пред седа
 по па
 од ного
ч ей
 подо з
t er
за д
Т е
 дека бря
 о грани
ре в
жа й
 ноя бря
 г ру
ра ми
Г о
 ма ши
 м ет
па рта
 ок тября
 разви тия
 при нима
 не м
 ко не
 про ку
 обя за
П ер
h e
 та кой
 ни ка
 информа ции
 ре з
 на зад
 на циональ
ма три
ну ть
 раз рабо
 возможно сть
че ский
 реги она
фф ек
 неко торы
 вы пол
ствова ть
 Дмитри й
% ,
 за сед
 янва ря
г ля
хо да
 представи тель
 с ре
т ет
ю щего
 ин ф
 ма я
 други е
 о публи
c e
в ен
 пы та
С ейчас
зиден т
2 1
ре ц
ж ных
л ют
  ря
 ро ди
 эти х
В Д
с ова
 про тиво
г но
 Ми ха
 по страда
ер м
тель ного
мыш лен
 Р у
 в ремен
тель ный
 реги ональ
л кой
 бюд жет
2 8
 а ре
 се бе
 дей ствия
 управ ления
 сер ьез
 сред ств
ти на
 а э
 ок ру
 россий ского
 Ц ен
 и гра
та х
 у гро
к ет
м я
ри л
 соб ствен
ов е
2 3
 за да
 ра ди
гра фи
19 9
ди ли
 при бы
 кон ф
 поги б
 ш та
 г и
 рабо ту
ан ов
но к
 е ди
теля м
 Тур ции
ю щей
ни л
ж ной
 тре х
 с реди
мо н
до ров
во бо
 долла ров
ш ло
ш ем
ни цы
мо м
 по тому
 ка р
пи н
 первы й
 на до
 к ла
 то же
 Г а
  ти
ц ени
 пред лага
 сво й
 на де
 т ур
бер на
му ще
не ш
 у вер
ющи м
 спе циаль
 на мер
х ва
 з о
и тся
ле га
овы й
 г е
 част ности
 п енси
 по ясни
 Е С
a t
ш ла
 в ним
ми и
 уда лось
во е
д ж
зи и
2 7
ри ть
 ч лен
до б
 пред лож
 сто ли
 до ста
 Р ИА
 рабо т
 ссы лкой
к то
 Л е
 рай оне
д ви
ж ды
r o
про ек
ли чи
 м не
ча ст
 ре гу
 свое го
 ре ко
 то т
 ситуа ции
в ание
К ом
й дет
 ин вести
пу ска
 сто имо
  D
  ха
.. .
 бли жай
 об е
 которо е
 ме ста
 ли дер
лимпи й
об е
фер ен
 с ез
 М ар
2 6
ру ют
 вз ры
к си
 то гда
 те чение
 пу бли
ня я
ре с
 д ня
 во т
 з десь
 и де
сса жи
 М е
жд ение
 э нер
.. .

 груп пы
 очеред ь
на ча
 с рав
при нима
 тре бов
 вер си
 зан я
Т О
 за кры
р ю
ше д
 о цен
ми р
 вме сте
 кон тра
 расс ледов
п ании
 К он
 го с
чи л
 н ы
ни ца
 законо да
зов ания
 извест но
 ре бен
 м ень
 ми ну
стви и
 с ло
 заме сти
ш ки
 со бира
ж ении
 день ги
 ожи да
 ли ц
 поли ции
 тре ть
 Д а
ез д
 д ене
лен ных
 те перь
 и ни
 спорт смен
б ро
ет ь
ско ль
 ле г
 находи тся
ро прия
пи та
фи ци
мо сти
 с мер
 вы ступа
 ста ла
 про фе
 голо сов
д ан
ме ст
ч ка
Д е
 по р
 при вле
 П ет
2 9
ем е
 сист емы
 проек т
 пред ложи
 пра ва
ви дет
ш ой
 с разу
теля ми
Р у
 нача ла
ку ю
 су да
 тех нологи
 по став
че ра
п рово
 И з
ле в
ру ется
 т ова
 евро пей
 э ту
б ова
г ов
л ением
сла в
 из бира
Ро ссия
 ст ре
ствен ный
 расс каза
ли т
щи е
 та ких
 все гда
 од но
 су де
  E
шен ко
 М урман
 произ води
 подо б
л ений
 н ового
 пу н
ова я
емы х
 ки но
 до полни
ль ным
 биз нес
 ре аль
ре ва
 ф ото
 кото ром
 сред ства
 коми тета
 пар т
 новы х
та ть
 эти м
бо ль
 ус лу
 у точ
ди т
Б а
ц ов
 э ффек
 вы пла
 ру сс
 Ч е
 конф ли
фи ка
а т
ф ак
 на блю
сс о
ци н
мен ти
 бан ков
то чно
 ме роприя
 с па
сколь ку
че ства
 россий ской
 во ору
 премь ер
О на
 ме сте
 п ря
ст ер
 ст рук
об ра
 де л
 ква рти
 уби й
у м
 не де
 каче стве
 Г ерм
 исс ледов
вер си
ва ла
 сдела ть
 К ра
 по ряд
сто й
 ре шения
 нача ле
ш ую
ль ная
дни м
 си рий
 па ссажи
c o
 го ды
 в нут
 ту ри
 му зы
 б ес
 Е в
те ра
 хо зя
 д ве
 г енера
 последни е
 по се
ще ств
 че го
 милли ар
 коли чество
 Р и
 са йте
 м я
 б ра
но мо
 сто ит
 прош лого
 тя же
ж де
 минист р
п ли
 отно шения
ву ю
о храни
х ра
 из д
 Х а
 х у
ло й
 ста в
 рын ке
 авгу ста
х ран
та рь
 ито гам
 исполь зова
  сти
 на пример
 деятель ности
 Ве ли
сто ч
  H
a g
р ения
6 0
 ответ ствен
са м
ю з
 раз ре
 дирек тор
ш та
ги и
 не й
 со ста
 агент ство
не ф
ча т
 хо тя
 прави тельство
ли ти
 обра ти
 спо р
 о пас
п ере
 воз бу
хо дов
 получи л
 аэ ропо
 ми ров
сть ю
 воз ду
 вс ем
ж ного
 от ра
 воз ра
 т рен
 пери од
ни це
 горо де
 рын ка
 внут рен
зи н
 о цени
 ф а
 по этому
 г ен
Х о
 п ять
т ной
 п ово
ве ден
пер вые
 рас про
г ру
 неф ти
 на ходя
ле г
 про гно
 М ВД
 Ни кола
з ма
 у че
 ини циа
 вз я
 сем ь
ня ет
ход ят
 вто рой
 о ружи
 ч инов
 кото рую
 новы й
ва ри
 отмеча ет
 бое ви
 ны неш
 по пу
 ма сс
 добави л
лет а
 подчеркну л
 вы з
 руково ди
 вы ро
жа ть
 позво ля
 конку р
  ши
i s
ни ком
ров ание
 ст у
е ди
казыва ет
Ин тер
ни н
ря т
 по ст
ан т
фор ми
щ ую
ка р
рит ан
ва ются
ча ет
 совер шен
 ди а
 долж на
 не о
е ра
стоя н
 б ар
 мо сков
нист р
 новы е
ству ют
С К
 та кие
 ду ма
лен ные
 комп аний
 настоя щее
ш у
 ию ля
  №
 б анк
 виде о
д но
ро ят
тель ным
лек ана
ч ении
 б ло
води т
 ми ре
 расс мо
ш ет
 ка са
и гра
би н
 со бы
 при мен
ю за
 Л у
 помо щи
 госпо дин
си ть
 сов ремен
об ре
об ще
ров ки
 поли цей
 по скольку
 не по
 поль зова
- П
i l
к ва
кон ча
- го
 от де
 Т у
Со гла
 уров не
 Росси ю
чен ы
 ми р
про с
 милли онов
 проце сс
хо ды
 Алекс ей
ш ению
па да
 со став
тра ф
 проек та
 Федера ции
o l
ри на
 сво ем
то го
 ви це
 на писа
 име ет
 вне ш
ча я
 И го
вед ения
- м
ст ров
 на шей
 сов мест
 Украи не
 получи ли
ди я
 спе ц
Гла ва
Н и
 боль шин
 объ яви
 работа ть
 стан ет
ро е
 М И
тай те
 за бо
ен та
 не у
 пред ставля
 пра к
 пробле мы
 вним ание
 за м
 воз вра
 право охрани
во ка
 кри зи
 при н
 ни чего
 вер ну
 н ов
 д ней
По этому
 рай она
i on
мен а
о к
 по том
 исто рии
 каж ды
u s
ре е
та я
 не из
 при ве
 вы с
 ро д
ль ное
Пре зидент
в то
 ак ти
 ро ст
 ведом ства
 те лекана
че ская
 од на
 увели чи
  V
я тся
 раз лич
спе к
e l
Ко гда
д ется
 вы да
 это му
 пи са
ты й
 Евро пы
 жиз нь
 гу берна
 пред принима
овы м
a m
 то н
 счита ют
у с
ша ть
 дан ные
 пол ностью
 ОО Н
 коне чно
до к
ствен ные
 эк спо
 тра ди
 законо проек
 сбор ной
 с ф
лы х
 в за
 по нима
вы й
 информа цию
 нор ма
ты х
В и
ми н
л ана
 з доров
 тре бу
 п ят
Ро ссий
и ч
 те рак
С и
 на род
би ли
т ные
 пред став
на ми
 сни зи
 к ру
 тех ни
 Сер ге
 к ана
о ни
тя бре
 запре щен
ет ы
к ро
 и ску
 до бы
 ни м
 меди цин
 а л
 програм мы
  жа
 на и
-лет ний
 администра ции
 про смот
 друго й
 с цен
ма р
ж ный
ро шенко
 то му
 свя зан
 С у
со к
 прош лом
 кол лек
 под держи
 получи ть
ч то
до ро
Е го
 мо г
жду народ
 х и
 объ ем
 самы х
в шей
щи ков
ы м
со бо
 ситуа ция
 оп пози
 составля ет
 по жа
ем он
 ми ни
ден т
 меся цев
 по стоян
ни ть
А О
 ф ран
си л
 Мо сков
 ве сь
емо кра
 биз не
 воз гла
 просмот ров
Б ы
те че
 С К
мо жно
 вы ступи
 те ку
 ю ри
 бли з
i c
 мо щ
ника ми
 а п
 минист ер
- й
П а
 са й
се дни
 ра кет
 го р
 П ри
 жи во
ж ета
 вы ра
 вой ны
 свя з
 муж чи
 осу ществ
 насе ления
 проку ра
во к
 мень ше
ль ном
 ва ри
 коман ды
д ения
п ов
ро к
 многи е
чи с
ес публи
к тор
 ( "
- ми
 не да
про чем
в ети
 па м
вести я
ле д
 ос вобо
 бан ка
 торг ов
 от ве
по ли
 жи телей
 од ном
 ф ун
 са ми
ни ц
ча ть
 ка м
 вос станов
ж ем
 Госду мы
 ха рак
 площа д
че ски
р ко
 при водит
 Б у
 Во сто
 в лия
по р
 И ван
 процен тов
 экономи ки
 наблю да
e t
л га
и х
 в первые
 за во
 служ бы
 россия н
 и гро
ти ю
стави ть
 цен ы
 возможно сти
 утвер жда
з м
 сло жно
: 

вы м
3 5
 пре вы
 вопро сы
к ви
 по ме
 на чина
. R
ти ли
 Н А
тив ных
 И ра
 выбо ров
 на лог
 груп пи
 по про
 участ ников
над ле
ж ей
 не е
 про те
ло т
 обви ня
 сро к
Согла сно
r e
гра д
 дела ть
 це ль
 тур ни
ж ные
з ер
да ря
 Ев г
ен о
та ки
 Д о
 выбо рах
то ром
 по лож
те й
 Герм ании
 прак тически
7 0
в ью
 транспо рт
з дни
сла м
 нача ль
А н
ч ным
 б ере
ле п
ве сто
 прави тель
 обсу жда
 при обре
ба ты
 стра те
нист ер
 о дним
по ра
мы е
 пя ти
8 0
ан ных
 заяви ла
 поку па
г ран
с ем
 сто л
 па ла
 обла ст
ти рует
цион ной
 сотрудни ков
 предпо лага
 от сут
 МИ Д
 на ши
 е дин
ово м
х у
 с ла
Р ос
С то
 к ры
 пред вари
 до ступ
тре ть
ч ета
 г ри
 из мени
чен о
рован ы
 парла мента
 Анд рей
  ряд
 финан си
не в
 при надле
 Росси ей
анк т
 полити ки
 у бе
ду ма
тре б
 ито ге
 рей тин
3 1
о логи
 та ким
 доста точно
л ла
ф он
 дол го
Т ем
 ча сов
 чи сло
 ква рта
ши ть
 ни ко
 кра й
 ту рец
 наз вал
 неза кон
ро ссий
 пра здни
 сооб щении
 ч ер
 иску с
ли и
ки ми
 от прави
су р
Е ще
п ания
 с ъ
 встре чи
Д и
ко б
 при о
 си л
 с ня
 К лин
 неско ль
 источ ник
мы х
кла д
 по лови
фак с
с ен
 террори сти
 разме ре
 к ре
 при гово
 сообщи ла
 агент ства
-П етербур
ля х
 те а
 представи тели
та лья
не ц
 по ня
 м еры
 у па
ци па
во го
 к ни
 ми нистра
 воен но
 интер вью
ве ро
 бюд жета
ста м
 В ер
 вс ей
 по не
 М у
 комп лек
 по те
 со бой
тив но
 произо шло
ма тиче
ша ет
 от став
 обо роны
 исполь зу
 ш траф
 стан ов
 неф ть
 доку мента
 попу ляр
с ро
 рас ши
 продол жи
у не
че ским
 Р еспубли
 К ар
пу ск
 исто ри
слу жи
 за тем
 бу д
 которы м
 услови ях
 у чи
ца м
с ер
 с видет
 во обще
ра б
 по пы
лы й
ника м
цион ных
 дви жения
 конку рен
 ро ста
 иностран ных
 Фран ции
 О ба
 уров ень
 круп ней
- ли
ч ная
 б ритан
 луч ше
л ер
Л и
тель ное
па р
бо лее
 ста р
 по стро
in g
 испол ни
 даль ней
9 0
 со сто
 то р
 Д у
 ситуа цию
и ла
ш ка
 Т о
a s
ф о
 д ово
 не ме
.R u
сто м
 ка кие
 уголов ное
К он
 пример но
в ли
я ми
 ка пита
 це лом
 ули це
 россий ские
 помощ ью
г на
ч ку
 кон ца
 цен тре
 кажды й
л ки
 Ш а
ле дова
 фран цу
коб рит
- се
 по станов
 да в
" В
 а ль
 ско ро
ди ви
ств ов
цион ного
 свои м
 поясни л
де в
 пре тен
ед ве
 заяв ление
 ин весто
 По рошенко
 отно си
 соответ ству
т ный
пре д
 уни верси
 кли ен
" )
 а у
 пи шет
 дей ству
 Владими ра
 в ну
 ад вока
п ря
ди й
 па ра
 встре ча
р пла
 в тор
 ра ск
ве л
 из у
 интере с
н ему
ту ру
 пер вую
 С анкт
 россий ский
 с ети
 за виси
 пробле м
 т р
т ного
ре з
 по ки
 депута т
 поги бли
 обна ружи
ю щая
 с ере
 у правля
 У К
 расс матри
 п си
ль зя
 за рпла
 Ч ер
 организа ция
r i
 сообща лось
 ко с
емы й
 особ енно
акси ма
 о про
ла й
 под писа
 государ ство
 пробле ма
 ре мон
  ей
 и муще
та к
 В се
 пи сь
 материа ле
 по хо
 по ступи
 при ходи
 следу ет
 н овой
 действи й
 Трам па
 Клин тон
 ка кой
 перво м
 профе сси
 ш о
 газ ета
 приз н
 НА ТО
o u
х е
х ани
 к лю
 уч ре
п ан
 поне дель
 по и
 заяви ли
 хоро шо
 Цен тра
 про мышлен
 ве дь
 ча сто
Во з
 ма ло
 ж ерт
 производ ства
ров и
 сов ета
 лю би
 поль зу
ем ой
 прово ди
в ета
в ченко
 ни з
са д
 ком му
 Д он
 а ва
 ре чь
 вы ше
 си м
 Вели кобрит
за х
 при сут
 чи тайте
 помощ ь
Гла в
 Россий ской
 суде б
В прочем
с шта
по рт
 вы рази
ше ствия
 я зы
 действи тельно
 подоз рева
 ли бо
СС Р
да ть
 у каз
 ва с
 парт нер
Б К
 с лож
си т
 фи зи
 провед ения
 дан ных
 Пу тина
 чу в
 республи ки
сточ ник
 с ли
ва р
ца ми
 тыся чи
 исполь зов
 о станов
ре ги
4 5
е сти
т ят
э кономи
 соб ра
 д ер
 де лу
кла ды
 м э
 пят ницу
д ово
с ной
ть я
во м
бо роны
 под держа
 ры нок
 сказа ть
бан ка
 ху до
Н Р
е л
ти ва
ня ется
 рабо те
 от вети
 де ле
 нача ли
 сторо н
 бар ре
 от дель
 т рав
 сотрудни ки
 сист ема
 пос ети
 сек ре
 стоимо сть
 хозя й
В а
про м
я н
 по зд
 ма га
т ря
ста ти
 сре ду
 боль шой
 ки тай
ми мо
 С ССР
ты е
т ова
 по лага
 на ч
 у си
 ра за
 Ц Б
 предприя тия
 реко мен
 до би
бо ра
га х
 вза имо
ер у
ру дов
 а рен
 вы ступ
 бо м
 А л
 груп па
в шая
щ у
 сле дова
П ере
б ло
 Кры ма
 воз ник
 ва жно
 фи на
 на ших
 го лов
ща ется
 ни кто
емо го
 Александ ра
 верси и
Е ди
 у строй
 про жи
 фор ми
 сф ере
 е же
 произо шел
смот ря
ло ру
П у
б ар
в ей
ко ми
 вы став
вши м
 гово рят
ль ную
 согла си
 меся ца
 ин ститу
 се ль
 интер нет
лимпи а
 поте ря
по д
 само м
 фор ма
 опубли кова
к са
с нов
тив ной
ка тери
 не смотря
 дви га
 ребен ка
 мини му
ч ное
 с дел
 на пад
" :
но стей
го м
 б аз
 та кое
лет и
сле д
 четыре х
 воору жен
леп по
 г лу
 работа ет
 перво го
 ог ром
ра во
 со бе
 кон ц
a ce
Под роб
 поряд ка
ве з
 та кого
ба й
 орг анов
 зако на
 Сов ета
ш лось
 об у
 распо ложен
 Трам п
 измен ения
-се кре
 Ме ждународ
e w
ш ему
ку п
 обра зования
 смо гут
ag e
ла х
ни ципа
 не боль
 про ходи
 А леппо
 пенси он
 понедель ник
 с ме
ствен ным
 И Г
 ци тирует
 в нес
ан ные
 за явля
щи м
 объ яв
 им ени
 б ро
 си лы
 I n
i r
 пере во
 пер вой
 ди пло
en t
 прин ци
е п
шин г
 Се вер
 дене г
 на ко
 ве ли
 ве роят
 замести тель
С Б
 с к
ля ть
 сы гра
 ап пара
 вы ход
 четвер г
 увер ен
 неиз вест
 га за
ч ном
ы й
 у зна
 до м
 Я по
 обна ру
е ст
 опера ции
e d
 с пу
 а рти
 т ен
 де парта
спо н
 потре би
 несколь ких
ю щее
ан да
 а б
че ское
 мо гли
 ро ль
те х
ди м
 во л
 О б
 прове сти
б ран
 коми ссии
 по ра
 со храни
 во к
цион ный
 собе седни
 М едве
ск рес
5 00
 опубли ков
А С
Э кс
б ере
но бороны
 успе ш
 куль туры
  ль
 за держа
че скую
 вы ясни
 объ яс
 ва лют
 каса ется
 ста ту
 уров ня
 Ин тер
 ОО О
 по ложи
ан ный
 В В
 не льзя
 ве ду
вши сь
  X
К и
з ор
за ция
 комп лекс
 явля ются
 нико гда
e u
ш ком
 строи тельство
 нару шения
 самолет а
 зо ло
ссо циа
 втор ник
 на ро
 до пин
ез да
 электро н
a p
с она
 с про
ри а
 ка рти
 Евро пе
Интер факс
г ры
 о пла
 К рем
 А лек
 ге ро
г ети
ш ением
те л
 ка те
На пример
 взры в
; 

за щи
ни ли
ло у
 со рев
 Э р
з ем
 перегово ры
 про па
 не воз
зи т
 си лу
 помо га
 преступ ления
Н у
 про йдет
 к м
 Д ональ
 кон кре
тив ного
3 00
 Б ер
 ва ж
 преду пре
б анк
 о то
 Бо ри
 строи тельства
 спи сок
 некоторы е
 Миха ил
би р
 му ниципа
 Са вченко
 неза виси
стана вли
Ч С
 во ди
лы е
 говори ть
 руково дитель
 находя тся
д ение
л ле
 вы во
тель ную
 ак ции
 Иго рь
 страте ги
- х
го род
ка де
 т ут
стя ми
т ром
ри ф
ма я
 вы де
 вы ну
од но
 Из вестия
л да
 за рабо
 ре сур
 приня то
 бе жен
То гда
 от мен
 ин ци
Та ким
 францу з
ч ную
са х
 сум му
 о собо
 Кра сно
Р аз
 обо рудов
жден о
 требов ания
 на каз
по мина
чен ных
 фон да
 бизне са
 по ко
 пре пара
 пос вя
 д ере
 бы вший
 з ри
 орг ана
ло к
 член ов
ж ар
 муж чина
 поддерж ку
 о р
 по ру
ти л
тив ные
 председа тель
 пам ят
ю сь
ля ции
мы й
 многи х
тель ная
лен ный
су ль
 состоя нии
 T he
 кор руп
 п ес
ся т
лом ет
 пово ду
о ны
 бы стро
 де ву
кре п
 срав нению
Т П
 в ов
 о ши
 д ра
по треб
ги п
 ни же
 смо жет
 разрабо т
 кате го
 о казыва
 само го
Бо ль
 пун к
 фун к
Ф ото
 милли она
 со пер
ча й
 дан ный
 чемпиона та
ести ва
сто к
 Ми нистер
 раз ных
рова но
 спо рта
пол не
 да вно
 случа й
мен ты
 оста ется
ню ю
ро з
 слу чи
 цен а
 глав ный
П Р
 на прави
 си х
 объ ясни
 поч ему
 благо даря
m age
 ко ло
рова ла
 реги оне
ва ти
 во скрес
 пол номо
 завер ши
 соста ве
 в ся
 за п
чи ли
 А б
 ми нут
 прове ден
 пери о
ра баты
 согла сно
те лю
ва лся
 Т и
пра вед
c h
ни ю
 согла шения
 суб бо
 с кры
бе ж
 сто лич
 руб ля
 воен ных
 выбо ры
ле ко
Подроб нее
правед ли
К у
ско лько
чи к
бо м
i a
у дов
 у луч
ви ли
19 8
 организа ций
ферен ции
ро го
ва лись
ствен ная
 а т
 результа ты
на х
 сообща ется
 самы м
л ка
ствен ное
 ма сшта
 деятель ность
 клу ба
 Анд ре
-служ бе
ен ти
По ч
 пра кти
 Х о
 приня ть
 каж до
 проце ду
  O
л н
 с кан
ен ко
 со ц
лет ов
пре дели
фор м
к ер
 с ка
 представи телей
емы е
 депута тов
-секре тарь
е го
ч ению
 под пис
 ва м
 тру д
 ана ли
 клю че
Те перь
Л ю
э нер
 по тен
та ции
 Р БК
 продук ции
ли на
ста ми
чи т
жи т
ща ть
 меся ц
 услови я
 ника ких
a d
i m
 за пад
зи рован
ес ков
 отно шений
нь ше
во ри
 ме хани
чен ые
 расс читы
 автомоби лей
 дости г
 Дон ба
 ана логи
 уни что
 вы игра
мен ь
пу щен
 ш ан
 президен том
 готов ы
 использова ть
 на й
да ет
 при гла
 мар ш
 сорев нов
ем ся
ани тар
чи ков
Пред стави
 аре ст
н ского
го р
 ра ньше
 де вя
 П ро
нов ь
 сем ей
смот рен
 в чера
20 2
 ки ломет
спе кти
 неме ц
 бы вшего
 сегодня ш
 д емон
 не дели
 моло де
 инф ра
 с вет
 Г ен
 сер ви
 Серге я
С реди
ре гу
ан ной
 го н
 до каза
 при дется
 Д е
ция х
 сов сем
 пози ции
 мага зи
т ник
u n
 на пом
 Ф е
 вла дель
 ию ня
 перегово ров
 свобо ды
p p
 коми тет
 проис ходит
жа ет
 вс ю
 полномо чи
  U
 М ЧС
пи ть
 ми гран
 высо ко
неф ти
 Вер хов
 на йти
 экспер ты
-ми нистр
Л у
 д емокра
 не при
 ку да
 суд ь
 вла стей
 кол ле
един ен
- про
щ ему
э н
ку ль
он до
ин тере
лан д
 о но
 по ста
ди рек
 Е катери
 санк ции
ту ре
 кор пора
 воскрес ень
 го дов
 ф оне
 мат ча
 наи более
да ли
 ком мента
цион ные
 борь бе
я сь
 оказа лся
 тон н
3 2
o t
лет ы
 страна х
 с нова
 м аксима
 ка та
oo k
 сли шком
Р ИА
б ри
 в полне
 т ро
 ро ли
 дека бре
 фото графи
 инфра струк
ло б
 об стоя
 з рения
 кра я
 оче вид
 услу г
Н ово
к ли
га ми
 госпо дина
 актив но
 поку п
 буд ем
 в новь
 д ове
 Г ре
 я дер
И слам
го й
тиче ской
 Ва шинг
 возду ш
 вопро сам
 ну ж
 написа л
М у
 ме ж
 ак ций
 автомоби ль
 ско рее
 дирек тора
 Алек се
тив ный
 обя зан
ци она
 пре жде
со лют
 фак ту
 объек тов
 свидет ель
д ра
да м
 т ю
 цен тр
 деся ти
 реали зации
 ф естива
ль е
 ре кла
 фи гу
 Великобрит ании
г ер
 с вер
 о хра
 со м
му ю
 рабо чи
 На циональ
 прода жи
 филь ма
 засед ании
 мероприя тия
 марш ру
  зи
 про сь
 автомоби ля
 след ствия
 маши ны
е ц
 в спо
 бо й
 О лимпиа
 име ют
 энер гети
ко логи
мо р
 пла те
 ши ро
 ал кого
реги стри
с он
ю щую
ри ли
ви ч
 А на
3 7
w w
д ро
 с мы
 о ри
тель ств
 же л
 ви д
 информа ция
вших ся
личи е
 Украи на
 тран с
 плани рует
 о пыт
ры в
 С та
 Н овые
 о кон
 о тече
 Евро со
 националь ной
ла д
ну л
жд ении
 боль шо
А р
 санк ций
 цель ю
за цию
 при шлось
че стве
 пред ы
с матри
 о зна
ро сс
 Моск ва
 ар хи
 парла мент
 рай он
 янва ре
 семь и
 раз гово
 же ст
 ше сть
о з
у ма
 при еха
фи кси
 хо чет
 предо став
 задерж ан
" Мы
ко бы
 на рко
щи ки
По ли
слу жа
 коман да
 шко лы
 докумен ты
С уд
ро де
 от чет
 то чки
 фи р
рани я
-служ ба
-ли бо
 професси ональ
 по пыт
 во сто
 доро ги
 юри ди
 обнару жен
 воскресень е
ст ру
 и ска
 сказа ла
3 6
 с ет
ра и
ден тов
стро и
 заяв ления
 докумен тов
 преды ду
фи на
 Л ондо
цион ное
 председа теля
нача ла
co m
гру з
 невоз можно
т ка
 ре да
 мо р
 га ран
 плани руется
 филь м
 зд ания
 фон д
 преду смотрен
регу ли
ла ми
 приня л
 кри ти
 процен та
 свобо д
 предлож ения
- таки
мо сков
 же ла
 разви тие
д жи
 с ве
 по рта
 Бо лга
Все го
 смер ти
т ран
ь ер
че в
 ве че
 расс казывает
 экономи ческого
С ов
си я
ремен но
 сист ему
  c
й дут
 де во
ез де
- е
ла м
 само й
Это т
 режи ма
 моло ды
 состо ится
a y
С у
ро та
 по со
 т ан
 А мери
 кра е
 оружи я
 д ети
да х
 за па
 ме то
аль ной
 од ну
 недо ста
д я
 с ю
 за ру
 А ф
 же лез
 приня ли
Е сть
По ка
 Д и
 неф те
 забо ле
 ф ору
 стан ции
 самы й
 за пи
ви и
 Б и
ющи ми
 неде ле
 о лимпий
 ко ро
 Во л
 столи цы
 вну три
ч ением
 за фикси
во сто
 П ер
 ли дера
 стра хов
 Ми нобороны
 экспер т
 некоторы х
 выну жден
И К
 с лов
 до ме
 ка рь
 мо би
 ст еп
 ря дом
3 3
 за хва
ча ется
че ском
об нов
 мат че
 предложи л
ъ ек
 за регистри
ля н
 вы гля
 Л о
 пар тий
 авто бу
 ар мии
 участи я
 соответ ствии
 футбо ли
СК А
 большин ство
 акти ви
Л е
 не с
 ли нии
 получи ла
 потре б
 о доб
 за мети
 Д ТП
 года х
 обра зов
 дома ш
 вклю чая
 скан да
g h
 в у
ви н
 Н е
 жи тели
ком менти
б ка
 но чь
 работа ют
 мар те
 женщи на
 площа ди
 посвя щен
 не одно
 от ды
 О лег
 женщи н
  л
o s
В от
ро с
дов лет
 производ ство
 состави ла
 распо ря
 ради о
 по ле
 д во
 на ло
 а та
чи ка
 К ер
 реги онов
 законопроек т
b ook
а ги
щ ер
ю щем
 о де
 у мер
 поддерж ки
 рассмо тр
o m
Э С
Э ти
н ении
те к
чен а
 неф тя
 первы е
 отмеча ется
 проку ро
 ко смо
 про комменти
 вы зыва
 П етербур
 ли цен
 необходимо сти
 распро стран
к лон
ц ем
 ко го
 я кобы
 боеви ков
 ка д
 под раз
 рассказа ла
 возгла вля
 о стан
 ре ак
са ми
рова ться
 результа т
 основ е
-пре мь
ter s
пи тали
 си льно
 пси хо
 миниму м
 п лана
 вы дви
ствова ли
 позво лит
 конфли кта
лен ь
мы м
ща л
 пер спекти
год но
 вз гля
 отмеча ют
 лег ко
 привле ка
 исследов ания
ace book
  K
ль ской
 м ере
 м ета
ку ра
 ме д
 ли ца
 нача л
 реши ли
 Евг ений
 дово льно
- кон
 ли кви
 дру г
 Па ри
 мет ров
 расследов ания
с пи
 П есков
 рассказа ли
 военно служа
 вок руг
д ца
 на гра
 ми кро
ствова л
Мо ск
 транспо рта
 ближай шее
 у ви
 ко ле
 та й
ты м
 зна ко
От меча
 социаль ной
 регу ляр
 Ри о
ция ми
 Ма й
 значи т
 ответствен ности
 суббо ту
3 4
А вто
 у во
 со держ
 А рави
 ком мер
 хо к
 состави л
 Дж он
 столи це
Б е
Н ес
ли ть
 ра вно
сто рон
пе чат
 ста ди
 Л ени
стави ли
 встре че
 иг ры
 погиб ших
ми я
 до б
 те к
 пред ъ
лен ной
Что бы
 взаимо дей
 И сточник
 О ль
 пу ти
 оказа лись
 кур с
де кс
стра и
 основ ном
 защи ты
 неде лю
в ров
ро ст
 воз обнов
ющих ся
ил ла
 эффек тив
 сцен а
ко р
во лю
сс ер
 об щей
 ле кар
 Ки ев
 согла шение
 фак т
 ци ф
Бо лее
 аб солют
 свя за
 в ступи
 сай т
И менно
т ным
да ми
 э ле
 Ро с
 зна мени
 соб лю
Та м
 созда ть
 контро ли
 пря мо
" ).

- на
 про фи
 А в
 раз ру
ща ет
 февра ле
 сере ди
 со юз
 лю бой
 теа тра
 по обе
 на пря
та ет
ки на
 го сти
 до пусти
ходи ть
 обви нения
Из вести
 клу б
 пассажи ров
 миров ой
Б у
з ей
т ная
 на ш
би тра
дет ь
 пу те
 сдела л
 F acebook
 с не
ре спон
мо сть
 при част
 само е
 стан дар
 сокра ти
ч ью
го да
 во ды
 По ль
К ра
ж ений
 вы бра
 Моск ву
 инициа ти
 осуществ ля
 со жа
 об нов
 при со
 С лед
до р
 говори л
 департа мента
О дин
ст рова
 по тер
ан та
мен тов
дви жи
ло та
 об стре
 Г ри
 па ци
 совер ши
 авиа ком
 возбу ждено
 СК Р
 д ли
жа л
жд ений
 режи м
ж ением
 раз мер
спо соб
 хо тят
 побе ди
 публи ка
 уче том
 о предели
ки па
 у сили
 то пли
 П е
 сни жение
 приз вал
 спа са
ж нему
м ана
 по рт
 за ве
 за интере
ров ер
мо тря
че к
 уголов ного
б рь
 Б рю
 которо му
" ),
Ф А
 при ем
ма ти
ку па
пе л
 Г е
 мет ро
 спортсмен ов
н ется
 не движи
ско р
 то й
 кон струк
 международ ных
Отмеча ется
Ж и
о бо
 м ер
 от ли
 К ри
жа ли
 П и
 сов е
19 7
 бе спо
 про тя
 э пи
ну ли
лен ного
 свои ми
 участ ники
 ис пыт
 постоян но
 Япо нии
п ру
 с конча
 пре вра
 та кая
 сооб щения
 ни ми
 Кры м
 куль тур
м ей
не ра
по ль
 г ро
рован ных
 сторо ну
 ц ер
 журнали стов
 руковод ство
 ответствен ность
u r
К О
 на помина
 Б ар
стави л
жда ть
 тем пера
 чу ть
 кандида тов
  Y
 по ло
 К али
тиче ского
 голосов ания
 конц ер
 э фи
по н
 вер то
 проек тов
 смо гли
 обла сть
т ни
ен са
 у тра
аль ных
 Т е
 сен тябре
 федера льного
 ана лити
 соц с
М не
лу а
15 0
 совершен но
 правоохрани тельных
 барре ль
 бежен цев
Д Д
к нов
ст ям
ма т
 бу ма
дни й
 россий ским
19 4
лож ения
 тех ники
 Ю рий
 эк стре
 догово рен
- де
В ер
К оне
 бо лез
 пере воз
 дру га
 побе ду
 потре бова
к ло
то на
 по езд
 М акси
фи циаль
 Н ью
 отмети ли
 Ко ми
 официаль ный
 вме сто
 ноя бре
 музы ка
. com
С та
 ка ких
спо рт
 И с
 стра х
кан уне
 гу м
 Кон стан
в ов
 с де
 на кануне
 а гре
пи т
 Ф СБ
Нес мотря
ем ь
э й
ма рт
 креди тов
 раск ры
 приходи тся
3 8
 орг аны
 Сов ет
 позволя ет
Н Д
 го л
 то чно
u b
тель ству
 Г у
 И тали
 Е гип
 ок тябре
 Са удов
вшего ся
 Госду му
 распро стра
Л а
ро не
 у щер
 ма шин
 О лимпий
 встре ти
 созд ание
Ме жду
 Никола й
 различ ных
 худо ж
u p
 в инов
ми ра
 во дитель
хо де
ово е
па са
 под ня
 ком менти
ща ться
 поли ция
 ди с
 самы е
 депута ты
 станов ится
з н
ста и
 де лега
 Ми р
 гражд ани
 должно сть
 изд ание
 Об ще
и муще
 по жар
ле ц
ло д
му р
ция м
  J
з ву
ч ков
на м
 про ходит
 до став
ед ь
 борь бы
е шь
 о конча
 б ю
 сист еме
-пре жнему
И х
сти ть
 Ро стов
 стра ну
 воен ные
вший ся
 прио станов
5 5
с ного
 т вор
 з ву
 лю д
 прове ли
 Ва ле
 финан сов
 провер ки
eu ters
 а каде
 мо ре
 ф рак
гово й
 пло хо
 реши л
 ше сти
a c
 с ложи
ко му
 про стран
ров ой
 от да
тель ном
му ли
-лет него
 мат ч
  Й
 у довлет
По мимо
 пер сона
 ба л
 круп ных
 реко рд
хран ения
го ло
 б рен
рь е
Со об
 ско лько
 апре ле
 продолжа ет
ссоциа ции
 у регули
 до кла
 вы ска
мен те
 под ряд
спо ль
 представи теля
 Ки тая
 женщи ны
 зап лани
ли й
 з лоу
 су тки
 Ц СКА
 оп ти
4 00
щ ению
 ви зи
 исто рия
зова ть
 Го судар
 за дол
об раз
мени ть
 дума ю
 ау ди
- а
t ion
ни ку
 мо гу
19 6
лож ение
 отмети ла
 воен ного
 даль ше
 род ствен
Коне чно
 д ни
 не га
 ви ди
 расс казыва
 контро ль
Ве сти
 официаль но
П рав
к ри
 п ак
 до мов
щи к
ана м
прав ки
 вто ром
 послед нее
 собы тия
ew s
 вече ром
) 

4 4
С ер
х ан
ани ей
стви ем
 Ки е
 призна л
 догово ри
 регу ли
 Медве дев
Экс пер
- д
o f
А лекс
г ани
ст ры
ня ют
 Пу ти
 сез она
еди ни
 за й
 я в
 ве ка
Са мо
вшие ся
 гру зов
 руководи теля
лай н
л дин
 по каз
 Р е
кра тно
 му зе
 A pp
 Па в
 R euters
 обеспе чи
 Москов ской
 неда вно
- си
М ин
 в д
 ко раб
 рас ходы
илла ри
o v
П рави
п луа
 у читы
 ф рон
 республи кан
 региона х
 ре ша
 глав ного
 проис шествия
 ц вет
 причи ной
 расследов ание
 уче б
 губерна тора
 сим во
Моск ва
  i
В ме
 на шли
зи й
 пере се
 гла ве
вед ение
 обще ства
 Бе лору
 кам пании
" С
7 5
К С
 у ро
 при чина
 пре имуще
 А ль
 па три
 само стоя
 Евро пей
 подтвер дил
Пер вый
 бес пла
ж ению
 с да
 у стро
 не про
 со держа
про тив
чен ные
 ос нова
 вс ему
ус лов
зер бай
 на шего
сс ы
 к роме
 бо ле
 террори стов
 кос ми
- А
 по ступа
 ре ферен
 реги стра
 полити ке
 тру да
А Н
то рии
 ра ст
 мо мента
 дела м
 бан ки
 преду сматри
- о
П ар
с ред
 о стров
де кса
 об служи
ги на
 П ре
 О П
 други ми
 коман ду
 изд ания
Д ру
Т Б
я р
ва ем
 э кипа
ере мо
оне ц
 им еть
 экс пе
 рез ер
 кризи са
 дере в
 б ен
ров ана
 ре ли
 Г ор
 ак ци
 воен ной
 прове л
 первы м
 програм му
 суще ствует
 ша х
Ми нистр
В ласти
В чера
 по смо
 Н ов
 сотрудни чества
 засед ания
 добы чи
З ени
Л о
ко ном
 м но
 первы х
 сен а
 трен ер
D A
 о щу
за й
 от ре
чи тельно
сси ю
 мо шен
 помо чь
 экспер тов
 предлож ение
бар ди
Прав да
С пе
л л
 со хра
 то л
пи сы
 ве сти
 пров ин
 Ка ра
 мест ных
 управ ление
 Ви ктор
ов ер
ва ку
ров анию
 вы ру
си ла
 пар тия
 американ ских
 региональ ного
 харак тер
 группи ровки
 комплек са
ти м
 про шед
тиче ских
 государ ственной
 вой ск
 Со чи
 задержа ли
- Й
Э та
н ений
ф ин
 в веден
 ко али
тель ности
ствен ную
 пров од
жда ет
 жа ло
 вырази л
gh t
b er
 бо га
би л
ак ан
 служ ба
 гум анитар
Е вро
ч ений
ъ ем
 у г
 ме ч
 ста рт
 я р
нов ременно
 ле том
ково й
 зд раво
 попы та
 н ан
 за тра
 мо дели
зи ровать
 государ ств
 ад рес
 предприя тий
 аэропо рта
 Болга рии
Т у
ра й
 по то
 из обра
 под вер
лы м
 Ш и
ложи ть
рит ет
 должно сти
 ги бе
 сез он
 ката стро
с на
та ря
 г ре
 из бе
 ро ждения
 принима ть
 террористи ческой
 обнаружи ли
ль ными
 к руг
ова л
 ли чно
 сооб ще
 би р
 нов ую
р ение
ч ности
по те
че скими
 ре сто
шен ных
 груп п
рово го
 програм ма
 созд ания
 ог ня
Газ пром
фика ции
 тр ени
 най ден
зербай дж
 с март
чи ки
 Л ю
 вз ят
 струк туры
дово ль
-Й ор
У же
к тора
ри ца
 у мень
ова ть
 К ур
лю с
 ста би
 Ки та
 универси тета
 на стро
же б
тель стве
 ча ще
 По д
 экс плуа
С от
 бо ро
аль но
стан е
 прош ли
 деся ть
Хо тя
 министер ства
 отстав ку
 Эр до
4 9
i d
О снов
 по нять
 при вы
аль ного
 сообща л
 ближай шие
А Р
 у тром
 об мен
 М ак
 Россий ская
 с х
 с нима
ва ми
ру дни
 вы бор
 мо дель
 Г У
 комп енса
00 0
ноги е
 това ров
 принадле жа
 экстре ми
Ф и
 с на
та л
ти сти
ди ла
 ре д
 исто рию
 состоя ние
 каж ется
 буду щем
 ген дирек
 App le
 до ход
 да ть
 журнали стам
Поч ему
А д
Н И
я че
ри ев
 м нение
 у креп
 об щего
мо го
чи н
вы ше
 чи сла
 мар ки
 стать е
 масшта б
 Итали и
ва ло
 за мо
 со прово
 вы пуска
 жи ли
 кор респон
 оказа лось
 мигран тов
НД Р
Ч и
сто ит
ги я
 та риф
 ию ле
Са м
 осу жден
 авгу сте
 с че
 и талья
 за про
сс у
 сред нем
 террито рию
раз до
 услови й
 Кры му
 спец служ
 Оба ма
Еди ной
 здраво о
 э кологи
 э ваку
 под роб
ек ре
 ма лень
 наз в
 последни х
 суб ъек
 энер го
т ков
 про шел
 С ан
си н
си бир
 комп ью
 Ки тай
 вой ска
 Ку з
 последни й
 отказа лся
В едь
 по явля
ма й
 бо рту
 з во
 вопро сов
 край не
 Республи ки
ров ании
га ть
 пов ед
 Дмитри я
 появи лась
 значи тельно
 специали сты
u t
то е
 при чем
 во сь
жи дан
ги й
лы ша
 х ва
 дви жение
a il
 ч рез
 раз вед
 ми н
 ро зы
 рас ходов
 сове щ
w it
т ников
 от дела
 Ан ка
an d
стой чи
 отде ления
ш кин
ли л
 у кра
 про гре
 до ля
 жи тель
 лю бо
 объ един
 програм ме
 став ки
неф ть
 вари ант
u l
В лади
э т
ци они
 под с
 ма е
 Д онец
тер на
 экономи ческой
 разви тию
4 8
ен т
 по яв
 из ъ
ствен ном
 На де
 пов ер
 Ва си
 вос емь
 произо шед
 контро ля
 Ла вров
 баз е
  t
А в
л ке
ла в
 пре ми
 Ка зах
 намер ен
 ВВ П
3 9
г ни
 по ро
тель ными
 сист ем
 пов ре
 актив ов
 пози цию
 предлага ет
 инци ден
 неодно кратно
А З
 о го
 за мет
 поряд ке
 пала ты
 собеседни к
4 6
4 7
х ар
 к в
 го раздо
 до ходов
по к
 Б ан
 Х иллари
 смо г
 направ ления
А к
з мом
о ло
ст ях
 из бран
цион но
 це ли
 Мурман ск
 торгов ли
 окон ч
С парта
з ни
 про голо
ля ет
 Д ени
бе ра
 пол но
 стоимо сти
Ру сс
 объяви л
 и ми
 от каз
 ин стру
 воз ника
чен ный
 се рии
 дву мя
 автомоби ли
 оказа лась
 теле фон
Газ ета
 взры ва
 возгла ви
щ ений
 у потреб
ку н
 мо й
би на
стан ции
сте п
 им я
 побе ды
 ря да
С А
п ят
э та
 ма ль
 перво е
 учре ждения
  /
4 2
З десь
л ово
ка ли
 г лоб
льно му
 пе ча
 отра сли
 оппози ции
 весь ма
 посо ль
 сожа лению
с ный
х уд
ти ем
ми ни
ча ют
 раз ные
сле дов
 да ет
 пи т
on e
 ар битра
 интер н
 предо ставля
 миллиар дов
 аэропо рту
 вари ан
ф ы
да ции
 з оне
 фак тически
 чемпи он
 экспер ти
 исс ледова
 внутрен них
 кварта ле
 середи не
- по
сти н
 С ева
 спо кой
 други м
 сем ья
 закон чи
 стре ль
 Иван ов
 мно же
Т АСС
 с выше
 у ва
 у станавли
 во до
 С вет
 де ше
 В ы
 ста тисти
 полу о
бли зи
 органи зов
 обеспе чить
 сум ма
 нем ного
Б ез
д ят
да ют
 пере жи
 прави ло
 основ ной
 очеред ной
 источ ники
 подчер ки
 пострада ли
 прибы ли
 собира ется
 каждо го
6 5
ч ность
 в ру
 д нем
 на ме
 со юза
вы бор
 американ ского
 прокура туры
 подраз де
 люд ям
А мерикан
ща ют
 боль шая
 спе кта
 отмети ть
 услу ги
 здоров ья
 клиен тов
Е е
 на бра
 го сс
 раз де
аль ные
 государ ственного
гли й
 ц еремо
 напом нил
о до
 ра в
 от рица
 вы полни
тель ность
щи ка
 раз бира
 су пру
 жи ть
 шко ль
 кризи с
 Кие ве
Г У
а й
те ры
 пре се
ше к
 жи ву
 доку мент
бур г
 контра к
лити ка
- ре
 о форм
ан ь
 при зыва
 си гна
 нача ть
 тре бова
 проек ты
 контра кт
 протя жении
" Я
г ова
ж ным
 ч лена
 вы нес
ве дом
ку р
 работа л
 вла де
 дирек торов
зо ра
 бое вых
 ново е
Да же
Ра бо
 иг ру
 зада ча
 Че ч
 степ ени
 задол жен
в тра
ли га
 ди нами
 исполь зования
 мест ные
 поддерж ке
 политиче ской
 чемпиона те
 пун кта
 допин г
Сот рудни
wit ter
ю н
ку т
жа ют
рем я
 глав ное
 полити ка
 соответ ственно
 относи тельно
 Андре я
 тю рь
" На
М ногие
Ц ен
 на вер
та ль
 вы шел
ме ра
 ру ки
 Е лена
 Ф и
 ди ск
 пу тем
 Ч у
 Ма т
 Ко ре
 социаль ных
 провед ение
 прибы ль
 сложно сти
 началь ник
 Алексе я
 Макси м
 нан ес
ж ная
 в ете
по нен
 С бер
ше в
 режи ме
 обеспе чения
 называ ют
Пу тин
 ль го
О К
д ания
ни на
бо к
пи сь
 П ар
 международ ной
Го спо
 Все мир
 Брю ссе
" По
 с бо
ер шен
 ра нен
 об и
ги н
би й
 но мер
 И ль
 экономи ке
 програм м
 вто рого
 обы чно
 требу ет
- с
С ко
 в ет
 по хи
 В яче
 имуще ства
ш вили
на че
 у дар
ва лась
ров ка
ско ре
 вы яв
 К НДР
19 5
При чем
 занима ться
 инвести ций
Ислам ское
 Сева сто
g le
ч ке
но доро
 он лайн
 Па вел
 страна ми
 телекана л
 адвока т
 промышлен ности
 Донба ссе
И Б
 с начала
ан ного
на у
 у доб
 при вати
хо м
 стра нице
 украин ских
 прод ви
 эфи ре
б ез
 с мен
 за бы
ря док
би ть
 пред мет
 да леко
 американ ской
 состави т
 еди но
 регу ля
 нео жидан
k s
П К
ко торы
 по жи
 на пада
 при шли
 да л
 реши ть
 аре стов
 сез оне
э ль
 д вое
ме сти
лен но
 вопро су
 прош ло
 руковод ства
 миллиар да
 собы тий
 пред стоя
аль ный
 полу чения
 сам ми
 отды ха
 хок ке
 с ведения
 про то
ду ет
 М ер
 раз но
 я пон
 ав тор
 обра зова
 зна ю
 государ ственных
 поз же
 T witter
 участи ем
 засед ание
 бом барди
и ча
 у ченые
мо с
ту ю
 з ер
 пред стоит
 ми нима
 ста ра
 ви ру
 Ш у
 Та тья
То лько
 тр лн
ст ных
це п
 са ма
мети м
 город ской
 зависи мости
 реда к
  логи
д ри
ан ная
ду ш
сто ро
 то п
 ка за
 чи тать
 Ш та
 Ма ри
 тра ге
лья н
 специали стов
 хозяй ства
 проголо сова
 по казыва
ни ла
ва ющих
до н
 ли тера
 сто я
 террито ри
 ию не
Ком пания
 гос питали
 тури стов
К стати
 в пере
ва лось
 вы хода
 ин жен
 Г ру
 ди ви
 прави л
мери з
at ion
 непо сред
 абсолют но
Влади мир
A DA
го лов
 на ра
 а м
 К ана
 ли шения
 ком анд
шен ы
 прош ла
 новы м
 коман ди
 З ем
 украин ского
 направ лении
 кла сси
 сту ден
диви ду
д же
 по яс
 мо жем
 пра й
 жи лья
 депута та
 прав да
 подготов ки
oo gle
 мужчи ны
% ).

Е К
д ки
ж о
т ную
 в вести
ти ки
му т
вы чай
 ве дет
шен о
 гражд ане
Та кое
 политиче ских
Ру ково
и гры
 у ника
 ра нения
 мо гла
 пред выбор
 ве щи
 се риа
 хо да
 Ка ды
 кра си
 федера ции
 руковод ством
 лидер ов
 ожида ется
 в печат
но си
ан ей
ль ского
до пин
 ка мер
 Л ит
 боль ницу
 лю бы
 совмест но
 губерна тор
 б ед
 не вы
ова ли
 ин те
 S t
 оп ровер
 нару шение
 увели чить
 Ви тали
 соста ва
 вов се
 оши б
ПР Ф
 зару бе
 заинтере сов
с ных
га з
 де фици
кон струк
 обще ственного
ющие ся
 кандида та
 времен ем
 технологи й
 стре ми
 теку щего
 уси лия
o c
ра с
 которы ми
 Ф Р
 гра ницы
 прави ла
 тру дно
 экспо рт
 Ира на
 налог ов
 турни ра
 по м
 на стаи
 а но
 от казыва
 при вести
 С П
ши ми
ор дина
 ча с
 ди зай
 распо лага
мя ти
 выро сла
 потен циаль
 у казыва
 за ра
 хо тел
 долла ра
 европей ских
 ракет ы
 спу стя
 сче том
I mage
ж ется
 ч лены
ша ют
 сторо на
 пла т
 произо шла
 Та й
 зд ание
 измен ений
 уточ нил
 выпла ты
 конфли к
 возра сте
в шую
те ров
 го ря
 вы пусти
ку да
 з ве
 В ене
 се кун
 сто лько
 Ч и
 установ ить
 стать и
 продук тов
 провер ку
 кры м
 доби ться
I I
ре за
 со хран
 го дом
 уча ствовать
 получи т
рово к
 ис пы
 настоя щий
 послед ствия
 конкур са
 c ap
э ро
то рой
 на ша
 на груз
ни ке
 от прав
 Ро ман
 ве с
стви й
 россий ском
тора ми
 назна чен
 окру га
 обстоя тельства
. ру
с ант
 у худ
 се веро
ца х
ень ю
 Украи ну
 глав ным
 прода ж
От метим
 луч ших
 появи лись
 пример у
 музы кан
Рос нефти
А на
ра т
 по лез
ла г
про из
 ча са
 пов е
 противо стоя
 мероприя тий
 бло ки
 связа но
 cap tion
% ),
ру ются
 Д аль
 хо ть
 вер нуть
 груп пе
 Во ло
 Ни ки
 международ ного
 Ин ститу
 показа тель
 Пет р
 технологи и
 Из раи
Извести ям
 прай мериз
  +
р ги
ен ных
 ру лем
дер ни
За тем
 A ir
 газ еты
 сро ки
 зависи т
 Ана то
 прокомменти ровал
-премь ер
б лаго
ко мо
за ми
ти ровать
 про йти
 э мо
 ин дивиду
сов ершен
 горо дов
 S p
 сни жения
 занима ется
 законода тельства
co p
 оружи е
о графи
э коном
ен ный
 ми тин
 О р
ступ ления
 проце сса
 паци ен
 изъ я
т ное
 с форми
 ак тер
 гово ря
 Ку бка
 сдела ли
 полити ку
 За ха
 полож ение
 опти ми
акан уне
в шем
з бе
но с
 м ан
су ди
 се вер
гово го
 По литика
ложи л
 C h
еха л
 суб си
Де пута
 возра ста
 гри вен
 здравоо хранения
- и
 про ка
 ми гра
 че сть
 па мяти
рабо т
 глав ных
 суще ству
 пассажи р
 выступи л
-Петербур ге
 дипло ма
 наказ ание
Н акануне
ст рен
ла я
 у л
 су ме
 ан глий
 каче ства
 обяза тельно
 телекана ла
 ори енти
 грузов и
К то
О фициаль
ц кий
 в ряд
 в ходит
ли ли
 за каз
 дела ет
 заво да
 опубликов ан
ИБ ДД
ш ку
э р
ен ные
ра чи
 по кры
 у бы
ру я
 со сед
лю ка
тив у
зы в
 президен ту
 финанс овых
 конфли кт
 утвержда ет
 глу бо
 километ ров
 спекта к
 и поте
ли к
ран ов
 обо ро
мет ров
 конце п
 чинов ников
 стол кнов
 провин ции
а л
г ло
ч ными
 не ма
 до ходы
 вы бира
 К ор
 ру беж
 цен е
 авто ма
 вз рос
чер ний
ar d
 Миха ила
 пострада вших
 верну ться
 попы тки
 пунк тов
 Оль га
ля бин
сти ческой
 ми ру
пра ши
 находи лся
 прово дить
 под клю
 ли ши
 президен ты
 це ле
 З и
 предвари тельным
 Министер ства
- Ж
С тра
Ч а
з ен
т ров
 по рядок
 на сколько
сс ор
 ра н
 ба зы
 случа ев
 находи лись
 ребен ок
 кварти ры
 мужчи н
 крупней ших
 инвесто ров
 взгля д
п ова
то рое
ков ых
ша ется
 согла сов
 украин ской
 бизнес мен
 выступ ления
 боле ль
збе ки
g r
l i
М С
ж нем
 у диви
 ко му
 за мен
мо жен
 С мо
 мо ря
 кон цу
 кон ститу
 О АО
рем ьер
бу дь
щен ко
 Ва лен
седа тель
 ведом стве
 Дж о
 ради ка
 места х
 мя ч
 прогно з
 примен я
 отсут ствие
 сегодняш ний
обо рот
с ные
 о каз
 к вали
 ре волю
 пере ми
вы ми
жно м
 Г и
 сто ль
Со ответ
-лет няя
 анти допин
 ограни чи
 исследов аний
 финанси рования
 сдел ки
 чрез вычай
го н
 у ж
 не му
 за куп
по й
 при ез
си ст
 ме да
тив ным
 па дения
 чи та
 пробле му
 интере сы
 права м
 италья н
  €
 с чета
 хо чу
тя брь
фор мы
 ограни чения
 пользова телей
Россий ский
энер го
Прави тельство
 мошен ни
  лу
С ША
т ете
ст но
 ко рот
 к росс
 мо дерни
ке ль
 бу ква
 кон ференции
ба х
 се г
 после дова
 Ф или
ев у
щен а
 Со единен
 Ин форма
 сум мы
 повы шение
 ава рии
 коло нии
Ново сти
го ре
ха лин
 помо жет
 прош лой
 минист ров
 продолжа ют
 зем ли
 рез ко
 подписа л
 Север ной
Лу ч
4 3
8 5
ри ке
 сооб щение
 встре чу
 эта пе
 исклю чительно
вшей ся
Воз можно
к реди
ли в
 б ри
ля ция
 раз о
лет е
 су пер
 Ле они
 убий стве
бло ки
 Дональ д
 сде лан
Вме сте
 в из
 о пы
 ра сти
 э кра
сси в
лов ые
 Ф он
 Ма рия
Из вест
 догово р
 доб рово
5 7
 и дут
ль ский
 С т
 К ПРФ
ания х
 Б рази
вя з
 ак цион
 само у
 сообща ют
 Ки рил
 много чис
Ре чь
ro up
 конкур с
Представи тель
 инфраструк туры
 большо е
 Кер ри
 авиаком пании
r a
Ф О
 о ка
 и д
 б рон
 про з
ши на
 К аз
 Н о
рг ани
тора я
 основ ных
 наз вать
 нару шений
 следу ющий
щих ся
 зем ель
 дополни тельные
 выро с
 жерт в
 полага ет
 ого нь
которы е
Т С
 с пас
 о прав
 за пусти
 пре дела
 ма стер
 су ти
 О де
жд ению
 ак ту
 пу ть
стов ер
 обще ствен
 наз вали
имо сть
 B l
ема я
 коли чества
ri ght
 выясни лось
циона ли
Сооб щается
o d
в се
 в клад
 по сту
ви т
 ре шений
 е з
пи тан
 наз вание
 Бо ль
 За пад
 G oogle
 законода тельство
 стол кну
Ч ерез
 по тра
 про йдут
 от личие
ры ва
 мо з
 се ми
 россий ская
 произ ой
 причи н
 избира телей
 парт не
- министра
то ру
сс ель
по да
 вы йти
 гла вой
 лю б
рован ные
 Ю жной
 Я ро
 заклю чения
 противо ре
 выс каза
 ответи л
 прось бой
- ни
0 9
ь ми
ь ев
 в до
 на сле
ни то
зи ть
 А са
 чи с
 города х
 Ново сибир
 часть ю
 убий ства
 сирий ской
 живо тных
 началь ника
 сохрани ть
 Крем ля
cop y
 Информа ционное
  copy
д не
у ка
та цию
 у каза
 за хо
де ром
 Б ель
 воз ле
 И р
 нача ло
щен ы
 авиа ции
 догово ра
 друго м
 отказа лись
 роди телей
Де ло
 ава рий
 использов ание
 дер жа
 потер пе
ц ова
 на сто
 ка ким
ря с
 пред на
 случа ях
 мест ного
 чемпи онов
 занима ет
 капита ла
 Екатери н
 экспе ри
 copy right
- М
П и
ле ва
по ля
 под рост
 ин вали
дни е
 дол г
 гра ду
 Ки ева
 ту да
 бе се
 Ар м
 опреде ля
 угро з
 работ ников
нача льно
 игро ков
аней ро
 п лен
 в ъ
 в зы
 за слу
 к г
 об ой
че ва
 вы пуск
 все ми
 но чью
 боль шую
 коми ссия
еха ть
 бю ро
 гибе ли
7 7
Ш а
з он
 с ин
 и стре
 и наче
те ц
ди но
 а ссоциации
 ре зо
 те пло
По лу
 В ТБ
 У збеки
 ос на
 лет а
 вз ять
 спи ска
вле ка
 след ствие
Газ про
 шо у
 желез нодоро
 сконча лся
-ни будь
  жду
" Это
Т ран
з ья
к ров
ри сти
 г ром
ме д
 поли цию
пол номо
 ж дет
 коман де
 ули цы
 друго го
 материа лы
етербур г
 подготов ке
 инф ляции
споль зова
 Витали й
1 20
И Л
т вра
 та ком
цен тра
 сотрудни к
чу в
 I mage
 обла да
 показа ли
видет ь
 генера л
 прогно зи
град ской
4 1
С МИ
т вори
ш ко
 п ле
 д ета
 за пла
 об щем
 А зербайдж
 пер спек
рь я
 эк стрен
раз ви
 иг р
 Ру сс
 Евросо юза
 заболе вания
 напомина ет
Н ет
 д ы
ни цей
лет ряс
 Б ы
 ну жда
зо к
 следу ющем
 план ы
 влия ние
 правитель стве
 ремон т
 карти ны
 корруп ции
 резо лю
i v
ст ю
на р
 ч т
 у ме
ста л
не сти
 во шли
ги е
жен ы
 рас чет
 ито ги
 сем ье
 фор ме
 ис че
-пре зидент
 подоб ные
 устрой ства
 Интер нет
 спро са
 вспо мина
-Ж анейро
5 2
А ль
ви га
 от стран
 стра ш
 ак три
 х ран
 плани руют
 источ ников
 подтвер дили
 журнали ст
 обяза тельства
 региональ ных
 Пет ра
 постав ки
 пожа ра
 озна чает
 Саудов ской
на ру
 С те
овы ми
 запре т
 боеви ки
 потреби тель
 Лени н
Экспер ты
д ва
 с праведли
ти т
 со лда
 про ходят
 го това
ма х
 Д э
прав ления
 место ро
 появи тся
 пыта ются
 ти па
 фрак ции
  ·
Е в
Л ен
М ос
 на правля
ви с
хо ждения
 те му
 ро да
 зна ет
 ад ре
-лет и
es s
 ново м
 предо твра
 выпол нен
 угро зы
 выступа ет
 бра ть
 путе ше
 Белору ссии
 Кита е
Госпо дин
л ку
с ор
ча ли
су льта
 Г ИБДД
 дан ном
 му ль
 глав ной
 доро г
 нару ши
 суще ственно
 ведом ство
 кандида т
 полицей ские
 полож ения
 наро да
 пообе щал
 самостоя тельно
2 50
Н овый
ен ной
ль ности
 до сто
 Р я
пи си
 та кую
 од новременно
 объ ема
 переда чи
 международ ным
 Ве черний
 самолет ов
 объясни л
 девя ть
 рабочи х
 рели ги
Б лаго
п ет
 с еть
 по сад
по след
 раз ы
сту ю
 ве ще
 комп анией
 ди ску
 ле ген
 х рани
 отно шение
 оста лись
 защи те
 социаль но
 внеш не
 Дональ да
 Вол го
Алекс анд
в ана
 за ка
 от правля
 при ро
 ка чество
 американ ский
 элек три
 появи лся
Бы вший
 напад ения
ww w
- би
Р О
ф она
 за вод
де ва
 хо лдин
 зна ют
емы м
 кор пу
 вла сть
 официаль ном
 материа лов
 неда в
5 3
Г ра
и ться
 с прави
ан у
 на си
 при род
ду мы
га л
 де кла
ща ли
 хо те
 лю бов
рован ный
 город ского
Ре шение
 ша г
 подоз ре
 производи телей
 психо логи
 Пари же
 н овая
да го
 не лега
По з
 з е
тиче ские
 говори ли
 груп пу
 сотрудни чество
чу к
Та кие
 подоб ных
 оборудов ания
 Лондо не
i k
 по казал
 со ли
 но мина
тив ное
рани е
 каж дой
 шко ле
 кур са
 ри ск
 успеш но
 стату с
6 6
д жа
 с прос
ку ро
 В ар
 ма й
 Н ор
рен а
При чи
 Ан тон
 На талья
 задерж аны
Пред по
 назна чения
 москов ского
 полицей ских
 ид ти
Т ре
ль до
 у м
 за ле
 за втра
щи ми
 ком пози
вед ений
 T im
 режи ссер
 доба вля
Пре сс
 источ ника
 вним ания
 обрати лся
 терак тов
 недвижи мости
 хода тай
 по правки
ти ла
 у з
 у стойчи
ся тся
 т рое
лу ж
 те ла
гла вы
 G roup
Мо жно
 прекра щения
 генера льный
 приобре т
 поко ления
Му ж
 Олимпий ских
 ОП ЕК
 боро ться
" У
6 00
P h
Д ень
чен ного
 вне д
 сы на
 требов аний
 замести теля
Ди на
 полномочи й
Р ез
С П
ж ную
с ан
 от дел
 об станов
га ет
 У люка
 ку пить
 счита ется
 Та тар
-служ бы
 зо ны
Ком мер
 банк рот
емон стри
 прокура тура
 зи м
гова ри
 предна зна
а ка
т ника
ь и
ю к
 по степ
 на ционали
 за строй
 к ан
 ре конструк
жи ть
 да ли
 пи ло
ут ко
 ника кого
Ба ш
 бло ка
 ау к
 тен ни
 органа х
 соревнов аний
-кон ференции
Г ово
 К ом
Се вер
 отказа ться
 попа л
 намер ены
 катего рии
 молоды х
. )
Д ва
Ф ор
ло га
ля ми
 об ру
 г ря
ду м
 из дели
 раз у
 раз вер
тер рори
 вопро са
 Евро пу
 кор рек
ющий ся
ору жен
 продолжа ется
 россия не
 серьез но
 игра ть
сер ва
8 00
Б У
б ек
 о строва
 о чков
 от мет
 вы шли
 С Н
 Б ли
 боль шим
19 3
 це лях
 Евг ения
 вооружен ных
 военнослужа щих
 избе жать
нито рин
0 8
Х Л
Ч ем
р те
ц о
 у видеть
 С об
 ф ар
зи я
ня л
 ком фор
ба ров
 дру гу
дей ствия
бер г
 тяже ло
 представля ет
 гри п
 принадле жит
 ВВ С
 повер х
  ово
О соб
Р и
в каз
и мен
ра л
ра тов
 по мимо
 у пла
 за д
 раз ве
кон тро
 пов то
От кры
 заяв лении
 повы шения
 докумен те
 потен циа
 Гре ции
 бир же
послед ствии
5 6
в шее
ч ан
ст ные
 на личи
ла дель
 у ста
 про игра
 во спользова
че ству
лен ным
 си ль
 пер ен
 комп анию
 дела ют
 террито рия
жден ы
or t
 созд ании
 продук ты
вобо д
 искус ства
 зарпла ты
 тен ден
  [
Д ей
Д ума
З на
И м
в шему
т ном
ю ри
 у до
 э по
 до хода
 пре одо
 раз би
 ста ры
 вто рое
 премь ера
 увер ены
Россий ские
 упа л
 пись мо
 След ственного
Б Р
В Ф
ж него
к ета
 в ходят
ри ла
 е сте
ков ский
Не которые
 прода жу
 Со юза
 Ж К
 план е
 смер ть
 неу да
 различ ные
 хи ми
 аль терна
 проводи тся
 остан ется
 ущер б
 вось ми
 множе ство
П обе
П ремьер
Ф ран
ст рии
 о хо
ре т
ко л
 на шу
ле жа
 про чи
ля цию
ча л
 хо тели
 па ру
 па дение
вя тся
 объ еди
 тре тий
 прода же
 ино гда
 прод емонстри
 повы шен
 ника к
 кла сса
 Лу ган
 тор же
 акаде ми
 подразде ления
 Екатерин бур
- пер
 м ск
ти вы
ви ть
 а льян
 пре мии
мен том
 ст рой
 под ъ
ня т
 Д жа
вши ми
 стан ут
 право слав
 газ о
 суще ствов
 пыта лись
 времен а
 струк тур
 убий ство
 обязан ности
 десяти лети
g e
с л
 на шим
 ко ордина
ня ются
 ро зни
тив ная
 россий ско
 дру зья
 оста лось
води ть
 ю го
 теле ви
Да лее
 получа т
Ра сс
 специаль но
 оцен кам
 худо же
 присо едини
 Гри го
 Ге ор
Ло комо
  лен
С Е
у строй
ко ма
 по га
ва ющие
ди ю
 со держи
се ль
 мо л
 ин нова
спо ко
 И рина
жд ан
 ви дно
 од ному
 нача лась
цион ная
сова ть
 зада чи
тех ни
Представи тели
 раст ет
сна б
Сотрудни ки
Ph one
Ж Д
ж ут
 до лю
хо з
зи ю
 те ло
 бо я
 ли ш
 Д же
 пер вая
сла ва
 ла гер
 Ли ги
 оцен ки
 дав ление
 истре би
 жду т
разви тия
  of
! "
% )
У част
м ова
 в ин
 н ена
ти ков
 до сро
си в
ня ли
 Г аз
сов ет
 х ра
 представи ть
 Ш ве
 доро жного
 высо кой
 N ews
 пыта ется
 Оба мы
Дина мо
i f
Ч е
п лан
 до мой
по лу
си и
ке ра
 Ф ин
зиден та
рован ной
 результа там
 извест ный
 вме ша
 зем летряс
ква рти
 утвержда ют
 проте ста
 институ та
Поли ция
 хва тает
- Н
0 5
г ана
ти фика
се ло
ты ми
 боль ницы
 боль нице
 гра фи
 отно шению
 дей ствовать
 сбор ная
 спортсмен а
 предложи ли
Лю ди
 регуляр но
9 5
к ей
у л
у да
 из о
 В С
 ин спек
жно сти
 воз ро
 дол га
 B r
 преступ лений
 роди тели
 предлага ют
 еже годно
 Верхов ной
 удовлет во
  ждать
- мен
Т Р
р ению
 о держа
то ре
 у ступи
 при нес
 ре шению
 слу жеб
ед ж
 счита ю
 пе даго
 дет ям
дь ми
 сказа ли
 ла бора
 кварти ре
услов но
 взят ки
 Фили п
в ании
г руп
то логи
 и сла
ри ка
 от ря
 А О
про кура
спо л
 Ч а
 основ ании
 режи ссе
 получа ть
 футбо лу
 послед него
 окру жа
 отношения х
 пам ять
 нако нец
 ат мос
 максима льно
Кра сно
 публика ции
- экономи
Б и
О ста
с лан
 в ку
 с ча
 по го
ри е
ри ей
ти ка
 со тни
 а ген
 Р АН
 ф ер
 года м
бли о
кла сс
 оста ются
 района х
 финанси рование
 пригово р
 фотографи и
 архи тек
 Констан тин
e x
o b
д нев
ц ар
ст ся
ли зации
 за дей
 ре аги
 под нима
 з вез
лен ная
про дук
 са мая
фи ль
стре е
 гра ницу
 фи ли
 потре бу
 Ж у
 ти ту
 иде и
 комму ника
 колле ги
 замети л
 назв анием
 Татья на
- ин
л не
о пера
т ники
 по дели
ль ность
 за ем
 за меча
 А ли
ствен ными
стви ю
 Ф а
 ку ро
 пол ном
 пов ест
ствова ла
 Тур ция
 сы н
 привле чь
 писа ли
Пере д
 коали ции
 насто лько
7 2
э к
 с лово
 го стей
чен ых
 ку ри
ступ ление
er s
 два жды
 ю би
 круп ные
 проце ссе
 показа ть
 благо твори
 ново стей
над зор
 буду щего
 причи ны
 Мурман ска
 снизи ть
 измени ть
 долго сро
-Петербур г
 нуж ны
 соцс ет
роне ж
 Под москов
 инциден та
 интерн ете
 религи оз
Поз же
o y
 о со
 ре бя
 вы яс
 та лан
На м
 лю дьми
 гра нице
 дей ствует
 увели чение
 вра ч
 контра кта
 связан ные
 Институ та
эконом развития
е ром
о ном
с ети
ф онов
 в кла
 с ки
 о ф
то лог
че скому
дни х
 после ду
 пе ше
 чинов ники
 предпринима телей
Сто ит
Еди ная
 ликви ди
 визи та
Сер гей
 Мер кель
 буква льно
 бри га
- Ка
l a
С лед
ш ке
на в
ци пли
ди ться
 до стой
 г им
 Р об
 те п
 ро ман
спо рта
 кон суль
 ви дов
 вз но
 ла й
 Ла т
 провед ении
 гру з
 нынеш него
 Иго ря
 связ аны
К ры
р ных
 о ке
 по сла
ан ным
ров ку
 об а
хо дом
 ру ках
 Д НР
 Т В
рован ного
 Ц ИК
 ба лан
 оста лся
 пла тить
 ис пан
 Ж и
 нау ки
 Се веро
 электро энер
 собствен ности
 нуж на
 выгля дит
 жили щ
e c
щ ением
ен я
ен ного
 о скор
 за прос
ля ют
 об ос
мо но
 ка би
ме ется
 пред ложен
при ят
тиче ский
 счита ть
an k
 граждан ской
 филь ме
 предприя тие
 коне ц
 связан ных
 дальней шем
 фестива ля
 гро зит
 посмо треть
 пит ания
  р
o w
ж ки
с ю
 по ток
 на ми
 м нения
мо е
 при ступи
же ла
мен я
аль ное
 сторо не
 опера ций
 безопас ность
 уч ени
 окру ге
 пси хи
 опро шенных
 опубликова л
 поста вок
 Вале рий
 пресе чения
К ар
У краин
У ченые
 по й
 на оборот
 ко ль
ди о
ста я
 до ли
 П обе
дер лан
 ви ну
 результа тов
 Ко ро
 вла стями
Мо жет
 провер я
 связ ь
Сто имость
 свидет е
 универси тет
 фигу ран
 впере д
 исче з
i an
М К
ли ст
ла мент
 пре пода
ча сти
ве ре
По тому
 Г лав
 дей ствие
 доро ге
Про ек
 эта п
 прово дит
 служ бу
 зако ну
 чемпиона т
 Да ге
 молоде жи
 пак ет
 регистра ции
 оконч ания
Александ р
n d
М ар
з ме
ан ное
 бо р
лов ых
 боль шие
 уча сток
 пар ков
ково го
 дет ьми
 необходи мые
Из вестия
 получа ют
 нау к
 Че лябин
 прио ритет
вей ца
 ИГ ИЛ
 дипло матиче
 предусматри вает
, 

5 1
Б ар
д ана
п ления
го на
да п
 за ку
 об ез
 из ви
 из готов
жи м
 ст ек
 ст рем
лен ном
жа я
пра во
 кра сно
 уда стся
 обще ственных
 необходимо сть
al l
 Дж ей
 оцен ке
 Кон ститу
 Никола я
 экипа жа
 Tim es
5 8
а ла
з гла
с ман
т овой
 и сте
 а ф
по рта
 из ба
ово ль
 ка кое
 А х
 пере смо
Од на
 опера цию
 опера тивно
бра ть
 интере сов
 объек ты
 вра ча
 попа сть
 пыта лся
 выро сли
 предполага ет
 Аф гани
-пер вых
ь ет
 у йти
 не совершен
ди в
 до чь
 мо ск
мен ту
 з н
 ни ж
 хо д
 сообщи ло
es t
 прав ления
Пред седатель
 кла сс
 иде ю
 мог ло
 попро сил
 кни ги
 Международ ного
 объяс няет
 Арави и
 злоу мышлен
5 9
6 9
s t
Г руп
Д ПР
И сточник
з му
 у страи
 за пуска
 а пел
 без рабо
цион ную
от но
 Х ар
 пол ной
дова ть
 буду щее
 заня л
 возду ха
 Восто ка
-Петербур га
 демон стри
 иска ть
- в
e m
ж ан
х ин
ви ча
 об жа
 су ток
 россий скими
гово р
цион ным
 ус лов
 американ ские
 вра чей
 област ной
 Кали нин
Зени т
 Чеч ни
. ),
О чень
с ена
 в скоре
ва йте
 не зна
 г ран
 вы дели
 вы шла
 сво ему
чен ной
 обра щения
 тех ника
 пов тор
 зд ании
 площа дь
 сокра тить
 очевид но
6 7
Д об
к л
н ки
го не
 по я
 по ля
ле ра
 у ченых
ди к
 к рови
 пре пят
 представи телями
 проек те
 участ ков
 Ба ра
зя й
 теле фо
ar t
 финанс овой
 серьез ные
 лиц о
 миров ых
 терак та
 предъ яв
 цер кви
  p
С об
ф инан
 о пол
ре до
да л
 мо ниторин
 кон сульта
 су дом
 Н П
 ос ла
 приня ла
 пов лия
 Ба л
 фор му
берна тор
Рос нефть
 Олимпиа де
Сов ет
 плана х
 ресто ра
С ле
 у полномо
 за пу
 со ба
 пре бы
 во д
 мо ра
 те о
 А зии
 раз ъ
ком п
 ле чение
 состоя лась
 обви нение
 деся тки
 попа ли
Глав ный
 топли ва
Ж ен
о ну
ю щему
 по шли
 на па
за м
 при мет
чи ла
чи ться
 ре а
об ла
 А й
 ве ло
 вз ор
рабо та
 Тур цию
 журнали сты
 забо лев
 съ ем
 отдель ных
 геро и
 Бори са
 гон ки
 вспо м
 соверши л
 нема ло
  www
в лек
 в ходя
ра ции
 о зву
те сь
ров ке
по став
 при шел
 вы яви
 под чи
 хо лод
 полу го
 вла стям
 готов ности
 F or
 федера льных
 обсу ждения
 друго е
 борь бу
 состо ит
 Вашинг то
 жел ание
 Y ou
 Брази лии
 постеп енно
П С
ч ется
ч кой
 о по
 на лого
 С то
 ф ра
 ст ен
ков ич
 вой на
 насе ленных
 кварти р
 мэ ра
 Международ ной
 профи ла
 бен зин
 Брюссе ле
Соответ ству
6 4
B C
К ор
с ль
т ности
 п ти
 с ва
 н ер
ан ти
 не ве
 за то
 бы стрее
 жи вет
 сред него
 обо зна
 обще ство
шин ство
 официаль ного
 предо ставить
 финанс овые
 поясни ли
 дополни тельных
 Москов ского
 рейтин г
 пои ска
 барре лей
 энергети ки
 содерж ание
 темпера тура
А Д
 п аль
 и мен
ро ни
 м м
ло де
 к ров
чи ная
 ка бин
 та можен
дов и
ком му
 украин ские
 сокра щение
 шта б
 объяви ли
 комму на
 вероят но
 Эрдо ган
A S
Г у
Т ри
к ру
н г
 п ласти
 в ред
та лия
ту рой
 воз му
жен а
 рас преде
 пол года
 состоя лся
 опера ция
in e
 теле вид
 Ин дии
 маши ну
 Бори с
 Красно яр
 Петербур ге
 Поль ши
 компью тер
s c
э м
ли за
ну ла
По зд
 кон так
ща ются
тив ную
 ве чер
 Х и
 состоя нию
 T e
 вос принима
 зако ном
 обы гра
 Мурман ской
 приве дет
 законопроек та
 оборудов ание
 достиг ну
Дума ю
блио те
6 2
р ной
 в роде
 и мена
 у жа
ем ен
 от кло
 ре шением
 Г он
 я вно
из нес
 гла ву
 ви ду
рен ко
шен а
 фи кси
 х вати
 Ка м
 экономи ка
 воен ный
 ситуа цией
 Ви ктора
 счет у
над ца
над зора
 поддержи вает
доро ж
 кад ров
П раво
 за блоки
 а том
 а дап
 вы стре
лу б
жи н
 М утко
ник ова
 нача лись
 зна чение
 пол тора
 экономи ческих
 соб ственной
 сотрудни ками
 основ ные
 эта па
 город ских
 превы шает
 рейтин ге
 води теля
 фору ма
восто ке
0 2
6 8
С порт
д ении
к су
л ков
ст ной
 с ви
 по зна
 ре гла
 ре шении
 М ан
щи на
 мо де
 ф лота
лов ской
 пере ста
 ма ть
 россий ское
 авто ры
сты е
 Ни дерлан
 каж дом
 обсу дили
 пенси и
 област ного
ou r
 трав мы
 неболь шой
 наказ ания
 зри телей
 Аса да
Коммер сант
 ЖК Х
- До
u m
 и щ
 по един
 д вор
 д рев
 не дель
 ко пи
 ра но
 мо ей
 ме л
 раз обра
 боль ших
 подо ро
 Владими ру
 прово ка
 политиче ского
 предлага ется
 обрати ться
 секре тарь
 нач нется
 потреби телей
 Ген на
 дис ципли
 Бан ка
 граду сов
 СН Г
5 4
с во
 а таки
ей с
до з
 те ма
ря н
 П рави
 ли дером
ходи ли
ед же
 Э ль
 заклю чение
 получа ет
 зем ле
 шта ба
 мину ты
бро сов
 медицин ской
 Восто ке
 уво ль
 вд руг
 привати зации
  Щ
- ко
0 7
Х а
д ной
во сти
 С порт
жи да
га р
 ро бо
На до
нов ания
 лю бом
 реги он
 пе ви
 согла шений
 Владими ром
 оп ере
 I I
 спи ске
 кол лег
лог ов
 подтвер жда
 пода л
 маши на
 мя г
 сти мули
 полага ют
Ки тай
тел лек
 ресур сов
 Националь ной
 вызыва ет
 Егип та
У краи
ф у
 н рави
 о тец
 по ним
 по клон
 во ду
пи она
жа ется
 П ан
 да лее
 прави льно
 бе сс
 много м
 откры тия
 кол лега
 продолжа ть
 Федера льной
 нор мы
Ме ждународ
oo m
 лицен зии
 мета л
 эваку и
 чис лен
 Br ent
? "
 о гра
 по бы
 по тери
 на шем
ле ку
 про явля
 от клю
 ре шать
лу ю
 В ен
це ва
мы с
 са ло
 ос мо
 экономи ку
 ша й
 срав ни
 треть ем
 писа л
 инци дент
 испыт ания
 Ис пании
 госс екре
И с
м с
ру ем
 про с
 С ин
до ра
 мо на
 те ря
На ча
 Г ра
аль ным
 Т ре
 ве дут
 объ еме
лек тро
19 2
 вер х
 приня тия
 бе лору
 необ ы
 террито рий
Ин ци
 мину те
 похо же
 Ав стра
 Пути ным
S J
a z
o p
s ta
Д митри
О ба
н ением
т рен
 о дино
ко лов
ри ст
ско н
 К ан
 К НР
 раз рабаты
 ста били
 па тру
15 4
 сер д
 право нару
 вой не
 З е
 долла р
Ми нистер
 мене дж
 иде я
 бес пи
 генера льного
 Ту льской
 поддержи вать
 поки нуть
 позд нее
 аппара та
 вынужден ы
ac k
-До ну
- со
 и ран
 по ез
 на личие
 со с
 ра ун
ей н
 вы жи
ги стра
 ме льдо
 ком на
 да ют
 му суль
 рас стоя
 ле чения
 ку пи
 организа цию
 ту ра
 Ва дим
 занима л
 моло дой
 сек тора
 дости жения
 республи ке
 разрабо тки
 шта та
 кар ты
жды й
 Мурман ске
 объяви ла
 полови не
 имуще ство
 партнер ов
 сопрово жда
 Побе ды
Г ен
Г енера
 в ведения
 с мени
но лет
 по казывает
ри ки
хо зяй
 рабо то
 ви дим
 нача лось
кономи ка
дол го
 прове дет
 призна ть
 администра ция
 роди лся
 намер ена
 примен ения
Россий ская
 харак тери
 поня тно
 Все россий
 форми рования
 заявля л
 пес ни
 Амери ки
 прокуро р
 Обще ство
 докла де
 задолжен ности
 Вяче слав
Инци дент
  Z
9 9
О с
С праведли
ф ек
ц ер
 ко стю
ди ка
 со р
 ре формы
 су дов
ана ми
ба ми
ха м
19 1
сте ра
 Э н
 откры то
 Ба й
 направ лены
 четвер ть
 фа ми
 бло к
 площад ью
 полови ны
 постанов ление
 подозрева емых
 Крем ле
 перио да
 фир мы
 провод ят
 церемо нии
 бомбарди ров
 Заха рова
 с би
 с ним
ли не
ти ви
 пере ме
 пере ход
 Г ер
 ос енью
 органи зова
 Ан на
 рай онов
 ква дра
 лидер ы
 това ри
 тури сти
 праздни к
 валют ы
0 1
П е
ля ется
че ред
 С вя
лет ел
 кон та
кан чи
 Си рию
 оста льные
 кри мина
 заклю чается
 креди т
 появи лось
 собира ются
 зам министра
 акти вы
 пись ма
 пои ск
 устрой ство
 шан сы
 Евросо юз
Спе циали
 спокой но
 Арм ении
 Фин лян
. ).

a i
О С
ен ности
 о чи
 о ставля
ро да
ло грам
мо га
 е ха
 ф о
зи на
 ми рового
 Т ю
 И ран
 Ш е
 ры но
 право защи
лья нов
 верси я
 патри ар
 внешне поли
ака швили
- я
- ма
О ргани
з ом
 п ры
 м емо
те ле
 у де
во сть
щи ны
 К ова
 та бли
лов е
мы ми
 Г ар
вя н
 зна ком
хи и
 смо треть
нен ко
 полити к
 установ лено
 M er
 провер ка
 националь ного
 пострада л
 шта те
 край ней
 Красно дар
 Олимпиа ды
 Ростов ской
 печа ти
 зара нее
 рубеж ом
 Ир кут
 несовершен нолет
7 6
a b
e p
А эро
ы ми
то рия
го ль
ет у
 пре ж
 ф аль
 пере чис
 ин форми
жно сть
аль ная
 воз ме
сса м
 смо гла
 шко л
 инф ек
 угро зу
 обе щ
 трен ера
 транспорт ных
 бере мен
 поступи ло
 ото з
 отре аги
Чи тайте
 Свет лана
 живу т
 диск вали
 траге дии
gr am
  d
- ка
Б анк
В стре
К ур
 по лета
 д овер
ди а
сс кой
де о
сти ли
ну лся
 мо то
ков ского
На и
 си лами
 О Б
 Ф АС
 пер ено
 руб рике
 обра щение
 дан ной
рек тор
 гражд анам
 суд ья
 ар мия
 ду хов
 B o
Ин форма
 моло до
 продук цию
 меди а
 сек су
 руководи телей
 требу ют
 пропа ган
 смы сле
 злоу потреб
 корреспон дент
юн х
 испы ты
" Если
В А
з ента
т вор
ш ут
ст ской
 т ща
лу й
 бы вает
ги ю
 мо н
 мо но
би и
 П аль
ника х
 тре во
 ле га
 обо рон
 дву сторон
 Я цен
 круп ном
 реши ла
 прод оволь
 предпо ложи
 торг овых
 ц вета
 объек та
 прекра тить
 бюджет ных
 треть е
 приве ло
 министер ство
 поме щения
 поддержа ть
 голов у
 препара тов
 шан с
 коммента риев
 соцс ети
 Казах стана
 досто ин
Т и
Т ур
Ч ис
ф со
ри к
 на ше
ть е
ва ю
 не пре
ля ли
 от вер
 при ят
 под зем
 су вер
 ве дется
 Л ДПР
 ос н
 Ю рия
 участи и
 управ лении
Ка ждый
 соответ ствует
 украин ский
 причи не
 Цен тро
 кварти ру
 разре ши
 зам пред
 предпринима тель
 начина ет
 еже год
 помога ет
 договори лись
 симво ли
Благо даря
Министер ство
7 00
но п
 на но
 не прави
жи е
ну ться
 я сно
 пра зд
 хо тим
кан ской
 нача лся
 сообща ли
 пу сть
 Ка ре
 информа цией
 На ука
 установ или
 последни м
 заклю чил
 W ADA
 ог не
 взя ли
 экспо рта
 перспекти ве
 порт фе
ub e
 Пути ну
 гим на
Украи на
  лож
- при
З О
Т ра
о ти
п ен
 п етербург
 ко лон
 за канчи
во да
 от личи
дей ствие
 стро го
 защи ту
 показа тели
 называ ется
 ри ска
 ри сков
 вра чи
 части чно
ce d
 требу ется
 поддержа л
вей цар
Боль шинство
 взаимодей ствия
 произой дет
Предпо лага
u d
б ю
в анию
л овой
 о паса
 по ставить
ло с
 ко ри
 за бро
 вы зов
ня тно
 В КС
вер д
 сто ят
 ва лю
чно му
 возмо жных
сты х
 совер шении
 Тур цией
 Ра й
 выпол нять
мя г
част ли
 став ку
 нынеш нем
 большин ства
 тради ции
 девя ти
 Вашинг тон
тран с
 Государ ственной
 инжен ер
 проз ра
З оло
Ч ер
т ли
т ку
 д вер
 м ани
 не доволь
бо ры
 ка кая
лен ную
 ин теллек
 Н ем
 О лега
 дол ги
 полу чении
 цен у
 ку п
 прода ть
 вой ну
 Мин экономразвития
 испол нения
 Ви кто
 деся тков
 выпол нения
 игра х
 аэропо рт
 верну лся
 неме д
 нач нет
 арти лле
 ор би
 охра ны
 карь еру
 инициати вы
 Нор ве
0 4
6 3
e g
З ве
Н К
 с нять
ан с
 м урман
па де
ту ри
ков ые
жно е
За то
шен ные
 им порт
 газ ете
Ка кие
 филь мов
 успе ха
 самолет ы
 еди ниц
 кана ла
 стар ший
 мэ р
 веду щих
 деву шка
 Сбер банка
 Гру зии
Извест но
г р
у ре
ро и
 по ни
 у шел
 не пло
ду ют
 ли бера
 Д вор
 су дей
 И лья
 ш тур
 уже сто
 му зей
жда я
 Ш вейца
 Ч П
 соб ственных
 проек ту
 оп понен
 шко лу
 сбор ную
 политиче ские
it e
 обяза тельств
 кла д
 това ры
 един ственный
 использу ют
 выстав ки
 принци пи
Ну жно
un g
 Ста вро
 договорен ности
 гендирек тор
С во
Я н
у льта
э ффек
ни ем
ва й
ва х
 до пуска
 из начально
 ка б
су э
 Т ру
 так си
 пер вен
 ос ве
цион ном
 Ан гли
 основ ания
ta l
торы х
 откры л
опас ности
 челове ку
 призна ли
 ссы ла
Газ ете
 ника кой
 ря де
 зада ч
шки на
 Да ма
 посе лке
Ли дер
 постро ить
 конц ерт
 граждани н
 Узбеки стана
Рез ульта
  b
" ?

s s
Ч ет
 п люс
 с ей
 м анда
 пре де
 си лови
 Ф о
 россий скую
 участ ки
 Во оружен
 оп ять
 призна лся
 позво ли
 террори змом
 прод ю
 заме д
 кар то
 спортсмен ы
 Вели кой
 ремон та
 полномочи я
 напря мую
 выска зы
 развед ки
 ФР Г
Дмитри й
- у
а тра
ко рей
 и гре
 за л
 про ник
де б
 об щий
 до про
 при но
чи вать
 ка ком
По том
 ин ду
 кон тин
 се ла
 полу чение
 же сто
Ро стов
 дет ских
 разви вать
 участ ка
До ку
 успе х
 добави ла
 финанс ового
 Миха й
 треть его
 избира тельной
 бра т
 правительство м
 тради ционно
 добы чу
 скоро сти
 требования м
 восто ке
ber g
 компенса ции
 Коре и
Проек т
П ла
д ем
н ью
ль ник
 ч ере
 ко ме
 за тя
ви енко
 к стати
сто го
 ка з
тов ых
 ста дии
 Г енера
тиче ская
 х ак
 отно сятся
 агент ству
 сро ка
 би блиоте
 благо дар
 правитель ству
 неизвест но
 ори гина
 определи ть
 t he
 полуо стров
Депута т
И Г
т ными
 с но
 по грани
 ра сту
 к лет
 вы вод
 мо ста
об рази
 А мур
 пере кры
спо треб
гра да
рова лись
лы ми
 тер мина
рабо тать
 прове рить
 участ ке
 федера льный
 обеспе чение
еха ли
 голосов ание
 вза им
 позд рави
 рекомен дова
 нако пи
 демон стра
 свер х
 Дени с
 госпитали зи
  f
- Д
И ЗО
Ф едера
м ета
ц ом
 д из
 " ,
сс ледова
ков ым
ин г
 авто ном
 откры ли
 челове ком
 находи ться
 строи тельстве
 голо са
 госпо жа
 ожида ет
 разре шения
 зам главы
 приве л
 запрещен а
 страте гии
 образов ание
 оконча тельно
 непосред ственно
 инте гра
: :
М ВД
ж ом
 по ставля
 по соб
ка та
 за лож
 при бли
су а
 се дь
ша л
 гра на
 Украи ной
Ро ст
емо сти
Та кой
 Ба рак
 сдела но
 мест ной
 управ лением
 мат чей
ница х
 профе ссор
 взя л
 современ ных
 медицин ских
 выступи ли
 харак тера
 площад ке
 сме ш
 объяв лен
 важ ней
 пору чил
 выигра л
 напря жен
 Коми тета
 музе я
 замет но
 полно цен
 посоль ства
 Кады ров
 Кирил л
ристи ан
ced es
- под
Г а
И ли
С пу
г лу
п ле
х ова
ю р
 о хва
 по йдет
 про яви
 от мени
 от кро
 при вет
 из би
си й
жа т
ек си
 Б ез
 Б рит
 кон цов
чен ным
 ве сной
 объ емы
лан дии
 Си ловые
 ки лограм
 сотрудни честве
 разви тии
 откры ть
 побе да
 вне сти
 Мин фин
 голо с
 сказа но
 спа сти
 связ ана
as h
 арти ст
тех нологи
 пора жение
 сю жет
 рассмотр ения
 Васи ль
 Севасто поля
 Ст ани
 Бель гии
 перен ес
n e
с ная
 о ставить
 по н
ци оне
 за вое
 от ца
 об лига
 до жд
 при не
 из б
 ф анта
 пред при
лен ными
спо р
пре сс
 О л
 ак ция
 кра т
пом я
 Ю лия
 извест ных
 президент ских
 ис прави
 созд ана
 получа ется
 специали ст
 русс кого
 сту дентов
 представ лены
 влия ния
 води телей
 инициати ве
 угроз ой
. с
н ка
 с него
ли ять
ва ющий
де ква
не цов
 при зы
чи ком
бо ро
 вы ходит
 вы йдет
 С вобод
 бо кс
 ли ди
гра де
 Л ь
 ви зит
 ба зу
кре пи
 высо кий
-лет ней
там бу
 проис ходя
 N ov
 инициа тиву
 Ген прокура
 рекла м
 гаран ти
 предъ яви
 зарубе жных
г ну
с ональ
 в ста
ни ми
та ри
ров ых
ово к
 бы вших
 М он
 под ви
 А ТО
 ма ма
ща лся
рова я
рова лся
ша ли
 полу фина
 ш у
три т
 пи сто
 доро гу
 жен а
 ду м
 строи тельству
 тру до
 состави ли
 Россий ского
 ху же
 отве чает
 большо го
 граждани на
-Йор ке
 ОБ СЕ
7 8
e ing
И сто
м фи
ш ков
 в нима
 и слам
мен ко
 те бя
 ме дали
На де
 жи телям
 гла за
 авто ров
 це лей
 занима ются
 Госду ме
 игра ет
 сирий ского
ag en
 отде ление
экономи ки
 Екатери на
 причаст ности
 Анато лий
- мо
i g
С начала
в ки
ов ую
ли тся
ль ф
ни верси
 у пра
по ле
 пре следов
лов у
тив ном
 Мо лда
 спо н
 х ле
 ок руг
 переда ть
 случа и
 Са мар
гент ство
Ин тере
 международ ный
 журна ла
 би ат
 пози ция
 Дж ор
 насе ление
Ма т
 оцен ку
емокра тической
 буд то
 шо ссе
 выво ду
 нало га
 Лат вии
И Н
П П
п анию
р ского
т ке
ко сть
 м ете
 б лю
 за пущен
ча ются
же л
 из да
 ф из
 К э
ня ться
 ос во
 ди стан
сов ета
стре бов
шен ной
чита ли
 работа ли
 Са акашвили
 сер де
 готов ится
 Мин зд
 интере сно
16 0
 сокра щения
 ри ски
 внеш ней
 приве з
 здоров ье
 продолжи ть
так те
 сель ского
 вероят ность
 оказыва ется
 высоко постав
ul t
 произошед шего
 навер ное
 нара щи
 ребя та
редо то
7 4
М ан
э то
 у про
 у чены
 от ме
 г ек
 при держи
 С верд
ня ка
 Д ани
 Т имо
 жи лье
 ви но
 дан ного
 свя зыва
 реги оны
 ба за
 Ва сили
 оказа ться
 разме щен
 созд ан
 служ бе
 помощ ник
Пер вая
 возра ст
 одном анда
 незакон но
 теа тр
 тор мо
 язы к
вар дии
 узна ть
 органа ми
 случи лось
 обнаружен ы
 беспла тно
 сена тор
 возглави л
 клад би
  s
' s
- цен
0 3
r an
К ри
б ят
 в вед
 о дни
ре дни
 по йти
 во шел
 ре спон
хо ду
 М ОК
зи он
 под вод
 бу ты
 ру ку
ска ть
 Мо су
Ро сте
 бан ке
 много е
 пла ты
 Па ра
 успе л
акси му
ющей ся
 опас ности
 позволя ют
 При мор
 инвесто ры
 относи тся
 Ал тай
 золо то
 приеха л
 превра ти
 цер ков
 фрон та
 Европей ского
 референ дума
 сообще ства
 предвыбор ной
 зве зд
 пациен тов
Баш нефти
 режиссе ра
 препода ва
Позд нее
oom berg
- раз
M W
д ского
ж ь
я д
ен ность
 по бере
ль ва
 на против
 на чиная
 у те
 у доволь
 не со
 при близи
 при мут
 вы год
ве ло
 Р ы
 Р ЖД
па рти
 Б ур
 кон гре
 кон серва
 су хо
 хо ло
 экономи ческие
 кра со
 це лый
 Ан то
 состоя ния
 некоторы м
 кар тин
 сай та
Ди ректор
вшая ся
 процеду ры
 Амери ке
 перспекти вы
 стади она
 види мо
 показ ания
Ту рец
 эваку а
произ води
 Леони д
 люб ви
Газпро ма
 любов ь
 исла ми
Чис ло
- э
y p
О О
Р У
 со ору
 во лон
 С тамбу
ве ц
 ма лого
 Д ар
 О тече
 ви дит
 руб ль
тора м
ья н
 Мин фина
 следу ющего
 луч шие
 созд анию
 Ра ды
 разрабо тан
 европей ской
 исследов ание
 чинов ник
 народ ной
 дав ления
 призн ан
 напад ение
 покуп ки
 объедин ения
 взы ск
Причи ной
 заболев аний
 нрави тся
1 30
И ФА
 д лин
за п
на л
ани н
 при вод
ку пи
лу м
 расс у
 гра мо
 зна ть
 Х ан
рабо тки
рам ет
 тра ссе
 полити ков
 обви ни
 спи кер
 направ лен
 состави ть
 реали зацию
Ра с
 сре ды
 времен но
 заня ла
 пун кт
 оцени ть
веден ы
 диа лог
 V ol
 понима ть
 теку щем
 проходи ть
 дове рия
 сет ях
 ликви дации
 корреспон ден
 полуо строва
Т от
т ры
 в ни
 о пер
ми т
 С ИЗО
 е два
ово куп
до бы
 пред ше
 ин тен
 ин декса
гра ф
 ш вейцар
 обра тно
 чет ко
 оче реди
Про из
От вет
 ожи дания
 перегово рах
 ло б
 маши не
 эффек т
 конкур се
 продолжи т
 подозрева емого
 использов анием
 принци пе
 муниципа льных
 Вене суэ
благо да
 работо да
В з
В первые
г ур
и лся
у тся
 по ступ
 ра до
ма ть
ве ла
 ме сту
 П ен
 ди п
 рас стре
 A l
 запре тить
 интере су
 женщи ну
 хоро ший
 меди ци
 подчеркну ла
 прибы л
 ги ган
 тури зма
 став ка
 написа ла
 близ ких
ологи и
 подписа ли
 прокуро ра
 Петербур га
 Нов го
 замо роз
 тюрь мы
 пояс няет
 Бы вший
-в торых
- ме
T ube
Г ос
Н овая
ш ом
 с праши
 о хран
 по на
 по дар
ла т
ди лся
 до бра
жи л
сть я
По л
 под ход
лет ь
 Т вер
ходи л
en d
 Ан ге
 коман дой
 ис ходя
бра ли
