{
  "version": "1.0",
  "truncation": null,
  "padding": null,
  "added_tokens": [],
  "normalizer": null,
  "pre_tokenizer": {
    "type": "Sequence",
    "pretokenizers": [
      {
        "type": "Split",
        "pattern": {
          "Regex": "[^\\r\\n\\p{L}\\p{N}]?[\\p{Lu}\\p{Lt}\\p{Lm}\\p{Lo}\\p{M}]*[\\p{Ll}\\p{Lm}\\p{Lo}\\p{M}]+|[^\\r\\n\\p{L}\\p{N}]?[\\p{Lu}\\p{Lt}\\p{Lm}\\p{Lo}\\p{M}]+[\\p{Ll}\\p{Lm}\\p{Lo}\\p{M}]*|\\p{N}{1,3}| ?[^\\s\\p{L}\\p{N}]+[\\r\\n/]*|\\s*[\\r\\n]+|\\s+(?!\\S)|\\s+"
        },
        "behavior": "Isolated",
        "invert": false
      }
    ]
  },
  "post_processor": null,
  "decoder": null,
  "model": {
    "type": "BPE",
    "dropout": null,
    "unk_token": null,
    "continuing_subword_prefix": null,
    "end_of_word_suffix": null,
    "fuse_unk": false,
    "byte_fallback": false,
    "ignore_merges": false,
    "vocab": {
      "\n": 0,
      " ": 1,
      "!": 2,
      "\"": 3,
      "#": 4,
      "$": 5,
      "%": 6,
      "&": 7,
      "'": 8,
      "(": 9,
      ")": 10,
      "*": 11,
      "+": 12,
      ",": 13,
      "-": 14,
      ".": 15,
      "/": 16,
      "0": 17,
      "1": 18,
      "2": 19,
      "3": 20,
      "4": 21,
      "5": 22,
      "6": 23,
      "7": 24,
      "8": 25,
      "9": 26,
      ":": 27,
      ";": 28,
      "<": 29,
      "=": 30,
      ">": 31,
      "?": 32,
      "@": 33,
      "A": 34,
      "B": 35,
      "C": 36,
      "D": 37,
      "E": 38,
      "F": 39,
      "G": 40,
      "H": 41,
      "I": 42,
      "J": 43,
      "K": 44,
      "L": 45,
      "M": 46,
      "N": 47,
      "O": 48,
      "P": 49,
      "Q": 50,
      "R": 51,
      "S": 52,
      "T": 53,
      "U": 54,
      "V": 55,
      "W": 56,
      "X": 57,
      "Y": 58,
      "Z": 59,
      "[": 60,
      "\\": 61,
      "]": 62,
      "_": 63,
      "`": 64,
      "a": 65,
      "b": 66,
      "c": 67,
      "d": 68,
      "e": 69,
      "f": 70,
      "g": 71,
      "h": 72,
      "i": 73,
      "j": 74,
      "k": 75,
      "l": 76,
      "m": 77,
      "n": 78,
      "o": 79,
      "p": 80,
      "q": 81,
      "r": 82,
      "s": 83,
      "t": 84,
      "u": 85,
      "v": 86,
      "w": 87,
      "x": 88,
      "y": 89,
      "z": 90,
      "~": 91,
      "": 92,
      "£": 93,
      "¤": 94,
      "¥": 95,
      "¦": 96,
      "§": 97,
      "©": 98,
      "¬": 99,
      "­": 100,
      "°": 101,
      "²": 102,
      "³": 103,
      "µ": 104,
      "·": 105,
      "¹": 106,
      "º": 107,
      "¼": 108,
      "½": 109,
      "¾": 110,
      "É": 111,
      "Ë": 112,
      "Ö": 113,
      "×": 114,
      "ß": 115,
      "à": 116,
      "á": 117,
      "ä": 118,
      "ç": 119,
      "è": 120,
      "é": 121,
      "ê": 122,
      "ë": 123,
      "í": 124,
      "ð": 125,
      "ó": 126,
      "ô": 127,
      "õ": 128,
      "ö": 129,
      "ø": 130,
      "ü": 131,
      "þ": 132,
      "ā": 133,
      "ę": 134,
      "ī": 135,
      "İ": 136,
      "ı": 137,
      "Ł": 138,
      "ń": 139,
      "ŏ": 140,
      "ś": 141,
      "Ş": 142,
      "ş": 143,
      "Š": 144,
      "š": 145,
      "ʀ": 146,
      "ʼ": 147,
      "˚": 148,
      "́": 149,
      "̆": 150,
      "̈": 151,
      "Έ": 152,
      "Α": 153,
      "Γ": 154,
      "Η": 155,
      "Ν": 156,
      "Σ": 157,
      "έ": 158,
      "α": 159,
      "β": 160,
      "λ": 161,
      "μ": 162,
      "ν": 163,
      "ο": 164,
      "ρ": 165,
      "τ": 166,
      "χ": 167,
      "ώ": 168,
      "Є": 169,
      "І": 170,
      "Ї": 171,
      "Ў": 172,
      "А": 173,
      "Б": 174,
      "В": 175,
      "Г": 176,
      "Д": 177,
      "Е": 178,
      "Ж": 179,
      "З": 180,
      "И": 181,
      "Й": 182,
      "К": 183,
      "Л": 184,
      "М": 185,
      "Н": 186,
      "О": 187,
      "П": 188,
      "Р": 189,
      "С": 190,
      "Т": 191,
      "У": 192,
      "Ф": 193,
      "Х": 194,
      "Ц": 195,
      "Ч": 196,
      "Ш": 197,
      "Щ": 198,
      "Ъ": 199,
      "Ы": 200,
      "Ь": 201,
      "Э": 202,
      "Ю": 203,
      "Я": 204,
      "а": 205,
      "б": 206,
      "в": 207,
      "г": 208,
      "д": 209,
      "е": 210,
      "ж": 211,
      "з": 212,
      "и": 213,
      "й": 214,
      "к": 215,
      "л": 216,
      "м": 217,
      "н": 218,
      "о": 219,
      "п": 220,
      "р": 221,
      "с": 222,
      "т": 223,
      "у": 224,
      "ф": 225,
      "х": 226,
      "ц": 227,
      "ч": 228,
      "ш": 229,
      "щ": 230,
      "ъ": 231,
      "ы": 232,
      "ь": 233,
      "э": 234,
      "ю": 235,
      "я": 236,
      "є": 237,
      "і": 238,
      "ї": 239,
      "ў": 240,
      "џ": 241,
      "ғ": 242,
      "Қ": 243,
      "қ": 244,
      "ҳ": 245,
      "ӣ": 246,
      "‍": 247,
      "‎": 248,
      "‐": 249,
      "‑": 250,
      "‒": 251,
      "―": 252,
      "•": 253,
      "‪": 254,
      "‬": 255,
      "″": 256,
      "€": 257,
      "№": 258,
      "⅓": 259,
      "→": 260,
      "−": 261,
      "∙": 262,
      "⋅": 263,
      "─": 264,
      "■": 265,
      "▲": 266,
      "►": 267,
      "●": 268,
      "☃": 269,
      "☝": 270,
      "♫": 271,
      "⚽": 272,
      "❄": 273,
      "《": 274,
      "》": 275,
      "": 276,
      "️": 277,
      "🌞": 278,
      "🍺": 279,
      "🎂": 280,
      "🐅": 281,
      "🐗": 282,
      "🐺": 283,
      "💪": 284,
      "😂": 285,
      "🙈": 286,
      " п": 287,
      "ст": 288,
      " в": 289,
      " с": 290,
      "ен": 291,
      "ов": 292,
      "ра": 293,
      " н": 294,
      ".\n": 295,
      " о": 296,
      "то": 297,
      "но": 298,
      "ре": 299,
      "ко": 300,
      " и": 301,
      "ро": 302,
      "го": 303,
      "ли": 304,
      " по": 305,
      "ан": 306,
      "ет": 307,
      " д": 308,
      "ль": 309,
      "ри": 310,
      " на": 311,
      "ны": 312,
      "ка": 313,
      " м": 314,
      "те": 315,
      "ла": 316,
      "за": 317,
      "ни": 318,
      "ер": 319,
      " б": 320,
      "та": 321,
      "ени": 322,
      "ки": 323,
      "ле": 324,
      "на": 325,
      "ть": 326,
      " ч": 327,
      "да": 328,
      "ло": 329,
      "ти": 330,
      " у": 331,
      "ва": 332,
      " не": 333,
      "ся": 334,
      "ци": 335,
      " ко": 336,
      " за": 337,
      "ми": 338,
      "ру": 339,
      "ди": 340,
      "во": 341,
      "ви": 342,
      " \"": 343,
      "сс": 344,
      " со": 345,
      " про": 346,
      " ра": 347,
      "ем": 348,
      " а": 349,
      "ани": 350,
      " э": 351,
      "ля": 352,
      " -": 353,
      "де": 354,
      "ров": 355,
      " к": 356,
      "ско": 357,
      "сти": 358,
      "ста": 359,
      " го": 360,
      " от": 361,
      " что": 362,
      " об": 363,
      " до": 364,
      "не": 365,
      "по": 366,
      "мо": 367,
      " г": 368,
      " при": 369,
      " пре": 370,
      "ры": 371,
      "ей": 372,
      "ду": 373,
      " во": 374,
      "ча": 375,
      "че": 376,
      "чи": 377,
      "сто": 378,
      "бо": 379,
      "ма": 380,
      "ски": 381,
      "же": 382,
      " ре": 383,
      " вы": 384,
      "ения": 385,
      "ной": 386,
      " С": 387,
      " е": 388,
      " т": 389,
      "тель": 390,
      "ве": 391,
      "ных": 392,
      "хо": 393,
      " Р": 394,
      " то": 395,
      "сси": 396,
      " из": 397,
      "ку": 398,
      "ово": 399,
      "до": 400,
      "сь": 401,
      "ного": 402,
      "се": 403,
      "лу": 404,
      " бы": 405,
      " ка": 406,
      "жи": 407,
      "ме": 408,
      "ши": 409,
      "ова": 410,
      " М": 411,
      "ги": 412,
      "ств": 413,
      " это": 414,
      "щи": 415,
      "ну": 416,
      " мо": 417,
      " ф": 418,
      "зи": 419,
      "об": 420,
      "мен": 421,
      " К": 422,
      "ют": 423,
      "ере": 424,
      "ение": 425,
      "ции": 426,
      "па": 427,
      "ные": 428,
      " те": 429,
      "ный": 430,
      "си": 431,
      "сть": 432,
      "По": 433,
      "му": 434,
      "ту": 435,
      "пи": 436,
      " ст": 437,
      " кото": 438,
      " та": 439,
      "ков": 440,
      "\",": 441,
      "га": 442,
      "20": 443,
      "ря": 444,
      " под": 445,
      "ты": 446,
      "ше": 447,
      "ще": 448,
      " де": 449,
      " бо": 450,
      " А": 451,
      "ня": 452,
      "ар": 453,
      "он": 454,
      "ется": 455,
      " з": 456,
      " ме": 457,
      " Ро": 458,
      " раз": 459,
      "би": 460,
      "лю": 461,
      "са": 462,
      " В": 463,
      " пред": 464,
      "пе": 465,
      " (": 466,
      "лов": 467,
      "лен": 468,
      "ской": 469,
      "тов": 470,
      "ке": 471,
      " ми": 472,
      "ор": 473,
      " Росси": 474,
      "жа": 475,
      " ро": 476,
      "це": 477,
      "су": 478,
      "ным": 479,
      "ден": 480,
      "ания": 481,
      " пере": 482,
      "ек": 483,
      "вы": 484,
      "ак": 485,
      " ин": 486,
      "ран": 487,
      "ства": 488,
      " бу": 489,
      "лет": 490,
      "сле": 491,
      "про": 492,
      "пу": 493,
      "ского": 494,
      "201": 495,
      " П": 496,
      "спо": 497,
      "\".\n": 498,
      "ствен": 499,
      " для": 500,
      "ство": 501,
      " ли": 502,
      "бы": 503,
      "ин": 504,
      "На": 505,
      " ру": 506,
      " ком": 507,
      " ма": 508,
      "каза": 509,
      " ста": 510,
      " все": 511,
      " Д": 512,
      "мы": 513,
      " сво": 514,
      " Б": 515,
      "жно": 516,
      " которы": 517,
      "дет": 518,
      " кон": 519,
      "ды": 520,
      " су": 521,
      " Г": 522,
      " са": 523,
      " си": 524,
      "ща": 525,
      "ез": 526,
      " я": 527,
      " но": 528,
      "аль": 529,
      "вер": 530,
      " года": 531,
      "ск": 532,
      " пра": 533,
      "ном": 534,
      " Т": 535,
      " так": 536,
      "она": 537,
      " как": 538,
      "кра": 539,
      "ться": 540,
      "ур": 541,
      "гра": 542,
      "ная": 543,
      "цен": 544,
      "ана": 545,
      " сооб": 546,
      "ба": 547,
      "лей": 548,
      " ни": 549,
      " России": 550,
      "тив": 551,
      " воз": 552,
      "ное": 553,
      "ности": 554,
      "ска": 555,
      "зы": 556,
      "бе": 557,
      "чен": 558,
      "дер": 559,
      "пра": 560,
      "ских": 561,
      "ении": 562,
      "овы": 563,
      "гу": 564,
      "со": 565,
      "тся": 566,
      " И": 567,
      "лся": 568,
      " его": 569,
      "из": 570,
      "сту": 571,
      "жен": 572,
      "фи": 573,
      " ве": 574,
      " се": 575,
      "вля": 576,
      "пре": 577,
      "кс": 578,
      " Н": 579,
      "рова": 580,
      "ский": 581,
      " хо": 582,
      " О": 583,
      "нов": 584,
      " сто": 585,
      "ция": 586,
      "дов": 587,
      "дни": 588,
      "ша": 589,
      " он": 590,
      "лько": 591,
      " рабо": 592,
      "рем": 593,
      " дол": 594,
      "ание": 595,
      " стра": 596,
      "ходи": 597,
      "ющи": 598,
      "ании": 599,
      "стви": 600,
      "ети": 601,
      "кой": 602,
      " после": 603,
      " Л": 604,
      "ета": 605,
      "мер": 606,
      "лись": 607,
      "рг": 608,
      "яви": 609,
      " жи": 610,
      "ную": 611,
      "ссий": 612,
      "ность": 613,
      "зу": 614,
      " У": 615,
      "ления": 616,
      "стави": 617,
      " этом": 618,
      " Е": 619,
      "ца": 620,
      " Ф": 621,
      "ят": 622,
      "жд": 623,
      "ром": 624,
      "стан": 625,
      " пер": 626,
      " че": 627,
      " комп": 628,
      " да": 629,
      "рии": 630,
      "ев": 631,
      "гда": 632,
      "ха": 633,
      " па": 634,
      "тра": 635,
      " полу": 636,
      " же": 637,
      "лось": 638,
      "жет": 639,
      " пров": 640,
      "ред": 641,
      "стра": 642,
      " будет": 643,
      "при": 644,
      " ча": 645,
      "гла": 646,
      "вши": 647,
      " гла": 648,
      " ви": 649,
      " руб": 650,
      "ком": 651,
      " расс": 652,
      " году": 653,
      "зиден": 654,
      " ос": 655,
      "лы": 656,
      "дин": 657,
      " од": 658,
      "том": 659,
      " ш": 660,
      " ав": 661,
      " врем": 662,
      "сли": 663,
      " боль": 664,
      " сов": 665,
      "ению": 666,
      "стоя": 667,
      "рен": 668,
      " поли": 669,
      " также": 670,
      "ву": 671,
      "род": 672,
      "ник": 673,
      "дар": 674,
      "ские": 675,
      "пер": 676,
      "руп": 677,
      "вя": 678,
      "тя": 679,
      " ди": 680,
      " россий": 681,
      " дру": 682,
      "фор": 683,
      " Мо": 684,
      "ству": 685,
      " ак": 686,
      "бли": 687,
      "ень": 688,
      "тер": 689,
      "сов": 690,
      "цию": 691,
      "За": 692,
      "ений": 693,
      " уже": 694,
      "рой": 695,
      "лее": 696,
      "коно": 697,
      " мл": 698,
      " лю": 699,
      "лова": 700,
      "тор": 701,
      "лась": 702,
      "вет": 703,
      " слу": 704,
      "ются": 705,
      " орг": 706,
      " был": 707,
      "зна": 708,
      " объ": 709,
      " было": 710,
      "бу": 711,
      " уча": 712,
      " челов": 713,
      "став": 714,
      "ласти": 715,
      "три": 716,
      " цен": 717,
      "ес": 718,
      "зыва": 719,
      "тиче": 720,
      "ему": 721,
      "ными": 722,
      " время": 723,
      "жду": 724,
      " пар": 725,
      " которые": 726,
      "теля": 727,
      " ты": 728,
      " без": 729,
      "прав": 730,
      "гово": 731,
      "ом": 732,
      " обра": 733,
      "сы": 734,
      " президен": 735,
      "пы": 736,
      "кан": 737,
      "лек": 738,
      " их": 739,
      " заяви": 740,
      "ге": 741,
      "ская": 742,
      "ника": 743,
      "рт": 744,
      "телей": 745,
      " произ": 746,
      " нача": 747,
      "стре": 748,
      "вро": 749,
      " дан": 750,
      "цион": 751,
      " том": 752,
      " ва": 753,
      " мы": 754,
      "аз": 755,
      "циаль": 756,
      " гра": 757,
      "кон": 758,
      "ление": 759,
      "чно": 760,
      " чи": 761,
      " гово": 762,
      "ском": 763,
      "00": 764,
      "ней": 765,
      " авто": 766,
      "ход": 767,
      "бря": 768,
      " только": 769,
      "ША": 770,
      " тре": 771,
      " чем": 772,
      " или": 773,
      "рь": 774,
      "шен": 775,
      "дом": 776,
      "вать": 777,
      " само": 778,
      "кры": 779,
      " спо": 780,
      ").\n": 781,
      "ене": 782,
      "19": 783,
      " еще": 784,
      "год": 785,
      "лан": 786,
      " тер": 787,
      "станов": 788,
      "сте": 789,
      " ус": 790,
      " лет": 791,
      " му": 792,
      " того": 793,
      " сообща": 794,
      "тели": 795,
      " США": 796,
      "ональ": 797,
      " может": 798,
      " пу": 799,
      "дут": 800,
      "тре": 801,
      "судар": 802,
      "шения": 803,
      " зна": 804,
      "рта": 805,
      " более": 806,
      "нее": 807,
      " слова": 808,
      "цы": 809,
      "тия": 810,
      " фи": 811,
      "казал": 812,
      "шение": 813,
      " чтобы": 814,
      "зов": 815,
      " пи": 816,
      " сообщи": 817,
      "?\n": 818,
      "али": 819,
      " были": 820,
      "ников": 821,
      "тро": 822,
      " сле": 823,
      "чита": 824,
      " рас": 825,
      "пол": 826,
      " который": 827,
      "Но": 828,
      " органи": 829,
      "мети": 830,
      "ой": 831,
      " прави": 832,
      "Как": 833,
      " ле": 834,
      " ее": 835,
      "от": 836,
      " они": 837,
      "При": 838,
      "краи": 839,
      " ку": 840,
      "),": 841,
      "оне": 842,
      " х": 843,
      "реди": 844,
      " Моск": 845,
      "нист": 846,
      "лом": 847,
      "кономи": 848,
      " говори": 849,
      "тельно": 850,
      " РФ": 851,
      "лекс": 852,
      "ково": 853,
      "нима": 854,
      "ед": 855,
      " испо": 856,
      "стро": 857,
      "логи": 858,
      " вз": 859,
      " государ": 860,
      " отно": 861,
      " дей": 862,
      "ску": 863,
      "Это": 864,
      "лож": 865,
      " свя": 866,
      "сла": 867,
      " реги": 868,
      "тин": 869,
      " Х": 870,
      "дера": 871,
      "форма": 872,
      " Украи": 873,
      "ением": 874,
      "ью": 875,
      "льта": 876,
      " Ми": 877,
      "стве": 878,
      " помо": 879,
      "ких": 880,
      "стов": 881,
      " эти": 882,
      "анк": 883,
      " между": 884,
      " им": 885,
      " вопро": 886,
      "лли": 887,
      " свои": 888,
      " получи": 889,
      "ним": 890,
      "ступ": 891,
      "ос": 892,
      "ут": 893,
      "жда": 894,
      " заявил": 895,
      " Ка": 896,
      "рд": 897,
      " спе": 898,
      "тру": 899,
      "ники": 900,
      "ане": 901,
      "яв": 902,
      " представи": 903,
      "держ": 904,
      " исто": 905,
      "ций": 906,
      "пла": 907,
      "емы": 908,
      " есть": 909,
      "клю": 910,
      " Ш": 911,
      "чет": 912,
      "пас": 913,
      " вер": 914,
      " пол": 915,
      " человек": 916,
      "мери": 917,
      "дей": 918,
      "щен": 919,
      " ры": 920,
      "en": 921,
      "Об": 922,
      " этого": 923,
      "яс": 924,
      "годня": 925,
      "час": 926,
      " возмо": 927,
      "er": 928,
      " тех": 929,
      " горо": 930,
      " Си": 931,
      "лади": 932,
      "зд": 933,
      "рован": 934,
      "мента": 935,
      "ман": 936,
      "слу": 937,
      "тора": 938,
      "ейчас": 939,
      "10": 940,
      " Ч": 941,
      " работа": 942,
      "зульта": 943,
      " Ма": 944,
      "льно": 945,
      " счита": 946,
      " ок": 947,
      " результа": 948,
      " Ки": 949,
      "цев": 950,
      "ках": 951,
      " словам": 952,
      "пера": 953,
      "вест": 954,
      " По": 955,
      "рий": 956,
      " области": 957,
      "шего": 958,
      " отмети": 959,
      " Ц": 960,
      "овой": 961,
      " други": 962,
      "зова": 963,
      " ки": 964,
      "чень": 965,
      "публи": 966,
      " экономи": 967,
      "смо": 968,
      " организа": 969,
      " экс": 970,
      "ствия": 971,
      " сторо": 972,
      "едера": 973,
      "нако": 974,
      "тельства": 975,
      " соб": 976,
      "кла": 977,
      " млн": 978,
      "кие": 979,
      " груп": 980,
      "дол": 981,
      "тери": 982,
      "ую": 983,
      "аний": 984,
      " кра": 985,
      "вести": 986,
      " чет": 987,
      "ген": 988,
      " ж": 989,
      " мар": 990,
      "цу": 991,
      " дела": 992,
      "-то": 993,
      "вает": 994,
      "вод": 995,
      "..": 996,
      " сред": 997,
      " це": 998,
      " она": 999,
      "гут": 1000,
      "лага": 1001,
      " проек": 1002,
      "ским": 1003,
      "чения": 1004,
      "мент": 1005,
      " Алекс": 1006,
      " будут": 1007,
      " если": 1008,
      " Ан": 1009,
      "трудни": 1010,
      "анд": 1011,
      "каз": 1012,
      "ставля": 1013,
      "Ро": 1014,
      " переда": 1015,
      " была": 1016,
      " информа": 1017,
      "ложи": 1018,
      "15": 1019,
      "кого": 1020,
      " пе": 1021,
      " Влади": 1022,
      " прош": 1023,
      "дела": 1024,
      "чение": 1025,
      "бор": 1026,
      "сты": 1027,
      "тому": 1028,
      " приня": 1029,
      "хи": 1030,
      " сотрудни": 1031,
      "туа": 1032,
      "дель": 1033,
      " когда": 1034,
      " ту": 1035,
      " воен": 1036,
      " новы": 1037,
      " согла": 1038,
      "вой": 1039,
      " обо": 1040,
      " тем": 1041,
      "рабо": 1042,
      "рия": 1043,
      " ба": 1044,
      "бира": 1045,
      "рек": 1046,
      " рублей": 1047,
      " ад": 1048,
      " случа": 1049,
      " можно": 1050,
      "шей": 1051,
      " явля": 1052,
      " бе": 1053,
      " быть": 1054,
      "сно": 1055,
      " подо": 1056,
      "лови": 1057,
      " основ": 1058,
      "нистра": 1059,
      "бле": 1060,
      "рав": 1061,
      "ссия": 1062,
      " бан": 1063,
      "вали": 1064,
      "-за": 1065,
      "Он": 1066,
      " очень": 1067,
      "ит": 1068,
      " неско": 1069,
      " где": 1070,
      " Евро": 1071,
      "ряд": 1072,
      "рак": 1073,
      " Ко": 1074,
      " которо": 1075,
      " день": 1076,
      "вед": 1077,
      " гражд": 1078,
      " Са": 1079,
      " L": 1080,
      " дет": 1081,
      " страны": 1082,
      " разви": 1083,
      "Так": 1084,
      "Во": 1085,
      " стан": 1086,
      "рам": 1087,
      "чь": 1088,
      " млрд": 1089,
      "рти": 1090,
      " компании": 1091,
      " возможно": 1092,
      " На": 1093,
      "Не": 1094,
      "ta": 1095,
      "казыва": 1096,
      " год": 1097,
      "рани": 1098,
      "ремен": 1099,
      "ровать": 1100,
      " сист": 1101,
      " Владими": 1102,
      " ну": 1103,
      "нер": 1104,
      "меча": 1105,
      "фе": 1106,
      "мерикан": 1107,
      " суд": 1108,
      "ющих": 1109,
      "аны": 1110,
      " сообщает": 1111,
      " руково": 1112,
      "торы": 1113,
      "чер": 1114,
      " встре": 1115,
      " Пу": 1116,
      "сков": 1117,
      " стро": 1118,
      "сса": 1119,
      "рит": 1120,
      "твер": 1121,
      "ское": 1122,
      " рай": 1123,
      " Э": 1124,
      "вал": 1125,
      "тере": 1126,
      "народ": 1127,
      " них": 1128,
      " ситуа": 1129,
      " долж": 1130,
      " пов": 1131,
      "ете": 1132,
      "нес": 1133,
      "пом": 1134,
      "200": 1135,
      " коми": 1136,
      "рито": 1137,
      "инан": 1138,
      "ших": 1139,
      "щего": 1140,
      " оста": 1141,
      "ному": 1142,
      "вший": 1143,
      " вс": 1144,
      "грам": 1145,
      " тыся": 1146,
      " необ": 1147,
      " глав": 1148,
      " смо": 1149,
      " жиз": 1150,
      "ний": 1151,
      " Сер": 1152,
      " дву": 1153,
      "дели": 1154,
      "коло": 1155,
      "тии": 1156,
      " S": 1157,
      "рук": 1158,
      "Со": 1159,
      "тай": 1160,
      "льного": 1161,
      "стран": 1162,
      " уда": 1163,
      "ru": 1164,
      "щей": 1165,
      "Мы": 1166,
      "жения": 1167,
      "води": 1168,
      "тельство": 1169,
      " два": 1170,
      " прове": 1171,
      "ствова": 1172,
      "ять": 1173,
      "тен": 1174,
      " име": 1175,
      "пута": 1176,
      " террито": 1177,
      " участ": 1178,
      " тыс": 1179,
      " милли": 1180,
      " сер": 1181,
      "моби": 1182,
      " нет": 1183,
      " против": 1184,
      "ового": 1185,
      "ья": 1186,
      "чу": 1187,
      " пробле": 1188,
      " один": 1189,
      "on": 1190,
      "тября": 1191,
      "бя": 1192,
      " даже": 1193,
      "рово": 1194,
      "бер": 1195,
      "нен": 1196,
      " продол": 1197,
      " исполь": 1198,
      "СС": 1199,
      " ю": 1200,
      " право": 1201,
      " сказал": 1202,
      "рая": 1203,
      " нас": 1204,
      "прия": 1205,
      "Од": 1206,
      " много": 1207,
      " Ю": 1208,
      " Во": 1209,
      "12": 1210,
      " данным": 1211,
      "ческой": 1212,
      "луч": 1213,
      "нии": 1214,
      " неф": 1215,
      "шь": 1216,
      "вели": 1217,
      " могут": 1218,
      "жден": 1219,
      " Я": 1220,
      "лани": 1221,
      "ким": 1222,
      "30": 1223,
      "него": 1224,
      "соб": 1225,
      "ступи": 1226,
      "ками": 1227,
      " Ва": 1228,
      " офи": 1229,
      " A": 1230,
      "емо": 1231,
      ".ru": 1232,
      " больше": 1233,
      "скую": 1234,
      " необходи": 1235,
      " откры": 1236,
      "дова": 1237,
      "ях": 1238,
      " Александ": 1239,
      " обще": 1240,
      "шел": 1241,
      "опас": 1242,
      " поз": 1243,
      " оче": 1244,
      "ясни": 1245,
      " коман": 1246,
      "гро": 1247,
      " пока": 1248,
      " всего": 1249,
      "роме": 1250,
      " сейчас": 1251,
      "лин": 1252,
      " Ни": 1253,
      "шин": 1254,
      "Та": 1255,
      " финан": 1256,
      " наз": 1257,
      " президента": 1258,
      " Украины": 1259,
      " выбо": 1260,
      " рын": 1261,
      " поч": 1262,
      "нь": 1263,
      "шении": 1264,
      " этот": 1265,
      " уров": 1266,
      " пло": 1267,
      "анию": 1268,
      " пла": 1269,
      "министра": 1270,
      "мени": 1271,
      " состоя": 1272,
      " T": 1273,
      " первы": 1274,
      " сен": 1275,
      "лия": 1276,
      " пресс": 1277,
      "щения": 1278,
      " Ба": 1279,
      " американ": 1280,
      " автомоби": 1281,
      "рует": 1282,
      "нем": 1283,
      "лем": 1284,
      " прода": 1285,
      " которая": 1286,
      " сообщил": 1287,
      " ар": 1288,
      "гент": 1289,
      " вой": 1290,
      "ерез": 1291,
      " челове": 1292,
      " доро": 1293,
      " несколько": 1294,
      " опера": 1295,
      " кор": 1296,
      "ис": 1297,
      "циональ": 1298,
      " около": 1299,
      " тран": 1300,
      "in": 1301,
      " сегодня": 1302,
      "ель": 1303,
      "юд": 1304,
      "нению": 1305,
      " оп": 1306,
      "жение": 1307,
      " вла": 1308,
      "ева": 1309,
      " Па": 1310,
      "ющий": 1311,
      " доку": 1312,
      " извест": 1313,
      "од": 1314,
      " жен": 1315,
      "анее": 1316,
      "кова": 1317,
      "анима": 1318,
      "Ранее": 1319,
      " участи": 1320,
      "стей": 1321,
      " бли": 1322,
      "ющие": 1323,
      "мет": 1324,
      "цией": 1325,
      "имо": 1326,
      "нения": 1327,
      " Бо": 1328,
      " всех": 1329,
      "кре": 1330,
      " три": 1331,
      "льной": 1332,
      " ито": 1333,
      "ответ": 1334,
      "льный": 1335,
      " програм": 1336,
      "лаго": 1337,
      " эк": 1338,
      " Ку": 1339,
      " сем": 1340,
      "онов": 1341,
      " самы": 1342,
      " сни": 1343,
      " меся": 1344,
      " побе": 1345,
      "держа": 1346,
      "Про": 1347,
      " минист": 1348,
      " ско": 1349,
      "От": 1350,
      "раз": 1351,
      " отметил": 1352,
      "бов": 1353,
      "краин": 1354,
      " сдела": 1355,
      "рори": 1356,
      " фор": 1357,
      " находи": 1358,
      "ческих": 1359,
      "an": 1360,
      "виа": 1361,
      " тра": 1362,
      "бур": 1363,
      "ледов": 1364,
      "лич": 1365,
      " ан": 1366,
      " президент": 1367,
      "лого": 1368,
      " ис": 1369,
      "вают": 1370,
      " которых": 1371,
      " вос": 1372,
      " ду": 1373,
      "кий": 1374,
      " полити": 1375,
      " готов": 1376,
      " фак": 1377,
      " является": 1378,
      "рон": 1379,
      "18": 1380,
      "50": 1381,
      "зя": 1382,
      " каж": 1383,
      "туры": 1384,
      "ору": 1385,
      " города": 1386,
      "рей": 1387,
      "лья": 1388,
      " место": 1389,
      "лены": 1390,
      "точ": 1391,
      "прави": 1392,
      " безопас": 1393,
      " газ": 1394,
      " ию": 1395,
      " этой": 1396,
      " высо": 1397,
      " заяв": 1398,
      "тр": 1399,
      " решение": 1400,
      " строи": 1401,
      " B": 1402,
      " депута": 1403,
      "ностью": 1404,
      " обви": 1405,
      " мест": 1406,
      " За": 1407,
      "тки": 1408,
      "хов": 1409,
      "дь": 1410,
      "тий": 1411,
      " круп": 1412,
      " отмеча": 1413,
      " себя": 1414,
      "ческого": 1415,
      " свое": 1416,
      " вто": 1417,
      "ждения": 1418,
      "-лет": 1419,
      "урна": 1420,
      " га": 1421,
      " I": 1422,
      " вне": 1423,
      "нут": 1424,
      " C": 1425,
      "кам": 1426,
      " кри": 1427,
      "бра": 1428,
      "лении": 1429,
      "ступа": 1430,
      " Ново": 1431,
      "льных": 1432,
      " граждан": 1433,
      "Если": 1434,
      "еры": 1435,
      "вших": 1436,
      " нару": 1437,
      "зда": 1438,
      "щее": 1439,
      " F": 1440,
      "рах": 1441,
      " установ": 1442,
      " через": 1443,
      " чемпи": 1444,
      "чина": 1445,
      "вно": 1446,
      " Сирии": 1447,
      "ил": 1448,
      " кто": 1449,
      " совер": 1450,
      "бой": 1451,
      " Мин": 1452,
      " двух": 1453,
      " Со": 1454,
      " произо": 1455,
      "Из": 1456,
      " оказа": 1457,
      "Однако": 1458,
      " занима": 1459,
      " M": 1460,
      " матери": 1461,
      " мен": 1462,
      " числе": 1463,
      "нова": 1464,
      "Са": 1465,
      " З": 1466,
      "11": 1467,
      " над": 1468,
      " управ": 1469,
      " свою": 1470,
      " агент": 1471,
      "Ин": 1472,
      " уго": 1473,
      "До": 1474,
      " призна": 1475,
      "пад": 1476,
      " позво": 1477,
      " тысяч": 1478,
      " пос": 1479,
      " интер": 1480,
      "чем": 1481,
      "зе": 1482,
      " глава": 1483,
      " передает": 1484,
      " спи": 1485,
      " ква": 1486,
      "ходя": 1487,
      " кол": 1488,
      " дирек": 1489,
      "Се": 1490,
      "смот": 1491,
      "зо": 1492,
      "чество": 1493,
      " обя": 1494,
      " экспер": 1495,
      "зан": 1496,
      "ена": 1497,
      " международ": 1498,
      "лим": 1499,
      " террори": 1500,
      "писа": 1501,
      "готов": 1502,
      "мь": 1503,
      "митри": 1504,
      "менно": 1505,
      "ноги": 1506,
      " запре": 1507,
      "циа": 1508,
      "вра": 1509,
      "мина": 1510,
      " дви": 1511,
      " законо": 1512,
      " $": 1513,
      " бюд": 1514,
      "дук": 1515,
      " евро": 1516,
      " перед": 1517,
      "кая": 1518,
      " проце": 1519,
      "гли": 1520,
      "там": 1521,
      "Ка": 1522,
      "Кроме": 1523,
      " тру": 1524,
      " интере": 1525,
      "После": 1526,
      "кну": 1527,
      " власти": 1528,
      "овых": 1529,
      " защи": 1530,
      "спе": 1531,
      "МИ": 1532,
      " соответ": 1533,
      " обла": 1534,
      "лог": 1535,
      "Ко": 1536,
      " голо": 1537,
      "16": 1538,
      " услови": 1539,
      " авиа": 1540,
      "чной": 1541,
      " поль": 1542,
      " Та": 1543,
      "бре": 1544,
      " украин": 1545,
      " перво": 1546,
      "щение": 1547,
      " дека": 1548,
      " журна": 1549,
      " Россия": 1550,
      "ходит": 1551,
      " госпо": 1552,
      "or": 1553,
      " Москве": 1554,
      "Все": 1555,
      "вается": 1556,
      " следу": 1557,
      "ун": 1558,
      "тета": 1559,
      " эта": 1560,
      " дея": 1561,
      " официаль": 1562,
      "тельных": 1563,
      "гей": 1564,
      " поги": 1565,
      "тие": 1566,
      " ян": 1567,
      " стать": 1568,
      "enta": 1569,
      " ответ": 1570,
      " режи": 1571,
      " теле": 1572,
      "тно": 1573,
      " Тур": 1574,
      "ван": 1575,
      "шли": 1576,
      " Ин": 1577,
      " луч": 1578,
      "зации": 1579,
      " дома": 1580,
      "евра": 1581,
      " увели": 1582,
      " своей": 1583,
      "йте": 1584,
      "кое": 1585,
      "тить": 1586,
      " последни": 1587,
      "14": 1588,
      " разме": 1589,
      " стал": 1590,
      " бое": 1591,
      " R": 1592,
      "!\n": 1593,
      "17": 1594,
      " апре": 1595,
      " янва": 1596,
      " результате": 1597,
      "es": 1598,
      " вме": 1599,
      "овые": 1600,
      "ствие": 1601,
      " Владимир": 1602,
      " част": 1603,
      "То": 1604,
      "ске": 1605,
      "ям": 1606,
      " заклю": 1607,
      " G": 1608,
      "ссе": 1609,
      " доба": 1610,
      " виде": 1611,
      "вые": 1612,
      " биз": 1613,
      "шо": 1614,
      " Lenta": 1615,
      "анди": 1616,
      " созд": 1617,
      "йти": 1618,
      "ссии": 1619,
      "ственной": 1620,
      "вшего": 1621,
      " работы": 1622,
      " шко": 1623,
      "нет": 1624,
      " приз": 1625,
      "фф": 1626,
      "этому": 1627,
      "лена": 1628,
      " направ": 1629,
      " федера": 1630,
      "АСС": 1631,
      " должны": 1632,
      "вая": 1633,
      " плани": 1634,
      " февра": 1635,
      " меня": 1636,
      " сы": 1637,
      "ружи": 1638,
      " моло": 1639,
      "вле": 1640,
      " долла": 1641,
      " очеред": 1642,
      "ото": 1643,
      "мой": 1644,
      " стран": 1645,
      " которой": 1646,
      " должно": 1647,
      "лимпи": 1648,
      "25": 1649,
      " него": 1650,
      " администра": 1651,
      " просто": 1652,
      " прово": 1653,
      " Дмитри": 1654,
      " стороны": 1655,
      "служ": 1656,
      "Мо": 1657,
      "пло": 1658,
      "строй": 1659,
      "седа": 1660,
      "ема": 1661,
      " безопасности": 1662,
      "преде": 1663,
      "ственного": 1664,
      " сро": 1665,
      " людей": 1666,
      " P": 1667,
      " ци": 1668,
      "шая": 1669,
      "ar": 1670,
      "ние": 1671,
      " связи": 1672,
      " креди": 1673,
      " муж": 1674,
      " иск": 1675,
      "тон": 1676,
      " производ": 1677,
      " ему": 1678,
      "ган": 1679,
      "дить": 1680,
      " ноя": 1681,
      " актив": 1682,
      "Пре": 1683,
      " показа": 1684,
      " мат": 1685,
      " дело": 1686,
      "щих": 1687,
      " необходимо": 1688,
      "чить": 1689,
      "грани": 1690,
      "ых": 1691,
      " других": 1692,
      "помним": 1693,
      "пусти": 1694,
      "13": 1695,
      "гре": 1696,
      " поддерж": 1697,
      "ИА": 1698,
      "пей": 1699,
      " элек": 1700,
      " Гос": 1701,
      " город": 1702,
      " испол": 1703,
      " конку": 1704,
      "тали": 1705,
      " реши": 1706,
      "держи": 1707,
      " обсу": 1708,
      " уголов": 1709,
      "еспе": 1710,
      "сед": 1711,
      " случае": 1712,
      "\"\n": 1713,
      " потре": 1714,
      " би": 1715,
      " созда": 1716,
      " служ": 1717,
      "воз": 1718,
      "циали": 1719,
      "фер": 1720,
      " ранее": 1721,
      " ше": 1722,
      "Ре": 1723,
      " помощ": 1724,
      " ино": 1725,
      " прод": 1726,
      " продук": 1727,
      " деятель": 1728,
      "Напомним": 1729,
      "етер": 1730,
      " состави": 1731,
      " образ": 1732,
      " настоя": 1733,
      " догово": 1734,
      " суще": 1735,
      " благо": 1736,
      " неза": 1737,
      " часть": 1738,
      " Ви": 1739,
      " вопрос": 1740,
      " территории": 1741,
      "пример": 1742,
      "храни": 1743,
      " мира": 1744,
      " продолжа": 1745,
      "анием": 1746,
      " ули": 1747,
      " сбор": 1748,
      "утбо": 1749,
      " пози": 1750,
      "Бо": 1751,
      " источ": 1752,
      " уби": 1753,
      " филь": 1754,
      " проис": 1755,
      " каче": 1756,
      " прав": 1757,
      " человека": 1758,
      "шие": 1759,
      " рассказал": 1760,
      "андида": 1761,
      " контро": 1762,
      " жизни": 1763,
      "Вы": 1764,
      " ново": 1765,
      "тически": 1766,
      "кин": 1767,
      "ыре": 1768,
      " процен": 1769,
      " Ж": 1770,
      "рази": 1771,
      " успе": 1772,
      "перь": 1773,
      "кта": 1774,
      " подчер": 1775,
      " предпо": 1776,
      " зд": 1777,
      " обеспе": 1778,
      "дитель": 1779,
      " друго": 1780,
      " сказа": 1781,
      " ана": 1782,
      " предо": 1783,
      " Ве": 1784,
      "сут": 1785,
      " марта": 1786,
      " ла": 1787,
      "Гла": 1788,
      " гу": 1789,
      "ственно": 1790,
      "Да": 1791,
      "рту": 1792,
      " организации": 1793,
      " план": 1794,
      " женщи": 1795,
      " ведом": 1796,
      " пери": 1797,
      " чу": 1798,
      "льные": 1799,
      " неко": 1800,
      " распо": 1801,
      " торг": 1802,
      " ходе": 1803,
      "полни": 1804,
      " которого": 1805,
      " Сергей": 1806,
      " лишь": 1807,
      " называ": 1808,
      " мнению": 1809,
      " российских": 1810,
      "рави": 1811,
      "лез": 1812,
      "струк": 1813,
      "рования": 1814,
      "пыт": 1815,
      "рию": 1816,
      " материа": 1817,
      "кти": 1818,
      " хоро": 1819,
      " считает": 1820,
      "той": 1821,
      "al": 1822,
      " компания": 1823,
      "тами": 1824,
      " самолет": 1825,
      "24": 1826,
      " социаль": 1827,
      "ить": 1828,
      "сом": 1829,
      " говорит": 1830,
      " деся": 1831,
      " ша": 1832,
      "дел": 1833,
      "торов": 1834,
      " площа": 1835,
      "мов": 1836,
      " преступ": 1837,
      "ые": 1838,
      "щем": 1839,
      "тельные": 1840,
      "ством": 1841,
      "скому": 1842,
      " момент": 1843,
      " нужно": 1844,
      "рую": 1845,
      "тельной": 1846,
      "чки": 1847,
      " своих": 1848,
      "тем": 1849,
      " ц": 1850,
      " заме": 1851,
      "инов": 1852,
      " Дж": 1853,
      "ственных": 1854,
      "ток": 1855,
      " кандида": 1856,
      " фон": 1857,
      "щая": 1858,
      " стало": 1859,
      "чных": 1860,
      " Москвы": 1861,
      "един": 1862,
      " преду": 1863,
      " подтвер": 1864,
      "сло": 1865,
      " осу": 1866,
      "ститу": 1867,
      " сокра": 1868,
      " Ра": 1869,
      " действи": 1870,
      " многи": 1871,
      " сум": 1872,
      "роны": 1873,
      " меди": 1874,
      "Также": 1875,
      "ье": 1876,
      "енно": 1877,
      "Ми": 1878,
      " мене": 1879,
      " Новости": 1880,
      "лон": 1881,
      " СМИ": 1882,
      " Го": 1883,
      " пода": 1884,
      " насе": 1885,
      " транспо": 1886,
      "ляр": 1887,
      " Федера": 1888,
      "цей": 1889,
      "щении": 1890,
      " кур": 1891,
      "тур": 1892,
      " Бе": 1893,
      " сек": 1894,
      "ложен": 1895,
      " журнали": 1896,
      "еха": 1897,
      " счет": 1898,
      "енси": 1899,
      "тных": 1900,
      " политиче": 1901,
      " ожи": 1902,
      " составля": 1903,
      "le": 1904,
      " Кры": 1905,
      "спубли": 1906,
      " там": 1907,
      "Сегодня": 1908,
      "тан": 1909,
      " появи": 1910,
      " получа": 1911,
      "етербур": 1912,
      " конце": 1913,
      " уни": 1914,
      "ствует": 1915,
      " отношении": 1916,
      " четыре": 1917,
      " Ла": 1918,
      " добави": 1919,
      " дости": 1920,
      "ший": 1921,
      " четвер": 1922,
      " почти": 1923,
      " повы": 1924,
      " коли": 1925,
      " партии": 1926,
      " обна": 1927,
      "щий": 1928,
      "над": 1929,
      "ческие": 1930,
      " рам": 1931,
      " значи": 1932,
      "десь": 1933,
      " нау": 1934,
      " след": 1935,
      " объек": 1936,
      "шений": 1937,
      "Для": 1938,
      "еров": 1939,
      " пы": 1940,
      " подготов": 1941,
      " ри": 1942,
      " поку": 1943,
      "ницу": 1944,
      "вания": 1945,
      " футбо": 1946,
      " парла": 1947,
      " способ": 1948,
      " именно": 1949,
      "них": 1950,
      "дии": 1951,
      "дой": 1952,
      "лено": 1953,
      "правля": 1954,
      " ОО": 1955,
      " республи": 1956,
      " детей": 1957,
      " ТАСС": 1958,
      " послед": 1959,
      "им": 1960,
      "чный": 1961,
      " стране": 1962,
      " Госду": 1963,
      " Александр": 1964,
      "22": 1965,
      "дина": 1966,
      " задерж": 1967,
      "вшие": 1968,
      "уд": 1969,
      " вра": 1970,
      "it": 1971,
      " Трам": 1972,
      "ровал": 1973,
      "ровали": 1974,
      " совет": 1975,
      "чные": 1976,
      " части": 1977,
      " люди": 1978,
      " Ар": 1979,
      " перегово": 1980,
      "ропо": 1981,
      " N": 1982,
      " зем": 1983,
      " буду": 1984,
      " апреля": 1985,
      "Пред": 1986,
      " даль": 1987,
      "тиво": 1988,
      "рот": 1989,
      "вых": 1990,
      "стана": 1991,
      " говорится": 1992,
      "Что": 1993,
      "ены": 1994,
      " нор": 1995,
      "тура": 1996,
      " сентября": 1997,
      " ссы": 1998,
      " W": 1999,
      "разу": 2000,
      " кли": 2001,
      "пара": 2002,
      " однако": 2003,
      " реали": 2004,
      "енера": 2005,
      "бан": 2006,
      " зако": 2007,
      "%.\n": 2008,
      "тар": 2009,
      " Се": 2010,
      " главы": 2011,
      " государства": 2012,
      " клу": 2013,
      " авгу": 2014,
      " Анд": 2015,
      " премь": 2016,
      "Ра": 2017,
      "явля": 2018,
      "гам": 2019,
      " электро": 2020,
      "сили": 2021,
      "ерт": 2022,
      "виси": 2023,
      " Путин": 2024,
      " ог": 2025,
      "ния": 2026,
      "руг": 2027,
      " прекра": 2028,
      " обы": 2029,
      "ню": 2030,
      "жу": 2031,
      " провер": 2032,
      " стали": 2033,
      "стя": 2034,
      " вклю": 2035,
      " зан": 2036,
      "страда": 2037,
      " Сов": 2038,
      " закон": 2039,
      " измен": 2040,
      " россия": 2041,
      "чного": 2042,
      "скими": 2043,
      "пис": 2044,
      "ьез": 2045,
      " иг": 2046,
      "бен": 2047,
      " исс": 2048,
      "кт": 2049,
      " рамках": 2050,
      "роб": 2051,
      " утвер": 2052,
      "смен": 2053,
      "нять": 2054,
      " сообщили": 2055,
      "нение": 2056,
      " завер": 2057,
      "ченко": 2058,
      " правительства": 2059,
      " страна": 2060,
      "-служ": 2061,
      " должен": 2062,
      " руковод": 2063,
      " чемпиона": 2064,
      " предприя": 2065,
      "нологи": 2066,
      "урман": 2067,
      " куль": 2068,
      " нам": 2069,
      " провед": 2070,
      "100": 2071,
      " спорт": 2072,
      " докумен": 2073,
      "Ве": 2074,
      "Под": 2075,
      " сам": 2076,
      "стри": 2077,
      "-пре": 2078,
      "Газ": 2079,
      " назна": 2080,
      "пози": 2081,
      "лению": 2082,
      " суб": 2083,
      "Ме": 2084,
      "или": 2085,
      " уч": 2086,
      "шим": 2087,
      " рей": 2088,
      "блю": 2089,
      "шее": 2090,
      " анти": 2091,
      " отказа": 2092,
      " исклю": 2093,
      " причи": 2094,
      "ваться": 2095,
      " идет": 2096,
      " иностран": 2097,
      " санк": 2098,
      " опреде": 2099,
      "дил": 2100,
      "мыш": 2101,
      " одной": 2102,
      " участие": 2103,
      " февраля": 2104,
      " Ли": 2105,
      " финанс": 2106,
      " тя": 2107,
      "акси": 2108,
      "oo": 2109,
      "Они": 2110,
      " свобо": 2111,
      "рин": 2112,
      " недо": 2113,
      "вор": 2114,
      " пример": 2115,
      ".,": 2116,
      "40": 2117,
      " центра": 2118,
      " Фран": 2119,
      " особ": 2120,
      " подчеркну": 2121,
      "Ма": 2122,
      "фа": 2123,
      "кола": 2124,
      "чего": 2125,
      " Россий": 2126,
      " образом": 2127,
      " специали": 2128,
      " борь": 2129,
      "вид": 2130,
      "телем": 2131,
      "читы": 2132,
      " менее": 2133,
      " ло": 2134,
      " пя": 2135,
      " времени": 2136,
      " председа": 2137,
      " попа": 2138,
      " одного": 2139,
      "чей": 2140,
      " подоз": 2141,
      "ter": 2142,
      "зад": 2143,
      "Те": 2144,
      " декабря": 2145,
      " ограни": 2146,
      "рев": 2147,
      "жай": 2148,
      " ноября": 2149,
      " гру": 2150,
      "рами": 2151,
      "Го": 2152,
      " маши": 2153,
      " мет": 2154,
      "парта": 2155,
      " октября": 2156,
      " развития": 2157,
      " принима": 2158,
      " нем": 2159,
      " коне": 2160,
      " проку": 2161,
      " обяза": 2162,
      "Пер": 2163,
      "he": 2164,
      " такой": 2165,
      " ника": 2166,
      " информации": 2167,
      " рез": 2168,
      " назад": 2169,
      " националь": 2170,
      "матри": 2171,
      "нуть": 2172,
      " разрабо": 2173,
      " возможность": 2174,
      "ческий": 2175,
      " региона": 2176,
      "ффек": 2177,
      " некоторы": 2178,
      " выпол": 2179,
      "ствовать": 2180,
      " Дмитрий": 2181,
      "%,": 2182,
      " засед": 2183,
      " января": 2184,
      "гля": 2185,
      "хода": 2186,
      " представитель": 2187,
      " сре": 2188,
      "тет": 2189,
      "ющего": 2190,
      " инф": 2191,
      " мая": 2192,
      " другие": 2193,
      " опубли": 2194,
      "ce": 2195,
      "вен": 2196,
      " пыта": 2197,
      "Сейчас": 2198,
      "зидент": 2199,
      "21": 2200,
      "рец": 2201,
      "жных": 2202,
      "лют": 2203,
      " ря": 2204,
      " роди": 2205,
      " этих": 2206,
      "ВД": 2207,
      "сова": 2208,
      " противо": 2209,
      "гно": 2210,
      " Миха": 2211,
      " пострада": 2212,
      "ерм": 2213,
      "тельного": 2214,
      "мышлен": 2215,
      " Ру": 2216,
      " времен": 2217,
      "тельный": 2218,
      " региональ": 2219,
      "лкой": 2220,
      " бюджет": 2221,
      "28": 2222,
      " аре": 2223,
      " себе": 2224,
      " действия": 2225,
      " управления": 2226,
      " серьез": 2227,
      " средств": 2228,
      "тина": 2229,
      " аэ": 2230,
      " окру": 2231,
      " российского": 2232,
      " Цен": 2233,
      " игра": 2234,
      "тах": 2235,
      " угро": 2236,
      "кет": 2237,
      "мя": 2238,
      "рил": 2239,
      " собствен": 2240,
      "ове": 2241,
      "23": 2242,
      " зада": 2243,
      " ради": 2244,
      "графи": 2245,
      "199": 2246,
      "дили": 2247,
      " прибы": 2248,
      " конф": 2249,
      " погиб": 2250,
      " шта": 2251,
      " ги": 2252,
      " работу": 2253,
      "анов": 2254,
      "нок": 2255,
      " еди": 2256,
      "телям": 2257,
      " Турции": 2258,
      "ющей": 2259,
      "нил": 2260,
      "жной": 2261,
      " трех": 2262,
      " среди": 2263,
      "мон": 2264,
      "доров": 2265,
      "вобо": 2266,
      " долларов": 2267,
      "шло": 2268,
      "шем": 2269,
      "ницы": 2270,
      "мом": 2271,
      " потому": 2272,
      " кар": 2273,
      "пин": 2274,
      " первый": 2275,
      " надо": 2276,
      " кла": 2277,
      " тоже": 2278,
      " Га": 2279,
      " ти": 2280,
      "цени": 2281,
      " предлага": 2282,
      " свой": 2283,
      " наде": 2284,
      " тур": 2285,
      "берна": 2286,
      "муще": 2287,
      "неш": 2288,
      " увер": 2289,
      "ющим": 2290,
      " специаль": 2291,
      " намер": 2292,
      "хва": 2293,
      " зо": 2294,
      "ится": 2295,
      "лега": 2296,
      "овый": 2297,
      " ге": 2298,
      " частности": 2299,
      " пенси": 2300,
      " поясни": 2301,
      " ЕС": 2302,
      "at": 2303,
      "шла": 2304,
      " вним": 2305,
      "мии": 2306,
      " удалось": 2307,
      "вое": 2308,
      "дж": 2309,
      "зии": 2310,
      "27": 2311,
      "рить": 2312,
      " член": 2313,
      "доб": 2314,
      " предлож": 2315,
      " столи": 2316,
      " доста": 2317,
      " РИА": 2318,
      " работ": 2319,
      " ссылкой": 2320,
      "кто": 2321,
      " Ле": 2322,
      " районе": 2323,
      "дви": 2324,
      "жды": 2325,
      "ro": 2326,
      "проек": 2327,
      "личи": 2328,
      " мне": 2329,
      "част": 2330,
      " регу": 2331,
      " своего": 2332,
      " реко": 2333,
      " тот": 2334,
      " ситуации": 2335,
      "вание": 2336,
      "Ком": 2337,
      "йдет": 2338,
      " инвести": 2339,
      "пуска": 2340,
      " стоимо": 2341,
      " D": 2342,
      " ха": 2343,
      "...": 2344,
      " ближай": 2345,
      " обе": 2346,
      " которое": 2347,
      " места": 2348,
      " лидер": 2349,
      "лимпий": 2350,
      "обе": 2351,
      "ферен": 2352,
      " сез": 2353,
      " Мар": 2354,
      "26": 2355,
      "руют": 2356,
      " взры": 2357,
      "кси": 2358,
      " тогда": 2359,
      " течение": 2360,
      " публи": 2361,
      "няя": 2362,
      "рес": 2363,
      " дня": 2364,
      " вот": 2365,
      " здесь": 2366,
      " иде": 2367,
      "ссажи": 2368,
      " Ме": 2369,
      "ждение": 2370,
      " энер": 2371,
      "...\n": 2372,
      " группы": 2373,
      " очередь": 2374,
      "нача": 2375,
      " срав": 2376,
      "принима": 2377,
      " требов": 2378,
      " верси": 2379,
      " заня": 2380,
      "ТО": 2381,
      " закры": 2382,
      "рю": 2383,
      "шед": 2384,
      " оцен": 2385,
      "мир": 2386,
      " вместе": 2387,
      " контра": 2388,
      " расследов": 2389,
      "пании": 2390,
      " Кон": 2391,
      " гос": 2392,
      "чил": 2393,
      " ны": 2394,
      "ница": 2395,
      " законода": 2396,
      "зования": 2397,
      " известно": 2398,
      " ребен": 2399,
      " мень": 2400,
      " мину": 2401,
      "ствии": 2402,
      " сло": 2403,
      " замести": 2404,
      "шки": 2405,
      " собира": 2406,
      "жении": 2407,
      " деньги": 2408,
      " ожида": 2409,
      " лиц": 2410,
      " полиции": 2411,
      " треть": 2412,
      " Да": 2413,
      "езд": 2414,
      " дене": 2415,
      "ленных": 2416,
      " теперь": 2417,
      " ини": 2418,
      " спортсмен": 2419,
      "бро": 2420,
      "еть": 2421,
      "сколь": 2422,
      " лег": 2423,
      " находится": 2424,
      "роприя": 2425,
      "пита": 2426,
      "фици": 2427,
      "мости": 2428,
      " смер": 2429,
      " выступа": 2430,
      " стала": 2431,
      " профе": 2432,
      " голосов": 2433,
      "дан": 2434,
      "мест": 2435,
      "чка": 2436,
      "Де": 2437,
      " пор": 2438,
      " привле": 2439,
      " Пет": 2440,
      "29": 2441,
      "еме": 2442,
      " системы": 2443,
      " проект": 2444,
      " предложи": 2445,
      " права": 2446,
      "видет": 2447,
      "шой": 2448,
      " сразу": 2449,
      "телями": 2450,
      "Ру": 2451,
      " начала": 2452,
      "кую": 2453,
      " суда": 2454,
      " технологи": 2455,
      " постав": 2456,
      "чера": 2457,
      "прово": 2458,
      " Из": 2459,
      "лев": 2460,
      "руется": 2461,
      " това": 2462,
      " европей": 2463,
      " эту": 2464,
      "бова": 2465,
      "гов": 2466,
      "лением": 2467,
      "слав": 2468,
      " избира": 2469,
      "Россия": 2470,
      " стре": 2471,
      "ственный": 2472,
      " рассказа": 2473,
      "лит": 2474,
      "щие": 2475,
      " таких": 2476,
      " всегда": 2477,
      " одно": 2478,
      " суде": 2479,
      " E": 2480,
      "шенко": 2481,
      " Мурман": 2482,
      " производи": 2483,
      " подоб": 2484,
      "лений": 2485,
      " нового": 2486,
      " пун": 2487,
      "овая": 2488,
      "емых": 2489,
      " кино": 2490,
      " дополни": 2491,
      "льным": 2492,
      " бизнес": 2493,
      " реаль": 2494,
      "рева": 2495,
      " фото": 2496,
      " котором": 2497,
      " средства": 2498,
      " комитета": 2499,
      " парт": 2500,
      " новых": 2501,
      "тать": 2502,
      " этим": 2503,
      "боль": 2504,
      " услу": 2505,
      " уточ": 2506,
      "дит": 2507,
      "Ба": 2508,
      "цов": 2509,
      " эффек": 2510,
      " выпла": 2511,
      " русс": 2512,
      " Че": 2513,
      " конфли": 2514,
      "фика": 2515,
      "ат": 2516,
      "фак": 2517,
      " наблю": 2518,
      "ссо": 2519,
      "цин": 2520,
      "менти": 2521,
      " банков": 2522,
      "точно": 2523,
      " мероприя": 2524,
      " спа": 2525,
      "скольку": 2526,
      "чества": 2527,
      " российской": 2528,
      " воору": 2529,
      " премьер": 2530,
      "Она": 2531,
      " месте": 2532,
      " пря": 2533,
      "стер": 2534,
      " струк": 2535,
      "обра": 2536,
      " дел": 2537,
      " кварти": 2538,
      " убий": 2539,
      "ум": 2540,
      " неде": 2541,
      " качестве": 2542,
      " Герм": 2543,
      " исследов": 2544,
      "верси": 2545,
      "вала": 2546,
      " сделать": 2547,
      " Кра": 2548,
      " поряд": 2549,
      "стой": 2550,
      " решения": 2551,
      " начале": 2552,
      "шую": 2553,
      "льная": 2554,
      "дним": 2555,
      " сирий": 2556,
      " пассажи": 2557,
      "co": 2558,
      " годы": 2559,
      " внут": 2560,
      " тури": 2561,
      " музы": 2562,
      " бес": 2563,
      " Ев": 2564,
      "тера": 2565,
      " хозя": 2566,
      " две": 2567,
      " генера": 2568,
      " последние": 2569,
      " посе": 2570,
      "ществ": 2571,
      " чего": 2572,
      " миллиар": 2573,
      " количество": 2574,
      " Ри": 2575,
      " сайте": 2576,
      " мя": 2577,
      " бра": 2578,
      "номо": 2579,
      " стоит": 2580,
      " прошлого": 2581,
      " тяже": 2582,
      "жде": 2583,
      " министр": 2584,
      "пли": 2585,
      " отношения": 2586,
      "вую": 2587,
      "охрани": 2588,
      "хра": 2589,
      " изд": 2590,
      " Ха": 2591,
      " ху": 2592,
      "лой": 2593,
      " став": 2594,
      " рынке": 2595,
      " августа": 2596,
      "хран": 2597,
      "тарь": 2598,
      " итогам": 2599,
      " использова": 2600,
      " сти": 2601,
      " например": 2602,
      " деятельности": 2603,
      " Вели": 2604,
      "сточ": 2605,
      " H": 2606,
      "ag": 2607,
      "рения": 2608,
      "60": 2609,
      " ответствен": 2610,
      "сам": 2611,
      "юз": 2612,
      " разре": 2613,
      " директор": 2614,
      "шта": 2615,
      "гии": 2616,
      " ней": 2617,
      " соста": 2618,
      " агентство": 2619,
      "неф": 2620,
      "чат": 2621,
      " хотя": 2622,
      " правительство": 2623,
      "лити": 2624,
      " обрати": 2625,
      " спор": 2626,
      " опас": 2627,
      "пере": 2628,
      " возбу": 2629,
      "ходов": 2630,
      " получил": 2631,
      " аэропо": 2632,
      " миров": 2633,
      "стью": 2634,
      " возду": 2635,
      " всем": 2636,
      "жного": 2637,
      " отра": 2638,
      " возра": 2639,
      " трен": 2640,
      " период": 2641,
      "нице": 2642,
      " городе": 2643,
      " рынка": 2644,
      " внутрен": 2645,
      "зин": 2646,
      " оцени": 2647,
      " фа": 2648,
      " поэтому": 2649,
      " ген": 2650,
      "Хо": 2651,
      " пять": 2652,
      "тной": 2653,
      " пово": 2654,
      "веден": 2655,
      "первые": 2656,
      " распро": 2657,
      "гру": 2658,
      " нефти": 2659,
      " находя": 2660,
      "лег": 2661,
      " прогно": 2662,
      " МВД": 2663,
      " Никола": 2664,
      "зма": 2665,
      " уче": 2666,
      " инициа": 2667,
      " взя": 2668,
      " семь": 2669,
      "няет": 2670,
      "ходят": 2671,
      " второй": 2672,
      " оружи": 2673,
      " чинов": 2674,
      " которую": 2675,
      " новый": 2676,
      "вари": 2677,
      " отмечает": 2678,
      " боеви": 2679,
      " нынеш": 2680,
      " попу": 2681,
      " масс": 2682,
      " добавил": 2683,
      "лета": 2684,
      " подчеркнул": 2685,
      " выз": 2686,
      " руководи": 2687,
      " выро": 2688,
      "жать": 2689,
      " позволя": 2690,
      " конкур": 2691,
      " ши": 2692,
      "is": 2693,
      "ником": 2694,
      "рование": 2695,
      " сту": 2696,
      "еди": 2697,
      "казывает": 2698,
      "Интер": 2699,
      "нин": 2700,
      "рят": 2701,
      " пост": 2702,
      "ант": 2703,
      "форми": 2704,
      "щую": 2705,
      "кар": 2706,
      "ритан": 2707,
      "ваются": 2708,
      "чает": 2709,
      " совершен": 2710,
      " диа": 2711,
      " должна": 2712,
      " нео": 2713,
      "ера": 2714,
      "стоян": 2715,
      " бар": 2716,
      " москов": 2717,
      "нистр": 2718,
      " новые": 2719,
      "ствуют": 2720,
      "СК": 2721,
      " такие": 2722,
      " дума": 2723,
      "ленные": 2724,
      " компаний": 2725,
      " настоящее": 2726,
      "шу": 2727,
      " июля": 2728,
      " №": 2729,
      " банк": 2730,
      " видео": 2731,
      "дно": 2732,
      "роят": 2733,
      "тельным": 2734,
      "лекана": 2735,
      "чении": 2736,
      " бло": 2737,
      "водит": 2738,
      " мире": 2739,
      " рассмо": 2740,
      "шет": 2741,
      " каса": 2742,
      "игра": 2743,
      "бин": 2744,
      " собы": 2745,
      " примен": 2746,
      "юза": 2747,
      " Лу": 2748,
      " помощи": 2749,
      " господин": 2750,
      "сить": 2751,
      " современ": 2752,
      "обре": 2753,
      "обще": 2754,
      "ровки": 2755,
      " полицей": 2756,
      " поскольку": 2757,
      " непо": 2758,
      " пользова": 2759,
      "-П": 2760,
      "il": 2761,
      "ква": 2762,
      "конча": 2763,
      "-го": 2764,
      " отде": 2765,
      " Ту": 2766,
      "Согла": 2767,
      " уровне": 2768,
      " Россию": 2769,
      "чены": 2770,
      " мир": 2771,
      "прос": 2772,
      " миллионов": 2773,
      " процесс": 2774,
      "ходы": 2775,
      " Алексей": 2776,
      "шению": 2777,
      "пада": 2778,
      " состав": 2779,
      "траф": 2780,
      " проекта": 2781,
      " Федерации": 2782,
      "ol": 2783,
      "рина": 2784,
      " своем": 2785,
      "того": 2786,
      " вице": 2787,
      " написа": 2788,
      " имеет": 2789,
      " внеш": 2790,
      "чая": 2791,
      " Иго": 2792,
      "ведения": 2793,
      "-м": 2794,
      "стров": 2795,
      " нашей": 2796,
      " совмест": 2797,
      " Украине": 2798,
      " получили": 2799,
      "дия": 2800,
      " спец": 2801,
      "Глава": 2802,
      "Ни": 2803,
      " большин": 2804,
      " объяви": 2805,
      " работать": 2806,
      " станет": 2807,
      "рое": 2808,
      " МИ": 2809,
      "тайте": 2810,
      " забо": 2811,
      "ента": 2812,
      " неу": 2813,
      " представля": 2814,
      " прак": 2815,
      " проблемы": 2816,
      " внимание": 2817,
      " зам": 2818,
      " возвра": 2819,
      " правоохрани": 2820,
      "вока": 2821,
      " кризи": 2822,
      " прин": 2823,
      " ничего": 2824,
      " верну": 2825,
      " нов": 2826,
      " дней": 2827,
      "Поэтому": 2828,
      " района": 2829,
      "ion": 2830,
      "мена": 2831,
      "ок": 2832,
      " потом": 2833,
      " истории": 2834,
      " кажды": 2835,
      "us": 2836,
      "рее": 2837,
      "тая": 2838,
      " неиз": 2839,
      " приве": 2840,
      " выс": 2841,
      " род": 2842,
      "льное": 2843,
      "Президент": 2844,
      "вто": 2845,
      " акти": 2846,
      " рост": 2847,
      " ведомства": 2848,
      " телекана": 2849,
      "ческая": 2850,
      " одна": 2851,
      " увеличи": 2852,
      " V": 2853,
      "ятся": 2854,
      " различ": 2855,
      "спек": 2856,
      "el": 2857,
      "Когда": 2858,
      "дется": 2859,
      " выда": 2860,
      " этому": 2861,
      " писа": 2862,
      "тый": 2863,
      " Европы": 2864,
      " жизнь": 2865,
      " губерна": 2866,
      " предпринима": 2867,
      "овым": 2868,
      "am": 2869,
      " тон": 2870,
      " считают": 2871,
      "ус": 2872,
      "шать": 2873,
      " данные": 2874,
      " полностью": 2875,
      " ООН": 2876,
      " конечно": 2877,
      "док": 2878,
      "ственные": 2879,
      " экспо": 2880,
      " тради": 2881,
      " законопроек": 2882,
      " сборной": 2883,
      " сф": 2884,
      "лых": 2885,
      " вза": 2886,
      " понима": 2887,
      "вый": 2888,
      " информацию": 2889,
      " норма": 2890,
      "тых": 2891,
      "Ви": 2892,
      "мин": 2893,
      "лана": 2894,
      " здоров": 2895,
      " требу": 2896,
      " пят": 2897,
      "Россий": 2898,
      "ич": 2899,
      " терак": 2900,
      "Си": 2901,
      " народ": 2902,
      "били": 2903,
      "тные": 2904,
      " представ": 2905,
      "нами": 2906,
      " снизи": 2907,
      " кру": 2908,
      " техни": 2909,
      " Серге": 2910,
      " кана": 2911,
      "они": 2912,
      "тябре": 2913,
      " запрещен": 2914,
      "еты": 2915,
      "кро": 2916,
      " иску": 2917,
      " добы": 2918,
      " ним": 2919,
      " медицин": 2920,
      " ал": 2921,
      " программы": 2922,
      " жа": 2923,
      " наи": 2924,
      "-летний": 2925,
      " администрации": 2926,
      " просмот": 2927,
      " другой": 2928,
      " сцен": 2929,
      "мар": 2930,
      "жный": 2931,
      "рошенко": 2932,
      " тому": 2933,
      " связан": 2934,
      " Су": 2935,
      "сок": 2936,
      " прошлом": 2937,
      " коллек": 2938,
      " поддержи": 2939,
      " получить": 2940,
      "что": 2941,
      "доро": 2942,
      "Его": 2943,
      " мог": 2944,
      "ждународ": 2945,
      " хи": 2946,
      " объем": 2947,
      " самых": 2948,
      "вшей": 2949,
      "щиков": 2950,
      "ым": 2951,
      "собо": 2952,
      " ситуация": 2953,
      " оппози": 2954,
      " составляет": 2955,
      " пожа": 2956,
      "емон": 2957,
      " мини": 2958,
      "дент": 2959,
      " месяцев": 2960,
      " постоян": 2961,
      "нить": 2962,
      "АО": 2963,
      " фран": 2964,
      "сил": 2965,
      " Москов": 2966,
      " весь": 2967,
      "емокра": 2968,
      " бизне": 2969,
      " возгла": 2970,
      " просмотров": 2971,
      "Бы": 2972,
      "тече": 2973,
      " СК": 2974,
      "можно": 2975,
      " выступи": 2976,
      " теку": 2977,
      " юри": 2978,
      " близ": 2979,
      "ic": 2980,
      " мощ": 2981,
      "никами": 2982,
      " ап": 2983,
      " министер": 2984,
      "-й": 2985,
      "Па": 2986,
      " сай": 2987,
      "седни": 2988,
      " ракет": 2989,
      " гор": 2990,
      " При": 2991,
      " живо": 2992,
      "жета": 2993,
      " выра": 2994,
      " войны": 2995,
      " связ": 2996,
      " мужчи": 2997,
      " осуществ": 2998,
      " населения": 2999,
      " прокура": 3000,
      "вок": 3001,
      " меньше": 3002,
      "льном": 3003,
      " вари": 3004,
      " команды": 3005,
      "дения": 3006,
      "пов": 3007,
      "рок": 3008,
      " многие": 3009,
      "чис": 3010,
      "еспубли": 3011,
      "ктор": 3012,
      " (\"": 3013,
      "-ми": 3014,
      " неда": 3015,
      "прочем": 3016,
      "вети": 3017,
      " пам": 3018,
      "вестия": 3019,
      "лед": 3020,
      " освобо": 3021,
      " банка": 3022,
      " торгов": 3023,
      " отве": 3024,
      "поли": 3025,
      " жителей": 3026,
      " одном": 3027,
      " фун": 3028,
      " сами": 3029,
      "ниц": 3030,
      "чать": 3031,
      " кам": 3032,
      " восстанов": 3033,
      "жем": 3034,
      " Госдумы": 3035,
      " харак": 3036,
      " площад": 3037,
      "чески": 3038,
      "рко": 3039,
      " приводит": 3040,
      " Бу": 3041,
      " Восто": 3042,
      " влия": 3043,
      "пор": 3044,
      " Иван": 3045,
      " процентов": 3046,
      " экономики": 3047,
      " наблюда": 3048,
      "et": 3049,
      "лга": 3050,
      "их": 3051,
      " впервые": 3052,
      " заво": 3053,
      " службы": 3054,
      " россиян": 3055,
      " игро": 3056,
      "тию": 3057,
      "ставить": 3058,
      " цены": 3059,
      " возможности": 3060,
      " утвержда": 3061,
      "зм": 3062,
      " сложно": 3063,
      ":\n": 3064,
      "вым": 3065,
      "35": 3066,
      " превы": 3067,
      " вопросы": 3068,
      "кви": 3069,
      " поме": 3070,
      " начина": 3071,
      ".R": 3072,
      "тили": 3073,
      " НА": 3074,
      "тивных": 3075,
      " Ира": 3076,
      " выборов": 3077,
      " налог": 3078,
      " группи": 3079,
      " попро": 3080,
      " участников": 3081,
      "надле": 3082,
      "жей": 3083,
      " нее": 3084,
      " проте": 3085,
      "лот": 3086,
      " обвиня": 3087,
      " срок": 3088,
      "Согласно": 3089,
      "re": 3090,
      "град": 3091,
      " делать": 3092,
      " цель": 3093,
      " турни": 3094,
      "жные": 3095,
      "зер": 3096,
      "даря": 3097,
      " Евг": 3098,
      "ено": 3099,
      "таки": 3100,
      " До": 3101,
      " выборах": 3102,
      "тором": 3103,
      " полож": 3104,
      "тей": 3105,
      " Германии": 3106,
      " практически": 3107,
      "70": 3108,
      "вью": 3109,
      " транспорт": 3110,
      "здни": 3111,
      "слам": 3112,
      " началь": 3113,
      "Ан": 3114,
      "чным": 3115,
      " бере": 3116,
      "леп": 3117,
      "весто": 3118,
      " правитель": 3119,
      " обсужда": 3120,
      " приобре": 3121,
      "баты": 3122,
      " страте": 3123,
      "нистер": 3124,
      " одним": 3125,
      "пора": 3126,
      "мые": 3127,
      " пяти": 3128,
      "80": 3129,
      "анных": 3130,
      " заявила": 3131,
      " покупа": 3132,
      "гран": 3133,
      "сем": 3134,
      " стол": 3135,
      " пала": 3136,
      " област": 3137,
      "тирует": 3138,
      "ционной": 3139,
      " сотрудников": 3140,
      " предполага": 3141,
      " отсут": 3142,
      " МИД": 3143,
      " наши": 3144,
      " един": 3145,
      "овом": 3146,
      "ху": 3147,
      " сла": 3148,
      "Рос": 3149,
      "Сто": 3150,
      " кры": 3151,
      " предвари": 3152,
      " доступ": 3153,
      "треть": 3154,
      "чета": 3155,
      " гри": 3156,
      " измени": 3157,
      "чено": 3158,
      "рованы": 3159,
      " парламента": 3160,
      " Андрей": 3161,
      " ряд": 3162,
      " финанси": 3163,
      "нев": 3164,
      " принадле": 3165,
      " Россией": 3166,
      "анкт": 3167,
      " политики": 3168,
      " убе": 3169,
      "дума": 3170,
      "треб": 3171,
      " итоге": 3172,
      " рейтин": 3173,
      "31": 3174,
      "ологи": 3175,
      " таким": 3176,
      " достаточно": 3177,
      "лла": 3178,
      "фон": 3179,
      " долго": 3180,
      "Тем": 3181,
      " часов": 3182,
      " число": 3183,
      " кварта": 3184,
      "шить": 3185,
      " нико": 3186,
      " край": 3187,
      " турец": 3188,
      " назвал": 3189,
      " незакон": 3190,
      "россий": 3191,
      " праздни": 3192,
      " сообщении": 3193,
      " чер": 3194,
      " искус": 3195,
      "лии": 3196,
      "кими": 3197,
      " отправи": 3198,
      "сур": 3199,
      "Еще": 3200,
      "пания": 3201,
      " съ": 3202,
      " встречи": 3203,
      "Ди": 3204,
      "коб": 3205,
      " прио": 3206,
      " сил": 3207,
      " сня": 3208,
      " Клин": 3209,
      " несколь": 3210,
      " источник": 3211,
      "мых": 3212,
      "клад": 3213,
      " полови": 3214,
      "факс": 3215,
      "сен": 3216,
      " террористи": 3217,
      " размере": 3218,
      " кре": 3219,
      " пригово": 3220,
      " сообщила": 3221,
      " агентства": 3222,
      "-Петербур": 3223,
      "лях": 3224,
      " теа": 3225,
      " представители": 3226,
      "талья": 3227,
      "нец": 3228,
      " поня": 3229,
      " меры": 3230,
      " упа": 3231,
      "ципа": 3232,
      "вого": 3233,
      " кни": 3234,
      " министра": 3235,
      " военно": 3236,
      " интервью": 3237,
      "веро": 3238,
      " бюджета": 3239,
      "стам": 3240,
      " Вер": 3241,
      " всей": 3242,
      " поне": 3243,
      " Му": 3244,
      " комплек": 3245,
      " поте": 3246,
      " собой": 3247,
      "тивно": 3248,
      " произошло": 3249,
      "матиче": 3250,
      "шает": 3251,
      " отстав": 3252,
      " обороны": 3253,
      " использу": 3254,
      " штраф": 3255,
      " станов": 3256,
      " нефть": 3257,
      " документа": 3258,
      " популяр": 3259,
      "сро": 3260,
      " расши": 3261,
      " продолжи": 3262,
      "уне": 3263,
      "ческим": 3264,
      " Республи": 3265,
      " Кар": 3266,
      "пуск": 3267,
      " истори": 3268,
      "служи": 3269,
      " затем": 3270,
      " буд": 3271,
      " которым": 3272,
      " условиях": 3273,
      " учи": 3274,
      "цам": 3275,
      "сер": 3276,
      " свидет": 3277,
      " вообще": 3278,
      "раб": 3279,
      " попы": 3280,
      "лый": 3281,
      "никам": 3282,
      "ционных": 3283,
      " движения": 3284,
      " конкурен": 3285,
      " роста": 3286,
      " иностранных": 3287,
      " Франции": 3288,
      " Оба": 3289,
      " уровень": 3290,
      " крупней": 3291,
      "-ли": 3292,
      "чная": 3293,
      " британ": 3294,
      " лучше": 3295,
      "лер": 3296,
      "Ли": 3297,
      "тельное": 3298,
      "пар": 3299,
      "более": 3300,
      " стар": 3301,
      " постро": 3302,
      "ing": 3303,
      " исполни": 3304,
      " дальней": 3305,
      "90": 3306,
      " состо": 3307,
      " тор": 3308,
      " Ду": 3309,
      " ситуацию": 3310,
      "ила": 3311,
      "шка": 3312,
      " То": 3313,
      "as": 3314,
      "фо": 3315,
      " дово": 3316,
      " неме": 3317,
      ".Ru": 3318,
      "стом": 3319,
      " какие": 3320,
      " уголовное": 3321,
      "Кон": 3322,
      " примерно": 3323,
      "вли": 3324,
      "ями": 3325,
      " капита": 3326,
      " целом": 3327,
      " улице": 3328,
      " российские": 3329,
      " помощью": 3330,
      "гна": 3331,
      "чку": 3332,
      " конца": 3333,
      " центре": 3334,
      " каждый": 3335,
      "лки": 3336,
      " Ша": 3337,
      "ледова": 3338,
      " францу": 3339,
      "кобрит": 3340,
      "-се": 3341,
      " постанов": 3342,
      " дав": 3343,
      "\"В": 3344,
      " аль": 3345,
      " скоро": 3346,
      "диви": 3347,
      "ствов": 3348,
      "ционного": 3349,
      " своим": 3350,
      " пояснил": 3351,
      "дев": 3352,
      " претен": 3353,
      "едве": 3354,
      " заявление": 3355,
      " инвесто": 3356,
      " Порошенко": 3357,
      " относи": 3358,
      " соответству": 3359,
      "тный": 3360,
      "пред": 3361,
      " универси": 3362,
      " клиен": 3363,
      "\")": 3364,
      " ау": 3365,
      " пишет": 3366,
      " действу": 3367,
      " Владимира": 3368,
      " вну": 3369,
      " адвока": 3370,
      "пря": 3371,
      "дий": 3372,
      " пара": 3373,
      " встреча": 3374,
      "рпла": 3375,
      " втор": 3376,
      " раск": 3377,
      "вел": 3378,
      " изу": 3379,
      " интерес": 3380,
      "нему": 3381,
      "туру": 3382,
      " первую": 3383,
      " Санкт": 3384,
      " российский": 3385,
      " сети": 3386,
      " зависи": 3387,
      " проблем": 3388,
      " тр": 3389,
      "тного": 3390,
      "рез": 3391,
      " поки": 3392,
      " депутат": 3393,
      " погибли": 3394,
      " обнаружи": 3395,
      "ющая": 3396,
      " сере": 3397,
      " управля": 3398,
      " УК": 3399,
      " рассматри": 3400,
      " пси": 3401,
      "льзя": 3402,
      " зарпла": 3403,
      " Чер": 3404,
      " организация": 3405,
      "ri": 3406,
      " сообщалось": 3407,
      " кос": 3408,
      "емый": 3409,
      " особенно": 3410,
      "аксима": 3411,
      " опро": 3412,
      "лай": 3413,
      " подписа": 3414,
      " государство": 3415,
      " проблема": 3416,
      " ремон": 3417,
      " ей": 3418,
      " имуще": 3419,
      "так": 3420,
      " Все": 3421,
      " пись": 3422,
      " материале": 3423,
      " похо": 3424,
      " поступи": 3425,
      " приходи": 3426,
      " следует": 3427,
      " новой": 3428,
      " действий": 3429,
      " Трампа": 3430,
      " Клинтон": 3431,
      " какой": 3432,
      " первом": 3433,
      " професси": 3434,
      " шо": 3435,
      " газета": 3436,
      " призн": 3437,
      " НАТО": 3438,
      "ou": 3439,
      "хе": 3440,
      "хани": 3441,
      " клю": 3442,
      " учре": 3443,
      "пан": 3444,
      " понедель": 3445,
      " пои": 3446,
      " заявили": 3447,
      " хорошо": 3448,
      " Центра": 3449,
      " промышлен": 3450,
      " ведь": 3451,
      " часто": 3452,
      "Воз": 3453,
      " мало": 3454,
      " жерт": 3455,
      " производства": 3456,
      "рови": 3457,
      " совета": 3458,
      " люби": 3459,
      " пользу": 3460,
      "емой": 3461,
      " проводи": 3462,
      "вета": 3463,
      "вченко": 3464,
      " низ": 3465,
      "сад": 3466,
      " комму": 3467,
      " Дон": 3468,
      " ава": 3469,
      " речь": 3470,
      " выше": 3471,
      " сим": 3472,
      " Великобрит": 3473,
      "зах": 3474,
      " присут": 3475,
      " читайте": 3476,
      " помощь": 3477,
      "Глав": 3478,
      " Российской": 3479,
      " судеб": 3480,
      "Впрочем": 3481,
      "сшта": 3482,
      "порт": 3483,
      " вырази": 3484,
      "шествия": 3485,
      " язы": 3486,
      " действительно": 3487,
      " подозрева": 3488,
      " либо": 3489,
      "ССР": 3490,
      "дать": 3491,
      " указ": 3492,
      " вас": 3493,
      " партнер": 3494,
      "БК": 3495,
      " слож": 3496,
      "сит": 3497,
      " физи": 3498,
      " проведения": 3499,
      " данных": 3500,
      " Путина": 3501,
      " чув": 3502,
      " республики": 3503,
      "сточник": 3504,
      " сли": 3505,
      "вар": 3506,
      "цами": 3507,
      " тысячи": 3508,
      " использов": 3509,
      " останов": 3510,
      "реги": 3511,
      "45": 3512,
      "ести": 3513,
      "тят": 3514,
      "экономи": 3515,
      " собра": 3516,
      " дер": 3517,
      " делу": 3518,
      "клады": 3519,
      " мэ": 3520,
      " пятницу": 3521,
      "дово": 3522,
      "сной": 3523,
      "тья": 3524,
      "вом": 3525,
      "бороны": 3526,
      " поддержа": 3527,
      " рынок": 3528,
      " сказать": 3529,
      "банка": 3530,
      " худо": 3531,
      "НР": 3532,
      "ел": 3533,
      "тива": 3534,
      "няется": 3535,
      " работе": 3536,
      " ответи": 3537,
      " деле": 3538,
      " начали": 3539,
      " сторон": 3540,
      " барре": 3541,
      " отдель": 3542,
      " трав": 3543,
      " сотрудники": 3544,
      " система": 3545,
      " посети": 3546,
      " секре": 3547,
      " стоимость": 3548,
      " хозяй": 3549,
      "Ва": 3550,
      "пром": 3551,
      "ян": 3552,
      " позд": 3553,
      " мага": 3554,
      "тря": 3555,
      "стати": 3556,
      " среду": 3557,
      " большой": 3558,
      " китай": 3559,
      "мимо": 3560,
      " СССР": 3561,
      "тые": 3562,
      "това": 3563,
      " полага": 3564,
      " нач": 3565,
      " уси": 3566,
      " раза": 3567,
      " ЦБ": 3568,
      " предприятия": 3569,
      " рекомен": 3570,
      " доби": 3571,
      "бора": 3572,
      "гах": 3573,
      " взаимо": 3574,
      "еру": 3575,
      "рудов": 3576,
      " арен": 3577,
      " выступ": 3578,
      " бом": 3579,
      " Ал": 3580,
      " группа": 3581,
      "вшая": 3582,
      "щу": 3583,
      " следова": 3584,
      "Пере": 3585,
      "бло": 3586,
      " Крыма": 3587,
      " возник": 3588,
      " важно": 3589,
      " фина": 3590,
      " наших": 3591,
      " голов": 3592,
      "щается": 3593,
      " никто": 3594,
      "емого": 3595,
      " Александра": 3596,
      " версии": 3597,
      "Еди": 3598,
      " устрой": 3599,
      " прожи": 3600,
      " форми": 3601,
      " сфере": 3602,
      " еже": 3603,
      " произошел": 3604,
      "смотря": 3605,
      "лору": 3606,
      "Пу": 3607,
      "бар": 3608,
      "вей": 3609,
      "коми": 3610,
      " выстав": 3611,
      "вшим": 3612,
      " говорят": 3613,
      "льную": 3614,
      " согласи": 3615,
      " месяца": 3616,
      " институ": 3617,
      " сель": 3618,
      " интернет": 3619,
      "лимпиа": 3620,
      " потеря": 3621,
      "под": 3622,
      " самом": 3623,
      " форма": 3624,
      " опубликова": 3625,
      "кса": 3626,
      "снов": 3627,
      "тивной": 3628,
      "катери": 3629,
      " несмотря": 3630,
      " двига": 3631,
      " ребенка": 3632,
      " миниму": 3633,
      "чное": 3634,
      " сдел": 3635,
      " напад": 3636,
      "\":": 3637,
      "ностей": 3638,
      "гом": 3639,
      " баз": 3640,
      " такое": 3641,
      "лети": 3642,
      "след": 3643,
      " четырех": 3644,
      " вооружен": 3645,
      "леппо": 3646,
      " глу": 3647,
      " работает": 3648,
      " первого": 3649,
      " огром": 3650,
      "раво": 3651,
      " собе": 3652,
      " конц": 3653,
      "ace": 3654,
      "Подроб": 3655,
      " порядка": 3656,
      "вез": 3657,
      " такого": 3658,
      "бай": 3659,
      " органов": 3660,
      " закона": 3661,
      " Совета": 3662,
      "шлось": 3663,
      " обу": 3664,
      " расположен": 3665,
      " Трамп": 3666,
      " изменения": 3667,
      "-секре": 3668,
      " Международ": 3669,
      "ew": 3670,
      "шему": 3671,
      "куп": 3672,
      " образования": 3673,
      " смогут": 3674,
      "age": 3675,
      "лах": 3676,
      "ниципа": 3677,
      " неболь": 3678,
      " проходи": 3679,
      " Алеппо": 3680,
      " пенсион": 3681,
      " понедельник": 3682,
      " сме": 3683,
      "ственным": 3684,
      " ИГ": 3685,
      " цитирует": 3686,
      " внес": 3687,
      "анные": 3688,
      " заявля": 3689,
      "щим": 3690,
      " объяв": 3691,
      " имени": 3692,
      " бро": 3693,
      " силы": 3694,
      " In": 3695,
      "ir": 3696,
      " перево": 3697,
      " первой": 3698,
      " дипло": 3699,
      "ent": 3700,
      " принци": 3701,
      "еп": 3702,
      "шинг": 3703,
      " Север": 3704,
      " денег": 3705,
      " нако": 3706,
      " вели": 3707,
      " вероят": 3708,
      " заместитель": 3709,
      "СБ": 3710,
      " ск": 3711,
      "лять": 3712,
      " сыгра": 3713,
      " аппара": 3714,
      " выход": 3715,
      " четверг": 3716,
      " уверен": 3717,
      " неизвест": 3718,
      " газа": 3719,
      "чном": 3720,
      "ый": 3721,
      " узна": 3722,
      " дом": 3723,
      " Япо": 3724,
      " обнару": 3725,
      "ест": 3726,
      " операции": 3727,
      "ed": 3728,
      " спу": 3729,
      " арти": 3730,
      " тен": 3731,
      " департа": 3732,
      "спон": 3733,
      " потреби": 3734,
      " нескольких": 3735,
      "ющее": 3736,
      "анда": 3737,
      " аб": 3738,
      "ческое": 3739,
      " могли": 3740,
      " роль": 3741,
      "тех": 3742,
      "дим": 3743,
      " вол": 3744,
      " Об": 3745,
      " провести": 3746,
      "бран": 3747,
      " комиссии": 3748,
      " пора": 3749,
      " сохрани": 3750,
      " вок": 3751,
      "ционный": 3752,
      " собеседни": 3753,
      " Медве": 3754,
      "скрес": 3755,
      "500": 3756,
      " опубликов": 3757,
      "АС": 3758,
      "Экс": 3759,
      "бере": 3760,
      "нобороны": 3761,
      " успеш": 3762,
      " культуры": 3763,
      " ль": 3764,
      " задержа": 3765,
      "ческую": 3766,
      " выясни": 3767,
      " объяс": 3768,
      " валют": 3769,
      " касается": 3770,
      " стату": 3771,
      " уровня": 3772,
      " Интер": 3773,
      " ООО": 3774,
      " положи": 3775,
      "анный": 3776,
      " ВВ": 3777,
      " нельзя": 3778,
      " веду": 3779,
      "вшись": 3780,
      " X": 3781,
      "Ки": 3782,
      "зор": 3783,
      "зация": 3784,
      " комплекс": 3785,
      " являются": 3786,
      " никогда": 3787,
      "eu": 3788,
      "шком": 3789,
      " строительство": 3790,
      " нарушения": 3791,
      " самолета": 3792,
      " золо": 3793,
      "ссоциа": 3794,
      " вторник": 3795,
      " наро": 3796,
      " допин": 3797,
      "езда": 3798,
      " электрон": 3799,
      "ap": 3800,
      "сона": 3801,
      " спро": 3802,
      "риа": 3803,
      " карти": 3804,
      " Европе": 3805,
      "Интерфакс": 3806,
      "гры": 3807,
      " опла": 3808,
      " Крем": 3809,
      " Алек": 3810,
      " геро": 3811,
      "гети": 3812,
      "шением": 3813,
      "тел": 3814,
      " кате": 3815,
      "Например": 3816,
      " взрыв": 3817,
      ";\n": 3818,
      "защи": 3819,
      "нили": 3820,
      "лоу": 3821,
      " сорев": 3822,
      " Эр": 3823,
      "зем": 3824,
      " переговоры": 3825,
      " пропа": 3826,
      " невоз": 3827,
      "зит": 3828,
      " силу": 3829,
      " помога": 3830,
      " преступления": 3831,
      "Ну": 3832,
      " пройдет": 3833,
      " км": 3834,
      " Дональ": 3835,
      " конкре": 3836,
      "тивного": 3837,
      "300": 3838,
      " Бер": 3839,
      " важ": 3840,
      " предупре": 3841,
      "банк": 3842,
      " ото": 3843,
      " Бори": 3844,
      " строительства": 3845,
      " список": 3846,
      " некоторые": 3847,
      " Михаил": 3848,
      "бир": 3849,
      " муниципа": 3850,
      " Савченко": 3851,
      " независи": 3852,
      "станавли": 3853,
      "ЧС": 3854,
      " води": 3855,
      "лые": 3856,
      " говорить": 3857,
      " руководитель": 3858,
      " находятся": 3859,
      "дение": 3860,
      "лле": 3861,
      " выво": 3862,
      "тельную": 3863,
      " акции": 3864,
      " Игорь": 3865,
      " стратеги": 3866,
      "-х": 3867,
      "город": 3868,
      "каде": 3869,
      " тут": 3870,
      "стями": 3871,
      "тром": 3872,
      "риф": 3873,
      "мая": 3874,
      " выде": 3875,
      " выну": 3876,
      "одно": 3877,
      " Известия": 3878,
      "лда": 3879,
      " зарабо": 3880,
      " ресур": 3881,
      " принято": 3882,
      " бежен": 3883,
      "Тогда": 3884,
      " отмен": 3885,
      " инци": 3886,
      "Таким": 3887,
      " француз": 3888,
      "чную": 3889,
      "сах": 3890,
      " сумму": 3891,
      " особо": 3892,
      " Красно": 3893,
      "Раз": 3894,
      " оборудов": 3895,
      "ждено": 3896,
      " требования": 3897,
      " наказ": 3898,
      "помина": 3899,
      "ченных": 3900,
      " фонда": 3901,
      " бизнеса": 3902,
      " поко": 3903,
      " препара": 3904,
      " посвя": 3905,
      " дере": 3906,
      " бывший": 3907,
      " зри": 3908,
      " органа": 3909,
      "лок": 3910,
      " членов": 3911,
      "жар": 3912,
      " мужчина": 3913,
      " поддержку": 3914,
      " ор": 3915,
      " пору": 3916,
      "тил": 3917,
      "тивные": 3918,
      " председатель": 3919,
      " памят": 3920,
      "юсь": 3921,
      "ляции": 3922,
      "мый": 3923,
      " многих": 3924,
      "тельная": 3925,
      "ленный": 3926,
      "суль": 3927,
      " состоянии": 3928,
      " The": 3929,
      " корруп": 3930,
      " пес": 3931,
      "сят": 3932,
      "ломет": 3933,
      " поводу": 3934,
      "оны": 3935,
      " быстро": 3936,
      " деву": 3937,
      "креп": 3938,
      " сравнению": 3939,
      "ТП": 3940,
      " вов": 3941,
      " оши": 3942,
      " дра": 3943,
      "потреб": 3944,
      "гип": 3945,
      " ниже": 3946,
      " сможет": 3947,
      " разработ": 3948,
      " катего": 3949,
      " оказыва": 3950,
      " самого": 3951,
      "Боль": 3952,
      " пунк": 3953,
      " функ": 3954,
      "Фото": 3955,
      " миллиона": 3956,
      " сопер": 3957,
      "чай": 3958,
      " данный": 3959,
      " чемпионата": 3960,
      "естива": 3961,
      "сток": 3962,
      " Министер": 3963,
      " разных": 3964,
      "ровано": 3965,
      " спорта": 3966,
      "полне": 3967,
      " давно": 3968,
      " случай": 3969,
      "менты": 3970,
      " остается": 3971,
      "нюю": 3972,
      "роз": 3973,
      " случи": 3974,
      " цена": 3975,
      " главный": 3976,
      "ПР": 3977,
      " направи": 3978,
      " сих": 3979,
      " объясни": 3980,
      " почему": 3981,
      " благодаря": 3982,
      "mage": 3983,
      " коло": 3984,
      "ровала": 3985,
      " регионе": 3986,
      "вати": 3987,
      " воскрес": 3988,
      " полномо": 3989,
      " заверши": 3990,
      " составе": 3991,
      " вся": 3992,
      " зап": 3993,
      "чили": 3994,
      " Аб": 3995,
      " минут": 3996,
      " проведен": 3997,
      " перио": 3998,
      "рабаты": 3999,
      " согласно": 4000,
      "телю": 4001,
      "вался": 4002,
      " Ти": 4003,
      "правед": 4004,
      "ch": 4005,
      "нию": 4006,
      " соглашения": 4007,
      " суббо": 4008,
      " скры": 4009,
      "беж": 4010,
      " столич": 4011,
      " рубля": 4012,
      " военных": 4013,
      " выборы": 4014,
      "леко": 4015,
      "Подробнее": 4016,
      "праведли": 4017,
      "Ку": 4018,
      "сколько": 4019,
      "чик": 4020,
      "бом": 4021,
      "ia": 4022,
      "удов": 4023,
      " улуч": 4024,
      "вили": 4025,
      "198": 4026,
      " организаций": 4027,
      "ференции": 4028,
      "рого": 4029,
      "вались": 4030,
      "ственная": 4031,
      " ат": 4032,
      " результаты": 4033,
      "нах": 4034,
      " сообщается": 4035,
      " самым": 4036,
      "лка": 4037,
      "ственное": 4038,
      " масшта": 4039,
      " деятельность": 4040,
      " клуба": 4041,
      " Андре": 4042,
      "-службе": 4043,
      "енти": 4044,
      "Поч": 4045,
      " практи": 4046,
      " Хо": 4047,
      " принять": 4048,
      " каждо": 4049,
      " процеду": 4050,
      " O": 4051,
      "лн": 4052,
      " скан": 4053,
      "енко": 4054,
      " соц": 4055,
      "летов": 4056,
      "предели": 4057,
      "форм": 4058,
      "кер": 4059,
      " ска": 4060,
      " представителей": 4061,
      "емые": 4062,
      " депутатов": 4063,
      "-секретарь": 4064,
      "его": 4065,
      "чению": 4066,
      " подпис": 4067,
      " вам": 4068,
      " труд": 4069,
      " анали": 4070,
      " ключе": 4071,
      "Теперь": 4072,
      "Лю": 4073,
      "энер": 4074,
      " потен": 4075,
      "тации": 4076,
      " РБК": 4077,
      " продукции": 4078,
      "лина": 4079,
      "стами": 4080,
      "чит": 4081,
      "жит": 4082,
      "щать": 4083,
      " месяц": 4084,
      " условия": 4085,
      " никаких": 4086,
      "ad": 4087,
      "im": 4088,
      " запад": 4089,
      "зирован": 4090,
      "есков": 4091,
      " отношений": 4092,
      "ньше": 4093,
      "вори": 4094,
      " механи": 4095,
      "ченые": 4096,
      " рассчиты": 4097,
      " автомобилей": 4098,
      " достиг": 4099,
      " Донба": 4100,
      " аналоги": 4101,
      " уничто": 4102,
      " выигра": 4103,
      "мень": 4104,
      "пущен": 4105,
      " шан": 4106,
      " президентом": 4107,
      " готовы": 4108,
      " использовать": 4109,
      " най": 4110,
      "дает": 4111,
      " пригла": 4112,
      " марш": 4113,
      " соревнов": 4114,
      "емся": 4115,
      "анитар": 4116,
      "чиков": 4117,
      "Представи": 4118,
      " арест": 4119,
      "нского": 4120,
      "гор": 4121,
      " раньше": 4122,
      " девя": 4123,
      " Про": 4124,
      "новь": 4125,
      " семей": 4126,
      "смотрен": 4127,
      " вчера": 4128,
      "202": 4129,
      " километ": 4130,
      "спекти": 4131,
      " немец": 4132,
      " бывшего": 4133,
      " сегодняш": 4134,
      " демон": 4135,
      " недели": 4136,
      " молоде": 4137,
      " инфра": 4138,
      " свет": 4139,
      " Ген": 4140,
      " серви": 4141,
      " Сергея": 4142,
      "Среди": 4143,
      "регу": 4144,
      "анной": 4145,
      " гон": 4146,
      " доказа": 4147,
      " придется": 4148,
      " Де": 4149,
      "циях": 4150,
      " совсем": 4151,
      " позиции": 4152,
      " магази": 4153,
      "тник": 4154,
      "un": 4155,
      " напом": 4156,
      " Фе": 4157,
      " владель": 4158,
      " июня": 4159,
      " переговоров": 4160,
      " свободы": 4161,
      "pp": 4162,
      " комитет": 4163,
      " происходит": 4164,
      "жает": 4165,
      " всю": 4166,
      " полномочи": 4167,
      " U": 4168,
      " МЧС": 4169,
      "пить": 4170,
      " мигран": 4171,
      " высоко": 4172,
      "нефти": 4173,
      " Верхов": 4174,
      " найти": 4175,
      " эксперты": 4176,
      "-министр": 4177,
      "Лу": 4178,
      " демокра": 4179,
      " непри": 4180,
      " куда": 4181,
      " судь": 4182,
      " властей": 4183,
      " колле": 4184,
      "единен": 4185,
      "-про": 4186,
      "щему": 4187,
      "эн": 4188,
      "куль": 4189,
      "ондо": 4190,
      "интере": 4191,
      "ланд": 4192,
      " оно": 4193,
      " поста": 4194,
      "дирек": 4195,
      " Екатери": 4196,
      " санкции": 4197,
      "туре": 4198,
      " корпора": 4199,
      " воскресень": 4200,
      " годов": 4201,
      " фоне": 4202,
      " матча": 4203,
      " наиболее": 4204,
      "дали": 4205,
      " коммента": 4206,
      "ционные": 4207,
      " борьбе": 4208,
      "ясь": 4209,
      " оказался": 4210,
      " тонн": 4211,
      "32": 4212,
      "ot": 4213,
      "леты": 4214,
      " странах": 4215,
      " снова": 4216,
      " максима": 4217,
      " ката": 4218,
      "ook": 4219,
      " слишком": 4220,
      "РИА": 4221,
      "бри": 4222,
      " вполне": 4223,
      " тро": 4224,
      " роли": 4225,
      " декабре": 4226,
      " фотографи": 4227,
      " инфраструк": 4228,
      "лоб": 4229,
      " обстоя": 4230,
      " зрения": 4231,
      " края": 4232,
      " очевид": 4233,
      " услуг": 4234,
      "Ново": 4235,
      "кли": 4236,
      "гами": 4237,
      " господина": 4238,
      " активно": 4239,
      " покуп": 4240,
      " будем": 4241,
      " вновь": 4242,
      " дове": 4243,
      " Гре": 4244,
      " ядер": 4245,
      "Ислам": 4246,
      "гой": 4247,
      "тической": 4248,
      " Вашинг": 4249,
      " воздуш": 4250,
      " вопросам": 4251,
      " нуж": 4252,
      " написал": 4253,
      "Му": 4254,
      " меж": 4255,
      " акций": 4256,
      " автомобиль": 4257,
      " скорее": 4258,
      " директора": 4259,
      " Алексе": 4260,
      "тивный": 4261,
      " обязан": 4262,
      "циона": 4263,
      " прежде": 4264,
      "солют": 4265,
      " факту": 4266,
      " объектов": 4267,
      " свидетель": 4268,
      "дра": 4269,
      "дам": 4270,
      " тю": 4271,
      " центр": 4272,
      " десяти": 4273,
      " реализации": 4274,
      " фестива": 4275,
      "лье": 4276,
      " рекла": 4277,
      " фигу": 4278,
      " Великобритании": 4279,
      "гер": 4280,
      " свер": 4281,
      " охра": 4282,
      " сом": 4283,
      "мую": 4284,
      " рабочи": 4285,
      " Националь": 4286,
      " продажи": 4287,
      " фильма": 4288,
      " заседании": 4289,
      " мероприятия": 4290,
      " маршру": 4291,
      " зи": 4292,
      " прось": 4293,
      " автомобиля": 4294,
      " следствия": 4295,
      " машины": 4296,
      "ец": 4297,
      " вспо": 4298,
      " бой": 4299,
      " Олимпиа": 4300,
      " имеют": 4301,
      " энергети": 4302,
      "кологи": 4303,
      "мор": 4304,
      " плате": 4305,
      " широ": 4306,
      " алкого": 4307,
      "регистри": 4308,
      "сон": 4309,
      "ющую": 4310,
      "рили": 4311,
      "вич": 4312,
      " Ана": 4313,
      "37": 4314,
      "ww": 4315,
      "дро": 4316,
      " смы": 4317,
      " ори": 4318,
      "тельств": 4319,
      " жел": 4320,
      " вид": 4321,
      " информация": 4322,
      "вшихся": 4323,
      "личие": 4324,
      " Украина": 4325,
      " транс": 4326,
      " планирует": 4327,
      " опыт": 4328,
      "рыв": 4329,
      " Ста": 4330,
      " Новые": 4331,
      " окон": 4332,
      " отече": 4333,
      " Евросо": 4334,
      " национальной": 4335,
      "лад": 4336,
      "нул": 4337,
      "ждении": 4338,
      " большо": 4339,
      "Ар": 4340,
      " санкций": 4341,
      " целью": 4342,
      "зацию": 4343,
      " пришлось": 4344,
      "честве": 4345,
      " преды": 4346,
      "сматри": 4347,
      " озна": 4348,
      "росс": 4349,
      " Москва": 4350,
      " архи": 4351,
      " парламент": 4352,
      " район": 4353,
      " январе": 4354,
      " семьи": 4355,
      " разгово": 4356,
      " жест": 4357,
      " шесть": 4358,
      "оз": 4359,
      "ума": 4360,
      " приеха": 4361,
      "фикси": 4362,
      " хочет": 4363,
      " предостав": 4364,
      " задержан": 4365,
      "\"Мы": 4366,
      "кобы": 4367,
      " нарко": 4368,
      "щики": 4369,
      "Поли": 4370,
      "служа": 4371,
      " команда": 4372,
      " школы": 4373,
      " документы": 4374,
      "Суд": 4375,
      "роде": 4376,
      " отчет": 4377,
      " точки": 4378,
      " фир": 4379,
      "рания": 4380,
      "-служба": 4381,
      "-либо": 4382,
      " профессиональ": 4383,
      " попыт": 4384,
      " восто": 4385,
      " дороги": 4386,
      " юриди": 4387,
      " обнаружен": 4388,
      " воскресенье": 4389,
      "стру": 4390,
      " иска": 4391,
      " сказала": 4392,
      "36": 4393,
      " сет": 4394,
      "раи": 4395,
      "дентов": 4396,
      "строи": 4397,
      " заявления": 4398,
      " документов": 4399,
      " предыду": 4400,
      "фина": 4401,
      " Лондо": 4402,
      "ционное": 4403,
      " председателя": 4404,
      "начала": 4405,
      "com": 4406,
      "груз": 4407,
      " невозможно": 4408,
      "тка": 4409,
      " реда": 4410,
      " мор": 4411,
      " гаран": 4412,
      " планируется": 4413,
      " фильм": 4414,
      " здания": 4415,
      " фонд": 4416,
      " предусмотрен": 4417,
      "регули": 4418,
      "лами": 4419,
      " принял": 4420,
      " крити": 4421,
      " процента": 4422,
      " свобод": 4423,
      " предложения": 4424,
      "-таки": 4425,
      "москов": 4426,
      " жела": 4427,
      " развитие": 4428,
      "джи": 4429,
      " све": 4430,
      " порта": 4431,
      " Болга": 4432,
      "Всего": 4433,
      " смерти": 4434,
      "тран": 4435,
      "ьер": 4436,
      "чев": 4437,
      " вече": 4438,
      " рассказывает": 4439,
      " экономического": 4440,
      "Сов": 4441,
      "сия": 4442,
      "ременно": 4443,
      " систему": 4444,
      " c": 4445,
      "йдут": 4446,
      " дево": 4447,
      "езде": 4448,
      "-е": 4449,
      "лам": 4450,
      " самой": 4451,
      "Этот": 4452,
      " режима": 4453,
      " молоды": 4454,
      " состоится": 4455,
      "ay": 4456,
      "Су": 4457,
      "рота": 4458,
      " посо": 4459,
      " тан": 4460,
      " Амери": 4461,
      " крае": 4462,
      " оружия": 4463,
      " дети": 4464,
      "дах": 4465,
      " запа": 4466,
      " мето": 4467,
      "альной": 4468,
      " одну": 4469,
      " недоста": 4470,
      "дя": 4471,
      " сю": 4472,
      " зару": 4473,
      " Аф": 4474,
      " желез": 4475,
      " приняли": 4476,
      "Есть": 4477,
      "Пока": 4478,
      " Ди": 4479,
      " нефте": 4480,
      " заболе": 4481,
      " фору": 4482,
      " станции": 4483,
      " самый": 4484,
      " запи": 4485,
      "вии": 4486,
      " Би": 4487,
      "ющими": 4488,
      " неделе": 4489,
      " олимпий": 4490,
      " коро": 4491,
      " Вол": 4492,
      " столицы": 4493,
      " внутри": 4494,
      "чением": 4495,
      " зафикси": 4496,
      "восто": 4497,
      " Пер": 4498,
      " лидера": 4499,
      " страхов": 4500,
      " Минобороны": 4501,
      " эксперт": 4502,
      " некоторых": 4503,
      " вынужден": 4504,
      "ИК": 4505,
      " слов": 4506,
      " доме": 4507,
      " карь": 4508,
      " моби": 4509,
      " степ": 4510,
      " рядом": 4511,
      "33": 4512,
      " захва": 4513,
      "чается": 4514,
      "ческом": 4515,
      "обнов": 4516,
      " матче": 4517,
      " предложил": 4518,
      "ъек": 4519,
      " зарегистри": 4520,
      "лян": 4521,
      " выгля": 4522,
      " Ло": 4523,
      " партий": 4524,
      " автобу": 4525,
      " армии": 4526,
      " участия": 4527,
      " соответствии": 4528,
      " футболи": 4529,
      "СКА": 4530,
      " большинство": 4531,
      " активи": 4532,
      "Ле": 4533,
      " нес": 4534,
      " линии": 4535,
      " получила": 4536,
      " потреб": 4537,
      " одоб": 4538,
      " замети": 4539,
      " ДТП": 4540,
      " годах": 4541,
      " образов": 4542,
      " домаш": 4543,
      " включая": 4544,
      " сканда": 4545,
      "gh": 4546,
      " ву": 4547,
      "вин": 4548,
      " Не": 4549,
      " жители": 4550,
      "комменти": 4551,
      "бка": 4552,
      " ночь": 4553,
      " работают": 4554,
      " марте": 4555,
      " женщина": 4556,
      " площади": 4557,
      " посвящен": 4558,
      " неодно": 4559,
      " отды": 4560,
      " Олег": 4561,
      " женщин": 4562,
      " л": 4563,
      "os": 4564,
      "Вот": 4565,
      "рос": 4566,
      "довлет": 4567,
      " производство": 4568,
      " составила": 4569,
      " распоря": 4570,
      " радио": 4571,
      " поле": 4572,
      " дво": 4573,
      " нало": 4574,
      " ата": 4575,
      "чика": 4576,
      " Кер": 4577,
      " регионов": 4578,
      " законопроект": 4579,
      "book": 4580,
      "аги": 4581,
      "щер": 4582,
      "ющем": 4583,
      " оде": 4584,
      " умер": 4585,
      " поддержки": 4586,
      " рассмотр": 4587,
      "om": 4588,
      "ЭС": 4589,
      "Эти": 4590,
      "нении": 4591,
      "тек": 4592,
      "чена": 4593,
      " нефтя": 4594,
      " первые": 4595,
      " отмечается": 4596,
      " прокуро": 4597,
      " космо": 4598,
      " прокомменти": 4599,
      " вызыва": 4600,
      " Петербур": 4601,
      " лицен": 4602,
      " необходимости": 4603,
      " распростран": 4604,
      "клон": 4605,
      "цем": 4606,
      " кого": 4607,
      " якобы": 4608,
      " боевиков": 4609,
      " кад": 4610,
      " подраз": 4611,
      " рассказала": 4612,
      " возглавля": 4613,
      " остан": 4614,
      " реак": 4615,
      "сами": 4616,
      "роваться": 4617,
      " результат": 4618,
      " основе": 4619,
      "-премь": 4620,
      "ters": 4621,
      "питали": 4622,
      " сильно": 4623,
      " психо": 4624,
      " минимум": 4625,
      " плана": 4626,
      " выдви": 4627,
      "ствовали": 4628,
      " позволит": 4629,
      " конфликта": 4630,
      "лень": 4631,
      "мым": 4632,
      "щал": 4633,
      " перспекти": 4634,
      "годно": 4635,
      " взгля": 4636,
      " отмечают": 4637,
      " легко": 4638,
      " привлека": 4639,
      " исследования": 4640,
      "acebook": 4641,
      " K": 4642,
      "льской": 4643,
      " мере": 4644,
      " мета": 4645,
      "кура": 4646,
      " мед": 4647,
      " лица": 4648,
      " начал": 4649,
      " решили": 4650,
      " Евгений": 4651,
      " довольно": 4652,
      "-кон": 4653,
      " ликви": 4654,
      " друг": 4655,
      " Пари": 4656,
      " метров": 4657,
      " расследования": 4658,
      "спи": 4659,
      " Песков": 4660,
      " рассказали": 4661,
      " военнослужа": 4662,
      " вокруг": 4663,
      "дца": 4664,
      " награ": 4665,
      " микро": 4666,
      "ствовал": 4667,
      "Моск": 4668,
      " транспорта": 4669,
      " ближайшее": 4670,
      " уви": 4671,
      " коле": 4672,
      " тай": 4673,
      "тым": 4674,
      " знако": 4675,
      "Отмеча": 4676,
      " социальной": 4677,
      " регуляр": 4678,
      " Рио": 4679,
      "циями": 4680,
      " Май": 4681,
      " значит": 4682,
      " ответственности": 4683,
      " субботу": 4684,
      "34": 4685,
      "Авто": 4686,
      " уво": 4687,
      " содерж": 4688,
      " Арави": 4689,
      " коммер": 4690,
      " хок": 4691,
      " составил": 4692,
      " Джон": 4693,
      " столице": 4694,
      "Бе": 4695,
      "Нес": 4696,
      "лить": 4697,
      " равно": 4698,
      "сторон": 4699,
      "печат": 4700,
      " стади": 4701,
      " Лени": 4702,
      "ставили": 4703,
      " встрече": 4704,
      " игры": 4705,
      " погибших": 4706,
      "мия": 4707,
      " доб": 4708,
      " тек": 4709,
      " предъ": 4710,
      "ленной": 4711,
      "Чтобы": 4712,
      " взаимодей": 4713,
      " Источник": 4714,
      " Оль": 4715,
      " пути": 4716,
      " оказались": 4717,
      " курс": 4718,
      "декс": 4719,
      "страи": 4720,
      " основном": 4721,
      " защиты": 4722,
      " неделю": 4723,
      "вров": 4724,
      "рост": 4725,
      " возобнов": 4726,
      "ющихся": 4727,
      "илла": 4728,
      " эффектив": 4729,
      " сцена": 4730,
      "кор": 4731,
      "волю": 4732,
      "ссер": 4733,
      " общей": 4734,
      " лекар": 4735,
      " Киев": 4736,
      " соглашение": 4737,
      " факт": 4738,
      " циф": 4739,
      "Более": 4740,
      " абсолют": 4741,
      " связа": 4742,
      " вступи": 4743,
      " сайт": 4744,
      "Именно": 4745,
      "тным": 4746,
      "дами": 4747,
      " эле": 4748,
      " Рос": 4749,
      " знамени": 4750,
      " соблю": 4751,
      "Там": 4752,
      " создать": 4753,
      " контроли": 4754,
      " прямо": 4755,
      "\").\n": 4756,
      "-на": 4757,
      " профи": 4758,
      " Ав": 4759,
      " разру": 4760,
      "щает": 4761,
      " феврале": 4762,
      " середи": 4763,
      " союз": 4764,
      " любой": 4765,
      " театра": 4766,
      " пообе": 4767,
      " напря": 4768,
      "тает": 4769,
      "кина": 4770,
      " гости": 4771,
      " допусти": 4772,
      "ходить": 4773,
      " обвинения": 4774,
      "Извести": 4775,
      " клуб": 4776,
      " пассажиров": 4777,
      " мировой": 4778,
      "Бу": 4779,
      "зей": 4780,
      "тная": 4781,
      " наш": 4782,
      "битра": 4783,
      "деть": 4784,
      " путе": 4785,
      " сделал": 4786,
      " Facebook": 4787,
      " сне": 4788,
      "респон": 4789,
      "мость": 4790,
      " причаст": 4791,
      " самое": 4792,
      " стандар": 4793,
      " сократи": 4794,
      "чью": 4795,
      "года": 4796,
      " воды": 4797,
      " Поль": 4798,
      "Кра": 4799,
      "жений": 4800,
      " выбра": 4801,
      " Москву": 4802,
      " инициати": 4803,
      " осуществля": 4804,
      " сожа": 4805,
      " обнов": 4806,
      " присо": 4807,
      " След": 4808,
      "дор": 4809,
      " говорил": 4810,
      " департамента": 4811,
      "Один": 4812,
      "строва": 4813,
      " потер": 4814,
      "анта": 4815,
      "ментов": 4816,
      "движи": 4817,
      "лота": 4818,
      " обстре": 4819,
      " Гри": 4820,
      " паци": 4821,
      " соверши": 4822,
      " авиаком": 4823,
      " возбуждено": 4824,
      " СКР": 4825,
      " дли": 4826,
      "жал": 4827,
      "ждений": 4828,
      " режим": 4829,
      "жением": 4830,
      " размер": 4831,
      "способ": 4832,
      " хотят": 4833,
      " победи": 4834,
      " публика": 4835,
      " учетом": 4836,
      " определи": 4837,
      "кипа": 4838,
      " усили": 4839,
      " топли": 4840,
      " Пе": 4841,
      " снижение": 4842,
      " призвал": 4843,
      " спаса": 4844,
      "жнему": 4845,
      "мана": 4846,
      " порт": 4847,
      " заве": 4848,
      " заинтере": 4849,
      "ровер": 4850,
      "мотря": 4851,
      "чек": 4852,
      " уголовного": 4853,
      "брь": 4854,
      " Брю": 4855,
      " которому": 4856,
      "\"),": 4857,
      "ФА": 4858,
      " прием": 4859,
      "мати": 4860,
      "купа": 4861,
      "пел": 4862,
      " Ге": 4863,
      " метро": 4864,
      " спортсменов": 4865,
      "нется": 4866,
      " недвижи": 4867,
      "скор": 4868,
      " той": 4869,
      " конструк": 4870,
      " международных": 4871,
      "Отмечается": 4872,
      "Жи": 4873,
      "обо": 4874,
      " мер": 4875,
      " отли": 4876,
      " Кри": 4877,
      "жали": 4878,
      " Пи": 4879,
      " сове": 4880,
      "197": 4881,
      " беспо": 4882,
      " протя": 4883,
      " эпи": 4884,
      "нули": 4885,
      "ленного": 4886,
      " своими": 4887,
      " участники": 4888,
      " испыт": 4889,
      " постоянно": 4890,
      " Японии": 4891,
      "пру": 4892,
      " сконча": 4893,
      " превра": 4894,
      " такая": 4895,
      " сообщения": 4896,
      " ними": 4897,
      " Крым": 4898,
      " культур": 4899,
      "мей": 4900,
      "нера": 4901,
      "поль": 4902,
      " гро": 4903,
      "рованных": 4904,
      " сторону": 4905,
      " цер": 4906,
      " журналистов": 4907,
      " руководство": 4908,
      " ответственность": 4909,
      "ur": 4910,
      "КО": 4911,
      " напомина": 4912,
      " Бар": 4913,
      "ставил": 4914,
      "ждать": 4915,
      " темпера": 4916,
      " чуть": 4917,
      " кандидатов": 4918,
      " Y": 4919,
      " поло": 4920,
      " Кали": 4921,
      "тического": 4922,
      " голосования": 4923,
      " концер": 4924,
      " эфи": 4925,
      "пон": 4926,
      " верто": 4927,
      " проектов": 4928,
      " смогли": 4929,
      " область": 4930,
      "тни": 4931,
      "енса": 4932,
      " утра": 4933,
      "альных": 4934,
      " Те": 4935,
      " сентябре": 4936,
      " федерального": 4937,
      " аналити": 4938,
      " соцс": 4939,
      "Мне": 4940,
      "луа": 4941,
      "150": 4942,
      " совершенно": 4943,
      " правоохранительных": 4944,
      " баррель": 4945,
      " беженцев": 4946,
      "ДД": 4947,
      "кнов": 4948,
      "стям": 4949,
      "мат": 4950,
      " бума": 4951,
      "дний": 4952,
      " российским": 4953,
      "194": 4954,
      "ложения": 4955,
      " техники": 4956,
      " Юрий": 4957,
      " экстре": 4958,
      " договорен": 4959,
      "-де": 4960,
      "Вер": 4961,
      "Коне": 4962,
      " болез": 4963,
      " перевоз": 4964,
      " друга": 4965,
      " победу": 4966,
      " потребова": 4967,
      "кло": 4968,
      "тона": 4969,
      " поезд": 4970,
      " Макси": 4971,
      "фициаль": 4972,
      " Нью": 4973,
      " отметили": 4974,
      " Коми": 4975,
      " официальный": 4976,
      " вместо": 4977,
      " ноябре": 4978,
      " музыка": 4979,
      ".com": 4980,
      "Ста": 4981,
      " каких": 4982,
      "спорт": 4983,
      " Ис": 4984,
      " страх": 4985,
      "кануне": 4986,
      " гум": 4987,
      " Констан": 4988,
      "вов": 4989,
      " сде": 4990,
      " накануне": 4991,
      " агре": 4992,
      "пит": 4993,
      " ФСБ": 4994,
      "Несмотря": 4995,
      "емь": 4996,
      "эй": 4997,
      "март": 4998,
      " кредитов": 4999,
      " раскры": 5000,
      " приходится": 5001,
      "38": 5002,
      " органы": 5003,
      " Совет": 5004,
      " позволяет": 5005,
      "НД": 5006,
      " гол": 5007,
      " точно": 5008,
      "ub": 5009,
      "тельству": 5010,
      " Гу": 5011,
      " Итали": 5012,
      " Егип": 5013,
      " октябре": 5014,
      " Саудов": 5015,
      "вшегося": 5016,
      " Госдуму": 5017,
      " распростра": 5018,
      "Ла": 5019,
      "роне": 5020,
      " ущер": 5021,
      " машин": 5022,
      " Олимпий": 5023,
      " встрети": 5024,
      " создание": 5025,
      "Между": 5026,
      " Николай": 5027,
      " различных": 5028,
      " худож": 5029,
      "up": 5030,
      " винов": 5031,
      "мира": 5032,
      " водитель": 5033,
      "ходе": 5034,
      "овое": 5035,
      "паса": 5036,
      " подня": 5037,
      " комменти": 5038,
      "щаться": 5039,
      " полиция": 5040,
      " дис": 5041,
      " самые": 5042,
      " депутаты": 5043,
      " становится": 5044,
      "зн": 5045,
      "стаи": 5046,
      " делега": 5047,
      " Мир": 5048,
      " граждани": 5049,
      " должность": 5050,
      " издание": 5051,
      " Обще": 5052,
      "имуще": 5053,
      " пожар": 5054,
      "лец": 5055,
      "лод": 5056,
      "мур": 5057,
      "циям": 5058,
      " J": 5059,
      "зву": 5060,
      "чков": 5061,
      "нам": 5062,
      " проходит": 5063,
      " достав": 5064,
      "едь": 5065,
      " борьбы": 5066,
      "ешь": 5067,
      " оконча": 5068,
      " бю": 5069,
      " системе": 5070,
      "-прежнему": 5071,
      "Их": 5072,
      "стить": 5073,
      " Ростов": 5074,
      " страну": 5075,
      " военные": 5076,
      "вшийся": 5077,
      " приостанов": 5078,
      "55": 5079,
      "сного": 5080,
      " твор": 5081,
      " зву": 5082,
      " люд": 5083,
      " провели": 5084,
      " Вале": 5085,
      " финансов": 5086,
      " проверки": 5087,
      "euters": 5088,
      " акаде": 5089,
      " море": 5090,
      " фрак": 5091,
      "говой": 5092,
      " плохо": 5093,
      " решил": 5094,
      " шести": 5095,
      "ac": 5096,
      " сложи": 5097,
      "кому": 5098,
      " простран": 5099,
      "ровой": 5100,
      " отда": 5101,
      "тельном": 5102,
      "мули": 5103,
      "-летнего": 5104,
      " матч": 5105,
      " Й": 5106,
      " удовлет": 5107,
      "Помимо": 5108,
      " персона": 5109,
      " бал": 5110,
      " крупных": 5111,
      " рекорд": 5112,
      "хранения": 5113,
      "голо": 5114,
      " брен": 5115,
      "рье": 5116,
      "Сооб": 5117,
      " сколько": 5118,
      " апреле": 5119,
      " продолжает": 5120,
      "ссоциации": 5121,
      " урегули": 5122,
      " докла": 5123,
      " выска": 5124,
      "менте": 5125,
      " подряд": 5126,
      "споль": 5127,
      " представителя": 5128,
      " Китая": 5129,
      " женщины": 5130,
      " заплани": 5131,
      "лий": 5132,
      " злоу": 5133,
      " сутки": 5134,
      " ЦСКА": 5135,
      " опти": 5136,
      "400": 5137,
      "щению": 5138,
      " визи": 5139,
      " история": 5140,
      "зовать": 5141,
      " Государ": 5142,
      " задол": 5143,
      "образ": 5144,
      "менить": 5145,
      " думаю": 5146,
      " ауди": 5147,
      "-а": 5148,
      "tion": 5149,
      "нику": 5150,
      " могу": 5151,
      "196": 5152,
      "ложение": 5153,
      " отметила": 5154,
      " военного": 5155,
      " дальше": 5156,
      " родствен": 5157,
      "Конечно": 5158,
      " дни": 5159,
      " нега": 5160,
      " види": 5161,
      " рассказыва": 5162,
      " контроль": 5163,
      "Вести": 5164,
      " официально": 5165,
      "Прав": 5166,
      "кри": 5167,
      " пак": 5168,
      " домов": 5169,
      "щик": 5170,
      "анам": 5171,
      "правки": 5172,
      " втором": 5173,
      " последнее": 5174,
      " события": 5175,
      "ews": 5176,
      " вечером": 5177,
      ")\n": 5178,
      "44": 5179,
      "Сер": 5180,
      "хан": 5181,
      "анией": 5182,
      "ствием": 5183,
      " Кие": 5184,
      " признал": 5185,
      " договори": 5186,
      " регули": 5187,
      " Медведев": 5188,
      "Экспер": 5189,
      "-д": 5190,
      "of": 5191,
      "Алекс": 5192,
      "гани": 5193,
      "стры": 5194,
      "няют": 5195,
      " Пути": 5196,
      " сезона": 5197,
      "едини": 5198,
      " зай": 5199,
      " яв": 5200,
      " века": 5201,
      "Само": 5202,
      "вшиеся": 5203,
      " грузов": 5204,
      " руководителя": 5205,
      "лайн": 5206,
      "лдин": 5207,
      " показ": 5208,
      " Ре": 5209,
      "кратно": 5210,
      " музе": 5211,
      " App": 5212,
      " Пав": 5213,
      " Reuters": 5214,
      " обеспечи": 5215,
      " Московской": 5216,
      " недавно": 5217,
      "-си": 5218,
      "Мин": 5219,
      " вд": 5220,
      " кораб": 5221,
      " расходы": 5222,
      "иллари": 5223,
      "ov": 5224,
      "Прави": 5225,
      "плуа": 5226,
      " учиты": 5227,
      " фрон": 5228,
      " республикан": 5229,
      " регионах": 5230,
      " реша": 5231,
      " главного": 5232,
      " происшествия": 5233,
      " цвет": 5234,
      " причиной": 5235,
      " расследование": 5236,
      " учеб": 5237,
      " губернатора": 5238,
      " симво": 5239,
      "Москва": 5240,
      " i": 5241,
      "Вме": 5242,
      " нашли": 5243,
      "зий": 5244,
      " пересе": 5245,
      " главе": 5246,
      "ведение": 5247,
      " общества": 5248,
      " Белору": 5249,
      " кампании": 5250,
      "\"С": 5251,
      "75": 5252,
      "КС": 5253,
      " уро": 5254,
      " причина": 5255,
      " преимуще": 5256,
      " Аль": 5257,
      " патри": 5258,
      " самостоя": 5259,
      " Европей": 5260,
      " подтвердил": 5261,
      "Первый": 5262,
      " беспла": 5263,
      "жению": 5264,
      " сда": 5265,
      " устро": 5266,
      " непро": 5267,
      " содержа": 5268,
      "против": 5269,
      "ченные": 5270,
      " основа": 5271,
      " всему": 5272,
      "услов": 5273,
      "зербай": 5274,
      " нашего": 5275,
      "ссы": 5276,
      " кроме": 5277,
      " боле": 5278,
      " террористов": 5279,
      " косми": 5280,
      "-А": 5281,
      " поступа": 5282,
      " референ": 5283,
      " регистра": 5284,
      " политике": 5285,
      " труда": 5286,
      "АН": 5287,
      "тории": 5288,
      " раст": 5289,
      " момента": 5290,
      " делам": 5291,
      " банки": 5292,
      " предусматри": 5293,
      "-о": 5294,
      "Пар": 5295,
      "сред": 5296,
      " остров": 5297,
      "декса": 5298,
      " обслужи": 5299,
      "гина": 5300,
      " Пре": 5301,
      " ОП": 5302,
      " другими": 5303,
      " команду": 5304,
      " издания": 5305,
      "Дру": 5306,
      "ТБ": 5307,
      "яр": 5308,
      "ваем": 5309,
      " экипа": 5310,
      "еремо": 5311,
      "онец": 5312,
      " иметь": 5313,
      " экспе": 5314,
      " резер": 5315,
      " кризиса": 5316,
      " дерев": 5317,
      " бен": 5318,
      "рована": 5319,
      " рели": 5320,
      " Гор": 5321,
      " акци": 5322,
      " военной": 5323,
      " провел": 5324,
      " первым": 5325,
      " программу": 5326,
      " существует": 5327,
      " шах": 5328,
      "Министр": 5329,
      "Власти": 5330,
      "Вчера": 5331,
      " посмо": 5332,
      " Нов": 5333,
      " сотрудничества": 5334,
      " заседания": 5335,
      " добычи": 5336,
      "Зени": 5337,
      "Ло": 5338,
      "коном": 5339,
      " мно": 5340,
      " первых": 5341,
      " сена": 5342,
      " тренер": 5343,
      "DA": 5344,
      " ощу": 5345,
      "зай": 5346,
      " отре": 5347,
      "чительно": 5348,
      "ссию": 5349,
      " мошен": 5350,
      " помочь": 5351,
      " экспертов": 5352,
      " предложение": 5353,
      "барди": 5354,
      "Правда": 5355,
      "Спе": 5356,
      "лл": 5357,
      " сохра": 5358,
      " тол": 5359,
      "писы": 5360,
      " вести": 5361,
      " провин": 5362,
      " Кара": 5363,
      " местных": 5364,
      " управление": 5365,
      " Виктор": 5366,
      "овер": 5367,
      "ваку": 5368,
      "рованию": 5369,
      " выру": 5370,
      "сила": 5371,
      " партия": 5372,
      " американских": 5373,
      " регионального": 5374,
      " характер": 5375,
      " группировки": 5376,
      " комплекса": 5377,
      "тим": 5378,
      " прошед": 5379,
      "тических": 5380,
      " государственной": 5381,
      " войск": 5382,
      " Сочи": 5383,
      " задержали": 5384,
      "-Й": 5385,
      "Эта": 5386,
      "нений": 5387,
      "фин": 5388,
      " введен": 5389,
      " коали": 5390,
      "тельности": 5391,
      "ственную": 5392,
      " провод": 5393,
      "ждает": 5394,
      " жало": 5395,
      " выразил": 5396,
      "ght": 5397,
      "ber": 5398,
      " бога": 5399,
      "бил": 5400,
      "акан": 5401,
      " служба": 5402,
      " гуманитар": 5403,
      "Евро": 5404,
      "чений": 5405,
      "ъем": 5406,
      " уг": 5407,
      " меч": 5408,
      " старт": 5409,
      " яр": 5410,
      "новременно": 5411,
      " летом": 5412,
      "ковой": 5413,
      " здраво": 5414,
      " попыта": 5415,
      " нан": 5416,
      " затра": 5417,
      " модели": 5418,
      "зировать": 5419,
      " государств": 5420,
      " адрес": 5421,
      " предприятий": 5422,
      " аэропорта": 5423,
      " Болгарии": 5424,
      "Ту": 5425,
      "рай": 5426,
      " пото": 5427,
      " изобра": 5428,
      " подвер": 5429,
      "лым": 5430,
      " Ши": 5431,
      "ложить": 5432,
      "ритет": 5433,
      " должности": 5434,
      " гибе": 5435,
      " сезон": 5436,
      " катастро": 5437,
      "сна": 5438,
      "таря": 5439,
      " гре": 5440,
      " избе": 5441,
      " рождения": 5442,
      " принимать": 5443,
      " террористической": 5444,
      " обнаружили": 5445,
      "льными": 5446,
      " круг": 5447,
      "овал": 5448,
      " лично": 5449,
      " сообще": 5450,
      " бир": 5451,
      " новую": 5452,
      "рение": 5453,
      "чности": 5454,
      "поте": 5455,
      "ческими": 5456,
      " ресто": 5457,
      "шенных": 5458,
      " групп": 5459,
      "рового": 5460,
      " программа": 5461,
      " создания": 5462,
      " огня": 5463,
      "Газпром": 5464,
      "фикации": 5465,
      " трени": 5466,
      " найден": 5467,
      "зербайдж": 5468,
      " смарт": 5469,
      "чики": 5470,
      " Лю": 5471,
      " взят": 5472,
      " структуры": 5473,
      "доволь": 5474,
      "-Йор": 5475,
      "Уже": 5476,
      "ктора": 5477,
      "рица": 5478,
      " умень": 5479,
      "овать": 5480,
      " Кур": 5481,
      "люс": 5482,
      " стаби": 5483,
      " Кита": 5484,
      " университета": 5485,
      " настро": 5486,
      "жеб": 5487,
      "тельстве": 5488,
      " чаще": 5489,
      " Под": 5490,
      " эксплуа": 5491,
      "Сот": 5492,
      " боро": 5493,
      "ально": 5494,
      "стане": 5495,
      " прошли": 5496,
      " десять": 5497,
      "Хотя": 5498,
      " министерства": 5499,
      " отставку": 5500,
      " Эрдо": 5501,
      "49": 5502,
      "id": 5503,
      "Основ": 5504,
      " понять": 5505,
      " привы": 5506,
      "ального": 5507,
      " сообщал": 5508,
      " ближайшие": 5509,
      "АР": 5510,
      " утром": 5511,
      " обмен": 5512,
      " Мак": 5513,
      " Российская": 5514,
      " сх": 5515,
      " снима": 5516,
      "вами": 5517,
      "рудни": 5518,
      " выбор": 5519,
      " модель": 5520,
      " ГУ": 5521,
      " компенса": 5522,
      "000": 5523,
      "ногие": 5524,
      " товаров": 5525,
      " принадлежа": 5526,
      " экстреми": 5527,
      "Фи": 5528,
      " сна": 5529,
      "тал": 5530,
      "тисти": 5531,
      "дила": 5532,
      " ред": 5533,
      " историю": 5534,
      " состояние": 5535,
      " кажется": 5536,
      " будущем": 5537,
      " гендирек": 5538,
      " Apple": 5539,
      " доход": 5540,
      " дать": 5541,
      " журналистам": 5542,
      "Почему": 5543,
      "Ад": 5544,
      "НИ": 5545,
      "яче": 5546,
      "риев": 5547,
      " мнение": 5548,
      " укреп": 5549,
      " общего": 5550,
      "мого": 5551,
      "чин": 5552,
      "выше": 5553,
      " числа": 5554,
      " марки": 5555,
      " статье": 5556,
      " масштаб": 5557,
      " Италии": 5558,
      "вало": 5559,
      " замо": 5560,
      " сопрово": 5561,
      " выпуска": 5562,
      " жили": 5563,
      " корреспон": 5564,
      " оказалось": 5565,
      " мигрантов": 5566,
      "НДР": 5567,
      "Чи": 5568,
      "стоит": 5569,
      "гия": 5570,
      " тариф": 5571,
      " июле": 5572,
      "Сам": 5573,
      " осужден": 5574,
      " августе": 5575,
      " сче": 5576,
      " италья": 5577,
      " запро": 5578,
      "ссу": 5579,
      " среднем": 5580,
      " территорию": 5581,
      "раздо": 5582,
      " условий": 5583,
      " Крыму": 5584,
      " спецслуж": 5585,
      " Обама": 5586,
      "Единой": 5587,
      " здравоо": 5588,
      " экологи": 5589,
      " эваку": 5590,
      " подроб": 5591,
      "екре": 5592,
      " малень": 5593,
      " назв": 5594,
      " последних": 5595,
      " субъек": 5596,
      " энерго": 5597,
      "тков": 5598,
      " прошел": 5599,
      " Сан": 5600,
      "син": 5601,
      "сибир": 5602,
      " компью": 5603,
      " Китай": 5604,
      " войска": 5605,
      " Куз": 5606,
      " последний": 5607,
      " отказался": 5608,
      "Ведь": 5609,
      " появля": 5610,
      "май": 5611,
      " борту": 5612,
      " зво": 5613,
      " вопросов": 5614,
      " крайне": 5615,
      " Республики": 5616,
      "ровании": 5617,
      "гать": 5618,
      " повед": 5619,
      " Дмитрия": 5620,
      " появилась": 5621,
      " значительно": 5622,
      " специалисты": 5623,
      "ut": 5624,
      "тое": 5625,
      " причем": 5626,
      " вось": 5627,
      "жидан": 5628,
      "гий": 5629,
      "лыша": 5630,
      " хва": 5631,
      " движение": 5632,
      "ail": 5633,
      " чрез": 5634,
      " развед": 5635,
      " мин": 5636,
      " розы": 5637,
      " расходов": 5638,
      " совещ": 5639,
      "wit": 5640,
      "тников": 5641,
      " отдела": 5642,
      " Анка": 5643,
      "and": 5644,
      "стойчи": 5645,
      " отделения": 5646,
      "шкин": 5647,
      "лил": 5648,
      " укра": 5649,
      " прогре": 5650,
      " доля": 5651,
      " житель": 5652,
      " любо": 5653,
      " объедин": 5654,
      " программе": 5655,
      " ставки": 5656,
      "нефть": 5657,
      " вариант": 5658,
      "ul": 5659,
      "Влади": 5660,
      "эт": 5661,
      "циони": 5662,
      " подс": 5663,
      " мае": 5664,
      " Донец": 5665,
      "терна": 5666,
      " экономической": 5667,
      " развитию": 5668,
      "48": 5669,
      "ент": 5670,
      " появ": 5671,
      " изъ": 5672,
      "ственном": 5673,
      " Наде": 5674,
      " повер": 5675,
      " Васи": 5676,
      " восемь": 5677,
      " произошед": 5678,
      " контроля": 5679,
      " Лавров": 5680,
      " базе": 5681,
      " t": 5682,
      "Ав": 5683,
      "лке": 5684,
      "лав": 5685,
      " преми": 5686,
      " Казах": 5687,
      " намерен": 5688,
      " ВВП": 5689,
      "39": 5690,
      "гни": 5691,
      " поро": 5692,
      "тельными": 5693,
      " систем": 5694,
      " повре": 5695,
      " активов": 5696,
      " позицию": 5697,
      " предлагает": 5698,
      " инциден": 5699,
      " неоднократно": 5700,
      "АЗ": 5701,
      " ого": 5702,
      " замет": 5703,
      " порядке": 5704,
      " палаты": 5705,
      " собеседник": 5706,
      "46": 5707,
      "47": 5708,
      "хар": 5709,
      " кв": 5710,
      " гораздо": 5711,
      " доходов": 5712,
      "пок": 5713,
      " Бан": 5714,
      " Хиллари": 5715,
      " смог": 5716,
      " направления": 5717,
      "Ак": 5718,
      "змом": 5719,
      "оло": 5720,
      "стях": 5721,
      " избран": 5722,
      "ционно": 5723,
      " цели": 5724,
      " Мурманск": 5725,
      " торговли": 5726,
      " оконч": 5727,
      "Спарта": 5728,
      "зни": 5729,
      " проголо": 5730,
      "ляет": 5731,
      " Дени": 5732,
      "бера": 5733,
      " полно": 5734,
      " стоимости": 5735,
      "Русс": 5736,
      " объявил": 5737,
      " ими": 5738,
      " отказ": 5739,
      " инстру": 5740,
      " возника": 5741,
      "ченный": 5742,
      " серии": 5743,
      " двумя": 5744,
      " автомобили": 5745,
      " оказалась": 5746,
      " телефон": 5747,
      "Газета": 5748,
      " взрыва": 5749,
      " возглави": 5750,
      "щений": 5751,
      " употреб": 5752,
      "кун": 5753,
      " мой": 5754,
      "бина": 5755,
      "станции": 5756,
      "степ": 5757,
      " имя": 5758,
      " победы": 5759,
      " ряда": 5760,
      "СА": 5761,
      "пят": 5762,
      "эта": 5763,
      " маль": 5764,
      " первое": 5765,
      " учреждения": 5766,
      " /": 5767,
      "42": 5768,
      "Здесь": 5769,
      "лово": 5770,
      "кали": 5771,
      " глоб": 5772,
      "льному": 5773,
      " печа": 5774,
      " отрасли": 5775,
      " оппозиции": 5776,
      " весьма": 5777,
      " посоль": 5778,
      " сожалению": 5779,
      "сный": 5780,
      "худ": 5781,
      "тием": 5782,
      "мини": 5783,
      "чают": 5784,
      " разные": 5785,
      "следов": 5786,
      " дает": 5787,
      " пит": 5788,
      "one": 5789,
      " арбитра": 5790,
      " интерн": 5791,
      " предоставля": 5792,
      " миллиардов": 5793,
      " аэропорту": 5794,
      " вариан": 5795,
      "фы": 5796,
      "дации": 5797,
      " зоне": 5798,
      " фактически": 5799,
      " чемпион": 5800,
      " эксперти": 5801,
      " исследова": 5802,
      " внутренних": 5803,
      " квартале": 5804,
      " середине": 5805,
      "-по": 5806,
      "стин": 5807,
      " Сева": 5808,
      " спокой": 5809,
      " другим": 5810,
      " семья": 5811,
      " закончи": 5812,
      " стрель": 5813,
      " Иванов": 5814,
      " множе": 5815,
      "ТАСС": 5816,
      " свыше": 5817,
      " ува": 5818,
      " устанавли": 5819,
      " водо": 5820,
      " Свет": 5821,
      " деше": 5822,
      " Вы": 5823,
      " статисти": 5824,
      " полуо": 5825,
      "близи": 5826,
      " организов": 5827,
      " обеспечить": 5828,
      " сумма": 5829,
      " немного": 5830,
      "Без": 5831,
      "дят": 5832,
      "дают": 5833,
      " пережи": 5834,
      " правило": 5835,
      " основной": 5836,
      " очередной": 5837,
      " источники": 5838,
      " подчерки": 5839,
      " пострадали": 5840,
      " прибыли": 5841,
      " собирается": 5842,
      " каждого": 5843,
      "65": 5844,
      "чность": 5845,
      " вру": 5846,
      " днем": 5847,
      " наме": 5848,
      " союза": 5849,
      "выбор": 5850,
      " американского": 5851,
      " прокуратуры": 5852,
      " подразде": 5853,
      " людям": 5854,
      "Американ": 5855,
      "щают": 5856,
      " большая": 5857,
      " спекта": 5858,
      " отметить": 5859,
      " услуги": 5860,
      " здоровья": 5861,
      " клиентов": 5862,
      "Ее": 5863,
      " набра": 5864,
      " госс": 5865,
      " разде": 5866,
      "альные": 5867,
      " государственного": 5868,
      "глий": 5869,
      " церемо": 5870,
      " напомнил": 5871,
      "одо": 5872,
      " рав": 5873,
      " отрица": 5874,
      " выполни": 5875,
      "тельность": 5876,
      "щика": 5877,
      " разбира": 5878,
      " супру": 5879,
      " жить": 5880,
      " школь": 5881,
      " кризис": 5882,
      " Киеве": 5883,
      "ГУ": 5884,
      "ай": 5885,
      "теры": 5886,
      " пресе": 5887,
      "шек": 5888,
      " живу": 5889,
      " документ": 5890,
      "бург": 5891,
      " контрак": 5892,
      "литика": 5893,
      "-ре": 5894,
      " оформ": 5895,
      "ань": 5896,
      " призыва": 5897,
      " сигна": 5898,
      " начать": 5899,
      " требова": 5900,
      " проекты": 5901,
      " контракт": 5902,
      " протяжении": 5903,
      "\"Я": 5904,
      "гова": 5905,
      "жным": 5906,
      " члена": 5907,
      " вынес": 5908,
      "ведом": 5909,
      "кур": 5910,
      " работал": 5911,
      " владе": 5912,
      " директоров": 5913,
      "зора": 5914,
      " боевых": 5915,
      " новое": 5916,
      "Даже": 5917,
      "Рабо": 5918,
      " игру": 5919,
      " задача": 5920,
      " Чеч": 5921,
      " степени": 5922,
      " задолжен": 5923,
      "втра": 5924,
      "лига": 5925,
      " динами": 5926,
      " использования": 5927,
      " местные": 5928,
      " поддержке": 5929,
      " политической": 5930,
      " чемпионате": 5931,
      " пункта": 5932,
      " допинг": 5933,
      "Сотрудни": 5934,
      "witter": 5935,
      "юн": 5936,
      "кут": 5937,
      "жают": 5938,
      "ремя": 5939,
      " главное": 5940,
      " политика": 5941,
      " соответственно": 5942,
      " относительно": 5943,
      " Андрея": 5944,
      " тюрь": 5945,
      "\"На": 5946,
      "Многие": 5947,
      "Цен": 5948,
      " навер": 5949,
      "таль": 5950,
      " вышел": 5951,
      "мера": 5952,
      " руки": 5953,
      " Елена": 5954,
      " Фи": 5955,
      " диск": 5956,
      " путем": 5957,
      " Чу": 5958,
      " Мат": 5959,
      " Коре": 5960,
      " социальных": 5961,
      " проведение": 5962,
      " прибыль": 5963,
      " сложности": 5964,
      " начальник": 5965,
      " Алексея": 5966,
      " Максим": 5967,
      " нанес": 5968,
      "жная": 5969,
      " вете": 5970,
      "понен": 5971,
      " Сбер": 5972,
      "шев": 5973,
      " режиме": 5974,
      " обеспечения": 5975,
      " называют": 5976,
      "Путин": 5977,
      " льго": 5978,
      "ОК": 5979,
      "дания": 5980,
      "нина": 5981,
      "бок": 5982,
      "пись": 5983,
      " Пар": 5984,
      " международной": 5985,
      "Госпо": 5986,
      " Всемир": 5987,
      " Брюссе": 5988,
      "\"По": 5989,
      " сбо": 5990,
      "ершен": 5991,
      " ранен": 5992,
      " оби": 5993,
      "гин": 5994,
      "бий": 5995,
      " номер": 5996,
      " Иль": 5997,
      " экономике": 5998,
      " программ": 5999,
      " второго": 6000,
      " обычно": 6001,
      " требует": 6002,
      "-с": 6003,
      "Ско": 6004,
      " вет": 6005,
      " похи": 6006,
      " Вяче": 6007,
      " имущества": 6008,
      "швили": 6009,
      "наче": 6010,
      " удар": 6011,
      "валась": 6012,
      "ровка": 6013,
      "скоре": 6014,
      " выяв": 6015,
      " КНДР": 6016,
      "195": 6017,
      "Причем": 6018,
      " заниматься": 6019,
      " инвестиций": 6020,
      "Исламское": 6021,
      " Севасто": 6022,
      "gle": 6023,
      "чке": 6024,
      "нодоро": 6025,
      " онлайн": 6026,
      " Павел": 6027,
      " странами": 6028,
      " телеканал": 6029,
      " адвокат": 6030,
      " промышленности": 6031,
      " Донбассе": 6032,
      "ИБ": 6033,
      " сначала": 6034,
      "анного": 6035,
      "нау": 6036,
      " удоб": 6037,
      " привати": 6038,
      "хом": 6039,
      " странице": 6040,
      " украинских": 6041,
      " продви": 6042,
      " эфире": 6043,
      "без": 6044,
      " смен": 6045,
      " забы": 6046,
      "рядок": 6047,
      "бить": 6048,
      " предмет": 6049,
      " далеко": 6050,
      " американской": 6051,
      " составит": 6052,
      " едино": 6053,
      " регуля": 6054,
      " неожидан": 6055,
      "ks": 6056,
      "ПК": 6057,
      "которы": 6058,
      " пожи": 6059,
      " напада": 6060,
      " пришли": 6061,
      " дал": 6062,
      " решить": 6063,
      " арестов": 6064,
      " сезоне": 6065,
      "эль": 6066,
      " двое": 6067,
      "мести": 6068,
      "ленно": 6069,
      " вопросу": 6070,
      " прошло": 6071,
      " руководства": 6072,
      " миллиарда": 6073,
      " событий": 6074,
      " предстоя": 6075,
      "альный": 6076,
      " получения": 6077,
      " самми": 6078,
      " отдыха": 6079,
      " хокке": 6080,
      " сведения": 6081,
      " прото": 6082,
      "дует": 6083,
      " Мер": 6084,
      " разно": 6085,
      " япон": 6086,
      " автор": 6087,
      " образова": 6088,
      " знаю": 6089,
      " государственных": 6090,
      " позже": 6091,
      " Twitter": 6092,
      " участием": 6093,
      " заседание": 6094,
      " бомбарди": 6095,
      "ича": 6096,
      " ученые": 6097,
      "мос": 6098,
      "тую": 6099,
      " зер": 6100,
      " предстоит": 6101,
      " минима": 6102,
      " стара": 6103,
      " виру": 6104,
      " Шу": 6105,
      " Татья": 6106,
      "Только": 6107,
      " трлн": 6108,
      "стных": 6109,
      "цеп": 6110,
      " сама": 6111,
      "метим": 6112,
      " городской": 6113,
      " зависимости": 6114,
      " редак": 6115,
      " логи": 6116,
      "дри": 6117,
      "анная": 6118,
      "душ": 6119,
      "сторо": 6120,
      " топ": 6121,
      " каза": 6122,
      " читать": 6123,
      " Шта": 6124,
      " Мари": 6125,
      " траге": 6126,
      "льян": 6127,
      " специалистов": 6128,
      " хозяйства": 6129,
      " проголосова": 6130,
      " показыва": 6131,
      "нила": 6132,
      "вающих": 6133,
      "дон": 6134,
      " литера": 6135,
      " стоя": 6136,
      " территори": 6137,
      " июне": 6138,
      "Компания": 6139,
      " госпитали": 6140,
      " туристов": 6141,
      "Кстати": 6142,
      " впере": 6143,
      "валось": 6144,
      " выхода": 6145,
      " инжен": 6146,
      " Гру": 6147,
      " диви": 6148,
      " правил": 6149,
      "мериз": 6150,
      "ation": 6151,
      " непосред": 6152,
      " абсолютно": 6153,
      "Владимир": 6154,
      "ADA": 6155,
      "голов": 6156,
      " нара": 6157,
      " ам": 6158,
      " Кана": 6159,
      " лишения": 6160,
      " команд": 6161,
      "шены": 6162,
      " прошла": 6163,
      " новым": 6164,
      " команди": 6165,
      " Зем": 6166,
      " украинского": 6167,
      " направлении": 6168,
      " класси": 6169,
      " студен": 6170,
      "дивиду": 6171,
      "дже": 6172,
      " пояс": 6173,
      " можем": 6174,
      " прай": 6175,
      " жилья": 6176,
      " депутата": 6177,
      " правда": 6178,
      " подготовки": 6179,
      "oogle": 6180,
      " мужчины": 6181,
      "%).\n": 6182,
      "ЕК": 6183,
      "дки": 6184,
      "жо": 6185,
      "тную": 6186,
      " ввести": 6187,
      "тики": 6188,
      "мут": 6189,
      "вычай": 6190,
      " ведет": 6191,
      "шено": 6192,
      " граждане": 6193,
      "Такое": 6194,
      " политических": 6195,
      "Руково": 6196,
      "игры": 6197,
      " уника": 6198,
      " ранения": 6199,
      " могла": 6200,
      " предвыбор": 6201,
      " вещи": 6202,
      " сериа": 6203,
      " хода": 6204,
      " Кады": 6205,
      " краси": 6206,
      " федерации": 6207,
      " руководством": 6208,
      " лидеров": 6209,
      " ожидается": 6210,
      " впечат": 6211,
      "носи": 6212,
      "аней": 6213,
      "льского": 6214,
      "допин": 6215,
      " камер": 6216,
      " Лит": 6217,
      " больницу": 6218,
      " любы": 6219,
      " совместно": 6220,
      " губернатор": 6221,
      " бед": 6222,
      " невы": 6223,
      "овали": 6224,
      " инте": 6225,
      " St": 6226,
      " опровер": 6227,
      " нарушение": 6228,
      " увеличить": 6229,
      " Витали": 6230,
      " состава": 6231,
      " вовсе": 6232,
      " ошиб": 6233,
      "ПРФ": 6234,
      " зарубе": 6235,
      " заинтересов": 6236,
      "сных": 6237,
      "газ": 6238,
      " дефици": 6239,
      "конструк": 6240,
      " общественного": 6241,
      "ющиеся": 6242,
      " кандидата": 6243,
      " временем": 6244,
      " технологий": 6245,
      " стреми": 6246,
      " текущего": 6247,
      " усилия": 6248,
      "oc": 6249,
      "рас": 6250,
      " которыми": 6251,
      " ФР": 6252,
      " границы": 6253,
      " правила": 6254,
      " трудно": 6255,
      " экспорт": 6256,
      " Ирана": 6257,
      " налогов": 6258,
      " турнира": 6259,
      " пом": 6260,
      " настаи": 6261,
      " ано": 6262,
      " отказыва": 6263,
      " привести": 6264,
      " СП": 6265,
      "шими": 6266,
      "ордина": 6267,
      " час": 6268,
      " дизай": 6269,
      " располага": 6270,
      "мяти": 6271,
      " выросла": 6272,
      " потенциаль": 6273,
      " указыва": 6274,
      " зара": 6275,
      " хотел": 6276,
      " доллара": 6277,
      " европейских": 6278,
      " ракеты": 6279,
      " спустя": 6280,
      " счетом": 6281,
      "Image": 6282,
      "жется": 6283,
      " члены": 6284,
      "шают": 6285,
      " сторона": 6286,
      " плат": 6287,
      " произошла": 6288,
      " Тай": 6289,
      " здание": 6290,
      " изменений": 6291,
      " уточнил": 6292,
      " выплаты": 6293,
      " конфлик": 6294,
      " возрасте": 6295,
      "вшую": 6296,
      "теров": 6297,
      " горя": 6298,
      " выпусти": 6299,
      "куда": 6300,
      " зве": 6301,
      " Вене": 6302,
      " секун": 6303,
      " столько": 6304,
      " Чи": 6305,
      " установить": 6306,
      " статьи": 6307,
      " продуктов": 6308,
      " проверку": 6309,
      " крым": 6310,
      " добиться": 6311,
      "II": 6312,
      "реза": 6313,
      " сохран": 6314,
      " годом": 6315,
      " участвовать": 6316,
      " получит": 6317,
      "ровок": 6318,
      " испы": 6319,
      " настоящий": 6320,
      " последствия": 6321,
      " конкурса": 6322,
      " cap": 6323,
      "эро": 6324,
      "торой": 6325,
      " наша": 6326,
      " нагруз": 6327,
      "нике": 6328,
      " отправ": 6329,
      " Роман": 6330,
      " вес": 6331,
      "ствий": 6332,
      " российском": 6333,
      "торами": 6334,
      " назначен": 6335,
      " округа": 6336,
      " обстоятельства": 6337,
      ".ру": 6338,
      "сант": 6339,
      " ухуд": 6340,
      " северо": 6341,
      "цах": 6342,
      "енью": 6343,
      " Украину": 6344,
      " главным": 6345,
      " продаж": 6346,
      "Отметим": 6347,
      " лучших": 6348,
      " появились": 6349,
      " примеру": 6350,
      " музыкан": 6351,
      "Роснефти": 6352,
      "Ана": 6353,
      "рат": 6354,
      " полез": 6355,
      "лаг": 6356,
      "произ": 6357,
      " часа": 6358,
      " пове": 6359,
      " противостоя": 6360,
      " мероприятий": 6361,
      " блоки": 6362,
      " связано": 6363,
      " caption": 6364,
      "%),": 6365,
      "руются": 6366,
      " Даль": 6367,
      " хоть": 6368,
      " вернуть": 6369,
      " группе": 6370,
      " Воло": 6371,
      " Ники": 6372,
      " международного": 6373,
      " Институ": 6374,
      " показатель": 6375,
      " Петр": 6376,
      " технологии": 6377,
      " Израи": 6378,
      "Известиям": 6379,
      " праймериз": 6380,
      " +": 6381,
      "рги": 6382,
      "енных": 6383,
      " рулем": 6384,
      "дерни": 6385,
      "Затем": 6386,
      " Air": 6387,
      " газеты": 6388,
      " сроки": 6389,
      " зависит": 6390,
      " Анато": 6391,
      " прокомментировал": 6392,
      "-премьер": 6393,
      "благо": 6394,
      "комо": 6395,
      "зами": 6396,
      "тировать": 6397,
      " пройти": 6398,
      " эмо": 6399,
      " индивиду": 6400,
      "совершен": 6401,
      " городов": 6402,
      " Sp": 6403,
      " снижения": 6404,
      " занимается": 6405,
      " законодательства": 6406,
      "cop": 6407,
      " оружие": 6408,
      "ографи": 6409,
      "эконом": 6410,
      "енный": 6411,
      " митин": 6412,
      " Ор": 6413,
      "ступления": 6414,
      " процесса": 6415,
      " пациен": 6416,
      " изъя": 6417,
      "тное": 6418,
      " сформи": 6419,
      " актер": 6420,
      " говоря": 6421,
      " Кубка": 6422,
      " сделали": 6423,
      " политику": 6424,
      " Заха": 6425,
      " положение": 6426,
      " оптими": 6427,
      "акануне": 6428,
      "вшем": 6429,
      "збе": 6430,
      "нос": 6431,
      " ман": 6432,
      "суди": 6433,
      " север": 6434,
      "гового": 6435,
      " Политика": 6436,
      "ложил": 6437,
      " Ch": 6438,
      "ехал": 6439,
      " субси": 6440,
      "Депута": 6441,
      " возраста": 6442,
      " гривен": 6443,
      " здравоохранения": 6444,
      "-и": 6445,
      " прока": 6446,
      " мигра": 6447,
      " честь": 6448,
      " памяти": 6449,
      "работ": 6450,
      " главных": 6451,
      " существу": 6452,
      " пассажир": 6453,
      " выступил": 6454,
      "-Петербурге": 6455,
      " диплома": 6456,
      " наказание": 6457,
      "Накануне": 6458,
      "стрен": 6459,
      "лая": 6460,
      " ул": 6461,
      " суме": 6462,
      " англий": 6463,
      " качества": 6464,
      " обязательно": 6465,
      " телеканала": 6466,
      " ориенти": 6467,
      " грузови": 6468,
      "Кто": 6469,
      "Официаль": 6470,
      "цкий": 6471,
      " вряд": 6472,
      " входит": 6473,
      "лили": 6474,
      " заказ": 6475,
      " делает": 6476,
      " завода": 6477,
      " опубликован": 6478,
      "ИБДД": 6479,
      "шку": 6480,
      "эр": 6481,
      "енные": 6482,
      "рачи": 6483,
      " покры": 6484,
      " убы": 6485,
      "руя": 6486,
      " сосед": 6487,
      "люка": 6488,
      "тиву": 6489,
      "зыв": 6490,
      " президенту": 6491,
      " финансовых": 6492,
      " конфликт": 6493,
      " утверждает": 6494,
      " глубо": 6495,
      " километров": 6496,
      " спектак": 6497,
      " ипоте": 6498,
      "лик": 6499,
      "ранов": 6500,
      " оборо": 6501,
      "метров": 6502,
      " концеп": 6503,
      " чиновников": 6504,
      " столкнов": 6505,
      " провинции": 6506,
      "ал": 6507,
      "гло": 6508,
      "чными": 6509,
      " нема": 6510,
      " доходы": 6511,
      " выбира": 6512,
      " Кор": 6513,
      " рубеж": 6514,
      " цене": 6515,
      " автома": 6516,
      " взрос": 6517,
      "черний": 6518,
      "ard": 6519,
      " Михаила": 6520,
      " пострадавших": 6521,
      " вернуться": 6522,
      " попытки": 6523,
      " пунктов": 6524,
      " Ольга": 6525,
      "лябин": 6526,
      "стической": 6527,
      " миру": 6528,
      "праши": 6529,
      " находился": 6530,
      " проводить": 6531,
      " подклю": 6532,
      " лиши": 6533,
      " президенты": 6534,
      " целе": 6535,
      " Зи": 6536,
      " предварительным": 6537,
      " Министерства": 6538,
      "-Ж": 6539,
      "Стра": 6540,
      "Ча": 6541,
      "зен": 6542,
      "тров": 6543,
      " порядок": 6544,
      " насколько": 6545,
      "ссор": 6546,
      " ран": 6547,
      " базы": 6548,
      " случаев": 6549,
      " находились": 6550,
      " ребенок": 6551,
      " квартиры": 6552,
      " мужчин": 6553,
      " крупнейших": 6554,
      " инвесторов": 6555,
      " взгляд": 6556,
      "пова": 6557,
      "торое": 6558,
      "ковых": 6559,
      "шается": 6560,
      " согласов": 6561,
      " украинской": 6562,
      " бизнесмен": 6563,
      " выступления": 6564,
      " болель": 6565,
      "збеки": 6566,
      "gr": 6567,
      "li": 6568,
      "МС": 6569,
      "жнем": 6570,
      " удиви": 6571,
      " кому": 6572,
      " замен": 6573,
      "можен": 6574,
      " Смо": 6575,
      " моря": 6576,
      " концу": 6577,
      " конститу": 6578,
      " ОАО": 6579,
      "ремьер": 6580,
      "будь": 6581,
      "щенко": 6582,
      " Вален": 6583,
      "седатель": 6584,
      " ведомстве": 6585,
      " Джо": 6586,
      " радика": 6587,
      " местах": 6588,
      " мяч": 6589,
      " прогноз": 6590,
      " применя": 6591,
      " отсутствие": 6592,
      " сегодняшний": 6593,
      "оборот": 6594,
      "сные": 6595,
      " оказ": 6596,
      " квали": 6597,
      " револю": 6598,
      " переми": 6599,
      "выми": 6600,
      "жном": 6601,
      " Ги": 6602,
      " столь": 6603,
      "Соответ": 6604,
      "-летняя": 6605,
      " антидопин": 6606,
      " ограничи": 6607,
      " исследований": 6608,
      " финансирования": 6609,
      " сделки": 6610,
      " чрезвычай": 6611,
      "гон": 6612,
      " уж": 6613,
      " нему": 6614,
      " закуп": 6615,
      "пой": 6616,
      " приез": 6617,
      "сист": 6618,
      " меда": 6619,
      "тивным": 6620,
      " падения": 6621,
      " чита": 6622,
      " проблему": 6623,
      " интересы": 6624,
      " правам": 6625,
      " итальян": 6626,
      " €": 6627,
      " счета": 6628,
      " хочу": 6629,
      "тябрь": 6630,
      "формы": 6631,
      " ограничения": 6632,
      " пользователей": 6633,
      "Российский": 6634,
      "энерго": 6635,
      "Правительство": 6636,
      " мошенни": 6637,
      " лу": 6638,
      "США": 6639,
      "тете": 6640,
      "стно": 6641,
      " корот": 6642,
      " кросс": 6643,
      " модерни": 6644,
      "кель": 6645,
      " буква": 6646,
      " конференции": 6647,
      "бах": 6648,
      " сег": 6649,
      " последова": 6650,
      " Фили": 6651,
      "еву": 6652,
      "щена": 6653,
      " Соединен": 6654,
      " Информа": 6655,
      " суммы": 6656,
      " повышение": 6657,
      " аварии": 6658,
      " колонии": 6659,
      "Новости": 6660,
      "горе": 6661,
      "халин": 6662,
      " поможет": 6663,
      " прошлой": 6664,
      " министров": 6665,
      " продолжают": 6666,
      " земли": 6667,
      " резко": 6668,
      " подписал": 6669,
      " Северной": 6670,
      "Луч": 6671,
      "43": 6672,
      "85": 6673,
      "рике": 6674,
      " сообщение": 6675,
      " встречу": 6676,
      " этапе": 6677,
      " исключительно": 6678,
      "вшейся": 6679,
      "Возможно": 6680,
      "креди": 6681,
      "лив": 6682,
      " бри": 6683,
      "ляция": 6684,
      " разо": 6685,
      "лете": 6686,
      " супер": 6687,
      " Леони": 6688,
      " убийстве": 6689,
      "блоки": 6690,
      " Дональд": 6691,
      " сделан": 6692,
      "Вместе": 6693,
      " виз": 6694,
      " опы": 6695,
      " расти": 6696,
      " экра": 6697,
      "ссив": 6698,
      "ловые": 6699,
      " Фон": 6700,
      " Мария": 6701,
      "Извест": 6702,
      " договор": 6703,
      " доброво": 6704,
      "57": 6705,
      " идут": 6706,
      "льский": 6707,
      " Ст": 6708,
      " КПРФ": 6709,
      "аниях": 6710,
      " Брази": 6711,
      "вяз": 6712,
      " акцион": 6713,
      " самоу": 6714,
      " сообщают": 6715,
      " Кирил": 6716,
      " многочис": 6717,
      "Речь": 6718,
      "roup": 6719,
      " конкурс": 6720,
      "Представитель": 6721,
      " инфраструктуры": 6722,
      " большое": 6723,
      " Керри": 6724,
      " авиакомпании": 6725,
      "ra": 6726,
      "ФО": 6727,
      " ока": 6728,
      " ид": 6729,
      " брон": 6730,
      " проз": 6731,
      "шина": 6732,
      " Каз": 6733,
      " Но": 6734,
      "ргани": 6735,
      "торая": 6736,
      " основных": 6737,
      " назвать": 6738,
      " нарушений": 6739,
      " следующий": 6740,
      "щихся": 6741,
      " земель": 6742,
      " дополнительные": 6743,
      " вырос": 6744,
      " жертв": 6745,
      " полагает": 6746,
      " огонь": 6747,
      "которые": 6748,
      "ТС": 6749,
      " спас": 6750,
      " оправ": 6751,
      " запусти": 6752,
      " предела": 6753,
      " мастер": 6754,
      " сути": 6755,
      " Оде": 6756,
      "ждению": 6757,
      " акту": 6758,
      " путь": 6759,
      "стовер": 6760,
      " обществен": 6761,
      " назвали": 6762,
      "имость": 6763,
      " Bl": 6764,
      "емая": 6765,
      " количества": 6766,
      "right": 6767,
      " выяснилось": 6768,
      "ционали": 6769,
      "Сообщается": 6770,
      "od": 6771,
      "все": 6772,
      " вклад": 6773,
      " посту": 6774,
      "вит": 6775,
      " решений": 6776,
      " ез": 6777,
      "питан": 6778,
      " название": 6779,
      " Боль": 6780,
      " Запад": 6781,
      " Google": 6782,
      " законодательство": 6783,
      " столкну": 6784,
      "Через": 6785,
      " потра": 6786,
      " пройдут": 6787,
      " отличие": 6788,
      "рыва": 6789,
      " моз": 6790,
      " семи": 6791,
      " российская": 6792,
      " произой": 6793,
      " причин": 6794,
      " избирателей": 6795,
      " партне": 6796,
      "-министра": 6797,
      "тору": 6798,
      "ссель": 6799,
      "пода": 6800,
      " выйти": 6801,
      " главой": 6802,
      " люб": 6803,
      "рованные": 6804,
      " Южной": 6805,
      " Яро": 6806,
      " заключения": 6807,
      " противоре": 6808,
      " высказа": 6809,
      " ответил": 6810,
      " просьбой": 6811,
      "-ни": 6812,
      "09": 6813,
      "ьми": 6814,
      "ьев": 6815,
      " вдо": 6816,
      " насле": 6817,
      "нито": 6818,
      "зить": 6819,
      " Аса": 6820,
      " чис": 6821,
      " городах": 6822,
      " Новосибир": 6823,
      " частью": 6824,
      " убийства": 6825,
      " сирийской": 6826,
      " животных": 6827,
      " начальника": 6828,
      " сохранить": 6829,
      " Кремля": 6830,
      "copy": 6831,
      " Информационное": 6832,
      " copy": 6833,
      "дне": 6834,
      "ука": 6835,
      "тацию": 6836,
      " указа": 6837,
      " захо": 6838,
      "дером": 6839,
      " Бель": 6840,
      " возле": 6841,
      " Ир": 6842,
      " начало": 6843,
      "щены": 6844,
      " авиации": 6845,
      " договора": 6846,
      " другом": 6847,
      " отказались": 6848,
      " родителей": 6849,
      "Дело": 6850,
      " аварий": 6851,
      " использование": 6852,
      " держа": 6853,
      " потерпе": 6854,
      "цова": 6855,
      " насто": 6856,
      " каким": 6857,
      "ряс": 6858,
      " предна": 6859,
      " случаях": 6860,
      " местного": 6861,
      " чемпионов": 6862,
      " занимает": 6863,
      " капитала": 6864,
      " Екатерин": 6865,
      " экспери": 6866,
      " copyright": 6867,
      "-М": 6868,
      "Пи": 6869,
      "лева": 6870,
      "поля": 6871,
      " подрост": 6872,
      " инвали": 6873,
      "дние": 6874,
      " долг": 6875,
      " граду": 6876,
      " Киева": 6877,
      " туда": 6878,
      " бесе": 6879,
      " Арм": 6880,
      " определя": 6881,
      " угроз": 6882,
      " работников": 6883,
      "начально": 6884,
      " игроков": 6885,
      "анейро": 6886,
      " плен": 6887,
      " въ": 6888,
      " взы": 6889,
      " заслу": 6890,
      " кг": 6891,
      " обой": 6892,
      "чева": 6893,
      " выпуск": 6894,
      " всеми": 6895,
      " ночью": 6896,
      " большую": 6897,
      " комиссия": 6898,
      "ехать": 6899,
      " бюро": 6900,
      " гибели": 6901,
      "77": 6902,
      "Ша": 6903,
      "зон": 6904,
      " син": 6905,
      " истре": 6906,
      " иначе": 6907,
      "тец": 6908,
      "дино": 6909,
      " ассоциации": 6910,
      " резо": 6911,
      " тепло": 6912,
      "Полу": 6913,
      " ВТБ": 6914,
      " Узбеки": 6915,
      " осна": 6916,
      " лета": 6917,
      " взять": 6918,
      " списка": 6919,
      "влека": 6920,
      " следствие": 6921,
      "Газпро": 6922,
      " шоу": 6923,
      " железнодоро": 6924,
      " скончался": 6925,
      "-нибудь": 6926,
      " жду": 6927,
      "\"Это": 6928,
      "Тран": 6929,
      "зья": 6930,
      "кров": 6931,
      "ристи": 6932,
      " гром": 6933,
      "мед": 6934,
      " полицию": 6935,
      "полномо": 6936,
      " ждет": 6937,
      " команде": 6938,
      " улицы": 6939,
      " другого": 6940,
      " материалы": 6941,
      "етербург": 6942,
      " подготовке": 6943,
      " инфляции": 6944,
      "спользова": 6945,
      " Виталий": 6946,
      "120": 6947,
      "ИЛ": 6948,
      "твра": 6949,
      " таком": 6950,
      "центра": 6951,
      " сотрудник": 6952,
      "чув": 6953,
      " Image": 6954,
      " облада": 6955,
      " показали": 6956,
      "видеть": 6957,
      " генерал": 6958,
      " прогнози": 6959,
      "градской": 6960,
      "41": 6961,
      "СМИ": 6962,
      "твори": 6963,
      "шко": 6964,
      " пле": 6965,
      " дета": 6966,
      " запла": 6967,
      " общем": 6968,
      " Азербайдж": 6969,
      " перспек": 6970,
      "рья": 6971,
      " экстрен": 6972,
      "разви": 6973,
      " игр": 6974,
      " Русс": 6975,
      " Евросоюза": 6976,
      " заболевания": 6977,
      " напоминает": 6978,
      "Нет": 6979,
      " ды": 6980,
      "ницей": 6981,
      "летряс": 6982,
      " Бы": 6983,
      " нужда": 6984,
      "зок": 6985,
      " следующем": 6986,
      " планы": 6987,
      " влияние": 6988,
      " правительстве": 6989,
      " ремонт": 6990,
      " картины": 6991,
      " коррупции": 6992,
      " резолю": 6993,
      "iv": 6994,
      "стю": 6995,
      "нар": 6996,
      " чт": 6997,
      " уме": 6998,
      "стал": 6999,
      "нести": 7000,
      " вошли": 7001,
      "гие": 7002,
      "жены": 7003,
      " расчет": 7004,
      " итоги": 7005,
      " семье": 7006,
      " форме": 7007,
      " исче": 7008,
      "-президент": 7009,
      " подобные": 7010,
      " устройства": 7011,
      " Интернет": 7012,
      " спроса": 7013,
      " вспомина": 7014,
      "-Жанейро": 7015,
      "52": 7016,
      "Аль": 7017,
      "вига": 7018,
      " отстран": 7019,
      " страш": 7020,
      " актри": 7021,
      " хран": 7022,
      " планируют": 7023,
      " источников": 7024,
      " подтвердили": 7025,
      " журналист": 7026,
      " обязательства": 7027,
      " региональных": 7028,
      " Петра": 7029,
      " поставки": 7030,
      " пожара": 7031,
      " означает": 7032,
      " Саудовской": 7033,
      "нару": 7034,
      " Сте": 7035,
      "овыми": 7036,
      " запрет": 7037,
      " боевики": 7038,
      " потребитель": 7039,
      " Ленин": 7040,
      "Эксперты": 7041,
      "два": 7042,
      " справедли": 7043,
      "тит": 7044,
      " солда": 7045,
      " проходят": 7046,
      " готова": 7047,
      "мах": 7048,
      " Дэ": 7049,
      "правления": 7050,
      " месторо": 7051,
      " появится": 7052,
      " пытаются": 7053,
      " типа": 7054,
      " фракции": 7055,
      " ·": 7056,
      "Ев": 7057,
      "Лен": 7058,
      "Мос": 7059,
      " направля": 7060,
      "вис": 7061,
      "хождения": 7062,
      " тему": 7063,
      " рода": 7064,
      " знает": 7065,
      " адре": 7066,
      "-лети": 7067,
      "ess": 7068,
      " новом": 7069,
      " предотвра": 7070,
      " выполнен": 7071,
      " угрозы": 7072,
      " выступает": 7073,
      " брать": 7074,
      " путеше": 7075,
      " Белоруссии": 7076,
      " Китае": 7077,
      "Господин": 7078,
      "лку": 7079,
      "сор": 7080,
      "чали": 7081,
      "сульта": 7082,
      " ГИБДД": 7083,
      " данном": 7084,
      " муль": 7085,
      " главной": 7086,
      " дорог": 7087,
      " наруши": 7088,
      " существенно": 7089,
      " ведомство": 7090,
      " кандидат": 7091,
      " полицейские": 7092,
      " положения": 7093,
      " народа": 7094,
      " пообещал": 7095,
      " самостоятельно": 7096,
      "250": 7097,
      "Новый": 7098,
      "енной": 7099,
      "льности": 7100,
      " досто": 7101,
      " Ря": 7102,
      "писи": 7103,
      " такую": 7104,
      " одновременно": 7105,
      " объема": 7106,
      " передачи": 7107,
      " международным": 7108,
      " Вечерний": 7109,
      " самолетов": 7110,
      " объяснил": 7111,
      " девять": 7112,
      " рабочих": 7113,
      " религи": 7114,
      "Благо": 7115,
      "пет": 7116,
      " сеть": 7117,
      " посад": 7118,
      "послед": 7119,
      " разы": 7120,
      "стую": 7121,
      " веще": 7122,
      " компанией": 7123,
      " диску": 7124,
      " леген": 7125,
      " храни": 7126,
      " отношение": 7127,
      " остались": 7128,
      " защите": 7129,
      " социально": 7130,
      " внешне": 7131,
      " Дональда": 7132,
      " Волго": 7133,
      "Александ": 7134,
      "вана": 7135,
      " зака": 7136,
      " отправля": 7137,
      " приро": 7138,
      " качество": 7139,
      " американский": 7140,
      " электри": 7141,
      " появился": 7142,
      "Бывший": 7143,
      " нападения": 7144,
      "www": 7145,
      "-би": 7146,
      "РО": 7147,
      "фона": 7148,
      " завод": 7149,
      "дева": 7150,
      " холдин": 7151,
      " знают": 7152,
      "емым": 7153,
      " корпу": 7154,
      " власть": 7155,
      " официальном": 7156,
      " материалов": 7157,
      " недав": 7158,
      "53": 7159,
      "Гра": 7160,
      "иться": 7161,
      " справи": 7162,
      "ану": 7163,
      " наси": 7164,
      " природ": 7165,
      "думы": 7166,
      "гал": 7167,
      " декла": 7168,
      "щали": 7169,
      " хоте": 7170,
      " любов": 7171,
      "рованный": 7172,
      " городского": 7173,
      "Решение": 7174,
      " шаг": 7175,
      " подозре": 7176,
      " производителей": 7177,
      " психологи": 7178,
      " Париже": 7179,
      " новая": 7180,
      "даго": 7181,
      " нелега": 7182,
      "Поз": 7183,
      " зе": 7184,
      "тические": 7185,
      " говорили": 7186,
      " группу": 7187,
      " сотрудничество": 7188,
      "чук": 7189,
      "Такие": 7190,
      " подобных": 7191,
      " оборудования": 7192,
      " Лондоне": 7193,
      "ik": 7194,
      " показал": 7195,
      " соли": 7196,
      " номина": 7197,
      "тивное": 7198,
      "рание": 7199,
      " каждой": 7200,
      " школе": 7201,
      " курса": 7202,
      " риск": 7203,
      " успешно": 7204,
      " статус": 7205,
      "66": 7206,
      "джа": 7207,
      " спрос": 7208,
      "куро": 7209,
      " Вар": 7210,
      " май": 7211,
      " Нор": 7212,
      "рена": 7213,
      "Причи": 7214,
      " Антон": 7215,
      " Наталья": 7216,
      " задержаны": 7217,
      "Предпо": 7218,
      " назначения": 7219,
      " московского": 7220,
      " полицейских": 7221,
      " идти": 7222,
      "Тре": 7223,
      "льдо": 7224,
      " ум": 7225,
      " зале": 7226,
      " завтра": 7227,
      "щими": 7228,
      " компози": 7229,
      "ведений": 7230,
      " Tim": 7231,
      " режиссер": 7232,
      " добавля": 7233,
      "Пресс": 7234,
      " источника": 7235,
      " внимания": 7236,
      " обратился": 7237,
      " терактов": 7238,
      " недвижимости": 7239,
      " ходатай": 7240,
      " поправки": 7241,
      "тила": 7242,
      " уз": 7243,
      " устойчи": 7244,
      "сятся": 7245,
      " трое": 7246,
      "луж": 7247,
      " тела": 7248,
      "главы": 7249,
      " Group": 7250,
      "Можно": 7251,
      " прекращения": 7252,
      " генеральный": 7253,
      " приобрет": 7254,
      " поколения": 7255,
      "Муж": 7256,
      " Олимпийских": 7257,
      " ОПЕК": 7258,
      " бороться": 7259,
      "\"У": 7260,
      "600": 7261,
      "Ph": 7262,
      "День": 7263,
      "ченного": 7264,
      " внед": 7265,
      " сына": 7266,
      " требований": 7267,
      " заместителя": 7268,
      "Дина": 7269,
      " полномочий": 7270,
      "Рез": 7271,
      "СП": 7272,
      "жную": 7273,
      "сан": 7274,
      " отдел": 7275,
      " обстанов": 7276,
      "гает": 7277,
      " Улюка": 7278,
      " купить": 7279,
      " считается": 7280,
      " Татар": 7281,
      "-службы": 7282,
      " зоны": 7283,
      "Коммер": 7284,
      " банкрот": 7285,
      "емонстри": 7286,
      " прокуратура": 7287,
      " зим": 7288,
      "говари": 7289,
      " предназна": 7290,
      "ака": 7291,
      "тника": 7292,
      "ьи": 7293,
      "юк": 7294,
      " постеп": 7295,
      " национали": 7296,
      " застрой": 7297,
      " кан": 7298,
      " реконструк": 7299,
      "жить": 7300,
      " дали": 7301,
      " пило": 7302,
      "утко": 7303,
      " никакого": 7304,
      "Баш": 7305,
      " блока": 7306,
      " аук": 7307,
      " тенни": 7308,
      " органах": 7309,
      " соревнований": 7310,
      "-конференции": 7311,
      "Гово": 7312,
      " Ком": 7313,
      "Север": 7314,
      " отказаться": 7315,
      " попал": 7316,
      " намерены": 7317,
      " категории": 7318,
      " молодых": 7319,
      ".)": 7320,
      "Два": 7321,
      "Фор": 7322,
      "лога": 7323,
      "лями": 7324,
      " обру": 7325,
      " гря": 7326,
      "дум": 7327,
      " издели": 7328,
      " разу": 7329,
      " развер": 7330,
      "террори": 7331,
      " вопроса": 7332,
      " Европу": 7333,
      " коррек": 7334,
      "ющийся": 7335,
      "оружен": 7336,
      " продолжается": 7337,
      " россияне": 7338,
      " серьезно": 7339,
      " играть": 7340,
      "серва": 7341,
      "800": 7342,
      "БУ": 7343,
      "бек": 7344,
      " острова": 7345,
      " очков": 7346,
      " отмет": 7347,
      " вышли": 7348,
      " СН": 7349,
      " Бли": 7350,
      " большим": 7351,
      "193": 7352,
      " целях": 7353,
      " Евгения": 7354,
      " вооруженных": 7355,
      " военнослужащих": 7356,
      " избежать": 7357,
      "ниторин": 7358,
      "08": 7359,
      "ХЛ": 7360,
      "Чем": 7361,
      "рте": 7362,
      "цо": 7363,
      " увидеть": 7364,
      " Соб": 7365,
      " фар": 7366,
      "зия": 7367,
      "нял": 7368,
      " комфор": 7369,
      "баров": 7370,
      " другу": 7371,
      "действия": 7372,
      "берг": 7373,
      " тяжело": 7374,
      " представляет": 7375,
      " грип": 7376,
      " принадлежит": 7377,
      " ВВС": 7378,
      " поверх": 7379,
      " ово": 7380,
      "Особ": 7381,
      "Ри": 7382,
      "вказ": 7383,
      "имен": 7384,
      "рал": 7385,
      "ратов": 7386,
      " помимо": 7387,
      " упла": 7388,
      " зад": 7389,
      " разве": 7390,
      "контро": 7391,
      " повто": 7392,
      "Откры": 7393,
      " заявлении": 7394,
      " повышения": 7395,
      " документе": 7396,
      " потенциа": 7397,
      " Греции": 7398,
      " бирже": 7399,
      "последствии": 7400,
      "56": 7401,
      "вшее": 7402,
      "чан": 7403,
      "стные": 7404,
      " наличи": 7405,
      "ладель": 7406,
      " уста": 7407,
      " проигра": 7408,
      " воспользова": 7409,
      "честву": 7410,
      "ленным": 7411,
      " силь": 7412,
      " перен": 7413,
      " компанию": 7414,
      " делают": 7415,
      " территория": 7416,
      "ждены": 7417,
      "ort": 7418,
      " создании": 7419,
      " продукты": 7420,
      "вобод": 7421,
      " искусства": 7422,
      " зарплаты": 7423,
      " тенден": 7424,
      " [": 7425,
      "Дей": 7426,
      "Дума": 7427,
      "Зна": 7428,
      "Им": 7429,
      "вшему": 7430,
      "тном": 7431,
      "юри": 7432,
      " удо": 7433,
      " эпо": 7434,
      " дохода": 7435,
      " преодо": 7436,
      " разби": 7437,
      " стары": 7438,
      " второе": 7439,
      " премьера": 7440,
      " уверены": 7441,
      "Российские": 7442,
      " упал": 7443,
      " письмо": 7444,
      " Следственного": 7445,
      "БР": 7446,
      "ВФ": 7447,
      "жнего": 7448,
      "кета": 7449,
      " входят": 7450,
      "рила": 7451,
      " есте": 7452,
      "ковский": 7453,
      "Некоторые": 7454,
      " продажу": 7455,
      " Союза": 7456,
      " ЖК": 7457,
      " плане": 7458,
      " смерть": 7459,
      " неуда": 7460,
      " различные": 7461,
      " хими": 7462,
      " альтерна": 7463,
      " проводится": 7464,
      " останется": 7465,
      " ущерб": 7466,
      " восьми": 7467,
      " множество": 7468,
      "Побе": 7469,
      "Премьер": 7470,
      "Фран": 7471,
      "стрии": 7472,
      " охо": 7473,
      "рет": 7474,
      "кол": 7475,
      " нашу": 7476,
      "лежа": 7477,
      " прочи": 7478,
      "ляцию": 7479,
      "чал": 7480,
      " хотели": 7481,
      " пару": 7482,
      " падение": 7483,
      "вятся": 7484,
      " объеди": 7485,
      " третий": 7486,
      " продаже": 7487,
      " иногда": 7488,
      " продемонстри": 7489,
      " повышен": 7490,
      " никак": 7491,
      " класса": 7492,
      " Луган": 7493,
      " торже": 7494,
      " академи": 7495,
      " подразделения": 7496,
      " Екатеринбур": 7497,
      "-пер": 7498,
      " мск": 7499,
      "тивы": 7500,
      "вить": 7501,
      " альян": 7502,
      " премии": 7503,
      "ментом": 7504,
      " строй": 7505,
      " подъ": 7506,
      "нят": 7507,
      " Джа": 7508,
      "вшими": 7509,
      " станут": 7510,
      " православ": 7511,
      " газо": 7512,
      " существов": 7513,
      " пытались": 7514,
      " времена": 7515,
      " структур": 7516,
      " убийство": 7517,
      " обязанности": 7518,
      " десятилети": 7519,
      "ge": 7520,
      "сл": 7521,
      " нашим": 7522,
      " координа": 7523,
      "няются": 7524,
      " розни": 7525,
      "тивная": 7526,
      " российско": 7527,
      " друзья": 7528,
      " осталось": 7529,
      "водить": 7530,
      " юго": 7531,
      " телеви": 7532,
      "Далее": 7533,
      " получат": 7534,
      "Расс": 7535,
      " специально": 7536,
      " оценкам": 7537,
      " художе": 7538,
      " присоедини": 7539,
      " Григо": 7540,
      " Геор": 7541,
      "Локомо": 7542,
      " лен": 7543,
      "СЕ": 7544,
      "устрой": 7545,
      "кома": 7546,
      " пога": 7547,
      "вающие": 7548,
      "дию": 7549,
      " содержи": 7550,
      "сель": 7551,
      " мол": 7552,
      " иннова": 7553,
      "споко": 7554,
      " Ирина": 7555,
      "ждан": 7556,
      " видно": 7557,
      " одному": 7558,
      " началась": 7559,
      "ционная": 7560,
      "совать": 7561,
      " задачи": 7562,
      "техни": 7563,
      "Представители": 7564,
      " растет": 7565,
      "снаб": 7566,
      "Сотрудники": 7567,
      "Phone": 7568,
      "ЖД": 7569,
      "жут": 7570,
      " долю": 7571,
      "хоз": 7572,
      "зию": 7573,
      " тело": 7574,
      " боя": 7575,
      " лиш": 7576,
      " Дже": 7577,
      " первая": 7578,
      "слава": 7579,
      " лагер": 7580,
      " Лиги": 7581,
      " оценки": 7582,
      " давление": 7583,
      " истреби": 7584,
      " ждут": 7585,
      "развития": 7586,
      " of": 7587,
      "!\"": 7588,
      "%)": 7589,
      "Участ": 7590,
      "мова": 7591,
      " вин": 7592,
      " нена": 7593,
      "тиков": 7594,
      " досро": 7595,
      "сив": 7596,
      "няли": 7597,
      " Газ": 7598,
      "совет": 7599,
      " хра": 7600,
      " представить": 7601,
      " Шве": 7602,
      " дорожного": 7603,
      " высокой": 7604,
      " News": 7605,
      " пытается": 7606,
      " Обамы": 7607,
      "Динамо": 7608,
      "if": 7609,
      "Че": 7610,
      "план": 7611,
      " домой": 7612,
      "полу": 7613,
      "сии": 7614,
      "кера": 7615,
      " Фин": 7616,
      "зидента": 7617,
      "рованной": 7618,
      " результатам": 7619,
      " известный": 7620,
      " вмеша": 7621,
      " землетряс": 7622,
      "кварти": 7623,
      " утверждают": 7624,
      " протеста": 7625,
      " института": 7626,
      "Полиция": 7627,
      " хватает": 7628,
      "-Н": 7629,
      "05": 7630,
      "гана": 7631,
      "тифика": 7632,
      "село": 7633,
      "тыми": 7634,
      " больницы": 7635,
      " больнице": 7636,
      " графи": 7637,
      " отношению": 7638,
      " действовать": 7639,
      " сборная": 7640,
      " спортсмена": 7641,
      " предложили": 7642,
      "Люди": 7643,
      " регулярно": 7644,
      "95": 7645,
      "кей": 7646,
      "ул": 7647,
      "уда": 7648,
      " изо": 7649,
      " ВС": 7650,
      " инспек": 7651,
      "жности": 7652,
      " возро": 7653,
      " долга": 7654,
      " Br": 7655,
      " преступлений": 7656,
      " родители": 7657,
      " предлагают": 7658,
      " ежегодно": 7659,
      " Верховной": 7660,
      " удовлетво": 7661,
      " ждать": 7662,
      "-мен": 7663,
      "ТР": 7664,
      "рению": 7665,
      " одержа": 7666,
      "торе": 7667,
      " уступи": 7668,
      " принес": 7669,
      " решению": 7670,
      " служеб": 7671,
      "едж": 7672,
      " считаю": 7673,
      " педаго": 7674,
      " детям": 7675,
      "дьми": 7676,
      " сказали": 7677,
      " лабора": 7678,
      " квартире": 7679,
      "условно": 7680,
      " взятки": 7681,
      " Филип": 7682,
      "вании": 7683,
      "груп": 7684,
      "тологи": 7685,
      " исла": 7686,
      "рика": 7687,
      " отря": 7688,
      " АО": 7689,
      "прокура": 7690,
      "спол": 7691,
      " Ча": 7692,
      " основании": 7693,
      " режиссе": 7694,
      " получать": 7695,
      " футболу": 7696,
      " последнего": 7697,
      " окружа": 7698,
      " отношениях": 7699,
      " память": 7700,
      " наконец": 7701,
      " атмос": 7702,
      " максимально": 7703,
      "Красно": 7704,
      " публикации": 7705,
      "-экономи": 7706,
      "Би": 7707,
      "Оста": 7708,
      "слан": 7709,
      " вку": 7710,
      " сча": 7711,
      " пого": 7712,
      "рие": 7713,
      "рией": 7714,
      "тика": 7715,
      " сотни": 7716,
      " аген": 7717,
      " РАН": 7718,
      " фер": 7719,
      " годам": 7720,
      "блио": 7721,
      "класс": 7722,
      " остаются": 7723,
      " районах": 7724,
      " финансирование": 7725,
      " приговор": 7726,
      " фотографии": 7727,
      " архитек": 7728,
      " Константин": 7729,
      "ex": 7730,
      "ob": 7731,
      "днев": 7732,
      "цар": 7733,
      "стся": 7734,
      "лизации": 7735,
      " задей": 7736,
      " реаги": 7737,
      " поднима": 7738,
      " звез": 7739,
      "ленная": 7740,
      "продук": 7741,
      " самая": 7742,
      "филь": 7743,
      "стрее": 7744,
      " границу": 7745,
      " фили": 7746,
      " потребу": 7747,
      " Жу": 7748,
      " титу": 7749,
      " идеи": 7750,
      " коммуника": 7751,
      " коллеги": 7752,
      " заметил": 7753,
      " названием": 7754,
      " Татьяна": 7755,
      "-ин": 7756,
      "лне": 7757,
      "опера": 7758,
      "тники": 7759,
      " подели": 7760,
      "льность": 7761,
      " заем": 7762,
      " замеча": 7763,
      " Али": 7764,
      "ственными": 7765,
      "ствию": 7766,
      " Фа": 7767,
      " куро": 7768,
      " полном": 7769,
      " повест": 7770,
      "ствовала": 7771,
      " Турция": 7772,
      " сын": 7773,
      " привлечь": 7774,
      " писали": 7775,
      "Перед": 7776,
      " коалиции": 7777,
      " настолько": 7778,
      "72": 7779,
      "эк": 7780,
      " слово": 7781,
      " гостей": 7782,
      "ченых": 7783,
      " кури": 7784,
      "ступление": 7785,
      "ers": 7786,
      " дважды": 7787,
      " юби": 7788,
      " крупные": 7789,
      " процессе": 7790,
      " показать": 7791,
      " благотвори": 7792,
      " новостей": 7793,
      "надзор": 7794,
      " будущего": 7795,
      " причины": 7796,
      " Мурманска": 7797,
      " снизить": 7798,
      " изменить": 7799,
      " долгосро": 7800,
      "-Петербург": 7801,
      " нужны": 7802,
      " соцсет": 7803,
      "ронеж": 7804,
      " Подмосков": 7805,
      " инцидента": 7806,
      " интернете": 7807,
      " религиоз": 7808,
      "Позже": 7809,
      "oy": 7810,
      " осо": 7811,
      " ребя": 7812,
      " выяс": 7813,
      " талан": 7814,
      "Нам": 7815,
      " людьми": 7816,
      " границе": 7817,
      " действует": 7818,
      " увеличение": 7819,
      " врач": 7820,
      " контракта": 7821,
      " связанные": 7822,
      " Института": 7823,
      "экономразвития": 7824,
      "ером": 7825,
      "оном": 7826,
      "сети": 7827,
      "фонов": 7828,
      " вкла": 7829,
      " ски": 7830,
      " оф": 7831,
      "толог": 7832,
      "ческому": 7833,
      "дних": 7834,
      " последу": 7835,
      " пеше": 7836,
      " чиновники": 7837,
      " предпринимателей": 7838,
      "Стоит": 7839,
      "Единая": 7840,
      " ликвиди": 7841,
      " визита": 7842,
      "Сергей": 7843,
      " Меркель": 7844,
      " буквально": 7845,
      " брига": 7846,
      "-Ка": 7847,
      "la": 7848,
      "След": 7849,
      "шке": 7850,
      "нав": 7851,
      "ципли": 7852,
      "диться": 7853,
      " достой": 7854,
      " гим": 7855,
      " Роб": 7856,
      " теп": 7857,
      " роман": 7858,
      "спорта": 7859,
      " консуль": 7860,
      " видов": 7861,
      " взно": 7862,
      " лай": 7863,
      " Лат": 7864,
      " проведении": 7865,
      " груз": 7866,
      " нынешнего": 7867,
      " Игоря": 7868,
      " связаны": 7869,
      "Кры": 7870,
      "рных": 7871,
      " оке": 7872,
      " посла": 7873,
      "анным": 7874,
      "ровку": 7875,
      " оба": 7876,
      "ходом": 7877,
      " руках": 7878,
      " ДНР": 7879,
      " ТВ": 7880,
      "рованного": 7881,
      " ЦИК": 7882,
      " балан": 7883,
      " остался": 7884,
      " платить": 7885,
      " испан": 7886,
      " Жи": 7887,
      " науки": 7888,
      " Северо": 7889,
      " электроэнер": 7890,
      " собственности": 7891,
      " нужна": 7892,
      " выглядит": 7893,
      " жилищ": 7894,
      "ec": 7895,
      "щением": 7896,
      "еня": 7897,
      "енного": 7898,
      " оскор": 7899,
      " запрос": 7900,
      "ляют": 7901,
      " обос": 7902,
      "моно": 7903,
      " каби": 7904,
      "меется": 7905,
      " предложен": 7906,
      "прият": 7907,
      "тический": 7908,
      " считать": 7909,
      "ank": 7910,
      " гражданской": 7911,
      " фильме": 7912,
      " предприятие": 7913,
      " конец": 7914,
      " связанных": 7915,
      " дальнейшем": 7916,
      " фестиваля": 7917,
      " грозит": 7918,
      " посмотреть": 7919,
      " питания": 7920,
      " р": 7921,
      "ow": 7922,
      "жки": 7923,
      "сю": 7924,
      " поток": 7925,
      " нами": 7926,
      " мнения": 7927,
      "мое": 7928,
      " приступи": 7929,
      "жела": 7930,
      "меня": 7931,
      "альное": 7932,
      " стороне": 7933,
      " операций": 7934,
      " безопасность": 7935,
      " учени": 7936,
      " округе": 7937,
      " психи": 7938,
      " опрошенных": 7939,
      " опубликовал": 7940,
      " поставок": 7941,
      " Валерий": 7942,
      " пресечения": 7943,
      "Кар": 7944,
      "Украин": 7945,
      "Ученые": 7946,
      " пой": 7947,
      " наоборот": 7948,
      " коль": 7949,
      "дио": 7950,
      "стая": 7951,
      " доли": 7952,
      " Побе": 7953,
      "дерлан": 7954,
      " вину": 7955,
      " результатов": 7956,
      " Коро": 7957,
      " властями": 7958,
      "Может": 7959,
      " проверя": 7960,
      " связь": 7961,
      "Стоимость": 7962,
      " свидете": 7963,
      " университет": 7964,
      " фигуран": 7965,
      " вперед": 7966,
      " исчез": 7967,
      "ian": 7968,
      "МК": 7969,
      "лист": 7970,
      "ламент": 7971,
      " препода": 7972,
      "части": 7973,
      "вере": 7974,
      "Потому": 7975,
      " Глав": 7976,
      " действие": 7977,
      " дороге": 7978,
      "Проек": 7979,
      " этап": 7980,
      " проводит": 7981,
      " службу": 7982,
      " закону": 7983,
      " чемпионат": 7984,
      " Даге": 7985,
      " молодежи": 7986,
      " пакет": 7987,
      " регистрации": 7988,
      " окончания": 7989,
      "Александр": 7990,
      "nd": 7991,
      "Мар": 7992,
      "зме": 7993,
      "анное": 7994,
      " бор": 7995,
      "ловых": 7996,
      " большие": 7997,
      " участок": 7998,
      " парков": 7999,
      "кового": 8000,
      " детьми": 8001,
      " необходимые": 8002,
      "Известия": 8003,
      " получают": 8004,
      " наук": 8005,
      " Челябин": 8006,
      " приоритет": 8007,
      "вейца": 8008,
      " ИГИЛ": 8009,
      " дипломатиче": 8010,
      " предусматривает": 8011,
      ",\n": 8012,
      "51": 8013,
      "Бар": 8014,
      "дана": 8015,
      "пления": 8016,
      "гона": 8017,
      "дап": 8018,
      " заку": 8019,
      " обез": 8020,
      " изви": 8021,
      " изготов": 8022,
      "жим": 8023,
      " стек": 8024,
      " стрем": 8025,
      "ленном": 8026,
      "жая": 8027,
      "право": 8028,
      " красно": 8029,
      " удастся": 8030,
      " общественных": 8031,
      " необходимость": 8032,
      "all": 8033,
      " Джей": 8034,
      " оценке": 8035,
      " Конститу": 8036,
      " Николая": 8037,
      " экипажа": 8038,
      " Times": 8039,
      "58": 8040,
      "ала": 8041,
      "згла": 8042,
      "сман": 8043,
      "товой": 8044,
      " исте": 8045,
      " аф": 8046,
      "порта": 8047,
      " изба": 8048,
      "оволь": 8049,
      " какое": 8050,
      " Ах": 8051,
      " пересмо": 8052,
      "Одна": 8053,
      " операцию": 8054,
      " оперативно": 8055,
      "брать": 8056,
      " интересов": 8057,
      " объекты": 8058,
      " врача": 8059,
      " попасть": 8060,
      " пытался": 8061,
      " выросли": 8062,
      " предполагает": 8063,
      " Афгани": 8064,
      "-первых": 8065,
      "ьет": 8066,
      " уйти": 8067,
      " несовершен": 8068,
      "див": 8069,
      " дочь": 8070,
      " моск": 8071,
      "менту": 8072,
      " зн": 8073,
      " ниж": 8074,
      " ход": 8075,
      " сообщило": 8076,
      "est": 8077,
      " правления": 8078,
      "Председатель": 8079,
      " класс": 8080,
      " идею": 8081,
      " могло": 8082,
      " попросил": 8083,
      " книги": 8084,
      " Международного": 8085,
      " объясняет": 8086,
      " Аравии": 8087,
      " злоумышлен": 8088,
      "59": 8089,
      "69": 8090,
      "st": 8091,
      "Груп": 8092,
      "ДПР": 8093,
      "Источник": 8094,
      "зму": 8095,
      " устраи": 8096,
      " запуска": 8097,
      " апел": 8098,
      " безрабо": 8099,
      "ционную": 8100,
      "отно": 8101,
      " Хар": 8102,
      " полной": 8103,
      "довать": 8104,
      " будущее": 8105,
      " занял": 8106,
      " воздуха": 8107,
      " Востока": 8108,
      "-Петербурга": 8109,
      " демонстри": 8110,
      " искать": 8111,
      "-в": 8112,
      "em": 8113,
      "жан": 8114,
      "хин": 8115,
      "вича": 8116,
      " обжа": 8117,
      " суток": 8118,
      " российскими": 8119,
      "говор": 8120,
      "ционным": 8121,
      " услов": 8122,
      " американские": 8123,
      " врачей": 8124,
      " областной": 8125,
      " Калинин": 8126,
      "Зенит": 8127,
      " Чечни": 8128,
      ".),": 8129,
      "Очень": 8130,
      "сена": 8131,
      " вскоре": 8132,
      "вайте": 8133,
      " незна": 8134,
      " гран": 8135,
      " выдели": 8136,
      " вышла": 8137,
      " своему": 8138,
      "ченной": 8139,
      " обращения": 8140,
      " техника": 8141,
      " повтор": 8142,
      " здании": 8143,
      " площадь": 8144,
      " сократить": 8145,
      " очевидно": 8146,
      "67": 8147,
      "Доб": 8148,
      "кл": 8149,
      "нки": 8150,
      "гоне": 8151,
      " поя": 8152,
      " поля": 8153,
      "лера": 8154,
      " ученых": 8155,
      "дик": 8156,
      " крови": 8157,
      " препят": 8158,
      " представителями": 8159,
      " проекте": 8160,
      " участков": 8161,
      " Бара": 8162,
      "зяй": 8163,
      " телефо": 8164,
      "art": 8165,
      " финансовой": 8166,
      " серьезные": 8167,
      " лицо": 8168,
      " мировых": 8169,
      " теракта": 8170,
      " предъяв": 8171,
      " церкви": 8172,
      " p": 8173,
      "Соб": 8174,
      "финан": 8175,
      " опол": 8176,
      "редо": 8177,
      "дал": 8178,
      " мониторин": 8179,
      " консульта": 8180,
      " судом": 8181,
      " НП": 8182,
      " осла": 8183,
      " приняла": 8184,
      " повлия": 8185,
      " Бал": 8186,
      " форму": 8187,
      "бернатор": 8188,
      "Роснефть": 8189,
      " Олимпиаде": 8190,
      "Совет": 8191,
      " планах": 8192,
      " рестора": 8193,
      "Сле": 8194,
      " уполномо": 8195,
      " запу": 8196,
      " соба": 8197,
      " пребы": 8198,
      " вод": 8199,
      " мора": 8200,
      " тео": 8201,
      " Азии": 8202,
      " разъ": 8203,
      "комп": 8204,
      " лечение": 8205,
      " состоялась": 8206,
      " обвинение": 8207,
      " десятки": 8208,
      " попали": 8209,
      "Главный": 8210,
      " топлива": 8211,
      "Жен": 8212,
      "ону": 8213,
      "ющему": 8214,
      " пошли": 8215,
      " напа": 8216,
      "зам": 8217,
      " примет": 8218,
      "чила": 8219,
      "читься": 8220,
      " реа": 8221,
      "обла": 8222,
      " Ай": 8223,
      " вело": 8224,
      " взор": 8225,
      "работа": 8226,
      " Турцию": 8227,
      " журналисты": 8228,
      " заболев": 8229,
      " съем": 8230,
      " отдельных": 8231,
      " герои": 8232,
      " Бориса": 8233,
      " гонки": 8234,
      " вспом": 8235,
      " совершил": 8236,
      " немало": 8237,
      " www": 8238,
      "влек": 8239,
      " входя": 8240,
      "рации": 8241,
      " озву": 8242,
      "тесь": 8243,
      "ровке": 8244,
      "постав": 8245,
      " пришел": 8246,
      " выяви": 8247,
      " подчи": 8248,
      " холод": 8249,
      " полуго": 8250,
      " властям": 8251,
      " готовности": 8252,
      " For": 8253,
      " федеральных": 8254,
      " обсуждения": 8255,
      " другое": 8256,
      " борьбу": 8257,
      " состоит": 8258,
      " Вашингто": 8259,
      " желание": 8260,
      " You": 8261,
      " Бразилии": 8262,
      " постепенно": 8263,
      "ПС": 8264,
      "чется": 8265,
      "чкой": 8266,
      " опо": 8267,
      " налого": 8268,
      " Сто": 8269,
      " фра": 8270,
      " стен": 8271,
      "кович": 8272,
      " война": 8273,
      " населенных": 8274,
      " квартир": 8275,
      " мэра": 8276,
      " Международной": 8277,
      " профила": 8278,
      " бензин": 8279,
      " Брюсселе": 8280,
      "Соответству": 8281,
      "64": 8282,
      "BC": 8283,
      "Кор": 8284,
      "сль": 8285,
      "тности": 8286,
      " пти": 8287,
      " сва": 8288,
      " нер": 8289,
      "анти": 8290,
      " неве": 8291,
      " зато": 8292,
      " быстрее": 8293,
      " живет": 8294,
      " среднего": 8295,
      " обозна": 8296,
      " общество": 8297,
      "шинство": 8298,
      " официального": 8299,
      " предоставить": 8300,
      " финансовые": 8301,
      " пояснили": 8302,
      " дополнительных": 8303,
      " Московского": 8304,
      " рейтинг": 8305,
      " поиска": 8306,
      " баррелей": 8307,
      " энергетики": 8308,
      " содержание": 8309,
      " температура": 8310,
      "АД": 8311,
      " паль": 8312,
      " имен": 8313,
      "рони": 8314,
      " мм": 8315,
      "лоде": 8316,
      " кров": 8317,
      "чиная": 8318,
      " кабин": 8319,
      " таможен": 8320,
      "дови": 8321,
      "комму": 8322,
      " украинские": 8323,
      " сокращение": 8324,
      " штаб": 8325,
      " объявили": 8326,
      " коммуна": 8327,
      " вероятно": 8328,
      " Эрдоган": 8329,
      "AS": 8330,
      "Гу": 8331,
      "Три": 8332,
      "кру": 8333,
      "нг": 8334,
      " пласти": 8335,
      " вред": 8336,
      "талия": 8337,
      "турой": 8338,
      " возму": 8339,
      "жена": 8340,
      " распреде": 8341,
      " полгода": 8342,
      " состоялся": 8343,
      " операция": 8344,
      "ine": 8345,
      " телевид": 8346,
      " Индии": 8347,
      " машину": 8348,
      " Борис": 8349,
      " Краснояр": 8350,
      " Петербурге": 8351,
      " Польши": 8352,
      " компьютер": 8353,
      "sc": 8354,
      "эм": 8355,
      "лиза": 8356,
      "нула": 8357,
      "Позд": 8358,
      " контак": 8359,
      "щаются": 8360,
      "тивную": 8361,
      " вечер": 8362,
      " Хи": 8363,
      " состоянию": 8364,
      " Te": 8365,
      " воспринима": 8366,
      " законом": 8367,
      " обыгра": 8368,
      " Мурманской": 8369,
      " приведет": 8370,
      " законопроекта": 8371,
      " оборудование": 8372,
      " достигну": 8373,
      "Думаю": 8374,
      "блиоте": 8375,
      "62": 8376,
      "рной": 8377,
      " вроде": 8378,
      " имена": 8379,
      " ужа": 8380,
      "емен": 8381,
      " откло": 8382,
      " решением": 8383,
      " Гон": 8384,
      " явно": 8385,
      "изнес": 8386,
      " главу": 8387,
      " виду": 8388,
      "ренко": 8389,
      "шена": 8390,
      " фикси": 8391,
      " хвати": 8392,
      " Кам": 8393,
      " экономика": 8394,
      " военный": 8395,
      " ситуацией": 8396,
      " Виктора": 8397,
      " счету": 8398,
      "надца": 8399,
      "надзора": 8400,
      " поддерживает": 8401,
      "дорож": 8402,
      " кадров": 8403,
      "Право": 8404,
      " заблоки": 8405,
      " атом": 8406,
      " адап": 8407,
      " выстре": 8408,
      "луб": 8409,
      "жин": 8410,
      " Мутко": 8411,
      "никова": 8412,
      " начались": 8413,
      " значение": 8414,
      " полтора": 8415,
      " экономических": 8416,
      " собственной": 8417,
      " сотрудниками": 8418,
      " основные": 8419,
      " этапа": 8420,
      " городских": 8421,
      " превышает": 8422,
      " рейтинге": 8423,
      " водителя": 8424,
      " форума": 8425,
      "востоке": 8426,
      "02": 8427,
      "68": 8428,
      "Спорт": 8429,
      "дении": 8430,
      "ксу": 8431,
      "лков": 8432,
      "стной": 8433,
      " сви": 8434,
      " позна": 8435,
      " регла": 8436,
      " решении": 8437,
      " Ман": 8438,
      "щина": 8439,
      " моде": 8440,
      " флота": 8441,
      "ловской": 8442,
      " переста": 8443,
      " мать": 8444,
      " российское": 8445,
      " авторы": 8446,
      "стые": 8447,
      " Нидерлан": 8448,
      " каждом": 8449,
      " обсудили": 8450,
      " пенсии": 8451,
      " областного": 8452,
      "our": 8453,
      " травмы": 8454,
      " небольшой": 8455,
      " наказания": 8456,
      " зрителей": 8457,
      " Асада": 8458,
      "Коммерсант": 8459,
      " ЖКХ": 8460,
      "-До": 8461,
      "um": 8462,
      " ищ": 8463,
      " поедин": 8464,
      " двор": 8465,
      " древ": 8466,
      " недель": 8467,
      " копи": 8468,
      " рано": 8469,
      " моей": 8470,
      " мел": 8471,
      " разобра": 8472,
      " больших": 8473,
      " подоро": 8474,
      " Владимиру": 8475,
      " провока": 8476,
      " политического": 8477,
      " предлагается": 8478,
      " обратиться": 8479,
      " секретарь": 8480,
      " начнется": 8481,
      " потребителей": 8482,
      " Генна": 8483,
      " дисципли": 8484,
      " Банка": 8485,
      " градусов": 8486,
      " СНГ": 8487,
      "54": 8488,
      "сво": 8489,
      " атаки": 8490,
      "ейс": 8491,
      "доз": 8492,
      " тема": 8493,
      "рян": 8494,
      " Прави": 8495,
      " лидером": 8496,
      "ходили": 8497,
      "едже": 8498,
      " Эль": 8499,
      " заключение": 8500,
      " получает": 8501,
      " земле": 8502,
      " штаба": 8503,
      " минуты": 8504,
      "бросов": 8505,
      " медицинской": 8506,
      " Востоке": 8507,
      " уволь": 8508,
      " вдруг": 8509,
      " приватизации": 8510,
      " Щ": 8511,
      "-ко": 8512,
      "07": 8513,
      "Ха": 8514,
      "дной": 8515,
      "вости": 8516,
      " Спорт": 8517,
      "жида": 8518,
      "гар": 8519,
      " робо": 8520,
      "Надо": 8521,
      "нования": 8522,
      " любом": 8523,
      " регион": 8524,
      " певи": 8525,
      " соглашений": 8526,
      " Владимиром": 8527,
      " опере": 8528,
      " II": 8529,
      " списке": 8530,
      " коллег": 8531,
      "логов": 8532,
      " подтвержда": 8533,
      " подал": 8534,
      " машина": 8535,
      " мяг": 8536,
      " стимули": 8537,
      " полагают": 8538,
      "Китай": 8539,
      "теллек": 8540,
      " ресурсов": 8541,
      " Национальной": 8542,
      " вызывает": 8543,
      " Египта": 8544,
      "Украи": 8545,
      "фу": 8546,
      " нрави": 8547,
      " отец": 8548,
      " поним": 8549,
      " поклон": 8550,
      " воду": 8551,
      "пиона": 8552,
      "жается": 8553,
      " Пан": 8554,
      " далее": 8555,
      " правильно": 8556,
      " бесс": 8557,
      " многом": 8558,
      " открытия": 8559,
      " коллега": 8560,
      " продолжать": 8561,
      " Федеральной": 8562,
      " нормы": 8563,
      "Международ": 8564,
      "oom": 8565,
      " лицензии": 8566,
      " метал": 8567,
      " эвакуи": 8568,
      " числен": 8569,
      " Brent": 8570,
      "?\"": 8571,
      " огра": 8572,
      " побы": 8573,
      " потери": 8574,
      " нашем": 8575,
      "леку": 8576,
      " проявля": 8577,
      " отклю": 8578,
      " решать": 8579,
      "лую": 8580,
      " Вен": 8581,
      "цева": 8582,
      "мыс": 8583,
      " сало": 8584,
      " осмо": 8585,
      " экономику": 8586,
      " шай": 8587,
      " сравни": 8588,
      " третьем": 8589,
      " писал": 8590,
      " инцидент": 8591,
      " испытания": 8592,
      " Испании": 8593,
      " госсекре": 8594,
      "Ис": 8595,
      "мс": 8596,
      "руем": 8597,
      " прос": 8598,
      " Син": 8599,
      "дора": 8600,
      " мона": 8601,
      " теря": 8602,
      "Нача": 8603,
      " Гра": 8604,
      "альным": 8605,
      " Тре": 8606,
      " ведут": 8607,
      " объеме": 8608,
      "лектро": 8609,
      "192": 8610,
      " верх": 8611,
      " принятия": 8612,
      " белору": 8613,
      " необы": 8614,
      " территорий": 8615,
      "Инци": 8616,
      " минуте": 8617,
      " похоже": 8618,
      " Австра": 8619,
      " Путиным": 8620,
      "SJ": 8621,
      "az": 8622,
      "op": 8623,
      "sta": 8624,
      "Дмитри": 8625,
      "Оба": 8626,
      "нением": 8627,
      "трен": 8628,
      " одино": 8629,
      "колов": 8630,
      "рист": 8631,
      "скон": 8632,
      " Кан": 8633,
      " КНР": 8634,
      " разрабаты": 8635,
      " стабили": 8636,
      " патру": 8637,
      "154": 8638,
      " серд": 8639,
      " правонару": 8640,
      " войне": 8641,
      " Зе": 8642,
      " доллар": 8643,
      "Министер": 8644,
      " менедж": 8645,
      " идея": 8646,
      " беспи": 8647,
      " генерального": 8648,
      " Тульской": 8649,
      " поддерживать": 8650,
      " покинуть": 8651,
      " позднее": 8652,
      " аппарата": 8653,
      " вынуждены": 8654,
      "ack": 8655,
      "-Дону": 8656,
      "-со": 8657,
      " иран": 8658,
      " поез": 8659,
      " наличие": 8660,
      " сос": 8661,
      " раун": 8662,
      "ейн": 8663,
      " выжи": 8664,
      "гистра": 8665,
      " мельдо": 8666,
      " комна": 8667,
      " дают": 8668,
      " мусуль": 8669,
      " расстоя": 8670,
      " лечения": 8671,
      " купи": 8672,
      " организацию": 8673,
      " тура": 8674,
      " Вадим": 8675,
      " занимал": 8676,
      " молодой": 8677,
      " сектора": 8678,
      " достижения": 8679,
      " республике": 8680,
      " разработки": 8681,
      " штата": 8682,
      " карты": 8683,
      "ждый": 8684,
      " Мурманске": 8685,
      " объявила": 8686,
      " половине": 8687,
      " имущество": 8688,
      " партнеров": 8689,
      " сопровожда": 8690,
      " Победы": 8691,
      "Ген": 8692,
      "Генера": 8693,
      " введения": 8694,
      " смени": 8695,
      "нолет": 8696,
      " показывает": 8697,
      "рики": 8698,
      "хозяй": 8699,
      " работо": 8700,
      " видим": 8701,
      " началось": 8702,
      "кономика": 8703,
      "долго": 8704,
      " проведет": 8705,
      " признать": 8706,
      " администрация": 8707,
      " родился": 8708,
      " намерена": 8709,
      " применения": 8710,
      "Российская": 8711,
      " характери": 8712,
      " понятно": 8713,
      " Всероссий": 8714,
      " формирования": 8715,
      " заявлял": 8716,
      " песни": 8717,
      " Америки": 8718,
      " прокурор": 8719,
      " Общество": 8720,
      " докладе": 8721,
      " задолженности": 8722,
      " Вячеслав": 8723,
      "Инцидент": 8724,
      " Z": 8725,
      "99": 8726,
      "Ос": 8727,
      "Справедли": 8728,
      "фек": 8729,
      "цер": 8730,
      " костю": 8731,
      "дика": 8732,
      " сор": 8733,
      " реформы": 8734,
      " судов": 8735,
      "анами": 8736,
      "бами": 8737,
      "хам": 8738,
      "191": 8739,
      "стера": 8740,
      " Эн": 8741,
      " открыто": 8742,
      " Бай": 8743,
      " направлены": 8744,
      " четверть": 8745,
      " фами": 8746,
      " блок": 8747,
      " площадью": 8748,
      " половины": 8749,
      " постановление": 8750,
      " подозреваемых": 8751,
      " Кремле": 8752,
      " периода": 8753,
      " фирмы": 8754,
      " проводят": 8755,
      " церемонии": 8756,
      " бомбардиров": 8757,
      " Захарова": 8758,
      " сби": 8759,
      " сним": 8760,
      "лине": 8761,
      "тиви": 8762,
      " переме": 8763,
      " переход": 8764,
      " Гер": 8765,
      " осенью": 8766,
      " организова": 8767,
      " Анна": 8768,
      " районов": 8769,
      " квадра": 8770,
      " лидеры": 8771,
      " товари": 8772,
      " туристи": 8773,
      " праздник": 8774,
      " валюты": 8775,
      "01": 8776,
      "Пе": 8777,
      "ляется": 8778,
      "черед": 8779,
      " Свя": 8780,
      "летел": 8781,
      " конта": 8782,
      "канчи": 8783,
      " Сирию": 8784,
      " остальные": 8785,
      " кримина": 8786,
      " заключается": 8787,
      " кредит": 8788,
      " появилось": 8789,
      " собираются": 8790,
      " замминистра": 8791,
      " активы": 8792,
      " письма": 8793,
      " поиск": 8794,
      " устройство": 8795,
      " шансы": 8796,
      " Евросоюз": 8797,
      "Специали": 8798,
      " спокойно": 8799,
      " Армении": 8800,
      " Финлян": 8801,
      ".).\n": 8802,
      "ai": 8803,
      "ОС": 8804,
      "енности": 8805,
      " очи": 8806,
      " оставля": 8807,
      "рода": 8808,
      "лограм": 8809,
      "мога": 8810,
      " еха": 8811,
      " фо": 8812,
      "зина": 8813,
      " мирового": 8814,
      " Тю": 8815,
      " Иран": 8816,
      " Ше": 8817,
      " рыно": 8818,
      " правозащи": 8819,
      "льянов": 8820,
      " версия": 8821,
      " патриар": 8822,
      " внешнеполи": 8823,
      "акашвили": 8824,
      "-я": 8825,
      "-ма": 8826,
      "Органи": 8827,
      "зом": 8828,
      " пры": 8829,
      " мемо": 8830,
      "теле": 8831,
      " уде": 8832,
      "вость": 8833,
      "щины": 8834,
      " Кова": 8835,
      " табли": 8836,
      "лове": 8837,
      "мыми": 8838,
      " Гар": 8839,
      "вян": 8840,
      " знаком": 8841,
      "хии": 8842,
      " смотреть": 8843,
      "ненко": 8844,
      " политик": 8845,
      " установлено": 8846,
      " Mer": 8847,
      " проверка": 8848,
      " национального": 8849,
      " пострадал": 8850,
      " штате": 8851,
      " крайней": 8852,
      " Краснодар": 8853,
      " Олимпиады": 8854,
      " Ростовской": 8855,
      " печати": 8856,
      " заранее": 8857,
      " рубежом": 8858,
      " Иркут": 8859,
      " несовершеннолет": 8860,
      "76": 8861,
      "ab": 8862,
      "ep": 8863,
      "Аэро": 8864,
      "ыми": 8865,
      "тория": 8866,
      "голь": 8867,
      "ету": 8868,
      " преж": 8869,
      " фаль": 8870,
      " перечис": 8871,
      " информи": 8872,
      "жность": 8873,
      "альная": 8874,
      " возме": 8875,
      "ссам": 8876,
      " смогла": 8877,
      " школ": 8878,
      " инфек": 8879,
      " угрозу": 8880,
      " обещ": 8881,
      " тренера": 8882,
      " транспортных": 8883,
      " беремен": 8884,
      " поступило": 8885,
      " отоз": 8886,
      " отреаги": 8887,
      "Читайте": 8888,
      " Светлана": 8889,
      " живут": 8890,
      " дисквали": 8891,
      " трагедии": 8892,
      "gram": 8893,
      " d": 8894,
      "-ка": 8895,
      "Банк": 8896,
      "Встре": 8897,
      "Кур": 8898,
      " полета": 8899,
      " довер": 8900,
      "диа": 8901,
      "сской": 8902,
      "део": 8903,
      "стили": 8904,
      "нулся": 8905,
      " мото": 8906,
      "ковского": 8907,
      "Наи": 8908,
      " силами": 8909,
      " ОБ": 8910,
      " ФАС": 8911,
      " перено": 8912,
      " рубрике": 8913,
      " обращение": 8914,
      " данной": 8915,
      "ректор": 8916,
      " гражданам": 8917,
      " судья": 8918,
      " армия": 8919,
      " духов": 8920,
      " Bo": 8921,
      "Информа": 8922,
      " молодо": 8923,
      " продукцию": 8924,
      " медиа": 8925,
      " сексу": 8926,
      " руководителей": 8927,
      " требуют": 8928,
      " пропаган": 8929,
      " смысле": 8930,
      " злоупотреб": 8931,
      " корреспондент": 8932,
      "юнх": 8933,
      " испыты": 8934,
      "\"Если": 8935,
      "ВА": 8936,
      "зента": 8937,
      "твор": 8938,
      "шут": 8939,
      "стской": 8940,
      " тща": 8941,
      "луй": 8942,
      " бывает": 8943,
      "гию": 8944,
      " мон": 8945,
      " моно": 8946,
      "бии": 8947,
      " Паль": 8948,
      "никах": 8949,
      " трево": 8950,
      " лега": 8951,
      " оборон": 8952,
      " двусторон": 8953,
      " Яцен": 8954,
      " крупном": 8955,
      " решила": 8956,
      " продоволь": 8957,
      " предположи": 8958,
      " торговых": 8959,
      " цвета": 8960,
      " объекта": 8961,
      " прекратить": 8962,
      " бюджетных": 8963,
      " третье": 8964,
      " привело": 8965,
      " министерство": 8966,
      " помещения": 8967,
      " поддержать": 8968,
      " голову": 8969,
      " препаратов": 8970,
      " шанс": 8971,
      " комментариев": 8972,
      " соцсети": 8973,
      " Казахстана": 8974,
      " достоин": 8975,
      "Ти": 8976,
      "Тур": 8977,
      "Чис": 8978,
      "фсо": 8979,
      "рик": 8980,
      " наше": 8981,
      "тье": 8982,
      "ваю": 8983,
      " непре": 8984,
      "ляли": 8985,
      " отвер": 8986,
      " прият": 8987,
      " подзем": 8988,
      " сувер": 8989,
      " ведется": 8990,
      " ЛДПР": 8991,
      " осн": 8992,
      " Юрия": 8993,
      " участии": 8994,
      " управлении": 8995,
      "Каждый": 8996,
      " соответствует": 8997,
      " украинский": 8998,
      " причине": 8999,
      " Центро": 9000,
      " квартиру": 9001,
      " разреши": 9002,
      " зампред": 9003,
      " предприниматель": 9004,
      " начинает": 9005,
      " ежегод": 9006,
      " помогает": 9007,
      " договорились": 9008,
      " символи": 9009,
      "Благодаря": 9010,
      "Министерство": 9011,
      "700": 9012,
      "ноп": 9013,
      " нано": 9014,
      " неправи": 9015,
      "жие": 9016,
      "нуться": 9017,
      " ясно": 9018,
      " празд": 9019,
      " хотим": 9020,
      "канской": 9021,
      " начался": 9022,
      " сообщали": 9023,
      " пусть": 9024,
      " Каре": 9025,
      " информацией": 9026,
      " Наука": 9027,
      " установили": 9028,
      " последним": 9029,
      " заключил": 9030,
      " WADA": 9031,
      " огне": 9032,
      " взяли": 9033,
      " экспорта": 9034,
      " перспективе": 9035,
      " портфе": 9036,
      "ube": 9037,
      " Путину": 9038,
      " гимна": 9039,
      "Украина": 9040,
      " лож": 9041,
      "-при": 9042,
      "ЗО": 9043,
      "Тра": 9044,
      "оти": 9045,
      "пен": 9046,
      " петербург": 9047,
      " колон": 9048,
      " заканчи": 9049,
      "вода": 9050,
      " отличи": 9051,
      "действие": 9052,
      " строго": 9053,
      " защиту": 9054,
      " показатели": 9055,
      " называется": 9056,
      " риска": 9057,
      " рисков": 9058,
      " врачи": 9059,
      " частично": 9060,
      "ced": 9061,
      " требуется": 9062,
      " поддержал": 9063,
      "вейцар": 9064,
      "Большинство": 9065,
      " взаимодействия": 9066,
      " произойдет": 9067,
      "Предполага": 9068,
      "ud": 9069,
      "бю": 9070,
      "ванию": 9071,
      "ловой": 9072,
      " опаса": 9073,
      " поставить": 9074,
      "лос": 9075,
      " кори": 9076,
      " забро": 9077,
      " вызов": 9078,
      "нятно": 9079,
      " ВКС": 9080,
      "верд": 9081,
      " стоят": 9082,
      " валю": 9083,
      "чному": 9084,
      " возможных": 9085,
      "стых": 9086,
      " совершении": 9087,
      " Турцией": 9088,
      " Рай": 9089,
      " выполнять": 9090,
      "мяг": 9091,
      "частли": 9092,
      " ставку": 9093,
      " нынешнем": 9094,
      " большинства": 9095,
      " традиции": 9096,
      " девяти": 9097,
      " Вашингтон": 9098,
      "транс": 9099,
      " Государственной": 9100,
      " инженер": 9101,
      " прозра": 9102,
      "Золо": 9103,
      "Чер": 9104,
      "тли": 9105,
      "тку": 9106,
      " двер": 9107,
      " мани": 9108,
      " недоволь": 9109,
      "боры": 9110,
      " какая": 9111,
      "ленную": 9112,
      " интеллек": 9113,
      " Нем": 9114,
      " Олега": 9115,
      " долги": 9116,
      " получении": 9117,
      " цену": 9118,
      " куп": 9119,
      " продать": 9120,
      " войну": 9121,
      " Минэкономразвития": 9122,
      " исполнения": 9123,
      " Викто": 9124,
      " десятков": 9125,
      " выполнения": 9126,
      " играх": 9127,
      " аэропорт": 9128,
      " вернулся": 9129,
      " немед": 9130,
      " начнет": 9131,
      " артилле": 9132,
      " орби": 9133,
      " охраны": 9134,
      " карьеру": 9135,
      " инициативы": 9136,
      " Норве": 9137,
      "04": 9138,
      "63": 9139,
      "eg": 9140,
      "Зве": 9141,
      "НК": 9142,
      " снять": 9143,
      "анс": 9144,
      " мурман": 9145,
      "паде": 9146,
      "тури": 9147,
      "ковые": 9148,
      "жное": 9149,
      "Зато": 9150,
      "шенные": 9151,
      " импорт": 9152,
      " газете": 9153,
      "Какие": 9154,
      " фильмов": 9155,
      " успеха": 9156,
      " самолеты": 9157,
      " единиц": 9158,
      " канала": 9159,
      " старший": 9160,
      " мэр": 9161,
      " ведущих": 9162,
      " девушка": 9163,
      " Сбербанка": 9164,
      " Грузии": 9165,
      "Известно": 9166,
      "гр": 9167,
      "уре": 9168,
      "рои": 9169,
      " пони": 9170,
      " ушел": 9171,
      " непло": 9172,
      "дуют": 9173,
      " либера": 9174,
      " Двор": 9175,
      " судей": 9176,
      " Илья": 9177,
      " штур": 9178,
      " ужесто": 9179,
      " музей": 9180,
      "ждая": 9181,
      " Швейца": 9182,
      " ЧП": 9183,
      " собственных": 9184,
      " проекту": 9185,
      " оппонен": 9186,
      " школу": 9187,
      " сборную": 9188,
      " политические": 9189,
      "ite": 9190,
      " обязательств": 9191,
      " клад": 9192,
      " товары": 9193,
      " единственный": 9194,
      " используют": 9195,
      " выставки": 9196,
      " принципи": 9197,
      "Нужно": 9198,
      "ung": 9199,
      " Ставро": 9200,
      " договоренности": 9201,
      " гендиректор": 9202,
      "Сво": 9203,
      "Ян": 9204,
      "ульта": 9205,
      "эффек": 9206,
      "нием": 9207,
      "вай": 9208,
      "вах": 9209,
      " допуска": 9210,
      " изначально": 9211,
      " каб": 9212,
      "суэ": 9213,
      " Тру": 9214,
      " такси": 9215,
      " первен": 9216,
      " осве": 9217,
      "ционном": 9218,
      " Англи": 9219,
      " основания": 9220,
      "tal": 9221,
      "торых": 9222,
      " открыл": 9223,
      "опасности": 9224,
      " человеку": 9225,
      " признали": 9226,
      " ссыла": 9227,
      "Газете": 9228,
      " никакой": 9229,
      " ряде": 9230,
      " задач": 9231,
      "шкина": 9232,
      " Дама": 9233,
      " поселке": 9234,
      "Лидер": 9235,
      " построить": 9236,
      " концерт": 9237,
      " гражданин": 9238,
      " Узбекистана": 9239,
      "Результа": 9240,
      " b": 9241,
      "\"?\n": 9242,
      "ss": 9243,
      "Чет": 9244,
      " плюс": 9245,
      " сей": 9246,
      " манда": 9247,
      " преде": 9248,
      " силови": 9249,
      " Фо": 9250,
      " российскую": 9251,
      " участки": 9252,
      " Вооружен": 9253,
      " опять": 9254,
      " признался": 9255,
      " позволи": 9256,
      " терроризмом": 9257,
      " продю": 9258,
      " замед": 9259,
      " карто": 9260,
      " спортсмены": 9261,
      " Великой": 9262,
      " ремонта": 9263,
      " полномочия": 9264,
      " напрямую": 9265,
      " высказы": 9266,
      " разведки": 9267,
      " ФРГ": 9268,
      "Дмитрий": 9269,
      "-у": 9270,
      "атра": 9271,
      "корей": 9272,
      " игре": 9273,
      " зал": 9274,
      " проник": 9275,
      "деб": 9276,
      " общий": 9277,
      " допро": 9278,
      " прино": 9279,
      "чивать": 9280,
[...]
