#version: 0.2
  к
а н
а р
  б
ы н
а л
  ж
е н
д а
. 

и н
а т
  т
е р
  м
а й
у у
к т
о л
  с
ы л
г ан
  э
ү н
у н
д е
и р
о р
д ы
  а
г ы
о н
у р
и л
с т
и я
е т
  ч
г а
е к
у л
ш т
  ө
ы р
  ал
а м
е л
ы к
а к
а с
ө р
ы п
д и
о о
ө н
  ай
 б ол
ү ү
  де
д ар
ш к
т т
  и
д ын
  о
г ен
а п
и к
ы з
ын да
у к
 б а
 м ен
  п
  К
ан а
ү р
а б
 мен ен
и з
  "
ы м
  ар
и й
 к ар
д ан
 ж ана
о к
ат т
 б ир
 ж а
 э л
о в
к ан
д ө
 к о
  да
  у
 б ер
ст ан
ар ы
е с
ы й
  А
о г
 ж ат
и м
е й
ү ч
 к ө
у с
ч а
ц ия
 э к
ү л
 к ел
ө л
у п
  д
ын а
гы з
  Б
ан ы
р а
л ар
ыр гыз
е в
 де п
  ш
 м а
и ст
м а
т к
д у
г е
р е
д ин
ын ын
д ен
и п
г ө
 т ур
да гы
ү й
 б ар
г и
к а
ы ш
е кт
ал ган
 б о
ю н
ды к
б а
г он
 к ыз
л и
 т ар
 б ил
ет т
ү з
 ай т
 ж ар
 ө з
  ат
 с о
 э м
н ын
а з
с к
  н
ү п
да м
ө т
 эл е
  Т
  үч
а ган
е м
к у
е п
и т
ан ын
 ч ы
с ы
  Ж
и ш
- ж
ыргыз стан
ай л
б ек
у ш
г өн
 к ат
  М
  С
 к ыл
ал ык
 и шт
ал уу
  -
д ир
 ө л
з и
ер и
у м
2 0
 бо юн
ин ин
ал ым
  ор
 т а
 боюн ча
 б ул
у з
да й
м ат
 бил дир
ин де
 бол гон
  О
ү м
о т
 т уу
 үч үн
л ек
 к ай
 ма алым
г о
е ң
 к өр
д о
-ж ыл
е ч
 к ал
 жат кан
 к ор
А л
 ж ыл
  р
 с а
ш ы
 к ол
кт ар
 т о
 и ш
ин ист
 ж ол
ре зи
рези ден
д ун
 өл к
ам лек
у т
г ил
д ук
о м
 к аб
ү к
ер л
е г
ин е
инист р
 а дам
 ж ет
Б ул
 ко м
ү ш
а ар
 т ал
ус ия
 к үн
а ды
 ба шк
 де ген
 ж үр
 эк ен
 а к
б ай
ыл ган
ын ан
ч у
е ш
ч и
 кыз мат
а ш
 к ур
ал ар
л ык
 ж ок
 к ер
 бол уп
 к ет
 к ий
 к ан
з ам
ун ун
ер ди
 м амлек
ей ин
р усия
 ө к
оо п
 К ыргызстан
уу га
 ба ш
ч ы
 м и
ө ө
Б ир
үн дө
 ч ейин
  У
шк ан
ү г
к ы
 туу р
т а
ас ы
 туур алуу
 п резиден
л ан
а в
у г
 у ч
 б ел
 а з
ун а
 ж ер
ч ыл
ар т
 жа з
 тур ган
ый зам
ун да
  ф
 эм ес
д он
дар ы
 кий ин
я н
е б
б л
" ,
и шк
 к ир
а гы
ы кт
к ен
д ү
 ж ак
  И
 жат ат
е з
и кт
ч ул
а га
б о
 б ас
д ер
 кер ек
  ул
 чы г
 ба шт
уу н
 м ыйзам
  (
 ш аар
үн ө
А н
 ө т
к и
 с ал
 м инистр
я с
ар дын
 ал ып
 б ий
О ш
д өр
у кт
 ө тк
 мамлек етт
с ыз
 уч ур
ерл ер
к е
э э
р о
 маалым ат
 м ил
ө з
 да гы
ө м
уу л
б р
 кө п
  ан
  үй
 ал ган
м ан
 эк и
 к ам
 б айл
ен т
үн үн
 О русия
 бел гил
я бр
 б ал
  ук
ор у
а ж
ра ин
 тар т
 ш айл
  Н
у шт
-жыл ы
  аны
дар дын
 ж ай
 кө з
ы шт
атт ар
ар л
 байл аны
 ми ң
 м ур
өл өр
 к үч
. .
 т үз
я л
 о ш
т ер
А з
 б из
иш и
 у ю
ында гы
у ст
 к а
  з
ыл уу
  в
  анын
и с
 м ас
 д ол
 ч еч
 кел ген
 и ч
ө й
ег из
- м
Бир ок
ч ил
ин чи
 чыг ар
ди к
 ай ма
р ан
 с өз
 са яс
 билдир ди
у тт
 президен т
ал ы
 экен ин
ы т
 жа ш
ый ын
и ев
ба ев
о с
 о ку
 ө н
 жа ң
үү гө
т өр
 өлк ө
 а б
к үн
т ы
 ж өн
оо м
к раин
 о бл
 жар ан
уу да
м ө
 кар шы
и в
 о к
 ч ык
 мас ел
г ү
ог ор
? 

кт ан
д өн
ия нын
д оо
 башк а
 көр с
 б өл
 у ш
ор б
  Р
 т үш
у га
1 9
 а ш
с уз
атт ык
ак ыр
ин ен
с о
  ин
 т өр
  П
  Д
ик алык
үм күн
  Г
а да
А лар
  ил
 о ор
аз ак
 м үмкүн
ө ш
ар ов
с а
с ынын
 байланы шт
е ген
20 2
ы шк
 чы гы
 э с
 бер и
 бол ду
 кан дай
ей т
ал ды
 шайл оо
с и
ал дык
г ында
 ишт ер
 кар м
й т
ес и
ай он
л ик
  ре
ар ын
д уу
г ын
 а ск
 к алган
огор ку
 ж е
  Э
а ция
 мамлекетт ик
ү т
а кт
- б
б ыз
 с ур
 н егиз
д ор
ды р
 м ак
 ко ш
 р айон
20 1
д үн
 ж ары
 тал ап
1 0
орб ор
ал ып
К ыргызстан
ган а
 к оом
өн үн
о б
и ция
ыр кы
ч ү
 бол от
 к ыргыз
л өр
о кт
и б
  гана
о ң
ия лык
е ди
т ур
ай ын
ар ды
 эм и
с п
Б из
аз а
үй н
 министр ли
 ч ек
 т үр
 ал ын
 а ч
 к ооп
 ч акыр
 бий ли
 т ап
 т ер
ай т
и г
 э р
ен тт
ун у
 чык кан
 к иши
үн ү
ч үл
г из
 ж ас
 п р
 ар ак
 каб ыл
 ж ыйын
ында й
 ай ып
 байланышт уу
 Б ишк
 са кт
 ко ю
 к атт
 жаткан ын
д үү
 а в
 айт ып
Ө з
 то кт
 кат ары
ар а
 ж ооп
еп т
 жаң ы
 ую м
ан ия
а шт
ц и
ел ер
 то п
 ар алык
он до
К Ш
ас ын
 с үй
 деп ут
м өт
е шт
 ж ал
ябр да
ч ө
 тар ап
с ү
 У краин
 кыл м
 ал дын
азак стан
 өтк өр
р ам
дар ды
тт ы
 к ең
р ым
ы с
уун у
 өк үл
 бер ген
г оо
у б
 кыз м
 и шк
л а
 к ыр
 п арт
ен и
ас ында
 бер ил
 мил ли
 со т
 со м
ыл ып
 кызмат к
  Ш
ап аров
 п ай
  Ч
утт ук
ү кт
 ай ыл
к ин
 к ый
 кет кен
 обл ус
чы сы
бек ов
 ж ум
 ком п
 ат к
ас м
ат ы
 бол со
 с ан
  Е
он ав
  ыл
 айт кан
 кө б
үг үн
 т ил
с ия
е ст
А нын
үү дө
он ом
 чеч им
 т ол
арл ам
  В
онав ир
е ги
 с ог
 дол бо
 сүй л
аб ыз
 кооп суз
г ына
я р
 э ск
н ал
 ош ол
 к ез
: 

  ур
 ко й
 кай р
 жет ек
т о
 көрс өт
үл гөн
 кай ра
 кар аган
 билдир ген
и де
д үр
 жар дам
 ч ет
 де ди
т ыр
 с ун
ыш ат
ыш ы
 Ж апаров
 оку я
үр к
т ан
ыт ай
 о й
 ал ар
т ор
ады р
ыл ды
г ер
 д үйн
н е
ур нал
оо го
 ыл ай
 кор гоо
 к он
 жак ын
 мур дагы
 жа шт
 парт ия
 ал уу
ог он
 кызм атт
 жүр г
ик а
к ү
дар га
 э ч
 у ба
т ар
 жол у
с е
асм ий
 ж аб
уш у
 өтк өн
 де л
ул ган
 кир гиз
урнал ист
 учур да
 өлк өлөр
  ыр
3 0
 А з
 с ат
г өр
о й
 кол дон
ер дин
т ын
ал да
ор т
 өк мөт
 ал бай
кт ы
 ылай ык
кт а
ро п
ол ог
 аз ыр
чул ар
де й
 бир и
 К ең
- и
ы гы
ө п
ек ем
 ай тты
М ен
 о тур
 башк ар
 өз гөр
ондо й
 а п
үү лөр
 ул ам
 де м
 ал ды
 ар а
  Л
ү шт
дөр ү
т уу
ар тт
 чыгы п
 п арлам
н о
ре м
ат а
г ун
 со ң
 тал к
 ич инде
 президен тт
 уш ул
ет и
 кор онавир
 аны кт
 жүрг үз
 А л
ан да
 ар к
 түш үн
с үн
 ор ун
  Х
 кел иш
 Кыргызстан дын
 а ба
ы шкан
 а ял
ун дагы
 со тт
м ия
 т аб
 а кт
 бир ок
атт ы
и ги
 долбо ор
 бер үү
 к ес
дө ө
.. .
 и з
1 5
О русия
 кел ет
 ч оң
 б ай
он у
де к
 караган да
  дар
  г
из м
ал иев
а шк
к ер
с ат
 кар аж
 жал п
о ск
ышт ы
 ал ардын
 кал ды
уу с
ү үнү
 м ай
ир и
 саяс ий
 жөн үндө
 жары ял
 өз ү
ө өн
 м ындай
 Е в
 Орусия нын
ер ин
уу чу
икт үү
 эл ек
ат кан
 комп ания
 милли он
 ч ар
 т ышк
еч е
 к аза
ын дан
м үр
  Ф
- к
 ж урналист
ас ынын
ак ка
 А КШ
ө к
ол ор
 да яр
 арк ылуу
р ел
с из
а х
 бол бо
 тар ма
ал ан
- А
 о п
 ай рым
ыкт ы
уг у
 президент и
 дол лар
оск в
 бий лик
а ң
 а я
ц ин
с ын
ерди к
 э э
 тур ат
 м л
ов а
 дел е
бек стан
- т
к о
 б орбор
 К азакстан
 а д
 к үр
  ли
ө гөн
ас ына
 саяс ат
 эк оном
де ги
-жыл дын
 кел ип
ган ын
 кат ар
он ун
 а га
үг ү
 ор ус
гил иктүү
 каб ар
 м үч
 Ж огорку
ерл ери
Б уга
 э ң
 кө төр
 н ече
 р асмий
ин г
 бир инчи
е х
б үз
ов дун
и шт
дө гү
м ер
ил ген
ция лык
 кат ыш
 атк ар
өл үк
 с еб
л ор
 А б
ый ыл
Өз бекстан
 У л
 кыр да
 ч ект
 кыл ып
 бер ип
- с
 к им
ци алдык
у бл
ер т
0 0
Аз аттык
 ишт еп
ган дар
ыл ык
ө тк
 ком ит
 К ытай
 айып т
ш ыр
ст ит
в ар
 с т
 турган ын
б ей
гө ө
аж ик
 Бишк ект
 жак шы
К М
 жүр гөн
 т ий
 коопсуз дук
ю л
ан ды
 б уз
 ч ог
 с уу
 кылм ыш
 эс епт
 күн ү
 ж ең
өм өл
лар ды
г ыл
 б уга
т ин
  он
- окт
 ма ан
 ат айын
ал ат
ок ур
 т өл
ң г
ди кт
 Кең ешт
 т үн
 ор т
 төр ага
 кызмат ы
ен ин
А й
1 1
етт и
 министрли ги
г инин
ө тт
 ми г
 А к
 көз өмөл
 жалп ы
 сүйл өш
 эм не
 Б ат
т ир
 п ик
ган ы
шт ур
ү шк
о п
ун ан
ер г
етт ик
А к
 өлк өнүн
д үк
- К
 каб арл
 дүйн ө
 жер де
 мамлек ет
 с ыр
ок ум
  дары
 арак ет
 иш и
 бар дык
Ош ол
н ы
 т ы
ажик стан
 коронавир ус
- С
ек е
п ай
ог у
 ком ис
кт уу
ал а
ек ш
 Кыргызстан да
ес п
 ил икт
мө тт
  З
20 0
 туу ра
 с ын
 кур ул
р уп
ым ында
 м еди
 С адыр
 ишк е
п и
р ат
гө чө
г уст
 бер ди
Б ишк
 бол чу
- ч
ам ил
1 2
ер с
 кең еш
 ул ан
 м ект
 ко з
л ер
 баш чысы
 ак ча
 келиш им
 кар ата
ду ктан
шк а
 бийли кт
 ба гы
 эк сп
 да й
Алар дын
 сакт оо
 ка ч
У ш
 Т үрк
 сун ушт
 жа г
 ач ык
б ы
аб р
есп убл
лан ган
ы я
 т ын
 жат ышат
 б еш
чыл ык
 пр окур
 эл ект
 айма ктар
-б үл
 со циалдык
ат ур
ы ктар
 и м
 ар ыз
 кош ум
Аз ыр
лар дын
 с аны
 аб ал
ол гон
 айт ымында
ян вар
 Бишк ек
П резиден
 башт аган
 оор ук
1 4
ыл ат
 жашт агы
 ую штур
аар аз
 с алуу
ун дай
КМ К
 кыл ган
 бас ма
ет инин
 М оскв
 ж ан
 к иш
 ба ары
 д об
- э
 парлам ентт
ыл м
 пик ир
1 8
ер ге
 кур ал
алар ды
  уул
 ж ог
 ч аб
 с ап
 токт от
-м ай
р и
 э н
ары х
чи си
 акт ив
Э м
к ө
с ына
т үү
о зи
- ап
 эр кин
  ди
 кам сыз
К ыргыз
 обл уст
-ап рел
 төр т
 кырда ал
 д окум
 н аараз
 тер гөө
 өт ө
ө кт
ди м
1 6
м ен
 жер гиликтүү
 мак ул
1 7
 т и
ес ин
 т ел
 кел тир
ь ер
 ар асында
 мур да
 жол уг
 О ш
 белгил үү
 көб өй
 б ан
 м амил
 шаар ында
 к ы
 өт үп
т ам
ран тт
ба д
б из
 алын ган
 кою л
2 5
г ин
тк а
еб и
Э л
 күч төр
ал ам
 Кеңешт ин
ев р
 м екем
 министр и
Ан да
 к еч
 Аз ия
 ж үз
га ч
 иш ен
-А бад
 А р
 мил де
 карм алган
 д ал
 маалым аттар
 ай ында
ут ин
ра ция
 адам дар
 биз дин
ал ь
 жай га
  Өзбекстан
 күр өш
 та ас
1 3
 тап шыр
Ош он
атт уу
 бо ш
е д
 с ист
 м өөн
ар га
 орт ос
үш ү
үл үп
т ик
б ул
 к ыргызстан
ам а
с у
 с ыя
 масел е
 бар ып
 кай т
рем ьер
с ан
артт а
ю у
 аск ердик
уун ун
дар ын
 ат а
 жетек чил
 с үр
 өк мөтт
 мил иция
 та ж
У краин
ар дык
а дагы
 кар ап
 бил им
 ат алган
 жүр үп
 а ген
 т арых
кт ын
 ак ция
ишк ен
 сыя ктуу
 с п
ор тт
ех н
- Б
с ык
 тарт ып
 ан дан
 ок уу
үшк өн
тк ени
 тол ук
ия да
у д
 та ан
 жаткан ы
 тын ч
 бол ушу
Ан дан
 аш ык
 кор к
- ав
үн өн
 б үт
 з ар
 в иде
 кой гон
ер ен
шт ыр
 алдын да
 Ев роп
-ав густ
- но
А р
 жыл дан
 коом дук
да п
ын ча
  ун
Э к
 түшүн дүр
 ишт еген
-и юн
 комис сия
т ык
 к ем
 чаб уул
-м инистр
 бас ары
а ев
 Б ир
 ө р
 ли д
 ти еш
 башк ы
- январ
үр үү
А га
ал ары
с ун
 жары я
 Т ажикстан
 элект р
 ой л
 төрага сы
 болгон ун
екш ер
 соң ку
 т ак
о ш
 мл н
 түн кү
ар ат
 б ыйыл
 кор руп
 а ж
де п
2 4
 ук ук
- дек
 э т
 район дук
 о юн
 Н ур
 аген тт
 п ол
Кыргызстан да
 жар а
-дек абр
 мыйзам сыз
д үз
ээ н
 сат ып
 айт ылган
 чы кты
 сал ын
  ра
ул уп
 эк инчи
 жет к
 тур гун
д огон
 өлкө дө
 бийли ги
-с ент
 Б орбор
уу лар
ыл тыр
 ич ки
к ын
 уш ундай
о ор
 К ар
 кол доо
 т ең
 билдир үү
 ө мүр
ра ил
ж ан
 көрс өтк
 у з
атт а
де мия
М ындан
 арак етт
 жыйын ты
стит у
 өз гөчө
 т екшер
 д ин
ек ен
 п ро
 доб уш
 коз г
 ак ыркы
 коом чул
 ил им
 то б
чыл ар
лан ды
 ул уттук
ус у
а ст
 аш уун
-окт ябрда
а г
 А й
дө й
инде ги
м ак
 с оо
к ул
 т ам
Э гер
и ч
ыкт ын
 мүч ө
 де йт
ч ал
 министрли гинин
ү ст
 өн дүр
иг ин
 аз ыркы
 ж еке
 ук укт
о ган
ем ир
 тышк ары
д р
 ба з
А КШ
ог рам
Ош ондой
5 0
 бер ет
 башт алган
 ал гач
 өкүл ү
ал ал
 маалымат ына
 б үгүн
М а
 к үт
тк о
о ст
 о ң
 мүмкүн чүл
 кер ект
 т ехн
кт ылуу
 и шкан
ң үл
 та кт
- п
б ак
амлек еттик
 берил ген
 б ур
 Ул уттук
с ак
ерлер дин
 күн дүз
 жум уш
ози ция
 ал а
ур да
 жыл га
-и юл
 өз үнүн
 ош ондой
атт ын
 таас ир
- ф
 кай сы
 шаар дык
 кө ч
 жетк ир
ды ктар
о з
ай ым
г ынын
м ыл
ды гы
 түнкү сүн
Т ал
 экен и
 ан да
т ип
 та аны
шт ы
 сог уш
к ат
 П утин
 белгил еди
 кө ңүл
ңг ээ
тт ү
 өкүл дөрү
 де ңгээ
 прокур атур
 к л
и ц
М ындай
д огу
 т изм
 маалым да
атт ары
дер дин
ел үү
р ит
 актив ист
ю м
 ар ал
", -
 жаг дай
 в ир
з раил
  ге
ор м
10 0
тк е
  л
 с ый
аб ай
 президентт ик
У л
 кел ди
 жаз ды
оган стан
 негиз ги
 сист ем
етт е
 К ор
 ты юу
т и
ат ка
 кез де
 соо да
Кыргызстан дын
 бал а
де ген
 б ек
Ан ткени
 миг рантт
т он
2 2
 меди цин
өр ү
с үндө
ук ка
ээ р
 зар ыл
 жат абыз
 бөл үм
 жетек чиси
 иш ин
 пай д
тт ер
ел ен
 К он
Президен т
 өз үн
у шка
тк өн
 та ш
 кай тар
у тк
 бар ган
 пай да
 с алган
 кый мыл
 эконом икалык
- Т
 эн ерг
 ком м
 учур унда
 жолуг уш
а ч
д ж
 бер е
 к ен
о олор
 к үй
тер н
 ал ууга
 дай ын
н ун
 бош от
к ция
 ай лан
ду м
г ел
алар дын
Ы сык
 б у
 ал ма
 ав то
  оо
 ф он
 башкар м
 өн үкт
л ам
е ф
 жаз ган
2 7
А т
 из ил
о ол
лар га
 жар ым
2 8
2 3
ил үү
 к етти
-К өл
 ко тор
ия т
им ов
 ж огорку
гө й
-м артта
н а
т үр
 кир ген
 мак сат
  х
 Бат кен
 кол до
 а ди
 корк уну
 бал дар
 ишт ери
б ол
 ал ка
им ди
ас а
 жооп кер
 ур ук
 с аб
Ошон дуктан
ашк ы
  ир
р ес
 ал ат
 А н
 мөөн өт
 уул у
ограм м
 тар аб
 ор ган
  ири
олог иялык
 облус унун
 жаз ылган
 мект еп
 сог ушт
 эск ер
э р
 ч ын
ег инде
олог ия
 оп ер
өн ү
-май да
-ф евр
 бас ып
 жаран дык
дим ир
 Ж ээн
р д
ал ап
ү б
ла димир
 докум ентт
  шт
 тышк ы
 өл үм
 облус унда
да ш
г ине
ар и
 уба ктылуу
 себ еп
2 6
Ж огорку
 жаб ыр
 И н
 к ит
ект е
К азакстан
ал дуу
 т үшкөн
 Кыргызстан га
 ф акт
 пол иция
 Украин анын
 багы тт
 бел ги
 ж иб
 аж ыр
 кан ча
 кызмат ынын
 топ т
 ал ты
-август та
 депут ат
алар ын
 Э р
 белгил ен
 ук раин
 кыз ык
ак ет
-бүл ө
 кылм ышт
б өй
аб ы
 ад м
 жоопкер чил
о ону
 у бак
 маан илүү
 оорук ана
 ш ект
 п ремьер
 ко дек
 башкарм алы
ем б
 миң ден
чүл өр
 к ап
 бай к
У ч
-апрел де
 сал ам
ч е
  үст
 б ейт
 кийин ки
 кошум чал
б ейт
у ктар
ар д
 ж ый
 кө й
 Э л
 аск ер
 жа кт
 ш арт
л ары
 ар мия
Азаттык ка
 иликт өө
ас ындагы
м он
 ал арды
 корруп ция
К ор
р ор
ан демия
уг ун
 Б ак
  C
 чейин ки
 болгон у
 кат уу
 ж оо
ба ган
ит ардык
 ре ф
 са ат
 негиз инде
 В ладимир
 баш ында
ар ий
ия га
 Б ай
 эр к
 с ок
ет р
 Украин ага
там баев
г ар
 кал ып
 кет ип
ябр ь
-но ябрда
 алка гында
 кел е
 оп п
р он
 сун уш
 президентт ин
  ол
 п лан
 деңгээ л
с инин
ар ынын
 б ю
 ак ч
 кызматк ерлер
ск ий
ишт и
 кал а
 ор усия
в ок
 кайр ылуу
ор ун
 эл дин
 эл дик
2 1
в ест
 и й
ок рат
Орусия нын
с ин
 журналист тер
-июн да
У КМК
19 9
 ра ди
 пай ыз
 к уб
ө шт
ак ч
 ар т
 аб дан
 урук сат
 жаш оо
 б ат
 көй гөй
 м ун
с ул
 башт ады
Уш ул
ог о
үшт үк
 шайлоо го
 м ындан
о онун
 кө л
 өн өкт
ан дык
 ма ш
 дар ыл
у ма
ым ал
чул ардын
өм өн
ы ң
 К ур
с үз
 с ез
а дан
с ө
 бейт ап
 айт ылат
 адам дын
 кат ышкан
 та шт
 кар ж
ес ине
; 

 ма дан
дар ына
 жар ат
үү чү
 кабарл ады
  ыкт
 ка ал
 со тко
-январ да
у х
ды ктан
 с айын
ом бул
 кыргызстан дык
дар ынын
  ый
 Ж алал
Эм и
 жарыял аган
м өн
ер се
ат ый
га з
ү үнүн
-декабр да
 бер ен
 көр үн
 Жээн беков
уус у
 кызматк ерлери
атый ж
Ө к
еб из
  ык
ре ж
 жат ып
 кат чысы
а ктар
 ө ттү
ө өлөр
ат ор
ел ар
 жаш аган
  уу
 т ез
ам м
 кам акка
2 9
 т өмөн
У У
о д
Б ат
г ек
 ал тын
 мл рд
ит инг
б ир
 талап кер
ак цин
 пайд алан
д алган
Ма алым
 жайга шкан
 мур ун
д ерди
 көп чүл
еспубл ик
 бас ым
 н ерсе
 көр үп
 аш ыр
ыл ыш
етт ин
 чет ке
 эск е
V I
 өзгөр т
 О оганстан
 ав т
 сал ып
 ор дун
 ил де
ө г
үй ш
ишт үү
 жең ил
Ан ы
ент арий
-сент ябрда
 коркуну ч
е шк
 ор гандар
 тиеш елүү
 ж ап
ел ерди
Уч урда
ив ерс
 ар ада
 И ран
ө гө
 тараб ынан
 алгач кы
ст р
 у ча
 сот у
 ш ек
 жөн өт
ал им
-ч ар
ы гын
 т уш
 өткөр үп
 катт алган
 д ир
ер ман
өр үн
 айма гында
И М
 чог ул
 к р
 м уну
 опер ация
 каб ин
 күн дө
 комм ентарий
 ар ы
бай т
 к аз
 талк уу
иб из
ээр лик
 белги сиз
 милде тт
а шы
 а чыл
 дем ил
 авто уна
атт ан
рам п
 депут аты
 о ору
б еген
Б үгүн
 азыр ынча
иверс ит
ез гил
 ин вест
 тарма ктар
 наараз ылык
ь я
 э реж
 жа ктан
м о
л оо
 баш чы
 коопсуз ду
-июл да
 тур укт
 тап кан
 м ат
 ре ж
ес инин
 жер ге
 о б
 А тамбаев
 д ен
уст ун
 б ет
Биз дин
 в акцин
 о т
 жаз ып
o n
 милли ард
 з ы
ий ин
 дир ект
  I
 бю дж
 к ыйын
п л
ч ки
кт агы
ылган ын
О р
с үнө
 чакыр ды
 Европ а
 т ов
 ич инен
 к еп
үл дү
Бишк ек
4 0
дө гөн
Т үрк
 п андемия
 жыйын ында
 р акет
ң из
ар к
 Кыргызстан дагы
уул ук
 эр т
-э н
п өй
 чыгар ып
ум төр
 башт ап
 таж ик
 түр дө
ды гын
ем п
 ун иверсит
г ерлер
алар га
 сүйлөш үүлөр
 кар анды
 караж ат
ул ат
 ин ф
Ө л
 м езгил
 т ан
 жиб ер
ир үү
 б ылтыр
 ав тор
 сан кция
 ор то
-жыл дан
 окуя лар
м ок
 м уз
тт ин
 жыл дын
с лам
 түз үлгөн
 сыр тк
 ө с
б ү
ил ер
 чы га
 кал тыр
 тур г
М инистр
ди ги
 тил к
аң ы
 кар ашт
 ыр аст
ал ында
М ис
г үл
 кир ип
 М ам
 лид ери
 ая кт
 Кон ститу
алуу да
и д
 АКШ нын
 медицин алык
Аз атт
 кызматт ан
үшт ү
 ади ст
ышк ы
х ан
 к ым
 а ян
 ук угу
тт и
 д ээрлик
 м итинг
б ур
 өт үн
 билдир ип
ш у
 та г
 коюл ган
Э ки
.. .

 карм ап
уу чулар
 кошумчал ады
 эл чил
е ге
 к уу
 түр к
К ар
ел ери
 пр ограмм
ал дар
Э р
 учур лар
e r
ма з
 шаар ынын
 кур ам
тт ан
укт ур
 тарт кан
 И зраил
 сп орт
ам ан
 сур оо
ар ына
 дал ил
 мат ери
 тер рор
 ад вок
 ди пл
 масел еси
 депут аттар
 Бишкект е
 ортос ундагы
 мак с
 орусия лык
ист тик
ли кт
ашт ы
 мүч өлөр
 көб ү
К ийин
ат ив
  Ысык
атт ардын
 жет иш
 масел елер
-Б и
 зы ян
 бо й
 ради ос
Ш К
 ишт ет
ери шт
укт у
 Т аш
 өл түр
 өнүкт үрүү
 ок ш
ай н
 Орусия га
VI D
 с өө
O VID
Мис алы
) 

 К ыргыз
дор дун
 кес ип
 кан тип
  газ
аз ар
 ж о
 У КМК
 талк уул
Ул уттук
 Аб д
уу дан
 т ран
 чыгар ган
 аск ерлер
С о
 кал ат
 виде о
Б ий
ев дин
ция нын
ж ол
 ба арын
чул ары
 өн үг
ыс ынан
Азатт ыктын
 бар акч
ег ер
дүү л
 жет и
 тел еф
 кайра дан
кт ык
 кою п
ин а
ат ра
 жас аган
 к ээ
ге мен
өө гө
ал п
ил ип
 а да
 караж аттар
 көр гөн
-февр алда
у ден
ей с
ол ь
 район унун
И н
 өкмөтт үн
ыр м
ас ынан
 болбо йт
оо чу
акт а
 парламентт ик
ол ду
 та ң
ч алык
 т он
ей ш
" К
ор лор
 жыл ы
 дин ий
 а с
ил ет
 С а
 кым б
  үл
! 

ем пи
 ка дам
 парлам ент
Б ыйыл
 ин стит
 эконом ик
 жог ору
 с ында
ыл бек
 эск ерт
 к ул
Е в
 тур уп
 Э м
 белгил еп
ул тан
 К ам
 н атыйж
тк ен
 бас ылм
б уз
ыр ып
 ш артт
 м екен
  аттуу
 кар ан
ерл ерди
 кошум ча
г ындагы
е я
  Ө
 Т рамп
б етте
де л
Ан ан
 район дор
 к үб
 кыл уу
 бол о
 күн дөрү
 ба ян
 жарыял ады
т ай
 т е
 мамлекетт ер
С үр
 ми с
М ур
ы б
 партия сынын
г ынан
 ф ин
А б
а стан
ын ы
 бан к
ч усу
 к ыс
уг алим
 бөл үн
ин и
 Т ок
инист рация
 өкмөт ү
 макул даш
а д
 сотт ун
 мамил е
 Казакстан дын
 курул уш
 м эр
 ир ет
 сыртк ары
 шаар ындагы
 максат ында
 көл өм
 ыкт ымал
 долбо ору
 аныкт алган
г у
 та ян
 Ч үй
с ында
ол д
е дер
ж ы
ас п
 кызматк ери
ар ак
 алар га
 үй лөр
 адм инистрация
ер бай
 Б ашкы
 м үл
 з омбул
 бийликт ин
 катт оо
ан дын
 ж ерлер
 айткан да
 облуст ук
 ай ынан
6 0
б ия
 кар абай
ат р
 А лек
 кыл ды
 оорук ан
 с ай
 ч емпи
с уна
ан ас
 адам дардын
 миң дей
Ай рым
оор он
, 

К ытай
 кыз ы
ушт у
 киш инин
 Б рит
та ж
 ө ч
 улан т
С еб
 дүйн өлүк
ес инде
 тов ар
 вир ус
мат ов
 ортос унда
 жарыя ланган
ул ду
 дем ократ
өтт үн
л им
ия дагы
 ап та
С а
 мамлекетт ин
ө өл
 аб алы
 ст уден
 мүчө сү
 бол уш
 биз ге
 а г
 т еришт
ол уп
 көрсөтк үч
 жок ко
-б ерен
елен ский
й р
 ук уктар
-С и
 б ү
ум ан
 талап к
к өм
м ин
 ж уг
 тап та
 чечим и
үндө гү
 кызык чыл
 түш үп
 эм гек
алам аттык
к ор
 кыр сы
 телеф он
3 1
 түз гөн
 ээ л
ак ция
 Б ек
п ей
ан ган
 көп т
 ап п
т уп
 ай доо
  №
 К ара
 бар аткан
 салын ган
ор ма
 м етр
ил ди
 алган ын
 биз н
ци он
 Т окт
 бийлик ке
 кызматт ашт
 козг олгон
 жа кта
өй р
 Ал маз
т ал
 кодек синин
 у г
 тарт ылган
ат ып
мат ы
лар ын
ев а
 тел ек
Себ еби
ия сы
 реж им
 с из
 с айт
 К иев
 жет ект
  ю
ыл т
 кө чө
 бер үүгө
 өз үнө
Ж ер
 маалымда ды
баев а
 опп озиция
ан иянын
ооп суз
м ун
 с алык
 белгил еген
иц е
 Б елар
 жет кен
 өлкө дөгү
м ушт
 м угалим
 э п
7 0
 Г ерман
 М амлекеттик
 кабарл аган
ук ул
 маалым атты
 уюм дар
 башкар уу
аш ып
 эс еб
акт ы
 Тажикстан дын
Сүр өттүн
t i
 кес еп
 жабыр ка
 ал ыш
 эксп ерт
К ан
 Орусия да
 з ор
М ыйзам
с ек
 ишен им
бир им
  зам
ң ыз
 байланы ш
и ф
ылм ыш
 к азак
ал оо
 комит етинин
Тал иб
Д ем
 Кытай дын
ербай жан
 М атра
ейс б
ро бирим
ай ы
ра з
 калган ын
 кар ма
 бо ю
 кир еш
и стан
дө п
 карм алып
-окт ябр
де шт
 бол орун
тт а
 М ак
 кит еп
 м үнө
-жыл дары
иг ине
 курал дуу
 Бай ден
 кел ин
 каб ылган
 өлкө гө
 кы ск
 Таш иев
Д үйн
 п л
 уюм унун
 жар аны
 болбо й
Бир инчи
 ч ыр
с иянын
лар да
 ма алда
 М ир
 күч өт
үкт өр
 жаң ж
 сур оолор
 Бишкект еги
 кач ан
ик ке
 кур ч
 кеңеш инин
ас с
8 0
 Москв а
ал га
үл өт
 сок ку
дер ге
 О р
 отур ган
 с егиз
 кал к
m a
ом п
 кый н
ал ай
ик кен
а шкан
  T
ог уз
 сом го
ашк а
ю з
 албай т
 сог ушка
 б ут
 сал ышт
 жүр үш
 жаран дар
б и
ес к
К ыз
 эм ге
 иш м
 долбоор ун
 Р еспублик
 ордун а
 б ей
 шайлоо до
 белгилен ген
ь ю
ист тер
 жак ында
Б ал
 кабин етинин
М оскв
Ж ар
ат ыр
 С оорон
 жыл да
) ,
 Д он
 жас ап
ешк ен
дыр уу
 мект епт
о ж
ет ке
өө к
ал ышы
 н ерс
 ком анда
 бөл үгү
 кой ду
 чог уу
д ия
 айт ылып
с ынан
үн дүк
 кайр ылган
 изил дөө
 салам аттык
 убак ыт
  Ю
  ыс
 р еспубл
орб ору
 ый гар
 кур ман
баев дин
 топ тор
 бер иш
ду кт
 өт өт
 аял дар
 ж ума
 ч укул
 өк үм
ал дын
М унун
утт ар
" .

ар ш
 б орбору
ис и
А та
 б екем
дөр үнүн
 токт о
 сом дон
Ж аңы
-жыл дагы
укт ун
ект еги
 ин терн
 уба да
 эсепт ейт
 жаш ап
 Бишкект ин
 ж етти
 керект игин
  үз
 ай да
 бир гел
 Кең еш
 кес кин
Р асмий
ов ду
 Т ур
 жер ден
 алын ып
Ө ткөн
 жол до
К өп
ол от
 э гемен
 кат а
Аз ыркы
ар ында
 кор го
 директ ору
ди гин
 тар та
аш а
 бу йр
уус ун
Кор онавир
 бар ат
 кайр ыл
Бат кен
 телек ан
 билдирген дей
ан ып
 жара ат
а гыл
Б орбор
ъ ект
 ( "
 иштер ин
 уюм у
таж ик
М амлекеттик
тт ик
 тар аткан
ек ке
 киргиз илген
 жак ка
С С
р ый
 башкармалы гынын
ак ан
 жыл дык
ект ин
 ишт и
оң ку
Ак ыркы
 про ц
 эл ге
етт ер
 жаш ыр
 алын ды
а ары
д ери
 тур ак
аттар ды
р уз
 м ыкты
 C OVID
 о кт
ут бол
 в ице
УУ нун
Эк инчи
 н ач
 Украин адагы
 каран тин
Ж ак
 кар ыз
ес с
ар да
 көрсөтк өн
 турукт уу
ел ип
 С ир
 б өгө
ра ф
- тажик
 кел еч
 масел ени
н ый
 А ск
 ан дай
 та ап
 ан ан
М екем
ай ып
 коронавирус ка
 оорукана га
ол до
 э ст
 инвест иция
 Кам чы
е ма
 күн өөл
 отур ум
а ак
к ап
 т емир
 айт ылды
 баш алам
 жаран дары
мер икалык
ү ң
ыр т
 ко шт
 к үм
 катт ам
 мекем елер
 жыйынты гы
 жыл дары
 маалымат ка
 арак ети
... -
  үм
Э Б
 кал ыб
икт ер
 жас алган
ция га
 сүр өт
ку м
 жүр өт
уб уз
 турган ы
 б л
 туу ган
о мат
де м
 ар асындагы
 ош он
емб иде
шт и
ас ыз
 сөз дөр
утт уу
А Т
ук кан
 өн өр
ө б
 ко ң
аган ын
 ак ын
оопсуз дук
с ам
 саясат чы
 кыргызстан дыктар
ер в
дыр ып
 таж рый
т кан
 тоб у
 кар алган
 ак ы
 чыгы ш
e s
ж ин
 ат ы
 тарт ип
уд ья
лар ында
 З еленский
ел ген
 С о
Ош ент
ал из
 Т ышкы
 ат ындагы
 калыб ына
Ж алп
айл оо
 Н арын
 ст ат
 Кор ея
 ба асы
 кайр ылып
 агентт иги
9 0
 м о
 туу л
 т ут
 ч ара
ас ым
 түз өт
-б ир
 а э
 жаг ынан
Б ылтыр
и ң
ал ыш
 ма га
 он догон
 кайт ып
ө шк
 жа ан
 адам га
 тий гиз
 шт аб
i n
иг инин
 укукт ары
 бир ге
 кабар ланды
 кар ш
С оңку
 мен ин
 ар га
  уна
 им ар
Д еп
т е
ак истан
 бар а
сыз дан
 сотт ук
 чемпи он
 ж огор
 мыйзам га
 чакыр ым
м ек
 көрсөт үп
 камсыз доо
 н асы
 жүргүз үп
з а
 карм алды
5 00
 м анда
 с тан
 тарап туу
 кор гон
ылуу да
А М
б ан
 к у
 чар ба
 Өзбекстан дын
 ай л
 иш ине
 Бир инчи
 с ум
 а ң
 сый л
ар ип
 айт а
 мүмкүнчүл үк
е де
п айт
 ба жы
 б ак
 Т ал
 М инистр
 иш мер
 жал гыз
 комит ети
 кем инде
Маалым атка
 то ск
у стан
ышк а
рем л
 көпчүл үк
ң ар
 т огуз
из а
 баш ынан
 ка гыл
 чект өө
с үнүн
 ж үк
 күн гө
н от
 т аза
 күн дөн
 бер үүнү
 түз үп
да ган
 өтүн үч
ы ч
алар да
 И чки
 аск ерлери
 түр мө
 ма шы
 Украин а
 бийликт и
Өл кө
 Министр лер
 инстит ут
ов го
 ажыр ат
с унда
-т үл
 чыгы м
гун т
 катыш уу
М уну
 өлкөлөр дүн
 тиеш еси
ч ынын
ээ к
 көб үр
 Жапаров дун
 ая бай
  ы
" )
ст ыкт
ли ги
 миң деген
 з ав
 чыгар уу
 дар оо
Т ажикстан
 компания сы
  A
К ур
 алган ы
Деп ут
 жол дор
 жаткан да
 И с
Өк мөт
 таб ылган
 эк с
 түш үр
 жум ш
ti on
Украин анын
 там ак
ай к
ет ин
 түз үү
Б и
у бай
 бул актар
 күчтөр ү
яс ий
Бишк екте
 кур уу
 министр инин
 кр из
ар кум
 ко ё
ц ен
 жас ал
 өзгөр түү
д ур
 с амм
 прокуратур а
 демил г
 т ай
-жыл га
 кеткен ин
б ет
ым а
Өз гөчө
 сүр өтт
ул уш
укт аж
 наараз ы
ен тке
ыкт ан
 тынч тык
б өгөн
ек ция
ел ь
 кө мө
 мүнө з
 тоск оол
 өлкө дөн
 парламентт ин
 энерг ет
ян ы
 жак шыр
 каранды сыз
  S
ус ул
ел ин
 эк өө
 шайл оонун
 берил ди
 ар н
укт а
30 0
 үй р
 катыш ып
 карашт уу
 куу гунт
АТ О
 т оо
 со з
 көрсөт үлгөн
 сакт ап
 жог от
л айн
 Г үл
 Алмаз бек
усул ман
 м уктаж
 кең ешт
 киргиз үү
ат ында
 масел есин
уман итардык
 п озиция
 эксп ер
 им арат
 мүчөлөр ү
- Ж
из ация
 деген де
 өткөр үү
 алма штыр
лан ып
 облус ундагы
 көпт өгөн
ол уу
үн чү
де ди
өөн ү
 ол уттуу
c a
 билдир үүдө
рат ег
 орган дары
 карж ыл
И ш
К ай
 кө мүр
 ок уп
 тран сп
  Ү
үйш өм
 аэ роп
ч ам
 ба а
 М а
б ар
 со ол
Ал бетте
 э гер
 үчүн чү
чыл ары
АКШ нын
 кол догон
 аз ык
 кызматт аш
 күй өө
 об ъект
ыл ышы
 докум ент
 маалыматтар ды
 энерг ия
ыл а
 айыл ында
 аткар уу
э л
 п асп
 ма ж
 жыл ды
 т аз
аш инг
 тарап тан
он дук
 чы ң
 бал дардын
 тол угу
 караж аттары
ор дун
ктар дын
 ф утбол
си х
e n
ес е
 жалп ысынан
 ата анда
Ч ек
 миң ге
 Ш т
 илим ий
 бер бей
 сын га
ал и
 ж окт
 жар ак
ав аль
 Ак ылбек
 маалымат ы
 Ев робирим
? "
у шк
ө өнүн
 сал ды
 уу р
 таг дыр
 бол ууда
 де к
 а ка
 чечим ин
 партия сы
емп ир
 Соорон бай
 көбүр өөк
 ж уктур
 шект үү
 бой дон
 Матра имов
 с удья
гы м
 мамлекет ке
Э С
 ч ал
ый кат
 Түрк ия
мөн стан
ан д
 жашт ар
 пикир ин
 армия сы
 миг рация
 маш ин
 өт пөй
Мен ин
 комит ет
А С
ра д
ект ер
 Т емир
 жаң ыл
оном икалык
 К ылмыш
 колдон уу
 м ед
 д оо
 ма егинде
 токт ом
өтт ү
 мун ай
- дар
 т үнү
 ат кан
 тур м
 эс еп
 тург уну
 ч өйр
Ат алган
" Азаттык
3 5
 кан чалык
 текшер үү
 таян ып
 т ир
ект ен
 У юм
a l
 бол мок
 А с
аны ш
ыш ууда
 долбоор лор
 аймактар да
  ген
 кыл ат
 кам а
 кам алган
 сүйлөш үү
М ас
б у
 ө ң
ыкт уу
 активист тер
аваль ный
өл гөн
 район унда
Эгер де
 оо ган
г ул
гы р
 ор нот
 түр дүү
 Ф ран
ат ын
 ай дан
 келген ин
 ишк ерлер
л уу
 кор ку
 адам ды
 тон на
ь ян
 мөөнөт ү
 и де
Б ашка
к ов
о йт
 а мерикалык
 ай га
 Б ор
 кызмат ка
 насы я
б огон
бо й
 дары герлер
 милде тин
 К уб
л ав
 к ин
 болгон дуктан
 жетек чи
 к ил
 чект өөлөр
 те атр
П арлам
к им
л ап
үүлөр дү
 та стыкт
 кий им
ер н
 бил ген
 ат ып
 Б аш
 ук угун
 А ли
 ма алында
 оо з
 Брит ания
 Камчы бек
a n
с ен
 кал са
 атк ыл
 из дөө
 ж үй
 ай лык
 тал аш
 Борбор дук
 айт ууда
об ил
е ж
ө бүз
дар дан
 то олуу
 берил ет
атив дик
Коронавир ус
 түшүндүр мө
 арга сыз
к ар
 к үз
 кел ат
 кош о
 Бир имди
ага з
 убак ы
 эрк инен
ыр ган
 кет ет
 ап рел
 себ епт
 кач ып
 тарт уу
 бир өө
ош мо
Н егиз
 себ еби
 Ө мүр
 кар а
 өз бек
 ф р
Ор ус
М амлек
 ишт ей
 парт иянын
 жакын дары
 көтөр үп
 м ей
уг уна
пи ада
 эрт ең
 адам дарды
ктар ды
ит и
 ав и
 бөгө т
 к алуу
ер инин
 А ка
 алдын ча
 тынч сыздан
 ойл ой
 бизн ес
 т үп
ес ур
 кабар ланган
у шкан
тт уу
 эк ст
 жаз а
 он лайн
ерен дум
-п резиден
 коррупция га
 баракч асына
 тий иш
 дипл омат
К он
Ү ч
 К ан
дөр үн
 бүгүн кү
К У
 көрсөт үү
 төрага сынын
АМ АС
 маалым атта
 ыр а
р ист
 мектеп тер
ашинг тон
 с ар
 башт алды
 колдо п
ам ат
 кат ышты
 кыл ын
 чакыр ган
 тарап та
 сөө гү
 Республик асынын
 маж бур
К умтөр
ам ир
 А сан
в ан
 д рон
 болбо со
 өзүн чө
 жуг уз
з ак
 бол жол
 чыг ат
 Д үйн
 алма ш
ас ст
 мен и
 сал ма
И зраил
ам ин
 коргоо чу
 ба алуу
 өз үм
 түз үм
 кандай дыр
 маалымда ган
 эскер тти
 деңгээл де
Ев роп
И ран
ө гү
 к агаз
ур т
 ак ыр
М ына
ас ма
 р есур
 компания сынын
 тий иштүү
М ил
ен ко
 м ел
 мен ч
ышк анын
 өнөкт өшт
оо до
 де ңиз
чил ик
 айма ктык
 ст ратег
 өр тт
с ей
 с ел
 чыгар м
 им п
емб и
 п ул
 кар аб
 ая гына
 с алым
ап он
 жар аша
быз ды
беков а
үйшөм бү
А йт
М анас
Талиб ан
кт ары
ил им
үкт ү
 эмге кт
у ң
 б ары
лар ынын
гөн үн
 то с
гө з
 чыг уу
 май рам
арт ам
 жан дан
Эм не
кул ов
Мур дагы
ан с
  го
Т ер
ө ң
 Т үштүк
 аз айт
 жөн гө
 аныкт алды
 Бат ыш
 кырдаал дар
 өмүр үн
ал аган
 г уманитардык
 ге ктар
 тер ең
 Аз ербайжан
-С уу
үг үнө
 уба гында
 багы т
 м ин
 с ек
ей л
 С ултан
 реф орм
 н и
еш ет
т ерди
 к ана
 м усулман
до й
укт агы
 таан дык
 ык чам
Ж урналист
о ч
 т үй
 жар аткан
 келген де
т ен
лар ына
 фон дун
Ошент ип
Б ашкы
 т утк
 кел аткан
 аймактар ында
 укукт ук
 террор дук
g e
 чыгар ма
 кылмышт уу
 п сих
 ишк ер
 мигрантт ар
м и
-ж аза
 тал иб
 жок п
 кооп туу
сан др
н у
икт ин
дик ке
 мак ам
 Бак иев
ырм алуу
А в
ик ация
 өз дөрү
 кый ла
 төл өп
 облуст арынын
 ж аман
 тал а
 кең ири
 кон ц
 Түрк иянын
 тарых ый
та ция
 айма гына
 жаран дардын
 өзү бүз
 матери ал
Д агы
 ж ем
 бил бей
 ат ат
чыл ардын
 мыйзам ды
 эс е
 чакыр ып
 Ар мен
  ла
С из
ш ат
иш ин
 уч ак
 Ул уттар
ур а
 ат ыш
 багытт алган
 аян т
Бий лик
 укуктар ын
 фр акция
ир ип
 О лим
 төл өм
 туул ган
ор ум
 ч агыл
ы гына
 кет үү
 киши ге
д алды
ш а
ол ю
 эл ди
 өлк өлүк
 тарт иб
 буз уу
 болгон дор
 ф орм
 район ундагы
елер ин
 ай ынын
етт ен
 ан ализ
 айма кта
 м арт
 кет үүгө
 мыйзам дын
О ку
р ык
т ып
 ж иги
 А йт
 көйгөй лөр
 Тал ас
Ү й
 кызмат ына
 аба кта
уус уна
 күт үп
-түл үк
м асы
дикт ин
 бөлүм үнүн
т ым
 К асым
 ок р
 доллар га
рес сия
 жабырка ган
 ак ыл
 к агы
 м ал
м б
 өл ч
 макс аты
  Ц
ук аш
 ар х
Ош ондо
 Кор гоо
 күч түү
3 3
А д
ал ына
 К адыр
үш үнө
 сур ап
т ун
 өр т
 УКМК нын
 Орусия дан
 калган ы
 стат ист
ер ине
 ч акан
үт үн
 сот унун
 кармалган ын
к ук
үн чө
 кар алып
 кыл ым
 токтот уу
С от
л ери
ив дүү
Биз де
 жаб ык
 отур уп
 тар бия
 ак им
-министр и
 баз ар
 техн икалык
 каал аган
Б аш
Ж ол
 т ок
тт у
 кез деги
утк ар
 берен еси
 Ток аев
  үндө
 ж ел
 тар ат
уш ат
 негиз инен
 бек ит
 республ икалык
 жет иштүү
 аз ай
 борбор унун
 кап т
 өнүг үү
-А та
дар да
 түз үл
он ст
дар ында
 ишт ейт
 таасир ин
 реф ерендум
 салышт ырмалуу
Т ил
 бол об
 п ен
тк он
А дам
 ж алган
до ган
 жаткан ына
аш ат
 аб алда
өкт үк
 көрүн үш
Б ШК
 К оопсуздук
 кар оо
 бар ды
ег ин
 Р ос
 жүз үндө
 апта да
 бл ог
р ек
 деп артам
 ф ил
 алган да
 Н АТО
 жап ырт
Жер гиликтүү
 Ж ум
ро з
И ИМ
 М ар
дөр дүн
 билдирүү сүндө
ол у
 ар з
 эмне ге
-сент ябр
 топт ун
 ыйгар ым
 кал ышы
 комит еттин
 кам акта
 тармактар да
 жасал ма
 про ф
 д оор
 биз де
 адист ер
Ш аар
 ч алдык
 жа ап
 Ар аб
 фон д
 ишм ерди
ана да
ба ш
 чыгар ды
пай бы
Ат айын
Дем ек
з ин
 к ич
 т егер
 ал ышкан
 жар ык
 техн ология
к ономикалык
ан сы
 Р ах
 прокур ор
-но ябр
 с ов
 ал ыс
икт и
 жүргүз гөн
ан и
 Б УУнун
 Ж о
 оку мушт
 жый ында
 айыпт ап
 улан ып
 сист ема
t er
п он
ы ск
ия дан
 О с
 уюм дун
 Кур ман
Бүгүн кү
 көлөм ү
С адыр
н ик
ч ын
 ал ак
үр үм
ым ды
инистр ативдик
ест ин
 киш ини
ститу циялык
 илде т
 и юн
 К у
 А мер
 көр гөз
 кою у
 кырда алды
3 6
 с у
 Б и
уст у
 кайтар ып
К ом
и тт
 оор ул
 кызм аттар
з ат
л ин
 М ур
ктар га
 жумуш чу
 тажрый б
 коргон уу
 өлч өм
т арды
 т өг
 эле м
 Н авальный
Ч үй
а ф
е ц
 ал ектен
 К ыз
 айт ышты
доо го
 жум ушт
15 0
а я
д уул
 уба кта
-к елин
 бол богон
үг үр
алиев а
едер ация
ор о
 билдир ишти
сп үрүм
ерг ей
 бат ир
 Алек сандр
 чалдык кан
 т емп
 ф евр
ыкты яр
дикт үү
ч ет
 т асм
дер ин
 менч ик
уус унда
 мадан ият
 караб астан
ч унун
ай быз
 эм дөө
 С аламаттык
 катт алды
 Ал маты
 өнүкт үр
ейсб уктагы
 пасп орт
ул ла
аз ы
 ач ылган
 жарыя ланды
-п ремьер
оол уу
 арн алган
ал ю
ов анын
 өч үр
 апп ар
  R
 ал ууну
 ат асы
19 8
 Ч ыгы
 уз арт
o r
ир ген
Орусия да
 жоо к
 зам ан
д алып
ү бүз
ан т
етт үү
өтк ө
чул ук
- өз
 М ух
 Орусия дагы
 тол к
К КУ
е ев
 т еск
ол бо
ог раф
 дайын далган
 милдетт ен
ж ар
 Б ШК
 ташт ап
 коң шу
  Ы
Э ң
 б етт
 чал гын
  Я
Н ур
к он
рес с
цен з
  ca
 университ етинин
Мекем енин
  G
  январ
б ра
өр дү
 келиш ет
 дары гер
-бүл өлүк
д үм
 м он
 п алат
 чог улган
 курул тай
д ору
 с ент
аб ыт
 кол го
 ав густ
 кон т
p tion
К оом
 бер иши
 ре з
Уш ундай
 жетекчил ери
 Бир иккен
  ыктыяр
ол оң
 көр үү
 электр ондук
 кымб ат
 теришт ирүү
 мо юн
ат бек
ир ов
 ч өл
 чыгар ылган
ma ge
рык ча
к ыр
 ж үкт
 С ан
 кий лиги
 негиз де
елер дин
 тол тур
Президен ттин
 башалам андык
 ca ption
ол пон
га зи
чил ер
ашт ыр
 киргиз ген
 тургун дар
4 5
өн үп
 мыйзам дуу
 Н азар
 жетекчил иги
 коопсузду гун
и х
п аган
ш ан
ш ет
ды й
 Ж ан
ү тт
 Б ейш
тк ө
 н о
 көр үүгө
 кур ган
үг үт
 бал асы
 ре да
Мил иция
э н
 т үшт
 сур акка
 ойл он
 райондор унда
ч о
ия ны
 ар тка
ог ул
 көр үнү
 тал доо
 чыгы шты
дыр ган
 сан алат
м е
 с утк
ыл ар
 кош ул
 кызматт ын
 эконом ика
a r
П утин
к ара
л ов
 бир инде
 атк амин
 Казакстан да
  үгүт
 киш ил
 ойлой м
л ыктар
 из деп
ортт ук
 м обил
ай ман
ел и
 ишт еш
алан ган
аль д
 Кар аб
 кыс ка
тт ын
 өз өктүк
 саяс аты
 уюм дардын
 Х АМАС
 м аркум
 ш аары
 чеч ил
 колдон уп
 киш илер
 чөйр ө
 кама гына
 к уткар
ээ жин
 кооп тон
 комп лек
 күрөш үү
 проц ес
 үм үт
 тутк ун
 К ул
 жат ам
 Т үндүк
 дем онст
А п
 н абыт
 облус у
 тоб унун
к ай
ер атур
 тап ты
Украин а
 ал ба
 ш артта
 кам т
 бөл үп
 корруп циялык
Депут ат
 бер б
 болгон дордун
шт ары
 үй үнө
 комиссия сынын
 өмүр ү
 т ест
 мадан ий
 автор дук
 кымб атт
 ыс ым
  N
 сүйл өп
 өлкөлөр ү
бур г
 күб ө
т ардын
 с ак
 кон сул
 ара дагы
 келтир ген
 Конститу ция
у ф
 т анда
 байланы шкан
 жооп ко
 дары г
4 00
 с ып
 п ара
 К аб
 ач ып
 өткөр гөн
 аныкт оо
 таб ылды
 жара ян
 экст рем
ия сынын
 ал ышы
агы м
 ул ут
 кон ф
 с ына
ыл ап
 С ергей
 ка др
 ин т
 пр от
 аткар уучу
 департам ент
3 4
К ам
 ал абыз
 башка ча
 Г аза
 уюштур уу
 милдетт үү
 со юз
 Г ЭС
 мүмкүнчүл үгү
 байк оо
 окр уг
И чки
ыкт а
 тер с
 келтир үү
  үн
аг н
 үл гү
 темп ератур
ак у
ран т
 башталган дан
Казакстан дын
 вакцин а
 аякт аган
 ж ери
 автоуна а
 ишмер дүүл
 Уюм унун
  P
У кук
 көр ө
үк кө
 уч уп
 министрли гине
алан ып
 сүйлөш үп
 таас ири
 тургун дары
 кызматташт ык
Ш айлоо
и да
-м артт
акт агы
дум аров
a t
 а ст
 р убл
 кагы п
ган дардын
 сөз сүз
 ач кан
 өлкөлөр дө
л ору
 ө спүрүм
 кө к
 Т ашк
үк өн
 күчтөр үнүн
 кл им
 күнөөл үү
 ж уу
 айма гындагы
 аял дардын
  B
м ир
 К умтөр
 А в
 кел бейт
 күн өө
чыл ыктар
 мас с
 ая гында
б ап
 ж убай
 жа шка
өк өй
 авт об
ат ар
 кең с
үкт үн
-Т аш
Б ай
 ж ам
 ж ээ
им ин
 кел се
 ком мер
 мамлекетт ердин
 айыл ынын
 чар алар
 медицин а
 факт ы
 жетект еген
 К ремл
 кар ама
аж ы
 жайга штыр
 дипл ом
Мамлек ет
 чөл көм
 м уун
шт у
 Кыргызстан дан
 алдын дагы
 башкармалы гы
Мас елен
дер инин
 ре п
 жүргүз үү
 эркин диги
 кеч инде
 коомчул ук
 ресур ст
үш үн
 сотт олгон
 жарыял ап
 уз ак
ч ер
ин ц
 адам дан
 шаар ына
 сакт агы
 катт алып
өшк өн
 жарак ат
ыр ма
 кел иши
 айт ат
 коргоо чулар
ыгы п
Ошон дон
к өн
м акка
шк он
 өлүм ү
 болоб у
д ил
 к ак
 р ын
 жыйын т
 меди а
 салуу га
 акч аны
 зав од
 ж уккан
 т р
аны ч
 кан дуу
 үй дө
 ээ си
 дүйнө дө
там бул
ан ов
 кел бей
 кеткен и
 өкмөт үнүн
 Л укаш
 окш ойт
 эп иде
 келат ат
ам ал
 кал ктын
ег рам
 биз ди
 күр өшт
б ө
ап ар
 кет иши
 партия лар
 комис сиянын
чылык ка
А ЭБ
ом ол
 зомбул ук
 жүй ө
к ал
 О шт
үг үндө
 ой но
 опп ози
 сып атт
ол о
 бар дыгы
ыш ып
иш ет
 оку яс
 коом дун
 сап ары
 Азия дагы
 стан ция
 ж үгүр
аз аров
 сан алып
 талк ууга
 саясат чылар
 наараз ыл
 Ака ев
 тарап тын
 В ашингтон
 адм инистративдик
 кыск арт
3 7
г инен
ж о
ал ынын
де ш
ов ин
 бер се
 А т
 кыл ууга
ентт ин
 кез екте
 г рад
 дүйнө дөгү
 маалыматтар га
 кыс ым
К ээ
С аламаттык
ор ду
 а шты
ында п
 ишт еб
 кет е
 бийли гинин
 берил ип
 коронавир устун
Т ур
а ан
ш ып
 ай ым
 айыпт алып
 мүл кт
 град ус
И слам
ат ынын
 ар алы
 кар ай
 эл чиси
аз ык
 Ж ак
еб ин
 күч өп
 алдын а
Азыр ынча
  M
 э ш
де т
аб ек
 ар асынан
 айма ктагы
 кач кын
Өк мөтт
 муз ык
 кийлиги ш
- ча
м аны
 кө м
зи ё
 чыг ууга
ах м
 сап ар
 оорукана да
Министр лер
Ж ыл
 ж ама
ор атор
 өс үп
 ы ңг
П р
ем е
 муз ей
 Дүйн өлүк
олю ция
3 8
м ур
 дел ген
 парламентт е
 Эр доган
 органдар ынын
п ейт
ун ду
де йт
 А ла
 ат аган
 Х ар
 оң ой
 карш ылык
 т ейл
 ал ышат
ик анын
 п ост
им че
 байланы шы
 Р айым
 жүз дөгөн
Дүйн ө
r a
т им
үл ө
үл үүдө
ыс ын
 сотт о
 Алек сей
г уу
аб ар
 ачык ка
 кир ет
 П акистан
 болбо сун
 көзөмөл дөө
 кеч ир
 аракетт ен
д уулук
э ри
ыл бай
 д ост
 бал дарды
 дүйн өнүн
 жан ында
3 2
 т асма
 д үкөн
 ат ап
айл ык
 инф екция
 жет пей
Эр кин
 ката ал
 жугуз уп
Ж ыйын
 м ыр
кт ябрь
 Б олот
 ишт ерди
 өл гөн
-т үз
 Бейш ен
" :
) .

Ч ын
ал естин
 м еч
чул арды
 бал дары
 мекем е
 журналисттер ге
 адвок аты
 дипломат иялык
л о
р ий
 с ана
 тар аган
 С ар
 чык пай
 депут аттык
Со тт
 сында п
 бир диктүү
 масел елерди
 айрым дары
 эксп ортт
 ий гил
Са яс
 ака демия
 м ына
 жыйын тык
б аса
ия з
 ал са
 н а
 шайл анган
 сан алган
 Путин дин
ң кы
 Ж апон
 жет ип
 кызматк ер
 кайр ылды
 Ул уу
 коз го
 Түрк мөнстан
 ыраст ады
 м унун
 топ то
 кл ин
Казакстан да
 басылм асы
 демократ иялык
М ак
ст ер
ел ет
 Т а
ой н
 көч үр
 апп арат
 т ек
ды м
 бул агы
 учур дагы
 айлан ып
 эсеб инде
дан ып
 жол ун
 Н ик
Ай ыл
Москв а
 нач арл
 Ос мон
Б ел
О оганстан
о ф
 адам дарга
 з ал
 жаран дарды
 пр инц
 жибер ген
 де й
еш ип
ышт ын
 көрсөт мө
Бишк ектин
 укукт уу
 систем асы
 мурун ку
 аэроп орт
 т үштү
 оор уп
 отур ат
 жыйынт ыкт
 А ф
 эск и
 алды га
 коомчул укта
 Белар ус
 кана аттан
 ал ышты
ери син
 комиссия сы
 өр өөн
 мадан ия
 бир ик
ге м
 р еспублик
 ул уу
 үй дүн
 мак ал
 аба гында
 Москв ага
 ишкан асынын
 себеп тер
ың гыз
 масс алык
  ев
с он
 т ик
 К ошмо
 бо ж
 талап тар
 миллион дон
 Иран дын
га м
 жум ду
-берен еси
 ыра азы
Б елар
ел л
 ан ткени
 министрли кт
 бийли гин
 сунушт аган
 прот ок
Ж апаров
ю р
 к в
 э в
дү кт
 жак ыр
 кам п
 аб алды
 жолугуш уу
 кеп ил
 күм өн
им овдун
 И ИМ
Эк сп
сүндө гү
т ешт
ст а
 И бра
 маалымат ында
 бери шти
ци ал
 кез ектеги
 өлкөлөр гө
 Бишкек ке
 ада б
 жаңж ал
 түй үн
тт ык
ра х
 алын ганын
 токт оп
 борбор дук
 Атамбаев дин
г ол
 ар тык
 М олд
 С т
өк мөт
А ск
 к ут
 колдон гон
алиев дин
 чын ыгы
 Бак ыт
 тан доо
 радиос уна
  F
  W
кт у
ст ин
га к
 ма з
 айт ышкан
олор ду
 Кар ак
 жыйынты гын
гы п
 бир ин
 Б ал
улган ын
 долбоор унун
 ли ценз
дим ки
 карап айым
П ол
 ба ал
ышт а
 чыгы шкан
ация лык
чү сү
 берген ин
 лид ерлери
-Т оо
Оку я
 кел үү
 кызмат ын
 жолуг уп
 туу гандар
чыл ыгы
 керект үү
 мигрантт ардын
 пайдалан уу
 энергет ика
" Азаттыктын
o o
 ж ерди
 т ата
 ан т
 өкмөтт үк
бөй т
 Дон альд
Жалп ы
о х
 т акыр
 ө ст
ск е
 С ай
 И л
өй т
- аш
. k
ун дан
 у й
 деген ди
дикт ен
 дай ыма
ерисин че
! "
Ж алал
ес инен
 кел беген
 жет ишкен
 сан итардык
 улан ууда
 журналисттер дин
 стратег иялык
4 4
s t
с ка
ч ан
аны бек
 айт ылууда
 кыл ууда
 билдир үүлөр
 кам ер
 келишим ге
 көбөй үп
 Ин терн
М екен
г инде
м өлөр
 ч ен
 ай ырм
 тар атып
үлгөн үн
 көбөй т
 лид ерлер
 эскер ткен
 интерн ет
ж аң
 бир дей
 мыйзам да
 жетиш сиз
ө дү
 А ман
 кызмат ынан
 албай быз
 жыйынты гында
 жашыр уун
 ч о
 башт айт
 Н ар
 күч үнө
дик алык
 сыр ттан
 ге з
 көпчүл үгү
 мекен ине
 Аск ар
  ц
он дон
га ция
 О роз
 жаз уу
 кыймыл ынын
 радиос унун
7 5
ы дык
ул а
ов ич
 маалым доо
 президен тке
 эмес пи
 чыккан ын
 Израил дин
 Ма думаров
аку ация
- з
г ал
ж ыл
и ттер
 т у
 т ен
 жол ку
 ( +
 алган дар
 бал анын
 оку ган
 окуя га
 аракет ин
 фон ду
г ор
 и юл
 бас а
ис с
 Г олд
сүн өн
 маан ай
 милиция нын
 зар ылды
 мөөнөт үн
 багытт а
 кагыл ыш
ыйкат чы
гази ев
c h
М урда
 с ер
шт ык
 болгон до
 то й
 кур уп
 ре ги
 чечим ди
 Москв анын
 токтот уп
 экспер ттер
Тил екке
 м ойн
 в алю
чер ээк
с ине
т өн
 м ет
 жай ы
дор ду
ешк е
уф т
-ча чын
К үн
б ас
 т үштүк
үү сү
 ма ал
 бөл үгүн
 кең ейт
 Ев раз
 уг уп
 зор дукт
  ын
 Кеңешт е
 жогор ул
К ол
Н арын
 бир икт
 И слам
 Ч олпон
 пайыз га
 бет кап
 Өмүр бек
o u
 к өн
 э ф
 а шк
ел еграм
 К рым
 кел ишкен
 ишт ин
 кол уна
 сур аган
 пр овин
 тарап тар
 I mage
 биргел ешкен
o v
ар х
 ал баган
гүл т
 кил ограмм
Ж аш
О п
Ч оң
 с ен
 бол ууга
 бер ебиз
 жөн өкөй
 түр ү
 жара дар
СС Р
 т ит
алар ынын
ыт айлык
 масел елери
 актив дүү
 ракет а
 Олим пиада
Д ары
в ер
 Т оолуу
 шаар дын
 В ен
 кез ек
 калды м
 Москв ада
ң уз
 и слам
ыш ына
 М ай
икт е
дөр үнө
ри дикалык
 ык м
 эрт е
 трансп орт
4 8
5 5
 ат ынан
ең иш
 компания лар
 сыр тка
 армия сынын
K o
д үгүн
м ит
т ери
ма ил
ба шы
айл уу
 июн ь
e d
К ара
 т ем
 с та
ел ди
 п орт
 К ал
 Т ер
 ач уу
 айыпт алган
 уюштур ган
ари ж
 дек абр
ак ун
 ар аны
 тур уу
 кай да
 түз үлүп
19 3
 ишк ана
 чар б
 комм ун
 маш ине
 температур асы
Д окум
он ов
 И сак
 Э н
 жооп туу
 кырдаал га
 аракетт ер
 техн ик
 салам атт
 теришт ир
 киреш е
А ял
а ди
л об
 с х
ор го
 бер ишкен
мат ова
 тал ашт
алар ына
 бий ик
өтк өн
 бү ткөн
 проф есс
Э н
 д оом
 н ом
 көр көм
гил е
 жер деги
 И р
 тил инде
 сүйл өгөн
 Мир зиё
 жүрүш үндө
 үз гүлт
ол ук
 С ул
 үй үндө
 оку яны
 колдон ууга
 Ф ин
 тоскоол дук
 турм уш
Саяс ат
e w
г р
я к
 а гым
өр дүн
тт ар
ку ч
 бал дарга
 маан и
 мей ман
г ай
с ерв
дан ын
 чеч үү
 Г руз
 токт олду
 депут аттары
 тий ген
 кызматкерлер инин
 Конститу циялык
Дүйн өлүк
Негиз и
 эв акуация
ен к
 де се
 ишт ен
 кир е
Алар ды
өш ү
 саб ак
 Райым бек
ат ору
аб оратор
 жа атында
 бил ет
 У лан
 кылм ышка
 мекем енин
 карж ы
 кабарлаган дай
 Шт аттар
 С ам
 С тамбул
 кыл а
 тал абы
 И ман
мө ткө
 даяр дык
 таш ып
омп ания
ец к
" Б
М К
 к адыр
аб айт
ция да
 жол го
 өлк өнү
үг үнүн
 чыг ары
акт ын
 соң унда
 айыпт аган
-С ултан
дый кан
e t
с ем
 м ерт
 ф орум
дөр дү
беков дун
 жардам ы
 коронавир устан
 дарыл ан
 өң дүү
Z Ko
п т
 ч етт
оо су
 ар м
 ат ады
 кол о
 ка димки
 тарма гында
 көтөр үлүп
 жакт оо
Тер гөө
Т өр
 сутк ада
 ч ам
 п ун
 кыз дын
 ор но
 мас шт
ос у
 демил ге
  дыйкан
1 20
 у т
 Т еке
 жер инен
 бан ктын
 арал аш
амм ед
 самм ит
 К өл
 М екен
 карм оо
 коюл ду
 өндүр үш
 изил дө
ылт ыркы
асс алык
 нач ар
к өнүн
 ат ын
еш и
 алган дан
 бал л
 иштер ине
 кыргыз дар
 ун ут
К ел
К еч
ба ганын
 жай лар
 Э к
 берген и
 ра дик
 Эм ил
Жалп ысынан
Б рит
М еди
п из
 с уунун
тт ердин
 Б ээжин
 ан ча
 май ып
 чог улуп
 түн дүк
 бу юм
 мезгил де
 баалуу л
 бирик м
 а чы
ус лан
 жыл ына
Ан дай
 көз ү
 алды ңкы
 эркин ди
 кыймыл ы
7 00
У юм
 ж аны
ма да
уб ерн
 аба дан
 согушт а
 эмгект ен
 Кыз ыл
  L
г үн
п оз
с ок
 бир имди
 жаран дарга
быз га
 кыр сык
 аткар ып
 у м
 ш ил
 жар л
 Ч ыңгыз
 өзү ң
 Казакстан га
 ген ер
 оппози циялык
e l
м ын
 ма ң
ект үү
 П оль
 тап т
 өзгөр үүлөр
 көтөр гөн
 көбөй дү
чүлөр дүн
-эн елер
4 7
ет инен
 көрс өттү
 Г аз
Биз ге
ерг ет
 үст үнө
 бөлүн гөн
 мел дешт
Т үндүк
 ал ь
им дик
 н ар
 көз дөп
 кон ституциялык
чулар га
 төл өн
мак чы
дел ген
 жогор улат
 провин ция
 О л
ег ине
 Украин ада
 буз ган
 кеңеш и
 эт н
 агентт игинин
 коомчул уктун
Со циалдык
Жак ында
 көрүнү шт
ор ан
 жат са
 кыз уу
 мыйзам дар
 аш ып
 кош уп
 төмөн дө
3 9
 к ытай
 э не
 жаш айт
 ой н
 согушт у
 куб атт
-президен т
 мыр за
 к ү
 уч куч
 таш уучу
 эскерт үү
Европ а
ми ологиялык
и чи
 с анын
 а шкан
ск өн
 күн үнө
Ан дыктан
 ош ого
 катт оого
 текшер ип
 кит епт
 б уу
ок ел
 в из
 алын ат
 тил ин
-э кономикалык
 токтот ууга
 облуст арында
 ашыр уу
 аралы гында
Ч ет
г уна
ы ст
 эм н
 кыл ышты
 кал дык
 өт үү
 май дан
 к аар
ст ав
дө м
 бер ки
ом арт
 түшүндүр дү
 кап ит
сул тан
 ээл еп
 к ум
ал бай
 м эри
 де шет
 ба арына
 бер үүдө
ус уп
 тур абыз
 н ам
үг үндөгү
еб ер
Жар андык
 кеңешт ин
 Рос сия
к р
 к г
 М ас
 көз дөгөн
19 7
 өкүл чүл
 басым дуу
 окуя сы
 деле гация
 Аб ды
-Ж омарт
В агн
б өл
ын кы
 с иң
 К емпир
 М арат
 та шы
 бел е
 белгил ейт
 жум ушка
... +
стр уктур
и о
ю с
 С ССР
 келген и
 ин сан
 кабыл ып
 чар аларды
 жарат ып
 пайдалан ып
 апрел ь
 реги он
н ап
ь т
ү ск
 к азакстан
ин жаң
ист икалык
 тур ду
 негиз дөө
 ап асы
-октябр дагы
 криз ист
 тит ир
А кт
 п о
 ишт өө
 реф орма
Өкмөтт үн
" С
6 5
н ек
 с им
-жыл кы
 президент инин
 жакын кы
 айыпт ады
 арт ында
ликт ин
. б
Г ерман
к ыз
р ок
ыл арын
 ал ам
 ал бетте
 Ж азык
от о
 жет е
 жаран дыгын
ин ск
 мамлек ети
 турган да
укт ан
 Ш в
 доб ушт
 документт ер
ж е
аб ын
 жыл дар
зам ат
 өк мөткө
 в ари
утт укт
 катар ында
 Кытай га
 төл өө
-бүлө сү
 натыйж алуу
 ю ридикалык
 бей өкмөт
 Каб ул
Э ч
ик чил
 п ар
иш ине
 р ек
 өткөр үүгө
 көтөр үл
 кы ял
 л аборатор
 жокп у
з о
ил и
ым та
 Б ел
алан т
 абал га
 көбөй гөн
 мөөн өткө
  H
Т ок
ыр ды
 ал ууда
ра в
аган ы
 көп үр
ест ив
 ара дан
 быйыл кы
 аракетт ери
 туш унда
 шил т
- арак
А ди
К алган
ун ча
 ай ланган
 бол уу
 кар т
 А д
 жас ады
 өлкөлөр үнүн
 түшүн үк
 тааны штыр
 өлүм үнө
 бак ча
- П
ст иция
шк ен
 ар б
 бер бейт
 ишт елип
 билдир ишкен
 Н ияз
 парлам ентке
 буз уп
 тоб окел
 мектеп ке
Борбор дук
 тууган дары
О ор
 де сек
 эл и
 А ш
 тар тты
ылган ы
 жаб дуу
 бай ге
 сунушт ады
 жоопкерчил ик
Р еспубл
ар ап
ул ов
 ай мак
 кар ман
 у туп
 өз дөрүнүн
быз дын
 прокуратур анын
иц ип
 Брит аниянын
 окт ябрь
б ер
 Б ол
 баш ына
 шайлоо дон
 Ч ек
 көч үп
 Ооганстан дагы
 зор дук
м ай
н ев
 кар аш
 эм ест
ерл ик
 эмес мин
ыкт ары
 башт алып
ышк аны
 демилг еси
 көмө к
 мойн уна
үск ө
С ог
т у
 к ытайлык
ил ек
ел еп
 иш инин
 ре акция
 күйөө сү
Ф ин
 д уб
 кыз ыл
 башт алат
 ук кан
19 4
 айыл ындагы
 эсепт ей
 үст үнөн
 бөлүн үп
 эсеб инен
 как кан
 к уттукт
 с ол
аб ыр
үш өт
ишк е
 көз дө
 комп аниянын
 сат кан
 көтөр үлгөн
дикт ер
 келтир илген
 жеткир үү
 деңгээ ли
 сов еттик
 чо чул
дар аак
ция лоо
Ал гач
Ул уу
 эст ел
 энергия сын
 проток ол
 ж атты
 кыл абыз
 шайл оону
 Д мит
 кош улган
изм ге
 кл уб
Бал ким
я т
 ч оо
 д окт
 тар атты
 жар дыр
до п
 ф едерация
 көз дөй
 чечим ине
 сат уу
ала шкан
Тал ас
6 00
н ам
ра структур
 тур ушат
 жет ет
 жер г
 ф ир
 сур ак
 аба ктан
 бүт үр
 мис ал
- ай
К өр
ил ь
 Т өр
 С ал
 С ыдык
 экен дигин
 тарт ууга
 сөз ү
 сан арип
ест р
 г үл
гыл ар
 арыз ын
 Нур лан
 корго п
ат ындагы
 үй гө
 коомчул укка
 карма ган
 ж ы
 бер ерин
 Ж он
 ад ил
 такт ап
 себепт ен
 принц ип
 бар бы
 кур ама
ран сп
ос ун
иг ер
 башкар ган
 г уберн
 акч асын
 сез им
 карж ылык
 сүйлөшүүлөр дү
 талапк ерлер
 Герман ия
А ба
а а
ай м
 саясат ын
 ты ң
 таан ылган
 көч өлөр
- кы
Г аз
к ана
ь е
 К өк
 кер еги
 ош ону
 Д астан
 жыйын га
Мен имче
 жең ип
 белгилен ди
 авт оном
 республ ика
 тата ал
- тур
с ең
 а ман
ди ев
 жыл уу
 түз дү
 депут аттардын
-С ай
ерс он
 жеткир илген
 пайыз ы
анс ылык
 талиб дер
к ур
ыр уу
 бир ине
 Б р
 кол л
со ци
 тарма гындагы
 мүл к
 фракция сынын
т ууга
ем ет
 кыл ышкан
 кор ут
 түш үнү
 кой со
 уюштур уп
 ашык ча
 кайрылуу сунда
 натыйж асында
 фондун ун
 пен сия
 коммер циялык
Б УУ
К ыр
ат ына
га п
атт агы
 эл инин
 кор п
ктар ын
ктар да
алар дан
 кет ишкен
Алар га
 ач ка
 Аб ыл
-бүл өлөр
лоб алдык
ш ев
ул ук
-ж ай
 күн дүк
 сөз үн
 сун ушу
 салуу ну
 мамил еси
 инф раструктур
А да
д иянын
с ал
 ж икчил
 т үшк
ра циялык
 күч ү
 ош ондо
 сог ушк
 доллар ды
 жалпы га
 Москв адагы
 ишкан асы
Кор руп
 төмөн кү
 жо юл
 каттоо дон
 сайт ына
Экинчи ден
соци ация
ал са
 ж екш
 т ин
 т ыйын
 бир инин
едер алдык
 ч агым
 ай дын
 ай рыкча
 Ж еңиш
дай т
Ош ону
 чыгы шы
Бишк ектеги
 агентт игине
 систем асын
 Мам ыт
 бекем дөө
 барат ат
 м ушт
 Т елеграм
ум ун
аш ин
 кир ди
 И тал
 киргиз ип
 студен ттер
К иев
г ур
 ч ач
 К ой
 А х
 жат пайбы
гө ч
 Т егер
уст а
 бөл үшт
 сур ады
оном ика
 партия лардын
 Өзбекстан га
 түп т
 жиги т
 тегер егинде
 пун кт
Н атыйж
ам жыл
 жол уккан
 аб акка
 ин тер
 чыккан ы
 тарап ка
 коргоо го
 Түрк ияда
уулар га
 күт үү
 коркуну чу
 инвест орлор
 баян дам
 арз ан
Б ардык
Р ос
ик ир
ит ор
уз ак
 күн дүн
ыктар ды
Өл көнүн
 радиос у
 үйр өн
 жуктур уп
 тос уп
 ток ой
-келин дер
 тапт акыр
 ж анын
 кет ир
 ичинде ги
 бошот улган
 Рах мон
 Дмит рий
ун д
сы ң
 Р услан
 төр айым
 Д үйш
 калган да
Кыргызстан дагы
 ли дер
 Кытай дан
 сыр т
 ойл оп
 дайын сыз
 күм үш
 өтүнүч ү
 көмө кт
 тагдыр ы
 январ ь
% ,
ас ак
 бар ымта
 бил ип
 министр лик
 Ал тын
гыл а
 мун ицип
 окш ош
Ад вок
п еген
ар ынан
ка дыр
 жол ду
 жай ында
 карм оочу
иде ги
-к л
 айыпт алуу
 бийликт ен
 тапшыр ган
 Ай бек
 статист ика
- ма
р ч
 ал дык
ак иев
 ую шкан
 түр лөр
иг ип
 козг олуп
 Жээнбеков дун
Тажикстан дын
-з омбул
Г руз
И л
 к оо
ет инде
ул ушу
ей н
 айт ышууда
 түз дөн
 Ал ым
 нерс ени
ын ч
 т ат
 өз гөч
 жаран дарын
 жөнүндө гү
 кем чил
 бож омол
.k g
 т үйш
ер м
 ай ына
 жа шы
 А ст
им де
ма га
тк ү
 С ов
 ор унда
үм дүк
 күч өгөн
 долбоор ду
 курул ушу
 документт ерди
 жубай ы
" Т
- чы
С т
С ан
С өз
Ф ран
 б ри
ам бет
 д оз
ект и
 баш чылары
аттар га
 көб үнчө
 аба гына
 жүргөн үн
 эрк ек
 кызматкерлер ине
 Ку дай
 мобил изация
 ум т
i r
ал ил
 т ама
 жа айт
 кол унда
 чыгар ууга
 себ ебин
 иликт еп
 тизм есине
 I n
 элчил иги
 сында ган
 райондор до
 Ис маил
 Фран ция
 салма кта
О шт
в а
о ба
 ай макка
ей д
дык ка
 жаз уучу
уул ары
 сөз үнө
 мөөн өтт
 милиция га
 органдар ына
Кытай дын
 ю рист
 буйр ук
 изилдө өлөр
h e
п ин
у ди
 оку туу
са ясий
чүл үк
 сот унда
ортт ун
ократ иялык
 мис сия
  ги
м амат
у ч
 ж өө
 с үз
ды кты
 ба ң
 жар алган
 О ктябрь
 кор г
ав шан
уг унан
 Н ов
 бөл мө
 кою шту
 кез инде
-к ат
 катар ына
 согушт ун
 на ам
c e
Д П
С п
м ал
 кел ерин
 ат ал
 жашт а
 эсепт елет
 түшүндүр үү
 такт оо
 эксперт из
 команда сы
 заман бап
 түшүнү кт
Ж ум
с ел
ар тка
 с ект
аны шы
ыш ын
 бул арды
 кан ал
 эксп орт
-апрел ге
др ом
 Ооганстан дын
 митинг ге
  Й
Ц ент
 б ылтыркы
ай ыр
ек ей
 эк ологиялык
19 2
 киргиз илди
 мөөнөт үнөн
 ий гиликтүү
 аскерлер ин
 Чыгы ш
 Теке баев
ор д
 башкар ып
 кабар чысы
Мекем е
 Аф р
 мен чи
ок р
 тур изм
 ор ду
 ул утт
 ка ст
 бийли гине
 өткөр мө
 Е АЭБ
 окуя дан
 албай м
 там ыр
 ачыл ды
ейш ембиде
 бү тк
алыш ын
 Ник ол
а дык
 деп ор
ли гин
 шаар да
 бал бан
 дай ым
 жетект еп
Кан дай
 зав о
Натыйж ада
i a
О к
 с ей
 ко шкон
 жат кыр
лар дан
 ат ам
 негиз сиз
 жыйын ы
 Ш ер
ех ан
 Трамп тын
 жерлер де
нев мон
Д ин
аб ил
 у кт
ли с
-ж арак
 үй дөн
алда штыр
Аб анын
 кыск ар
л ет
өл өк
-жыл дар
 кет се
 жаш ыл
 Д ания
 З амир
 кы ян
ылыш ына
 Мирзиё ев
4 9
ж а
 ба асын
 д уш
 билдир ет
19 6
 төр өлгөн
си ң
 пикир инде
 Өзбекстан да
 тарых ы
 баян да
Цент ер
8 5
И шк
ал ог
 шаар ларында
 бал аны
 чеч ип
 чык п
 сакт алып
 уул унун
су алдык
 уча ст
кор л
 өзгөч өл
п ул
ю п
ия сын
 ай ыгып
 кыз дар
 ком ан
 кур ууга
 сур оого
 айып то
 ап т
 абал ын
 Киев ге
 кесеп ети
 уна а
-өз бек
 масшт аб
e u
 б рит
 с ил
 ка кты
19 5
 ыл дам
 кач кан
 пикир де
 кеч ээ
 полиция сы
 Са уд
  үр
к өр
ин ов
 К им
 да ттан
 С ур
 экен ине
үндө й
 келген ден
-м арт
 өн үк
си он
акт уу
ентт е
 чыккан дан
 кою ш
 окуя ларды
 даяр дап
 борбор лор
аев дин
 ади с
 согушт ук
 жылды гына
 чагыл дыр
 Та алай
к еч
э к
 к ей
ет ине
ик ага
 К ож
 айма гы
 бошот уу
ылыш ын
 орто чо
 жо юу
-бир ине
 Куб аныч
 кечир им
 Евраз ия
 интер в
  D
К ө
а ил
а дам
и дин
ол л
оо дон
тт агы
ый т
 кат м
 айма гынан
 кызматк ерлердин
 Л енин
Өзбекстан дын
 чект еш
 баштаган ын
 макул да
 күчтөр дүн
 Эр кин
 башчы сынын
 бут ага
 теск ерисинче
 б ыш
 ө п
 жат ышканын
 жыл уулук
 кир үүгө
икт ен
 чакыр уу
 чар алары
 доллар дан
 адвок ат
-Си ге
 коң ш
 карш ыл
 депор тация
з ел
ар дан
 ар да
 С и
 кал ыс
 баш чынын
 жак ш
 ой до
 Ак мат
 программ асы
 администрация сы
 ишеним дүү
 суроолор уна
 сактагы ч
 арм ян
ь ков
 Б аб
 жар ылуу
 жүр ө
 шаар ынан
елер ге
 колдоо го
 сок кул
Өлкө дө
- кан
К емпир
к ем
ет ер
 көр бөгөн
 жаз ылып
ро ф
 ка ф
 облус уна
 ыр айы
 миллион го
 демократ ия
-берен есинин
 соз улган
 муницип алдык
л аган
 о ф
 кет ишти
ышт агы
 чыккан дар
 Е р
 Аз иянын
но ст
 Ф ейсбуктагы
 тарма гы
чылар ынын
ликт и
 жокт угун
 чыгарма чыл
-мартт ан
- үч
К им
М ект
б ест
л у
 ч егинде
 кур улган
 тил и
 прокуратур асы
 күй үүчү
 ол им
 мекен дешт
 четт ет
 ба шы
ым дын
 Б а
 Т алант
 Ж ол
 кат чы
 жүр үшү
 коом до
 Ш инжаң
 май да
 сайт ында
М ай
о бо
ор тко
ра кт
ду гу
 жар атты
 кол он
 кол унан
 кир үү
 өт үүгө
 ок ууда
 талап т
-т арт
 борбор унда
 коюл уп
 Токт огул
лин кен
 ташы ган
C OVID
К азак
М иг
П андемия
Т окт
с м
ал иция
-ж айын
 өткөр үлүп
 кызм аттык
 дүйнө гө
 жолугуш ууда
 аскерлер инин
 ас социация
иф икация
 башалам анды
 ошон дон
 шилт еме
Б илим
Д олбо
М ага
ж ыр
 бол ору
 бол сун
ап ор
 бо з
 Ж ам
кы ч
 жай кын
 жал аң
 киргиз ил
 пик ири
 тизм есин
 кээ де
өб өл
Б аары
К ремл
с унан
 б акч
ир а
 ч ап
 Л ив
 ким ге
-май га
 коопсузду гу
 Герман иянын
 үм үтт
 мүнөз дө
 казакстан дык
- Д
д үгү
 м ехан
ур ман
 А замат
 каб аттуу
 в иза
 Ш ам
 атк ез
 ур уп
-ч ара
 эркин дигин
 акция лары
 үст өм
 адаб ият
Пол иция
Б УУнун
О н
Т Р
ар ия
 т ум
 ч ир
 жар лык
 С ер
Ал а
 башк алар
мө к
 П ариж
акт ары
 өкүл дөрүнүн
 тааны ш
 кен ен
 баштап кы
 тажрый ба
Башка ча
 түшүндүрмө сү
 камт ылган
 иштеб ей
 өрөөн үндө
 ат абыз
 н ем
 кол у
 деген дей
 иликт өөлөр
 Түрк ияга
25 0
 тапшыр ды
 өкмөтт ү
 тон н
 институт унун
 Биримди ги
Бел гил
б ал
ст в
 ай ларында
тт ен
ус уна
 ил ин
 шайлоо чулардын
 жоопкерчил иги
 китеп тер
 милдеттен дир
 көм үскө
нек сия
гы сы
 бо ор
 кат ышат
 кал ышты
 ре естр
ешт и
 Кең ешке
 бийликт е
 көрүн үп
 тург ай
 Абд рах
Са ясий
 демонст рантт
  Өз
у ган
 б и
 К азак
аб ад
 эк ология
етт ери
 жүр дү
 алган дардын
 бал ким
 киши ден
 сакт оого
 өткөр дү
 тол укт
 кон ушт
 жүргүз үлүп
 кала а
 арт ынан
 кабин ети
 ас ман
 мектепт е
 бериш ет
 экстрем исттик
 Сул айман
i t
 ч акты
 п алестин
 бер үүнүн
ей лек
 Ж усуп
 болгон дон
Ал тын
Ан ткен
 өт үшү
 кам алды
аттар ын
уст ар
 түр ткү
 аял дарга
 акция га
 дайын далды
 штаб дын
 өнүктүр үүгө
 Мух аммед
б оо
ш ар
 т ирүү
 м уфт
ас ул
 А дам
Бир иккен
 бал дарын
 жай ылт
 сом ду
 окуя ларга
 миг рант
 кеңеш чиси
 кл асст
 жакт агы
 оппозиция чыл
 ошон дуктан
 Курман бек
 департамент инин
ска я
 гез ит
 эф ир
4 1
ин екей
ыл ары
 а шы
 кел үүдө
 тур ууга
 н орм
 р ев
 жок мун
 өк үн
 жай ларда
 иштер ге
 аныкт ап
 Х ан
 орт ом
ост ук
тон и
 жазган дай
 калып тан
 тарапта штары
 аст ында
 талашт уу
 баалуул уктар
о ткон
 с ууга
шк анын
 ар асын
лар ация
ит ация
 р ол
икт ерди
 Д үйшөмбү
 кою шкан
 сүйл өшкөн
дикт и
 таан уу
 жокп уз
 реда кция
7 7
 кел ишти
дөр гө
 чык са
-п икир
 үйр өт
o m
ес сия
 М их
 жол унун
 жаз асын
 дар аж
 АКШ да
 жагдай лар
 барган да
 жый н
 эреж е
 Корея нын
 сум ма
 ави ак
ергет ика
 а уди
ык ка
 айт ышат
 С ары
го жин
 Н оо
 Н ью
 л ог
 берен е
-эн еси
Эксп ер
г уз
р ис
с ындагы
ё р
ма д
ав кат
 миллион догон
 пикир лер
 тизм е
ибиз ди
 мис алы
 машы г
4 6
Ф ейсбуктагы
ч асы
 к ичи
 К ен
 Ж ЭБ
 кет сек
 баш ын
 жер инде
ышт ан
 күч үндө
 айма ктын
 жаран дарына
 жүргүз үлгөн
 бан ктар
 сп ик
 салын ат
 өндүр үү
деген де
 кен ем
Түрк иянын
 иштет үү
 стан дар
 машы кт
 Амер ика
 Бейшен алиев
Т үштүк
 ч ат
 п ан
 У р
 ан к
 колдон улган
 Л ондон
 түшүн үп
 чар асы
 даяр доо
 берилген ин
 сунуш ун
 санкция ларды
 таг ылган
 кесип тешт
-дар м
 ла гер
ат ф
ор дин
 ба атыр
 ар аб
ре ди
 Ж аңы
асы ң
 ок уучу
дор го
 долбоор уна
 арыз ы
 салын ды
 шарт ында
 пандемия сы
 Назар баев
 үзгүлт үккө
б ий
л я
 кар дар
 ко алиция
 ма ян
 кыз ды
 байланышт а
 кес илген
 тарма гына
 уюштур улган
 директ ор
 ракет алык
 зомбул укка
 N ew
вер д
и ан
да т
ик асы
 п ре
өл үп
 Б акты
 тарт ылып
 кош уна
 өткөн дөн
 тарых ында
 тизм еге
 Кур алдуу
 инстит утт
 Армен ия
 вари ан
К өз
г лис
ур г
ик ада
ус ун
 И са
 ан нексия
 жум ган
Уш ундан
ри гожин
 аракетт ерин
 күт үлүүдө
 кайтар уу
 Бек еш
 институт у
 блог ер
 толк ун
- де
6 8
А мер
б асын
ю к
 ар алашкан
 аз айып
 сал гыл
 Жапаров го
Министр лик
 матери алдык
 зарылды гын
апор ож
 к епт
ын ып
ат уу
 Т ай
 С ен
ман ов
 уш у
19 1
 арал ыкта
 кызык дар
 талкуу лан
 жем корл
 реп рессия
 радик ал
ашин ян
 баң гиз
  ыз
  Өзгөчө
ар бек
 ж ор
 м ор
 ч алып
 у тур
гө өнүн
 та гын
уст ук
 жүрг үн
 эсепт елген
 Ин дия
 чогул туп
 ээл еген
 Матра имовдун
 энергет икалык
 куугунт ук
  K
Т ез
ор дон
 и жар
ес из
ес индеги
ект ак
ба ганы
 айт уу
ит ект
 өлкөлөр дөн
 Аз из
 көзөмөл дө
ыктар ын
 уюштур ууга
 реж исс
 студен т
 эгемен дик
 манда ттуу
-дар мек
 июл ь
 генер ал
5 7
i g
б оого
ек с
 К ай
 Ж ума
 келген дер
 сөз үндө
 пр ограм
 сүйл өшт
 г лобалдык
 жоо кер
Эр т
 фин ансылык
өң көр
Центер ра
o l
Д ал
ө ңг
ал дан
 ө скөн
ак ир
 п ат
 ко ордин
 айыл да
 ой лор
 келтир ип
 колдо й
 Мак с
 мектепт ин
олдо ш
верд лов
° ,
Б еш
Б үтүн
К ош
П акистан
в иттер
с өн
 и п
 ар ага
 жыл дыр
 аб анын
ты гы
 аныкт алып
 аял ы
 курул уп
 ол тур
Бат ыш
 калтыр ды
 улант ып
 биргел икте
 каар ман
А с
К ал
р ом
ел е
 п невмон
 адам дары
ерлер ге
 белгил ери
 жаш ында
 масел есине
 Р а
үшк ө
 тааны ган
 айлан асындагы
 бейтап тар
 ада бия
 Белар устун
 пл аны
 манда т
  дан
5 8
Т аш
 ай ланды
 д үр
 д үң
 кыл ганын
 өт өп
 өн үм
 жөн дөм
 сур амжыл
 көрсөт үүгө
 чар асын
 сый лык
Ев робирим
 чемпи ону
 иде я
 кин о
 ыңг айлуу
  V
ыл ай
гы й
ым ыр
 жа гы
ушт уу
 түз үүгө
 төр аг
 көтөр үлдү
 жең ишке
Ай ма
 жарыя лан
 айтылган дай
 бат ыш
 от чет
 калтыр ган
 Мак сат
 пл атф
 топтор дун
 криз ис
 кызматташ уу
 Карак ол
- Й
4 2
Т ышкы
 т ү
 ал да
ук бек
 бир ден
 Ж ар
 шаар дагы
 з он
 ре алдуу
 Ш авкат
 уба кты
 өзгөр үү
 тапшыр ып
 прокуратур ага
 жоопкерчил икти
 талапкер лигин
 кесип тик
 танда п
 Ав стр
рансп орт
- ка
К у
ал баган
ек и
кан ын
 кал кы
чыл арга
 жай ылып
 жөн өткөн
 берил е
 аныкт аган
 көзөмөл дөп
 жакт ыр
 дарыл анып
 талапк ерлердин
 көчө гө
 белгилеген дей
 инвестиция лык
 Ц зин
 арх ив
 февр аль
 лиценз ия
А тамбаев
К ер
ул ьт
өр гө
 тур са
 н ик
еч ен
 сат ылып
 комис с
 келишим ди
 таан ымал
 согушт ан
 суроолор го
 жакшыр туу
 чен ем
Төр т
ч ык
ил лер
 ч ур
 ал арын
 бар дыгын
 уюм га
 айткан ы
 тил дүү
 алды да
 доллар лык
 аткар ган
 дай ында
 тизм еси
 кошумчал аган
 авт ом
 автоб ус
 мүлкт ү
п өгөн
 э ж
 жа атындагы
 ко е
 С у
 жүр үм
 ким дер
 иликт ен
 ди алог
 койгон ун
 Нур султан
 жумуш суз
 дек ларация
 рубл ь
 кепил дик
- орун
4 3
л ерди
с унун
Ө н
 т ун
 ал сак
стан дык
 кел б
алган ын
 мыйзам дарды
 чеч үүгө
 Д ин
 кызматт а
 буз уулар
 суу к
 аймактар га
 тапшыр м
 бек ер
 жеңил дет
 от уз
 кызыкчыл ыгы
 мед ал
 министрликт ин
  Y
М аркум
Ш айл
г ип
ор мат
ды гында
аб аган
 ко см
 да ана
ус унан
аар ын
 аб ро
 жаран дарынын
 Р авшан
 өткөр үүнү
 сом дук
 ад илет
 түн д
 жан ындагы
 окуу чулар
 бүт үн
 керект өө
үб ү
 ыкт ым
хан ов
 сай ты
 жетекчи синин
 болбогон ун
Кеч ээ
i m
Ө мүр
 к алууда
 А та
ей ц
 бар ууга
 ф ран
 бал ам
 жай ына
 колдоо су
 мигрантт арды
 котор гон
 спорт чу
 Абд улла
Журналист тер
 тейл өө
етер бург
 механ изм
  X
. )
В т
ж ай
н азаров
р им
кт ешт
 кам алып
 Орусия ны
 жаш оого
 талкуу ланып
 коопсузду кту
 чың алуу
ter s
 буу дай
 төрайым ы
 көмөкт өш
П арт
 к үл
 шаар ын
 кош улуп
др ей
ээр им
 курч уп
 Кан ат
 талдоо чу
Пр окур
" М
" Кыргыз
п а
 ч а
 К омп
 д уу
 ш ам
 ма ек
 бар уу
ект р
 өз дөрүн
 кал бай
Ал маты
ишк енин
 Н аз
 жакын дарына
 эрк ектер
 фин алда
 биргел ешип
 арб ын
К абар
г рес
р ас
с ф
ст ык
 ал к
аб уул
 д ос
 Б илим
от ек
 каб ылганын
асы ңар
 өтк өнүн
 ош онун
быз да
 сот уна
 кеткен ден
 Аз им
үүлөр дүн
 дем ек
 көзөмөл дөгөн
олгон у
 козг огон
 котор улган
 сок к
ың ыз
 кр имин
 администрация сынын
 аг рессия
 сөздөр дү
 Со юз
 Евробирим диктин
 Азербайжан дын
 Лукаш енко
eu ters
-Й ор
  үнү
Ж аз
 К М
 бир им
ит а
ум ду
 са атка
 жум ур
 кыйын чылыктар
 эскерт ип
 макулдаш уу
 Мир лан
 жума да
 булактар ына
Б а
р ов
 к е
 ж игер
ат ов
ык кан
 эл чи
үм дү
аш уу
 ан ык
Аз ербайжан
 ыр айым
Президен ттик
 камсыз дан
 Европ адагы
 техн ика
 пайд алуу
 айлан асында
 матери алдар
Ин терн
үктөр дү
 жолдор ун
 куугунт укт
оч кор
 професс ор
 душ ман
- ук
Т рамп
и гый
 бол ушту
 Б ан
 өз үндө
 М он
 М инск
яс ынын
 ан дагы
 үй л
 айма гынын
 түш өт
 берүү дөн
 борбор уна
 көзөмөл гө
 курул ушт
АКШ да
 бу юр
 деңгээл деги
 ачыл ып
атив дүү
 каражаттар ынын
үң үз
 реда кт
 Исак ов
i d
К ылм
 ч ий
 ар асына
 бил ин
 Ж МК
айл ы
 турган дай
уул укту
ушт ук
 түз үлдү
цин алык
 бүт үп
 жый ынын
 ден е
 кызыкчыл ыгын
 корку туп
еж еп
 топто п
-ай кын
9 5
И ликт
ал ит
 м ан
ст он
дар ынан
 А да
 өз бекстан
иш им
-ж айы
 р ух
уг уш
дөр дө
 чыгар ылып
 бай ка
 мындай ча
 кы дырып
 мекем есинин
 арт ист
 кызматташт ыкты
 мугалим дер
 объект ил
 Евробирим дик
 валю та
Оп п
Акт ив
 Кубаныч бек
 дуу шар
n a
В ир
 д ер
 Б ер
ект ешт
 С апар
 туу ганы
уул угу
 жаран дын
 бөл үш
 уш уну
 караж атты
 борбор дун
 виде олор
 жыйынты гына
 оң доп
 вир устун
 күй үп
 жөнөт үлгөн
 метр ге
 эксперт иза
Биринчи ден
 акы сыз
Үч үнчү
 сар пт
 жумушт ан
 БШК нын
 брит ан
С үй
Т ажик
к ыл
ым сыз
 жа атта
 бар бай
 ишт өөгө
 ф ун
 кою уга
 коронавир усту
-к ар
 маан иси
-октябр га
алыш ына
 багыт ында
 Лукаш енк
 маз м
 ын тым
 негиздөө чүсү
 де шти
ду гун
алар ында
икт ери
 чект елген
-с ез
 маселе ге
 мигрантт арга
 жоо б
мөн дөр
 күб өлөр
 режим и
 капт аган
 анк лав
" 

8 00
к ил
ч ун
ин тип
 айт ыш
 жаткан дар
 бел ар
 чеч кен
 тарап к
 ты ян
-э ки
 курам ы
 курам ына
Кийин ки
 өлтүр үлгөн
 түрмө дө
6 7
ф он
 м ер
ак ов
 Б ар
 үч өө
 С вердлов
 р ейт
 жаз ага
 ф рон
 ан глис
еси ң
 кабыл ды
 чечим ге
 кой бо
 буз улган
 салам атты
 суроо суна
 ака дем
 дарыг ерлердин
 кенем те
Д он
К ылмыш
К ошмо
 ж еп
ен дер
 т өк
 де сем
 кар алат
етт еги
 С узак
 маалым далды
Ал ь
 кет п
 аз ап
 И ра
 сал ат
 ка г
 чыгар ууну
 топ олоң
үкт өрү
 жүргүз үүгө
 жүргөн ү
Эм гек
 күрөш үп
 бюдж еттен
ахм уд
 учкуч суз
О оба
У р
ы гынын
 т өңкөр
 Б азар
 тур чу
 бил ебиз
 Т өл
мат овдун
 көр дү
 то олор
 министр лер
 ок ууга
 долбоор дун
 чар аларын
ах та
 билдирүү сү
 жый ырма
 чогул т
Республ ика
 Мих аил
  ымыр
ал л
 ж ек
 ж өлөк
ген ин
ев ди
 Ж ККУ
 М ари
 кор и
 кир иш
икт ердин
үнө м
 Р ежеп
 ты гыз
биз ди
Ар мен
 башталган ын
 көчө дө
 долбоорлор ду
Жол угуш
 начарл ап
 Көл баев
Вагн ер
 интерв ью
М эр
С ов
ш ер
ин дин
тт ун
 ба алап
кан ы
 Б УУ
 Б линкен
 кыл ганы
Бул ар
 сал тан
 жай да
 чеч м
 жаб ылган
 таб уу
 З апорож
 арыз дан
 ти гил
 бан кы
Ма дан
 таасир дүү
 украин алык
 Эл дик
 калып тыр
 коркунуч туу
Түрк ия
 көрсөткүч төр
 курман дыктар
сам бл
 азайт уу
 ойно п
 Поль ш
л ай
 к енин
 т иг
ыл са
 ч атыр
 тур ам
 М адан
 маалым далган
 чыгар а
 кылм ышк
 көрсөт өт
 дары я
сул уу
 кыйн оого
өб ө
 айл ана
 Бакиев дин
Коом дук
 моюн га
 факты сы
 тат ыктуу
1 30
л үк
 ф естив
 эс еби
 кыргыз дардын
 түр үндө
 окуя нын
 мурдагы дай
 колдон ул
 Л ейлек
Орусия лык
 катыш а
 айыпт оо
оп ул
 аян ты
 экономик асы
 күб өл
 кыйн алып
 каржыл оо
 алмаш уу
 жаны бар
 этн икалык
 көпүр ө
өңг үл
" Биз
r e
Т емир
Ф ейсб
д ал
з ы
 ж об
кт ап
ыл да
 ч ок
 жат ышты
 ш аш
 Ж ер
 Ж ун
 жай дын
 негиз делген
 кыргыз ча
 санкция лар
 орто до
 кесеп етинен
 окт ябр
Кай сы
 Тер гөө
 эмест игин
 тама ктан
 програм ма
 ыктым алды
К ый
г индеги
п ест
т үрүү
ган да
ым да
 ш ери
 кай н
ом ан
 тал ан
 белгил ешет
ышт ар
 оор унун
 тарма гын
 сп ектак
 изил деп
 шект елип
 өнөкт өш
 бюдж етке
 акы сы
in g
 мей кин
 аким и
 рын ог
 сх ем
 Мамыт ов
u s
Г үл
б ил
де с
ор ация
 да ң
 д рам
Ал ды
дер де
-б өл
 кош уун
 ыр гы
 Кытай да
 аймактар ды
 Жак ынкы
 кезек сиз
 сим в
 жерг есинде
 мор алдык
 ип отек
О бл
С Р
ат ыш
ор ус
өл ү
ев ич
 М еди
 өл түрүү
 жүр өк
Кыргызстан дык
ентт ик
 жас алып
 кез егинде
рел ь
деп ут
 президенттик ке
 орган дардын
 Мам бет
 макулдаш ууга
Иран дын
кон г
 ижар ага
6 2
l e
З еленский
С ур
п иде
т үп
ын ган
ей к
 деген дер
өө дө
 шайл оолор
ос а
 П резиден
 сат ууга
 Х ерсон
-Б ашы
 колдо ду
 шарт ы
 авт ору
 сөө гүн
 аныкталган ын
 Ү сөн
 билбей м
 кич инекей
 су тка
. А
и ж
с ыл
ор в
 ал дыр
ел ек
 бол сок
 н арк
сп ект
 жас оо
 Украин аны
 сан ап
 отур гуз
 журналист тик
 сунушт алган
 тапшыр ма
 ажырат ылган
 тай п
 бетт ешт
 сер еп
 саламатт ыкты
 Тегер ан
Б алдар
е да
к үл
л ян
н и
 ж айл
 Т ыны
 Т илек
 М ел
 р ейд
ом али
ег ор
 тарт ыш
-м артка
 район уна
 коом го
 кыргыз дын
иде о
 жаб ылып
 өзгөр үп
 коз ут
 жабыр лан
 үст үндө
Коронавирус ка
 Хар ьков
 канааттан дыр
 мейман кан
 кү ткөн
 бөлүшт үр
 Мадан ият
B C
п ол
 т еб
 ал ы
 Б ул
 С ок
ом дук
 аз гыр
 үй ү
алы ктар
 киргиз илип
-т ок
 Ул укбек
 З улуш
 абал ынан
 эркин дикке
 дал ай
 уу рд
 талкуу ланды
 ыраст аган
 аякт ап
 таң кы
 токто ткон
 тартиб и
 эпиде миологиялык
  E
Б ар
М ында
н ов
п ар
с инде
ц уз
ды гына
-ж арт
 жол дун
иги т
 мекем еси
ерен ция
 оң доо
 акч анын
Кийин черээк
 имп ортт
 өзүбүз дүн
 эркинди гине
Ади стер
 ачка чылык
уган ск
 КМ Ш
-жарт ылай
- бай
6 1
п ой
ч ук
 м ээ
ст ын
ам ак
тт ери
өл түр
 тур ушу
ка з
 кыл ышы
 кал п
 ком ен
 учур у
иев дин
 Ш арш
үрк үр
 түшүндүр гөн
 жарыя ланып
 коопсузду гуна
 автор итардык
 куу р
 түрк мөн
 калк ынын
 жүрүш өт
 келеч екте
 окумушт уулар
- ш
ай дын
 с ыз
 айт ууга
 ич ип
 айыл ына
 алды дагы
 буз улуп
 кайт ыш
 Европ анын
 жоопкерчил икке
 өзгөрт үп
 өзгөрт үүлөрдү
Бий ик
 жерлер инде
 жуг уштуу
 Армен иянын
 Чыгы шт
 рез олюция
 ев ро
 өнүк көн
  ың
Ж ет
Т арых
к ун
 к уп
 м е
ыл арды
гы ш
 бо с
ом етр
 ок урман
 П ашинян
 топ ко
 таб а
 бай ма
 арал ашып
 бөлүм үнө
 энерг иясы
 Ан дрей
 өзгөрт үүлөр
 сөө кт
 өнүг үп
 нерс елер
 ыс ык
 көргөз мө
 баал ады
 Сай ма
 Абыл газиев
5 9
ер к
 бил ем
 У с
 даяр дан
 сунушт ап
 көбөй түү
 түшүндүр үп
 тургун дардын
-июл га
 вир усту
 бөлүм үндө
 орусия лыктар
 мун ап
 маселелер ин
 окумушт уу
 Вен гр
6 3
С ал
г ери
он конг
тт ук
 ар кы
 кар ашы
 д үйшөмбү
 ш ылт
 тур уштук
 тар иф
ег рация
 Кыргызстан ды
 күч т
 токт огон
Өзбекстан да
 уз ун
 оору дан
Түрк мөнстан
 фин ансы
 милдеттен м
 кыян аттык
С ир
 бол ушкан
 о ю
им е
 кел ер
 бо мб
 күн үмдүк
 ак ыйкат
икт ор
 кам актагы
 тол уп
 жакын ы
 Казакстан дагы
 эт ност
 илим деринин
 такт аган
атор лор
 бет ер
Кар м
 бараткан ын
 түрмө гө
 псих ологиялык
итор инг
И з
К оопсуздук
в или
 т ет
 де б
 кар айт
 бир өөлөр
 тур исттер
етт ерин
 каб атыр
 ком анд
 П ригожин
 чакыр ылган
 чыккан да
 АКШ га
 кырда алда
 миг рациялык
 милде ти
 кармалган ы
 илим поз
кул ова
-Көл дө
 котор уп
 эскер үү
 акч асы
 учурлар да
 Дон ецк
 алмаштыр уу
 үлгү сүндөгү
 ИИМ дин
 уй гур
 нам аз
Ошт о
  аттан
м ыр
 м анас
 ч алды
ыр ап
 ай лам
үл үшү
үг үл
 өт үүдө
 жардам га
 партия сынан
 келишим дин
 милиция сы
 корк уп
 бек и
 дарыл оо
 Ю стиция
 карантин ге
 соол угуна
 Шт аттардын
 демонст рация
 ашк ер
 фир м
 Ада хан
t y
П ремьер
 ч ег
 К ом
 у пай
 тур а
ем ин
 жер дин
ышт ыгы
ис сия
 аск ери
 аск ерлердин
 чакыр ыктар
 тил ке
 ур уш
 жашт ан
 жаб уу
 май нап
 ээ н
 тий ип
Ай рыкча
-июн га
 Нур бек
 аракетт ерди
 ишкан алар
 жарат ылыш
 тилк есинде
 Тур сун
 тажрыйб асы
ограф иялык
абек ов
Уюм дун
-П етербург
Корруп ция
 Дания р
 жигер дүү
 ымыр кай
" Бул
c i
u b
к уп
ент и
 чыгар ылды
 кон уш
 кеч ки
 бүт үндөй
 бур м
 тармактар га
 эреж елерин
 курам ында
 буйр угу
 Сир иянын
 тоскоол ду
 позиция сын
 акыр ы
 бекит илген
 жүгүр түү
 нааразыл ыгын
 ев роп
 адил еттүү
 Аст ана
С ДП
к өй
 т еп
ол дин
 с уг
 тур мушт
 өлк өл
 бас кыч
 жай ларга
дор ун
 көрсөт ө
 аял дын
инг де
 келишим и
-август ка
 ташт анды
 от ч
 көлөм үн
 тай ма
 аэроп ортт
Парлам ент
уу ра
 А ж
ба ды
 таб ылып
 компания лардын
 Ф ейсб
 Тажикстан га
 күчөт үү
 келеч еги
Ошент се
айк ом
Израил дин
 сент ябрда
 академия сынын
-ка зак
  O
Б у
б ерг
и тке
т өбөл
 м ик
ор и
ет а
 ай р
 Б ур
 өл үп
 маалым аттык
 жүр үү
 үй үнүн
үкт өрүн
 көб үн
 таб игый
 саясат ка
 ким дир
 жүргөн дө
14 0
 жагдай ды
 х им
 Ан кара
 документт и
 элчил игинин
 жо бо
 тынчсыздан уусун
 алектен ген
 Жапон ия
 өст үр
 Таалай бек
л ооп
 к ыш
ок ко
ба ктылуу
 ат ышат
 бал алуу
 чечим дер
 журналист тин
 ээ лик
 күчтөр үн
 акция сы
 бүт үрүү
 Европ ага
 жеткир ип
 факт ылар
 деңгээл ге
 уу лан
Маалым атта
 талкуул ап
 Эм ир
 кыргызстандыктар дын
 ажырат уу
 козго п
 түшк өнүн
 оф иц
  ынан
н тым
э м
 к ас
ан ат
 ж ыр
ол он
 ал ьян
 кал ың
 экен диги
тер ин
иб и
 жас ай
 алды м
 компания сына
 кайт кан
 козг олоң
 эреж елер
 өлтүр үүгө
 үйлөр дүн
 атаанда ш
 турм ушка
Бай ден
 тек ст
Сог уш
 губерн атору
 заво дун
 Запорож ье
1 10
Р еф
м ыйзам
ц тар
 ч өп
ел ик
өр ман
 о ч
 п опул
 М ахмуд
 ишк ерлердин
 өлкөлөр үндө
 катыш ууга
 катыш ууда
 жог олгон
Украин адагы
 Тажикстан да
 мүмкүнчүл үгүн
 көч кү
 топт олгон
Ор то
дүүл үк
 атыш ууну
 ресурст ары
 ыраазы чылык
 корут унд
/ Азаттык
7 8
h t
дө шт
 бер гиле
 н ебер
 С ин
 кыл ыш
от а
чыл арды
 түз үүнү
 ылай ыкт
 бай ыркы
 сунушт ар
 мамил ени
 про дук
 кылмышт арга
 Ооганстан да
 об серв
 Байден дин
 телекан ал
 эгер де
 Асан ов
Баш ында
кал ый
 Ошт о
кр еттүү
 Сов еттер
 нем ис
 Бекеш ев
" Ж
ер сия
 с ул
ыл ыч
ст оран
оо да
 К аныбек
үл өрүн
ба штык
ум у
 көр дүк
 са х
 кур а
 кет ишин
ашт ар
 жал дан
 берил ерин
 Ч оң
 орун га
аң ыз
 ким дин
 элект игин
 салын ып
 котор уу
 арт иллер
 экономик аны
 кул ап
 Мак рон
 өкүм ү
 Аск аров
дүкт өн
-кл асст
 Өз гөн
Экспер ттер
г л
п ө
 с үт
өн т
 К ап
 Т айып
 кат егор
 М анас
 жер ине
чыл ыгын
 И м
 сөз дү
 Жапаров ду
 сын ак
 сап аты
 төрт үнчү
 жүз өгө
 акция лар
 таш уу
 кирген ден
 кишил ердин
акун ов
 ашы гы
  атт
- ар
д ияда
 ж урнал
 ж ерлерди
 К ы
аб аев
 бер ем
 Б ажы
тк ыч
 бил беген
 р олу
 мамлекетт е
 чеч кин
 эсепт ешет
 улан та
 баары быз
 таан уучу
оз а
 бөлүм ү
 кр им
ейш емби
 шартт ар
 айдоо чулар
- депут
7 6
т оо
 т өш
шт ар
 ар тт
 эл ине
 жат абы
ус ка
 кыл са
 Р ыск
 коом унун
 алын ганы
ест и
 чар чы
 тарма кта
 токтот улган
 бүт үм
Эк ономика
 маш ина
 товар ларды
 көрсөткүч ү
 пл анын
 сүрөтт өр
 чам асында
Адвок ат
Б ол
Б ала
Т и
м атт
 к ок
да к
 о юм
 К ат
стан дын
дин ов
аган да
-ж ар
 кай ды
 ф орма
тер рор
 з ап
 талап тарды
Кыргызстан га
 чакыр ык
ци д
 өткөн ү
-апрел деги
 жетекчил ер
 ишкан анын
 жолугуш уусу
 жарым ы
 х ан
 жо ю
алп ак
 мэр иясы
 айдоо чу
 катышуу чулары
 судья сы
 ни етин
 Айт матов
 титир өө
 Сыдык ов
 жарлык ка
 рев олюция
- то
Ж е
Ж ый
Ж апон
К нын
з е
я д
ер им
 с уб
ия сына
ым ын
 ишт е
 жаткан дай
уг унун
 в ерсия
 эс еге
 тол гон
 болбо шу
18 0
 бой луу
 коё т
 корку туу
-ноябр га
 рез ерв
 күтүү сүз
" Д
7 9
i l
ш айком
ал ия
ен с
 т из
ас ык
ук а
 кыз ыкт
 кыз ыктуу
 өз дөшт
 ат ай
 кийин черээк
ез д
 ин иси
 комп ью
ой гон
 доллар дын
 койгон у
-декабр га
 жарат ат
-чар алар
раз ил
 Али ев
 төг үндө
 ном ур
5 4
Ж ээн
М ир
С уу
д алат
н ара
 к аж
 б ен
 т үб
 ч ындап
ам ед
 о го
 бер беген
 кел үүгө
 М ус
алык чы
 көр өт
 ак цион
 жаз ылат
 оку т
 бөл үгүндө
 Э сен
акт ап
 милли ондой
 колдон улуп
 аба ктагы
 жетекчил ик
 демил гел
 мезгил инде
 иштет ип
 ирет инде
 тартип те
 мон иторинг
 жүгүр т
 п роп
 ар асы
 ма арак
от оло
 үй дү
 жай ларды
 жай лардын
ация га
аг рам
 Ай дар
 план далган
 кызматкерлер ин
 Конститу циянын
 Дон б
 Куб атбек
 белар ус
5 2
a s
i k
В ашингтон
У ю
ар кан
 ай дап
 бол дук
ра ак
 М ах
 аз ем
 башт ашты
 сом дун
 кон креттүү
 жашт ардын
-Абад да
 күрөш ү
 өкмөтт өр
бол от
 пайдалан ууга
 мүчөлөр үнүн
Кыз мат
 имар аттар
 Биримди гинин
-сентябр га
 күнөө сү
 Афр ика
Б ашк
х ак
 с ессия
ды ң
 М ыр
 М еде
 жаткан дыктан
 И ск
 айткан дай
 киргиз үүнү
 баштаган да
Эл дин
Украин ада
 акция сына
 уча ктар
 бюдж еттин
 Фран циянын
Эмне ге
 сов ет
 аппар аттын
 но ябрда
 корг огон
 чир к
  дө
Б ас
г им
к ам
л ердин
н вар
р исттер
ия сында
 ч егин
 ч инов
 ф ак
 эмес пиз
 иштер инин
 алын ышы
 В ал
 Л ит
 тын ымсыз
 ойл огон
 өндүр үлгөн
 жагдай да
 полиция нын
 адист ери
 машы гуу
 таз алоо
 ишкерлер ге
 Бор ис
 арх итект
ыск ы
Күн дүз
 Шв е
 New s
а у
ен ция
ер атив
 с илер
ыл ма
 п ады
 жат ыш
 ш ыл
 аб зел
ылды з
 өлкөлөр үнө
 ап а
 сотт ор
 көтөр үү
 милиция сынын
 ге зи
 кыймыл сыз
 сында ды
 Эм омали
 отурум унда
 мекемелер дин
 жогот уп
 убакы ттан
 атыш уу
 НАТО нун
 ишмерди гин
 Навальный дын
 Кремл дин
 көздө йт
 тин түү
 бри ф
" О
6 4
Б ил
М ени
С ен
г үр
с ом
Ө р
 т үт
 с ууну
 ай тк
ик ов
 кел дим
лар а
 үч төн
 Ж ети
 кай рым
ял ары
 аск ерге
 парт иялык
 тил ектешт
 төл өй
оп ол
 план дап
Маалым ат
 ашыр ууга
 от став
 программ асынын
 каражаттар ын
 укуктар ынын
 берб өө
 коо з
 баянда ма
 өзбекстан дык
Б олгону
С ер
р ун
я нын
 т ык
 т үтүн
 ба алан
 бир отоло
 кыз дардын
 көр бөй
 тал абын
аш ына
Бир имдик
 кам ап
чүл өрү
 деди м
 жаб дыктар
 Казакстан дан
 ага сы
 Кеңешт еги
Ак ылбек
чал ай
 оору ган
 өлтүр үп
 НАТО го
цтар ма
Т ИМ
Т виттер
Ө КМ
 т ук
ир ээк
ор дой
 ал сыз
тт ерди
 жа гым
 бер чү
өл үү
ев ге
ре д
 бул ар
 көр дүм
 кол дуу
өө чү
 учур га
 бал ага
тер дин
 уш уга
 ач ууга
 уюм дарга
 Ал им
 келиш пест
 из раил
олор го
-А р
 аткар ууга
-ч акыр
 көңүл үн
 ге оса
 жоопкерчил игине
 Бай сал
 Конститу цияга
ид ерл
Москв ада
 демилг есин
 соол угу
 доо мат
Парлам енттин
 өнөктөшт өр
 арз анда
 палат асынын
Дары герлер
 ойн огон
 бүтк үл
 платф орм
 убакты сы
Б ек
Ж ог
Э гемен
х оз
 т ор
 м арш
 ал дам
 А п
ск ус
гөн ү
 М ен
 кай дан
 көр үст
 кур гак
 шаар га
 В иктор
 уба д
но з
 көтөр дү
 тынч т
 бур уп
 документт ери
 эреж елерди
Түрк ияда
 каражаттар ына
 көпт өн
 окт ябрда
-өз ү
 Алым кадыр
 масштаб дуу
Миг рантт
Мадан ият
Б ор
Ч ыгы
д ул
ул я
 ө бөл
тт арды
 К очкор
ог ол
 эле ст
 кал ем
 жол укту
 мамлекетт ен
 бөл үштү
 байланышт ыр
 ур аан
 таб ыш
дикт е
 көзөмөл үндө
 багы п
 парламентт еги
 документт ерин
 Абд ул
 экономик анын
Кыз ыл
-бир ин
 тийгиз ген
 фил ь
айыр бек
 коңш ул
м ба
х у
 ч акта
ус унун
ра агы
до ону
 жол угу
 шайл анып
 айма гын
 П р
 кош ун
 Е л
олог дор
 ара ң
 эсепт еп
 им мун
 жолуг ушту
 Азия да
 ишен ип
 экинчи си
 кл асс
 Кон грес
 белгилен ет
 коррупция ны
 жап он
 далил дер
 чыгыш ындагы
 орнот уу
 чектөөлөр дү
 күз үндө
 Дүйн ө
 куткар уу
 клим аттын
 барымта га
адам жай
Ку дай
 Мари уп
К үй
т р
 к үркүр
он а
 ө й
 жат ышкан
 М арип
 жол дору
 жаз ышты
 мамлекетт ерге
 айткан ын
 берүү чү
 дар егине
 Ев ген
 журналист и
 катыш уучулар
 төл ө
-ч ат
 улан ат
 аракетт ерге
 козг олду
 Ооганстан дан
 каз ын
 аякт ады
асп ор
 администрация нын
 T im
 телекан алы
 мин тип
аштыр уу
 кеңс еси
 корп орация
 талапт арын
 реестр ине
б ара
л оого
л ерин
ен е
 ч өнт
тт ым
 Б ект
 жол дон
 кет үүнү
Аз ия
баев ди
 П еск
 Ч ех
 журналист терди
 сунушт алды
 ишен ем
 бошот ууга
 шартт ары
 болуш унча
 киреш еси
 проц есс
 эсеп ке
Белар ус
6 9
м ар
м ос
у й
ү дүн
 ж ору
ен д
ин о
 м ү
үн өт
га да
ук суз
 тур уш
 М ат
 баш чыларынын
 ан сыз
баев анын
 чык кын
 Г ор
 чек ит
 жас оого
 сат ылган
 даяр далган
 катыш уусу
 сап арга
 тааны шып
 бошот ууну
 саб актар
 багытт агы
УКМК нын
 ради о
-чар ага
ибиз дин
 ыраст ап
 Израил ге
 жетиш пей
 улант ууда
 сент ябрь
 валю т
юс сел
 келер ки
 айлам п
- Кыргызстан
a k
М ассалык
п оо
ы гынан
 к ышт
ор гон
гы ч
ст аграм
 ба ам
 эл ден
 д он
 айт са
 ат омдук
 Ж оро
 күч өдү
 ур ан
 орун ду
Эл дик
 ишен дир
 эрк ект
 кадам га
 үйлөр дү
 оорукан анын
 товар лардын
 токто тту
 өтүнүч үн
 ла герлер
 аянт ында
 август та
 Назар баевдин
 эпиде мия
Жыйын ты
 эсептей м
 Алтын бек
 сект ор
 коман дир
 быш ыкт
 Ноо кат
 спектак л
- сат
Е АЭБ
ар ка
 ж еген
ир ург
 а дегенде
ра ган
 бар ганын
 жүр үүдө
чыл ыктын
ез бол
 з ат
 өлкө бүз
 ил гер
са д
 шайлоо чулар
иб ир
 тер гел
 жүрг үнчү
 токтот ууну
 эркин дик
 жөнөт үп
мок р
 сыртк ы
 калтыр ып
 үл гүр
Мур дараак
 Сир иядагы
 чемпион атында
Кай ра
 саламатт ыгы
 жарл ыгы
 өп кө
 Макс им
 фак ульт
скус ств
 өбөл гө
Ж екш
э й
 ал чу
от ен
Ал ай
 мамлекетт и
сп ания
 тап пай
 айып пул
 башкар ууга
дикт ерди
 докум ентке
 бошот улду
 илде тке
-чар аларды
 тажик стандык
 телефон дон
 уур дап
 Бор онов
Кон ституциялык
 талиб дердин
-мартт агы
 Ташк ент
Мект еп
i s
Ф ото
к ий
 ж ыны
ат ификация
ер де
 ай ы
 ай ырма
 ба гын
 жа абайт
 шаар ларда
 сал а
Ош ого
ушт а
 уш ун
аров а
окт ор
 жаб ылды
Орусия дагы
 караж аты
 Бат ыштын
ала ста
-январ га
 жоопкерчил игин
 Мам ат
 кылын ган
 макам ын
 кылым дын
итт е
 Сан кт
 инт еграция
 Ошт огу
 Молд ок
 сх ема
 маң зат
 жогорулат уу
ы сы
ен а
ат сыз
де түү
ам үдүн
 айт ыла
аз ан
-жыл дардын
 кир ишкен
 сал ттуу
 аск ерлерди
 Е гип
 киргиз ди
 борбор ун
 кабар чы
 кабар лан
 орт ок
 Ак сы
 ди аг
 Ай н
 чын ында
 илде ттен
өг үн
 шартт арды
 Сир ия
 мектептер де
 үндө дү
Шаар дык
 мобил дик
Фин ансы
 каст ыкты
 жүргүн чүлөр
 комен дан
Н АТО
л үү
л ана
 м ем
 ал уунун
 и чи
 кел дик
 ат актуу
 р атификация
 жет үү
 кий ип
 жаз ат
дон о
 мыйзам ы
Ош онун
 бал асын
 мур ас
 алын са
 депут аттын
 өкмөт үнө
 талк алан
 келиш ин
 иликт еген
 ди аспор
 кезде ш
 тилк еси
 мүл күн
 кырсы гы
 эмге ги
 тартип ти
 сум масы
 ста цион
-де мокр
Карм алган
 өлкөл үктөр
" Мен
- М
- ая
А ка
Х езбол
и ск
н ес
с өк
т ө
у да
кт ер
ия лыктар
 о бо
 кор от
 И ш
 берил бей
 Л ав
-к он
 оп уз
 кеңеш ине
 мект еб
 эн еси
 алма шкан
 окуялар дан
 жогору да
зак ов
 макам ы
 бетт еш
 аткамин ерлер
 эмгектен ген
ынч тык
 көрбөгөн дөй
 авиак омпания
 фран цуз
 Tim es
Б ей
О ору
Э с
л өш
х ен
 с цен
 К ир
 К анада
 жат асыз
 айт пай
 айт сак
ск и
ең из
 башк аларга
 ак ысын
 бас кан
 бас аң
 сал ышкан
уул ган
 тарт ууну
 ич ине
 чыгар ат
 жаран ды
 уш интип
 болду м
 тил ине
 чечим дерди
 алар дан
-т алап
 кеңеш м
 билим дүү
Эк с
 Баткен де
 жибер ип
 автор лор
 программ асын
 бү ттү
 ээл ери
 нерс елерди
 бөгө тт
 өнөктөшт өрү
 имп ер
 материал дарды
 мадания ты
Мекен им
 Фин ансы
 үмүтт өн
Б олбо
у эл
 кар га
 кар оого
 жа гын
 өз үнөн
чул укка
 чыг ууда
 мамлекетт ери
ору х
ис ин
 ок куп
сү ң
 Ч ын
 төл өгөн
 сап атын
ехн икалык
 керект иги
 жакт аган
 уча гы
 каз ына
Министр ликтин
 жогору дагы
 басылм алар
 тир еш
 сек суалдык
 Эн тони
Ада тта
 даң аз
  үнөм
5 3
г ат
ет ан
ыр аак
 К ылыч
аб ал
стан ция
 Б ерл
 Б ахм
 О тун
үм үн
 кай сыл
уул укка
 иштер дин
 Э кономикалык
сп ек
 уюм уна
 өткөр үлгөн
 кабарл ашты
 инф ек
 адвок аттары
 сайт ындагы
Кон ститу
 моюн уна
 маркум дун
 ысым ы
Оор ук
 Жон сон
 Сулайман ов
 Бакты бек
Ж еке
б өө
ч ек
ил л
ил дөө
 и скусств
 о доно
 п отен
 у ткан
 бар ганы
 ат ылган
 кор оо
 жаз асына
 бий икт
 учур лары
 жаңы дан
 партия сын
 аял дарды
 сотт он
 көбөй гөнүн
үшү бүз
 сый м
-Көл дүн
 берен елери
 жолдо мо
tion al
 Темир ов
 өст ү
 жекш ембиде
 олим пиада
 кори дор
 кайды гер
Жыйынты гында
a ce
К аб
г ог
и ттин
п ы
т ү
 ч ай
 К ав
 тур исттик
 бил бейт
 М ал
 бул ган
 са аттан
 жаз ында
 дол лары
 оку й
 П ав
 жыйын ына
 азыр аак
 чект ел
Ак ыйкатчы
-С инин
 баштаган ы
 тапшыр масы
 оюн дарына
 такт алган
 Путин ге
 ык ма
 каражаттар ды
 өч үрүү
 жеткен ин
 мүнө тт
 Ташиев дин
ma n
Баткен де
 мажбур лап
 паспорт ун
елл я
 коммун икация
 Шв ейц
-жылдар дагы
нтым ак
 продук ция
  резиден
Ж абыр
б ин
в ет
ж игит
п ром
у ж
ч уну
 т ра
үү л
 ак ыны
 кет иш
 талк аланган
 акт у
 Ф едералдык
 көзөмөл үнө
 абал ына
 мамил елер
 чын дыкка
 жиб ерди
 байланыш ып
 экөө бүз
 убакы тта
 эмдөө дөн
 ачы кт
 Мухаммед калый
 артист и
-сез им
 Песк ов
g ra
Ж ан
м анын
ов о
ба з
 жыл дагы
 үй үнөн
ада х
иб ер
 тер мин
 сакт алган
 кою шу
 айыл дык
 жардам чысы
 долбоор го
00 0
-май дагы
 мамил есин
 так си
 ишкан алардын
 кап чы
 кала анын
 тург уз
 мамлекеттер де
 жерлер ге
 кошт олгон
 атаанда шт
 себепт үү
 маалымдаган дай
 өртт өн
 кишил ерди
 клин икалык
бөл өң
 Төр ө
-чы гыш
ig ht
 редакт ору
 крим төбөл
  [
" А
7 2
Д об
Д үйшөмбү
г үз
ң үз
ар лык
 ал ек
ам мад
 Б өлтүр
 жар дыруу
 С үй
 С алык
ум ын
 мыйзам дуул
 мур дараак
 ош ент
 сур анган
 кооп ератив
 тер ез
 кою шат
 кең ей
 кызматт ары
 сын оо
 кырдаал дан
 сп орттук
-июн дагы
 оюн дары
 жетк ил
 кала асы
 сез ген
 өзгөрт үүгө
 макс атта
 парламент и
es s
 күз өт
 конц еп
 февр алда
 жоок ерлер
 ХАМАС тын
 камсыздан дыруу
 үйл өн
 европ алык
 чечкин дүү
Ы й
э в
ол я
гы с
 ба арл
 А ида
 тар кат
-ж өнү
 жаткан дардын
дер ден
 шаар ды
 Н ас
 айма кты
 Р ыс
 Д а
 Э дил
 кыр к
 окуя лардын
илген и
-ч өйр
 келтир ди
 жүз ү
 тапшыр уу
 виде ого
адан ын
 Бек назаров
аан ек
 бирикт ир
 Комп ани
 мунап ыс
 өздөшт үр
 чинов н
. ,
5 1
l oo
 ж ур
 с ерт
ст рем
 ал ыскы
шк аны
 тур арын
 кал ышкан
 бас кын
 Р ам
 аш ууну
 аш пай
 төр өт
Өз бек
 бай ыр
 Ф едерация
аң гы
 жан ына
 тоб уна
 л ин
 деңгээл ин
 Ө н
 ишм ерлер
 түрмө дөн
-президен ти
 дуб ан
 Зулуш ев
 көрүст өн
- кен
e m
А Л
Б ак
И Ч
м ет
с ов
ч умун
ыл байт
 ал абы
 ай дың
ыз ын
ра ди
 кыл ууну
 кыл дат
 көр үүнү
 жет пеген
 деген ге
 ак чалай
еш елүү
 кызмат ында
чул арын
 шаар лар
 оор уну
 оор усу
 айып тар
 айыл ы
 даяр данып
 саясат чылардын
-апрел ь
 билдирүү сүн
 күт үлүп
 дайын доо
 ый ык
 илде ти
 тапкан ын
 инф ля
 талкуул ады
Тажикстан да
 ишмерди ги
 толтур а
 ста ди
 доом аттарды
 колл ег
Болбо со
М атра
з ада
и ̆
 а гып
 кар алууда
 айт уусунда
 кыл арын
 болгон уна
 кал кты
 жаз ышкан
 белгил еш
Биз ди
 өкүл дөр
 атк ара
 жең үүчү
Уш у
 дал е
 систем асына
 нерсе ге
 далил ден
 аң гем
 имарат ынын
 тир кем
 көйгөйлөр дү
 башаламандык ка
 но ябрь
 ойлон уп
 комплек ст
 процес ст
 Осмон ов
 чагым чыл
 баяндам асында
 Меде т
 филь м
5 6
8 4
9 9
9 00
да штыр
ер го
ст ы
оо к
 кар ал
ов ка
үч түү
 тур ист
 бар са
 кыз ын
 кат ышканы
 М айк
 кай г
 ф из
 алган га
 белгил ешти
 ишк ердик
 Ш акиев
 дел ег
 колдон улат
-т ал
 эсепт еген
 Ак жол
Ак ыр
атур а
 тергөө чү
 Ай сулуу
 көч мөндөр
стр ук
 тилк елер
 экономик ага
 таз ал
 себепт ери
 бары шы
 технология лар
 эмн ени
 рек орд
Көр сө
 тык ыр
етан ья
- Ш
А Х
К ой
М итинг
б ектин
ан тин
ыл баган
тт арга
ик аны
 бир өөнүн
 Б ах
 тур уксуз
дир асул
чыл ыкты
 ф ормат
 жай кы
баев ге
 мүмкүн дүгүн
 айыл га
 аймактар ына
 аген т
 л еги
 бошот уп
 берен елер
Талиб андын
 келин дин
 иде ология
 ооз дукт
 убакы тка
-ноябр дагы
 качкын дар
Опп озиция
 бен зин
К аза
С алык
т еп
