{"\n":0," ":1,"!":2,"\"":3,"#":4,"$":5,"%":6,"&":7,"'":8,"(":9,")":10,"*":11,"+":12,",":13,"-":14,".":15,"/":16,"0":17,"1":18,"2":19,"3":20,"4":21,"5":22,"6":23,"7":24,"8":25,"9":26,":":27,";":28,"=":29,"?":30,"@":31,"A":32,"B":33,"C":34,"D":35,"E":36,"F":37,"G":38,"H":39,"I":40,"J":41,"K":42,"L":43,"M":44,"N":45,"O":46,"P":47,"Q":48,"R":49,"S":50,"T":51,"U":52,"V":53,"W":54,"X":55,"Y":56,"Z":57,"[":58,"\\":59,"]":60,"_":61,"`":62,"a":63,"b":64,"c":65,"d":66,"e":67,"f":68,"g":69,"h":70,"i":71,"j":72,"k":73,"l":74,"m":75,"n":76,"o":77,"p":78,"q":79,"r":80,"s":81,"t":82,"u":83,"v":84,"w":85,"x":86,"y":87,"z":88,"{":89,"}":90,"£":91,"§":92,"©":93,"¬":94,"­":95,"°":96,"²":97,"³":98,"·":99,"¸":100,"º":101,"¼":102,"Ç":103,"Ñ":104,"Ö":105,"Ü":106,"ß":107,"á":108,"â":109,"ã":110,"ä":111,"ç":112,"è":113,"é":114,"í":115,"ï":116,"ñ":117,"ö":118,"ü":119,"ā":120,"ą":121,"ğ":122,"İ":123,"ı":124,"Ŋ":125,"Ş":126,"ş":127,"Š":128,"ū":129,"ƚ":130,"Ɵ":131,"Ƣ":132,"ƣ":133,"ə":134,"ɵ":135,"ʙ":136,"ʼ":137,"́":138,"̆":139,"Ё":140,"Ђ":141,"І":142,"А":143,"Б":144,"В":145,"Г":146,"Д":147,"Е":148,"Ж":149,"З":150,"И":151,"Й":152,"К":153,"Л":154,"М":155,"Н":156,"О":157,"П":158,"Р":159,"С":160,"Т":161,"У":162,"Ф":163,"Х":164,"Ц":165,"Ч":166,"Ш":167,"Щ":168,"Ъ":169,"Ы":170,"Ь":171,"Э":172,"Ю":173,"Я":174,"а":175,"б":176,"в":177,"г":178,"д":179,"е":180,"ж":181,"з":182,"и":183,"й":184,"к":185,"л":186,"м":187,"н":188,"о":189,"п":190,"р":191,"с":192,"т":193,"у":194,"ф":195,"х":196,"ц":197,"ч":198,"ш":199,"щ":200,"ъ":201,"ы":202,"ь":203,"э":204,"ю":205,"я":206,"ё":207,"ђ":208,"і":209,"ї":210,"љ":211,"ћ":212,"ў":213,"Ѳ":214,"ѳ":215,"ғ":216,"Қ":217,"қ":218,"Ң":219,"ң":220,"Ү":221,"ү":222,"Ұ":223,"ұ":224,"ҳ":225,"ҷ":226,"һ":227,"ӊ":228,"ӏ":229,"Ә":230,"ә":231,"Ө":232,"ө":233,"ӯ":234,"ا":235,"ح":236,"خ":237,"د":238,"ر":239,"ز":240,"ص":241,"ط":242,"ظ":243,"ع":244,"غ":245,"ق":246,"ك":247,"ل":248,"م":249,"ن":250,"ه":251,"و":252,"ي":253,"ُ":254,"ِ":255,"‎":256,"‒":257,"―":258,"•":259,"⁠":260,"⁣":261,"⁰":262,"№":263,"→":264,"−":265,"▪":266,"●":267,"⠀":268,"回":269,"堅":270,"族":271,"昆":272,"鄄":273,"韓":274,"鬲":275,"":276,"️":277," к":278,"ан":279,"ар":280," б":281,"ын":282,"ал":283," ж":284,"ен":285,"да":286,".\n":287,"ин":288,"ат":289," т":290,"ер":291," м":292,"ай":293,"уу":294,"кт":295,"ол":296," с":297,"ыл":298,"ган":299," э":300,"үн":301,"ун":302,"де":303,"ир":304,"ор":305,"ды":306," а":307,"гы":308,"он":309,"ур":310,"ил":311,"ст":312,"ия":313,"ет":314," ч":315,"га":316,"ек":317,"ул":318,"шт":319," ө":320,"ыр":321," ал":322,"ам":323,"ел":324,"ык":325,"ак":326,"ас":327,"өр":328,"ып":329,"ди":330,"оо":331,"өн":332," ай":333," бол":334,"үү":335," де":336,"дар":337,"шк":338,"тт":339," и":340,"дын":341," о":342,"ген":343,"ап":344,"ик":345,"ыз":346,"ында":347,"ук":348," ба":349," мен":350," п":351," К":352,"ана":353,"үр":354,"аб":355," менен":356,"из":357," \"":358,"ым":359," ар":360,"ий":361," кар":362,"дан":363," жана":364,"ок":365,"атт":366," бир":367," жа":368," эл":369,"ов":370,"кан":371,"дө":372," ко":373," да":374," у":375," бер":376,"стан":377,"ары":378,"ес":379,"ый":380," А":381,"ог":382," жат":383,"им":384,"ей":385,"үч":386," кө":387,"ус":388,"ча":389,"ция":390," эк":391,"үл":392," кел":393,"өл":394,"уп":395," д":396,"ына":397,"гыз":398," Б":399,"аны":400,"ра":401,"лар":402,"ыргыз":403,"ев":404," деп":405," ш":406," ма":407,"ист":408,"ма":409,"тк":410,"ду":411,"ге":412,"ре":413,"дин":414,"ынын":415,"ден":416,"ип":417,"гө":418," тур":419,"дагы":420,"үй":421," бар":422,"ги":423,"ка":424,"ыш":425,"ект":426,"алган":427," бо":428,"юн":429,"дык":430,"ба":431,"гон":432," кыз":433,"ли":434," тар":435," бил":436,"етт":437,"үз":438," айт":439," жар":440," өз":441," ат":442," со":443," эм":444,"нын":445,"аз":446,"ск":447," н":448,"үп":449,"дам":450,"өт":451," эле":452," Т":453," үч":454,"аган":455,"ем":456,"ку":457,"еп":458,"ит":459,"анын":460," чы":461,"сы":462," Ж":463,"иш":464,"-ж":465,"ыргызстан":466,"айл":467,"бек":468,"уш":469,"гөн":470," кат":471," М":472," С":473," кыл":474,"алык":475," ишт":476,"алуу":477," -":478,"дир":479," өл":480,"зи":481,"ери":482,"ум":483,"20":484," боюн":485,"инин":486,"алым":487," ор":488," та":489," боюнча":490," бул":491,"уз":492,"дай":493,"мат":494," билдир":495,"инде":496," болгон":497," О":498,"үм":499,"от":500," туу":501," үчүн":502,"лек":503," кай":504," маалым":505,"го":506,"ең":507," көр":508,"до":509,"-жыл":510,"еч":511," кал":512," жаткан":513," кор":514,"Ал":515," жыл":516," р":517," са":518,"шы":519," кол":520,"ктар":521," то":522," иш":523,"инист":524," жол":525,"рези":526,"резиден":527,"дун":528," өлк":529,"амлек":530,"ут":531,"гил":532,"дук":533,"ом":534," каб":535,"үк":536,"ерл":537,"ег":538,"ине":539,"инистр":540," адам":541," жет":542,"Бул":543," ком":544,"үш":545,"аар":546," тал":547,"усия":548," күн":549,"ады":550," башк":551," деген":552," жүр":553," экен":554," ак":555,"бай":556,"ылган":557,"ынан":558,"чу":559,"еш":560,"чи":561," кызмат":562,"аш":563," кур":564,"алар":565,"лык":566," жок":567," кер":568," болуп":569," кет":570," кий":571," кан":572,"зам":573,"унун":574,"ерди":575," мамлек":576,"ейин":577,"русия":578," өк":579,"ооп":580," Кыргызстан":581,"ууга":582," баш":583,"чы":584," ми":585,"өө":586,"Бир":587,"үндө":588," чейин":589," У":590,"шкан":591,"үг":592,"кы":593," туур":594,"та":595,"асы":596," тууралуу":597," президен":598,"лан":599,"ав":600,"уг":601," уч":602," бел":603," аз":604,"уна":605," жер":606,"чыл":607,"арт":608," жаз":609," турган":610,"ыйзам":611,"унда":612," ф":613," эмес":614,"дон":615,"дары":616," кийин":617,"ян":618,"еб":619,"бл":620,"\",":621,"ишк":622," кир":623,"агы":624,"ыкт":625,"кен":626,"дү":627," жак":628," И":629," жатат":630,"ез":631,"икт":632,"чул":633,"ага":634,"бо":635," бас":636,"дер":637," керек":638," ул":639," чыг":640," башт":641,"уун":642," мыйзам":643," (":644," шаар":645,"үнө":646,"Ан":647," өт":648,"ки":649," сал":650," министр":651,"яс":652,"ардын":653," алып":654," бий":655,"Ош":656,"дөр":657,"укт":658," өтк":659," мамлекетт":660,"сыз":661," учур":662,"ерлер":663,"ке":664,"ээ":665,"ро":666," маалымат":667," мил":668,"өз":669," дагы":670,"өм":671,"уул":672,"бр":673," көп":674," ан":675," үй":676," алган":677,"ман":678," эки":679," кам":680," байл":681,"ент":682,"үнүн":683," Орусия":684," белгил":685,"ябр":686," бал":687," ук":688,"ору":689,"аж":690,"раин":691," тарт":692," шайл":693," Н":694,"ушт":695,"-жылы":696," аны":697,"дардын":698," жай":699," көз":700,"ышт":701,"аттар":702,"арл":703," байланы":704," миң":705," мур":706,"өлөр":707," күч":708,"..":709," түз":710,"ял":711," ош":712,"тер":713,"Аз":714," биз":715,"иши":716," ую":717,"ындагы":718,"уст":719," ка":720," з":721,"ылуу":722," в":723," анын":724,"ис":725," мас":726," дол":727," чеч":728," келген":729," ич":730,"өй":731,"егиз":732,"-м":733,"Бирок":734,"чил":735,"инчи":736," чыгар":737,"дик":738," айма":739,"ран":740," сөз":741," саяс":742," билдирди":743,"утт":744," президент":745,"алы":746," экенин":747,"ыт":748," жаш":749,"ыйын":750,"иев":751,"баев":752,"ос":753," оку":754," өн":755," жаң":756,"үүгө":757,"төр":758," өлкө":759," аб":760,"күн":761,"ты":762," жөн":763,"оом":764,"краин":765," обл":766," жаран":767,"ууда":768,"мө":769," каршы":770,"ив":771," ок":772," чык":773," масел":774,"гү":775,"огор":776,"?\n":777,"ктан":778,"дөн":779,"иянын":780,"доо":781," башка":782," көрс":783," бөл":784," уш":785,"орб":786," Р":787," түш":788,"уга":789,"19":790," аш":791,"суз":792,"аттык":793,"акыр":794,"инен":795,"со":796," ин":797," төр":798," П":799," Д":800,"икалык":801,"үмкүн":802," Г":803,"ада":804,"Алар":805," ил":806," оор":807,"азак":808," мүмкүн":809,"өш":810,"аров":811,"са":812,"сынын":813," байланышт":814,"еген":815,"202":816,"ышк":817," чыгы":818," эс":819," бери":820," болду":821," кандай":822,"ейт":823,"алды":824," шайлоо":825,"си":826,"алдык":827,"гында":828," иштер":829," карм":830,"йт":831,"еси":832,"айон":833,"лик":834," ре":835,"арын":836,"дуу":837,"гын":838," аск":839," калган":840,"огорку":841," же":842," Э":843,"ация":844," мамлекеттик":845,"үт":846,"акт":847,"-б":848,"быз":849," сур":850," негиз":851,"дор":852,"дыр":853," мак":854," кош":855," район":856,"201":857,"дүн":858," жары":859," талап":860,"10":861,"орбор":862,"алып":863,"Кыргызстан":864,"гана":865," коом":866,"өнүн":867,"об":868,"иция":869,"ыркы":870,"чү":871," болот":872," кыргыз":873,"лөр":874,"окт":875,"иб":876," гана":877,"оң":878,"иялык":879,"еди":880,"тур":881,"айын":882,"арды":883," эми":884,"сп":885,"Биз":886,"аза":887,"үйн":888," министрли":889," чек":890," түр":891," алын":892," ач":893," кооп":894," чакыр":895," бийли":896," тап":897," тер":898,"айт":899,"иг":900," эр":901,"ентт":902,"уну":903," чыккан":904," киши":905,"үнү":906,"чүл":907,"гиз":908," жас":909," пр":910," арак":911," кабыл":912," жыйын":913,"ындай":914," айып":915," байланыштуу":916," Бишк":917," сакт":918," кою":919," катт":920," жатканын":921,"дүү":922," ав":923," айтып":924,"Өз":925," токт":926," катары":927,"ара":928," жооп":929,"епт":930," жаңы":931," уюм":932,"ания":933,"ашт":934,"ци":935,"елер":936," топ":937," аралык":938,"ондо":939,"КШ":940,"асын":941," сүй":942," депут":943,"мөт":944,"ешт":945," жал":946,"ябрда":947,"чө":948," тарап":949,"сү":950," Украин":951," кылм":952," алдын":953,"азакстан":954," өткөр":955,"рам":956,"дарды":957,"тты":958," кең":959,"рым":960,"ыс":961,"ууну":962," өкүл":963," берген":964,"гоо":965,"уб":966," кызм":967," ишк":968,"ла":969," кыр":970," парт":971,"ени":972,"асында":973," берил":974," милли":975," сот":976," сом":977,"ылып":978," кызматк":979," Ш":980,"апаров":981," пай":982," Ч":983,"уттук":984,"үкт":985," айыл":986,"кин":987," кый":988," кеткен":989," облус":990,"чысы":991,"беков":992," жум":993," комп":994," атк":995,"асм":996,"аты":997," болсо":998," сан":999," Е":1000,"онав":1001," ыл":1002," айткан":1003," көб":1004,"үгүн":1005," тил":1006,"сия":1007,"ест":1008,"Анын":1009,"үүдө":1010,"оном":1011," чечим":1012," тол":1013,"арлам":1014," В":1015,"онавир":1016,"еги":1017," сог":1018," долбо":1019," сүйл":1020,"абыз":1021," коопсуз":1022,"гына":1023,"яр":1024," эск":1025,"нал":1026," ошол":1027," кез":1028,":\n":1029," ур":1030," кой":1031," кайр":1032," жетек":1033,"то":1034," көрсөт":1035,"үлгөн":1036," кайра":1037," караган":1038," билдирген":1039,"иде":1040,"дүр":1041," жардам":1042," чет":1043," деди":1044,"тыр":1045," сун":1046,"ышат":1047,"ышы":1048," Жапаров":1049," окуя":1050,"үрк":1051,"тан":1052,"ытай":1053," ой":1054," алар":1055,"тор":1056,"адыр":1057,"ылды":1058,"гер":1059," дүйн":1060,"не":1061,"урнал":1062,"оого":1063," ылай":1064," коргоо":1065," кон":1066," жакын":1067," мурдагы":1068," жашт":1069," партия":1070," алуу":1071,"огон":1072," кызматт":1073," жүрг":1074,"ика":1075,"кү":1076,"дарга":1077," эч":1078," уба":1079,"тар":1080," жолу":1081,"се":1082,"асмий":1083," жаб":1084,"ушу":1085," өткөн":1086," дел":1087,"улган":1088," киргиз":1089,"урналист":1090," учурда":1091," өлкөлөр":1092," ыр":1093,"30":1094," Аз":1095," сат":1096,"гөр":1097,"ой":1098," колдон":1099,"ердин":1100,"тын":1101,"алда":1102,"орт":1103," өкмөт":1104," албай":1105,"кты":1106," ылайык":1107,"кта":1108,"роп":1109,"олог":1110," азыр":1111,"чулар":1112,"дей":1113," бири":1114," Кең":1115,"-и":1116,"ыгы":1117,"өп":1118,"екем":1119," айтты":1120,"Мен":1121," отур":1122," башкар":1123," өзгөр":1124,"ондой":1125," ап":1126,"үүлөр":1127," улам":1128," дем":1129," алды":1130," ара":1131," Л":1132,"үшт":1133,"дөрү":1134,"туу":1135,"артт":1136," чыгып":1137," парлам":1138,"но":1139,"рем":1140,"ата":1141,"гун":1142," соң":1143," талк":1144," ичинде":1145," президентт":1146," ушул":1147,"ети":1148," коронавир":1149," аныкт":1150," жүргүз":1151," Ал":1152,"анда":1153," арк":1154," түшүн":1155,"сүн":1156," орун":1157," Х":1158," келиш":1159," Кыргызстандын":1160," аба":1161,"ышкан":1162," аял":1163,"ундагы":1164," сотт":1165,"мия":1166," таб":1167," акт":1168," бирок":1169,"атты":1170,"иги":1171," долбоор":1172," берүү":1173," кес":1174,"дөө":1175,"...":1176," из":1177,"15":1178,"Орусия":1179," келет":1180," чоң":1181," бай":1182,"ону":1183,"дек":1184," караганда":1185," дар":1186," г":1187,"изм":1188,"алиев":1189,"ашк":1190,"кер":1191,"сат":1192," караж":1193," жалп":1194,"оск":1195,"ышты":1196," алардын":1197," калды":1198,"уус":1199,"үүнү":1200," май":1201,"ири":1202," саясий":1203," жөнүндө":1204," жарыял":1205," өзү":1206,"өөн":1207," мындай":1208," Ев":1209," Орусиянын":1210,"ерин":1211,"уучу":1212,"иктүү":1213," элек":1214,"аткан":1215," компания":1216," миллион":1217," чар":1218," тышк":1219,"ече":1220," каза":1221,"ындан":1222,"мүр":1223," Ф":1224,"-к":1225," журналист":1226,"асынын":1227,"акка":1228," АКШ":1229,"өк":1230,"олор":1231," даяр":1232," аркылуу":1233,"рел":1234,"сиз":1235,"ах":1236," болбо":1237," тарма":1238,"алан":1239,"-А":1240," оп":1241," айрым":1242,"ыкты":1243,"угу":1244," президенти":1245," доллар":1246,"оскв":1247," бийлик":1248,"аң":1249," ая":1250,"цин":1251,"сын":1252,"ердик":1253," ээ":1254," турат":1255," мл":1256,"ова":1257," деле":1258,"бекстан":1259,"-т":1260,"ко":1261," борбор":1262," Казакстан":1263," ад":1264," күр":1265," ли":1266,"өгөн":1267,"асына":1268," саясат":1269," эконом":1270,"деги":1271,"-жылдын":1272," келип":1273,"ганын":1274," катар":1275,"онун":1276," ага":1277,"үгү":1278," орус":1279,"гиликтүү":1280," кабар":1281," мүч":1282," Жогорку":1283,"ерлери":1284,"Буга":1285," эң":1286," көтөр":1287," нече":1288," расмий":1289,"инг":1290," биринчи":1291,"ех":1292,"бүз":1293,"овдун":1294,"ишт":1295,"дөгү":1296,"мер":1297,"илген":1298,"циялык":1299," катыш":1300," аткар":1301,"өлүк":1302," себ":1303,"лор":1304," Аб":1305,"ыйыл":1306,"Өзбекстан":1307," Ул":1308," кырда":1309," чект":1310," кылып":1311," берип":1312,"-с":1313," ким":1314,"циалдык":1315,"убл":1316,"ерт":1317,"00":1318,"Азаттык":1319," иштеп":1320,"гандар":1321,"ылык":1322,"өтк":1323," комит":1324," Кытай":1325," айыпт":1326,"шыр":1327,"стит":1328,"вар":1329," ст":1330," турганын":1331,"бей":1332,"гөө":1333,"ажик":1334," Бишкект":1335," жакшы":1336,"КМ":1337," жүргөн":1338," тий":1339," коопсуздук":1340,"юл":1341,"анды":1342," буз":1343," чог":1344," суу":1345," кылмыш":1346," эсепт":1347," күнү":1348," жең":1349,"өмөл":1350,"ларды":1351,"гыл":1352," буга":1353,"тин":1354," он":1355,"-окт":1356," маан":1357," атайын":1358,"алат":1359,"окур":1360," төл":1361,"ңг":1362,"дикт":1363," Кеңешт":1364," түн":1365," орт":1366," төрага":1367," кызматы":1368,"енин":1369,"Ай":1370,"11":1371,"етти":1372," министрлиги":1373,"гинин":1374,"өтт":1375," миг":1376," Ак":1377," көзөмөл":1378," жалпы":1379," сүйлөш":1380," эмне":1381," Бат":1382,"тир":1383," пик":1384,"ганы":1385,"штур":1386,"үшк":1387,"оп":1388,"унан":1389,"ерг":1390,"еттик":1391,"Ак":1392," өлкөнүн":1393,"дүк":1394,"-К":1395," кабарл":1396," дүйнө":1397," жерде":1398," мамлекет":1399," сыр":1400,"окум":1401," дары":1402," аракет":1403," иши":1404," бардык":1405,"Ошол":1406,"ны":1407," ты":1408,"ажикстан":1409," коронавирус":1410,"-С":1411,"еке":1412,"пай":1413,"огу":1414," комис":1415,"ктуу":1416,"ала":1417,"екш":1418," Кыргызстанда":1419,"есп":1420," иликт":1421,"мөтт":1422," З":1423,"200":1424," туура":1425," сын":1426," курул":1427,"руп":1428,"ымында":1429," меди":1430," Садыр":1431," ишке":1432,"пи":1433,"рат":1434,"гөчө":1435,"густ":1436," берди":1437,"Бишк":1438," болчу":1439,"-ч":1440,"амил":1441,"12":1442,"ерс":1443," кеңеш":1444," улан":1445," мект":1446," коз":1447,"лер":1448," башчысы":1449," акча":1450," келишим":1451," карата":1452,"дуктан":1453,"шка":1454," бийликт":1455," багы":1456," эксп":1457," дай":1458,"Алардын":1459," сактоо":1460," кач":1461,"Уш":1462," Түрк":1463," сунушт":1464," жаг":1465," ачык":1466,"бы":1467,"абр":1468,"еспубл":1469,"ланган":1470,"ыя":1471," тын":1472," жатышат":1473," беш":1474,"чылык":1475," прокур":1476," элект":1477," аймактар":1478,"-бүл":1479," социалдык":1480,"атур":1481,"ыктар":1482," им":1483," арыз":1484," кошум":1485,"Азыр":1486,"лардын":1487," саны":1488," абал":1489,"олгон":1490," айтымында":1491,"январ":1492," Бишкек":1493,"Президен":1494," баштаган":1495," оорук":1496,"14":1497,"ылат":1498," жаштагы":1499," уюштур":1500,"аараз":1501," салуу":1502,"ундай":1503,"КМК":1504," кылган":1505," басма":1506,"етинин":1507," Москв":1508," жан":1509," киш":1510," баары":1511," доб":1512,"-э":1513," парламентт":1514,"ылм":1515," пикир":1516,"18":1517,"ерге":1518," курал":1519,"аларды":1520," уул":1521," жог":1522," чаб":1523," сап":1524," токтот":1525,"-май":1526,"ри":1527," эн":1528,"арых":1529,"чиси":1530," актив":1531,"Эм":1532,"кө":1533,"сына":1534,"түү":1535,"ози":1536,"-ап":1537," эркин":1538," ди":1539," камсыз":1540,"Кыргыз":1541," облуст":1542,"-апрел":1543," төрт":1544," кырдаал":1545," докум":1546," наараз":1547," тергөө":1548," өтө":1549,"өкт":1550,"дим":1551,"16":1552,"мен":1553," жергиликтүү":1554," макул":1555,"17":1556," ти":1557,"есин":1558," тел":1559," келтир":1560,"ьер":1561," арасында":1562," мурда":1563," жолуг":1564," Ош":1565," белгилүү":1566," көбөй":1567," бан":1568," мамил":1569," шаарында":1570," кы":1571," өтүп":1572,"там":1573,"рантт":1574,"бад":1575,"биз":1576," алынган":1577," коюл":1578,"25":1579,"гин":1580,"тка":1581,"еби":1582,"Эл":1583," күчтөр":1584,"алам":1585," Кеңештин":1586,"евр":1587," мекем":1588," министри":1589,"Анда":1590," кеч":1591," Азия":1592," жүз":1593,"гач":1594," ишен":1595,"-Абад":1596," Ар":1597," милде":1598," кармалган":1599," дал":1600," маалыматтар":1601," айында":1602,"утин":1603,"рация":1604," адамдар":1605," биздин":1606,"аль":1607," жайга":1608," Өзбекстан":1609," күрөш":1610," таас":1611,"13":1612," тапшыр":1613,"Ошон":1614,"аттуу":1615," бош":1616,"ед":1617," сист":1618," мөөн":1619,"арга":1620," ортос":1621,"үшү":1622,"үлүп":1623,"тик":1624,"бул":1625," кыргызстан":1626,"ама":1627,"су":1628," сыя":1629," маселе":1630," барып":1631," кайт":1632,"ремьер":1633,"сан":1634,"артта":1635,"юу":1636," аскердик":1637,"уунун":1638,"дарын":1639," ата":1640," жетекчил":1641," сүр":1642," өкмөтт":1643," милиция":1644," таж":1645,"Украин":1646,"ардык":1647,"адагы":1648," карап":1649," билим":1650," аталган":1651," жүрүп":1652," аген":1653," тарых":1654,"ктын":1655," акция":1656,"ишкен":1657," сыяктуу":1658," сп":1659,"ортт":1660,"ехн":1661,"-Б":1662,"сык":1663," тартып":1664," андан":1665," окуу":1666,"үшкөн":1667,"ткени":1668," толук":1669,"ияда":1670,"уд":1671," таан":1672," жатканы":1673," тынч":1674," болушу":1675,"Андан":1676," ашык":1677," корк":1678,"-ав":1679,"үнөн":1680," бүт":1681," зар":1682," виде":1683," койгон":1684,"ерен":1685,"штыр":1686," алдында":1687," Европ":1688,"-август":1689,"-но":1690,"Ар":1691," жылдан":1692," коомдук":1693,"дап":1694,"ынча":1695," ун":1696,"Эк":1697," түшүндүр":1698," иштеген":1699,"-июн":1700," комиссия":1701,"тык":1702," кем":1703," чабуул":1704,"-министр":1705," басары":1706,"аев":1707," Бир":1708," өр":1709," лид":1710," тиеш":1711," башкы":1712,"-январ":1713,"үрүү":1714,"Ага":1715,"алары":1716,"сун":1717," жарыя":1718," Тажикстан":1719," электр":1720," ойл":1721," төрагасы":1722," болгонун":1723,"екшер":1724," соңку":1725," так":1726,"ош":1727," млн":1728," түнкү":1729,"арат":1730," быйыл":1731," корруп":1732," аж":1733,"деп":1734,"24":1735," укук":1736,"-дек":1737," эт":1738," райондук":1739," оюн":1740," Нур":1741," агентт":1742," пол":1743,"Кыргызстанда":1744," жара":1745,"-декабр":1746," мыйзамсыз":1747,"дүз":1748,"ээн":1749," сатып":1750," айтылган":1751," чыкты":1752," салын":1753," ра":1754,"улуп":1755," экинчи":1756," жетк":1757," тургун":1758,"догон":1759," өлкөдө":1760," бийлиги":1761,"-сент":1762," Борбор":1763,"уулар":1764,"ылтыр":1765," ички":1766,"кын":1767," ушундай":1768,"оор":1769," Кар":1770," колдоо":1771," тең":1772," билдирүү":1773," өмүр":1774,"раил":1775,"жан":1776," көрсөтк":1777," уз":1778,"атта":1779,"демия":1780,"Мындан":1781," аракетт":1782," жыйынты":1783,"ститу":1784," өзгөчө":1785," текшер":1786," дин":1787,"екен":1788," про":1789," добуш":1790," козг":1791," акыркы":1792," коомчул":1793," илим":1794," тоб":1795,"чылар":1796,"ланды":1797," улуттук":1798,"усу":1799,"аст":1800," ашуун":1801,"-октябрда":1802,"аг":1803," Ай":1804,"дөй":1805,"индеги":1806,"мак":1807," соо":1808,"кул":1809," там":1810,"Эгер":1811,"ич":1812,"ыктын":1813," мүчө":1814," дейт":1815,"чал":1816," министрлигинин":1817,"үст":1818," өндүр":1819,"игин":1820," азыркы":1821," жеке":1822," укукт":1823,"оган":1824,"емир":1825," тышкары":1826,"др":1827," баз":1828,"АКШ":1829,"ограм":1830,"Ошондой":1831,"50":1832," берет":1833," башталган":1834," алгач":1835," өкүлү":1836,"алал":1837," маалыматына":1838," бүгүн":1839,"Ма":1840," күт":1841,"тко":1842,"ост":1843," оң":1844," мүмкүнчүл":1845," керект":1846," техн":1847,"ктылуу":1848," ишкан":1849,"ңүл":1850," такт":1851,"-п":1852,"бак":1853,"амлекеттик":1854," берилген":1855," бур":1856," Улуттук":1857,"сак":1858,"ерлердин":1859," күндүз":1860," жумуш":1861,"озиция":1862," ала":1863,"урда":1864," жылга":1865,"-июл":1866," өзүнүн":1867," ошондой":1868,"аттын":1869," таасир":1870,"-ф":1871," кайсы":1872," шаардык":1873," көч":1874," жеткир":1875,"дыктар":1876,"оз":1877,"айым":1878,"гынын":1879,"мыл":1880,"дыгы":1881," түнкүсүн":1882,"Тал":1883," экени":1884," анда":1885,"тип":1886," тааны":1887,"шты":1888," согуш":1889,"кат":1890," Путин":1891," белгиледи":1892," көңүл":1893,"ңгээ":1894,"ттү":1895," өкүлдөрү":1896," деңгээ":1897," прокуратур":1898," кл":1899,"иц":1900,"Мындай":1901,"догу":1902," тизм":1903," маалымда":1904,"аттары":1905,"дердин":1906,"елүү":1907,"рит":1908," активист":1909,"юм":1910," арал":1911,"\",-":1912," жагдай":1913," вир":1914,"зраил":1915," ге":1916,"орм":1917,"100":1918,"тке":1919," л":1920," сый":1921,"абай":1922," президенттик":1923,"Ул":1924," келди":1925," жазды":1926,"оганстан":1927," негизги":1928," систем":1929,"етте":1930," Кор":1931," тыюу":1932,"ти":1933,"атка":1934," кезде":1935," соода":1936,"Кыргызстандын":1937," бала":1938,"деген":1939," бек":1940,"Анткени":1941," мигрантт":1942,"тон":1943,"22":1944," медицин":1945,"өрү":1946,"сүндө":1947,"укка":1948,"ээр":1949," зарыл":1950," жатабыз":1951," бөлүм":1952," жетекчиси":1953," ишин":1954," пайд":1955,"ттер":1956,"елен":1957," Кон":1958,"Президент":1959," өзүн":1960,"ушка":1961,"ткөн":1962," таш":1963," кайтар":1964,"утк":1965," барган":1966," пайда":1967," салган":1968," кыймыл":1969," экономикалык":1970,"-Т":1971," энерг":1972," комм":1973," учурунда":1974," жолугуш":1975,"ач":1976,"дж":1977," бере":1978," кен":1979,"оолор":1980," күй":1981,"терн":1982," алууга":1983," дайын":1984,"нун":1985," бошот":1986,"кция":1987," айлан":1988,"дум":1989,"гел":1990,"алардын":1991,"Ысык":1992," бу":1993," алма":1994," авто":1995," оо":1996," фон":1997," башкарм":1998," өнүкт":1999,"лам":2000,"еф":2001," жазган":2002,"27":2003,"Ат":2004," изил":2005,"оол":2006,"ларга":2007," жарым":2008,"28":2009,"23":2010,"илүү":2011," кетти":2012,"-Көл":2013," котор":2014,"ият":2015,"имов":2016," жогорку":2017,"гөй":2018,"-мартта":2019,"на":2020,"түр":2021," кирген":2022," максат":2023," х":2024," Баткен":2025," колдо":2026," ади":2027," коркуну":2028," балдар":2029," иштери":2030,"бол":2031," алка":2032,"имди":2033,"аса":2034," жоопкер":2035," урук":2036," саб":2037,"Ошондуктан":2038,"ашкы":2039," ир":2040,"рес":2041," алат":2042," Ан":2043," мөөнөт":2044," уулу":2045,"ограмм":2046," тараб":2047," орган":2048," ири":2049,"ологиялык":2050," облусунун":2051," жазылган":2052," мектеп":2053," согушт":2054," эскер":2055,"эр":2056," чын":2057,"егинде":2058,"ология":2059," опер":2060,"өнү":2061,"-майда":2062,"-февр":2063," басып":2064," жарандык":2065,"димир":2066," Жээн":2067,"рд":2068,"алап":2069,"үб":2070,"ладимир":2071," документт":2072," шт":2073," тышкы":2074," өлүм":2075," облусунда":2076,"даш":2077,"гине":2078,"ари":2079," убактылуу":2080," себеп":2081,"26":2082,"Жогорку":2083," жабыр":2084," Ин":2085," кит":2086,"екте":2087,"Казакстан":2088,"алдуу":2089," түшкөн":2090," Кыргызстанга":2091," факт":2092," полиция":2093," Украинанын":2094," багытт":2095," белги":2096," жиб":2097," ажыр":2098," канча":2099," кызматынын":2100," топт":2101," алты":2102,"-августта":2103," депутат":2104,"аларын":2105," Эр":2106," белгилен":2107," украин":2108," кызык":2109,"акет":2110,"-бүлө":2111," кылмышт":2112,"бөй":2113,"абы":2114," адм":2115," жоопкерчил":2116,"оону":2117," убак":2118," маанилүү":2119," оорукана":2120," шект":2121," премьер":2122," кодек":2123," башкармалы":2124,"емб":2125," миңден":2126,"чүлөр":2127," кап":2128," байк":2129,"Уч":2130,"-апрелде":2131," салам":2132,"че":2133," үст":2134," бейт":2135," кийинки":2136," кошумчал":2137,"бейт":2138,"уктар":2139,"ард":2140," жый":2141," көй":2142," Эл":2143," аскер":2144," жакт":2145," шарт":2146,"лары":2147," армия":2148,"Азаттыкка":2149," иликтөө":2150,"асындагы":2151,"мон":2152," аларды":2153," коррупция":2154,"Кор":2155,"рор":2156,"андемия":2157,"угун":2158," Бак":2159," C":2160," чейинки":2161," болгону":2162," катуу":2163," жоо":2164,"баган":2165,"итардык":2166," реф":2167," саат":2168," негизинде":2169," Владимир":2170," башында":2171,"арий":2172,"ияга":2173," Бай":2174," эрк":2175," сок":2176,"етр":2177," Украинага":2178,"тамбаев":2179,"гар":2180," калып":2181," кетип":2182,"ябрь":2183,"-ноябрда":2184," алкагында":2185," келе":2186," опп":2187,"рон":2188," сунуш":2189," президенттин":2190," ол":2191," план":2192," деңгээл":2193,"синин":2194,"арынын":2195," бю":2196," акч":2197," кызматкерлер":2198,"ский":2199,"ишти":2200," кала":2201," орусия":2202,"вок":2203," кайрылуу":2204,"орун":2205," элдин":2206," элдик":2207,"21":2208,"вест":2209," ий":2210,"ократ":2211,"Орусиянын":2212,"син":2213," журналисттер":2214,"-июнда":2215,"УКМК":2216,"199":2217," ради":2218," пайыз":2219," куб":2220,"өшт":2221,"акч":2222," арт":2223," абдан":2224," уруксат":2225," жашоо":2226," бат":2227," көйгөй":2228," мун":2229,"сул":2230," баштады":2231,"Ушул":2232,"ого":2233,"үштүк":2234," шайлоого":2235," мындан":2236,"оонун":2237," көл":2238," өнөкт":2239,"андык":2240," маш":2241," дарыл":2242,"ума":2243,"ымал":2244,"чулардын":2245,"өмөн":2246,"ың":2247," Кур":2248,"сүз":2249," сез":2250,"адан":2251,"сө":2252," бейтап":2253," айтылат":2254," адамдын":2255," катышкан":2256," ташт":2257," карж":2258,"есине":2259,";\n":2260," мадан":2261,"дарына":2262," жарат":2263,"үүчү":2264," кабарлады":2265," ыкт":2266," каал":2267," сотко":2268,"-январда":2269,"ух":2270,"дыктан":2271," сайын":2272,"омбул":2273," кыргызстандык":2274,"дарынын":2275," ый":2276," Жалал":2277,"Эми":2278," жарыялаган":2279,"мөн":2280,"ерсе":2281,"атый":2282,"газ":2283,"үүнүн":2284,"-декабрда":2285," берен":2286," көрүн":2287," Жээнбеков":2288,"уусу":2289," кызматкерлери":2290,"атыйж":2291,"Өк":2292,"ебиз":2293," ык":2294,"реж":2295," жатып":2296," катчысы":2297,"актар":2298," өттү":2299,"өөлөр":2300,"атор":2301,"елар":2302," жашаган":2303," уу":2304," тез":2305,"амм":2306," камакка":2307,"29":2308," төмөн":2309,"УУ":2310,"од":2311,"Бат":2312,"гек":2313," алтын":2314," млрд":2315,"итинг":2316,"бир":2317," талапкер":2318,"акцин":2319," пайдалан":2320,"далган":2321,"Маалым":2322," жайгашкан":2323," мурун":2324,"дерди":2325," көпчүл":2326,"еспублик":2327," басым":2328," нерсе":2329," көрүп":2330," ашыр":2331,"ылыш":2332,"еттин":2333," четке":2334," эске":2335,"VI":2336," өзгөрт":2337," Ооганстан":2338," авт":2339," салып":2340," ордун":2341," илде":2342,"өг":2343,"үйш":2344,"иштүү":2345," жеңил":2346,"Аны":2347,"ентарий":2348,"-сентябрда":2349," коркунуч":2350,"ешк":2351," органдар":2352," тиешелүү":2353," жап":2354,"елерди":2355,"Учурда":2356,"иверс":2357," арада":2358," Иран":2359,"өгө":2360," тарабынан":2361," алгачкы":2362,"стр":2363," уча":2364," соту":2365," шек":2366," жөнөт":2367,"алим":2368,"-чар":2369,"ыгын":2370," туш":2371," өткөрүп":2372," катталган":2373," дир":2374,"ерман":2375,"өрүн":2376," аймагында":2377,"ИМ":2378," чогул":2379," кр":2380," муну":2381," операция":2382," кабин":2383," күндө":2384," комментарий":2385," ары":2386,"байт":2387," каз":2388," талкуу":2389,"ибиз":2390,"ээрлик":2391," белгисиз":2392," милдетт":2393,"ашы":2394," ачыл":2395," демил":2396," автоуна":2397,"аттан":2398,"рамп":2399," депутаты":2400," оору":2401,"беген":2402,"Бүгүн":2403," азырынча":2404,"иверсит":2405,"езгил":2406," инвест":2407," тармактар":2408," нааразылык":2409,"ья":2410," эреж":2411," жактан":2412,"мо":2413,"лоо":2414," башчы":2415," коопсузду":2416,"-июлда":2417," турукт":2418," тапкан":2419," мат":2420," реж":2421,"есинин":2422," жерге":2423," об":2424," Атамбаев":2425," ден":2426,"устун":2427," бет":2428,"Биздин":2429," вакцин":2430," от":2431," жазып":2432,"on":2433," миллиард":2434," зы":2435,"ийин":2436," директ":2437," I":2438," бюдж":2439," кыйын":2440,"пл":2441,"чки":2442,"ктагы":2443,"ылганын":2444,"Ор":2445,"сүнө":2446," чакырды":2447," Европа":2448," тов":2449," ичинен":2450," кеп":2451,"үлдү":2452,"Бишкек":2453,"40":2454,"дөгөн":2455,"Түрк":2456," пандемия":2457," жыйынында":2458," ракет":2459,"ңиз":2460,"арк":2461," Кыргызстандагы":2462,"уулук":2463," эрт":2464,"-эн":2465,"пөй":2466," чыгарып":2467,"умтөр":2468," баштап":2469," тажик":2470," түрдө":2471,"дыгын":2472,"емп":2473," университ":2474,"герлер":2475,"аларга":2476," сүйлөшүүлөр":2477," каранды":2478," каражат":2479,"улат":2480," инф":2481,"Өл":2482," мезгил":2483," тан":2484," жибер":2485,"ирүү":2486," былтыр":2487," автор":2488," санкция":2489," орто":2490,"-жылдан":2491," окуялар":2492,"мок":2493," муз":2494,"ттин":2495," жылдын":2496,"слам":2497," түзүлгөн":2498," сыртк":2499," өс":2500,"бү":2501,"илер":2502," чыга":2503," калтыр":2504," тург":2505,"Министр":2506,"диги":2507," тилк":2508,"аңы":2509," карашт":2510," ыраст":2511,"алында":2512,"Мис":2513,"гүл":2514," кирип":2515," Мам":2516," лидери":2517," аякт":2518," Конститу":2519,"алууда":2520,"ид":2521," АКШнын":2522," медициналык":2523,"Азатт":2524," кызматтан":2525,"үштү":2526," адист":2527,"ышкы":2528,"хан":2529," кым":2530," аян":2531," укугу":2532,"тти":2533," дээрлик":2534," митинг":2535,"бур":2536," өтүн":2537," билдирип":2538,"шу":2539," таг":2540," коюлган":2541,"Эки":2542,"...\n":2543," кармап":2544,"уучулар":2545," кошумчалады":2546," элчил":2547,"еге":2548," куу":2549," түрк":2550,"Кар":2551,"елери":2552," программ":2553,"алдар":2554,"Эр":2555," учурлар":2556,"er":2557,"маз":2558," шаарынын":2559," курам":2560,"ттан":2561,"уктур":2562," тарткан":2563," Израил":2564," спорт":2565,"аман":2566," суроо":2567,"арына":2568," далил":2569," матери":2570," террор":2571," адвок":2572," дипл":2573," маселеси":2574," депутаттар":2575," Бишкекте":2576," ортосундагы":2577," макс":2578," орусиялык":2579,"исттик":2580,"ликт":2581,"ашты":2582," мүчөлөр":2583," көбү":2584,"Кийин":2585,"атив":2586," Ысык":2587,"аттардын":2588," жетиш":2589," маселелер":2590,"-Би":2591," зыян":2592," бой":2593," радиос":2594,"ШК":2595," иштет":2596,"еришт":2597,"укту":2598," Таш":2599," өлтүр":2600," өнүктүрүү":2601," окш":2602,"айн":2603," Орусияга":2604,"VID":2605," сөө":2606,"OVID":2607,"Мисалы":2608,")\n":2609," Кыргыз":2610,"дордун":2611," кесип":2612," кантип":2613," газ":2614,"азар":2615," жо":2616," УКМК":2617," талкуул":2618,"Улуттук":2619," Абд":2620,"уудан":2621," тран":2622," чыгарган":2623," аскерлер":2624,"Со":2625," калат":2626," видео":2627,"Бий":2628,"евдин":2629,"циянын":2630,"жол":2631," баарын":2632,"чулары":2633," өнүг":2634,"ысынан":2635,"Азаттыктын":2636," баракч":2637,"егер":2638,"дүүл":2639," жети":2640," телеф":2641," кайрадан":2642,"ктык":2643," коюп":2644,"ина":2645,"атра":2646," жасаган":2647," кээ":2648,"гемен":2649,"өөгө":2650,"алп":2651,"илип":2652," ада":2653," каражаттар":2654," көргөн":2655,"-февралда":2656,"уден":2657,"ейс":2658,"оль":2659," районунун":2660,"Ин":2661," өкмөттүн":2662,"ырм":2663,"асынан":2664," болбойт":2665,"оочу":2666,"акта":2667," парламенттик":2668,"олду":2669," таң":2670,"чалык":2671," тон":2672,"ейш":2673,"\"К":2674,"орлор":2675," жылы":2676," диний":2677," ас":2678,"илет":2679," Са":2680," кымб":2681," үл":2682,"!\n":2683,"емпи":2684," кадам":2685," парламент":2686,"Быйыл":2687," инстит":2688," экономик":2689," жогору":2690," сында":2691,"ылбек":2692," эскерт":2693," кул":2694,"Ев":2695," туруп":2696," Эм":2697," белгилеп":2698,"ултан":2699," Кам":2700," натыйж":2701,"ткен":2702," басылм":2703,"буз":2704,"ырып":2705," шартт":2706," мекен":2707," аттуу":2708," каран":2709,"ерлерди":2710," кошумча":2711,"гындагы":2712,"ея":2713," Ө":2714," Трамп":2715,"бетте":2716,"дел":2717,"Анан":2718," райондор":2719," күб":2720," кылуу":2721," боло":2722," күндөрү":2723," баян":2724," жарыялады":2725,"тай":2726," те":2727," мамлекеттер":2728,"Сүр":2729," мис":2730,"Мур":2731,"ыб":2732," партиясынын":2733,"гынан":2734," фин":2735,"Аб":2736,"астан":2737,"ыны":2738," банк":2739,"чусу":2740," кыс":2741,"угалим":2742," бөлүн":2743,"ини":2744," Ток":2745,"инистрация":2746," өкмөтү":2747," макулдаш":2748,"ад":2749," соттун":2750," мамиле":2751," Казакстандын":2752," курулуш":2753," мэр":2754," ирет":2755," сырткары":2756," шаарындагы":2757," максатында":2758," көлөм":2759," ыктымал":2760," долбоору":2761," аныкталган":2762,"гу":2763," таян":2764," Чүй":2765,"сында":2766,"олд":2767,"едер":2768,"жы":2769,"асп":2770," кызматкери":2771,"арак":2772," аларга":2773," үйлөр":2774," администрация":2775,"ербай":2776," Башкы":2777," мүл":2778," зомбул":2779," бийликтин":2780," каттоо":2781,"андын":2782," жерлер":2783," айтканда":2784," облустук":2785," айынан":2786,"60":2787,"бия":2788," карабай":2789,"атр":2790," Алек":2791," кылды":2792," оорукан":2793," сай":2794," чемпи":2795,"суна":2796,"анас":2797," адамдардын":2798," миңдей":2799,"Айрым":2800,"оорон":2801,",\n":2802,"Кытай":2803," кызы":2804,"ушту":2805," кишинин":2806," Брит":2807,"таж":2808," өч":2809," улант":2810,"Себ":2811," дүйнөлүк":2812,"есинде":2813," товар":2814," вирус":2815,"матов":2816," ортосунда":2817," жарыяланган":2818,"улду":2819," демократ":2820,"өттүн":2821,"лим":2822,"иядагы":2823," апта":2824,"Са":2825," мамлекеттин":2826,"өөл":2827," абалы":2828," студен":2829," мүчөсү":2830," болуш":2831," бизге":2832," аг":2833," теришт":2834,"олуп":2835," көрсөткүч":2836," жокко":2837,"-берен":2838,"еленский":2839,"йр":2840," укуктар":2841,"-Си":2842," бү":2843,"уман":2844," талапк":2845,"көм":2846,"мин":2847," жуг":2848," тапта":2849," чечими":2850,"үндөгү":2851," кызыкчыл":2852," түшүп":2853," эмгек":2854,"аламаттык":2855,"кор":2856," кырсы":2857," телефон":2858,"31":2859," түзгөн":2860," ээл":2861,"акция":2862," Бек":2863,"пей":2864,"анган":2865," көпт":2866," апп":2867,"туп":2868," айдоо":2869," №":2870," Кара":2871," бараткан":2872," салынган":2873,"орма":2874," метр":2875,"илди":2876," алганын":2877," бизн":2878,"цион":2879," Токт":2880," бийликке":2881," кызматташт":2882," козголгон":2883," жакта":2884,"өйр":2885," Алмаз":2886,"тал":2887," кодексинин":2888," уг":2889," тартылган":2890,"атып":2891,"маты":2892,"ларын":2893,"ева":2894," телек":2895,"Себеби":2896,"иясы":2897," режим":2898," сиз":2899," сайт":2900," Киев":2901," жетект":2902," ю":2903,"ылт":2904," көчө":2905," берүүгө":2906," өзүнө":2907,"Жер":2908," маалымдады":2909,"баева":2910," оппозиция":2911,"аниянын":2912,"оопсуз":2913,"мун":2914," салык":2915," белгилеген":2916,"ице":2917," Белар":2918," жеткен":2919," өлкөдөгү":2920,"мушт":2921," мугалим":2922," эп":2923,"70":2924," Герман":2925," Мамлекеттик":2926," кабарлаган":2927,"укул":2928," маалыматты":2929," уюмдар":2930," башкаруу":2931,"ашып":2932," эсеб":2933,"акты":2934," Тажикстандын":2935,"Сүрөттүн":2936,"ti":2937," кесеп":2938," жабырка":2939," алыш":2940," эксперт":2941,"Кан":2942," Орусияда":2943," зор":2944,"Мыйзам":2945,"сек":2946," ишеним":2947,"бирим":2948," зам":2949,"ңыз":2950," байланыш":2951,"иф":2952,"ылмыш":2953," казак":2954,"алоо":2955," комитетинин":2956,"Талиб":2957,"Дем":2958," Кытайдын":2959,"ербайжан":2960," Матра":2961,"ейсб":2962,"робирим":2963,"айы":2964,"раз":2965," калганын":2966," карма":2967," бою":2968," киреш":2969,"истан":2970,"дөп":2971," кармалып":2972,"-октябр":2973,"дешт":2974," болорун":2975,"тта":2976," Мак":2977," китеп":2978," мүнө":2979,"-жылдары":2980,"игине":2981," куралдуу":2982," Байден":2983," келин":2984," кабылган":2985," өлкөгө":2986," кыск":2987," Ташиев":2988,"Дүйн":2989," пл":2990," уюмунун":2991," жараны":2992," болбой":2993,"Биринчи":2994," чыр":2995,"сиянын":2996,"ларда":2997," маалда":2998," Мир":2999," күчөт":3000,"үктөр":3001," жаңж":3002," суроолор":3003," Бишкектеги":3004," качан":3005,"икке":3006," курч":3007," кеңешинин":3008,"асс":3009,"80":3010," Москва":3011,"алга":3012,"үлөт":3013," сокку":3014,"дерге":3015," Ор":3016," отурган":3017," сегиз":3018," калк":3019,"ma":3020,"омп":3021," кыйн":3022,"алай":3023,"иккен":3024,"ашкан":3025," T":3026,"огуз":3027," сомго":3028,"ашка":3029,"юз":3030," албайт":3031," согушка":3032," бут":3033," салышт":3034," жүрүш":3035," жарандар":3036,"би":3037,"еск":3038,"Кыз":3039," эмге":3040," ишм":3041," долбоорун":3042," Республик":3043," ордуна":3044," бей":3045," шайлоодо":3046," белгиленген":3047,"ью":3048,"исттер":3049," жакында":3050,"Бал":3051," кабинетинин":3052,"Москв":3053,"Жар":3054,"атыр":3055," Соорон":3056," жылда":3057,"),":3058," Дон":3059," жасап":3060,"ешкен":3061,"дыруу":3062," мектепт":3063,"ож":3064,"етке":3065,"өөк":3066,"алышы":3067," нерс":3068," команда":3069," бөлүгү":3070," койду":3071," чогуу":3072,"дия":3073," айтылып":3074,"сынан":3075,"үндүк":3076," кайрылган":3077," изилдөө":3078," саламаттык":3079," убакыт":3080," Ю":3081," ыс":3082," республ":3083,"орбору":3084," ыйгар":3085," курман":3086,"баевдин":3087," топтор":3088," бериш":3089,"дукт":3090," өтөт":3091," аялдар":3092," жума":3093," чукул":3094," өкүм":3095,"алдын":3096,"Мунун":3097,"уттар":3098,"\".\n":3099,"арш":3100," борбору":3101,"иси":3102,"Ата":3103," бекем":3104,"дөрүнүн":3105," токто":3106," сомдон":3107,"Жаңы":3108,"-жылдагы":3109,"уктун":3110,"ектеги":3111," интерн":3112," убада":3113," эсептейт":3114," жашап":3115," Бишкектин":3116," жетти":3117," керектигин":3118," үз":3119," айда":3120," биргел":3121," Кеңеш":3122," кескин":3123,"Расмий":3124,"овду":3125," Тур":3126," жерден":3127," алынып":3128,"Өткөн":3129," жолдо":3130,"Көп":3131,"олот":3132," эгемен":3133," ката":3134,"Азыркы":3135,"арында":3136," корго":3137," директору":3138,"дигин":3139," тарта":3140,"аша":3141," буйр":3142,"уусун":3143,"Коронавир":3144," барат":3145," кайрыл":3146,"Баткен":3147," телекан":3148," билдиргендей":3149,"анып":3150," жараат":3151,"агыл":3152,"Борбор":3153,"ъект":3154," (\"":3155," иштерин":3156," уюму":3157,"тажик":3158,"Мамлекеттик":3159,"ттик":3160," тараткан":3161,"екке":3162," киргизилген":3163," жакка":3164,"СС":3165,"рый":3166," башкармалыгынын":3167,"акан":3168," жылдык":3169,"ектин":3170," ишти":3171,"оңку":3172,"Акыркы":3173," проц":3174," элге":3175,"еттер":3176," жашыр":3177," алынды":3178,"аары":3179,"дери":3180," турак":3181,"аттарды":3182,"руз":3183," мыкты":3184," COVID":3185," окт":3186,"утбол":3187," вице":3188,"УУнун":3189,"Экинчи":3190," нач":3191," Украинадагы":3192," карантин":3193,"Жак":3194," карыз":3195,"есс":3196,"арда":3197," көрсөткөн":3198," туруктуу":3199,"елип":3200," Сир":3201," бөгө":3202,"раф":3203,"-тажик":3204," келеч":3205," маселени":3206,"ный":3207," Аск":3208," андай":3209," таап":3210," анан":3211,"Мекем":3212,"айып":3213," коронавируска":3214," ооруканага":3215,"олдо":3216," эст":3217," инвестиция":3218," Камчы":3219,"ема":3220," күнөөл":3221," отурум":3222,"аак":3223,"кап":3224," темир":3225," айтылды":3226," башалам":3227," жарандары":3228,"мерикалык":3229,"үң":3230,"ырт":3231," кошт":3232," күм":3233," каттам":3234," мекемелер":3235," жыйынтыгы":3236," жылдары":3237," маалыматка":3238," аракети":3239,"...-":3240," үм":3241,"ЭБ":3242," калыб":3243,"иктер":3244," жасалган":3245,"цияга":3246," сүрөт":3247,"кум":3248," жүрөт":3249,"убуз":3250," турганы":3251," бл":3252," тууган":3253,"омат":3254,"дем":3255," арасындагы":3256," ошон":3257,"ембиде":3258,"шти":3259,"асыз":3260," сөздөр":3261,"уттуу":3262,"АТ":3263,"уккан":3264," өнөр":3265,"өб":3266," коң":3267,"аганын":3268," акын":3269,"оопсуздук":3270,"сам":3271," саясатчы":3272," кыргызстандыктар":3273,"ерв":3274,"дырып":3275," тажрый":3276,"ткан":3277," тобу":3278," каралган":3279," акы":3280," чыгыш":3281,"es":3282,"жин":3283," аты":3284," тартип":3285,"удья":3286,"ларында":3287," Зеленский":3288,"елген":3289," Со":3290,"Ошент":3291,"ализ":3292," Тышкы":3293," атындагы":3294," калыбына":3295,"Жалп":3296,"айлоо":3297," Нарын":3298," стат":3299," Корея":3300," баасы":3301," кайрылып":3302," агенттиги":3303,"90":3304," мо":3305," туул":3306," тут":3307," чара":3308,"асым":3309," түзөт":3310,"-бир":3311," аэ":3312," жагынан":3313,"Былтыр":3314,"иң":3315,"алыш":3316," мага":3317," ондогон":3318," кайтып":3319,"өшк":3320," жаан":3321," адамга":3322," тийгиз":3323," штаб":3324,"in":3325,"игинин":3326," укуктары":3327," бирге":3328," кабарланды":3329," карш":3330,"Соңку":3331," менин":3332," арга":3333," уна":3334," имар":3335,"Деп":3336,"те":3337,"акистан":3338," бара":3339,"сыздан":3340," соттук":3341," чемпион":3342," жогор":3343," мыйзамга":3344," чакырым":3345,"мек":3346," көрсөтүп":3347," камсыздоо":3348," насы":3349," жүргүзүп":3350,"за":3351," кармалды":3352,"500":3353," манда":3354," стан":3355," тараптуу":3356," коргон":3357,"ылууда":3358,"АМ":3359,"бан":3360," ку":3361," чарба":3362," Өзбекстандын":3363," айл":3364," ишине":3365," Биринчи":3366," сум":3367," аң":3368," сыйл":3369,"арип":3370," айта":3371," мүмкүнчүлүк":3372,"еде":3373,"пайт":3374," бажы":3375," бак":3376," Тал":3377," Министр":3378," ишмер":3379," жалгыз":3380," комитети":3381," кеминде":3382,"Маалыматка":3383," тоск":3384,"устан":3385,"ышка":3386,"ремл":3387," көпчүлүк":3388,"ңар":3389," тогуз":3390,"иза":3391," башынан":3392," кагыл":3393," чектөө":3394,"сүнүн":3395," жүк":3396," күнгө":3397,"нот":3398," таза":3399," күндөн":3400," берүүнү":3401," түзүп":3402,"даган":3403," өтүнүч":3404,"ыч":3405,"аларда":3406," Ички":3407," аскерлери":3408," түрмө":3409," машы":3410," Украина":3411," бийликти":3412,"Өлкө":3413," Министрлер":3414," институт":3415,"овго":3416," ажырат":3417,"сунда":3418,"-түл":3419," чыгым":3420,"гунт":3421," катышуу":3422,"Муну":3423," өлкөлөрдүн":3424," тиешеси":3425,"чынын":3426,"ээк":3427," көбүр":3428," Жапаровдун":3429," аябай":3430," ы":3431,"\")":3432,"стыкт":3433,"лиги":3434," миңдеген":3435," зав":3436," чыгаруу":3437," дароо":3438,"Тажикстан":3439," компаниясы":3440," A":3441,"Кур":3442," алганы":3443,"Депут":3444," жолдор":3445," жатканда":3446," Ис":3447,"Өкмөт":3448," табылган":3449," экс":3450," түшүр":3451," жумш":3452,"tion":3453,"Украинанын":3454," тамак":3455,"айк":3456,"етин":3457," түзүү":3458,"Би":3459,"убай":3460," булактар":3461," күчтөрү":3462,"ясий":3463,"Бишкекте":3464," куруу":3465," министринин":3466," криз":3467,"аркум":3468," коё":3469,"цен":3470," жасал":3471," өзгөртүү":3472,"дур":3473," самм":3474," прокуратура":3475," демилг":3476," тай":3477,"-жылга":3478," кеткенин":3479,"бет":3480,"ыма":3481,"Өзгөчө":3482," сүрөтт":3483,"улуш":3484,"уктаж":3485," нааразы":3486,"ентке":3487,"ыктан":3488," тынчтык":3489,"бөгөн":3490,"екция":3491,"ель":3492," көмө":3493," мүнөз":3494," тоскоол":3495," өлкөдөн":3496," парламенттин":3497," энергет":3498,"яны":3499," жакшыр":3500," карандысыз":3501," S":3502,"усул":3503,"елин":3504," экөө":3505," шайлоонун":3506," берилди":3507," арн":3508,"укта":3509,"300":3510," үйр":3511," катышып":3512," караштуу":3513," куугунт":3514,"АТО":3515," тоо":3516," соз":3517," көрсөтүлгөн":3518," сактап":3519," жогот":3520,"лайн":3521," Гүл":3522," Алмазбек":3523,"усулман":3524," муктаж":3525," кеңешт":3526," киргизүү":3527,"атында":3528," маселесин":3529,"уманитардык":3530," позиция":3531," экспер":3532," имарат":3533," мүчөлөрү":3534,"-Ж":3535,"изация":3536," дегенде":3537," өткөрүү":3538," алмаштыр":3539,"ланып":3540," облусундагы":3541," көптөгөн":3542,"олуу":3543,"үнчү":3544,"деди":3545,"өөнү":3546," олуттуу":3547,"ca":3548," билдирүүдө":3549,"ратег":3550," органдары":3551," каржыл":3552,"Иш":3553,"Кай":3554," көмүр":3555," окуп":3556," трансп":3557," Ү":3558,"үйшөм":3559," аэроп":3560,"чам":3561," баа":3562," Ма":3563,"бар":3564," соол":3565,"Албетте":3566," эгер":3567," үчүнчү":3568,"чылары":3569,"АКШнын":3570," колдогон":3571," азык":3572," кызматташ":3573," күйөө":3574," объект":3575,"ылышы":3576," документ":3577," маалыматтарды":3578," энергия":3579,"ыла":3580," айылында":3581," аткаруу":3582,"эл":3583," пасп":3584," маж":3585," жылды":3586," таз":3587,"ашинг":3588," тараптан":3589,"ондук":3590," чың":3591," балдардын":3592," толугу":3593," каражаттары":3594,"ордун":3595,"ктардын":3596," футбол":3597,"сих":3598,"en":3599,"есе":3600," жалпысынан":3601," атаанда":3602,"Чек":3603," миңге":3604," Шт":3605," илимий":3606," бербей":3607," сынга":3608,"али":3609," жокт":3610," жарак":3611,"аваль":3612," Акылбек":3613," маалыматы":3614," Евробирим":3615,"?\"":3616,"ушк":3617,"өөнүн":3618," салды":3619," уур":3620," тагдыр":3621," болууда":3622," дек":3623," ака":3624," чечимин":3625," партиясы":3626,"емпир":3627," Сооронбай":3628," көбүрөөк":3629," жуктур":3630," шектүү":3631," бойдон":3632," Матраимов":3633," судья":3634,"гым":3635," мамлекетке":3636,"ЭС":3637," чал":3638,"ыйкат":3639," Түркия":3640,"мөнстан":3641,"анд":3642," жаштар":3643," пикирин":3644," армиясы":3645," миграция":3646," машин":3647," өтпөй":3648,"Менин":3649," комитет":3650,"АС":3651,"рад":3652,"ектер":3653," Темир":3654," жаңыл":3655,"ономикалык":3656," Кылмыш":3657," колдонуу":3658," мед":3659," доо":3660," маегинде":3661," токтом":3662,"өттү":3663," мунай":3664,"-дар":3665," түнү":3666," аткан":3667," турм":3668," эсеп":3669," тургуну":3670," чөйр":3671,"Аталган":3672,"\"Азаттык":3673,"35":3674," канчалык":3675," текшерүү":3676," таянып":3677," тир":3678,"ектен":3679," Уюм":3680,"al":3681," болмок":3682," Ас":3683,"аныш":3684,"ышууда":3685," долбоорлор":3686," аймактарда":3687," ген":3688," кылат":3689," кама":3690," камалган":3691," сүйлөшүү":3692,"Мас":3693,"бу":3694," өң":3695,"ыктуу":3696," активисттер":3697,"авальный":3698,"өлгөн":3699," районунда":3700,"Эгерде":3701," ооган":3702,"гул":3703,"гыр":3704," орнот":3705," түрдүү":3706," Фран":3707,"атын":3708," айдан":3709," келгенин":3710," ишкерлер":3711,"луу":3712," корку":3713," адамды":3714," тонна":3715,"ьян":3716," мөөнөтү":3717," иде":3718,"Башка":3719,"ков":3720,"ойт":3721," америкалык":3722," айга":3723," Бор":3724," кызматка":3725," насыя":3726,"богон":3727,"бой":3728," дарыгерлер":3729," милдетин":3730," Куб":3731,"лав":3732," кин":3733," болгондуктан":3734," жетекчи":3735," кил":3736," чектөөлөр":3737," театр":3738,"Парлам":3739,"ким":3740,"лап":3741,"үүлөрдү":3742," тастыкт":3743," кийим":3744,"ерн":3745," билген":3746," атып":3747," Баш":3748," укугун":3749," Али":3750," маалында":3751," ооз":3752," Британия":3753," Камчыбек":3754,"an":3755,"сен":3756," калса":3757," аткыл":3758," издөө":3759," жүй":3760," айлык":3761," талаш":3762," Борбордук":3763," айтууда":3764,"обил":3765,"еж":3766,"өбүз":3767,"дардан":3768," тоолуу":3769," берилет":3770,"ативдик":3771,"Коронавирус":3772," түшүндүрмө":3773," аргасыз":3774,"кар":3775," күз":3776," келат":3777," кошо":3778," Биримди":3779,"агаз":3780," убакы":3781," эркинен":3782,"ырган":3783," кетет":3784," апрел":3785," себепт":3786," качып":3787," тартуу":3788," бирөө":3789,"ошмо":3790,"Негиз":3791," себеби":3792," Өмүр":3793," кара":3794," өзбек":3795," фр":3796,"Орус":3797,"Мамлек":3798," иштей":3799," партиянын":3800," жакындары":3801," көтөрүп":3802," мей":3803,"угуна":3804,"пиада":3805," эртең":3806," адамдарды":3807,"ктарды":3808,"ити":3809," ави":3810," бөгөт":3811," калуу":3812,"еринин":3813," Ака":3814," алдынча":3815," тынчсыздан":3816," ойлой":3817," бизнес":3818," түп":3819,"есур":3820," кабарланган":3821,"ушкан":3822,"ттуу":3823," экст":3824," жаза":3825," онлайн":3826,"ерендум":3827,"-президен":3828," коррупцияга":3829," баракчасына":3830," тийиш":3831," дипломат":3832,"Кон":3833,"Үч":3834," Кан":3835,"дөрүн":3836," бүгүнкү":3837,"КУ":3838," көрсөтүү":3839," төрагасынын":3840,"АМАС":3841," маалыматта":3842," ыра":3843,"рист":3844," мектептер":3845,"ашингтон":3846," сар":3847," башталды":3848," колдоп":3849,"амат":3850," катышты":3851," кылын":3852," чакырган":3853," тарапта":3854," сөөгү":3855," Республикасынын":3856," мажбур":3857,"Кумтөр":3858,"амир":3859," Асан":3860,"ван":3861," дрон":3862," болбосо":3863," өзүнчө":3864," жугуз":3865,"зак":3866," болжол":3867," чыгат":3868," Дүйн":3869," алмаш":3870,"асст":3871," мени":3872," салма":3873,"Израил":3874,"амин":3875," коргоочу":3876," баалуу":3877," өзүм":3878," түзүм":3879," кандайдыр":3880," маалымдаган":3881," эскертти":3882," деңгээлде":3883,"Европ":3884,"Иран":3885,"өгү":3886," кагаз":3887,"урт":3888," акыр":3889,"Мына":3890,"асма":3891," ресур":3892," компаниясынын":3893," тийиштүү":3894,"Мил":3895,"енко":3896," мел":3897," менч":3898,"ышканын":3899," өнөктөшт":3900,"оодо":3901," деңиз":3902,"чилик":3903," аймактык":3904," стратег":3905," өртт":3906,"сей":3907," сел":3908," чыгарм":3909," имп":3910,"емби":3911," пул":3912," караб":3913," аягына":3914," салым":3915,"апон":3916," жараша":3917,"бызды":3918,"бекова":3919,"үйшөмбү":3920,"Айт":3921,"Манас":3922,"Талибан":3923,"ктары":3924,"илим":3925,"үктү":3926," эмгект":3927,"уң":3928," бары":3929,"ларынын":3930,"гөнүн":3931," тос":3932,"гөз":3933," чыгуу":3934," майрам":3935,"артам":3936," жандан":3937,"Эмне":3938,"кулов":3939,"Мурдагы":3940,"анс":3941," го":3942,"Тер":3943,"өң":3944," Түштүк":3945," азайт":3946," жөнгө":3947," аныкталды":3948," Батыш":3949," кырдаалдар":3950," өмүрүн":3951,"алаган":3952," гуманитардык":3953," гектар":3954," терең":3955," Азербайжан":3956,"-Суу":3957,"үгүнө":3958," убагында":3959," багыт":3960," мин":3961," сек":3962,"ейл":3963," Султан":3964," реформ":3965," ни":3966,"ешет":3967,"терди":3968," кана":3969," мусулман":3970,"дой":3971,"уктагы":3972," таандык":3973," ыкчам":3974,"Журналист":3975,"оч":3976," түй":3977," жараткан":3978," келгенде":3979,"тен":3980,"ларына":3981," фондун":3982,"Ошентип":3983,"Башкы":3984," тутк":3985," келаткан":3986," аймактарында":3987," укуктук":3988," террордук":3989,"ge":3990," чыгарма":3991," кылмыштуу":3992," псих":3993," ишкер":3994," мигранттар":3995,"ми":3996,"-жаза":3997," талиб":3998," жокп":3999," кооптуу":4000,"сандр":4001,"ну":4002,"иктин":4003,"дикке":4004," макам":4005," Бакиев":4006,"ырмалуу":4007,"Ав":4008,"икация":4009," өздөрү":4010," кыйла":4011," төлөп":4012," облустарынын":4013," жаман":4014," тала":4015," кеңири":4016," конц":4017," Түркиянын":4018," тарыхый":4019,"тация":4020," аймагына":4021," жарандардын":4022," өзүбүз":4023," материал":4024,"Дагы":4025," жем":4026," билбей":4027," атат":4028,"чылардын":4029," мыйзамды":4030," эсе":4031," чакырып":4032," Армен":4033," ла":4034,"Сиз":4035,"шат":4036,"ишин":4037," учак":4038," Улуттар":4039,"ура":4040," атыш":4041," багытталган":4042," аянт":4043,"Бийлик":4044," укуктарын":4045," фракция":4046,"ирип":4047," Олим":4048," төлөм":4049," туулган":4050,"орум":4051," чагыл":4052,"ыгына":4053," кетүү":4054," кишиге":4055,"далды":4056,"ша":4057,"олю":4058," элди":4059," өлкөлүк":4060," тартиб":4061," бузуу":4062," болгондор":4063," форм":4064," районундагы":4065,"елерин":4066," айынын":4067,"еттен":4068," анализ":4069," аймакта":4070," март":4071," кетүүгө":4072," мыйзамдын":4073,"Оку":4074,"рык":4075,"тып":4076," жиги":4077," Айт":4078," көйгөйлөр":4079," Талас":4080,"Үй":4081," кызматына":4082," абакта":4083,"уусуна":4084," күтүп":4085,"-түлүк":4086,"масы":4087,"диктин":4088," бөлүмүнүн":4089,"тым":4090," Касым":4091," окр":4092," долларга":4093,"рессия":4094," жабыркаган":4095," акыл":4096," кагы":4097," мал":4098,"мб":4099," өлч":4100," максаты":4101," Ц":4102,"укаш":4103," арх":4104,"Ошондо":4105," Коргоо":4106," күчтүү":4107,"33":4108,"Ад":4109,"алына":4110," Кадыр":4111,"үшүнө":4112," сурап":4113,"тун":4114," өрт":4115," УКМКнын":4116," Орусиядан":4117," калганы":4118," статист":4119,"ерине":4120," чакан":4121,"үтүн":4122," сотунун":4123," кармалганын":4124,"кук":4125,"үнчө":4126," каралып":4127," кылым":4128," токтотуу":4129,"Сот":4130,"лери":4131,"ивдүү":4132,"Бизде":4133," жабык":4134," отуруп":4135," тарбия":4136," аким":4137,"-министри":4138," базар":4139," техникалык":4140," каалаган":4141,"Баш":4142,"Жол":4143," ток":4144,"тту":4145," кездеги":4146,"уткар":4147," беренеси":4148," Токаев":4149," үндө":4150," жел":4151," тарат":4152,"ушат":4153," негизинен":4154," бекит":4155," республикалык":4156," жетиштүү":4157," азай":4158," борборунун":4159," капт":4160," өнүгүү":4161,"-Ата":4162,"дарда":4163," түзүл":4164,"онст":4165,"дарында":4166," иштейт":4167," таасирин":4168," референдум":4169," салыштырмалуу":4170,"Тил":4171," болоб":4172," пен":4173,"ткон":4174,"Адам":4175," жалган":4176,"доган":4177," жатканына":4178,"ашат":4179," абалда":4180,"өктүк":4181," көрүнүш":4182,"БШК":4183," Коопсуздук":4184," кароо":4185," барды":4186,"егин":4187," Рос":4188," жүзүндө":4189," аптада":4190," блог":4191,"рек":4192," департам":4193," фил":4194," алганда":4195," НАТО":4196," жапырт":4197,"Жергиликтүү":4198," Жум":4199,"роз":4200,"ИИМ":4201," Мар":4202,"дөрдүн":4203," билдирүүсүндө":4204,"олу":4205," арз":4206," эмнеге":4207,"-сентябр":4208," топтун":4209," ыйгарым":4210," калышы":4211," комитеттин":4212," камакта":4213," тармактарда":4214," жасалма":4215," проф":4216," доор":4217," бизде":4218," адистер":4219,"Шаар":4220," чалдык":4221," жаап":4222," Араб":4223," фонд":4224," ишмерди":4225,"анада":4226,"баш":4227," чыгарды":4228,"пайбы":4229,"Атайын":4230,"Демек":4231,"зин":4232," кич":4233," тегер":4234," алышкан":4235," жарык":4236," технология":4237,"кономикалык":4238,"ансы":4239," Рах":4240," прокурор":4241,"-ноябр":4242," сов":4243," алыс":4244,"икти":4245," жүргүзгөн":4246,"ани":4247," БУУнун":4248," Жо":4249," окумушт":4250," жыйында":4251," айыптап":4252," уланып":4253," система":4254,"ter":4255,"пон":4256,"ыск":4257,"иядан":4258," Ос":4259," уюмдун":4260," Курман":4261,"Бүгүнкү":4262," көлөмү":4263,"Садыр":4264,"ник":4265,"чын":4266," алак":4267,"үрүм":4268,"ымды":4269,"инистративдик":4270,"естин":4271," кишини":4272,"ституциялык":4273," илдет":4274," июн":4275," Ку":4276," Амер":4277," көргөз":4278," коюу":4279," кырдаалды":4280,"36":4281," су":4282," Би":4283,"усту":4284," кайтарып":4285,"Ком":4286,"итт":4287," оорул":4288," кызматтар":4289,"зат":4290,"лин":4291," Мур":4292,"ктарга":4293," жумушчу":4294," тажрыйб":4295," коргонуу":4296," өлчөм":4297,"тарды":4298," төг":4299," элем":4300," Навальный":4301,"Чүй":4302,"аф":4303,"ец":4304," алектен":4305," Кыз":4306," айтышты":4307,"доого":4308," жумушт":4309,"150":4310,"ая":4311,"дуул":4312," убакта":4313,"-келин":4314," болбогон":4315,"үгүр":4316,"алиева":4317,"едерация":4318,"оро":4319," билдиришти":4320,"спүрүм":4321,"ергей":4322," батир":4323," Александр":4324," чалдыккан":4325," темп":4326," февр":4327,"ыктыяр":4328,"диктүү":4329,"чет":4330," тасм":4331,"дерин":4332," менчик":4333,"уусунда":4334," маданият":4335," карабастан":4336,"чунун":4337,"айбыз":4338," эмдөө":4339," Саламаттык":4340," катталды":4341," Алматы":4342," өнүктүр":4343,"ейсбуктагы":4344," паспорт":4345,"улла":4346,"азы":4347," ачылган":4348," жарыяланды":4349,"-премьер":4350,"оолуу":4351," арналган":4352,"алю":4353,"ованын":4354," өчүр":4355," аппар":4356," R":4357," алууну":4358," атасы":4359,"198":4360," Чыгы":4361," узарт":4362,"or":4363,"ирген":4364,"Орусияда":4365," жоок":4366," заман":4367,"далып":4368,"үбүз":4369,"ант":4370,"еттүү":4371,"өткө":4372,"чулук":4373,"-өз":4374," Мух":4375," Орусиядагы":4376," толк":4377,"ККУ":4378,"еев":4379," теск":4380,"олбо":4381,"ограф":4382," дайындалган":4383," милдеттен":4384,"жар":4385," БШК":4386," таштап":4387," коңшу":4388," Ы":4389,"Эң":4390," бетт":4391," чалгын":4392," Я":4393,"Нур":4394,"кон":4395,"ресс":4396,"ценз":4397," ca":4398," университетинин":4399,"Мекеменин":4400," G":4401," январ":4402,"бра":4403,"өрдү":4404," келишет":4405," дарыгер":4406,"-бүлөлүк":4407,"дүм":4408," мон":4409," палат":4410," чогулган":4411," курултай":4412,"дору":4413," сент":4414,"абыт":4415," колго":4416," август":4417," конт":4418,"ption":4419,"Коом":4420," бериши":4421," рез":4422,"Ушундай":4423," жетекчилери":4424," Бириккен":4425," ыктыяр":4426,"олоң":4427," көрүү":4428," электрондук":4429," кымбат":4430," териштирүү":4431," моюн":4432,"атбек":4433,"иров":4434," чөл":4435," чыгарылган":4436,"mage":4437,"рыкча":4438,"кыр":4439," жүкт":4440," Сан":4441," кийлиги":4442," негизде":4443,"елердин":4444," толтур":4445,"Президенттин":4446," башаламандык":4447," caption":4448,"олпон":4449,"гази":4450,"чилер":4451,"аштыр":4452," киргизген":4453," тургундар":4454,"45":4455,"өнүп":4456," мыйзамдуу":4457," Назар":4458," жетекчилиги":4459," коопсуздугун":4460,"их":4461,"паган":4462,"шан":4463,"шет":4464,"дый":4465," Жан":4466,"үтт":4467," Бейш":4468,"ткө":4469," но":4470," көрүүгө":4471," курган":4472,"үгүт":4473," баласы":4474," реда":4475,"Милиция":4476,"эн":4477," түшт":4478," суракка":4479," ойлон":4480," райондорунда":4481,"чо":4482,"ияны":4483," артка":4484,"огул":4485," көрүнү":4486," талдоо":4487," чыгышты":4488,"дырган":4489," саналат":4490,"ме":4491," сутк":4492,"ылар":4493," кошул":4494," кызматтын":4495," экономика":4496,"ar":4497,"Путин":4498,"кара":4499,"лов":4500," биринде":4501," аткамин":4502," Казакстанда":4503," үгүт":4504," кишил":4505," ойлойм":4506,"лыктар":4507," издеп":4508,"орттук":4509," мобил":4510,"айман":4511,"ели":4512," иштеш":4513,"аланган":4514,"альд":4515," Караб":4516," кыска":4517,"ттын":4518," өзөктүк":4519," саясаты":4520," уюмдардын":4521," ХАМАС":4522," маркум":4523," шаары":4524," чечил":4525," колдонуп":4526," кишилер":4527," чөйрө":4528," камагына":4529," куткар":4530,"ээжин":4531," кооптон":4532," комплек":4533," күрөшүү":4534," процес":4535," үмүт":4536," туткун":4537," Кул":4538," жатам":4539," Түндүк":4540," демонст":4541,"Ап":4542," набыт":4543," облусу":4544," тобунун":4545,"кай":4546,"ератур":4547," тапты":4548,"Украина":4549," алба":4550," шартта":4551," камт":4552," бөлүп":4553," коррупциялык":4554,"Депутат":4555," берб":4556," болгондордун":4557,"штары":4558," үйүнө":4559," комиссиясынын":4560," өмүрү":4561," тест":4562," маданий":4563," автордук":4564," кымбатт":4565," ысым":4566," N":4567," сүйлөп":4568," өлкөлөрү":4569,"бург":4570," күбө":4571,"тардын":4572," сак":4573," консул":4574," арадагы":4575," келтирген":4576," Конституция":4577,"уф":4578," танда":4579," байланышкан":4580," жоопко":4581," дарыг":4582,"400":4583," сып":4584," пара":4585," Каб":4586," ачып":4587," өткөргөн":4588," аныктоо":4589," табылды":4590," жараян":4591," экстрем":4592,"иясынын":4593," алышы":4594,"агым":4595," улут":4596," конф":4597," сына":4598,"ылап":4599," Сергей":4600," кадр":4601," инт":4602," прот":4603," аткаруучу":4604," департамент":4605,"34":4606,"Кам":4607," алабыз":4608," башкача":4609," Газа":4610," уюштуруу":4611," милдеттүү":4612," союз":4613," ГЭС":4614," мүмкүнчүлүгү":4615," байкоо":4616," округ":4617,"Ички":4618,"ыкта":4619," терс":4620," келтирүү":4621," үн":4622,"агн":4623," үлгү":4624," температур":4625,"аку":4626,"рант":4627," башталгандан":4628,"Казакстандын":4629," вакцина":4630," аяктаган":4631," жери":4632," автоунаа":4633," ишмердүүл":4634," Уюмунун":4635," P":4636,"Укук":4637," көрө":4638,"үккө":4639," учуп":4640," министрлигине":4641,"аланып":4642," сүйлөшүп":4643," таасири":4644," тургундары":4645," кызматташтык":4646,"Шайлоо":4647,"ида":4648,"-мартт":4649,"актагы":4650,"думаров":4651,"at":4652," аст":4653," рубл":4654," кагып":4655,"гандардын":4656," сөзсүз":4657," ачкан":4658," өлкөлөрдө":4659,"лору":4660," өспүрүм":4661," көк":4662," Ташк":4663,"үкөн":4664," күчтөрүнүн":4665," клим":4666," күнөөлүү":4667," жуу":4668," аймагындагы":4669," аялдардын":4670," B":4671,"мир":4672," Кумтөр":4673," Ав":4674," келбейт":4675," күнөө":4676,"чылыктар":4677," масс":4678," аягында":4679,"бап":4680," жубай":4681," жашка":4682,"өкөй":4683," автоб":4684,"атар":4685," кеңс":4686,"үктүн":4687,"-Таш":4688,"Бай":4689," жам":4690," жээ":4691,"имин":4692," келсе":4693," коммер":4694," мамлекеттердин":4695," айылынын":4696," чаралар":4697," медицина":4698," факты":4699," жетектеген":4700," Кремл":4701," карама":4702,"ажы":4703," жайгаштыр":4704," диплом":4705,"Мамлекет":4706," чөлкөм":4707," муун":4708,"шту":4709," Кыргызстандан":4710," алдындагы":4711," башкармалыгы":4712,"Маселен":4713,"деринин":4714," реп":4715," жүргүзүү":4716," эркиндиги":4717," кечинде":4718," коомчулук":4719," ресурст":4720,"үшүн":4721," соттолгон":4722," жарыялап":4723," узак":4724,"чер":4725,"инц":4726," адамдан":4727," шаарына":4728," сактагы":4729," катталып":4730,"өшкөн":4731," жаракат":4732,"ырма":4733," келиши":4734," айтат":4735," коргоочулар":4736,"ыгып":4737,"Ошондон":4738,"көн":4739,"макка":4740,"шкон":4741," өлүмү":4742," болобу":4743,"дил":4744," как":4745," рын":4746," жыйынт":4747," медиа":4748," салууга":4749," акчаны":4750," завод":4751," жуккан":4752," тр":4753,"аныч":4754," кандуу":4755," үйдө":4756," ээси":4757," дүйнөдө":4758,"тамбул":4759,"анов":4760," келбей":4761," кеткени":4762," өкмөтүнүн":4763," Лукаш":4764," окшойт":4765," эпиде":4766," келатат":4767,"амал":4768," калктын":4769,"еграм":4770," бизди":4771," күрөшт":4772,"бө":4773,"апар":4774," кетиши":4775," партиялар":4776," комиссиянын":4777,"чылыкка":4778,"АЭБ":4779,"омол":4780," зомбулук":4781," жүйө":4782,"кал":4783," Ошт":4784,"үгүндө":4785," ойно":4786," оппози":4787," сыпатт":4788,"оло":4789," бардыгы":4790,"ышып":4791,"ишет":4792," окуяс":4793," коомдун":4794," сапары":4795," Азиядагы":4796," станция":4797," жүгүр":4798,"азаров":4799," саналып":4800," талкууга":4801," саясатчылар":4802," нааразыл":4803," Акаев":4804," тараптын":4805," Вашингтон":4806," административдик":4807," кыскарт":4808,"37":4809,"гинен":4810,"жо":4811,"алынын":4812,"деш":4813,"овин":4814," берсе":4815," Ат":4816," кылууга":4817,"енттин":4818," кезекте":4819," град":4820," дүйнөдөгү":4821," маалыматтарга":4822," кысым":4823,"Кээ":4824,"Саламаттык":4825,"орду":4826," ашты":4827,"ындап":4828," иштеб":4829," кете":4830," бийлигинин":4831," берилип":4832," коронавирустун":4833,"Тур":4834,"аан":4835,"шып":4836," айым":4837," айыпталып":4838," мүлкт":4839," градус":4840,"Ислам":4841,"атынын":4842," аралы":4843," карай":4844," элчиси":4845,"азык":4846," Жак":4847,"ебин":4848," күчөп":4849," алдына":4850,"Азырынча":4851," M":4852," эш":4853,"дет":4854,"абек":4855," арасынан":4856," аймактагы":4857," качкын":4858,"Өкмөтт":4859," музык":4860," кийлигиш":4861,"-ча":4862,"маны":4863," көм":4864,"зиё":4865," чыгууга":4866,"ахм":4867," сапар":4868," ооруканада":4869,"Министрлер":4870,"Жыл":4871," жама":4872,"оратор":4873," өсүп":4874," ыңг":4875,"Пр":4876,"еме":4877," музей":4878," Дүйнөлүк":4879,"олюция":4880,"38":4881,"мур":4882," делген":4883," парламентте":4884," Эрдоган":4885," органдарынын":4886,"пейт":4887,"унду":4888,"дейт":4889," Ала":4890," атаган":4891," Хар":4892," оңой":4893," каршылык":4894," тейл":4895," алышат":4896,"иканын":4897," пост":4898,"имче":4899," байланышы":4900," Райым":4901," жүздөгөн":4902,"Дүйнө":4903,"ra":4904,"тим":4905,"үлө":4906,"үлүүдө":4907,"ысын":4908," сотто":4909," Алексей":4910,"гуу":4911,"абар":4912," ачыкка":4913," кирет":4914," Пакистан":4915," болбосун":4916," көзөмөлдөө":4917," кечир":4918," аракеттен":4919,"дуулук":4920,"эри":4921,"ылбай":4922," дост":4923," балдарды":4924," дүйнөнүн":4925," жанында":4926,"32":4927," тасма":4928," дүкөн":4929," атап":4930,"айлык":4931," инфекция":4932," жетпей":4933,"Эркин":4934," катаал":4935," жугузуп":4936,"Жыйын":4937," мыр":4938,"ктябрь":4939," Болот":4940," иштерди":4941," өлгөн":4942,"-түз":4943," Бейшен":4944,"\":":4945,").\n":4946,"Чын":4947,"алестин":4948," меч":4949,"чуларды":4950," балдары":4951," мекеме":4952," журналисттерге":4953," адвокаты":4954," дипломатиялык":4955,"ло":4956,"рий":4957," сана":4958," тараган":4959," Сар":4960," чыкпай":4961," депутаттык":4962,"Сотт":4963," сындап":4964," бирдиктүү":4965," маселелерди":4966," айрымдары":4967," экспортт":4968," ийгил":4969,"Саяс":4970," академия":4971," мына":4972," жыйынтык":4973,"баса":4974,"ияз":4975," алса":4976," на":4977," шайланган":4978," саналган":4979," Путиндин":4980,"ңкы":4981," Жапон":4982," жетип":4983," кызматкер":4984," кайрылды":4985," Улуу":4986," козго":4987," Түркмөнстан":4988," ырастады":4989," мунун":4990," топто":4991," клин":4992,"Казакстанда":4993," басылмасы":4994," демократиялык":4995,"Мак":4996,"стер":4997,"елет":4998," Та":4999,"ойн":5000," көчүр":5001," аппарат":5002," тек":5003,"дым":5004," булагы":5005," учурдагы":5006," айланып":5007," эсебинде":5008,"данып":5009," жолун":5010," Ник":5011,"Айыл":5012,"Москва":5013," начарл":5014," Осмон":5015,"Бел":5016,"Ооганстан":5017,"оф":5018," адамдарга":5019," зал":5020," жарандарды":5021," принц":5022," жиберген":5023," дей":5024,"ешип":5025,"ыштын":5026," көрсөтмө":5027,"Бишкектин":5028," укуктуу":5029," системасы":5030," мурунку":5031," аэропорт":5032," түштү":5033," ооруп":5034," отурат":5035," жыйынтыкт":5036," Аф":5037," эски":5038," алдыга":5039," коомчулукта":5040," Беларус":5041," канааттан":5042," алышты":5043,"ерисин":5044," комиссиясы":5045," өрөөн":5046," мадания":5047," бирик":5048,"гем":5049," республик":5050," улуу":5051," үйдүн":5052," макал":5053," абагында":5054," Москвага":5055," ишканасынын":5056," себептер":5057,"ыңгыз":5058," массалык":5059," ев":5060,"сон":5061," тик":5062," Кошмо":5063," бож":5064," талаптар":5065," миллиондон":5066," Ирандын":5067,"гам":5068," жумду":5069,"-беренеси":5070," ыраазы":5071,"Белар":5072,"елл":5073," анткени":5074," министрликт":5075," бийлигин":5076," сунуштаган":5077," проток":5078,"Жапаров":5079,"юр":5080," кв":5081," эв":5082,"дүкт":5083," жакыр":5084," камп":5085," абалды":5086," жолугушуу":5087," кепил":5088," күмөн":5089,"имовдун":5090," ИИМ":5091,"Эксп":5092,"сүндөгү":5093,"тешт":5094,"ста":5095," Ибра":5096," маалыматында":5097," беришти":5098,"циал":5099," кезектеги":5100," өлкөлөргө":5101," Бишкекке":5102," адаб":5103," жаңжал":5104," түйүн":5105,"ттык":5106,"рах":5107," алынганын":5108," токтоп":5109," борбордук":5110," Атамбаевдин":5111,"гол":5112," артык":5113," Молд":5114," Ст":5115,"өкмөт":5116,"Аск":5117," кут":5118," колдонгон":5119,"алиевдин":5120," чыныгы":5121," Бакыт":5122," тандоо":5123," радиосуна":5124," F":5125," W":5126,"кту":5127,"стин":5128,"гак":5129," маз":5130," айтышкан":5131,"олорду":5132," Карак":5133," жыйынтыгын":5134,"гып":5135," бирин":5136," Бал":5137,"улганын":5138," долбоорунун":5139," лиценз":5140,"димки":5141," карапайым":5142,"Пол":5143," баал":5144,"ышта":5145," чыгышкан":5146,"ациялык":5147,"чүсү":5148," бергенин":5149," лидерлери":5150,"-Тоо":5151,"Окуя":5152," келүү":5153," кызматын":5154," жолугуп":5155," туугандар":5156,"чылыгы":5157," керектүү":5158," мигранттардын":5159," пайдалануу":5160," энергетика":5161,"\"Азаттыктын":5162,"oo":5163," жерди":5164," тата":5165," ант":5166," өкмөттүк":5167,"бөйт":5168," Дональд":5169,"Жалпы":5170,"ох":5171," такыр":5172," өст":5173,"ске":5174," Сай":5175," Ил":5176,"өйт":5177,"-аш":5178,".k":5179,"ундан":5180," уй":5181," дегенди":5182,"диктен":5183," дайыма":5184,"ерисинче":5185,"!\"":5186,"Жалал":5187,"есинен":5188," келбеген":5189," жетишкен":5190," санитардык":5191," уланууда":5192," журналисттердин":5193," стратегиялык":5194,"44":5195,"st":5196,"ска":5197,"чан":5198,"аныбек":5199," айтылууда":5200," кылууда":5201," билдирүүлөр":5202," камер":5203," келишимге":5204," көбөйүп":5205," Интерн":5206,"Мекен":5207,"гинде":5208,"мөлөр":5209," чен":5210," айырм":5211," таратып":5212,"үлгөнүн":5213," көбөйт":5214," лидерлер":5215," эскерткен":5216," интернет":5217,"жаң":5218," бирдей":5219," мыйзамда":5220," жетишсиз":5221,"өдү":5222," Аман":5223," кызматынан":5224," албайбыз":5225," жыйынтыгында":5226," жашыруун":5227," чо":5228," баштайт":5229," Нар":5230," күчүнө":5231,"дикалык":5232," сырттан":5233," гез":5234," көпчүлүгү":5235," мекенине":5236," Аскар":5237," ц":5238,"ондон":5239,"гация":5240," Ороз":5241," жазуу":5242," кыймылынын":5243," радиосунун":5244,"75":5245,"ыдык":5246,"ула":5247,"ович":5248," маалымдоо":5249," президентке":5250," эмеспи":5251," чыкканын":5252," Израилдин":5253," Мадумаров":5254,"акуация":5255,"-з":5256,"гал":5257,"жыл":5258,"иттер":5259," ту":5260," тен":5261," жолку":5262," (+":5263," алгандар":5264," баланын":5265," окуган":5266," окуяга":5267," аракетин":5268," фонду":5269,"гор":5270," июл":5271," баса":5272,"исс":5273," Голд":5274,"сүнөн":5275," маанай":5276," милициянын":5277," зарылды":5278," мөөнөтүн":5279," багытта":5280," кагылыш":5281,"ыйкатчы":5282,"газиев":5283,"ch":5284,"Мурда":5285," сер":5286,"штык":5287," болгондо":5288," той":5289," куруп":5290," реги":5291," чечимди":5292," Москванын":5293," токтотуп":5294," эксперттер":5295,"Тилекке":5296," мойн":5297," валю":5298,"черээк":5299,"сине":5300,"төн":5301," мет":5302," жайы":5303,"дорду":5304,"ешке":5305,"уфт":5306,"-чачын":5307,"Күн":5308,"бас":5309," түштүк":5310,"үүсү":5311," маал":5312," бөлүгүн":5313," кеңейт":5314," Евраз":5315," угуп":5316," зордукт":5317," ын":5318," Кеңеште":5319," жогорул":5320,"Кол":5321,"Нарын":5322," бирикт":5323," Ислам":5324," Чолпон":5325," пайызга":5326," беткап":5327," Өмүрбек":5328,"ou":5329," көн":5330," эф":5331," ашк":5332,"елеграм":5333," Крым":5334," келишкен":5335," иштин":5336," колуна":5337," сураган":5338," провин":5339," тараптар":5340," Image":5341," биргелешкен":5342,"ov":5343,"арх":5344," албаган":5345,"гүлт":5346," килограмм":5347,"Жаш":5348,"Оп":5349,"Чоң":5350," сен":5351," болууга":5352," беребиз":5353," жөнөкөй":5354," түрү":5355," жарадар":5356,"ССР":5357," тит":5358,"аларынын":5359,"ытайлык":5360," маселелери":5361," активдүү":5362," ракета":5363," Олимпиада":5364,"Дары":5365,"вер":5366," Тоолуу":5367," шаардын":5368," Вен":5369," кезек":5370," калдым":5371," Москвада":5372,"ңуз":5373," ислам":5374,"ышына":5375," Май":5376,"икте":5377,"дөрүнө":5378,"ридикалык":5379," ыкм":5380," эрте":5381," транспорт":5382,"48":5383,"55":5384," атынан":5385,"еңиш":5386," компаниялар":5387," сыртка":5388," армиясынын":5389,"Ko":5390,"дүгүн":5391,"мит":5392,"тери":5393,"маил":5394,"башы":5395,"айлуу":5396," июнь":5397,"ed":5398,"Кара":5399," тем":5400," ста":5401,"елди":5402," порт":5403," Кал":5404," Тер":5405," ачуу":5406," айыпталган":5407," уюштурган":5408,"ариж":5409," декабр":5410,"акун":5411," араны":5412," туруу":5413," кайда":5414," түзүлүп":5415,"193":5416," ишкана":5417," чарб":5418," коммун":5419," машине":5420," температурасы":5421,"Докум":5422,"онов":5423," Исак":5424," Эн":5425," жооптуу":5426," кырдаалга":5427," аракеттер":5428," техник":5429," саламатт":5430," териштир":5431," киреше":5432,"Аял":5433,"ади":5434,"лоб":5435," сх":5436,"орго":5437," беришкен":5438,"матова":5439," талашт":5440,"аларына":5441," бийик":5442,"өткөн":5443," бүткөн":5444," професс":5445,"Эн":5446," доом":5447," ном":5448," көркөм":5449,"гиле":5450," жердеги":5451," Ир":5452," тилинде":5453," сүйлөгөн":5454," Мирзиё":5455," жүрүшүндө":5456," үзгүлт":5457,"олук":5458," Сул":5459," үйүндө":5460," окуяны":5461," колдонууга":5462," Фин":5463," тоскоолдук":5464," турмуш":5465,"Саясат":5466,"ew":5467,"гр":5468,"як":5469," агым":5470,"өрдүн":5471,"ттар":5472,"куч":5473," балдарга":5474," маани":5475," мейман":5476,"гай":5477,"серв":5478,"данын":5479," чечүү":5480," Груз":5481," токтолду":5482," депутаттары":5483," тийген":5484," кызматкерлеринин":5485," Конституциялык":5486,"Дүйнөлүк":5487,"Негизи":5488," эвакуация":5489,"енк":5490," десе":5491," иштен":5492," кире":5493,"Аларды":5494,"өшү":5495," сабак":5496," Райымбек":5497,"атору":5498,"аборатор":5499," жаатында":5500," билет":5501," Улан":5502," кылмышка":5503," мекеменин":5504," каржы":5505," кабарлагандай":5506," Штаттар":5507," Сам":5508," Стамбул":5509," кыла":5510," талабы":5511," Иман":5512,"мөткө":5513," даярдык":5514," ташып":5515,"омпания":5516,"ецк":5517,"\"Б":5518,"МК":5519," кадыр":5520,"абайт":5521,"цияда":5522," жолго":5523," өлкөнү":5524,"үгүнүн":5525," чыгары":5526,"актын":5527," соңунда":5528," айыптаган":5529,"-Султан":5530,"дыйкан":5531,"et":5532,"сем":5533," мерт":5534," форум":5535,"дөрдү":5536,"бековдун":5537," жардамы":5538," коронавирустан":5539," дарылан":5540," өңдүү":5541,"ZKo":5542,"пт":5543," четт":5544,"оосу":5545," арм":5546," атады":5547," коло":5548," кадимки":5549," тармагында":5550," көтөрүлүп":5551," жактоо":5552,"Тергөө":5553,"Төр":5554," суткада":5555," чам":5556," пун":5557," кыздын":5558," орно":5559," масшт":5560,"осу":5561," демилге":5562," дыйкан":5563,"120":5564," ут":5565," Теке":5566," жеринен":5567," банктын":5568," аралаш":5569,"аммед":5570," саммит":5571," Көл":5572," Мекен":5573," кармоо":5574," коюлду":5575," өндүрүш":5576," изилдө":5577,"ылтыркы":5578,"ассалык":5579," начар":5580,"көнүн":5581," атын":5582,"еши":5583," алгандан":5584," балл":5585," иштерине":5586," кыргыздар":5587," унут":5588,"Кел":5589,"Кеч":5590,"баганын":5591," жайлар":5592," Эк":5593," бергени":5594," радик":5595," Эмил":5596,"Жалпысынан":5597,"Брит":5598,"Меди":5599,"пиз":5600," суунун":5601,"ттердин":5602," Бээжин":5603," анча":5604," майып":5605," чогулуп":5606," түндүк":5607," буюм":5608," мезгилде":5609," баалуул":5610," бирикм":5611," ачы":5612,"услан":5613," жылына":5614,"Андай":5615," көзү":5616," алдыңкы":5617," эркинди":5618," кыймылы":5619,"700":5620,"Уюм":5621," жаны":5622,"мада":5623,"уберн":5624," абадан":5625," согушта":5626," эмгектен":5627," Кызыл":5628," L":5629,"гүн":5630,"поз":5631,"сок":5632," биримди":5633," жарандарга":5634,"бызга":5635," кырсык":5636," аткарып":5637," ум":5638," шил":5639," жарл":5640," Чыңгыз":5641," өзүң":5642," Казакстанга":5643," генер":5644," оппозициялык":5645,"el":5646,"мын":5647," маң":5648,"ектүү":5649," Поль":5650," тапт":5651," өзгөрүүлөр":5652," көтөргөн":5653," көбөйдү":5654,"чүлөрдүн":5655,"-энелер":5656,"47":5657,"етинен":5658," көрсөттү":5659," Газ":5660,"Бизге":5661,"ергет":5662," үстүнө":5663," бөлүнгөн":5664," мелдешт":5665,"Түндүк":5666," аль":5667,"имдик":5668," нар":5669," көздөп":5670," конституциялык":5671,"чуларга":5672," төлөн":5673,"макчы":5674,"делген":5675," жогорулат":5676," провинция":5677," Ол":5678,"егине":5679," Украинада":5680," бузган":5681," кеңеши":5682," этн":5683," агенттигинин":5684," коомчулуктун":5685,"Социалдык":5686,"Жакында":5687," көрүнүшт":5688,"оран":5689," жатса":5690," кызуу":5691," мыйзамдар":5692," ашып":5693," кошуп":5694," төмөндө":5695,"39":5696," кытай":5697," эне":5698," жашайт":5699," ойн":5700," согушту":5701," кубатт":5702,"-президент":5703," мырза":5704," кү":5705," учкуч":5706," ташуучу":5707," эскертүү":5708,"Европа":5709,"миологиялык":5710,"ичи":5711," санын":5712," ашкан":5713,"скөн":5714," күнүнө":5715,"Андыктан":5716," ошого":5717," каттоого":5718," текшерип":5719," китепт":5720," буу":5721,"окел":5722," виз":5723," алынат":5724," тилин":5725,"-экономикалык":5726," токтотууга":5727," облустарында":5728," ашыруу":5729," аралыгында":5730,"Чет":5731,"гуна":5732,"ыст":5733," эмн":5734," кылышты":5735," калдык":5736," өтүү":5737," майдан":5738," каар":5739,"став":5740,"дөм":5741," берки":5742,"омарт":5743," түшүндүрдү":5744," капит":5745,"султан":5746," ээлеп":5747," кум":5748,"албай":5749," мэри":5750," дешет":5751," баарына":5752," берүүдө":5753,"усуп":5754," турабыз":5755," нам":5756,"үгүндөгү":5757,"ебер":5758,"Жарандык":5759," кеңештин":5760," Россия":5761,"кр":5762," кг":5763," Мас":5764," көздөгөн":5765,"197":5766," өкүлчүл":5767," басымдуу":5768," окуясы":5769," делегация":5770," Абды":5771,"-Жомарт":5772,"Вагн":5773,"бөл":5774,"ынкы":5775," сиң":5776," Кемпир":5777," Марат":5778," ташы":5779," беле":5780," белгилейт":5781," жумушка":5782,"...+":5783,"структур":5784,"ио":5785,"юс":5786," СССР":5787," келгени":5788," инсан":5789," кабылып":5790," чараларды":5791," жаратып":5792," пайдаланып":5793," апрель":5794," регион":5795,"нап":5796,"ьт":5797,"үск":5798," казакстан":5799,"инжаң":5800,"истикалык":5801," турду":5802," негиздөө":5803," апасы":5804,"-октябрдагы":5805," кризист":5806," титир":5807,"Акт":5808," по":5809," иштөө":5810," реформа":5811,"Өкмөттүн":5812,"\"С":5813,"65":5814,"нек":5815," сим":5816,"-жылкы":5817," президентинин":5818," жакынкы":5819," айыптады":5820," артында":5821,"ликтин":5822,".б":5823,"Герман":5824,"кыз":5825,"рок":5826,"ыларын":5827," алам":5828," албетте":5829," Жазык":5830,"ото":5831," жете":5832," жарандыгын":5833,"инск":5834," мамлекети":5835," турганда":5836,"уктан":5837," Шв":5838," добушт":5839," документтер":5840,"же":5841,"абын":5842," жылдар":5843,"замат":5844," өкмөткө":5845," вари":5846,"уттукт":5847," катарында":5848," Кытайга":5849," төлөө":5850,"-бүлөсү":5851," натыйжалуу":5852," юридикалык":5853," бейөкмөт":5854," Кабул":5855,"Эч":5856,"икчил":5857," пар":5858,"ишине":5859," рек":5860," өткөрүүгө":5861," көтөрүл":5862," кыял":5863," лаборатор":5864," жокпу":5865,"зо":5866,"или":5867,"ымта":5868," Бел":5869,"алант":5870," абалга":5871," көбөйгөн":5872," мөөнөткө":5873," H":5874,"Ток":5875,"ырды":5876," алууда":5877,"рав":5878,"аганы":5879," көпүр":5880,"естив":5881," арадан":5882," быйылкы":5883," аракеттери":5884," тушунда":5885," шилт":5886,"-арак":5887,"Ади":5888,"Калган":5889,"унча":5890," айланган":5891," болуу":5892," карт":5893," Ад":5894," жасады":5895," өлкөлөрүнүн":5896," түшүнүк":5897," тааныштыр":5898," өлүмүнө":5899," бакча":5900,"-П":5901,"стиция":5902,"шкен":5903," арб":5904," бербейт":5905," иштелип":5906," билдиришкен":5907," Нияз":5908," парламентке":5909," бузуп":5910," тобокел":5911," мектепке":5912,"Борбордук":5913," туугандары":5914,"Оор":5915," десек":5916," эли":5917," Аш":5918," тартты":5919,"ылганы":5920," жабдуу":5921," байге":5922," сунуштады":5923," жоопкерчилик":5924,"Республ":5925,"арап":5926,"улов":5927," аймак":5928," карман":5929," утуп":5930," өздөрүнүн":5931,"быздын":5932," прокуратуранын":5933,"ицип":5934," Британиянын":5935," октябрь":5936,"бер":5937," Бол":5938," башына":5939," шайлоодон":5940," Чек":5941," көчүп":5942," Ооганстандагы":5943," зордук":5944,"май":5945,"нев":5946," караш":5947," эмест":5948,"ерлик":5949," эмесмин":5950,"ыктары":5951," башталып":5952,"ышканы":5953," демилгеси":5954," көмөк":5955," мойнуна":5956,"үскө":5957,"Сог":5958,"ту":5959," кытайлык":5960,"илек":5961,"елеп":5962," ишинин":5963," реакция":5964," күйөөсү":5965,"Фин":5966," дуб":5967," кызыл":5968," башталат":5969," уккан":5970,"194":5971," айылындагы":5972," эсептей":5973," үстүнөн":5974," бөлүнүп":5975," эсебинен":5976," каккан":5977," куттукт":5978," сол":5979,"абыр":5980,"үшөт":5981,"ишке":5982," көздө":5983," компаниянын":5984," саткан":5985," көтөрүлгөн":5986,"диктер":5987," келтирилген":5988," жеткирүү":5989," деңгээли":5990," советтик":5991," чочул":5992,"дараак":5993,"циялоо":5994,"Алгач":5995,"Улуу":5996," эстел":5997," энергиясын":5998," протокол":5999," жатты":6000," кылабыз":6001," шайлоону":6002," Дмит":6003," кошулган":6004,"измге":6005," клуб":6006,"Балким":6007,"ят":6008," чоо":6009," докт":6010," таратты":6011," жардыр":6012,"доп":6013," федерация":6014," көздөй":6015," чечимине":6016," сатуу":6017,"алашкан":6018,"Талас":6019,"600":6020,"нам":6021,"раструктур":6022," турушат":6023," жетет":6024," жерг":6025," фир":6026," сурак":6027," абактан":6028," бүтүр":6029," мисал":6030,"-ай":6031,"Көр":6032,"иль":6033," Төр":6034," Сал":6035," Сыдык":6036," экендигин":6037," тартууга":6038," сөзү":6039," санарип":6040,"естр":6041," гүл":6042,"гылар":6043," арызын":6044," Нурлан":6045," коргоп":6046,"атындагы":6047," үйгө":6048," коомчулукка":6049," кармаган":6050," жы":6051," берерин":6052," Жон":6053," адил":6054," тактап":6055," себептен":6056," принцип":6057," барбы":6058," курама":6059,"рансп":6060,"осун":6061,"игер":6062," башкарган":6063," губерн":6064," акчасын":6065," сезим":6066," каржылык":6067," сүйлөшүүлөрдү":6068," талапкерлер":6069," Германия":6070,"Аба":6071,"аа":6072,"айм":6073," саясатын":6074," тың":6075," таанылган":6076," көчөлөр":6077,"-кы":6078,"Газ":6079,"кана":6080,"ье":6081," Көк":6082," кереги":6083," ошону":6084," Дастан":6085," жыйынга":6086,"Менимче":6087," жеңип":6088," белгиленди":6089," автоном":6090," республика":6091," татаал":6092,"-тур":6093,"сең":6094," аман":6095,"диев":6096," жылуу":6097," түздү":6098," депутаттардын":6099,"-Сай":6100,"ерсон":6101," жеткирилген":6102," пайызы":6103,"ансылык":6104," талибдер":6105,"кур":6106,"ыруу":6107," бирине":6108," Бр":6109," колл":6110,"соци":6111," тармагындагы":6112," мүлк":6113," фракциясынын":6114,"тууга":6115,"емет":6116," кылышкан":6117," корут":6118," түшүнү":6119," койсо":6120," уюштуруп":6121," ашыкча":6122," кайрылуусунда":6123," натыйжасында":6124," фондунун":6125," пенсия":6126," коммерциялык":6127,"БУУ":6128,"Кыр":6129,"атына":6130,"гап":6131,"аттагы":6132," элинин":6133," корп":6134,"ктарын":6135,"ктарда":6136,"алардан":6137," кетишкен":6138,"Аларга":6139," ачка":6140," Абыл":6141,"-бүлөлөр":6142,"лобалдык":6143,"шев":6144,"улук":6145,"-жай":6146," күндүк":6147," сөзүн":6148," сунушу":6149," салууну":6150," мамилеси":6151," инфраструктур":6152,"Ада":6153,"диянын":6154,"сал":6155," жикчил":6156," түшк":6157,"рациялык":6158," күчү":6159," ошондо":6160," согушк":6161," долларды":6162," жалпыга":6163," Москвадагы":6164," ишканасы":6165,"Корруп":6166," төмөнкү":6167," жоюл":6168," каттоодон":6169," сайтына":6170,"Экинчиден":6171,"социация":6172,"алса":6173," жекш":6174," тин":6175," тыйын":6176," биринин":6177,"едералдык":6178," чагым":6179," айдын":6180," айрыкча":6181," Жеңиш":6182,"дайт":6183,"Ошону":6184," чыгышы":6185,"Бишкектеги":6186," агенттигине":6187," системасын":6188," Мамыт":6189," бекемдөө":6190," баратат":6191," мушт":6192," Телеграм":6193,"умун":6194,"ашин":6195," кирди":6196," Итал":6197," киргизип":6198," студенттер":6199,"Киев":6200,"гур":6201," чач":6202," Кой":6203," Ах":6204," жатпайбы":6205,"гөч":6206," Тегер":6207,"уста":6208," бөлүшт":6209," сурады":6210,"ономика":6211," партиялардын":6212," Өзбекстанга":6213," түпт":6214," жигит":6215," тегерегинде":6216," пункт":6217,"Натыйж":6218,"амжыл":6219," жолуккан":6220," абакка":6221," интер":6222," чыкканы":6223," тарапка":6224," коргоого":6225," Түркияда":6226,"ууларга":6227," күтүү":6228," коркунучу":6229," инвесторлор":6230," баяндам":6231," арзан":6232,"Бардык":6233,"Рос":6234,"икир":6235,"итор":6236,"узак":6237," күндүн":6238,"ыктарды":6239,"Өлкөнүн":6240," радиосу":6241," үйрөн":6242," жуктуруп":6243," тосуп":6244," токой":6245,"-келиндер":6246," таптакыр":6247," жанын":6248," кетир":6249," ичиндеги":6250," бошотулган":6251," Рахмон":6252," Дмитрий":6253,"унд":6254,"сың":6255," Руслан":6256," төрайым":6257," Дүйш":6258," калганда":6259,"Кыргызстандагы":6260," лидер":6261," Кытайдан":6262," сырт":6263," ойлоп":6264," дайынсыз":6265," күмүш":6266," өтүнүчү":6267," көмөкт":6268," тагдыры":6269," январь":6270,"%,":6271,"асак":6272," барымта":6273," билип":6274," министрлик":6275," Алтын":6276,"гыла":6277," муницип":6278," окшош":6279,"Адвок":6280,"пеген":6281,"арынан":6282,"кадыр":6283," жолду":6284," жайында":6285," кармоочу":6286,"идеги":6287,"-кл":6288," айыпталуу":6289," бийликтен":6290," тапшырган":6291," Айбек":6292," статистика":6293,"-ма":6294,"рч":6295," алдык":6296,"акиев":6297," уюшкан":6298," түрлөр":6299,"игип":6300," козголуп":6301," Жээнбековдун":6302,"Тажикстандын":6303,"-зомбул":6304,"Груз":6305,"Ил":6306," коо":6307,"етинде":6308,"улушу":6309,"ейн":6310," айтышууда":6311," түздөн":6312," Алым":6313," нерсени":6314,"ынч":6315," тат":6316," өзгөч":6317," жарандарын":6318," жөнүндөгү":6319," кемчил":6320," божомол":6321,".kg":6322," түйш":6323,"ерм":6324," айына":6325," жашы":6326," Аст":6327,"имде":6328,"мага":6329,"ткү":6330," Сов":6331," орунда":6332,"үмдүк":6333," күчөгөн":6334," долбоорду":6335," курулушу":6336," документтерди":6337," жубайы":6338,"\"Т":6339,"-чы":6340,"Ст":6341,"Сан":6342,"Сөз":6343,"Фран":6344," бри":6345,"амбет":6346," доз":6347,"екти":6348," башчылары":6349,"аттарга":6350," көбүнчө":6351," абагына":6352," жүргөнүн":6353," эркек":6354," кызматкерлерине":6355," Кудай":6356," мобилизация":6357," умт":6358,"ir":6359,"алил":6360," тама":6361," жаайт":6362," колунда":6363," чыгарууга":6364," себебин":6365," иликтеп":6366," тизмесине":6367," In":6368," элчилиги":6369," сындаган":6370," райондордо":6371," Исмаил":6372," Франция":6373," салмакта":6374,"Ошт":6375,"ва":6376,"оба":6377," аймакка":6378,"ейд":6379,"дыкка":6380," жазуучу":6381,"уулары":6382," сөзүнө":6383," мөөнөтт":6384," милицияга":6385," органдарына":6386,"Кытайдын":6387," юрист":6388," буйрук":6389," изилдөөлөр":6390,"he":6391,"пин":6392,"уди":6393," окутуу":6394,"саясий":6395,"чүлүк":6396," сотунда":6397,"орттун":6398,"ократиялык":6399," миссия":6400," ги":6401,"мамат":6402,"уч":6403," жөө":6404," сүз":6405,"дыкты":6406," баң":6407," жаралган":6408," Октябрь":6409," корг":6410,"авшан":6411,"угунан":6412," Нов":6413," бөлмө":6414," коюшту":6415," кезинде":6416,"-кат":6417," катарына":6418," согуштун":6419," наам":6420,"ce":6421,"ДП":6422,"Сп":6423,"мал":6424," келерин":6425," атал":6426," жашта":6427," эсептелет":6428," түшүндүрүү":6429," тактоо":6430," экспертиз":6431," командасы":6432," заманбап":6433," түшүнүкт":6434,"Жум":6435,"сел":6436,"артка":6437," сект":6438,"анышы":6439,"ышын":6440," буларды":6441," канал":6442," экспорт":6443,"-апрелге":6444,"дром":6445," Ооганстандын":6446," митингге":6447," Й":6448,"Цент":6449," былтыркы":6450,"айыр":6451,"екей":6452," экологиялык":6453,"192":6454," киргизилди":6455," мөөнөтүнөн":6456," ийгиликтүү":6457," аскерлерин":6458," Чыгыш":6459," Текебаев":6460,"орд":6461," башкарып":6462," кабарчысы":6463,"Мекеме":6464," Афр":6465," менчи":6466,"окр":6467," туризм":6468," орду":6469," улутт":6470," каст":6471," бийлигине":6472," өткөрмө":6473," ЕАЭБ":6474," окуядан":6475," албайм":6476," тамыр":6477," ачылды":6478,"ейшембиде":6479," бүтк":6480,"алышын":6481," Никол":6482,"адык":6483," депор":6484,"лигин":6485," шаарда":6486," балбан":6487," дайым":6488," жетектеп":6489,"Кандай":6490," заво":6491,"Натыйжада":6492,"ia":6493,"Ок":6494," сей":6495," кошкон":6496," жаткыр":6497,"лардан":6498," атам":6499," негизсиз":6500," жыйыны":6501," Шер":6502,"ехан":6503," Трамптын":6504," жерлерде":6505,"невмон":6506,"Дин":6507,"абил":6508," укт":6509,"лис":6510,"-жарак":6511," үйдөн":6512,"алдаштыр":6513,"Абанын":6514," кыскар":6515,"лет":6516,"өлөк":6517,"-жылдар":6518," кетсе":6519," жашыл":6520," Дания":6521," Замир":6522," кыян":6523,"ылышына":6524," Мирзиёев":6525,"49":6526,"жа":6527," баасын":6528," душ":6529," билдирет":6530,"196":6531," төрөлгөн":6532,"сиң":6533," пикиринде":6534," Өзбекстанда":6535," тарыхы":6536," баянда":6537,"Центер":6538,"85":6539,"Ишк":6540,"алог":6541," шаарларында":6542," баланы":6543," чечип":6544," чыкп":6545," сакталып":6546," уулунун":6547,"суалдык":6548," участ":6549,"корл":6550," өзгөчөл":6551,"пул":6552,"юп":6553,"иясын":6554," айыгып":6555," кыздар":6556," коман":6557," курууга":6558," суроого":6559," айыпто":6560," апт":6561," абалын":6562," Киевге":6563," кесепети":6564," унаа":6565,"-өзбек":6566," масштаб":6567,"eu":6568," брит":6569," сил":6570," какты":6571,"195":6572," ылдам":6573," качкан":6574," пикирде":6575," кечээ":6576," полициясы":6577," Сауд":6578," үр":6579,"көр":6580,"инов":6581," Ким":6582," даттан":6583," Сур":6584," экенине":6585,"үндөй":6586," келгенден":6587,"-март":6588," өнүк":6589,"сион":6590,"актуу":6591,"ентте":6592," чыккандан":6593," коюш":6594," окуяларды":6595," даярдап":6596," борборлор":6597,"аевдин":6598," адис":6599," согуштук":6600," жылдыгына":6601," чагылдыр":6602," Таалай":6603,"кеч":6604,"эк":6605," кей":6606,"етине":6607,"икага":6608," Кож":6609," аймагы":6610," бошотуу":6611,"ылышын":6612," орточо":6613," жоюу":6614,"-бирине":6615," Кубаныч":6616," кечирим":6617," Евразия":6618," интерв":6619," D":6620,"Кө":6621,"аил":6622,"адам":6623,"идин":6624,"олл":6625,"оодон":6626,"ттагы":6627,"ыйт":6628," катм":6629," аймагынан":6630," кызматкерлердин":6631," Ленин":6632,"Өзбекстандын":6633," чектеш":6634," баштаганын":6635," макулда":6636," күчтөрдүн":6637," Эркин":6638," башчысынын":6639," бутага":6640," тескерисинче":6641," быш":6642," өп":6643," жатышканын":6644," жылуулук":6645," кирүүгө":6646,"иктен":6647," чакыруу":6648," чаралары":6649," доллардан":6650," адвокат":6651,"-Сиге":6652," коңш":6653," каршыл":6654," депортация":6655,"зел":6656,"ардан":6657," арда":6658," Си":6659," калыс":6660," башчынын":6661," жакш":6662," ойдо":6663," Акмат":6664," программасы":6665," администрациясы":6666," ишенимдүү":6667," суроолоруна":6668," сактагыч":6669," армян":6670,"ьков":6671," Баб":6672," жарылуу":6673," жүрө":6674," шаарынан":6675,"елерге":6676," колдоого":6677," соккул":6678,"Өлкөдө":6679,"-кан":6680,"Кемпир":6681,"кем":6682,"етер":6683," көрбөгөн":6684," жазылып":6685,"роф":6686," каф":6687," облусуна":6688," ырайы":6689," миллионго":6690," демократия":6691,"-беренесинин":6692," созулган":6693," муниципалдык":6694,"лаган":6695," оф":6696," кетишти":6697,"ыштагы":6698," чыккандар":6699," Ер":6700," Азиянын":6701,"ност":6702," Фейсбуктагы":6703," тармагы":6704,"чыларынын":6705,"ликти":6706," жоктугун":6707," чыгармачыл":6708,"-марттан":6709,"-үч":6710,"Ким":6711,"Мект":6712,"бест":6713,"лу":6714," чегинде":6715," курулган":6716," тили":6717," прокуратурасы":6718," күйүүчү":6719," олим":6720," мекендешт":6721," четтет":6722," башы":6723,"ымдын":6724," Ба":6725," Талант":6726," Жол":6727," катчы":6728," жүрүшү":6729," коомдо":6730," Шинжаң":6731," майда":6732," сайтында":6733,"Май":6734,"обо":6735,"ортко":6736,"ракт":6737,"дугу":6738," жаратты":6739," колон":6740," колунан":6741," кирүү":6742," өтүүгө":6743," окууда":6744," талапт":6745,"-тарт":6746," борборунда":6747," коюлуп":6748," Токтогул":6749,"линкен":6750," ташыган":6751,"COVID":6752,"Казак":6753,"Миг":6754,"Пандемия":6755,"Токт":6756,"см":6757,"алиция":6758,"-жайын":6759," өткөрүлүп":6760," кызматтык":6761," дүйнөгө":6762," жолугушууда":6763," аскерлеринин":6764," ассоциация":6765,"ификация":6766," башаламанды":6767," ошондон":6768," шилтеме":6769,"Билим":6770,"Долбо":6771,"Мага":6772,"жыр":6773," болору":6774," болсун":6775,"апор":6776," боз":6777," Жам":6778,"кыч":6779," жайкын":6780," жалаң":6781," киргизил":6782," пикири":6783," тизмесин":6784," кээде":6785,"өбөл":6786,"Баары":6787,"Кремл":6788,"сунан":6789," бакч":6790,"ира":6791," чап":6792," Лив":6793," кимге":6794,"-майга":6795," коопсуздугу":6796," Германиянын":6797," үмүтт":6798," мүнөздө":6799," казакстандык":6800,"-Д":6801,"дүгү":6802," механ":6803,"урман":6804," Азамат":6805," кабаттуу":6806," виза":6807," Шам":6808," аткез":6809," уруп":6810,"-чара":6811," эркиндигин":6812," акциялары":6813," үстөм":6814," адабият":6815,"Полиция":6816,"БУУнун":6817,"Он":6818,"ТР":6819,"ария":6820," тум":6821," чир":6822," жарлык":6823," Сер":6824,"Ала":6825," башкалар":6826,"мөк":6827," Париж":6828,"актары":6829," өкүлдөрүнүн":6830," тааныш":6831," кенен":6832," баштапкы":6833," тажрыйба":6834,"Башкача":6835," түшүндүрмөсү":6836," камтылган":6837," иштебей":6838," өрөөнүндө":6839," атабыз":6840," нем":6841," колу":6842," дегендей":6843," иликтөөлөр":6844," Түркияга":6845,"250":6846," тапшырды":6847," өкмөттү":6848," тонн":6849," институтунун":6850," Биримдиги":6851,"Белгил":6852,"бал":6853,"ств":6854," айларында":6855,"ттен":6856,"усуна":6857," илин":6858," шайлоочулардын":6859," жоопкерчилиги":6860," китептер":6861," милдеттендир":6862," көмүскө":6863,"нексия":6864,"гысы":6865," боор":6866," катышат":6867," калышты":6868," реестр":6869,"ешти":6870," Кеңешке":6871," бийликте":6872," көрүнүп":6873," тургай":6874," Абдрах":6875,"Саясий":6876," демонстрантт":6877," Өз":6878,"уган":6879," би":6880," Казак":6881,"абад":6882," экология":6883,"еттери":6884," жүрдү":6885," алгандардын":6886," балким":6887," кишиден":6888," сактоого":6889," өткөрдү":6890," толукт":6891," конушт":6892," жүргүзүлүп":6893," калаа":6894," артынан":6895," кабинети":6896," асман":6897," мектепте":6898," беришет":6899," экстремисттик":6900," Сулайман":6901,"it":6902," чакты":6903," палестин":6904," берүүнүн":6905,"ейлек":6906," Жусуп":6907," болгондон":6908,"Алтын":6909,"Анткен":6910," өтүшү":6911," камалды":6912,"аттарын":6913,"устар":6914," түрткү":6915," аялдарга":6916," акцияга":6917," дайындалды":6918," штабдын":6919," өнүктүрүүгө":6920," Мухаммед":6921,"боо":6922,"шар":6923," тирүү":6924," муфт":6925,"асул":6926," Адам":6927,"Бириккен":6928," балдарын":6929," жайылт":6930," сомду":6931," окуяларга":6932," мигрант":6933," кеңешчиси":6934," класст":6935," жактагы":6936," оппозициячыл":6937," ошондуктан":6938," Курманбек":6939," департаментинин":6940,"ская":6941," гезит":6942," эфир":6943,"41":6944,"инекей":6945,"ылары":6946," ашы":6947," келүүдө":6948," турууга":6949," норм":6950," рев":6951," жокмун":6952," өкүн":6953," жайларда":6954," иштерге":6955," аныктап":6956," Хан":6957," ортом":6958,"остук":6959,"тони":6960," жазгандай":6961," калыптан":6962," тарапташтары":6963," астында":6964," талаштуу":6965," баалуулуктар":6966,"откон":6967," сууга":6968,"шканын":6969," арасын":6970,"ларация":6971,"итация":6972," рол":6973,"иктерди":6974," Дүйшөмбү":6975," коюшкан":6976," сүйлөшкөн":6977,"дикти":6978," таануу":6979," жокпуз":6980," редакция":6981,"77":6982," келишти":6983,"дөргө":6984," чыкса":6985,"-пикир":6986," үйрөт":6987,"om":6988,"ессия":6989," Мих":6990," жолунун":6991," жазасын":6992," дараж":6993," АКШда":6994," жагдайлар":6995," барганда":6996," жыйн":6997," эреже":6998," Кореянын":6999," сумма":7000," авиак":7001,"ергетика":7002," ауди":7003,"ыкка":7004," айтышат":7005," Сары":7006,"гожин":7007," Ноо":7008," Нью":7009," лог":7010," берене":7011,"-энеси":7012,"Экспер":7013,"гуз":7014,"рис":7015,"сындагы":7016,"ёр":7017,"мад":7018,"авкат":7019," миллиондогон":7020," пикирлер":7021," тизме":7022,"ибизди":7023," мисалы":7024," машыг":7025,"46":7026,"Фейсбуктагы":7027,"часы":7028," кичи":7029," Кен":7030," ЖЭБ":7031," кетсек":7032," башын":7033," жеринде":7034,"ыштан":7035," күчүндө":7036," аймактын":7037," жарандарына":7038," жүргүзүлгөн":7039," банктар":7040," спик":7041," салынат":7042," өндүрүү":7043,"дегенде":7044," кенем":7045,"Түркиянын":7046," иштетүү":7047," стандар":7048," машыкт":7049," Америка":7050," Бейшеналиев":7051,"Түштүк":7052," чат":7053," пан":7054," Ур":7055," анк":7056," колдонулган":7057," Лондон":7058," түшүнүп":7059," чарасы":7060," даярдоо":7061," берилгенин":7062," сунушун":7063," санкцияларды":7064," тагылган":7065," кесиптешт":7066,"-дарм":7067," лагер":7068,"атф":7069,"ордин":7070," баатыр":7071," араб":7072,"реди":7073," Жаңы":7074,"асың":7075," окуучу":7076,"дорго":7077," долбооруна":7078," арызы":7079," салынды":7080," шартында":7081," пандемиясы":7082," Назарбаев":7083," үзгүлтүккө":7084,"бий":7085,"ля":7086," кардар":7087," коалиция":7088," маян":7089," кызды":7090," байланышта":7091," кесилген":7092," тармагына":7093," уюштурулган":7094," директор":7095," ракеталык":7096," зомбулукка":7097," New":7098,"верд":7099,"иан":7100,"дат":7101,"икасы":7102," пре":7103,"өлүп":7104," Бакты":7105," тартылып":7106," кошуна":7107," өткөндөн":7108," тарыхында":7109," тизмеге":7110," Куралдуу":7111," институтт":7112," Армения":7113," вариан":7114,"Көз":7115,"глис":7116,"ург":7117,"икада":7118,"усун":7119," Иса":7120," аннексия":7121," жумган":7122,"Ушундан":7123,"ригожин":7124," аракеттерин":7125," күтүлүүдө":7126," кайтаруу":7127," Бекеш":7128," институту":7129," блогер":7130," толкун":7131,"-де":7132,"68":7133,"Амер":7134,"басын":7135,"юк":7136," аралашкан":7137," азайып":7138," салгыл":7139," Жапаровго":7140,"Министрлик":7141," материалдык":7142," зарылдыгын":7143,"апорож":7144," кепт":7145,"ынып":7146,"атуу":7147," Тай":7148," Сен":7149,"манов":7150," ушу":7151,"191":7152," аралыкта":7153," кызыкдар":7154," талкуулан":7155," жемкорл":7156," репрессия":7157," радикал":7158,"ашинян":7159," баңгиз":7160," ыз":7161," Өзгөчө":7162,"арбек":7163," жор":7164," мор":7165," чалып":7166," утур":7167,"гөөнүн":7168," тагын":7169,"устук":7170," жүргүн":7171," эсептелген":7172," Индия":7173," чогултуп":7174," ээлеген":7175," Матраимовдун":7176," энергетикалык":7177," куугунтук":7178," K":7179,"Тез":7180,"ордон":7181," ижар":7182,"есиз":7183,"есиндеги":7184,"ектак":7185,"баганы":7186," айтуу":7187,"итект":7188," өлкөлөрдөн":7189," Азиз":7190," көзөмөлдө":7191,"ыктарын":7192," уюштурууга":7193," режисс":7194," студент":7195," эгемендик":7196," мандаттуу":7197,"-дармек":7198," июль":7199," генерал":7200,"57":7201,"ig":7202,"боого":7203,"екс":7204," Кай":7205," Жума":7206," келгендер":7207," сөзүндө":7208," програм":7209," сүйлөшт":7210," глобалдык":7211," жоокер":7212,"Эрт":7213," финансылык":7214,"өңкөр":7215,"Центерра":7216,"ol":7217,"Дал":7218,"өңг":7219,"алдан":7220," өскөн":7221,"акир":7222," пат":7223," координ":7224," айылда":7225," ойлор":7226," келтирип":7227," колдой":7228," Макс":7229," мектептин":7230,"олдош":7231,"вердлов":7232,"°,":7233,"Беш":7234,"Бүтүн":7235,"Кош":7236,"Пакистан":7237,"виттер":7238,"сөн":7239," ип":7240," арага":7241," жылдыр":7242," абанын":7243,"тыгы":7244," аныкталып":7245," аялы":7246," курулуп":7247," олтур":7248,"Батыш":7249," калтырды":7250," улантып":7251," биргеликте":7252," каарман":7253,"Ас":7254,"Кал":7255,"ром":7256,"еле":7257," пневмон":7258," адамдары":7259,"ерлерге":7260," белгилери":7261," жашында":7262," маселесине":7263," Ра":7264,"үшкө":7265," тааныган":7266," айланасындагы":7267," бейтаптар":7268," адабия":7269," Беларустун":7270," планы":7271," мандат":7272," дан":7273,"58":7274,"Таш":7275," айланды":7276," дүр":7277," дүң":7278," кылганын":7279," өтөп":7280," өнүм":7281," жөндөм":7282," сурамжыл":7283," көрсөтүүгө":7284," чарасын":7285," сыйлык":7286,"Евробирим":7287," чемпиону":7288," идея":7289," кино":7290," ыңгайлуу":7291," V":7292,"ылай":7293,"гый":7294,"ымыр":7295," жагы":7296,"уштуу":7297," түзүүгө":7298," төраг":7299," көтөрүлдү":7300," жеңишке":7301,"Айма":7302," жарыялан":7303," айтылгандай":7304," батыш":7305," отчет":7306," калтырган":7307," Максат":7308," платф":7309," топтордун":7310," кризис":7311," кызматташуу":7312," Каракол":7313,"-Й":7314,"42":7315,"Тышкы":7316," тү":7317," алда":7318,"укбек":7319," бирден":7320," Жар":7321," шаардагы":7322," зон":7323," реалдуу":7324," Шавкат":7325," убакты":7326," өзгөрүү":7327," тапшырып":7328," прокуратурага":7329," жоопкерчиликти":7330," талапкерлигин":7331," кесиптик":7332," тандап":7333," Австр":7334,"ранспорт":7335,"-ка":7336,"Ку":7337,"албаган":7338,"еки":7339,"канын":7340," калкы":7341,"чыларга":7342," жайылып":7343," жөнөткөн":7344," бериле":7345," аныктаган":7346," көзөмөлдөп":7347," жактыр":7348," дарыланып":7349," талапкерлердин":7350," көчөгө":7351," белгилегендей":7352," инвестициялык":7353," Цзин":7354," архив":7355," февраль":7356," лицензия":7357,"Атамбаев":7358,"Кер":7359,"ульт":7360,"өргө":7361," турса":7362," ник":7363,"ечен":7364," сатылып":7365," комисс":7366," келишимди":7367," таанымал":7368," согуштан":7369," суроолорго":7370," жакшыртуу":7371," ченем":7372,"Төрт":7373,"чык":7374,"иллер":7375," чур":7376," аларын":7377," бардыгын":7378," уюмга":7379," айтканы":7380," тилдүү":7381," алдыда":7382," долларлык":7383," аткарган":7384," дайында":7385," тизмеси":7386," кошумчалаган":7387," автом":7388," автобус":7389," мүлктү":7390,"пөгөн":7391," эж":7392," жаатындагы":7393," кое":7394," Су":7395," жүрүм":7396," кимдер":7397," иликтен":7398," диалог":7399," койгонун":7400," Нурсултан":7401," жумушсуз":7402," декларация":7403," рубль":7404," кепилдик":7405,"-орун":7406,"43":7407,"лерди":7408,"сунун":7409,"Өн":7410," тун":7411," алсак":7412,"стандык":7413," келб":7414,"алганын":7415," мыйзамдарды":7416," чечүүгө":7417," Дин":7418," кызматта":7419," бузуулар":7420," суук":7421," аймактарга":7422," тапшырм":7423," бекер":7424," жеңилдет":7425," отуз":7426," кызыкчылыгы":7427," медал":7428," министрликтин":7429," Y":7430,"Маркум":7431,"Шайл":7432,"гип":7433,"ормат":7434,"дыгында":7435,"абаган":7436," косм":7437," даана":7438,"усунан":7439,"аарын":7440," абро":7441," жарандарынын":7442," Равшан":7443," өткөрүүнү":7444," сомдук":7445," адилет":7446," түнд":7447," жанындагы":7448," окуучулар":7449," бүтүн":7450," керектөө":7451,"үбү":7452," ыктым":7453,"ханов":7454," сайты":7455," жетекчисинин":7456," болбогонун":7457,"Кечээ":7458,"im":7459,"Өмүр":7460," калууда":7461," Ата":7462,"ейц":7463," барууга":7464," фран":7465," балам":7466," жайына":7467," колдоосу":7468," мигранттарды":7469," которгон":7470," спортчу":7471," Абдулла":7472,"Журналисттер":7473," тейлөө":7474,"етербург":7475," механизм":7476," X":7477,".)":7478,"Вт":7479,"жай":7480,"назаров":7481,"рим":7482,"ктешт":7483," камалып":7484," Орусияны":7485," жашоого":7486," талкууланып":7487," коопсуздукту":7488," чыңалуу":7489,"ters":7490," буудай":7491," төрайымы":7492," көмөктөш":7493,"Парт":7494," күл":7495," шаарын":7496," кошулуп":7497,"дрей":7498,"ээрим":7499," курчуп":7500," Канат":7501," талдоочу":7502,"Прокур":7503,"\"М":7504,"\"Кыргыз":7505,"па":7506," ча":7507," Комп":7508," дуу":7509," шам":7510," маек":7511," баруу":7512,"ектр":7513," өздөрүн":7514," калбай":7515,"Алматы":7516,"ишкенин":7517," Наз":7518," жакындарына":7519," эркектер":7520," финалда":7521," биргелешип":7522," арбын":7523,"Кабар":7524,"грес":7525,"рас":7526,"сф":7527,"стык":7528," алк":7529,"абуул":7530," дос":7531," Билим":7532,"отек":7533," кабылганын":7534,"асыңар":7535," өткөнүн":7536," ошонун":7537,"бызда":7538," сотуна":7539," кеткенден":7540," Азим":7541,"үүлөрдүн":7542," демек":7543," көзөмөлдөгөн":7544,"олгону":7545," козгогон":7546," которулган":7547," сокк":7548,"ыңыз":7549," кримин":7550," администрациясынын":7551," агрессия":7552," сөздөрдү":7553," Союз":7554," Евробиримдиктин":7555," Азербайжандын":7556," Лукашенко":7557,"euters":7558,"-Йор":7559," үнү":7560,"Жаз":7561," КМ":7562," бирим":7563,"ита":7564,"умду":7565," саатка":7566," жумур":7567," кыйынчылыктар":7568," эскертип":7569," макулдашуу":7570," Мирлан":7571," жумада":7572," булактарына":7573,"Ба":7574,"ров":7575," ке":7576," жигер":7577,"атов":7578,"ыккан":7579," элчи":7580,"үмдү":7581,"ашуу":7582," анык":7583,"Азербайжан":7584," ырайым":7585,"Президенттик":7586," камсыздан":7587," Европадагы":7588," техника":7589," пайдалуу":7590," айланасында":7591," материалдар":7592,"Интерн":7593,"үктөрдү":7594," жолдорун":7595," куугунтукт":7596,"очкор":7597," профессор":7598," душман":7599,"-ук":7600,"Трамп":7601,"игый":7602," болушту":7603," Бан":7604," өзүндө":7605," Мон":7606," Минск":7607,"ясынын":7608," андагы":7609," үйл":7610," аймагынын":7611," түшөт":7612," берүүдөн":7613," борборуна":7614," көзөмөлгө":7615," курулушт":7616,"АКШда":7617," буюр":7618," деңгээлдеги":7619," ачылып":7620,"ативдүү":7621," каражаттарынын":7622,"үңүз":7623," редакт":7624," Исаков":7625,"id":7626,"Кылм":7627," чий":7628," арасына":7629," билин":7630," ЖМК":7631,"айлы":7632," тургандай":7633,"уулукту":7634,"уштук":7635," түзүлдү":7636,"циналык":7637," бүтүп":7638," жыйынын":7639," дене":7640," кызыкчылыгын":7641," коркутуп":7642,"ежеп":7643," топтоп":7644,"-айкын":7645,"95":7646,"Иликт":7647,"алит":7648," ман":7649,"стон":7650,"дарынан":7651," Ада":7652," өзбекстан":7653,"ишим":7654,"-жайы":7655," рух":7656,"угуш":7657,"дөрдө":7658," чыгарылып":7659," байка":7660," мындайча":7661," кыдырып":7662," мекемесинин":7663," артист":7664," кызматташтыкты":7665," мугалимдер":7666," объектил":7667," Евробиримдик":7668," валюта":7669,"Опп":7670,"Актив":7671," Кубанычбек":7672," дуушар":7673,"na":7674,"Вир":7675," дер":7676," Бер":7677,"ектешт":7678," Сапар":7679," тууганы":7680,"уулугу":7681," жарандын":7682," бөлүш":7683," ушуну":7684," каражатты":7685," борбордун":7686," видеолор":7687," жыйынтыгына":7688," оңдоп":7689," вирустун":7690," күйүп":7691," жөнөтүлгөн":7692," метрге":7693," экспертиза":7694,"Биринчиден":7695," акысыз":7696,"Үчүнчү":7697," сарпт":7698," жумуштан":7699," БШКнын":7700," британ":7701,"Сүй":7702,"Тажик":7703,"кыл":7704,"ымсыз":7705," жаатта":7706," барбай":7707," иштөөгө":7708," фун":7709," коюуга":7710," коронавирусту":7711,"-кар":7712," мааниси":7713,"-октябрга":7714,"алышына":7715," багытында":7716," Лукашенк":7717," мазм":7718," ынтым":7719," негиздөөчүсү":7720," дешти":7721,"дугун":7722,"аларында":7723,"иктери":7724," чектелген":7725,"-сез":7726," маселеге":7727," мигранттарга":7728," жооб":7729,"мөндөр":7730," күбөлөр":7731," режими":7732," каптаган":7733," анклав":7734,"\"\n":7735,"800":7736,"кил":7737,"чун":7738,"интип":7739," айтыш":7740," жаткандар":7741," белар":7742," чечкен":7743," тарапк":7744," тыян":7745,"-эки":7746," курамы":7747," курамына":7748,"Кийинки":7749," өлтүрүлгөн":7750," түрмөдө":7751,"67":7752,"фон":7753," мер":7754,"аков":7755," Бар":7756," үчөө":7757," Свердлов":7758," рейт":7759," жазага":7760," фрон":7761," англис":7762,"есиң":7763," кабылды":7764," чечимге":7765," койбо":7766," бузулган":7767," саламатты":7768," суроосуна":7769," академ":7770," дарыгерлердин":7771," кенемте":7772,"Дон":7773,"Кылмыш":7774,"Кошмо":7775," жеп":7776,"ендер":7777," төк":7778," десем":7779," каралат":7780,"еттеги":7781," Сузак":7782," маалымдалды":7783,"Аль":7784," кетп":7785," азап":7786," Ира":7787," салат":7788," каг":7789," чыгарууну":7790," тополоң":7791,"үктөрү":7792," жүргүзүүгө":7793," жүргөнү":7794,"Эмгек":7795," күрөшүп":7796," бюджеттен":7797,"ахмуд":7798," учкучсуз":7799,"Ооба":7800,"Ур":7801,"ыгынын":7802," төңкөр":7803," Базар":7804," турчу":7805," билебиз":7806," Төл":7807,"матовдун":7808," көрдү":7809," тоолор":7810," министрлер":7811," окууга":7812," долбоордун":7813," чараларын":7814,"ахта":7815," билдирүүсү":7816," жыйырма":7817," чогулт":7818,"Республика":7819," Михаил":7820," ымыр":7821,"алл":7822," жек":7823," жөлөк":7824,"генин":7825,"евди":7826," ЖККУ":7827," Мари":7828," кори":7829," кириш":7830,"иктердин":7831,"үнөм":7832," Режеп":7833," тыгыз":7834,"бизди":7835,"Армен":7836," башталганын":7837," көчөдө":7838," долбоорлорду":7839,"Жолугуш":7840," начарлап":7841," Көлбаев":7842,"Вагнер":7843," интервью":7844,"Мэр":7845,"Сов":7846,"шер":7847,"индин":7848,"ттун":7849," баалап":7850,"каны":7851," БУУ":7852," Блинкен":7853," кылганы":7854,"Булар":7855," салтан":7856," жайда":7857," чечм":7858," жабылган":7859," табуу":7860," Запорож":7861," арыздан":7862," тигил":7863," банкы":7864,"Мадан":7865," таасирдүү":7866," украиналык":7867," Элдик":7868," калыптыр":7869," коркунучтуу":7870,"Түркия":7871," көрсөткүчтөр":7872," курмандыктар":7873,"самбл":7874," азайтуу":7875," ойноп":7876," Польш":7877,"лай":7878," кенин":7879," тиг":7880,"ылса":7881," чатыр":7882," турам":7883," Мадан":7884," маалымдалган":7885," чыгара":7886," кылмышк":7887," көрсөтөт":7888," дарыя":7889,"сулуу":7890," кыйноого":7891,"өбө":7892," айлана":7893," Бакиевдин":7894,"Коомдук":7895," моюнга":7896," фактысы":7897," татыктуу":7898,"130":7899,"лүк":7900," фестив":7901," эсеби":7902," кыргыздардын":7903," түрүндө":7904," окуянын":7905," мурдагыдай":7906," колдонул":7907," Лейлек":7908,"Орусиялык":7909," катыша":7910," айыптоо":7911,"опул":7912," аянты":7913," экономикасы":7914," күбөл":7915," кыйналып":7916," каржылоо":7917," алмашуу":7918," жаныбар":7919," этникалык":7920," көпүрө":7921,"өңгүл":7922,"\"Биз":7923,"re":7924,"Темир":7925,"Фейсб":7926,"дал":7927,"зы":7928," жоб":7929,"ктап":7930,"ылда":7931," чок":7932," жатышты":7933," шаш":7934," Жер":7935," Жун":7936," жайдын":7937," негизделген":7938," кыргызча":7939," санкциялар":7940," ортодо":7941," кесепетинен":7942," октябр":7943,"Кайсы":7944," Тергөө":7945," эместигин":7946," тамактан":7947," программа":7948," ыктымалды":7949,"Кый":7950,"гиндеги":7951,"пест":7952,"түрүү":7953,"ганда":7954,"ымда":7955," шери":7956," кайн":7957,"оман":7958," талан":7959," белгилешет":7960,"ыштар":7961," оорунун":7962," тармагын":7963," спектак":7964," изилдеп":7965," шектелип":7966," өнөктөш":7967," бюджетке":7968," акысы":7969,"ing":7970," мейкин":7971," акими":7972," рыног":7973," схем":7974," Мамытов":7975,"us":7976,"Гүл":7977,"бил":7978,"дес":7979,"орация":7980," даң":7981," драм":7982,"Алды":7983,"дерде":7984,"-бөл":7985," кошуун":7986," ыргы":7987," Кытайда":7988," аймактарды":7989," Жакынкы":7990," кезексиз":7991," симв":7992," жергесинде":7993," моралдык":7994," ипотек":7995,"Обл":7996,"СР":7997,"атыш":7998,"орус":7999,"өлү":8000,"евич":8001," Меди":8002," өлтүрүү":8003," жүрөк":8004,"Кыргызстандык":8005,"енттик":8006," жасалып":8007," кезегинде":8008,"рель":8009,"депут":8010," президенттикке":8011," органдардын":8012," Мамбет":8013," макулдашууга":8014,"Ирандын":8015,"конг":8016," ижарага":8017,"62":8018,"le":8019,"Зеленский":8020,"Сур":8021,"пиде":8022,"түп":8023,"ынган":8024,"ейк":8025," дегендер":8026,"өөдө":8027," шайлоолор":8028,"оса":8029," Президен":8030," сатууга":8031," Херсон":8032,"-Башы":8033," колдоду":8034," шарты":8035," автору":8036," сөөгүн":8037," аныкталганын":8038," Үсөн":8039," билбейм":8040," кичинекей":8041," сутка":8042,".А":8043,"иж":8044,"сыл":8045,"орв":8046," алдыр":8047,"елек":8048," болсок":8049," нарк":8050,"спект":8051," жасоо":8052," Украинаны":8053," санап":8054," отургуз":8055," журналисттик":8056," сунушталган":8057," тапшырма":8058," ажыратылган":8059," тайп":8060," беттешт":8061," сереп":8062," саламаттыкты":8063," Тегеран":8064,"Балдар":8065,"еда":8066,"күл":8067,"лян":8068,"ни":8069," жайл":8070," Тыны":8071," Тилек":8072," Мел":8073," рейд":8074,"омали":8075,"егор":8076," тартыш":8077,"-мартка":8078," районуна":8079," коомго":8080," кыргыздын":8081,"идео":8082," жабылып":8083," өзгөрүп":8084," козут":8085," жабырлан":8086," үстүндө":8087,"Коронавируска":8088," Харьков":8089," канааттандыр":8090," мейманкан":8091," күткөн":8092," бөлүштүр":8093," Маданият":8094,"BC":8095,"пол":8096," теб":8097," алы":8098," Бул":8099," Сок":8100,"омдук":8101," азгыр":8102," үйү":8103,"алыктар":8104," киргизилип":8105,"-ток":8106," Улукбек":8107," Зулуш":8108," абалынан":8109," эркиндикке":8110," далай":8111," уурд":8112," талкууланды":8113," ырастаган":8114," аяктап":8115," таңкы":8116," токтоткон":8117," тартиби":8118," эпидемиологиялык":8119," E":8120,"Бар":8121,"Мында":8122,"нов":8123,"пар":8124,"синде":8125,"цуз":8126,"дыгына":8127,"-жарт":8128," жолдун":8129,"игит":8130," мекемеси":8131,"еренция":8132," оңдоо":8133," акчанын":8134,"Кийинчерээк":8135," импортт":8136," өзүбүздүн":8137," эркиндигине":8138,"Адистер":8139," ачкачылык":8140,"уганск":8141," КМШ":8142,"-жартылай":8143,"-бай":8144,"61":8145,"пой":8146,"чук":8147," мээ":8148,"стын":8149,"амак":8150,"ттери":8151,"өлтүр":8152," турушу":8153,"каз":8154," кылышы":8155," калп":8156," комен":8157," учуру":8158,"иевдин":8159," Шарш":8160,"үркүр":8161," түшүндүргөн":8162," жарыяланып":8163," коопсуздугуна":8164," авторитардык":8165," куур":8166," түркмөн":8167," калкынын":8168," жүрүшөт":8169," келечекте":8170," окумуштуулар":8171,"-ш":8172,"айдын":8173," сыз":8174," айтууга":8175," ичип":8176," айылына":8177," алдыдагы":8178," бузулуп":8179," кайтыш":8180," Европанын":8181," жоопкерчиликке":8182," өзгөртүп":8183," өзгөртүүлөрдү":8184,"Бийик":8185," жерлеринде":8186," жугуштуу":8187," Армениянын":8188," Чыгышт":8189," резолюция":8190," евро":8191," өнүккөн":8192," ың":8193,"Жет":8194,"Тарых":8195,"кун":8196," куп":8197," ме":8198,"ыларды":8199,"гыш":8200," бос":8201,"ометр":8202," окурман":8203," Пашинян":8204," топко":8205," таба":8206," байма":8207," аралашып":8208," бөлүмүнө":8209," энергиясы":8210," Андрей":8211," өзгөртүүлөр":8212," сөөкт":8213," өнүгүп":8214," нерселер":8215," ысык":8216," көргөзмө":8217," баалады":8218," Сайма":8219," Абылгазиев":8220,"59":8221,"ерк":8222," билем":8223," Ус":8224," даярдан":8225," сунуштап":8226," көбөйтүү":8227," түшүндүрүп":8228," тургундардын":8229,"-июлга":8230," вирусту":8231," бөлүмүндө":8232," орусиялыктар":8233," мунап":8234," маселелерин":8235," окумуштуу":8236," Венгр":8237,"63":8238,"Сал":8239,"гери":8240,"онконг":8241,"ттук":8242," аркы":8243," карашы":8244," дүйшөмбү":8245," шылт":8246," туруштук":8247," тариф":8248,"еграция":8249," Кыргызстанды":8250," күчт":8251," токтогон":8252,"Өзбекстанда":8253," узун":8254," оорудан":8255,"Түркмөнстан":8256," финансы":8257," милдеттенм":8258," кыянаттык":8259,"Сир":8260," болушкан":8261," ою":8262,"име":8263," келер":8264," бомб":8265," күнүмдүк":8266," акыйкат":8267,"иктор":8268," камактагы":8269," толуп":8270," жакыны":8271," Казакстандагы":8272," этност":8273," илимдеринин":8274," тактаган":8275,"аторлор":8276," бетер":8277,"Карм":8278," баратканын":8279," түрмөгө":8280," психологиялык":8281,"иторинг":8282,"Из":8283,"Коопсуздук":8284,"вили":8285," тет":8286," деб":8287," карайт":8288," бирөөлөр":8289," туристтер":8290,"еттерин":8291," кабатыр":8292," команд":8293," Пригожин":8294," чакырылган":8295," чыкканда":8296," АКШга":8297," кырдаалда":8298," миграциялык":8299," милдети":8300," кармалганы":8301," илимпоз":8302,"кулова":8303,"-Көлдө":8304," которуп":8305," эскерүү":8306," акчасы":8307," учурларда":8308," Донецк":8309," алмаштыруу":8310," үлгүсүндөгү":8311," ИИМдин":8312," уйгур":8313," намаз":8314,"Ошто":8315," аттан":8316,"мыр":8317," манас":8318," чалды":8319,"ырап":8320," айлам":8321,"үлүшү":8322,"үгүл":8323," өтүүдө":8324," жардамга":8325," партиясынан":8326," келишимдин":8327," милициясы":8328," коркуп":8329," беки":8330," дарылоо":8331," Юстиция":8332," карантинге":8333," соолугуна":8334," Штаттардын":8335," демонстрация":8336," ашкер":8337," фирм":8338," Адахан":8339,"ty":8340,"Премьер":8341," чег":8342," Ком":8343," упай":8344," тура":8345,"емин":8346," жердин":8347,"ыштыгы":8348,"иссия":8349," аскери":8350," аскерлердин":8351," чакырыктар":8352," тилке":8353," уруш":8354," жаштан":8355," жабуу":8356," майнап":8357," ээн":8358," тийип":8359,"Айрыкча":8360,"-июнга":8361," Нурбек":8362," аракеттерди":8363," ишканалар":8364," жаратылыш":8365," тилкесинде":8366," Турсун":8367," тажрыйбасы":8368,"ографиялык":8369,"абеков":8370,"Уюмдун":8371,"-Петербург":8372,"Коррупция":8373," Данияр":8374," жигердүү":8375," ымыркай":8376,"\"Бул":8377,"ci":8378,"ub":8379,"куп":8380,"енти":8381," чыгарылды":8382," конуш":8383," кечки":8384," бүтүндөй":8385," бурм":8386," тармактарга":8387," эрежелерин":8388," курамында":8389," буйругу":8390," Сириянын":8391," тоскоолду":8392," позициясын":8393," акыры":8394," бекитилген":8395," жүгүртүү":8396," нааразылыгын":8397," европ":8398," адилеттүү":8399," Астана":8400,"СДП":8401,"көй":8402," теп":8403,"олдин":8404," суг":8405," турмушт":8406," өлкөл":8407," баскыч":8408," жайларга":8409,"дорун":8410," көрсөтө":8411," аялдын":8412,"ингде":8413," келишими":8414,"-августка":8415," таштанды":8416," отч":8417," көлөмүн":8418," тайма":8419," аэропортт":8420,"Парламент":8421,"уура":8422," Аж":8423,"бады":8424," табылып":8425," компаниялардын":8426," Фейсб":8427," Тажикстанга":8428," күчөтүү":8429," келечеги":8430,"Ошентсе":8431,"айком":8432,"Израилдин":8433," сентябрда":8434," академиясынын":8435,"-казак":8436," O":8437,"Бу":8438,"берг":8439,"итке":8440,"төбөл":8441," мик":8442,"ори":8443,"ета":8444," айр":8445," Бур":8446," өлүп":8447," маалыматтык":8448," жүрүү":8449," үйүнүн":8450,"үктөрүн":8451," көбүн":8452," табигый":8453," саясатка":8454," кимдир":8455," жүргөндө":8456,"140":8457," жагдайды":8458," хим":8459," Анкара":8460," документти":8461," элчилигинин":8462," жобо":8463," тынчсыздануусун":8464," алектенген":8465," Жапония":8466," өстүр":8467," Таалайбек":8468,"лооп":8469," кыш":8470,"окко":8471,"бактылуу":8472," атышат":8473," балалуу":8474," чечимдер":8475," журналисттин":8476," ээлик":8477," күчтөрүн":8478," акциясы":8479," бүтүрүү":8480," Европага":8481," жеткирип":8482," фактылар":8483," деңгээлге":8484," уулан":8485,"Маалыматта":8486," талкуулап":8487," Эмир":8488," кыргызстандыктардын":8489," ажыратуу":8490," козгоп":8491," түшкөнүн":8492," офиц":8493," ынан":8494,"нтым":8495,"эм":8496," кас":8497,"анат":8498," жыр":8499,"олон":8500," альян":8501," калың":8502," экендиги":8503,"терин":8504,"иби":8505," жасай":8506," алдым":8507," компаниясына":8508," кайткан":8509," козголоң":8510," эрежелер":8511," өлтүрүүгө":8512," үйлөрдүн":8513," атаандаш":8514," турмушка":8515,"Байден":8516," текст":8517,"Согуш":8518," губернатору":8519," заводун":8520," Запорожье":8521,"110":8522,"Реф":8523,"мыйзам":8524,"цтар":8525," чөп":8526,"елик":8527,"өрман":8528," оч":8529," попул":8530," Махмуд":8531," ишкерлердин":8532," өлкөлөрүндө":8533," катышууга":8534," катышууда":8535," жоголгон":8536,"Украинадагы":8537," Тажикстанда":8538," мүмкүнчүлүгүн":8539," көчкү":8540," топтолгон":8541,"Орто":8542,"дүүлүк":8543," атышууну":8544," ресурстары":8545," ыраазычылык":8546," корутунд":8547,"/Азаттык":8548,"78":8549,"ht":8550,"дөшт":8551," бергиле":8552," небер":8553," Син":8554," кылыш":8555,"ота":8556,"чыларды":8557," түзүүнү":8558," ылайыкт":8559," байыркы":8560," сунуштар":8561," мамилени":8562," продук":8563," кылмыштарга":8564," Ооганстанда":8565," обсерв":8566," Байдендин":8567," телеканал":8568," эгерде":8569," Асанов":8570,"Башында":8571,"калый":8572," Ошто":8573,"креттүү":8574," Советтер":8575," немис":8576," Бекешев":8577,"\"Ж":8578,"ерсия":8579," сул":8580,"ылыч":8581,"сторан":8582,"оода":8583," Каныбек":8584,"үлөрүн":8585,"баштык":8586,"уму":8587," көрдүк":8588," сах":8589," кура":8590," кетишин":8591,"аштар":8592," жалдан":8593," берилерин":8594," Чоң":8595," орунга":8596,"аңыз":8597," кимдин":8598," электигин":8599," салынып":8600," которуу":8601," артиллер":8602," экономиканы":8603," кулап":8604," Макрон":8605," өкүмү":8606," Аскаров":8607,"дүктөн":8608,"-класст":8609," Өзгөн":8610,"Эксперттер":8611,"гл":8612,"пө":8613," сүт":8614,"өнт":8615," Кап":8616," Тайып":8617," категор":8618," Манас":8619," жерине":8620,"чылыгын":8621," Им":8622," сөздү":8623," Жапаровду":8624," сынак":8625," сапаты":8626," төртүнчү":8627," жүзөгө":8628," акциялар":8629," ташуу":8630," киргенден":8631," кишилердин":8632,"акунов":8633," ашыгы":8634," атт":8635,"-ар":8636,"дияда":8637," журнал":8638," жерлерди":8639," Кы":8640,"абаев":8641," берем":8642," Бажы":8643,"ткыч":8644," билбеген":8645," ролу":8646," мамлекетте":8647," чечкин":8648," эсептешет":8649," уланта":8650," баарыбыз":8651," таануучу":8652,"оза":8653," бөлүмү":8654," крим":8655,"ейшемби":8656," шарттар":8657," айдоочулар":8658,"-депут":8659,"76":8660,"тоо":8661," төш":8662,"штар":8663," артт":8664," элине":8665," жатабы":8666,"уска":8667," кылса":8668," Рыск":8669," коомунун":8670," алынганы":8671,"ести":8672," чарчы":8673," тармакта":8674," токтотулган":8675," бүтүм":8676,"Экономика":8677," машина":8678," товарларды":8679," көрсөткүчү":8680," планын":8681," сүрөттөр":8682," чамасында":8683,"Адвокат":8684,"Бол":8685,"Бала":8686,"Ти":8687,"матт":8688," кок":8689,"дак":8690," оюм":8691," Кат":8692,"стандын":8693,"динов":8694,"аганда":8695,"-жар":8696," кайды":8697," форма":8698,"террор":8699," зап":8700," талаптарды":8701,"Кыргызстанга":8702," чакырык":8703,"цид":8704," өткөнү":8705,"-апрелдеги":8706," жетекчилер":8707," ишкананын":8708," жолугушуусу":8709," жарымы":8710," хан":8711," жою":8712,"алпак":8713," мэриясы":8714," айдоочу":8715," катышуучулары":8716," судьясы":8717," ниетин":8718," Айтматов":8719," титирөө":8720," Сыдыков":8721," жарлыкка":8722," революция":8723,"-то":8724,"Же":8725,"Жый":8726,"Жапон":8727,"Кнын":8728,"зе":8729,"яд":8730,"ерим":8731," суб":8732,"иясына":8733,"ымын":8734," иште":8735," жаткандай":8736,"угунун":8737," версия":8738," эсеге":8739," толгон":8740," болбошу":8741,"180":8742," бойлуу":8743," коёт":8744," коркутуу":8745,"-ноябрга":8746," резерв":8747," күтүүсүз":8748,"\"Д":8749,"79":8750,"il":8751,"шайком":8752,"алия":8753,"енс":8754," тиз":8755,"асык":8756,"ука":8757," кызыкт":8758," кызыктуу":8759," өздөшт":8760," атай":8761," кийинчерээк":8762,"езд":8763," иниси":8764," компью":8765,"ойгон":8766," доллардын":8767," койгону":8768,"-декабрга":8769," жаратат":8770,"-чаралар":8771,"разил":8772," Алиев":8773," төгүндө":8774," номур":8775,"54":8776,"Жээн":8777,"Мир":8778,"Суу":8779,"далат":8780,"нара":8781," каж":8782," бен":8783," түб":8784," чындап":8785,"амед":8786," ого":8787," бербеген":8788," келүүгө":8789," Мус":8790,"алыкчы":8791," көрөт":8792," акцион":8793," жазылат":8794," окут":8795," бөлүгүндө":8796," Эсен":8797,"актап":8798," миллиондой":8799," колдонулуп":8800," абактагы":8801," жетекчилик":8802," демилгел":8803," мезгилинде":8804," иштетип":8805," иретинде":8806," тартипте":8807," мониторинг":8808," жүгүрт":8809," проп":8810," арасы":8811," маарак":8812,"отоло":8813," үйдү":8814," жайларды":8815," жайлардын":8816,"ацияга":8817,"аграм":8818," Айдар":8819," пландалган":8820," кызматкерлерин":8821," Конституциянын":8822," Донб":8823," Кубатбек":8824," беларус":8825,"52":8826,"as":8827,"ik":8828,"Вашингтон":8829,"Ую":8830,"аркан":8831," айдап":8832," болдук":8833,"раак":8834," Мах":8835," азем":8836," башташты":8837," сомдун":8838," конкреттүү":8839," жаштардын":8840,"-Абадда":8841," күрөшү":8842," өкмөттөр":8843,"болот":8844," пайдаланууга":8845," мүчөлөрүнүн":8846,"Кызмат":8847," имараттар":8848," Биримдигинин":8849,"-сентябрга":8850," күнөөсү":8851," Африка":8852,"Башк":8853,"хак":8854," сессия":8855,"дың":8856," Мыр":8857," Меде":8858," жаткандыктан":8859," Иск":8860," айткандай":8861," киргизүүнү":8862," баштаганда":8863,"Элдин":8864,"Украинада":8865," акциясына":8866," учактар":8867," бюджеттин":8868," Франциянын":8869,"Эмнеге":8870," совет":8871," аппараттын":8872," ноябрда":8873," коргогон":8874," чирк":8875," дө":8876,"Бас":8877,"гим":8878,"кам":8879,"лердин":8880,"нвар":8881,"ристтер":8882,"иясында":8883," чегин":8884," чинов":8885," фак":8886," эмеспиз":8887," иштеринин":8888," алынышы":8889," Вал":8890," Лит":8891," тынымсыз":8892," ойлогон":8893," өндүрүлгөн":8894," жагдайда":8895," полициянын":8896," адистери":8897," машыгуу":8898," тазалоо":8899," ишкерлерге":8900," Борис":8901," архитект":8902,"ыскы":8903,"Күндүз":8904," Шве":8905," News":8906,"ау":8907,"енция":8908,"ератив":8909," силер":8910,"ылма":8911," пады":8912," жатыш":8913," шыл":8914," абзел":8915,"ылдыз":8916," өлкөлөрүнө":8917," апа":8918," соттор":8919," көтөрүү":8920," милициясынын":8921," гези":8922," кыймылсыз":8923," сындады":8924," Эмомали":8925," отурумунда":8926," мекемелердин":8927," жоготуп":8928," убакыттан":8929," атышуу":8930," НАТОнун":8931," ишмердигин":8932," Навальныйдын":8933," Кремлдин":8934," көздөйт":8935," тинтүү":8936," бриф":8937,"\"О":8938,"64":8939,"Бил":8940,"Мени":8941,"Сен":8942,"гүр":8943,"сом":8944,"Өр":8945," түт":8946," сууну":8947," айтк":8948,"иков":8949," келдим":8950,"лара":8951," үчтөн":8952," Жети":8953," кайрым":8954,"ялары":8955," аскерге":8956," партиялык":8957," тилектешт":8958," төлөй":8959,"опол":8960," пландап":8961,"Маалымат":8962," ашырууга":8963," отстав":8964," программасынын":8965," каражаттарын":8966," укуктарынын":8967," бербөө":8968," кооз":8969," баяндама":8970," өзбекстандык":8971,"Болгону":8972,"Сер":8973,"рун":8974,"янын":8975," тык":8976," түтүн":8977," баалан":8978," биротоло":8979," кыздардын":8980," көрбөй":8981," талабын":8982,"ашына":8983,"Биримдик":8984," камап":8985,"чүлөрү":8986," дедим":8987," жабдыктар":8988," Казакстандан":8989," агасы":8990," Кеңештеги":8991,"Акылбек":8992,"чалай":8993," ооруган":8994," өлтүрүп":8995," НАТОго":8996,"цтарма":8997,"ТИМ":8998,"Твиттер":8999,"ӨКМ":9000," тук":9001,"ирээк":9002,"ордой":9003," алсыз":9004,"ттерди":9005," жагым":9006," берчү":9007,"өлүү":9008,"евге":9009,"ред":9010," булар":9011," көрдүм":9012," колдуу":9013,"өөчү":9014," учурга":9015," балага":9016,"тердин":9017," ушуга":9018," ачууга":9019," уюмдарга":9020," Алим":9021," келишпест":9022," израил":9023,"олорго":9024,"-Ар":9025," аткарууга":9026,"-чакыр":9027," көңүлүн":9028," геоса":9029," жоопкерчилигине":9030," Байсал":9031," Конституцияга":9032,"идерл":9033,"Москвада":9034," демилгесин":9035," соолугу":9036," доомат":9037,"Парламенттин":9038," өнөктөштөр":9039," арзанда":9040," палатасынын":9041,"Дарыгерлер":9042," ойногон":9043," бүткүл":9044," платформ":9045," убактысы":9046,"Бек":9047,"Жог":9048,"Эгемен":9049,"хоз":9050," тор":9051," марш":9052," алдам":9053," Ап":9054,"скус":9055,"гөнү":9056," Мен":9057," кайдан":9058," көрүст":9059," кургак":9060," шаарга":9061," Виктор":9062," убад":9063,"ноз":9064," көтөрдү":9065," тынчт":9066," буруп":9067," документтери":9068," эрежелерди":9069,"Түркияда":9070," каражаттарына":9071," көптөн":9072," октябрда":9073,"-өзү":9074," Алымкадыр":9075," масштабдуу":9076,"Мигрантт":9077,"Маданият":9078,"Бор":9079,"Чыгы":9080,"дул":9081,"уля":9082," өбөл":9083,"ттарды":9084," Кочкор":9085,"огол":9086," элест":9087," калем":9088," жолукту":9089," мамлекеттен":9090," бөлүштү":9091," байланыштыр":9092," ураан":9093," табыш":9094,"дикте":9095," көзөмөлүндө":9096," багып":9097," парламенттеги":9098," документтерин":9099," Абдул":9100," экономиканын":9101,"Кызыл":9102,"-бирин":9103," тийгизген":9104," филь":9105,"айырбек":9106," коңшул":9107,"мба":9108,"ху":9109," чакта":9110,"усунун":9111,"раагы":9112,"доону":9113," жолугу":9114," шайланып":9115," аймагын":9116," Пр":9117," кошун":9118," Ел":9119,"ологдор":9120," араң":9121," эсептеп":9122," иммун":9123," жолугушту":9124," Азияда":9125," ишенип":9126," экинчиси":9127," класс":9128," Конгрес":9129," белгиленет":9130," коррупцияны":9131," жапон":9132," далилдер":9133," чыгышындагы":9134," орнотуу":9135," чектөөлөрдү":9136," күзүндө":9137," Дүйнө":9138," куткаруу":9139," климаттын":9140," барымтага":9141,"адамжай":9142,"Кудай":9143," Мариуп":9144,"Күй":9145,"тр":9146," күркүр":9147,"она":9148," өй":9149," жатышкан":9150," Марип":9151," жолдору":9152," жазышты":9153," мамлекеттерге":9154," айтканын":9155," берүүчү":9156," дарегине":9157," Евген":9158," журналисти":9159," катышуучулар":9160," төлө":9161,"-чат":9162," уланат":9163," аракеттерге":9164," козголду":9165," Ооганстандан":9166," казын":9167," аяктады":9168,"аспор":9169," администрациянын":9170," Tim":9171," телеканалы":9172," минтип":9173,"аштыруу":9174," кеңсеси":9175," корпорация":9176," талаптарын":9177," реестрине":9178,"бара":9179,"лоого":9180,"лерин":9181,"ене":9182," чөнт":9183,"ттым":9184," Бект":9185," жолдон":9186," кетүүнү":9187,"Азия":9188,"баевди":9189," Песк":9190," Чех":9191," журналисттерди":9192," сунушталды":9193," ишенем":9194," бошотууга":9195," шарттары":9196," болушунча":9197," кирешеси":9198," процесс":9199," эсепке":9200,"Беларус":9201,"69":9202,"мар":9203,"мос":9204,"уй":9205,"үдүн":9206," жору":9207,"енд":9208,"ино":9209," мү":9210,"үнөт":9211,"гада":9212,"уксуз":9213," туруш":9214," Мат":9215," башчыларынын":9216," ансыз":9217,"баеванын":9218," чыккын":9219," Гор":9220," чекит":9221," жасоого":9222," сатылган":9223," даярдалган":9224," катышуусу":9225," сапарга":9226," таанышып":9227," бошотууну":9228," сабактар":9229," багыттагы":9230,"УКМКнын":9231," радио":9232,"-чарага":9233,"ибиздин":9234," ырастап":9235," Израилге":9236," жетишпей":9237," улантууда":9238," сентябрь":9239," валют":9240,"юссел":9241," келерки":9242," айламп":9243,"-Кыргызстан":9244,"ak":9245,"Массалык":9246,"поо":9247,"ыгынан":9248," кышт":9249,"оргон":9250,"гыч":9251,"стаграм":9252," баам":9253," элден":9254," дон":9255," айтса":9256," атомдук":9257," Жоро":9258," күчөдү":9259," уран":9260," орунду":9261,"Элдик":9262," ишендир":9263," эркект":9264," кадамга":9265," үйлөрдү":9266," оорукананын":9267," товарлардын":9268," токтотту":9269," өтүнүчүн":9270," лагерлер":9271," аянтында":9272," августта":9273," Назарбаевдин":9274," эпидемия":9275,"Жыйынты":9276," эсептейм":9277," Алтынбек":9278," сектор":9279," командир":9280," бышыкт":9281," Ноокат":9282," спектакл":9283,"-сат":9284,"ЕАЭБ":9285,"арка":9286," жеген":9287,"ирург":9288," адегенде":9289,"раган":9290," барганын":9291," жүрүүдө":9292,"чылыктын":9293,"езбол":9294," зат":9295," өлкөбүз":9296," илгер":9297,"сад":9298," шайлоочулар":9299,"ибир":9300," тергел":9301," жүргүнчү":9302," токтотууну":9303," эркиндик":9304," жөнөтүп":9305,"мокр":9306," сырткы":9307," калтырып":9308," үлгүр":9309,"Мурдараак":9310," Сириядагы":9311," чемпионатында":9312,"Кайра":9313," саламаттыгы":9314," жарлыгы":9315," өпкө":9316," Максим":9317," факульт":9318,"скусств":9319," өбөлгө":9320,"Жекш":9321,"эй":9322," алчу":9323,"отен":9324,"Алай":9325," мамлекетти":9326,"спания":9327," таппай":9328," айыппул":9329," башкарууга":9330,"диктерди":9331," документке":9332," бошотулду":9333," илдетке":9334,"-чараларды":9335," тажикстандык":9336," телефондон":9337," уурдап":9338," Боронов":9339,"Конституциялык":9340," талибдердин":9341,"-марттагы":9342," Ташкент":9343,"Мектеп":9344,"is":9345,"Фото":9346,"кий":9347," жыны":9348,"атификация":9349,"ерде":9350," айы":9351," айырма":9352," багын":9353," жаабайт":9354," шаарларда":9355," сала":9356,"Ошого":9357,"ушта":9358," ушун":9359,"арова":9360,"октор":9361," жабылды":9362,"Орусиядагы":9363," каражаты":9364," Батыштын":9365,"аласта":9366,"-январга":9367," жоопкерчилигин":9368," Мамат":9369," кылынган":9370," макамын":9371," кылымдын":9372,"итте":9373," Санкт":9374," интеграция":9375," Оштогу":9376," Молдок":9377," схема":9378," маңзат":9379," жогорулатуу":9380,"ысы":9381,"ена":9382,"атсыз":9383,"детүү":9384,"амүдүн":9385," айтыла":9386,"азан":9387,"-жылдардын":9388," киришкен":9389," салттуу":9390," аскерлерди":9391," Егип":9392," киргизди":9393," борборун":9394," кабарчы":9395," кабарлан":9396," орток":9397," Аксы":9398," диаг":9399," Айн":9400," чынында":9401," илдеттен":9402,"өгүн":9403," шарттарды":9404," Сирия":9405," мектептерде":9406," үндөдү":9407,"Шаардык":9408," мобилдик":9409,"Финансы":9410," кастыкты":9411," жүргүнчүлөр":9412," комендан":9413,"НАТО":9414,"лүү":9415,"лана":9416," мем":9417," алуунун":9418," ичи":9419," келдик":9420," атактуу":9421," ратификация":9422," жетүү":9423," кийип":9424," жазат":9425,"доно":9426," мыйзамы":9427,"Ошонун":9428," баласын":9429," мурас":9430," алынса":9431," депутаттын":9432," өкмөтүнө":9433," талкалан":9434," келишин":9435," иликтеген":9436," диаспор":9437," кездеш":9438," тилкеси":9439," мүлкүн":9440," кырсыгы":9441," эмгеги":9442," тартипти":9443," суммасы":9444," стацион":9445,"-демокр":9446,"Кармалган":9447," өлкөлүктөр":9448,"\"Мен":9449,"-М":9450,"-ая":9451,"Ака":9452,"Хезбол":9453,"иск":9454,"нес":9455,"сөк":9456,"тө":9457,"уда":9458,"ктер":9459,"иялыктар":9460," обо":9461," корот":9462," Иш":9463," берилбей":9464," Лав":9465,"-кон":9466," опуз":9467," кеңешине":9468," мектеб":9469," энеси":9470," алмашкан":9471," окуялардан":9472," жогоруда":9473,"заков":9474," макамы":9475," беттеш":9476," аткаминерлер":9477," эмгектенген":9478,"ынчтык":9479," көрбөгөндөй":9480," авиакомпания":9481," француз":9482," Times":9483,"Бей":9484,"Оору":9485,"Эс":9486,"лөш":9487,"хен":9488," сцен":9489," Кир":9490," Канада":9491," жатасыз":9492," айтпай":9493," айтсак":9494,"ски":9495,"еңиз":9496," башкаларга":9497," акысын":9498," баскан":9499," басаң":9500," салышкан":9501,"уулган":9502," тартууну":9503," ичине":9504," чыгарат":9505," жаранды":9506," ушинтип":9507," болдум":9508," тилине":9509," чечимдерди":9510," алардан":9511,"-талап":9512," кеңешм":9513," билимдүү":9514,"Экс":9515," Баткенде":9516," жиберип":9517," авторлор":9518," программасын":9519," бүттү":9520," ээлери":9521," нерселерди":9522," бөгөтт":9523," өнөктөштөрү":9524," импер":9525," материалдарды":9526," маданияты":9527,"Мекеним":9528," Финансы":9529," үмүттөн":9530,"Болбо":9531,"уэл":9532," карга":9533," кароого":9534," жагын":9535," өзүнөн":9536,"чулукка":9537," чыгууда":9538," мамлекеттери":9539,"орух":9540,"исин":9541," оккуп":9542,"сүң":9543," Чын":9544," төлөгөн":9545," сапатын":9546,"ехникалык":9547," керектиги":9548," жактаган":9549," учагы":9550," казына":9551,"Министрликтин":9552," жогорудагы":9553," басылмалар":9554," тиреш":9555," сексуалдык":9556," Энтони":9557,"Адатта":9558," даңаз":9559," үнөм":9560,"53":9561,"гат":9562,"етан":9563,"ыраак":9564," Кылыч":9565,"абал":9566,"станция":9567," Берл":9568," Бахм":9569," Отун":9570,"үмүн":9571," кайсыл":9572,"уулукка":9573," иштердин":9574," Экономикалык":9575,"спек":9576," уюмуна":9577," өткөрүлгөн":9578," кабарлашты":9579," инфек":9580," адвокаттары":9581," сайтындагы":9582,"Конститу":9583," моюнуна":9584," маркумдун":9585," ысымы":9586,"Оорук":9587," Жонсон":9588," Сулайманов":9589," Бактыбек":9590,"Жеке":9591,"бөө":9592,"чек":9593,"илл":9594,"илдөө":9595," искусств":9596," одоно":9597," потен":9598," уткан":9599," барганы":9600," атылган":9601," короо":9602," жазасына":9603," бийикт":9604," учурлары":9605," жаңыдан":9606," партиясын":9607," аялдарды":9608," соттон":9609," көбөйгөнүн":9610,"үшүбүз":9611," сыйм":9612,"-Көлдүн":9613," беренелери":9614," жолдомо":9615,"tional":9616," Темиров":9617," өстү":9618," жекшембиде":9619," олимпиада":9620," коридор":9621," кайдыгер":9622,"Жыйынтыгында":9623,"ace":9624,"Каб":9625,"гог":9626,"иттин":9627,"пы":9628,"тү":9629," чай":9630," Кав":9631," туристтик":9632," билбейт":9633," Мал":9634," булган":9635," сааттан":9636," жазында":9637," доллары":9638," окуй":9639," Пав":9640," жыйынына":9641," азыраак":9642," чектел":9643,"Акыйкатчы":9644,"-Синин":9645," баштаганы":9646," тапшырмасы":9647," оюндарына":9648," такталган":9649," Путинге":9650," ыкма":9651," каражаттарды":9652," өчүрүү":9653," жеткенин":9654," мүнөтт":9655," Ташиевдин":9656,"man":9657,"Баткенде":9658," мажбурлап":9659," паспортун":9660,"елля":9661," коммуникация":9662," Швейц":9663,"-жылдардагы":9664,"нтымак":9665," продукция":9666," резиден":9667,"Жабыр":9668,"бин":9669,"вет":9670,"жигит":9671,"пром":9672,"уж":9673,"чуну":9674," тра":9675,"үүл":9676," акыны":9677," кетиш":9678," талкаланган":9679," акту":9680," Федералдык":9681," көзөмөлүнө":9682," абалына":9683," мамилелер":9684," чындыкка":9685," жиберди":9686," байланышып":9687," экөөбүз":9688," убакытта":9689," эмдөөдөн":9690," ачыкт":9691," Мухаммедкалый":9692," артисти":9693,"-сезим":9694," Песков":9695,"gra":9696,"Жан":9697,"манын":9698,"ово":9699,"баз":9700," жылдагы":9701," үйүнөн":9702,"адах":9703,"ибер":9704," термин":9705," сакталган":9706," коюшу":9707," айылдык":9708," жардамчысы":9709," долбоорго":9710,"000":9711,"-майдагы":9712," мамилесин":9713," такси":9714," ишканалардын":9715," капчы":9716," калаанын":9717," тургуз":9718," мамлекеттерде":9719," жерлерге":9720," коштолгон":9721," атаандашт":9722," себептүү":9723," маалымдагандай":9724," өрттөн":9725," кишилерди":9726," клиникалык":9727,"бөлөң":9728," Төрө":9729,"-чыгыш":9730,"ight":9731," редактору":9732," кримтөбөл":9733," [":9734,"\"А":9735,"72":9736,"Доб":9737,"Дүйшөмбү":9738,"гүз":9739,"ңүз":9740,"арлык":9741," алек":9742,"аммад":9743," Бөлтүр":9744," жардыруу":9745," Сүй":9746," Салык":9747,"умын":9748," мыйзамдуул":9749," мурдараак":9750," ошент":9751," суранган":9752," кооператив":9753," терез":9754," коюшат":9755," кеңей":9756," кызматтары":9757," сыноо":9758," кырдаалдан":9759," спорттук":9760,"-июндагы":9761," оюндары":9762," жеткил":9763," калаасы":9764," сезген":9765," өзгөртүүгө":9766," максатта":9767," парламенти":9768,"ess":9769," күзөт":9770," концеп":9771," февралда":9772," жоокерлер":9773," ХАМАСтын":9774," камсыздандыруу":9775," үйлөн":9776," европалык":9777," чечкиндүү":9778,"Ый":9779,"эв":9780,"оля":9781,"гыс":9782," баарл":9783," Аида":9784," таркат":9785,"-жөнү":9786," жаткандардын":9787,"дерден":9788," шаарды":9789," Нас":9790," аймакты":9791," Рыс":9792," Да":9793," Эдил":9794," кырк":9795," окуялардын":9796,"илгени":9797,"-чөйр":9798," келтирди":9799," жүзү":9800," тапшыруу":9801," видеого":9802,"аданын":9803," Бекназаров":9804,"аанек":9805," бириктир":9806," Компани":9807," мунапыс":9808," өздөштүр":9809," чиновн":9810,".,":9811,"51":9812,"loo":9813," жур":9814," серт":9815,"стрем":9816," алыскы":9817,"шканы":9818," турарын":9819," калышкан":9820," баскын":9821," Рам":9822," ашууну":9823," ашпай":9824," төрөт":9825,"Өзбек":9826," байыр":9827," Федерация":9828,"аңгы":9829," жанына":9830," тобуна":9831," лин":9832," деңгээлин":9833," Өн":9834," ишмерлер":9835," түрмөдөн":9836,"-президенти":9837," дубан":9838," Зулушев":9839," көрүстөн":9840,"-кен":9841,"em":9842,"АЛ":9843,"Бак":9844,"ИЧ":9845,"мет":9846,"сов":9847,"чумун":9848,"ылбайт":9849," алабы":9850," айдың":9851,"ызын":9852,"ради":9853," кылууну":9854," кылдат":9855," көрүүнү":9856," жетпеген":9857," дегенге":9858," акчалай":9859,"ешелүү":9860," кызматында":9861,"чуларын":9862," шаарлар":9863," ооруну":9864," оорусу":9865," айыптар":9866," айылы":9867," даярданып":9868," саясатчылардын":9869,"-апрель":9870," билдирүүсүн":9871," күтүлүп":9872," дайындоо":9873," ыйык":9874," илдети":9875," тапканын":9876," инфля":9877," талкуулады":9878,"Тажикстанда":9879," ишмердиги":9880," толтура":9881," стади":9882," дооматтарды":9883," коллег":9884,"Болбосо":9885,"Матра":9886,"зада":9887,"й":9888," агып":9889," каралууда":9890," айтуусунда":9891," кыларын":9892," болгонуна":9893," калкты":9894," жазышкан":9895," белгилеш":9896,"Бизди":9897," өкүлдөр":9898," аткара":9899," жеңүүчү":9900,"Ушу":9901," дале":9902," системасына":9903," нерсеге":9904," далилден":9905," аңгем":9906," имаратынын":9907," тиркем":9908," көйгөйлөрдү":9909," башаламандыкка":9910," ноябрь":9911," ойлонуп":9912," комплекст":9913," процесст":9914," Осмонов":9915," чагымчыл":9916," баяндамасында":9917," Медет":9918," фильм":9919,"56":9920,"84":9921,"99":9922,"900":9923,"даштыр":9924,"ерго":9925,"сты":9926,"оок":9927," карал":9928,"овка":9929,"үчтүү":9930," турист":9931," барса":9932," кызын":9933," катышканы":9934," Майк":9935," кайг":9936," физ":9937," алганга":9938," белгилешти":9939," ишкердик":9940," Шакиев":9941," делег":9942," колдонулат":9943,"-тал":9944," эсептеген":9945," Акжол":9946,"Акыр":9947,"атура":9948," тергөөчү":9949," Айсулуу":9950," көчмөндөр":9951,"струк":9952," тилкелер":9953," экономикага":9954," тазал":9955," себептери":9956," барышы":9957," технологиялар":9958," эмнени":9959," рекорд":9960,"Көрсө":9961," тыкыр":9962,"етанья":9963,"-Ш":9964,"АХ":9965,"Кой":9966,"Митинг":9967,"бектин":9968,"антин":9969,"ылбаган":9970,"ттарга":9971,"иканы":9972," бирөөнүн":9973," Бах":9974," туруксуз":9975,"дирасул":9976,"чылыкты":9977," формат":9978," жайкы":9979,"баевге":9980," мүмкүндүгүн":9981," айылга":9982," аймактарына":9983," агент":9984," леги":9985," бошотуп":9986," беренелер":9987,"Талибандын":9988," келиндин":9989," идеология":9990," ооздукт":9991," убакытка":9992,"-ноябрдагы":9993," качкындар":9994,"Оппозиция":9995," бензин":9996,"Каза":9997,"Салык":9998,"теп":9999}