{
  "version": "1.0",
  "truncation": null,
  "padding": null,
  "added_tokens": [
    {
      "id": 25000,
      "content": "[UNK]",
      "single_word": false,
      "lstrip": false,
      "rstrip": false,
      "normalized": false,
      "special": true
    }
  ],
  "normalizer": null,
  "pre_tokenizer": {
    "type": "Sequence",
    "pretokenizers": [
      {
        "type": "Split",
        "pattern": {
          "Regex": "\\p{N}{1,3}| ?[^\\s\\p{L}\\p{N}]{2,}[\\r\\n/]*| +(?!\\S)"
        },
        "behavior": "Isolated",
        "invert": false
      }
    ]
  },
  "post_processor": null,
  "decoder": null,
  "model": {
    "type": "BPE",
    "dropout": null,
    "unk_token": null,
    "continuing_subword_prefix": null,
    "end_of_word_suffix": null,
    "fuse_unk": false,
    "byte_fallback": false,
    "ignore_merges": false,
    "vocab": {
      "\n": 0,
      " ": 1,
      "!": 2,
      "\"": 3,
      "#": 4,
      "$": 5,
      "%": 6,
      "&": 7,
      "'": 8,
      "(": 9,
      ")": 10,
      "*": 11,
      "+": 12,
      ",": 13,
      "-": 14,
      ".": 15,
      "/": 16,
      "0": 17,
      "1": 18,
      "2": 19,
      "3": 20,
      "4": 21,
      "5": 22,
      "6": 23,
      "7": 24,
      "8": 25,
      "9": 26,
      ":": 27,
      ";": 28,
      "<": 29,
      "=": 30,
      ">": 31,
      "?": 32,
      "@": 33,
      "A": 34,
      "B": 35,
      "C": 36,
      "D": 37,
      "E": 38,
      "F": 39,
      "G": 40,
      "H": 41,
      "I": 42,
      "J": 43,
      "K": 44,
      "L": 45,
      "M": 46,
      "N": 47,
      "O": 48,
      "P": 49,
      "Q": 50,
      "R": 51,
      "S": 52,
      "T": 53,
      "U": 54,
      "V": 55,
      "W": 56,
      "X": 57,
      "Y": 58,
      "Z": 59,
      "[": 60,
      "\\": 61,
      "]": 62,
      "^": 63,
      "_": 64,
      "`": 65,
      "a": 66,
      "b": 67,
      "c": 68,
      "d": 69,
      "e": 70,
      "f": 71,
      "g": 72,
      "h": 73,
      "i": 74,
      "j": 75,
      "k": 76,
      "l": 77,
      "m": 78,
      "n": 79,
      "o": 80,
      "p": 81,
      "q": 82,
      "r": 83,
      "s": 84,
      "t": 85,
      "u": 86,
      "v": 87,
      "w": 88,
      "x": 89,
      "y": 90,
      "z": 91,
      "{": 92,
      "|": 93,
      "}": 94,
      "~": 95,
      "": 96,
      "": 97,
      "": 98,
      "": 99,
      "": 100,
      "": 101,
      "": 102,
      "": 103,
      "": 104,
      "": 105,
      "": 106,
      "": 107,
      "": 108,
      " ": 109,
      "¡": 110,
      "¢": 111,
      "£": 112,
      "¤": 113,
      "¥": 114,
      "§": 115,
      "¨": 116,
      "©": 117,
      "«": 118,
      "¬": 119,
      "­": 120,
      "®": 121,
      "°": 122,
      "±": 123,
      "²": 124,
      "³": 125,
      "´": 126,
      "µ": 127,
      "¶": 128,
      "·": 129,
      "¹": 130,
      "º": 131,
      "»": 132,
      "¼": 133,
      "½": 134,
      "¾": 135,
      "¿": 136,
      "À": 137,
      "Á": 138,
      "Â": 139,
      "Ã": 140,
      "Ä": 141,
      "Å": 142,
      "Æ": 143,
      "Ç": 144,
      "É": 145,
      "Ë": 146,
      "Í": 147,
      "Î": 148,
      "Ð": 149,
      "Ñ": 150,
      "Ò": 151,
      "Ó": 152,
      "Õ": 153,
      "Ö": 154,
      "×": 155,
      "Ø": 156,
      "Ú": 157,
      "Ü": 158,
      "Ý": 159,
      "Þ": 160,
      "ß": 161,
      "à": 162,
      "á": 163,
      "â": 164,
      "ã": 165,
      "ä": 166,
      "å": 167,
      "æ": 168,
      "ç": 169,
      "è": 170,
      "é": 171,
      "ê": 172,
      "ë": 173,
      "ì": 174,
      "í": 175,
      "î": 176,
      "ï": 177,
      "ð": 178,
      "ñ": 179,
      "ò": 180,
      "ó": 181,
      "ô": 182,
      "õ": 183,
      "ö": 184,
      "÷": 185,
      "ø": 186,
      "ù": 187,
      "ú": 188,
      "û": 189,
      "ü": 190,
      "ý": 191,
      "þ": 192,
      "ÿ": 193,
      "Ā": 194,
      "ā": 195,
      "Ă": 196,
      "ă": 197,
      "ą": 198,
      "ć": 199,
      "Č": 200,
      "č": 201,
      "Đ": 202,
      "đ": 203,
      "ē": 204,
      "ė": 205,
      "ę": 206,
      "ě": 207,
      "ğ": 208,
      "ī": 209,
      "İ": 210,
      "ı": 211,
      "ķ": 212,
      "ĺ": 213,
      "Ł": 214,
      "ł": 215,
      "ń": 216,
      "ō": 217,
      "ő": 218,
      "œ": 219,
      "Ś": 220,
      "ś": 221,
      "Ş": 222,
      "ş": 223,
      "Š": 224,
      "š": 225,
      "ţ": 226,
      "ū": 227,
      "ų": 228,
      "Ż": 229,
      "ż": 230,
      "Ž": 231,
      "ž": 232,
      "ƒ": 233,
      "ơ": 234,
      "ư": 235,
      "ǎ": 236,
      "ǒ": 237,
      "ǔ": 238,
      "ǧ": 239,
      "ș": 240,
      "ɑ": 241,
      "ɒ": 242,
      "ə": 243,
      "ɛ": 244,
      "ɡ": 245,
      "ɣ": 246,
      "ɸ": 247,
      "ʹ": 248,
      "ʼ": 249,
      "ˆ": 250,
      "ˈ": 251,
      "ˌ": 252,
      "ː": 253,
      "˚": 254,
      "ˮ": 255,
      "́": 256,
      "̂": 257,
      "̃": 258,
      "̈": 259,
      "̊": 260,
      "̶": 261,
      "·": 262,
      "Α": 263,
      "Β": 264,
      "Γ": 265,
      "Δ": 266,
      "Ε": 267,
      "Θ": 268,
      "Μ": 269,
      "Π": 270,
      "Σ": 271,
      "Φ": 272,
      "Ω": 273,
      "ά": 274,
      "ή": 275,
      "ί": 276,
      "α": 277,
      "β": 278,
      "γ": 279,
      "δ": 280,
      "ε": 281,
      "η": 282,
      "θ": 283,
      "ι": 284,
      "κ": 285,
      "λ": 286,
      "μ": 287,
      "ν": 288,
      "ο": 289,
      "π": 290,
      "ρ": 291,
      "ς": 292,
      "σ": 293,
      "τ": 294,
      "φ": 295,
      "χ": 296,
      "ω": 297,
      "ό": 298,
      "ύ": 299,
      "А": 300,
      "Б": 301,
      "В": 302,
      "Г": 303,
      "Д": 304,
      "Е": 305,
      "И": 306,
      "К": 307,
      "Н": 308,
      "О": 309,
      "П": 310,
      "С": 311,
      "Т": 312,
      "Э": 313,
      "Я": 314,
      "а": 315,
      "в": 316,
      "г": 317,
      "д": 318,
      "е": 319,
      "и": 320,
      "й": 321,
      "л": 322,
      "м": 323,
      "н": 324,
      "о": 325,
      "р": 326,
      "с": 327,
      "т": 328,
      "ц": 329,
      "ы": 330,
      "ј": 331,
      "Ґ": 332,
      "ӓ": 333,
      "ӧ": 334,
      "א": 335,
      "ד": 336,
      "צ": 337,
      "ا": 338,
      "ة": 339,
      "ت": 340,
      "ث": 341,
      "ج": 342,
      "ح": 343,
      "د": 344,
      "ر": 345,
      "س": 346,
      "ص": 347,
      "ع": 348,
      "ك": 349,
      "ل": 350,
      "م": 351,
      "ن": 352,
      "ه": 353,
      "و": 354,
      "ي": 355,
      "ڤ": 356,
      "ނ": 357,
      "ތ": 358,
      "ަ": 359,
      "ާ": 360,
      "ก": 361,
      "ข": 362,
      "ต": 363,
      "ธ": 364,
      "น": 365,
      "ย": 366,
      "ร": 367,
      "ส": 368,
      "ะ": 369,
      "ั": 370,
      "ิ": 371,
      "ี": 372,
      "ุ": 373,
      "เ": 374,
      "ი": 375,
      "რ": 376,
      "უ": 377,
      "ც": 378,
      "ხ": 379,
      "Ḥ": 380,
      "ḥ": 381,
      "ḳ": 382,
      "ṅ": 383,
      "ṇ": 384,
      "ṛ": 385,
      "Ṣ": 386,
      "ṣ": 387,
      "Ṭ": 388,
      "ṭ": 389,
      "ạ": 390,
      "ả": 391,
      "ầ": 392,
      "ẹ": 393,
      "ễ": 394,
      "ệ": 395,
      "ỉ": 396,
      "ị": 397,
      "ọ": 398,
      "ờ": 399,
      "ủ": 400,
      "ἀ": 401,
      "ἐ": 402,
      " ": 403,
      " ": 404,
      " ": 405,
      " ": 406,
      " ": 407,
      " ": 408,
      " ": 409,
      " ": 410,
      "​": 411,
      "‌": 412,
      "‍": 413,
      "‎": 414,
      "‏": 415,
      "‐": 416,
      "‑": 417,
      "‒": 418,
      "–": 419,
      "—": 420,
      "―": 421,
      "‘": 422,
      "’": 423,
      "‚": 424,
      "“": 425,
      "”": 426,
      "„": 427,
      "†": 428,
      "‡": 429,
      "•": 430,
      "‣": 431,
      "…": 432,
      " ": 433,
      " ": 434,
      "‬": 435,
      "‭": 436,
      " ": 437,
      "′": 438,
      "″": 439,
      "‹": 440,
      "›": 441,
      "※": 442,
      "⁃": 443,
      "⁄": 444,
      "⁰": 445,
      "⁴": 446,
      "₂": 447,
      "₤": 448,
      "€": 449,
      "℃": 450,
      "ℏ": 451,
      "№": 452,
      "℠": 453,
      "™": 454,
      "Ω": 455,
      "⅔": 456,
      "←": 457,
      "↑": 458,
      "→": 459,
      "↓": 460,
      "↩": 461,
      "↵": 462,
      "⇑": 463,
      "⇒": 464,
      "⇨": 465,
      "∈": 466,
      "∑": 467,
      "−": 468,
      "∙": 469,
      "√": 470,
      "∞": 471,
      "≈": 472,
      "≤": 473,
      "≥": 474,
      "⋅": 475,
      "①": 476,
      "⑵": 477,
      "▌": 478,
      "■": 479,
      "□": 480,
      "▪": 481,
      "▲": 482,
      "▶": 483,
      "▷": 484,
      "▸": 485,
      "►": 486,
      "▼": 487,
      "▽": 488,
      "▾": 489,
      "◄": 490,
      "◆": 491,
      "◊": 492,
      "○": 493,
      "●": 494,
      "◦": 495,
      "◾": 496,
      "★": 497,
      "☆": 498,
      "☐": 499,
      "☒": 500,
      "☕": 501,
      "☝": 502,
      "☟": 503,
      "☭": 504,
      "☺": 505,
      "♡": 506,
      "♣": 507,
      "♥": 508,
      "♦": 509,
      "♧": 510,
      "♪": 511,
      "♫": 512,
      "⚘": 513,
      "✅": 514,
      "✌": 515,
      "✎": 516,
      "✓": 517,
      "✔": 518,
      "✗": 519,
      "✰": 520,
      "❑": 521,
      "❓": 522,
      "❤": 523,
      "❥": 524,
      "➜": 525,
      "➥": 526,
      "⟵": 527,
      "⟶": 528,
      "⦁": 529,
      "⭐": 530,
      "　": 531,
      "オ": 532,
      "コ": 533,
      "ニ": 534,
      "ビ": 535,
      "リ": 536,
      "ン": 537,
      "・": 538,
      "㎡": 539,
      "万": 540,
      "世": 541,
      "中": 542,
      "主": 543,
      "五": 544,
      "人": 545,
      "会": 546,
      "光": 547,
      "公": 548,
      "共": 549,
      "军": 550,
      "华": 551,
      "协": 552,
      "協": 553,
      "台": 554,
      "司": 555,
      "命": 556,
      "和": 557,
      "团": 558,
      "国": 559,
      "國": 560,
      "大": 561,
      "山": 562,
      "岁": 563,
      "式": 564,
      "春": 565,
      "會": 566,
      "月": 567,
      "有": 568,
      "株": 569,
      "楚": 570,
      "民": 571,
      "江": 572,
      "海": 573,
      "湾": 574,
      "灣": 575,
      "狂": 576,
      "球": 577,
      "界": 578,
      "社": 579,
      "秋": 580,
      "空": 581,
      "箇": 582,
      "級": 583,
      "级": 584,
      "结": 585,
      "联": 586,
      "聯": 587,
      "臺": 588,
      "航": 589,
      "言": 590,
      "賽": 591,
      "赛": 592,
      "超": 593,
      "足": 594,
      "軍": 595,
      "鈥": 596,
      "锦": 597,
      "镜": 598,
      "际": 599,
      "限": 600,
      "集": 601,
      "革": 602,
      "낍": 603,
      "눉": 604,
      "책": 605,
      "": 606,
      "": 607,
      "": 608,
      "": 609,
      "": 610,
      "": 611,
      "": 612,
      "": 613,
      "": 614,
      "": 615,
      "": 616,
      "": 617,
      "": 618,
      "": 619,
      "": 620,
      "": 621,
      "": 622,
      "": 623,
      "": 624,
      "": 625,
      "": 626,
      "": 627,
      "": 628,
      "": 629,
      "": 630,
      "": 631,
      "": 632,
      "": 633,
      "": 634,
      "": 635,
      "": 636,
      "": 637,
      "": 638,
      "": 639,
      "": 640,
      "": 641,
      "": 642,
      "": 643,
      "": 644,
      "": 645,
      "珞": 646,
      "ﬀ": 647,
      "ﬁ": 648,
      "ﬂ": 649,
      "ﬄ": 650,
      "ﷺ": 651,
      "︎": 652,
      "️": 653,
      "﻿": 654,
      "（": 655,
      "）": 656,
      "：": 657,
      "￼": 658,
      "�": 659,
      "🇨": 660,
      "🌞": 661,
      "🌷": 662,
      "🌸": 663,
      "🍀": 664,
      "🍦": 665,
      "🍰": 666,
      "🍳": 667,
      "🍴": 668,
      "🎁": 669,
      "🎈": 670,
      "🎉": 671,
      "🎨": 672,
      "🎶": 673,
      "🎼": 674,
      "🏆": 675,
      "🏻": 676,
      "🏼": 677,
      "🏽": 678,
      "🐞": 679,
      "🐲": 680,
      "🐴": 681,
      "🐾": 682,
      "👁": 683,
      "👇": 684,
      "👌": 685,
      "👍": 686,
      "👏": 687,
      "💔": 688,
      "💕": 689,
      "💖": 690,
      "💙": 691,
      "💚": 692,
      "💜": 693,
      "💤": 694,
      "💥": 695,
      "💪": 696,
      "💰": 697,
      "📌": 698,
      "📚": 699,
      "📷": 700,
      "🔸": 701,
      "🖤": 702,
      "🗞": 703,
      "😀": 704,
      "😁": 705,
      "😂": 706,
      "😃": 707,
      "😄": 708,
      "😅": 709,
      "😆": 710,
      "😇": 711,
      "😉": 712,
      "😊": 713,
      "😋": 714,
      "😍": 715,
      "😎": 716,
      "😔": 717,
      "😕": 718,
      "😖": 719,
      "😘": 720,
      "😛": 721,
      "😜": 722,
      "😝": 723,
      "😞": 724,
      "😠": 725,
      "😢": 726,
      "😦": 727,
      "😫": 728,
      "😬": 729,
      "😭": 730,
      "😳": 731,
      "😶": 732,
      "🙁": 733,
      "🙂": 734,
      "🙆": 735,
      "🙈": 736,
      "🙉": 737,
      "🙌": 738,
      "🙏": 739,
      "🤔": 740,
      "🤗": 741,
      "🤙": 742,
      "🤛": 743,
      "🤣": 744,
      "🤩": 745,
      "🤯": 746,
      "🥂": 747,
      "🥇": 748,
      "🦋": 749,
      "🦌": 750,
      "🧡": 751,
      "🧩": 752,
      "r ": 753,
      "t ": 754,
      "n ": 755,
      "a ": 756,
      "de": 757,
      "in": 758,
      "te": 759,
      ".\n": 760,
      "ll": 761,
      "at": 762,
      "an": 763,
      "om": 764,
      "ar": 765,
      "en ": 766,
      "er": 767,
      "s ": 768,
      "ti": 769,
      "fö": 770,
      " s": 771,
      "er ": 772,
      "oc": 773,
      "en": 774,
      "ar ": 775,
      "g ": 776,
      "och": 777,
      "om ": 778,
      "är ": 779,
      "st": 780,
      "li": 781,
      "att ": 782,
      "sk": 783,
      "d ": 784,
      "och ": 785,
      "i ": 786,
      ", ": 787,
      "or": 788,
      "de ": 789,
      "å ": 790,
      "on": 791,
      "an ": 792,
      "et": 793,
      "e ": 794,
      "av": 795,
      "än": 796,
      "et ": 797,
      "för ": 798,
      "för": 799,
      "me": 800,
      "ing": 801,
      "till": 802,
      "re": 803,
      "am": 804,
      "av ": 805,
      "vi": 806,
      "är": 807,
      "di": 808,
      "ter": 809,
      "un": 810,
      "al": 811,
      "det ": 812,
      "te ": 813,
      "ri": 814,
      "ck": 815,
      "pp": 816,
      "el": 817,
      "ro": 818,
      "lig": 819,
      "na ": 820,
      "si": 821,
      "den ": 822,
      "på ": 823,
      "ag": 824,
      "ut": 825,
      "som ": 826,
      "ag ": 827,
      "u ": 828,
      "ra ": 829,
      "tt": 830,
      "till ": 831,
      "be": 832,
      "med ": 833,
      "fr": 834,
      "all": 835,
      "var": 836,
      "ra": 837,
      "ell": 838,
      "har ": 839,
      "le": 840,
      "ss": 841,
      "ter ": 842,
      "na": 843,
      "ver": 844,
      "ning": 845,
      "ati": 846,
      "äl": 847,
      "ett ": 848,
      "ak": 849,
      "inte ": 850,
      "mi": 851,
      "on ": 852,
      "kom": 853,
      "ing ": 854,
      "tt ": 855,
      "and": 856,
      "kan ": 857,
      "ska ": 858,
      "ade ": 859,
      "upp": 860,
      "du ": 861,
      "ån": 862,
      "der ": 863,
      "ör": 864,
      "åg": 865,
      " som ": 866,
      "il": 867,
      "ol": 868,
      "as": 869,
      "mer ": 870,
      "ta ": 871,
      "m ": 872,
      "as ": 873,
      "inn": 874,
      "sp": 875,
      "da ": 876,
      "rä": 877,
      "ka ": 878,
      "år ": 879,
      "?\n": 880,
      "den": 881,
      "eller ": 882,
      "Det ": 883,
      "gr": 884,
      "ande ": 885,
      "der": 886,
      "ån ": 887,
      "jag ": 888,
      "del": 889,
      "he": 890,
      "lä": 891,
      "ga ": 892,
      "vän": 893,
      "gi": 894,
      "från ": 895,
      "ad ": 896,
      "ten ": 897,
      "or ": 898,
      "äll": 899,
      "gen": 900,
      "sä": 901,
      "t.\n": 902,
      " och ": 903,
      "ur": 904,
      "for": 905,
      "ni": 906,
      "kti": 907,
      "bar": 908,
      "för att ": 909,
      "sta ": 910,
      "kon": 911,
      "sam": 912,
      "var ": 913,
      "are ": 914,
      "ap": 915,
      "ör ": 916,
      "pro": 917,
      "mo": 918,
      "yck": 919,
      " st": 920,
      "sl": 921,
      "a.\n": 922,
      "ning ": 923,
      "at ": 924,
      "ju": 925,
      "ation": 926,
      "år": 927,
      "se": 928,
      "dig": 929,
      " sk": 930,
      "någ": 931,
      "ver ": 932,
      "så ": 933,
      "st ": 934,
      "ch": 935,
      "ock": 936,
      "kommer ": 937,
      "hö": 938,
      "du": 939,
      "ve": 940,
      "tr": 941,
      "vi ": 942,
      "ten": 943,
      "kl": 944,
      "ef": 945,
      "vär": 946,
      "tta ": 947,
      "pl": 948,
      "dr": 949,
      "ur ": 950,
      "per": 951,
      "äm": 952,
      "bet": 953,
      "en.\n": 954,
      "Jag ": 955,
      "ad": 956,
      "verk": 957,
      "tal": 958,
      "med": 959,
      "ger ": 960,
      "ser": 961,
      "ll ": 962,
      ": ": 963,
      "min": 964,
      "jäl": 965,
      "!\n": 966,
      "in ": 967,
      "hå": 968,
      "um": 969,
      "ul": 970,
      "fi": 971,
      "må": 972,
      "liga ": 973,
      "vä": 974,
      "vara ": 975,
      "bli": 976,
      "använ": 977,
      "ok": 978,
      "ny": 979,
      "men ": 980,
      "ligt ": 981,
      "v ": 982,
      "20": 983,
      "ma ": 984,
      "fl": 985,
      "bl": 986,
      "ull": 987,
      "håll": 988,
      "ök": 989,
      "man ": 990,
      "lj": 991,
      "ho": 992,
      "era ": 993,
      "ex": 994,
      "ci": 995,
      "tet ": 996,
      "dag": 997,
      "po": 998,
      "kt": 999,
      "ina ": 1000,
      "kun": 1001,
      "ty": 1002,
      "are": 1003,
      "ss ": 1004,
      "män": 1005,
      "er.\n": 1006,
      ", s": 1007,
      "ade": 1008,
      "alla ": 1009,
      "hel": 1010,
      "fe": 1011,
      "ssa ": 1012,
      "finn": 1013,
      "ber": 1014,
      "va ": 1015,
      "kt ": 1016,
      "tro": 1017,
      "het ": 1018,
      "man": 1019,
      "bil": 1020,
      "kän": 1021,
      "på": 1022,
      "ne": 1023,
      "k ": 1024,
      "bb": 1025,
      "ång": 1026,
      "a, ": 1027,
      "dan ": 1028,
      "när ": 1029,
      "han ": 1030,
      "men": 1031,
      "res": 1032,
      "att": 1033,
      "hi": 1034,
      "skap": 1035,
      "br": 1036,
      "över": 1037,
      "ställ": 1038,
      "s.\n": 1039,
      "han": 1040,
      "än ": 1041,
      "et.\n": 1042,
      "mar": 1043,
      "o ": 1044,
      "gg": 1045,
      "finns ": 1046,
      "In": 1047,
      "bara ": 1048,
      "of": 1049,
      "ande": 1050,
      "ens ": 1051,
      "gö": 1052,
      "andra ": 1053,
      "din ": 1054,
      "ste": 1055,
      "sy": 1056,
      "rå": 1057,
      "sti": 1058,
      "bi": 1059,
      "bä": 1060,
      "och s": 1061,
      "ster": 1062,
      "hand": 1063,
      "son": 1064,
      "dig ": 1065,
      "ser ": 1066,
      "kv": 1067,
      "äng": 1068,
      "ko": 1069,
      "är en ": 1070,
      "el ": 1071,
      "Vi ": 1072,
      "vå": 1073,
      "väl": 1074,
      "mö": 1075,
      "str": 1076,
      "ven ": 1077,
      "ig": 1078,
      "ycket ": 1079,
      "sk ": 1080,
      ") ": 1081,
      "ma": 1082,
      "vis": 1083,
      "fram": 1084,
      "..": 1085,
      "så": 1086,
      "tu": 1087,
      "ali": 1088,
      "y ": 1089,
      "arna ": 1090,
      "and ": 1091,
      "veck": 1092,
      "ann": 1093,
      "Den ": 1094,
      "också ": 1095,
      "ori": 1096,
      "här ": 1097,
      "ar.\n": 1098,
      "ud": 1099,
      "ation ": 1100,
      "sig ": 1101,
      "under ": 1102,
      "- ": 1103,
      "pr": 1104,
      "mycket ": 1105,
      "gl": 1106,
      "Det är ": 1107,
      "ut ": 1108,
      "i s": 1109,
      "– ": 1110,
      "kan": 1111,
      "över ": 1112,
      "se ": 1113,
      "al ": 1114,
      "und": 1115,
      "ack": 1116,
      "ånga ": 1117,
      "ligen ": 1118,
      "vil": 1119,
      "göra ": 1120,
      "ingen ": 1121,
      "kr": 1122,
      ", och ": 1123,
      "ningen ": 1124,
      "00": 1125,
      "ort ": 1126,
      "detta ": 1127,
      "I ": 1128,
      "to": 1129,
      "ord": 1130,
      "ha ": 1131,
      "form": 1132,
      "ans": 1133,
      "Men ": 1134,
      "ts ": 1135,
      "by": 1136,
      "arbet": 1137,
      "par": 1138,
      "oli": 1139,
      "En ": 1140,
      "us": 1141,
      "gör ": 1142,
      "akti": 1143,
      "behö": 1144,
      "använd": 1145,
      "lig ": 1146,
      "all ": 1147,
      "ch ": 1148,
      "ella ": 1149,
      "inte": 1150,
      "hur ": 1151,
      "t, ": 1152,
      "nisk": 1153,
      "denna ": 1154,
      "mot ": 1155,
      "org": 1156,
      "genom ": 1157,
      "ras ": 1158,
      "tid ": 1159,
      "ats ": 1160,
      "ker": 1161,
      "handl": 1162,
      "ulle ": 1163,
      " av ": 1164,
      "om s": 1165,
      "ste ": 1166,
      "far": 1167,
      "is": 1168,
      "ot ": 1169,
      "tre": 1170,
      "bör": 1171,
      "produ": 1172,
      "sök": 1173,
      "je": 1174,
      "är det ": 1175,
      "ff": 1176,
      "person": 1177,
      "kommer att ": 1178,
      "Om ": 1179,
      "vill ": 1180,
      "värl": 1181,
      "ds": 1182,
      "De ": 1183,
      "efter ": 1184,
      "eg": 1185,
      "ill": 1186,
      "lö": 1187,
      "ken ": 1188,
      "ung": 1189,
      "het": 1190,
      "liv": 1191,
      "je ": 1192,
      "även ": 1193,
      "ble": 1194,
      "tion": 1195,
      "dri": 1196,
      "pe": 1197,
      "d.\n": 1198,
      "Du ": 1199,
      "mp": 1200,
      "vid ": 1201,
      "tar ": 1202,
      "re ": 1203,
      "människ": 1204,
      "hjäl": 1205,
      "19": 1206,
      "där ": 1207,
      "bo": 1208,
      "ningar ": 1209,
      "vad ": 1210,
      "sak": 1211,
      "när": 1212,
      "fråg": 1213,
      "erna ": 1214,
      "201": 1215,
      "under": 1216,
      "inne": 1217,
      "får ": 1218,
      "börj": 1219,
      "många ": 1220,
      "skt ": 1221,
      "ce": 1222,
      "dö": 1223,
      "An": 1224,
      "upp ": 1225,
      "den.\n": 1226,
      "För": 1227,
      "sion": 1228,
      "tv": 1229,
      "sen ": 1230,
      ", som ": 1231,
      "det är ": 1232,
      "tern": 1233,
      "nings": 1234,
      "fin": 1235,
      "ant": 1236,
      "sta": 1237,
      "veckl": 1238,
      "föret": 1239,
      "skri": 1240,
      "cer": 1241,
      "hjälp": 1242,
      "t att ": 1243,
      "jän": 1244,
      ". ": 1245,
      "ner ": 1246,
      "na.\n": 1247,
      "få ": 1248,
      "min ": 1249,
      "De": 1250,
      "måste ": 1251,
      "Och ": 1252,
      "nä": 1253,
      "ge": 1254,
      "första ": 1255,
      "oss ": 1256,
      "mig ": 1257,
      "van": 1258,
      "hade ": 1259,
      "län": 1260,
      "möj": 1261,
      "spel": 1262,
      "utveckl": 1263,
      "ala ": 1264,
      "någon ": 1265,
      "lag": 1266,
      "dessa ": 1267,
      "mell": 1268,
      "led": 1269,
      "us ": 1270,
      "något ": 1271,
      "nu ": 1272,
      "it ": 1273,
      "kna": 1274,
      "St": 1275,
      "ktion": 1276,
      "lo": 1277,
      "Det": 1278,
      "uro": 1279,
      "digt ": 1280,
      "För ": 1281,
      "ke": 1282,
      " sä": 1283,
      "uni": 1284,
      ", men ": 1285,
      "kö": 1286,
      " si": 1287,
      "Vi": 1288,
      "ktig": 1289,
      "ent": 1290,
      "ast ": 1291,
      "utan ": 1292,
      "terna ": 1293,
      "hän": 1294,
      "fy": 1295,
      " i ": 1296,
      "Detta ": 1297,
      "sig": 1298,
      "fri": 1299,
      "gif": 1300,
      "gång": 1301,
      "go": 1302,
      "yn": 1303,
      "trä": 1304,
      "slut": 1305,
      "bätt": 1306,
      "yd": 1307,
      "hon": 1308,
      "iska ": 1309,
      "kor": 1310,
      "sätt": 1311,
      "vår": 1312,
      "fort": 1313,
      "bak": 1314,
      "följ": 1315,
      "dan": 1316,
      "ven": 1317,
      "er och ": 1318,
      "milj": 1319,
      "pri": 1320,
      "Han ": 1321,
      "ck ": 1322,
      "dom": 1323,
      "ende ": 1324,
      "inom ": 1325,
      "Hur ": 1326,
      "ter.\n": 1327,
      "pa": 1328,
      "gj": 1329,
      "ket ": 1330,
      "eri": 1331,
      "gån": 1332,
      "heter ": 1333,
      "og": 1334,
      "lå": 1335,
      "All": 1336,
      "tik": 1337,
      "sen": 1338,
      "vet ": 1339,
      "jär": 1340,
      "Re": 1341,
      "först": 1342,
      "våra ": 1343,
      "bra ": 1344,
      "erar ": 1345,
      "er, ": 1346,
      "hon ": 1347,
      "allt ": 1348,
      "sa ": 1349,
      "ön": 1350,
      "sin ": 1351,
      "ja ": 1352,
      "deras ": 1353,
      "ster ": 1354,
      "dat": 1355,
      "nas ": 1356,
      "tjän": 1357,
      "Me": 1358,
      "”\n": 1359,
      "änd": 1360,
      "ditt ": 1361,
      "nya ": 1362,
      "do": 1363,
      "dag ": 1364,
      "vill": 1365,
      "pre": 1366,
      "val": 1367,
      "jag": 1368,
      "där": 1369,
      "olika ": 1370,
      "l ": 1371,
      "cen": 1372,
      "tag": 1373,
      "fly": 1374,
      "jälv": 1375,
      "en, ": 1376,
      "\"\n": 1377,
      "inform": 1378,
      "mellan ": 1379,
      "ingar ": 1380,
      "är att ": 1381,
      "heten ": 1382,
      "ades ": 1383,
      " sam": 1384,
      "mm": 1385,
      "kri": 1386,
      "dem ": 1387,
      "en av ": 1388,
      ").\n": 1389,
      "efter": 1390,
      "spe": 1391,
      "När ": 1392,
      "hela ": 1393,
      "behöver ": 1394,
      "dina ": 1395,
      "ab": 1396,
      "vår ": 1397,
      "yr": 1398,
      "fil": 1399,
      ":\n": 1400,
      "tig": 1401,
      "plat": 1402,
      "mär": 1403,
      "eng": 1404,
      "gram": 1405,
      "rö": 1406,
      "åter": 1407,
      "fär": 1408,
      "klar": 1409,
      "två ": 1410,
      "hu": 1411,
      "lu": 1412,
      "några ": 1413,
      "Vad ": 1414,
      "bju": 1415,
      " ska ": 1416,
      "kont": 1417,
      "we": 1418,
      "blir ": 1419,
      "p ": 1420,
      "ts": 1421,
      "bå": 1422,
      ")\n": 1423,
      "ast": 1424,
      "er som ": 1425,
      "fatt": 1426,
      "före": 1427,
      "dem": 1428,
      "bli ": 1429,
      "200": 1430,
      "ob": 1431,
      "en och ": 1432,
      "ult": 1433,
      "mig": 1434,
      "raf": 1435,
      "vin": 1436,
      "skil": 1437,
      "då ": 1438,
      "förs": 1439,
      "no": 1440,
      " så ": 1441,
      "ni ": 1442,
      "öd": 1443,
      "Var": 1444,
      "akt": 1445,
      "arbe": 1446,
      "aste ": 1447,
      "nat ": 1448,
      "områ": 1449,
      "ning.\n": 1450,
      "rel": 1451,
      "bor": 1452,
      "are.\n": 1453,
      "ent ": 1454,
      "ings": 1455,
      "varje ": 1456,
      "lin": 1457,
      "ick": 1458,
      "ära ": 1459,
      "går ": 1460,
      "företag": 1461,
      "här": 1462,
      "lik": 1463,
      "ten.\n": 1464,
      "till att ": 1465,
      "ans ": 1466,
      "it": 1467,
      "ru": 1468,
      " (": 1469,
      "ning av ": 1470,
      "ker ": 1471,
      "ge ": 1472,
      "an.\n": 1473,
      "ac": 1474,
      "rätt": 1475,
      "nu": 1476,
      "...\n": 1477,
      "av s": 1478,
      "markna": 1479,
      "hem": 1480,
      "vis ": 1481,
      "hen": 1482,
      "or.\n": 1483,
      "möjlig": 1484,
      "land": 1485,
      "tek": 1486,
      "proc": 1487,
      "usi": 1488,
      "väx": 1489,
      "barn": 1490,
      "om att ": 1491,
      "komm": 1492,
      "pa ": 1493,
      "pel": 1494,
      "tän": 1495,
      "det.\n": 1496,
      "tä": 1497,
      "Fr": 1498,
      "erade ": 1499,
      "tera ": 1500,
      "atur": 1501,
      "des ": 1502,
      "i en ": 1503,
      "teri": 1504,
      "äg": 1505,
      "hög": 1506,
      "ets ": 1507,
      ",\n": 1508,
      " är ": 1509,
      "Att ": 1510,
      "människor ": 1511,
      "åt": 1512,
      "a\n": 1513,
      " skulle ": 1514,
      "hans ": 1515,
      "th": 1516,
      "samman": 1517,
      "full": 1518,
      "läng": 1519,
      "sm": 1520,
      "krä": 1521,
      "10": 1522,
      "stor": 1523,
      "Euro": 1524,
      "best": 1525,
      "gär": 1526,
      "öm": 1527,
      "stem": 1528,
      "poli": 1529,
      "fol": 1530,
      "nar ": 1531,
      "der.\n": 1532,
      "vilket ": 1533,
      "bu": 1534,
      "ske ": 1535,
      "ar, ": 1536,
      "helt ": 1537,
      "la ": 1538,
      "att det ": 1539,
      "ry": 1540,
      "reg": 1541,
      "d av ": 1542,
      "väg": 1543,
      "id": 1544,
      "kter ": 1545,
      "fun": 1546,
      "per ": 1547,
      "vat": 1548,
      "gång ": 1549,
      "åt ": 1550,
      "s, ": 1551,
      "tal ": 1552,
      "de s": 1553,
      "aren ": 1554,
      "ir": 1555,
      "app": 1556,
      "alltid ": 1557,
      "med en ": 1558,
      "kunna ": 1559,
      "behandl": 1560,
      "effe": 1561,
      "berä": 1562,
      "gäll": 1563,
      "sätt ": 1564,
      "bild": 1565,
      "kel": 1566,
      "ly": 1567,
      "grän": 1568,
      "ing.\n": 1569,
      " för ": 1570,
      "varit ": 1571,
      "tra": 1572,
      "bok": 1573,
      "ål": 1574,
      "medle": 1575,
      "bland ": 1576,
      "gå ": 1577,
      "kro": 1578,
      "ell ": 1579,
      "vet": 1580,
      "fo": 1581,
      "håller ": 1582,
      "op": 1583,
      "juk": 1584,
      "uppgif": 1585,
      "mat": 1586,
      "t och ": 1587,
      "tid": 1588,
      "gjor": 1589,
      "använda ": 1590,
      "på att ": 1591,
      "jo": 1592,
      "mål": 1593,
      "bygg": 1594,
      "tiska ": 1595,
      "medel": 1596,
      "skulle ": 1597,
      "gre ": 1598,
      "ari": 1599,
      "program": 1600,
      "samma ": 1601,
      "bör ": 1602,
      "genom": 1603,
      "emp": 1604,
      "erbju": 1605,
      "viktig": 1606,
      "läg": 1607,
      "ått ": 1608,
      "hålla ": 1609,
      "webb": 1610,
      "kall": 1611,
      "dens ": 1612,
      "j ": 1613,
      "stör": 1614,
      "öka ": 1615,
      "skar ": 1616,
      "lev": 1617,
      "på en ": 1618,
      "som": 1619,
      "proble": 1620,
      "bästa ": 1621,
      "derna ": 1622,
      "andet ": 1623,
      "Det finns ": 1624,
      "s i ": 1625,
      "organ": 1626,
      "aldri": 1627,
      "Th": 1628,
      "tor": 1629,
      "En": 1630,
      "komma ": 1631,
      "amil": 1632,
      "da": 1633,
      "bru": 1634,
      "rätt ": 1635,
      "a och ": 1636,
      "sina ": 1637,
      "ändr": 1638,
      "oci": 1639,
      "tter": 1640,
      "nam": 1641,
      "hos ": 1642,
      "US": 1643,
      "tter ": 1644,
      "forsk": 1645,
      "säker": 1646,
      "af": 1647,
      "räck": 1648,
      "är ett ": 1649,
      "en i ": 1650,
      "Un": 1651,
      "häl": 1652,
      "barn ": 1653,
      "mitt ": 1654,
      "od": 1655,
      "läm": 1656,
      "Be": 1657,
      "tan": 1658,
      "fall": 1659,
      "mest ": 1660,
      "stori": 1661,
      "stu": 1662,
      "dra ": 1663,
      "erad ": 1664,
      "d och ": 1665,
      "ar och ": 1666,
      "öpp": 1667,
      "kar": 1668,
      "till en ": 1669,
      "vid": 1670,
      "dire": 1671,
      "intern": 1672,
      "mis": 1673,
      "kvinn": 1674,
      "im": 1675,
      "edan ": 1676,
      "regi": 1677,
      "ele": 1678,
      "plan": 1679,
      "e.\n": 1680,
      "flera ": 1681,
      "på s": 1682,
      "Ett ": 1683,
      "tress": 1684,
      "ju ": 1685,
      "ellt ": 1686,
      "Så ": 1687,
      "ft": 1688,
      "annan ": 1689,
      "exemp": 1690,
      "Li": 1691,
      "tyck": 1692,
      "- och ": 1693,
      "Sk": 1694,
      "dess ": 1695,
      "information ": 1696,
      "huv": 1697,
      "Ho": 1698,
      "ner": 1699,
      "es": 1700,
      "enligt ": 1701,
      "medi": 1702,
      "tillbak": 1703,
      "EU": 1704,
      "eftersom ": 1705,
      "star": 1706,
      "famil": 1707,
      "stån": 1708,
      "ass": 1709,
      "dre ": 1710,
      " till ": 1711,
      "Ne": 1712,
      "att du ": 1713,
      "as.\n": 1714,
      "pres": 1715,
      "ve ": 1716,
      "tidig": 1717,
      "met": 1718,
      "pi": 1719,
      ".”\n": 1720,
      "genom att ": 1721,
      "som är ": 1722,
      "jer ": 1723,
      "hjär": 1724,
      "av en ": 1725,
      "lever": 1726,
      "som s": 1727,
      "ärskil": 1728,
      "konom": 1729,
      "vt ": 1730,
      "end": 1731,
      " S": 1732,
      "histori": 1733,
      "aldrig ": 1734,
      "bel": 1735,
      "innan ": 1736,
      "intress": 1737,
      "fle": 1738,
      "Har ": 1739,
      "om du ": 1740,
      "um ": 1741,
      "annat ": 1742,
      "co": 1743,
      ", så ": 1744,
      "s och ": 1745,
      "aff": 1746,
      "lång": 1747,
      "Är ": 1748,
      "Ti": 1749,
      "red": 1750,
      "ra.\n": 1751,
      "so": 1752,
      "e-": 1753,
      "kontro": 1754,
      "tet.\n": 1755,
      "tror ": 1756,
      "Om du ": 1757,
      "verkligen ": 1758,
      "är inte ": 1759,
      "Pro": 1760,
      "lite ": 1761,
      "tekni": 1762,
      "jobb": 1763,
      "grund": 1764,
      "bri": 1765,
      "stri": 1766,
      "ban": 1767,
      "med s": 1768,
      "stän": 1769,
      "Alla ": 1770,
      "ock ": 1771,
      "drar ": 1772,
      "av de ": 1773,
      "gäller ": 1774,
      "blev ": 1775,
      "natur": 1776,
      "lägg": 1777,
      "måna": 1778,
      "Mi": 1779,
      "kär": 1780,
      "yl": 1781,
      "henne": 1782,
      "en för ": 1783,
      "till s": 1784,
      "tel": 1785,
      "tryck": 1786,
      "Ef": 1787,
      "t\n": 1788,
      "ber ": 1789,
      "betal": 1790,
      "grun": 1791,
      "eras ": 1792,
      "ansi": 1793,
      "k.\n": 1794,
      "ce ": 1795,
      "Jag har ": 1796,
      "någon": 1797,
      "nabb": 1798,
      "nor": 1799,
      "; ": 1800,
      "del av ": 1801,
      "ing av ": 1802,
      "kropp": 1803,
      "het.\n": 1804,
      "en är ": 1805,
      "hopp": 1806,
      "vs ": 1807,
      ".\"\n": 1808,
      "kraf": 1809,
      "Gud": 1810,
      "Ar": 1811,
      "sat": 1812,
      "anska ": 1813,
      "då": 1814,
      "ög": 1815,
      "kommen": 1816,
      "ekonom": 1817,
      "es ": 1818,
      "ämp": 1819,
      "artik": 1820,
      "stru": 1821,
      "lyck": 1822,
      "vad": 1823,
      "peng": 1824,
      "lju": 1825,
      "tre ": 1826,
      "pun": 1827,
      "Gu": 1828,
      "\" ": 1829,
      "räd": 1830,
      "för en ": 1831,
      "den här ": 1832,
      "Den": 1833,
      "Hon ": 1834,
      "bättre ": 1835,
      "ki": 1836,
      "mä": 1837,
      "kost": 1838,
      "h ": 1839,
      "lla ": 1840,
      "ener": 1841,
      "ed": 1842,
      "lär": 1843,
      "skyd": 1844,
      "run": 1845,
      "öj": 1846,
      "olo": 1847,
      "au": 1848,
      "ttar ": 1849,
      "stan ": 1850,
      "gam": 1851,
      "vit ": 1852,
      "plats ": 1853,
      "medlem": 1854,
      "por": 1855,
      "USA": 1856,
      "rät": 1857,
      "kar ": 1858,
      "of ": 1859,
      "Mo": 1860,
      "Mar": 1861,
      "att de ": 1862,
      "försök": 1863,
      "på ett ": 1864,
      "lös": 1865,
      "Jo": 1866,
      "inkl": 1867,
      "pu": 1868,
      "talet ": 1869,
      "a en ": 1870,
      "år.\n": 1871,
      "grupp": 1872,
      "kli": 1873,
      "slag": 1874,
      "),": 1875,
      "sedan ": 1876,
      "stra": 1877,
      "15": 1878,
      "tion ": 1879,
      "bol": 1880,
      "”.\n": 1881,
      "et, ": 1882,
      "använder ": 1883,
      "x ": 1884,
      "mina ": 1885,
      "har en ": 1886,
      "Varför ": 1887,
      "pass": 1888,
      "bro": 1889,
      "också": 1890,
      "kanske ": 1891,
      "fortfar": 1892,
      "miljö": 1893,
      "ligger ": 1894,
      "ller ": 1895,
      "orna ": 1896,
      "ren": 1897,
      "ationella ": 1898,
      " sig ": 1899,
      "lighet ": 1900,
      "terar ": 1901,
      "vårt ": 1902,
      "På ": 1903,
      "verksam": 1904,
      "tillsamman": 1905,
      "bas": 1906,
      "ay": 1907,
      "ande.\n": 1908,
      "result": 1909,
      "18": 1910,
      "land ": 1911,
      "n.\n": 1912,
      "egen": 1913,
      "hör": 1914,
      "bestäm": 1915,
      "Denna ": 1916,
      "hets": 1917,
      "redan ": 1918,
      "Med ": 1919,
      "allt": 1920,
      "ny ": 1921,
      "oner ": 1922,
      "ämn": 1923,
      "kunde ": 1924,
      "både ": 1925,
      "utom ": 1926,
      "gäng": 1927,
      "nar": 1928,
      "häll": 1929,
      "d för ": 1930,
      "endast ": 1931,
      "erat ": 1932,
      "bety": 1933,
      "det": 1934,
      "vissa ": 1935,
      "som en ": 1936,
      "son ": 1937,
      "väldigt ": 1938,
      "täck": 1939,
      "ning och ": 1940,
      "ationer ": 1941,
      "gen.\n": 1942,
      "gör": 1943,
      "ta": 1944,
      "organis": 1945,
      "fall ": 1946,
      "känner ": 1947,
      "enda ": 1948,
      "syn": 1949,
      "gra": 1950,
      "ofta ": 1951,
      "centr": 1952,
      "versi": 1953,
      "avs": 1954,
      "teck": 1955,
      "kom ": 1956,
      "visar ": 1957,
      "och st": 1958,
      "fick ": 1959,
      "del ": 1960,
      "ess": 1961,
      "rum": 1962,
      "ående ": 1963,
      "speci": 1964,
      "sten ": 1965,
      "hus": 1966,
      "öv": 1967,
      "spr": 1968,
      "kvali": 1969,
      "en\n": 1970,
      "gen ": 1971,
      "off": 1972,
      "huvud": 1973,
      "Här ": 1974,
      "mer än ": 1975,
      "kur": 1976,
      "stor ": 1977,
      "Jag": 1978,
      "The ": 1979,
      "ende": 1980,
      "Ch": 1981,
      "st.\n": 1982,
      "fung": 1983,
      "att jag ": 1984,
      "ter, ": 1985,
      "att göra ": 1986,
      "amp": 1987,
      "risk": 1988,
      "i S": 1989,
      "er\n": 1990,
      "i ett ": 1991,
      "000": 1992,
      "folk": 1993,
      "od ": 1994,
      "bin": 1995,
      "vari": 1996,
      "” ": 1997,
      "i den ": 1998,
      "utbild": 1999,
      "märk": 2000,
      "ov": 2001,
      "älj": 2002,
      "äger ": 2003,
      "proje": 2004,
      "Di": 2005,
      "inneb": 2006,
      "funktion": 2007,
      "e och ": 2008,
      "Som ": 2009,
      "lut": 2010,
      "ligt": 2011,
      "besök": 2012,
      "komp": 2013,
      "i st": 2014,
      "verkar ": 2015,
      "kan du ": 2016,
      "främ": 2017,
      "system": 2018,
      "förändr": 2019,
      "honom ": 2020,
      " själv": 2021,
      "kap": 2022,
      "oss": 2023,
      "hjälpa ": 2024,
      "cep": 2025,
      "rapp": 2026,
      "oni": 2027,
      "rig": 2028,
      "ologi": 2029,
      "at.\n": 2030,
      "bort ": 2031,
      " så": 2032,
      "jäm": 2033,
      "diga ": 2034,
      "effekti": 2035,
      "\".\n": 2036,
      "träff": 2037,
      "Vil": 2038,
      "yndig": 2039,
      "ning, ": 2040,
      "kan vara ": 2041,
      "delar ": 2042,
      "tenskap": 2043,
      "är den ": 2044,
      "30": 2045,
      "fortfarande ": 2046,
      "tens ": 2047,
      "med att ": 2048,
      "förbätt": 2049,
      "kten ": 2050,
      "tillgäng": 2051,
      "ang": 2052,
      "a att ": 2053,
      "enkel": 2054,
      "ameri": 2055,
      "tillbaka ": 2056,
      "12": 2057,
      "läpp": 2058,
      "dock ": 2059,
      "stora ": 2060,
      "världen ": 2061,
      "sitt ": 2062,
      "kontroll": 2063,
      "Ro": 2064,
      "materi": 2065,
      "mini": 2066,
      "utom": 2067,
      "gräns": 2068,
      "Ut": 2069,
      " som är ": 2070,
      "samt ": 2071,
      "tim": 2072,
      "av den ": 2073,
      "Sam": 2074,
      "nade ": 2075,
      "che": 2076,
      "mel": 2077,
      "själv": 2078,
      "Du kan ": 2079,
      "dj": 2080,
      "orsak": 2081,
      "mindre ": 2082,
      "Bar": 2083,
      "om det ": 2084,
      "Kom": 2085,
      "sätta ": 2086,
      "mak": 2087,
      "föra ": 2088,
      "jälv ": 2089,
      "ka": 2090,
      "cy": 2091,
      "hin": 2092,
      "kre": 2093,
      "ne ": 2094,
      "Lä": 2095,
      "met ": 2096,
      "dom ": 2097,
      "skall ": 2098,
      "sol": 2099,
      "s\n": 2100,
      "posi": 2101,
      "att vara ": 2102,
      "verig": 2103,
      "...": 2104,
      "are och ": 2105,
      "hä": 2106,
      "företag ": 2107,
      "lek": 2108,
      "gemen": 2109,
      "vak": 2110,
      "alt ": 2111,
      "Nu ": 2112,
      "hy": 2113,
      " proc": 2114,
      "publi": 2115,
      "anti": 2116,
      "en som ": 2117,
      "na, ": 2118,
      "inga ": 2119,
      " skall ": 2120,
      "gar": 2121,
      "dag.\n": 2122,
      "tem": 2123,
      "tiden ": 2124,
      "w ": 2125,
      "stol": 2126,
      "flesta ": 2127,
      "drag": 2128,
      "dju": 2129,
      "byg": 2130,
      "gener": 2131,
      "peri": 2132,
      "vester": 2133,
      "artikel ": 2134,
      "50": 2135,
      "opp": 2136,
      "tidigt ": 2137,
      "uppgifter ": 2138,
      "em": 2139,
      "cin": 2140,
      "om.\n": 2141,
      "exempel ": 2142,
      "aly": 2143,
      "as av ": 2144,
      " milj": 2145,
      "köp": 2146,
      "arbets": 2147,
      "ering": 2148,
      "or och ": 2149,
      "Co": 2150,
      "nande ": 2151,
      "stad": 2152,
      "hitta ": 2153,
      "gjort ": 2154,
      "ärskilt ": 2155,
      "ering ": 2156,
      "xi": 2157,
      "familj": 2158,
      "den, ": 2159,
      "a?\n": 2160,
      "produkter ": 2161,
      "are, ": 2162,
      "förl": 2163,
      "indi": 2164,
      "on.\n": 2165,
      "vol": 2166,
      "vilken ": 2167,
      " år ": 2168,
      "svar": 2169,
      "a med ": 2170,
      "god": 2171,
      "gre": 2172,
      "fru": 2173,
      "Det var ": 2174,
      "arbete ": 2175,
      ":s ": 2176,
      "miss": 2177,
      " att ": 2178,
      "Kon": 2179,
      "ini": 2180,
      "beho": 2181,
      "terade ": 2182,
      "ham": 2183,
      "n och ": 2184,
      "anden ": 2185,
      "Dessa ": 2186,
      "tifi": 2187,
      "Kan ": 2188,
      "åtgär": 2189,
      "Man ": 2190,
      "och sk": 2191,
      "hennes ": 2192,
      "regl": 2193,
      "ort": 2194,
      "llar ": 2195,
      "et och ": 2196,
      "ternati": 2197,
      "flyg": 2198,
      "vänt": 2199,
      " har ": 2200,
      "Till": 2201,
      "avse": 2202,
      "fre": 2203,
      "invester": 2204,
      "s med ": 2205,
      "mission": 2206,
      "spro": 2207,
      " på ": 2208,
      "fakti": 2209,
      "gjorde ": 2210,
      "Under ": 2211,
      "känsl": 2212,
      " eller ": 2213,
      "förm": 2214,
      "egen ": 2215,
      "tycker ": 2216,
      "kt.\n": 2217,
      "ation.\n": 2218,
      "För att ": 2219,
      "börjar ": 2220,
      "bry": 2221,
      "musi": 2222,
      " samma ": 2223,
      "ns ": 2224,
      "ktion ": 2225,
      "ligare ": 2226,
      "er i ": 2227,
      "därför ": 2228,
      "hår": 2229,
      "ationen ": 2230,
      "tidigare ": 2231,
      "Al": 2232,
      "hal": 2233,
      "Le": 2234,
      "derar ": 2235,
      "lok": 2236,
      "d, ": 2237,
      "sum": 2238,
      "nära ": 2239,
      "nöd": 2240,
      "lika ": 2241,
      "nad ": 2242,
      "euro": 2243,
      "ktiga ": 2244,
      "myndig": 2245,
      "tet": 2246,
      "mmar ": 2247,
      "amerikan": 2248,
      "san": 2249,
      "sko": 2250,
      "Par": 2251,
      "blivit ": 2252,
      "as i ": 2253,
      "else ": 2254,
      "du kan ": 2255,
      "t med ": 2256,
      "vilka ": 2257,
      "pen": 2258,
      "varande ": 2259,
      "snabb": 2260,
      "nästan ": 2261,
      "get ": 2262,
      "spl": 2263,
      "avi": 2264,
      "ytter": 2265,
      "net ": 2266,
      "nen ": 2267,
      "omfatt": 2268,
      "tala ": 2269,
      "fått ": 2270,
      "inte är ": 2271,
      "Jag är ": 2272,
      "peiska ": 2273,
      "kring ": 2274,
      "rade ": 2275,
      "assi": 2276,
      "serna ": 2277,
      "stitu": 2278,
      " säger ": 2279,
      "allmän": 2280,
      "jö": 2281,
      "ora ": 2282,
      "erbjuder ": 2283,
      "dig.\n": 2284,
      "A ": 2285,
      "dem.\n": 2286,
      "sjuk": 2287,
      "finansi": 2288,
      "förhåll": 2289,
      "kul": 2290,
      "väl ": 2291,
      "webbplat": 2292,
      "ack ": 2293,
      "inget ": 2294,
      "alternati": 2295,
      "bero": 2296,
      "varför ": 2297,
      "rikt": 2298,
      "s av ": 2299,
      "g och ": 2300,
      "lit": 2301,
      "fäll": 2302,
      "de.\n": 2303,
      "inte s": 2304,
      "16": 2305,
      "ningar.\n": 2306,
      "mot": 2307,
      "stem ": 2308,
      "Go": 2309,
      "ani": 2310,
      "affär": 2311,
      "gu": 2312,
      "cka ": 2313,
      "blo": 2314,
      "or, ": 2315,
      "vilj": 2316,
      "inte att ": 2317,
      "tred": 2318,
      "älskar ": 2319,
      "kta ": 2320,
      "dok": 2321,
      "gå": 2322,
      "på den ": 2323,
      "100": 2324,
      "visa ": 2325,
      "ser.\n": 2326,
      "su": 2327,
      "bud": 2328,
      "du s": 2329,
      "tillverk": 2330,
      "fant": 2331,
      "stö": 2332,
      "desig": 2333,
      "e, ": 2334,
      "Efter ": 2335,
      "runt ": 2336,
      "meddel": 2337,
      "kunskap": 2338,
      "när du ": 2339,
      "gri": 2340,
      "cis ": 2341,
      "Även ": 2342,
      "fast": 2343,
      " skri": 2344,
      "i sam": 2345,
      "bar ": 2346,
      "t för ": 2347,
      "medlems": 2348,
      "He": 2349,
      "Ma": 2350,
      "tverk": 2351,
      "et för ": 2352,
      "ställa ": 2353,
      "mig.\n": 2354,
      "kostna": 2355,
      "känna ": 2356,
      "199": 2357,
      "mon": 2358,
      "Bo": 2359,
      "just ": 2360,
      "riga ": 2361,
      "längre ": 2362,
      "in.\n": 2363,
      "inter": 2364,
      "typ": 2365,
      "ativa ": 2366,
      "står ": 2367,
      "rappor": 2368,
      "hav": 2369,
      "Te": 2370,
      "tillämp": 2371,
      "jor": 2372,
      "ram": 2373,
      "Vi har ": 2374,
      "der och ": 2375,
      "11": 2376,
      "fer": 2377,
      "peci": 2378,
      "ännu ": 2379,
      "der, ": 2380,
      "ppl": 2381,
      "te.\n": 2382,
      "skriv": 2383,
      "ten av ": 2384,
      "s för ": 2385,
      "via ": 2386,
      "nödvän": 2387,
      "pul": 2388,
      "skol": 2389,
      "fon": 2390,
      "dett": 2391,
      "vinn": 2392,
      "tele": 2393,
      "fler ": 2394,
      "fu": 2395,
      "riktig": 2396,
      "studi": 2397,
      "Gud ": 2398,
      "pati": 2399,
      "t som ": 2400,
      "Europ": 2401,
      "v.\n": 2402,
      "S ": 2403,
      "ym": 2404,
      "onlin": 2405,
      "ningen av ": 2406,
      "förut": 2407,
      "gick ": 2408,
      "ade s": 2409,
      "prat": 2410,
      "kommi": 2411,
      "när det ": 2412,
      "Pl": 2413,
      "mor": 2414,
      "begräns": 2415,
      "indu": 2416,
      "enter ": 2417,
      "energi": 2418,
      "Upp": 2419,
      "spar": 2420,
      "]\n": 2421,
      "förklar": 2422,
      "fel": 2423,
      "rekommen": 2424,
      "et är ": 2425,
      "ty ": 2426,
      "kontak": 2427,
      "ystem": 2428,
      "tillräck": 2429,
      "största ": 2430,
      "ome": 2431,
      "Där": 2432,
      "inst": 2433,
      "liv ": 2434,
      "lån": 2435,
      "trän": 2436,
      "vand": 2437,
      "ät": 2438,
      "bart ": 2439,
      "17": 2440,
      "problem": 2441,
      "ligtvis ": 2442,
      "saml": 2443,
      "slut ": 2444,
      "ligt att ": 2445,
      "fyra ": 2446,
      "fram ": 2447,
      "sätter ": 2448,
      "tog ": 2449,
      "medan ": 2450,
      "da.\n": 2451,
      " procent ": 2452,
      "bö": 2453,
      "g.\n": 2454,
      "hol": 2455,
      "det här ": 2456,
      "ations": 2457,
      "faren": 2458,
      "Någ": 2459,
      "Jes": 2460,
      "en att ": 2461,
      "vad som ": 2462,
      "14": 2463,
      "mer": 2464,
      "dera ": 2465,
      "tran": 2466,
      "jälva ": 2467,
      "ke ": 2468,
      "dra": 2469,
      "leva ": 2470,
      "Ex": 2471,
      "Ri": 2472,
      "ine": 2473,
      "ske": 2474,
      "ssutom ": 2475,
      "kommuni": 2476,
      "föräl": 2477,
      "ing, ": 2478,
      "tar": 2479,
      "form ": 2480,
      "dagar ": 2481,
      "dana ": 2482,
      "till den ": 2483,
      "inklusi": 2484,
      "in i ": 2485,
      "iden": 2486,
      "mode": 2487,
      "Her": 2488,
      "minu": 2489,
      "mänsk": 2490,
      "asin": 2491,
      "språ": 2492,
      "ningen.\n": 2493,
      "kat": 2494,
      "fok": 2495,
      "borg": 2496,
      "dro": 2497,
      "rättig": 2498,
      "c ": 2499,
      "hund": 2500,
      "dar ": 2501,
      "i och ": 2502,
      "vetenskap": 2503,
      "nivå": 2504,
      "re.\n": 2505,
      "or som ": 2506,
      "mål ": 2507,
      "marknads": 2508,
      "fantas": 2509,
      ", säger ": 2510,
      "Inte ": 2511,
      "t i ": 2512,
      "pra": 2513,
      "ster.\n": 2514,
      "lära ": 2515,
      "fråga ": 2516,
      " skap": 2517,
      "ktig ": 2518,
      "vack": 2519,
      "går": 2520,
      "grund av ": 2521,
      "faktiskt ": 2522,
      "Ty": 2523,
      "jut": 2524,
      "dig att ": 2525,
      "ing och ": 2526,
      "dagen ": 2527,
      "Många ": 2528,
      "pengar ": 2529,
      "mu": 2530,
      "tt.\n": 2531,
      "handlar ": 2532,
      "egna ": 2533,
      " k": 2534,
      "sor": 2535,
      "sera ": 2536,
      "väg ": 2537,
      "Uni": 2538,
      "Pre": 2539,
      "yss": 2540,
      "13": 2541,
      "att han ": 2542,
      "fli": 2543,
      "tisk ": 2544,
      "tex": 2545,
      "& ": 2546,
      "lam": 2547,
      "Po": 2548,
      "Gen": 2549,
      "jag har ": 2550,
      "ten, ": 2551,
      "er för ": 2552,
      "säg": 2553,
      "disk": 2554,
      "arbetar ": 2555,
      "For": 2556,
      "Tro": 2557,
      "föd": 2558,
      "glob": 2559,
      "se.\n": 2560,
      "bland": 2561,
      "Kan": 2562,
      "nästa ": 2563,
      " med ": 2564,
      " se": 2565,
      "vite": 2566,
      "läk": 2567,
      "bruk": 2568,
      "sion ": 2569,
      "att ha ": 2570,
      "ter och ": 2571,
      "upptäck": 2572,
      "stan": 2573,
      "Gr": 2574,
      "”,": 2575,
      "analy": 2576,
      "andar": 2577,
      "mäng": 2578,
      "framti": 2579,
      "upp till ": 2580,
      "skad": 2581,
      "förord": 2582,
      "direkt ": 2583,
      "ningar": 2584,
      "Var ": 2585,
      "klä": 2586,
      "en?\n": 2587,
      "tillfäll": 2588,
      "dition": 2589,
      "brö": 2590,
      "beroende ": 2591,
      "tyd": 2592,
      "\",": 2593,
      "ton": 2594,
      "hjärt": 2595,
      "välja ": 2596,
      "om de ": 2597,
      "num": 2598,
      "het att ": 2599,
      "innehåller ": 2600,
      "tell": 2601,
      "et i ": 2602,
      "används ": 2603,
      "kväll": 2604,
      "det finns ": 2605,
      "Intern": 2606,
      "fysi": 2607,
      "bolag": 2608,
      "upplev": 2609,
      "mask": 2610,
      "döm": 2611,
      "giv": 2612,
      "haf": 2613,
      "slö": 2614,
      "Fö": 2615,
      " stu": 2616,
      "fören": 2617,
      "är.\n": 2618,
      "To": 2619,
      "anställ": 2620,
      "profe": 2621,
      "hjälper ": 2622,
      "ai": 2623,
      "Am": 2624,
      "handel": 2625,
      "köpa ": 2626,
      "even": 2627,
      "ttade ": 2628,
      "började ": 2629,
      "erfaren": 2630,
      "25": 2631,
      "fas": 2632,
      "vide": 2633,
      "kol": 2634,
      "ttet ": 2635,
      "presen": 2636,
      "emot ": 2637,
      "ens": 2638,
      "Ve": 2639,
      "hem ": 2640,
      "liten ": 2641,
      "kort ": 2642,
      "d i ": 2643,
      "att vi ": 2644,
      "teg": 2645,
      "mag": 2646,
      "Guds ": 2647,
      "fini": 2648,
      "het och ": 2649,
      "problem ": 2650,
      "ögon": 2651,
      "inklusive ": 2652,
      "å s": 2653,
      "lar ": 2654,
      "världens ": 2655,
      "äre": 2656,
      "Sverig": 2657,
      "inte bara ": 2658,
      "process": 2659,
      "offent": 2660,
      "Bi": 2661,
      "dy": 2662,
      "part": 2663,
      "Vad är ": 2664,
      "läs": 2665,
      "genomför": 2666,
      "the ": 2667,
      "meto": 2668,
      "ux": 2669,
      "finns det ": 2670,
      "samhäll": 2671,
      " stör": 2672,
      "båda ": 2673,
      "registr": 2674,
      "försä": 2675,
      ") och ": 2676,
      "viss": 2677,
      "förmåg": 2678,
      "ande av ": 2679,
      "..\n": 2680,
      "perfe": 2681,
      "mör": 2682,
      "yf": 2683,
      "cir": 2684,
      "försälj": 2685,
      "en har ": 2686,
      "förstå": 2687,
      "till ett ": 2688,
      "två": 2689,
      "ade.\n": 2690,
      ", en ": 2691,
      "personer ": 2692,
      "bes": 2693,
      "ad.\n": 2694,
      "tur": 2695,
      "den är ": 2696,
      "sätt att ": 2697,
      "män ": 2698,
      "tligen ": 2699,
      "inci": 2700,
      "verkty": 2701,
      "avsett ": 2702,
      "fann": 2703,
      "igen": 2704,
      "släpp": 2705,
      "imp": 2706,
      "Min ": 2707,
      "person ": 2708,
      "Fa": 2709,
      "fakt": 2710,
      "vå ": 2711,
      "träd": 2712,
      "soci": 2713,
      "het, ": 2714,
      "Fin": 2715,
      "defini": 2716,
      "jag s": 2717,
      "can": 2718,
      "som har ": 2719,
      "nytt ": 2720,
      "tjänster ": 2721,
      "Lo": 2722,
      "gånger ": 2723,
      "ton ": 2724,
      "utan": 2725,
      "Or": 2726,
      "beslut": 2727,
      "förlor": 2728,
      " som s": 2729,
      "oper": 2730,
      "ah": 2731,
      "papp": 2732,
      "slu": 2733,
      "precis ": 2734,
      "internationella ": 2735,
      "betyder ": 2736,
      " miljoner ": 2737,
      "tas ": 2738,
      "sex": 2739,
      "de som ": 2740,
      "minst ": 2741,
      "Per": 2742,
      "lever ": 2743,
      "klag": 2744,
      "död": 2745,
      "tills ": 2746,
      "fem ": 2747,
      "handa": 2748,
      "rar ": 2749,
      "med ett ": 2750,
      "Fran": 2751,
      "bre": 2752,
      "mam": 2753,
      "för den ": 2754,
      "her": 2755,
      " sitt ": 2756,
      "aktu": 2757,
      "lätt ": 2758,
      "riktigt ": 2759,
      "Se": 2760,
      "stä": 2761,
      "ned": 2762,
      "Ber": 2763,
      "Då ": 2764,
      "utman": 2765,
      "ytterligare ": 2766,
      "gången ": 2767,
      "hälso": 2768,
      "Använ": 2769,
      "tillstån": 2770,
      "världen.\n": 2771,
      "Ju": 2772,
      "ons": 2773,
      "t av ": 2774,
      "k och ": 2775,
      "gör det ": 2776,
      "brän": 2777,
      "hör ": 2778,
      "siden": 2779,
      "ganska ": 2780,
      "sidan ": 2781,
      "kan inte ": 2782,
      "undersök": 2783,
      "ada ": 2784,
      "kam": 2785,
      "kommission": 2786,
      "nätverk": 2787,
      "a i ": 2788,
      "gillar ": 2789,
      "dokum": 2790,
      "os": 2791,
      "or i ": 2792,
      "tillhanda": 2793,
      "parti": 2794,
      "närm": 2795,
      "enlighet ": 2796,
      "att den ": 2797,
      "popul": 2798,
      "vatten": 2799,
      "ktur": 2800,
      "gamla ": 2801,
      "nation": 2802,
      "konsum": 2803,
      "jun": 2804,
      "veta ": 2805,
      "enkelt ": 2806,
      "arna.\n": 2807,
      "Läs ": 2808,
      "en s": 2809,
      "staur": 2810,
      "att få ": 2811,
      "uppn": 2812,
      "tack": 2813,
      "kombin": 2814,
      ", vilket ": 2815,
      "ansvar": 2816,
      " spel": 2817,
      "haft ": 2818,
      " %": 2819,
      "…\n": 2820,
      "tet och ": 2821,
      "Du": 2822,
      "kte ": 2823,
      "borde ": 2824,
      "tes ": 2825,
      "säga ": 2826,
      "kallas ": 2827,
      "livs": 2828,
      "pris": 2829,
      "chef": 2830,
      "ningarna ": 2831,
      "uppfy": 2832,
      "här.\n": 2833,
      "Allt ": 2834,
      "idag ": 2835,
      "et\n": 2836,
      "aliser": 2837,
      "sen.\n": 2838,
      "och med ": 2839,
      "Is": 2840,
      "Sedan ": 2841,
      "Därför ": 2842,
      "produk": 2843,
      "Ny": 2844,
      "heterna ": 2845,
      "stat": 2846,
      "seri": 2847,
      "40": 2848,
      " som": 2849,
      "bili": 2850,
      "orl": 2851,
      "ran": 2852,
      "are som ": 2853,
      "ändra ": 2854,
      "äker": 2855,
      "skill": 2856,
      ", eller ": 2857,
      "händer ": 2858,
      "djur": 2859,
      "fat": 2860,
      "nat": 2861,
      "par ": 2862,
      "tillgång ": 2863,
      "kyr": 2864,
      "idé": 2865,
      "tri": 2866,
      "skick": 2867,
      "rust": 2868,
      "bun": 2869,
      "häm": 2870,
      "kult": 2871,
      "inte har ": 2872,
      "käll": 2873,
      "större ": 2874,
      "Nor": 2875,
      "minn": 2876,
      "nö": 2877,
      "hus ": 2878,
      ": \"": 2879,
      "henne ": 2880,
      "medlemssta": 2881,
      "der som ": 2882,
      "det var ": 2883,
      "fördel": 2884,
      "undvi": 2885,
      "material": 2886,
      "exempel": 2887,
      "jag är ": 2888,
      "tra ": 2889,
      ": ”": 2890,
      "koppl": 2891,
      "fanns ": 2892,
      "erande ": 2893,
      "framgång": 2894,
      "tegi": 2895,
      "du har ": 2896,
      "heter.\n": 2897,
      "ses ": 2898,
      "värde": 2899,
      "am ": 2900,
      "koll": 2901,
      "lägga ": 2902,
      "på grund av ": 2903,
      "mun": 2904,
      "anled": 2905,
      "den och ": 2906,
      "leverant": 2907,
      "ekonomi": 2908,
      "kvar": 2909,
      "skapa ": 2910,
      "film": 2911,
      "qu": 2912,
      "ond": 2913,
      "vem": 2914,
      "Eller ": 2915,
      "Stor": 2916,
      "age": 2917,
      " år": 2918,
      "an, ": 2919,
      "det som ": 2920,
      "Väl": 2921,
      "mots": 2922,
      "punkt ": 2923,
      "lämp": 2924,
      "install": 2925,
      "enlighet med ": 2926,
      "heter": 2927,
      "böck": 2928,
      "lad": 2929,
      "ar\n": 2930,
      "We": 2931,
      "dde ": 2932,
      "morg": 2933,
      "antal ": 2934,
      "ligt.\n": 2935,
      "kräver ": 2936,
      "medicin": 2937,
      "Car": 2938,
      "styr": 2939,
      "tredje ": 2940,
      " om ": 2941,
      "svår": 2942,
      "jämför": 2943,
      "teras ": 2944,
      "nytt": 2945,
      "k, ": 2946,
      "säger ": 2947,
      "tid.\n": 2948,
      "respe": 2949,
      "läsa ": 2950,
      "Nä": 2951,
      "bra": 2952,
      "det, ": 2953,
      "konkur": 2954,
      "stäm": 2955,
      "liv.\n": 2956,
      "fungerar ": 2957,
      "Hi": 2958,
      "] ": 2959,
      "mat ": 2960,
      "Det här ": 2961,
      "ktiv ": 2962,
      ", så": 2963,
      "de flesta ": 2964,
      "läke": 2965,
      "stort ": 2966,
      "vare ": 2967,
      "amerikanska ": 2968,
      "jord": 2969,
      "tillsammans med ": 2970,
      "bygga ": 2971,
      "en på ": 2972,
      "lätt": 2973,
      "beslut ": 2974,
      "har jag ": 2975,
      "i det ": 2976,
      "band ": 2977,
      "ca ": 2978,
      "utan att ": 2979,
      "klart ": 2980,
      "arm": 2981,
      "namn ": 2982,
      "från en ": 2983,
      "konst": 2984,
      "tillå": 2985,
      "eringen ": 2986,
      "nog ": 2987,
      "också.\n": 2988,
      "a av ": 2989,
      "an och ": 2990,
      "Fi": 2991,
      "teten ": 2992,
      ", sam": 2993,
      "produktion": 2994,
      "tol": 2995,
      "före ": 2996,
      "lämna ": 2997,
      "val ": 2998,
      "Det är en ": 2999,
      "högre ": 3000,
      "sprung": 3001,
      "ord ": 3002,
      "stiska ": 3003,
      "rum ": 3004,
      "norm": 3005,
      "försöker ": 3006,
      "/ ": 3007,
      "innehåll": 3008,
      "erna.\n": 3009,
      " själv ": 3010,
      "gran": 3011,
      "tliga ": 3012,
      "uttryck": 3013,
      "i sin ": 3014,
      "spir": 3015,
      "industri": 3016,
      "tenti": 3017,
      "autom": 3018,
      "system ": 3019,
      "Varje ": 3020,
      "har varit ": 3021,
      "Detta är ": 3022,
      "byggna": 3023,
      "60": 3024,
      "n, ": 3025,
      "tillväx": 3026,
      " [": 3027,
      "om en ": 3028,
      "först ": 3029,
      "händel": 3030,
      "till exempel ": 3031,
      "förbättra ": 3032,
      "a!\n": 3033,
      "ssi": 3034,
      "ligi": 3035,
      "mass": 3036,
      "kvinnor ": 3037,
      "24": 3038,
      "ba": 3039,
      "ande och ": 3040,
      "var det ": 3041,
      " star": 3042,
      "ting ": 3043,
      "verka ": 3044,
      "moder": 3045,
      "hög ": 3046,
      "dan.\n": 3047,
      "prakti": 3048,
      "ds ": 3049,
      "förstå ": 3050,
      "lyss": 3051,
      "sten": 3052,
      "enaste ": 3053,
      "Man": 3054,
      "Si": 3055,
      "vag": 3056,
      "uppda": 3057,
      "länge ": 3058,
      "cera ": 3059,
      "sam ": 3060,
      "följande ": 3061,
      "indivi": 3062,
      "tog": 3063,
      "godkän": 3064,
      "test": 3065,
      "utrust": 3066,
      "t?\n": 3067,
      "slag ": 3068,
      "ution": 3069,
      "minsk": 3070,
      "inför ": 3071,
      "hun": 3072,
      "älsk": 3073,
      "andra.\n": 3074,
      "vir": 3075,
      "sättning ": 3076,
      "sni": 3077,
      "början ": 3078,
      "D ": 3079,
      "den som ": 3080,
      "EN": 3081,
      "• ": 3082,
      "tänka ": 3083,
      "transp": 3084,
      "sid": 3085,
      "Fl": 3086,
      "New ": 3087,
      "ER": 3088,
      "börja ": 3089,
      "enkl": 3090,
      "grati": 3091,
      "Ni": 3092,
      "rist": 3093,
      "tillräckligt ": 3094,
      "Con": 3095,
      "Pe": 3096,
      "att ta ": 3097,
      "ville ": 3098,
      "ater": 3099,
      "på det ": 3100,
      "hand ": 3101,
      "användas ": 3102,
      "nu.\n": 3103,
      "inklu": 3104,
      "digi": 3105,
      "ibland ": 3106,
      "mobil": 3107,
      "vatten ": 3108,
      "T ": 3109,
      "frågan ": 3110,
      "Från ": 3111,
      "Till ": 3112,
      "lande": 3113,
      "tom": 3114,
      "ingar.\n": 3115,
      "Vill ": 3116,
      "internation": 3117,
      "Ad": 3118,
      "EG": 3119,
      "ress": 3120,
      "långt ": 3121,
      "Sp": 3122,
      "institu": 3123,
      "na\n": 3124,
      "oft": 3125,
      "universi": 3126,
      "gamm": 3127,
      "ski": 3128,
      "satt ": 3129,
      "klass": 3130,
      "utanför ": 3131,
      "ssion": 3132,
      "situ": 3133,
      " som en ": 3134,
      "tradition": 3135,
      "andet av ": 3136,
      "vux": 3137,
      "Hel": 3138,
      "honom": 3139,
      "författ": 3140,
      "sådan ": 3141,
      "dator": 3142,
      "oss.\n": 3143,
      "gått ": 3144,
      "uti": 3145,
      "saker ": 3146,
      "inte kan ": 3147,
      "innov": 3148,
      "tak": 3149,
      "från": 3150,
      "ter som ": 3151,
      "resultat ": 3152,
      "utför": 3153,
      "hittar ": 3154,
      "az": 3155,
      "lek ": 3156,
      "Enligt ": 3157,
      "positi": 3158,
      "av st": 3159,
      "identifi": 3160,
      "folk ": 3161,
      "den i ": 3162,
      "tet av ": 3163,
      "fa": 3164,
      "ministr": 3165,
      "kvin": 3166,
      "regel": 3167,
      "bal": 3168,
      "rom": 3169,
      "to ": 3170,
      "tell ": 3171,
      "tiskt ": 3172,
      "kunder ": 3173,
      "ment ": 3174,
      "demo": 3175,
      "Se ": 3176,
      "Win": 3177,
      "av att ": 3178,
      "vill ha ": 3179,
      "igen.\n": 3180,
      "kör": 3181,
      "de är ": 3182,
      "glöm": 3183,
      "någonsin ": 3184,
      "ätt": 3185,
      "Vi är ": 3186,
      "berät": 3187,
      "viktigt att ": 3188,
      "Jesus ": 3189,
      "Låt ": 3190,
      "lan": 3191,
      "let": 3192,
      "my": 3193,
      "ub": 3194,
      "region": 3195,
      "håll ": 3196,
      "fik": 3197,
      "full ": 3198,
      "tet, ": 3199,
      "Är det ": 3200,
      "sida ": 3201,
      "server": 3202,
      "länder ": 3203,
      "Vid ": 3204,
      "möjlighet att ": 3205,
      "om den ": 3206,
      "rik": 3207,
      "andra": 3208,
      "fortsätta ": 3209,
      "vi har ": 3210,
      "!!\n": 3211,
      "skatt": 3212,
      "spel ": 3213,
      "rörel": 3214,
      "ning som ": 3215,
      "198": 3216,
      "sty": 3217,
      "Så": 3218,
      "vl": 3219,
      "tio ": 3220,
      "avori": 3221,
      "ursprung": 3222,
      "ekonomiska ": 3223,
      "rän": 3224,
      "religi": 3225,
      "drag ": 3226,
      "Hur man ": 3227,
      "hoppas ": 3228,
      "abl": 3229,
      "frågor ": 3230,
      "venska ": 3231,
      "krävs ": 3232,
      "Isra": 3233,
      "ttag": 3234,
      "möjligt ": 3235,
      "tagit ": 3236,
      "Tän": 3237,
      "sch": 3238,
      "förvänt": 3239,
      "diska ": 3240,
      "ning i ": 3241,
      "accep": 3242,
      "nämn": 3243,
      "resa ": 3244,
      "union": 3245,
      "ut.\n": 3246,
      "bete": 3247,
      " sp": 3248,
      "steg ": 3249,
      "rym": 3250,
      "kommunik": 3251,
      "avtal": 3252,
      "allvar": 3253,
      "up": 3254,
      "ford": 3255,
      "höj": 3256,
      "färg": 3257,
      "lamen": 3258,
      " - ": 3259,
      "ay ": 3260,
      "ars ": 3261,
      "ers ": 3262,
      "typer ": 3263,
      "behöv": 3264,
      "Vem ": 3265,
      "a: ": 3266,
      "arti": 3267,
      "ale": 3268,
      "innebär att ": 3269,
      "minska ": 3270,
      "Europeiska ": 3271,
      "läkemedel": 3272,
      "stag": 3273,
      "avslut": 3274,
      "ingen av ": 3275,
      "och en ": 3276,
      "are i ": 3277,
      "fter ": 3278,
      "sista ": 3279,
      " ...\n": 3280,
      " sak": 3281,
      "book": 3282,
      "bat": 3283,
      "are än ": 3284,
      "data ": 3285,
      "anser ": 3286,
      "vara en ": 3287,
      "leda ": 3288,
      "organisation": 3289,
      "helst ": 3290,
      "äta ": 3291,
      "eget ": 3292,
      ", st": 3293,
      "ring": 3294,
      "ägg": 3295,
      "tänker ": 3296,
      "Av": 3297,
      "psy": 3298,
      "stift": 3299,
      "igen ": 3300,
      "topp": 3301,
      "aktivite": 3302,
      "kni": 3303,
      "medborg": 3304,
      "Ingen ": 3305,
      "fäl": 3306,
      "ktr": 3307,
      "platt": 3308,
      "kommit ": 3309,
      "betyd": 3310,
      "nan ": 3311,
      "o.\n": 3312,
      "vål": 3313,
      "Om": 3314,
      "iställ": 3315,
      "dröm": 3316,
      "sätt.\n": 3317,
      "d som ": 3318,
      "ot": 3319,
      "vap": 3320,
      "ar en ": 3321,
      "hanter": 3322,
      "alltså ": 3323,
      "vilja ": 3324,
      "lösa ": 3325,
      "låta ": 3326,
      "engel": 3327,
      "fal": 3328,
      "räk": 3329,
      " ser ": 3330,
      "viktiga ": 3331,
      " säker": 3332,
      "dör": 3333,
      "favori": 3334,
      "er av ": 3335,
      "eln ": 3336,
      "Dessutom ": 3337,
      "kvar ": 3338,
      "rör": 3339,
      "st, ": 3340,
      "har vi ": 3341,
      "jag inte ": 3342,
      "stöd": 3343,
      "presiden": 3344,
      "Joh": 3345,
      "C ": 3346,
      "nationella ": 3347,
      "sett ": 3348,
      "anslut": 3349,
      "näm": 3350,
      "him": 3351,
      "utveckla ": 3352,
      "ledande ": 3353,
      "den för ": 3354,
      "och som ": 3355,
      "bek": 3356,
      "väljer ": 3357,
      "rätts": 3358,
      "leverantör": 3359,
      "fel ": 3360,
      "ange": 3361,
      "ena ": 3362,
      "d med ": 3363,
      "mid": 3364,
      "Com": 3365,
      "gä": 3366,
      "ar i ": 3367,
      "var en ": 3368,
      "yp": 3369,
      "ovan": 3370,
      "verklig": 3371,
      "domstol": 3372,
      "a-": 3373,
      "stå ": 3374,
      "dow": 3375,
      "en till ": 3376,
      "skyl": 3377,
      "människor": 3378,
      "fortsätter ": 3379,
      "detal": 3380,
      "uppmärk": 3381,
      "Efter": 3382,
      "resulta": 3383,
      "livet ": 3384,
      "foku": 3385,
      "häls": 3386,
      "ari ": 3387,
      "det att ": 3388,
      "deltag": 3389,
      "arbeta ": 3390,
      "resur": 3391,
      "fullt ": 3392,
      "ihå": 3393,
      "rad ": 3394,
      "os ": 3395,
      "förber": 3396,
      "vänner ": 3397,
      "önsk": 3398,
      "Med": 3399,
      "vinna ": 3400,
      "icke-": 3401,
      "publicer": 3402,
      "potenti": 3403,
      "kapi": 3404,
      "t.": 3405,
      "är i ": 3406,
      "olog": 3407,
      "mul": 3408,
      "skriva ": 3409,
      "djup": 3410,
      "princi": 3411,
      "EU-": 3412,
      "kal": 3413,
      "tets ": 3414,
      "betala ": 3415,
      "länd": 3416,
      "kamp": 3417,
      "honom.\n": 3418,
      "färdig": 3419,
      "pan": 3420,
      " skol": 3421,
      "ande, ": 3422,
      "och sam": 3423,
      "blogg": 3424,
      "IN": 3425,
      "trö": 3426,
      "Vilka ": 3427,
      "ant ": 3428,
      "motor": 3429,
      "kultur": 3430,
      "roll": 3431,
      "st och ": 3432,
      "såg ": 3433,
      "heller ": 3434,
      "one ": 3435,
      "för att få ": 3436,
      " ställ": 3437,
      "hur man ": 3438,
      "sjukdom": 3439,
      "lång ": 3440,
      "ifrån ": 3441,
      "adi": 3442,
      "er är ": 3443,
      "rid": 3444,
      "året ": 3445,
      "antag": 3446,
      "mång": 3447,
      " står ": 3448,
      "hjälp av ": 3449,
      "timmar ": 3450,
      "rele": 3451,
      "åtgärder ": 3452,
      "dre": 3453,
      "kort": 3454,
      "Ameri": 3455,
      "B ": 3456,
      "bur": 3457,
      "må ": 3458,
      "avgif": 3459,
      "den\n": 3460,
      "området ": 3461,
      "ar som ": 3462,
      "tyg": 3463,
      "ihåg ": 3464,
      "ben": 3465,
      "inspir": 3466,
      "else": 3467,
      "befolk": 3468,
      "brans": 3469,
      "maskin": 3470,
      "finnas ": 3471,
      "rat ": 3472,
      "på.\n": 3473,
      " minu": 3474,
      "tillgång till ": 3475,
      "iho": 3476,
      "fast ": 3477,
      "um.\n": 3478,
      "låg": 3479,
      "Vissa ": 3480,
      "jul": 3481,
      "integr": 3482,
      "ningar och ": 3483,
      "sh": 3484,
      "skö": 3485,
      "som ett ": 3486,
      "hitt": 3487,
      "perio": 3488,
      "bilder ": 3489,
      "när jag ": 3490,
      "knapp": 3491,
      "ar på ": 3492,
      "extra ": 3493,
      "låter ": 3494,
      "Vär": 3495,
      "leder ": 3496,
      "sterna ": 3497,
      "spela ": 3498,
      "politiska ": 3499,
      "när det gäller ": 3500,
      "modell": 3501,
      " M": 3502,
      "Pri": 3503,
      "Din ": 3504,
      "ständig": 3505,
      "kredi": 3506,
      "ervi": 3507,
      "as med ": 3508,
      "unga ": 3509,
      "fastställ": 3510,
      "bon": 3511,
      "bedöm": 3512,
      "ktor": 3513,
      "typ av ": 3514,
      "cirka ": 3515,
      "TV": 3516,
      "g för ": 3517,
      "platser ": 3518,
      "kommande ": 3519,
      "d\n": 3520,
      "as, ": 3521,
      "röst": 3522,
      "dem som ": 3523,
      "Bil": 3524,
      "IS": 3525,
      "nöj": 3526,
      "post": 3527,
      "telefon": 3528,
      "21": 3529,
      "viktig ": 3530,
      "atiska ": 3531,
      "trots ": 3532,
      "Fråg": 3533,
      "Har": 3534,
      "Su": 3535,
      "Ste": 3536,
      "skon": 3537,
      "följa ": 3538,
      "detta.\n": 3539,
      "myck": 3540,
      "ogl": 3541,
      " sedan ": 3542,
      "heten av ": 3543,
      "Ni ": 3544,
      "Yo": 3545,
      "ativ ": 3546,
      "cro": 3547,
      "äk": 3548,
      "förfar": 3549,
      "följer ": 3550,
      "Pa": 3551,
      "skär": 3552,
      "öppna ": 3553,
      "Au": 3554,
      "ktet ": 3555,
      "klassi": 3556,
      "senaste ": 3557,
      " samt ": 3558,
      "Wi": 3559,
      "Bl": 3560,
      "åra ": 3561,
      "administr": 3562,
      "god ": 3563,
      "lokala ": 3564,
      "are att ": 3565,
      "trans": 3566,
      "ps ": 3567,
      "kan man ": 3568,
      "överför": 3569,
      "privat": 3570,
      "ax": 3571,
      "skat": 3572,
      " :": 3573,
      ", är ": 3574,
      "förval": 3575,
      "al.\n": 3576,
      "offi": 3577,
      "Hans ": 3578,
      "syn ": 3579,
      " säga ": 3580,
      "aw": 3581,
      "nog": 3582,
      "ativ": 3583,
      "as till ": 3584,
      "förstår ": 3585,
      "höra ": 3586,
      "framför ": 3587,
      "ha en ": 3588,
      "land.\n": 3589,
      "bestämmel": 3590,
      "E ": 3591,
      "Ja, ": 3592,
      "boll": 3593,
      "med den ": 3594,
      "Jag vill ": 3595,
      "goda ": 3596,
      "heten.\n": 3597,
      "bransch": 3598,
      "D-": 3599,
      "akt ": 3600,
      "information": 3601,
      "cell": 3602,
      "Och": 3603,
      "mer.\n": 3604,
      "åd": 3605,
      "att man ": 3606,
      "les ": 3607,
      "titta ": 3608,
      "pla": 3609,
      "känns ": 3610,
      "197": 3611,
      "studen": 3612,
      "ame": 3613,
      "ide": 3614,
      "igenom ": 3615,
      "ins ": 3616,
      "ungef": 3617,
      "grundlägg": 3618,
      "til": 3619,
      "ande s": 3620,
      "fot": 3621,
      "Har du ": 3622,
      "Idag ": 3623,
      "gul": 3624,
      "gud": 3625,
      "restaur": 3626,
      "as och ": 3627,
      "apar": 3628,
      "blod": 3629,
      "eventu": 3630,
      "Lin": 3631,
      "j, ": 3632,
      "njut": 3633,
      " stö": 3634,
      "ar för ": 3635,
      "på din ": 3636,
      "inte.\n": 3637,
      "barn.\n": 3638,
      "Vår ": 3639,
      "gav ": 3640,
      "inställ": 3641,
      "att det är ": 3642,
      "risk ": 3643,
      "påverkar ": 3644,
      "viss ": 3645,
      "sikt ": 3646,
      "cebook": 3647,
      ";\n": 3648,
      "version": 3649,
      "värder": 3650,
      "ats": 3651,
      "arki": 3652,
      "volution": 3653,
      "rike": 3654,
      " för att ": 3655,
      "Ge": 3656,
      "dio": 3657,
      "dande ": 3658,
      "verksamhet ": 3659,
      "mänskliga ": 3660,
      "kra": 3661,
      "inns ": 3662,
      "Jag tror ": 3663,
      "när de ": 3664,
      "er?\n": 3665,
      "ning (": 3666,
      "kända ": 3667,
      "behöva ": 3668,
      "roll ": 3669,
      "från den ": 3670,
      "present": 3671,
      "ug": 3672,
      "en ny ": 3673,
      "information om ": 3674,
      "Kanske ": 3675,
      "Fo": 3676,
      "oavsett ": 3677,
      "vs": 3678,
      "ard ": 3679,
      "lex": 3680,
      "hotell": 3681,
      "match": 3682,
      "typer av ": 3683,
      "e\n": 3684,
      "tids": 3685,
      "stra ": 3686,
      "ett": 3687,
      "exi": 3688,
      "ändå ": 3689,
      "projekt ": 3690,
      "exper": 3691,
      "finner ": 3692,
      "högsta ": 3693,
      "oro": 3694,
      "an är ": 3695,
      "egentligen ": 3696,
      "tillgängliga ": 3697,
      "Gre": 3698,
      "fä": 3699,
      "ami": 3700,
      "rit": 3701,
      "Ko": 3702,
      "ingarna ": 3703,
      "har ett ": 3704,
      "europeiska ": 3705,
      "jan": 3706,
      "stin": 3707,
      " m": 3708,
      "standar": 3709,
      " – ": 3710,
      "för ett ": 3711,
      "lägen": 3712,
      "ten och ": 3713,
      "ational ": 3714,
      "där.\n": 3715,
      "och\n": 3716,
      "villkor": 3717,
      "nart ": 3718,
      "behov ": 3719,
      "Kar": 3720,
      "sag": 3721,
      "erings": 3722,
      "gärna ": 3723,
      "gt ": 3724,
      "kterna ": 3725,
      "ters ": 3726,
      "försöka ": 3727,
      "hindra ": 3728,
      "musik": 3729,
      "profession": 3730,
      "antalet ": 3731,
      "umär": 3732,
      "a, och ": 3733,
      "när man ": 3734,
      "cem": 3735,
      "bred": 3736,
      "hur": 3737,
      "rör ": 3738,
      "tals ": 3739,
      "När du ": 3740,
      "Kommer ": 3741,
      "bekrä": 3742,
      "uppen": 3743,
      "består ": 3744,
      "affärs": 3745,
      "däre": 3746,
      "fem": 3747,
      "huvu": 3748,
      "för alla ": 3749,
      "22": 3750,
      "oki": 3751,
      "användar": 3752,
      "månader ": 3753,
      "Universi": 3754,
      "Mon": 3755,
      "anpass": 3756,
      "verkan ": 3757,
      "fyll": 3758,
      "vention": 3759,
      "arbete": 3760,
      "vänta ": 3761,
      "neg": 3762,
      "de senaste ": 3763,
      " stora ": 3764,
      "betydel": 3765,
      "drabb": 3766,
      "t.ex": 3767,
      "företaget ": 3768,
      "Ac": 3769,
      "dets ": 3770,
      "sprogram": 3771,
      "Män": 3772,
      "du inte ": 3773,
      "marknadsför": 3774,
      "Vad": 3775,
      "enskil": 3776,
      "milit": 3777,
      "omedel": 3778,
      "R ": 3779,
      "utnytt": 3780,
      "as på ": 3781,
      "en av de ": 3782,
      "kärlek": 3783,
      "försäkr": 3784,
      "skillna": 3785,
      "Window": 3786,
      "uppmärksam": 3787,
      "syf": 3788,
      "alternativ ": 3789,
      "den första ": 3790,
      "spän": 3791,
      "hantera ": 3792,
      "automati": 3793,
      "s att ": 3794,
      "för de ": 3795,
      "hemm": 3796,
      "ationer.\n": 3797,
      "Kän": 3798,
      "kast": 3799,
      " se ": 3800,
      "m och ": 3801,
      "konkurren": 3802,
      "ig ": 3803,
      "d på ": 3804,
      "i enlighet med ": 3805,
      "sekv": 3806,
      "Vi s": 3807,
      "moti": 3808,
      "ämpa ": 3809,
      "et?\n": 3810,
      "aste": 3811,
      "klu": 3812,
      "viktigaste ": 3813,
      "fjär": 3814,
      "d att ": 3815,
      "ktiv": 3816,
      "krig": 3817,
      "tje": 3818,
      "strum": 3819,
      " sätt ": 3820,
      "arbetet ": 3821,
      "d från ": 3822,
      "try": 3823,
      "ficer": 3824,
      "övervak": 3825,
      "möjligheter ": 3826,
      "relevan": 3827,
      "få": 3828,
      "mt ": 3829,
      "i när": 3830,
      "amm": 3831,
      "utform": 3832,
      "kan också ": 3833,
      "dagens ": 3834,
      "bort": 3835,
      "Ob": 3836,
      "obje": 3837,
      "rättigheter ": 3838,
      "framgångs": 3839,
      "Än": 3840,
      "er på ": 3841,
      "ung ": 3842,
      "mer om ": 3843,
      " skick": 3844,
      "ser och ": 3845,
      "II": 3846,
      "sän": 3847,
      "Googl": 3848,
      "Pi": 3849,
      "aci": 3850,
      " sin ": 3851,
      "kan vi ": 3852,
      "egenskap": 3853,
      "mån": 3854,
      "tiga ": 3855,
      "distri": 3856,
      "du behöver ": 3857,
      "nr ": 3858,
      "ret": 3859,
      "särskilt ": 3860,
      "anta ": 3861,
      "ockhol": 3862,
      "Yor": 3863,
      "a, men ": 3864,
      "krav": 3865,
      "196": 3866,
      "nödvändig": 3867,
      "flick": 3868,
      "fång": 3869,
      "i alla ": 3870,
      "varumär": 3871,
      "struktur": 3872,
      "energ": 3873,
      "strategi": 3874,
      "No": 3875,
      "jät": 3876,
      "sc": 3877,
      "tanni": 3878,
      "tillsammans ": 3879,
      "djur ": 3880,
      "-tal": 3881,
      "lug": 3882,
      "ner.\n": 3883,
      "ore": 3884,
      "elektr": 3885,
      "'s ": 3886,
      "flö": 3887,
      "prom": 3888,
      "vån": 3889,
      "arnas ": 3890,
      "fulla ": 3891,
      "tisk": 3892,
      "ning till ": 3893,
      "nes ": 3894,
      "Tysk": 3895,
      "com": 3896,
      "skom": 3897,
      "svårt att ": 3898,
      "70": 3899,
      "Där ": 3900,
      "hum": 3901,
      "er med ": 3902,
      "Storbri": 3903,
      "ator": 3904,
      "ska och ": 3905,
      "eller en ": 3906,
      "så mycket ": 3907,
      "grepp": 3908,
      "Ci": 3909,
      "bra.\n": 3910,
      "ren ": 3911,
      "ter\n": 3912,
      "livsmedel": 3913,
      "yo": 3914,
      "rätta ": 3915,
      "lagstift": 3916,
      "kemi": 3917,
      "Europa ": 3918,
      "kor ": 3919,
      "are\n": 3920,
      "itali": 3921,
      "ssystem": 3922,
      "vem ": 3923,
      "icke ": 3924,
      "mark": 3925,
      "feren": 3926,
      "Finns ": 3927,
      "Ver": 3928,
      "medve": 3929,
      "gemenskap": 3930,
      "ingent": 3931,
      "ativt ": 3932,
      "ders ": 3933,
      "sådana ": 3934,
      "klimat": 3935,
      "Följ": 3936,
      "iga ": 3937,
      "föränd": 3938,
      "fisk": 3939,
      "bäst ": 3940,
      "prest": 3941,
      "Storbritanni": 3942,
      "Stu": 3943,
      "ptem": 3944,
      "decem": 3945,
      "i K": 3946,
      "förvär": 3947,
      "som kan ": 3948,
      "Facebook": 3949,
      "Pr": 3950,
      "dela ": 3951,
      "världs": 3952,
      "järn": 3953,
      "bland annat ": 3954,
      "tur ": 3955,
      "ute": 3956,
      "ytt": 3957,
      "beställ": 3958,
      "karri": 3959,
      "Hopp": 3960,
      "timmar": 3961,
      "Ryss": 3962,
      "mod": 3963,
      "Tänk ": 3964,
      "O ": 3965,
      "n är ": 3966,
      "anger ": 3967,
      "annoli": 3968,
      "produkt": 3969,
      "förvalt": 3970,
      "Lu": 3971,
      "givar": 3972,
      "demokr": 3973,
      "söka ": 3974,
      "attack": 3975,
      "uppdater": 3976,
      "Vä": 3977,
      "kel ": 3978,
      "mäl": 3979,
      "nyck": 3980,
      "vidare ": 3981,
      "faktor": 3982,
      "ach": 3983,
      "inför": 3984,
      "till det ": 3985,
      "ning\n": 3986,
      "höga ": 3987,
      "bank": 3988,
      "Google ": 3989,
      "landet ": 3990,
      "tel ": 3991,
      "av dessa ": 3992,
      "nivå ": 3993,
      "värld": 3994,
      "utveckling": 3995,
      "Stockhol": 3996,
      "väntar ": 3997,
      "Cen": 3998,
      "Of": 3999,
      "prote": 4000,
      "juri": 4001,
      "berätta ": 4002,
      "Ta ": 4003,
      "dda ": 4004,
      "na och ": 4005,
      "ning på ": 4006,
      "hel ": 4007,
      "välkom": 4008,
      "förra ": 4009,
      "säker ": 4010,
      "senare ": 4011,
      "Vilken ": 4012,
      "23": 4013,
      "wi": 4014,
      "omkring ": 4015,
      "stad ": 4016,
      "stående ": 4017,
      "on, ": 4018,
      "det inte ": 4019,
      "ser, ": 4020,
      "t på ": 4021,
      "s på ": 4022,
      "berättel": 4023,
      "idag": 4024,
      "att bli ": 4025,
      "till och med ": 4026,
      "ningar, ": 4027,
      "or på ": 4028,
      "karakt": 4029,
      "Eftersom ": 4030,
      "ager": 4031,
      "uppfatt": 4032,
      "mottag": 4033,
      "blom": 4034,
      "gott ": 4035,
      "Sch": 4036,
      "måste": 4037,
      "ansvar ": 4038,
      "Fe": 4039,
      "le ": 4040,
      "y.\n": 4041,
      "producer": 4042,
      "erbjuda ": 4043,
      "80": 4044,
      "ku": 4045,
      "en gång ": 4046,
      "kväm": 4047,
      "skydda ": 4048,
      "interv": 4049,
      "Lond": 4050,
      "lag ": 4051,
      "ständigt ": 4052,
      "specifi": 4053,
      "grundläggande ": 4054,
      "Min": 4055,
      "asi": 4056,
      "kommer du ": 4057,
      "minst": 4058,
      "påverk": 4059,
      "hört ": 4060,
      "offici": 4061,
      "Spel": 4062,
      "tets": 4063,
      "Bå": 4064,
      "Våra ": 4065,
      "våg": 4066,
      "g i ": 4067,
      "rev ": 4068,
      "absol": 4069,
      "New Yor": 4070,
      "? ": 4071,
      "Mu": 4072,
      "casin": 4073,
      "vat ": 4074,
      "ser som ": 4075,
      "sådan": 4076,
      "bakom ": 4077,
      "bbar": 4078,
      "ka.\n": 4079,
      "ar att ": 4080,
      "är de ": 4081,
      "dagen.\n": 4082,
      " studi": 4083,
      "namn": 4084,
      "kraft": 4085,
      "idag.\n": 4086,
      "göra det ": 4087,
      "el.\n": 4088,
      "äldre ": 4089,
      "202": 4090,
      "nummer ": 4091,
      "So": 4092,
      "jä": 4093,
      "stå": 4094,
      "antingen ": 4095,
      "d till ": 4096,
      "ore ": 4097,
      "du är ": 4098,
      "ash": 4099,
      "serade ": 4100,
      "ex ": 4101,
      "igh": 4102,
      "korre": 4103,
      "form av ": 4104,
      "placer": 4105,
      "skul": 4106,
      "extre": 4107,
      "politik": 4108,
      "detalj": 4109,
      "varandra ": 4110,
      "astig": 4111,
      "säk": 4112,
      "brott": 4113,
      "lär ": 4114,
      "wit": 4115,
      "om man ": 4116,
      "lig.\n": 4117,
      "ning för ": 4118,
      "Den här ": 4119,
      "ologiska ": 4120,
      "t.ex. ": 4121,
      "Sh": 4122,
      "janu": 4123,
      "Do": 4124,
      "ate ": 4125,
      "itt ": 4126,
      "et har ": 4127,
      "vitt": 4128,
      "utmär": 4129,
      "webbplats ": 4130,
      "tade ": 4131,
      "Andra ": 4132,
      "ass ": 4133,
      "grupp ": 4134,
      "ation och ": 4135,
      "organi": 4136,
      "glä": 4137,
      "ara": 4138,
      "vanliga ": 4139,
      "bär": 4140,
      "ar sig ": 4141,
      ", det ": 4142,
      " säg": 4143,
      "förändringar ": 4144,
      "e för ": 4145,
      "on och ": 4146,
      "kompe": 4147,
      "något som ": 4148,
      "globala ": 4149,
      "500": 4150,
      "IT": 4151,
      "siska ": 4152,
      "konsekv": 4153,
      "också en ": 4154,
      "i Sverig": 4155,
      "ska.\n": 4156,
      "begär": 4157,
      "undvika ": 4158,
      "App": 4159,
      "Gör ": 4160,
      "vatt": 4161,
      "en (": 4162,
      "behövs ": 4163,
      "otro": 4164,
      "pol": 4165,
      "infl": 4166,
      "har du ": 4167,
      "De flesta ": 4168,
      "m.\n": 4169,
      "set ": 4170,
      "utgör ": 4171,
      "efter att ": 4172,
      "krist": 4173,
      "frukt": 4174,
      "pack": 4175,
      "e i ": 4176,
      "jukdom": 4177,
      "perfekt ": 4178,
      "% ": 4179,
      "Hå": 4180,
      "get": 4181,
      "kompl": 4182,
      "exp": 4183,
      "press": 4184,
      "ociala ": 4185,
      "namnet ": 4186,
      "sproc": 4187,
      "-talet ": 4188,
      "gol": 4189,
      "konstru": 4190,
      "öker ": 4191,
      "visat ": 4192,
      "personliga ": 4193,
      "rut": 4194,
      "inten": 4195,
      "en eller ": 4196,
      "förtro": 4197,
      "te att ": 4198,
      "kan det ": 4199,
      "skriver ": 4200,
      "Europapar": 4201,
      "redi": 4202,
      "ter i ": 4203,
      "bill": 4204,
      "sig.\n": 4205,
      "garan": 4206,
      " skriver ": 4207,
      "ungefär ": 4208,
      "ons ": 4209,
      "Det är inte ": 4210,
      "bara en ": 4211,
      "derna.\n": 4212,
      "talar ": 4213,
      "serv": 4214,
      "återvän": 4215,
      "lägger ": 4216,
      "lämnar ": 4217,
      "kill": 4218,
      "att se ": 4219,
      "i de ": 4220,
      "diag": 4221,
      "underhåll": 4222,
      "Person": 4223,
      "för det ": 4224,
      "beskriv": 4225,
      "grav": 4226,
      "initi": 4227,
      "erfarenhet ": 4228,
      "avsl": 4229,
      "upprätt": 4230,
      "avsni": 4231,
      "kateg": 4232,
      "fäng": 4233,
      "den av ": 4234,
      ", särskilt ": 4235,
      "Här är ": 4236,
      "t är ": 4237,
      "bekväm": 4238,
      "dar": 4239,
      "evi": 4240,
      " sta": 4241,
      "tävl": 4242,
      "patienter ": 4243,
      "AR": 4244,
      "ej ": 4245,
      "instrum": 4246,
      "sign": 4247,
      "Res": 4248,
      "häv": 4249,
      "Europaparlamen": 4250,
      "90": 4251,
      "nå": 4252,
      "der\n": 4253,
      "människor.\n": 4254,
      "gång.\n": 4255,
      "IP": 4256,
      "ystem ": 4257,
      "grip": 4258,
      "AN": 4259,
      "Fil": 4260,
      "skr": 4261,
      "personuppgifter ": 4262,
      "tänk": 4263,
      "Bet": 4264,
      "ätt ": 4265,
      "lilla ": 4266,
      "berör": 4267,
      "helt enkelt ": 4268,
      "partner": 4269,
      "AB": 4270,
      "infe": 4271,
      "anses ": 4272,
      "li ": 4273,
      "råd": 4274,
      "användning av ": 4275,
      "poj": 4276,
      "Några ": 4277,
      "s-": 4278,
      "tag ": 4279,
      "yt": 4280,
      "konto": 4281,
      "område ": 4282,
      "liknande ": 4283,
      "förbere": 4284,
      "framgångsri": 4285,
      "sa": 4286,
      "till.\n": 4287,
      "A-": 4288,
      "Dag": 4289,
      "påg": 4290,
      "dess": 4291,
      "anlägg": 4292,
      "er från ": 4293,
      "blick": 4294,
      "fram till ": 4295,
      " största ": 4296,
      "trädgår": 4297,
      "Qu": 4298,
      "a till ": 4299,
      "fön": 4300,
      ", med ": 4301,
      " skyd": 4302,
      "kund": 4303,
      "ladd": 4304,
      " själv.\n": 4305,
      "online ": 4306,
      "ES": 4307,
      "lite": 4308,
      "luf": 4309,
      "28": 4310,
      "gal": 4311,
      "nå ": 4312,
      "en stor ": 4313,
      "redo": 4314,
      "talt ": 4315,
      "på samma ": 4316,
      "platsen ": 4317,
      "det?\n": 4318,
      "gemensamma ": 4319,
      "brott ": 4320,
      "kvinna ": 4321,
      "Över": 4322,
      "så s": 4323,
      "Föret": 4324,
      "th ": 4325,
      "27": 4326,
      "oi": 4327,
      "ökar ": 4328,
      "t!\n": 4329,
      "ensam": 4330,
      "uppskatt": 4331,
      "Du är ": 4332,
      "genomsni": 4333,
      "teknik": 4334,
      "morgon": 4335,
      "fri ": 4336,
      "sym": 4337,
      "över hela ": 4338,
      "f ": 4339,
      "av ett ": 4340,
      "agg": 4341,
      "ol ": 4342,
      "tekniska ": 4343,
      "gratis ": 4344,
      "FN": 4345,
      "ry ": 4346,
      "vars ": 4347,
      "har inte ": 4348,
      "göra": 4349,
      "Isl": 4350,
      "sträck": 4351,
      "skraf": 4352,
      "spoli": 4353,
      "närvarande ": 4354,
      "vanligtvis ": 4355,
      "en!\n": 4356,
      "ta och ": 4357,
      "dig och ": 4358,
      "i.\n": 4359,
      "en om ": 4360,
      "finns i ": 4361,
      "att använda ": 4362,
      "och sedan ": 4363,
      "nuvarande ": 4364,
      "Micro": 4365,
      "tali": 4366,
      "an\n": 4367,
      "en med ": 4368,
      "ent.\n": 4369,
      "et för att ": 4370,
      "reda ": 4371,
      "behandling ": 4372,
      " procent av ": 4373,
      "mängd ": 4374,
      "upplevel": 4375,
      "krav ": 4376,
      "Frankri": 4377,
      "for ": 4378,
      "ten i ": 4379,
      "medlemmar ": 4380,
      "motstån": 4381,
      "allt.\n": 4382,
      "okto": 4383,
      "försvar": 4384,
      "bygger ": 4385,
      "ek": 4386,
      "ute ": 4387,
      "dessutom ": 4388,
      "skäl": 4389,
      "ing\n": 4390,
      "liga.\n": 4391,
      "annorl": 4392,
      "driv": 4393,
      "data": 4394,
      "ändam": 4395,
      "rädda ": 4396,
      "språk": 4397,
      "Människ": 4398,
      "Hoppas ": 4399,
      "in, ": 4400,
      "värde ": 4401,
      "maj": 4402,
      "liksom ": 4403,
      "ende.\n": 4404,
      "lar": 4405,
      "avtal ": 4406,
      "ate": 4407,
      "lista ": 4408,
      "serar ": 4409,
      "visade ": 4410,
      "jet": 4411,
      "stopp": 4412,
      "Ir": 4413,
      "gravi": 4414,
      "klar ": 4415,
      "igt ": 4416,
      "ansvari": 4417,
      "M ": 4418,
      "verkliga ": 4419,
      "intell": 4420,
      "lands ": 4421,
      "främst ": 4422,
      "halv": 4423,
      "26": 4424,
      "is ": 4425,
      "sv": 4426,
      "inkom": 4427,
      "när han ": 4428,
      "problem.\n": 4429,
      "sociala ": 4430,
      "ture": 4431,
      "kron": 4432,
      "delar av ": 4433,
      "mamma ": 4434,
      "AS": 4435,
      "tam": 4436,
      "terat ": 4437,
      "på de ": 4438,
      "låt ": 4439,
      "ärskilda ": 4440,
      "kärlek ": 4441,
      "con": 4442,
      "fan": 4443,
      "mus": 4444,
      "atori": 4445,
      "olag": 4446,
      "lopp": 4447,
      "bättre": 4448,
      "pak": 4449,
      "arder ": 4450,
      "stjän": 4451,
      "avan": 4452,
      "apri": 4453,
      "Hu": 4454,
      "Hen": 4455,
      "Mal": 4456,
      "gat": 4457,
      "t-": 4458,
      "revolution": 4459,
      "låg ": 4460,
      "Nästa ": 4461,
      "själv ": 4462,
      "kommer": 4463,
      "Mari": 4464,
      "s?\n": 4465,
      "er att ": 4466,
      "olyck": 4467,
      "möjligt att ": 4468,
      "berättar ": 4469,
      "aktum ": 4470,
      "På": 4471,
      "insat": 4472,
      "tik ": 4473,
      "ingar": 4474,
      "uttal": 4475,
      "luft": 4476,
      "tiden.\n": 4477,
      "na?\n": 4478,
      "vän ": 4479,
      "ulle": 4480,
      "ord.\n": 4481,
      "programmet ": 4482,
      "skydd": 4483,
      "föräldr": 4484,
      " från ": 4485,
      ".[": 4486,
      "be ": 4487,
      "för.\n": 4488,
      "ingår ": 4489,
      "plan ": 4490,
      "kontroll ": 4491,
      "finansiella ": 4492,
      "unda ": 4493,
      "ta en ": 4494,
      "servi": 4495,
      "AT": 4496,
      "Vän": 4497,
      "eman": 4498,
      "spri": 4499,
      "ats.\n": 4500,
      ", i ": 4501,
      "ordför": 4502,
      "kärn": 4503,
      "ma.\n": 4504,
      "att hon ": 4505,
      "are av ": 4506,
      "Indi": 4507,
      "mindre än ": 4508,
      "ha": 4509,
      "a för ": 4510,
      "er eller ": 4511,
      "nabbar": 4512,
      "under en ": 4513,
      "aktion": 4514,
      "produkt ": 4515,
      "Medi": 4516,
      "flo": 4517,
      "s till ": 4518,
      "vård": 4519,
      "strali": 4520,
      "Del": 4521,
      "Ibland ": 4522,
      "Kom ": 4523,
      "Sa": 4524,
      "tvi": 4525,
      "bio": 4526,
      "De är ": 4527,
      "Nya ": 4528,
      "Av ": 4529,
      "ert ": 4530,
      "linj": 4531,
      "institution": 4532,
      "Fre": 4533,
      "et på ": 4534,
      "inte längre ": 4535,
      "ta i ": 4536,
      "den?\n": 4537,
      "medvet": 4538,
      "in och ": 4539,
      "fria ": 4540,
      "Genom att ": 4541,
      "Tr": 4542,
      "Vår": 4543,
      "iP": 4544,
      "ska": 4545,
      "atisti": 4546,
      "direktiv ": 4547,
      "fastig": 4548,
      "offentliga ": 4549,
      "back": 4550,
      "dam": 4551,
      "säson": 4552,
      "berg": 4553,
      "kände ": 4554,
      "han.\n": 4555,
      "hälsa ": 4556,
      "sexu": 4557,
      "att en ": 4558,
      "terr": 4559,
      "jag.\n": 4560,
      "brukar ": 4561,
      "tillbaka till ": 4562,
      "patien": 4563,
      "disku": 4564,
      "klubb": 4565,
      "Bu": 4566,
      "vers": 4567,
      "bidra ": 4568,
      "redo ": 4569,
      "innebär ": 4570,
      "i samband ": 4571,
      "anställda ": 4572,
      "I s": 4573,
      "eli": 4574,
      "det i ": 4575,
      "ade i ": 4576,
      "du ska ": 4577,
      "fick": 4578,
      "attra": 4579,
      "utveckling ": 4580,
      "själva ": 4581,
      "atör": 4582,
      "om jag ": 4583,
      "kontra": 4584,
      "tidigt som ": 4585,
      "i närheten av ": 4586,
      "% av ": 4587,
      "Det kan ": 4588,
      "delse": 4589,
      "trodde ": 4590,
      "uppnå ": 4591,
      "s som ": 4592,
      "na i ": 4593,
      "Davi": 4594,
      "alko": 4595,
      "block": 4596,
      "ungdom": 4597,
      "baserade ": 4598,
      "misslyck": 4599,
      "kredit": 4600,
      "smär": 4601,
      "även": 4602,
      "etabl": 4603,
      "et som ": 4604,
      "Han är ": 4605,
      "med sin ": 4606,
      "port": 4607,
      ".)\n": 4608,
      "vel": 4609,
      "litet ": 4610,
      "att för": 4611,
      ", jag ": 4612,
      "utsläpp": 4613,
      "beg": 4614,
      "värm": 4615,
      "personal": 4616,
      "erna i ": 4617,
      "minstone ": 4618,
      "er till ": 4619,
      "vikt ": 4620,
      "vi kan ": 4621,
      "hemma ": 4622,
      "Tur": 4623,
      "tom ": 4624,
      "team": 4625,
      "och det ": 4626,
      "vision": 4627,
      "påverka ": 4628,
      "yrke": 4629,
      "kontrollera ": 4630,
      "n i ": 4631,
      "ing som ": 4632,
      "befin": 4633,
      "der i ": 4634,
      "skap ": 4635,
      "ats av ": 4636,
      "personer som ": 4637,
      "certifi": 4638,
      "vackra ": 4639,
      "musk": 4640,
      ", sk": 4641,
      "Gi": 4642,
      "ernas ": 4643,
      "dags": 4644,
      "Du har ": 4645,
      "valut": 4646,
      "Trots ": 4647,
      "Däre": 4648,
      "Mer ": 4649,
      "smar": 4650,
      "enor": 4651,
      "tté": 4652,
      "niska ": 4653,
      "troll": 4654,
      "hur mycket ": 4655,
      "marknaden ": 4656,
      "belopp": 4657,
      "ländska ": 4658,
      "hat": 4659,
      "stans ": 4660,
      "ingen.\n": 4661,
      "älja ": 4662,
      "mit": 4663,
      "ter från ": 4664,
      "akta ": 4665,
      "Israel": 4666,
      "vi är ": 4667,
      "oss att ": 4668,
      "visste ": 4669,
      "december ": 4670,
      "Can": 4671,
      "också att ": 4672,
      "Men det ": 4673,
      "kommer att vara ": 4674,
      "EC": 4675,
      "kalla ": 4676,
      "en för att ": 4677,
      "agera ": 4678,
      "fig": 4679,
      "snabbt ": 4680,
      "36": 4681,
      "?”\n": 4682,
      "ress ": 4683,
      "kt, ": 4684,
      "vad du ": 4685,
      "fantastiska ": 4686,
      "modligen ": 4687,
      "bo ": 4688,
      "ine ": 4689,
      "logi": 4690,
      " såg ": 4691,
      "Tack": 4692,
      "heter, ": 4693,
      "visas ": 4694,
      "kommun": 4695,
      "elekt": 4696,
      "rätten ": 4697,
      "?\"\n": 4698,
      "Ska ": 4699,
      "a på ": 4700,
      "de sig ": 4701,
      "vida ": 4702,
      "bot": 4703,
      "önskar ": 4704,
      "ägg ": 4705,
      "35": 4706,
      "Kö": 4707,
      "vun": 4708,
      "åka ": 4709,
      "ering av ": 4710,
      "inte så ": 4711,
      "John ": 4712,
      "Windows ": 4713,
      "kali": 4714,
      "en från ": 4715,
      "d är ": 4716,
      "Det har ": 4717,
      "värt ": 4718,
      "blå": 4719,
      "uppenbar": 4720,
      "bor ": 4721,
      "avses i ": 4722,
      "at, ": 4723,
      "exakt ": 4724,
      "framtida ": 4725,
      " års ": 4726,
      "Tra": 4727,
      "e som ": 4728,
      "kter": 4729,
      "avgör": 4730,
      "ade med ": 4731,
      "sättet ": 4732,
      "temper": 4733,
      "Vill du ": 4734,
      "regelbun": 4735,
      "har": 4736,
      "kyl": 4737,
      "stat ": 4738,
      "medl": 4739,
      "göras ": 4740,
      "USA ": 4741,
      "ihop ": 4742,
      "absolut ": 4743,
      "Vis": 4744,
      "ösa ": 4745,
      "läkare ": 4746,
      "bbl": 4747,
      "näll": 4748,
      "de har ": 4749,
      "or av ": 4750,
      "cooki": 4751,
      "material ": 4752,
      "sprocess": 4753,
      "Bro": 4754,
      "tvä": 4755,
      "äs": 4756,
      "inte vara ": 4757,
      "e-po": 4758,
      "P ": 4759,
      "a) ": 4760,
      "baserat ": 4761,
      "huvudsak": 4762,
      "inkluderar ": 4763,
      "sälj": 4764,
      "ligheten ": 4765,
      "bered": 4766,
      "måste vara ": 4767,
      "S-": 4768,
      "gro": 4769,
      "om hur ": 4770,
      "chi": 4771,
      "annon": 4772,
      "ningar som ": 4773,
      "Forsk": 4774,
      ", samt ": 4775,
      "uppman": 4776,
      "efter en ": 4777,
      "människor som ": 4778,
      "ar du ": 4779,
      "et av ": 4780,
      "ett stort ": 4781,
      "ång ": 4782,
      "moderna ": 4783,
      "värr ": 4784,
      "mig att ": 4785,
      "tredje": 4786,
      "Paul": 4787,
      "lutet av ": 4788,
      "av sin ": 4789,
      "någon annan ": 4790,
      "säkerställ": 4791,
      "! ": 4792,
      "$ ": 4793,
      "ja, ": 4794,
      "utby": 4795,
      "ning är ": 4796,
      "döda ": 4797,
      "novem": 4798,
      "Gro": 4799,
      "Trum": 4800,
      "grä": 4801,
      "sö": 4802,
      "»\n": 4803,
      "rep": 4804,
      "ad av ": 4805,
      "kontin": 4806,
      "bolag ": 4807,
      " år.\n": 4808,
      "Er": 4809,
      "On": 4810,
      "sho": 4811,
      "i denna ": 4812,
      "delen av ": 4813,
      "forsknings": 4814,
      "Sverige ": 4815,
      "Dan": 4816,
      "ed ": 4817,
      "en del av ": 4818,
      ", att ": 4819,
      "någo": 4820,
      "optim": 4821,
      "tograf": 4822,
      "kök": 4823,
      "er för att ": 4824,
      "det av ": 4825,
      "konvention": 4826,
      "sträng": 4827,
      "vad jag ": 4828,
      "position": 4829,
      "s är ": 4830,
      "dis": 4831,
      "läck": 4832,
      "regering": 4833,
      "tande ": 4834,
      "ank": 4835,
      "pren": 4836,
      "sta.\n": 4837,
      "lem": 4838,
      "ett par ": 4839,
      "ingar och ": 4840,
      "föräldrar ": 4841,
      "slös": 4842,
      "sådant ": 4843,
      "hastig": 4844,
      "sof": 4845,
      "ong": 4846,
      "and.\n": 4847,
      "närvar": 4848,
      "beräk": 4849,
      "vandl": 4850,
      "Företag": 4851,
      " ...": 4852,
      "Bus": 4853,
      "a är ": 4854,
      "lägre ": 4855,
      ", den ": 4856,
      "ett nytt ": 4857,
      "örj": 4858,
      "regeringen ": 4859,
      "telef": 4860,
      "Värl": 4861,
      "förbju": 4862,
      "recep": 4863,
      "livet.\n": 4864,
      "kompon": 4865,
      "Kin": 4866,
      "Jag vet ": 4867,
      "brit": 4868,
      "mät": 4869,
      "kamer": 4870,
      "enbart ": 4871,
      "det för ": 4872,
      "ten är ": 4873,
      "are för ": 4874,
      "kung": 4875,
      "ation av ": 4876,
      "måste du ": 4877,
      "sju": 4878,
      "up ": 4879,
      "arna i ": 4880,
      "skrif": 4881,
      "-\n": 4882,
      "its ": 4883,
      "säll": 4884,
      "enheter ": 4885,
      "att gå ": 4886,
      "ternas ": 4887,
      "ligg": 4888,
      "bibli": 4889,
      "ster, ": 4890,
      "ges ": 4891,
      "områden ": 4892,
      "Fram": 4893,
      "familje": 4894,
      "nämligen ": 4895,
      "intensi": 4896,
      "* ": 4897,
      "Två ": 4898,
      "inre ": 4899,
      "d för att ": 4900,
      "de inte ": 4901,
      "med hjälp av ": 4902,
      "ad och ": 4903,
      "fler": 4904,
      "man kan ": 4905,
      "stig": 4906,
      "fritt ": 4907,
      "som st": 4908,
      "övriga ": 4909,
      "tillgänglig ": 4910,
      "vandr": 4911,
      "fåg": 4912,
      "långa ": 4913,
      "or\n": 4914,
      "det och ": 4915,
      "vart ": 4916,
      "max": 4917,
      "föresl": 4918,
      "rök": 4919,
      "anmäl": 4920,
      "er har ": 4921,
      "siktig": 4922,
      "grön": 4923,
      "betra": 4924,
      "ktur ": 4925,
      "viktigt ": 4926,
      "allmänna ": 4927,
      "kolle": 4928,
      "kampan": 4929,
      "Kri": 4930,
      "SE": 4931,
      "ask": 4932,
      "stna": 4933,
      "skt.\n": 4934,
      "ta.\n": 4935,
      "ingen": 4936,
      "varar ": 4937,
      "varje": 4938,
      " som har ": 4939,
      "aspe": 4940,
      "naturliga ": 4941,
      " kan ": 4942,
      "ade till ": 4943,
      "drö": 4944,
      "beröm": 4945,
      "flytt": 4946,
      "små ": 4947,
      "kräv": 4948,
      "ptember ": 4949,
      "kommersi": 4950,
      "31": 4951,
      "trev": 4952,
      "område": 4953,
      "träffa ": 4954,
      "uppmun": 4955,
      "överlev": 4956,
      "direkt": 4957,
      "besöka ": 4958,
      "mjuk": 4959,
      "omöj": 4960,
      "194": 4961,
      "29": 4962,
      "svenska ": 4963,
      "äd": 4964,
      ", där ": 4965,
      ", eftersom ": 4966,
      "avstån": 4967,
      "till st": 4968,
      "mikro": 4969,
      "arbete.\n": 4970,
      "förlu": 4971,
      "na på ": 4972,
      "195": 4973,
      "ljus": 4974,
      "Jap": 4975,
      "När det ": 4976,
      "äter ": 4977,
      "vi s": 4978,
      "t, men ": 4979,
      "frågade ": 4980,
      "vanlig": 4981,
      "köper ": 4982,
      "AL": 4983,
      "ail": 4984,
      "arens ": 4985,
      "an att ": 4986,
      "förslag ": 4987,
      "mekan": 4988,
      "vitet ": 4989,
      "grö": 4990,
      "höll ": 4991,
      "avseende ": 4992,
      "inte ens ": 4993,
      "ka och ": 4994,
      "klam": 4995,
      "vägg": 4996,
      "Första ": 4997,
      "fokus ": 4998,
      "promen": 4999,
      "skaff": 5000,
      "nyligen ": 5001,
      "hotell ": 5002,
      "börjat ": 5003,
      "spelare ": 5004,
      "förhållande ": 5005,
      "G ": 5006,
      "hor": 5007,
      "kons": 5008,
      "kommer från ": 5009,
      "lokal": 5010,
      "exempelvis ": 5011,
      "gammal ": 5012,
      "jör": 5013,
      "typ ": 5014,
      "göra en ": 5015,
      "användare ": 5016,
      "gas": 5017,
      "snar": 5018,
      "en kan ": 5019,
      "an i ": 5020,
      "dern ": 5021,
      "värd": 5022,
      "sig till ": 5023,
      "möjligt.\n": 5024,
      "rekommenderar ": 5025,
      "januari ": 5026,
      "kine": 5027,
      "tit ": 5028,
      "terap": 5029,
      "perspe": 5030,
      "övertyg": 5031,
      "staden ": 5032,
      "EU:s ": 5033,
      "med sina ": 5034,
      "förordning (": 5035,
      "Mac": 5036,
      "gett ": 5037,
      "kade ": 5038,
      "tun": 5039,
      "represen": 5040,
      "dit ": 5041,
      "terna.\n": 5042,
      "aker ": 5043,
      "högt ": 5044,
      "individu": 5045,
      "prä": 5046,
      "svar ": 5047,
      "ska, ": 5048,
      "radi": 5049,
      " skill": 5050,
      "ökad ": 5051,
      "Men jag ": 5052,
      "aktiva ": 5053,
      "hjälp ": 5054,
      "bättre än ": 5055,
      "Använd ": 5056,
      ", såsom ": 5057,
      "oftast ": 5058,
      "diagno": 5059,
      "Kli": 5060,
      "ger": 5061,
      "utse": 5062,
      "peciellt ": 5063,
      "äventy": 5064,
      "Dat": 5065,
      "Nord": 5066,
      "hell": 5067,
      "oberoende ": 5068,
      "et att ": 5069,
      "fotograf": 5070,
      "Produ": 5071,
      "minister": 5072,
      "kontakta ": 5073,
      "muse": 5074,
      "avancer": 5075,
      "få s": 5076,
      "p.\n": 5077,
      "wor": 5078,
      "— ": 5079,
      ", har ": 5080,
      "prov": 5081,
      "när vi ": 5082,
      "kopi": 5083,
      "konto ": 5084,
      "C-": 5085,
      "rig ": 5086,
      "Vi kan ": 5087,
      "energi ": 5088,
      "ver.\n": 5089,
      "gill": 5090,
      "ademi": 5091,
      "mön": 5092,
      "första gången ": 5093,
      "mål.\n": 5094,
      "juni ": 5095,
      "musli": 5096,
      "alkohol": 5097,
      "gga ": 5098,
      "År ": 5099,
      "tillgång": 5100,
      "ningss": 5101,
      "der för ": 5102,
      "åtminstone ": 5103,
      "Mitt ": 5104,
      "stads": 5105,
      "konstnär": 5106,
      "utnyttj": 5107,
      " me": 5108,
      "sal": 5109,
      "ering.\n": 5110,
      "äng ": 5111,
      "som du ": 5112,
      "sex ": 5113,
      "drat": 5114,
      "tving": 5115,
      "sluta ": 5116,
      "butik": 5117,
      "canc": 5118,
      "kompeten": 5119,
      "cel": 5120,
      "förhindra ": 5121,
      "ning eller ": 5122,
      "bidrar ": 5123,
      "rädd": 5124,
      "fatta ": 5125,
      "tor ": 5126,
      "stäng": 5127,
      "alo": 5128,
      "så att ": 5129,
      "hit": 5130,
      "tusen": 5131,
      "Även om ": 5132,
      "hetens ": 5133,
      "ktiva ": 5134,
      "mars ": 5135,
      "maj ": 5136,
      "Regi": 5137,
      "företag.\n": 5138,
      "funni": 5139,
      "trafi": 5140,
      "omfattande ": 5141,
      "populära ": 5142,
      "Cor": 5143,
      "WE": 5144,
      "ken.\n": 5145,
      "till de ": 5146,
      "speri": 5147,
      "profil": 5148,
      "dubb": 5149,
      "formul": 5150,
      "smak": 5151,
      "erad av ": 5152,
      "funger": 5153,
      "jöl": 5154,
      "Bä": 5155,
      "kunnat ": 5156,
      "baserad ": 5157,
      "internationell ": 5158,
      "eventuella ": 5159,
      "El": 5160,
      "Tack ": 5161,
      "gil": 5162,
      "vali": 5163,
      "är mycket ": 5164,
      "kopp": 5165,
      "Han har ": 5166,
      "astro": 5167,
      "rela": 5168,
      "bekräf": 5169,
      "gläd": 5170,
      " var ": 5171,
      "själ": 5172,
      "yri": 5173,
      "beakt": 5174,
      "dagar.\n": 5175,
      "är en av ": 5176,
      "teknik ": 5177,
      "Kina ": 5178,
      "kas ": 5179,
      "en annan ": 5180,
      "ar inte ": 5181,
      "vecka ": 5182,
      "Star": 5183,
      "jag ska ": 5184,
      "flytta ": 5185,
      "effektivt ": 5186,
      "lära sig ": 5187,
      "förmåga att ": 5188,
      "CO": 5189,
      "Mat": 5190,
      "sens ": 5191,
      "y, ": 5192,
      "Äl": 5193,
      "med de ": 5194,
      "alltid": 5195,
      "medarbet": 5196,
      "göra.\n": 5197,
      ") nr ": 5198,
      "veckor ": 5199,
      "glad ": 5200,
      "köra ": 5201,
      "kallar ": 5202,
      "rätt att ": 5203,
      "gåv": 5204,
      "jätte": 5205,
      "tis": 5206,
      "- eller ": 5207,
      "även om ": 5208,
      "isl": 5209,
      "omständig": 5210,
      "trodu": 5211,
      "möjliga ": 5212,
      "villkor ": 5213,
      "forskning ": 5214,
      "Program": 5215,
      "Sc": 5216,
      "en var ": 5217,
      "av.\n": 5218,
      "age ": 5219,
      "käns": 5220,
      "behöriga ": 5221,
      "Skulle ": 5222,
      "flexi": 5223,
      "gum": 5224,
      "enhet ": 5225,
      "st på ": 5226,
      "på sin ": 5227,
      "Vilket ": 5228,
      "transpor": 5229,
      "kämp": 5230,
      "v och ": 5231,
      "av sk": 5232,
      "utfor": 5233,
      "har blivit ": 5234,
      "från att ": 5235,
      "jag skulle ": 5236,
      "historiska ": 5237,
      "Mich": 5238,
      "hård": 5239,
      "Australi": 5240,
      "Vårt ": 5241,
      "Chi": 5242,
      "stjär": 5243,
      "skå": 5244,
      "i A": 5245,
      "med andra ": 5246,
      "såsom ": 5247,
      "meller": 5248,
      "ster och ": 5249,
      "tekn": 5250,
      "Behö": 5251,
      "henne.\n": 5252,
      "handlar om ": 5253,
      "ändamål": 5254,
      "K ": 5255,
      "Worl": 5256,
      "skapa en ": 5257,
      "detta är ": 5258,
      "plats.\n": 5259,
      "kallade ": 5260,
      "fungera ": 5261,
      "främja ": 5262,
      "300": 5263,
      "uer": 5264,
      "ors ": 5265,
      "at och ": 5266,
      "Jer": 5267,
      "bön": 5268,
      "z ": 5269,
      "förmodligen ": 5270,
      "Jag älskar ": 5271,
      "tvung": 5272,
      "tjäna ": 5273,
      "Itali": 5274,
      "Nu": 5275,
      "dans": 5276,
      "o, ": 5277,
      "avdel": 5278,
      "som inte ": 5279,
      "ningen": 5280,
      "koncer": 5281,
      "dig, ": 5282,
      "kandi": 5283,
      "aktiver": 5284,
      "säkerhets": 5285,
      "Ki": 5286,
      "ersätt": 5287,
      "at i ": 5288,
      "trå": 5289,
      "glas": 5290,
      "drick": 5291,
      "lösningar ": 5292,
      " miljarder ": 5293,
      " större ": 5294,
      "början av ": 5295,
      "Fly": 5296,
      "Gar": 5297,
      "war": 5298,
      "behålla ": 5299,
      "fra": 5300,
      "varandra.\n": 5301,
      "ten\n": 5302,
      "undervis": 5303,
      "omfattar ": 5304,
      "jämfört med ": 5305,
      "är på ": 5306,
      "i B": 5307,
      "kan jag ": 5308,
      "för att kunna ": 5309,
      "rymm": 5310,
      "digitala ": 5311,
      "himl": 5312,
      "annolikt ": 5313,
      "Je": 5314,
      "uppleva ": 5315,
      "väck": 5316,
      "USA.\n": 5317,
      "gui": 5318,
      "Må": 5319,
      "b ": 5320,
      "din": 5321,
      "är jag ": 5322,
      "ing i ": 5323,
      "filmen ": 5324,
      "kommentar": 5325,
      "Bara ": 5326,
      "exister": 5327,
      "utmärkt ": 5328,
      "förslag": 5329,
      "upp.\n": 5330,
      "sål": 5331,
      "passa ": 5332,
      "flykt": 5333,
      "hälf": 5334,
      "cykel": 5335,
      "er (": 5336,
      "förhandl": 5337,
      "föreg": 5338,
      "und ": 5339,
      "grann": 5340,
      "plö": 5341,
      "batteri": 5342,
      "Mycket ": 5343,
      "isk ": 5344,
      "ar med ": 5345,
      "på något ": 5346,
      "utö": 5347,
      " som kan ": 5348,
      "ation, ": 5349,
      "vägen ": 5350,
      "behandla ": 5351,
      "huset ": 5352,
      "sub": 5353,
      "tillhandahålla ": 5354,
      "kapital": 5355,
      "biblio": 5356,
      "L ": 5357,
      "uri": 5358,
      "ända ": 5359,
      "som helst ": 5360,
      "ad i ": 5361,
      "färd": 5362,
      "tillhandahåll": 5363,
      "tjej": 5364,
      "Han": 5365,
      "en hel ": 5366,
      "d eller ": 5367,
      "liga och ": 5368,
      "Det är ett ": 5369,
      "totala ": 5370,
      "tänkte ": 5371,
      "boken ": 5372,
      "historia ": 5373,
      "prestand": 5374,
      "drä": 5375,
      "fab": 5376,
      "natt": 5377,
      "instru": 5378,
      "allra ": 5379,
      "ump": 5380,
      "febru": 5381,
      "känn": 5382,
      "därmed ": 5383,
      "sommar": 5384,
      "dörr": 5385,
      "privata ": 5386,
      "titta på ": 5387,
      "licen": 5388,
      "driva ": 5389,
      "unika ": 5390,
      "kiska ": 5391,
      "er: ": 5392,
      "människa ": 5393,
      ", som är ": 5394,
      "45": 5395,
      "n\n": 5396,
      "tapp": 5397,
      "tic": 5398,
      "enare ": 5399,
      "och/": 5400,
      "förtjän": 5401,
      "befinner ": 5402,
      "dollar ": 5403,
      "passar ": 5404,
      "pension": 5405,
      "karaktär": 5406,
      "Microsof": 5407,
      "oktober ": 5408,
      "sing": 5409,
      "de st": 5410,
      "ocka ": 5411,
      "lätta ": 5412,
      "äktenskap": 5413,
      " en ": 5414,
      "Oavsett ": 5415,
      "don": 5416,
      "ess ": 5417,
      "ys": 5418,
      "dej": 5419,
      "tet i ": 5420,
      "De har ": 5421,
      "tip": 5422,
      "tiken ": 5423,
      "ister ": 5424,
      "medlem ": 5425,
      "består av ": 5426,
      "och den ": 5427,
      ", utan ": 5428,
      "begrepp": 5429,
      "bättre.\n": 5430,
      "grafi": 5431,
      " \"": 5432,
      "utställ": 5433,
      "leken ": 5434,
      "läser ": 5435,
      "för att se ": 5436,
      "görs ": 5437,
      "Char": 5438,
      "kapaci": 5439,
      "enskilda ": 5440,
      "David ": 5441,
      "Slut": 5442,
      "dera": 5443,
      "en bra ": 5444,
      "ingar, ": 5445,
      "koncentr": 5446,
      "kt och ": 5447,
      "några av ": 5448,
      "i ställ": 5449,
      "kulture": 5450,
      "a, s": 5451,
      "inlägg": 5452,
      "utrymm": 5453,
      "ade och ": 5454,
      "at med ": 5455,
      "Jag var ": 5456,
      "kanska ": 5457,
      "film ": 5458,
      "säkert ": 5459,
      "i samband med ": 5460,
      "Krist": 5461,
      "inte heller ": 5462,
      "och säker": 5463,
      "ningen är ": 5464,
      "distribu": 5465,
      "Vol": 5466,
      "represent": 5467,
      "vi inte ": 5468,
      "hänsyn ": 5469,
      "Medan ": 5470,
      "kontakt": 5471,
      "Hotell ": 5472,
      "pengar.\n": 5473,
      "medlemmar": 5474,
      "projekt": 5475,
      "fattig": 5476,
      "IV": 5477,
      "Mag": 5478,
      "mor ": 5479,
      "förb": 5480,
      "rådets ": 5481,
      "premi": 5482,
      "Samtidigt ": 5483,
      "Välj ": 5484,
      "ursprungliga ": 5485,
      "trygg": 5486,
      "Col": 5487,
      "Fol": 5488,
      "Mil": 5489,
      "kter.\n": 5490,
      "har det ": 5491,
      "massa ": 5492,
      "av sina ": 5493,
      "komplet": 5494,
      "cy ": 5495,
      "lagt ": 5496,
      "splat": 5497,
      "ingenting ": 5498,
      "Gö": 5499,
      "licer": 5500,
      "an av ": 5501,
      "i sitt ": 5502,
      "tillåter ": 5503,
      "er om ": 5504,
      "och de ": 5505,
      "rim": 5506,
      "rafi": 5507,
      "möta ": 5508,
      "San": 5509,
      "tok": 5510,
      " slut": 5511,
      "skada ": 5512,
      "äld": 5513,
      "ade sig ": 5514,
      "mannen ": 5515,
      "menar ": 5516,
      "rapport ": 5517,
      "betydande ": 5518,
      "… ": 5519,
      "erades ": 5520,
      "ationen.\n": 5521,
      "hjärn": 5522,
      "Någon ": 5523,
      " dagar ": 5524,
      "Natur": 5525,
      "där det ": 5526,
      "ergi": 5527,
      "hållbar": 5528,
      "välj": 5529,
      "kret": 5530,
      "satta ": 5531,
      "enkla ": 5532,
      "Finns det ": 5533,
      "säkra ": 5534,
      "net": 5535,
      "riska ": 5536,
      "du vill ": 5537,
      "års": 5538,
      "familj ": 5539,
      "avslöj": 5540,
      "och/eller ": 5541,
      "aut": 5542,
      "yn ": 5543,
      "för din ": 5544,
      "ansök": 5545,
      "tid och ": 5546,
      "produktion ": 5547,
      "drif": 5548,
      "nödvändiga ": 5549,
      "kommissionen ": 5550,
      "engelska ": 5551,
      "ep": 5552,
      "s: ": 5553,
      "förrä": 5554,
      "bevis ": 5555,
      "mil": 5556,
      "Jag tycker ": 5557,
      "nytta ": 5558,
      "blog": 5559,
      "dokument ": 5560,
      "Själv": 5561,
      "Skri": 5562,
      "ang ": 5563,
      "och andra ": 5564,
      "ta bort ": 5565,
      "räkna": 5566,
      "sektor": 5567,
      "uppfyll": 5568,
      "fotboll": 5569,
      "Net": 5570,
      "äck": 5571,
      "det första ": 5572,
      "at av ": 5573,
      "civil": 5574,
      "överra": 5575,
      "ordin": 5576,
      "Fören": 5577,
      "länder.\n": 5578,
      "priori": 5579,
      "tjänst ": 5580,
      "lägg ": 5581,
      "häng": 5582,
      "mol": 5583,
      "rategi": 5584,
      "der av ": 5585,
      "kommer vi ": 5586,
      "man.\n": 5587,
      "får du ": 5588,
      "funktion ": 5589,
      "Sol": 5590,
      "vikt": 5591,
      "tro ": 5592,
      "aktie": 5593,
      "bli en ": 5594,
      "hem.\n": 5595,
      "freds": 5596,
      "prata ": 5597,
      "Låt oss ": 5598,
      "Ass": 5599,
      "och jag ": 5600,
      "möjligheten ": 5601,
      "jour": 5602,
      "handels": 5603,
      "Kor": 5604,
      "mar ": 5605,
      "nen.\n": 5606,
      "utföra ": 5607,
      "vanligt ": 5608,
      "levande ": 5609,
      "gusti": 5610,
      " :)\n": 5611,
      "relaterade ": 5612,
      "Ke": 5613,
      "Val": 5614,
      "Vill": 5615,
      "out": 5616,
      "skön": 5617,
      "förny": 5618,
      "tillhör ": 5619,
      "na att ": 5620,
      "sper": 5621,
      "tet med ": 5622,
      "över.\n": 5623,
      "jordbruk": 5624,
      "maxim": 5625,
      "betrakt": 5626,
      "Ter": 5627,
      "imm": 5628,
      "tum": 5629,
      "vac": 5630,
      "om i ": 5631,
      "agerar ": 5632,
      "mer och ": 5633,
      "tjänste": 5634,
      "ingar som ": 5635,
      "Engl": 5636,
      "misstän": 5637,
      "verktyg ": 5638,
      "intelligen": 5639,
      "Gam": 5640,
      "tio": 5641,
      "tig ": 5642,
      "de till ": 5643,
      "e är ": 5644,
      "elser ": 5645,
      "rott": 5646,
      "partner ": 5647,
      "inrikt": 5648,
      "s (": 5649,
      "bell": 5650,
      "Jag kan ": 5651,
      "ig.\n": 5652,
      "upp i ": 5653,
      "När jag ": 5654,
      "tigt ": 5655,
      "ervice": 5656,
      "bom": 5657,
      "kn": 5658,
      "y\n": 5659,
      "oren": 5660,
      "ade, ": 5661,
      "Institu": 5662,
      "bidrag": 5663,
      "Cl": 5664,
      "åtta ": 5665,
      "tes": 5666,
      "tittar ": 5667,
      ", ett ": 5668,
      "av dem ": 5669,
      "är\n": 5670,
      "ska vara ": 5671,
      "ade att ": 5672,
      "rätt.\n": 5673,
      "Herr": 5674,
      "mellertid ": 5675,
      "Gol": 5676,
      "födelse": 5677,
      "lemen": 5678,
      "stisk ": 5679,
      "följande": 5680,
      "marknaden.\n": 5681,
      "konsekven": 5682,
      "aden ": 5683,
      "sön": 5684,
      "inträff": 5685,
      "an som ": 5686,
      "dryck": 5687,
      "ad, ": 5688,
      "ares ": 5689,
      "Under": 5690,
      "innan du ": 5691,
      "till sin ": 5692,
      "....\n": 5693,
      "bröll": 5694,
      "njuta av ": 5695,
      "e s": 5696,
      "fing": 5697,
      "ins": 5698,
      "introdu": 5699,
      "aga ": 5700,
      "lig och ": 5701,
      "program ": 5702,
      "säkerhet": 5703,
      "Proje": 5704,
      "impon": 5705,
      "medlemsstaterna ": 5706,
      "> ": 5707,
      "Mc": 5708,
      "dyr": 5709,
      "tgär": 5710,
      "inal": 5711,
      "av det ": 5712,
      "på denna ": 5713,
      "stel": 5714,
      "kanal": 5715,
      "rädsl": 5716,
      "centrala ": 5717,
      "plöts": 5718,
      "ös ": 5719,
      "rik ": 5720,
      "are s": 5721,
      "produkten ": 5722,
      "hände ": 5723,
      "aktör": 5724,
      "buss": 5725,
      "End": 5726,
      "förståelse ": 5727,
      "definiti": 5728,
      " timmar ": 5729,
      "k\n": 5730,
      "mjöl": 5731,
      "ange ": 5732,
      "ar?\n": 5733,
      "allde": 5734,
      "så många ": 5735,
      "minskar ": 5736,
      "illi": 5737,
      "innehåll ": 5738,
      "att det finns ": 5739,
      "aldrig": 5740,
      "version ": 5741,
      "närmare ": 5742,
      "skicka ": 5743,
      "lanser": 5744,
      "stödja ": 5745,
      "anges i ": 5746,
      "figur": 5747,
      "Vet ": 5748,
      "dock": 5749,
      "fen": 5750,
      "en, och ": 5751,
      "i din ": 5752,
      "dia": 5753,
      "med det ": 5754,
      "inte en ": 5755,
      "komst ": 5756,
      "givare ": 5757,
      "med st": 5758,
      "193": 5759,
      "spelar ": 5760,
      "företag som ": 5761,
      "bok ": 5762,
      "kraft ": 5763,
      "främsta ": 5764,
      "skott ": 5765,
      "splan": 5766,
      "hämt": 5767,
      "transport": 5768,
      "skyldig": 5769,
      "berörda ": 5770,
      "reda på ": 5771,
      "Don": 5772,
      "ET": 5773,
      "Fri": 5774,
      "flik": 5775,
      "kasin": 5776,
      "obe": 5777,
      "sent": 5778,
      "us.\n": 5779,
      "int ": 5780,
      ", som s": 5781,
      "löp": 5782,
      "att du kan ": 5783,
      "rapporter": 5784,
      "fråga om ": 5785,
      "lätt att ": 5786,
      "motiver": 5787,
      "Pol": 5788,
      "åsi": 5789,
      "åter ": 5790,
      "er kan ": 5791,
      "i för": 5792,
      "i detta ": 5793,
      "ror ": 5794,
      "nali": 5795,
      "ade på ": 5796,
      "da och ": 5797,
      "samarbete ": 5798,
      "serad ": 5799,
      "dagliga ": 5800,
      "bil ": 5801,
      "lön": 5802,
      "alltför ": 5803,
      "myndigheter ": 5804,
      "officiella ": 5805,
      "Bra ": 5806,
      "bord": 5807,
      "hud": 5808,
      "tack ": 5809,
      "ww": 5810,
      "des": 5811,
      "ommar": 5812,
      ", kan ": 5813,
      "ärka ": 5814,
      "som jag ": 5815,
      "slo": 5816,
      "resul": 5817,
      "fallet ": 5818,
      "naturligtvis ": 5819,
      "Använd": 5820,
      "konsumen": 5821,
      ".c": 5822,
      "Br": 5823,
      "Por": 5824,
      "tilldel": 5825,
      "utred": 5826,
      "rasi": 5827,
      "hållbar ": 5828,
      "vann ": 5829,
      "uppfyller ": 5830,
      "traditionella ": 5831,
      "infektion": 5832,
      "är så ": 5833,
      "nack": 5834,
      "vad de ": 5835,
      "utvecklingen ": 5836,
      "augusti": 5837,
      "systemet ": 5838,
      "Kommission": 5839,
      "frekv": 5840,
      "april ": 5841,
      "tve": 5842,
      "tiker": 5843,
      "skrä": 5844,
      "elsen ": 5845,
      "il ": 5846,
      "juster": 5847,
      "åren ": 5848,
      "aktig": 5849,
      "erna och ": 5850,
      "får inte ": 5851,
      "webbplatsen ": 5852,
      "video": 5853,
      "cancer": 5854,
      "lita ": 5855,
      "undrar ": 5856,
      "alla.\n": 5857,
      "turi": 5858,
      "190": 5859,
      "Restaur": 5860,
      "fall.\n": 5861,
      "Jag skulle ": 5862,
      "rigt ": 5863,
      "industr": 5864,
      " studen": 5865,
      "relevanta ": 5866,
      "jur": 5867,
      "ådana ": 5868,
      "ong ": 5869,
      "as som ": 5870,
      "säm": 5871,
      "at en ": 5872,
      "ger dig ": 5873,
      "beror ": 5874,
      "skap.\n": 5875,
      "och se ": 5876,
      "våld": 5877,
      "temperatur": 5878,
      "mera ": 5879,
      "’s ": 5880,
      "lipp": 5881,
      "dig själv ": 5882,
      "på st": 5883,
      "Men det är ": 5884,
      "döds": 5885,
      "få en ": 5886,
      ", men det ": 5887,
      "som ska ": 5888,
      "effektiva ": 5889,
      "musik ": 5890,
      "verktyg": 5891,
      "nande": 5892,
      "over": 5893,
      "uppdrag ": 5894,
      "i samma ": 5895,
      "At": 5896,
      "lock": 5897,
      "rull": 5898,
      "n för ": 5899,
      "läst ": 5900,
      " skil": 5901,
      "kry": 5902,
      "ningen i ": 5903,
      "integri": 5904,
      "driver ": 5905,
      "skulle vara ": 5906,
      "tror att ": 5907,
      "någonting ": 5908,
      "beroende på ": 5909,
      "perfekta ": 5910,
      "yfte att ": 5911,
      "favorit": 5912,
      "Behöver ": 5913,
      "Gå ": 5914,
      "muni": 5915,
      "erna": 5916,
      "reklam": 5917,
      "lek.\n": 5918,
      "för att hjälpa ": 5919,
      "och så ": 5920,
      "kolla ": 5921,
      "området.\n": 5922,
      "straff": 5923,
      "fysiska ": 5924,
      "eveneman": 5925,
      "75": 5926,
      "Mas": 5927,
      "strä": 5928,
      "spor": 5929,
      "rål": 5930,
      "veckan ": 5931,
      "tid att ": 5932,
      "het\n": 5933,
      "ledar": 5934,
      "Arbet": 5935,
      "förbättr": 5936,
      "Reg": 5937,
      "fina ": 5938,
      "etc": 5939,
      "dokumen": 5940,
      "ekonomisk ": 5941,
      "identifiera ": 5942,
      "kategori": 5943,
      "By": 5944,
      "Tjän": 5945,
      "Ur": 5946,
      "fet": 5947,
      "scen": 5948,
      "inse": 5949,
      "as för ": 5950,
      "ande för ": 5951,
      "mos": 5952,
      "seme": 5953,
      "Innan ": 5954,
      " är ett ": 5955,
      "smä": 5956,
      "lärt ": 5957,
      "organisation ": 5958,
      "bryta ": 5959,
      "dubbel": 5960,
      "Poli": 5961,
      "ts.\n": 5962,
      "avläg": 5963,
      "sida.\n": 5964,
      "som vi ": 5965,
      "separ": 5966,
      "hittade ": 5967,
      "artikel": 5968,
      "speciellt ": 5969,
      "förutsätt": 5970,
      "landet.\n": 5971,
      "terrori": 5972,
      "förrän ": 5973,
      "\" och ": 5974,
      "AC": 5975,
      "Blo": 5976,
      "Deras ": 5977,
      "by ": 5978,
      "kör ": 5979,
      "infra": 5980,
      "värme": 5981,
      "ningen och ": 5982,
      "centrum ": 5983,
      "sprodu": 5984,
      "tydligt ": 5985,
      "hand om ": 5986,
      "styrel": 5987,
      "sm ": 5988,
      "en för": 5989,
      "kommer till ": 5990,
      "blin": 5991,
      "ryska ": 5992,
      "effekt ": 5993,
      "vinner ": 5994,
      "respekti": 5995,
      "november ": 5996,
      "Kun": 5997,
      "ansträng": 5998,
      "stod ": 5999,
      "leg": 6000,
      "at på ": 6001,
      "arna och ": 6002,
      ", och det ": 6003,
      "finna ": 6004,
      "ledare ": 6005,
      "International ": 6006,
      "uppnå": 6007,
      "Bri": 6008,
      "ID": 6009,
      "bär ": 6010,
      "mma ": 6011,
      "invån": 6012,
      "utbu": 6013,
      "ger en ": 6014,
      "sig i ": 6015,
      "personlig ": 6016,
      "forskare ": 6017,
      "dåligt ": 6018,
      "hörde ": 6019,
      "kontakt med ": 6020,
      "??\n": 6021,
      "ling": 6022,
      "lut ": 6023,
      "åg ": 6024,
      "åt.\n": 6025,
      "ar är ": 6026,
      "vita ": 6027,
      "adress": 6028,
      "minim": 6029,
      "ansö": 6030,
      "mellan": 6031,
      "design": 6032,
      "uppfylla ": 6033,
      "ageman": 6034,
      "elektroni": 6035,
      "Sen ": 6036,
      "aj": 6037,
      "wo": 6038,
      "t till ": 6039,
      "äntligen ": 6040,
      "jag kan ": 6041,
      "året.\n": 6042,
      "sef": 6043,
      "taget ": 6044,
      "foto": 6045,
      "land och ": 6046,
      "omedelbart ": 6047,
      "Result": 6048,
      "tåg": 6049,
      "t eller ": 6050,
      "akademi": 6051,
      "för att göra ": 6052,
      "are?\n": 6053,
      "mens ": 6054,
      "ström": 6055,
      "datab": 6056,
      " samman": 6057,
      "hus.\n": 6058,
      "kontor": 6059,
      "rum.\n": 6060,
      "slutet ": 6061,
      "minne": 6062,
      "timm": 6063,
      "sky": 6064,
      "ordet ": 6065,
      "lighet.\n": 6066,
      "utsi": 6067,
      "älska ": 6068,
      "upp och ": 6069,
      "formen ": 6070,
      "150": 6071,
      "identi": 6072,
      "diskus": 6073,
      "unionens ": 6074,
      "president ": 6075,
      "arkite": 6076,
      "ritori": 6077,
      "AD": 6078,
      "ST": 6079,
      "jack": 6080,
      "r.\n": 6081,
      "tin": 6082,
      "tju": 6083,
      "orden": 6084,
      " skad": 6085,
      "cien": 6086,
      "i sina ": 6087,
      "aktivt ": 6088,
      "hade en ": 6089,
      "lands": 6090,
      " km ": 6091,
      "Välkom": 6092,
      "ansökan ": 6093,
      "Mina ": 6094,
      "Tre": 6095,
      "lun": 6096,
      "tan ": 6097,
      "den på ": 6098,
      "or är ": 6099,
      "at för ": 6100,
      "doll": 6101,
      "företags": 6102,
      "rygg": 6103,
      "tanke ": 6104,
      "bestämma ": 6105,
      "organisationer ": 6106,
      "Hotell nära ": 6107,
      "Twit": 6108,
      "till din ": 6109,
      "alli": 6110,
      "ter för ": 6111,
      "koncep": 6112,
      "chans ": 6113,
      "ktu": 6114,
      "Inget ": 6115,
      "arbeta med ": 6116,
      "någon ann": 6117,
      "att det var ": 6118,
      "applik": 6119,
      "genomföra ": 6120,
      "häst": 6121,
      "Met": 6122,
      "Pu": 6123,
      "ifrån": 6124,
      ", det är ": 6125,
      "legi": 6126,
      "rådet ": 6127,
      "efter att ha ": 6128,
      "ningsvis ": 6129,
      "behöver inte ": 6130,
      "komplex": 6131,
      "anledning ": 6132,
      "automatiskt ": 6133,
      "Bel": 6134,
      "IF": 6135,
      "Svar": 6136,
      "t en ": 6137,
      " sa ": 6138,
      "att inte ": 6139,
      "onom": 6140,
      "ett bra ": 6141,
      "kryp": 6142,
      "erna är ": 6143,
      "kommitté": 6144,
      "precis som ": 6145,
      "landets ": 6146,
      "AM": 6147,
      "Air": 6148,
      "Musi": 6149,
      ", för ": 6150,
      "från det ": 6151,
      "ställer ": 6152,
      "kvår": 6153,
      "kvalitet ": 6154,
      "Läs mer om ": 6155,
      "iPhon": 6156,
      "titel": 6157,
      "sk s": 6158,
      "kommer inte att ": 6159,
      "tren": 6160,
      "Först ": 6161,
      "ensstäm": 6162,
      "University ": 6163,
      "demokrati": 6164,
      "genomsnitt": 6165,
      "Fort": 6166,
      "set": 6167,
      "den bästa ": 6168,
      "ningen, ": 6169,
      "fix": 6170,
      "pool": 6171,
      ", ska ": 6172,
      "hända ": 6173,
      "privat ": 6174,
      "starkt ": 6175,
      "Är du ": 6176,
      "system.\n": 6177,
      ", skulle ": 6178,
      "afri": 6179,
      "emellertid ": 6180,
      "sjö": 6181,
      "anden.\n": 6182,
      "ar vi ": 6183,
      "om han ": 6184,
      "i ditt ": 6185,
      ", då ": 6186,
      "det på ": 6187,
      "ligt, ": 6188,
      "ningens ": 6189,
      "ett antal ": 6190,
      "års ": 6191,
      "ressi": 6192,
      "191": 6193,
      "Detta är en ": 6194,
      "Båda ": 6195,
      "fann ": 6196,
      "faktum ": 6197,
      "gh": 6198,
      "rent ": 6199,
      "små": 6200,
      "a som ": 6201,
      "orig": 6202,
      "avtalet ": 6203,
      "reakti": 6204,
      "cho": 6205,
      "kön": 6206,
      "tank": 6207,
      "ögon ": 6208,
      "visar att ": 6209,
      "Endast ": 6210,
      "Syd": 6211,
      "sur": 6212,
      " sina ": 6213,
      "list": 6214,
      "territori": 6215,
      "har fått ": 6216,
      "bert ": 6217,
      "mani": 6218,
      "garanti": 6219,
      "Coll": 6220,
      "billig": 6221,
      "sälja ": 6222,
      "vok": 6223,
      "vore ": 6224,
      "depres": 6225,
      "en ska ": 6226,
      "änk": 6227,
      "ingredi": 6228,
      "former ": 6229,
      "byr": 6230,
      "gör att ": 6231,
      "lov": 6232,
      "gällande ": 6233,
      "sov": 6234,
      "rummet ": 6235,
      "Tror ": 6236,
      "intervju": 6237,
      "New York ": 6238,
      "vunni": 6239,
      "tusentals ": 6240,
      "!”\n": 6241,
      "gel": 6242,
      "job": 6243,
      "derade ": 6244,
      "arna": 6245,
      "skjut": 6246,
      "i L": 6247,
      "recen": 6248,
      "....": 6249,
      "erna för ": 6250,
      "engageman": 6251,
      "förlora ": 6252,
      "annorlunda ": 6253,
      "32": 6254,
      "bum": 6255,
      "smi": 6256,
      "sked": 6257,
      "vända ": 6258,
      "var att ": 6259,
      "värda ": 6260,
      "fullstän": 6261,
      "längre.\n": 6262,
      "öppnar ": 6263,
      "klicka ": 6264,
      "central": 6265,
      "Hög": 6266,
      "sinn": 6267,
      "infly": 6268,
      "den nya ": 6269,
      "har gjort ": 6270,
      "as\n": 6271,
      "verket ": 6272,
      "utveckling.\n": 6273,
      "kallad ": 6274,
      "kvalit": 6275,
      "fram emot ": 6276,
      "Något ": 6277,
      "fantastisk ": 6278,
      "gransk": 6279,
      "möjligt för ": 6280,
      "spännande ": 6281,
      "Offi": 6282,
      "Glo": 6283,
      "iv": 6284,
      "i sk": 6285,
      "zz": 6286,
      "zon": 6287,
      "på alla ": 6288,
      "uth": 6289,
      "ade han ": 6290,
      "heten": 6291,
      "dram": 6292,
      "kunder.\n": 6293,
      "nabbare ": 6294,
      " december ": 6295,
      "Appl": 6296,
      "ber.\n": 6297,
      "Öster": 6298,
      "är, ": 6299,
      "terad ": 6300,
      "riktiga ": 6301,
      "fron": 6302,
      "konsta": 6303,
      "sedan.\n": 6304,
      "väsent": 6305,
      "experi": 6306,
      "resten av ": 6307,
      "En av ": 6308,
      "farty": 6309,
      "lys": 6310,
      "säkerställa ": 6311,
      "visst ": 6312,
      "artikl": 6313,
      "kristna ": 6314,
      "400": 6315,
      "IC": 6316,
      "OR": 6317,
      "oll": 6318,
      "” och ": 6319,
      "ers": 6320,
      "oniska ": 6321,
      "gör.\n": 6322,
      "vetenskapliga ": 6323,
      " % av ": 6324,
      "produkter.\n": 6325,
      "modern ": 6326,
      "mycket.\n": 6327,
      "Ban": 6328,
      "Bor": 6329,
      "la": 6330,
      "er!\n": 6331,
      "erats ": 6332,
      "et till ": 6333,
      "repar": 6334,
      "vara.\n": 6335,
      "genom s": 6336,
      "överensstäm": 6337,
      "ödra ": 6338,
      "räcker ": 6339,
      "lämnade ": 6340,
      "slags ": 6341,
      "överrask": 6342,
      "t: ": 6343,
      "n som ": 6344,
      "inled": 6345,
      "erkän": 6346,
      "else.\n": 6347,
      "jag att ": 6348,
      "plo": 6349,
      "översätt": 6350,
      "kan.\n": 6351,
      "trepren": 6352,
      "världen": 6353,
      "köpte ": 6354,
      "Europa.\n": 6355,
      "ssiga ": 6356,
      "specifika ": 6357,
      "AP": 6358,
      "Mer": 6359,
      "Mål": 6360,
      "ej": 6361,
      "för dig": 6362,
      "franska ": 6363,
      "alls ": 6364,
      "eller andra ": 6365,
      "het i ": 6366,
      "ynner": 6367,
      "berättade ": 6368,
      "projektet ": 6369,
      "Genom ": 6370,
      "morgon ": 6371,
      "noggran": 6372,
      "avsnitt ": 6373,
      "+ ": 6374,
      "-å": 6375,
      "Van": 6376,
      "band": 6377,
      "can ": 6378,
      "despel": 6379,
      "vitam": 6380,
      "uppho": 6381,
      "ning med ": 6382,
      "exam": 6383,
      "överen": 6384,
      "Den första ": 6385,
      "staterna ": 6386,
      "abor": 6387,
      "företagets ": 6388,
      "stark ": 6389,
      "hjärta ": 6390,
      "Utan ": 6391,
      "produkter och ": 6392,
      "expon": 6393,
      "World ": 6394,
      " ju": 6395,
      "a. ": 6396,
      "de, ": 6397,
      "dimen": 6398,
      "hur det ": 6399,
      "växer ": 6400,
      "gruppen ": 6401,
      "orsaka ": 6402,
      "meddelande ": 6403,
      "dokument": 6404,
      "militär": 6405,
      "brittiska ": 6406,
      "kampanj": 6407,
      "Jon": 6408,
      "bära ": 6409,
      "ös": 6410,
      "stav": 6411,
      "skop": 6412,
      "als ": 6413,
      "den andra ": 6414,
      "spon": 6415,
      "att\n": 6416,
      "Den är ": 6417,
      "bakteri": 6418,
      "dotter": 6419,
      "land, ": 6420,
      "leverera ": 6421,
      "skydds": 6422,
      "iness ": 6423,
      "tredje par": 6424,
      "nyckel": 6425,
      "Afri": 6426,
      "Eli": 6427,
      "National ": 6428,
      "sten.\n": 6429,
      "ting": 6430,
      "omgiv": 6431,
      "förbin": 6432,
      "fördelar ": 6433,
      "fördrag": 6434,
      "kan göra ": 6435,
      "En annan ": 6436,
      "befintliga ": 6437,
      "B-": 6438,
      "PR": 6439,
      "amb": 6440,
      "uppdrag": 6441,
      "totalt ": 6442,
      "frågar ": 6443,
      "ades av ": 6444,
      "vatten.\n": 6445,
      " minuter ": 6446,
      "-,": 6447,
      "Tor": 6448,
      "omo": 6449,
      "ledes ": 6450,
      "chans": 6451,
      "klusi": 6452,
      "dricka ": 6453,
      "De s": 6454,
      "ingar i ": 6455,
      "längs ": 6456,
      "gå till ": 6457,
      "jorden ": 6458,
      "rekommend": 6459,
      "journali": 6460,
      "33": 6461,
      "Eg": 6462,
      "Op": 6463,
      "prå": 6464,
      "församl": 6465,
      "al och ": 6466,
      "värd ": 6467,
      "arna är ": 6468,
      "vad det ": 6469,
      "ke.\n": 6470,
      "erbjudan": 6471,
      "grund ": 6472,
      "Just ": 6473,
      "Det här är ": 6474,
      "otroligt ": 6475,
      "gravidi": 6476,
      "något.\n": 6477,
      " ”": 6478,
      "!\"\n": 6479,
      "ffr": 6480,
      "kaf": 6481,
      "tj": 6482,
      "tet\n": 6483,
      "en liten ": 6484,
      "ing är ": 6485,
      "delen ": 6486,
      "or för ": 6487,
      "poäng": 6488,
      "hur många ": 6489,
      "ge dig ": 6490,
      "elever": 6491,
      "Tidig": 6492,
      "offentlig": 6493,
      "Studi": 6494,
      "DN": 6495,
      "Sal": 6496,
      "ct ": 6497,
      "vla ": 6498,
      "inom s": 6499,
      "orna.\n": 6500,
      "apo": 6501,
      "steg": 6502,
      "byta ": 6503,
      "domin": 6504,
      "ografi": 6505,
      "relativt ": 6506,
      "lyf": 6507,
      "majori": 6508,
      "respektive ": 6509,
      "Ham": 6510,
      "Soci": 6511,
      "shi": 6512,
      "– och ": 6513,
      "atta ": 6514,
      "äljer ": 6515,
      "jag vill ": 6516,
      "för att vara ": 6517,
      "vårig": 6518,
      "växande ": 6519,
      "myndigheten ": 6520,
      "Bästa ": 6521,
      " K": 6522,
      "fred": 6523,
      "Åter": 6524,
      "aren.\n": 6525,
      "ene": 6526,
      "bedö": 6527,
      "dubbl": 6528,
      "klini": 6529,
      "in på ": 6530,
      "sig att ": 6531,
      "antag ": 6532,
      "följd av ": 6533,
      "blir det ": 6534,
      "väg.\n": 6535,
      "berätt": 6536,
      "dålig ": 6537,
      "ligger i ": 6538,
      "Man kan ": 6539,
      "aktuella ": 6540,
      "extremt ": 6541,
      "Hjäl": 6542,
      "hag": 6543,
      "ks ": 6544,
      "d (": 6545,
      "refle": 6546,
      "vi ska ": 6547,
      "med din ": 6548,
      "kropps": 6549,
      "tillsammans.\n": 6550,
      "profess": 6551,
      "tänka på ": 6552,
      "rättsliga ": 6553,
      "Ab": 6554,
      "Bit": 6555,
      "jung": 6556,
      "o-": 6557,
      "sle": 6558,
      "särskilda ": 6559,
      "för mycket ": 6560,
      "sson ": 6561,
      "exu": 6562,
      "tet är ": 6563,
      "alla andra ": 6564,
      "nes": 6565,
      "parker": 6566,
      "Allt": 6567,
      "myndigheterna ": 6568,
      "föddes ": 6569,
      "bolaget ": 6570,
      "Medlem": 6571,
      "99": 6572,
      "Dom": 6573,
      "når ": 6574,
      "ål ": 6575,
      "rese": 6576,
      "Inga ": 6577,
      "andet.\n": 6578,
      "möte ": 6579,
      "I en ": 6580,
      "relation ": 6581,
      "älskade ": 6582,
      "Cam": 6583,
      "do ": 6584,
      "pok": 6585,
      "tand": 6586,
      "er, och ": 6587,
      "förändra ": 6588,
      "tillför": 6589,
      "till och ": 6590,
      "konflik": 6591,
      "prog": 6592,
      "Vid": 6593,
      "New": 6594,
      "kroppen ": 6595,
      "ögonblick": 6596,
      "populär": 6597,
      "behövde ": 6598,
      "Ta": 6599,
      "i\n": 6600,
      "i hela ": 6601,
      "förne": 6602,
      "från ett ": 6603,
      "Inform": 6604,
      "är en av de ": 6605,
      "Skap": 6606,
      "passager": 6607,
      "pecifi": 6608,
      "pratar ": 6609,
      "fel.\n": 6610,
      "Precis ": 6611,
      "normalt ": 6612,
      "Hela ": 6613,
      "Får ": 6614,
      "ON": 6615,
      "Rom": 6616,
      "Tex": 6617,
      "l.\n": 6618,
      "lån ": 6619,
      "de första ": 6620,
      "vision ": 6621,
      "det bästa ": 6622,
      "bevis": 6623,
      "ning om ": 6624,
      "kt för ": 6625,
      "Viss": 6626,
      "ön.\n": 6627,
      "föremål ": 6628,
      "beläg": 6629,
      "ansik": 6630,
      "ladda ": 6631,
      "Centr": 6632,
      "liggande ": 6633,
      "ater ": 6634,
      "sk.\n": 6635,
      "sker ": 6636,
      "väv": 6637,
      "ades.\n": 6638,
      "stival": 6639,
      "dem att ": 6640,
      "effekter ": 6641,
      "används för att ": 6642,
      "Sen": 6643,
      "cent": 6644,
      "hade s": 6645,
      "pil": 6646,
      "med i ": 6647,
      "kan ha ": 6648,
      "vid en ": 6649,
      "ce.\n": 6650,
      "frivill": 6651,
      "tillbaka.\n": 6652,
      "behov.\n": 6653,
      "Goog": 6654,
      "mångfal": 6655,
      "bröllop": 6656,
      "last": 6657,
      "e att ": 6658,
      "förpack": 6659,
      "beskriver ": 6660,
      "länderna ": 6661,
      "förstö": 6662,
      "sätt som ": 6663,
      "barn och ": 6664,
      "position ": 6665,
      "positiva ": 6666,
      "dyn": 6667,
      "pat": 6668,
      "tter.\n": 6669,
      "en, som ": 6670,
      "st\n": 6671,
      "ttr": 6672,
      "biljet": 6673,
      "värld ": 6674,
      "heter och ": 6675,
      "metall": 6676,
      "metoder ": 6677,
      "ervice ": 6678,
      "professionella ": 6679,
      " skillnad ": 6680,
      "Blu": 6681,
      "Kvinn": 6682,
      "jap": 6683,
      "las": 6684,
      "enkel ": 6685,
      "de i ": 6686,
      "ning: ": 6687,
      "ationer och ": 6688,
      "tyska ": 6689,
      "us, ": 6690,
      "ningar för ": 6691,
      "demon": 6692,
      "oblig": 6693,
      "tänkt ": 6694,
      "problemet ": 6695,
      "telse ": 6696,
      "klipp": 6697,
      "runt om i ": 6698,
      "a eller ": 6699,
      "atti": 6700,
      "tern ": 6701,
      "varu": 6702,
      "uppstår ": 6703,
      "framtiden ": 6704,
      "online": 6705,
      "nivå.\n": 6706,
      " % ": 6707,
      "vuxna ": 6708,
      "ames ": 6709,
      "yrkes": 6710,
      "Microsoft ": 6711,
      ") som ": 6712,
      "Dri": 6713,
      "Hade ": 6714,
      "Pal": 6715,
      "iz": 6716,
      "tin ": 6717,
      "ings ": 6718,
      "ambi": 6719,
      "år, ": 6720,
      "när den ": 6721,
      "löf": 6722,
      "Författ": 6723,
      "längre": 6724,
      "ålder": 6725,
      "katastro": 6726,
      "Fy": 6727,
      "Norg": 6728,
      "far ": 6729,
      "är också ": 6730,
      "sk och ": 6731,
      "disk ": 6732,
      "Jag hade ": 6733,
      "annat.\n": 6734,
      "pröv": 6735,
      "isol": 6736,
      "producera ": 6737,
      "personuppgif": 6738,
      "blev": 6739,
      "död ": 6740,
      "Och det ": 6741,
      "val av ": 6742,
      "säkerställa att ": 6743,
      " G": 6744,
      "Mell": 6745,
      "Pari": 6746,
      "met.\n": 6747,
      "utsträck": 6748,
      "nades ": 6749,
      "var och ": 6750,
      "prova ": 6751,
      "hur du ": 6752,
      "kore": 6753,
      "tjänster.\n": 6754,
      " samhäll": 6755,
      "klara ": 6756,
      "universite": 6757,
      "princip": 6758,
      "Lag": 6759,
      "tet för ": 6760,
      "dags ": 6761,
      "ser för ": 6762,
      "ningar av ": 6763,
      "saker.\n": 6764,
      "gången.\n": 6765,
      "vet att ": 6766,
      "valda ": 6767,
      "att det inte ": 6768,
      "namn.\n": 6769,
      "180": 6770,
      "däremot ": 6771,
      " C": 6772,
      "PS": 6773,
      "gg ": 6774,
      "sar ": 6775,
      "vån ": 6776,
      "är du ": 6777,
      "skog": 6778,
      "d mot ": 6779,
      "e (": 6780,
      "varandra": 6781,
      "ande i ": 6782,
      " stor": 6783,
      "möter ": 6784,
      "så.\n": 6785,
      "ut och ": 6786,
      "skrimin": 6787,
      "sig själv": 6788,
      "Hur många ": 6789,
      "er som är ": 6790,
      "nerv": 6791,
      "Nej, ": 6792,
      "Före": 6793,
      "kyrkan ": 6794,
      "betydligt ": 6795,
      "italien": 6796,
      "Apple ": 6797,
      "överenskom": 6798,
      "EM": 6799,
      "Kr": 6800,
      "ibland": 6801,
      "o och ": 6802,
      "uvida ": 6803,
      "va": 6804,
      "t över ": 6805,
      "de största ": 6806,
      "in\n": 6807,
      "insi": 6808,
      "bevilj": 6809,
      "fran": 6810,
      "raff": 6811,
      "var den ": 6812,
      "minister ": 6813,
      "handel ": 6814,
      "Du måste ": 6815,
      "192": 6816,
      "lämnas ": 6817,
      "Ditt ": 6818,
      "funktions": 6819,
      "ering och ": 6820,
      "sproje": 6821,
      "multi": 6822,
      "skatte": 6823,
      "medveten ": 6824,
      " timmar": 6825,
      "SS": 6826,
      "Syf": 6827,
      "gående ": 6828,
      "hår ": 6829,
      "kus": 6830,
      "År": 6831,
      "att.\n": 6832,
      "erad": 6833,
      "om det är ": 6834,
      "de kan ": 6835,
      "ta över ": 6836,
      "från de ": 6837,
      "Jag gillar ": 6838,
      "kriteri": 6839,
      "beräkna": 6840,
      "stark": 6841,
      "ärskild ": 6842,
      "Gud.\n": 6843,
      "medicinska ": 6844,
      "internationellt ": 6845,
      "definitivt ": 6846,
      "Iställ": 6847,
      "öm ": 6848,
      "ere": 6849,
      "skall": 6850,
      "terande ": 6851,
      "Förutom ": 6852,
      "information.\n": 6853,
      "språk ": 6854,
      "lämpliga ": 6855,
      "letar ": 6856,
      " men ": 6857,
      "Dr": 6858,
      "Far": 6859,
      "pli": 6860,
      "s!\n": 6861,
      "sven": 6862,
      "de att ": 6863,
      "gene": 6864,
      "are: ": 6865,
      "kommer att bli ": 6866,
      "länder": 6867,
      "utvecklings": 6868,
      "belö": 6869,
      "orsakar ": 6870,
      "förhållanden ": 6871,
      " september ": 6872,
      "T-": 6873,
      "das ": 6874,
      "hade": 6875,
      "ph": 6876,
      "atmos": 6877,
      "upplever ": 6878,
      "perman": 6879,
      "Vi vill ": 6880,
      "Andro": 6881,
      "Försök": 6882,
      "fortsatt ": 6883,
      "växa ": 6884,
      "folket ": 6885,
      "annat än ": 6886,
      "punkten ": 6887,
      "effektiv ": 6888,
      "ramen för ": 6889,
      " H": 6890,
      " januari ": 6891,
      "/EG": 6892,
      "Få ": 6893,
      "tör": 6894,
      "ugg": 6895,
      "om ett ": 6896,
      "listan ": 6897,
      "redu": 6898,
      "reali": 6899,
      "ras.\n": 6900,
      "vara på ": 6901,
      "ningar i ": 6902,
      "vad vi ": 6903,
      "verksamheten ": 6904,
      "främj": 6905,
      "Samma ": 6906,
      "leda till ": 6907,
      "ingredien": 6908,
      "E-": 6909,
      "dras ": 6910,
      "sel": 6911,
      "ys ": 6912,
      "an?\n": 6913,
      "argum": 6914,
      " sade ": 6915,
      "om vi ": 6916,
      "är o": 6917,
      "varm": 6918,
      "örja ": 6919,
      "exklusi": 6920,
      "sen av ": 6921,
      " skapar ": 6922,
      "EG) nr ": 6923,
      "fortsätter att ": 6924,
      "car": 6925,
      "y och ": 6926,
      "et!\n": 6927,
      "samtidigt ": 6928,
      "sin egen ": 6929,
      "högst ": 6930,
      "tankar ": 6931,
      "ologisk ": 6932,
      "skillnad ": 6933,
      "människors ": 6934,
      "potentiella ": 6935,
      "negativa ": 6936,
      "Obam": 6937,
      "motstånd": 6938,
      "fog": 6939,
      "sade ": 6940,
      "tvär": 6941,
      "skal": 6942,
      "av våra ": 6943,
      "given ": 6944,
      "ökade ": 6945,
      "ledam": 6946,
      "miljon": 6947,
      "eftersom det ": 6948,
      "betydelse ": 6949,
      "instrument ": 6950,
      "sperio": 6951,
      "IM": 6952,
      "Ja ": 6953,
      "Kat": 6954,
      "Mor": 6955,
      "Wil": 6956,
      "b) ": 6957,
      "gyn": 6958,
      "tål": 6959,
      "dest": 6960,
      "tillbr": 6961,
      "alen ": 6962,
      "um, ": 6963,
      "såtgär": 6964,
      "- och s": 6965,
      "undantag ": 6966,
      "faller ": 6967,
      "volver": 6968,
      "restaurang": 6969,
      "Därefter ": 6970,
      "Måste ": 6971,
      "Gra": 6972,
      "My": 6973,
      "det\n": 6974,
      "en: ": 6975,
      "sse": 6976,
      "olj": 6977,
      "läge ": 6978,
      "vänner.\n": 6979,
      "mindre": 6980,
      "berg ": 6981,
      "framför": 6982,
      "ut som ": 6983,
      "gör en ": 6984,
      "genom en ": 6985,
      "Och jag ": 6986,
      "Han var ": 6987,
      "Vad är det ": 6988,
      "ålder ": 6989,
      "forskning": 6990,
      "planerar ": 6991,
      "punkter ": 6992,
      "dock inte ": 6993,
      "doktor": 6994,
      "tegi ": 6995,
      "ologi ": 6996,
      "redovis": 6997,
      "Rö": 6998,
      "ik": 6999,
      "et med ": 7000,
      "för mig ": 7001,
      "den mest ": 7002,
      "år sedan ": 7003,
      "ökat ": 7004,
      "han är ": 7005,
      "råd ": 7006,
      "sig på ": 7007,
      "förstör": 7008,
      "bruk ": 7009,
      "information som ": 7010,
      "upptäcka ": 7011,
      "F ": 7012,
      "aten ": 7013,
      "kass": 7014,
      "entrepren": 7015,
      "stre": 7016,
      "föroren": 7017,
      "extra": 7018,
      "aktiv ": 7019,
      "frågor.\n": 7020,
      "endera ": 7021,
      "kapitali": 7022,
      "Webb": 7023,
      "Stockholm": 7024,
      "Restauranger ": 7025,
      "(och ": 7026,
      "I-": 7027,
      "Stre": 7028,
      "kok": 7029,
      "lör": 7030,
      "ted ": 7031,
      "tips ": 7032,
      "är vi ": 7033,
      "förfl": 7034,
      "diskrimin": 7035,
      "den till ": 7036,
      "den mellan ": 7037,
      "upprep": 7038,
      "Jag hoppas ": 7039,
      "symp": 7040,
      "Det är därför ": 7041,
      "användningen av ": 7042,
      "spel.\n": 7043,
      "jobb.\n": 7044,
      "Israel ": 7045,
      "-talet.\n": 7046,
      "berömda ": 7047,
      "Ed": 7048,
      "F-": 7049,
      "Sök": 7050,
      "UN": 7051,
      "mal": 7052,
      "phon": 7053,
      "ockan ": 7054,
      " skrev ": 7055,
      "kommer inte ": 7056,
      "fien": 7057,
      "manu": 7058,
      "i syfte att ": 7059,
      "någon som ": 7060,
      "betalnings": 7061,
      "melse ": 7062,
      "Bibel": 7063,
      "istället ": 7064,
      "avlägs": 7065,
      "Vin": 7066,
      "X ": 7067,
      "tlig": 7068,
      "att komma ": 7069,
      "avser ": 7070,
      "när hon ": 7071,
      "ut på ": 7072,
      "personer.\n": 7073,
      " situ": 7074,
      "utbildning ": 7075,
      "förmån": 7076,
      "global ": 7077,
      "Wal": 7078,
      "co ": 7079,
      "da, ": 7080,
      "yll": 7081,
      "teor": 7082,
      "förbruk": 7083,
      "utvärder": 7084,
      "gick": 7085,
      "samla ": 7086,
      "are är ": 7087,
      "ande st": 7088,
      "annars ": 7089,
      "glada ": 7090,
      "linje ": 7091,
      "idrott": 7092,
      "USA:s ": 7093,
      "försökte ": 7094,
      "tabl": 7095,
      "studie ": 7096,
      "begränsad ": 7097,
      "Business ": 7098,
      "Klicka ": 7099,
      "Tri": 7100,
      "i världen ": 7101,
      "na av ": 7102,
      "som hel": 7103,
      "dags att ": 7104,
      "mann": 7105,
      "ande som ": 7106,
      "därför att ": 7107,
      "spegl": 7108,
      "går att ": 7109,
      "ace ": 7110,
      "barnen ": 7111,
      "of the ": 7112,
      "bestämmer ": 7113,
      "Chri": 7114,
      "Plan": 7115,
      "plattform": 7116,
      "därefter ": 7117,
      "All ": 7118,
      "celler ": 7119,
      "cal ": 7120,
      "nom": 7121,
      "sjun": 7122,
      "ata ": 7123,
      "erna, ": 7124,
      "varken ": 7125,
      "ley ": 7126,
      "ktori": 7127,
      "innehålla ": 7128,
      "mig, ": 7129,
      "historia.\n": 7130,
      "tillhandahåller ": 7131,
      "Håll ": 7132,
      "rutin": 7133,
      "avgörande ": 7134,
      ".”": 7135,
      "Hem": 7136,
      "gan": 7137,
      "i skol": 7138,
      "osi": 7139,
      "tten ": 7140,
      " svar": 7141,
      "i vår ": 7142,
      "behåll": 7143,
      "het för ": 7144,
      "stiga ": 7145,
      "datum ": 7146,
      "trafik": 7147,
      "då?\n": 7148,
      "pojk": 7149,
      "februari ": 7150,
      "34": 7151,
      "EL": 7152,
      "Jack": 7153,
      "pani": 7154,
      "rop": 7155,
      "ter på ": 7156,
      "migr": 7157,
      "spun": 7158,
      "för att ta ": 7159,
      "är en del av ": 7160,
      "vanlig ": 7161,
      "föreställ": 7162,
      "process ": 7163,
      "långsi": 7164,
      "resultat.\n": 7165,
      "gemensamt ": 7166,
      "super": 7167,
      "fokusera ": 7168,
      "Onlin": 7169,
      " maj ": 7170,
      "War": 7171,
      "o\n": 7172,
      "ution ": 7173,
      "ätta ": 7174,
      "öster": 7175,
      "tider ": 7176,
      "an för ": 7177,
      "amma ": 7178,
      "char": 7179,
      "sak ": 7180,
      "abel": 7181,
      "gjorda ": 7182,
      "Holl": 7183,
      "mäst": 7184,
      "förklara ": 7185,
      "hundrat": 7186,
      "fjärde ": 7187,
      "Europaparlamentet ": 7188,
      "Välkommen ": 7189,
      "Egyp": 7190,
      "38": 7191,
      "Glö": 7192,
      "].\n": 7193,
      "” (": 7194,
      "tida ": 7195,
      ", inklusive ": 7196,
      "utgång": 7197,
      "kan hjälpa ": 7198,
      "upptag": 7199,
      "du att ": 7200,
      "dry": 7201,
      "ligt och ": 7202,
      "många olika ": 7203,
      "fortsat": 7204,
      "relater": 7205,
      "Hou": 7206,
      "verksamhet.\n": 7207,
      "minns ": 7208,
      "fordon ": 7209,
      "fokuser": 7210,
      "bekräft": 7211,
      "Turki": 7212,
      "Micha": 7213,
      "instruktion": 7214,
      "seffe": 7215,
      "jobbet": 7216,
      "Restauranger i närheten av ": 7217,
      "svag": 7218,
      "om st": 7219,
      "tidiga ": 7220,
      "vik": 7221,
      "liga, ": 7222,
      "den har ": 7223,
      "bekan": 7224,
      "ursä": 7225,
      "are har ": 7226,
      "at att ": 7227,
      "han har ": 7228,
      "överens ": 7229,
      "strän": 7230,
      "lämnat ": 7231,
      "dåliga ": 7232,
      "struktur ": 7233,
      "hundra": 7234,
      "vem som ": 7235,
      "arabi": 7236,
      "kinesiska ": 7237,
      " måna": 7238,
      "ui": 7239,
      "van ": 7240,
      "ersätta ": 7241,
      "delse ": 7242,
      "slå ": 7243,
      "man inte ": 7244,
      "ned ": 7245,
      "varje dag.\n": 7246,
      "öppen ": 7247,
      "empl": 7248,
      "medlemsstat ": 7249,
      "vattnet ": 7250,
      "ling ": 7251,
      "smen ": 7252,
      "ana ": 7253,
      "brett ": 7254,
      "brand": 7255,
      "framställ": 7256,
      "marknad": 7257,
      "vidta ": 7258,
      "Om du har ": 7259,
      "ljus ": 7260,
      "effektiv": 7261,
      "allmänhet ": 7262,
      "Tyvärr ": 7263,
      "hämta ": 7264,
      "tvungen att ": 7265,
      " juni ": 7266,
      "Fast ": 7267,
      "Kär": 7268,
      "har.\n": 7269,
      "kak": 7270,
      "sorg": 7271,
      "atur ": 7272,
      "tillfreds": 7273,
      "al-": 7274,
      "bevar": 7275,
      "ure ": 7276,
      "för att skydda ": 7277,
      "verkställ": 7278,
      "känne": 7279,
      "framgång ": 7280,
      "ut i ": 7281,
      "ts i ": 7282,
      "sättningen ": 7283,
      "ades i ": 7284,
      "skulle kunna ": 7285,
      "EU ": 7286,
      "Jag ska ": 7287,
      "cykl": 7288,
      "Ba": 7289,
      "ön ": 7290,
      "at\n": 7291,
      "jag var ": 7292,
      "tusen ": 7293,
      "producen": 7294,
      "webbläs": 7295,
      "och skap": 7296,
      " [+": 7297,
      "berättig": 7298,
      "Fråga ": 7299,
      "försäkrings": 7300,
      "karriär ": 7301,
      "Israels ": 7302,
      "Bitco": 7303,
      "37": 7304,
      "48": 7305,
      "Dis": 7306,
      "bad": 7307,
      "gym": 7308,
      "ymp": 7309,
      "zi": 7310,
      "för närvarande ": 7311,
      "rika ": 7312,
      "beton": 7313,
      "fir": 7314,
      "kost ": 7315,
      ") är ": 7316,
      "är det viktigt att ": 7317,
      "områden.\n": 7318,
      "af ": 7319,
      "vad som är ": 7320,
      "kvalificer": 7321,
      "födda ": 7322,
      "Internet ": 7323,
      "fysisk ": 7324,
      "dimension": 7325,
      "ka, ": 7326,
      "pale": 7327,
      "én ": 7328,
      "anklag": 7329,
      "mesta ": 7330,
      "på detta ": 7331,
      "läkt": 7332,
      "vara ett ": 7333,
      "i synner": 7334,
      "världen, ": 7335,
      "barnet ": 7336,
      "hundra ": 7337,
      "brev ": 7338,
      "London ": 7339,
      "islam": 7340,
      "65": 7341,
      "Tre ": 7342,
      " snabb": 7343,
      "nads": 7344,
      "dig själv": 7345,
      "resol": 7346,
      "andra sidan ": 7347,
      "lög": 7348,
      "Du kommer att ": 7349,
      "människan ": 7350,
      "försörj": 7351,
      "om du har ": 7352,
      "Proble": 7353,
      "upplevelse ": 7354,
      "förväntas ": 7355,
      "kommunikation ": 7356,
      "sikt över ": 7357,
      "huruvida ": 7358,
      "kontinuer": 7359,
      "koncern": 7360,
      " och s": 7361,
      "39": 7362,
      "Bal": 7363,
      "Che": 7364,
      "Casin": 7365,
      "ec": 7366,
      "de ska ": 7367,
      ", om ": 7368,
      "förvar": 7369,
      "försiktig": 7370,
      "på väg ": 7371,
      "som de ": 7372,
      "årets ": 7373,
      "känt ": 7374,
      "Det är också ": 7375,
      " av den ": 7376,
      "internet": 7377,
      "allmänt ": 7378,
      "baserat på ": 7379,
      "Bud": 7380,
      "Lju": 7381,
      "arr": 7382,
      "sikt": 7383,
      "beskri": 7384,
      "begrav": 7385,
      "kan användas ": 7386,
      "gru": 7387,
      "med.\n": 7388,
      "tuff": 7389,
      "drivs ": 7390,
      "box": 7391,
      "får en ": 7392,
      "föredrar ": 7393,
      "elemen": 7394,
      "projek": 7395,
      "period ": 7396,
      "europe": 7397,
      "kläder ": 7398,
      "osof": 7399,
      "himmel": 7400,
      "bonus": 7401,
      " är en ": 7402,
      ":e ": 7403,
      "Cap": 7404,
      "Ge ": 7405,
      "MS": 7406,
      "Ru": 7407,
      "lade ": 7408,
      "nav": 7409,
      "söm": 7410,
      "Öv": 7411,
      "intä": 7412,
      "era.\n": 7413,
      "tillägg": 7414,
      "fru ": 7415,
      "ter av ": 7416,
      "forni": 7417,
      "värsta ": 7418,
      "advok": 7419,
      "bild ": 7420,
      "överskri": 7421,
      "ande\n": 7422,
      "liv och ": 7423,
      "heter som ": 7424,
      "ändå": 7425,
      "varje dag ": 7426,
      "pelar ": 7427,
      "Det finns en ": 7428,
      "start": 7429,
      "Coun": 7430,
      "meddelanden ": 7431,
      "Sveriges ": 7432,
      "Göte": 7433,
      "vaccin": 7434,
      " D": 7435,
      "(S": 7436,
      "hyd": 7437,
      "öl": 7438,
      "involver": 7439,
      "anpassa ": 7440,
      "litter": 7441,
      "och att ": 7442,
      "ilome": 7443,
      "ation\n": 7444,
      "undantag": 7445,
      "person.\n": 7446,
      "livss": 7447,
      "bra för ": 7448,
      "informationen ": 7449,
      "bort.\n": 7450,
      "tidigare.\n": 7451,
      "Johan": 7452,
      "tecken ": 7453,
      "vacker ": 7454,
      "lägga till ": 7455,
      "tolk": 7456,
      " […": 7457,
      "Spani": 7458,
      "gröna ": 7459,
      "ordent": 7460,
      "Medlems": 7461,
      "Hol": 7462,
      "nord": 7463,
      "v, ": 7464,
      "album": 7465,
      "till S": 7466,
      "sekre": 7467,
      "talade ": 7468,
      "vät": 7469,
      "bilden ": 7470,
      "bryr ": 7471,
      "amerikansk ": 7472,
      "spart": 7473,
      "Georg": 7474,
      "cookies ": 7475,
      "Bon": 7476,
      "Bre": 7477,
      "OS": 7478,
      "Ry": 7479,
      "ey ": 7480,
      "ner, ": 7481,
      "t, och ": 7482,
      "atte": 7483,
      "lid": 7484,
      "att kunna ": 7485,
      "varor ": 7486,
      "ter är ": 7487,
      "uppgra": 7488,
      "delta i ": 7489,
      "ten som ": 7490,
      "gen, ": 7491,
      "kommer det ": 7492,
      "med sig ": 7493,
      "bilaga ": 7494,
      "Inter": 7495,
      "ats i ": 7496,
      "Om det ": 7497,
      "sigt ": 7498,
      "ster som ": 7499,
      "e-post": 7500,
      "lyckas ": 7501,
      "ljud": 7502,
      "hårt ": 7503,
      "budskap": 7504,
      "respek": 7505,
      "balan": 7506,
      "Verk": 7507,
      "95": 7508,
      "Asi": 7509,
      "Bok": 7510,
      "Bolag": 7511,
      "iskt ": 7512,
      "ler ": 7513,
      "mas": 7514,
      "åker ": 7515,
      "inrätt": 7516,
      "en sådan ": 7517,
      "de bästa ": 7518,
      "på min ": 7519,
      "bearbet": 7520,
      "ationer, ": 7521,
      "minsta ": 7522,
      "i slutet av ": 7523,
      "skrift": 7524,
      "lagr": 7525,
      "borta ": 7526,
      "publik": 7527,
      "stöd ": 7528,
      "Manage": 7529,
      "Flera ": 7530,
      "Muse": 7531,
      "anna ": 7532,
      "antal": 7533,
      "att alla ": 7534,
      "på vår ": 7535,
      "men inte ": 7536,
      "nedan ": 7537,
      "underteck": 7538,
      "många andra ": 7539,
      "hon.\n": 7540,
      " så mycket ": 7541,
      "Lik": 7542,
      "besöker ": 7543,
      "drog ": 7544,
      "framtiden.\n": 7545,
      "närmaste ": 7546,
      "allvarliga ": 7547,
      "världskri": 7548,
      "kandida": 7549,
      "plötsligt ": 7550,
      "diskussion": 7551,
      "Ele": 7552,
      "Hy": 7553,
      "La": 7554,
      "Lyck": 7555,
      "nju": 7556,
      "ow": 7557,
      "äga ": 7558,
      "erade": 7559,
      "er, som ": 7560,
      "skull": 7561,
      "och har ": 7562,
      "lighet": 7563,
      "agu": 7564,
      "ade av ": 7565,
      "var inte ": 7566,
      "at till ": 7567,
      "blick ": 7568,
      ") i ": 7569,
      "närings": 7570,
      "återupp": 7571,
      "familj.\n": 7572,
      "mörd": 7573,
      "kultur ": 7574,
      " [+]\n": 7575,
      "120": 7576,
      "Willi": 7577,
      "använt ": 7578,
      "beror på ": 7579,
      "ts av ": 7580,
      "utvecklas ": 7581,
      "dom.\n": 7582,
      "drog": 7583,
      "risk för ": 7584,
      "Huv": 7585,
      "Ben": 7586,
      "Mad": 7587,
      "larna ": 7588,
      "tull": 7589,
      "inbju": 7590,
      "skrev ": 7591,
      "förutom ": 7592,
      "vistel": 7593,
      "äls": 7594,
      "ing för ": 7595,
      "andras ": 7596,
      "slän": 7597,
      " skär": 7598,
      "ser\n": 7599,
      "använde ": 7600,
      "förstär": 7601,
      "dotter ": 7602,
      "val.\n": 7603,
      "komma att ": 7604,
      "utbildnings": 7605,
      "hindrar ": 7606,
      "webbplatser ": 7607,
      "nationell ": 7608,
      "FN:s ": 7609,
      "mekanis": 7610,
      "utforska ": 7611,
      "Glob": 7612,
      " T": 7613,
      "Ser": 7614,
      "cin ": 7615,
      "s- och ": 7616,
      "ink": 7617,
      " själva ": 7618,
      "i att ": 7619,
      "i mitt ": 7620,
      "ropp": 7621,
      "ssel": 7622,
      "tt på ": 7623,
      "sprid": 7624,
      "släng": 7625,
      "ligt för ": 7626,
      "bara ett ": 7627,
      "under de ": 7628,
      "undersöka ": 7629,
      "vårt att ": 7630,
      "vill.\n": 7631,
      "röda ": 7632,
      "vidare": 7633,
      "grundades ": 7634,
      "Tillsamman": 7635,
      "ningar\n": 7636,
      "tillstånd ": 7637,
      "Hitta ": 7638,
      "Känner ": 7639,
      "regelbundet ": 7640,
      "!!!\n": 7641,
      "Bland ": 7642,
      "e?\n": 7643,
      "pas": 7644,
      " sig": 7645,
      "stans": 7646,
      ", S": 7647,
      "trycket ": 7648,
      "aliforni": 7649,
      "människorna ": 7650,
      "dator ": 7651,
      "behandling av ": 7652,
      "till sina ": 7653,
      "publiken ": 7654,
      "experimen": 7655,
      "(eller ": 7656,
      "Ali": 7657,
      "Gener": 7658,
      "P-": 7659,
      "Wash": 7660,
      "bad ": 7661,
      "makt": 7662,
      "é ": 7663,
      "de\n": 7664,
      "skäm": 7665,
      ", även ": 7666,
      "utvär": 7667,
      "ssystem ": 7668,
      "ade en ": 7669,
      "delvis ": 7670,
      "nivån ": 7671,
      "höll": 7672,
      "dag, ": 7673,
      "Det är viktigt att ": 7674,
      "erna som ": 7675,
      "mig och ": 7676,
      "allt som ": 7677,
      "vill säga ": 7678,
      " ska jag ": 7679,
      "öppet ": 7680,
      "jobb ": 7681,
      "norra ": 7682,
      "aktiviteter ": 7683,
      "utnyttja ": 7684,
      "Tack för ": 7685,
      "Ama": 7686,
      "Cy": 7687,
      "Saker ": 7688,
      "vul": 7689,
      "inlägg ": 7690,
      "te, ": 7691,
      "testa ": 7692,
      "on\n": 7693,
      "har också ": 7694,
      "atisk ": 7695,
      "Det enda ": 7696,
      "era och ": 7697,
      "bidrag ": 7698,
      "ha ett ": 7699,
      "utvecklingen av ": 7700,
      "irur": 7701,
      "Hon är ": 7702,
      "behovet ": 7703,
      "design ": 7704,
      "hemma.\n": 7705,
      "förtroende ": 7706,
      "medvetna ": 7707,
      "WEB": 7708,
      "HER": 7709,
      "oför": 7710,
      "Å ": 7711,
      "inbe": 7712,
      " släpp": 7713,
      "om och ": 7714,
      "repp": 7715,
      "rad": 7716,
      "värld.\n": 7717,
      "tar till att ": 7718,
      "Dess ": 7719,
      "miljoner ": 7720,
      "observer": 7721,
      "artikeln ": 7722,
      "risken för ": 7723,
      "Europas ": 7724,
      "lämplig ": 7725,
      "hittar du ": 7726,
      "förbereda ": 7727,
      "Hennes ": 7728,
      "katastrof": 7729,
      "ji": 7730,
      "natt ": 7731,
      "sannolikt ": 7732,
      "tte ": 7733,
      "dex": 7734,
      " syn": 7735,
      "sidan": 7736,
      "sport": 7737,
      "der?\n": 7738,
      "övergrip": 7739,
      "Inte": 7740,
      "bara att ": 7741,
      "Besök": 7742,
      "Hotel ": 7743,
      "fantastiskt ": 7744,
      "bränsl": 7745,
      "acceptera ": 7746,
      "John": 7747,
      "organiser": 7748,
      "oer": 7749,
      "pal": 7750,
      "snart ": 7751,
      "a dig ": 7752,
      "ony": 7753,
      "utöver ": 7754,
      "behåller ": 7755,
      " som ett ": 7756,
      "för att skapa ": 7757,
      "ten?\n": 7758,
      "hål": 7759,
      "bilar ": 7760,
      "aktivi": 7761,
      "lösen": 7762,
      "us och ": 7763,
      "policy": 7764,
      "Und": 7765,
      "plane": 7766,
      "Play": 7767,
      "video ": 7768,
      "utifrån ": 7769,
      "innovativa ": 7770,
      "bestämmelser ": 7771,
      "brotts": 7772,
      "När det gäller ": 7773,
      "\" (": 7774,
      ".\"": 7775,
      "Alex": 7776,
      "Bas": 7777,
      "passi": 7778,
      "invandr": 7779,
      "i är ": 7780,
      "e på ": 7781,
      "rip": 7782,
      "ras": 7783,
      "räff": 7784,
      "väga ": 7785,
      "helg": 7786,
      "påverkan ": 7787,
      "möbl": 7788,
      "Thom": 7789,
      "person som ": 7790,
      "Histori": 7791,
      "nämnda ": 7792,
      "låga ": 7793,
      "juridiska ": 7794,
      "Washing": 7795,
      " oktober ": 7796,
      "55": 7797,
      "Nam": 7798,
      "Pen": 7799,
      "a:\n": 7800,
      "col": 7801,
      "svårt ": 7802,
      "Över ": 7803,
      "konver": 7804,
      "jukvår": 7805,
      "åren.\n": 7806,
      "attar ": 7807,
      "stekni": 7808,
      "saker som ": 7809,
      "underbara ": 7810,
      "politisk ": 7811,
      "på sina ": 7812,
      "auktori": 7813,
      "virtu": 7814,
      "trött": 7815,
      "yttr": 7816,
      "korrekt ": 7817,
      "bibliotek": 7818,
      "kaffe": 7819,
      "tillförlit": 7820,
      "Str": 7821,
      "Swe": 7822,
      "Tu": 7823,
      "inbland": 7824,
      "s eller ": 7825,
      "titt": 7826,
      "spi": 7827,
      "fort ": 7828,
      " skulle": 7829,
      "festival": 7830,
      "påminn": 7831,
      "mark ": 7832,
      "ut ur ": 7833,
      "tion.\n": 7834,
      "geli": 7835,
      "unik ": 7836,
      "fyr": 7837,
      "kort.\n": 7838,
      "inom ramen för ": 7839,
      "dog ": 7840,
      "behandlar ": 7841,
      "gränsa ": 7842,
      "Jag s": 7843,
      "utbildning": 7844,
      "omfattas av ": 7845,
      "implemen": 7846,
      "ansvars": 7847,
      "priset ": 7848,
      "EN ": 7849,
      "framför allt ": 7850,
      "kemikali": 7851,
      "Ser ": 7852,
      "ct": 7853,
      "tår": 7854,
      "aren": 7855,
      "er:\n": 7856,
      "enhet": 7857,
      "ett.\n": 7858,
      "redig": 7859,
      "utfärd": 7860,
      "ake ": 7861,
      "konferen": 7862,
      "samtyck": 7863,
      "explo": 7864,
      "alla de ": 7865,
      "finns på ": 7866,
      "visu": 7867,
      "handla ": 7868,
      "illa ": 7869,
      "område.\n": 7870,
      "starta ": 7871,
      "Om du vill ": 7872,
      "kostar ": 7873,
      "försök att ": 7874,
      "general": 7875,
      "familjen ": 7876,
      "Föreg": 7877,
      "kommissionens ": 7878,
      "undvik": 7879,
      "telefon ": 7880,
      "tunn": 7881,
      "cs ": 7882,
      "supp": 7883,
      "vet.\n": 7884,
      "inom": 7885,
      "anslu": 7886,
      "de två ": 7887,
      "ännu": 7888,
      "dik": 7889,
      "komsten ": 7890,
      "urin": 7891,
      "offr": 7892,
      "veckan.\n": 7893,
      "användning ": 7894,
      "personal ": 7895,
      "boende ": 7896,
      "näring": 7897,
      "filmer ": 7898,
      "barns ": 7899,
      "Finland ": 7900,
      "psyk": 7901,
      "City": 7902,
      "förflut": 7903,
      "Bur": 7904,
      "Jor": 7905,
      "ah ": 7906,
      "rund": 7907,
      "🙂\n": 7908,
      "atin": 7909,
      "atom": 7910,
      "vikel": 7911,
      "are till ": 7912,
      "bilda ": 7913,
      "Inom ": 7914,
      "mail": 7915,
      "Om en ": 7916,
      "sammanhan": 7917,
      "starka ": 7918,
      "Mark": 7919,
      "motsvarande ": 7920,
      "resultatet ": 7921,
      "ociala medi": 7922,
      "vanligaste ": 7923,
      "hälften av ": 7924,
      "Dock ": 7925,
      "James ": 7926,
      "yrel": 7927,
      "anord": 7928,
      "arran": 7929,
      "bedrä": 7930,
      "inte om ": 7931,
      "var ett ": 7932,
      "vägen.\n": 7933,
      "sen, ": 7934,
      "misstag": 7935,
      "lyckades ": 7936,
      "förhållande": 7937,
      "budget": 7938,
      "Till exempel ": 7939,
      "vapen": 7940,
      "resurser ": 7941,
      "karriär": 7942,
      "kategor": 7943,
      "signal": 7944,
      "Mexi": 7945,
      "The": 7946,
      "h, ": 7947,
      "myn": 7948,
      "det har ": 7949,
      "du kommer att ": 7950,
      "konser": 7951,
      "kanske": 7952,
      "kroni": 7953,
      "loss": 7954,
      "röra ": 7955,
      "komplicer": 7956,
      "arbetar med ": 7957,
      " […]\n": 7958,
      " mars ": 7959,
      "Tan": 7960,
      "VD": 7961,
      "kaff": 7962,
      "art": 7963,
      "unt ": 7964,
      "ligga ": 7965,
      "delta ": 7966,
      "var i ": 7967,
      "pålit": 7968,
      "ånge": 7969,
      "skapar ": 7970,
      " skulle kunna ": 7971,
      "smyndig": 7972,
      "belys": 7973,
      "månad ": 7974,
      "någons": 7975,
      "givna ": 7976,
      "TV-": 7977,
      "sättet att ": 7978,
      "äldsta ": 7979,
      "Famil": 7980,
      "Sim": 7981,
      "ous ": 7982,
      "ar!\n": 7983,
      "förel": 7984,
      "akul": 7985,
      "are eller ": 7986,
      "män.\n": 7987,
      ") eller ": 7988,
      "byrå": 7989,
      "fylla ": 7990,
      "tjänster": 7991,
      "skolan ": 7992,
      "Grekl": 7993,
      "redo att ": 7994,
      "Publi": 7995,
      "Ira": 7996,
      "emo": 7997,
      "men.\n": 7998,
      "ox": 7999,
      "de mest ": 8000,
      "som att ": 8001,
      "ktiv.\n": 8002,
      ": s ": 8003,
      "laget ": 8004,
      "ändras ": 8005,
      "länge": 8006,
      "kräva ": 8007,
      "enligt artikel ": 8008,
      ", så att ": 8009,
      "Profe": 8010,
      "Artik": 8011,
      "bror ": 8012,
      "motsvarar ": 8013,
      "gudom": 8014,
      "lugn": 8015,
      "promenad ": 8016,
      "hänsyn till ": 8017,
      "Ai": 8018,
      "L-": 8019,
      "PC": 8020,
      "förläng": 8021,
      "tering ": 8022,
      "ssam": 8023,
      "veter": 8024,
      "tråd": 8025,
      " sista ": 8026,
      "gifta ": 8027,
      "honom att ": 8028,
      "intressan": 8029,
      "eras av ": 8030,
      "Herren ": 8031,
      "städer ": 8032,
      "religion": 8033,
      "bekämpa ": 8034,
      "Både ": 8035,
      "föreslår ": 8036,
      "Sä": 8037,
      "ks": 8038,
      "destin": 8039,
      " sen": 8040,
      "ter till ": 8041,
      "inte ha ": 8042,
      "ationen av ": 8043,
      "Du kommer ": 8044,
      "underlätta ": 8045,
      "spelet ": 8046,
      "utveckling av ": 8047,
      "någon av ": 8048,
      "korta ": 8049,
      "datum": 8050,
      "cenni": 8051,
      "återförsälj": 8052,
      "kvinnliga ": 8053,
      "tyckte ": 8054,
      "lokal ": 8055,
      "problem med ": 8056,
      "böcker ": 8057,
      "nödvändigt att ": 8058,
      "Michael ": 8059,
      " gånger ": 8060,
      "-år": 8061,
      "es.\n": 8062,
      "uper": 8063,
      "deb": 8064,
      "etr": 8065,
      "för varje ": 8066,
      "utrym": 8067,
      "vare": 8068,
      "versum": 8069,
      "ade jag ": 8070,
      "heliga ": 8071,
      "nio ": 8072,
      "tenderar ": 8073,
      "Jag känner ": 8074,
      "stiskt ": 8075,
      "under den ": 8076,
      "kerna ": 8077,
      "handlingar ": 8078,
      "vill jag ": 8079,
      "löst ": 8080,
      "vad är ": 8081,
      "De som ": 8082,
      "kriget ": 8083,
      "som sk": 8084,
      "intresse ": 8085,
      "Pow": 8086,
      "beroende av ": 8087,
      "cirkul": 8088,
      "Nästan ": 8089,
      "normal": 8090,
      "hittat ": 8091,
      "konkurrenskraf": 8092,
      "Tidigare ": 8093,
      " personer ": 8094,
      " månader ": 8095,
      "; och ": 8096,
      "Dina ": 8097,
      "Ken": 8098,
      "d?\n": 8099,
      "eu": 8100,
      "statisti": 8101,
      ", inte ": 8102,
      "för dig.\n": 8103,
      "förvir": 8104,
      "tillämpa ": 8105,
      "amen": 8106,
      "det till ": 8107,
      "sil": 8108,
      "sitter ": 8109,
      "bebi": 8110,
      "are kan ": 8111,
      "modu": 8112,
      "se, ": 8113,
      "värdig": 8114,
      "nyt": 8115,
      "helve": 8116,
      "Desig": 8117,
      ", men jag ": 8118,
      "teknisk": 8119,
      "åldr": 8120,
      "gemensam ": 8121,
      "psyki": 8122,
      "You": 8123,
      "diskutera ": 8124,
      "avses i artikel ": 8125,
      "kommersiella ": 8126,
      "Älskar ": 8127,
      " ;": 8128,
      "Jäm": 8129,
      "Son": 8130,
      "Ytter": 8131,
      "bul": 8132,
      "fin ": 8133,
      "hung": 8134,
      "tung": 8135,
      "Öpp": 8136,
      "decenni": 8137,
      "tt, ": 8138,
      "bit": 8139,
      "sig från ": 8140,
      "vad gäller ": 8141,
      "dölj": 8142,
      "tjänar ": 8143,
      "kvaliteten ": 8144,
      "badr": 8145,
      "anser att ": 8146,
      "upprätthålla ": 8147,
      "en hel del ": 8148,
      "tack vare ": 8149,
      "LE": 8150,
      "dol": 8151,
      "teori": 8152,
      "temp": 8153,
      "omvandl": 8154,
      "förvå": 8155,
      "utrike": 8156,
      "allmän ": 8157,
      "var.\n": 8158,
      "radio": 8159,
      "konfer": 8160,
      "dig?\n": 8161,
      "igång ": 8162,
      "se till att ": 8163,
      "parlamen": 8164,
      "ledde ": 8165,
      "acera ": 8166,
      "sofi": 8167,
      "exempel på ": 8168,
      "avsedda ": 8169,
      "modell ": 8170,
      "krävs för att ": 8171,
      "Ryssland ": 8172,
      "symbol": 8173,
      "celon": 8174,
      " -": 8175,
      "44": 8176,
      "Kap": 8177,
      "Nex": 8178,
      "atet ": 8179,
      "gli": 8180,
      "knä": 8181,
      "ått": 8182,
      "des.\n": 8183,
      "en del ": 8184,
      "erg": 8185,
      "refer": 8186,
      "lig s": 8187,
      "Det går ": 8188,
      "ationerna ": 8189,
      "klock": 8190,
      "klockan ": 8191,
      "flask": 8192,
      "neut": 8193,
      ". \"\n": 8194,
      "några av de ": 8195,
      "förebygg": 8196,
      "linjer ": 8197,
      "rättvis": 8198,
      "grupper ": 8199,
      "fler än ": 8200,
      "online-": 8201,
      "spara ": 8202,
      "bränsle": 8203,
      "Stockholm ": 8204,
      "immun": 8205,
      " F": 8206,
      "Hand": 8207,
      "Hit": 8208,
      "Ol": 8209,
      "geri": 8210,
      "enheten ": 8211,
      "skulle": 8212,
      ", kommer ": 8213,
      "alog": 8214,
      "sitta ": 8215,
      "rac": 8216,
      "ssör": 8217,
      "ning?\n": 8218,
      "se\n": 8219,
      "klän": 8220,
      "add": 8221,
      "biverk": 8222,
      "arbetstag": 8223,
      "inte sk": 8224,
      "univers": 8225,
      "renover": 8226,
      "företag och ": 8227,
      "förlorar ": 8228,
      "national": 8229,
      "tacksam": 8230,
      "bekämp": 8231,
      "American ": 8232,
      "klassificer": 8233,
      "transakti": 8234,
      "Observer": 8235,
      "annorlund": 8236,
      "konsul": 8237,
      "förordning (EG) nr ": 8238,
      "föregående ": 8239,
      "demonstr": 8240,
      "Dani": 8241,
      "Nat": 8242,
      "Wor": 8243,
      "bel ": 8244,
      "ull ": 8245,
      "för mig.\n": 8246,
      "förväntar ": 8247,
      "rekry": 8248,
      "uts": 8249,
      "du måste ": 8250,
      "värdet ": 8251,
      "med samma ": 8252,
      "Vi måste ": 8253,
      "tv-": 8254,
      "hade jag ": 8255,
      "ledningen ": 8256,
      "För det ": 8257,
      " sidan ": 8258,
      "låt": 8259,
      "fullständigt ": 8260,
      "erbjud": 8261,
      "sina egna ": 8262,
      "jobba ": 8263,
      "kropp ": 8264,
      "Utveckl": 8265,
      "just nu.\n": 8266,
      "felakti": 8267,
      "koldio": 8268,
      "sidor ": 8269,
      "räkna ": 8270,
      "åtgärder för att ": 8271,
      "bestämmelserna ": 8272,
      "teknologi": 8273,
      "Google": 8274,
      "atmosfär": 8275,
      "drygt ": 8276,
      "Hon": 8277,
      "SK": 8278,
      "port ": 8279,
      "åtag": 8280,
      "t (": 8281,
      "de stora ": 8282,
      "in-": 8283,
      "av\n": 8284,
      "tions": 8285,
      "stabili": 8286,
      "vangeli": 8287,
      "paten": 8288,
      "Det finns många ": 8289,
      "naturligt ": 8290,
      "det!\n": 8291,
      "täcker ": 8292,
      "konkurr": 8293,
      "fordon": 8294,
      "istället för ": 8295,
      "muslim": 8296,
      "600": 8297,
      "ful": 8298,
      "lli": 8299,
      "onö": 8300,
      "ing?\n": 8301,
      "uppe": 8302,
      "läste ": 8303,
      "ställd": 8304,
      "stil": 8305,
      "illu": 8306,
      "fråga.\n": 8307,
      "hjälp.\n": 8308,
      "tjänsten ": 8309,
      "des av ": 8310,
      "om du är ": 8311,
      "grad ": 8312,
      "funktioner ": 8313,
      "Robert ": 8314,
      "själv.\n": 8315,
      "kolleg": 8316,
      "tillräckligt med ": 8317,
      "ihåg att ": 8318,
      "Kolla ": 8319,
      "IK": 8320,
      "fack": 8321,
      "ghan": 8322,
      "harm": 8323,
      "jön": 8324,
      "a har ": 8325,
      "arna, ": 8326,
      " ste": 8327,
      "strål": 8328,
      "alu": 8329,
      "ra, ": 8330,
      "nas.\n": 8331,
      "uppvärm": 8332,
      "are på ": 8333,
      "seg": 8334,
      "bilen ": 8335,
      "denna förord": 8336,
      "finans": 8337,
      ", men det är ": 8338,
      "När vi ": 8339,
      "relationer ": 8340,
      "Europe": 8341,
      "programvara ": 8342,
      "Dire": 8343,
      "Barcelon": 8344,
      "ekonomiskt ": 8345,
      "University": 8346,
      "glädje ": 8347,
      "a, som ": 8348,
      "me ": 8349,
      "a ett ": 8350,
      "endet ": 8351,
      "ett annat ": 8352,
      "samtliga ": 8353,
      "tyder ": 8354,
      "tyvärr ": 8355,
      "marker": 8356,
      "finns en ": 8357,
      "I detta ": 8358,
      "människans ": 8359,
      "betalar ": 8360,
      "hushåll": 8361,
      "nödvändigt ": 8362,
      "toler": 8363,
      "Tyskland ": 8364,
      "yttre ": 8365,
      "OS ": 8366,
      "Pat": 8367,
      "the": 8368,
      "inspe": 8369,
      "ern ": 8370,
      "och är ": 8371,
      ", för att ": 8372,
      "de en ": 8373,
      "vikten ": 8374,
      "till exempel": 8375,
      "nad.\n": 8376,
      "are med ": 8377,
      "poäng ": 8378,
      "mar.\n": 8379,
      "under hela ": 8380,
      "Du behöver ": 8381,
      "bostads": 8382,
      "röst ": 8383,
      "medel ": 8384,
      "USA och ": 8385,
      "klick": 8386,
      "miljö.\n": 8387,
      "kvalitet": 8388,
      "Tech": 8389,
      "ännu mer ": 8390,
      "industrin ": 8391,
      "Europaparlamentets ": 8392,
      "Föregående ": 8393,
      "A.\n": 8394,
      "dör ": 8395,
      "ifi": 8396,
      "kirur": 8397,
      "mju": 8398,
      "my ": 8399,
      "sny": 8400,
      "ark": 8401,
      "i våra ": 8402,
      "utländska ": 8403,
      "aknar ": 8404,
      "klo": 8405,
      "bil.\n": 8406,
      "skaps": 8407,
      "aliska ": 8408,
      "personen ": 8409,
      "händer.\n": 8410,
      "vetvis ": 8411,
      "hyll": 8412,
      "förstås ": 8413,
      "religiösa ": 8414,
      "IT-": 8415,
      "tvätt": 8416,
      "' ": 8417,
      ".com": 8418,
      "Clo": 8419,
      "IR": 8420,
      "Lär ": 8421,
      "System": 8422,
      "ey": 8423,
      "inköp": 8424,
      "ar till ": 8425,
      "att be": 8426,
      "och för": 8427,
      "har han ": 8428,
      "atiskt ": 8429,
      " som du ": 8430,
      "spo": 8431,
      "delarna ": 8432,
      "ten på ": 8433,
      "samman ": 8434,
      "du.\n": 8435,
      "Inne": 8436,
      "får man ": 8437,
      ". .\n": 8438,
      "krig ": 8439,
      "Neder": 8440,
      "intresserade ": 8441,
      "rekommenderas ": 8442,
      "hjälper dig att ": 8443,
      "impor": 8444,
      "Se till att ": 8445,
      "knappt ": 8446,
      "objekt ": 8447,
      "retur": 8448,
      "framgångsrika ": 8449,
      "Trump ": 8450,
      "46": 8451,
      "Tom": 8452,
      "bund": 8453,
      "dal": 8454,
      "håg": 8455,
      "lett ": 8456,
      "a (": 8457,
      "stro": 8458,
      "skar": 8459,
      "re, ": 8460,
      "den enda ": 8461,
      "or med ": 8462,
      "hot": 8463,
      "exis": 8464,
      ", se ": 8465,
      "resen": 8466,
      "mot en ": 8467,
      "även en ": 8468,
      "vad han ": 8469,
      "stadi": 8470,
      "effekterna ": 8471,
      "tors": 8472,
      "komma till ": 8473,
      "tanken ": 8474,
      "intressant ": 8475,
      "tekniken ": 8476,
      "kläd": 8477,
      "leverantör ": 8478,
      "massor av ": 8479,
      "togs ": 8480,
      "hävdar ": 8481,
      "service": 8482,
      ".com ": 8483,
      "nomin": 8484,
      " april ": 8485,
      "CB": 8486,
      "Dom ": 8487,
      "ach ": 8488,
      "hjul": 8489,
      "ano": 8490,
      "att ni ": 8491,
      "för oss ": 8492,
      "heten, ": 8493,
      "för att hålla ": 8494,
      "samm": 8495,
      "sedan": 8496,
      "påstå": 8497,
      "matem": 8498,
      "ner i ": 8499,
      "logg": 8500,
      "domän": 8501,
      "hemma": 8502,
      "möjlighet ": 8503,
      "någonstans ": 8504,
      "känsla av ": 8505,
      "bryt": 8506,
      "sjukdom ": 8507,
      "förklarar ": 8508,
      "guld": 8509,
      "sagt ": 8510,
      "medveten": 8511,
      "influ": 8512,
      "aboratori": 8513,
      "V ": 8514,
      "pon": 8515,
      "tvis ": 8516,
      "inverkan ": 8517,
      "er-": 8518,
      "inte på ": 8519,
      "ska jag ": 8520,
      "innef": 8521,
      "Jag kommer ": 8522,
      "bilj": 8523,
      "när en ": 8524,
      "kring": 8525,
      "inte st": 8526,
      "Analy": 8527,
      "staten ": 8528,
      "gånger.\n": 8529,
      "pris ": 8530,
      "absor": 8531,
      "jobbar ": 8532,
      "chef för ": 8533,
      "lyssna på ": 8534,
      "mobila ": 8535,
      "militära ": 8536,
      "begäran ": 8537,
      "kontroll över ": 8538,
      "muskel": 8539,
      "Volv": 8540,
      "havs": 8541,
      "äkta ": 8542,
      "i min ": 8543,
      "för\n": 8544,
      "utgif": 8545,
      "som den ": 8546,
      "med beakt": 8547,
      "ellt.\n": 8548,
      "lex ": 8549,
      "årliga ": 8550,
      ": S": 8551,
      "flagg": 8552,
      "exempl": 8553,
      "feder": 8554,
      "där de ": 8555,
      "ktioner ": 8556,
      "ändringar ": 8557,
      "säkerhet ": 8558,
      "kroppen.\n": 8559,
      "oss, ": 8560,
      "bort från ": 8561,
      "beslut.\n": 8562,
      "digital ": 8563,
      "positiv ": 8564,
      "roman": 8565,
      "glömma ": 8566,
      "leder till ": 8567,
      "förfaranden ": 8568,
      "ansvariga ": 8569,
      "förlust ": 8570,
      "upphovs": 8571,
      "entreprenör": 8572,
      "tillfredsställ": 8573,
      "Medlemsstaterna ": 8574,
      "42": 8575,
      "Mö": 8576,
      "epi": 8577,
      "zon ": 8578,
      "t från ": 8579,
      "om din ": 8580,
      "me.\n": 8581,
      "tering": 8582,
      "på nä": 8583,
      "rali": 8584,
      "as för att ": 8585,
      "eller ett ": 8586,
      "ationer som ": 8587,
      "ney ": 8588,
      "och spel": 8589,
      "dig till ": 8590,
      "sig av ": 8591,
      "användaren ": 8592,
      "Vir": 8593,
      "primär": 8594,
      "kostnads": 8595,
      "dyg": 8596,
      "förlorade ": 8597,
      "händelse ": 8598,
      "elektroniska ": 8599,
      "original": 8600,
      "= ": 8601,
      "Hall": 8602,
      "go ": 8603,
      "ret ": 8604,
      "sång": 8605,
      "a sig ": 8606,
      "styck": 8607,
      "dition ": 8608,
      "det är en ": 8609,
      "leds": 8610,
      "ten för ": 8611,
      "för att ge ": 8612,
      "brom": 8613,
      "dig med ": 8614,
      "här är ": 8615,
      "I den ": 8616,
      "isra": 8617,
      "frihet ": 8618,
      "krimin": 8619,
      "dem i ": 8620,
      "dem, ": 8621,
      "noga ": 8622,
      "hemsida ": 8623,
      "sats": 8624,
      "övrigt ": 8625,
      "kasta ": 8626,
      " procent.\n": 8627,
      "produkter som ": 8628,
      "Exemp": 8629,
      "kombination ": 8630,
      "Och så ": 8631,
      "möjligheten att ": 8632,
      "fenom": 8633,
      "get.\n": 8634,
      "way": 8635,
      "liber": 8636,
      "förbun": 8637,
      "terings": 8638,
      "den största ": 8639,
      "olja ": 8640,
      "eller flera ": 8641,
      "Det fanns ": 8642,
      "vänster": 8643,
      "protok": 8644,
      "behörig": 8645,
      "sen är ": 8646,
      "Vad är en ": 8647,
      "weiz": 8648,
      "procent ": 8649,
      "kvinnor.\n": 8650,
      "Om du är ": 8651,
      "organisationen ": 8652,
      "Kontroll": 8653,
      "prata med ": 8654,
      "panel": 8655,
      "perioden ": 8656,
      "uppmärksamhet ": 8657,
      "Följ ": 8658,
      "förändras ": 8659,
      "Center ": 8660,
      "Hö": 8661,
      "IG": 8662,
      "La ": 8663,
      "Tyck": 8664,
      "hall": 8665,
      "ifråg": 8666,
      "m, ": 8667,
      "snö": 8668,
      "ator ": 8669,
      "lev ": 8670,
      "spår": 8671,
      "nedan": 8672,
      "stimul": 8673,
      "steri": 8674,
      "under de senaste ": 8675,
      "glas ": 8676,
      "även i ": 8677,
      "död.\n": 8678,
      "köp ": 8679,
      "Hur mycket ": 8680,
      "går till ": 8681,
      "målet ": 8682,
      "viktigt för ": 8683,
      "plats för ": 8684,
      "lösning ": 8685,
      "förlorat ": 8686,
      "lyssna ": 8687,
      "Fler ": 8688,
      "professionell ": 8689,
      "desto ": 8690,
      "navig": 8691,
      ", skall ": 8692,
      "250": 8693,
      "stress": 8694,
      "och ett ": 8695,
      "eto": 8696,
      "et, och ": 8697,
      "e S": 8698,
      "försen": 8699,
      "förvandl": 8700,
      "tillsyn": 8701,
      "det kan ": 8702,
      "lige ": 8703,
      "på andra ": 8704,
      "uppfölj": 8705,
      "ok ": 8706,
      "kändes ": 8707,
      "känd som ": 8708,
      "vecka.\n": 8709,
      "ningen för ": 8710,
      " sid": 8711,
      "tjänst": 8712,
      "gjorts ": 8713,
      "eftersom de ": 8714,
      "Roy": 8715,
      "arbete med ": 8716,
      "åtgärder som ": 8717,
      "ännu inte ": 8718,
      "rekommendera ": 8719,
      "ambass": 8720,
      "HERR": 8721,
      "Börja ": 8722,
      "Cre": 8723,
      "Fär": 8724,
      "Faktum ": 8725,
      "Jan": 8726,
      "OM": 8727,
      "ikväll": 8728,
      "mord": 8729,
      "sju ": 8730,
      "föll ": 8731,
      "är för ": 8732,
      "mes ": 8733,
      "nad": 8734,
      "tt och ": 8735,
      "du får ": 8736,
      "deltar ": 8737,
      "vänner": 8738,
      "från andra ": 8739,
      "era en ": 8740,
      "över en ": 8741,
      "Dess": 8742,
      "vet inte ": 8743,
      "förekommer ": 8744,
      "Så här ": 8745,
      "kanske inte ": 8746,
      "kunde inte ": 8747,
      "stad.\n": 8748,
      "alternativ": 8749,
      "fördelarna ": 8750,
      "normala ": 8751,
      "njuta ": 8752,
      "Visa ": 8753,
      "disci": 8754,
      "funnits ": 8755,
      "Jerus": 8756,
      "infrastruktur": 8757,
      "Af": 8758,
      "Eri": 8759,
      "Hom": 8760,
      "IL": 8761,
      "Syri": 8762,
      "abili": 8763,
      "ker.\n": 8764,
      "las ": 8765,
      "sock": 8766,
      "yr ": 8767,
      "eni": 8768,
      "skur": 8769,
      "ald ": 8770,
      "Det som ": 8771,
      "ktivt ": 8772,
      "århundra": 8773,
      " sitter ": 8774,
      "färg ": 8775,
      "trapp": 8776,
      "metod ": 8777,
      "om du inte ": 8778,
      "Christ": 8779,
      "varierar ": 8780,
      "hyra ": 8781,
      "bryter ": 8782,
      " skriva ": 8783,
      "skepp": 8784,
      "modeller ": 8785,
      "Sec": 8786,
      "accepterar ": 8787,
      "studenter ": 8788,
      "Däremot ": 8789,
      "iPhone ": 8790,
      "University of ": 8791,
      "övergripande ": 8792,
      " olika ": 8793,
      "Hus": 8794,
      "Ra": 8795,
      "Veg": 8796,
      "Whi": 8797,
      "matt": 8798,
      "net.\n": 8799,
      "p-": 8800,
      "sele": 8801,
      "väll": 8802,
      "åstad": 8803,
      "de sk": 8804,
      "test ": 8805,
      "skl": 8806,
      "av samma ": 8807,
      "förhopp": 8808,
      "av oss ": 8809,
      "termin": 8810,
      "ligaste ": 8811,
      "eller\n": 8812,
      "har de ": 8813,
      "den!\n": 8814,
      " och en ": 8815,
      "dig\n": 8816,
      "västra ": 8817,
      "ig själv": 8818,
      "Den som ": 8819,
      "inte, ": 8820,
      "tid för ": 8821,
      "boll ": 8822,
      "innehav": 8823,
      "Ant": 8824,
      "utvecklats ": 8825,
      "något annat ": 8826,
      " säson": 8827,
      "universum": 8828,
      "eftermid": 8829,
      "Vad händer ": 8830,
      "politik ": 8831,
      "bör du ": 8832,
      "associ": 8833,
      "ering, ": 8834,
      "förlus": 8835,
      "i samhäll": 8836,
      "just nu ": 8837,
      "ansvar för ": 8838,
      "sexuella ": 8839,
      "begära ": 8840,
      "Office ": 8841,
      "Def": 8842,
      "H ": 8843,
      "Lägg ": 8844,
      "Vem": 8845,
      "sån": 8846,
      "inser ": 8847,
      "inbygg": 8848,
      "ary ": 8849,
      "skor ": 8850,
      "riktig ": 8851,
      "raste ": 8852,
      "na!\n": 8853,
      "modi": 8854,
      "plant": 8855,
      "ulti": 8856,
      "dag och ": 8857,
      "återbetal": 8858,
      "tid, ": 8859,
      "speciali": 8860,
      "Du kan också ": 8861,
      "fastställa ": 8862,
      "minuter ": 8863,
      "världens största ": 8864,
      "herr": 8865,
      "anges ": 8866,
      "hälsa.\n": 8867,
      "klassiska ": 8868,
      "rådgiv": 8869,
      "aspekter ": 8870,
      "fokus på ": 8871,
      "lunch": 8872,
      "\"S": 8873,
      "\"Jag ": 8874,
      "Kur": 8875,
      "d-": 8876,
      "ew": 8877,
      "mår ": 8878,
      "snabbare ": 8879,
      "y-": 8880,
      "antar ": 8881,
      "förvänta ": 8882,
      "ter?\n": 8883,
      "den där ": 8884,
      "ett av ": 8885,
      "mira": 8886,
      "olje": 8887,
      "Det handlar ": 8888,
      "vänd": 8889,
      "vän.\n": 8890,
      "gens ": 8891,
      "klin": 8892,
      "värre ": 8893,
      "din egen ": 8894,
      "framåt ": 8895,
      "vill du ": 8896,
      "utvecklar ": 8897,
      "loj": 8898,
      "hänt ": 8899,
      "Detta är ett ": 8900,
      "storlek": 8901,
      "polisen ": 8902,
      "program.\n": 8903,
      "studera ": 8904,
      "lyckats ": 8905,
      "Digi": 8906,
      "mänsklig": 8907,
      "född ": 8908,
      " saker ": 8909,
      "nöjd med ": 8910,
      "tålam": 8911,
      "Dö": 8912,
      "Gal": 8913,
      "Lär": 8914,
      "Ph": 8915,
      "bor i ": 8916,
      "kin": 8917,
      "sänd": 8918,
      "er, s": 8919,
      "skor": 8920,
      "Det betyder ": 8921,
      "lät ": 8922,
      "ämne": 8923,
      "sering ": 8924,
      "para ": 8925,
      "används i ": 8926,
      "Och det är ": 8927,
      "geografi": 8928,
      "yngre ": 8929,
      "villk": 8930,
      "efterfrågan ": 8931,
      "uppgifterna ": 8932,
      "kärlek.\n": 8933,
      "grunden ": 8934,
      "speciella ": 8935,
      "Peter ": 8936,
      "mänskliga rättig": 8937,
      "fruktans": 8938,
      "service ": 8939,
      "representerar ": 8940,
      "introducer": 8941,
      "i synnerhet ": 8942,
      "Huvud": 8943,
      " c": 8944,
      " november ": 8945,
      "AG": 8946,
      "TE": 8947,
      "iväg ": 8948,
      "tphon": 8949,
      "→\n": 8950,
      "inspel": 8951,
      "erhåll": 8952,
      "eras.\n": 8953,
      "avgöra ": 8954,
      "allergi": 8955,
      " som jag ": 8956,
      "del i ": 8957,
      "var jag ": 8958,
      " standar": 8959,
      "resten ": 8960,
      "möte": 8961,
      "arbetar": 8962,
      "Vide": 8963,
      "informations": 8964,
      "plats": 8965,
      "färger ": 8966,
      "Vad gör ": 8967,
      "behandlingen ": 8968,
      "imorg": 8969,
      "innebära ": 8970,
      "djel": 8971,
      "hypo": 8972,
      "mängden ": 8973,
      "serie ": 8974,
      "balans": 8975,
      "befolkningen ": 8976,
      "uppmanar ": 8977,
      "Självklart ": 8978,
      ".,": 8979,
      "Då": 8980,
      "Ha": 8981,
      "ii": 8982,
      "inred": 8983,
      "stärka ": 8984,
      "on-": 8985,
      "an har ": 8986,
      "alls.\n": 8987,
      "cigar": 8988,
      "människor, ": 8989,
      "ktion.\n": 8990,
      "behöver du ": 8991,
      "alltid varit ": 8992,
      "bok.\n": 8993,
      "Det finns ingen ": 8994,
      "att du har ": 8995,
      "belast": 8996,
      "kom till ": 8997,
      "arbetsgivar": 8998,
      "voly": 8999,
      "gress": 9000,
      "Kan du ": 9001,
      "praktiska ": 9002,
      "situation ": 9003,
      "plattform ": 9004,
      "väljer att ": 9005,
      "gymna": 9006,
      "Ka": 9007,
      "Men": 9008,
      "Vat": 9009,
      "enti": 9010,
      "om ni ": 9011,
      "an till ": 9012,
      "av sitt ": 9013,
      "år och ": 9014,
      "adress ": 9015,
      "alla som ": 9016,
      "handling ": 9017,
      "där han ": 9018,
      "upp en ": 9019,
      "lagen ": 9020,
      "priser ": 9021,
      "tagits ": 9022,
      "ålder.\n": 9023,
      "hitta en ": 9024,
      "natur ": 9025,
      "gammal": 9026,
      "krigs": 9027,
      "säker på att ": 9028,
      "evig": 9029,
      "Frankrike": 9030,
      "Lad": 9031,
      "Ock": 9032,
      "Sty": 9033,
      "a,\n": 9034,
      "pän": 9035,
      "eringar ": 9036,
      "om detta ": 9037,
      "avfall": 9038,
      "vik ": 9039,
      "te och ": 9040,
      "vardags": 9041,
      "ning från ": 9042,
      "plus ": 9043,
      "nyhets": 9044,
      "man som ": 9045,
      "aktivitet ": 9046,
      "länk": 9047,
      "utveckling och ": 9048,
      "inom en ": 9049,
      "valde ": 9050,
      "När man ": 9051,
      "hela tiden ": 9052,
      "filosof": 9053,
      "vinter": 9054,
      "elever ": 9055,
      "månad.\n": 9056,
      "enkelt att ": 9057,
      "kreativa ": 9058,
      "skostna": 9059,
      "principer": 9060,
      "Människor ": 9061,
      "stoppa ": 9062,
      "följande:\n": 9063,
      ".»\n": 9064,
      "II ": 9065,
      "Kl": 9066,
      "O-": 9067,
      "etik": 9068,
      "tat": 9069,
      "tess": 9070,
      "en mot ": 9071,
      "ero": 9072,
      "det vara ": 9073,
      "der från ": 9074,
      "as från ": 9075,
      "Det första ": 9076,
      "användes ": 9077,
      "Vi kommer att ": 9078,
      "tredjel": 9079,
      "Du får ": 9080,
      "hjälpte ": 9081,
      "vind": 9082,
      "rubri": 9083,
      "nu?\n": 9084,
      "levererar ": 9085,
      "portion": 9086,
      "täcka ": 9087,
      "Samman": 9088,
      "tonår": 9089,
      "personer med ": 9090,
      "leta ": 9091,
      "djupt ": 9092,
      "anses vara ": 9093,
      "mitten av ": 9094,
      "premiär": 9095,
      "databas": 9096,
      "genomsnittliga ": 9097,
      "livsstil": 9098,
      "Saker att göra ": 9099,
      ",\"": 9100,
      "bandet ": 9101,
      "ringa ": 9102,
      "deklar": 9103,
      "en mycket ": 9104,
      "erade.\n": 9105,
      "en, men ": 9106,
      "är detta ": 9107,
      "ligen.\n": 9108,
      "med min ": 9109,
      "inte för ": 9110,
      "ta emot ": 9111,
      "samtidigt som ": 9112,
      "vädr": 9113,
      "Den nya ": 9114,
      "form.\n": 9115,
      "fartyg": 9116,
      "Om man ": 9117,
      "sättnings": 9118,
      "engag": 9119,
      "klart att ": 9120,
      "forskning och ": 9121,
      "um och ": 9122,
      "ögon.\n": 9123,
      "mäta ": 9124,
      "speciell ": 9125,
      "globalt ": 9126,
      "medicinsk ": 9127,
      "kommunikation": 9128,
      "Black": 9129,
      "garanterar ": 9130,
      "uppmuntr": 9131,
      " meter ": 9132,
      "augusti ": 9133,
      "recension": 9134,
      "Cas": 9135,
      "Gl": 9136,
      "När en ": 9137,
      "Wo": 9138,
      "fj": 9139,
      "funder": 9140,
      "nal": 9141,
      "sli": 9142,
      "debat": 9143,
      "eral": 9144,
      "entu": 9145,
      "mej": 9146,
      "vili": 9147,
      " som inte ": 9148,
      "delser ": 9149,
      "samtal": 9150,
      "klass ": 9151,
      "hanterar ": 9152,
      "Vi behöver ": 9153,
      "bodde ": 9154,
      "vad man ": 9155,
      "kors": 9156,
      "mig?\n": 9157,
      "Skill": 9158,
      "projekt.\n": 9159,
      "Kontak": 9160,
      "känslor ": 9161,
      "Efter att ha ": 9162,
      "fantastisk": 9163,
      "allvarligt ": 9164,
      "IP-": 9165,
      "bidra till att ": 9166,
      "avancerade ": 9167,
      "work": 9168,
      "representan": 9169,
      "Glöm ": 9170,
      "64": 9171,
      "åkte ": 9172,
      "öst ": 9173,
      "t för att ": 9174,
      "insaml": 9175,
      "ar av ": 9176,
      "oro ": 9177,
      "ont": 9178,
      "rot": 9179,
      "ska kunna ": 9180,
      "ade för ": 9181,
      "läge": 9182,
      "så är det ": 9183,
      "så länge ": 9184,
      "på\n": 9185,
      "dig i ": 9186,
      "vill att ": 9187,
      "drift": 9188,
      "politiskt ": 9189,
      "att du är ": 9190,
      "tidigt.\n": 9191,
      "innan de ": 9192,
      "strategi ": 9193,
      "Jag ser ": 9194,
      "kostnader ": 9195,
      "turner": 9196,
      "sidan av ": 9197,
      "djur.\n": 9198,
      "godkännande ": 9199,
      "annolik": 9200,
      "nälla ": 9201,
      "Rob": 9202,
      "id ": 9203,
      "nån ": 9204,
      "pill": 9205,
      "sn": 9206,
      "östra ": 9207,
      "erkänna ": 9208,
      "st?\n": 9209,
      "lic": 9210,
      "vitt ": 9211,
      "eleg": 9212,
      "utsikt över ": 9213,
      "ten till ": 9214,
      "nifi": 9215,
      "plast": 9216,
      "expor": 9217,
      "kunden ": 9218,
      "k i ": 9219,
      "han inte ": 9220,
      "brut": 9221,
      "son.\n": 9222,
      "I dag ": 9223,
      "arbetsplat": 9224,
      "färdiga ": 9225,
      "smäl": 9226,
      "behandlas ": 9227,
      "bör vara ": 9228,
      "misst": 9229,
      "då.\n": 9230,
      "lighet och ": 9231,
      "besök ": 9232,
      "studier ": 9233,
      "fascin": 9234,
      "operativ": 9235,
      "knipp": 9236,
      "burg": 9237,
      "lägenhet ": 9238,
      "kemiska ": 9239,
      "elimin": 9240,
      "förhållande till ": 9241,
      "Ytterligare ": 9242,
      "88": 9243,
      "Bli": 9244,
      "Gill": 9245,
      "ha.\n": 9246,
      "s har ": 9247,
      "stam": 9248,
      "skam": 9249,
      "terades ": 9250,
      "utför ": 9251,
      "ing till ": 9252,
      "kan bli ": 9253,
      "eller i ": 9254,
      "Det blir ": 9255,
      "niti": 9256,
      "ktivet ": 9257,
      "ökande ": 9258,
      "dagarna ": 9259,
      "total": 9260,
      "efter den ": 9261,
      "nät": 9262,
      "lagras ": 9263,
      "kedj": 9264,
      "växte ": 9265,
      "effekten ": 9266,
      "gränsen ": 9267,
      "Ung": 9268,
      "vidare.\n": 9269,
      "Hon har ": 9270,
      "På grund av ": 9271,
      "ovan ": 9272,
      "behov": 9273,
      "känslom": 9274,
      "resa till ": 9275,
      "förbered": 9276,
      "järnväg": 9277,
      "e-post ": 9278,
      "individuella ": 9279,
      "Förenta ": 9280,
      "kliniska ": 9281,
      "800": 9282,
      "fånga ": 9283,
      "til ": 9284,
      "agt ": 9285,
      "serna.\n": 9286,
      "hållbara ": 9287,
      "kunderna ": 9288,
      "överträ": 9289,
      "lös ": 9290,
      "här\n": 9291,
      "helt och ": 9292,
      "uppgift ": 9293,
      "grad": 9294,
      "effektivi": 9295,
      "förbättrar ": 9296,
      "sproble": 9297,
      "stanna ": 9298,
      "operatör": 9299,
      "ursprungligen ": 9300,
      "casino ": 9301,
      "garantera ": 9302,
      "hatar ": 9303,
      "fullständig ": 9304,
      "artiklarna ": 9305,
      "pecifika ": 9306,
      "obligatori": 9307,
      "**": 9308,
      "C.\n": 9309,
      "ky": 9310,
      "mut": 9311,
      "mur": 9312,
      "säng": 9313,
      "ådespel": 9314,
      "dekor": 9315,
      "tit": 9316,
      "stal": 9317,
      "att ge ": 9318,
      "orätt": 9319,
      "de olika ": 9320,
      "tillåt": 9321,
      "sidan.\n": 9322,
      "befri": 9323,
      "ta med ": 9324,
      "konfigur": 9325,
      "ads": 9326,
      "på sig ": 9327,
      "han var ": 9328,
      "mycket mer ": 9329,
      "frågor som ": 9330,
      "mig själv": 9331,
      "rup": 9332,
      "landskap": 9333,
      "öppnade ": 9334,
      "lekyl": 9335,
      "Premi": 9336,
      "kyrkan": 9337,
      "installera ": 9338,
      "lyssnar ": 9339,
      "Scho": 9340,
      "kommer du att ": 9341,
      "hormon": 9342,
      "Programmet ": 9343,
      "blogg ": 9344,
      "förstöra ": 9345,
      " P": 9346,
      "(som ": 9347,
      "Ca": 9348,
      "Chan": 9349,
      "Kyr": 9350,
      "Nation": 9351,
      "ar eller ": 9352,
      "vin ": 9353,
      "lig, ": 9354,
      "dernas ": 9355,
      "slav": 9356,
      "st i ": 9357,
      "veder": 9358,
      "männen ": 9359,
      "ats till ": 9360,
      "där du ": 9361,
      "vanligen ": 9362,
      "länkar ": 9363,
      "Detta kan ": 9364,
      "dina personuppgifter ": 9365,
      "abel ": 9366,
      "ultur": 9367,
      "opi": 9368,
      "Titta ": 9369,
      "redan har ": 9370,
      "hamnar ": 9371,
      "energi.\n": 9372,
      " som st": 9373,
      "komplett ": 9374,
      "mängd olika ": 9375,
      "hittills ": 9376,
      "oerhört ": 9377,
      "harmoni": 9378,
      " Och ": 9379,
      "När": 9380,
      "bag": 9381,
      "däck": 9382,
      "ng": 9383,
      "wn ": 9384,
      "och i ": 9385,
      "begränsa ": 9386,
      "les för ": 9387,
      "as?\n": 9388,
      "grå": 9389,
      "ad till ": 9390,
      "väst": 9391,
      "vägr": 9392,
      "väster": 9393,
      ", som": 9394,
      "bara några ": 9395,
      "ner och ": 9396,
      "måste vi ": 9397,
      "preci": 9398,
[...]
