{"\n":0," ":1,"!":2,"\"":3,"#":4,"$":5,"%":6,"&":7,"'":8,"(":9,")":10,"*":11,"+":12,",":13,"-":14,".":15,"/":16,"0":17,"1":18,"2":19,"3":20,"4":21,"5":22,"6":23,"7":24,"8":25,"9":26,":":27,";":28,"<":29,"=":30,">":31,"?":32,"@":33,"A":34,"B":35,"C":36,"D":37,"E":38,"F":39,"G":40,"H":41,"I":42,"J":43,"K":44,"L":45,"M":46,"N":47,"O":48,"P":49,"Q":50,"R":51,"S":52,"T":53,"U":54,"V":55,"W":56,"X":57,"Y":58,"Z":59,"[":60,"\\":61,"]":62,"^":63,"_":64,"`":65,"a":66,"b":67,"c":68,"d":69,"e":70,"f":71,"g":72,"h":73,"i":74,"j":75,"k":76,"l":77,"m":78,"n":79,"o":80,"p":81,"q":82,"r":83,"s":84,"t":85,"u":86,"v":87,"w":88,"x":89,"y":90,"z":91,"{":92,"|":93,"}":94,"~":95,"":96,"":97,"":98,"":99,"":100,"":101,"":102,"":103,"":104,"":105,"":106,"":107,"":108," ":109,"¡":110,"¢":111,"£":112,"¤":113,"¥":114,"§":115,"¨":116,"©":117,"«":118,"¬":119,"­":120,"®":121,"°":122,"±":123,"²":124,"³":125,"´":126,"µ":127,"¶":128,"·":129,"¹":130,"º":131,"»":132,"¼":133,"½":134,"¾":135,"¿":136,"À":137,"Á":138,"Â":139,"Ã":140,"Ä":141,"Å":142,"Æ":143,"Ç":144,"É":145,"Ë":146,"Í":147,"Î":148,"Ð":149,"Ñ":150,"Ò":151,"Ó":152,"Õ":153,"Ö":154,"×":155,"Ø":156,"Ú":157,"Ü":158,"Ý":159,"Þ":160,"ß":161,"à":162,"á":163,"â":164,"ã":165,"ä":166,"å":167,"æ":168,"ç":169,"è":170,"é":171,"ê":172,"ë":173,"ì":174,"í":175,"î":176,"ï":177,"ð":178,"ñ":179,"ò":180,"ó":181,"ô":182,"õ":183,"ö":184,"÷":185,"ø":186,"ù":187,"ú":188,"û":189,"ü":190,"ý":191,"þ":192,"ÿ":193,"Ā":194,"ā":195,"Ă":196,"ă":197,"ą":198,"ć":199,"Č":200,"č":201,"Đ":202,"đ":203,"ē":204,"ė":205,"ę":206,"ě":207,"ğ":208,"ī":209,"İ":210,"ı":211,"ķ":212,"ĺ":213,"Ł":214,"ł":215,"ń":216,"ō":217,"ő":218,"œ":219,"Ś":220,"ś":221,"Ş":222,"ş":223,"Š":224,"š":225,"ţ":226,"ū":227,"ų":228,"Ż":229,"ż":230,"Ž":231,"ž":232,"ƒ":233,"ơ":234,"ư":235,"ǎ":236,"ǒ":237,"ǔ":238,"ǧ":239,"ș":240,"ɑ":241,"ɒ":242,"ə":243,"ɛ":244,"ɡ":245,"ɣ":246,"ɸ":247,"ʹ":248,"ʼ":249,"ˆ":250,"ˈ":251,"ˌ":252,"ː":253,"˚":254,"ˮ":255,"́":256,"̂":257,"̃":258,"̈":259,"̊":260,"̶":261,"·":262,"Α":263,"Β":264,"Γ":265,"Δ":266,"Ε":267,"Θ":268,"Μ":269,"Π":270,"Σ":271,"Φ":272,"Ω":273,"ά":274,"ή":275,"ί":276,"α":277,"β":278,"γ":279,"δ":280,"ε":281,"η":282,"θ":283,"ι":284,"κ":285,"λ":286,"μ":287,"ν":288,"ο":289,"π":290,"ρ":291,"ς":292,"σ":293,"τ":294,"φ":295,"χ":296,"ω":297,"ό":298,"ύ":299,"А":300,"Б":301,"В":302,"Г":303,"Д":304,"Е":305,"И":306,"К":307,"Н":308,"О":309,"П":310,"С":311,"Т":312,"Э":313,"Я":314,"а":315,"в":316,"г":317,"д":318,"е":319,"и":320,"й":321,"л":322,"м":323,"н":324,"о":325,"р":326,"с":327,"т":328,"ц":329,"ы":330,"ј":331,"Ґ":332,"ӓ":333,"ӧ":334,"א":335,"ד":336,"צ":337,"ا":338,"ة":339,"ت":340,"ث":341,"ج":342,"ح":343,"د":344,"ر":345,"س":346,"ص":347,"ع":348,"ك":349,"ل":350,"م":351,"ن":352,"ه":353,"و":354,"ي":355,"ڤ":356,"ނ":357,"ތ":358,"ަ":359,"ާ":360,"ก":361,"ข":362,"ต":363,"ธ":364,"น":365,"ย":366,"ร":367,"ส":368,"ะ":369,"ั":370,"ิ":371,"ี":372,"ุ":373,"เ":374,"ი":375,"რ":376,"უ":377,"ც":378,"ხ":379,"Ḥ":380,"ḥ":381,"ḳ":382,"ṅ":383,"ṇ":384,"ṛ":385,"Ṣ":386,"ṣ":387,"Ṭ":388,"ṭ":389,"ạ":390,"ả":391,"ầ":392,"ẹ":393,"ễ":394,"ệ":395,"ỉ":396,"ị":397,"ọ":398,"ờ":399,"ủ":400,"ἀ":401,"ἐ":402," ":403," ":404," ":405," ":406," ":407," ":408," ":409," ":410,"​":411,"‌":412,"‍":413,"‎":414,"‏":415,"‐":416,"‑":417,"‒":418,"–":419,"—":420,"―":421,"‘":422,"’":423,"‚":424,"“":425,"”":426,"„":427,"†":428,"‡":429,"•":430,"‣":431,"…":432," ":433," ":434,"‬":435,"‭":436," ":437,"′":438,"″":439,"‹":440,"›":441,"※":442,"⁃":443,"⁄":444,"⁰":445,"⁴":446,"₂":447,"₤":448,"€":449,"℃":450,"ℏ":451,"№":452,"℠":453,"™":454,"Ω":455,"⅔":456,"←":457,"↑":458,"→":459,"↓":460,"↩":461,"↵":462,"⇑":463,"⇒":464,"⇨":465,"∈":466,"∑":467,"−":468,"∙":469,"√":470,"∞":471,"≈":472,"≤":473,"≥":474,"⋅":475,"①":476,"⑵":477,"▌":478,"■":479,"□":480,"▪":481,"▲":482,"▶":483,"▷":484,"▸":485,"►":486,"▼":487,"▽":488,"▾":489,"◄":490,"◆":491,"◊":492,"○":493,"●":494,"◦":495,"◾":496,"★":497,"☆":498,"☐":499,"☒":500,"☕":501,"☝":502,"☟":503,"☭":504,"☺":505,"♡":506,"♣":507,"♥":508,"♦":509,"♧":510,"♪":511,"♫":512,"⚘":513,"✅":514,"✌":515,"✎":516,"✓":517,"✔":518,"✗":519,"✰":520,"❑":521,"❓":522,"❤":523,"❥":524,"➜":525,"➥":526,"⟵":527,"⟶":528,"⦁":529,"⭐":530,"　":531,"オ":532,"コ":533,"ニ":534,"ビ":535,"リ":536,"ン":537,"・":538,"㎡":539,"万":540,"世":541,"中":542,"主":543,"五":544,"人":545,"会":546,"光":547,"公":548,"共":549,"军":550,"华":551,"协":552,"協":553,"台":554,"司":555,"命":556,"和":557,"团":558,"国":559,"國":560,"大":561,"山":562,"岁":563,"式":564,"春":565,"會":566,"月":567,"有":568,"株":569,"楚":570,"民":571,"江":572,"海":573,"湾":574,"灣":575,"狂":576,"球":577,"界":578,"社":579,"秋":580,"空":581,"箇":582,"級":583,"级":584,"结":585,"联":586,"聯":587,"臺":588,"航":589,"言":590,"賽":591,"赛":592,"超":593,"足":594,"軍":595,"鈥":596,"锦":597,"镜":598,"际":599,"限":600,"集":601,"革":602,"낍":603,"눉":604,"책":605,"":606,"":607,"":608,"":609,"":610,"":611,"":612,"":613,"":614,"":615,"":616,"":617,"":618,"":619,"":620,"":621,"":622,"":623,"":624,"":625,"":626,"":627,"":628,"":629,"":630,"":631,"":632,"":633,"":634,"":635,"":636,"":637,"":638,"":639,"":640,"":641,"":642,"":643,"":644,"":645,"珞":646,"ﬀ":647,"ﬁ":648,"ﬂ":649,"ﬄ":650,"ﷺ":651,"︎":652,"️":653,"﻿":654,"（":655,"）":656,"：":657,"￼":658,"�":659,"🇨":660,"🌞":661,"🌷":662,"🌸":663,"🍀":664,"🍦":665,"🍰":666,"🍳":667,"🍴":668,"🎁":669,"🎈":670,"🎉":671,"🎨":672,"🎶":673,"🎼":674,"🏆":675,"🏻":676,"🏼":677,"🏽":678,"🐞":679,"🐲":680,"🐴":681,"🐾":682,"👁":683,"👇":684,"👌":685,"👍":686,"👏":687,"💔":688,"💕":689,"💖":690,"💙":691,"💚":692,"💜":693,"💤":694,"💥":695,"💪":696,"💰":697,"📌":698,"📚":699,"📷":700,"🔸":701,"🖤":702,"🗞":703,"😀":704,"😁":705,"😂":706,"😃":707,"😄":708,"😅":709,"😆":710,"😇":711,"😉":712,"😊":713,"😋":714,"😍":715,"😎":716,"😔":717,"😕":718,"😖":719,"😘":720,"😛":721,"😜":722,"😝":723,"😞":724,"😠":725,"😢":726,"😦":727,"😫":728,"😬":729,"😭":730,"😳":731,"😶":732,"🙁":733,"🙂":734,"🙆":735,"🙈":736,"🙉":737,"🙌":738,"🙏":739,"🤔":740,"🤗":741,"🤙":742,"🤛":743,"🤣":744,"🤩":745,"🤯":746,"🥂":747,"🥇":748,"🦋":749,"🦌":750,"🧡":751,"🧩":752,"r ":753,"t ":754,"n ":755,"a ":756,"de":757,"in":758,"te":759,".\n":760,"ll":761,"at":762,"an":763,"om":764,"ar":765,"en ":766,"er":767,"s ":768,"ti":769,"fö":770," s":771,"er ":772,"oc":773,"en":774,"ar ":775,"g ":776,"och":777,"om ":778,"är ":779,"st":780,"li":781,"att ":782,"sk":783,"d ":784,"och ":785,"i ":786,", ":787,"or":788,"de ":789,"å ":790,"on":791,"an ":792,"et":793,"e ":794,"av":795,"än":796,"et ":797,"för ":798,"för":799,"me":800,"ing":801,"till":802,"re":803,"am":804,"av ":805,"vi":806,"är":807,"di":808,"ter":809,"un":810,"al":811,"det ":812,"te ":813,"ri":814,"ck":815,"pp":816,"el":817,"ro":818,"lig":819,"na ":820,"si":821,"den ":822,"på ":823,"ag":824,"ut":825,"som ":826,"ag ":827,"u ":828,"ra ":829,"tt":830,"till ":831,"be":832,"med ":833,"fr":834,"all":835,"var":836,"ra":837,"ell":838,"har ":839,"le":840,"ss":841,"ter ":842,"na":843,"ver":844,"ning":845,"ati":846,"äl":847,"ett ":848,"ak":849,"inte ":850,"mi":851,"on ":852,"kom":853,"ing ":854,"tt ":855,"and":856,"kan ":857,"ska ":858,"ade ":859,"upp":860,"du ":861,"ån":862,"der ":863,"ör":864,"åg":865," som ":866,"il":867,"ol":868,"as":869,"mer ":870,"ta ":871,"m ":872,"as ":873,"inn":874,"sp":875,"da ":876,"rä":877,"ka ":878,"år ":879,"?\n":880,"den":881,"eller ":882,"Det ":883,"gr":884,"ande ":885,"der":886,"ån ":887,"jag ":888,"del":889,"he":890,"lä":891,"ga ":892,"vän":893,"gi":894,"från ":895,"ad ":896,"ten ":897,"or ":898,"äll":899,"gen":900,"sä":901,"t.\n":902," och ":903,"ur":904,"for":905,"ni":906,"kti":907,"bar":908,"för att ":909,"sta ":910,"kon":911,"sam":912,"var ":913,"are ":914,"ap":915,"ör ":916,"pro":917,"mo":918,"yck":919," st":920,"sl":921,"a.\n":922,"ning ":923,"at ":924,"ju":925,"ation":926,"år":927,"se":928,"dig":929," sk":930,"någ":931,"ver ":932,"så ":933,"st ":934,"ch":935,"ock":936,"kommer ":937,"hö":938,"du":939,"ve":940,"tr":941,"vi ":942,"ten":943,"kl":944,"ef":945,"vär":946,"tta ":947,"pl":948,"dr":949,"ur ":950,"per":951,"äm":952,"bet":953,"en.\n":954,"Jag ":955,"ad":956,"verk":957,"tal":958,"med":959,"ger ":960,"ser":961,"ll ":962,": ":963,"min":964,"jäl":965,"!\n":966,"in ":967,"hå":968,"um":969,"ul":970,"fi":971,"må":972,"liga ":973,"vä":974,"vara ":975,"bli":976,"använ":977,"ok":978,"ny":979,"men ":980,"ligt ":981,"v ":982,"20":983,"ma ":984,"fl":985,"bl":986,"ull":987,"håll":988,"ök":989,"man ":990,"lj":991,"ho":992,"era ":993,"ex":994,"ci":995,"tet ":996,"dag":997,"po":998,"kt":999,"ina ":1000,"kun":1001,"ty":1002,"are":1003,"ss ":1004,"män":1005,"er.\n":1006,", s":1007,"ade":1008,"alla ":1009,"hel":1010,"fe":1011,"ssa ":1012,"finn":1013,"ber":1014,"va ":1015,"kt ":1016,"tro":1017,"het ":1018,"man":1019,"bil":1020,"kän":1021,"på":1022,"ne":1023,"k ":1024,"bb":1025,"ång":1026,"a, ":1027,"dan ":1028,"när ":1029,"han ":1030,"men":1031,"res":1032,"att":1033,"hi":1034,"skap":1035,"br":1036,"över":1037,"ställ":1038,"s.\n":1039,"han":1040,"än ":1041,"et.\n":1042,"mar":1043,"o ":1044,"gg":1045,"finns ":1046,"In":1047,"bara ":1048,"of":1049,"ande":1050,"ens ":1051,"gö":1052,"andra ":1053,"din ":1054,"ste":1055,"sy":1056,"rå":1057,"sti":1058,"bi":1059,"bä":1060,"och s":1061,"ster":1062,"hand":1063,"son":1064,"dig ":1065,"ser ":1066,"kv":1067,"äng":1068,"ko":1069,"är en ":1070,"el ":1071,"Vi ":1072,"vå":1073,"väl":1074,"mö":1075,"str":1076,"ven ":1077,"ig":1078,"ycket ":1079,"sk ":1080,") ":1081,"ma":1082,"vis":1083,"fram":1084,"..":1085,"så":1086,"tu":1087,"ali":1088,"y ":1089,"arna ":1090,"and ":1091,"veck":1092,"ann":1093,"Den ":1094,"också ":1095,"ori":1096,"här ":1097,"ar.\n":1098,"ud":1099,"ation ":1100,"sig ":1101,"under ":1102,"- ":1103,"pr":1104,"mycket ":1105,"gl":1106,"Det är ":1107,"ut ":1108,"i s":1109,"– ":1110,"kan":1111,"över ":1112,"se ":1113,"al ":1114,"und":1115,"ack":1116,"ånga ":1117,"ligen ":1118,"vil":1119,"göra ":1120,"ingen ":1121,"kr":1122,", och ":1123,"ningen ":1124,"00":1125,"ort ":1126,"detta ":1127,"I ":1128,"to":1129,"ord":1130,"ha ":1131,"form":1132,"ans":1133,"Men ":1134,"ts ":1135,"by":1136,"arbet":1137,"par":1138,"oli":1139,"En ":1140,"us":1141,"gör ":1142,"akti":1143,"behö":1144,"använd":1145,"lig ":1146,"all ":1147,"ch ":1148,"ella ":1149,"inte":1150,"hur ":1151,"t, ":1152,"nisk":1153,"denna ":1154,"mot ":1155,"org":1156,"genom ":1157,"ras ":1158,"tid ":1159,"ats ":1160,"ker":1161,"handl":1162,"ulle ":1163," av ":1164,"om s":1165,"ste ":1166,"far":1167,"is":1168,"ot ":1169,"tre":1170,"bör":1171,"produ":1172,"sök":1173,"je":1174,"är det ":1175,"ff":1176,"person":1177,"kommer att ":1178,"Om ":1179,"vill ":1180,"värl":1181,"ds":1182,"De ":1183,"efter ":1184,"eg":1185,"ill":1186,"lö":1187,"ken ":1188,"ung":1189,"het":1190,"liv":1191,"je ":1192,"även ":1193,"ble":1194,"tion":1195,"dri":1196,"pe":1197,"d.\n":1198,"Du ":1199,"mp":1200,"vid ":1201,"tar ":1202,"re ":1203,"människ":1204,"hjäl":1205,"19":1206,"där ":1207,"bo":1208,"ningar ":1209,"vad ":1210,"sak":1211,"när":1212,"fråg":1213,"erna ":1214,"201":1215,"under":1216,"inne":1217,"får ":1218,"börj":1219,"många ":1220,"skt ":1221,"ce":1222,"dö":1223,"An":1224,"upp ":1225,"den.\n":1226,"För":1227,"sion":1228,"tv":1229,"sen ":1230,", som ":1231,"det är ":1232,"tern":1233,"nings":1234,"fin":1235,"ant":1236,"sta":1237,"veckl":1238,"föret":1239,"skri":1240,"cer":1241,"hjälp":1242,"t att ":1243,"jän":1244,". ":1245,"ner ":1246,"na.\n":1247,"få ":1248,"min ":1249,"De":1250,"måste ":1251,"Och ":1252,"nä":1253,"ge":1254,"första ":1255,"oss ":1256,"mig ":1257,"van":1258,"hade ":1259,"län":1260,"möj":1261,"spel":1262,"utveckl":1263,"ala ":1264,"någon ":1265,"lag":1266,"dessa ":1267,"mell":1268,"led":1269,"us ":1270,"något ":1271,"nu ":1272,"it ":1273,"kna":1274,"St":1275,"ktion":1276,"lo":1277,"Det":1278,"uro":1279,"digt ":1280,"För ":1281,"ke":1282," sä":1283,"uni":1284,", men ":1285,"kö":1286," si":1287,"Vi":1288,"ktig":1289,"ent":1290,"ast ":1291,"utan ":1292,"terna ":1293,"hän":1294,"fy":1295," i ":1296,"Detta ":1297,"sig":1298,"fri":1299,"gif":1300,"gång":1301,"go":1302,"yn":1303,"trä":1304,"slut":1305,"bätt":1306,"yd":1307,"hon":1308,"iska ":1309,"kor":1310,"sätt":1311,"vår":1312,"fort":1313,"bak":1314,"följ":1315,"dan":1316,"ven":1317,"er och ":1318,"milj":1319,"pri":1320,"Han ":1321,"ck ":1322,"dom":1323,"ende ":1324,"inom ":1325,"Hur ":1326,"ter.\n":1327,"pa":1328,"gj":1329,"ket ":1330,"eri":1331,"gån":1332,"heter ":1333,"og":1334,"lå":1335,"All":1336,"tik":1337,"sen":1338,"vet ":1339,"jär":1340,"Re":1341,"först":1342,"våra ":1343,"bra ":1344,"erar ":1345,"er, ":1346,"hon ":1347,"allt ":1348,"sa ":1349,"ön":1350,"sin ":1351,"ja ":1352,"deras ":1353,"ster ":1354,"dat":1355,"nas ":1356,"tjän":1357,"Me":1358,"”\n":1359,"änd":1360,"ditt ":1361,"nya ":1362,"do":1363,"dag ":1364,"vill":1365,"pre":1366,"val":1367,"jag":1368,"där":1369,"olika ":1370,"l ":1371,"cen":1372,"tag":1373,"fly":1374,"jälv":1375,"en, ":1376,"\"\n":1377,"inform":1378,"mellan ":1379,"ingar ":1380,"är att ":1381,"heten ":1382,"ades ":1383," sam":1384,"mm":1385,"kri":1386,"dem ":1387,"en av ":1388,").\n":1389,"efter":1390,"spe":1391,"När ":1392,"hela ":1393,"behöver ":1394,"dina ":1395,"ab":1396,"vår ":1397,"yr":1398,"fil":1399,":\n":1400,"tig":1401,"plat":1402,"mär":1403,"eng":1404,"gram":1405,"rö":1406,"åter":1407,"fär":1408,"klar":1409,"två ":1410,"hu":1411,"lu":1412,"några ":1413,"Vad ":1414,"bju":1415," ska ":1416,"kont":1417,"we":1418,"blir ":1419,"p ":1420,"ts":1421,"bå":1422,")\n":1423,"ast":1424,"er som ":1425,"fatt":1426,"före":1427,"dem":1428,"bli ":1429,"200":1430,"ob":1431,"en och ":1432,"ult":1433,"mig":1434,"raf":1435,"vin":1436,"skil":1437,"då ":1438,"förs":1439,"no":1440," så ":1441,"ni ":1442,"öd":1443,"Var":1444,"akt":1445,"arbe":1446,"aste ":1447,"nat ":1448,"områ":1449,"ning.\n":1450,"rel":1451,"bor":1452,"are.\n":1453,"ent ":1454,"ings":1455,"varje ":1456,"lin":1457,"ick":1458,"ära ":1459,"går ":1460,"företag":1461,"här":1462,"lik":1463,"ten.\n":1464,"till att ":1465,"ans ":1466,"it":1467,"ru":1468," (":1469,"ning av ":1470,"ker ":1471,"ge ":1472,"an.\n":1473,"ac":1474,"rätt":1475,"nu":1476,"...\n":1477,"av s":1478,"markna":1479,"hem":1480,"vis ":1481,"hen":1482,"or.\n":1483,"möjlig":1484,"land":1485,"tek":1486,"proc":1487,"usi":1488,"väx":1489,"barn":1490,"om att ":1491,"komm":1492,"pa ":1493,"pel":1494,"tän":1495,"det.\n":1496,"tä":1497,"Fr":1498,"erade ":1499,"tera ":1500,"atur":1501,"des ":1502,"i en ":1503,"teri":1504,"äg":1505,"hög":1506,"ets ":1507,",\n":1508," är ":1509,"Att ":1510,"människor ":1511,"åt":1512,"a\n":1513," skulle ":1514,"hans ":1515,"th":1516,"samman":1517,"full":1518,"läng":1519,"sm":1520,"krä":1521,"10":1522,"stor":1523,"Euro":1524,"best":1525,"gär":1526,"öm":1527,"stem":1528,"poli":1529,"fol":1530,"nar ":1531,"der.\n":1532,"vilket ":1533,"bu":1534,"ske ":1535,"ar, ":1536,"helt ":1537,"la ":1538,"att det ":1539,"ry":1540,"reg":1541,"d av ":1542,"väg":1543,"id":1544,"kter ":1545,"fun":1546,"per ":1547,"vat":1548,"gång ":1549,"åt ":1550,"s, ":1551,"tal ":1552,"de s":1553,"aren ":1554,"ir":1555,"app":1556,"alltid ":1557,"med en ":1558,"kunna ":1559,"behandl":1560,"effe":1561,"berä":1562,"gäll":1563,"sätt ":1564,"bild":1565,"kel":1566,"ly":1567,"grän":1568,"ing.\n":1569," för ":1570,"varit ":1571,"tra":1572,"bok":1573,"ål":1574,"medle":1575,"bland ":1576,"gå ":1577,"kro":1578,"ell ":1579,"vet":1580,"fo":1581,"håller ":1582,"op":1583,"juk":1584,"uppgif":1585,"mat":1586,"t och ":1587,"tid":1588,"gjor":1589,"använda ":1590,"på att ":1591,"jo":1592,"mål":1593,"bygg":1594,"tiska ":1595,"medel":1596,"skulle ":1597,"gre ":1598,"ari":1599,"program":1600,"samma ":1601,"bör ":1602,"genom":1603,"emp":1604,"erbju":1605,"viktig":1606,"läg":1607,"ått ":1608,"hålla ":1609,"webb":1610,"kall":1611,"dens ":1612,"j ":1613,"stör":1614,"öka ":1615,"skar ":1616,"lev":1617,"på en ":1618,"som":1619,"proble":1620,"bästa ":1621,"derna ":1622,"andet ":1623,"Det finns ":1624,"s i ":1625,"organ":1626,"aldri":1627,"Th":1628,"tor":1629,"En":1630,"komma ":1631,"amil":1632,"da":1633,"bru":1634,"rätt ":1635,"a och ":1636,"sina ":1637,"ändr":1638,"oci":1639,"tter":1640,"nam":1641,"hos ":1642,"US":1643,"tter ":1644,"forsk":1645,"säker":1646,"af":1647,"räck":1648,"är ett ":1649,"en i ":1650,"Un":1651,"häl":1652,"barn ":1653,"mitt ":1654,"od":1655,"läm":1656,"Be":1657,"tan":1658,"fall":1659,"mest ":1660,"stori":1661,"stu":1662,"dra ":1663,"erad ":1664,"d och ":1665,"ar och ":1666,"öpp":1667,"kar":1668,"till en ":1669,"vid":1670,"dire":1671,"intern":1672,"mis":1673,"kvinn":1674,"im":1675,"edan ":1676,"regi":1677,"ele":1678,"plan":1679,"e.\n":1680,"flera ":1681,"på s":1682,"Ett ":1683,"tress":1684,"ju ":1685,"ellt ":1686,"Så ":1687,"ft":1688,"annan ":1689,"exemp":1690,"Li":1691,"tyck":1692,"- och ":1693,"Sk":1694,"dess ":1695,"information ":1696,"huv":1697,"Ho":1698,"ner":1699,"es":1700,"enligt ":1701,"medi":1702,"tillbak":1703,"EU":1704,"eftersom ":1705,"star":1706,"famil":1707,"stån":1708,"ass":1709,"dre ":1710," till ":1711,"Ne":1712,"att du ":1713,"as.\n":1714,"pres":1715,"ve ":1716,"tidig":1717,"met":1718,"pi":1719,".”\n":1720,"genom att ":1721,"som är ":1722,"jer ":1723,"hjär":1724,"av en ":1725,"lever":1726,"som s":1727,"ärskil":1728,"konom":1729,"vt ":1730,"end":1731," S":1732,"histori":1733,"aldrig ":1734,"bel":1735,"innan ":1736,"intress":1737,"fle":1738,"Har ":1739,"om du ":1740,"um ":1741,"annat ":1742,"co":1743,", så ":1744,"s och ":1745,"aff":1746,"lång":1747,"Är ":1748,"Ti":1749,"red":1750,"ra.\n":1751,"so":1752,"e-":1753,"kontro":1754,"tet.\n":1755,"tror ":1756,"Om du ":1757,"verkligen ":1758,"är inte ":1759,"Pro":1760,"lite ":1761,"tekni":1762,"jobb":1763,"grund":1764,"bri":1765,"stri":1766,"ban":1767,"med s":1768,"stän":1769,"Alla ":1770,"ock ":1771,"drar ":1772,"av de ":1773,"gäller ":1774,"blev ":1775,"natur":1776,"lägg":1777,"måna":1778,"Mi":1779,"kär":1780,"yl":1781,"henne":1782,"en för ":1783,"till s":1784,"tel":1785,"tryck":1786,"Ef":1787,"t\n":1788,"ber ":1789,"betal":1790,"grun":1791,"eras ":1792,"ansi":1793,"k.\n":1794,"ce ":1795,"Jag har ":1796,"någon":1797,"nabb":1798,"nor":1799,"; ":1800,"del av ":1801,"ing av ":1802,"kropp":1803,"het.\n":1804,"en är ":1805,"hopp":1806,"vs ":1807,".\"\n":1808,"kraf":1809,"Gud":1810,"Ar":1811,"sat":1812,"anska ":1813,"då":1814,"ög":1815,"kommen":1816,"ekonom":1817,"es ":1818,"ämp":1819,"artik":1820,"stru":1821,"lyck":1822,"vad":1823,"peng":1824,"lju":1825,"tre ":1826,"pun":1827,"Gu":1828,"\" ":1829,"räd":1830,"för en ":1831,"den här ":1832,"Den":1833,"Hon ":1834,"bättre ":1835,"ki":1836,"mä":1837,"kost":1838,"h ":1839,"lla ":1840,"ener":1841,"ed":1842,"lär":1843,"skyd":1844,"run":1845,"öj":1846,"olo":1847,"au":1848,"ttar ":1849,"stan ":1850,"gam":1851,"vit ":1852,"plats ":1853,"medlem":1854,"por":1855,"USA":1856,"rät":1857,"kar ":1858,"of ":1859,"Mo":1860,"Mar":1861,"att de ":1862,"försök":1863,"på ett ":1864,"lös":1865,"Jo":1866,"inkl":1867,"pu":1868,"talet ":1869,"a en ":1870,"år.\n":1871,"grupp":1872,"kli":1873,"slag":1874,"),":1875,"sedan ":1876,"stra":1877,"15":1878,"tion ":1879,"bol":1880,"”.\n":1881,"et, ":1882,"använder ":1883,"x ":1884,"mina ":1885,"har en ":1886,"Varför ":1887,"pass":1888,"bro":1889,"också":1890,"kanske ":1891,"fortfar":1892,"miljö":1893,"ligger ":1894,"ller ":1895,"orna ":1896,"ren":1897,"ationella ":1898," sig ":1899,"lighet ":1900,"terar ":1901,"vårt ":1902,"På ":1903,"verksam":1904,"tillsamman":1905,"bas":1906,"ay":1907,"ande.\n":1908,"result":1909,"18":1910,"land ":1911,"n.\n":1912,"egen":1913,"hör":1914,"bestäm":1915,"Denna ":1916,"hets":1917,"redan ":1918,"Med ":1919,"allt":1920,"ny ":1921,"oner ":1922,"ämn":1923,"kunde ":1924,"både ":1925,"utom ":1926,"gäng":1927,"nar":1928,"häll":1929,"d för ":1930,"endast ":1931,"erat ":1932,"bety":1933,"det":1934,"vissa ":1935,"som en ":1936,"son ":1937,"väldigt ":1938,"täck":1939,"ning och ":1940,"ationer ":1941,"gen.\n":1942,"gör":1943,"ta":1944,"organis":1945,"fall ":1946,"känner ":1947,"enda ":1948,"syn":1949,"gra":1950,"ofta ":1951,"centr":1952,"versi":1953,"avs":1954,"teck":1955,"kom ":1956,"visar ":1957,"och st":1958,"fick ":1959,"del ":1960,"ess":1961,"rum":1962,"ående ":1963,"speci":1964,"sten ":1965,"hus":1966,"öv":1967,"spr":1968,"kvali":1969,"en\n":1970,"gen ":1971,"off":1972,"huvud":1973,"Här ":1974,"mer än ":1975,"kur":1976,"stor ":1977,"Jag":1978,"The ":1979,"ende":1980,"Ch":1981,"st.\n":1982,"fung":1983,"att jag ":1984,"ter, ":1985,"att göra ":1986,"amp":1987,"risk":1988,"i S":1989,"er\n":1990,"i ett ":1991,"000":1992,"folk":1993,"od ":1994,"bin":1995,"vari":1996,"” ":1997,"i den ":1998,"utbild":1999,"märk":2000,"ov":2001,"älj":2002,"äger ":2003,"proje":2004,"Di":2005,"inneb":2006,"funktion":2007,"e och ":2008,"Som ":2009,"lut":2010,"ligt":2011,"besök":2012,"komp":2013,"i st":2014,"verkar ":2015,"kan du ":2016,"främ":2017,"system":2018,"förändr":2019,"honom ":2020," själv":2021,"kap":2022,"oss":2023,"hjälpa ":2024,"cep":2025,"rapp":2026,"oni":2027,"rig":2028,"ologi":2029,"at.\n":2030,"bort ":2031," så":2032,"jäm":2033,"diga ":2034,"effekti":2035,"\".\n":2036,"träff":2037,"Vil":2038,"yndig":2039,"ning, ":2040,"kan vara ":2041,"delar ":2042,"tenskap":2043,"är den ":2044,"30":2045,"fortfarande ":2046,"tens ":2047,"med att ":2048,"förbätt":2049,"kten ":2050,"tillgäng":2051,"ang":2052,"a att ":2053,"enkel":2054,"ameri":2055,"tillbaka ":2056,"12":2057,"läpp":2058,"dock ":2059,"stora ":2060,"världen ":2061,"sitt ":2062,"kontroll":2063,"Ro":2064,"materi":2065,"mini":2066,"utom":2067,"gräns":2068,"Ut":2069," som är ":2070,"samt ":2071,"tim":2072,"av den ":2073,"Sam":2074,"nade ":2075,"che":2076,"mel":2077,"själv":2078,"Du kan ":2079,"dj":2080,"orsak":2081,"mindre ":2082,"Bar":2083,"om det ":2084,"Kom":2085,"sätta ":2086,"mak":2087,"föra ":2088,"jälv ":2089,"ka":2090,"cy":2091,"hin":2092,"kre":2093,"ne ":2094,"Lä":2095,"met ":2096,"dom ":2097,"skall ":2098,"sol":2099,"s\n":2100,"posi":2101,"att vara ":2102,"verig":2103,"...":2104,"are och ":2105,"hä":2106,"företag ":2107,"lek":2108,"gemen":2109,"vak":2110,"alt ":2111,"Nu ":2112,"hy":2113," proc":2114,"publi":2115,"anti":2116,"en som ":2117,"na, ":2118,"inga ":2119," skall ":2120,"gar":2121,"dag.\n":2122,"tem":2123,"tiden ":2124,"w ":2125,"stol":2126,"flesta ":2127,"drag":2128,"dju":2129,"byg":2130,"gener":2131,"peri":2132,"vester":2133,"artikel ":2134,"50":2135,"opp":2136,"tidigt ":2137,"uppgifter ":2138,"em":2139,"cin":2140,"om.\n":2141,"exempel ":2142,"aly":2143,"as av ":2144," milj":2145,"köp":2146,"arbets":2147,"ering":2148,"or och ":2149,"Co":2150,"nande ":2151,"stad":2152,"hitta ":2153,"gjort ":2154,"ärskilt ":2155,"ering ":2156,"xi":2157,"familj":2158,"den, ":2159,"a?\n":2160,"produkter ":2161,"are, ":2162,"förl":2163,"indi":2164,"on.\n":2165,"vol":2166,"vilken ":2167," år ":2168,"svar":2169,"a med ":2170,"god":2171,"gre":2172,"fru":2173,"Det var ":2174,"arbete ":2175,":s ":2176,"miss":2177," att ":2178,"Kon":2179,"ini":2180,"beho":2181,"terade ":2182,"ham":2183,"n och ":2184,"anden ":2185,"Dessa ":2186,"tifi":2187,"Kan ":2188,"åtgär":2189,"Man ":2190,"och sk":2191,"hennes ":2192,"regl":2193,"ort":2194,"llar ":2195,"et och ":2196,"ternati":2197,"flyg":2198,"vänt":2199," har ":2200,"Till":2201,"avse":2202,"fre":2203,"invester":2204,"s med ":2205,"mission":2206,"spro":2207," på ":2208,"fakti":2209,"gjorde ":2210,"Under ":2211,"känsl":2212," eller ":2213,"förm":2214,"egen ":2215,"tycker ":2216,"kt.\n":2217,"ation.\n":2218,"För att ":2219,"börjar ":2220,"bry":2221,"musi":2222," samma ":2223,"ns ":2224,"ktion ":2225,"ligare ":2226,"er i ":2227,"därför ":2228,"hår":2229,"ationen ":2230,"tidigare ":2231,"Al":2232,"hal":2233,"Le":2234,"derar ":2235,"lok":2236,"d, ":2237,"sum":2238,"nära ":2239,"nöd":2240,"lika ":2241,"nad ":2242,"euro":2243,"ktiga ":2244,"myndig":2245,"tet":2246,"mmar ":2247,"amerikan":2248,"san":2249,"sko":2250,"Par":2251,"blivit ":2252,"as i ":2253,"else ":2254,"du kan ":2255,"t med ":2256,"vilka ":2257,"pen":2258,"varande ":2259,"snabb":2260,"nästan ":2261,"get ":2262,"spl":2263,"avi":2264,"ytter":2265,"net ":2266,"nen ":2267,"omfatt":2268,"tala ":2269,"fått ":2270,"inte är ":2271,"Jag är ":2272,"peiska ":2273,"kring ":2274,"rade ":2275,"assi":2276,"serna ":2277,"stitu":2278," säger ":2279,"allmän":2280,"jö":2281,"ora ":2282,"erbjuder ":2283,"dig.\n":2284,"A ":2285,"dem.\n":2286,"sjuk":2287,"finansi":2288,"förhåll":2289,"kul":2290,"väl ":2291,"webbplat":2292,"ack ":2293,"inget ":2294,"alternati":2295,"bero":2296,"varför ":2297,"rikt":2298,"s av ":2299,"g och ":2300,"lit":2301,"fäll":2302,"de.\n":2303,"inte s":2304,"16":2305,"ningar.\n":2306,"mot":2307,"stem ":2308,"Go":2309,"ani":2310,"affär":2311,"gu":2312,"cka ":2313,"blo":2314,"or, ":2315,"vilj":2316,"inte att ":2317,"tred":2318,"älskar ":2319,"kta ":2320,"dok":2321,"gå":2322,"på den ":2323,"100":2324,"visa ":2325,"ser.\n":2326,"su":2327,"bud":2328,"du s":2329,"tillverk":2330,"fant":2331,"stö":2332,"desig":2333,"e, ":2334,"Efter ":2335,"runt ":2336,"meddel":2337,"kunskap":2338,"när du ":2339,"gri":2340,"cis ":2341,"Även ":2342,"fast":2343," skri":2344,"i sam":2345,"bar ":2346,"t för ":2347,"medlems":2348,"He":2349,"Ma":2350,"tverk":2351,"et för ":2352,"ställa ":2353,"mig.\n":2354,"kostna":2355,"känna ":2356,"199":2357,"mon":2358,"Bo":2359,"just ":2360,"riga ":2361,"längre ":2362,"in.\n":2363,"inter":2364,"typ":2365,"ativa ":2366,"står ":2367,"rappor":2368,"hav":2369,"Te":2370,"tillämp":2371,"jor":2372,"ram":2373,"Vi har ":2374,"der och ":2375,"11":2376,"fer":2377,"peci":2378,"ännu ":2379,"der, ":2380,"ppl":2381,"te.\n":2382,"skriv":2383,"ten av ":2384,"s för ":2385,"via ":2386,"nödvän":2387,"pul":2388,"skol":2389,"fon":2390,"dett":2391,"vinn":2392,"tele":2393,"fler ":2394,"fu":2395,"riktig":2396,"studi":2397,"Gud ":2398,"pati":2399,"t som ":2400,"Europ":2401,"v.\n":2402,"S ":2403,"ym":2404,"onlin":2405,"ningen av ":2406,"förut":2407,"gick ":2408,"ade s":2409,"prat":2410,"kommi":2411,"när det ":2412,"Pl":2413,"mor":2414,"begräns":2415,"indu":2416,"enter ":2417,"energi":2418,"Upp":2419,"spar":2420,"]\n":2421,"förklar":2422,"fel":2423,"rekommen":2424,"et är ":2425,"ty ":2426,"kontak":2427,"ystem":2428,"tillräck":2429,"största ":2430,"ome":2431,"Där":2432,"inst":2433,"liv ":2434,"lån":2435,"trän":2436,"vand":2437,"ät":2438,"bart ":2439,"17":2440,"problem":2441,"ligtvis ":2442,"saml":2443,"slut ":2444,"ligt att ":2445,"fyra ":2446,"fram ":2447,"sätter ":2448,"tog ":2449,"medan ":2450,"da.\n":2451," procent ":2452,"bö":2453,"g.\n":2454,"hol":2455,"det här ":2456,"ations":2457,"faren":2458,"Någ":2459,"Jes":2460,"en att ":2461,"vad som ":2462,"14":2463,"mer":2464,"dera ":2465,"tran":2466,"jälva ":2467,"ke ":2468,"dra":2469,"leva ":2470,"Ex":2471,"Ri":2472,"ine":2473,"ske":2474,"ssutom ":2475,"kommuni":2476,"föräl":2477,"ing, ":2478,"tar":2479,"form ":2480,"dagar ":2481,"dana ":2482,"till den ":2483,"inklusi":2484,"in i ":2485,"iden":2486,"mode":2487,"Her":2488,"minu":2489,"mänsk":2490,"asin":2491,"språ":2492,"ningen.\n":2493,"kat":2494,"fok":2495,"borg":2496,"dro":2497,"rättig":2498,"c ":2499,"hund":2500,"dar ":2501,"i och ":2502,"vetenskap":2503,"nivå":2504,"re.\n":2505,"or som ":2506,"mål ":2507,"marknads":2508,"fantas":2509,", säger ":2510,"Inte ":2511,"t i ":2512,"pra":2513,"ster.\n":2514,"lära ":2515,"fråga ":2516," skap":2517,"ktig ":2518,"vack":2519,"går":2520,"grund av ":2521,"faktiskt ":2522,"Ty":2523,"jut":2524,"dig att ":2525,"ing och ":2526,"dagen ":2527,"Många ":2528,"pengar ":2529,"mu":2530,"tt.\n":2531,"handlar ":2532,"egna ":2533," k":2534,"sor":2535,"sera ":2536,"väg ":2537,"Uni":2538,"Pre":2539,"yss":2540,"13":2541,"att han ":2542,"fli":2543,"tisk ":2544,"tex":2545,"& ":2546,"lam":2547,"Po":2548,"Gen":2549,"jag har ":2550,"ten, ":2551,"er för ":2552,"säg":2553,"disk":2554,"arbetar ":2555,"For":2556,"Tro":2557,"föd":2558,"glob":2559,"se.\n":2560,"bland":2561,"Kan":2562,"nästa ":2563," med ":2564," se":2565,"vite":2566,"läk":2567,"bruk":2568,"sion ":2569,"att ha ":2570,"ter och ":2571,"upptäck":2572,"stan":2573,"Gr":2574,"”,":2575,"analy":2576,"andar":2577,"mäng":2578,"framti":2579,"upp till ":2580,"skad":2581,"förord":2582,"direkt ":2583,"ningar":2584,"Var ":2585,"klä":2586,"en?\n":2587,"tillfäll":2588,"dition":2589,"brö":2590,"beroende ":2591,"tyd":2592,"\",":2593,"ton":2594,"hjärt":2595,"välja ":2596,"om de ":2597,"num":2598,"het att ":2599,"innehåller ":2600,"tell":2601,"et i ":2602,"används ":2603,"kväll":2604,"det finns ":2605,"Intern":2606,"fysi":2607,"bolag":2608,"upplev":2609,"mask":2610,"döm":2611,"giv":2612,"haf":2613,"slö":2614,"Fö":2615," stu":2616,"fören":2617,"är.\n":2618,"To":2619,"anställ":2620,"profe":2621,"hjälper ":2622,"ai":2623,"Am":2624,"handel":2625,"köpa ":2626,"even":2627,"ttade ":2628,"började ":2629,"erfaren":2630,"25":2631,"fas":2632,"vide":2633,"kol":2634,"ttet ":2635,"presen":2636,"emot ":2637,"ens":2638,"Ve":2639,"hem ":2640,"liten ":2641,"kort ":2642,"d i ":2643,"att vi ":2644,"teg":2645,"mag":2646,"Guds ":2647,"fini":2648,"het och ":2649,"problem ":2650,"ögon":2651,"inklusive ":2652,"å s":2653,"lar ":2654,"världens ":2655,"äre":2656,"Sverig":2657,"inte bara ":2658,"process":2659,"offent":2660,"Bi":2661,"dy":2662,"part":2663,"Vad är ":2664,"läs":2665,"genomför":2666,"the ":2667,"meto":2668,"ux":2669,"finns det ":2670,"samhäll":2671," stör":2672,"båda ":2673,"registr":2674,"försä":2675,") och ":2676,"viss":2677,"förmåg":2678,"ande av ":2679,"..\n":2680,"perfe":2681,"mör":2682,"yf":2683,"cir":2684,"försälj":2685,"en har ":2686,"förstå":2687,"till ett ":2688,"två":2689,"ade.\n":2690,", en ":2691,"personer ":2692,"bes":2693,"ad.\n":2694,"tur":2695,"den är ":2696,"sätt att ":2697,"män ":2698,"tligen ":2699,"inci":2700,"verkty":2701,"avsett ":2702,"fann":2703,"igen":2704,"släpp":2705,"imp":2706,"Min ":2707,"person ":2708,"Fa":2709,"fakt":2710,"vå ":2711,"träd":2712,"soci":2713,"het, ":2714,"Fin":2715,"defini":2716,"jag s":2717,"can":2718,"som har ":2719,"nytt ":2720,"tjänster ":2721,"Lo":2722,"gånger ":2723,"ton ":2724,"utan":2725,"Or":2726,"beslut":2727,"förlor":2728," som s":2729,"oper":2730,"ah":2731,"papp":2732,"slu":2733,"precis ":2734,"internationella ":2735,"betyder ":2736," miljoner ":2737,"tas ":2738,"sex":2739,"de som ":2740,"minst ":2741,"Per":2742,"lever ":2743,"klag":2744,"död":2745,"tills ":2746,"fem ":2747,"handa":2748,"rar ":2749,"med ett ":2750,"Fran":2751,"bre":2752,"mam":2753,"för den ":2754,"her":2755," sitt ":2756,"aktu":2757,"lätt ":2758,"riktigt ":2759,"Se":2760,"stä":2761,"ned":2762,"Ber":2763,"Då ":2764,"utman":2765,"ytterligare ":2766,"gången ":2767,"hälso":2768,"Använ":2769,"tillstån":2770,"världen.\n":2771,"Ju":2772,"ons":2773,"t av ":2774,"k och ":2775,"gör det ":2776,"brän":2777,"hör ":2778,"siden":2779,"ganska ":2780,"sidan ":2781,"kan inte ":2782,"undersök":2783,"ada ":2784,"kam":2785,"kommission":2786,"nätverk":2787,"a i ":2788,"gillar ":2789,"dokum":2790,"os":2791,"or i ":2792,"tillhanda":2793,"parti":2794,"närm":2795,"enlighet ":2796,"att den ":2797,"popul":2798,"vatten":2799,"ktur":2800,"gamla ":2801,"nation":2802,"konsum":2803,"jun":2804,"veta ":2805,"enkelt ":2806,"arna.\n":2807,"Läs ":2808,"en s":2809,"staur":2810,"att få ":2811,"uppn":2812,"tack":2813,"kombin":2814,", vilket ":2815,"ansvar":2816," spel":2817,"haft ":2818," %":2819,"…\n":2820,"tet och ":2821,"Du":2822,"kte ":2823,"borde ":2824,"tes ":2825,"säga ":2826,"kallas ":2827,"livs":2828,"pris":2829,"chef":2830,"ningarna ":2831,"uppfy":2832,"här.\n":2833,"Allt ":2834,"idag ":2835,"et\n":2836,"aliser":2837,"sen.\n":2838,"och med ":2839,"Is":2840,"Sedan ":2841,"Därför ":2842,"produk":2843,"Ny":2844,"heterna ":2845,"stat":2846,"seri":2847,"40":2848," som":2849,"bili":2850,"orl":2851,"ran":2852,"are som ":2853,"ändra ":2854,"äker":2855,"skill":2856,", eller ":2857,"händer ":2858,"djur":2859,"fat":2860,"nat":2861,"par ":2862,"tillgång ":2863,"kyr":2864,"idé":2865,"tri":2866,"skick":2867,"rust":2868,"bun":2869,"häm":2870,"kult":2871,"inte har ":2872,"käll":2873,"större ":2874,"Nor":2875,"minn":2876,"nö":2877,"hus ":2878,": \"":2879,"henne ":2880,"medlemssta":2881,"der som ":2882,"det var ":2883,"fördel":2884,"undvi":2885,"material":2886,"exempel":2887,"jag är ":2888,"tra ":2889,": ”":2890,"koppl":2891,"fanns ":2892,"erande ":2893,"framgång":2894,"tegi":2895,"du har ":2896,"heter.\n":2897,"ses ":2898,"värde":2899,"am ":2900,"koll":2901,"lägga ":2902,"på grund av ":2903,"mun":2904,"anled":2905,"den och ":2906,"leverant":2907,"ekonomi":2908,"kvar":2909,"skapa ":2910,"film":2911,"qu":2912,"ond":2913,"vem":2914,"Eller ":2915,"Stor":2916,"age":2917," år":2918,"an, ":2919,"det som ":2920,"Väl":2921,"mots":2922,"punkt ":2923,"lämp":2924,"install":2925,"enlighet med ":2926,"heter":2927,"böck":2928,"lad":2929,"ar\n":2930,"We":2931,"dde ":2932,"morg":2933,"antal ":2934,"ligt.\n":2935,"kräver ":2936,"medicin":2937,"Car":2938,"styr":2939,"tredje ":2940," om ":2941,"svår":2942,"jämför":2943,"teras ":2944,"nytt":2945,"k, ":2946,"säger ":2947,"tid.\n":2948,"respe":2949,"läsa ":2950,"Nä":2951,"bra":2952,"det, ":2953,"konkur":2954,"stäm":2955,"liv.\n":2956,"fungerar ":2957,"Hi":2958,"] ":2959,"mat ":2960,"Det här ":2961,"ktiv ":2962,", så":2963,"de flesta ":2964,"läke":2965,"stort ":2966,"vare ":2967,"amerikanska ":2968,"jord":2969,"tillsammans med ":2970,"bygga ":2971,"en på ":2972,"lätt":2973,"beslut ":2974,"har jag ":2975,"i det ":2976,"band ":2977,"ca ":2978,"utan att ":2979,"klart ":2980,"arm":2981,"namn ":2982,"från en ":2983,"konst":2984,"tillå":2985,"eringen ":2986,"nog ":2987,"också.\n":2988,"a av ":2989,"an och ":2990,"Fi":2991,"teten ":2992,", sam":2993,"produktion":2994,"tol":2995,"före ":2996,"lämna ":2997,"val ":2998,"Det är en ":2999,"högre ":3000,"sprung":3001,"ord ":3002,"stiska ":3003,"rum ":3004,"norm":3005,"försöker ":3006,"/ ":3007,"innehåll":3008,"erna.\n":3009," själv ":3010,"gran":3011,"tliga ":3012,"uttryck":3013,"i sin ":3014,"spir":3015,"industri":3016,"tenti":3017,"autom":3018,"system ":3019,"Varje ":3020,"har varit ":3021,"Detta är ":3022,"byggna":3023,"60":3024,"n, ":3025,"tillväx":3026," [":3027,"om en ":3028,"först ":3029,"händel":3030,"till exempel ":3031,"förbättra ":3032,"a!\n":3033,"ssi":3034,"ligi":3035,"mass":3036,"kvinnor ":3037,"24":3038,"ba":3039,"ande och ":3040,"var det ":3041," star":3042,"ting ":3043,"verka ":3044,"moder":3045,"hög ":3046,"dan.\n":3047,"prakti":3048,"ds ":3049,"förstå ":3050,"lyss":3051,"sten":3052,"enaste ":3053,"Man":3054,"Si":3055,"vag":3056,"uppda":3057,"länge ":3058,"cera ":3059,"sam ":3060,"följande ":3061,"indivi":3062,"tog":3063,"godkän":3064,"test":3065,"utrust":3066,"t?\n":3067,"slag ":3068,"ution":3069,"minsk":3070,"inför ":3071,"hun":3072,"älsk":3073,"andra.\n":3074,"vir":3075,"sättning ":3076,"sni":3077,"början ":3078,"D ":3079,"den som ":3080,"EN":3081,"• ":3082,"tänka ":3083,"transp":3084,"sid":3085,"Fl":3086,"New ":3087,"ER":3088,"börja ":3089,"enkl":3090,"grati":3091,"Ni":3092,"rist":3093,"tillräckligt ":3094,"Con":3095,"Pe":3096,"att ta ":3097,"ville ":3098,"ater":3099,"på det ":3100,"hand ":3101,"användas ":3102,"nu.\n":3103,"inklu":3104,"digi":3105,"ibland ":3106,"mobil":3107,"vatten ":3108,"T ":3109,"frågan ":3110,"Från ":3111,"Till ":3112,"lande":3113,"tom":3114,"ingar.\n":3115,"Vill ":3116,"internation":3117,"Ad":3118,"EG":3119,"ress":3120,"långt ":3121,"Sp":3122,"institu":3123,"na\n":3124,"oft":3125,"universi":3126,"gamm":3127,"ski":3128,"satt ":3129,"klass":3130,"utanför ":3131,"ssion":3132,"situ":3133," som en ":3134,"tradition":3135,"andet av ":3136,"vux":3137,"Hel":3138,"honom":3139,"författ":3140,"sådan ":3141,"dator":3142,"oss.\n":3143,"gått ":3144,"uti":3145,"saker ":3146,"inte kan ":3147,"innov":3148,"tak":3149,"från":3150,"ter som ":3151,"resultat ":3152,"utför":3153,"hittar ":3154,"az":3155,"lek ":3156,"Enligt ":3157,"positi":3158,"av st":3159,"identifi":3160,"folk ":3161,"den i ":3162,"tet av ":3163,"fa":3164,"ministr":3165,"kvin":3166,"regel":3167,"bal":3168,"rom":3169,"to ":3170,"tell ":3171,"tiskt ":3172,"kunder ":3173,"ment ":3174,"demo":3175,"Se ":3176,"Win":3177,"av att ":3178,"vill ha ":3179,"igen.\n":3180,"kör":3181,"de är ":3182,"glöm":3183,"någonsin ":3184,"ätt":3185,"Vi är ":3186,"berät":3187,"viktigt att ":3188,"Jesus ":3189,"Låt ":3190,"lan":3191,"let":3192,"my":3193,"ub":3194,"region":3195,"håll ":3196,"fik":3197,"full ":3198,"tet, ":3199,"Är det ":3200,"sida ":3201,"server":3202,"länder ":3203,"Vid ":3204,"möjlighet att ":3205,"om den ":3206,"rik":3207,"andra":3208,"fortsätta ":3209,"vi har ":3210,"!!\n":3211,"skatt":3212,"spel ":3213,"rörel":3214,"ning som ":3215,"198":3216,"sty":3217,"Så":3218,"vl":3219,"tio ":3220,"avori":3221,"ursprung":3222,"ekonomiska ":3223,"rän":3224,"religi":3225,"drag ":3226,"Hur man ":3227,"hoppas ":3228,"abl":3229,"frågor ":3230,"venska ":3231,"krävs ":3232,"Isra":3233,"ttag":3234,"möjligt ":3235,"tagit ":3236,"Tän":3237,"sch":3238,"förvänt":3239,"diska ":3240,"ning i ":3241,"accep":3242,"nämn":3243,"resa ":3244,"union":3245,"ut.\n":3246,"bete":3247," sp":3248,"steg ":3249,"rym":3250,"kommunik":3251,"avtal":3252,"allvar":3253,"up":3254,"ford":3255,"höj":3256,"färg":3257,"lamen":3258," - ":3259,"ay ":3260,"ars ":3261,"ers ":3262,"typer ":3263,"behöv":3264,"Vem ":3265,"a: ":3266,"arti":3267,"ale":3268,"innebär att ":3269,"minska ":3270,"Europeiska ":3271,"läkemedel":3272,"stag":3273,"avslut":3274,"ingen av ":3275,"och en ":3276,"are i ":3277,"fter ":3278,"sista ":3279," ...\n":3280," sak":3281,"book":3282,"bat":3283,"are än ":3284,"data ":3285,"anser ":3286,"vara en ":3287,"leda ":3288,"organisation":3289,"helst ":3290,"äta ":3291,"eget ":3292,", st":3293,"ring":3294,"ägg":3295,"tänker ":3296,"Av":3297,"psy":3298,"stift":3299,"igen ":3300,"topp":3301,"aktivite":3302,"kni":3303,"medborg":3304,"Ingen ":3305,"fäl":3306,"ktr":3307,"platt":3308,"kommit ":3309,"betyd":3310,"nan ":3311,"o.\n":3312,"vål":3313,"Om":3314,"iställ":3315,"dröm":3316,"sätt.\n":3317,"d som ":3318,"ot":3319,"vap":3320,"ar en ":3321,"hanter":3322,"alltså ":3323,"vilja ":3324,"lösa ":3325,"låta ":3326,"engel":3327,"fal":3328,"räk":3329," ser ":3330,"viktiga ":3331," säker":3332,"dör":3333,"favori":3334,"er av ":3335,"eln ":3336,"Dessutom ":3337,"kvar ":3338,"rör":3339,"st, ":3340,"har vi ":3341,"jag inte ":3342,"stöd":3343,"presiden":3344,"Joh":3345,"C ":3346,"nationella ":3347,"sett ":3348,"anslut":3349,"näm":3350,"him":3351,"utveckla ":3352,"ledande ":3353,"den för ":3354,"och som ":3355,"bek":3356,"väljer ":3357,"rätts":3358,"leverantör":3359,"fel ":3360,"ange":3361,"ena ":3362,"d med ":3363,"mid":3364,"Com":3365,"gä":3366,"ar i ":3367,"var en ":3368,"yp":3369,"ovan":3370,"verklig":3371,"domstol":3372,"a-":3373,"stå ":3374,"dow":3375,"en till ":3376,"skyl":3377,"människor":3378,"fortsätter ":3379,"detal":3380,"uppmärk":3381,"Efter":3382,"resulta":3383,"livet ":3384,"foku":3385,"häls":3386,"ari ":3387,"det att ":3388,"deltag":3389,"arbeta ":3390,"resur":3391,"fullt ":3392,"ihå":3393,"rad ":3394,"os ":3395,"förber":3396,"vänner ":3397,"önsk":3398,"Med":3399,"vinna ":3400,"icke-":3401,"publicer":3402,"potenti":3403,"kapi":3404,"t.":3405,"är i ":3406,"olog":3407,"mul":3408,"skriva ":3409,"djup":3410,"princi":3411,"EU-":3412,"kal":3413,"tets ":3414,"betala ":3415,"länd":3416,"kamp":3417,"honom.\n":3418,"färdig":3419,"pan":3420," skol":3421,"ande, ":3422,"och sam":3423,"blogg":3424,"IN":3425,"trö":3426,"Vilka ":3427,"ant ":3428,"motor":3429,"kultur":3430,"roll":3431,"st och ":3432,"såg ":3433,"heller ":3434,"one ":3435,"för att få ":3436," ställ":3437,"hur man ":3438,"sjukdom":3439,"lång ":3440,"ifrån ":3441,"adi":3442,"er är ":3443,"rid":3444,"året ":3445,"antag":3446,"mång":3447," står ":3448,"hjälp av ":3449,"timmar ":3450,"rele":3451,"åtgärder ":3452,"dre":3453,"kort":3454,"Ameri":3455,"B ":3456,"bur":3457,"må ":3458,"avgif":3459,"den\n":3460,"området ":3461,"ar som ":3462,"tyg":3463,"ihåg ":3464,"ben":3465,"inspir":3466,"else":3467,"befolk":3468,"brans":3469,"maskin":3470,"finnas ":3471,"rat ":3472,"på.\n":3473," minu":3474,"tillgång till ":3475,"iho":3476,"fast ":3477,"um.\n":3478,"låg":3479,"Vissa ":3480,"jul":3481,"integr":3482,"ningar och ":3483,"sh":3484,"skö":3485,"som ett ":3486,"hitt":3487,"perio":3488,"bilder ":3489,"när jag ":3490,"knapp":3491,"ar på ":3492,"extra ":3493,"låter ":3494,"Vär":3495,"leder ":3496,"sterna ":3497,"spela ":3498,"politiska ":3499,"när det gäller ":3500,"modell":3501," M":3502,"Pri":3503,"Din ":3504,"ständig":3505,"kredi":3506,"ervi":3507,"as med ":3508,"unga ":3509,"fastställ":3510,"bon":3511,"bedöm":3512,"ktor":3513,"typ av ":3514,"cirka ":3515,"TV":3516,"g för ":3517,"platser ":3518,"kommande ":3519,"d\n":3520,"as, ":3521,"röst":3522,"dem som ":3523,"Bil":3524,"IS":3525,"nöj":3526,"post":3527,"telefon":3528,"21":3529,"viktig ":3530,"atiska ":3531,"trots ":3532,"Fråg":3533,"Har":3534,"Su":3535,"Ste":3536,"skon":3537,"följa ":3538,"detta.\n":3539,"myck":3540,"ogl":3541," sedan ":3542,"heten av ":3543,"Ni ":3544,"Yo":3545,"ativ ":3546,"cro":3547,"äk":3548,"förfar":3549,"följer ":3550,"Pa":3551,"skär":3552,"öppna ":3553,"Au":3554,"ktet ":3555,"klassi":3556,"senaste ":3557," samt ":3558,"Wi":3559,"Bl":3560,"åra ":3561,"administr":3562,"god ":3563,"lokala ":3564,"are att ":3565,"trans":3566,"ps ":3567,"kan man ":3568,"överför":3569,"privat":3570,"ax":3571,"skat":3572," :":3573,", är ":3574,"förval":3575,"al.\n":3576,"offi":3577,"Hans ":3578,"syn ":3579," säga ":3580,"aw":3581,"nog":3582,"ativ":3583,"as till ":3584,"förstår ":3585,"höra ":3586,"framför ":3587,"ha en ":3588,"land.\n":3589,"bestämmel":3590,"E ":3591,"Ja, ":3592,"boll":3593,"med den ":3594,"Jag vill ":3595,"goda ":3596,"heten.\n":3597,"bransch":3598,"D-":3599,"akt ":3600,"information":3601,"cell":3602,"Och":3603,"mer.\n":3604,"åd":3605,"att man ":3606,"les ":3607,"titta ":3608,"pla":3609,"känns ":3610,"197":3611,"studen":3612,"ame":3613,"ide":3614,"igenom ":3615,"ins ":3616,"ungef":3617,"grundlägg":3618,"til":3619,"ande s":3620,"fot":3621,"Har du ":3622,"Idag ":3623,"gul":3624,"gud":3625,"restaur":3626,"as och ":3627,"apar":3628,"blod":3629,"eventu":3630,"Lin":3631,"j, ":3632,"njut":3633," stö":3634,"ar för ":3635,"på din ":3636,"inte.\n":3637,"barn.\n":3638,"Vår ":3639,"gav ":3640,"inställ":3641,"att det är ":3642,"risk ":3643,"påverkar ":3644,"viss ":3645,"sikt ":3646,"cebook":3647,";\n":3648,"version":3649,"värder":3650,"ats":3651,"arki":3652,"volution":3653,"rike":3654," för att ":3655,"Ge":3656,"dio":3657,"dande ":3658,"verksamhet ":3659,"mänskliga ":3660,"kra":3661,"inns ":3662,"Jag tror ":3663,"när de ":3664,"er?\n":3665,"ning (":3666,"kända ":3667,"behöva ":3668,"roll ":3669,"från den ":3670,"present":3671,"ug":3672,"en ny ":3673,"information om ":3674,"Kanske ":3675,"Fo":3676,"oavsett ":3677,"vs":3678,"ard ":3679,"lex":3680,"hotell":3681,"match":3682,"typer av ":3683,"e\n":3684,"tids":3685,"stra ":3686,"ett":3687,"exi":3688,"ändå ":3689,"projekt ":3690,"exper":3691,"finner ":3692,"högsta ":3693,"oro":3694,"an är ":3695,"egentligen ":3696,"tillgängliga ":3697,"Gre":3698,"fä":3699,"ami":3700,"rit":3701,"Ko":3702,"ingarna ":3703,"har ett ":3704,"europeiska ":3705,"jan":3706,"stin":3707," m":3708,"standar":3709," – ":3710,"för ett ":3711,"lägen":3712,"ten och ":3713,"ational ":3714,"där.\n":3715,"och\n":3716,"villkor":3717,"nart ":3718,"behov ":3719,"Kar":3720,"sag":3721,"erings":3722,"gärna ":3723,"gt ":3724,"kterna ":3725,"ters ":3726,"försöka ":3727,"hindra ":3728,"musik":3729,"profession":3730,"antalet ":3731,"umär":3732,"a, och ":3733,"när man ":3734,"cem":3735,"bred":3736,"hur":3737,"rör ":3738,"tals ":3739,"När du ":3740,"Kommer ":3741,"bekrä":3742,"uppen":3743,"består ":3744,"affärs":3745,"däre":3746,"fem":3747,"huvu":3748,"för alla ":3749,"22":3750,"oki":3751,"användar":3752,"månader ":3753,"Universi":3754,"Mon":3755,"anpass":3756,"verkan ":3757,"fyll":3758,"vention":3759,"arbete":3760,"vänta ":3761,"neg":3762,"de senaste ":3763," stora ":3764,"betydel":3765,"drabb":3766,"t.ex":3767,"företaget ":3768,"Ac":3769,"dets ":3770,"sprogram":3771,"Män":3772,"du inte ":3773,"marknadsför":3774,"Vad":3775,"enskil":3776,"milit":3777,"omedel":3778,"R ":3779,"utnytt":3780,"as på ":3781,"en av de ":3782,"kärlek":3783,"försäkr":3784,"skillna":3785,"Window":3786,"uppmärksam":3787,"syf":3788,"alternativ ":3789,"den första ":3790,"spän":3791,"hantera ":3792,"automati":3793,"s att ":3794,"för de ":3795,"hemm":3796,"ationer.\n":3797,"Kän":3798,"kast":3799," se ":3800,"m och ":3801,"konkurren":3802,"ig ":3803,"d på ":3804,"i enlighet med ":3805,"sekv":3806,"Vi s":3807,"moti":3808,"ämpa ":3809,"et?\n":3810,"aste":3811,"klu":3812,"viktigaste ":3813,"fjär":3814,"d att ":3815,"ktiv":3816,"krig":3817,"tje":3818,"strum":3819," sätt ":3820,"arbetet ":3821,"d från ":3822,"try":3823,"ficer":3824,"övervak":3825,"möjligheter ":3826,"relevan":3827,"få":3828,"mt ":3829,"i när":3830,"amm":3831,"utform":3832,"kan också ":3833,"dagens ":3834,"bort":3835,"Ob":3836,"obje":3837,"rättigheter ":3838,"framgångs":3839,"Än":3840,"er på ":3841,"ung ":3842,"mer om ":3843," skick":3844,"ser och ":3845,"II":3846,"sän":3847,"Googl":3848,"Pi":3849,"aci":3850," sin ":3851,"kan vi ":3852,"egenskap":3853,"mån":3854,"tiga ":3855,"distri":3856,"du behöver ":3857,"nr ":3858,"ret":3859,"särskilt ":3860,"anta ":3861,"ockhol":3862,"Yor":3863,"a, men ":3864,"krav":3865,"196":3866,"nödvändig":3867,"flick":3868,"fång":3869,"i alla ":3870,"varumär":3871,"struktur":3872,"energ":3873,"strategi":3874,"No":3875,"jät":3876,"sc":3877,"tanni":3878,"tillsammans ":3879,"djur ":3880,"-tal":3881,"lug":3882,"ner.\n":3883,"ore":3884,"elektr":3885,"'s ":3886,"flö":3887,"prom":3888,"vån":3889,"arnas ":3890,"fulla ":3891,"tisk":3892,"ning till ":3893,"nes ":3894,"Tysk":3895,"com":3896,"skom":3897,"svårt att ":3898,"70":3899,"Där ":3900,"hum":3901,"er med ":3902,"Storbri":3903,"ator":3904,"ska och ":3905,"eller en ":3906,"så mycket ":3907,"grepp":3908,"Ci":3909,"bra.\n":3910,"ren ":3911,"ter\n":3912,"livsmedel":3913,"yo":3914,"rätta ":3915,"lagstift":3916,"kemi":3917,"Europa ":3918,"kor ":3919,"are\n":3920,"itali":3921,"ssystem":3922,"vem ":3923,"icke ":3924,"mark":3925,"feren":3926,"Finns ":3927,"Ver":3928,"medve":3929,"gemenskap":3930,"ingent":3931,"ativt ":3932,"ders ":3933,"sådana ":3934,"klimat":3935,"Följ":3936,"iga ":3937,"föränd":3938,"fisk":3939,"bäst ":3940,"prest":3941,"Storbritanni":3942,"Stu":3943,"ptem":3944,"decem":3945,"i K":3946,"förvär":3947,"som kan ":3948,"Facebook":3949,"Pr":3950,"dela ":3951,"världs":3952,"järn":3953,"bland annat ":3954,"tur ":3955,"ute":3956,"ytt":3957,"beställ":3958,"karri":3959,"Hopp":3960,"timmar":3961,"Ryss":3962,"mod":3963,"Tänk ":3964,"O ":3965,"n är ":3966,"anger ":3967,"annoli":3968,"produkt":3969,"förvalt":3970,"Lu":3971,"givar":3972,"demokr":3973,"söka ":3974,"attack":3975,"uppdater":3976,"Vä":3977,"kel ":3978,"mäl":3979,"nyck":3980,"vidare ":3981,"faktor":3982,"ach":3983,"inför":3984,"till det ":3985,"ning\n":3986,"höga ":3987,"bank":3988,"Google ":3989,"landet ":3990,"tel ":3991,"av dessa ":3992,"nivå ":3993,"värld":3994,"utveckling":3995,"Stockhol":3996,"väntar ":3997,"Cen":3998,"Of":3999,"prote":4000,"juri":4001,"berätta ":4002,"Ta ":4003,"dda ":4004,"na och ":4005,"ning på ":4006,"hel ":4007,"välkom":4008,"förra ":4009,"säker ":4010,"senare ":4011,"Vilken ":4012,"23":4013,"wi":4014,"omkring ":4015,"stad ":4016,"stående ":4017,"on, ":4018,"det inte ":4019,"ser, ":4020,"t på ":4021,"s på ":4022,"berättel":4023,"idag":4024,"att bli ":4025,"till och med ":4026,"ningar, ":4027,"or på ":4028,"karakt":4029,"Eftersom ":4030,"ager":4031,"uppfatt":4032,"mottag":4033,"blom":4034,"gott ":4035,"Sch":4036,"måste":4037,"ansvar ":4038,"Fe":4039,"le ":4040,"y.\n":4041,"producer":4042,"erbjuda ":4043,"80":4044,"ku":4045,"en gång ":4046,"kväm":4047,"skydda ":4048,"interv":4049,"Lond":4050,"lag ":4051,"ständigt ":4052,"specifi":4053,"grundläggande ":4054,"Min":4055,"asi":4056,"kommer du ":4057,"minst":4058,"påverk":4059,"hört ":4060,"offici":4061,"Spel":4062,"tets":4063,"Bå":4064,"Våra ":4065,"våg":4066,"g i ":4067,"rev ":4068,"absol":4069,"New Yor":4070,"? ":4071,"Mu":4072,"casin":4073,"vat ":4074,"ser som ":4075,"sådan":4076,"bakom ":4077,"bbar":4078,"ka.\n":4079,"ar att ":4080,"är de ":4081,"dagen.\n":4082," studi":4083,"namn":4084,"kraft":4085,"idag.\n":4086,"göra det ":4087,"el.\n":4088,"äldre ":4089,"202":4090,"nummer ":4091,"So":4092,"jä":4093,"stå":4094,"antingen ":4095,"d till ":4096,"ore ":4097,"du är ":4098,"ash":4099,"serade ":4100,"ex ":4101,"igh":4102,"korre":4103,"form av ":4104,"placer":4105,"skul":4106,"extre":4107,"politik":4108,"detalj":4109,"varandra ":4110,"astig":4111,"säk":4112,"brott":4113,"lär ":4114,"wit":4115,"om man ":4116,"lig.\n":4117,"ning för ":4118,"Den här ":4119,"ologiska ":4120,"t.ex. ":4121,"Sh":4122,"janu":4123,"Do":4124,"ate ":4125,"itt ":4126,"et har ":4127,"vitt":4128,"utmär":4129,"webbplats ":4130,"tade ":4131,"Andra ":4132,"ass ":4133,"grupp ":4134,"ation och ":4135,"organi":4136,"glä":4137,"ara":4138,"vanliga ":4139,"bär":4140,"ar sig ":4141,", det ":4142," säg":4143,"förändringar ":4144,"e för ":4145,"on och ":4146,"kompe":4147,"något som ":4148,"globala ":4149,"500":4150,"IT":4151,"siska ":4152,"konsekv":4153,"också en ":4154,"i Sverig":4155,"ska.\n":4156,"begär":4157,"undvika ":4158,"App":4159,"Gör ":4160,"vatt":4161,"en (":4162,"behövs ":4163,"otro":4164,"pol":4165,"infl":4166,"har du ":4167,"De flesta ":4168,"m.\n":4169,"set ":4170,"utgör ":4171,"efter att ":4172,"krist":4173,"frukt":4174,"pack":4175,"e i ":4176,"jukdom":4177,"perfekt ":4178,"% ":4179,"Hå":4180,"get":4181,"kompl":4182,"exp":4183,"press":4184,"ociala ":4185,"namnet ":4186,"sproc":4187,"-talet ":4188,"gol":4189,"konstru":4190,"öker ":4191,"visat ":4192,"personliga ":4193,"rut":4194,"inten":4195,"en eller ":4196,"förtro":4197,"te att ":4198,"kan det ":4199,"skriver ":4200,"Europapar":4201,"redi":4202,"ter i ":4203,"bill":4204,"sig.\n":4205,"garan":4206," skriver ":4207,"ungefär ":4208,"ons ":4209,"Det är inte ":4210,"bara en ":4211,"derna.\n":4212,"talar ":4213,"serv":4214,"återvän":4215,"lägger ":4216,"lämnar ":4217,"kill":4218,"att se ":4219,"i de ":4220,"diag":4221,"underhåll":4222,"Person":4223,"för det ":4224,"beskriv":4225,"grav":4226,"initi":4227,"erfarenhet ":4228,"avsl":4229,"upprätt":4230,"avsni":4231,"kateg":4232,"fäng":4233,"den av ":4234,", särskilt ":4235,"Här är ":4236,"t är ":4237,"bekväm":4238,"dar":4239,"evi":4240," sta":4241,"tävl":4242,"patienter ":4243,"AR":4244,"ej ":4245,"instrum":4246,"sign":4247,"Res":4248,"häv":4249,"Europaparlamen":4250,"90":4251,"nå":4252,"der\n":4253,"människor.\n":4254,"gång.\n":4255,"IP":4256,"ystem ":4257,"grip":4258,"AN":4259,"Fil":4260,"skr":4261,"personuppgifter ":4262,"tänk":4263,"Bet":4264,"ätt ":4265,"lilla ":4266,"berör":4267,"helt enkelt ":4268,"partner":4269,"AB":4270,"infe":4271,"anses ":4272,"li ":4273,"råd":4274,"användning av ":4275,"poj":4276,"Några ":4277,"s-":4278,"tag ":4279,"yt":4280,"konto":4281,"område ":4282,"liknande ":4283,"förbere":4284,"framgångsri":4285,"sa":4286,"till.\n":4287,"A-":4288,"Dag":4289,"påg":4290,"dess":4291,"anlägg":4292,"er från ":4293,"blick":4294,"fram till ":4295," största ":4296,"trädgår":4297,"Qu":4298,"a till ":4299,"fön":4300,", med ":4301," skyd":4302,"kund":4303,"ladd":4304," själv.\n":4305,"online ":4306,"ES":4307,"lite":4308,"luf":4309,"28":4310,"gal":4311,"nå ":4312,"en stor ":4313,"redo":4314,"talt ":4315,"på samma ":4316,"platsen ":4317,"det?\n":4318,"gemensamma ":4319,"brott ":4320,"kvinna ":4321,"Över":4322,"så s":4323,"Föret":4324,"th ":4325,"27":4326,"oi":4327,"ökar ":4328,"t!\n":4329,"ensam":4330,"uppskatt":4331,"Du är ":4332,"genomsni":4333,"teknik":4334,"morgon":4335,"fri ":4336,"sym":4337,"över hela ":4338,"f ":4339,"av ett ":4340,"agg":4341,"ol ":4342,"tekniska ":4343,"gratis ":4344,"FN":4345,"ry ":4346,"vars ":4347,"har inte ":4348,"göra":4349,"Isl":4350,"sträck":4351,"skraf":4352,"spoli":4353,"närvarande ":4354,"vanligtvis ":4355,"en!\n":4356,"ta och ":4357,"dig och ":4358,"i.\n":4359,"en om ":4360,"finns i ":4361,"att använda ":4362,"och sedan ":4363,"nuvarande ":4364,"Micro":4365,"tali":4366,"an\n":4367,"en med ":4368,"ent.\n":4369,"et för att ":4370,"reda ":4371,"behandling ":4372," procent av ":4373,"mängd ":4374,"upplevel":4375,"krav ":4376,"Frankri":4377,"for ":4378,"ten i ":4379,"medlemmar ":4380,"motstån":4381,"allt.\n":4382,"okto":4383,"försvar":4384,"bygger ":4385,"ek":4386,"ute ":4387,"dessutom ":4388,"skäl":4389,"ing\n":4390,"liga.\n":4391,"annorl":4392,"driv":4393,"data":4394,"ändam":4395,"rädda ":4396,"språk":4397,"Människ":4398,"Hoppas ":4399,"in, ":4400,"värde ":4401,"maj":4402,"liksom ":4403,"ende.\n":4404,"lar":4405,"avtal ":4406,"ate":4407,"lista ":4408,"serar ":4409,"visade ":4410,"jet":4411,"stopp":4412,"Ir":4413,"gravi":4414,"klar ":4415,"igt ":4416,"ansvari":4417,"M ":4418,"verkliga ":4419,"intell":4420,"lands ":4421,"främst ":4422,"halv":4423,"26":4424,"is ":4425,"sv":4426,"inkom":4427,"när han ":4428,"problem.\n":4429,"sociala ":4430,"ture":4431,"kron":4432,"delar av ":4433,"mamma ":4434,"AS":4435,"tam":4436,"terat ":4437,"på de ":4438,"låt ":4439,"ärskilda ":4440,"kärlek ":4441,"con":4442,"fan":4443,"mus":4444,"atori":4445,"olag":4446,"lopp":4447,"bättre":4448,"pak":4449,"arder ":4450,"stjän":4451,"avan":4452,"apri":4453,"Hu":4454,"Hen":4455,"Mal":4456,"gat":4457,"t-":4458,"revolution":4459,"låg ":4460,"Nästa ":4461,"själv ":4462,"kommer":4463,"Mari":4464,"s?\n":4465,"er att ":4466,"olyck":4467,"möjligt att ":4468,"berättar ":4469,"aktum ":4470,"På":4471,"insat":4472,"tik ":4473,"ingar":4474,"uttal":4475,"luft":4476,"tiden.\n":4477,"na?\n":4478,"vän ":4479,"ulle":4480,"ord.\n":4481,"programmet ":4482,"skydd":4483,"föräldr":4484," från ":4485,".[":4486,"be ":4487,"för.\n":4488,"ingår ":4489,"plan ":4490,"kontroll ":4491,"finansiella ":4492,"unda ":4493,"ta en ":4494,"servi":4495,"AT":4496,"Vän":4497,"eman":4498,"spri":4499,"ats.\n":4500,", i ":4501,"ordför":4502,"kärn":4503,"ma.\n":4504,"att hon ":4505,"are av ":4506,"Indi":4507,"mindre än ":4508,"ha":4509,"a för ":4510,"er eller ":4511,"nabbar":4512,"under en ":4513,"aktion":4514,"produkt ":4515,"Medi":4516,"flo":4517,"s till ":4518,"vård":4519,"strali":4520,"Del":4521,"Ibland ":4522,"Kom ":4523,"Sa":4524,"tvi":4525,"bio":4526,"De är ":4527,"Nya ":4528,"Av ":4529,"ert ":4530,"linj":4531,"institution":4532,"Fre":4533,"et på ":4534,"inte längre ":4535,"ta i ":4536,"den?\n":4537,"medvet":4538,"in och ":4539,"fria ":4540,"Genom att ":4541,"Tr":4542,"Vår":4543,"iP":4544,"ska":4545,"atisti":4546,"direktiv ":4547,"fastig":4548,"offentliga ":4549,"back":4550,"dam":4551,"säson":4552,"berg":4553,"kände ":4554,"han.\n":4555,"hälsa ":4556,"sexu":4557,"att en ":4558,"terr":4559,"jag.\n":4560,"brukar ":4561,"tillbaka till ":4562,"patien":4563,"disku":4564,"klubb":4565,"Bu":4566,"vers":4567,"bidra ":4568,"redo ":4569,"innebär ":4570,"i samband ":4571,"anställda ":4572,"I s":4573,"eli":4574,"det i ":4575,"ade i ":4576,"du ska ":4577,"fick":4578,"attra":4579,"utveckling ":4580,"själva ":4581,"atör":4582,"om jag ":4583,"kontra":4584,"tidigt som ":4585,"i närheten av ":4586,"% av ":4587,"Det kan ":4588,"delse":4589,"trodde ":4590,"uppnå ":4591,"s som ":4592,"na i ":4593,"Davi":4594,"alko":4595,"block":4596,"ungdom":4597,"baserade ":4598,"misslyck":4599,"kredit":4600,"smär":4601,"även":4602,"etabl":4603,"et som ":4604,"Han är ":4605,"med sin ":4606,"port":4607,".)\n":4608,"vel":4609,"litet ":4610,"att för":4611,", jag ":4612,"utsläpp":4613,"beg":4614,"värm":4615,"personal":4616,"erna i ":4617,"minstone ":4618,"er till ":4619,"vikt ":4620,"vi kan ":4621,"hemma ":4622,"Tur":4623,"tom ":4624,"team":4625,"och det ":4626,"vision":4627,"påverka ":4628,"yrke":4629,"kontrollera ":4630,"n i ":4631,"ing som ":4632,"befin":4633,"der i ":4634,"skap ":4635,"ats av ":4636,"personer som ":4637,"certifi":4638,"vackra ":4639,"musk":4640,", sk":4641,"Gi":4642,"ernas ":4643,"dags":4644,"Du har ":4645,"valut":4646,"Trots ":4647,"Däre":4648,"Mer ":4649,"smar":4650,"enor":4651,"tté":4652,"niska ":4653,"troll":4654,"hur mycket ":4655,"marknaden ":4656,"belopp":4657,"ländska ":4658,"hat":4659,"stans ":4660,"ingen.\n":4661,"älja ":4662,"mit":4663,"ter från ":4664,"akta ":4665,"Israel":4666,"vi är ":4667,"oss att ":4668,"visste ":4669,"december ":4670,"Can":4671,"också att ":4672,"Men det ":4673,"kommer att vara ":4674,"EC":4675,"kalla ":4676,"en för att ":4677,"agera ":4678,"fig":4679,"snabbt ":4680,"36":4681,"?”\n":4682,"ress ":4683,"kt, ":4684,"vad du ":4685,"fantastiska ":4686,"modligen ":4687,"bo ":4688,"ine ":4689,"logi":4690," såg ":4691,"Tack":4692,"heter, ":4693,"visas ":4694,"kommun":4695,"elekt":4696,"rätten ":4697,"?\"\n":4698,"Ska ":4699,"a på ":4700,"de sig ":4701,"vida ":4702,"bot":4703,"önskar ":4704,"ägg ":4705,"35":4706,"Kö":4707,"vun":4708,"åka ":4709,"ering av ":4710,"inte så ":4711,"John ":4712,"Windows ":4713,"kali":4714,"en från ":4715,"d är ":4716,"Det har ":4717,"värt ":4718,"blå":4719,"uppenbar":4720,"bor ":4721,"avses i ":4722,"at, ":4723,"exakt ":4724,"framtida ":4725," års ":4726,"Tra":4727,"e som ":4728,"kter":4729,"avgör":4730,"ade med ":4731,"sättet ":4732,"temper":4733,"Vill du ":4734,"regelbun":4735,"har":4736,"kyl":4737,"stat ":4738,"medl":4739,"göras ":4740,"USA ":4741,"ihop ":4742,"absolut ":4743,"Vis":4744,"ösa ":4745,"läkare ":4746,"bbl":4747,"näll":4748,"de har ":4749,"or av ":4750,"cooki":4751,"material ":4752,"sprocess":4753,"Bro":4754,"tvä":4755,"äs":4756,"inte vara ":4757,"e-po":4758,"P ":4759,"a) ":4760,"baserat ":4761,"huvudsak":4762,"inkluderar ":4763,"sälj":4764,"ligheten ":4765,"bered":4766,"måste vara ":4767,"S-":4768,"gro":4769,"om hur ":4770,"chi":4771,"annon":4772,"ningar som ":4773,"Forsk":4774,", samt ":4775,"uppman":4776,"efter en ":4777,"människor som ":4778,"ar du ":4779,"et av ":4780,"ett stort ":4781,"ång ":4782,"moderna ":4783,"värr ":4784,"mig att ":4785,"tredje":4786,"Paul":4787,"lutet av ":4788,"av sin ":4789,"någon annan ":4790,"säkerställ":4791,"! ":4792,"$ ":4793,"ja, ":4794,"utby":4795,"ning är ":4796,"döda ":4797,"novem":4798,"Gro":4799,"Trum":4800,"grä":4801,"sö":4802,"»\n":4803,"rep":4804,"ad av ":4805,"kontin":4806,"bolag ":4807," år.\n":4808,"Er":4809,"On":4810,"sho":4811,"i denna ":4812,"delen av ":4813,"forsknings":4814,"Sverige ":4815,"Dan":4816,"ed ":4817,"en del av ":4818,", att ":4819,"någo":4820,"optim":4821,"tograf":4822,"kök":4823,"er för att ":4824,"det av ":4825,"konvention":4826,"sträng":4827,"vad jag ":4828,"position":4829,"s är ":4830,"dis":4831,"läck":4832,"regering":4833,"tande ":4834,"ank":4835,"pren":4836,"sta.\n":4837,"lem":4838,"ett par ":4839,"ingar och ":4840,"föräldrar ":4841,"slös":4842,"sådant ":4843,"hastig":4844,"sof":4845,"ong":4846,"and.\n":4847,"närvar":4848,"beräk":4849,"vandl":4850,"Företag":4851," ...":4852,"Bus":4853,"a är ":4854,"lägre ":4855,", den ":4856,"ett nytt ":4857,"örj":4858,"regeringen ":4859,"telef":4860,"Värl":4861,"förbju":4862,"recep":4863,"livet.\n":4864,"kompon":4865,"Kin":4866,"Jag vet ":4867,"brit":4868,"mät":4869,"kamer":4870,"enbart ":4871,"det för ":4872,"ten är ":4873,"are för ":4874,"kung":4875,"ation av ":4876,"måste du ":4877,"sju":4878,"up ":4879,"arna i ":4880,"skrif":4881,"-\n":4882,"its ":4883,"säll":4884,"enheter ":4885,"att gå ":4886,"ternas ":4887,"ligg":4888,"bibli":4889,"ster, ":4890,"ges ":4891,"områden ":4892,"Fram":4893,"familje":4894,"nämligen ":4895,"intensi":4896,"* ":4897,"Två ":4898,"inre ":4899,"d för att ":4900,"de inte ":4901,"med hjälp av ":4902,"ad och ":4903,"fler":4904,"man kan ":4905,"stig":4906,"fritt ":4907,"som st":4908,"övriga ":4909,"tillgänglig ":4910,"vandr":4911,"fåg":4912,"långa ":4913,"or\n":4914,"det och ":4915,"vart ":4916,"max":4917,"föresl":4918,"rök":4919,"anmäl":4920,"er har ":4921,"siktig":4922,"grön":4923,"betra":4924,"ktur ":4925,"viktigt ":4926,"allmänna ":4927,"kolle":4928,"kampan":4929,"Kri":4930,"SE":4931,"ask":4932,"stna":4933,"skt.\n":4934,"ta.\n":4935,"ingen":4936,"varar ":4937,"varje":4938," som har ":4939,"aspe":4940,"naturliga ":4941," kan ":4942,"ade till ":4943,"drö":4944,"beröm":4945,"flytt":4946,"små ":4947,"kräv":4948,"ptember ":4949,"kommersi":4950,"31":4951,"trev":4952,"område":4953,"träffa ":4954,"uppmun":4955,"överlev":4956,"direkt":4957,"besöka ":4958,"mjuk":4959,"omöj":4960,"194":4961,"29":4962,"svenska ":4963,"äd":4964,", där ":4965,", eftersom ":4966,"avstån":4967,"till st":4968,"mikro":4969,"arbete.\n":4970,"förlu":4971,"na på ":4972,"195":4973,"ljus":4974,"Jap":4975,"När det ":4976,"äter ":4977,"vi s":4978,"t, men ":4979,"frågade ":4980,"vanlig":4981,"köper ":4982,"AL":4983,"ail":4984,"arens ":4985,"an att ":4986,"förslag ":4987,"mekan":4988,"vitet ":4989,"grö":4990,"höll ":4991,"avseende ":4992,"inte ens ":4993,"ka och ":4994,"klam":4995,"vägg":4996,"Första ":4997,"fokus ":4998,"promen":4999,"skaff":5000,"nyligen ":5001,"hotell ":5002,"börjat ":5003,"spelare ":5004,"förhållande ":5005,"G ":5006,"hor":5007,"kons":5008,"kommer från ":5009,"lokal":5010,"exempelvis ":5011,"gammal ":5012,"jör":5013,"typ ":5014,"göra en ":5015,"användare ":5016,"gas":5017,"snar":5018,"en kan ":5019,"an i ":5020,"dern ":5021,"värd":5022,"sig till ":5023,"möjligt.\n":5024,"rekommenderar ":5025,"januari ":5026,"kine":5027,"tit ":5028,"terap":5029,"perspe":5030,"övertyg":5031,"staden ":5032,"EU:s ":5033,"med sina ":5034,"förordning (":5035,"Mac":5036,"gett ":5037,"kade ":5038,"tun":5039,"represen":5040,"dit ":5041,"terna.\n":5042,"aker ":5043,"högt ":5044,"individu":5045,"prä":5046,"svar ":5047,"ska, ":5048,"radi":5049," skill":5050,"ökad ":5051,"Men jag ":5052,"aktiva ":5053,"hjälp ":5054,"bättre än ":5055,"Använd ":5056,", såsom ":5057,"oftast ":5058,"diagno":5059,"Kli":5060,"ger":5061,"utse":5062,"peciellt ":5063,"äventy":5064,"Dat":5065,"Nord":5066,"hell":5067,"oberoende ":5068,"et att ":5069,"fotograf":5070,"Produ":5071,"minister":5072,"kontakta ":5073,"muse":5074,"avancer":5075,"få s":5076,"p.\n":5077,"wor":5078,"— ":5079,", har ":5080,"prov":5081,"när vi ":5082,"kopi":5083,"konto ":5084,"C-":5085,"rig ":5086,"Vi kan ":5087,"energi ":5088,"ver.\n":5089,"gill":5090,"ademi":5091,"mön":5092,"första gången ":5093,"mål.\n":5094,"juni ":5095,"musli":5096,"alkohol":5097,"gga ":5098,"År ":5099,"tillgång":5100,"ningss":5101,"der för ":5102,"åtminstone ":5103,"Mitt ":5104,"stads":5105,"konstnär":5106,"utnyttj":5107," me":5108,"sal":5109,"ering.\n":5110,"äng ":5111,"som du ":5112,"sex ":5113,"drat":5114,"tving":5115,"sluta ":5116,"butik":5117,"canc":5118,"kompeten":5119,"cel":5120,"förhindra ":5121,"ning eller ":5122,"bidrar ":5123,"rädd":5124,"fatta ":5125,"tor ":5126,"stäng":5127,"alo":5128,"så att ":5129,"hit":5130,"tusen":5131,"Även om ":5132,"hetens ":5133,"ktiva ":5134,"mars ":5135,"maj ":5136,"Regi":5137,"företag.\n":5138,"funni":5139,"trafi":5140,"omfattande ":5141,"populära ":5142,"Cor":5143,"WE":5144,"ken.\n":5145,"till de ":5146,"speri":5147,"profil":5148,"dubb":5149,"formul":5150,"smak":5151,"erad av ":5152,"funger":5153,"jöl":5154,"Bä":5155,"kunnat ":5156,"baserad ":5157,"internationell ":5158,"eventuella ":5159,"El":5160,"Tack ":5161,"gil":5162,"vali":5163,"är mycket ":5164,"kopp":5165,"Han har ":5166,"astro":5167,"rela":5168,"bekräf":5169,"gläd":5170," var ":5171,"själ":5172,"yri":5173,"beakt":5174,"dagar.\n":5175,"är en av ":5176,"teknik ":5177,"Kina ":5178,"kas ":5179,"en annan ":5180,"ar inte ":5181,"vecka ":5182,"Star":5183,"jag ska ":5184,"flytta ":5185,"effektivt ":5186,"lära sig ":5187,"förmåga att ":5188,"CO":5189,"Mat":5190,"sens ":5191,"y, ":5192,"Äl":5193,"med de ":5194,"alltid":5195,"medarbet":5196,"göra.\n":5197,") nr ":5198,"veckor ":5199,"glad ":5200,"köra ":5201,"kallar ":5202,"rätt att ":5203,"gåv":5204,"jätte":5205,"tis":5206,"- eller ":5207,"även om ":5208,"isl":5209,"omständig":5210,"trodu":5211,"möjliga ":5212,"villkor ":5213,"forskning ":5214,"Program":5215,"Sc":5216,"en var ":5217,"av.\n":5218,"age ":5219,"käns":5220,"behöriga ":5221,"Skulle ":5222,"flexi":5223,"gum":5224,"enhet ":5225,"st på ":5226,"på sin ":5227,"Vilket ":5228,"transpor":5229,"kämp":5230,"v och ":5231,"av sk":5232,"utfor":5233,"har blivit ":5234,"från att ":5235,"jag skulle ":5236,"historiska ":5237,"Mich":5238,"hård":5239,"Australi":5240,"Vårt ":5241,"Chi":5242,"stjär":5243,"skå":5244,"i A":5245,"med andra ":5246,"såsom ":5247,"meller":5248,"ster och ":5249,"tekn":5250,"Behö":5251,"henne.\n":5252,"handlar om ":5253,"ändamål":5254,"K ":5255,"Worl":5256,"skapa en ":5257,"detta är ":5258,"plats.\n":5259,"kallade ":5260,"fungera ":5261,"främja ":5262,"300":5263,"uer":5264,"ors ":5265,"at och ":5266,"Jer":5267,"bön":5268,"z ":5269,"förmodligen ":5270,"Jag älskar ":5271,"tvung":5272,"tjäna ":5273,"Itali":5274,"Nu":5275,"dans":5276,"o, ":5277,"avdel":5278,"som inte ":5279,"ningen":5280,"koncer":5281,"dig, ":5282,"kandi":5283,"aktiver":5284,"säkerhets":5285,"Ki":5286,"ersätt":5287,"at i ":5288,"trå":5289,"glas":5290,"drick":5291,"lösningar ":5292," miljarder ":5293," större ":5294,"början av ":5295,"Fly":5296,"Gar":5297,"war":5298,"behålla ":5299,"fra":5300,"varandra.\n":5301,"ten\n":5302,"undervis":5303,"omfattar ":5304,"jämfört med ":5305,"är på ":5306,"i B":5307,"kan jag ":5308,"för att kunna ":5309,"rymm":5310,"digitala ":5311,"himl":5312,"annolikt ":5313,"Je":5314,"uppleva ":5315,"väck":5316,"USA.\n":5317,"gui":5318,"Må":5319,"b ":5320,"din":5321,"är jag ":5322,"ing i ":5323,"filmen ":5324,"kommentar":5325,"Bara ":5326,"exister":5327,"utmärkt ":5328,"förslag":5329,"upp.\n":5330,"sål":5331,"passa ":5332,"flykt":5333,"hälf":5334,"cykel":5335,"er (":5336,"förhandl":5337,"föreg":5338,"und ":5339,"grann":5340,"plö":5341,"batteri":5342,"Mycket ":5343,"isk ":5344,"ar med ":5345,"på något ":5346,"utö":5347," som kan ":5348,"ation, ":5349,"vägen ":5350,"behandla ":5351,"huset ":5352,"sub":5353,"tillhandahålla ":5354,"kapital":5355,"biblio":5356,"L ":5357,"uri":5358,"ända ":5359,"som helst ":5360,"ad i ":5361,"färd":5362,"tillhandahåll":5363,"tjej":5364,"Han":5365,"en hel ":5366,"d eller ":5367,"liga och ":5368,"Det är ett ":5369,"totala ":5370,"tänkte ":5371,"boken ":5372,"historia ":5373,"prestand":5374,"drä":5375,"fab":5376,"natt":5377,"instru":5378,"allra ":5379,"ump":5380,"febru":5381,"känn":5382,"därmed ":5383,"sommar":5384,"dörr":5385,"privata ":5386,"titta på ":5387,"licen":5388,"driva ":5389,"unika ":5390,"kiska ":5391,"er: ":5392,"människa ":5393,", som är ":5394,"45":5395,"n\n":5396,"tapp":5397,"tic":5398,"enare ":5399,"och/":5400,"förtjän":5401,"befinner ":5402,"dollar ":5403,"passar ":5404,"pension":5405,"karaktär":5406,"Microsof":5407,"oktober ":5408,"sing":5409,"de st":5410,"ocka ":5411,"lätta ":5412,"äktenskap":5413," en ":5414,"Oavsett ":5415,"don":5416,"ess ":5417,"ys":5418,"dej":5419,"tet i ":5420,"De har ":5421,"tip":5422,"tiken ":5423,"ister ":5424,"medlem ":5425,"består av ":5426,"och den ":5427,", utan ":5428,"begrepp":5429,"bättre.\n":5430,"grafi":5431," \"":5432,"utställ":5433,"leken ":5434,"läser ":5435,"för att se ":5436,"görs ":5437,"Char":5438,"kapaci":5439,"enskilda ":5440,"David ":5441,"Slut":5442,"dera":5443,"en bra ":5444,"ingar, ":5445,"koncentr":5446,"kt och ":5447,"några av ":5448,"i ställ":5449,"kulture":5450,"a, s":5451,"inlägg":5452,"utrymm":5453,"ade och ":5454,"at med ":5455,"Jag var ":5456,"kanska ":5457,"film ":5458,"säkert ":5459,"i samband med ":5460,"Krist":5461,"inte heller ":5462,"och säker":5463,"ningen är ":5464,"distribu":5465,"Vol":5466,"represent":5467,"vi inte ":5468,"hänsyn ":5469,"Medan ":5470,"kontakt":5471,"Hotell ":5472,"pengar.\n":5473,"medlemmar":5474,"projekt":5475,"fattig":5476,"IV":5477,"Mag":5478,"mor ":5479,"förb":5480,"rådets ":5481,"premi":5482,"Samtidigt ":5483,"Välj ":5484,"ursprungliga ":5485,"trygg":5486,"Col":5487,"Fol":5488,"Mil":5489,"kter.\n":5490,"har det ":5491,"massa ":5492,"av sina ":5493,"komplet":5494,"cy ":5495,"lagt ":5496,"splat":5497,"ingenting ":5498,"Gö":5499,"licer":5500,"an av ":5501,"i sitt ":5502,"tillåter ":5503,"er om ":5504,"och de ":5505,"rim":5506,"rafi":5507,"möta ":5508,"San":5509,"tok":5510," slut":5511,"skada ":5512,"äld":5513,"ade sig ":5514,"mannen ":5515,"menar ":5516,"rapport ":5517,"betydande ":5518,"… ":5519,"erades ":5520,"ationen.\n":5521,"hjärn":5522,"Någon ":5523," dagar ":5524,"Natur":5525,"där det ":5526,"ergi":5527,"hållbar":5528,"välj":5529,"kret":5530,"satta ":5531,"enkla ":5532,"Finns det ":5533,"säkra ":5534,"net":5535,"riska ":5536,"du vill ":5537,"års":5538,"familj ":5539,"avslöj":5540,"och/eller ":5541,"aut":5542,"yn ":5543,"för din ":5544,"ansök":5545,"tid och ":5546,"produktion ":5547,"drif":5548,"nödvändiga ":5549,"kommissionen ":5550,"engelska ":5551,"ep":5552,"s: ":5553,"förrä":5554,"bevis ":5555,"mil":5556,"Jag tycker ":5557,"nytta ":5558,"blog":5559,"dokument ":5560,"Själv":5561,"Skri":5562,"ang ":5563,"och andra ":5564,"ta bort ":5565,"räkna":5566,"sektor":5567,"uppfyll":5568,"fotboll":5569,"Net":5570,"äck":5571,"det första ":5572,"at av ":5573,"civil":5574,"överra":5575,"ordin":5576,"Fören":5577,"länder.\n":5578,"priori":5579,"tjänst ":5580,"lägg ":5581,"häng":5582,"mol":5583,"rategi":5584,"der av ":5585,"kommer vi ":5586,"man.\n":5587,"får du ":5588,"funktion ":5589,"Sol":5590,"vikt":5591,"tro ":5592,"aktie":5593,"bli en ":5594,"hem.\n":5595,"freds":5596,"prata ":5597,"Låt oss ":5598,"Ass":5599,"och jag ":5600,"möjligheten ":5601,"jour":5602,"handels":5603,"Kor":5604,"mar ":5605,"nen.\n":5606,"utföra ":5607,"vanligt ":5608,"levande ":5609,"gusti":5610," :)\n":5611,"relaterade ":5612,"Ke":5613,"Val":5614,"Vill":5615,"out":5616,"skön":5617,"förny":5618,"tillhör ":5619,"na att ":5620,"sper":5621,"tet med ":5622,"över.\n":5623,"jordbruk":5624,"maxim":5625,"betrakt":5626,"Ter":5627,"imm":5628,"tum":5629,"vac":5630,"om i ":5631,"agerar ":5632,"mer och ":5633,"tjänste":5634,"ingar som ":5635,"Engl":5636,"misstän":5637,"verktyg ":5638,"intelligen":5639,"Gam":5640,"tio":5641,"tig ":5642,"de till ":5643,"e är ":5644,"elser ":5645,"rott":5646,"partner ":5647,"inrikt":5648,"s (":5649,"bell":5650,"Jag kan ":5651,"ig.\n":5652,"upp i ":5653,"När jag ":5654,"tigt ":5655,"ervice":5656,"bom":5657,"kn":5658,"y\n":5659,"oren":5660,"ade, ":5661,"Institu":5662,"bidrag":5663,"Cl":5664,"åtta ":5665,"tes":5666,"tittar ":5667,", ett ":5668,"av dem ":5669,"är\n":5670,"ska vara ":5671,"ade att ":5672,"rätt.\n":5673,"Herr":5674,"mellertid ":5675,"Gol":5676,"födelse":5677,"lemen":5678,"stisk ":5679,"följande":5680,"marknaden.\n":5681,"konsekven":5682,"aden ":5683,"sön":5684,"inträff":5685,"an som ":5686,"dryck":5687,"ad, ":5688,"ares ":5689,"Under":5690,"innan du ":5691,"till sin ":5692,"....\n":5693,"bröll":5694,"njuta av ":5695,"e s":5696,"fing":5697,"ins":5698,"introdu":5699,"aga ":5700,"lig och ":5701,"program ":5702,"säkerhet":5703,"Proje":5704,"impon":5705,"medlemsstaterna ":5706,"> ":5707,"Mc":5708,"dyr":5709,"tgär":5710,"inal":5711,"av det ":5712,"på denna ":5713,"stel":5714,"kanal":5715,"rädsl":5716,"centrala ":5717,"plöts":5718,"ös ":5719,"rik ":5720,"are s":5721,"produkten ":5722,"hände ":5723,"aktör":5724,"buss":5725,"End":5726,"förståelse ":5727,"definiti":5728," timmar ":5729,"k\n":5730,"mjöl":5731,"ange ":5732,"ar?\n":5733,"allde":5734,"så många ":5735,"minskar ":5736,"illi":5737,"innehåll ":5738,"att det finns ":5739,"aldrig":5740,"version ":5741,"närmare ":5742,"skicka ":5743,"lanser":5744,"stödja ":5745,"anges i ":5746,"figur":5747,"Vet ":5748,"dock":5749,"fen":5750,"en, och ":5751,"i din ":5752,"dia":5753,"med det ":5754,"inte en ":5755,"komst ":5756,"givare ":5757,"med st":5758,"193":5759,"spelar ":5760,"företag som ":5761,"bok ":5762,"kraft ":5763,"främsta ":5764,"skott ":5765,"splan":5766,"hämt":5767,"transport":5768,"skyldig":5769,"berörda ":5770,"reda på ":5771,"Don":5772,"ET":5773,"Fri":5774,"flik":5775,"kasin":5776,"obe":5777,"sent":5778,"us.\n":5779,"int ":5780,", som s":5781,"löp":5782,"att du kan ":5783,"rapporter":5784,"fråga om ":5785,"lätt att ":5786,"motiver":5787,"Pol":5788,"åsi":5789,"åter ":5790,"er kan ":5791,"i för":5792,"i detta ":5793,"ror ":5794,"nali":5795,"ade på ":5796,"da och ":5797,"samarbete ":5798,"serad ":5799,"dagliga ":5800,"bil ":5801,"lön":5802,"alltför ":5803,"myndigheter ":5804,"officiella ":5805,"Bra ":5806,"bord":5807,"hud":5808,"tack ":5809,"ww":5810,"des":5811,"ommar":5812,", kan ":5813,"ärka ":5814,"som jag ":5815,"slo":5816,"resul":5817,"fallet ":5818,"naturligtvis ":5819,"Använd":5820,"konsumen":5821,".c":5822,"Br":5823,"Por":5824,"tilldel":5825,"utred":5826,"rasi":5827,"hållbar ":5828,"vann ":5829,"uppfyller ":5830,"traditionella ":5831,"infektion":5832,"är så ":5833,"nack":5834,"vad de ":5835,"utvecklingen ":5836,"augusti":5837,"systemet ":5838,"Kommission":5839,"frekv":5840,"april ":5841,"tve":5842,"tiker":5843,"skrä":5844,"elsen ":5845,"il ":5846,"juster":5847,"åren ":5848,"aktig":5849,"erna och ":5850,"får inte ":5851,"webbplatsen ":5852,"video":5853,"cancer":5854,"lita ":5855,"undrar ":5856,"alla.\n":5857,"turi":5858,"190":5859,"Restaur":5860,"fall.\n":5861,"Jag skulle ":5862,"rigt ":5863,"industr":5864," studen":5865,"relevanta ":5866,"jur":5867,"ådana ":5868,"ong ":5869,"as som ":5870,"säm":5871,"at en ":5872,"ger dig ":5873,"beror ":5874,"skap.\n":5875,"och se ":5876,"våld":5877,"temperatur":5878,"mera ":5879,"’s ":5880,"lipp":5881,"dig själv ":5882,"på st":5883,"Men det är ":5884,"döds":5885,"få en ":5886,", men det ":5887,"som ska ":5888,"effektiva ":5889,"musik ":5890,"verktyg":5891,"nande":5892,"over":5893,"uppdrag ":5894,"i samma ":5895,"At":5896,"lock":5897,"rull":5898,"n för ":5899,"läst ":5900," skil":5901,"kry":5902,"ningen i ":5903,"integri":5904,"driver ":5905,"skulle vara ":5906,"tror att ":5907,"någonting ":5908,"beroende på ":5909,"perfekta ":5910,"yfte att ":5911,"favorit":5912,"Behöver ":5913,"Gå ":5914,"muni":5915,"erna":5916,"reklam":5917,"lek.\n":5918,"för att hjälpa ":5919,"och så ":5920,"kolla ":5921,"området.\n":5922,"straff":5923,"fysiska ":5924,"eveneman":5925,"75":5926,"Mas":5927,"strä":5928,"spor":5929,"rål":5930,"veckan ":5931,"tid att ":5932,"het\n":5933,"ledar":5934,"Arbet":5935,"förbättr":5936,"Reg":5937,"fina ":5938,"etc":5939,"dokumen":5940,"ekonomisk ":5941,"identifiera ":5942,"kategori":5943,"By":5944,"Tjän":5945,"Ur":5946,"fet":5947,"scen":5948,"inse":5949,"as för ":5950,"ande för ":5951,"mos":5952,"seme":5953,"Innan ":5954," är ett ":5955,"smä":5956,"lärt ":5957,"organisation ":5958,"bryta ":5959,"dubbel":5960,"Poli":5961,"ts.\n":5962,"avläg":5963,"sida.\n":5964,"som vi ":5965,"separ":5966,"hittade ":5967,"artikel":5968,"speciellt ":5969,"förutsätt":5970,"landet.\n":5971,"terrori":5972,"förrän ":5973,"\" och ":5974,"AC":5975,"Blo":5976,"Deras ":5977,"by ":5978,"kör ":5979,"infra":5980,"värme":5981,"ningen och ":5982,"centrum ":5983,"sprodu":5984,"tydligt ":5985,"hand om ":5986,"styrel":5987,"sm ":5988,"en för":5989,"kommer till ":5990,"blin":5991,"ryska ":5992,"effekt ":5993,"vinner ":5994,"respekti":5995,"november ":5996,"Kun":5997,"ansträng":5998,"stod ":5999,"leg":6000,"at på ":6001,"arna och ":6002,", och det ":6003,"finna ":6004,"ledare ":6005,"International ":6006,"uppnå":6007,"Bri":6008,"ID":6009,"bär ":6010,"mma ":6011,"invån":6012,"utbu":6013,"ger en ":6014,"sig i ":6015,"personlig ":6016,"forskare ":6017,"dåligt ":6018,"hörde ":6019,"kontakt med ":6020,"??\n":6021,"ling":6022,"lut ":6023,"åg ":6024,"åt.\n":6025,"ar är ":6026,"vita ":6027,"adress":6028,"minim":6029,"ansö":6030,"mellan":6031,"design":6032,"uppfylla ":6033,"ageman":6034,"elektroni":6035,"Sen ":6036,"aj":6037,"wo":6038,"t till ":6039,"äntligen ":6040,"jag kan ":6041,"året.\n":6042,"sef":6043,"taget ":6044,"foto":6045,"land och ":6046,"omedelbart ":6047,"Result":6048,"tåg":6049,"t eller ":6050,"akademi":6051,"för att göra ":6052,"are?\n":6053,"mens ":6054,"ström":6055,"datab":6056," samman":6057,"hus.\n":6058,"kontor":6059,"rum.\n":6060,"slutet ":6061,"minne":6062,"timm":6063,"sky":6064,"ordet ":6065,"lighet.\n":6066,"utsi":6067,"älska ":6068,"upp och ":6069,"formen ":6070,"150":6071,"identi":6072,"diskus":6073,"unionens ":6074,"president ":6075,"arkite":6076,"ritori":6077,"AD":6078,"ST":6079,"jack":6080,"r.\n":6081,"tin":6082,"tju":6083,"orden":6084," skad":6085,"cien":6086,"i sina ":6087,"aktivt ":6088,"hade en ":6089,"lands":6090," km ":6091,"Välkom":6092,"ansökan ":6093,"Mina ":6094,"Tre":6095,"lun":6096,"tan ":6097,"den på ":6098,"or är ":6099,"at för ":6100,"doll":6101,"företags":6102,"rygg":6103,"tanke ":6104,"bestämma ":6105,"organisationer ":6106,"Hotell nära ":6107,"Twit":6108,"till din ":6109,"alli":6110,"ter för ":6111,"koncep":6112,"chans ":6113,"ktu":6114,"Inget ":6115,"arbeta med ":6116,"någon ann":6117,"att det var ":6118,"applik":6119,"genomföra ":6120,"häst":6121,"Met":6122,"Pu":6123,"ifrån":6124,", det är ":6125,"legi":6126,"rådet ":6127,"efter att ha ":6128,"ningsvis ":6129,"behöver inte ":6130,"komplex":6131,"anledning ":6132,"automatiskt ":6133,"Bel":6134,"IF":6135,"Svar":6136,"t en ":6137," sa ":6138,"att inte ":6139,"onom":6140,"ett bra ":6141,"kryp":6142,"erna är ":6143,"kommitté":6144,"precis som ":6145,"landets ":6146,"AM":6147,"Air":6148,"Musi":6149,", för ":6150,"från det ":6151,"ställer ":6152,"kvår":6153,"kvalitet ":6154,"Läs mer om ":6155,"iPhon":6156,"titel":6157,"sk s":6158,"kommer inte att ":6159,"tren":6160,"Först ":6161,"ensstäm":6162,"University ":6163,"demokrati":6164,"genomsnitt":6165,"Fort":6166,"set":6167,"den bästa ":6168,"ningen, ":6169,"fix":6170,"pool":6171,", ska ":6172,"hända ":6173,"privat ":6174,"starkt ":6175,"Är du ":6176,"system.\n":6177,", skulle ":6178,"afri":6179,"emellertid ":6180,"sjö":6181,"anden.\n":6182,"ar vi ":6183,"om han ":6184,"i ditt ":6185,", då ":6186,"det på ":6187,"ligt, ":6188,"ningens ":6189,"ett antal ":6190,"års ":6191,"ressi":6192,"191":6193,"Detta är en ":6194,"Båda ":6195,"fann ":6196,"faktum ":6197,"gh":6198,"rent ":6199,"små":6200,"a som ":6201,"orig":6202,"avtalet ":6203,"reakti":6204,"cho":6205,"kön":6206,"tank":6207,"ögon ":6208,"visar att ":6209,"Endast ":6210,"Syd":6211,"sur":6212," sina ":6213,"list":6214,"territori":6215,"har fått ":6216,"bert ":6217,"mani":6218,"garanti":6219,"Coll":6220,"billig":6221,"sälja ":6222,"vok":6223,"vore ":6224,"depres":6225,"en ska ":6226,"änk":6227,"ingredi":6228,"former ":6229,"byr":6230,"gör att ":6231,"lov":6232,"gällande ":6233,"sov":6234,"rummet ":6235,"Tror ":6236,"intervju":6237,"New York ":6238,"vunni":6239,"tusentals ":6240,"!”\n":6241,"gel":6242,"job":6243,"derade ":6244,"arna":6245,"skjut":6246,"i L":6247,"recen":6248,"....":6249,"erna för ":6250,"engageman":6251,"förlora ":6252,"annorlunda ":6253,"32":6254,"bum":6255,"smi":6256,"sked":6257,"vända ":6258,"var att ":6259,"värda ":6260,"fullstän":6261,"längre.\n":6262,"öppnar ":6263,"klicka ":6264,"central":6265,"Hög":6266,"sinn":6267,"infly":6268,"den nya ":6269,"har gjort ":6270,"as\n":6271,"verket ":6272,"utveckling.\n":6273,"kallad ":6274,"kvalit":6275,"fram emot ":6276,"Något ":6277,"fantastisk ":6278,"gransk":6279,"möjligt för ":6280,"spännande ":6281,"Offi":6282,"Glo":6283,"iv":6284,"i sk":6285,"zz":6286,"zon":6287,"på alla ":6288,"uth":6289,"ade han ":6290,"heten":6291,"dram":6292,"kunder.\n":6293,"nabbare ":6294," december ":6295,"Appl":6296,"ber.\n":6297,"Öster":6298,"är, ":6299,"terad ":6300,"riktiga ":6301,"fron":6302,"konsta":6303,"sedan.\n":6304,"väsent":6305,"experi":6306,"resten av ":6307,"En av ":6308,"farty":6309,"lys":6310,"säkerställa ":6311,"visst ":6312,"artikl":6313,"kristna ":6314,"400":6315,"IC":6316,"OR":6317,"oll":6318,"” och ":6319,"ers":6320,"oniska ":6321,"gör.\n":6322,"vetenskapliga ":6323," % av ":6324,"produkter.\n":6325,"modern ":6326,"mycket.\n":6327,"Ban":6328,"Bor":6329,"la":6330,"er!\n":6331,"erats ":6332,"et till ":6333,"repar":6334,"vara.\n":6335,"genom s":6336,"överensstäm":6337,"ödra ":6338,"räcker ":6339,"lämnade ":6340,"slags ":6341,"överrask":6342,"t: ":6343,"n som ":6344,"inled":6345,"erkän":6346,"else.\n":6347,"jag att ":6348,"plo":6349,"översätt":6350,"kan.\n":6351,"trepren":6352,"världen":6353,"köpte ":6354,"Europa.\n":6355,"ssiga ":6356,"specifika ":6357,"AP":6358,"Mer":6359,"Mål":6360,"ej":6361,"för dig":6362,"franska ":6363,"alls ":6364,"eller andra ":6365,"het i ":6366,"ynner":6367,"berättade ":6368,"projektet ":6369,"Genom ":6370,"morgon ":6371,"noggran":6372,"avsnitt ":6373,"+ ":6374,"-å":6375,"Van":6376,"band":6377,"can ":6378,"despel":6379,"vitam":6380,"uppho":6381,"ning med ":6382,"exam":6383,"överen":6384,"Den första ":6385,"staterna ":6386,"abor":6387,"företagets ":6388,"stark ":6389,"hjärta ":6390,"Utan ":6391,"produkter och ":6392,"expon":6393,"World ":6394," ju":6395,"a. ":6396,"de, ":6397,"dimen":6398,"hur det ":6399,"växer ":6400,"gruppen ":6401,"orsaka ":6402,"meddelande ":6403,"dokument":6404,"militär":6405,"brittiska ":6406,"kampanj":6407,"Jon":6408,"bära ":6409,"ös":6410,"stav":6411,"skop":6412,"als ":6413,"den andra ":6414,"spon":6415,"att\n":6416,"Den är ":6417,"bakteri":6418,"dotter":6419,"land, ":6420,"leverera ":6421,"skydds":6422,"iness ":6423,"tredje par":6424,"nyckel":6425,"Afri":6426,"Eli":6427,"National ":6428,"sten.\n":6429,"ting":6430,"omgiv":6431,"förbin":6432,"fördelar ":6433,"fördrag":6434,"kan göra ":6435,"En annan ":6436,"befintliga ":6437,"B-":6438,"PR":6439,"amb":6440,"uppdrag":6441,"totalt ":6442,"frågar ":6443,"ades av ":6444,"vatten.\n":6445," minuter ":6446,"-,":6447,"Tor":6448,"omo":6449,"ledes ":6450,"chans":6451,"klusi":6452,"dricka ":6453,"De s":6454,"ingar i ":6455,"längs ":6456,"gå till ":6457,"jorden ":6458,"rekommend":6459,"journali":6460,"33":6461,"Eg":6462,"Op":6463,"prå":6464,"församl":6465,"al och ":6466,"värd ":6467,"arna är ":6468,"vad det ":6469,"ke.\n":6470,"erbjudan":6471,"grund ":6472,"Just ":6473,"Det här är ":6474,"otroligt ":6475,"gravidi":6476,"något.\n":6477," ”":6478,"!\"\n":6479,"ffr":6480,"kaf":6481,"tj":6482,"tet\n":6483,"en liten ":6484,"ing är ":6485,"delen ":6486,"or för ":6487,"poäng":6488,"hur många ":6489,"ge dig ":6490,"elever":6491,"Tidig":6492,"offentlig":6493,"Studi":6494,"DN":6495,"Sal":6496,"ct ":6497,"vla ":6498,"inom s":6499,"orna.\n":6500,"apo":6501,"steg":6502,"byta ":6503,"domin":6504,"ografi":6505,"relativt ":6506,"lyf":6507,"majori":6508,"respektive ":6509,"Ham":6510,"Soci":6511,"shi":6512,"– och ":6513,"atta ":6514,"äljer ":6515,"jag vill ":6516,"för att vara ":6517,"vårig":6518,"växande ":6519,"myndigheten ":6520,"Bästa ":6521," K":6522,"fred":6523,"Åter":6524,"aren.\n":6525,"ene":6526,"bedö":6527,"dubbl":6528,"klini":6529,"in på ":6530,"sig att ":6531,"antag ":6532,"följd av ":6533,"blir det ":6534,"väg.\n":6535,"berätt":6536,"dålig ":6537,"ligger i ":6538,"Man kan ":6539,"aktuella ":6540,"extremt ":6541,"Hjäl":6542,"hag":6543,"ks ":6544,"d (":6545,"refle":6546,"vi ska ":6547,"med din ":6548,"kropps":6549,"tillsammans.\n":6550,"profess":6551,"tänka på ":6552,"rättsliga ":6553,"Ab":6554,"Bit":6555,"jung":6556,"o-":6557,"sle":6558,"särskilda ":6559,"för mycket ":6560,"sson ":6561,"exu":6562,"tet är ":6563,"alla andra ":6564,"nes":6565,"parker":6566,"Allt":6567,"myndigheterna ":6568,"föddes ":6569,"bolaget ":6570,"Medlem":6571,"99":6572,"Dom":6573,"når ":6574,"ål ":6575,"rese":6576,"Inga ":6577,"andet.\n":6578,"möte ":6579,"I en ":6580,"relation ":6581,"älskade ":6582,"Cam":6583,"do ":6584,"pok":6585,"tand":6586,"er, och ":6587,"förändra ":6588,"tillför":6589,"till och ":6590,"konflik":6591,"prog":6592,"Vid":6593,"New":6594,"kroppen ":6595,"ögonblick":6596,"populär":6597,"behövde ":6598,"Ta":6599,"i\n":6600,"i hela ":6601,"förne":6602,"från ett ":6603,"Inform":6604,"är en av de ":6605,"Skap":6606,"passager":6607,"pecifi":6608,"pratar ":6609,"fel.\n":6610,"Precis ":6611,"normalt ":6612,"Hela ":6613,"Får ":6614,"ON":6615,"Rom":6616,"Tex":6617,"l.\n":6618,"lån ":6619,"de första ":6620,"vision ":6621,"det bästa ":6622,"bevis":6623,"ning om ":6624,"kt för ":6625,"Viss":6626,"ön.\n":6627,"föremål ":6628,"beläg":6629,"ansik":6630,"ladda ":6631,"Centr":6632,"liggande ":6633,"ater ":6634,"sk.\n":6635,"sker ":6636,"väv":6637,"ades.\n":6638,"stival":6639,"dem att ":6640,"effekter ":6641,"används för att ":6642,"Sen":6643,"cent":6644,"hade s":6645,"pil":6646,"med i ":6647,"kan ha ":6648,"vid en ":6649,"ce.\n":6650,"frivill":6651,"tillbaka.\n":6652,"behov.\n":6653,"Goog":6654,"mångfal":6655,"bröllop":6656,"last":6657,"e att ":6658,"förpack":6659,"beskriver ":6660,"länderna ":6661,"förstö":6662,"sätt som ":6663,"barn och ":6664,"position ":6665,"positiva ":6666,"dyn":6667,"pat":6668,"tter.\n":6669,"en, som ":6670,"st\n":6671,"ttr":6672,"biljet":6673,"värld ":6674,"heter och ":6675,"metall":6676,"metoder ":6677,"ervice ":6678,"professionella ":6679," skillnad ":6680,"Blu":6681,"Kvinn":6682,"jap":6683,"las":6684,"enkel ":6685,"de i ":6686,"ning: ":6687,"ationer och ":6688,"tyska ":6689,"us, ":6690,"ningar för ":6691,"demon":6692,"oblig":6693,"tänkt ":6694,"problemet ":6695,"telse ":6696,"klipp":6697,"runt om i ":6698,"a eller ":6699,"atti":6700,"tern ":6701,"varu":6702,"uppstår ":6703,"framtiden ":6704,"online":6705,"nivå.\n":6706," % ":6707,"vuxna ":6708,"ames ":6709,"yrkes":6710,"Microsoft ":6711,") som ":6712,"Dri":6713,"Hade ":6714,"Pal":6715,"iz":6716,"tin ":6717,"ings ":6718,"ambi":6719,"år, ":6720,"när den ":6721,"löf":6722,"Författ":6723,"längre":6724,"ålder":6725,"katastro":6726,"Fy":6727,"Norg":6728,"far ":6729,"är också ":6730,"sk och ":6731,"disk ":6732,"Jag hade ":6733,"annat.\n":6734,"pröv":6735,"isol":6736,"producera ":6737,"personuppgif":6738,"blev":6739,"död ":6740,"Och det ":6741,"val av ":6742,"säkerställa att ":6743," G":6744,"Mell":6745,"Pari":6746,"met.\n":6747,"utsträck":6748,"nades ":6749,"var och ":6750,"prova ":6751,"hur du ":6752,"kore":6753,"tjänster.\n":6754," samhäll":6755,"klara ":6756,"universite":6757,"princip":6758,"Lag":6759,"tet för ":6760,"dags ":6761,"ser för ":6762,"ningar av ":6763,"saker.\n":6764,"gången.\n":6765,"vet att ":6766,"valda ":6767,"att det inte ":6768,"namn.\n":6769,"180":6770,"däremot ":6771," C":6772,"PS":6773,"gg ":6774,"sar ":6775,"vån ":6776,"är du ":6777,"skog":6778,"d mot ":6779,"e (":6780,"varandra":6781,"ande i ":6782," stor":6783,"möter ":6784,"så.\n":6785,"ut och ":6786,"skrimin":6787,"sig själv":6788,"Hur många ":6789,"er som är ":6790,"nerv":6791,"Nej, ":6792,"Före":6793,"kyrkan ":6794,"betydligt ":6795,"italien":6796,"Apple ":6797,"överenskom":6798,"EM":6799,"Kr":6800,"ibland":6801,"o och ":6802,"uvida ":6803,"va":6804,"t över ":6805,"de största ":6806,"in\n":6807,"insi":6808,"bevilj":6809,"fran":6810,"raff":6811,"var den ":6812,"minister ":6813,"handel ":6814,"Du måste ":6815,"192":6816,"lämnas ":6817,"Ditt ":6818,"funktions":6819,"ering och ":6820,"sproje":6821,"multi":6822,"skatte":6823,"medveten ":6824," timmar":6825,"SS":6826,"Syf":6827,"gående ":6828,"hår ":6829,"kus":6830,"År":6831,"att.\n":6832,"erad":6833,"om det är ":6834,"de kan ":6835,"ta över ":6836,"från de ":6837,"Jag gillar ":6838,"kriteri":6839,"beräkna":6840,"stark":6841,"ärskild ":6842,"Gud.\n":6843,"medicinska ":6844,"internationellt ":6845,"definitivt ":6846,"Iställ":6847,"öm ":6848,"ere":6849,"skall":6850,"terande ":6851,"Förutom ":6852,"information.\n":6853,"språk ":6854,"lämpliga ":6855,"letar ":6856," men ":6857,"Dr":6858,"Far":6859,"pli":6860,"s!\n":6861,"sven":6862,"de att ":6863,"gene":6864,"are: ":6865,"kommer att bli ":6866,"länder":6867,"utvecklings":6868,"belö":6869,"orsakar ":6870,"förhållanden ":6871," september ":6872,"T-":6873,"das ":6874,"hade":6875,"ph":6876,"atmos":6877,"upplever ":6878,"perman":6879,"Vi vill ":6880,"Andro":6881,"Försök":6882,"fortsatt ":6883,"växa ":6884,"folket ":6885,"annat än ":6886,"punkten ":6887,"effektiv ":6888,"ramen för ":6889," H":6890," januari ":6891,"/EG":6892,"Få ":6893,"tör":6894,"ugg":6895,"om ett ":6896,"listan ":6897,"redu":6898,"reali":6899,"ras.\n":6900,"vara på ":6901,"ningar i ":6902,"vad vi ":6903,"verksamheten ":6904,"främj":6905,"Samma ":6906,"leda till ":6907,"ingredien":6908,"E-":6909,"dras ":6910,"sel":6911,"ys ":6912,"an?\n":6913,"argum":6914," sade ":6915,"om vi ":6916,"är o":6917,"varm":6918,"örja ":6919,"exklusi":6920,"sen av ":6921," skapar ":6922,"EG) nr ":6923,"fortsätter att ":6924,"car":6925,"y och ":6926,"et!\n":6927,"samtidigt ":6928,"sin egen ":6929,"högst ":6930,"tankar ":6931,"ologisk ":6932,"skillnad ":6933,"människors ":6934,"potentiella ":6935,"negativa ":6936,"Obam":6937,"motstånd":6938,"fog":6939,"sade ":6940,"tvär":6941,"skal":6942,"av våra ":6943,"given ":6944,"ökade ":6945,"ledam":6946,"miljon":6947,"eftersom det ":6948,"betydelse ":6949,"instrument ":6950,"sperio":6951,"IM":6952,"Ja ":6953,"Kat":6954,"Mor":6955,"Wil":6956,"b) ":6957,"gyn":6958,"tål":6959,"dest":6960,"tillbr":6961,"alen ":6962,"um, ":6963,"såtgär":6964,"- och s":6965,"undantag ":6966,"faller ":6967,"volver":6968,"restaurang":6969,"Därefter ":6970,"Måste ":6971,"Gra":6972,"My":6973,"det\n":6974,"en: ":6975,"sse":6976,"olj":6977,"läge ":6978,"vänner.\n":6979,"mindre":6980,"berg ":6981,"framför":6982,"ut som ":6983,"gör en ":6984,"genom en ":6985,"Och jag ":6986,"Han var ":6987,"Vad är det ":6988,"ålder ":6989,"forskning":6990,"planerar ":6991,"punkter ":6992,"dock inte ":6993,"doktor":6994,"tegi ":6995,"ologi ":6996,"redovis":6997,"Rö":6998,"ik":6999,"et med ":7000,"för mig ":7001,"den mest ":7002,"år sedan ":7003,"ökat ":7004,"han är ":7005,"råd ":7006,"sig på ":7007,"förstör":7008,"bruk ":7009,"information som ":7010,"upptäcka ":7011,"F ":7012,"aten ":7013,"kass":7014,"entrepren":7015,"stre":7016,"föroren":7017,"extra":7018,"aktiv ":7019,"frågor.\n":7020,"endera ":7021,"kapitali":7022,"Webb":7023,"Stockholm":7024,"Restauranger ":7025,"(och ":7026,"I-":7027,"Stre":7028,"kok":7029,"lör":7030,"ted ":7031,"tips ":7032,"är vi ":7033,"förfl":7034,"diskrimin":7035,"den till ":7036,"den mellan ":7037,"upprep":7038,"Jag hoppas ":7039,"symp":7040,"Det är därför ":7041,"användningen av ":7042,"spel.\n":7043,"jobb.\n":7044,"Israel ":7045,"-talet.\n":7046,"berömda ":7047,"Ed":7048,"F-":7049,"Sök":7050,"UN":7051,"mal":7052,"phon":7053,"ockan ":7054," skrev ":7055,"kommer inte ":7056,"fien":7057,"manu":7058,"i syfte att ":7059,"någon som ":7060,"betalnings":7061,"melse ":7062,"Bibel":7063,"istället ":7064,"avlägs":7065,"Vin":7066,"X ":7067,"tlig":7068,"att komma ":7069,"avser ":7070,"när hon ":7071,"ut på ":7072,"personer.\n":7073," situ":7074,"utbildning ":7075,"förmån":7076,"global ":7077,"Wal":7078,"co ":7079,"da, ":7080,"yll":7081,"teor":7082,"förbruk":7083,"utvärder":7084,"gick":7085,"samla ":7086,"are är ":7087,"ande st":7088,"annars ":7089,"glada ":7090,"linje ":7091,"idrott":7092,"USA:s ":7093,"försökte ":7094,"tabl":7095,"studie ":7096,"begränsad ":7097,"Business ":7098,"Klicka ":7099,"Tri":7100,"i världen ":7101,"na av ":7102,"som hel":7103,"dags att ":7104,"mann":7105,"ande som ":7106,"därför att ":7107,"spegl":7108,"går att ":7109,"ace ":7110,"barnen ":7111,"of the ":7112,"bestämmer ":7113,"Chri":7114,"Plan":7115,"plattform":7116,"därefter ":7117,"All ":7118,"celler ":7119,"cal ":7120,"nom":7121,"sjun":7122,"ata ":7123,"erna, ":7124,"varken ":7125,"ley ":7126,"ktori":7127,"innehålla ":7128,"mig, ":7129,"historia.\n":7130,"tillhandahåller ":7131,"Håll ":7132,"rutin":7133,"avgörande ":7134,".”":7135,"Hem":7136,"gan":7137,"i skol":7138,"osi":7139,"tten ":7140," svar":7141,"i vår ":7142,"behåll":7143,"het för ":7144,"stiga ":7145,"datum ":7146,"trafik":7147,"då?\n":7148,"pojk":7149,"februari ":7150,"34":7151,"EL":7152,"Jack":7153,"pani":7154,"rop":7155,"ter på ":7156,"migr":7157,"spun":7158,"för att ta ":7159,"är en del av ":7160,"vanlig ":7161,"föreställ":7162,"process ":7163,"långsi":7164,"resultat.\n":7165,"gemensamt ":7166,"super":7167,"fokusera ":7168,"Onlin":7169," maj ":7170,"War":7171,"o\n":7172,"ution ":7173,"ätta ":7174,"öster":7175,"tider ":7176,"an för ":7177,"amma ":7178,"char":7179,"sak ":7180,"abel":7181,"gjorda ":7182,"Holl":7183,"mäst":7184,"förklara ":7185,"hundrat":7186,"fjärde ":7187,"Europaparlamentet ":7188,"Välkommen ":7189,"Egyp":7190,"38":7191,"Glö":7192,"].\n":7193,"” (":7194,"tida ":7195,", inklusive ":7196,"utgång":7197,"kan hjälpa ":7198,"upptag":7199,"du att ":7200,"dry":7201,"ligt och ":7202,"många olika ":7203,"fortsat":7204,"relater":7205,"Hou":7206,"verksamhet.\n":7207,"minns ":7208,"fordon ":7209,"fokuser":7210,"bekräft":7211,"Turki":7212,"Micha":7213,"instruktion":7214,"seffe":7215,"jobbet":7216,"Restauranger i närheten av ":7217,"svag":7218,"om st":7219,"tidiga ":7220,"vik":7221,"liga, ":7222,"den har ":7223,"bekan":7224,"ursä":7225,"are har ":7226,"at att ":7227,"han har ":7228,"överens ":7229,"strän":7230,"lämnat ":7231,"dåliga ":7232,"struktur ":7233,"hundra":7234,"vem som ":7235,"arabi":7236,"kinesiska ":7237," måna":7238,"ui":7239,"van ":7240,"ersätta ":7241,"delse ":7242,"slå ":7243,"man inte ":7244,"ned ":7245,"varje dag.\n":7246,"öppen ":7247,"empl":7248,"medlemsstat ":7249,"vattnet ":7250,"ling ":7251,"smen ":7252,"ana ":7253,"brett ":7254,"brand":7255,"framställ":7256,"marknad":7257,"vidta ":7258,"Om du har ":7259,"ljus ":7260,"effektiv":7261,"allmänhet ":7262,"Tyvärr ":7263,"hämta ":7264,"tvungen att ":7265," juni ":7266,"Fast ":7267,"Kär":7268,"har.\n":7269,"kak":7270,"sorg":7271,"atur ":7272,"tillfreds":7273,"al-":7274,"bevar":7275,"ure ":7276,"för att skydda ":7277,"verkställ":7278,"känne":7279,"framgång ":7280,"ut i ":7281,"ts i ":7282,"sättningen ":7283,"ades i ":7284,"skulle kunna ":7285,"EU ":7286,"Jag ska ":7287,"cykl":7288,"Ba":7289,"ön ":7290,"at\n":7291,"jag var ":7292,"tusen ":7293,"producen":7294,"webbläs":7295,"och skap":7296," [+":7297,"berättig":7298,"Fråga ":7299,"försäkrings":7300,"karriär ":7301,"Israels ":7302,"Bitco":7303,"37":7304,"48":7305,"Dis":7306,"bad":7307,"gym":7308,"ymp":7309,"zi":7310,"för närvarande ":7311,"rika ":7312,"beton":7313,"fir":7314,"kost ":7315,") är ":7316,"är det viktigt att ":7317,"områden.\n":7318,"af ":7319,"vad som är ":7320,"kvalificer":7321,"födda ":7322,"Internet ":7323,"fysisk ":7324,"dimension":7325,"ka, ":7326,"pale":7327,"én ":7328,"anklag":7329,"mesta ":7330,"på detta ":7331,"läkt":7332,"vara ett ":7333,"i synner":7334,"världen, ":7335,"barnet ":7336,"hundra ":7337,"brev ":7338,"London ":7339,"islam":7340,"65":7341,"Tre ":7342," snabb":7343,"nads":7344,"dig själv":7345,"resol":7346,"andra sidan ":7347,"lög":7348,"Du kommer att ":7349,"människan ":7350,"försörj":7351,"om du har ":7352,"Proble":7353,"upplevelse ":7354,"förväntas ":7355,"kommunikation ":7356,"sikt över ":7357,"huruvida ":7358,"kontinuer":7359,"koncern":7360," och s":7361,"39":7362,"Bal":7363,"Che":7364,"Casin":7365,"ec":7366,"de ska ":7367,", om ":7368,"förvar":7369,"försiktig":7370,"på väg ":7371,"som de ":7372,"årets ":7373,"känt ":7374,"Det är också ":7375," av den ":7376,"internet":7377,"allmänt ":7378,"baserat på ":7379,"Bud":7380,"Lju":7381,"arr":7382,"sikt":7383,"beskri":7384,"begrav":7385,"kan användas ":7386,"gru":7387,"med.\n":7388,"tuff":7389,"drivs ":7390,"box":7391,"får en ":7392,"föredrar ":7393,"elemen":7394,"projek":7395,"period ":7396,"europe":7397,"kläder ":7398,"osof":7399,"himmel":7400,"bonus":7401," är en ":7402,":e ":7403,"Cap":7404,"Ge ":7405,"MS":7406,"Ru":7407,"lade ":7408,"nav":7409,"söm":7410,"Öv":7411,"intä":7412,"era.\n":7413,"tillägg":7414,"fru ":7415,"ter av ":7416,"forni":7417,"värsta ":7418,"advok":7419,"bild ":7420,"överskri":7421,"ande\n":7422,"liv och ":7423,"heter som ":7424,"ändå":7425,"varje dag ":7426,"pelar ":7427,"Det finns en ":7428,"start":7429,"Coun":7430,"meddelanden ":7431,"Sveriges ":7432,"Göte":7433,"vaccin":7434," D":7435,"(S":7436,"hyd":7437,"öl":7438,"involver":7439,"anpassa ":7440,"litter":7441,"och att ":7442,"ilome":7443,"ation\n":7444,"undantag":7445,"person.\n":7446,"livss":7447,"bra för ":7448,"informationen ":7449,"bort.\n":7450,"tidigare.\n":7451,"Johan":7452,"tecken ":7453,"vacker ":7454,"lägga till ":7455,"tolk":7456," […":7457,"Spani":7458,"gröna ":7459,"ordent":7460,"Medlems":7461,"Hol":7462,"nord":7463,"v, ":7464,"album":7465,"till S":7466,"sekre":7467,"talade ":7468,"vät":7469,"bilden ":7470,"bryr ":7471,"amerikansk ":7472,"spart":7473,"Georg":7474,"cookies ":7475,"Bon":7476,"Bre":7477,"OS":7478,"Ry":7479,"ey ":7480,"ner, ":7481,"t, och ":7482,"atte":7483,"lid":7484,"att kunna ":7485,"varor ":7486,"ter är ":7487,"uppgra":7488,"delta i ":7489,"ten som ":7490,"gen, ":7491,"kommer det ":7492,"med sig ":7493,"bilaga ":7494,"Inter":7495,"ats i ":7496,"Om det ":7497,"sigt ":7498,"ster som ":7499,"e-post":7500,"lyckas ":7501,"ljud":7502,"hårt ":7503,"budskap":7504,"respek":7505,"balan":7506,"Verk":7507,"95":7508,"Asi":7509,"Bok":7510,"Bolag":7511,"iskt ":7512,"ler ":7513,"mas":7514,"åker ":7515,"inrätt":7516,"en sådan ":7517,"de bästa ":7518,"på min ":7519,"bearbet":7520,"ationer, ":7521,"minsta ":7522,"i slutet av ":7523,"skrift":7524,"lagr":7525,"borta ":7526,"publik":7527,"stöd ":7528,"Manage":7529,"Flera ":7530,"Muse":7531,"anna ":7532,"antal":7533,"att alla ":7534,"på vår ":7535,"men inte ":7536,"nedan ":7537,"underteck":7538,"många andra ":7539,"hon.\n":7540," så mycket ":7541,"Lik":7542,"besöker ":7543,"drog ":7544,"framtiden.\n":7545,"närmaste ":7546,"allvarliga ":7547,"världskri":7548,"kandida":7549,"plötsligt ":7550,"diskussion":7551,"Ele":7552,"Hy":7553,"La":7554,"Lyck":7555,"nju":7556,"ow":7557,"äga ":7558,"erade":7559,"er, som ":7560,"skull":7561,"och har ":7562,"lighet":7563,"agu":7564,"ade av ":7565,"var inte ":7566,"at till ":7567,"blick ":7568,") i ":7569,"närings":7570,"återupp":7571,"familj.\n":7572,"mörd":7573,"kultur ":7574," [+]\n":7575,"120":7576,"Willi":7577,"använt ":7578,"beror på ":7579,"ts av ":7580,"utvecklas ":7581,"dom.\n":7582,"drog":7583,"risk för ":7584,"Huv":7585,"Ben":7586,"Mad":7587,"larna ":7588,"tull":7589,"inbju":7590,"skrev ":7591,"förutom ":7592,"vistel":7593,"äls":7594,"ing för ":7595,"andras ":7596,"slän":7597," skär":7598,"ser\n":7599,"använde ":7600,"förstär":7601,"dotter ":7602,"val.\n":7603,"komma att ":7604,"utbildnings":7605,"hindrar ":7606,"webbplatser ":7607,"nationell ":7608,"FN:s ":7609,"mekanis":7610,"utforska ":7611,"Glob":7612," T":7613,"Ser":7614,"cin ":7615,"s- och ":7616,"ink":7617," själva ":7618,"i att ":7619,"i mitt ":7620,"ropp":7621,"ssel":7622,"tt på ":7623,"sprid":7624,"släng":7625,"ligt för ":7626,"bara ett ":7627,"under de ":7628,"undersöka ":7629,"vårt att ":7630,"vill.\n":7631,"röda ":7632,"vidare":7633,"grundades ":7634,"Tillsamman":7635,"ningar\n":7636,"tillstånd ":7637,"Hitta ":7638,"Känner ":7639,"regelbundet ":7640,"!!!\n":7641,"Bland ":7642,"e?\n":7643,"pas":7644," sig":7645,"stans":7646,", S":7647,"trycket ":7648,"aliforni":7649,"människorna ":7650,"dator ":7651,"behandling av ":7652,"till sina ":7653,"publiken ":7654,"experimen":7655,"(eller ":7656,"Ali":7657,"Gener":7658,"P-":7659,"Wash":7660,"bad ":7661,"makt":7662,"é ":7663,"de\n":7664,"skäm":7665,", även ":7666,"utvär":7667,"ssystem ":7668,"ade en ":7669,"delvis ":7670,"nivån ":7671,"höll":7672,"dag, ":7673,"Det är viktigt att ":7674,"erna som ":7675,"mig och ":7676,"allt som ":7677,"vill säga ":7678," ska jag ":7679,"öppet ":7680,"jobb ":7681,"norra ":7682,"aktiviteter ":7683,"utnyttja ":7684,"Tack för ":7685,"Ama":7686,"Cy":7687,"Saker ":7688,"vul":7689,"inlägg ":7690,"te, ":7691,"testa ":7692,"on\n":7693,"har också ":7694,"atisk ":7695,"Det enda ":7696,"era och ":7697,"bidrag ":7698,"ha ett ":7699,"utvecklingen av ":7700,"irur":7701,"Hon är ":7702,"behovet ":7703,"design ":7704,"hemma.\n":7705,"förtroende ":7706,"medvetna ":7707,"WEB":7708,"HER":7709,"oför":7710,"Å ":7711,"inbe":7712," släpp":7713,"om och ":7714,"repp":7715,"rad":7716,"värld.\n":7717,"tar till att ":7718,"Dess ":7719,"miljoner ":7720,"observer":7721,"artikeln ":7722,"risken för ":7723,"Europas ":7724,"lämplig ":7725,"hittar du ":7726,"förbereda ":7727,"Hennes ":7728,"katastrof":7729,"ji":7730,"natt ":7731,"sannolikt ":7732,"tte ":7733,"dex":7734," syn":7735,"sidan":7736,"sport":7737,"der?\n":7738,"övergrip":7739,"Inte":7740,"bara att ":7741,"Besök":7742,"Hotel ":7743,"fantastiskt ":7744,"bränsl":7745,"acceptera ":7746,"John":7747,"organiser":7748,"oer":7749,"pal":7750,"snart ":7751,"a dig ":7752,"ony":7753,"utöver ":7754,"behåller ":7755," som ett ":7756,"för att skapa ":7757,"ten?\n":7758,"hål":7759,"bilar ":7760,"aktivi":7761,"lösen":7762,"us och ":7763,"policy":7764,"Und":7765,"plane":7766,"Play":7767,"video ":7768,"utifrån ":7769,"innovativa ":7770,"bestämmelser ":7771,"brotts":7772,"När det gäller ":7773,"\" (":7774,".\"":7775,"Alex":7776,"Bas":7777,"passi":7778,"invandr":7779,"i är ":7780,"e på ":7781,"rip":7782,"ras":7783,"räff":7784,"väga ":7785,"helg":7786,"påverkan ":7787,"möbl":7788,"Thom":7789,"person som ":7790,"Histori":7791,"nämnda ":7792,"låga ":7793,"juridiska ":7794,"Washing":7795," oktober ":7796,"55":7797,"Nam":7798,"Pen":7799,"a:\n":7800,"col":7801,"svårt ":7802,"Över ":7803,"konver":7804,"jukvår":7805,"åren.\n":7806,"attar ":7807,"stekni":7808,"saker som ":7809,"underbara ":7810,"politisk ":7811,"på sina ":7812,"auktori":7813,"virtu":7814,"trött":7815,"yttr":7816,"korrekt ":7817,"bibliotek":7818,"kaffe":7819,"tillförlit":7820,"Str":7821,"Swe":7822,"Tu":7823,"inbland":7824,"s eller ":7825,"titt":7826,"spi":7827,"fort ":7828," skulle":7829,"festival":7830,"påminn":7831,"mark ":7832,"ut ur ":7833,"tion.\n":7834,"geli":7835,"unik ":7836,"fyr":7837,"kort.\n":7838,"inom ramen för ":7839,"dog ":7840,"behandlar ":7841,"gränsa ":7842,"Jag s":7843,"utbildning":7844,"omfattas av ":7845,"implemen":7846,"ansvars":7847,"priset ":7848,"EN ":7849,"framför allt ":7850,"kemikali":7851,"Ser ":7852,"ct":7853,"tår":7854,"aren":7855,"er:\n":7856,"enhet":7857,"ett.\n":7858,"redig":7859,"utfärd":7860,"ake ":7861,"konferen":7862,"samtyck":7863,"explo":7864,"alla de ":7865,"finns på ":7866,"visu":7867,"handla ":7868,"illa ":7869,"område.\n":7870,"starta ":7871,"Om du vill ":7872,"kostar ":7873,"försök att ":7874,"general":7875,"familjen ":7876,"Föreg":7877,"kommissionens ":7878,"undvik":7879,"telefon ":7880,"tunn":7881,"cs ":7882,"supp":7883,"vet.\n":7884,"inom":7885,"anslu":7886,"de två ":7887,"ännu":7888,"dik":7889,"komsten ":7890,"urin":7891,"offr":7892,"veckan.\n":7893,"användning ":7894,"personal ":7895,"boende ":7896,"näring":7897,"filmer ":7898,"barns ":7899,"Finland ":7900,"psyk":7901,"City":7902,"förflut":7903,"Bur":7904,"Jor":7905,"ah ":7906,"rund":7907,"🙂\n":7908,"atin":7909,"atom":7910,"vikel":7911,"are till ":7912,"bilda ":7913,"Inom ":7914,"mail":7915,"Om en ":7916,"sammanhan":7917,"starka ":7918,"Mark":7919,"motsvarande ":7920,"resultatet ":7921,"ociala medi":7922,"vanligaste ":7923,"hälften av ":7924,"Dock ":7925,"James ":7926,"yrel":7927,"anord":7928,"arran":7929,"bedrä":7930,"inte om ":7931,"var ett ":7932,"vägen.\n":7933,"sen, ":7934,"misstag":7935,"lyckades ":7936,"förhållande":7937,"budget":7938,"Till exempel ":7939,"vapen":7940,"resurser ":7941,"karriär":7942,"kategor":7943,"signal":7944,"Mexi":7945,"The":7946,"h, ":7947,"myn":7948,"det har ":7949,"du kommer att ":7950,"konser":7951,"kanske":7952,"kroni":7953,"loss":7954,"röra ":7955,"komplicer":7956,"arbetar med ":7957," […]\n":7958," mars ":7959,"Tan":7960,"VD":7961,"kaff":7962,"art":7963,"unt ":7964,"ligga ":7965,"delta ":7966,"var i ":7967,"pålit":7968,"ånge":7969,"skapar ":7970," skulle kunna ":7971,"smyndig":7972,"belys":7973,"månad ":7974,"någons":7975,"givna ":7976,"TV-":7977,"sättet att ":7978,"äldsta ":7979,"Famil":7980,"Sim":7981,"ous ":7982,"ar!\n":7983,"förel":7984,"akul":7985,"are eller ":7986,"män.\n":7987,") eller ":7988,"byrå":7989,"fylla ":7990,"tjänster":7991,"skolan ":7992,"Grekl":7993,"redo att ":7994,"Publi":7995,"Ira":7996,"emo":7997,"men.\n":7998,"ox":7999,"de mest ":8000,"som att ":8001,"ktiv.\n":8002,": s ":8003,"laget ":8004,"ändras ":8005,"länge":8006,"kräva ":8007,"enligt artikel ":8008,", så att ":8009,"Profe":8010,"Artik":8011,"bror ":8012,"motsvarar ":8013,"gudom":8014,"lugn":8015,"promenad ":8016,"hänsyn till ":8017,"Ai":8018,"L-":8019,"PC":8020,"förläng":8021,"tering ":8022,"ssam":8023,"veter":8024,"tråd":8025," sista ":8026,"gifta ":8027,"honom att ":8028,"intressan":8029,"eras av ":8030,"Herren ":8031,"städer ":8032,"religion":8033,"bekämpa ":8034,"Både ":8035,"föreslår ":8036,"Sä":8037,"ks":8038,"destin":8039," sen":8040,"ter till ":8041,"inte ha ":8042,"ationen av ":8043,"Du kommer ":8044,"underlätta ":8045,"spelet ":8046,"utveckling av ":8047,"någon av ":8048,"korta ":8049,"datum":8050,"cenni":8051,"återförsälj":8052,"kvinnliga ":8053,"tyckte ":8054,"lokal ":8055,"problem med ":8056,"böcker ":8057,"nödvändigt att ":8058,"Michael ":8059," gånger ":8060,"-år":8061,"es.\n":8062,"uper":8063,"deb":8064,"etr":8065,"för varje ":8066,"utrym":8067,"vare":8068,"versum":8069,"ade jag ":8070,"heliga ":8071,"nio ":8072,"tenderar ":8073,"Jag känner ":8074,"stiskt ":8075,"under den ":8076,"kerna ":8077,"handlingar ":8078,"vill jag ":8079,"löst ":8080,"vad är ":8081,"De som ":8082,"kriget ":8083,"som sk":8084,"intresse ":8085,"Pow":8086,"beroende av ":8087,"cirkul":8088,"Nästan ":8089,"normal":8090,"hittat ":8091,"konkurrenskraf":8092,"Tidigare ":8093," personer ":8094," månader ":8095,"; och ":8096,"Dina ":8097,"Ken":8098,"d?\n":8099,"eu":8100,"statisti":8101,", inte ":8102,"för dig.\n":8103,"förvir":8104,"tillämpa ":8105,"amen":8106,"det till ":8107,"sil":8108,"sitter ":8109,"bebi":8110,"are kan ":8111,"modu":8112,"se, ":8113,"värdig":8114,"nyt":8115,"helve":8116,"Desig":8117,", men jag ":8118,"teknisk":8119,"åldr":8120,"gemensam ":8121,"psyki":8122,"You":8123,"diskutera ":8124,"avses i artikel ":8125,"kommersiella ":8126,"Älskar ":8127," ;":8128,"Jäm":8129,"Son":8130,"Ytter":8131,"bul":8132,"fin ":8133,"hung":8134,"tung":8135,"Öpp":8136,"decenni":8137,"tt, ":8138,"bit":8139,"sig från ":8140,"vad gäller ":8141,"dölj":8142,"tjänar ":8143,"kvaliteten ":8144,"badr":8145,"anser att ":8146,"upprätthålla ":8147,"en hel del ":8148,"tack vare ":8149,"LE":8150,"dol":8151,"teori":8152,"temp":8153,"omvandl":8154,"förvå":8155,"utrike":8156,"allmän ":8157,"var.\n":8158,"radio":8159,"konfer":8160,"dig?\n":8161,"igång ":8162,"se till att ":8163,"parlamen":8164,"ledde ":8165,"acera ":8166,"sofi":8167,"exempel på ":8168,"avsedda ":8169,"modell ":8170,"krävs för att ":8171,"Ryssland ":8172,"symbol":8173,"celon":8174," -":8175,"44":8176,"Kap":8177,"Nex":8178,"atet ":8179,"gli":8180,"knä":8181,"ått":8182,"des.\n":8183,"en del ":8184,"erg":8185,"refer":8186,"lig s":8187,"Det går ":8188,"ationerna ":8189,"klock":8190,"klockan ":8191,"flask":8192,"neut":8193,". \"\n":8194,"några av de ":8195,"förebygg":8196,"linjer ":8197,"rättvis":8198,"grupper ":8199,"fler än ":8200,"online-":8201,"spara ":8202,"bränsle":8203,"Stockholm ":8204,"immun":8205," F":8206,"Hand":8207,"Hit":8208,"Ol":8209,"geri":8210,"enheten ":8211,"skulle":8212,", kommer ":8213,"alog":8214,"sitta ":8215,"rac":8216,"ssör":8217,"ning?\n":8218,"se\n":8219,"klän":8220,"add":8221,"biverk":8222,"arbetstag":8223,"inte sk":8224,"univers":8225,"renover":8226,"företag och ":8227,"förlorar ":8228,"national":8229,"tacksam":8230,"bekämp":8231,"American ":8232,"klassificer":8233,"transakti":8234,"Observer":8235,"annorlund":8236,"konsul":8237,"förordning (EG) nr ":8238,"föregående ":8239,"demonstr":8240,"Dani":8241,"Nat":8242,"Wor":8243,"bel ":8244,"ull ":8245,"för mig.\n":8246,"förväntar ":8247,"rekry":8248,"uts":8249,"du måste ":8250,"värdet ":8251,"med samma ":8252,"Vi måste ":8253,"tv-":8254,"hade jag ":8255,"ledningen ":8256,"För det ":8257," sidan ":8258,"låt":8259,"fullständigt ":8260,"erbjud":8261,"sina egna ":8262,"jobba ":8263,"kropp ":8264,"Utveckl":8265,"just nu.\n":8266,"felakti":8267,"koldio":8268,"sidor ":8269,"räkna ":8270,"åtgärder för att ":8271,"bestämmelserna ":8272,"teknologi":8273,"Google":8274,"atmosfär":8275,"drygt ":8276,"Hon":8277,"SK":8278,"port ":8279,"åtag":8280,"t (":8281,"de stora ":8282,"in-":8283,"av\n":8284,"tions":8285,"stabili":8286,"vangeli":8287,"paten":8288,"Det finns många ":8289,"naturligt ":8290,"det!\n":8291,"täcker ":8292,"konkurr":8293,"fordon":8294,"istället för ":8295,"muslim":8296,"600":8297,"ful":8298,"lli":8299,"onö":8300,"ing?\n":8301,"uppe":8302,"läste ":8303,"ställd":8304,"stil":8305,"illu":8306,"fråga.\n":8307,"hjälp.\n":8308,"tjänsten ":8309,"des av ":8310,"om du är ":8311,"grad ":8312,"funktioner ":8313,"Robert ":8314,"själv.\n":8315,"kolleg":8316,"tillräckligt med ":8317,"ihåg att ":8318,"Kolla ":8319,"IK":8320,"fack":8321,"ghan":8322,"harm":8323,"jön":8324,"a har ":8325,"arna, ":8326," ste":8327,"strål":8328,"alu":8329,"ra, ":8330,"nas.\n":8331,"uppvärm":8332,"are på ":8333,"seg":8334,"bilen ":8335,"denna förord":8336,"finans":8337,", men det är ":8338,"När vi ":8339,"relationer ":8340,"Europe":8341,"programvara ":8342,"Dire":8343,"Barcelon":8344,"ekonomiskt ":8345,"University":8346,"glädje ":8347,"a, som ":8348,"me ":8349,"a ett ":8350,"endet ":8351,"ett annat ":8352,"samtliga ":8353,"tyder ":8354,"tyvärr ":8355,"marker":8356,"finns en ":8357,"I detta ":8358,"människans ":8359,"betalar ":8360,"hushåll":8361,"nödvändigt ":8362,"toler":8363,"Tyskland ":8364,"yttre ":8365,"OS ":8366,"Pat":8367,"the":8368,"inspe":8369,"ern ":8370,"och är ":8371,", för att ":8372,"de en ":8373,"vikten ":8374,"till exempel":8375,"nad.\n":8376,"are med ":8377,"poäng ":8378,"mar.\n":8379,"under hela ":8380,"Du behöver ":8381,"bostads":8382,"röst ":8383,"medel ":8384,"USA och ":8385,"klick":8386,"miljö.\n":8387,"kvalitet":8388,"Tech":8389,"ännu mer ":8390,"industrin ":8391,"Europaparlamentets ":8392,"Föregående ":8393,"A.\n":8394,"dör ":8395,"ifi":8396,"kirur":8397,"mju":8398,"my ":8399,"sny":8400,"ark":8401,"i våra ":8402,"utländska ":8403,"aknar ":8404,"klo":8405,"bil.\n":8406,"skaps":8407,"aliska ":8408,"personen ":8409,"händer.\n":8410,"vetvis ":8411,"hyll":8412,"förstås ":8413,"religiösa ":8414,"IT-":8415,"tvätt":8416,"' ":8417,".com":8418,"Clo":8419,"IR":8420,"Lär ":8421,"System":8422,"ey":8423,"inköp":8424,"ar till ":8425,"att be":8426,"och för":8427,"har han ":8428,"atiskt ":8429," som du ":8430,"spo":8431,"delarna ":8432,"ten på ":8433,"samman ":8434,"du.\n":8435,"Inne":8436,"får man ":8437,". .\n":8438,"krig ":8439,"Neder":8440,"intresserade ":8441,"rekommenderas ":8442,"hjälper dig att ":8443,"impor":8444,"Se till att ":8445,"knappt ":8446,"objekt ":8447,"retur":8448,"framgångsrika ":8449,"Trump ":8450,"46":8451,"Tom":8452,"bund":8453,"dal":8454,"håg":8455,"lett ":8456,"a (":8457,"stro":8458,"skar":8459,"re, ":8460,"den enda ":8461,"or med ":8462,"hot":8463,"exis":8464,", se ":8465,"resen":8466,"mot en ":8467,"även en ":8468,"vad han ":8469,"stadi":8470,"effekterna ":8471,"tors":8472,"komma till ":8473,"tanken ":8474,"intressant ":8475,"tekniken ":8476,"kläd":8477,"leverantör ":8478,"massor av ":8479,"togs ":8480,"hävdar ":8481,"service":8482,".com ":8483,"nomin":8484," april ":8485,"CB":8486,"Dom ":8487,"ach ":8488,"hjul":8489,"ano":8490,"att ni ":8491,"för oss ":8492,"heten, ":8493,"för att hålla ":8494,"samm":8495,"sedan":8496,"påstå":8497,"matem":8498,"ner i ":8499,"logg":8500,"domän":8501,"hemma":8502,"möjlighet ":8503,"någonstans ":8504,"känsla av ":8505,"bryt":8506,"sjukdom ":8507,"förklarar ":8508,"guld":8509,"sagt ":8510,"medveten":8511,"influ":8512,"aboratori":8513,"V ":8514,"pon":8515,"tvis ":8516,"inverkan ":8517,"er-":8518,"inte på ":8519,"ska jag ":8520,"innef":8521,"Jag kommer ":8522,"bilj":8523,"när en ":8524,"kring":8525,"inte st":8526,"Analy":8527,"staten ":8528,"gånger.\n":8529,"pris ":8530,"absor":8531,"jobbar ":8532,"chef för ":8533,"lyssna på ":8534,"mobila ":8535,"militära ":8536,"begäran ":8537,"kontroll över ":8538,"muskel":8539,"Volv":8540,"havs":8541,"äkta ":8542,"i min ":8543,"för\n":8544,"utgif":8545,"som den ":8546,"med beakt":8547,"ellt.\n":8548,"lex ":8549,"årliga ":8550,": S":8551,"flagg":8552,"exempl":8553,"feder":8554,"där de ":8555,"ktioner ":8556,"ändringar ":8557,"säkerhet ":8558,"kroppen.\n":8559,"oss, ":8560,"bort från ":8561,"beslut.\n":8562,"digital ":8563,"positiv ":8564,"roman":8565,"glömma ":8566,"leder till ":8567,"förfaranden ":8568,"ansvariga ":8569,"förlust ":8570,"upphovs":8571,"entreprenör":8572,"tillfredsställ":8573,"Medlemsstaterna ":8574,"42":8575,"Mö":8576,"epi":8577,"zon ":8578,"t från ":8579,"om din ":8580,"me.\n":8581,"tering":8582,"på nä":8583,"rali":8584,"as för att ":8585,"eller ett ":8586,"ationer som ":8587,"ney ":8588,"och spel":8589,"dig till ":8590,"sig av ":8591,"användaren ":8592,"Vir":8593,"primär":8594,"kostnads":8595,"dyg":8596,"förlorade ":8597,"händelse ":8598,"elektroniska ":8599,"original":8600,"= ":8601,"Hall":8602,"go ":8603,"ret ":8604,"sång":8605,"a sig ":8606,"styck":8607,"dition ":8608,"det är en ":8609,"leds":8610,"ten för ":8611,"för att ge ":8612,"brom":8613,"dig med ":8614,"här är ":8615,"I den ":8616,"isra":8617,"frihet ":8618,"krimin":8619,"dem i ":8620,"dem, ":8621,"noga ":8622,"hemsida ":8623,"sats":8624,"övrigt ":8625,"kasta ":8626," procent.\n":8627,"produkter som ":8628,"Exemp":8629,"kombination ":8630,"Och så ":8631,"möjligheten att ":8632,"fenom":8633,"get.\n":8634,"way":8635,"liber":8636,"förbun":8637,"terings":8638,"den största ":8639,"olja ":8640,"eller flera ":8641,"Det fanns ":8642,"vänster":8643,"protok":8644,"behörig":8645,"sen är ":8646,"Vad är en ":8647,"weiz":8648,"procent ":8649,"kvinnor.\n":8650,"Om du är ":8651,"organisationen ":8652,"Kontroll":8653,"prata med ":8654,"panel":8655,"perioden ":8656,"uppmärksamhet ":8657,"Följ ":8658,"förändras ":8659,"Center ":8660,"Hö":8661,"IG":8662,"La ":8663,"Tyck":8664,"hall":8665,"ifråg":8666,"m, ":8667,"snö":8668,"ator ":8669,"lev ":8670,"spår":8671,"nedan":8672,"stimul":8673,"steri":8674,"under de senaste ":8675,"glas ":8676,"även i ":8677,"död.\n":8678,"köp ":8679,"Hur mycket ":8680,"går till ":8681,"målet ":8682,"viktigt för ":8683,"plats för ":8684,"lösning ":8685,"förlorat ":8686,"lyssna ":8687,"Fler ":8688,"professionell ":8689,"desto ":8690,"navig":8691,", skall ":8692,"250":8693,"stress":8694,"och ett ":8695,"eto":8696,"et, och ":8697,"e S":8698,"försen":8699,"förvandl":8700,"tillsyn":8701,"det kan ":8702,"lige ":8703,"på andra ":8704,"uppfölj":8705,"ok ":8706,"kändes ":8707,"känd som ":8708,"vecka.\n":8709,"ningen för ":8710," sid":8711,"tjänst":8712,"gjorts ":8713,"eftersom de ":8714,"Roy":8715,"arbete med ":8716,"åtgärder som ":8717,"ännu inte ":8718,"rekommendera ":8719,"ambass":8720,"HERR":8721,"Börja ":8722,"Cre":8723,"Fär":8724,"Faktum ":8725,"Jan":8726,"OM":8727,"ikväll":8728,"mord":8729,"sju ":8730,"föll ":8731,"är för ":8732,"mes ":8733,"nad":8734,"tt och ":8735,"du får ":8736,"deltar ":8737,"vänner":8738,"från andra ":8739,"era en ":8740,"över en ":8741,"Dess":8742,"vet inte ":8743,"förekommer ":8744,"Så här ":8745,"kanske inte ":8746,"kunde inte ":8747,"stad.\n":8748,"alternativ":8749,"fördelarna ":8750,"normala ":8751,"njuta ":8752,"Visa ":8753,"disci":8754,"funnits ":8755,"Jerus":8756,"infrastruktur":8757,"Af":8758,"Eri":8759,"Hom":8760,"IL":8761,"Syri":8762,"abili":8763,"ker.\n":8764,"las ":8765,"sock":8766,"yr ":8767,"eni":8768,"skur":8769,"ald ":8770,"Det som ":8771,"ktivt ":8772,"århundra":8773," sitter ":8774,"färg ":8775,"trapp":8776,"metod ":8777,"om du inte ":8778,"Christ":8779,"varierar ":8780,"hyra ":8781,"bryter ":8782," skriva ":8783,"skepp":8784,"modeller ":8785,"Sec":8786,"accepterar ":8787,"studenter ":8788,"Däremot ":8789,"iPhone ":8790,"University of ":8791,"övergripande ":8792," olika ":8793,"Hus":8794,"Ra":8795,"Veg":8796,"Whi":8797,"matt":8798,"net.\n":8799,"p-":8800,"sele":8801,"väll":8802,"åstad":8803,"de sk":8804,"test ":8805,"skl":8806,"av samma ":8807,"förhopp":8808,"av oss ":8809,"termin":8810,"ligaste ":8811,"eller\n":8812,"har de ":8813,"den!\n":8814," och en ":8815,"dig\n":8816,"västra ":8817,"ig själv":8818,"Den som ":8819,"inte, ":8820,"tid för ":8821,"boll ":8822,"innehav":8823,"Ant":8824,"utvecklats ":8825,"något annat ":8826," säson":8827,"universum":8828,"eftermid":8829,"Vad händer ":8830,"politik ":8831,"bör du ":8832,"associ":8833,"ering, ":8834,"förlus":8835,"i samhäll":8836,"just nu ":8837,"ansvar för ":8838,"sexuella ":8839,"begära ":8840,"Office ":8841,"Def":8842,"H ":8843,"Lägg ":8844,"Vem":8845,"sån":8846,"inser ":8847,"inbygg":8848,"ary ":8849,"skor ":8850,"riktig ":8851,"raste ":8852,"na!\n":8853,"modi":8854,"plant":8855,"ulti":8856,"dag och ":8857,"återbetal":8858,"tid, ":8859,"speciali":8860,"Du kan också ":8861,"fastställa ":8862,"minuter ":8863,"världens största ":8864,"herr":8865,"anges ":8866,"hälsa.\n":8867,"klassiska ":8868,"rådgiv":8869,"aspekter ":8870,"fokus på ":8871,"lunch":8872,"\"S":8873,"\"Jag ":8874,"Kur":8875,"d-":8876,"ew":8877,"mår ":8878,"snabbare ":8879,"y-":8880,"antar ":8881,"förvänta ":8882,"ter?\n":8883,"den där ":8884,"ett av ":8885,"mira":8886,"olje":8887,"Det handlar ":8888,"vänd":8889,"vän.\n":8890,"gens ":8891,"klin":8892,"värre ":8893,"din egen ":8894,"framåt ":8895,"vill du ":8896,"utvecklar ":8897,"loj":8898,"hänt ":8899,"Detta är ett ":8900,"storlek":8901,"polisen ":8902,"program.\n":8903,"studera ":8904,"lyckats ":8905,"Digi":8906,"mänsklig":8907,"född ":8908," saker ":8909,"nöjd med ":8910,"tålam":8911,"Dö":8912,"Gal":8913,"Lär":8914,"Ph":8915,"bor i ":8916,"kin":8917,"sänd":8918,"er, s":8919,"skor":8920,"Det betyder ":8921,"lät ":8922,"ämne":8923,"sering ":8924,"para ":8925,"används i ":8926,"Och det är ":8927,"geografi":8928,"yngre ":8929,"villk":8930,"efterfrågan ":8931,"uppgifterna ":8932,"kärlek.\n":8933,"grunden ":8934,"speciella ":8935,"Peter ":8936,"mänskliga rättig":8937,"fruktans":8938,"service ":8939,"representerar ":8940,"introducer":8941,"i synnerhet ":8942,"Huvud":8943," c":8944," november ":8945,"AG":8946,"TE":8947,"iväg ":8948,"tphon":8949,"→\n":8950,"inspel":8951,"erhåll":8952,"eras.\n":8953,"avgöra ":8954,"allergi":8955," som jag ":8956,"del i ":8957,"var jag ":8958," standar":8959,"resten ":8960,"möte":8961,"arbetar":8962,"Vide":8963,"informations":8964,"plats":8965,"färger ":8966,"Vad gör ":8967,"behandlingen ":8968,"imorg":8969,"innebära ":8970,"djel":8971,"hypo":8972,"mängden ":8973,"serie ":8974,"balans":8975,"befolkningen ":8976,"uppmanar ":8977,"Självklart ":8978,".,":8979,"Då":8980,"Ha":8981,"ii":8982,"inred":8983,"stärka ":8984,"on-":8985,"an har ":8986,"alls.\n":8987,"cigar":8988,"människor, ":8989,"ktion.\n":8990,"behöver du ":8991,"alltid varit ":8992,"bok.\n":8993,"Det finns ingen ":8994,"att du har ":8995,"belast":8996,"kom till ":8997,"arbetsgivar":8998,"voly":8999,"gress":9000,"Kan du ":9001,"praktiska ":9002,"situation ":9003,"plattform ":9004,"väljer att ":9005,"gymna":9006,"Ka":9007,"Men":9008,"Vat":9009,"enti":9010,"om ni ":9011,"an till ":9012,"av sitt ":9013,"år och ":9014,"adress ":9015,"alla som ":9016,"handling ":9017,"där han ":9018,"upp en ":9019,"lagen ":9020,"priser ":9021,"tagits ":9022,"ålder.\n":9023,"hitta en ":9024,"natur ":9025,"gammal":9026,"krigs":9027,"säker på att ":9028,"evig":9029,"Frankrike":9030,"Lad":9031,"Ock":9032,"Sty":9033,"a,\n":9034,"pän":9035,"eringar ":9036,"om detta ":9037,"avfall":9038,"vik ":9039,"te och ":9040,"vardags":9041,"ning från ":9042,"plus ":9043,"nyhets":9044,"man som ":9045,"aktivitet ":9046,"länk":9047,"utveckling och ":9048,"inom en ":9049,"valde ":9050,"När man ":9051,"hela tiden ":9052,"filosof":9053,"vinter":9054,"elever ":9055,"månad.\n":9056,"enkelt att ":9057,"kreativa ":9058,"skostna":9059,"principer":9060,"Människor ":9061,"stoppa ":9062,"följande:\n":9063,".»\n":9064,"II ":9065,"Kl":9066,"O-":9067,"etik":9068,"tat":9069,"tess":9070,"en mot ":9071,"ero":9072,"det vara ":9073,"der från ":9074,"as från ":9075,"Det första ":9076,"användes ":9077,"Vi kommer att ":9078,"tredjel":9079,"Du får ":9080,"hjälpte ":9081,"vind":9082,"rubri":9083,"nu?\n":9084,"levererar ":9085,"portion":9086,"täcka ":9087,"Samman":9088,"tonår":9089,"personer med ":9090,"leta ":9091,"djupt ":9092,"anses vara ":9093,"mitten av ":9094,"premiär":9095,"databas":9096,"genomsnittliga ":9097,"livsstil":9098,"Saker att göra ":9099,",\"":9100,"bandet ":9101,"ringa ":9102,"deklar":9103,"en mycket ":9104,"erade.\n":9105,"en, men ":9106,"är detta ":9107,"ligen.\n":9108,"med min ":9109,"inte för ":9110,"ta emot ":9111,"samtidigt som ":9112,"vädr":9113,"Den nya ":9114,"form.\n":9115,"fartyg":9116,"Om man ":9117,"sättnings":9118,"engag":9119,"klart att ":9120,"forskning och ":9121,"um och ":9122,"ögon.\n":9123,"mäta ":9124,"speciell ":9125,"globalt ":9126,"medicinsk ":9127,"kommunikation":9128,"Black":9129,"garanterar ":9130,"uppmuntr":9131," meter ":9132,"augusti ":9133,"recension":9134,"Cas":9135,"Gl":9136,"När en ":9137,"Wo":9138,"fj":9139,"funder":9140,"nal":9141,"sli":9142,"debat":9143,"eral":9144,"entu":9145,"mej":9146,"vili":9147," som inte ":9148,"delser ":9149,"samtal":9150,"klass ":9151,"hanterar ":9152,"Vi behöver ":9153,"bodde ":9154,"vad man ":9155,"kors":9156,"mig?\n":9157,"Skill":9158,"projekt.\n":9159,"Kontak":9160,"känslor ":9161,"Efter att ha ":9162,"fantastisk":9163,"allvarligt ":9164,"IP-":9165,"bidra till att ":9166,"avancerade ":9167,"work":9168,"representan":9169,"Glöm ":9170,"64":9171,"åkte ":9172,"öst ":9173,"t för att ":9174,"insaml":9175,"ar av ":9176,"oro ":9177,"ont":9178,"rot":9179,"ska kunna ":9180,"ade för ":9181,"läge":9182,"så är det ":9183,"så länge ":9184,"på\n":9185,"dig i ":9186,"vill att ":9187,"drift":9188,"politiskt ":9189,"att du är ":9190,"tidigt.\n":9191,"innan de ":9192,"strategi ":9193,"Jag ser ":9194,"kostnader ":9195,"turner":9196,"sidan av ":9197,"djur.\n":9198,"godkännande ":9199,"annolik":9200,"nälla ":9201,"Rob":9202,"id ":9203,"nån ":9204,"pill":9205,"sn":9206,"östra ":9207,"erkänna ":9208,"st?\n":9209,"lic":9210,"vitt ":9211,"eleg":9212,"utsikt över ":9213,"ten till ":9214,"nifi":9215,"plast":9216,"expor":9217,"kunden ":9218,"k i ":9219,"han inte ":9220,"brut":9221,"son.\n":9222,"I dag ":9223,"arbetsplat":9224,"färdiga ":9225,"smäl":9226,"behandlas ":9227,"bör vara ":9228,"misst":9229,"då.\n":9230,"lighet och ":9231,"besök ":9232,"studier ":9233,"fascin":9234,"operativ":9235,"knipp":9236,"burg":9237,"lägenhet ":9238,"kemiska ":9239,"elimin":9240,"förhållande till ":9241,"Ytterligare ":9242,"88":9243,"Bli":9244,"Gill":9245,"ha.\n":9246,"s har ":9247,"stam":9248,"skam":9249,"terades ":9250,"utför ":9251,"ing till ":9252,"kan bli ":9253,"eller i ":9254,"Det blir ":9255,"niti":9256,"ktivet ":9257,"ökande ":9258,"dagarna ":9259,"total":9260,"efter den ":9261,"nät":9262,"lagras ":9263,"kedj":9264,"växte ":9265,"effekten ":9266,"gränsen ":9267,"Ung":9268,"vidare.\n":9269,"Hon har ":9270,"På grund av ":9271,"ovan ":9272,"behov":9273,"känslom":9274,"resa till ":9275,"förbered":9276,"järnväg":9277,"e-post ":9278,"individuella ":9279,"Förenta ":9280,"kliniska ":9281,"800":9282,"fånga ":9283,"til ":9284,"agt ":9285,"serna.\n":9286,"hållbara ":9287,"kunderna ":9288,"överträ":9289,"lös ":9290,"här\n":9291,"helt och ":9292,"uppgift ":9293,"grad":9294,"effektivi":9295,"förbättrar ":9296,"sproble":9297,"stanna ":9298,"operatör":9299,"ursprungligen ":9300,"casino ":9301,"garantera ":9302,"hatar ":9303,"fullständig ":9304,"artiklarna ":9305,"pecifika ":9306,"obligatori":9307,"**":9308,"C.\n":9309,"ky":9310,"mut":9311,"mur":9312,"säng":9313,"ådespel":9314,"dekor":9315,"tit":9316,"stal":9317,"att ge ":9318,"orätt":9319,"de olika ":9320,"tillåt":9321,"sidan.\n":9322,"befri":9323,"ta med ":9324,"konfigur":9325,"ads":9326,"på sig ":9327,"han var ":9328,"mycket mer ":9329,"frågor som ":9330,"mig själv":9331,"rup":9332,"landskap":9333,"öppnade ":9334,"lekyl":9335,"Premi":9336,"kyrkan":9337,"installera ":9338,"lyssnar ":9339,"Scho":9340,"kommer du att ":9341,"hormon":9342,"Programmet ":9343,"blogg ":9344,"förstöra ":9345," P":9346,"(som ":9347,"Ca":9348,"Chan":9349,"Kyr":9350,"Nation":9351,"ar eller ":9352,"vin ":9353,"lig, ":9354,"dernas ":9355,"slav":9356,"st i ":9357,"veder":9358,"männen ":9359,"ats till ":9360,"där du ":9361,"vanligen ":9362,"länkar ":9363,"Detta kan ":9364,"dina personuppgifter ":9365,"abel ":9366,"ultur":9367,"opi":9368,"Titta ":9369,"redan har ":9370,"hamnar ":9371,"energi.\n":9372," som st":9373,"komplett ":9374,"mängd olika ":9375,"hittills ":9376,"oerhört ":9377,"harmoni":9378," Och ":9379,"När":9380,"bag":9381,"däck":9382,"ng":9383,"wn ":9384,"och i ":9385,"begränsa ":9386,"les för ":9387,"as?\n":9388,"grå":9389,"ad till ":9390,"väst":9391,"vägr":9392,"väster":9393,", som":9394,"bara några ":9395,"ner och ":9396,"måste vi ":9397,"preci":9398,"flyttade ":9399,"färre ":9400,"Livet ":9401,"tycks ":9402,"punkterna ":9403,"två s":9404,"mat och ":9405,"hund ":9406,"smärt":9407,"alldeles ":9408," juli ":9409,"Bak":9410,"Här":9411,"San ":9412,"U ":9413,"dat ":9414,"mande ":9415,"ttet.\n":9416,"ving":9417,"inuti":9418,"ath":9419,"erver":9420,"ensam ":9421,"skräck":9422,"i dag ":9423,"e till ":9424,"as om ":9425,"slå":9426,"bild av ":9427,"heter i ":9428,"bra att ":9429,"behandling":9430,"odl":9431,"någont":9432,"effektivite":9433,"kommunicera ":9434,"sorti":9435,"stans.\n":9436,"regionala ":9437,"bekvä":9438,"eventuellt ":9439,"pågår ":9440,"Frankrike ":9441,"muskl":9442,"fabri":9443,"frekven":9444,"passion":9445,"ifrågas":9446,"'\n":9447,"Led":9448,"Ny ":9449,"dog":9450,"falla ":9451,"kat ":9452,"ovänt":9453,"omdö":9454,"varmt ":9455,"napp":9456,"andin":9457,"formell":9458,"var på ":9459,"göm":9460,"stiger ":9461,"här!\n":9462,"Har ni ":9463,"pengarna ":9464,"angel":9465,"Barn ":9466,"Nu är det ":9467,"köpt ":9468,"svarta ":9469,"havet.\n":9470,"jorden.\n":9471,"praxi":9472,"uteslut":9473,"komponenter ":9474,"diagnosti":9475,"ifrån.\n":9476,"Faktum är att ":9477,"rock":9478,"shopp":9479,"tat ":9480,"stak":9481,"och hur ":9482,"avkast":9483,"förteck":9484,"utvid":9485,"med denna ":9486,"spen":9487,"Det bästa ":9488,"mans ":9489,"än att ":9490,"råder ":9491,"ningar på ":9492,"förstån":9493,"valt ":9494,"engör":9495,"återställa ":9496,"mig själv ":9497,"barn, ":9498,"ägare ":9499,"sm.\n":9500,"ocial ":9501,"lärde ":9502,"baseras ":9503,"huset.\n":9504," sådana ":9505,"gåva ":9506,"mänsklig ":9507,"presenterar ":9508,"definition":9509,"besluts":9510,"pappa ":9511,"rymd":9512,"behov av ":9513,"golf":9514,"rätten att ":9515,"Företaget ":9516,"känneteck":9517,"Hum":9518,"Län":9519,"Som":9520,"dade ":9521,"ken":9522,"mer, ":9523,"nag":9524,"svåra ":9525,"derat ":9526,"temot ":9527,", när ":9528,"or?\n":9529,"et (":9530,"av denna ":9531,"den från ":9532,"led ":9533,"verifi":9534,"sesi":9535," skyl":9536,"använd ":9537,"kts":9538,"typi":9539,"kos":9540,"inte skulle ":9541,"Ang":9542,"ditt barn ":9543,"återhämt":9544,"programvar":9545,"intressanta ":9546,"mäs":9547," så s":9548,"tillräcklig ":9549,"bröst":9550,"Juli":9551,"utbyte ":9552,"?!\n":9553,"R-":9554,"ga":9555,"ance ":9556,"tidig ":9557,"av alla ":9558,"som det ":9559,"ten med ":9560,"konstig":9561,"hot ":9562,"än en ":9563,"of S":9564,"i se":9565,"söker ":9566,"vid den ":9567,"Andre":9568,"hemlig":9569,"tidigare":9570,"teknisk ":9571,"Effe":9572,"Utöver ":9573,"webbplats.\n":9574,"gick till ":9575,"konsument":9576,"fönstr":9577,"chokl":9578,"Global ":9579,"Dar":9580,"gav":9581,"s från ":9582,"station":9583,"för sin ":9584,"real":9585,"el och ":9586,"sitt":9587,"sprun":9588,"vänder ":9589,"sekun":9590,"ad\n":9591,"in en ":9592,"måning":9593,"neuro":9594,"bara för att ":9595,"und.\n":9596,"är det en ":9597,"De kan ":9598,"upp på ":9599,"Ställ":9600,"sättning":9601,"lutet ":9602,"nov":9603,"vägled":9604,"gjordes ":9605,"mål och ":9606,"skydd ":9607,"egentlig":9608,"varian":9609,"Leagu":9610,"kostnaderna ":9611,"jälva verket ":9612,"fortsätta att ":9613,"inkomst":9614,"insatser ":9615,"ingenjör":9616,"timme ":9617,"landsbyg":9618,"dynami":9619,"ledamö":9620,"camp":9621,"tittade ":9622," sol":9623,"live":9624,"skan ":9625,", var ":9626,"an på ":9627,"för många ":9628,"förlå":9629,"förblir ":9630,"jag mig ":9631,"jag hade ":9632,"delas ":9633,"vänster ":9634,"för att förbättra ":9635,"man och ":9636,"och slut":9637,"ster\n":9638,"om sin ":9639,"slutsat":9640,"flyttar ":9641,"Europa":9642,"bokstav":9643,"audi":9644,"Barn":9645,"hamn":9646,"flygplat":9647,"jag ser ":9648," säkerhets":9649,"protein":9650,"i Sverige.\n":9651,"cience ":9652," km från ":9653," B":9654,"Dav":9655,"Ul":9656,"cor":9657,"evangeli":9658,"stjärn":9659,"onda ":9660,"förknipp":9661,"siffr":9662,"uta ":9663,"rades ":9664,"gen\n":9665,"plom":9666,"alla dessa ":9667,"skapat ":9668,"Ing":9669,"måste ha ":9670,"Stora ":9671,"åtkomst ":9672,"behandling.\n":9673,"kvinnor som ":9674,"EU.\n":9675,"Om du inte ":9676,"hjälpa dig att ":9677,"tillämpliga ":9678,"jordens ":9679,"detta, ":9680," skapa ":9681,"kombinerar ":9682,"haft en ":9683,"lättare att ":9684,"i sin tur ":9685,"gäst":9686,"sköter":9687,"Följande ":9688,"tviv":9689,"heller.\n":9690,"Kristus ":9691,"Artikel ":9692," R":9693,"Fun":9694,"Hun":9695,"Säker":9696,"’\n":9697,"interna ":9698,"tillhör":9699,"ssni":9700,"samtal ":9701,"serat ":9702,"Vi kommer ":9703,"I ett ":9704,"livets ":9705,"Annar":9706,"kej":9707," sätter ":9708,"liknar ":9709,"av spel":9710,"möjliggör ":9711,"ömsesi":9712,"irri":9713,"internet ":9714,"information och ":9715,"om du vill ":9716,"brist på ":9717,"special":9718,"i sta":9719,"kunskap om ":9720,"Heal":9721,"lära dig ":9722,"fysiskt ":9723,"tillväxt":9724,"riks":9725,"kalen":9726,"nödvändigtvis ":9727,"jävla ":9728,"www":9729,"utbud av ":9730,"vunnit ":9731,"Precis som ":9732,"långsiktiga ":9733,"41":9734,"es, ":9735,"gall":9736,"juni":9737,"kra ":9738,"nåt ":9739,"nått ":9740,"ar: ":9741,"er, men ":9742,"erad.\n":9743,"sto":9744,"de och ":9745,"reserv":9746,"undan ":9747,"roliga ":9748,"utmärk":9749,"har den ":9750,"ing på ":9751," stor ":9752,"jud":9753,"tret":9754,"okän":9755,"ade\n":9756,"bilderna ":9757,"påpe":9758,"En av de ":9759,"ken och ":9760,"boka ":9761,"gångs":9762,"först.\n":9763,"rätt till ":9764,"miljön ":9765,"lutän":9766,"snabb ":9767,"mörka ":9768,"anledningen ":9769,"beteende":9770,"transaktion":9771,"klimatförändr":9772,"portfölj":9773,"modifi":9774,"Dr ":9775,"D.\n":9776,"Lå":9777,"M-":9778,"Ze":9779,"eko":9780,"ron":9781,"ans.\n":9782,"en ny":9783,"enten ":9784,"lin ":9785,"ändigt ":9786,"referen":9787,"amin":9788,"roligt ":9789,"utsätt":9790,"ell och ":9791,"ak ":9792,"inte i ":9793,"inte var ":9794,"gent":9795,"samma.\n":9796,"placera ":9797,"väp":9798,"blå ":9799,"how":9800,"känd ":9801,"neder":9802,"organ ":9803,"handling":9804,"sak.\n":9805,"skrivit ":9806,"dem och ":9807,"filtr":9808,"håller på att ":9809,"lite mer ":9810,"brid":9811,"ologiskt ":9812,"djupa ":9813,"Grand ":9814,"slösa ":9815,"besvär":9816,"klagom":9817,"händelser ":9818,"positivt ":9819,"administrativa ":9820,"återvända ":9821,"Dagens ":9822,"ansvarig för ":9823,"klicka på ":9824," skillnad från ":9825,"misstag ":9826,"(t.ex. ":9827,"85":9828,"Aut":9829,"Syn":9830,"TH":9831,"c) ":9832,"ly ":9833,"deri":9834,"teore":9835,"ands ":9836,"kan få ":9837,"ad med ":9838,"molekyl":9839,"år\n":9840,"höja ":9841,"plas":9842,"verklig ":9843,"um\n":9844,"välbe":9845,"alitet ":9846,"I denna ":9847,"inom den ":9848,"medit":9849,"ansikte ":9850,"träffar ":9851,"uppgifter som ":9852,"Kan jag ":9853,"tala om ":9854,"ningarna.\n":9855,"offentlig ":9856,"beteende ":9857,"läkemedel ":9858,"princip ":9859,"vs. ":9860,"Ofta ":9861,"koppla ":9862,"kulturella ":9863,"bedöma ":9864,"Göteborg":9865,"israeli":9866," per ":9867,"49":9868,"PN":9869,"SA":9870,"Tal":9871,"ball":9872,"homo":9873,"ps":9874,"atch":9875,"för andra ":9876,"albu":9877,"as att ":9878,"samarbet":9879,"klas":9880,"men är ":9881,"men det ":9882,"flu":9883,"Indu":9884,"annar ":9885,"Den andra ":9886," så att ":9887,"likad":9888,"kvinnor och ":9889,"naturlig ":9890,"investeringar ":9891,"du ser ":9892,"Rich":9893,"presentera ":9894,"social":9895,"verkligheten ":9896,"kalori":9897,"lång tid ":9898,"roll i ":9899,"kärleks":9900,"casino":9901,"e-postad":9902,"diabete":9903,"resenär":9904," euro":9905,"Akti":9906,"Hill":9907,"Let":9908,"Pay":9909,"__":9910,"kämpa ":9911,"lav":9912,"lar.\n":9913,"oänd":9914,"öva ":9915,"skre":9916,"lighet, ":9917,"allt, ":9918,"as eller ":9919,"bar.\n":9920,"dig som ":9921,"externa ":9922,", sade ":9923,"underbar ":9924,"rättfärdig":9925,"veta att ":9926,"systemet.\n":9927,"tet?\n":9928,"kostnad":9929,"tydlig ":9930,"Perfe":9931,"natten ":9932,"Vem är ":9933,"resultaten ":9934,"blodtryck":9935,"rör sig ":9936,"human":9937,"avslapp":9938,"Group ":9939,"bekräftar ":9940,"nytta av ":9941,"Information ":9942,"*\n":9943,"Möj":9944,"Oper":9945,"ersättning ":9946,"på olika ":9947,"legen":9948,"ett år ":9949," som vi ":9950,"inner ":9951,"minori":9952,"nyheter ":9953,"civili":9954,"tro på ":9955,"överväga ":9956,"mali":9957,"ats och ":9958,"oss och ":9959,"sig själv ":9960,"följde ":9961,"ograf":9962,"återställ":9963,"imperi":9964,"Gud, ":9965,"tain":9966,"generation":9967,"investerings":9968,"Park ":9969,"erbjuder en ":9970,"kunskap ":9971,"försäljnings":9972," som ska ":9973,"hur?\n":9974,"fjärr":9975,"huvudsakliga ":9976,"förordning (EU":9977,"letar efter ":9978,"IB":9979,"I och ":9980,"Lok":9981,"Mak":9982,"Radi":9983,"Ukra":9984,"Vene":9985,"a\" ":9986,"fett ":9987,"jak":9988,"mom":9989,"nande.\n":9990,"ure":9991,"sk-":9992,"dialo":9993,"på deras ":9994,"mitt":9995,"mitté":9996,"dels ":9997,"höger ":9998,"tru":9999,"fira ":10000,"vara med ":10001,"överväg":10002,"turist":10003,"toal":10004,"farliga ":10005,", som har ":10006,"lag.\n":10007,"Redan ":10008,"våra kunder ":10009,"önske":10010,"märkt ":10011,"ruktur":10012,"kommentar ":10013,"halv ":10014,"alternativ.\n":10015,"havet ":10016,"träning":10017,"vandla ":10018,"Sådana ":10019," minuters ":10020,"Super":10021,"lista över ":10022,"kommer vi att ":10023,"England ":10024,"Alltså ":10025,"Välkommen till ":10026,"Jen":10027,"Out":10028,"ction ":10029,"jon":10030,"s) ":10031,"åk":10032,"i i ":10033,"tillbe":10034,"utvalda ":10035,"beteck":10036,"kan du s":10037,"ad för ":10038," styr":10039,"dröj":10040,"dag\n":10041,"ation i ":10042,"sen och ":10043,"använda en ":10044,"byggt ":10045,"erbjuds ":10046,"kompati":10047,"jämställd":10048,"ytterlig":10049,"allmänheten ":10050,"riktlinj":10051,"rapporten ":10052,"tydlig":10053,"män och ":10054,"material.\n":10055,"kvar.\n":10056,"säger att ":10057,"producerar ":10058,"Group":10059,"glädje":10060,"Associ":10061,"Bygg":10062,"chans att ":10063,"Seri":10064,"Wh":10065,"fett":10066,"mand":10067,"mer\n":10068,"plik":10069,"​​":10070,"er och s":10071,"i (":10072,"Det kommer ":10073,"del.\n":10074,"provin":10075,"värt att ":10076,"kvanti":10077,"väl som ":10078,"se och ":10079,", och de ":10080,", och det är ":10081,"är det inte ":10082,"livsläng":10083,"bour":10084,"unions":10085,"korrig":10086,"miljon ":10087,"Rese":10088,"nu, ":10089,"gjort.\n":10090,"Thail":10091,"grekiska ":10092,"nödvändig ":10093,"magne":10094,"Läs mer ":10095,"statliga ":10096,"tillväxt ":10097,"individer ":10098,"tänker på ":10099,"favorit ":10100,"gäster ":10101,"fönster ":10102,"Flyg":10103,"bibliote":10104,"chansen att ":10105,"reducer":10106,"Problemet ":10107," kr":10108,".a. ":10109,"Hal":10110,"emi":10111,"i, ":10112,"laboratori":10113,"ymm":10114,"te\n":10115,"ansk ":10116,"enden ":10117,"litar ":10118,"i deras ":10119,", medan ":10120,"för dig ":10121,"vist ":10122,"eld":10123,"le.\n":10124,"ningssystem":10125,"Det gör ":10126,"or till ":10127,"ment":10128,"Intress":10129,"nuf":10130,"kommer.\n":10131,"människor och ":10132,"namn, ":10133,"intresse för ":10134,"jobbet ":10135,"att göra det ":10136,"kompis":10137,"hjärtat ":10138,"hjälper till att ":10139,"yftar till att ":10140,"tjänster som ":10141,"tillåta ":10142,"traditionell ":10143,"fasta ":10144,"kapitel ":10145,"ihop":10146,"femte ":10147,"syfte ":10148,"Kristi":10149,"vitamin ":10150,"WEB\n":10151,"Az":10152,"Pok":10153,"lung":10154,"ogi":10155,"va.\n":10156,"inlär":10157,"ar det ":10158,", \"":10159,"tillkänn":10160,"reaktion":10161,"na för ":10162,"befo":10163,"bespar":10164,"beslutet ":10165,"Det kan vara ":10166,"dagar":10167,"överallt ":10168,"ush":10169,"hur de ":10170,"Sta":10171,"ktionen ":10172,"föremål":10173,"vinst":10174,"länge.\n":10175,"kart":10176,"på så":10177,"Skol":10178,"familjer ":10179,"tror på ":10180,"banken ":10181,"att jag inte ":10182,"och skri":10183,"avsed":10184,"Internet":10185,"produktions":10186,"varumärke":10187,"inflamm":10188,"pågående ":10189,"hälsa och ":10190,"arrang":10191,"ghani":10192," A":10193,"!)\n":10194,"(C":10195,"43":10196,"D\n":10197,"bull":10198,"cc":10199,"ou":10200,"teten av ":10201,"arch ":10202,"det enda ":10203,"beslu":10204,"inne ":10205,"eller på ":10206,"konstitu":10207,"chock":10208,"vi att ":10209,"värde.\n":10210,"Jag kan inte ":10211,"minari":10212,"påsk":10213,"Inc":10214,"framsteg ":10215,"ut till ":10216,"personligt ":10217,"måste man ":10218,"högskol":10219,"känna sig ":10220,"slöja ":10221,"produkterna ":10222,"tolv ":10223,"praktiskt ":10224,"Helsing":10225,"färdigheter ":10226," mg ":10227,"motiv":10228," sätt att ":10229,"utöva ":10230,"alldeles för ":10231,"komplexa ":10232,"Online ":10233,"utvärdera ":10234,"befogen":10235,"(se ":10236,"47":10237,"Bru":10238,"Nju":10239,"OL":10240,"Särskilt ":10241,"TR":10242,"Tom ":10243,"hah":10244,"osofi":10245,"tif":10246,"de andra ":10247,"ron ":10248,"upplys":10249,"da med ":10250,"umer":10251,"tet att ":10252,"geman":10253,"Medel":10254,"mig\n":10255,"företag, ":10256,"regel ":10257,"läget ":10258,"stånd":10259,"lärare ":10260,"kontrollerar ":10261,"check":10262,"kreati":10263,"turn":10264,"tillstånd.\n":10265,"större än ":10266,"fäst":10267,"i enlighet med artikel ":10268,"Island ":10269,"bygger på ":10270,"intelle":10271,"mönster ":10272,"Folk ":10273,"moln":10274,"www.":10275,"Abra":10276,"Bill":10277,"ED":10278,"OC":10279,"svårig":10280,"åriga ":10281,"omi":10282,"en så ":10283,"är som ":10284,"ska\n":10285,", enligt ":10286,"terna, ":10287,"alg":10288,"ningen\n":10289,"Det känns ":10290,"läkar":10291,"play":10292,"bli s":10293,"känd för ":10294,"ignor":10295,"således ":10296,"i så ":10297,"i sig ":10298,"ingen är ":10299,"erna av ":10300,"upp för ":10301,"sen i ":10302,"sen för ":10303,"något att ":10304,"sen\n":10305,"now":10306,"växt":10307,"gränssni":10308,"planera ":10309,"intresserad av ":10310,"teknik och ":10311,"gäller för ":10312,"tabell":10313,"kvalitets":10314,"kurser ":10315,"utbildning.\n":10316,"Paris":10317,"nästan alla ":10318,"Hej ":10319,"armé":10320,"stagram":10321,"omedelbar":10322,"Ännu ":10323,"kompetens ":10324,"förbereder ":10325,"pake":10326,"permanent ":10327,"Next ":10328,"Tycker ":10329,"bekväm ":10330," gra":10331,"Sko":10332,"lapp":10333,"rengör":10334,"tunga ":10335,"r och ":10336,"intr":10337,"inje":10338,"ar den ":10339,"och inte ":10340,"försi":10341,"dikt":10342,"na till ":10343,"spår ":10344,"givetvis ":10345,"gentemot ":10346,"fest":10347,"bilder.\n":10348,"när det är ":10349,"marg":10350,"Det är ju ":10351,"behöver.\n":10352,"händer":10353,"hon är ":10354,"två gånger ":10355,"uppgifter.\n":10356,"forskar":10357,"säkerheten ":10358,"Skick":10359,"leverans":10360,"intresserad ":10361,"ligger på ":10362,"tillgängligt ":10363,"pecial":10364,"detta":10365,"koloni":10366,"försäkring ":10367,"förmågan att ":10368,"universitet ":10369,"styra ":10370,"i Sverige ":10371,"Que":10372,"ingår i ":10373,"avstånd från ":10374,"italienska ":10375,"-]\n":10376,"Bli ":10377,"Mä":10378,"Sing":10379,"Tim":10380,"Word":10381,"lamp":10382,"ud ":10383,"zo":10384,"an!\n":10385,"en \"":10386,"i världen.\n":10387,"de här ":10388,"vis.\n":10389,"utbetal":10390,"ter med ":10391,"ursprun":10392,"verk.\n":10393,": En ":10394,"väger ":10395,"resa.\n":10396,"träder ":10397,"Hur kan ":10398,"allt är ":10399,"varje gång ":10400,"land\n":10401,"regn":10402,"option":10403,"vid s":10404,"brist":10405,"till slut ":10406,"bestämt ":10407,"faktiska ":10408,"penning":10409,"önskade ":10410,"Maria ":10411,"ordförande ":10412,"tråk":10413,"version av ":10414,"66":10415,"700":10416,"BB":10417,"EP":10418,"Ell":10419,"Len":10420,"Mass":10421,"Pale":10422,"Slo":10423,"fan ":10424,"ihåg":10425,"xid":10426,"ar från ":10427,"om inte ":10428,"avsikt":10429,"vig":10430,"agång":10431,"beskriva ":10432,"sport ":10433,"ten att ":10434,"niga ":10435,"kongress":10436,"samord":10437,"mineral":10438,"dags för ":10439,", sedan ":10440,"Instagram":10441,"veckor.\n":10442,"glu":10443,"om så ":10444,"Om vi ":10445,", men inte ":10446,"högkvalit":10447,"jämföra ":10448,"om det finns ":10449,"och skyd":10450,"sanna ":10451,"Presiden":10452,"yssel":10453,"framtid.\n":10454,"erfarenheter ":10455,"jämförelse ":10456," [-]\n":10457,"restauranger ":10458,"berättelse ":10459,"föremål för ":10460,"hundratals ":10461,"spartner":10462,"George ":10463,"Royal ":10464,"Häl":10465,"Sar":10466,"boli":10467,"ht ":10468,"ådan ":10469,"aning ":10470,"är han ":10471,"är helt ":10472,"amiska ":10473,"som gör ":10474,"ska man ":10475,"ta ett ":10476,"judiska ":10477,"men och ":10478,"påmin":10479,"under det ":10480,"I det ":10481,"början.\n":10482,"Antalet ":10483,"ktions":10484,"olika typer av ":10485,"blir en ":10486,"ts, ":10487,"Jose":10488,"mer än en ":10489,"lika mycket ":10490,"mängder ":10491,"försäm":10492,"kvartalet ":10493,"Studen":10494,"cancer ":10495,"ledarskap":10496,"semester":10497,"discipl":10498,"Cro":10499,"esi":10500,"king ":10501,"nats ":10502,"ent, ":10503,"att detta ":10504,"skin":10505,"och rådets ":10506,"för sina ":10507,"den med ":10508,"ssätt ":10509,"andliga ":10510,"are från ":10511,"man, ":10512,"arbetslös":10513,"hade varit ":10514,"State ":10515," sätta ":10516,"bakgrund":10517,"informera ":10518,"mig själv.\n":10519,"täck ":10520,"medicin ":10521,"hjärnan ":10522,"materiella ":10523,"antibio":10524,"Det var en ":10525,"snabba ":10526,"språk.\n":10527,"bolagets ":10528,"registrera ":10529,"Los ":10530,"kamp ":10531,"Adam":10532,"avsluta ":10533,"kontrakt ":10534,"ministeri":10535,"\" och \"":10536,"Mellan":10537,"Syftet med ":10538,"inbegrip":10539," februari ":10540,"G-":10541,"Rå":10542,"kä":10543,"vo":10544,"erade s":10545,"att välja ":10546,"terna":10547,"ut, ":10548,"till andra ":10549,"ss.\n":10550,"anda ":10551,"jag vet ":10552," skall":10553,"vi alla ":10554,"vi oss ":10555,"tro att ":10556,"bit ":10557,"frågan.\n":10558,"företräd":10559,"fyller ":10560,"frisk":10561,"hela tiden.\n":10562,"bord ":10563,"byggnad ":10564,"fall, ":10565,"lösningen ":10566," år sedan ":10567,"regler ":10568,"Kanad":10569,"Internationella ":10570,"uttrycka ":10571,"system för ":10572,"inkluder":10573,"frågor om ":10574,"jätte ":10575,"spolitik":10576,"enorma ":10577,"dubbla ":10578,"album ":10579,"Abraham":10580,"CA":10581,"Mann":10582,"SP":10583,"V-":10584,"pin":10585,"inse ":10586,"g till ":10587,"att hålla ":10588,"i vissa ":10589,"till sitt ":10590,"den senaste ":10591,"ter eller ":10592,"räm":10593,"ad s":10594,"umul":10595,"reser ":10596,"stry":10597,"– en ":10598,"arbetat ":10599,"ish":10600,"låtar ":10601,"barn som ":10602,"kvinnor":10603,"leverans ":10604,"riskerar ":10605,"angående ":10606,"känsla ":10607,"typen av ":10608,"detta?\n":10609,"online.\n":10610,"lament":10611,"Big ":10612,"tacka ":10613,"datorn ":10614,"ideali":10615,"förvärv":10616,"vittnes":10617,"Arbets":10618,"Colleg":10619,"byrån ":10620,"progno":10621,"Management ":10622,"intellektu":10623," ​​":10624,"Pan":10625,"Ram":10626,"Sco":10627,"Speciellt ":10628,"Tran":10629,"fund":10630,"pass ":10631,"sinne":10632,"way ":10633,"Ã¤":10634,"ätter ":10635,"anim":10636,"om\n":10637,"en kommer att ":10638,"är och ":10639,"et: ":10640,"tillskott ":10641,"undr":10642,"på våra ":10643,"on är ":10644," och andra ":10645,"in till ":10646,"fili":10647,"när som helst ":10648,"används för ":10649,"få ett ":10650,"skiljer ":10651,"medel.\n":10652,"nabbt ":10653,"Markna":10654,"känner sig ":10655,"kvalitet.\n":10656,"träffade ":10657,"makt ":10658,"begränsade ":10659,"Grund":10660,"kväll ":10661,"mamma":10662,"heter\n":10663,"bonus ":10664,"standard":10665,"närvaro ":10666,"omständigheter ":10667,"diabe":10668,"tjock":10669,"japanska ":10670,"föreläs":10671,"illustr":10672,"Europaparlamentets och rådets ":10673,"Saker att göra i närheten av ":10674,"helt och håll":10675,"Annars ":10676,"välbefinn":10677,"MB":10678,"Så s":10679,"Vall":10680,"ta, ":10681,"ton.\n":10682,"wn":10683,"intryck":10684,"en kommer ":10685,"en-":10686,"avslöja ":10687,"vibr":10688,"siff":10689,"på ditt ":10690,"på morgon":10691,"har man ":10692,"ing eller ":10693,"ska du ":10694,"du kommer ":10695,"trupp":10696,"hålls ":10697,"pot":10698,", sa ":10699,"hands":10700,"framtid ":10701,"framtid":10702,"ha varit ":10703,"Men vi ":10704,"arbetade ":10705,"Om jag ":10706,"Stör":10707,"unikt ":10708,"kontor ":10709,"liknande":10710,"Att vara ":10711,"Hotell":10712,"som sam":10713,"kraftigt ":10714,"mäster":10715,"att de är ":10716,"själva.\n":10717,"Konst":10718,"stöd för ":10719,"ade sin ":10720,"Europeiska union":10721,"huvud ":10722,"bidra till ":10723,"sperson":10724,"Hjälp ":10725,"modul":10726,"%.\n":10727,"Clu":10728,"Fant":10729,"Kung":10730,"Pet":10731,"Shi":10732,"still":10733,"sh ":10734,"vent":10735,"’ ":10736,"”Jag ":10737,"är bara ":10738,"stär":10739,"skatt ":10740,"i många ":10741,"el, ":10742,"sias":10743,"lexi":10744,"inte det ":10745,"giss":10746,"fiske":10747,"nej":10748,"överföra ":10749,"här och ":10750,"total ":10751,"stabil":10752,"valt att ":10753,"ägna ":10754,"jukdom ":10755,"ocial":10756,"hos en ":10757,"kropp.\n":10758,"resultat":10759,"frustr":10760,"splats ":10761,"förenkl":10762,"uppdatera ":10763,"glömmer ":10764,"medborgar":10765," stöder ":10766,"Vi ser ":10767,"konto.\n":10768,"aggressi":10769,"befinner sig ":10770,"Istället ":10771,"Thomas ":10772,"arrangeman":10773,"HERREN":10774,"& S":10775,"),\n":10776,"59":10777,"One ":10778,"Sil":10779,"a” ":10780,"hack":10781,"mån ":10782,"art ":10783,"utdel":10784,"lektion":10785,"ningsprocess":10786,"kan även ":10787,"men, ":10788,"Ingen":10789,"ker, ":10790,"kött":10791," i en ":10792,"trätt ":10793,"press ":10794,"skilja ":10795,"ni har ":10796,"kallat ":10797,"Lite ":10798,"blev det ":10799,"nordiska ":10800,"Här finns ":10801,"160":10802,"förordningen ":10803,"gör det möjligt för ":10804,"böcker.\n":10805,"normal ":10806,"situation":10807,"rörelse":10808," språ":10809,"demokratiska ":10810,"officiellt ":10811,"Malmö":10812,"På så":10813,"Gamla ":10814,"gruv":10815,"Kontrollera ":10816,"beslutsfatt":10817,"Bay":10818,"Clin":10819,"Ja":10820,"OK":10821,"Pho":10822,"Sat":10823,"aden":10824,"cu":10825,"fakta ":10826,"pel ":10827,"ward ":10828,"omfatta ":10829,"en är en ":10830,"erska ":10831,"era, ":10832,"ar de ":10833,"är mer ":10834,"e av ":10835,"as genom ":10836,"ning för att ":10837,"årtion":10838,"verkade ":10839,"hållas ":10840,"are!\n":10841,"steget ":10842,"sons ":10843,"senare.\n":10844,"abon":10845,"röm":10846,"försvara ":10847,"Eng":10848,"komma ihåg ":10849,"namn och ":10850,"att du inte ":10851,"levereras ":10852,"Martin ":10853,"besökte ":10854,"arbete och ":10855,"musik.\n":10856,"finansiering ":10857,"Tekni":10858,"begränsat ":10859,"vad som händer ":10860,"numera ":10861,"skiv":10862,"relevant ":10863,"i alla fall ":10864,"you ":10865,"avsnittet ":10866,"framgångsrikt ":10867,"365":10868,"Skriv ":10869,"eleverna ":10870,"fortsatte ":10871,"annorlunda.\n":10872,"A och ":10873,"Kaliforni":10874,"Mid":10875,"One":10876,"Ren":10877,"Rapp":10878,"gs":10879,"g, ":10880,"mas ":10881,"tar.\n":10882,"» ":10883,"team ":10884,"är ju ":10885,"skt, ":10886,"i dessa ":10887,"one":10888,"för?\n":10889,"på hur ":10890,"and, ":10891,"uppför":10892,"proportion":10893,"ning av s":10894,"Jag är en ":10895,"mind":10896,"ökning av ":10897,"dagligen ":10898,"männ":10899,"finns.\n":10900,"användare.\n":10901,"vensk ":10902,"förstod ":10903,"däribland ":10904,"vet, ":10905,"programm":10906,"mission ":10907,"slagna ":10908,"Varför är ":10909,"övre ":10910,"solda":10911,"grej":10912,"hjärtat av ":10913,"pappers":10914,"vänner och ":10915,"skatta ":10916,"kan det vara ":10917,"Mer än ":10918,"omöjligt att ":10919,"överenskommel":10920,"På så sätt ":10921,"Smi":10922,"Smar":10923,"Som s":10924,"Spe":10925,"Väg":10926,"s för att ":10927,"förbi":10928,"reform":10929,"eld ":10930,"ro ":10931,"sisk ":10932,"med alla ":10933,"varav ":10934,"har gått ":10935,"kan de ":10936,"Det innebär att ":10937,"ulet":10938,"kung ":10939,"ade: ":10940,"feed":10941,"stin ":10942,"Vi får ":10943,"kret ":10944,"ansöka ":10945,"saker och ":10946,"dem till ":10947,"rösta ":10948,"förebygga ":10949,"här?\n":10950,"här: ":10951,"ryss":10952,"behandlings":10953,"byggdes ":10954,"derna i ":10955,"Liv":10956,"cool":10957,"indikat":10958,"rapporterar ":10959,"processen ":10960," spän":10961,"Vilka är ":10962,"You ":10963,"Proc":10964,"giltig":10965,"guide ":10966,"rasili":10967,"faktum att ":10968,"Undvik ":10969,"protokoll":10970,"tillkännag":10971," kommer ":10972,"DR":10973,"dvs. ":10974,"tav":10975,"deleg":10976,"ombi":10977,"tiv":10978,"ar för att ":10979,"lick":10980,"i olika ":10981,"onen ":10982,"et var ":10983,"vi ser ":10984,"cker ":10985,"sspel":10986,"ter har ":10987,"aki":10988,"spendera ":10989,"läs ":10990,"säkr":10991,"ning har ":10992,"så är ":10993,"dru":10994,"beträff":10995,"verksamma ":10996,"med sitt ":10997,"hou":10998,"troligen ":10999,"görel":11000,"här i ":11001,"– med beakt":11002,"parte":11003,"sion.\n":11004,"hjälpt ":11005,"För mig ":11006," säker ":11007,"hela världen ":11008,"viktigt.\n":11009,"kroppens ":11010,"kraftverk":11011,"tillgänglig":11012,"förutsäg":11013,"köpa en ":11014,"lämpligt ":11015,", samtidigt som ":11016,"ätts":11017,"ology ":11018,"Black ":11019,"över hela världen.\n":11020,"låt oss ":11021,"WEB ":11022,"Bitcoin ":11023," inte ":11024,"Bra":11025,"CC":11026,"OP":11027,"fe ":11028,"iak":11029,"införa ":11030,"en upp":11031,"och mest ":11032,"förbu":11033,"vice ":11034,"ärt ":11035,"robo":11036,"ta hand om ":11037,"da av ":11038,"jag älskar ":11039,"gitar":11040," styck":11041,"så kallade ":11042,"du skulle ":11043,"biologiska ":11044,"Vi använder ":11045,"väldig":11046,"mötet ":11047,"inte ska ":11048,"hur vi ":11049,"vill inte ":11050,"livsti":11051,"vid ett ":11052,"ningar från ":11053,"ce\n":11054,"utvecklade ":11055,"något av ":11056,"fortsä":11057,"noll":11058,"arbetet.\n":11059,"tidpunkt ":11060,"fick jag ":11061,"Cham":11062,"honom och ":11063,"träffat ":11064," år och ":11065,"svart ":11066,"beroende":11067,"förutsättning ":11068,"text":11069,"brukade ":11070,"stats":11071,"kommunikations":11072,"Harry ":11073,"Vi ska ":11074,"egenskaper ":11075,"ight ":11076,"krav på ":11077,"Trans":11078,"elektri":11079,"bomb":11080,"Just nu ":11081,"framförallt ":11082,"Observera att ":11083,"67":11084,"Even":11085,"Ha ":11086,"Sov":11087,"Svenska ":11088,"dy ":11089,"mati":11090,"inhem":11091,"insåg ":11092,"enast":11093,"skan":11094,"i vårt ":11095,"förmedl":11096,"vi skulle ":11097,"den stora ":11098,"rakt ":11099,"fordr":11100,"dig!\n":11101,"kommer jag ":11102,"du?\n":11103,"blod ":11104,"Den har ":11105,"över att ":11106,"löser ":11107,"erna har ":11108,"godo":11109,"fortsätt":11110,"vention ":11111,"dating ":11112,"områden som ":11113,"regering ":11114,"vägagång":11115,"ändrar ":11116,"Gud och ":11117,"rädd för ":11118,"också s":11119,"rummet.\n":11120,"djup ":11121,"hårda ":11122,"sanningen ":11123," skriv":11124,"hundar ":11125,"flicka ":11126,"utmaningar ":11127,"motsvar":11128,"författaren ":11129,"glömt ":11130,"detaljer ":11131,"potential ":11132,"Wiki":11133,"faktorer ":11134,"visat sig ":11135,"licensi":11136,"Herrens ":11137,"lyfta ":11138,"Washington ":11139,"Kontakta ":11140,"!!":11141,"(A":11142,"+\n":11143,"Cer":11144,"Jak":11145,"Rel":11146,"cre":11147,"d s":11148,"fläck":11149,"ja":11150,"nån":11151,"nar.\n":11152,"a in ":11153,"order ":11154,"tillägg ":11155,"na är ":11156,"ssäker":11157,"äldre":11158,"vänliga ":11159,"blu":11160,"ktar ":11161,"dig för ":11162,"arna som ":11163,"också ett ":11164,"pedi":11165,"Anti":11166,"Förra ":11167,". ”":11168,"näst ":11169,"korrup":11170,"pris.\n":11171,"senast ":11172,"tag.\n":11173,"aboli":11174,"föreskriv":11175,"vinster ":11176,"bestående ":11177,"lägsta ":11178,"flera olika ":11179,"Hos ":11180,"teknik.\n":11181,"kraft.\n":11182,"träning ":11183,"140":11184,"Previ":11185,"tydliga ":11186,"det finns en ":11187,"kombinera ":11188,"kallas för ":11189,"inkludera ":11190,"bredvid ":11191,"ansvarig ":11192,"sällsyn":11193,"skaffa ":11194,"tvingas ":11195,"utrymme ":11196,"räknas ":11197,"industrin.\n":11198,"tillbring":11199,"bedrägeri":11200,"Också ":11201," L":11202,">>":11203,"Sig":11204,"Wall":11205,"svär":11206,"snäll":11207,"anteck":11208,"anden, ":11209,"erligen ":11210,"i den här ":11211,"et från ":11212,"förnuf":11213,"inte ett ":11214,"kompi":11215,"ska vi ":11216,"ade den ":11217,"spli":11218,"denne ":11219,"gren":11220,"gen?\n":11221,"urf":11222,"för att bli ":11223,"konfli":11224,"prov ":11225,"plock":11226,"bla ":11227,", speciellt ":11228,"brun":11229,"välsign":11230,"liv, ":11231,"där vi ":11232,"frågor":11233,"fint ":11234,"hänvis":11235,"bra och ":11236,"hustr":11237,"härlig ":11238,"längst ":11239,"bestån":11240,"funkar ":11241,"bland de ":11242,"Det finns inga ":11243,"Med en ":11244,"förändring ":11245,"Samtliga ":11246,"gjorde det ":11247,"blods":11248,"dropp":11249,"sorts ":11250,"upptäcker ":11251,"författare ":11252,"höjd":11253,"Europeiska unionens ":11254,"ländsk ":11255,"huvudet ":11256,"komponen":11257,"Naturligtvis ":11258,"gymnasi":11259,"Richard ":11260," mi":11261,"):":11262,"EA":11263,"Fu":11264,"Ku":11265,"W ":11266,"k som ":11267,"kare ":11268,"kten.\n":11269,"sar":11270,"anlän":11271,"en inte ":11272,"en dag ":11273,"orgi":11274,"uth ":11275,"till alla ":11276,"nad av ":11277,"ågs ":11278,"asyl":11279,"ta sig ":11280," stöd":11281,"typer":11282,"nej ":11283,"arna att ":11284,"olid":11285,"användning.\n":11286,"sökande ":11287,"het?\n":11288,"valet ":11289,"flyga ":11290,"förekommande ":11291,"folk.\n":11292,"direkta ":11293,"plats i ":11294,"Mark ":11295,"miljö ":11296,"189":11297,"tecken på ":11298,"att jag är ":11299,"kontroll.\n":11300,"skottet ":11301,"alternativet ":11302,"budget ":11303,"ymbol":11304,"drott":11305,"analysera ":11306,"två.\n":11307,"film.\n":11308,"qui":11309,"heterna.\n":11310,"azz":11311,"balans ":11312,"psyko":11313,"skontroll":11314,"restauran":11315,"erfarenhet av ":11316,"sällan ":11317,"flertal ":11318,"dröm ":11319,"baserad på ":11320,"begreppet ":11321," skiljer ":11322,"miljontals ":11323,"avlägsna ":11324,"beskrivs ":11325,"veterin":11326,"bundna ":11327,"Fru":11328,"PD":11329,"but":11330,"cle":11331,"est":11332,"gna ":11333,"yog":11334,"anden":11335,"tiden":11336,"tive ":11337,"ende s":11338,"i första ":11339,"tilläg":11340,"revision":11341,"är?\n":11342,"diplom":11343,"delar.\n":11344,"slår ":11345,"med\n":11346,"mått":11347,"dag!\n":11348,"ade: \"":11349,"het är ":11350,"välsig":11351,"arna har ":11352,"– Jag ":11353,"efter ett ":11354,"löne":11355,"även att ":11356,"ner till ":11357,"match ":11358,"kvinnorna ":11359,"Så jag ":11360,"media ":11361,"annat sätt ":11362,"tax":11363,"i stort ":11364,"om det inte ":11365,"tillämpningen av ":11366,"ansvarar för ":11367,"skif":11368,"full av ":11369,"möjligheter att ":11370,"Ändå ":11371,"Jag vet inte ":11372,"uppmuntra ":11373,"Tack vare ":11374,"noggrant ":11375,"Årets ":11376,"matemati":11377,"inbegripet ":11378," den ":11379,"\" är ":11380,"I ställ":11381,"Lar":11382,"Peng":11383,"Pass":11384,"Ty ":11385,"est ":11386,"kull":11387,"n har ":11388,"index":11389," snar":11390,"är: ":11391,"bevara ":11392,"med detta ":11393,"för att hitta ":11394,"för att säkerställa ":11395,"med sk":11396,"glad":11397,"där du kan ":11398,"box ":11399,"ningar om ":11400,"börja med ":11401,"länk ":11402,"någon gång ":11403,"Allah":11404,"allt från ":11405,"filosofi":11406,"bjuder ":11407,"föreskri":11408,"nu!\n":11409,"fossi":11410,"pion":11411,"alltså":11412,"Som en ":11413,"stadg":11414,"Tillbak":11415,"design och ":11416,"kunskap och ":11417,"tillämpas ":11418,"träna ":11419,"inklusive":11420,"nivåer ":11421,", säger han.\n":11422,"trädande ":11423,"Manche":11424,"Helt ":11425,"kvar i ":11426,"Storbritannien ":11427,"lite s":11428,"sprida ":11429,"elektriska ":11430,"perspektiv ":11431,"känsliga ":11432,"flykting":11433,"någon annan":11434,"reaktion ":11435,"skedj":11436,"inflytande ":11437,"överensstämmelse ":11438,"vare sig ":11439,"utrikes":11440,"\"?\n":11441,"DA":11442,"Hor":11443,"LT":11444,"Ten":11445,"astr":11446,"dd":11447,"njur":11448,"rat":11449,"departe":11450,"en och s":11451,"era":11452,"erna\n":11453,"av sam":11454,"till\n":11455,"det där ":11456,"på dina ":11457,"till min ":11458,"fry":11459,"ra\n":11460,"uppst":11461,"Det gäller ":11462,"från och med ":11463,"konstan":11464,"Jag önskar ":11465,"man är ":11466,"orison":11467,"kryss":11468,", och den ":11469,"ts till ":11470,"laga ":11471,"terna i ":11472,"återigen ":11473,"områden":11474,"vilket är ":11475,"kvinnan ":11476,"metod":11477,"USA, ":11478,"egendom":11479,"central ":11480,"besökare ":11481,"jämlik":11482,"hyres":11483,"designer":11484,"Gud har ":11485,"Jesu ":11486,"transpar":11487,"Nordi":11488,"styrka ":11489,"transport ":11490,"Flori":11491,"ansluta ":11492,"förfarandet ":11493,"övervaka ":11494,"blomm":11495," sägs ":11496,"förändringar i ":11497,"initiativ ":11498,"genomsnitt ":11499,"velat ":11500,"prenumer":11501,"hellre ":11502,"dricker ":11503,"förtjänar ":11504,"aktieäg":11505,"obehag":11506,"tvekan ":11507,"palestin":11508,"Casino ":11509,"entusias":11510,"01":11511,"51":11512,"CN":11513,"CS":11514,"GU":11515,"Gul":11516,"Lö":11517,"Lan":11518,"Mel":11519,"Sy":11520,"back ":11521,"dof":11522,"lår ":11523,"s.":11524,"Ön":11525,"n på ":11526,"dell":11527,"de skulle ":11528,"en viss ":11529,"timi":11530,"skör":11531,"tillträ":11532,"dirig":11533,"aker som ":11534,"forma":11535,"plån":11536,"alla dina ":11537,"på sitt ":11538,"ens och ":11539,"Vi hade ":11540,"strö":11541,") har ":11542,"sig för att ":11543,"genom ett ":11544,"egel":11545,"För en ":11546,"händerna ":11547,"slut.\n":11548,"Red ":11549,"barnets ":11550,"tänk ":11551,"människor att ":11552,"storlek ":11553,"program som ":11554,"ju inte ":11555,"intresse":11556,"mäkl":11557,"fortfarande":11558,"i stor":11559,"börjar med ":11560,"Alternati":11561,"myndighet ":11562,"kolum":11563,"ögonblick ":11564,"brev":11565,"partiet ":11566,"bygga en ":11567,"högre än ":11568,"en av de mest ":11569,"kust":11570,"specifik ":11571,"skrav":11572,"fungerar.\n":11573,"Miljö":11574,"tablet":11575," ;)\n":11576,"Mellanöster":11577,"Ak":11578,"Awar":11579,"Jord":11580,"Mis":11581,"Rock":11582,"stens ":11583,"vamp":11584,"n (":11585,"enhet.\n":11586,"et är att ":11587,"du gör ":11588,"vänlig ":11589," stä":11590,"något":11591,"plåg":11592,"ger oss ":11593,"sering":11594,"nyfik":11595,"men jag ":11596,"ade som ":11597,"överallt.\n":11598,") är en ":11599,"ation (":11600,"mycket att ":11601,"frågorna ":11602,"utvecklat ":11603,"lyx":11604,"bestämde ":11605,"känner till ":11606,"Post":11607,"frågan om ":11608,"accept":11609,"räknar ":11610,"skyldiga ":11611,"Vänligen ":11612,"huvudsakligen ":11613,"Världens ":11614,"hälften ":11615,"viktminsk":11616,"former av ":11617,"jobbet.\n":11618,"komsten av ":11619,"Daniel ":11620,"Skillna":11621,"Helsingfor":11622," =":11623,"\" i ":11624,"900":11625,"Fer":11626,"HT":11627,"Hän":11628,"MP":11629,"Rum":11630,"X-":11631,"bus":11632,"cas":11633,"pet":11634,"sin":11635,"slä":11636,"ässiga ":11637,"inbör":11638,"ander ":11639,"anmärk":11640,"ar jag ":11641,"stun":11642,"i flera ":11643,"orm":11644,"för våra ":11645,"förtryck":11646,"tillgodo":11647,"rek":11648,"vist":11649,"det blir ":11650,"utom att ":11651,"med dig ":11652,"alla":11653,"olämp":11654,"inner":11655,"bara.\n":11656,"för att minska ":11657,"konst ":11658,"dum":11659,"plan.\n":11660,"Jag är inte ":11661,"verk ":11662,"ger och ":11663,"post ":11664,"ktör":11665,"trop":11666,"ång.\n":11667,"han hade ":11668,"mening":11669,"resan ":11670,"under ett ":11671,"arbetskraf":11672,"En del ":11673,"tid på ":11674,"Du bör ":11675,"utveckling, ":11676,"kött ":11677,"itu ":11678,"möjligheterna ":11679,"kommand":11680,"politiken ":11681,"Undrar ":11682,"stänga ":11683,"mäss":11684,"ämnen ":11685,"kan vara en ":11686,"skott":11687,"riktlinjer ":11688,"Hem ":11689,"Maj":11690,"170":11691,"Internation":11692,"air ":11693,"social ":11694,"innehåll.\n":11695,"demokra":11696,"och samhäll":11697,"gott om ":11698,"behövs för att ":11699,"stjänster ":11700,"Paulus ":11701,"äventyr ":11702,"cancer.\n":11703,"kulturell":11704,"depression ":11705,"funktionshin":11706,"disciplin":11707,"Bätt":11708,"Ret":11709,"fam":11710,"igenom":11711,"pum":11712,"särskild ":11713,"udi":11714,"ywo":11715,"sk st":11716,"e eller ":11717,"et kan ":11718,"mer som ":11719,"år sedan.\n":11720,"jag en ":11721,"för att undvika ":11722,"kondition":11723,"ök ":11724,"exakta ":11725,"påbörj":11726,"bäst":11727,"och se":11728,"i spel":11729,"– Vi ":11730,"kant ":11731,"paradi":11732,"användnings":11733,"personlig":11734,"efter det ":11735,"finan":11736,"oss på ":11737,"någon form av ":11738,"slutliga ":11739,"predi":11740,"boken.\n":11741,"som skulle ":11742,"långsiktig":11743,"tekniker ":11744,"pengar":11745,"allting ":11746,"specialiser":11747,"skall vara ":11748,"hyper":11749,"reglerna ":11750,"gå.\n":11751,"Plat":11752,"hälsosam ":11753,"bra, ":11754,"artiklar ":11755,"istället för att ":11756,"Compan":11757,"Köp ":11758,"medarbetare ":11759,"flexibili":11760,"åsikter ":11761,"insess":11762,"arkitektur":11763,"innefattar ":11764,",”":11765,"52":11766,"CI":11767,"EF":11768,"Ever":11769,"Ji":11770,"Star ":11771,"VPN":11772,"au ":11773,"ction":11774,"oxi":11775,"int":11776,"tika ":11777,"en,\n":11778,"än.\n":11779,"al, ":11780,"sida":11781,"mer eller ":11782,"eller hon ":11783,"vänskap":11784,"från din ":11785,"or eller ":11786,"för att ha ":11787," strä":11788,"ning kan ":11789,"verkligt ":11790,"seras ":11791,": en ":11792,"dagen, ":11793,"överklag":11794,"övergrepp":11795,"son, ":11796,"mapp":11797,"Det är den ":11798,"göra något ":11799,"Men nu ":11800,"ffer":11801,"där man ":11802,"sions":11803,"gott":11804,"sättning.\n":11805,"miljön.\n":11806,"låna ":11807,"till en annan ":11808,"Miss":11809,"grund för ":11810,"rena ":11811,"Som ett ":11812,"sitt eget ":11813,"rapportera ":11814,"kommunicer":11815,"offentligt ":11816,"Berätta ":11817,"chef ":11818,"status ":11819,"basi":11820,"vatten och ":11821,"ING":11822,"försäkring":11823,"skillnaden mellan ":11824,"demokrat":11825,"Filmen ":11826,"sociala medi":11827,"attraktion":11828,"logisti":11829,"drömmar ":11830,"radik":11831,"Master ":11832,"elektronisk ":11833,"dollar.\n":11834,"Fyra ":11835,"sprojekt ":11836,"Dr. ":11837,"European ":11838,"Techn":11839,"Angele":11840,"130":11841,"Bir":11842,"In ":11843,"Kam":11844,"ca":11845,"fans ":11846,"jämn":11847,"kallt ":11848,"kter, ":11849,"teten.\n":11850,"anvis":11851,"tidens ":11852,"enz":11853,"skvali":11854,"för denna ":11855,"tillvägagång":11856,"vikt.\n":11857,"ssätt":11858,"ningsti":11859,"andas ":11860,"kan en ":11861,"ande att ":11862,"ad på ":11863," stol":11864,"dusch":11865,"in i en ":11866,"väder":11867,"kunde s":11868,"visade sig ":11869,"annan.\n":11870,"ation som ":11871,"ningar till ":11872,"det är ett ":11873,"Standar":11874,"vill s":11875,"jag såg ":11876,"märker ":11877,"återspegl":11878,"fullkom":11879,"kross":11880,"lösning.\n":11881,"magi":11882,"världens mest ":11883,"sociali":11884,"säga att ":11885,"medlemsstaternas ":11886,"baby":11887,"virus":11888,"positiv":11889,"mysteri":11890,"falska ":11891,"middag ":11892," står för ":11893,"betydelse":11894,"City ":11895,"kraftfulla ":11896,"Chic":11897,"imponerande ":11898,"lönsam":11899,"Visst ":11900,"resolution ":11901,"intäkter ":11902,"hydra":11903,"Tillsammans ":11904,"civilis":11905,"CR":11906,"ET ":11907,"Im":11908,"Kal":11909,"MA":11910,"Pati":11911,"Phi":11912,"Tje":11913,"båg":11914,"pump":11915,"é.\n":11916,"te sig ":11917,"avvikel":11918,"för första gången ":11919,"meter ":11920,"det med ":11921,"det nya ":11922,"den att ":11923,"ut?\n":11924,"uppstå ":11925,"olska ":11926,"derna":11927,"heim":11928,"nig":11929,"plocka ":11930,"fisk ":11931,"hantverk":11932,"bara för ":11933,"parlament":11934,"produkti":11935,"driven ":11936,"människo":11937,"Demo":11938,"friska ":11939,"priserna ":11940,"klart.\n":11941,"vinst ":11942,"försvinner ":11943,"ge en ":11944,"barn\n":11945,"vägar ":11946,"tidskrif":11947,"um för ":11948,"månad":11949,"försökt ":11950,"verksamhets":11951,"cyber":11952,"Aldri":11953,"alternativa ":11954,"dyker ":11955,"tjänster och ":11956,"veta om ":11957,"bilder från ":11958,"Känns ":11959," skickar ":11960,"fängsl":11961,"patienter med ":11962,"framgångsrik ":11963,"trevlig ":11964,"perspektiv":11965,"övertygad ":11966,"äventyr":11967,"gillade ":11968,"infrastruktur ":11969,"manipul":11970,"Paris ":11971,"utsträckning ":11972,"Air ":11973,"Volvo ":11974,"utvidg":11975,"Los Angele":11976,"Previous ":11977,"''":11978,"72":11979,"Ah":11980,"Går ":11981,"Ly":11982,"Mamma ":11983,"OT":11984,"UR":11985,"ke och ":11986,"ms":11987,"op ":11988,"inska ":11989,"atör ":11990,"ard":11991,"e har ":11992,"avsikt ":11993,"et om ":11994,"ream":11995,"reserver":11996,"reagerar ":11997,"alem":11998,"den kan ":11999,"ett brett ":12000,"aku":12001,"mix":12002,"var mycket ":12003,"bl.a. ":12004,"man ska ":12005,"tystna":12006,"a, eller ":12007,"menings":12008,"vill vi ":12009,"där den ":12010,"ningar eller ":12011,"försvinn":12012,"Vart ":12013,"företagen ":12014," (\"":12015,"tanke":12016,"långsam":12017,"någon.\n":12018,"ekonomi ":12019,"punkt":12020,"försök ":12021,"utbildning och ":12022,"Tillverk":12023,"snabbt.\n":12024,"användas för att ":12025,"från.\n":12026,"rörande ":12027,"experter ":12028,"upplevelse.\n":12029,"hotell i ":12030,"tumör":12031,"-åriga ":12032,"LC":12033,"Rätt ":12034,"Service":12035,"clo":12036,"ez":12037,"katt":12038,"ko ":12039,"sår":12040,"tiden, ":12041,"g med ":12042,"et, som ":12043,"vit":12044,"alj":12045,"varma ":12046,"inte med ":12047," som de ":12048,"granska ":12049,"deltog ":12050,"för att du ":12051,"var de ":12052,"åren har ":12053," skön":12054,"veget":12055,"överhuvud":12056,"överleva ":12057,"ström ":12058,"oriska ":12059,"- en ":12060,"ut en ":12061,"inte\n":12062,"pedag":12063,"får vi ":12064,"utan även ":12065,"tagg":12066,"här, ":12067,"människor i ":12068,"mata ":12069,"är inte en ":12070,"blev en ":12071,"kärleken ":12072,"grunden för ":12073,"tion av ":12074,"hjälpa till att ":12075,"uppgifter om ":12076,"frukost":12077,"Kan man ":12078,"förhållanden.\n":12079,"kontakt ":12080,"läkare.\n":12081,"tillfälligt ":12082,"maskin ":12083,"kolog":12084,"populär ":12085,"integrerad ":12086,"januari":12087,"glädj":12088,"darsy":12089,"redo för ":12090,"Världs":12091,"fågel":12092,"direktör":12093,"Nordkore":12094,"i stället för ":12095,"prioriter":12096,"tittar på ":12097,"uthyr":12098,"God":12099,"Mill":12100,"böj":12101,"dd ":12102,"svara ":12103,"antik":12104,"aren av ":12105,"eröv":12106,"orden ":12107,"an om ":12108,"e of ":12109,"rida ":12110,"på rätt ":12111,"utöv":12112,"alltid.\n":12113,"ell.\n":12114,"har ni ":12115,"ning, och ":12116,"upphandl":12117,"Det kommer att ":12118,"Det verkar ":12119,"delade ":12120,"semi":12121,"dig själv.\n":12122,"kommer det att ":12123,"tron":12124,"tet som ":12125,"k är ":12126,"överflö":12127,"syste":12128,"ser ut ":12129,"undra ":12130,"livet, ":12131,"ce, ":12132,"länder och ":12133,"log ":12134,"hänger ":12135,"dant ":12136,"vill se ":12137,"filer ":12138,"vinna.\n":12139,"de sin ":12140,"problemen ":12141,"day ":12142,"planerade ":12143,"ständiga ":12144,"rätte":12145,"väldigt mycket ":12146,"självklart ":12147,"familjen.\n":12148,"missbruk":12149,"Uppgif":12150,"vetenskaplig ":12151,"Finlands ":12152,"beslut om ":12153,"rörelse ":12154,"roll.\n":12155,"villkor.\n":12156,"bortom ":12157,"välkomnar ":12158,"skratt":12159,"bekräfta ":12160,"Jeho":12161,"prata om ":12162,"resulterar ":12163,"sprodukter ":12164,"beräknas ":12165,"Android":12166,"europeisk ":12167,"bryr sig ":12168,"William":12169,"Blir ":12170,"Fantas":12171," dag":12172,"77":12173,"Dam":12174,"Jud":12175,"Jac":12176,"May":12177,"Spa":12178,"kas":12179,"inträ":12180,"lle":12181,"omet":12182,"ont ":12183,"onym":12184,"till ditt ":12185,"beskatt":12186,"fräls":12187,"givet ":12188," och har ":12189,"ställe ":12190,"andra världskri":12191,"och ser ":12192,"ingen roll ":12193,"om sina ":12194,"Om de ":12195,"saknar ":12196,"måste jag ":12197,"mig en ":12198,"låten ":12199,"efterlev":12200,"växth":12201,"appara":12202,"gälla ":12203,"Live ":12204,"Hotel":12205,"es\n":12206,"kärl":12207,"hoppa ":12208,"Jour":12209,"slag.\n":12210,"i Spani":12211,"luta ":12212,"ception":12213,"jöd ":12214,"förhållandet ":12215,"tillämpning av ":12216,"att ha en ":12217,"handeln ":12218,"riktigt bra ":12219,"nationali":12220," spelar ":12221,"fanns det ":12222,"framgång.\n":12223,"utrustning ":12224,"trött ":12225,"konstruktion":12226,"annonser ":12227,"skådespel":12228,"näringsäm":12229,"någonsin.\n":12230,"tillhörande ":12231,"Chicag":12232,"58":12233,"Börj":12234,"Gaz":12235,"iss":12236,"ma, ":12237,"massi":12238,"og ":12239,"svår ":12240,"” som ":12241,"och.\n":12242,"är din ":12243,"stycket ":12244,"avtryck":12245,"et eller ":12246,"av din ":12247,"uppre":12248,"ol.\n":12249,"för att förhindra ":12250,"kommer de ":12251,"du som ":12252,"trum":12253,"Jag förstår ":12254,"använts ":12255,"fly ":12256,"dag?\n":12257,"bilar.\n":12258,"Det är bara ":12259,"I vissa ":12260,"erna till ":12261,"utan också ":12262,"träd ":12263,"privi":12264,"Han hade ":12265,"mellan de ":12266,"spektr":12267,"klarar ":12268,"skulle jag ":12269,"regiss":12270,"startade ":12271,"Nej ":12272,"aldrig varit ":12273,"slaget ":12274,"också!\n":12275,"186":12276,"brygg":12277,"peciali":12278,"pecialiser":12279," kilome":12280,"text ":12281,"upptäckte ":12282,"hjärta.\n":12283,"läkemedl":12284," saknar ":12285," ställer ":12286,"Facebook ":12287,"konsekvent ":12288,"ändamål ":12289,"avtal med ":12290,"kungari":12291,"Regissör":12292,"ändamål.\n":12293,"Slutligen ":12294,"Institute ":12295,"dubbelt ":12296,"reflek":12297,"poker":12298,"Kvinnor ":12299,"--":12300,"110":12301,"Brasili":12302,"Ger":12303,"Käll":12304,"SM":12305,"Själv ":12306,"n?\n":12307,"yta ":12308,"ÄR":12309,"at?\n":12310,"atliga ":12311,"er inom ":12312,"enter":12313,"star ":12314,"stini":12315,"att hitta ":12316,"ing-":12317,"det vill säga ":12318,"ake":12319,"are (":12320," skäl":12321,"stif":12322,"Vi erbjuder ":12323,"ighet ":12324,") (":12325,"tui":12326,"ingen i ":12327,"to-":12328,"nätet ":12329,"spelaren ":12330,"Vita ":12331,"vet jag ":12332,"allt detta ":12333,"jag, ":12334,"app ":12335,"större":12336,"eftersom den ":12337,"ljuset ":12338,"alltmer ":12339,"och stö":12340,"tillbaka i ":12341,"Utbild":12342,"Max":12343,"Sverige.\n":12344,"Franci":12345,"bedömning av ":12346,"partnerskap":12347,"mjölk":12348,"fotografi":12349,"House ":12350,"Övriga ":12351,"koldioxid":12352,"Jerusalem":12353,"andinavi":12354,"\"The ":12355,"56":12356,"A. ":12357,"AB ":12358,"BM":12359,"Cir":12360,"GD":12361,"Läm":12362,"Off":12363,"Pop":12364,"aska ":12365,"dom s":12366,"es och ":12367,"hyr":12368,"kilome":12369,"lant":12370,"| ":12371,"sk, ":12372,"skäll":12373,"förvån":12374,"restri":12375,"republi":12376,"tts ":12377,"ild":12378,"denti":12379,"från alla ":12380,"för att öka ":12381,"sekonom":12382,"klok":12383,"efter.\n":12384,"bli av ":12385,"blöd":12386,"ade: ”":12387,"o är ":12388,"Inve":12389,"andets ":12390,"syr":12391,"i slutän":12392,"inte som ":12393,"mot den ":12394,"erna på ":12395,"Föräl":12396,"cerem":12397,"lagar ":12398,"Stra":12399,"ventil":12400,"ägde ":12401,"som står ":12402,"kvinnors ":12403,"att de kan ":12404,"188":12405,"funktion.\n":12406,"timul":12407,"generellt ":12408,"pendi":12409,"mål är att ":12410,"Kanada ":12411,"Grupp":12412,"analys av ":12413,"verktyg för ":12414," miljoner euro":12415,"konsumenter ":12416,"fattiga ":12417,"resultatet av ":12418,"och samtidigt ":12419,"Bilder från ":12420,"konkurrens":12421,"förvaltnings":12422,"poly":12423,"över hela världen ":12424,"kollektiv":12425,"utseende ":12426,"Netfli":12427,"Donald ":12428,"Kommissionen ":12429,"professor ":12430," f":12431," kv":12432,"Him":12433,"My ":12434,"Papp":12435,"Snart ":12436,"bab":12437,"björ":12438,"där en ":12439,"eme":12440,"ikon":12441,"nan":12442,"för ditt ":12443,"diskt ":12444,"ligen, ":12445,"bevak":12446,"allas ":12447,"ative ":12448,"on i ":12449,"as av en ":12450,"genast ":12451," och den ":12452,"prolet":12453,"ations ":12454,"Jag behöver ":12455,"framåt.\n":12456,"kram":12457,"ord, ":12458,"parter ":12459,"Anna ":12460,"lagra ":12461,"log":12462,"ked":12463,"dop":12464,"observ":12465," så många ":12466,"relation":12467,"varje år ":12468,"Det finns inget ":12469,"metaboli":12470,"historien ":12471,"telse":12472,"räddarsy":12473,"grupper.\n":12474,"hus, ":12475," km":12476,"kväll.\n":12477,"kvällen ":12478,"släppa ":12479,"hämtar ":12480,"behövs.\n":12481,"tillgängliga för ":12482," skillna":12483,"progressi":12484,"Stockholms ":12485,"Liksom ":12486,"påminner ":12487,"neutr":12488,"Afghani":12489,"förordning (EU) nr ":12490," person":12491,"\"Vi ":12492,"BN":12493,"Kvali":12494,"Lång":12495,"c.\n":12496,"i) ":12497,"pag":12498,"za":12499,"” är ":12500,"n eller ":12501,"ina.\n":12502,"om, ":12503,"en:\n":12504,"är fortfarande ":12505,"skän":12506,"i varje ":12507,"e med ":12508,"för deras ":12509,"terra":12510,"inte den ":12511,"kan använda ":12512,"ten har ":12513,"för att uppnå ":12514,"tal.\n":12515,"firar ":12516,"bäv":12517,"över den ":12518,"format ":12519,"byn ":12520,"gör den ":12521,"handlade ":12522,"lot":12523," sättet ":12524,"slutför":12525,"danska ":12526,"flyger ":12527,"När du har ":12528,"platser.\n":12529,"obel":12530,"vinkel":12531,"linje":12532,"pela ":12533,"fundera ":12534,"bruk.\n":12535,"mitt liv ":12536,"Skyd":12537,"leveran":12538,"sova ":12539,"Jag har inte ":12540,"lösningar.\n":12541,"egendom ":12542,"främl":12543,"cykel ":12544,"Lägen":12545,"Nu är ":12546,"investera ":12547,"fantasi":12548,"tränings":12549,"Risk":12550,"handlar om att ":12551,"ögonen ":12552,"North ":12553,"industriella ":12554,"mycket":12555,"marknadsföring ":12556,"III ":12557,"specifikt ":12558,"utmärkel":12559,"dessa.\n":12560,"show":12561,"avancerad ":12562,"hittill":12563,"trafik ":12564,"aktivera ":12565,"separat ":12566,"akademiska ":12567,"exklusiva ":12568,"litteratur":12569,"diabetes ":12570,"68":12571,"AF":12572,"Sho":12573,"da\n":12574,"este":12575,"ket":12576,"ring ":12577,"uch":12578,"inal ":12579,"ensi":12580,"likt ":12581,"onde ":12582,"ingång":12583,"ingens ":12584,"spanska ":12585,"da i ":12586,"rätter ":12587,"dela med ":12588,"läd":12589,"vänner, ":12590,"år?\n":12591,"duc":12592,"vi kommer att ":12593,"bistån":12594,"aktiga ":12595,"behöver":12596,"världen\n":12597,"hänvisar ":12598,"följt ":12599,"När han ":12600,"färg.\n":12601,"skilj":12602,"polis":12603,"policy ":12604,"öppnas ":12605,"ljus.\n":12606,"Gui":12607,"brott.\n":12608,"Du kan även ":12609,"period":12610,"frukost ":12611,"stöd.\n":12612,"problem som ":12613,"mänskligheten ":12614," skapade ":12615,"bolag.\n":12616,"samhället ":12617,"registrerade ":12618,"Fick ":12619,"honom, ":12620,"bekym":12621,"knappast ":12622,"Frågan är ":12623,"initiativ":12624,"smärta ":12625,"Japan ":12626,"på något sätt ":12627,"fattigdom":12628,"vitamin":12629,"Klicka på ":12630,"som helst.\n":12631,"fokuserar på ":12632,"existen":12633,"Cal":12634,"Cra":12635,"Fall":12636,"Kul":12637,"Lyss":12638,"etiska ":12639,"ogen":12640,"uel":12641,"whi":12642,"ats, ":12643,"anony":12644,"aren och ":12645,"tili":12646," seri":12647,"en, s":12648,"orer ":12649,"avfall ":12650,"äni":12651,"as under ":12652,"spåra ":12653," stopp":12654,"hösten ":12655,"man har ":12656,"troende ":12657,"marna ":12658,"göra är att ":12659,"parterna ":12660,"ken är ":12661,"ce-":12662,"första gång":12663," i den ":12664,"Detta var ":12665," (”":12666,"mat.\n":12667,"medelstora ":12668,"internet.\n":12669,"mäktig":12670,"lärjung":12671,"sprinci":12672,"system som ":12673,"angrepp":12674,"gränsöverskri":12675,"familj och ":12676,"indik":12677,"flygplatsen ":12678,"morali":12679,"rättigheter.\n":12680,"sägs ":12681,"material som ":12682,"värdefulla ":12683,"ISO ":12684,"branschen.\n":12685,"sprogrammet ":12686,"enskild ":12687,"Storbritannien.\n":12688,"säker på ":12689,"visat att ":12690,"få se ":12691,"resolution":12692,"ordentligt ":12693,"vistelse ":12694,"departemen":12695," under ":12696," hade ":12697,"54":12698,"HD":12699,"Jack ":12700,"Num":12701,"d: ":12702,"fur":12703,"farna ":12704,"rand":12705,"snabbar":12706,"← ":12707,"en - ":12708,"en person ":12709,"lider av ":12710,"i början av ":12711,"oroli":12712,"förse":12713,"elef":12714,"varel":12715,"inte till ":12716,"inte får ":12717,"bly":12718,"ble ":12719,"export":12720,"andes ":12721,"vilda ":12722,"Du vet ":12723,"många av ":12724,"ynda ":12725,"direkt.\n":12726,"innan jag ":12727,"av de mest ":12728,"auf":12729,"volym":12730,"svar.\n":12731,"längre än ":12732,"Gud är ":12733,"presenteras ":12734,"processen.\n":12735,"Bill ":12736,"genomförandet av ":12737,"Finland.\n":12738," spela ":12739,"natt.\n":12740,"faci":12741,"andra, ":12742,"domstolen ":12743,"potentiellt ":12744,"INT":12745,"experti":12746,"livsmedels":12747,"nyckeln ":12748,"fastighets":12749,"etablerade ":12750,"till stor ":12751,"fingr":12752,"munik":12753,"titeln ":12754,"främjar ":12755,"sekreter":12756,"virtuella ":12757,"humanit":12758," §":12759,"PL":12760,"S. ":12761,"Tru":12762,"over ":12763,"taliser":12764,"vande ":12765,"indel":12766,"tema ":12767,"en ”":12768,"en enda ":12769,"stall":12770,"ston ":12771,"för detta ":12772,"förde ":12773,"är:\n":12774,"sisten":12775,"begå":12776,"komst":12777,"der är ":12778,"nick":12779," sker ":12780,"värden ":12781,"k (":12782,"och ska ":12783,"hand.\n":12784,"igår ":12785,"arna på ":12786,"också i ":12787,"orit":12788,"sig med ":12789,"ackredi":12790,"göra ett ":12791,"us\n":12792,"inteck":12793,"staden.\n":12794,", men de ":12795,"kritiska ":12796,"två år ":12797,"mig som ":12798,"aktör ":12799,"härsk":12800,"vilket innebär att ":12801,"erbjudande ":12802,"forskning.\n":12803,"EUR":12804,"innan han ":12805,"ekonomin ":12806,"punkt.\n":12807,"Här kommer ":12808,"att jag har ":12809,"utomland":12810,"flygplats ":12811,"Lever":12812,"texten ":12813,"analys ":12814,"idén ":12815,"leverantörer ":12816,"avgifter ":12817,"arbete som ":12818,"negativ ":12819,"rättigheter och ":12820,"Europa och ":12821,"Väst":12822,"Håller ":12823,"medlemmar.\n":12824,"civila ":12825,"löpande ":12826,"borta från ":12827," ett ":12828,"Aff":12829,"Bat":12830,"Cat":12831,"Land":12832,"Mur":12833,"Ton":12834,"b.\n":12835,"ne och ":12836,"oundvik":12837,"phi":12838,"tom.\n":12839,"ägen":12840,"– som ":12841,"”?\n":12842,"en) ":12843,"om ursä":12844,"strå":12845,"ord och ":12846,"de jag ":12847,"rike ":12848,"utfär":12849,"le-":12850,"uppdel":12851,"grunder":12852,"för att komma ":12853,"konvers":12854,"var han ":12855,"proff":12856,"plå":12857,"dig på ":12858,"kog":12859,"tobak":12860,"parall":12861,"användarna ":12862,"löper ":12863,"sta\n":12864,"länken ":12865,"hänga ":12866,"Detta är den ":12867,"rött ":12868,"dem?\n":12869,"möjligheter.\n":12870,"höger":12871,"sammanfatt":12872,"behandlingar ":12873,"gränser ":12874,"tradition ":12875,"Ett annat ":12876,"historiskt ":12877,"tror jag ":12878,"tion och ":12879,"Kommen":12880,"leksak":12881,"vaknar ":12882,"publicera ":12883,"anti-":12884,"skola ":12885,"tillfällen ":12886,"bolags":12887,"upplevelse":12888,"socialt ":12889,"Organ":12890,"hus och ":12891,"undviker ":12892,"moderni":12893,"romanti":12894,"medborgare ":12895,"direktör ":12896,"perspektiv.\n":12897,"förståelse för ":12898,"känslomäs":12899,"måningom ":12900,"Research ":12901,"blodsock":12902," dagar.\n":12903,"360":12904,"Camp":12905,"Dok":12906,"Gä":12907,"Spi":12908,"ute.\n":12909,"ya ":12910,"® ":12911,"erliga ":12912,"erande":12913," slut ":12914,"att spela ":12915,"vits ":12916,"med dessa ":12917,"med dina ":12918,"ska ha ":12919,"der till ":12920,"spra":12921,"lättar ":12922,"med stö":12923,"kt\n":12924,"helst.\n":12925,"ne.\n":12926,"bäst.\n":12927,"välj ":12928,"välgör":12929,"igår.\n":12930,"fram och ":12931,"ats med ":12932,"liv?\n":12933,"ces ":12934,"Förhopp":12935,"sig, ":12936,"dator.\n":12937," saml":12938,"hemliga ":12939,"högra ":12940,"traum":12941,"bör inte ":12942,"ständig ":12943,"eras i ":12944,"att de har ":12945,"syndr":12946,"fungerande ":12947,"enkelt.\n":12948,"Sams":12949,"självständig":12950,"åtgärder.\n":12951,"interakti":12952,"Upptäck ":12953,"kvällen.\n":12954,"Vetenskap":12955,"magiska ":12956,"canna":12957,"West ":12958,"frånvar":12959,"av sta":12960,"tio år ":12961,"förväntade ":12962," spel ":12963,"fokuserar ":12964,"versionen av ":12965,"Found":12966,"idag?\n":12967,"lär sig ":12968,"Håll":12969,"diagram":12970,"befint":12971,"smartphon":12972,"kontinen":12973,"Kinas ":12974,"februari":12975,"betraktas ":12976,"Portu":12977,"förutsättningar ":12978,"Fortsätt ":12979,"reaktioner ":12980,"fullständiga ":12981,"utgångspun":12982," blev ":12983,"Hjär":12984,"Sand":12985,"Spr":12986,"evolution":12987,"horison":12988,"kande ":12989,"kära ":12990,"såg":12991,"takti":12992,"vr":12993,"an-":12994,"erkänner ":12995,"g eller ":12996,"om min ":12997,"är väldigt ":12998,"inger ":12999,"ritu":13000,"på den här ":13001,"med och ":13002,"upport ":13003,"da att ":13004,"Det skulle ":13005,"jag och ":13006,"delsen ":13007,"konserv":13008,"slapp":13009,"jul ":13010,"ves ":13011,"adop":13012,"minnas ":13013,"hit ":13014,"stern ":13015,"är en bra ":13016,"Vi rekommenderar ":13017,", och jag ":13018,"liv\n":13019,"även för ":13020,"tar en ":13021,"Detta innebär att ":13022,"yng":13023,"kritik":13024,"märt":13025,"återvin":13026,"färgen ":13027,"mig!\n":13028,"högtal":13029,"åldern ":13030,"genom att använda ":13031,"hjärts":13032,"betalas ":13033,"Arbe":13034,"edur":13035,"centrum.\n":13036,"rummet":13037,"Jag såg ":13038,"besök.\n":13039,"verkar vara ":13040,"orsaken till ":13041,"templ":13042,"direkt till ":13043,"handel.\n":13044,"kamera ":13045,"nöje":13046,"tillväxt.\n":13047,"långt ifrån ":13048,"borta.\n":13049,"intervju ":13050,"formulär":13051,"samarbete med ":13052,"konsumenterna ":13053,"semester ":13054,"Central":13055,"attity":13056,"verkställande ":13057,"effekterna av ":13058,"enastående ":13059,"Bättre ":13060,"privilegi":13061,"CD":13062,"Fok":13063,"Hä":13064,"Men, ":13065,"Ox":13066,"Zo":13067,"cap":13068,"h.\n":13069,"kyck":13070,"mi ":13071,"s. ":13072,"ätit ":13073,"atte ":13074,"en är att ":13075,"er) ":13076,", är det ":13077,"förfråg":13078,"via en ":13079,"dit.\n":13080,"den var ":13081,"varm ":13082,"on som ":13083,"kan ta ":13084,"kan du":13085,"ande eller ":13086,"givit ":13087,"expan":13088,"men\n":13089,"mening ":13090,"och sociala ":13091,"Det är mycket ":13092,"kommer att ha ":13093,"möjligen ":13094,"spelare.\n":13095,"tjänst.\n":13096,"efterfråg":13097,"människor har ":13098,"foton ":13099,"levde ":13100,"flera gånger ":13101,"Med andra ":13102,"att göra en ":13103,"pratade ":13104,"Grati":13105,"produkter, ":13106,"källor ":13107," start":13108,"vapen ":13109,"anslutning till ":13110,"TV ":13111,"arbete, ":13112,"saj":13113,"uppskattar ":13114,"skäl ":13115,"sväm":13116,"Folk":13117,"ålders":13118,"såtgärder ":13119,"arabiska ":13120,"Digital ":13121,"A, ":13122,"DS":13123,"FÖ":13124,"Olika ":13125,"fa ":13126,"pir":13127,"ratt":13128,"sdi":13129,"sand":13130,"· ":13131,"åt att ":13132," sök":13133,"är dock ":13134,"lider ":13135,"skt":13136,"i andra ":13137,"för, ":13138,"förbehåller ":13139,"revis":13140,"det så ":13141,"ett sådant ":13142,"ta reda på ":13143,"ders":13144," strategi":13145,"judar ":13146,"vi en ":13147,"klapp":13148,"Jag fick ":13149,"hållbart ":13150,"kund ":13151,"kundens ":13152,"het som ":13153,"bild.\n":13154,"bilden.\n":13155,"nedan.\n":13156,"steg.\n":13157,"såväl ":13158,"Det är det ":13159,"Men det finns ":13160,"företrä":13161,"vård ":13162,"mmande ":13163,"märka ":13164,"varje år.\n":13165,"barnen.\n":13166,"kallades ":13167,"um av ":13168,"telsen ":13169,"rädd för att ":13170,"nart som ":13171,"kvalitet och ":13172,"ampan":13173,"och skick":13174,"United ":13175,"bröt ":13176,"ton, ":13177,"Sverige":13178,"Carol":13179,"digital":13180,"avtal.\n":13181," säkerhet":13182,"deltagande ":13183,"benäg":13184,"försvars":13185,"Köp":13186,"regeringens ":13187,"prägl":13188,"etc. ":13189,"Visste ":13190,"ladda ner ":13191,"ibland.\n":13192,"- och sjukvår":13193,"sekretess":13194,"Namnet ":13195,"tekniskt ":13196,"uppehåll":13197,"lige An":13198,"Home ":13199,"israeliska ":13200,"konstitution":13201,"98":13202,"Brid":13203,"FB":13204,"Flo":13205,"],":13206,"cl":13207,"svara på ":13208,"vas ":13209,"ym ":13210,"ående":13211,"omsorg":13212," särskilt ":13213,"och, ":13214,"lim":13215,"lik ":13216,"mel ":13217,"på grund ":13218,"utarbet":13219,"utsatta ":13220,"alla, ":13221,"rab":13222,"kan komma ":13223,"hemi":13224,"samband ":13225,"at om ":13226,"Jag och ":13227,"ness ":13228,"marken ":13229,"syssel":13230,"bile":13231,"bitar ":13232,"möt":13233,"sig för ":13234,", och att ":13235,"Men de ":13236,"ts och ":13237,"lig för ":13238,"produkt.\n":13239,"personligen ":13240,"Om din ":13241,"löj":13242,"närheten av ":13243,"dödar ":13244,"mig i ":13245,"ab ":13246,"huden ":13247,"aktligen ":13248,"ryp":13249,"mitt liv.\n":13250,"direktivet ":13251,"Har inte ":13252,"månader.\n":13253,"klima":13254,"passerar ":13255,"att vara en ":13256,"vilken typ av ":13257,"godkänner ":13258,"splatt":13259,"meddela ":13260,"när du är ":13261,"medan du ":13262,"språket ":13263,"vackert ":13264,"Genom":13265,"förmåga ":13266,"innovation ":13267,"ovanför ":13268,"skärm":13269,"information, ":13270,"energi och ":13271,"humör":13272,"uppfattning ":13273,"Feder":13274,"extrema ":13275,"beskrivning av ":13276,"enorm ":13277,"bidrar till att ":13278,"fram emot att ":13279," timmar.\n":13280,"argument ":13281,"Christi":13282,"Hollywo":13283,"kategori ":13284,"förebyggande ":13285,"absorber":13286,"försiktig ":13287,"96":13288,"Bob":13289,"Ill":13290,"Jas":13291,"Läg":13292,"Mus":13293,"TS":13294,"cer ":13295,"fakul":13296,"hav ":13297,"lå ":13298,"sats ":13299,"un ":13300,"intui":13301,"en gång":13302,"en mellan ":13303,"skade":13304,"förmed":13305,"till, ":13306,"av detta ":13307,"diam":13308,"bell ":13309,"ett sätt att ":13310,"komfor":13311,"från början ":13312,"tenni":13313,"sering av ":13314,"okej":13315,"nytt.\n":13316,"tyst ":13317,"att, ":13318,"än de ":13319,"mari":13320,"bästa.\n":13321,"här på ":13322,"Det är så ":13323,"ut från ":13324,"i södra ":13325,"ningen på ":13326,"ism":13327,"är det bästa ":13328,"underbar":13329,"skriven ":13330,"Och han ":13331,"ge.\n":13332,"Detta gäller ":13333,"miljarder ":13334,"Allmän":13335,"kriti":13336,"När de ":13337,"plats, ":13338,"web":13339,"butiker":13340,"varit en ":13341,"tidpunkten ":13342,"mitt i ":13343,"verksamhet":13344,"komplik":13345,"volution ":13346,"investering":13347,"rapporterade ":13348,"lära känna ":13349,"bränn":13350,"Sedan dess ":13351," som skulle ":13352,"natten.\n":13353,"produktion.\n":13354,"modern":13355,"virus ":13356,"kvinna.\n":13357,"läkemedels":13358,"marknadsförings":13359,"varumärke ":13360,"fängelse ":13361,"infektion ":13362,"spolicy":13363,"ECB":13364,"botten ":13365,"Trump":13366,"Danmar":13367,"Nordameri":13368,"Projektet ":13369,"inflyt":13370,"upprepade ":13371,"Elec":13372,"primära ":13373,"ambassad":13374,"Industri":13375,"):\n":13376,"Ari":13377,"Cri":13378,"El ":13379,"Igår ":13380,"St ":13381,"Thi":13382,"Trän":13383,"sm och ":13384,"tå":13385,"ware ":13386,"erfar":13387,"tima ":13388,"tic ":13389,"ene ":13390,"g på ":13391,"stan.\n":13392,"i hans ":13393,"res ":13394,"ett barn ":13395,"on av ":13396,"kan se ":13397," som den ":13398,"från sin ":13399,"mobili":13400,"sevärd":13401,"vi behöver ":13402,"bilder":13403,"på sk":13404,"skapet ":13405,"är en viktig ":13406,"– Det är ":13407,"ackumul":13408,"vila ":13409,", och han ":13410,"ordning ":13411,"park":13412,"bostä":13413,"vad det är ":13414,"dött ":13415,"Stö":13416,"honom s":13417,"Alltid ":13418,"dos ":13419,"tage ":13420,"heten och ":13421,"ast.\n":13422,"härliga ":13423,"Mobil":13424,"att de inte ":13425,"kurs ":13426,"kursen ":13427,"i Syd":13428,"fortfarande är ":13429,"svarade ":13430,"känslan ":13431,"studie":13432,"förutsatt ":13433,"mål för ":13434,"Totalt ":13435,"samhälle ":13436,"ytterligare en ":13437,"kombination av ":13438,"Allt detta ":13439,"idéer ":13440," startade ":13441,"minskning av ":13442,"gammalt ":13443,"Så, ":13444,"ränte":13445,"lågt ":13446,"Wi-":13447,"militär ":13448,"Prin":13449,"utgör en ":13450,"eviga ":13451,"patienter som ":13452,"instrumen":13453,"konsult":13454,"lita på ":13455,"runt om i världen.\n":13456,"Bibeln ":13457,"fokusera på ":13458,"Familj":13459,"Design ":13460,"konferens ":13461,"Ungef":13462,"David":13463,"kostnadseffe":13464,"Beg":13465,"Brö":13466,"Haw":13467,"Ju ":13468,"Nå":13469,"fro":13470,"mall":13471,"öga ":13472,"tech":13473,"arch":13474,"enbar":13475,"ar (":13476,"om hon ":13477,"att köpa ":13478,"och dess ":13479,"etnam":13480,"änder":13481,"fördel ":13482,"ingå ":13483,"diker":13484,"med våra ":13485,"ell, ":13486,"ett litet ":13487,"komprom":13488,"ta på ":13489,"grym":13490,"ford ":13491,"slin":13492,"holi":13493,"ment.\n":13494,"reson":13495,"ställe.\n":13496,"mycket bra ":13497,"gör du ":13498,"ism ":13499,"människa.\n":13500,"oss till ":13501,"lednings":13502,"nu är ":13503,"utan en ":13504,"fortsatta ":13505,"er och andra ":13506,"taget.\n":13507,"rättvisa ":13508,"marknad.\n":13509,"trail":13510,"Nej":13511,"naturen ":13512,"till slut":13513,"kunde ha ":13514,"effektivitet ":13515,"Barnen ":13516," miljon":13517,"fred ":13518,"meddelande":13519,"i samarbete med ":13520,"Plus ":13521,"förklarade ":13522,"dagen den ":13523,"nummer.\n":13524,"samhälls":13525,"nedladd":13526,"gör det möjligt att ":13527,"närmast ":13528,"ansvarig":13529,"minskade ":13530,"hunden ":13531,"Till exempel":13532,"hantering av ":13533," säkert ":13534,"marknadsföring":13535,"varumärken ":13536,"Tyskland.\n":13537,"faktorer som ":13538,"Fem ":13539,"intervall":13540,"påverkas ":13541,"expande":13542,"kronor ":13543,"floden ":13544,"Kina.\n":13545,"förslag till ":13546,"celer":13547,"Förenade ":13548,"beror på att ":13549,"lunch ":13550,"Skapa ":13551,"Johannes ":13552,"Känner du ":13553,"Amazon ":13554,"Grekland ":13555,"kirurgi":13556,"Lär dig ":13557," augusti ":13558,"# ":13559,"?\"":13560,"CP":13561,"Dal":13562,"Hur":13563,"High":13564,"Kort ":13565,"Osc":13566,"Sun":13567,"drade ":13568,"itu":13569,"katt ":13570,"lur":13571,"oth":13572,"sjön":13573,"wer ":13574,"om någon ":13575,"är alltid ":13576,"att säga ":13577,"skel":13578,"de nya ":13579,"avund":13580,"reser":13581,"liga":13582,"utsatt ":13583,"befäl":13584,"vertik":13585,"uppsättning ":13586,"Det har varit ":13587," och är ":13588,"för att visa ":13589,"samarbetet ":13590,"var så ":13591,"mott":13592,"cha":13593,"Jag vill ha ":13594,"nybörj":13595,"kunder och ":13596,"än den ":13597,"kole":13598,"gör det.\n":13599,"inte säga ":13600,"iso":13601,"pekar ":13602,"tar emot ":13603," sist ":13604,"nuvar":13605,"komma.\n":13606," skulle jag ":13607,"politiker":13608,"vatten, ":13609,"samma som ":13610,"oss\n":13611,"gemensam":13612,"Kan inte ":13613,"regler för ":13614,"älskar att ":13615,"Book":13616,"just nu":13617,"blandning av ":13618,"framtidens ":13619,"skador ":13620,"skadliga ":13621,"föreningen ":13622,"verktyg.\n":13623,"operativa ":13624,"stämmer ":13625,"och samma ":13626,"Lind":13627,"Jag tror att ":13628,"omedelbar ":13629,"tjej ":13630,"åka till ":13631,"tvätta ":13632,"shop":13633,"varje s":13634,"Vidare ":13635,"samla in ":13636,"Öppna ":13637,"transaktioner ":13638,"Exempel":13639,"gradvis ":13640,"olidari":13641,"palestinska ":13642,"pedagogi":13643," mot ":13644,"\"Det är ":13645,"57":13646,":a ":13647,"Ga":13648,"Pra":13649,"Ron":13650,"Tun":13651,"går.\n":13652,"out ":13653,"”)":13654,"te s":13655,"omröst":13656,"eri ":13657,"om det.\n":13658,"de på ":13659,"ety ":13660,"tering av ":13661,"har redan ":13662,"nings ":13663,"kan orsaka ":13664,"upphör":13665,"upprätta ":13666,"du och ":13667,"urval av ":13668,"var för ":13669,"Jag tänker ":13670,"tyr":13671,"ber, ":13672,"på, ":13673,"neds":13674,"stick":13675,"maten ":13676,"param":13677,"används.\n":13678,"Förbätt":13679,"För närvarande ":13680,"frihet.\n":13681,"prim":13682,"nas av ":13683,"ditt liv ":13684,"behöver en ":13685,"abri":13686,"röster ":13687,"återstår ":13688," ska vara ":13689,"i en annan ":13690,"program för ":13691,"Engel":13692,"mest kända ":13693,"historia och ":13694,"skydd.\n":13695,"grupp.\n":13696,"185":13697,"tain ":13698,"främmande ":13699,"oss!\n":13700,"häf":13701,"hygi":13702,"stolt över ":13703,"du kan göra ":13704,"splant":13705,"patient":13706,"Europa, ":13707,"metoden ":13708,"papper":13709,"dödade ":13710,"nätverk.\n":13711,"nämna ":13712,"principer ":13713,"trots allt ":13714," :)":13715,"kärlek och ":13716,"tjejer ":13717,"sänka ":13718,"London.\n":13719,"fängelse":13720,"funnit ":13721,"Charles ":13722,"väsentliga ":13723,"erkännande ":13724,"vävna":13725,"Röda ":13726,"William ":13727,"ctori":13728,"tunnel":13729,"toalet":13730,".)":13731,"/E":13732,"Bank":13733,"Day":13734,"Egen":13735,"Psy":13736,"Tit":13737,"Tem":13738,"dvs ":13739,"g\n":13740,"mhär":13741,"ova ":13742,"wer":13743,"entr":13744,"att skapa ":13745,"orten ":13746,"ärer ":13747,"äro ":13748,"dialog":13749,"ter, som ":13750,"det från ":13751,"på grund":13752,"utöka ":13753,"frakt":13754,"miga ":13755,"eller inte.\n":13756,"konkret":13757," skö":13758,"träng":13759,"meddelar ":13760,"väcka ":13761,"ktor ":13762,"bilag":13763,"Innov":13764,"och själv":13765,"möten ":13766,"prin":13767,"i själva verket ":13768,"hur den ":13769,"vill vara ":13770,"även om det ":13771,"ningar är ":13772,"frågor och ":13773,"utveckla en ":13774,"logga ":13775,"domen ":13776,"Rekommen":13777,"mma.\n":13778,"föreskrif":13779,"länge som ":13780,"ömn":13781,"vilket gör ":13782,"vägen till ":13783,"matlag":13784,"skulle ha ":13785,"coun":13786,"satte ":13787,"Mosk":13788,"använder en ":13789,"Med hjälp av ":13790,"märke ":13791,"funktionen ":13792,"minimi":13793,"indiker":13794," år sedan.\n":13795,"tifici":13796,"halva ":13797,"yttersta ":13798,"finansiell ":13799,"meddelade ":13800,"vacker":13801,"registrerar ":13802,"definierar ":13803,"nätverk ":13804,"serien ":13805,"praktisk ":13806,"aktiviteter.\n":13807,"sjukdom.\n":13808,"Amerikanska ":13809," minuter.\n":13810,"arkitek":13811,"välkommen ":13812,"kraftfull":13813,"konstruktion ":13814,"kärlek till ":13815,"uttalande ":13816,"Kom ihåg att ":13817,"avses i punkt ":13818,"kämpar ":13819,"prestanda ":13820,"i stället ":13821,"insats ":13822,"Behöver du ":13823,"Regeringen ":13824,"Bank ":13825,"villkor som ":13826,"Ingenting ":13827,"hustru ":13828," personer.\n":13829,"Bul":13830,"Cli":13831,"Hav":13832,"Imp":13833,"Jul":13834,"Läng":13835,"Matt":13836,"Tid":13837,"Up":13838,"adrat":13839,"bord.\n":13840,"ifall ":13841,"pär":13842,"x.\n":13843,"Åt":13844,"deskri":13845,"tester ":13846,"skåd":13847,"ond ":13848,"förbrän":13849,"det ska ":13850,"till följd av ":13851,"ter (":13852,"uppkoppl":13853,"forum":13854,"trag":13855,"verklighet ":13856,"bilen.\n":13857,"ness":13858,"el på ":13859,"visas i ":13860,"under denna ":13861,"prinsess":13862,"Om den ":13863,"De var ":13864,"många år ":13865,"sen att ":13866,"oss själva ":13867,"mig till ":13868,"fyn":13869,"sig själva ":13870,"prid":13871,"ni inte ":13872,"områden, ":13873,"att det är en ":13874,"appen ":13875,"bokstä":13876,"tidningen ":13877,"Energi":13878,"tillbaka":13879,"belön":13880,"kontroller ":13881,"kompen":13882,"kapit":13883,"makten ":13884,"opposi":13885,"tycker jag ":13886,"ytterst ":13887,"serna i ":13888,"läkaren ":13889,"Tour":13890,"att vi kan ":13891,"försäljning ":13892,"Fader":13893,"slutet av ":13894,"snitt ":13895,"beteen":13896,"sagt att ":13897," skicka ":13898,"krav.\n":13899,"fängel":13900,"Frankrike.\n":13901,"Deltag":13902,"Paul ":13903,"bidrar till ":13904,"inträffar ":13905,"scenari":13906,"anledning att ":13907," juli":13908,"kontinuerligt ":13909,"ändå.\n":13910,"badrum":13911,"alumini":13912,"cigaret":13913,"omdömen ":13914,"Kristi ":13915,"Clar":13916,"Rom ":13917,"bett ":13918,"bjöd ":13919,"o.":13920,"ration":13921,"sann":13922,"vall":13923,"yste":13924,"Ã¥":13925,"omvän":13926,"en över ":13927,"enta ":13928,"sta, ":13929,"stund":13930,"stål":13931,"att läsa ":13932,"i form av ":13933,"till?\n":13934,"av mina ":13935,"agen":13936,"ra och ":13937,"till våra ":13938,"varna ":13939,"du bör ":13940,"kommer i ":13941,"vi gör ":13942,"poll":13943,"kunder":13944,"översväm":13945,"steroi":13946,"ser av ":13947,"kod":13948,"Vi var ":13949,"Vi vet ":13950,"ig själv ":13951,"framgår ":13952,"ut för ":13953,", och en ":13954,"Men vad ":13955,"Du kanske ":13956,"länderna.\n":13957,"Real ":13958,"bjuda ":13959,"föreställa ":13960,"arbeten ":13961,"smän ":13962,"politisk":13963," för en ":13964,"US ":13965,"barn i ":13966,"studer":13967,"direktiv":13968,"EU och ":13969,"Alla avstånd från ":13970,"lycklig ":13971,"som en del av ":13972,"väldigt bra ":13973,"ationer av ":13974,"fall av ":13975,"och ställ":13976,"Nu har ":13977,"generation ":13978,"volont":13979,"behov och ":13980,"tycker om ":13981,"lokalt ":13982,"Part":13983,"Park\n":13984,"kul ":13985,"kul att ":13986,"budge":13987,"nivåer av ":13988,"Press":13989,"förstås.\n":13990,"material och ":13991,"internationell":13992,"utförs ":13993,"regionen ":13994," :-":13995,"anpassade ":13996,"lugn ":13997,"skommitté":13998,"ssystem.\n":13999,"timmar.\n":14000,"Schweiz":14001,"Mindre ":14002,"kraftfull ":14003,"Dou":14004,"tillgänglig för ":14005,"Data ":14006,"dejting ":14007,"Svar: ":14008,"-årig ":14009,"muslimska ":14010,"snygg":14011,"influen":14012,"beträffande ":14013,"Organis":14014,"\" som ":14015,"Agen":14016,"Autom":14017,"BR":14018,"CF":14019,"Cru":14020,"Ear":14021,"Ekonom":14022,"GP":14023,"Jav":14024,"MT":14025,"På s":14026,"Tar":14027,"Tele":14028,"cce":14029,"e!\n":14030,"ic ":14031,"m som ":14032,"rus":14033,"sch ":14034,"släkt":14035,"öl ":14036,"erfarna ":14037," sov":14038,"ar ett ":14039,", de ":14040,"till skol":14041,"aler ":14042,"ros":14043,"ing (":14044,"lätt.\n":14045,"för att säkerställa att ":14046,"apti":14047,"mått ":14048,"när du":14049,"överstiger ":14050,"hanteras ":14051,"bara är ":14052,"offe":14053,"dig en ":14054,"koll ":14055,"stranden ":14056,"fram.\n":14057,"framåt":14058,"Den största ":14059,"Men när ":14060,"används av ":14061,"kommer att göra ":14062,"efter det att ":14063,"där jag ":14064,"underhåll ":14065,"får jag ":14066,"bakgrun":14067,"Regl":14068,"förstått ":14069,"allt mer ":14070,"jag sk":14071,"vintern":14072,"företags ":14073,"växt ":14074,"torr":14075,"erad från ":14076,"pizz":14077,"Time":14078,"brist ":14079,"läro":14080,"orna i ":14081,"huvudstad ":14082,"utbildning, ":14083,"funktioner som ":14084,"är den enda ":14085,"sann ":14086,"finansiera ":14087,"stöder ":14088,"rapporter ":14089,"handlar det ":14090,"analyser":14091,"givande ":14092,"videon ":14093,"igen!\n":14094,"Lou":14095,"namn är ":14096,"ofta.\n":14097,"gammal.\n":14098,"vuxit ":14099,"identifierar ":14100,"accepter":14101,"blogg.\n":14102,"trots att ":14103,"branschen ":14104,"fotboll ":14105,"Georgi":14106,"karaktär ":14107,"vattnet.\n":14108,"Media ":14109,"områdena ":14110,"skåp":14111,"medlem i ":14112,"finger":14113,"våldtä":14114,"Resultatet ":14115,"Twitter ":14116,"engagemang ":14117,"respektera ":14118,"utmärkta ":14119,"växthus":14120," veck":14121," länder ":14122,"AV":14123,"Cu":14124,"Cle":14125,"Gri":14126,"Gall":14127,"HP":14128,"IS ":14129,"Mr ":14130,"N ":14131,"a, så ":14132,"fas ":14133,"fac":14134,"ja.\n":14135,"sco":14136,"insätt":14137,"ar, och ":14138,"ence ":14139,"enheter.\n":14140,"tillvar":14141,"tillverka ":14142,"die":14143,"roligt att ":14144,"leka ":14145,"kan den ":14146,"ola ":14147,"eller annan ":14148,"årligen ":14149,"tysk":14150,"alla våra ":14151,"skapade ":14152,"Den enda ":14153,"sig och ":14154,"vild":14155,", och vi ":14156,"kommer att kunna ":14157,"underrät":14158,"ner på ":14159,"länder, ":14160,"gift ":14161,"villiga ":14162,"bjudan":14163,"försvag":14164,"borttag":14165,"gång till ":14166,"som.\n":14167,"rädd ":14168,"runt.\n":14169,"centrum":14170,"rum, ":14171,"ering för ":14172,"jorden":14173,
[...]
