#version: 0.2
् य
् र
। 

् त
  स
  प
् व
  ।

  व
त ि
ा न
  क
र ्
  त
म ्
  न
ि त
  अ
त ्
्य ा
  म
 प ्र
ा र
  द
  य
ा ं
  भ
त े
  च
क ्
न ्
म ा
स ्य
 व ि
य ा
॥ 

ष ्
स ्त
स ्
न ्त
क् ष
  इ
त ्र
  श
  ॥

व ि
र ्व
र ा
न ा
  ज
द ्
प ्र
क ्त
थ ा
  ह
त ्य
े व
े न
  ए
प ि
  ग
त ः
ा द
ि क
ा य
  -
ा म
् च
त ्त
ा ः
ष् ट
न ि
  आ
ा व
े ष
र ि
त ्व
य ो
र् थ
म ि
द ि
ा ल
 प ु
 न ि
द ा
  ब
त ा
  उ
द् ध
 इ ति
र ्त
 स ं
े श
  र
  ल
् ञ
 भ व
 व ा
 स र्व
्य ते
  ध
 स ्व
ा प
ङ ्
ान ्
य े
  (
श ्च
य ं
्य ं
स ं
भ ि
 प र
ान ि
 स ्
न ु
व ा
 ए व
र ण
म ु
न ं
ि ं
ृ त
  "
त ु
र् म
भ ा
न े
क ार
ज ्ञ
र ु
 त ु
य ः
न ः
्र ि
्य े
त ी
  रा
स ा
म ान
र ो
च ्
  .
न् द
? 

क ा
र े
म े
न्त ि
त ो
र् ष
े द
ल ्
ष् ठ
ग ु
 स ु
ा त्
च् छ
न ्य
स्त ि
 ह ि
ा ण
ान ां
स ि
 प्र ति
ू प
भ व
द ्य
द ्व
स् थ
श ्व
ध ि
ै व
प ु
स ्व
व ्य
र् ण
 स म
  _
 स ा
ह ं
ा स
य ु
ान ्त
प र
ब ्
क ं
ी य
 प ू
 क ु
ह ि
क ः
त ं
 इ त्य
क ृ
ग ्र
 क ार
े ण
ल ं
 त ्व
स ्या
ो ऽ
ै ः
ु ः
क ्र
ध िक
ग ्
क े
 त े
ित ः
द ेश
भ ाव
म ः
ष ्य
  ख
 य था
ेष ु
र् ग
र ं
त ्या
स्त ु
 म ह
 द ्व
ृ श
ङ् ग
 द ेव
प ्त
क्ष ण
ा त
स ी
ृ ष्ट
न ो
. 

ित ा
ण ्
प ू
 भव ति
द ्र
र ी
श ्र
 प रि
ृ ह
स ु
 क ृ
ि ः
यो ग
 श ्र
भ ू
ल ा
र ः
ध ्य
 क ्
श ि
 स म्
न् ध
 म े
ल ो
न ी
ा ह
 द ि
 क ि
त्व ा
स् मा
र ूप
ु ं
व ृ
्व ा
च ित
 म ु
ञ ्च
 उ प
द ं
  ?

 स ह
म ेव
ण ं
 रा ज
न् न
ान ं
 म ा
 न ा
भ ्य
ण ा
 भ ा
ित ं
 त था
े त
 क थ
ष ा
 स् थ
ी व
 क् ष
 व ै
  '
र ्य
- 

या ः
प ा
ब् द
ल ि
स् मि
र् श
! 

श ेष
 प्र ाप
्र ी
 द ु
 अ पि
 य ो
ल् प
 अ स्ति
 व ्य
ज न
ित ्य
 स मा
 स ू
- -
 य ु
ति ः
द ेव
ो प
ण् ड
व ं
क ृत
े त्
 ग ु
क ाल
ध ान
च ार
ध ा
च ि
श ्
स ः
 प ृ
द ्या
 स ्त
क्त ि
ण ि
 क िं
ाद ि
क ु
स म
 व र्ष
श ्य
द ु
प ्
स र्व
ल े
 भ ू
य ति
स् म
 पू र्व
व े
प द
व र्त
न्त े
 प ा
 त त्
ान ु
 ज ्ञ
च ्च
म ं
 प्र ा
ित म्
न म्
व ान्
न ां
 अ नु
) 

भा ग
ह ु
  फ
े ति
क ो
ान ा
क रण
य म्
ी त
य म
ी ं
 त स्य
क्ष ा
 न ाम
प ाद
ज ा
न्त ्र
  घ
 _ 

ख ्या
त ां
र् ध
ो ष
क ि
त् म
प्र ति
व ्या
्रि य
स म्
स े
 पु नः
  छ
क्ष ि
ह े
 व ृ
 ए क
ण े
प रि
ु द्ध
र्थ ः
 क र्त
ित ्र
 य दि
 श ि
 य त्
न्द ्र
ान ्य
ाण ि
 . 

ण ां
 म म
 क े
यु क्त
भि ः
द ी
स् था
्या ं
रु ष
स्त ्र
न् म
 पु न
र् ज
वृ त्त
न ेन
न्त ु
 य ा
ाम ि
् ज
द े
म ो
 स ्या
 प्र त्य
 ल ो
 व ्या
य ्
त त्
ष ु
 स् म
ह ्
ध ्या
ण ः
प ी
 ग ृह
व ः
इ ति
प े
व ाद
 भ ार
 क ाल
ित ्त
रा ज
अ थ
ेष ां
स ू
 क र्म
त स्य
स्मि न्
द ान
का श
ू ल
र्थ ं
 क रो
 व र्त
 अ व
 क ृत
ब न्ध
 त त्र
  =
. .
मि ति
न ्व
स ्र
श ा
त म
 स ि
वि ष्य
ह ार
त्त ्व
िक ा
यो ः
 द ृष्ट
त्व ं
क्ष े
प ्य
२ ०
 _ _
 ग ्र
ो क्त
 क ा
क म्
 वि श्व
 ज न
व ी
वि ष
ाय ां
2 0
त् स
थ ि
च ्यते
य था
पू र्व
  !

य ि
न ्या
भा ष
ट ्
स ार
र म्
क ्य
 कार ्य
ज्ञ ान
ख ्य
व ेद
ह ो
 ह े
 ज ा
ध ्ये
 ज ीव
 प्राप ्त
 श ु
ए वं
ल ी
 प्र थ
म पि
 क ो
त्र ा
ार ा
श ु
 त द
ध ु
ित ्
 त दा
 क ्र
्रि या
ऽ पि
 त व
म ी
मा ण
 द े
ते न
 अ प
त म्
वि ध
व ार
 द ेश
श ः
 वि ष
म् ब
ग्र ह
द ृश
  /
य त्
ये त्
  ति
ो ध
 क ेव
श ब्द
य ां
ना ः
य ित
 ध र्म
क ल्प
 ल ि
्य ो
सी त्
 अ धिक
ित े
चित ्
ष् ण
 द ृश
 ब हु
 पु त्र
ध ार
्या मि
 भ ग
 भ विष्य
ष्ट ्र
भ ार
स ह
  औ
 ब ्र
ी ति
ो ग
१ ०
, 

 इ त्या
ुः ख
 स मु
 वि शेष
व स
ग म
  ऽ
 अ भि
त द
 र ु
१ ९
सि द्ध
 भ ाव
 च ि
 म या
 य े
 स ः
 त ्रि
क र्म
त ाः
त था
ग् नि
 एव ं
ृ त्य
स्थ ान
श ी
व र्ष
 ज ग
क ाः
ह ा
ण म्
त्र ं
्व ं
 च ा
ग ृह
ाय ते
क थ
र् हि
क िं
क र्त
 वि द
 अ न्य
ण ी
स ो
 त ं
 स ाम
ित ाः
क ी
व ेश
  ,
च न
र् मा
द र्श
ज ्य
 आ सीत्
ष े
य दि
 म न
द्व ि
 र ूप
प्र त्य
र ्या
त या
 सु ख
  ष
ु क्त
ए क
 पु रुष
 द ्र
च ना
ध े
त्र े
य ते
भ ेद
स मा
 त ेन
स्त े
ल ः
न्त ः
  ट
 स प्त
ना म
 त्व ं
्य ः
ीय ते
 द्व ि
 श ब्द
ृ द
 कथ ं
 सं स्
 पृ ष्ठ
 श्र ु
क्र म
  ई
 सर्व े
 स्या त्
ज्ञ ा
  [
ङ् क
 य ः
 प द
 न मः
त त्र
त तः
 व े
ो द
 अ न
 द ी
 उ त्त
ष ि
_ _
 द र्श
स् प
र् ह
ै क
पू र्ण
भ्य ः
ात् म
ाण ां
व ्यं
 गु ण
लो क
कृ ति
ब ्र
 द ू
ञ ्ज
 - -
र् प
प त्त
e r
 प ी
 प ित
प्र ाप
वा च
मु ख
 करो ति
र् द
ग त
 क ाम
्या ः
ग र
क्त ं
अ न्य
श्च ि
्य म्
 म ि
 ल ा
i n
उ प
व त्
गु ण
ह ः
ह ित
  ऋ
र् भ
ध ी
म् भ
 सं श
 वि ना
ए त
य न
भा षा
ान े
म न
दा ह
 म ां
  थ
 श ा
ोऽ पि
प्र ा
र् घ
 यो ग
त्र ि
 क ी
रण ं
s t
 ए त
 द श
भव त्
 प ि
 वर्त ते
 भा ष
ो ः
स ाम
ध ः
स्मा त्
प ृ
 त तः
य स्य
 क दा
्य ु
यो ज
ल ु
 स ो
ल क्षण
ञ ्
म म
 भव ेत्
ल म्
 न े
 प रा
मान ं
त्व ात्
ती ति
ए व
प ः
 स न्ति
ग े
अ तः
 य त्र
 प ठ
ध र्म
 उ त्
वि शेष
र्थ े
स ौ
क्ष ्य
त र
 व द
 त ्र
 स दा
ता म्
 स् था
 वर्ष े
 म ान
व र्ण
नो ति
ो ज
प ाल
 श क
ेश ्व
 कु र्व
 सि द्ध
व्य म्
 त द्
 ब ाल
क ल
प रा
 ज ु
1 0
 च तु
 त र्हि
च्छ ति
े ः
 औ र
 अ न्त
a n
ध न
 वि द्या
 पर ी
 व ेद
 इ व
ष ां
म ह
ति ं
ित ो
अ नु
स न्
ाद श
 र े
 भविष्य ति
कार ः
ग ो
 द ुःख
द ू
स्या ः
क ाम
 लो क
ै र
१ १
द ृष्ट
ड ि
भ ु
श ो
य ेन
 स् प
ृ ण
ह म्
 म ू
ि र
ाय ु
 अ हं
फ ल
तु ः
य त
 स्त ्री
 प ञ्च
  +
o n
श ं
काल े
 प ाप
वि द्या
a r
 कृ त्वा
क र
व ान
ज ि
ण ्य
र् था
क्ष ु
ित ी
प्राप ्त
 व्य व
न्त ं
 क ्रिय
अ त्र
या म
ाय े
ष्ट ा
 अ त्र
 अ थ
 र क्ष
 अ ति
 नि र्
भ ्या
धिक ार
 क्ष े
रे ण
ज ्ज
 ज्ञ ान
 व क्त
__ 

द श
ट ि
 सर्व ं
 स्व ा
मु क्त
 भा ग
मा त्र
 न ो
 आ ह
ु म्
मा स
 प श्य
र्व ि
म ां
र् च
भ ्यां
 विद ्यते
 ख ः
 पु ं
घ ्र
 द क्षि
20 1
इ त्य
 व ी
 म नु
 य दा
e n
 ना स्ति
ह् म
नि र्
ष् म
िक ं
व ै
 - 

 स त्य
 न ं
व ो
 व यं
१ २
ा म्
उ त्त
 मह ा
ह ू
 द ोष
 भ ्र
१ ८
स्मा कं
 क रि
o r
भू त
 प्राप ्
न म
 रा ष्ट्र
  रि
 प्र ाण
ज ः
द ाय
वा ह
ज ीव
मा ः
 ज ान
भव ति
तु ं
ब द्ध
अ हं
a t
 श ी
 क र
 प्र ज
ल भ
या मि
च ी
म ू
 क ्व
र् न
ार ं
ना य
ट ी
 कि म्
य न्ति
ड ा
पु त्र
प ो
म ्य
ित ्यं
 उ क्त
 स द
श त
 अ धि
ड ्
 केव लं
 ज न्म
 म ो
ि ति
 म ध्ये
१ ५
 पर ं
धि ः
ह ी
 घ ट
प्र थ
 प्र ि
भ ्र
शि ष्ट
 इत्या दि
 पर म
ण ाम
ार ी
 व र्ण
ार ि
मा ह
न स्य
ण ो
 दृश ्यते
ाव त्
 त ेषां
 य स्य
दि ति
 वृ द्ध
ाद ृश
 लि ख
प ित
 ब ुद्ध
या त्
 आ ग
प ति
 वा च
क रो
य न्
ष्य ति
 क ल
e s
व ां
 ध ा
अ न
देश े
ब् ध
तो ऽ
ष ः
ु प
 फ ल
व च
  ः
क स्य
म नु
 पू र्ण
ाना म्
 ह ्य
 त थ
भ े
स्त ्व
क्त िः
अ त
व री
" 

त्व े
 म ृ
 ह ृद
ष ्यामि
त्व ेन
 पा ठ
् म
पर ्य
० ०
 स े
 सम ी
 पू ज
ित ्या
o m
  S
ती य
 च े
ं श
ड ़
 अ भवत्
 ज ि
 ब ि
ध ्व
ार ः
 ज ल
ाय ं
 क ल्प
रि ति
 न ्या
वि श्व
ज ी
व न
ान ्व
 प्रथ म
 र ो
प ं
कार ्य
 भा षा
 पृ थ
ब ल
 स ौ
 य ेन
थ े
 भ ि
पु रुष
द ः
र् क
१ ४
 प्र काश
रा ः
योग ः
ज ं
म न्त
 संश यः
नि यम
 प्र वि
ध ो
व ती
 दृष्ट ्वा
श ाल
ाय ः
  ऊ
 पु रा
 प्र े
र स्य
 __ 

 य ज्ञ
 वि ध
ज े
ु म
 प्र ती
ग ा
त ौ
ित ्व
कथ ं
 ल े
 यु द्ध
 व स्तु
 अ स्य
 स र
1 9
सं स्
क ्रिया
ते ः
 क ्री
 श क्ति
  ओ
त न्त्र
ू न
 ग ो
 पु र
 न ः
 श री
ष्ट ं
 पृ थि
 कृ ते
 ग च्छ
 ज ायते
या म्
 म ित्र
स्म ै
 प्र ोक्त
 म ध्य
 क ्रिया
 सर्व त्र
 व च
स ङ्
 राज ा
वर्त ते
च र
 प ाद
मा र्ग
a l
 श त्र
 भव न्ति
 न ृ
१ ७
 भ ु
द ौ
 त मे
श्र ु
भ य
  I
न िक
ब ि
ाद ्य
यो जन
ल ्य
प न्
 साम ान्य
१ ३
अ धिक
रो ध
क ेन
ा त्र
म ित्त
 कु रु
ग ः
  ॐ
व ्र
वा स
 स ेव
ान ाम
 श ो
अ यं
ग ण
ब ुद्ध
त् मा
 इ दं
ाद ी
 म ूल
ट े
 कार ्यं
अ व
 य द
स ां
 भग व
देश ः
दान ीं
0 0
क म
  t
 य ू
 सा ध
 शक ्यते
 चि न्त
ी म
स मु
प क्ष
र्व ा
 ( )
द त्त
द्र ा
 ह ो
 ब ल
 च ेत्
ज ्
चित ्र
ते षां
श े
ो त्त
ान्त ि
थ ं
ना म्
  A
श्च ा
र म
 प श
पर ं
 राज ्य
त दा
 नि ष्
a g
े ष्ठ
 स न्
 सू र्य
 न ्य
 कार ण
थ ः
 स ङ्
 न ित्य
पे क्ष
१ ६
न ानि
1 1
भ ो
प्र ि
त्व म्
 काल े
 स्थ ान
र स
र ति
वृत्त ि
ब ा
 भ ेद
 स्व ी
  ड
 म नो
स्या ं
सह स्र
या त
भ्य ो
 क ः
ित ्वा
 द त्त
ष ्यते
रूप ेण
ेव ं
य द्य
 अ ध्य
ान् न
i i
 प्र स
ष ्या
वृ द्ध
 स्था प
ख ि
 वि द्य
भाव ः
 प्र श्
ते षु
 भू त
मु प
ृत ी
शा स्त्र
 व ्र
मान ः
 त त
व द
घ ु
ल य
श ास
 त ्य
ग् ने
र क्ष
1 2
 अ र्थ
 श ेष
 य द्
- अ
कृ त्य
रूप ं
भ क्त
ह ्य
त व
द म्
 नि श्च
 ब ा
 वृ त्त
 ल भ
 त्व या
 न व
 च ैव
इ ट
ी ः
श क्ति
स्था प
य ौ
 य ज
 वि धि
मे र
व्य ः
यित ुं
ल् ल
 सू चना
 ए तत्
 श क्
 आ स
ास ु
 गु रु
कृत ं
 आ व
प ार
र्ग ः
 सह स्र
 क रण
 क श्च
 त म
 प र्व
िक ः
 इ ह
र् द्ध
 भार त
व्य व
यु ः
 दी र्घ
 न ैव
क र्ष
द ो
ख ा
 प े
इ दं
म ार
 द ा
 केव ल
 क्रिय ते
ख े
र ू
्व ि
मि दं
 न ित्यं
त द्
वेद न
 पृष्ठ ानि
य दा
 ध न
अ भि
पद ्यते
े ऽ
 ल क्षण
 स ी
 न र
द ुःख
 ध ार
 कि म
 शु भ
सं धान
त न
 ग ण
अ प
 स्व यं
 श त
दि ष्ट
i t
त तो
ह ास
अ पि
ै र्
 वि चार
 प्र ण
ना त्
 ज नाः
ा र्थ
न्त रं
भ ी
ब ी
कर्त ा
 क ौ
 वि ज
1 8
र् म्
 त ा
त त
 वि व
 पुन र
. .

 दु र्
का स
  ऐ
ाद ेश
अ स्य
 उ च्यते
विष य
क ूल
 स्व र्ग
ज्ञ ानं
 प्र धान
1 5
क्ष ं
नि ः
 रा त्र
दाह रण
प्र स
 आ त्म
 श ्व
ब हु
ज ्यते
 ति ष्ठ
 म ास
म ित्य
ब ोध
 म ृत्य
 ह स्त
वि धि
म म्
ब सा
स्या पि
च ्य
न व
 मु क्त
भव ः
रा ष्ट्र
धिक रण
 ए ष
स प्त
 ग्र ह
m s
्र ा
प्र े
i v
 व ार
  ि
ग्र े
  P
 भाव ः
ब ाल
 श क्त
 इत्य स्य
 ज्ञ ा
 स्म ृ
 क ेन
लि ख
प दा
 लो के
 ब्र ह्म
ज्ञ ः
रु द्ध
क ू
 न ी
 क्षे त्र
 नि य
ट ा
 कार ्या
च तु
म व
न्त ्य
ृण ु
सं ख्या
 य थ
ेष ्व
पु नः
  ङ
य ी
सु ख
क्ष ः
म ध्ये
िक े
 य द्य
ने क
 सम् बन्ध
 पर स्
 कि ञ्च
 ए कः
ृत ं
सा ध
 यु क्त
बसा इट
म न्त्र
त ाव
 पर मा
इ ह
श क्त
 पुन र्
स्त था
क ेव
 व र
ग ी
 वि कल्प
 इ च्छ
द क्षि
 सा क्ष
द ोष
 ध ्य
ित ीय
ो ं
 पु स्त
 पूर्व ं
म स्ति
क ्रिय
 त्व ां
ु व
न् थ
ेष ण
 नि यम
 भव े
ध ्यते
 न ्
 स्व प्
च ा
 ह रि
 मा र्ग
प या
 ख लु
फ ु
पर ी
प ञ्च
िक ी
द्व ा
 नि र्म
पु न
 द्व िती
 कु र्या
 ह ै
लि ङ्ग
ित ानि
ध ं
 ज ात
 इत्य र्थः
 दृश ्य
र्थ ि
 म न्त्र
 प्राप् नोति
स र
 शी घ्र
 य त
 भाष ण
यित ्वा
r e
कृ ते
 कुर्व न्ति
न्त र
क ्व
द ार
 प ार
ब ु
रा त्र
 प्र योग
 य तः
 सम् बद्ध
मे ण
 व ो
ान्त र
 भव तः
्ये त
 यो ज
 नि र
 ध ्व
ग च्छ
 अ ध्या
 अ ग्नि
  s
 विष ये
 स ति
 अ यं
ऽ ऽ
 समु द्र
 द्र ष्ट
 आ र
त ाम
 वि भाग
 व स
प्र श्
] 

 स व
स् ट
अन्य था
 त त्त्व
ो त्
्य स्य
 अ स
धु ना
st r
िक ाः
 प्रा र्थ
प त्र
 द ृ
दि श
कार ं
न ीय
वि भाग
कार ेण
प दं
 स मान
 त ो
l e
 ए का
न ौ
 ब ाह
स ेव
 उ द्
ह र
  T
 च ित्र
  M
ह स्त
 वि स्त
o u
घ ा
र्थ म्
 शा स्त्र
द पि
प त्
  m
स र्ग
ज ो
 वि ज्ञ
 ले ख
 श क्य
ग ं
 सम ्य
1 4
वि धान
्यो ति
 संस् कृत
ृ हं
 न ग
 अ स्माकं
 त प
 ग ति
ाह ्म
ले ख
ज ग
र्त ि
 फ लं
 व न
द ृ
भ ः
 व ाम
न् दि
 ब ह
 ब ु
म् ह
  झ
व स्तु
म या
 सर्व दा
 इत्य ेत
च्छ ेद
म ौ
२ २
 ल क्ष
घ ्
 म ात
त्य ं
 रु प
च े
३ ०
ष्ट ि
 व र्ध
i c
् ल
य ान
 दक्षि ण
सा धन
  C
 त ां
स्थ ित
 प्र व
-- -
ट ः
 त तो
 प्र सिद्ध
े क
 ई श्व
म ृ
म ध्य
ह िं
द्ध ि
 अधि नियम
ित ुं
त स्मा
 प िता
२० १
क ौ
 क म
 प्र यत्
 पर ्य
 सू त्र
२ ५
त्त े
ष ण
ित वान्
 सर्व ा
म य
 प्र कृति
 ह ृ
ाण ्
a m
शि क्षण
चित ्त
ग तं
 उ च्च
त्या दि
साम ान्य
प न्न
े य
 त ाव
 प्र य
ान्त े
ह ाय
 श ुद्ध
फ लं
त्त ा
 म धु
भाव े
 श्र ी
 समा प्त
 प्र माण
क्ष ्यामि
 विष य
 भग वान्
भ ग
न् नि
न ान
पि ं
 सं ख्या
्या व
 वि नि
 कार णं
म ेन
e d
अ ति
ष् मा
म ान्
कार ण
ग्र ाम
स ेन
 प्र च
ार ो
ना पि
प ाप
 परि वर्त
्या य
 द्व ारा
प्र योग
 अनु संधान
्व ः
ms g
मु च्यते
msg str
 श ू
व र
 कर्त ुं
 भव ान्
 द्व ादश
ो त
 य ावत्
 को ई
ं स
 भ क्त
न ग
२ ४
पू ज
व त्स
 त द्व
व ाय
 सं सार
 अ त्य
ी र
1 3
 च ित्त
 मा ता
 क स्य
 वा क्य
य त्र
ह ृद
क्र ी
 सम्बद्ध ानि
म ूल
 दि न
om e
  p
न्त ी
षे ध
न न्द
 क्ष ण
विष ये
ह स्य
 व ायु
 नि र्व
 गृह े
त्रा पि
 वि ष्ण
वि श
मान ा
पत्त ि
1 7
 न ै
न ै
ष्ट ः
 र ोग
i on
क ्यं
 सर्व ्व
 व ाय
 क्री ड
ह ितः
 ब हि
स्व ा
 देव ा
श् ल
स्त ा
ष ्व
 सर्व ेषां
 प्रा तः
ग तः
ज ल
 प ति
 उप योग
२ १
प ात
ान ी
ना श
 उत्त र
 परी क्षा
 ज ाना
 अ ती
ष् प
व ाः
 ग तः
पु रा
a d
 हे तु
  B
 प दा
करण े
  N
पृ ष्ठ
व र्ज
सं युक्त
 वे बसाइट
 न ु
मा त्
 अ तः
 स ार
 पर म्
म ण्ड
 क श्चि
पाद न
भ ौ
 स िं
स ृ
ै ल
ह िता
  c
 सं युक्त
  b
अ न्त
i s
न्द ु
म त
ु त्
 अ मेर
 प ाल
 इ न्द्र
सर्व ं
  L
मा य
पा ठ
 त स्या
 श ्
ेव ाः
२ ७
स्व रूप
  f
करण ं
 र स
 मु ख
 द ण्ड
र्त ्त
 न ू
न नु
 वि कि
र्म् म
त ृ
 य ाव
 वि प्र
 ग ि
दि न
त्त ु
 सु र
 त स्मा
सा ह
 य ं
 नि र्ण
 - --
ा या
 म हि
प्र काश
२० ०
ाद ौ
ान्त ः
 ग्र ाम
म ति
 ज ू
 ए वा
 स क
लो के
en t
स द
ार े
स्त ्री
कृ ता
 कृ ता
स न्ध
म स्य
त्त ि
न्त ो
 तथा पि
 वर्त मान
 आव श्य
 ग म
 कि न्तु
 द ैव
ध ्
रु ण
ग ि
र ेव
 स ्य
 प्र भाव
र क्षण
 अ त
 अ द्य
 प क्ष
 ग त
 जन वरी
 देश े
1 6
 श्रु त्वा
 च ै
ार ु
 भार तीय
 विशेष तः
 त ौ
स् क
 प्राप ्य
स्म ान्
अ द्य
श य
२ ६
 अ म
ाण् ड
ष्ठ ा
 पित ृ
मा द
पर म्
 कृत ं
 वि कास
 ग त्वा
 ए ते
 इत्य नेन
 नि रा
व न्तः
पु र
स्त ं
अथ वा
 मु ख्य
वस ाय
णा म्
 तथ ैव
न् ना
तो ः
कृ तिः
 क था
रु प
प् प
 व्या ख्या
H ome
य ू
य मेव
 दू र
अ स्मिन्
िक ित्
ए ते
ी प
क् ष्म
 सम र्थ
 इत्य ेव
च ः
 उ द
 पृथ क्
 दि व
ृत म्
स त
 त्व ा
ए ष
घ ट
ज न्म
 अ स्मिन्
a s
भेद े
्या त्
 प्र वेश
दे ह
  ण
 अ ह
ब ाह
ाय ै
l o
ब ं
ह ां
 च ल
प द्य
 ज्ञ ानं
उ त्
र पि
 प व
 इत्य ुक्त
डि या
२ ३
ज ु
न या
ल ाः
ि नः
 वा पि
ए स
ै श्च
ष ्ये
ह ृ
रि क्त
चि न्त
 वृ क्ष
 स न्द
 त ्या
 इत्य त्र
इ गु
ित ां
प्र ाय
 प त्र
 प श्च
 य ान
भ विष्य
 त ृती
 छ ात्र
 ल घु
ेष ाम
क दा
ल म्ब
 पश्य ति
 इ त
िं श
ह ितं
यो ऽ
 जग त्
ू नां
मा णं
द्य ोग
ए तत्
गु रु
ग ति
ल ये
श ुद्ध
र् श्व
ब् दा
 रूप ं
मान े
 प्र योजन
वि द
रे त्
 ङ ी
 क्व चित्
 द दा
 बुद्ध ि
 प श्चि
 च न्द्र
ाव ्य
क्षे त्र
 ग च्छति
िक ो
 ब ी
ल स्य
 श्र ेष्ठ
 भू मि
 ज ना
प्र धान
c h
 ह र
त्त र
 या ति
 चा पि
  d
 वि विध
 न ार
रण े
स्थ ानं
 परी क्षण
त थ
 प ौ
च्छ ि
 स ै
 त ी
य तः
ोऽ यं
प्रथ म
 य तो
 भ ोज
२ ८
वृत्त िः
ट ो
ण ेन
.. .
े यं
 म यि
न् धि
स्त स्य
 ह िं
3 0
५ ०
स्थान े
त ानि
 म ं
 ज ी
 भव ित
पूर्व ं
 परम ेश्व
 वि द्व
 ग ौ
सर्व े
 प्र त्या
 ला भ
  n
क ानां
 भ ो
 ष ष्ठ
थ ु
्य ेन
 नि ः
ाप ्
 म द
म न्य
ना व
्रिय ां
 भ ी
मि व
 द्वि ज
  D
" अ
 ध ी
य य
ध नं
फ ो
 प्र वर्त
ङ् ग्
 वि भ
 स्त ु
य द
त्त्व ं
 म ै
क ानि
प्र ाण
भाग े
20 2
त्य र्थः
ष ी
े कं
 एव म्
 श ृणु
त रं
 ज ्या
( ii
न य
 म नः
 सो म
 ए कं
 व य
 ब न्ध
 ल ु
ीय म्
2 5
वि द्य
ेद ं
वि धा
दृश ्य
  *
त्व ाद
ान्त ं
ग् ध
 कि मपि
 अ स्मा
 अ न्व
ण् ठ
कार स्य
 प्रत्य क्ष
T ag
व ाम
मा त्म
 समा चार
 शत्र ु
वि ंश
द् द
ाल ा
्व ल
 अ हम्
स् स
 कृत म्
 ब्र ू
ाप ्य
कार ि
 ख े
 द ान
ो र
 व ः
 स्थ ि
धार ण
 क ति
रा णां
ाः गु
h e
वा क्य
 प्र ो
 य ाये
ाय ्
वाद ः
र ्यं
 ग ा
 रो च
स्थ ि
 सम र्प
सू त्र
ड ी
प्र ती
शब्द ः
नि श्च
नि मित्त
दि नं
 ध्य ान
 व र्ग
क् स
 द्व ितीय
ति ष्ठ
ाय त
स्त ्य
 मनु ष्य
अ ग्नि
शु भ
 प्र या
या व
 कु त्र
क ्रि
ज ान
य व
 ज लं
ष्ट ्रिय
देश स्य
भ ोग
दि व
ङ् के
ट् ट
स्त ्रि
 कृ तः
 के न्द्र
मन्त ्री
्र ु
दान ी
 अधिक ार
i l
रा य
 नृ प
व चन
 ज ्योति
कु र्व
; 

 ध नं
 घ ोष
क ट
in g
c e
ग ू
धा तु
्ये ण
ल व
त् थ
 म ी
तथा पि
श री
ग् न
इ दानीं
ति क
ित ौ
द्ध ा
ग्र ाह
 कश्च ित्
सम् बन्ध
- आ
२ ९
सं ज्ञ
श्र ी
 ह ित
ाल े
स्थ ितः
v i
 अ ङ्ग
मा ज
रो ग
काल ं
 कदा चित्
च ेत
ध ानं
 प्र ाय
 आ सन्
 नि वेद
ौ क
ाद ्व
 दे हि
प त
वि ज्ञान
 दृ ढ
 व ह
ध्या यः
य ज्ञ
कृ तः
ानु सार
व यं
श ्यं
 त स्मिन्
 कर्त ्त
 गृह ी
 भार तस्य
४ ०
 प्र श
क् ष्
ज ात
 स ङ्ग
भि न्न
 अ व्य
स्त त्र
भाग ्य
क ैः
हे तु
द ित्य
20 0
 जा तः
e x
स्त व
स्य ते
 सम् प्र
 शि व
 ति थि
  $
 वि ज्ञान
 पु ण्य
 दि ने
भ यं
र व
स ङ्ग
 म त्
 सा ह
क् ल
अ न्व
e w
 क ोऽपि
स्त ाव
ादि ति
 ब ृह
 ध न्य
पद े
त स्मात्
 स ृष्ट
 त त्त
रा म
 स ां
 अ यम्
नु व
 क्र म
 अध्य यन
अ नेन
 अ र्थः
प तिः
ल क्ष
 म ण्ड
िक म्
 देव ाः
र् भव
स िं
ु र
 म न्त
 द ै
क्त ा
क ाय
ृ ति
या मास
 इत्य ु
 स्व यम्
ोऽ हं
र वरी
ह ्व
 ग ते
ृत ीय
 प्रथ मं
ञ् छ
 रुप ये
  >
क्षे प
 दे ह
ू ह
 स त
 च क्र
 श ान्त
 यू यं
म ित्र
 श ै
भू मि
न तः
र त
ह न
न् नं
 देव ता
स्त ्वं
 प्रति शत
म ित
ास ी
 पृथि व्या
a b
  l
 व ित्त
रा ग
 द्व े
श्र ेष्ठ
भार त
त प
 ब हू
 पर े
 प्रति ष्ठ
 प्र भ
ये त
2 1
 लि ङ्ग
 ट ि
प्रश् न
: 

 ख ्या
 राज ्यं
 श ास
ब्र वी
रा णि
द्य ः
द्व िती
 व्यव हार
 देव ानां
 सू च
स्मि न्न
  ठ
ण ु
ा द्
 वि स्म
क्षण ं
व र्ग
 क र्ण
त्र ी
 करो मि
अ र्थ
 मु नि
( ग
ष ो
स्त ी
नी ं
ब न्धि
दि ना
ध ाय
ोक्त ं
 सुख ं
 पृथि वी
2 4
थ ्या
 प्रति पाद
भाष ण
 श ीत
वि ष्ट
 म न्य
ने ह
न्द ो
 स्त ो
  o
अ था
ष ं
 प त
उत्त र
श ू
  V
ट ु
द ानं
मा त्रं
श्च ैव
' 

व ण
 प ं
 अ क्ष
्र े
 म ाम
ज ्या
 व ने
 कि ल
ा र्थं
यु द्ध
ब्र ह्म
य नं
३ १
 प्र योज
वि ः
 स्थ ाने
यद्य पि
ए का
 प दं
 त ावत्
मा या
 ह ा
- वि
त ार
स स्य
 स त्
 न ेवाः
 नि ज
दा त्त
मे त
सम ये
( ख
e t
 च ेत
च्छ ा
पु स्त
 परि णाम
( क
स ति
ी करण
ां श
 इ दम्
ना त
" ।

- '
 ह ्र
 गृह ्
प र्व
ू ं
ाम ्य
 र म
कु ल
 छ ुं
पी डिया
 ग्र ाह
 पुरुष ः
 वच नं
भ ्यं
क र्ण
स त्य
 वि श्ल
धि ष्ठ
भाव ात्
संस् कृत
प श्य
म् ना
 म त
त्त म
थ ो
र ित
 ध र्मा
 स्व तन्त्र
द ैव
 प ाव
ाल ि
 दि ना
 भ य
 सं स्था
मु ख्य
ख ण्ड
क्ष ते
  &
द म
 अ नि
ाह ा
करो त्
३ ३
रा त्
ग्रह ः
 प्र दर्श
 व्य क्ति
य ॊ
 प्र शिक्षण
क था
 न म
 रात्र ौ
 जाना ति
प क्षे
 व ित
मा व
 स्त ्रियां
 सम् भव
द्व ारा
 कृ ष्ण
S S
अधिक तम
भि र
त्य ेव
ह ीं
 नि वेश
 काल ः
प ाः
स न
स ै
 मू र्
य तु
कार े
ादी नां
a y
स व
वि व
 देव ी
दि ने
 शब्द ः
्य ताम्
ष्ट े
 कु श
 स्थ ानं
 कर्त व्य
  R
  →
 स न्त
 ज ाय
रण म्
 मह ोद
प्त ि
 प्राप्त े
ग ल
 प्र युक्त
 सर्व ाणि
 त स्मात्
 वार ्त
ान ः
 द ो
न गर
म ै
ार म्भ
 . ..

भू व
  E
य न्त
र ौ
 / /
 क न्या
ाद ेव
िक ल्प
 की दृश
च क्र
ट क
मि च्छ
 क् ल
ग ता
स्त दा
पर ः
 मृत्य ु
  O
( घ
 भ र्त
 कथ म्
 शीघ्र ं
ह म
 पर मं
मान ु
 दि वस
  G
ल न
 त म्
 प्र ी
 कृ पया
 ग ृहं
 भव ता
ख्य ान
 अ नेक
ता याः
काल ः
क रं
ृ तः
कार ्यं
प्त ं
 अधिक तम
ख ु
ब र
नि ष्
 मह त्
वि क
र्ह ति
ाह्म ण
 त ः
ात् मा
 जा ता
उ च्च
 अ ष्ट
नि ष्ठ
कि न्तु
द यः
ब े
ित म
 स्व रूप
 द्व ौ
 वि शिष्ट
 अथ वा
 सत्य ं
 साक्ष ात्
ाम ी
क ्या
 दे वि
ग्रह णं
 दुर् लभ
 अ नेन
गु णं
 दि व्य
गृह े
 क ्रि
रो प
n s
या य
कार ो
ेष ा
 व्य क्त
 कर्त ा
 शि क्ष
द य
ल ्या
३ २
यो क्त
 त्य क्त
 कुर्या त्
ग ्व
 भव तु
 श्र ू
म हा
 प दे
पी ड
 जू गु
 स ्र
म् प
वि चार
ाप े
- प्र
o t
क रः
व ादि
 वि न
 प्रोक्त ं
र्थ ो
 ध ू
भि र्
म त्
 वि र
 श्र ो
ख ्ये
 प्रत्य य
ी नां
.. ..
ि न
नी ति
 त या
नि य
इ यं
न ैः
 भ यं
नि र
 स्व भाव
 कृत वान्
 न गर
स्थ ं
ण ्या
प ौ
क्र मः
इत्य ुक्त
2 3
स्य ति
कृ त्
 शेष ः
च ्या
 रा म
 रा क्ष
यि ष्यामि
ज ़
ज ाः
राज ्य
कृत म्
शब्द े
 लभ ते
 च ेति
ाल ी
देश ं
 ज्ञ े
 प्रश् न
ित ानां
ध्या य
.. .

र् जन
 बा ध
ए षा
ु त
 स् फु
 च र
 विध ीयते
दक्षि ण
भ ं
क्ष ी
 शरी र
ै त
 क ू
 म ानु
 जु इ
्ये ष्ठ
ल यः
 ए षा
भू तं
णा ति
 स्प ष्ट
 धा तु
ध ीयते
 व ह्
 त ादृश
सू र्य
ना द
ग ते
 अ श्व
ाम ः
 सं प्र
स्व ी
च ाल
 त स्याः
 भ ोग
 पू र
 फ रवरी
 त ृ
ान्त रे
 न् ह
शब्द ेन
 पाठ ः
2 7
च ल
ना दि
र्थ ी
इ न्द्र
 स ोऽ
 ग न्ध
o l
 पू जा
देश ी
 सम् भवति
 क र्मा
 य श
चि द्
 भेद ः
 क ं
 अ ज
 उप रि
 समा स
ची न
क ां
त स्या
े ह
 ल ब्ध
भा स
 स्थ ितः
प् स
 प्रथ मा
ेश ः
 र थ
सू चना
प्रत्य यः
  F
 ध ि
 तिष्ठ ति
 अमेर िका
 प ृष्ट
 ग ोप
 कु तः
च ं
ै र्य
प्र माण
 ग ाय
रि ष्ठ
सं भव
मे ति
 स्थ िति
ल ङ्
 दु ष्
व द्
वार ं
उप योग
ल ेन
ान ्या
स्त ो
 ददा ति
म नो
 समा ज
ग तम्
 नि र्मा
व्य क्त
ष्य न्ति
 कथ ्यते
 न्या य
u s
्व े
ज्ञ ात
दी र्घ
 पुर स्
उ दाहरण
त मः
स्व प्
स्त तः
ङ् गु
 प्रि य
 प्र ायः
कृ ष्ट
e l
द्व ार
  #
 न रः
 प्र कृत
 दर्श यति
 सम य
गम न
समु द्र
 क्ष ि
 बहु धा
षे धः
ङ्ग् ल
माज िक
श तं
ेष ाम्
न्य ः
ात न्त्र
 सद स्य
 प्र ाणि
३ ६
 न दी
 वि श
 ब्र ह्
 जान ामि
2 6
ल ब्
 स ृ
 म ौ
ाद ु
यो र्
 नि मित्त
ृत ाः
ग्र ी
भू त्
 सम् पाद
 मे ं
 क्र ोध
न ्यं
करो ति
केव लं
प त्य
 प शु
न्त ा
 ख ँ
  a
 त दु
 र क्त
ट ं
ै वा
 अ ं
 य ौ
न्द ्रिय
 स त्त्व
i d
 स ञ्च
ख ं
च ्वं
मा ता
 मह त्व
 न्य ू
 च क्षु
३ ५
 ह रे
क ता
ह ति
सं श
 शि क्षा
न्त म्
 स्त ्रि
ल ब्ध
्या म
ाद े
 सं स्थ
 रा त्रि
5 0
इ त
ित ्वं
 प्र वृत्त
ेन ैव
िक ां
 आ काश
न्य ो
 कु ल
 प त्
ित ु
 भ ज
च न्द्र
वि कल्प
धिक ं
 परि भाषा
 सम् पूर्ण
वाद ी
शी ल
र ां
 अ स्म
वा सि
2 2
ल यं
चि द
 कर्त व्यं
 वृद्ध ि
आ त्म
ध र्मा
स्व भाव
४ ५
द् भु
पर ्या
व्यव हार
 परस् पर
व ित्त
 उ द्य
लक्षण ं
 करि ष्यामि
३ ७
 भ क्ति
 वि धान
 नि वर्त
 उत् पाद
न ू
य तो
ा भि
ॄ णां
 प ो
वि शिष्ट
त्य ु
अ तो
 च िकित्
पत्त िः
 ने पाल
रा व
स्थ े
बन्ध ः
0 3
ख ः
न ानं
 त र
 ए षः
 मन ्यते
 भ्र म
ख ्यं
स भा
 त द्वि
 पा र्श्व
आ ई
ार ्त
करण म्
ज ्र
 प्र जा
 दुःख ं
द ्यते
म भि
 इ दानीं
 सं भव
 ज्ञ ात
 न िक
ार ण
 इ ं
मान ो
 पी ड
शाल ा
स्त ीति
त्या ह
 सि ध्य
 पि ब
 शो भ
ध ू
ि नी
 प्र वर्तते
 ध ारा
 कथ ितं
की र्त
 सम्य क्
ी न
सम ी
र्ज ु
 प्र योगः
रि द्र
 सर्व ेषु
 पा र्थि
भार तीय
 वक्त व्यम्
व र्ध
र् ट
वि ना
प्र ायः
क्त े
स त्
ऽ हं
 श स्त्र
वि स्त
य द्
 उ त्स
 रोच ते
 अ स्मि
धो लिख
प्र भ
ग्रह ण
 थ ः
यो र
मि ह
 सद ैव
A ns
र त्
 प्र ेष
 यु ष्मा
 ग न्त
 ग र्भ
 यु व
 t o
म र्श
 श ं
 ग मि
भा ति
 मा या
देव ं
 वद ति
 मात ृ
था ः
 सम स्त
 थ ्व
योज ना
 त स्मै
प्र देश
ल् ली
ास ः
 विश्ल ेषण
 क ला
तु म्
ज्ञ े
 देव ः
मात्र ेण
  w
 त ेषु
सम् भव
२० ७
 पुत्र ः
e c
प ते
 च ु
मा दि
 इति हास
ग ाः
त मे
म हो
व ीं
 व्र ज
 अ प्र
आ र
पर ीत
विध ं
 इत्यादि ना
 न्या या
क ला
ष ध
 की र्त
म तः
 प्र यु
 प्र देश
प्र वेश
 मान व
 दोष ः
अ ह
फ ्
श ङ्क
 वि मान
 ब ो
 भि न्न
केव ल
 प्र ाह
पु ं
री ं
दु र्
्य ति
 त ानि
त्या ः
भू ता
प ास
ा पि
कार ्या
 कुरु ते
 किञ्च ि
 टि प्प
ना या
 उप ा
म द
 क व
 त ान्
 इत्या ह
त ै
त ानां
वि र
सु र
ण ्यं
 द द्या
 वि वे
क्ष ित
 आ प
े ते
रण ः
ेश्व र
ए षः
ध ाव
प य
 ज्ञ ायते
 प्रज ाप
 विकि पीडिया
त त्त्व
प ान
ा द्ध
 तु ल
ण् ट
 स्थ ित
 यु ग
 अती व
च ु
ढ ़
मा श्र
भव न्
ष्ट ो
व्य ति
 ना श
दू र
 कश्च न
द् म
 ध ीम
 योज ना
्य ू
 त न्
ाम ु
मे क
 सम ये
भाव ेन
अ हो
 म रु
न्त रे
 नि रूप
 उ त
 त्व म्
 व्य वसाय
 कर्म णि
न ्ये
ल ाय
 प ात
 व त्स
 अन्य था
ह रि
ो ड
 य म
 च त्व
 आ श्र
 आ चार
र्थ िक
 ना ट
 कर्त व्यम्
भ्या म्
य थ
र थ
थ ्व
क्ष र
लो क्य
 कार्य म्
 भग वान
क्रम ण
प थ
रि क्ष
भार ः
 प्रती यते
द त्
 इ यं
 ह ु
 ट ी
र् नि
 इत्य ्
 प राज
 पु ष्प
व्य क्ति
 हृ दि
 ङी प्
४ ४
 क ेश
र् मि
्या दि
रा जा
ती ं
स्थ िति
 ख ाद
 धर्म ः
 ला ख
 पे पर
ध ौ
 न ृत्य
ज्ञ ां
व त
 व यम्
 त ाप
ाद यः
 स्व ाहा
 प्रत्य ेकं
न ार
 अ ग
 मा म्
 न ोप
 प्र भा
नुव न्ति
ए तेन
क ान
 अ भ्या
 वि रा
 लिख त
2 8
द ण्ड
 न ाय
्ये ति
प ्या
ौ ं
 पु रु
 उ दाहरण
क्षे त्रे
_ 

च रेत्
प ्यते
स ाव
े त्य
 स य
 श क्तिः
 र ज
 वा क्यं
चित ं
दू ष
स त्त्व
 शा श्व
 हृद य
 पदा र्थ
न ित्य
प श्च
 प्र ह
 ब ोध
 पर ्या
न्द ्रिया
 किञ्च ित्
 o f
i g
ए म
च नं
 म मा
 च ्
या ति
रण ्य
ात्म क
ग न्ध
क्ष ्यते
बुद्ध ि
e m
म हं
सं सार
स्थ ः
र्ध ं
व य
४ १
 त ू
त् मानं
 ध काः
कार ा
 राज न्
युक्त ं
प्रत्य य
 स्वप् न
ध ्वं
भ क्ति
ल िं
रण ा
रे क
 खे ल
न र
५ ५
नी यं
सम न्व
 ग्र न्थ
प्रस ङ्ग
 प्रयोजन म्
 क ान
 हृद यं
त दु
 श र
द् भव
 पु ष्
सा म्
ैव ं
वृ क्ष
 पुन रा
 अ ने
 स्व ं
 मन सि
द ति
 न ारी
 य यौ
 वि धे
 ज े
ती त्य
श ै
स ृष्ट
 प ाण्ड
स्त ू
निर् देश
 आग च्छ
 प्रवि श
 क ाय
ज्ञ ाप
म ित्या
४ ७
 स ाव
श्व र
 मह ान्
 मन सा
 प ्ल
ाल ्
 पश्च ात्
 क ै
अन्व यः
a p
ृ द्ध
का ङ्
 दु र्ग
 यान ाः
0 2
ास ां
 संस् करण
 बहि ः
भ ोज
८ ०
 अ भ्य
 सु न्द
 क्ष ु
परी क्षा
ex t
x x
प क
ह त
े भ्यः
ना त्म
ये ति
मान स्य
 कल ्या
 सेव ा
म ल
 म र्त
 नि वृत्त
 विना श
 शक् नोति
 वा स
रो धः
 छ ु
 सत तं
  H
ग ृहं
थ ्
श त्र
रा ध
चित म्
 करि ष्यति
) ,
 अ करोत्
 वै श्व
ादि षु
स्र ो
 विश्व ं
र्ह सि
त य्
ृ ता
नि र्व
 ल ोप
 ध ु
द्य था
रूप ा
प्रत्य क्ष
पुरुष ः
 ज ्व
प्र कृति
 दु ष्ट
 वी र
क्री ड
ब्रवी त्
o w
ज य
ाव ा
 सा धु
 ज्ञा त्वा
न ानां
 प्र भो
प्र भाव
 ए स
ाल ं
ज्ञ ो
्रिय ते
दृश ं
 कदा चन
0 4
्य न्ते
 य ॊ
ना हं
 ध ्या
त्या ं
 दि श
त् थं
ां त
स्व ि
 भ क्ष
 ख ोज
क्रिय ते
- "
य मा
४ ९
 वि रुद्ध
दि श्य
 मु क्ति
at ion
 वच ः
 पव ित्र
च्वं गु
ित ेन
या द
श्व रः
१९ ९
0 1
ेन ि
श्य ति
 स्म र
पे क्षा
 कदा पि
  ऽपि
घ ात
व श
े ं
र् धा
 च ो
प्र ण
ान् ध
द्य ु
ङ्ग ल
ला भ
 जान ी
 मो क्ष
 सार ्व
६ ०
 वि क्र
ना ति
स्प र्श
पर्य न्तं
िक ार
ष्ट ु
वा त्
शि क्ष
 शक् नु
मु त्
न्द ः
 द्व ार
 प्रत्य यः
at e
 त ै
क् क
स्त ेन
ना थ
त्त ्र
 ध्व नि
 विष्ण ु
्य ै
 त ृतीय
युक्त ः
राज ्यस्य
प ाय
वि कि
नि र्ण
तु म
के न्द्र
 शु क्र
 ष ड
ेश्व रः
ैर पि
 स्प र्श
व ति
 व ं
 न ान्य
 ध ाव
ये द्
 पर ः
 दिना ङ्के
e p
प श्चि
 आ त्मा
त्व मेव
 परि च
रूप े
व्या ः
३ ८
 त ात
 प्र मुख
मा ल
हार ः
 नि र्वा
द्य ो
गम ्य
र्द श
 उक्त म्
बा ध
u n
क र्मा
ती त
मान म्
 क्ष मा
 भार ते
गृह ्य
 व्यव स्था
 समी क्षा
 त्य ज
 अ ल्प
 स्व यमेव
सं योग
मे तत्
 सु वर्ण
देव ता
निर् दिष्ट
  v
ज ाप
द ै
ृ त्त
 ग तिः
 भू त्वा
( i
 सर्व तः
धि प
 क्री डा
पी सी
मन्त ्रि
 व ाद
र् ड
 प्र ीति
प्र भा
 सं वत्स
 प्रति वेदन
स्व यं
३ ४
 व ान
स्य े
 आ यु
 र क्षण
कार ी
न्द ्रि
समा चार
त ृती
 अ ध
 कार णम्
 श रणं
ता प
 सर्व भूत
र्ष िक
 द्र व्य
ना र्थं
 ह य
 इत्य पि
द्र ो
पित ृ
स भ
३ ९
 य त्त
 वि धिः
 स् नान
को ई
 विशेष ः
क ान्
फ ़
 अ वि
 भ र
 उ वाच
ान्त रं
अ ष्ट
ग ौ
ब ो
स न्द
नि वेश
ग्र न्थ
त मं
 त देव
 कु र्य
स्मि ं
द्या पि
ञ् जन
 हृद ये
ए कः
 स कल
सं ख्य
नी या
श् मी
 ग्र न्
अ स्माकं
ओ ं
द न्त
द्व यं
 वर्ष ाणि
  {
 ब लं
भू ति
e ar
ज ्व
ान ेन
 ( =
भेद ः
 यद्य पि
थ िः
म ानि
 जा ग
वच नम्
2 9
द ित
 भ द्र
उत्त रः
अन ्ये
्याव रण
4 0
 सम ं
ोप रि
 न वी
ष्य सि
 मु द्र
  K
u r
ह ेत
स्त त्
क्ष ्या
 ए म
 आ रम्
सा ग
कि ञ्च
 बह वः
अ धुना
च िः
४ ६
मो ह
 लभ ्यते
ू ढ
 उ न्न
पर न्तु
 कृ ष
विशेष ः
अ धि
क रि
ग र्भ
 आ ई
 परि वार
 श्र द्ध
 अनु कूल
दी नां
र्था त्
च ो
त स्मिन्
द न
ै ष
रु णा
शि व
 केव लम्
प्रा तः
म धु
व ्ये
व ायु
श ौ
 न ाव
क्ष त्र
 मा त्र
 मन्त ्रि
स मान
्र ुव
 त न्म
क्र ान्त
परि वर्त
 व्या पार
 भगव न्
 त ाम
 त ्री
 मि ल
 युद्ध े
 सक लं
ड े
व ने
 ज नः
 पर ो
तु ल
 प्रति दिनं
क्र मे
उपयोग कर्ता
श यः
ित ुम्
 उ भय
 वक्त ुं
म हि
ता या
व्य ो
an d
 घोष णा
u l
ल ्व
४ ८
ना भि
 ना त्र
ज ायते
 प्र कल्प
मु त्त
यि ष्यति
घ् न
i r
त मा
 य ेषां
भा ष्य
स्थ ्य
श्र म
विष यः
 वद न्ति
ित स्य
 ह ं
द्व ै
ह् न
प्रस ाद
दिश ्यते
t r
न ैव
म यं
 ह ी
भाव ा
धिकार िक
 व र्गः
 क र्म्म
 ते ज
 स्मृ तः
- क
य ्य
 क रे
 च ेद
द्व ितीय
ङ्ग ा
प्त ः
 वर्ष ा
भार तस्य
दर्श न
व म्
क्र मेण
 गि रि
य ानि
स ान
प्त ा
 उत्त म
 मूल ्य
प ण
ल यस्य
 स न्ध
 ए तद
 पु रो
ाप ु
ोऽ स्ति
क ्ये
न ्यां
य न्त्र
 वि च
 नि र्ध
१० ०
र ज
७ ०
 च ाल
 गम ्यते
श ब्दा
 स ायं
र् जा
 य ानि
 श क्र
था य
ेव ा
त्व या
 निर् देश
 समी पे
अ धोलिख
ट र
ि ना
 - -

योग ्य
 समु दाय
प र्
 न हीं
स्य ैव
 ध ाः
 सा धन
 क्ष म
ध ारा
रा त
 ग ्री
भा वि
 देव ं
 प्रा धिकरण
र्ध ्व
र्था ः
क ेश
४ २
क्त ः
 यथा र्थ
व्या पार
 इत्येत द्
  म्
S F
॑ ः
 स ाल
क्ष या
 भव तीति
 त्व यि
मेव ं
इ त्यादि
द िक
 अ न्ति
 य ाःगु
वि धिः
नि ष
 नि ह
ानु प
मास स्य
  डि
रि व
 स्व र्ण
 जा ति
 प्रथ मः
 क्र मेण
सङ् ख्या
0 5
ग ेन
प िता
स ाः
मा प्
मे कं
ल् क
ध्य क्ष
 क् ली
त रा
 भ ौ
शि या
 श्रू यते
u t
च रण
 व ेत
 अ सि
 अ स्तु
 द रिद्र
 भ विष
न्त रम्
नि र्म
से ना
 जीव नं
  in
- -

प न
 क ठ
ती व
 श्रु ति
 एत द्
an s
 तृती या
ए तद
५ ७
 व ृष्ट
ते ति
 करो तु
शब्द स्य
  J
ज नाः
स न्त
 प्र भु
ार ूप
वि रोध
श्च ित्त
 सम न्व
ग्र ा
 ते ऽ
 ख ण्ड
 ना म्ना
यित ुम्
प्रा र्थ
ङ ि
श ान्त
्त ते
स्य ं
 सं साधन
iv e
- सं
५ ९
 श ृण
ङ् का
ङ्ग ं
 कर्त ृ
भग व
ज म्
े ऽपि
 प च
 उ भ
 र क्षा
 स्व तः
द्र ूप
ामि ति
 वर्ध ते
क ै
 म ृत
रा त्म
ाप ्त
मान ्त
 प्रति नि
 मे रे
 देश ः
कर्म णि
खि ल
 सिं ह
w er
 सा माजिक
 व्या याम
 मृ ग
0 7
ल िक
ान ो
 ज ्येष्ठ
 मास े
 प्रच ल
 त द्ध
 अ धुना
 आ ः
 सा ध्य
धु निक
सिद्ध ि
गृह ्
पृ थि
 महत्व पूर्ण
म ृत्य
स ाद
 व चन
 त न्त्र
 अ भ
 वि भक्त
 सम ू
 कृ षि
o v
ब हि
ब ध्यते
म िक
 न ौ
 म न्दि
 इ च्छति
देव ा
 स्या द
य् कः
पन् नः
श्चा पि
विंश ति
 गृही त्वा
 धन्य वाद
ी या
रा मः
 स् ना
 प्रति योग
पद म्
भेद ेन
 साह ित्य
 इत्यु च्यते
o d
o st
आ ः
 भ ूप
भव तः
 ज्ञ ाप
 विश्व विद्या
 क्षे त्रे
 मनु ष्या
 भ्र ात
प ठ
प रे
कृ पया
भू तेषु
  ऑ
I I
अ स्ति
ण ाः
ध ्यं
 त ैः
 न ीति
द् भिः
 इत्य स्मात्
जा ति
वर्ष े
f f
क त्व
क लं
ख ो
ण स्य
र ीय
ह ुः
५ २
 स भ
 सं बं
सा ध्य
भव ान्
 यु गे
  g
न् दा
प्र यत्
 ध या
 स्व े
मु द
ित्य र्थः
चि दपि
दी प
 प्रे म
 बाह ्य
य श्च
 अ ग्ने
स्त द
प चार
वि रुद्ध
 ज ले
 सर्व ाः
गु णा
 या च
 मन ्ये
पृ थ
  U
  h
च ्यु
ध ेन
 अ पेक्ष
 म न्द
वि वे
 नि री
 पर ित्य
ध र
म ्र
म ेष
य ज
 न हि
 द र
त्य ्
गृह ी
 मि थ्या
 मध्य म
 कर्मा णि
न् मा
सं बन्ध
कृ ष्ण
हू र्त
व्यव स्था
 य न्त्र
 वि दु
प्र योज
 आ नन्द
 राज नि
परि णाम
वेद ना
ान म्
 त ाः
 त वा
श्र य
कम् ः
लभ ्यते
a c
t er
 प ित्र
 देश स्य
 रु द्र
3 5
 प्र कार
वि ष्ण
र्ष े
भाव ो
पी ठ
 अव दत्
ुक्त ं
 प्रधान मन्त्री
 भो जन
ल य्
 च ्व
ेश े
च्छ ्र
स्व ं
 स्थ ितम्
 दू रे
 क्ष ी
 हे तुः
 पित ाम
  था
ए ं
प रो
 प्र सार
 य ात
ाद पि
सा क्ष
 गु णा
णि यां
 छ न्द
व क्त
ृ ते
५ १
 स न्तु
 व स्त्र
 स् नेह
 ष ोड
 पाप ं
 t he
 अम रः
 प्र करण
 सं योग
भाग ः
मुख ं
 बु ध
क ाव
ष ष्ठ
ाद िकं
 स्व ामि
ती नां
पर म
 स्थ िता
 गु णः
कर्त ्त
10 0
 भाग ्य
ew s
Ans wer
क ीय
े र
 श ङ्क
द् ग
द् भ
सर्व त्र
 तत्र ैव
 सन् नि
५ ६
 द ास
 स्व स्य
स्थ िते
 मह ्यं
ला ई
यम पि
कि म
 शु भा
 ष ट्
 पी सी
 सिध्य ति
 प्र माणं
 द द
प्र सिद्ध
 आ धार
 प्रा धान
 काल ं
   
इ न
ी यः
क्त म्
त्य न्त
 नि वार
 शक ्यं
 युद्ध ं
ोत्त र
शास न
त श्च
ू र्ण
 क ोऽ
 ग र्
कार णं
प त्रं
ऽ नु
 न ाप
 म दु
 सं स्थान
 सं रक्षण
 . ..
 ख ु
 के चित्
 निर् माण
 वृत्त ि
श स्त्र
 प ्
 च रण
मा णे
 सर्व ान्
 इत्य े
जन ानां
 = >
वच नं
 भु वि
 परस् परम्
 भोज नं
 पं च
N ext
a k
अ हम्
क व
य न्ते
 व ां
 न नु
 श ब्दा
 ज क
 आ दि
 " 

 जीव ति
E R
ल ाल
 व ेति
त्य े
त्व म
 तद पि
 / 

शं स
 पर्व त
 स्वप् ने
 द्विती या
i k
ग मः
ित ैः
 अ न्तः
क्र ोध
 कथ य
वार ्त
 योग ्य
दू षण
सहस्र ाणि
 वाय ुः
  X
क ेषु
ब लः
 व सु
ाद िक
ङ् ख
 सा ग
वर्त मान
 पश ्यामि
 श्व ेत
ो न्न
 हि न्द
ब् दं
 मु ने
 प्रा क्
 अधिक ारी
ादेश ः
तथ ैव
" ति
अ नेक
म ृत
व न्त
 प्र कारेण
 ब लि
स्थ ो
 सम यः
देव ानां
न्या या
 त्र यो
 प्रज ाः
 प्रश् नः
नग रे
 & 

i m
इ त्या
ज ्यं
 इ द
च्छ या
सम् पाद
 गुण ाः
 मू ढ
  ]
ल ानि
 अ द
 ग ता
देव ः
 समी प
स ाय
 क ाव्य
म् न
 अ हो
 ज प
 नि र्ग
 मह ान
 प्राप ्यते
 अनु भव
 संस् कृति
 परस् परं
o s
च ्व
 अ ग्र
 देव ो
रूप ः
 विश्व े
 A r
  ,

ा भ्यां
 य ोऽ
 इ ष्ट
सं ज्ञा
 मे घ
नी यः
दृष्ट ्वा
ू न्
 म ार
 प्र स्तु
 भव ः
ादि ना
सर्व ेषां
ज ाल
ल घु
 श ोध
ाद ा
नु ः
त ैः
व ्
 त योः
पु ंस
द्र ु
श्र ेण
 कथ यति
 पुरुष ं
प्राप्त े
 शरी रं
क रा
 क ाव
 म रण
मा से
 इ मे
 नि ग
 ब भूव
 यु ष्म
 वृ ष
 कार्य क्रम
 हरि ः
 शू न्य
 मत् स्य
आ ग
नि ं
 सम न्त
लो कं
 प्राप्त वान्
0 8
छ ि
ड ः
े यः
 त क
 द या
 य ी
 ह ानि
ग्र ीव
 दि वा
मेव ा
 अन्य त्र
 से ना
अ स
ू त
 ग ी
 सं घ
 ल ॊ
सं यु
्ये ते
 रा ष्ट्रिय
 मु द्रा
 घ ो
मुक्त ः
 सङ् ख्या
इ द
 य ाः
 य स्मिन्
स्त ान
 पा तु
पत्त ेः
 परमा त्म
 द्रष्ट ुं
( ङ
य ने
 प्र द
 य च्च
 सर्व स्य
ास ते
 कार येत्
 पूर्व ोक्त
 फ लम्
 मित्र ं
त ाल
त र्हि
व ेत
 स्व ातन्त्र
 ना गर
 व्य ति
भाष ायां
क्रम ्य
ही न
भविष्य ति
क ोप
ै ति
 त च्च
क्ष ो
 सम् भाव
ज् जा
 स्मृ ति
* 

ट ्र
 श ौ
 स् नानं
भू तः
चार ि
क्ष्य ति
 सर कार
 कार्या णि
ा श्च
ान ्ये
 वि रोध
 आ द
र्थ स्य
र्म ः
 मह त्त्व
 कर्त व्यः
हार े
 प्रथ मे
 रूप ेण
 मो ह
अ ग्ने
ल या
स ोऽ
 प क्षि
ष् णः
वि क्र
 ज य
मु क्तं
रो ह
यु गे
 देव स्य
ीव ्र
कु श
 प्रत्य ु
 भार ्या
 संश ोध
पुत्र ः
a v
ू ष
र् भवति
ाव पि
सा त
का त्
 सा थ
 भू मौ
 नाम ानि
क ोऽ
 च ित्
प्र ी
र्य ः
षि द्ध
वृद्ध ि
एस सी
अधोलिख ितानि
n d
 प ट
 वि ह
द्व ादश
स त्त
 एव म
 परि सन्ध
 मा त्रा
 भार ती
न्या ः
 दृश ्यम्
१९ ७
कर्त ृ
es s
प्रि य
: -
क श्च
ग तो
ल ाप
 स मि
 अ ग्रे
 इ दानी
त्य ः
मान ाः
 विष यः
 स्य ुः
श क्तिः
ष ्यं
 स भा
न् ने
 वि श्र
ता त्
 भ्र ा
 लक्षण ं
 नग रे
 सृ ज
 संबं धनं
व नं
ान् नि
 मे दि
प श
प ां
ल ां
 अ ना
 च र्च
 वि वा
 र त्
ाण ाम्
 कर्म णा
भार ते
निर् माण
 टिप्प णियां
उ क्त
छ ात्र
य ैव
श ान
 अ धो
ार ्य
मा त्रे
 ए को
मान ेन
भू ते
 क ां
क्ष ुः
 सम् बन्धि
ग्रह णम्
 उत् पादन
कदा चित्
 हिं सा
0 6
ट न
प ाव
व ेष
 प ै
 प्र स्ताव
 ह र्ष
 आ ङ्ग्ल
 भव ती
 वा ञ्छ
 स्त ः
 प्रस ाद
 पत् नी
  W
अ श्व
स य
स्त ेषां
 सं भवति
 शब्द स्य
 समर्प यामि
  ं
प ट
 अ ण्
या त्रा
क्ष ्ये
 र हस्य
 ल क्ष्य
ङ् घ
रो ः
स्व तः
ङ्ग ः
 सह ाय
चार ः
 अन ्ये
एव म्
ऽ व
 पर माण
 सा हाय
 दि शि
 जीव न
 विशेष ण
ब्र ाह्मण
 भाग ः
 प्रोक्त ा
बि म्ब
कर्ष ण
3 2
त ॊ
ब हू
मा ध्य
प्र वृत्त
यु ग
पद ः
कर्त ुं
पाठ ः
 मूर् ख
न ृ
्य व
 प थ
 क ्त
 त ार
 य स्तु
 वि क
दा त्
 सर्व ैः
भव े
देश ो
भाव ं
 मह ी
ङ्ग े
 श्र ाद्ध
 विद ुः
 रूप म्
दृष्ट ्या
भ्र म
 किम र्थं
 स्थि तिः
  म्ह
त देव
ध िं
व ्री
ां सि
वि ज
र्त ा
पु ण्य
वर्ष ं
 ऋ ष
 योग दान
 परी क्ष
 उक्त ः
ग ार
र न्
 य ाना
प्र कार
 ह न्त
 र णे
सू च
 लक्ष ्यते
 महि ला
 पश्चि म
 ब्रह् मा
घ ोष
य सि
४ ३
ब् ब
क्षण े
स्मा द्
 स्थ िते
धा ति
सम र्थ
 पुत्र ं
 प्रव क्ष्यामि
अ ं
ज ्योति
द ाः
म यः
मा तृ
 श ान्ति
त्त ः
सं स्था
भा ज
ङ्ग ी
 पा र्थ
 दृष्ट ं
म्ब ु
म ना
व ह
्य ौ
 न रा
 वि शि
वि रो
त्त ं
ग्र न्
 सह सा
 गु ह
 व्या प
भाष णम्
 थ ु
 पठ ति
iv es
म ते
 त न
 म ति
 भ े
शि क्षा
प्रति ष्ठ
ल ै
 प क्षे
 श ृ
नि वृत्त
 ब ै
 स्व र
मु क्ति
 रा ग
 प्रत्य ेक
 // 

  ्
ग ाय
ड ु
ो ति
॒ व
 व ज्र
 य दु
 इ त्
ज्ञ ाय
दृश ्यते
 स्त्री णां
 द्विती यं
 त्री णि
ग ताः
श ्त
९ ०
ान ्यं
 न ित
 न ेत
िक ्र
नि वार
 आ सी
 तु ल्य
मे ल
 दि नानि
चार ्य
एक दा
 काम ं
 प्रे र
. )
च ौ
ण ाय
फ ि
ल ित
 स नात
 क पि
 उ ल्
मु द्र
 प्रा ग
परि वार
स्थान म्
 पृष्ठ ं
in e
 ने त्र
 दक्षि णे
" आ
प व
 वि भाषा
नु ते
न्य था
श्व र्य
 अनु वाद
 कर्त ुम्
 वे त्ति
परा य
स्थाप न
 प्रय च्छ
टु म्ब
3 1
त ान
 अ भवन्
 नि वस
र्ष ि
द्व े
ग्र ं
 छ ि
 दू ष
 दृश्य न्ते
 प्रभ ुः
अ मेर
नि रा
 उ क्तं
 भा गे
द्या ः
 एक ादश
िका याः
कृति क
er s
 शी र्ष
M SS
स र्ज
 न मो
 द ीयते
 आ र्थिक
 र च
 सिद्ध ि
  <
ब ह
य ै
 वि वाह
ाण ं
 कृ त्
 प्रा ति
दर्श नं
नीय म्
५ ८
रा दि
र्म ध्ये
ोऽ स्मि
लो प
मो द
 दृष्ट ि
  y
म ्या
ो च्च
 स मे
 स चि
ाद िः
 सम स्या
द्र व्य
से ं
 शि ष्य
साम र्थ
 निर् दिष्ट
वच ने
 जना र्द
 षष्ठ ी
ब लं
ऽ प्य
 वि भिन्न
िक ायां
मान ां
 स्म ृतम्
 विश्व ा
शी र्ष
अनु संधान
प्राप्त ि
सुख ं
 धाः सा
. श
प द्
५ ४
वि ं
ाल ः
 स् क
सम ं
गम ्यते
 दक्षि णा
दृ ढ
च िकित्
म थ
स दा
ह ै
 न ाना
 म रणं
 वि देश
स्त ां
 ल ी
 मह ारा
पू र
 राज ्ये
ग त्य
त ान्
ै न
 व रिष्ठ
 अ श
 प्र ात
 वि हाय
 वि परीत
 इ तर
 श तं
 ती र्थ
 त्यक्त ्वा
  k
य न्तु
ै कं
ति थि
ान ाः
स्त थ
 नि पा
भि धीयते
 मान वः
 छात्र ाः
ानुसार ं
  णि
3 8
म हे
 द ात
 वा ह
 स्व ः
ग् धं
्री ं
-- "
 गृह ्यते
 धर्म ो
ए कं
ध न्य
्य म
मा णा
 भव ेद
सा त्
भू य
 सू त्रे
मो क्ष
 लो कः
 समु प
  ढ
 प्र सन्
 प्र दत्त
 य स्या
वा सी
 ख ो
हार ा
 द्र ु
 ट े
 Ar ch
व ेन
 प श्चा
 ब े
योग े
 पृ च्छ
धी ः
 गुरु ः
द र
॒ त
 अ स्मान्
 य ान्ति
सा गर
स्थ िता
ीय न्ते
लो कः
 मा ध्य
 पुरुष ो
 वस्तु तः
( अ
t h
ग ोप
 अ न्न
 म ाल
वि श्य
 ग ृ
 मह ात्म
पू जा
 स्थ िर
देव स्य
 वर्ष स्य
 स्या दिति
 नू त
ू र
 स ्यु
द् देश
 सर्व भूतेषु
 इत्य त
 व्य ो
ारि द्र
 धा र्म
 पुर तः
 इच्छ ामि
 सुर क्षा
ल िः
 त ात्
 म ाय
 भ ोक्त
 ए तस्य
ल् ला
द्व य
ान्त रा
 व्या घ्र
 जन ानां
शब्द ो
१९ ८
 वी र्य
i f
 अ ॒
 द ानं
 य शः
 सर्व था
वा णी
ने ति
कृ तेः
भू ष
लो पः
पा र्श्व
को टि
न्या य
 प्राप्त ः
प्रथ मं
 बहू नि
 व क्ष्यामि
 त ेषाम
 ह ्या
 परि ह
१९ ४
 दत्त ्वा
3 6
अ र्थः
त् सु
 वि चित्र
ाव ः
श्च र्य
नु यात्
 परि ष
 यु ज्यते
सृ ज
त स्याः
र ित्य
व र्गः
ऽ थ
या मः
 ग े
ाल य
 सं विधान
 भव न
 कु त
वं श
पदा र्थ
 प्र वृत्ति
 ह न्ति
 नि श
 ध ्रुव
धिक ा
 सू क्ष्म
क्रम म्
 ईश्व रः
 प्रयत् नतः
ण ्व
य िता
 प्र योक्त
स् फ
न्त ीति
 वा प
न्य स्य
कृ त्वा
 त्व मेव
न्व ि
त्स व
 रि क्त
 न्य ून
फो ट
अ क्ष
ज स्य
त त्त
त च्च
६ ५
र् ब
 म खु
 च ी
 सं स
 ल घ
रु ः
सम य
 सुख म्
 उपयोग कर्ता
- स
व श्य
 प द्ध
 व र्ज
 अ ल
ां श्च
ाद ्या
ये ण
 कु मार
 पा त्र
र्ध ्वं
 वर्त न्ते
दृश ः
 ब्र ाह्मण
 अध्या य
(ii i
निर्दिष्ट म्
ग च्छति
ध ात
भ र
ान न्द
 म ई
 वि रो
 सं ग
पु ः
पु ष्प
वर्त ्त
सम् म
राज ्ये
 निर्ण य
क ण्ठ
स ित
ह ्र
 ज ्यो
 पु त्रा
ब्र ह्
 प्रवि श्य
  Y
  डा
3 7
ज ार
व ित्
स् फु
वि ति
 ज ाने
भ्य ुप
 लो कं
ारो ह
उ द
त यो
 आ न्दो
त्व ि
ष्ठ ं
गम नं
रात्र ौ
 अग्नि ः
क न्या
त द्व
न ाना
श ुः
 य द्व
 च ाप
रा त्रे
 ज ्वल
 नि ष
 पर ्यावरण
 रा ज्ञः
स्व र्ग
दु प
 एक म्
 राष्ट्र पति
 पूज ां
0 9
 अ र्ध
 ज ाल
प्र श
दा सी
ोऽ ध्यायः
के त
 परि भाष
योग ं
 लो का
 श्रु तिः
 क्षे त्रं
छ े
 च ैक
मा सीत्
दि दं
स्थ ितम्
ान्त ा
ेण ्
 देव ताः
योग ेन
 श्र व
स्म रण
पद स्य
 तद नु
न ित्यं
स नं
स रे
ह रे
यो ज्य
 वा क्
स्थ ितं
 स्त म्भ
 जीव ितं
 प्राप्त ा
 दर्श न
रू पि
 पुनर् निर्दिष्टम्
म प
व ित
ष ट्
मि श्र
भव ं
व्या ख्या
१९ ५
 एत ादृश
 दत्त ं
 विद्य ु
च क्षु
य द्वा
 व या
 भा ति
 स्या द्
२० २
ग्नि ः
3 9
भ या
 क ोप
 अ य
 वि वाद
क्ष िक
ना र्थ
पि ण्ड
ेश ं
ाप ा
 ( ?

 अव स्था
 ऋ ण
 पश्य न्ति
तत श्च
मित्य र्थः
 सन्द े
पचार िक
 स द्
्या मः
 च ौ
त्र यं
ना ग
रो ऽ
 त्व ाम
प् ल
 दर्श नं
 धा तुः
 सम्बन्ध ी
मा त
 ह स्ते
 ए स्
ृत ो
 यथा विधि
सन् नि
र्था य
 रक्ष ति
मार्ग े
ग्राम े
4 5
अ यम्
क रे
ी यं
५ ३
 म तम्
 वि ल
ाह े
वे बसाइट
 फ ि
 प्राप्त ं
 पद म्
एव मेव
 चतु र्थ
 चिन्त ा
पत् नी
 धी रे
ख ी
व स्त्र
 य थे
वि नाश
प्र योजन
ाह ्
स्म ान्न
परि ष
सेव ा
 वह् नि
- प
ष ाम
ि या
ौ द्ध
्व ी
र् शि
स्थ िताः
 पा कि
 छ े
 के नापि
काश ः
 धर्म ं
समा प्त
 स्प ृश
पन् नं
 प्रयत् नेन
 दद्या त्
ड ो
ह िते
 व न्द
 क ष्ट
 च कार
 इ तः
ना मा
दि वस
भि धान
क्र ो
 प्रा चीन
 काल ेन
 पित ुः
पदा र्थः
 अस्मा भिः
न त
 प्र दा
स्य ो
 सा म्
 पू ज्य
नो प
शेष ं
दी यं
 पुन रु
 अन्त र
 वृद्ध िः
 स्वी कृत
 तत ॊ
बी ज
 क्रम शः
ह ानि
 न ेति
 य ाद
ध्य ान
वे ष्ट
न्या स
 पुत्र ो
 साम र्थ
 युक्त ः
हिं सा
 Arch ives
 प्र कृतिः
 द ुः
या णां
ना स
 ह वि
भि श्च
ग् नी
विध ानं
१९ ६
 नर कं
 इत्येत त्
 आवश्य कता
शरी र
त दाह
 स ज्ज
 त र्क
 च ार
क्ष ां
 ह ितं
तो ऽपि
यु ज्यते
 यथा शक्ति
 लोक ानां
S E
त ादृश
र क्षा
॒ ः
 ग िर
 नि षेध
 भव तां
सा धारण
क्र ाम
शि क्षु
 सम् प्रति
स्मा भिः
 दु गु
भाग ं
 घ न
 शि र
 के चन
धे ः
०० ०
ou r
आ यु
 वि म
प्र योगः
ाम हे
ष्ट ौ
सं ह
का णां
ध्य यन
 प्रा ची
 जग ति
चना त्
 बाल कः
 विद्व ान्
न न्तरं
 त र्प
 य ां
 तु भ्यं
स्या मि
श् लोक
 व्र त
 विधि ना
  ु
ट िक
भ ृ
र क्त
त् पाद
 भ ोः
न् नः
प्र त्या
 या त्र
पन् ना
e v
o g
 श य
 पर स्मै
कार ाः
 दि वि
 किं चित्
सर्व ा
 सम्बन्ध ः
द ेन
द ुः
स त्यं
६ २
स्य ेति
स्व र
 स्म रण
 जा तं
 दी प
फल कम्ः
 विद्य मान
ou s
 ङी ष्
u m
च ने
 इ ती
 सं ज्ञा
 र ू
 एव ेति
 श्र ाव
 यो जन
, "
० २०
या त्र
रा त्रि
कु रु
राज ्यं
 दृष्ट ः
 अप ्वः
 मनु ः
 करि ष्ये
 घट ना
विश्व विद्या
च्छेद ः
 श् लोक
4 4
इ त्थं
े भ्यो
 प तिः
 व रं
ते ऽ
 इ मं
 ह ां
 प्रति षेध
ेत त्
 भू यः
 या त्रा
अथ े
  ा
आ ह
व तां
ै र्व
 त ीव्र
 प्र क्रिया
ने पाल
रूप म्
 ना भि
 वै ज्ञान
वर्त ि
लक्षण म्
 विस्त ार
  े
3 3
न यः
ब ृह
६ ८
 द ह
 भव त्य
श्व ास
 त्व म
यित ु
 मि श्र
गो च
धिकार ः
 भक्त ्या
" न
' ।

व रं
 क म्प
 वि धा
ष् णा
नि रूप
ाल ो
 पु ण्यं
 सर्व लोक
सि ष्ठ
 क् लि
 मु हूर्त
प्रति षेध
शी घ्र
मुख ः
 नग रं
 चित्त ं
 नू तन
 न्ह ्यः
 हरे ः
  re
घ व
च ितः
ज ना
 स फ
 ध ्ये
 पूर्व ा
 काल ो
 विशेष ेण
i a
र् ना
नि र्मा
 सर्व म्
 ध ेन
 ध ात
 गृह म्
गो ल
 ध्य ानं
सद स्य
स्थि तिः
य ता
 वि शाल
ाद ्वि
 आ न
 आ गत
प्राप ्य
 ईश्व र
 f or
 युष्मा कं
' अ
ग न्त
घ ो
ज ायत
त द्यथा
म नः
० ९
 वि राज
या दि
 प्राप्त ुं
ग्रह णे
्यु प
 भूत ानि
4 8
p r
फ े
व ल्
व ानां
६ ४
 स त्व
वि का
प्र ो
 पूर्व म्
 शि ख
वर्ष ाणि
 जान न्ति
 प्रज ायते
 बुद्ध िः
घा ट
 याये गु
क ति
ग मे
त स्तु
 प ोष
 प ाणि
 सं भाव
 पर न्तु
न्द ्व
सी द
 श्र ीम
एक ादश
 स्फु ट
 पुरु षा
त न्
 स ेन
क्ष म
 आ वेदन
 व्य ुत्
युक्त े
 त्र ै
अत एव
ध्व नि
 करण ीयम्
म मा
व क्ष्यामि
श न
स र्प
ान न्तरं
 अ परि
 य स्मात्
 वि का
 प्रति षेधः
 सा धारण
 कु तो
ग्र तः
चार ी
 भविष्य न्ति
वर्ष स्य
हा ँ
 इत्युक्त े
u b
न ेवाः
श ीत
ह रण
७ ५
्य र्थं
 म तः
क् ष्ण
 पर िकी
ान्त ो
 उप ाय
 ना मा
 पूर्व े
सम् बद्ध
 पुन र्व
 गृह ीत
 अधिक ं
 संस् करणे
 वाच ्यम्
पेक्ष या
 कौ श
 जात म्
 वस ति
७ १
 त न्न
 प्र शास
 रा शि
ल् पा
ास ौ
परि भाषा
हित ो
प्रथ मा
साह ित्य
 भवित व्यम्
ँ जी
 स न्न
 क ष
श्च ेति
ल् म
पु ष्
ान्त ु
व्या प
ब्र ाह्म
दाह रणं
ोत्त म
 न् ह्य
 मानु ष
S C
इ तः
ल भ्य
 अ सौ
ाद यो
ाद शी
 श्र ेण
षा म्
 भार तं
ग्नि ं
 कुर्व न्
 निर्ण यः
ासी त्
 चिकित् स
अ स्याः
इ ं
६ १
 स फल
 क ्य
 त वं
ाव े
 उ द्ध
ङ् कार
मु द्
द्व ी
पर स्
 कर्त व्या
धार णा
 पी ठ
 क्ल ेश
आ ं
ज न्
 प य
 क ्वा
वि न्द
 र ण
 पर िकल्प
ने ः
पु रु
 त्व त्
 ना हं
 पद स्य
 सिद्ध म्
 स्वा र्थे
3 4
क त्वं
त मेव
ध ाः
र ्ये
ार ोप
 पर ति
 सा क्षि
म्ब र
 पुनर पि
( iv
ा ति
 त पः
 वि न्द
 ब द्ध
 वा त
 ख ि
 यु वा
ोक्त म्
भाष त
 ब्र ाह्म
अन्य त्र
 विध ाय
वास रे
 शुभ म्
ट ेन
म ्यां
य तां
रा शि
प्र दान
त्य ो
त्व ां
 सं कल्प
 सर्व म
गु णः
भव ेत्
 देश ं
स्प ति
 वद ामि
 कश्चि द्
ोन्न ति
 कृत् स्
अ ध्याय
ाद ः
 आ देश
ङ् कः
 इत्य नु
 राज धान
 को टि
मी ति
ar t
  is
ए तेषां
 क ूप
 भ ृ
 च ान्य
स्य सि
 ज ाये
ाव ृ
 भव न्तु
 सर्व नाम
मे रे
ान्त रेण
 देव दत्त
कु मार
सम् पादन
 पुरुष स्य
 उत्त रं
 योग ी
तस्मा द
पद्य त
क त
न क
म न्
्य त
्य या
 प्र ार
 स्व ि
वा णि
 समु त्
वर्ष ा
an t
 स्वा स्थ्य
 प्रि यं
खि लं
 शक् नो
ु ल
७ ६
 त नु
 अ स्त
 च ाह
मा यु
 र ी
 रा मः
हे तुः
 शरी रे
 () ,
ेष्व पि
 पुस्त कं
 च न
त्र य
वि वर्ज
 ज ो
 आ वि
 नि द्र
 सं बन्ध
 ध नु
ज्ञ या
ेद ः
 परि ण
 समा चरेत्
पद ेन
स्था य
 क्र मात्
पूर्ण ं
मनु ष्य
कू गु
 प्रार्थ ना
क्री डा
o p
थ ी
श ाः
 व य्कः
 अ क
 अ स्याः
 प्र सू
 च ित
 श रण
 सं ह
स्व रूपं
 त्व र
 भू य
 नू नं
मु पा
मे ध
 भा ष्य
 पि ण्ड
 चतु र्
 करण े
 मुख ं
 सै न्य
 लाख ों
U S
o k
ज नं
प देश
 स ाय
 स र्ग
 अ धः
 म ोद
 इ न्
 र ह
प् लु
ड़ ा
मध्य म
 b y
य तीति
ु द
॰ ।

 स लि
 य श्च
 भ ुक्त
 वि पर्य
 ध ्रु
ज्ञ ाना
 दृष्ट ा
 जग तः
 सुख ी
en ce
संस् कार
व्र त
 कारण ेन
वस्तु तः
" '
h t
त तोऽ
ध ुं
न ्यते
भ ृत
ऽ त्र
ी कृत
स्त ः
 ग ताः
 वा र्षिक
 ध ृ
 स्व ामी
वा त
वा सः
ती ः
च्छ े
 सम ृद्ध
 इत्य ेवं
ोऽ सि
 मह ीयते
क्षण म्
कि म्
 श्रु त
र्प ण
 प्रि ये
 मनो र
ज ानां
ऽ स्ति
 स ॒
 व रा
त्र ेण
वि द्व
 आ य
दि ह
ङ् कु
रो ना
िता म्
श्र ू
ख्या तं
 अन्य ः
 अन न्त
 वक्त व्यः
ानाम पि
 प्रस न्न
सिं ह
आ काश
य स्तु
ि म
 द ्यु
 वि भाव
ाव स्था
 र चना
ाप ू
स्थ ां
श् छ
प्रति पाद
सिद्ध िः
विशेष ण
or e
 उक्त वान्
 प्रवि ष्ट
 पुरा त
 इच्छ ा
 अ गच्छ
 र ति
ये गु
सं हिता
 सा गर
त्वा द्
र्य स्य
ब्द े
तद पि
 चि रं
ज् जन
राष्ट्र ीय
परम् परा
 लोप ः
 सर्वभूत ानां
o c
ज न्य
ध ्र
ित वती
 वि लम्ब
क्ष मा
क्ष ायां
 आ योज
रि या
 भव न्तः
 वा णि
ीय त
 फ ़
युक्त ा
 ब्र वी
कल ्या
काम ं
 राष्ट्र े
 पश ्ये
- म
क वि
ह ितम्
८ ९
 प लाय
 य ति
नि ज
यो रपि
ल् पि
 मा र्च
 क्ष णं
 छ ा
 व्या करण
राज स्य
in d
 मू लं
 चे ष्ट
 पार ्व
e st
ं ग
अ ध्या
इ दानी
च ुः
स मि
े ना
 स ती
 पु ष्ट
ष्ठ े
सी ति
सम ू
 अव श्य
ान्व ितः
 I I
 दिव से
P re
u d
च त्व
प ित्र
व त्त
व रिष्ठ
ऽ स्मिन्
ी र्ण
ै र्वि
र् स
स्त तो
रे न्द्र
व्य वसाय
स्मा द
 स्थ ितं
 छ गू
ित्र ं
 चि द
 ट ्र
 पुरा ण
 सूर्य ः
लेख ः
 पार्श्व े
] ।

क री
ज ू
य ्त
 प ्या
्या म्
 द दौ
 य ाम
क्ष ितः
प्र देशे
िक ानां
 नि र्वि
सं भवः
 एव ै
 प्रति पद्यते
ोऽ नु
दु ष्ट
 अनु प
ग तिः
ण ौ
व ते
 अ पर
्या द
 प्र भावः
 ए षां
 सं दे
 ल ौक
ास ो
 ना ग
 यु क्तं
 पूर्व ेण
क्षि प्त
दे क
 कार्य ः
 अप ना
गृह ीत
सो म
 संश य
 प्राप् नो
 शक् नुवन्ति
पुरा ण
 महोद य
६ ९
 न ष्ट
 अ र
 अ तो
 प्र ारम्भ
वि नि
 प्रति ज्ञा
क्षण ः
 समा हितः
द्वि ष
ुक्त म्
 चतु र्दश
प्रश् नः
अ त्य
 क ानि
क् थ
क्ष य
रा त्रं
ाद ेः
ाय न
त्व स्य
 पर त
 क्र ुद्ध
 उत्त रा
लक्षण ा
 राष्ट्र ीय
 निय मः
त्यादि ना
 गमि ष्यामि
m ent
म त्र
ल ानां
व ीत
ि णः
 स त्त
 स र्गः
 त न्नि
 म ाह
 भ ृश
ते ज
 ब ्रि
 रा ज्ञ
सा धु
 दि वं
१९ ३
षे धे
 संस् कार
 अमेर िक
ाप् नोति
 कान ून
 नागर िक
  r
4 9
आ प
प नं
 स ङ्क
 प्र कट
 प्र कीर्त
 द ौ
 नि र्या
 सु त
व्य य
कु म
 कर्त ु
 रु चि
कर्त व्य
काम ः
दृष्ट ि
भ्या स
मू र्त
ष्या मः
 शक्य म्
 गत वान्
क्ष् मी
 मन्य न्ते
अ ज
 व णि
 म ारु
ष् णं
दा त्म
मान व
प्त िः
 पूर्व वत्
व्या घ्र
वाद े
 प्राप्त म्
विध ः
 ऽ हं
 चा त्र
शक्त ्या
 शक्नु मः
' ति
( v
इ तर
ए को
छ ा
त ये
म न्व
स द्
७ ४
 त ्
रा श
 स्व च्छ
ाण ाम
ूप ी
दु र्ग
प्रति योग
मुख े
एत ादृश
 भाग ं
 आह ्व
 अध्य क्ष
 अध्या यः
 कल्या ण
( )
4 6
य ेषां
 प ीत
 व त्
 त च्छ
 अ कथ
ेन े
 ए शिया
दा स
 इत्य ुप
भू षण
पा क
 स्त ्रिया
 स्या त्त
 शक ्या
 स्वा र्थ
 दोष ो
 सी ता
 ह्र स्व
साक्ष ात्
 षोड श
द या
म नं
 स ीत
 स दृश
 न ान
 ग ीत
 नि र्भ
ती र्थ
यु ज्य
ला ख
ादि भिः
च्च ि
ध्या ये
 तत्र ा
धार णं
 द्वि धा
 नी ल
 नार ाय
 प्रयोज नं
 O n
 प्रयु ज्यते
स्तू नि
र ैः
ल ौ
ि नि
 न पुंस
 अ प्य
प्र या
ाद ित्य
मि ल
का ण्ड
 ख ल्व
पू ज्य
कम् प
र्भ ु
 त्र यः
 गच्छ न्ति
 गच्छ ामि
 मृत्य ुः
  x
म यि
 प ण्ड
 क वि
 त मः
 द ये
न् स
 पर मे
ज्ञ ाः
 मह ती
सम ीप
 दे हे
की र्ण
 काम ः
 कुर्व न्तु
 जु या
 मृ दु
पुर स्
पद्य न्ते
 गृह् णाति
) :
5 5
प द्ध
फ ा
 स त्या
ार णः
 य च्छ
ना ह
 आ ं
ाप ृ
ग्र हे
 श्र ेय
 दि शः
 कथ यामि
ोप देश
य् कलं
 का पि
 अधिक ृत
ात्म कं
शाल ी
ादी नि
 स्थाप ना
 पृथिव्या ं
द ाव
स रः
ै स्तु
 प ारि
 क ण्ठ
 त त्व
 प्र ास
मा च
प्र च्छ
 आ धुनिक
दि ष्टं
सी ं
र्य ो
 के चि
दी नि
शो भ
ल्य ू
श्मी र
ँ य्
ै र्न
७ ९
मा म्
 वि ंश
 वि द्धि
 पर ितः
्ये क
पा तः
सार ं
 अप रा
विध ौ
 सुख दुःख
 दीर्घ ः
 कौ न्ते
ांत रण
4 7
i p
श क्य
स ेत्
ु र्
८ ६
 व ंश
 श नैः
प्र कृत
 स्व रूपं
शि ख
 उप योगः
 ना म्
ानु कूल
पूर्व कं
धी न
पृ च्छ
भो जन
 नर क
 ि व
 सै निक
' -
l y
ग ीत
ज ने
न न्त
स दृश
 स प
 ज ला
द् भि
 उ द्योग
 ल क्ष्म
 दि व्यं
 राज ानं
 कार्य ान्व
 जा तो
ित्व ात्
 शो च
र्द्ध ं
च्य न्ते
 समाप्त म्
 कस्य चित्
 गृह् ण
क र्म्म
न दी
न न्व
 त स्यां
 अ न्ध
वि प्र
 ह ्रीं
ाय ो
 आ च
ाल यः
ान्त र्ग
 कार ्ये
 यथा क्रमम्
री त्या
पे पर
विष या
 प्रि या
 लिख ितानां
 सामान्य तः
 स्त्रि यः
 अन्ति म
श ता
स न्ति
 न य
पा त्र
श् नुते
सम ्य
त्स वः
ित्या ह
 पुस्त क
चे ष्ट
वासि नः
द ीय
न मः
ै का
्य तां
 स र्प
 म ध्या
 द ाय
क्ष ये
 इ वा
त्त मः
 र सो
 ध इगु
ङ् क्ते
सं वत्स
पी ति
सङ् घ
> >
ज ाय
भ ्यते
७ २
मा यां
 नि द्रा
 सु भाष
 प्रति भा
क्षण िक
श्र व
प् नोति
 पृष्ठ ानां
्याः गु
मार्ग ः
 राक्ष स
4 1
च िक
श ृ
ू णां
ति थ
 द क्ष
स् ट्
 ह ू
त्य ते
 ए नं
 पु मान्
द्व ेष
ब् धः
 कु र्मः
द्र ं
द्या ं
प् लव
भाष या
 जन्म नि
 S t
 आर ब्ध
 अस्मा कम्
 संस्थ िता
छ ु
द स्य
न ोऽ
र् मु
 त पो
 त ेषाम्
क् ट
 वा ऽ
का मा
द्व ीप
स्व ामि
शि ष्य
 वै द्य
दे ः
 जि ला
पुस्त क
 पार्थि व
 प्रभा त
प शु
म प्य
स ने
 न ास
 अ र्हति
 द ्यो
नि र्वा
ाल ये
ृत ौ
ने त्र
स्या स्य
 श्र द्धा
भ्य न्तरे
 अन्य त्
ुम र्हसि
 जाय न्ते
व ृष्ट
श र
ि नो
६ ६
रा ष्ट्रिय
रि क्षे
न्य त्र
 मह ाम
 ना पि
ाना ति
ख्य ानं
अव श्यं
साध नं
 द्रष्ट व्यम्
अ परा
क त्वात्
म ध्या
९ १
 स स्य
 त ाम्
 न रो
 अ न्या
 वि कार
स्त र
स्त ौ
 श ाप
दा ता
ानि ति
ाण ्य
 मु ञ्च
ोक्त ा
 जन संख्या
 शु भे
स्प ृश
 वक्त व्यं
 भूत ानां
उ भ
ठ ा
श ोध
 व ल
 अ च्
 प्र शिक्षु
 कि लो
 मु दा
 फ े
 छ ः
 करो तुः
 समु च्च
 ष ड्
एत द्
ञ् ज्ञा
 प्रोक्त ो
समु दाय
 सहस्र ाणि
 परिसन्ध िं
े न्द्र
 स ाद
 नि न्द
 सर्व तो
भि प्राय
श्व ः
 सम् मान
 पा हि
विध ाः
स्थान ानि
ञ्ज ीत
सहस्र ं
 मार्ग े
 द्विती यः
 पर्य न्तं
 परमेश्व रः
ग ृ
ित या
 वि पु
क्ष त
प्र ाणि
 ह ल
 आ पः
ेश ्च
श्च ित्
स्व तन्त्र
लि या
 यो ष
चि न्त्य
 भू म
 बहु व्री
 विशेष णम्
 द्र ो
 कदा चि
 जु याः
 आग तः
 आग च्छति
भे दा
पक्ष ः
 परमा त्मा
स्वप् न
अ नि
ज न्त
त योः
ा श
ति र
 ग तौ
रु च्यते
 कु म्भ
सम् भवः
 शि क्षण
 प्रत्य यो
 गृह ाण
राज ः
क्ल ेश
  st
ज ां
ध ृ
म न्दि
र ल
्र ं
 स ादृश
 व रः
मा त्रा
 इ ष्यते
त्त रं
 र ोज
 पूर्व मेव
वे ति
 ऽ यं
किं च
अ ध्यायः
ज ेन
ल ्यं
ो पा
८ ४
 म तिः
 प्र ज्ञा
वि न
 ए तेषां
 ग ं
श्र ो
 कि मु
 सू र्या
 प्राप्त ि
 वे दा
or y
 P ost
क्व चित्
 सूत्र ेण
 इत्युक्त म्
- msgstr
e y
इ व
क त्वेन
च नम्
त ृतीय
र ता
ो च्यते
 प्र दूषण
 भ यम्
क्त ्वा
 नि र्ज
प्त े
 प्रा थ
शु क्र
 श्रु तं
 अन न्तरं
 पठ न्ति
 जु हो
मां स
 प्रि यः
 चे न्न
 तत्त्व तः
 प्रसिद्ध ः
 संसार े
 परम् परा
 दै त्य
व तः
ह ते
्य ानि
ित मस्ति
 स्व ल्प
ग्र हं
 तेन ैव
र्घ ट
 प्राण ा
स्त्व या
 प्रण ाली
हृद य
- उ
ग ्वि
घ न
त ू
ह नि
्र िक
 त तोऽ
मा ला
स् नान
रा मि
 ह ेत
यो र्मध्ये
 सं वि
 भव िता
 कु टुम्ब
देव ी
 यत् नतः
ज्ञान े
एत च्च
 एत ानि
 विद्या लये
 अती त
 ब्रू हि
 सम्प्र सार
शत्र ु
पश्चि म
मृत्य ु
 प्राति पद
लाख ों
6 0
ं ति
उ च्यते
ि नां
े ता
् ह
 स ञ्ज
 न क्षत्र
स्त ाः
ना स्ति
प्र स्तु
िक स्य
त्त ो
दि नम्
 नि वेदन
सं घ
 सा र्धं
स्या त्
 कृ प
 कृ त्य
 किं चि
वे ः
शा ख
 प्राप्त िः
 ति थिः
१९ १
वर्ण ः
 रे ल
 धा तोः
चित्र ं
 निष् कर्ष
घा तः
 N ews
- व
त रः
र हित
 क ान्त
 न ां
ना यां
दि ल्ली
 नि वर्तते
 सर्व पाप
 स् ने
ज्ञ ं
 नाम ः
 विश्व स्य
 जा तु
धर्म ः
 प्रज ानां
ड् ड
 ड ो
 उद् देश
 प्रय च्छति
मण्ड ले
 स्वभाव तः
 वेत न
 सनात नः
ापृ थि
ट ल
ण ीय
प ेत्
व ल
श येन
स ितं
 अ था
 प्र देशः
 द दर्श
क्ष ाः
 श कु
प्र सार
 ग र्व
मि मं
 र वि
सा भारः
 सु लभ
 कु म
ar d
उत्त म
मू र्
पित ाम
 सङ् कल्प
शास्त्र ं
ए तस्य
य स्व
 क रा
 द ्
ष् क
स्त ात्
 आ चर
 आ धिकारिक
 वा क्या
 सु रा
 सु रक्ष
श्व ा
श्र द्ध
 कृ ति
 श्र वण
र्य था
कु तः
 वर्ष ं
वृत्त ं
क्षे त्रं
 दे यं
 सौ म्य
श्रु ति
 लक्षण म्
 प्रयुक्त म्
उच्च ारणः
% 

ट ै
प तिं
य च्च
६ ७
 प ित्त
 क ्या
 अ ंश
 ज ून
ब् धा
के गु
 ज्ञ ेयं
२० ६
 सप्त दश
 पृष्ठ े
 पित ॄ
 ऋ तु
जीव नं
शास्त्र े
 तप सा
 अत्य न्त
vi ous
  ञ
अ न्तः
उ गु
ङ ः
त स्यां
 प द्
 त ासां
 य स्याः
ाय ेत
 आ त्मानं
 ध नम्
कृ षि
 द्व ेष
१९ २
 बि भ
 भर्त ी
 परिकी र्त
य न्तः
ा क्ष
 व न्य
 श ्रि
प्र दाय
ष्ट ुं
का णि
न्य ून
ला घ
स्मि न
 वृ था
प्रत्य ेकं
 वाच ं
 फल ानि
" फलकम्ः
- न
इ ष्ट
य त्त
 स च
 प थि
 व ारि
 क स्यापि
 क रुणा
 अ सम
स्त म्भ
वि रा
 सं स्थाप
श्च े
श् म
हार ं
 चि र
हा पि
 सौ भाग्य
बुद्ध िः
ादेश े
 स्वर्ग ं
ख्यान म्
( इति
- P
अ ग
ज लं
ान पि
 द ार
 च ानु
 स्व स्ति
रु चि
क्र मं
 छ ाया
ह् नि
एव मुक्त
 विद्या लयं
ित्या दि
 सर ल
घ् नं
 कू ट
मुत्त मम्
( c
- नि
e ad
h a
l ine
इ दम्
र चना
मा णः
ृत ्या
तु ल्य
कार णम्
 तु म
लो च
 मा ध
श् मि
 अभि व्यक्ति
 वेद ित
 कुरु त
 किम र्थम्
 बी ज
ख ोज
म तं
ै स्त
 प यो
 व नं
 य या
न्त रा
ना प
ेन ं
 नि बोध
 ब ौद्ध
 सं बन्धः
 सम व
वृ तः
 जु इगु
 शक्य ः
तय् सं
पृथ क्
] ]
a in
उ भय
ख ल
च ाः
ज ति
त रे
ऽ भि
 व यम
ान व
 अ स्या
 वि रु
 र ौ
 सु तः
 ख ने
 देव ान्
 स्थ िताः
 पुन र्ज
्यो ः
 स्था पित
ही नं
णाम ः
ड़ े
 नृ पः
ानुसार ेण
 निर्मा णं
 प्राणि नां
 चिकित् सा
ep al
 परित्य ज्य
 इदानी म्
t ion
ग न
द शा
ल क
स ञ्च
स ायं
्य ता
 क क्षा
 द शा
ते ि
न् ह
मा ध
 वि भो
या त्म
 ब ाण
 वा स्त
 वा ताव
 पर तः
 त्व ाम्
 मु नी
 स्त ्र
जा तं
स्त्र ं
न्या सः
 जग ाम
पत्त ौ
 पित ॄणां
 प्राप् नु
वच ं
 यज्ञ ं
मार्ग ेण
धिकरण े
 अन्व ेष
ए न
च िता
ड ं
ब र्
भ वा
 अ न्ते
 य यय
वि ल
दि व्य
 सं योज
 ल ाल
 वा ज
 परि योजना
लो का
ञ्च न
 दु र
 वर्त ्त
 विज्ञ ायते
तस्मा द्
 पश्चि मे
 → 

 इतिहास ः
त यः
त ायां
द र्शि
८ १
 स त्र
 म य
 प्र ौ
त्र ्त
ना ट
प्र वर्त
 ए क्स
यो प
 नि म्न
 सु षु
 स्म ृताः
काश ं
 औ षध
 जु ल
 विकल्प ः
 अत्य न्तं
 दो षा
पश्च ात्
i es
अ ध
ण ीं
प र्ण
य त्य
स न्न
 प ाय
 त ाल
स्त म्
न्त ्व
क्ष ्व
यु तं
हि ः
कृ ष
 ख ्री
पू र्ति
 उप करण
 शि शु
 भाव ना
 सप्त ाह
 ज्ञान म्
 सन् धि
 नित्य म्
प्रि यः
्रा ज्य
मण्ड ल
 क्षि प्र
 विरा सत
भाष्य म्
' s
S P
u p
अ ल्प
अ धिकार
द ां
फ ला
म र
म र्थ
र सः
६ ३
 प ेश
ति म्
 क विः
 अ सु
 द ारिद्र
 भ ेष
वि ज्ञानं
 पु ष्टि
 सं ज्ञ
 ल ं
 प्रति बन्ध
 सा र्ध
 सा भारः
ग् नौ
 कृ पा
 भू त्
स्र ोत
वी र
यि ष्य
 जीव ित
 अप श्य
म्ब र्
 पित ु
भी ष्ट
 ज्ञा तुं
 जाना सि
 भ्रा ता
5 9
d f
अ ने
ध म्
फ लम्
 व रुण
 म त्वा
न् मुक्त
 वि ज्ञानं
 भव तो
 प्रति भाति
ृष्ट ः
 मु निः
 यु धिष्ठ
सह ाय
 आग त्य
 सम्य ग्
िंश त्
निमित्त ं
a il
७ ७
 व र्
 व ारं
 अ भाव
 म तं
क् स्
 ग ज
त्व ादि
 ल ज्ज
 सा त
 श्र ृणु
धान ्य
कु त
कु ले
 एक दा
 शि वः
स्था ः
 प्रत्य े
यथा र्थ
याम ्य
 कल्प ना
 पृथि वीं
 साध नं
स्थित ौ
 त्या ग
 विभ क्तिः
 नवी न
  j
b r
ई श्व
ए ता
द ल
य र
र ङ्ग
ह ल
 प ल
 प त्रं
ाव ्
नु प
 मु च्यते
 राज नीति
सर्व ्व
 शि रः
दी र
षि ध्यते
वाच क
 ने पाः
शो क
ज्ज ीव
जी वि
 ता ड
 द्विती ये
 विज्ञ े
ER SE
c om
प क्व
र वि
ु च्यते
 क म्
 म ्रियते
 च ोद
रा च
ष्ट िः
 सम र्थः
 सम ूह
 दि ल्ली
ान्य पि
 का चित्
ष्ण ु
वो च
 पाद ौ
 I n
ag e
 सङ् घ
 धार णा
विभाग ः
 तस्मा द्
समी पे
4 2
ं द्र
अ ल
च ां
त द्वि
म तिः
य श
य स्या
स र्जन
ै नं
 य न्म
न्त ौ
 श ता
 श र्म
प्र तं
 ह स्ति
ाद ान
ाव ो
मि द
कार ्ये
को ट
मुख ी
 चतु र्व
मात्र म्
 ह्य ्
 ऊ र्ज
पन् नो
 अध्या प
  on
ग तम
झ ्वः
य मिति
ष म्
 स द्यः
ति रिक्त
 क प
 न ौक
ित ान्
 अ र्थे
 प्र मा
न् मे
या द्
 ग तिं
 आ र्
 आ त्
 उ दाह
वा क्यं
मु नि
न्य ू
न्य ेन
 सा क्षा
 कार ्त
 मा र्गः
 पृ च्छति
इति हास
गत ौ
 बाल काः
 प्राप् नुवन्ति
ुम र्हति
00 0
 पुस्त के
 चित्र ं
भूमि ः
 समन्त तः
स्तथ ैव
उ क्तं
न हि
म ये
 म नी
मा सी
द् दे
 ए न
ाद ृ
 सं हिता
 वा क्ये
वा चि
च्छ त्
 हि मा
धि पः
पु रं
 पू ँजी
ोऽ प्य
 श्र म
 मा ग
 स्थ ानि
 सू ची
र्ध े
एत ानि
 जु लाई
खे ं
 मनुष्या णां
- ए
क ान्त
ग मि
ज ्यो
र ान
व ैः
 क स्मात्
 न ानु
 ध ना
 पर स्य
ेद ्य
द्व ये
स्व ती
 क्ष णे
शेष ः
 अव लोक
 प्रथ मो
 अन्त रिक्ष
दृष्ट ं
 मू र्त
 वच नम्
श्रु त्वा
 ग्रह णं
 स्मृ तिः
 निय न्त्र
िकी र्ष
 वार्त ा
मिच्छ ामि
 व्रज ेत्
त न्म
भ क्ष
ा हं
ु ट
र् कः
 वि हित
स् लि
ाय ोग
 पु रः
 नि रु
 कथ म
 कथ ां
 स्थ ित्वा
देव ो
पद ानि
क्षि प्य
 व्या धि
प्राप्त िः
or d
 वृत्त िः
 आत्म नः
बाल कः
 स्तु ति
दुर् लभ
 विवे क
 निर्वा चन
प ाण
ल ाव
व रा
श क
ष ड
८ ८
 व ाव
 क रुण
या वत्
वि कास
प्र क्रिया
 सर्व ः
ये त्त
भव न
कृत ो
काल िक
दु क्तं
स्म ृति
 सि न्ध
 जा ग्र
 भविष्य सि
 एत ाव
 पठ े
 निर् देशः
प्रि यं
क्रिय ां
 कश्चि द
स्क न्ध
id e
 धार्म िक
Pre vious
 कार्यान्व यन
D F
X X
अ स्म
ग ान्
घ ं
ज प
ज ्येष्ठ
ढ ा
भ वात्
ऽ न
्त ि
 प ान
 त ान
 त ज्
 म द्
 प्र कृते
 द ध
 च ाय
क् लि
 नि ं
 सम रे
कृ तेन
 गु ह्य
स्र ः
 उत् कृष्ट
 महा बलः
 श्व ः
 स्मृ ता
 बह वो
 मत दान
a st
अ ना
ज ते
श ्या
 न श्यति
ित वन्तः
 अ सं
 द ं
 श ाल
च्छ ाद
काल ो
युक्त म्
ह् ने
 रूप ाणि
 ने ता
 राष्ट्र ं
वृद्ध िः
 गण ना
 परमा र्थ
नग रं
अ स्या
व ता
ह रं
क् ष्मा
स् कर
 ग ्ल
 स्व ात्म
 कु त्रापि
ण् ण
 व्य य
 एक स्मिन्
वाद ने
ज्ञान म्
 दू रं
 ला भः
धर्म ं
ar y
माः गु
 ऊ र्जा
 शो क
 विस्त रेण
 शास न
 क्वा पि
क ाव्य
द र्प
ब ः
स ृत्य
 प द्म
मा दाय
 श ान
 आ शी
श्च तु
 तु म्
क्र मा
 मह ता
 दु ग्ध
सम् प्रति
सू त्रे
की दृश
इत्य ेवं
कार्य ेषु
ून ्यं
 भगव तः
 शुभ ं
 शास्त्र ं
गि रि
 पुरस् कार
माप् नोति
p e
प र्क
ब ला
स कं
 अ प्
 म ेष
 प्र म
रा क्ष
ाद शा
 पु ण
 सं नि
 भव ितुं
 पर ां
सा माजिक
द्व ौ
पु ट
पु रो
 सा ध्या
ोऽ थ
 व्य प
 समा श्र
 पा र्
 तत् सर्वं
 तस्य ैव
विष यं
 रि पु
 ओ ं
 प्रोक्त ः
 व्र तं
प्रयोग े
ig ht
 हिन्द ी
q u
अ स्तु
उ द्
च य
 क ट
 अ र्जु
 य ि
 श े
 ज लम्
 ध ाम
 स्व ाय
व्य मिति
सु न्द
 शि श
 इत्या दौ
कर्म णा
 श्रु तेः
 ई श
ष्टा चार
उत्त रम्
फो टो
कुर्व न्ति
 अग स्त
 च् छ
 प्रतियोग िता
+ इति
उ त
त त्रा
य क
व हार
ह ्वा
ति हास
 क द
र् ब्ब
 अ रे
 अ ङ्क
 म स्त
ष्ट म्
 ब ्व
 ख ं
पद ी
व्या ं
 लो काः
एव म
 विद्या ं
शं सा
वै श्व
ित्व ेन
 हो वाच
वद त्
 आस पास
 तम स्य
 बह ्व
 न्याया लय
 धीम तः
 संवत्स रे
तृती या
ear s
S T
त त्रापि
ध रः
न वी
ल क्ष्य
व स्य
ॊ प
 व रु
 व र्द्ध
 क र्ष
स् ना
स् ने
क्ष ाल
 स्व स्थ
मु त्स
भाव ना
 द्व ीप
सु त
शि र
जा तीय
 पुत्र ी
लक्षण ः
 परी णामः
 पञ्च दश
प्रथ मः
 भि क्षु
 मास स्य
बु ध
 उद् घाट
 अने के
विष्ण ु
" स
अ वि
ग ामि
ट र्
प ाणि
म रु
ल ाम
 क न्यां
मा प
 आ वेद
 वा स्तु
 हि म
तं त्र
 द्व योः
 ना थ
 समा प
मं त्र
ख्या तः
 यत् न
 विश्व ास
पूर्व ा
निर् देशः
ित्व े
19 9
पन् ने
 समाप्त ः
कुर्व न्
  र्
( यथा
अ ङ्ग
अ र्ध
च िं
ष ्याः
ह ौ
 प क्षः
 ज ै
प्र ेत
पि ः
 नि ष्ठ
 र थं
त्वा च्च
र्य ु
जा तः
ज्ञान स्य
 रूप ांतरण
 श्रु तम्
ञ्ज लि
 शा ख
 विद्या लय
डि यो
 स्थान म्
 विभाग ः
 तत्त्व ं
lo g
lo k
स्मिन्न ेव
 चत्व ारः
/ /
च क
द ध
र तः
ल ग्
ह न्ति
७ ३
 अ द्यापि
 प्र शंस
ां स
र्व ेद
प्र करण
प्र माणं
तः गु
ाद ्र
 आ श
मु वाच
ष्ठ ः
ीय तां
कृ ष्णः
 प्रा माण
जा ता
युक्त ो
 जन नी
विध ाय
 शब्द े
 कुर्व ीत
 स्प र्ध
 मूल ्यं
ऽऽ ह
दिव से
द्विती या
शू न्य
 थः गु
 गन्त ुं
समन्व ितः
प्रभा त
 समू हः
9 9
इ च्छ
ए षां
च यः
ञ ्ञ
प ोष
 द ्याव
त्य ै
त्व ादिति
यो नि
 ब र
 सर्व काम
 स् नि
 सम ग्र
भू ताः
पा कि
कृत ाः
कु लं
 औ ष
 समु द
ब्र ू
 मान स
 कर ने
 निश्च यः
बी सी
दोष ः
 हेतु ना
 जी र्ण
 प्राय श्चित्त
इत्युक्त ्वा
स्रो तः
ow n
 आरम् भः
 योगदान ानि
  or
" इति
4 3
ण म
त मो
म ता
 स तां
 स काश
 वि देशी
ष् मे
 इ लय्
 ज न्त
त्त स्य
नि षेध
रि य
दि शि
ाण ा
 गु प्त
ज्ञान ेन
 अन्य ो
दर्श ने
षे धा
मुक्त म्
 महा बाह
 प्रमाण म्
श्ल ेष
 b e
तिष्ठ ते
 मण्ड ल
 सन्ध ्या
श्त े
 अकथ यत्
  ऎ
i st
उ द्य
व स्था
 स ोऽपि
 व ेश
वि स्म
 ज ाप
 ज ितः
 ह तः
 आ देशः
र्त ुं
 सम ्व
ग् धा
 श्र ोत
लो म
 मा सि
जन म्
भाग ्यं
को श
१९ ०
षे धो
 ऋ षि
ैर ेव
राष्ट्र पति
 ज्यो तिः
  }
V ERSE
ठ ी
प ल
ृ द्धि
 स रो
 स खि
ित ेषु
्या ह
 म ल
 प्र देशे
स् नानं
प्र द
 ए ति
दा ति
ाप र
 पर ्यु
मु द्रा
ज्ञ ास
पु त्रं
यु व
नो ः
श्र वण
 मु मु
 उप े
जन क
प्रति षेधः
व्या याम
 अव श्यं
 कृत वन्तः
सह ितं
एत देव
 प्राण ः
चतु ष्ट
 युक्त म्
उत् पाद
 हिं स
 मन्य से
 ध्या त्वा
5 1
ल ायां
८ ७
९ ९
 अ भय
 अ र्थात्
 प्र कर्ष
 द ारु
 च िं
 ए तेन
 आ हार
 नि शा
 सर्व ेषाम
वा क्
 रा ज्ञा
स्ति ः
 त्व ि
 परि श्र
 मा घ
हार ि
म्ब ा
स्थान स्य
 ला ग
भाषा याः
 सी मा
अग्नि ः
 शै ली
अथा तः
 राजधान ी
c d
ं द
ण ात्
म् नि
 अ पा
 अ भूत्
 य द्वा
 वि ज्ञा
ाद ं
 आ म्
द्ध े
 वा जि
ये द
तु र
भव ता
स्थ ल
ब् ल्यू
 कु ण्ड
 देव ेश
भू ः
वृ ष
 सू त्रं
 तत् काल
ानु ष्ठ
न्द्र ः
पूर्व कम्
 क्र य
 की र्ति
पो र्ट
बल य्
