{
  "version": "1.0",
  "truncation": null,
  "padding": null,
  "added_tokens": [],
  "normalizer": null,
  "pre_tokenizer": {
    "type": "Sequence",
    "pretokenizers": [
      {
        "type": "Split",
        "pattern": {
          "Regex": "[^\\r\\n\\p{L}\\p{N}]?[\\p{Lu}\\p{Lt}\\p{Lm}\\p{Lo}\\p{M}]*[\\p{Ll}\\p{Lm}\\p{Lo}\\p{M}]+|[^\\r\\n\\p{L}\\p{N}]?[\\p{Lu}\\p{Lt}\\p{Lm}\\p{Lo}\\p{M}]+[\\p{Ll}\\p{Lm}\\p{Lo}\\p{M}]*|\\p{N}{1,3}| ?[^\\s\\p{L}\\p{N}]+[\\r\\n/]*|\\s*[\\r\\n]+|\\s+(?!\\S)|\\s+"
        },
        "behavior": "Isolated",
        "invert": false
      }
    ]
  },
  "post_processor": null,
  "decoder": null,
  "model": {
    "type": "BPE",
    "dropout": null,
    "unk_token": null,
    "continuing_subword_prefix": null,
    "end_of_word_suffix": null,
    "fuse_unk": false,
    "byte_fallback": false,
    "ignore_merges": false,
    "vocab": {
      "\n": 0,
      " ": 1,
      "!": 2,
      "\"": 3,
      "#": 4,
      "$": 5,
      "%": 6,
      "&": 7,
      "'": 8,
      "(": 9,
      ")": 10,
      "*": 11,
      "+": 12,
      ",": 13,
      "-": 14,
      ".": 15,
      "/": 16,
      "0": 17,
      "1": 18,
      "2": 19,
      "3": 20,
      "4": 21,
      "5": 22,
      "6": 23,
      "7": 24,
      "8": 25,
      "9": 26,
      ":": 27,
      ";": 28,
      "<": 29,
      "=": 30,
      ">": 31,
      "?": 32,
      "@": 33,
      "A": 34,
      "B": 35,
      "C": 36,
      "D": 37,
      "E": 38,
      "F": 39,
      "G": 40,
      "H": 41,
      "I": 42,
      "J": 43,
      "K": 44,
      "L": 45,
      "M": 46,
      "N": 47,
      "O": 48,
      "P": 49,
      "Q": 50,
      "R": 51,
      "S": 52,
      "T": 53,
      "U": 54,
      "V": 55,
      "W": 56,
      "X": 57,
      "Y": 58,
      "Z": 59,
      "[": 60,
      "\\": 61,
      "]": 62,
      "^": 63,
      "_": 64,
      "a": 65,
      "b": 66,
      "c": 67,
      "d": 68,
      "e": 69,
      "f": 70,
      "g": 71,
      "h": 72,
      "i": 73,
      "j": 74,
      "k": 75,
      "l": 76,
      "m": 77,
      "n": 78,
      "o": 79,
      "p": 80,
      "q": 81,
      "r": 82,
      "s": 83,
      "t": 84,
      "u": 85,
      "v": 86,
      "w": 87,
      "x": 88,
      "y": 89,
      "z": 90,
      "{": 91,
      "}": 92,
      "~": 93,
      "¡": 94,
      "¢": 95,
      "£": 96,
      "¤": 97,
      "¥": 98,
      "¦": 99,
      "§": 100,
      "©": 101,
      "¬": 102,
      "®": 103,
      "°": 104,
      "±": 105,
      "¶": 106,
      "·": 107,
      "¿": 108,
      "À": 109,
      "Á": 110,
      "Â": 111,
      "Ã": 112,
      "Å": 113,
      "Æ": 114,
      "Ç": 115,
      "È": 116,
      "É": 117,
      "Ê": 118,
      "Ë": 119,
      "Ì": 120,
      "Í": 121,
      "Î": 122,
      "Ï": 123,
      "Ð": 124,
      "Ò": 125,
      "Ó": 126,
      "Õ": 127,
      "Ö": 128,
      "×": 129,
      "Ø": 130,
      "Ú": 131,
      "Û": 132,
      "Ü": 133,
      "Þ": 134,
      "ß": 135,
      "à": 136,
      "á": 137,
      "â": 138,
      "ã": 139,
      "ä": 140,
      "å": 141,
      "æ": 142,
      "ç": 143,
      "è": 144,
      "é": 145,
      "ê": 146,
      "ë": 147,
      "ì": 148,
      "í": 149,
      "î": 150,
      "ï": 151,
      "ð": 152,
      "ñ": 153,
      "ò": 154,
      "ó": 155,
      "ô": 156,
      "õ": 157,
      "ö": 158,
      "÷": 159,
      "ø": 160,
      "ù": 161,
      "ú": 162,
      "û": 163,
      "ü": 164,
      "ý": 165,
      "þ": 166,
      "ÿ": 167,
      "Ā": 168,
      "ā": 169,
      "ă": 170,
      "ą": 171,
      "ć": 172,
      "ĉ": 173,
      "Ċ": 174,
      "č": 175,
      "ē": 176,
      "ĕ": 177,
      "ė": 178,
      "Ę": 179,
      "ę": 180,
      "ě": 181,
      "ğ": 182,
      "Ī": 183,
      "ī": 184,
      "į": 185,
      "İ": 186,
      "ı": 187,
      "Ķ": 188,
      "ł": 189,
      "ń": 190,
      "ŋ": 191,
      "Ō": 192,
      "ō": 193,
      "Ŏ": 194,
      "ŏ": 195,
      "Œ": 196,
      "œ": 197,
      "ř": 198,
      "Ś": 199,
      "ś": 200,
      "Ş": 201,
      "ş": 202,
      "Š": 203,
      "š": 204,
      "ť": 205,
      "ū": 206,
      "Ů": 207,
      "ų": 208,
      "Ÿ": 209,
      "Ż": 210,
      "ż": 211,
      "Ž": 212,
      "ž": 213,
      "ƒ": 214,
      "ư": 215,
      "ǀ": 216,
      "ǁ": 217,
      "Ǒ": 218,
      "ǒ": 219,
      "ǔ": 220,
      "ȧ": 221,
      "Ȩ": 222,
      "ȯ": 223,
      "ɑ": 224,
      "ɒ": 225,
      "ɔ": 226,
      "ə": 227,
      "ɛ": 228,
      "ɜ": 229,
      "ɡ": 230,
      "ɪ": 231,
      "ʁ": 232,
      "ʃ": 233,
      "ʈ": 234,
      "ʉ": 235,
      "ʊ": 236,
      "ʋ": 237,
      "ʌ": 238,
      "ʏ": 239,
      "ʒ": 240,
      "ʟ": 241,
      "ʻ": 242,
      "ʼ": 243,
      "ʿ": 244,
      "ˆ": 245,
      "ˈ": 246,
      "ˌ": 247,
      "ˎ": 248,
      "ː": 249,
      "ˑ": 250,
      "́": 251,
      "̃": 252,
      "̄": 253,
      "̆": 254,
      "̇": 255,
      "̈": 256,
      "̊": 257,
      "̍": 258,
      "̐": 259,
      "̕": 260,
      "̖": 261,
      "̠": 262,
      "̣": 263,
      "̥": 264,
      "̧": 265,
      "̪": 266,
      "̶": 267,
      "Ά": 268,
      "Δ": 269,
      "Ι": 270,
      "Κ": 271,
      "Μ": 272,
      "Ο": 273,
      "Σ": 274,
      "Φ": 275,
      "Ψ": 276,
      "Ω": 277,
      "ά": 278,
      "ή": 279,
      "α": 280,
      "β": 281,
      "δ": 282,
      "ε": 283,
      "ζ": 284,
      "η": 285,
      "θ": 286,
      "ι": 287,
      "κ": 288,
      "μ": 289,
      "ν": 290,
      "ο": 291,
      "π": 292,
      "ρ": 293,
      "ς": 294,
      "σ": 295,
      "τ": 296,
      "φ": 297,
      "χ": 298,
      "ω": 299,
      "ό": 300,
      "І": 301,
      "Ј": 302,
      "А": 303,
      "Б": 304,
      "В": 305,
      "Д": 306,
      "Е": 307,
      "З": 308,
      "И": 309,
      "Й": 310,
      "К": 311,
      "Л": 312,
      "М": 313,
      "Н": 314,
      "О": 315,
      "П": 316,
      "Р": 317,
      "С": 318,
      "Т": 319,
      "У": 320,
      "Ф": 321,
      "Х": 322,
      "Ц": 323,
      "Ч": 324,
      "Э": 325,
      "Ю": 326,
      "Я": 327,
      "а": 328,
      "б": 329,
      "в": 330,
      "г": 331,
      "д": 332,
      "е": 333,
      "ж": 334,
      "з": 335,
      "и": 336,
      "й": 337,
      "к": 338,
      "л": 339,
      "м": 340,
      "н": 341,
      "о": 342,
      "п": 343,
      "р": 344,
      "с": 345,
      "т": 346,
      "у": 347,
      "ф": 348,
      "х": 349,
      "ц": 350,
      "ч": 351,
      "ш": 352,
      "щ": 353,
      "ы": 354,
      "ь": 355,
      "э": 356,
      "ю": 357,
      "я": 358,
      "ё": 359,
      "є": 360,
      "і": 361,
      "ї": 362,
      "ј": 363,
      "ў": 364,
      "ҫ": 365,
      "ү": 366,
      "ә": 367,
      "Ө": 368,
      "Ե": 369,
      "Կ": 370,
      "Հ": 371,
      "ա": 372,
      "ե": 373,
      "ն": 374,
      "ր": 375,
      "ւ": 376,
      "ַ": 377,
      "א": 378,
      "ב": 379,
      "ג": 380,
      "ד": 381,
      "ה": 382,
      "ו": 383,
      "ט": 384,
      "י": 385,
      "כ": 386,
      "ל": 387,
      "ם": 388,
      "מ": 389,
      "ן": 390,
      "נ": 391,
      "ס": 392,
      "ע": 393,
      "ף": 394,
      "פ": 395,
      "צ": 396,
      "ק": 397,
      "ר": 398,
      "ש": 399,
      "ת": 400,
      "ײ": 401,
      "؞": 402,
      "ء": 403,
      "آ": 404,
      "أ": 405,
      "إ": 406,
      "ئ": 407,
      "ا": 408,
      "ب": 409,
      "ة": 410,
      "ت": 411,
      "ج": 412,
      "ح": 413,
      "خ": 414,
      "د": 415,
      "ذ": 416,
      "ر": 417,
      "ز": 418,
      "س": 419,
      "ش": 420,
      "ص": 421,
      "ط": 422,
      "ع": 423,
      "غ": 424,
      "ف": 425,
      "ق": 426,
      "ك": 427,
      "ل": 428,
      "م": 429,
      "ن": 430,
      "ه": 431,
      "و": 432,
      "ى": 433,
      "ي": 434,
      "ً": 435,
      "ُ": 436,
      "ِ": 437,
      "٫": 438,
      "٬": 439,
      "ٰ": 440,
      "ٹ": 441,
      "ټ": 442,
      "پ": 443,
      "چ": 444,
      "ڌ": 445,
      "ک": 446,
      "ڪ": 447,
      "گ": 448,
      "ں": 449,
      "ڼ": 450,
      "ھ": 451,
      "ہ": 452,
      "ۂ": 453,
      "ۆ": 454,
      "ۇ": 455,
      "ی": 456,
      "۔": 457,
      "ە": 458,
      "ܐ": 459,
      "ܒ": 460,
      "ܕ": 461,
      "ܘ": 462,
      "ܚ": 463,
      "ܛ": 464,
      "ܟ": 465,
      "ܠ": 466,
      "ܣ": 467,
      "ܦ": 468,
      "ܪ": 469,
      "ܬ": 470,
      "ँ": 471,
      "ं": 472,
      "ः": 473,
      "ऄ": 474,
      "अ": 475,
      "आ": 476,
      "इ": 477,
      "ई": 478,
      "उ": 479,
      "ऊ": 480,
      "ऋ": 481,
      "ऌ": 482,
      "ऍ": 483,
      "ऎ": 484,
      "ए": 485,
      "ऐ": 486,
      "ऑ": 487,
      "ऒ": 488,
      "ओ": 489,
      "औ": 490,
      "क": 491,
      "ख": 492,
      "ग": 493,
      "घ": 494,
      "ङ": 495,
      "च": 496,
      "छ": 497,
      "ज": 498,
      "झ": 499,
      "ञ": 500,
      "ट": 501,
      "ठ": 502,
      "ड": 503,
      "ढ": 504,
      "ण": 505,
      "त": 506,
      "थ": 507,
      "द": 508,
      "ध": 509,
      "न": 510,
      "ऩ": 511,
      "प": 512,
      "फ": 513,
      "ब": 514,
      "भ": 515,
      "म": 516,
      "य": 517,
      "र": 518,
      "ऱ": 519,
      "ल": 520,
      "ळ": 521,
      "ऴ": 522,
      "व": 523,
      "श": 524,
      "ष": 525,
      "स": 526,
      "ह": 527,
      "ऺ": 528,
      "ऻ": 529,
      "़": 530,
      "ऽ": 531,
      "ा": 532,
      "ि": 533,
      "ी": 534,
      "ु": 535,
      "ू": 536,
      "ृ": 537,
      "ॄ": 538,
      "ॅ": 539,
      "ॆ": 540,
      "े": 541,
      "ै": 542,
      "ॉ": 543,
      "ॊ": 544,
      "ो": 545,
      "ौ": 546,
      "्": 547,
      "ॐ": 548,
      "॑": 549,
      "॒": 550,
      "॓": 551,
      "॔": 552,
      "ॠ": 553,
      "ॡ": 554,
      "ॢ": 555,
      "।": 556,
      "॥": 557,
      "०": 558,
      "१": 559,
      "२": 560,
      "३": 561,
      "४": 562,
      "५": 563,
      "६": 564,
      "७": 565,
      "८": 566,
      "९": 567,
      "॰": 568,
      "ॱ": 569,
      "ॵ": 570,
      "ॺ": 571,
      "ॼ": 572,
      "ॾ": 573,
      "ॿ": 574,
      "ং": 575,
      "আ": 576,
      "ই": 577,
      "উ": 578,
      "এ": 579,
      "ক": 580,
      "খ": 581,
      "গ": 582,
      "ঘ": 583,
      "চ": 584,
      "ছ": 585,
      "জ": 586,
      "ট": 587,
      "ঠ": 588,
      "ড": 589,
      "ঢ": 590,
      "ণ": 591,
      "ত": 592,
      "থ": 593,
      "দ": 594,
      "ধ": 595,
      "ন": 596,
      "প": 597,
      "ব": 598,
      "ম": 599,
      "য": 600,
      "র": 601,
      "ল": 602,
      "ষ": 603,
      "স": 604,
      "হ": 605,
      "়": 606,
      "া": 607,
      "ি": 608,
      "ী": 609,
      "ু": 610,
      "ৃ": 611,
      "ে": 612,
      "ো": 613,
      "্": 614,
      "০": 615,
      "৩": 616,
      "৭": 617,
      "ৰ": 618,
      "ৱ": 619,
      "৷": 620,
      "ਂ": 621,
      "ਅ": 622,
      "ਇ": 623,
      "ਊ": 624,
      "ਏ": 625,
      "ਕ": 626,
      "ਖ": 627,
      "ਗ": 628,
      "ਜ": 629,
      "ਟ": 630,
      "ਡ": 631,
      "ਣ": 632,
      "ਤ": 633,
      "ਦ": 634,
      "ਨ": 635,
      "ਪ": 636,
      "ਬ": 637,
      "ਮ": 638,
      "ਰ": 639,
      "ਲ": 640,
      "ਸ": 641,
      "਼": 642,
      "ਾ": 643,
      "ਿ": 644,
      "ੀ": 645,
      "ੁ": 646,
      "ੂ": 647,
      "ੇ": 648,
      "ੋ": 649,
      "੍": 650,
      "ੰ": 651,
      "ੱ": 652,
      "ં": 653,
      "ઃ": 654,
      "અ": 655,
      "આ": 656,
      "ઈ": 657,
      "ઉ": 658,
      "એ": 659,
      "ઓ": 660,
      "ક": 661,
      "ખ": 662,
      "ગ": 663,
      "ચ": 664,
      "છ": 665,
      "જ": 666,
      "ઝ": 667,
      "ઞ": 668,
      "ટ": 669,
      "ઠ": 670,
      "ડ": 671,
      "ણ": 672,
      "ત": 673,
      "થ": 674,
      "દ": 675,
      "ધ": 676,
      "ન": 677,
      "પ": 678,
      "ફ": 679,
      "બ": 680,
      "ભ": 681,
      "મ": 682,
      "ય": 683,
      "ર": 684,
      "લ": 685,
      "ળ": 686,
      "વ": 687,
      "શ": 688,
      "ષ": 689,
      "સ": 690,
      "હ": 691,
      "઼": 692,
      "ા": 693,
      "િ": 694,
      "ી": 695,
      "ુ": 696,
      "ૂ": 697,
      "ૃ": 698,
      "ે": 699,
      "ો": 700,
      "્": 701,
      "ૐ": 702,
      "ૠ": 703,
      "૦": 704,
      "૧": 705,
      "૨": 706,
      "૩": 707,
      "૪": 708,
      "૫": 709,
      "૬": 710,
      "૭": 711,
      "૮": 712,
      "૯": 713,
      "ଃ": 714,
      "ଆ": 715,
      "ଓ": 716,
      "କ": 717,
      "ଖ": 718,
      "ଡ": 719,
      "ତ": 720,
      "ପ": 721,
      "ଭ": 722,
      "ର": 723,
      "ଲ": 724,
      "଼": 725,
      "ା": 726,
      "ି": 727,
      "େ": 728,
      "୍": 729,
      "ୟ": 730,
      "அ": 731,
      "ஆ": 732,
      "இ": 733,
      "உ": 734,
      "எ": 735,
      "ஐ": 736,
      "க": 737,
      "ச": 738,
      "ஜ": 739,
      "ட": 740,
      "ண": 741,
      "த": 742,
      "ந": 743,
      "ன": 744,
      "ப": 745,
      "ம": 746,
      "ய": 747,
      "ர": 748,
      "ற": 749,
      "ல": 750,
      "ள": 751,
      "ழ": 752,
      "வ": 753,
      "ஶ": 754,
      "ஷ": 755,
      "ஸ": 756,
      "ஹ": 757,
      "ா": 758,
      "ி": 759,
      "ீ": 760,
      "ு": 761,
      "ூ": 762,
      "ெ": 763,
      "ே": 764,
      "ை": 765,
      "ொ": 766,
      "ோ": 767,
      "்": 768,
      "ం": 769,
      "అ": 770,
      "ఉ": 771,
      "ఎ": 772,
      "ఓ": 773,
      "క": 774,
      "చ": 775,
      "జ": 776,
      "డ": 777,
      "త": 778,
      "ద": 779,
      "ధ": 780,
      "న": 781,
      "ప": 782,
      "ఫ": 783,
      "భ": 784,
      "మ": 785,
      "య": 786,
      "ర": 787,
      "ల": 788,
      "వ": 789,
      "శ": 790,
      "ష": 791,
      "స": 792,
      "హ": 793,
      "ా": 794,
      "ి": 795,
      "ు": 796,
      "ె": 797,
      "ే": 798,
      "ై": 799,
      "ో": 800,
      "్": 801,
      "ಂ": 802,
      "ಃ": 803,
      "ಅ": 804,
      "ಇ": 805,
      "ಉ": 806,
      "ಎ": 807,
      "ಕ": 808,
      "ಗ": 809,
      "ಚ": 810,
      "ಜ": 811,
      "ಟ": 812,
      "ಠ": 813,
      "ಡ": 814,
      "ತ": 815,
      "ದ": 816,
      "ನ": 817,
      "ಪ": 818,
      "ಬ": 819,
      "ಭ": 820,
      "ಮ": 821,
      "ಯ": 822,
      "ರ": 823,
      "ಲ": 824,
      "ಳ": 825,
      "ವ": 826,
      "ಶ": 827,
      "ಸ": 828,
      "ಹ": 829,
      "ಾ": 830,
      "ಿ": 831,
      "ೀ": 832,
      "ು": 833,
      "ೂ": 834,
      "ೃ": 835,
      "ೆ": 836,
      "ೇ": 837,
      "ೊ": 838,
      "ೋ": 839,
      "್": 840,
      "೦": 841,
      "೧": 842,
      "೨": 843,
      "೩": 844,
      "೪": 845,
      "ೲ": 846,
      "ം": 847,
      "അ": 848,
      "ആ": 849,
      "ഇ": 850,
      "ഈ": 851,
      "ഉ": 852,
      "എ": 853,
      "ക": 854,
      "ഖ": 855,
      "ഗ": 856,
      "ങ": 857,
      "ച": 858,
      "ഛ": 859,
      "ജ": 860,
      "ഞ": 861,
      "ട": 862,
      "ഠ": 863,
      "ണ": 864,
      "ത": 865,
      "ഥ": 866,
      "ദ": 867,
      "ധ": 868,
      "ന": 869,
      "പ": 870,
      "ബ": 871,
      "ഭ": 872,
      "മ": 873,
      "യ": 874,
      "ര": 875,
      "റ": 876,
      "ല": 877,
      "ള": 878,
      "ഴ": 879,
      "വ": 880,
      "ശ": 881,
      "ഷ": 882,
      "സ": 883,
      "ഹ": 884,
      "ാ": 885,
      "ി": 886,
      "ീ": 887,
      "ു": 888,
      "ൂ": 889,
      "ൃ": 890,
      "െ": 891,
      "േ": 892,
      "ൈ": 893,
      "ൊ": 894,
      "ോ": 895,
      "്": 896,
      "ൻ": 897,
      "ർ": 898,
      "ൽ": 899,
      "ൾ": 900,
      "ක": 901,
      "ග": 902,
      "ත": 903,
      "ද": 904,
      "න": 905,
      "ප": 906,
      "ම": 907,
      "ය": 908,
      "ල": 909,
      "ව": 910,
      "ශ": 911,
      "ස": 912,
      "්": 913,
      "ා": 914,
      "ි": 915,
      "ො": 916,
      "ค": 917,
      "ง": 918,
      "ด": 919,
      "ต": 920,
      "น": 921,
      "บ": 922,
      "พ": 923,
      "ฟ": 924,
      "ม": 925,
      "ร": 926,
      "ห": 927,
      "อ": 928,
      "ฮ": 929,
      "ั": 930,
      "า": 931,
      "ิ": 932,
      "ี": 933,
      "เ": 934,
      "โ": 935,
      "่": 936,
      "้": 937,
      "་": 938,
      "།": 939,
      "༔": 940,
      "༡": 941,
      "༣": 942,
      "༨": 943,
      "ཁ": 944,
      "ག": 945,
      "ང": 946,
      "ཊ": 947,
      "ཐ": 948,
      "ན": 949,
      "པ": 950,
      "བ": 951,
      "མ": 952,
      "ཚ": 953,
      "ཝ": 954,
      "ཟ": 955,
      "ཡ": 956,
      "ལ": 957,
      "ཥ": 958,
      "ས": 959,
      "ཧ": 960,
      "ཱ": 961,
      "ི": 962,
      "ུ": 963,
      "ྀ": 964,
      "ྒ": 965,
      "ྥ": 966,
      "ྨ": 967,
      "ྭ": 968,
      "ྱ": 969,
      "ྲ": 970,
      "ླ": 971,
      "၊": 972,
      "ა": 973,
      "გ": 974,
      "დ": 975,
      "ე": 976,
      "ვ": 977,
      "ზ": 978,
      "თ": 979,
      "ი": 980,
      "ლ": 981,
      "ნ": 982,
      "რ": 983,
      "ს": 984,
      "უ": 985,
      "ც": 986,
      "ᄉ": 987,
      "ᄌ": 988,
      "ᅩ": 989,
      "ᆬ": 990,
      "ሉ": 991,
      "ሕ": 992,
      "ሩ": 993,
      "በ": 994,
      "ብ": 995,
      "ቮ": 996,
      "እ": 997,
      "ኳ": 998,
      "ዝ": 999,
      "ገ": 1000,
      "ጻ": 1001,
      "ፂ": 1002,
      "ፃ": 1003,
      "፪": 1004,
      "ᒃ": 1005,
      "ᒄ": 1006,
      "ᒎ": 1007,
      "ᓚ": 1008,
      "ᗢ": 1009,
      "ᘏ": 1010,
      "ᚨ": 1011,
      "ᚩ": 1012,
      "ᚻ": 1013,
      "ᚾ": 1014,
      "ᛁ": 1015,
      "ᛋ": 1016,
      "ᛏ": 1017,
      "ᛖ": 1018,
      "ᛗ": 1019,
      "ᛚ": 1020,
      "ᛞ": 1021,
      "᛫": 1022,
      "ᭅ": 1023,
      "᭠": 1024,
      "᭭": 1025,
      "ᮩ": 1026,
      "᮰": 1027,
      "ᱧ": 1028,
      "Ჱ": 1029,
      "᳒": 1030,
      "᳖": 1031,
      "᳘": 1032,
      "᳚": 1033,
      "ᳪ": 1034,
      "ᳬ": 1035,
      "᳭": 1036,
      "ᳲ": 1037,
      "ᴀ": 1038,
      "ᴇ": 1039,
      "ḍ": 1040,
      "ḏ": 1041,
      "ḥ": 1042,
      "Ḩ": 1043,
      "ṁ": 1044,
      "ṃ": 1045,
      "ṅ": 1046,
      "ṇ": 1047,
      "Ṛ": 1048,
      "ṛ": 1049,
      "ṝ": 1050,
      "ṣ": 1051,
      "ṭ": 1052,
      "ắ": 1053,
      "ế": 1054,
      "ệ": 1055,
      "Ủ": 1056,
      "Ἀ": 1057,
      "ὁ": 1058,
      "ὕ": 1059,
      "ὸ": 1060,
      "ῖ": 1061,
      "‐": 1062,
      "‒": 1063,
      "―": 1064,
      "‖": 1065,
      "†": 1066,
      "‡": 1067,
      "•": 1068,
      " ": 1069,
      "‰": 1070,
      "′": 1071,
      "‹": 1072,
      "›": 1073,
      "※": 1074,
      "⁄": 1075,
      "₩": 1076,
      "€": 1077,
      "₹": 1078,
      "⃣": 1079,
      "←": 1080,
      "↑": 1081,
      "→": 1082,
      "↓": 1083,
      "↔": 1084,
      "↕": 1085,
      "↗": 1086,
      "↩": 1087,
      "↲": 1088,
      "⇄": 1089,
      "⇏": 1090,
      "⇒": 1091,
      "⇔": 1092,
      "∅": 1093,
      "∆": 1094,
      "∈": 1095,
      "−": 1096,
      "∕": 1097,
      "∖": 1098,
      "∙": 1099,
      "√": 1100,
      "∝": 1101,
      "∠": 1102,
      "∩": 1103,
      "∫": 1104,
      "∴": 1105,
      "∵": 1106,
      "≈": 1107,
      "≍": 1108,
      "≠": 1109,
      "≡": 1110,
      "≤": 1111,
      "≥": 1112,
      "≦": 1113,
      "⊂": 1114,
      "⊃": 1115,
      "⊕": 1116,
      "⋆": 1117,
      "⋙": 1118,
      "⏳": 1119,
      "▀": 1120,
      "▁": 1121,
      "■": 1122,
      "□": 1123,
      "▪": 1124,
      "▲": 1125,
      "△": 1126,
      "▶": 1127,
      "▷": 1128,
      "►": 1129,
      "▼": 1130,
      "◄": 1131,
      "◆": 1132,
      "◇": 1133,
      "◉": 1134,
      "◊": 1135,
      "◌": 1136,
      "◎": 1137,
      "●": 1138,
      "◦": 1139,
      "☀": 1140,
      "☁": 1141,
      "★": 1142,
      "☆": 1143,
      "☑": 1144,
      "☘": 1145,
      "☝": 1146,
      "☰": 1147,
      "☸": 1148,
      "☹": 1149,
      "☺": 1150,
      "♀": 1151,
      "♂": 1152,
      "♈": 1153,
      "♉": 1154,
      "♡": 1155,
      "♣": 1156,
      "♥": 1157,
      "♦": 1158,
      "♫": 1159,
      "♻": 1160,
      "⚏": 1161,
      "⚕": 1162,
      "⚡": 1163,
      "⚪": 1164,
      "⚫": 1165,
      "⛅": 1166,
      "⛈": 1167,
      "⛳": 1168,
      "⛹": 1169,
      "✅": 1170,
      "✌": 1171,
      "✍": 1172,
      "✒": 1173,
      "✓": 1174,
      "✔": 1175,
      "✖": 1176,
      "✥": 1177,
      "✦": 1178,
      "✧": 1179,
      "✨": 1180,
      "✪": 1181,
      "✳": 1182,
      "✴": 1183,
      "✹": 1184,
      "✺": 1185,
      "✼": 1186,
      "✿": 1187,
      "❁": 1188,
      "❇": 1189,
      "❌": 1190,
      "❍": 1191,
      "❑": 1192,
      "❗": 1193,
      "❣": 1194,
      "❤": 1195,
      "❯": 1196,
      "➖": 1197,
      "➛": 1198,
      "➜": 1199,
      "➞": 1200,
      "➡": 1201,
      "➢": 1202,
      "➤": 1203,
      "➥": 1204,
      "➦": 1205,
      "➧": 1206,
      "➨": 1207,
      "⟶": 1208,
      "⟷": 1209,
      "⠀": 1210,
      "⦁": 1211,
      "⭐": 1212,
      "⭕": 1213,
      "、": 1214,
      "。": 1215,
      "〈": 1216,
      "《": 1217,
      "》": 1218,
      "「": 1219,
      "」": 1220,
      "【": 1221,
      "】": 1222,
      "あ": 1223,
      "い": 1224,
      "う": 1225,
      "お": 1226,
      "か": 1227,
      "が": 1228,
      "き": 1229,
      "く": 1230,
      "け": 1231,
      "げ": 1232,
      "ご": 1233,
      "さ": 1234,
      "ざ": 1235,
      "し": 1236,
      "す": 1237,
      "た": 1238,
      "だ": 1239,
      "ち": 1240,
      "っ": 1241,
      "つ": 1242,
      "て": 1243,
      "で": 1244,
      "と": 1245,
      "ど": 1246,
      "な": 1247,
      "に": 1248,
      "の": 1249,
      "は": 1250,
      "ひ": 1251,
      "ま": 1252,
      "み": 1253,
      "む": 1254,
      "め": 1255,
      "も": 1256,
      "ゃ": 1257,
      "や": 1258,
      "よ": 1259,
      "ら": 1260,
      "る": 1261,
      "れ": 1262,
      "を": 1263,
      "ん": 1264,
      "ア": 1265,
      "ィ": 1266,
      "イ": 1267,
      "エ": 1268,
      "オ": 1269,
      "ク": 1270,
      "グ": 1271,
      "コ": 1272,
      "シ": 1273,
      "ジ": 1274,
      "ス": 1275,
      "ズ": 1276,
      "セ": 1277,
      "ゼ": 1278,
      "ソ": 1279,
      "タ": 1280,
      "チ": 1281,
      "ッ": 1282,
      "ツ": 1283,
      "テ": 1284,
      "デ": 1285,
      "ト": 1286,
      "ナ": 1287,
      "ネ": 1288,
      "ノ": 1289,
      "バ": 1290,
      "パ": 1291,
      "ヒ": 1292,
      "ピ": 1293,
      "プ": 1294,
      "ボ": 1295,
      "ポ": 1296,
      "マ": 1297,
      "ャ": 1298,
      "ョ": 1299,
      "ラ": 1300,
      "リ": 1301,
      "ル": 1302,
      "ロ": 1303,
      "ン": 1304,
      "・": 1305,
      "ー": 1306,
      "一": 1307,
      "七": 1308,
      "三": 1309,
      "上": 1310,
      "不": 1311,
      "与": 1312,
      "世": 1313,
      "中": 1314,
      "为": 1315,
      "义": 1316,
      "习": 1317,
      "乱": 1318,
      "了": 1319,
      "事": 1320,
      "二": 1321,
      "于": 1322,
      "互": 1323,
      "五": 1324,
      "亦": 1325,
      "京": 1326,
      "亲": 1327,
      "人": 1328,
      "介": 1329,
      "从": 1330,
      "仕": 1331,
      "代": 1332,
      "份": 1333,
      "休": 1334,
      "伟": 1335,
      "位": 1336,
      "何": 1337,
      "余": 1338,
      "作": 1339,
      "你": 1340,
      "使": 1341,
      "依": 1342,
      "修": 1343,
      "個": 1344,
      "倒": 1345,
      "健": 1346,
      "僕": 1347,
      "元": 1348,
      "入": 1349,
      "全": 1350,
      "八": 1351,
      "六": 1352,
      "其": 1353,
      "具": 1354,
      "円": 1355,
      "册": 1356,
      "决": 1357,
      "出": 1358,
      "切": 1359,
      "划": 1360,
      "列": 1361,
      "利": 1362,
      "别": 1363,
      "到": 1364,
      "副": 1365,
      "加": 1366,
      "助": 1367,
      "化": 1368,
      "北": 1369,
      "十": 1370,
      "卍": 1371,
      "卐": 1372,
      "南": 1373,
      "印": 1374,
      "叉": 1375,
      "反": 1376,
      "发": 1377,
      "口": 1378,
      "句": 1379,
      "可": 1380,
      "各": 1381,
      "合": 1382,
      "同": 1383,
      "名": 1384,
      "后": 1385,
      "吗": 1386,
      "吥": 1387,
      "吸": 1388,
      "告": 1389,
      "员": 1390,
      "和": 1391,
      "咒": 1392,
      "哉": 1393,
      "哥": 1394,
      "哲": 1395,
      "哷": 1396,
      "唯": 1397,
      "喝": 1398,
      "嘅": 1399,
      "器": 1400,
      "四": 1401,
      "因": 1402,
      "図": 1403,
      "固": 1404,
      "国": 1405,
      "國": 1406,
      "地": 1407,
      "域": 1408,
      "堂": 1409,
      "報": 1410,
      "境": 1411,
      "增": 1412,
      "声": 1413,
      "处": 1414,
      "复": 1415,
      "外": 1416,
      "多": 1417,
      "夜": 1418,
      "夢": 1419,
      "大": 1420,
      "天": 1421,
      "奖": 1422,
      "奪": 1423,
      "好": 1424,
      "如": 1425,
      "威": 1426,
      "婆": 1427,
      "孕": 1428,
      "字": 1429,
      "存": 1430,
      "学": 1431,
      "安": 1432,
      "官": 1433,
      "定": 1434,
      "宦": 1435,
      "寝": 1436,
      "尊": 1437,
      "小": 1438,
      "少": 1439,
      "尔": 1440,
      "尼": 1441,
      "属": 1442,
      "岂": 1443,
      "工": 1444,
      "师": 1445,
      "席": 1446,
      "常": 1447,
      "年": 1448,
      "广": 1449,
      "应": 1450,
      "废": 1451,
      "度": 1452,
      "康": 1453,
      "廬": 1454,
      "异": 1455,
      "引": 1456,
      "弥": 1457,
      "当": 1458,
      "影": 1459,
      "彼": 1460,
      "得": 1461,
      "徹": 1462,
      "忘": 1463,
      "念": 1464,
      "性": 1465,
      "惑": 1466,
      "意": 1467,
      "愛": 1468,
      "感": 1469,
      "憶": 1470,
      "成": 1471,
      "我": 1472,
      "戻": 1473,
      "所": 1474,
      "执": 1475,
      "投": 1476,
      "摩": 1477,
      "收": 1478,
      "改": 1479,
      "政": 1480,
      "故": 1481,
      "效": 1482,
      "整": 1483,
      "文": 1484,
      "新": 1485,
      "方": 1486,
      "无": 1487,
      "日": 1488,
      "时": 1489,
      "星": 1490,
      "是": 1491,
      "显": 1492,
      "普": 1493,
      "晴": 1494,
      "更": 1495,
      "書": 1496,
      "最": 1497,
      "月": 1498,
      "有": 1499,
      "朝": 1500,
      "期": 1501,
      "杂": 1502,
      "東": 1503,
      "果": 1504,
      "某": 1505,
      "染": 1506,
      "查": 1507,
      "栄": 1508,
      "格": 1509,
      "械": 1510,
      "梵": 1511,
      "检": 1512,
      "模": 1513,
      "権": 1514,
      "機": 1515,
      "款": 1516,
      "止": 1517,
      "此": 1518,
      "母": 1519,
      "比": 1520,
      "民": 1521,
      "氣": 1522,
      "永": 1523,
      "求": 1524,
      "汇": 1525,
      "没": 1526,
      "泊": 1527,
      "流": 1528,
      "消": 1529,
      "添": 1530,
      "灭": 1531,
      "然": 1532,
      "熟": 1533,
      "父": 1534,
      "牙": 1535,
      "猫": 1536,
      "现": 1537,
      "班": 1538,
      "球": 1539,
      "理": 1540,
      "生": 1541,
      "用": 1542,
      "由": 1543,
      "疆": 1544,
      "痛": 1545,
      "発": 1546,
      "發": 1547,
      "白": 1548,
      "的": 1549,
      "益": 1550,
      "直": 1551,
      "相": 1552,
      "知": 1553,
      "研": 1554,
      "破": 1555,
      "祖": 1556,
      "离": 1557,
      "秘": 1558,
      "程": 1559,
      "稱": 1560,
      "究": 1561,
      "立": 1562,
      "章": 1563,
      "第": 1564,
      "答": 1565,
      "简": 1566,
      "类": 1567,
      "紅": 1568,
      "素": 1569,
      "終": 1570,
      "続": 1571,
      "網": 1572,
      "繁": 1573,
      "维": 1574,
      "者": 1575,
      "而": 1576,
      "肉": 1577,
      "能": 1578,
      "自": 1579,
      "花": 1580,
      "若": 1581,
      "英": 1582,
      "茶": 1583,
      "葬": 1584,
      "薩": 1585,
      "處": 1586,
      "蛟": 1587,
      "蝶": 1588,
      "衆": 1589,
      "行": 1590,
      "表": 1591,
      "西": 1592,
      "见": 1593,
      "观": 1594,
      "视": 1595,
      "觉": 1596,
      "解": 1597,
      "言": 1598,
      "記": 1599,
      "訳": 1600,
      "試": 1601,
      "語": 1602,
      "論": 1603,
      "讓": 1604,
      "计": 1605,
      "讨": 1606,
      "许": 1607,
      "论": 1608,
      "话": 1609,
      "语": 1610,
      "说": 1611,
      "诸": 1612,
      "贪": 1613,
      "越": 1614,
      "足": 1615,
      "身": 1616,
      "車": 1617,
      "转": 1618,
      "辦": 1619,
      "达": 1620,
      "过": 1621,
      "运": 1622,
      "返": 1623,
      "追": 1624,
      "通": 1625,
      "逝": 1626,
      "進": 1627,
      "遣": 1628,
      "那": 1629,
      "都": 1630,
      "释": 1631,
      "量": 1632,
      "金": 1633,
      "鉄": 1634,
      "错": 1635,
      "长": 1636,
      "間": 1637,
      "间": 1638,
      "闻": 1639,
      "阿": 1640,
      "除": 1641,
      "陸": 1642,
      "障": 1643,
      "雨": 1644,
      "電": 1645,
      "靈": 1646,
      "非": 1647,
      "面": 1648,
      "韩": 1649,
      "音": 1650,
      "響": 1651,
      "願": 1652,
      "页": 1653,
      "须": 1654,
      "颂": 1655,
      "飞": 1656,
      "飲": 1657,
      "首": 1658,
      "龙": 1659,
      "꣡": 1660,
      "꣢": 1661,
      "꣣": 1662,
      "꣫": 1663,
      "꣯": 1664,
      "ꣲ": 1665,
      "ꣳ": 1666,
      "가": 1667,
      "간": 1668,
      "감": 1669,
      "개": 1670,
      "게": 1671,
      "고": 1672,
      "공": 1673,
      "과": 1674,
      "교": 1675,
      "국": 1676,
      "금": 1677,
      "급": 1678,
      "기": 1679,
      "깨": 1680,
      "나": 1681,
      "낱": 1682,
      "냐": 1683,
      "녹": 1684,
      "는": 1685,
      "니": 1686,
      "다": 1687,
      "달": 1688,
      "대": 1689,
      "더": 1690,
      "동": 1691,
      "두": 1692,
      "듬": 1693,
      "따": 1694,
      "뜨": 1695,
      "라": 1696,
      "락": 1697,
      "레": 1698,
      "력": 1699,
      "로": 1700,
      "름": 1701,
      "리": 1702,
      "만": 1703,
      "말": 1704,
      "망": 1705,
      "맵": 1706,
      "몸": 1707,
      "못": 1708,
      "뭐": 1709,
      "민": 1710,
      "받": 1711,
      "발": 1712,
      "백": 1713,
      "번": 1714,
      "법": 1715,
      "봇": 1716,
      "브": 1717,
      "비": 1718,
      "사": 1719,
      "산": 1720,
      "상": 1721,
      "서": 1722,
      "성": 1723,
      "세": 1724,
      "수": 1725,
      "술": 1726,
      "쉬": 1727,
      "슈": 1728,
      "스": 1729,
      "승": 1730,
      "시": 1731,
      "신": 1732,
      "아": 1733,
      "어": 1734,
      "없": 1735,
      "에": 1736,
      "염": 1737,
      "영": 1738,
      "예": 1739,
      "완": 1740,
      "외": 1741,
      "요": 1742,
      "우": 1743,
      "운": 1744,
      "월": 1745,
      "위": 1746,
      "을": 1747,
      "음": 1748,
      "의": 1749,
      "이": 1750,
      "인": 1751,
      "임": 1752,
      "입": 1753,
      "있": 1754,
      "자": 1755,
      "적": 1756,
      "전": 1757,
      "절": 1758,
      "정": 1759,
      "조": 1760,
      "좀": 1761,
      "주": 1762,
      "중": 1763,
      "증": 1764,
      "지": 1765,
      "째": 1766,
      "청": 1767,
      "크": 1768,
      "키": 1769,
      "탄": 1770,
      "탑": 1771,
      "터": 1772,
      "트": 1773,
      "특": 1774,
      "팅": 1775,
      "파": 1776,
      "하": 1777,
      "학": 1778,
      "한": 1779,
      "함": 1780,
      "합": 1781,
      "허": 1782,
      "효": 1783,
      "히": 1784,
      "힌": 1785,
      "힘": 1786,
      "︎": 1787,
      "️": 1788,
      "�": 1789,
      "𑆤": 1790,
      "𑌏": 1791,
      "𑌥": 1792,
      "𑌫": 1793,
      "𑌮": 1794,
      "𑌸": 1795,
      "𑐎": 1796,
      "𑐕": 1797,
      "𑐫": 1798,
      "𑐮": 1799,
      "𑐰": 1800,
      "𑐴": 1801,
      "𑐵": 1802,
      "𑑀": 1803,
      "𑑂": 1804,
      "𑑄": 1805,
      "𑑅": 1806,
      "🅰": 1807,
      "🇦": 1808,
      "🇮": 1809,
      "🇱": 1810,
      "🇳": 1811,
      "🇵": 1812,
      "🇸": 1813,
      "🇹": 1814,
      "🇺": 1815,
      "🌀": 1816,
      "🌃": 1817,
      "🌄": 1818,
      "🌅": 1819,
      "🌈": 1820,
      "🌉": 1821,
      "🌍": 1822,
      "🌎": 1823,
      "🌏": 1824,
      "🌖": 1825,
      "🌙": 1826,
      "🌛": 1827,
      "🌝": 1828,
      "🌞": 1829,
      "🌟": 1830,
      "🌠": 1831,
      "🌰": 1832,
      "🌱": 1833,
      "🌴": 1834,
      "🌷": 1835,
      "🌸": 1836,
      "🌹": 1837,
      "🌺": 1838,
      "🌻": 1839,
      "🌼": 1840,
      "🌿": 1841,
      "🍀": 1842,
      "🍁": 1843,
      "🍃": 1844,
      "🍋": 1845,
      "🍥": 1846,
      "🍾": 1847,
      "🎂": 1848,
      "🎃": 1849,
      "🎉": 1850,
      "🎊": 1851,
      "🎋": 1852,
      "🎎": 1853,
      "🎓": 1854,
      "🎖": 1855,
      "🎤": 1856,
      "🎯": 1857,
      "🎵": 1858,
      "🎶": 1859,
      "🎼": 1860,
      "🏀": 1861,
      "🏃": 1862,
      "🏏": 1863,
      "🏠": 1864,
      "🏮": 1865,
      "🏷": 1866,
      "🏹": 1867,
      "🏻": 1868,
      "🏽": 1869,
      "🐕": 1870,
      "🐙": 1871,
      "🐯": 1872,
      "👆": 1873,
      "👇": 1874,
      "👈": 1875,
      "👉": 1876,
      "👌": 1877,
      "👍": 1878,
      "👏": 1879,
      "👞": 1880,
      "👣": 1881,
      "👦": 1882,
      "👧": 1883,
      "👨": 1884,
      "👩": 1885,
      "👫": 1886,
      "👱": 1887,
      "👴": 1888,
      "💄": 1889,
      "💏": 1890,
      "💐": 1891,
      "💑": 1892,
      "💓": 1893,
      "💔": 1894,
      "💕": 1895,
      "💖": 1896,
      "💗": 1897,
      "💘": 1898,
      "💚": 1899,
      "💛": 1900,
      "💝": 1901,
      "💠": 1902,
      "💥": 1903,
      "💦": 1904,
      "💧": 1905,
      "💫": 1906,
      "💮": 1907,
      "💰": 1908,
      "💱": 1909,
      "💵": 1910,
      "📂": 1911,
      "📌": 1912,
      "📎": 1913,
      "📏": 1914,
      "📕": 1915,
      "📖": 1916,
      "📚": 1917,
      "📝": 1918,
      "📢": 1919,
      "📣": 1920,
      "📰": 1921,
      "📱": 1922,
      "📳": 1923,
      "📸": 1924,
      "📺": 1925,
      "🔅": 1926,
      "🔊": 1927,
      "🔍": 1928,
      "🔐": 1929,
      "🔔": 1930,
      "🔗": 1931,
      "🔟": 1932,
      "🔥": 1933,
      "🔰": 1934,
      "🔱": 1935,
      "🔶": 1936,
      "🔷": 1937,
      "🔸": 1938,
      "🔹": 1939,
      "🔺": 1940,
      "🔻": 1941,
      "🕉": 1942,
      "🕔": 1943,
      "🖊": 1944,
      "🖱": 1945,
      "🗃": 1946,
      "🗒": 1947,
      "🗣": 1948,
      "🗳": 1949,
      "😀": 1950,
      "😂": 1951,
      "😃": 1952,
      "😄": 1953,
      "😅": 1954,
      "😇": 1955,
      "😉": 1956,
      "😊": 1957,
      "😌": 1958,
      "😍": 1959,
      "😎": 1960,
      "😒": 1961,
      "😔": 1962,
      "😘": 1963,
      "😜": 1964,
      "😝": 1965,
      "😞": 1966,
      "😡": 1967,
      "😢": 1968,
      "😩": 1969,
      "😳": 1970,
      "🙁": 1971,
      "🙂": 1972,
      "🙅": 1973,
      "🙆": 1974,
      "🙌": 1975,
      "🙍": 1976,
      "🙎": 1977,
      "🙏": 1978,
      "🚑": 1979,
      "🚩": 1980,
      "🚷": 1981,
      "🛑": 1982,
      "🛡": 1983,
      "🤔": 1984,
      "🤗": 1985,
      "🤝": 1986,
      "🤦": 1987,
      "🤩": 1988,
      "🤪": 1989,
      "🤲": 1990,
      "🥀": 1991,
      "🥂": 1992,
      "🥇": 1993,
      "🥰": 1994,
      "🦂": 1995,
      "🧐": 1996,
      "🧜": 1997,
      "🩸": 1998,
      "🪔": 1999,
      "्य": 2000,
      "्र": 2001,
      "।\n": 2002,
      "्त": 2003,
      " स": 2004,
      " प": 2005,
      "्व": 2006,
      " ।\n": 2007,
      " व": 2008,
      "ति": 2009,
      "ान": 2010,
      " क": 2011,
      "र्": 2012,
      " त": 2013,
      "म्": 2014,
      " न": 2015,
      "ित": 2016,
      " अ": 2017,
      "त्": 2018,
      "्या": 2019,
      " म": 2020,
      " प्र": 2021,
      "ार": 2022,
      " द": 2023,
      " य": 2024,
      "ां": 2025,
      " भ": 2026,
      "ते": 2027,
      " च": 2028,
      "क्": 2029,
      "न्": 2030,
      "मा": 2031,
      "स्य": 2032,
      " वि": 2033,
      "या": 2034,
      "॥\n": 2035,
      "ष्": 2036,
      "स्त": 2037,
      "स्": 2038,
      "न्त": 2039,
      "क्ष": 2040,
      " इ": 2041,
      "त्र": 2042,
      " श": 2043,
      " ॥\n": 2044,
      "वि": 2045,
      "र्व": 2046,
      "रा": 2047,
      "ना": 2048,
      " ज": 2049,
      "द्": 2050,
      "प्र": 2051,
      "क्त": 2052,
      "था": 2053,
      " ह": 2054,
      "त्य": 2055,
      "ेव": 2056,
      "ेन": 2057,
      " ए": 2058,
      "पि": 2059,
      " ग": 2060,
      "तः": 2061,
      "ाद": 2062,
      "िक": 2063,
      "ाय": 2064,
      " -": 2065,
      "ाम": 2066,
      "्च": 2067,
      "त्त": 2068,
      "ाः": 2069,
      "ष्ट": 2070,
      "नि": 2071,
      " आ": 2072,
      "ाव": 2073,
      "ेष": 2074,
      "रि": 2075,
      "त्व": 2076,
      "यो": 2077,
      "र्थ": 2078,
      "मि": 2079,
      "दि": 2080,
      "ाल": 2081,
      " पु": 2082,
      " नि": 2083,
      "दा": 2084,
      " ब": 2085,
      "ता": 2086,
      " उ": 2087,
      "द्ध": 2088,
      " इति": 2089,
      "र्त": 2090,
      " सं": 2091,
      "ेश": 2092,
      " र": 2093,
      " ल": 2094,
      "्ञ": 2095,
      " भव": 2096,
      " वा": 2097,
      " सर्व": 2098,
      "्यते": 2099,
      " ध": 2100,
      " स्व": 2101,
      "ाप": 2102,
      "ङ्": 2103,
      "ान्": 2104,
      "ये": 2105,
      " (": 2106,
      "श्च": 2107,
      "यं": 2108,
      "्यं": 2109,
      "सं": 2110,
      "भि": 2111,
      " पर": 2112,
      "ानि": 2113,
      " स्": 2114,
      "नु": 2115,
      "वा": 2116,
      " एव": 2117,
      "रण": 2118,
      "मु": 2119,
      "नं": 2120,
      "िं": 2121,
      "ृत": 2122,
      " \"": 2123,
      "तु": 2124,
      "र्म": 2125,
      "भा": 2126,
      "ने": 2127,
      "कार": 2128,
      "ज्ञ": 2129,
      "रु": 2130,
      " तु": 2131,
      "यः": 2132,
      "नः": 2133,
      "्रि": 2134,
      "्ये": 2135,
      "ती": 2136,
      " रा": 2137,
      "सा": 2138,
      "मान": 2139,
      "रो": 2140,
      "च्": 2141,
      " .": 2142,
      "न्द": 2143,
      "?\n": 2144,
      "का": 2145,
      "रे": 2146,
      "मे": 2147,
      "न्ति": 2148,
      "तो": 2149,
      "र्ष": 2150,
      "ेद": 2151,
      "ल्": 2152,
      "ष्ठ": 2153,
      "गु": 2154,
      " सु": 2155,
      "ात्": 2156,
      "च्छ": 2157,
      "न्य": 2158,
      "स्ति": 2159,
      " हि": 2160,
      "ाण": 2161,
      "ानां": 2162,
      "सि": 2163,
      " प्रति": 2164,
      "ूप": 2165,
      "भव": 2166,
      "द्य": 2167,
      "द्व": 2168,
      "स्थ": 2169,
      "श्व": 2170,
      "धि": 2171,
      "ैव": 2172,
      "पु": 2173,
      "स्व": 2174,
      "व्य": 2175,
      "र्ण": 2176,
      " सम": 2177,
      " _": 2178,
      " सा": 2179,
      "हं": 2180,
      "ास": 2181,
      "यु": 2182,
      "ान्त": 2183,
      "पर": 2184,
      "ब्": 2185,
      "कं": 2186,
      "ीय": 2187,
      " पू": 2188,
      " कु": 2189,
      "हि": 2190,
      "कः": 2191,
      "तं": 2192,
      " इत्य": 2193,
      "कृ": 2194,
      "ग्र": 2195,
      " कार": 2196,
      "ेण": 2197,
      "लं": 2198,
      " त्व": 2199,
      "स्या": 2200,
      "ोऽ": 2201,
      "ैः": 2202,
      "ुः": 2203,
      "क्र": 2204,
      "धिक": 2205,
      "ग्": 2206,
      "के": 2207,
      " ते": 2208,
      "ितः": 2209,
      "देश": 2210,
      "भाव": 2211,
      "मः": 2212,
      "ष्य": 2213,
      " ख": 2214,
      " यथा": 2215,
      "ेषु": 2216,
      "र्ग": 2217,
      "रं": 2218,
      "त्या": 2219,
      "स्तु": 2220,
      " मह": 2221,
      " द्व": 2222,
      "ृश": 2223,
      "ङ्ग": 2224,
      " देव": 2225,
      "प्त": 2226,
      "क्षण": 2227,
      "ात": 2228,
      "सी": 2229,
      "ृष्ट": 2230,
      "नो": 2231,
      ".\n": 2232,
      "िता": 2233,
      "ण्": 2234,
      "पू": 2235,
      " भवति": 2236,
      "द्र": 2237,
      "री": 2238,
      "श्र": 2239,
      " परि": 2240,
      "ृह": 2241,
      "सु": 2242,
      " कृ": 2243,
      "िः": 2244,
      "योग": 2245,
      " श्र": 2246,
      "भू": 2247,
      "ला": 2248,
      "रः": 2249,
      "ध्य": 2250,
      " क्": 2251,
      "शि": 2252,
      " सम्": 2253,
      "न्ध": 2254,
      " मे": 2255,
      "लो": 2256,
      "नी": 2257,
      "ाह": 2258,
      " दि": 2259,
      " कि": 2260,
      "त्वा": 2261,
      "स्मा": 2262,
      "रूप": 2263,
      "ुं": 2264,
      "वृ": 2265,
      "्वा": 2266,
      "चित": 2267,
      " मु": 2268,
      "ञ्च": 2269,
      " उप": 2270,
      "दं": 2271,
      " ?\n": 2272,
      " सह": 2273,
      "मेव": 2274,
      "णं": 2275,
      " राज": 2276,
      "न्न": 2277,
      "ानं": 2278,
      " मा": 2279,
      " ना": 2280,
      "भ्य": 2281,
      "णा": 2282,
      " भा": 2283,
      "ितं": 2284,
      " तथा": 2285,
      "ेत": 2286,
      " कथ": 2287,
      "षा": 2288,
      " स्थ": 2289,
      "ीव": 2290,
      " क्ष": 2291,
      " वै": 2292,
      " '": 2293,
      "र्य": 2294,
      "-\n": 2295,
      "याः": 2296,
      "पा": 2297,
      "ब्द": 2298,
      "लि": 2299,
      "स्मि": 2300,
      "र्श": 2301,
      "!\n": 2302,
      "शेष": 2303,
      " प्राप": 2304,
      "्री": 2305,
      " दु": 2306,
      " अपि": 2307,
      " यो": 2308,
      "ल्प": 2309,
      " अस्ति": 2310,
      " व्य": 2311,
      "जन": 2312,
      "ित्य": 2313,
      " समा": 2314,
      " सू": 2315,
      "--": 2316,
      " यु": 2317,
      "तिः": 2318,
      "देव": 2319,
      "ोप": 2320,
      "ण्ड": 2321,
      "वं": 2322,
      "कृत": 2323,
      "ेत्": 2324,
      " गु": 2325,
      "काल": 2326,
      "धान": 2327,
      "चार": 2328,
      "धा": 2329,
      "चि": 2330,
      "श्": 2331,
      "सः": 2332,
      " पृ": 2333,
      "द्या": 2334,
      " स्त": 2335,
      "क्ति": 2336,
      "णि": 2337,
      " किं": 2338,
      "ादि": 2339,
      "कु": 2340,
      "सम": 2341,
      " वर्ष": 2342,
      "श्य": 2343,
      "दु": 2344,
      "प्": 2345,
      "सर्व": 2346,
      "ले": 2347,
      " भू": 2348,
      "यति": 2349,
      "स्म": 2350,
      " पूर्व": 2351,
      "वे": 2352,
      "पद": 2353,
      "वर्त": 2354,
      "न्ते": 2355,
      " पा": 2356,
      " तत्": 2357,
      "ानु": 2358,
      " ज्ञ": 2359,
      "च्च": 2360,
      "मं": 2361,
      " प्रा": 2362,
      "ितम्": 2363,
      "नम्": 2364,
      "वान्": 2365,
      "नां": 2366,
      " अनु": 2367,
      ")\n": 2368,
      "भाग": 2369,
      "हु": 2370,
      " फ": 2371,
      "ेति": 2372,
      "को": 2373,
      "ाना": 2374,
      "करण": 2375,
      "यम्": 2376,
      "ीत": 2377,
      "यम": 2378,
      "ीं": 2379,
      " तस्य": 2380,
      "क्षा": 2381,
      " नाम": 2382,
      "पाद": 2383,
      "जा": 2384,
      "न्त्र": 2385,
      " घ": 2386,
      " _\n": 2387,
      "ख्या": 2388,
      "तां": 2389,
      "र्ध": 2390,
      "ोष": 2391,
      "कि": 2392,
      "त्म": 2393,
      "प्रति": 2394,
      "व्या": 2395,
      "्रिय": 2396,
      "सम्": 2397,
      "से": 2398,
      " पुनः": 2399,
      " छ": 2400,
      "क्षि": 2401,
      "हे": 2402,
      " वृ": 2403,
      " एक": 2404,
      "णे": 2405,
      "परि": 2406,
      "ुद्ध": 2407,
      "र्थः": 2408,
      " कर्त": 2409,
      "ित्र": 2410,
      " यदि": 2411,
      " शि": 2412,
      " यत्": 2413,
      "न्द्र": 2414,
      "ान्य": 2415,
      "ाणि": 2416,
      " .\n": 2417,
      "णां": 2418,
      " मम": 2419,
      " के": 2420,
      "युक्त": 2421,
      "भिः": 2422,
      "दी": 2423,
      "स्था": 2424,
      "्यां": 2425,
      "रुष": 2426,
      "स्त्र": 2427,
      "न्म": 2428,
      " पुन": 2429,
      "र्ज": 2430,
      "वृत्त": 2431,
      "नेन": 2432,
      "न्तु": 2433,
      " या": 2434,
      "ामि": 2435,
      "्ज": 2436,
      "दे": 2437,
      "मो": 2438,
      " स्या": 2439,
      " प्रत्य": 2440,
      " लो": 2441,
      " व्या": 2442,
      "य्": 2443,
      "तत्": 2444,
      "षु": 2445,
      " स्म": 2446,
      "ह्": 2447,
      "ध्या": 2448,
      "णः": 2449,
      "पी": 2450,
      " गृह": 2451,
      "वः": 2452,
      "इति": 2453,
      "पे": 2454,
      "वाद": 2455,
      " भार": 2456,
      " काल": 2457,
      "ित्त": 2458,
      "राज": 2459,
      "अथ": 2460,
      "ेषां": 2461,
      "सू": 2462,
      " कर्म": 2463,
      "तस्य": 2464,
      "स्मिन्": 2465,
      "दान": 2466,
      "काश": 2467,
      "ूल": 2468,
      "र्थं": 2469,
      " करो": 2470,
      " वर्त": 2471,
      " अव": 2472,
      " कृत": 2473,
      "बन्ध": 2474,
      " तत्र": 2475,
      " =": 2476,
      "..": 2477,
      "मिति": 2478,
      "न्व": 2479,
      "स्र": 2480,
      "शा": 2481,
      "तम": 2482,
      " सि": 2483,
      "विष्य": 2484,
      "हार": 2485,
      "त्त्व": 2486,
      "िका": 2487,
      "योः": 2488,
      " दृष्ट": 2489,
      "त्वं": 2490,
      "क्षे": 2491,
      "प्य": 2492,
      "२०": 2493,
      " __": 2494,
      " ग्र": 2495,
      "ोक्त": 2496,
      " का": 2497,
      "कम्": 2498,
      " विश्व": 2499,
      " जन": 2500,
      "वी": 2501,
      "विष": 2502,
      "ायां": 2503,
      "20": 2504,
      "त्स": 2505,
      "थि": 2506,
      "च्यते": 2507,
      "यथा": 2508,
      "पूर्व": 2509,
      " !\n": 2510,
      "यि": 2511,
      "न्या": 2512,
      "भाष": 2513,
      "ट्": 2514,
      "सार": 2515,
      "रम्": 2516,
      "क्य": 2517,
      " कार्य": 2518,
      "ज्ञान": 2519,
      "ख्य": 2520,
      "वेद": 2521,
      "हो": 2522,
      " हे": 2523,
      " जा": 2524,
      "ध्ये": 2525,
      " जीव": 2526,
      " प्राप्त": 2527,
      " शु": 2528,
      "एवं": 2529,
      "ली": 2530,
      " प्रथ": 2531,
      "मपि": 2532,
      " को": 2533,
      "त्रा": 2534,
      "ारा": 2535,
      "शु": 2536,
      " तद": 2537,
      "धु": 2538,
      "ित्": 2539,
      " तदा": 2540,
      " क्र": 2541,
      "्रिया": 2542,
      "ऽपि": 2543,
      " तव": 2544,
      "मी": 2545,
      "माण": 2546,
      " दे": 2547,
      "तेन": 2548,
      " अप": 2549,
      "तम्": 2550,
      "विध": 2551,
      "वार": 2552,
      " देश": 2553,
      "शः": 2554,
      " विष": 2555,
      "म्ब": 2556,
      "ग्रह": 2557,
      "दृश": 2558,
      " /": 2559,
      "यत्": 2560,
      "येत्": 2561,
      " ति": 2562,
      "ोध": 2563,
      " केव": 2564,
      "शब्द": 2565,
      "यां": 2566,
      "नाः": 2567,
      "यित": 2568,
      " धर्म": 2569,
      "कल्प": 2570,
      " लि": 2571,
      "्यो": 2572,
      "सीत्": 2573,
      " अधिक": 2574,
      "िते": 2575,
      "चित्": 2576,
      "ष्ण": 2577,
      " दृश": 2578,
      " बहु": 2579,
      " पुत्र": 2580,
      "धार": 2581,
      "्यामि": 2582,
      " भग": 2583,
      " भविष्य": 2584,
      "ष्ट्र": 2585,
      "भार": 2586,
      "सह": 2587,
      " औ": 2588,
      " ब्र": 2589,
      "ीति": 2590,
      "ोग": 2591,
      "१०": 2592,
      ",\n": 2593,
      " इत्या": 2594,
      "ुःख": 2595,
      " समु": 2596,
      " विशेष": 2597,
      "वस": 2598,
      "गम": 2599,
      " ऽ": 2600,
      " अभि": 2601,
      "तद": 2602,
      " रु": 2603,
      "१९": 2604,
      "सिद्ध": 2605,
      " भाव": 2606,
      " चि": 2607,
      " मया": 2608,
      " ये": 2609,
      " सः": 2610,
      " त्रि": 2611,
      "कर्म": 2612,
      "ताः": 2613,
      "तथा": 2614,
      "ग्नि": 2615,
      " एवं": 2616,
      "ृत्य": 2617,
      "स्थान": 2618,
      "शी": 2619,
      "वर्ष": 2620,
      " जग": 2621,
      "काः": 2622,
      "हा": 2623,
      "णम्": 2624,
      "त्रं": 2625,
      "्वं": 2626,
      " चा": 2627,
      "गृह": 2628,
      "ायते": 2629,
      "कथ": 2630,
      "र्हि": 2631,
      "किं": 2632,
      "कर्त": 2633,
      " विद": 2634,
      " अन्य": 2635,
      "णी": 2636,
      "सो": 2637,
      " तं": 2638,
      " साम": 2639,
      "िताः": 2640,
      "की": 2641,
      "वेश": 2642,
      " ,": 2643,
      "चन": 2644,
      "र्मा": 2645,
      "दर्श": 2646,
      "ज्य": 2647,
      " आसीत्": 2648,
      "षे": 2649,
      "यदि": 2650,
      " मन": 2651,
      "द्वि": 2652,
      " रूप": 2653,
      "प्रत्य": 2654,
      "र्या": 2655,
      "तया": 2656,
      " सुख": 2657,
      " ष": 2658,
      "ुक्त": 2659,
      "एक": 2660,
      " पुरुष": 2661,
      " द्र": 2662,
      "चना": 2663,
      "धे": 2664,
      "त्रे": 2665,
      "यते": 2666,
      "भेद": 2667,
      "समा": 2668,
      " तेन": 2669,
      "स्ते": 2670,
      "लः": 2671,
      "न्तः": 2672,
      " ट": 2673,
      " सप्त": 2674,
      "नाम": 2675,
      " त्वं": 2676,
      "्यः": 2677,
      "ीयते": 2678,
      " द्वि": 2679,
      " शब्द": 2680,
      "ृद": 2681,
      " कथं": 2682,
      " संस्": 2683,
      " पृष्ठ": 2684,
      " श्रु": 2685,
      "क्रम": 2686,
      " ई": 2687,
      " सर्वे": 2688,
      " स्यात्": 2689,
      "ज्ञा": 2690,
      " [": 2691,
      "ङ्क": 2692,
      " यः": 2693,
      " पद": 2694,
      " नमः": 2695,
      "तत्र": 2696,
      "ततः": 2697,
      " वे": 2698,
      "ोद": 2699,
      " अन": 2700,
      " दी": 2701,
      " उत्त": 2702,
      "षि": 2703,
      "__": 2704,
      " दर्श": 2705,
      "स्प": 2706,
      "र्ह": 2707,
      "ैक": 2708,
      "पूर्ण": 2709,
      "भ्यः": 2710,
      "ात्म": 2711,
      "ाणां": 2712,
      "व्यं": 2713,
      " गुण": 2714,
      "लोक": 2715,
      "कृति": 2716,
      "ब्र": 2717,
      " दू": 2718,
      "ञ्ज": 2719,
      " --": 2720,
      "र्प": 2721,
      "पत्त": 2722,
      "er": 2723,
      " पी": 2724,
      " पित": 2725,
      "प्राप": 2726,
      "वाच": 2727,
      "मुख": 2728,
      " करोति": 2729,
      "र्द": 2730,
      "गत": 2731,
      " काम": 2732,
      "्याः": 2733,
      "गर": 2734,
      "क्तं": 2735,
      "अन्य": 2736,
      "श्चि": 2737,
      "्यम्": 2738,
      " मि": 2739,
      " ला": 2740,
      "in": 2741,
      "उप": 2742,
      "वत्": 2743,
      "गुण": 2744,
      "हः": 2745,
      "हित": 2746,
      " ऋ": 2747,
      "र्भ": 2748,
      "धी": 2749,
      "म्भ": 2750,
      " संश": 2751,
      " विना": 2752,
      "एत": 2753,
      "यन": 2754,
      "भाषा": 2755,
      "ाने": 2756,
      "मन": 2757,
      "दाह": 2758,
      " मां": 2759,
      " थ": 2760,
      " शा": 2761,
      "ोऽपि": 2762,
      "प्रा": 2763,
      "र्घ": 2764,
      " योग": 2765,
      "त्रि": 2766,
      " की": 2767,
      "रणं": 2768,
      "st": 2769,
      " एत": 2770,
      " दश": 2771,
      "भवत्": 2772,
      " पि": 2773,
      " वर्तते": 2774,
      " भाष": 2775,
      "ोः": 2776,
      "साम": 2777,
      "धः": 2778,
      "स्मात्": 2779,
      "पृ": 2780,
      " ततः": 2781,
      "यस्य": 2782,
      " कदा": 2783,
      "्यु": 2784,
      "योज": 2785,
      "लु": 2786,
      " सो": 2787,
      "लक्षण": 2788,
      "ञ्": 2789,
      "मम": 2790,
      " भवेत्": 2791,
      "लम्": 2792,
      " ने": 2793,
      " परा": 2794,
      "मानं": 2795,
      "त्वात्": 2796,
      "तीति": 2797,
      "एव": 2798,
      "पः": 2799,
      " सन्ति": 2800,
      "गे": 2801,
      "अतः": 2802,
      " यत्र": 2803,
      " पठ": 2804,
      "धर्म": 2805,
      " उत्": 2806,
      "विशेष": 2807,
      "र्थे": 2808,
      "सौ": 2809,
      "क्ष्य": 2810,
      "तर": 2811,
      " वद": 2812,
      " त्र": 2813,
      " सदा": 2814,
      "ताम्": 2815,
      " स्था": 2816,
      " वर्षे": 2817,
      " मान": 2818,
      "वर्ण": 2819,
      "नोति": 2820,
      "ोज": 2821,
      "पाल": 2822,
      " शक": 2823,
      "ेश्व": 2824,
      " कुर्व": 2825,
      " सिद्ध": 2826,
      "व्यम्": 2827,
      " तद्": 2828,
      " बाल": 2829,
      "कल": 2830,
      "परा": 2831,
      " जु": 2832,
      "10": 2833,
      " चतु": 2834,
      " तर्हि": 2835,
      "च्छति": 2836,
      "ेः": 2837,
      " और": 2838,
      " अन्त": 2839,
      "an": 2840,
      "धन": 2841,
      " विद्या": 2842,
      " परी": 2843,
      " वेद": 2844,
      " इव": 2845,
      "षां": 2846,
      "मह": 2847,
      "तिं": 2848,
      "ितो": 2849,
      "अनु": 2850,
      "सन्": 2851,
      "ादश": 2852,
      " रे": 2853,
      " भविष्यति": 2854,
      "कारः": 2855,
      "गो": 2856,
      " दुःख": 2857,
      "दू": 2858,
      "स्याः": 2859,
      "काम": 2860,
      " लोक": 2861,
      "ैर": 2862,
      "११": 2863,
      "दृष्ट": 2864,
      "डि": 2865,
      "भु": 2866,
      "शो": 2867,
      "येन": 2868,
      " स्प": 2869,
      "ृण": 2870,
      "हम्": 2871,
      " मू": 2872,
      "िर": 2873,
      "ायु": 2874,
      " अहं": 2875,
      "फल": 2876,
      "तुः": 2877,
      "यत": 2878,
      " स्त्री": 2879,
      " पञ्च": 2880,
      " +": 2881,
      "on": 2882,
      "शं": 2883,
      "काले": 2884,
      " पाप": 2885,
      "विद्या": 2886,
      "ar": 2887,
      " कृत्वा": 2888,
      "कर": 2889,
      "वान": 2890,
      "जि": 2891,
      "ण्य": 2892,
      "र्था": 2893,
      "क्षु": 2894,
      "िती": 2895,
      "प्राप्त": 2896,
      " व्यव": 2897,
      "न्तं": 2898,
      " क्रिय": 2899,
      "अत्र": 2900,
      "याम": 2901,
      "ाये": 2902,
      "ष्टा": 2903,
      " अत्र": 2904,
      " अथ": 2905,
      " रक्ष": 2906,
      " अति": 2907,
      " निर्": 2908,
      "भ्या": 2909,
      "धिकार": 2910,
      " क्षे": 2911,
      "रेण": 2912,
      "ज्ज": 2913,
      " ज्ञान": 2914,
      " वक्त": 2915,
      "__\n": 2916,
      "दश": 2917,
      "टि": 2918,
      " सर्वं": 2919,
      " स्वा": 2920,
      "मुक्त": 2921,
      " भाग": 2922,
      "मात्र": 2923,
      " नो": 2924,
      " आह": 2925,
      "ुम्": 2926,
      "मास": 2927,
      " पश्य": 2928,
      "र्वि": 2929,
      "मां": 2930,
      "र्च": 2931,
      "भ्यां": 2932,
      " विद्यते": 2933,
      " खः": 2934,
      " पुं": 2935,
      "घ्र": 2936,
      " दक्षि": 2937,
      "201": 2938,
      "इत्य": 2939,
      " वी": 2940,
      " मनु": 2941,
      " यदा": 2942,
      "en": 2943,
      " नास्ति": 2944,
      "ह्म": 2945,
      "निर्": 2946,
      "ष्म": 2947,
      "िकं": 2948,
      "वै": 2949,
      " -\n": 2950,
      " सत्य": 2951,
      " नं": 2952,
      "वो": 2953,
      " वयं": 2954,
      "१२": 2955,
      "ाम्": 2956,
      "उत्त": 2957,
      " महा": 2958,
      "हू": 2959,
      " दोष": 2960,
      " भ्र": 2961,
      "१८": 2962,
      "स्माकं": 2963,
      " करि": 2964,
      "or": 2965,
      "भूत": 2966,
      " प्राप्": 2967,
      "नम": 2968,
      " राष्ट्र": 2969,
      " रि": 2970,
      " प्राण": 2971,
      "जः": 2972,
      "दाय": 2973,
      "वाह": 2974,
      "जीव": 2975,
      "माः": 2976,
      " जान": 2977,
      "भवति": 2978,
      "तुं": 2979,
      "बद्ध": 2980,
      "अहं": 2981,
      "at": 2982,
      " शी": 2983,
      " कर": 2984,
      " प्रज": 2985,
      "लभ": 2986,
      "यामि": 2987,
      "ची": 2988,
      "मू": 2989,
      " क्व": 2990,
      "र्न": 2991,
      "ारं": 2992,
      "नाय": 2993,
      "टी": 2994,
      " किम्": 2995,
      "यन्ति": 2996,
      "डा": 2997,
      "पुत्र": 2998,
      "पो": 2999,
      "म्य": 3000,
      "ित्यं": 3001,
      " उक्त": 3002,
      " सद": 3003,
      "शत": 3004,
      " अधि": 3005,
      "ड्": 3006,
      " केवलं": 3007,
      " जन्म": 3008,
      " मो": 3009,
      "िति": 3010,
      " मध्ये": 3011,
      "१५": 3012,
      " परं": 3013,
      "धिः": 3014,
      "ही": 3015,
      " घट": 3016,
      "प्रथ": 3017,
      " प्रि": 3018,
      "भ्र": 3019,
      "शिष्ट": 3020,
      " इत्यादि": 3021,
      " परम": 3022,
      "णाम": 3023,
      "ारी": 3024,
      " वर्ण": 3025,
      "ारि": 3026,
      "माह": 3027,
      "नस्य": 3028,
      "णो": 3029,
      " दृश्यते": 3030,
      "ावत्": 3031,
      " तेषां": 3032,
      " यस्य": 3033,
      "दिति": 3034,
      " वृद्ध": 3035,
      "ादृश": 3036,
      " लिख": 3037,
      "पित": 3038,
      " बुद्ध": 3039,
      "यात्": 3040,
      " आग": 3041,
      "पति": 3042,
      " वाच": 3043,
      "करो": 3044,
      "यन्": 3045,
      "ष्यति": 3046,
      " कल": 3047,
      "es": 3048,
      "वां": 3049,
      " धा": 3050,
      "अन": 3051,
      "देशे": 3052,
      "ब्ध": 3053,
      "तोऽ": 3054,
      "षः": 3055,
      "ुप": 3056,
      " फल": 3057,
      "वच": 3058,
      " ः": 3059,
      "कस्य": 3060,
      "मनु": 3061,
      " पूर्ण": 3062,
      "ानाम्": 3063,
      " ह्य": 3064,
      " तथ": 3065,
      "भे": 3066,
      "स्त्व": 3067,
      "क्तिः": 3068,
      "अत": 3069,
      "वरी": 3070,
      "\"\n": 3071,
      "त्वे": 3072,
      " मृ": 3073,
      " हृद": 3074,
      "ष्यामि": 3075,
      "त्वेन": 3076,
      " पाठ": 3077,
      "्म": 3078,
      "पर्य": 3079,
      "००": 3080,
      " से": 3081,
      " समी": 3082,
      " पूज": 3083,
      "ित्या": 3084,
      "om": 3085,
      " S": 3086,
      "तीय": 3087,
      " चे": 3088,
      "ंश": 3089,
      "ड़": 3090,
      " अभवत्": 3091,
      " जि": 3092,
      " बि": 3093,
      "ध्व": 3094,
      "ारः": 3095,
      " जल": 3096,
      "ायं": 3097,
      " कल्प": 3098,
      "रिति": 3099,
      " न्या": 3100,
      "विश्व": 3101,
      "जी": 3102,
      "वन": 3103,
      "ान्व": 3104,
      " प्रथम": 3105,
      " रो": 3106,
      "पं": 3107,
      "कार्य": 3108,
      " भाषा": 3109,
      " पृथ": 3110,
      "बल": 3111,
      " सौ": 3112,
      " येन": 3113,
      "थे": 3114,
      " भि": 3115,
      "पुरुष": 3116,
      "दः": 3117,
      "र्क": 3118,
      "१४": 3119,
      " प्रकाश": 3120,
      "राः": 3121,
      "योगः": 3122,
      "जं": 3123,
      "मन्त": 3124,
      " संशयः": 3125,
      "नियम": 3126,
      " प्रवि": 3127,
      "धो": 3128,
      "वती": 3129,
      " दृष्ट्वा": 3130,
      "शाल": 3131,
      "ायः": 3132,
      " ऊ": 3133,
      " पुरा": 3134,
      " प्रे": 3135,
      "रस्य": 3136,
      " __\n": 3137,
      " यज्ञ": 3138,
      " विध": 3139,
      "जे": 3140,
      "ुम": 3141,
      " प्रती": 3142,
      "गा": 3143,
      "तौ": 3144,
      "ित्व": 3145,
      "कथं": 3146,
      " ले": 3147,
      " युद्ध": 3148,
      " वस्तु": 3149,
      " अस्य": 3150,
      " सर": 3151,
      "19": 3152,
      "संस्": 3153,
      "क्रिया": 3154,
      "तेः": 3155,
      " क्री": 3156,
      " शक्ति": 3157,
      " ओ": 3158,
      "तन्त्र": 3159,
      "ून": 3160,
      " गो": 3161,
      " पुर": 3162,
      " नः": 3163,
      " शरी": 3164,
      "ष्टं": 3165,
      " पृथि": 3166,
      " कृते": 3167,
      " गच्छ": 3168,
      " जायते": 3169,
      "याम्": 3170,
      " मित्र": 3171,
      "स्मै": 3172,
      " प्रोक्त": 3173,
      " मध्य": 3174,
      " क्रिया": 3175,
      " सर्वत्र": 3176,
      " वच": 3177,
      "सङ्": 3178,
      " राजा": 3179,
      "वर्तते": 3180,
      "चर": 3181,
      " पाद": 3182,
      "मार्ग": 3183,
      "al": 3184,
      " शत्र": 3185,
      " भवन्ति": 3186,
      " नृ": 3187,
      "१७": 3188,
      " भु": 3189,
      "दौ": 3190,
      " तमे": 3191,
      "श्रु": 3192,
      "भय": 3193,
      " I": 3194,
      "निक": 3195,
      "बि": 3196,
      "ाद्य": 3197,
      "योजन": 3198,
      "ल्य": 3199,
      "पन्": 3200,
      " सामान्य": 3201,
      "१३": 3202,
      "अधिक": 3203,
      "रोध": 3204,
      "केन": 3205,
      "ात्र": 3206,
      "मित्त": 3207,
      " कुरु": 3208,
      "गः": 3209,
      " ॐ": 3210,
      "व्र": 3211,
      "वास": 3212,
      " सेव": 3213,
      "ानाम": 3214,
      " शो": 3215,
      "अयं": 3216,
      "गण": 3217,
      "बुद्ध": 3218,
      "त्मा": 3219,
      " इदं": 3220,
      "ादी": 3221,
      " मूल": 3222,
      "टे": 3223,
      " कार्यं": 3224,
      "अव": 3225,
      " यद": 3226,
      "सां": 3227,
      " भगव": 3228,
      "देशः": 3229,
      "दानीं": 3230,
      "00": 3231,
      "कम": 3232,
      " t": 3233,
      " यू": 3234,
      " साध": 3235,
      " शक्यते": 3236,
      " चिन्त": 3237,
      "ीम": 3238,
      "समु": 3239,
      "पक्ष": 3240,
      "र्वा": 3241,
      " ()": 3242,
      "दत्त": 3243,
      "द्रा": 3244,
      " हो": 3245,
      " बल": 3246,
      " चेत्": 3247,
      "ज्": 3248,
      "चित्र": 3249,
      "तेषां": 3250,
      "शे": 3251,
      "ोत्त": 3252,
      "ान्ति": 3253,
      "थं": 3254,
      "नाम्": 3255,
      " A": 3256,
      "श्चा": 3257,
      "रम": 3258,
      " पश": 3259,
      "परं": 3260,
      " राज्य": 3261,
      "तदा": 3262,
      " निष्": 3263,
      "ag": 3264,
      "ेष्ठ": 3265,
      " सन्": 3266,
      " सूर्य": 3267,
      " न्य": 3268,
      " कारण": 3269,
      "थः": 3270,
      " सङ्": 3271,
      " नित्य": 3272,
      "पेक्ष": 3273,
      "१६": 3274,
      "नानि": 3275,
      "11": 3276,
      "भो": 3277,
      "प्रि": 3278,
      "त्वम्": 3279,
      " काले": 3280,
      " स्थान": 3281,
      "रस": 3282,
      "रति": 3283,
      "वृत्ति": 3284,
      "बा": 3285,
      " भेद": 3286,
      " स्वी": 3287,
      " ड": 3288,
      " मनो": 3289,
      "स्यां": 3290,
      "सहस्र": 3291,
      "यात": 3292,
      "भ्यो": 3293,
      " कः": 3294,
      "ित्वा": 3295,
      " दत्त": 3296,
      "ष्यते": 3297,
      "रूपेण": 3298,
      "ेवं": 3299,
      "यद्य": 3300,
      " अध्य": 3301,
      "ान्न": 3302,
      "ii": 3303,
      " प्रस": 3304,
      "ष्या": 3305,
      "वृद्ध": 3306,
      " स्थाप": 3307,
      "खि": 3308,
      " विद्य": 3309,
      "भावः": 3310,
      " प्रश्": 3311,
      "तेषु": 3312,
      " भूत": 3313,
      "मुप": 3314,
      "ृती": 3315,
      "शास्त्र": 3316,
      " व्र": 3317,
      "मानः": 3318,
      " तत": 3319,
      "वद": 3320,
      "घु": 3321,
      "लय": 3322,
      "शास": 3323,
      " त्य": 3324,
      "ग्ने": 3325,
      "रक्ष": 3326,
      "12": 3327,
      " अर्थ": 3328,
      " शेष": 3329,
      " यद्": 3330,
      "-अ": 3331,
      "कृत्य": 3332,
      "रूपं": 3333,
      "भक्त": 3334,
      "ह्य": 3335,
      "तव": 3336,
      "दम्": 3337,
      " निश्च": 3338,
      " बा": 3339,
      " वृत्त": 3340,
      " लभ": 3341,
      " त्वया": 3342,
      " नव": 3343,
      " चैव": 3344,
      "इट": 3345,
      "ीः": 3346,
      "शक्ति": 3347,
      "स्थाप": 3348,
      "यौ": 3349,
      " यज": 3350,
      " विधि": 3351,
      "मेर": 3352,
      "व्यः": 3353,
      "यितुं": 3354,
      "ल्ल": 3355,
      " सूचना": 3356,
      " एतत्": 3357,
      " शक्": 3358,
      " आस": 3359,
      "ासु": 3360,
      " गुरु": 3361,
      "कृतं": 3362,
      " आव": 3363,
      "पार": 3364,
      "र्गः": 3365,
      " सहस्र": 3366,
      " करण": 3367,
      " कश्च": 3368,
      " तम": 3369,
      " पर्व": 3370,
      "िकः": 3371,
      " इह": 3372,
      "र्द्ध": 3373,
      " भारत": 3374,
      "व्यव": 3375,
      "युः": 3376,
      " दीर्घ": 3377,
      " नैव": 3378,
      "कर्ष": 3379,
      "दो": 3380,
      "खा": 3381,
      " पे": 3382,
      "इदं": 3383,
      "मार": 3384,
      " दा": 3385,
      " केवल": 3386,
      " क्रियते": 3387,
      "खे": 3388,
      "रू": 3389,
      "्वि": 3390,
      "मिदं": 3391,
      " नित्यं": 3392,
      "तद्": 3393,
      "वेदन": 3394,
      " पृष्ठानि": 3395,
      "यदा": 3396,
      " धन": 3397,
      "अभि": 3398,
      "पद्यते": 3399,
      "ेऽ": 3400,
      " लक्षण": 3401,
      " सी": 3402,
      " नर": 3403,
      "दुःख": 3404,
      " धार": 3405,
      " किम": 3406,
      " शुभ": 3407,
      "संधान": 3408,
      "तन": 3409,
      " गण": 3410,
      "अप": 3411,
      " स्वयं": 3412,
      " शत": 3413,
      "दिष्ट": 3414,
      "it": 3415,
      "ततो": 3416,
      "हास": 3417,
      "अपि": 3418,
      "ैर्": 3419,
      " विचार": 3420,
      " प्रण": 3421,
      "नात्": 3422,
      " जनाः": 3423,
      "ार्थ": 3424,
      "न्तरं": 3425,
      "भी": 3426,
      "बी": 3427,
      "कर्ता": 3428,
      " कौ": 3429,
      " विज": 3430,
      "18": 3431,
      "र्म्": 3432,
      " ता": 3433,
      "तत": 3434,
      " विव": 3435,
      " पुनर": 3436,
      "..\n": 3437,
      " दुर्": 3438,
      "कास": 3439,
      " ऐ": 3440,
      "ादेश": 3441,
      "अस्य": 3442,
      " उच्यते": 3443,
      "विषय": 3444,
      "कूल": 3445,
      " स्वर्ग": 3446,
      "ज्ञानं": 3447,
      " प्रधान": 3448,
      "15": 3449,
      "क्षं": 3450,
      "निः": 3451,
      " रात्र": 3452,
      "दाहरण": 3453,
      "प्रस": 3454,
      " आत्म": 3455,
      " श्व": 3456,
      "बहु": 3457,
      "ज्यते": 3458,
      " तिष्ठ": 3459,
      " मास": 3460,
      "मित्य": 3461,
      "बोध": 3462,
      " मृत्य": 3463,
      " हस्त": 3464,
      "विधि": 3465,
      "मम्": 3466,
      "बसा": 3467,
      "स्यापि": 3468,
      "च्य": 3469,
      "नव": 3470,
      " मुक्त": 3471,
      "भवः": 3472,
      "राष्ट्र": 3473,
      "धिकरण": 3474,
      " एष": 3475,
      "सप्त": 3476,
      " ग्रह": 3477,
      "ms": 3478,
      "्रा": 3479,
      "प्रे": 3480,
      "iv": 3481,
      " वार": 3482,
      " ि": 3483,
      "ग्रे": 3484,
      " P": 3485,
      " भावः": 3486,
      "बाल": 3487,
      " शक्त": 3488,
      " इत्यस्य": 3489,
      " ज्ञा": 3490,
      " स्मृ": 3491,
      " केन": 3492,
      "लिख": 3493,
      "पदा": 3494,
      " लोके": 3495,
      " ब्रह्म": 3496,
      "ज्ञः": 3497,
      "रुद्ध": 3498,
      "कू": 3499,
      " नी": 3500,
      " क्षेत्र": 3501,
      " निय": 3502,
      "टा": 3503,
      " कार्या": 3504,
      "चतु": 3505,
      "मव": 3506,
      "न्त्य": 3507,
      "ृणु": 3508,
      "संख्या": 3509,
      " यथ": 3510,
      "ेष्व": 3511,
      "पुनः": 3512,
      " ङ": 3513,
      "यी": 3514,
      "सुख": 3515,
      "क्षः": 3516,
      "मध्ये": 3517,
      "िके": 3518,
      " यद्य": 3519,
      "नेक": 3520,
      " सम्बन्ध": 3521,
      " परस्": 3522,
      " किञ्च": 3523,
      " एकः": 3524,
      "ृतं": 3525,
      "साध": 3526,
      " युक्त": 3527,
      "बसाइट": 3528,
      "मन्त्र": 3529,
      "ताव": 3530,
      " परमा": 3531,
      "इह": 3532,
      "शक्त": 3533,
      " पुनर्": 3534,
      "स्तथा": 3535,
      "केव": 3536,
      " वर": 3537,
      "गी": 3538,
      " विकल्प": 3539,
      " इच्छ": 3540,
      "दक्षि": 3541,
      " साक्ष": 3542,
      "दोष": 3543,
      " ध्य": 3544,
      "ितीय": 3545,
      "ों": 3546,
      " पुस्त": 3547,
      " पूर्वं": 3548,
      "मस्ति": 3549,
      "क्रिय": 3550,
      " त्वां": 3551,
      "ुव": 3552,
      "न्थ": 3553,
      "ेषण": 3554,
      " नियम": 3555,
      " भवे": 3556,
      "ध्यते": 3557,
      " न्": 3558,
      " स्वप्": 3559,
      "चा": 3560,
      " हरि": 3561,
      " मार्ग": 3562,
      "पया": 3563,
      " खलु": 3564,
      "फु": 3565,
      "परी": 3566,
      "पञ्च": 3567,
      "िकी": 3568,
      "द्वा": 3569,
      " निर्म": 3570,
      "पुन": 3571,
      " द्विती": 3572,
      " कुर्या": 3573,
      " है": 3574,
      "लिङ्ग": 3575,
      "ितानि": 3576,
      "धं": 3577,
      " जात": 3578,
      " इत्यर्थः": 3579,
      " दृश्य": 3580,
      "र्थि": 3581,
      " मन्त्र": 3582,
      " प्राप्नोति": 3583,
      "सर": 3584,
      " शीघ्र": 3585,
      " यत": 3586,
      " भाषण": 3587,
      "यित्वा": 3588,
      "re": 3589,
      "कृते": 3590,
      " कुर्वन्ति": 3591,
      "न्तर": 3592,
      "क्व": 3593,
      "दार": 3594,
      " पार": 3595,
      "बु": 3596,
      "रात्र": 3597,
      " प्रयोग": 3598,
      " यतः": 3599,
      " सम्बद्ध": 3600,
      "मेण": 3601,
      " वो": 3602,
      "ान्तर": 3603,
      " भवतः": 3604,
      "्येत": 3605,
      " योज": 3606,
      " निर": 3607,
      " ध्व": 3608,
      "गच्छ": 3609,
      " अध्या": 3610,
      " अग्नि": 3611,
      " s": 3612,
      " विषये": 3613,
      " सति": 3614,
      " अयं": 3615,
      "ऽऽ": 3616,
      " समुद्र": 3617,
      " द्रष्ट": 3618,
      " आर": 3619,
      "ताम": 3620,
      " विभाग": 3621,
      " वस": 3622,
      "प्रश्": 3623,
      "]\n": 3624,
      " सव": 3625,
      "स्ट": 3626,
      "अन्यथा": 3627,
      " तत्त्व": 3628,
      "ोत्": 3629,
      "्यस्य": 3630,
      " अस": 3631,
      "धुना": 3632,
      "str": 3633,
      "िकाः": 3634,
      " प्रार्थ": 3635,
      "पत्र": 3636,
      " दृ": 3637,
      "दिश": 3638,
      "कारं": 3639,
      "नीय": 3640,
      "विभाग": 3641,
      "कारेण": 3642,
      "पदं": 3643,
      " समान": 3644,
      " तो": 3645,
      "le": 3646,
      " एका": 3647,
      "नौ": 3648,
      " बाह": 3649,
      "सेव": 3650,
      " उद्": 3651,
      "हर": 3652,
      " T": 3653,
      " चित्र": 3654,
      " M": 3655,
      "हस्त": 3656,
      " विस्त": 3657,
      "ou": 3658,
      "घा": 3659,
      "र्थम्": 3660,
      " शास्त्र": 3661,
      "दपि": 3662,
      "पत्": 3663,
      " m": 3664,
      "सर्ग": 3665,
      "जो": 3666,
      " विज्ञ": 3667,
      " लेख": 3668,
      " शक्य": 3669,
      "गं": 3670,
      " सम्य": 3671,
      "14": 3672,
      "विधान": 3673,
      "्योति": 3674,
      " संस्कृत": 3675,
      "ृहं": 3676,
      " नग": 3677,
      " अस्माकं": 3678,
      " तप": 3679,
      " गति": 3680,
      "ाह्म": 3681,
      "लेख": 3682,
      "जग": 3683,
      "र्ति": 3684,
      " फलं": 3685,
      " वन": 3686,
      "दृ": 3687,
      "भः": 3688,
      " वाम": 3689,
      "न्दि": 3690,
      " बह": 3691,
      " बु": 3692,
      "म्ह": 3693,
      " झ": 3694,
      "वस्तु": 3695,
      "मया": 3696,
      " सर्वदा": 3697,
      " इत्येत": 3698,
      "च्छेद": 3699,
      "मौ": 3700,
      "२२": 3701,
      " लक्ष": 3702,
      "घ्": 3703,
      " मात": 3704,
      "त्यं": 3705,
      " रुप": 3706,
      "चे": 3707,
      "३०": 3708,
      "ष्टि": 3709,
      " वर्ध": 3710,
      "ic": 3711,
      "्ल": 3712,
      "यान": 3713,
      " दक्षिण": 3714,
      "साधन": 3715,
      " C": 3716,
      " तां": 3717,
      "स्थित": 3718,
      " प्रव": 3719,
      "---": 3720,
      "टः": 3721,
      " ततो": 3722,
      " प्रसिद्ध": 3723,
      "ेक": 3724,
      " ईश्व": 3725,
      "मृ": 3726,
      "मध्य": 3727,
      "हिं": 3728,
      "द्धि": 3729,
      " अधिनियम": 3730,
      "ितुं": 3731,
      "तस्मा": 3732,
      " पिता": 3733,
      "२०१": 3734,
      "कौ": 3735,
      " कम": 3736,
      " प्रयत्": 3737,
      " पर्य": 3738,
      " सूत्र": 3739,
      "२५": 3740,
      "त्ते": 3741,
      "षण": 3742,
      "ितवान्": 3743,
      " सर्वा": 3744,
      "मय": 3745,
      " प्रकृति": 3746,
      " हृ": 3747,
      "ाण्": 3748,
      "am": 3749,
      "शिक्षण": 3750,
      "चित्त": 3751,
      "गतं": 3752,
      " उच्च": 3753,
      "त्यादि": 3754,
      "सामान्य": 3755,
      "पन्न": 3756,
      "ेय": 3757,
      " ताव": 3758,
      " प्रय": 3759,
      "ान्ते": 3760,
      "हाय": 3761,
      " शुद्ध": 3762,
      "फलं": 3763,
      "त्ता": 3764,
      " मधु": 3765,
      "भावे": 3766,
      " श्री": 3767,
      " समाप्त": 3768,
      " प्रमाण": 3769,
      "क्ष्यामि": 3770,
      " विषय": 3771,
      " भगवान्": 3772,
      "भग": 3773,
      "न्नि": 3774,
      "नान": 3775,
      "पिं": 3776,
      " संख्या": 3777,
      "्याव": 3778,
      " विनि": 3779,
      " कारणं": 3780,
      "मेन": 3781,
      "ed": 3782,
      "अति": 3783,
      "ष्मा": 3784,
      "मान्": 3785,
      "कारण": 3786,
      "ग्राम": 3787,
      "सेन": 3788,
      " प्रच": 3789,
      "ारो": 3790,
      "नापि": 3791,
      "पाप": 3792,
      " परिवर्त": 3793,
      "्याय": 3794,
      " द्वारा": 3795,
      "प्रयोग": 3796,
      " अनुसंधान": 3797,
      "्वः": 3798,
      "msg": 3799,
      "मुच्यते": 3800,
      "msgstr": 3801,
      " शू": 3802,
      "वर": 3803,
      " कर्तुं": 3804,
      " भवान्": 3805,
      " द्वादश": 3806,
      "ोत": 3807,
      " यावत्": 3808,
      " कोई": 3809,
      "ंस": 3810,
      " भक्त": 3811,
      "नग": 3812,
      "२४": 3813,
      "पूज": 3814,
      "वत्स": 3815,
      " तद्व": 3816,
      "वाय": 3817,
      " संसार": 3818,
      " अत्य": 3819,
      "ीर": 3820,
      "13": 3821,
      " चित्त": 3822,
      " माता": 3823,
      " कस्य": 3824,
      " वाक्य": 3825,
      "यत्र": 3826,
      "हृद": 3827,
      "क्री": 3828,
      " सम्बद्धानि": 3829,
      "मूल": 3830,
      " दिन": 3831,
      "ome": 3832,
      " p": 3833,
      "न्ती": 3834,
      "षेध": 3835,
      "नन्द": 3836,
      " क्षण": 3837,
      "विषये": 3838,
      "हस्य": 3839,
      " वायु": 3840,
      " निर्व": 3841,
      " गृहे": 3842,
      "त्रापि": 3843,
      " विष्ण": 3844,
      "विश": 3845,
      "माना": 3846,
      "पत्ति": 3847,
      "17": 3848,
      " नै": 3849,
      "नै": 3850,
      "ष्टः": 3851,
      " रोग": 3852,
      "ion": 3853,
      "क्यं": 3854,
      " सर्व्व": 3855,
      " वाय": 3856,
      " क्रीड": 3857,
      "हितः": 3858,
      " बहि": 3859,
      "स्वा": 3860,
      " देवा": 3861,
      "श्ल": 3862,
      "स्ता": 3863,
      "ष्व": 3864,
      " सर्वेषां": 3865,
      " प्रातः": 3866,
      "गतः": 3867,
      "जल": 3868,
      " पति": 3869,
      " उपयोग": 3870,
      "२१": 3871,
      "पात": 3872,
      "ानी": 3873,
      "नाश": 3874,
      " उत्तर": 3875,
      " परीक्षा": 3876,
      " जाना": 3877,
      " अती": 3878,
      "ष्प": 3879,
      "वाः": 3880,
      " गतः": 3881,
      "पुरा": 3882,
      "ad": 3883,
      " हेतु": 3884,
      " B": 3885,
      " पदा": 3886,
      "करणे": 3887,
      " N": 3888,
      "पृष्ठ": 3889,
      "वर्ज": 3890,
      "संयुक्त": 3891,
      " वेबसाइट": 3892,
      " नु": 3893,
      "मात्": 3894,
      " अतः": 3895,
      " सार": 3896,
      " परम्": 3897,
      "मण्ड": 3898,
      " कश्चि": 3899,
      "पादन": 3900,
      "भौ": 3901,
      " सिं": 3902,
      "सृ": 3903,
      "ैल": 3904,
      "हिता": 3905,
      " c": 3906,
      " संयुक्त": 3907,
      " b": 3908,
      "अन्त": 3909,
      "is": 3910,
      "न्दु": 3911,
      "मत": 3912,
      "ुत्": 3913,
      " अमेर": 3914,
      " पाल": 3915,
      " इन्द्र": 3916,
      "सर्वं": 3917,
      " L": 3918,
      "माय": 3919,
      "पाठ": 3920,
      " तस्या": 3921,
      " श्": 3922,
      "ेवाः": 3923,
      "२७": 3924,
      "स्वरूप": 3925,
      " f": 3926,
      "करणं": 3927,
      " रस": 3928,
      " मुख": 3929,
      " दण्ड": 3930,
      "र्त्त": 3931,
      " नू": 3932,
      "ननु": 3933,
      " विकि": 3934,
      "र्म्म": 3935,
      "तृ": 3936,
      " याव": 3937,
      " विप्र": 3938,
      " गि": 3939,
      "दिन": 3940,
      "त्तु": 3941,
      " सुर": 3942,
      " तस्मा": 3943,
      "साह": 3944,
      " यं": 3945,
      " निर्ण": 3946,
      " ---": 3947,
      "ाया": 3948,
      " महि": 3949,
      "प्रकाश": 3950,
      "२००": 3951,
      "ादौ": 3952,
      "ान्तः": 3953,
      " ग्राम": 3954,
      "मति": 3955,
      " जू": 3956,
      " एवा": 3957,
      " सक": 3958,
      "लोके": 3959,
      "ent": 3960,
      "सद": 3961,
      "ारे": 3962,
      "स्त्री": 3963,
      "कृता": 3964,
      " कृता": 3965,
      "सन्ध": 3966,
      "मस्य": 3967,
      "त्ति": 3968,
      "न्तो": 3969,
      " तथापि": 3970,
      " वर्तमान": 3971,
      " आवश्य": 3972,
      " गम": 3973,
      " किन्तु": 3974,
      " दैव": 3975,
      "ध्": 3976,
      "रुण": 3977,
      "गि": 3978,
      "रेव": 3979,
      " स्य": 3980,
      " प्रभाव": 3981,
      "रक्षण": 3982,
      " अत": 3983,
      " अद्य": 3984,
      " पक्ष": 3985,
      " गत": 3986,
      " जनवरी": 3987,
      " देशे": 3988,
      "16": 3989,
      " श्रुत्वा": 3990,
      " चै": 3991,
      "ारु": 3992,
      " भारतीय": 3993,
      " विशेषतः": 3994,
      " तौ": 3995,
      "स्क": 3996,
      " प्राप्य": 3997,
      "स्मान्": 3998,
      "अद्य": 3999,
      "शय": 4000,
      "२६": 4001,
      " अम": 4002,
      "ाण्ड": 4003,
      "ष्ठा": 4004,
      " पितृ": 4005,
      "माद": 4006,
      "परम्": 4007,
      " कृतं": 4008,
      " विकास": 4009,
      " गत्वा": 4010,
      " एते": 4011,
      " इत्यनेन": 4012,
      " निरा": 4013,
      "वन्तः": 4014,
      "पुर": 4015,
      "स्तं": 4016,
      "अथवा": 4017,
      " मुख्य": 4018,
      "वसाय": 4019,
      "णाम्": 4020,
      " तथैव": 4021,
      "न्ना": 4022,
      "तोः": 4023,
      "कृतिः": 4024,
      " कथा": 4025,
      "रुप": 4026,
      "प्प": 4027,
      " व्याख्या": 4028,
      "Home": 4029,
      "यू": 4030,
      "यमेव": 4031,
      " दूर": 4032,
      "अस्मिन्": 4033,
      "िकित्": 4034,
      "एते": 4035,
      "ीप": 4036,
      "क्ष्म": 4037,
      " समर्थ": 4038,
      " इत्येव": 4039,
      "चः": 4040,
      " उद": 4041,
      " पृथक्": 4042,
      " दिव": 4043,
      "ृतम्": 4044,
      "सत": 4045,
      " त्वा": 4046,
      "एष": 4047,
      "घट": 4048,
      "जन्म": 4049,
      " अस्मिन्": 4050,
      "as": 4051,
      "भेदे": 4052,
      "्यात्": 4053,
      " प्रवेश": 4054,
      "देह": 4055,
      " ण": 4056,
      " अह": 4057,
      "बाह": 4058,
      "ायै": 4059,
      "lo": 4060,
      "बं": 4061,
      "हां": 4062,
      " चल": 4063,
      "पद्य": 4064,
      " ज्ञानं": 4065,
      "उत्": 4066,
      "रपि": 4067,
      " पव": 4068,
      " इत्युक्त": 4069,
      "डिया": 4070,
      "२३": 4071,
      "जु": 4072,
      "नया": 4073,
      "लाः": 4074,
      "िनः": 4075,
      " वापि": 4076,
      "एस": 4077,
      "ैश्च": 4078,
      "ष्ये": 4079,
      "हृ": 4080,
      "रिक्त": 4081,
      "चिन्त": 4082,
      " वृक्ष": 4083,
      " सन्द": 4084,
      " त्या": 4085,
      " इत्यत्र": 4086,
      "इगु": 4087,
      "ितां": 4088,
      "प्राय": 4089,
      " पत्र": 4090,
      " पश्च": 4091,
      " यान": 4092,
      "भविष्य": 4093,
      " तृती": 4094,
      " छात्र": 4095,
      " लघु": 4096,
      "ेषाम": 4097,
      "कदा": 4098,
      "लम्ब": 4099,
      " पश्यति": 4100,
      " इत": 4101,
      "िंश": 4102,
      "हितं": 4103,
      "योऽ": 4104,
      " जगत्": 4105,
      "ूनां": 4106,
      "माणं": 4107,
      "द्योग": 4108,
      "एतत्": 4109,
      "गुरु": 4110,
      "गति": 4111,
      "लये": 4112,
      "शुद्ध": 4113,
      "र्श्व": 4114,
      "ब्दा": 4115,
      " रूपं": 4116,
      "माने": 4117,
      " प्रयोजन": 4118,
      "विद": 4119,
      "रेत्": 4120,
      " ङी": 4121,
      " क्वचित्": 4122,
      " ददा": 4123,
      " बुद्धि": 4124,
      " पश्चि": 4125,
      " चन्द्र": 4126,
      "ाव्य": 4127,
      "क्षेत्र": 4128,
      " गच्छति": 4129,
      "िको": 4130,
      " बी": 4131,
      "लस्य": 4132,
      " श्रेष्ठ": 4133,
      " भूमि": 4134,
      " जना": 4135,
      "प्रधान": 4136,
      "ch": 4137,
      " हर": 4138,
      "त्तर": 4139,
      " याति": 4140,
      " चापि": 4141,
      " d": 4142,
      " विविध": 4143,
      " नार": 4144,
      "रणे": 4145,
      "स्थानं": 4146,
      " परीक्षण": 4147,
      "तथ": 4148,
      " पौ": 4149,
      "च्छि": 4150,
      " सै": 4151,
      " ती": 4152,
      "यतः": 4153,
      "ोऽयं": 4154,
      "प्रथम": 4155,
      " यतो": 4156,
      " भोज": 4157,
      "२८": 4158,
      "वृत्तिः": 4159,
      "टो": 4160,
      "णेन": 4161,
      "...": 4162,
      "ेयं": 4163,
      " मयि": 4164,
      "न्धि": 4165,
      "स्तस्य": 4166,
      " हिं": 4167,
      "30": 4168,
      "५०": 4169,
      "स्थाने": 4170,
      "तानि": 4171,
      " मं": 4172,
      " जी": 4173,
      " भवित": 4174,
      "पूर्वं": 4175,
      " परमेश्व": 4176,
      " विद्व": 4177,
      " गौ": 4178,
      "सर्वे": 4179,
      " प्रत्या": 4180,
      " लाभ": 4181,
      " n": 4182,
      "कानां": 4183,
      " भो": 4184,
      " षष्ठ": 4185,
      "थु": 4186,
      "्येन": 4187,
      " निः": 4188,
      "ाप्": 4189,
      " मद": 4190,
      "मन्य": 4191,
      "नाव": 4192,
      "्रियां": 4193,
      " भी": 4194,
      "मिव": 4195,
      " द्विज": 4196,
      " D": 4197,
      "\"अ": 4198,
      " धी": 4199,
      "यय": 4200,
      "धनं": 4201,
      "फो": 4202,
      " प्रवर्त": 4203,
      "ङ्ग्": 4204,
      " विभ": 4205,
      " स्तु": 4206,
      "यद": 4207,
      "त्त्वं": 4208,
      " मै": 4209,
      "कानि": 4210,
      "प्राण": 4211,
      "भागे": 4212,
      "202": 4213,
      "त्यर्थः": 4214,
      "षी": 4215,
      "ेकं": 4216,
      " एवम्": 4217,
      " शृणु": 4218,
      "तरं": 4219,
      " ज्या": 4220,
      "(ii": 4221,
      "नय": 4222,
      " मनः": 4223,
      " सोम": 4224,
      " एकं": 4225,
      " वय": 4226,
      " बन्ध": 4227,
      " लु": 4228,
      "ीयम्": 4229,
      "25": 4230,
      "विद्य": 4231,
      "ेदं": 4232,
      "विधा": 4233,
      "दृश्य": 4234,
      " *": 4235,
      "त्वाद": 4236,
      "ान्तं": 4237,
      "ग्ध": 4238,
      " किमपि": 4239,
      " अस्मा": 4240,
      " अन्व": 4241,
      "ण्ठ": 4242,
      "कारस्य": 4243,
      " प्रत्यक्ष": 4244,
      "Tag": 4245,
      "वाम": 4246,
      "मात्म": 4247,
      " समाचार": 4248,
      " शत्रु": 4249,
      "विंश": 4250,
      "द्द": 4251,
      "ाला": 4252,
      "्वल": 4253,
      " अहम्": 4254,
      "स्स": 4255,
      " कृतम्": 4256,
      " ब्रू": 4257,
      "ाप्य": 4258,
      "कारि": 4259,
      " खे": 4260,
      " दान": 4261,
      "ोर": 4262,
      " वः": 4263,
      " स्थि": 4264,
      "धारण": 4265,
      " कति": 4266,
      "राणां": 4267,
      "ाःगु": 4268,
      "he": 4269,
      "वाक्य": 4270,
      " प्रो": 4271,
      " याये": 4272,
      "ाय्": 4273,
      "वादः": 4274,
      "र्यं": 4275,
      " गा": 4276,
      " रोच": 4277,
      "स्थि": 4278,
      " समर्प": 4279,
      "सूत्र": 4280,
      "डी": 4281,
      "प्रती": 4282,
      "शब्दः": 4283,
      "निश्च": 4284,
      "निमित्त": 4285,
      "दिनं": 4286,
      " ध्यान": 4287,
      " वर्ग": 4288,
      "क्स": 4289,
      " द्वितीय": 4290,
      "तिष्ठ": 4291,
      "ायत": 4292,
      "स्त्य": 4293,
      " मनुष्य": 4294,
      "अग्नि": 4295,
      "शुभ": 4296,
      " प्रया": 4297,
      "याव": 4298,
      " कुत्र": 4299,
      "क्रि": 4300,
      "जान": 4301,
      "यव": 4302,
      " जलं": 4303,
      "ष्ट्रिय": 4304,
      "देशस्य": 4305,
      "भोग": 4306,
      "दिव": 4307,
      "ङ्के": 4308,
      "ट्ट": 4309,
      "स्त्रि": 4310,
      " कृतः": 4311,
      " केन्द्र": 4312,
      "मन्त्री": 4313,
      "्रु": 4314,
      "दानी": 4315,
      " अधिकार": 4316,
      "il": 4317,
      "राय": 4318,
      " नृप": 4319,
      "वचन": 4320,
      " ज्योति": 4321,
      "कुर्व": 4322,
      ";\n": 4323,
      " धनं": 4324,
      " घोष": 4325,
      "कट": 4326,
      "ing": 4327,
      "ce": 4328,
      "गू": 4329,
      "धातु": 4330,
      "्येण": 4331,
      "लव": 4332,
      "त्थ": 4333,
      " मी": 4334,
      "तथापि": 4335,
      "शरी": 4336,
      "ग्न": 4337,
      "इदानीं": 4338,
      "तिक": 4339,
      "ितौ": 4340,
      "द्धा": 4341,
      "ग्राह": 4342,
      " कश्चित्": 4343,
      "सम्बन्ध": 4344,
      "-आ": 4345,
      "२९": 4346,
      "संज्ञ": 4347,
      "श्री": 4348,
      " हित": 4349,
      "ाले": 4350,
      "स्थितः": 4351,
      "vi": 4352,
      " अङ्ग": 4353,
      "माज": 4354,
      "रोग": 4355,
      "कालं": 4356,
      " कदाचित्": 4357,
      "चेत": 4358,
      "धानं": 4359,
      " प्राय": 4360,
      " आसन्": 4361,
      " निवेद": 4362,
      "ौक": 4363,
      "ाद्व": 4364,
      " देहि": 4365,
      "पत": 4366,
      "विज्ञान": 4367,
      " दृढ": 4368,
      " वह": 4369,
      "ध्यायः": 4370,
      "यज्ञ": 4371,
      "कृतः": 4372,
      "ानुसार": 4373,
      "वयं": 4374,
      "श्यं": 4375,
      " तस्मिन्": 4376,
      " कर्त्त": 4377,
      " गृही": 4378,
      " भारतस्य": 4379,
      "४०": 4380,
      " प्रश": 4381,
      "क्ष्": 4382,
      "जात": 4383,
      " सङ्ग": 4384,
      "भिन्न": 4385,
      " अव्य": 4386,
      "स्तत्र": 4387,
      "भाग्य": 4388,
      "कैः": 4389,
      "हेतु": 4390,
      "दित्य": 4391,
      "200": 4392,
      " जातः": 4393,
      "ex": 4394,
      "स्तव": 4395,
      "स्यते": 4396,
      " सम्प्र": 4397,
      " शिव": 4398,
      " तिथि": 4399,
      " $": 4400,
      " विज्ञान": 4401,
      " पुण्य": 4402,
      " दिने": 4403,
      "भयं": 4404,
      "रव": 4405,
      "सङ्ग": 4406,
      " मत्": 4407,
      " साह": 4408,
      "क्ल": 4409,
      "अन्व": 4410,
      "ew": 4411,
      " कोऽपि": 4412,
      "स्ताव": 4413,
      "ादिति": 4414,
      " बृह": 4415,
      " धन्य": 4416,
      "पदे": 4417,
      "तस्मात्": 4418,
      " सृष्ट": 4419,
      " तत्त": 4420,
      "राम": 4421,
      " सां": 4422,
      " अयम्": 4423,
      "नुव": 4424,
      " क्रम": 4425,
      " अध्ययन": 4426,
      "अनेन": 4427,
      " अर्थः": 4428,
      "पतिः": 4429,
      "लक्ष": 4430,
      " मण्ड": 4431,
      "िकम्": 4432,
      " देवाः": 4433,
      "र्भव": 4434,
      "सिं": 4435,
      "ुर": 4436,
      " मन्त": 4437,
      " दै": 4438,
      "क्ता": 4439,
      "काय": 4440,
      "ृति": 4441,
      "यामास": 4442,
      " इत्यु": 4443,
      " स्वयम्": 4444,
      "ोऽहं": 4445,
      "रवरी": 4446,
      "ह्व": 4447,
      " गते": 4448,
      "ृतीय": 4449,
      " प्रथमं": 4450,
      "ञ्छ": 4451,
      " रुपये": 4452,
      " >": 4453,
      "क्षेप": 4454,
      " देह": 4455,
      "ूह": 4456,
      " सत": 4457,
      " चक्र": 4458,
      " शान्त": 4459,
      " यूयं": 4460,
      "मित्र": 4461,
      " शै": 4462,
      "भूमि": 4463,
      "नतः": 4464,
      "रत": 4465,
      "हन": 4466,
      "न्नं": 4467,
      " देवता": 4468,
      "स्त्वं": 4469,
      " प्रतिशत": 4470,
      "मित": 4471,
      "ासी": 4472,
      " पृथिव्या": 4473,
      "ab": 4474,
      " l": 4475,
      " वित्त": 4476,
      "राग": 4477,
      " द्वे": 4478,
      "श्रेष्ठ": 4479,
      "भारत": 4480,
      "तप": 4481,
      " बहू": 4482,
      " परे": 4483,
      " प्रतिष्ठ": 4484,
      " प्रभ": 4485,
      "येत": 4486,
      "21": 4487,
      " लिङ्ग": 4488,
      " टि": 4489,
      "प्रश्न": 4490,
      ":\n": 4491,
      " ख्या": 4492,
      " राज्यं": 4493,
      " शास": 4494,
      "ब्रवी": 4495,
      "राणि": 4496,
      "द्यः": 4497,
      "द्विती": 4498,
      " व्यवहार": 4499,
      " देवानां": 4500,
      " सूच": 4501,
      "स्मिन्न": 4502,
      " ठ": 4503,
      "णु": 4504,
      "ाद्": 4505,
      " विस्म": 4506,
      "क्षणं": 4507,
      "वर्ग": 4508,
      " कर्ण": 4509,
      "त्री": 4510,
      " करोमि": 4511,
      "अर्थ": 4512,
      " मुनि": 4513,
      "(ग": 4514,
      "षो": 4515,
      "स्ती": 4516,
      "नीं": 4517,
      "बन्धि": 4518,
      "दिना": 4519,
      "धाय": 4520,
      "ोक्तं": 4521,
      " सुखं": 4522,
      " पृथिवी": 4523,
      "24": 4524,
      "थ्या": 4525,
      " प्रतिपाद": 4526,
      "भाषण": 4527,
      " शीत": 4528,
      "विष्ट": 4529,
      " मन्य": 4530,
      "नेह": 4531,
      "न्दो": 4532,
      " स्तो": 4533,
      " o": 4534,
      "अथा": 4535,
      "षं": 4536,
      " पत": 4537,
      "उत्तर": 4538,
      "शू": 4539,
      " V": 4540,
      "टु": 4541,
      "दानं": 4542,
      "मात्रं": 4543,
      "श्चैव": 4544,
      "'\n": 4545,
      "वण": 4546,
      " पं": 4547,
      " अक्ष": 4548,
      "्रे": 4549,
      " माम": 4550,
      "ज्या": 4551,
      " वने": 4552,
      " किल": 4553,
      "ार्थं": 4554,
      "युद्ध": 4555,
      "ब्रह्म": 4556,
      "यनं": 4557,
      "३१": 4558,
      " प्रयोज": 4559,
      "विः": 4560,
      " स्थाने": 4561,
      "यद्यपि": 4562,
      "एका": 4563,
      " पदं": 4564,
      " तावत्": 4565,
      "माया": 4566,
      " हा": 4567,
      "-वि": 4568,
      "तार": 4569,
      "सस्य": 4570,
      " सत्": 4571,
      " नेवाः": 4572,
      " निज": 4573,
      "दात्त": 4574,
      "मेत": 4575,
      "समये": 4576,
      "(ख": 4577,
      "et": 4578,
      " चेत": 4579,
      "च्छा": 4580,
      "पुस्त": 4581,
      " परिणाम": 4582,
      "(क": 4583,
      "सति": 4584,
      "ीकरण": 4585,
      "ांश": 4586,
      " इदम्": 4587,
      "नात": 4588,
      "\"।\n": 4589,
      "-'": 4590,
      " ह्र": 4591,
      " गृह्": 4592,
      "पर्व": 4593,
      "ूं": 4594,
      "ाम्य": 4595,
      " रम": 4596,
      "कुल": 4597,
      " छुं": 4598,
      "पीडिया": 4599,
      " ग्राह": 4600,
      " पुरुषः": 4601,
      " वचनं": 4602,
      "भ्यं": 4603,
      "कर्ण": 4604,
      "सत्य": 4605,
      " विश्ल": 4606,
      "धिष्ठ": 4607,
      "भावात्": 4608,
      "संस्कृत": 4609,
      "पश्य": 4610,
      "म्ना": 4611,
      " मत": 4612,
      "त्तम": 4613,
      "थो": 4614,
      "रित": 4615,
      " धर्मा": 4616,
      " स्वतन्त्र": 4617,
      "दैव": 4618,
      " पाव": 4619,
      "ालि": 4620,
      " दिना": 4621,
      " भय": 4622,
      " संस्था": 4623,
      "मुख्य": 4624,
      "खण्ड": 4625,
      "क्षते": 4626,
      " &": 4627,
      "दम": 4628,
      " अनि": 4629,
      "ाहा": 4630,
      "करोत्": 4631,
      "३३": 4632,
      "रात्": 4633,
      "ग्रहः": 4634,
      " प्रदर्श": 4635,
      " व्यक्ति": 4636,
      "यॊ": 4637,
      " प्रशिक्षण": 4638,
      "कथा": 4639,
      " नम": 4640,
      " रात्रौ": 4641,
      " जानाति": 4642,
      "पक्षे": 4643,
      " वित": 4644,
      "माव": 4645,
      " स्त्रियां": 4646,
      " सम्भव": 4647,
      "द्वारा": 4648,
      " कृष्ण": 4649,
      "SS": 4650,
      "अधिकतम": 4651,
      "भिर": 4652,
      "त्येव": 4653,
      "हीं": 4654,
      " निवेश": 4655,
      " कालः": 4656,
      "पाः": 4657,
      "सन": 4658,
      "सै": 4659,
      " मूर्": 4660,
      "यतु": 4661,
      "कारे": 4662,
      "ादीनां": 4663,
      "ay": 4664,
      "सव": 4665,
      "विव": 4666,
      " देवी": 4667,
      "दिने": 4668,
      " शब्दः": 4669,
      "्यताम्": 4670,
      "ष्टे": 4671,
      " कुश": 4672,
      " स्थानं": 4673,
      " कर्तव्य": 4674,
      " R": 4675,
      " →": 4676,
      " सन्त": 4677,
      " जाय": 4678,
      "रणम्": 4679,
      " महोद": 4680,
      "प्ति": 4681,
      " प्राप्ते": 4682,
      "गल": 4683,
      " प्रयुक्त": 4684,
      " सर्वाणि": 4685,
      " तस्मात्": 4686,
      " वार्त": 4687,
      "ानः": 4688,
      " दो": 4689,
      "नगर": 4690,
      "मै": 4691,
      "ारम्भ": 4692,
      " ...\n": 4693,
      "भूव": 4694,
      " E": 4695,
      "यन्त": 4696,
      "रौ": 4697,
      " //": 4698,
      " कन्या": 4699,
      "ादेव": 4700,
      "िकल्प": 4701,
      " कीदृश": 4702,
      "चक्र": 4703,
      "टक": 4704,
      "मिच्छ": 4705,
      " क्ल": 4706,
      "गता": 4707,
      "स्तदा": 4708,
      "परः": 4709,
      " मृत्यु": 4710,
      " O": 4711,
      "(घ": 4712,
      " भर्त": 4713,
      " कथम्": 4714,
      " शीघ्रं": 4715,
      "हम": 4716,
      " परमं": 4717,
      "मानु": 4718,
      " दिवस": 4719,
      " G": 4720,
      "लन": 4721,
      " तम्": 4722,
      " प्री": 4723,
      " कृपया": 4724,
      " गृहं": 4725,
      " भवता": 4726,
      "ख्यान": 4727,
      " अनेक": 4728,
      "तायाः": 4729,
      "कालः": 4730,
      "करं": 4731,
      "ृतः": 4732,
      "कार्यं": 4733,
      "प्तं": 4734,
      " अधिकतम": 4735,
      "खु": 4736,
      "बर": 4737,
      "निष्": 4738,
      " महत्": 4739,
      "विक": 4740,
      "र्हति": 4741,
      "ाह्मण": 4742,
      " तः": 4743,
      "ात्मा": 4744,
      " जाता": 4745,
      "उच्च": 4746,
      " अष्ट": 4747,
      "निष्ठ": 4748,
      "किन्तु": 4749,
      "दयः": 4750,
      "बे": 4751,
      "ितम": 4752,
      " स्वरूप": 4753,
      " द्वौ": 4754,
      " विशिष्ट": 4755,
      " अथवा": 4756,
      " सत्यं": 4757,
      " साक्षात्": 4758,
      "ामी": 4759,
      "क्या": 4760,
      " देवि": 4761,
      "ग्रहणं": 4762,
      " दुर्लभ": 4763,
      " अनेन": 4764,
      "गुणं": 4765,
      " दिव्य": 4766,
      "गृहे": 4767,
      " क्रि": 4768,
      "रोप": 4769,
      "ns": 4770,
      "याय": 4771,
      "कारो": 4772,
      "ेषा": 4773,
      " व्यक्त": 4774,
      " कर्ता": 4775,
      " शिक्ष": 4776,
      "दय": 4777,
      "ल्या": 4778,
      "३२": 4779,
      "योक्त": 4780,
      " त्यक्त": 4781,
      " कुर्यात्": 4782,
      "ग्व": 4783,
      " भवतु": 4784,
      " श्रू": 4785,
      "महा": 4786,
      " पदे": 4787,
      "पीड": 4788,
      " जूगु": 4789,
      " स्र": 4790,
      "म्प": 4791,
      "विचार": 4792,
      "ापे": 4793,
      "-प्र": 4794,
      "ot": 4795,
      "करः": 4796,
      "वादि": 4797,
      " विन": 4798,
      " प्रोक्तं": 4799,
      "र्थो": 4800,
      " धू": 4801,
      "भिर्": 4802,
      "मत्": 4803,
      " विर": 4804,
      " श्रो": 4805,
      "ख्ये": 4806,
      " प्रत्यय": 4807,
      "ीनां": 4808,
      "....": 4809,
      "िन": 4810,
      "नीति": 4811,
      " तया": 4812,
      "निय": 4813,
      "इयं": 4814,
      "नैः": 4815,
      " भयं": 4816,
      "निर": 4817,
      " स्वभाव": 4818,
      " कृतवान्": 4819,
      " नगर": 4820,
      "स्थं": 4821,
      "ण्या": 4822,
      "पौ": 4823,
      "क्रमः": 4824,
      "इत्युक्त": 4825,
      "23": 4826,
      "स्यति": 4827,
      "कृत्": 4828,
      " शेषः": 4829,
      "च्या": 4830,
      " राम": 4831,
      " राक्ष": 4832,
      "यिष्यामि": 4833,
      "ज़": 4834,
      "जाः": 4835,
      "राज्य": 4836,
      "कृतम्": 4837,
      "शब्दे": 4838,
      " लभते": 4839,
      " चेति": 4840,
      "ाली": 4841,
      "देशं": 4842,
      " ज्ञे": 4843,
      " प्रश्न": 4844,
      "ितानां": 4845,
      "ध्याय": 4846,
      "...\n": 4847,
      "र्जन": 4848,
      " बाध": 4849,
      "एषा": 4850,
      "ुत": 4851,
      " स्फु": 4852,
      " चर": 4853,
      " विधीयते": 4854,
      "दक्षिण": 4855,
      "भं": 4856,
      "क्षी": 4857,
      " शरीर": 4858,
      "ैत": 4859,
      " कू": 4860,
      " मानु": 4861,
      " जुइ": 4862,
      "्येष्ठ": 4863,
      "लयः": 4864,
      " एषा": 4865,
      "भूतं": 4866,
      "णाति": 4867,
      " स्पष्ट": 4868,
      " धातु": 4869,
      "धीयते": 4870,
      " वह्": 4871,
      " तादृश": 4872,
      "सूर्य": 4873,
      "नाद": 4874,
      "गते": 4875,
      " अश्व": 4876,
      "ामः": 4877,
      " संप्र": 4878,
      "स्वी": 4879,
      "चाल": 4880,
      " तस्याः": 4881,
      " भोग": 4882,
      " पूर": 4883,
      " फरवरी": 4884,
      " तृ": 4885,
      "ान्तरे": 4886,
      " न्ह": 4887,
      "शब्देन": 4888,
      " पाठः": 4889,
      "27": 4890,
      "चल": 4891,
      "नादि": 4892,
      "र्थी": 4893,
      "इन्द्र": 4894,
      " सोऽ": 4895,
      " गन्ध": 4896,
      "ol": 4897,
      " पूजा": 4898,
      "देशी": 4899,
      " सम्भवति": 4900,
      " कर्मा": 4901,
      " यश": 4902,
      "चिद्": 4903,
      " भेदः": 4904,
      " कं": 4905,
      " अज": 4906,
      " उपरि": 4907,
      " समास": 4908,
      "चीन": 4909,
      "कां": 4910,
      "तस्या": 4911,
      "ेह": 4912,
      " लब्ध": 4913,
      "भास": 4914,
      " स्थितः": 4915,
      "प्स": 4916,
      " प्रथमा": 4917,
      "ेशः": 4918,
      " रथ": 4919,
      "सूचना": 4920,
      "प्रत्ययः": 4921,
      " F": 4922,
      " धि": 4923,
      " तिष्ठति": 4924,
      " अमेरिका": 4925,
      " पृष्ट": 4926,
      " गोप": 4927,
      " कुतः": 4928,
      "चं": 4929,
      "ैर्य": 4930,
      "प्रमाण": 4931,
      " गाय": 4932,
      "रिष्ठ": 4933,
      "संभव": 4934,
      "मेति": 4935,
      " स्थिति": 4936,
      "लङ्": 4937,
      " दुष्": 4938,
      "वद्": 4939,
      "वारं": 4940,
      "उपयोग": 4941,
      "लेन": 4942,
      "ान्या": 4943,
      "स्तो": 4944,
      " ददाति": 4945,
      "मनो": 4946,
      " समाज": 4947,
      "गतम्": 4948,
      " निर्मा": 4949,
      "व्यक्त": 4950,
      "ष्यन्ति": 4951,
      " कथ्यते": 4952,
      " न्याय": 4953,
      "us": 4954,
      "्वे": 4955,
      "ज्ञात": 4956,
      "दीर्घ": 4957,
      " पुरस्": 4958,
      "उदाहरण": 4959,
      "तमः": 4960,
      "स्वप्": 4961,
      "स्ततः": 4962,
      "ङ्गु": 4963,
      " प्रिय": 4964,
      " प्रायः": 4965,
      "कृष्ट": 4966,
      "el": 4967,
      "द्वार": 4968,
      " #": 4969,
      " नरः": 4970,
      " प्रकृत": 4971,
      " दर्शयति": 4972,
      " समय": 4973,
      "गमन": 4974,
      "समुद्र": 4975,
      " क्षि": 4976,
      " बहुधा": 4977,
      "षेधः": 4978,
      "ङ्ग्ल": 4979,
      "माजिक": 4980,
      "शतं": 4981,
      "ेषाम्": 4982,
      "न्यः": 4983,
      "ातन्त्र": 4984,
      " सदस्य": 4985,
      " प्राणि": 4986,
      "३६": 4987,
      " नदी": 4988,
      " विश": 4989,
      " ब्रह्": 4990,
      " जानामि": 4991,
      "26": 4992,
      "लब्": 4993,
      " सृ": 4994,
      " मौ": 4995,
      "ादु": 4996,
      "योर्": 4997,
      " निमित्त": 4998,
      "ृताः": 4999,
      "ग्री": 5000,
      "भूत्": 5001,
      " सम्पाद": 5002,
      " में": 5003,
      " क्रोध": 5004,
      "न्यं": 5005,
      "करोति": 5006,
      "केवलं": 5007,
      "पत्य": 5008,
      " पशु": 5009,
      "न्ता": 5010,
      " खँ": 5011,
      " a": 5012,
      " तदु": 5013,
      " रक्त": 5014,
      "टं": 5015,
      "ैवा": 5016,
      " अं": 5017,
      " यौ": 5018,
      "न्द्रिय": 5019,
      " सत्त्व": 5020,
      "id": 5021,
      " सञ्च": 5022,
      "खं": 5023,
      "च्वं": 5024,
      "माता": 5025,
      " महत्व": 5026,
      " न्यू": 5027,
      " चक्षु": 5028,
      "३५": 5029,
      " हरे": 5030,
      "कता": 5031,
      "हति": 5032,
      "संश": 5033,
      " शिक्षा": 5034,
      "न्तम्": 5035,
      " स्त्रि": 5036,
      "लब्ध": 5037,
      "्याम": 5038,
      "ादे": 5039,
      " संस्थ": 5040,
      " रात्रि": 5041,
      "50": 5042,
      "इत": 5043,
      "ित्वं": 5044,
      " प्रवृत्त": 5045,
      "ेनैव": 5046,
      "िकां": 5047,
      " आकाश": 5048,
      "न्यो": 5049,
      " कुल": 5050,
      " पत्": 5051,
      "ितु": 5052,
      " भज": 5053,
      "चन्द्र": 5054,
      "विकल्प": 5055,
      "धिकं": 5056,
      " परिभाषा": 5057,
      " सम्पूर्ण": 5058,
      "वादी": 5059,
      "शील": 5060,
      "रां": 5061,
      " अस्म": 5062,
      "वासि": 5063,
      "22": 5064,
      "लयं": 5065,
      "चिद": 5066,
      " कर्तव्यं": 5067,
      " वृद्धि": 5068,
      "आत्म": 5069,
      "धर्मा": 5070,
      "स्वभाव": 5071,
      "४५": 5072,
      "द्भु": 5073,
      "पर्या": 5074,
      "व्यवहार": 5075,
      " परस्पर": 5076,
      "वित्त": 5077,
      " उद्य": 5078,
      "लक्षणं": 5079,
      " करिष्यामि": 5080,
      "३७": 5081,
      " भक्ति": 5082,
      " विधान": 5083,
      " निवर्त": 5084,
      " उत्पाद": 5085,
      "नू": 5086,
      "यतो": 5087,
      "ाभि": 5088,
      "ॄणां": 5089,
      " पो": 5090,
      "विशिष्ट": 5091,
      "त्यु": 5092,
      "अतो": 5093,
      " चिकित्": 5094,
      "पत्तिः": 5095,
      " नेपाल": 5096,
      "राव": 5097,
      "स्थे": 5098,
      "बन्धः": 5099,
      "03": 5100,
      "खः": 5101,
      "नानं": 5102,
      " तर": 5103,
      " एषः": 5104,
      " मन्यते": 5105,
      " भ्रम": 5106,
      "ख्यं": 5107,
      "सभा": 5108,
      " तद्वि": 5109,
      " पार्श्व": 5110,
      "आई": 5111,
      "ार्त": 5112,
      "करणम्": 5113,
      "ज्र": 5114,
      " प्रजा": 5115,
      " दुःखं": 5116,
      "द्यते": 5117,
      "मभि": 5118,
      " इदानीं": 5119,
      " संभव": 5120,
      " ज्ञात": 5121,
      " निक": 5122,
      "ारण": 5123,
      " इं": 5124,
      "मानो": 5125,
      " पीड": 5126,
      "शाला": 5127,
      "स्तीति": 5128,
      "त्याह": 5129,
      " सिध्य": 5130,
      " पिब": 5131,
      " शोभ": 5132,
      "धू": 5133,
      "िनी": 5134,
      " प्रवर्तते": 5135,
      " धारा": 5136,
      " कथितं": 5137,
      "कीर्त": 5138,
      " सम्यक्": 5139,
      "ीन": 5140,
      "समी": 5141,
      "र्जु": 5142,
      " प्रयोगः": 5143,
      "रिद्र": 5144,
      " सर्वेषु": 5145,
      " पार्थि": 5146,
      "भारतीय": 5147,
      " वक्तव्यम्": 5148,
      "वर्ध": 5149,
      "र्ट": 5150,
      "विना": 5151,
      "प्रायः": 5152,
      "क्ते": 5153,
      "सत्": 5154,
      "ऽहं": 5155,
      " शस्त्र": 5156,
      "विस्त": 5157,
      "यद्": 5158,
      " उत्स": 5159,
      " रोचते": 5160,
      " अस्मि": 5161,
      "धोलिख": 5162,
      "प्रभ": 5163,
      "ग्रहण": 5164,
      " थः": 5165,
      "योर": 5166,
      "मिह": 5167,
      " सदैव": 5168,
      "Ans": 5169,
      "रत्": 5170,
      " प्रेष": 5171,
      " युष्मा": 5172,
      " गन्त": 5173,
      " गर्भ": 5174,
      " युव": 5175,
      " to": 5176,
      "मर्श": 5177,
      " शं": 5178,
      " गमि": 5179,
      "भाति": 5180,
      " माया": 5181,
      "देवं": 5182,
      " वदति": 5183,
      " मातृ": 5184,
      "थाः": 5185,
      " समस्त": 5186,
      " थ्व": 5187,
      "योजना": 5188,
      " तस्मै": 5189,
      "प्रदेश": 5190,
      "ल्ली": 5191,
      "ासः": 5192,
      " विश्लेषण": 5193,
      " कला": 5194,
      "तुम्": 5195,
      "ज्ञे": 5196,
      " देवः": 5197,
      "मात्रेण": 5198,
      " w": 5199,
      " तेषु": 5200,
      "सम्भव": 5201,
      "२०७": 5202,
      " पुत्रः": 5203,
      "ec": 5204,
      "पते": 5205,
      " चु": 5206,
      "मादि": 5207,
      " इतिहास": 5208,
      "गाः": 5209,
      "तमे": 5210,
      "महो": 5211,
      "वीं": 5212,
      " व्रज": 5213,
      " अप्र": 5214,
      "आर": 5215,
      "परीत": 5216,
      "विधं": 5217,
      " इत्यादिना": 5218,
      " न्याया": 5219,
      "कला": 5220,
      "षध": 5221,
      " कीर्त": 5222,
      "मतः": 5223,
      " प्रयु": 5224,
      " प्रदेश": 5225,
      "प्रवेश": 5226,
      " मानव": 5227,
      " दोषः": 5228,
      "अह": 5229,
      "फ्": 5230,
      "शङ्क": 5231,
      " विमान": 5232,
      " बो": 5233,
      " भिन्न": 5234,
      "केवल": 5235,
      " प्राह": 5236,
      "पुं": 5237,
      "रीं": 5238,
      "दुर्": 5239,
      "्यति": 5240,
      " तानि": 5241,
      "त्याः": 5242,
      "भूता": 5243,
      "पास": 5244,
      "ापि": 5245,
      "कार्या": 5246,
      " कुरुते": 5247,
      " किञ्चि": 5248,
      " टिप्प": 5249,
      "नाया": 5250,
      " उपा": 5251,
      "मद": 5252,
      " कव": 5253,
      " तान्": 5254,
      " इत्याह": 5255,
      "तै": 5256,
      "तानां": 5257,
      "विर": 5258,
      "सुर": 5259,
      "ण्यं": 5260,
      " दद्या": 5261,
      " विवे": 5262,
      "क्षित": 5263,
      " आप": 5264,
      "ेते": 5265,
      "रणः": 5266,
      "ेश्वर": 5267,
      "एषः": 5268,
      "धाव": 5269,
      "पय": 5270,
      " ज्ञायते": 5271,
      " प्रजाप": 5272,
      " विकिपीडिया": 5273,
      "तत्त्व": 5274,
      "पान": 5275,
      "ाद्ध": 5276,
      " तुल": 5277,
      "ण्ट": 5278,
      " स्थित": 5279,
      " युग": 5280,
      " अतीव": 5281,
      "चु": 5282,
      "ढ़": 5283,
      "माश्र": 5284,
      "भवन्": 5285,
      "ष्टो": 5286,
      "व्यति": 5287,
      " नाश": 5288,
      "दूर": 5289,
      " कश्चन": 5290,
      "द्म": 5291,
      " धीम": 5292,
      " योजना": 5293,
      "्यू": 5294,
      " तन्": 5295,
      "ामु": 5296,
      "मेक": 5297,
      " समये": 5298,
      "भावेन": 5299,
      "अहो": 5300,
      " मरु": 5301,
      "न्तरे": 5302,
      " निरूप": 5303,
      " उत": 5304,
      " त्वम्": 5305,
      " व्यवसाय": 5306,
      " कर्मणि": 5307,
      "न्ये": 5308,
      "लाय": 5309,
      " पात": 5310,
      " वत्स": 5311,
      " अन्यथा": 5312,
      "हरि": 5313,
      "ोड": 5314,
      " यम": 5315,
      " चत्व": 5316,
      " आश्र": 5317,
      " आचार": 5318,
      "र्थिक": 5319,
      " नाट": 5320,
      " कर्तव्यम्": 5321,
      "भ्याम्": 5322,
      "यथ": 5323,
      "रथ": 5324,
      "थ्व": 5325,
      "क्षर": 5326,
      "लोक्य": 5327,
      " कार्यम्": 5328,
      " भगवान": 5329,
      "क्रमण": 5330,
      "पथ": 5331,
      "रिक्ष": 5332,
      "भारः": 5333,
      " प्रतीयते": 5334,
      "दत्": 5335,
      " इयं": 5336,
      " हु": 5337,
      " टी": 5338,
      "र्नि": 5339,
      " इत्य्": 5340,
      " पराज": 5341,
      " पुष्प": 5342,
      "व्यक्ति": 5343,
      " हृदि": 5344,
      " ङीप्": 5345,
      "४४": 5346,
      " केश": 5347,
      "र्मि": 5348,
      "्यादि": 5349,
      "राजा": 5350,
      "तीं": 5351,
      "स्थिति": 5352,
      " खाद": 5353,
      " धर्मः": 5354,
      " लाख": 5355,
      " पेपर": 5356,
      "धौ": 5357,
      " नृत्य": 5358,
      "ज्ञां": 5359,
      "वत": 5360,
      " वयम्": 5361,
      " ताप": 5362,
      "ादयः": 5363,
      " स्वाहा": 5364,
      " प्रत्येकं": 5365,
      "नार": 5366,
      " अग": 5367,
      " माम्": 5368,
      " नोप": 5369,
      " प्रभा": 5370,
      "नुवन्ति": 5371,
      "एतेन": 5372,
      "कान": 5373,
      " अभ्या": 5374,
      " विरा": 5375,
      " लिखत": 5376,
      "28": 5377,
      "दण्ड": 5378,
      " नाय": 5379,
      "्येति": 5380,
      "प्या": 5381,
      "ौं": 5382,
      " पुरु": 5383,
      " उदाहरण": 5384,
      "क्षेत्रे": 5385,
      "_\n": 5386,
      "चरेत्": 5387,
      "प्यते": 5388,
      "साव": 5389,
      "ेत्य": 5390,
      " सय": 5391,
      " शक्तिः": 5392,
      " रज": 5393,
      " वाक्यं": 5394,
      "चितं": 5395,
      "दूष": 5396,
      "सत्त्व": 5397,
      " शाश्व": 5398,
      " हृदय": 5399,
      " पदार्थ": 5400,
      "नित्य": 5401,
      "पश्च": 5402,
      " प्रह": 5403,
      " बोध": 5404,
      " पर्या": 5405,
      "न्द्रिया": 5406,
      " किञ्चित्": 5407,
      " of": 5408,
      "ig": 5409,
      "एम": 5410,
      "चनं": 5411,
      " ममा": 5412,
      " च्": 5413,
      "याति": 5414,
      "रण्य": 5415,
      "ात्मक": 5416,
      "गन्ध": 5417,
      "क्ष्यते": 5418,
      "बुद्धि": 5419,
      "em": 5420,
      "महं": 5421,
      "संसार": 5422,
      "स्थः": 5423,
      "र्धं": 5424,
      "वय": 5425,
      "४१": 5426,
      " तू": 5427,
      "त्मानं": 5428,
      " धकाः": 5429,
      "कारा": 5430,
      " राजन्": 5431,
      "युक्तं": 5432,
      "प्रत्यय": 5433,
      " स्वप्न": 5434,
      "ध्वं": 5435,
      "भक्ति": 5436,
      "लिं": 5437,
      "रणा": 5438,
      "रेक": 5439,
      " खेल": 5440,
      "नर": 5441,
      "५५": 5442,
      "नीयं": 5443,
      "समन्व": 5444,
      " ग्रन्थ": 5445,
      "प्रसङ्ग": 5446,
      " प्रयोजनम्": 5447,
      " कान": 5448,
      " हृदयं": 5449,
      "तदु": 5450,
      " शर": 5451,
      "द्भव": 5452,
      " पुष्": 5453,
      "साम्": 5454,
      "ैवं": 5455,
      "वृक्ष": 5456,
      " पुनरा": 5457,
      " अने": 5458,
      " स्वं": 5459,
      " मनसि": 5460,
      "दति": 5461,
      " नारी": 5462,
      " ययौ": 5463,
      " विधे": 5464,
      " जे": 5465,
      "तीत्य": 5466,
      "शै": 5467,
      "सृष्ट": 5468,
      " पाण्ड": 5469,
      "स्तू": 5470,
      "निर्देश": 5471,
      " आगच्छ": 5472,
      " प्रविश": 5473,
      " काय": 5474,
      "ज्ञाप": 5475,
      "मित्या": 5476,
      "४७": 5477,
      " साव": 5478,
      "श्वर": 5479,
      " महान्": 5480,
      " मनसा": 5481,
      " प्ल": 5482,
      "ाल्": 5483,
      " पश्चात्": 5484,
      " कै": 5485,
      "अन्वयः": 5486,
      "ap": 5487,
      "ृद्ध": 5488,
      "काङ्": 5489,
      " दुर्ग": 5490,
      " यानाः": 5491,
      "02": 5492,
      "ासां": 5493,
      " संस्करण": 5494,
      " बहिः": 5495,
      "भोज": 5496,
      "८०": 5497,
      " अभ्य": 5498,
      " सुन्द": 5499,
      " क्षु": 5500,
      "परीक्षा": 5501,
      "ext": 5502,
      "xx": 5503,
      "पक": 5504,
      "हत": 5505,
      "ेभ्यः": 5506,
      "नात्म": 5507,
      "येति": 5508,
      "मानस्य": 5509,
      " कल्या": 5510,
      " सेवा": 5511,
      "मल": 5512,
      " मर्त": 5513,
      " निवृत्त": 5514,
      " विनाश": 5515,
      " शक्नोति": 5516,
      " वास": 5517,
      "रोधः": 5518,
      " छु": 5519,
      " सततं": 5520,
      " H": 5521,
      "गृहं": 5522,
      "थ्": 5523,
      "शत्र": 5524,
      "राध": 5525,
      "चितम्": 5526,
      " करिष्यति": 5527,
      "),": 5528,
      " अकरोत्": 5529,
      " वैश्व": 5530,
      "ादिषु": 5531,
      "स्रो": 5532,
      " विश्वं": 5533,
      "र्हसि": 5534,
      "तय्": 5535,
      "ृता": 5536,
      "निर्व": 5537,
      " लोप": 5538,
      " धु": 5539,
      "द्यथा": 5540,
      "रूपा": 5541,
      "प्रत्यक्ष": 5542,
      "पुरुषः": 5543,
      " ज्व": 5544,
      "प्रकृति": 5545,
      " दुष्ट": 5546,
      " वीर": 5547,
      "क्रीड": 5548,
      "ब्रवीत्": 5549,
      "ow": 5550,
      "जय": 5551,
      "ावा": 5552,
      " साधु": 5553,
      " ज्ञात्वा": 5554,
      "नानां": 5555,
      " प्रभो": 5556,
      "प्रभाव": 5557,
      " एस": 5558,
      "ालं": 5559,
      "ज्ञो": 5560,
      "्रियते": 5561,
      "दृशं": 5562,
      " कदाचन": 5563,
      "04": 5564,
      "्यन्ते": 5565,
      " यॊ": 5566,
      "नाहं": 5567,
      " ध्या": 5568,
      "त्यां": 5569,
      " दिश": 5570,
      "त्थं": 5571,
      "ांत": 5572,
      "स्वि": 5573,
      " भक्ष": 5574,
      " खोज": 5575,
      "क्रियते": 5576,
      "-\"": 5577,
      "यमा": 5578,
      "४९": 5579,
      " विरुद्ध": 5580,
      "दिश्य": 5581,
      " मुक्ति": 5582,
      "ation": 5583,
      " वचः": 5584,
      " पवित्र": 5585,
      "च्वंगु": 5586,
      "ितेन": 5587,
      "याद": 5588,
      "श्वरः": 5589,
      "१९९": 5590,
      "01": 5591,
      "ेनि": 5592,
      "श्यति": 5593,
      " स्मर": 5594,
      "पेक्षा": 5595,
      " कदापि": 5596,
      " ऽपि": 5597,
      "घात": 5598,
      "वश": 5599,
      "ें": 5600,
      "र्धा": 5601,
      " चो": 5602,
      "प्रण": 5603,
      "ान्ध": 5604,
      "द्यु": 5605,
      "ङ्गल": 5606,
      "लाभ": 5607,
      " जानी": 5608,
      " मोक्ष": 5609,
      " सार्व": 5610,
      "६०": 5611,
      " विक्र": 5612,
      "नाति": 5613,
      "स्पर्श": 5614,
      "पर्यन्तं": 5615,
      "िकार": 5616,
      "ष्टु": 5617,
      "वात्": 5618,
      "शिक्ष": 5619,
      " शक्नु": 5620,
      "मुत्": 5621,
      "न्दः": 5622,
      " द्वार": 5623,
      " प्रत्ययः": 5624,
      "ate": 5625,
      " तै": 5626,
      "क्क": 5627,
      "स्तेन": 5628,
      "नाथ": 5629,
      "त्त्र": 5630,
      " ध्वनि": 5631,
      " विष्णु": 5632,
      "्यै": 5633,
      " तृतीय": 5634,
      "युक्तः": 5635,
      "राज्यस्य": 5636,
      "पाय": 5637,
      "विकि": 5638,
      "निर्ण": 5639,
      "तुम": 5640,
      "केन्द्र": 5641,
      " शुक्र": 5642,
      " षड": 5643,
      "ेश्वरः": 5644,
      "ैरपि": 5645,
      " स्पर्श": 5646,
      "वति": 5647,
      " वं": 5648,
      " नान्य": 5649,
      " धाव": 5650,
      "येद्": 5651,
      " परः": 5652,
      " दिनाङ्के": 5653,
      "ep": 5654,
      "पश्चि": 5655,
      " आत्मा": 5656,
      "त्वमेव": 5657,
      " परिच": 5658,
      "रूपे": 5659,
      "व्याः": 5660,
      "३८": 5661,
      " तात": 5662,
      " प्रमुख": 5663,
      "माल": 5664,
      "हारः": 5665,
      " निर्वा": 5666,
      "द्यो": 5667,
      "गम्य": 5668,
      "र्दश": 5669,
      " उक्तम्": 5670,
      "बाध": 5671,
      "un": 5672,
      "कर्मा": 5673,
      "तीत": 5674,
      "मानम्": 5675,
      " क्षमा": 5676,
      " भारते": 5677,
      "गृह्य": 5678,
      " व्यवस्था": 5679,
      " समीक्षा": 5680,
      " त्यज": 5681,
      " अल्प": 5682,
      " स्वयमेव": 5683,
      "संयोग": 5684,
      "मेतत्": 5685,
      " सुवर्ण": 5686,
      "देवता": 5687,
      "निर्दिष्ट": 5688,
      " v": 5689,
      "जाप": 5690,
      "दै": 5691,
      "ृत्त": 5692,
      " गतिः": 5693,
      " भूत्वा": 5694,
      "(i": 5695,
      " सर्वतः": 5696,
      "धिप": 5697,
      " क्रीडा": 5698,
      "पीसी": 5699,
      "मन्त्रि": 5700,
      " वाद": 5701,
      "र्ड": 5702,
      " प्रीति": 5703,
      "प्रभा": 5704,
      " संवत्स": 5705,
      " प्रतिवेदन": 5706,
      "स्वयं": 5707,
      "३४": 5708,
      " वान": 5709,
      "स्ये": 5710,
      " आयु": 5711,
      " रक्षण": 5712,
      "कारी": 5713,
      "न्द्रि": 5714,
      "समाचार": 5715,
      "तृती": 5716,
      " अध": 5717,
      " कारणम्": 5718,
      " शरणं": 5719,
      "ताप": 5720,
      " सर्वभूत": 5721,
      "र्षिक": 5722,
      " द्रव्य": 5723,
      "नार्थं": 5724,
      " हय": 5725,
      " इत्यपि": 5726,
      "द्रो": 5727,
      "पितृ": 5728,
      "सभ": 5729,
      "३९": 5730,
      " यत्त": 5731,
      " विधिः": 5732,
      " स्नान": 5733,
      "कोई": 5734,
      " विशेषः": 5735,
      "कान्": 5736,
      "फ़": 5737,
      " अवि": 5738,
      " भर": 5739,
      " उवाच": 5740,
      "ान्तरं": 5741,
      "अष्ट": 5742,
      "गौ": 5743,
      "बो": 5744,
      "सन्द": 5745,
      "निवेश": 5746,
      "ग्रन्थ": 5747,
      "तमं": 5748,
      " तदेव": 5749,
      " कुर्य": 5750,
      "स्मिं": 5751,
      "द्यापि": 5752,
      "ञ्जन": 5753,
      " हृदये": 5754,
      "एकः": 5755,
      " सकल": 5756,
      "संख्य": 5757,
      "नीया": 5758,
      "श्मी": 5759,
      " ग्रन्": 5760,
      "अस्माकं": 5761,
      "ओं": 5762,
      "दन्त": 5763,
      "द्वयं": 5764,
      " वर्षाणि": 5765,
      " {": 5766,
      " बलं": 5767,
      "भूति": 5768,
      "ear": 5769,
      "ज्व": 5770,
      "ानेन": 5771,
      " (=": 5772,
      "भेदः": 5773,
      " यद्यपि": 5774,
      "थिः": 5775,
      "मानि": 5776,
      " जाग": 5777,
      "वचनम्": 5778,
      "29": 5779,
      "दित": 5780,
      " भद्र": 5781,
      "उत्तरः": 5782,
      "अन्ये": 5783,
      "्यावरण": 5784,
      "40": 5785,
      " समं": 5786,
      "ोपरि": 5787,
      " नवी": 5788,
      "ष्यसि": 5789,
      " मुद्र": 5790,
      " K": 5791,
      "ur": 5792,
      "हेत": 5793,
      "स्तत्": 5794,
      "क्ष्या": 5795,
      " एम": 5796,
      " आरम्": 5797,
      "साग": 5798,
      "किञ्च": 5799,
      " बहवः": 5800,
      "अधुना": 5801,
      "चिः": 5802,
      "४६": 5803,
      "मोह": 5804,
      " लभ्यते": 5805,
      "ूढ": 5806,
      " उन्न": 5807,
      "परन्तु": 5808,
      " कृष": 5809,
      "विशेषः": 5810,
      "अधि": 5811,
      "करि": 5812,
      "गर्भ": 5813,
      " आई": 5814,
      " परिवार": 5815,
      " श्रद्ध": 5816,
      " अनुकूल": 5817,
      "दीनां": 5818,
      "र्थात्": 5819,
      "चो": 5820,
      "तस्मिन्": 5821,
      "दन": 5822,
      "ैष": 5823,
      "रुणा": 5824,
      "शिव": 5825,
      " केवलम्": 5826,
      "प्रातः": 5827,
      "मधु": 5828,
      "व्ये": 5829,
      "वायु": 5830,
      "शौ": 5831,
      " नाव": 5832,
      "क्षत्र": 5833,
      " मात्र": 5834,
      " मन्त्रि": 5835,
      "समान": 5836,
      "्रुव": 5837,
      " तन्म": 5838,
      "क्रान्त": 5839,
      "परिवर्त": 5840,
      " व्यापार": 5841,
      " भगवन्": 5842,
      " ताम": 5843,
      " त्री": 5844,
      " मिल": 5845,
      " युद्धे": 5846,
      " सकलं": 5847,
      "डे": 5848,
      "वने": 5849,
      " जनः": 5850,
      " परो": 5851,
      "तुल": 5852,
      " प्रतिदिनं": 5853,
      "क्रमे": 5854,
      "उपयोगकर्ता": 5855,
      "शयः": 5856,
      "ितुम्": 5857,
      " उभय": 5858,
      " वक्तुं": 5859,
      "महि": 5860,
      "ताया": 5861,
      "व्यो": 5862,
      "and": 5863,
      " घोषणा": 5864,
      "ul": 5865,
      "ल्व": 5866,
      "४८": 5867,
      "नाभि": 5868,
      " नात्र": 5869,
      "जायते": 5870,
      " प्रकल्प": 5871,
      "मुत्त": 5872,
      "यिष्यति": 5873,
      "घ्न": 5874,
      "ir": 5875,
      "तमा": 5876,
      " येषां": 5877,
      "भाष्य": 5878,
      "स्थ्य": 5879,
      "श्रम": 5880,
      "विषयः": 5881,
      " वदन्ति": 5882,
      "ितस्य": 5883,
      " हं": 5884,
      "द्वै": 5885,
      "ह्न": 5886,
      "प्रसाद": 5887,
      "दिश्यते": 5888,
      "tr": 5889,
      "नैव": 5890,
      "मयं": 5891,
      " ही": 5892,
      "भावा": 5893,
      "धिकारिक": 5894,
      " वर्गः": 5895,
      " कर्म्म": 5896,
      " तेज": 5897,
      " स्मृतः": 5898,
      "-क": 5899,
      "य्य": 5900,
      " करे": 5901,
      " चेद": 5902,
      "द्वितीय": 5903,
      "ङ्गा": 5904,
      "प्तः": 5905,
      " वर्षा": 5906,
      "भारतस्य": 5907,
      "दर्शन": 5908,
      "वम्": 5909,
      "क्रमेण": 5910,
      " गिरि": 5911,
      "यानि": 5912,
      "सान": 5913,
      "प्ता": 5914,
      " उत्तम": 5915,
      " मूल्य": 5916,
      "पण": 5917,
      "लयस्य": 5918,
      " सन्ध": 5919,
      " एतद": 5920,
      " पुरो": 5921,
      "ापु": 5922,
      "ोऽस्ति": 5923,
      "क्ये": 5924,
      "न्यां": 5925,
      "यन्त्र": 5926,
      " विच": 5927,
      " निर्ध": 5928,
      "१००": 5929,
      "रज": 5930,
      "७०": 5931,
      " चाल": 5932,
      " गम्यते": 5933,
      "शब्दा": 5934,
      " सायं": 5935,
      "र्जा": 5936,
      " यानि": 5937,
      " शक्र": 5938,
      "थाय": 5939,
      "ेवा": 5940,
      "त्वया": 5941,
      " निर्देश": 5942,
      " समीपे": 5943,
      "अधोलिख": 5944,
      "टर": 5945,
      "िना": 5946,
      " --\n": 5947,
      "योग्य": 5948,
      " समुदाय": 5949,
      "पर्": 5950,
      " नहीं": 5951,
      "स्यैव": 5952,
      " धाः": 5953,
      " साधन": 5954,
      " क्षम": 5955,
      "धारा": 5956,
      "रात": 5957,
      " ग्री": 5958,
      "भावि": 5959,
      " देवं": 5960,
      " प्राधिकरण": 5961,
      "र्ध्व": 5962,
      "र्थाः": 5963,
      "केश": 5964,
      "४२": 5965,
      "क्तः": 5966,
      " यथार्थ": 5967,
      "व्यापार": 5968,
      " इत्येतद्": 5969,
      " म्": 5970,
      "SF": 5971,
      "॑ः": 5972,
      " साल": 5973,
      "क्षया": 5974,
      " भवतीति": 5975,
      " त्वयि": 5976,
      "मेवं": 5977,
      "इत्यादि": 5978,
      "दिक": 5979,
      " अन्ति": 5980,
      " याःगु": 5981,
      "विधिः": 5982,
      "निष": 5983,
      " निह": 5984,
      "ानुप": 5985,
      "मासस्य": 5986,
      " डि": 5987,
      "रिव": 5988,
      " स्वर्ण": 5989,
      " जाति": 5990,
      " प्रथमः": 5991,
      " क्रमेण": 5992,
      "सङ्ख्या": 5993,
      "05": 5994,
      "गेन": 5995,
      "पिता": 5996,
      "साः": 5997,
      "माप्": 5998,
      "मेकं": 5999,
      "ल्क": 6000,
      "ध्यक्ष": 6001,
      " क्ली": 6002,
      "तरा": 6003,
      " भौ": 6004,
      "शिया": 6005,
      " श्रूयते": 6006,
      "ut": 6007,
      "चरण": 6008,
      " वेत": 6009,
      " असि": 6010,
      " अस्तु": 6011,
      " दरिद्र": 6012,
      " भविष": 6013,
      "न्तरम्": 6014,
      "निर्म": 6015,
      "सेना": 6016,
      " जीवनं": 6017,
      " in": 6018,
      "--\n": 6019,
      "पन": 6020,
      " कठ": 6021,
      "तीव": 6022,
      " श्रुति": 6023,
      " एतद्": 6024,
      "ans": 6025,
      " तृतीया": 6026,
      "एतद": 6027,
      "५७": 6028,
      " वृष्ट": 6029,
      "तेति": 6030,
      " करोतु": 6031,
      "शब्दस्य": 6032,
      " J": 6033,
      "जनाः": 6034,
      "सन्त": 6035,
      " प्रभु": 6036,
      "ारूप": 6037,
      "विरोध": 6038,
      "श्चित्त": 6039,
      " समन्व": 6040,
      "ग्रा": 6041,
      " तेऽ": 6042,
      " खण्ड": 6043,
      " नाम्ना": 6044,
      "यितुम्": 6045,
      "प्रार्थ": 6046,
      "ङि": 6047,
      "शान्त": 6048,
      "्तते": 6049,
      "स्यं": 6050,
      " संसाधन": 6051,
      "ive": 6052,
      "-सं": 6053,
      "५९": 6054,
      " शृण": 6055,
      "ङ्का": 6056,
      "ङ्गं": 6057,
      " कर्तृ": 6058,
      "भगव": 6059,
      "जम्": 6060,
      "ेऽपि": 6061,
      " पच": 6062,
      " उभ": 6063,
      " रक्षा": 6064,
      " स्वतः": 6065,
      "द्रूप": 6066,
      "ामिति": 6067,
      " वर्धते": 6068,
      "कै": 6069,
      " मृत": 6070,
      "रात्म": 6071,
      "ाप्त": 6072,
      "मान्त": 6073,
      " प्रतिनि": 6074,
      " मेरे": 6075,
      " देशः": 6076,
      "कर्मणि": 6077,
      "खिल": 6078,
      " सिंह": 6079,
      "wer": 6080,
      " सामाजिक": 6081,
      " व्यायाम": 6082,
      " मृग": 6083,
      "07": 6084,
      "लिक": 6085,
      "ानो": 6086,
      " ज्येष्ठ": 6087,
      " मासे": 6088,
      " प्रचल": 6089,
      " तद्ध": 6090,
      " अधुना": 6091,
      " आः": 6092,
      " साध्य": 6093,
      "धुनिक": 6094,
      "सिद्धि": 6095,
      "गृह्": 6096,
      "पृथि": 6097,
      " महत्वपूर्ण": 6098,
      "मृत्य": 6099,
      "साद": 6100,
      " वचन": 6101,
      " तन्त्र": 6102,
      " अभ": 6103,
      " विभक्त": 6104,
      " समू": 6105,
      " कृषि": 6106,
      "ov": 6107,
      "बहि": 6108,
      "बध्यते": 6109,
      "मिक": 6110,
      " नौ": 6111,
      " मन्दि": 6112,
      " इच्छति": 6113,
      "देवा": 6114,
      " स्याद": 6115,
      "य्कः": 6116,
      "पन्नः": 6117,
      "श्चापि": 6118,
      "विंशति": 6119,
      " गृहीत्वा": 6120,
      " धन्यवाद": 6121,
      "ीया": 6122,
      "रामः": 6123,
      " स्ना": 6124,
      " प्रतियोग": 6125,
      "पदम्": 6126,
      "भेदेन": 6127,
      " साहित्य": 6128,
      " इत्युच्यते": 6129,
      "od": 6130,
      "ost": 6131,
      "आः": 6132,
      " भूप": 6133,
      "भवतः": 6134,
      " ज्ञाप": 6135,
      " विश्वविद्या": 6136,
      " क्षेत्रे": 6137,
      " मनुष्या": 6138,
      " भ्रात": 6139,
      "पठ": 6140,
      "परे": 6141,
      "कृपया": 6142,
      "भूतेषु": 6143,
      " ऑ": 6144,
      "II": 6145,
      "अस्ति": 6146,
      "णाः": 6147,
      "ध्यं": 6148,
      " तैः": 6149,
      " नीति": 6150,
      "द्भिः": 6151,
      " इत्यस्मात्": 6152,
      "जाति": 6153,
      "वर्षे": 6154,
      "ff": 6155,
      "कत्व": 6156,
      "कलं": 6157,
      "खो": 6158,
      "णस्य": 6159,
      "रीय": 6160,
      "हुः": 6161,
      "५२": 6162,
      " सभ": 6163,
      " संबं": 6164,
      "साध्य": 6165,
      "भवान्": 6166,
      " युगे": 6167,
      " g": 6168,
      "न्दा": 6169,
      "प्रयत्": 6170,
      " धया": 6171,
      " स्वे": 6172,
      "मुद": 6173,
      "ित्यर्थः": 6174,
      "चिदपि": 6175,
      "दीप": 6176,
      " प्रेम": 6177,
      " बाह्य": 6178,
      "यश्च": 6179,
      " अग्ने": 6180,
      "स्तद": 6181,
      "पचार": 6182,
      "विरुद्ध": 6183,
      " जले": 6184,
      " सर्वाः": 6185,
      "गुणा": 6186,
      " याच": 6187,
      " मन्ये": 6188,
      "पृथ": 6189,
      " U": 6190,
      " h": 6191,
      "च्यु": 6192,
      "धेन": 6193,
      " अपेक्ष": 6194,
      " मन्द": 6195,
      "विवे": 6196,
      " निरी": 6197,
      " परित्य": 6198,
      "धर": 6199,
      "म्र": 6200,
      "मेष": 6201,
      "यज": 6202,
      " नहि": 6203,
      " दर": 6204,
      "त्य्": 6205,
      "गृही": 6206,
      " मिथ्या": 6207,
      " मध्यम": 6208,
      " कर्माणि": 6209,
      "न्मा": 6210,
      "संबन्ध": 6211,
      "कृष्ण": 6212,
      "हूर्त": 6213,
      "व्यवस्था": 6214,
      " यन्त्र": 6215,
      " विदु": 6216,
      "प्रयोज": 6217,
      " आनन्द": 6218,
      " राजनि": 6219,
      "परिणाम": 6220,
      "वेदना": 6221,
      "ानम्": 6222,
      " ताः": 6223,
      " तवा": 6224,
      "श्रय": 6225,
      "कम्ः": 6226,
      "लभ्यते": 6227,
      "ac": 6228,
      "ter": 6229,
      " पित्र": 6230,
      " देशस्य": 6231,
      " रुद्र": 6232,
      "35": 6233,
      " प्रकार": 6234,
      "विष्ण": 6235,
      "र्षे": 6236,
      "भावो": 6237,
      "पीठ": 6238,
      " अवदत्": 6239,
      "ुक्तं": 6240,
      " प्रधानमन्त्री": 6241,
      " भोजन": 6242,
      "लय्": 6243,
      " च्व": 6244,
      "ेशे": 6245,
      "च्छ्र": 6246,
      "स्वं": 6247,
      " स्थितम्": 6248,
      " दूरे": 6249,
      " क्षी": 6250,
      " हेतुः": 6251,
      " पिताम": 6252,
      " था": 6253,
      "एं": 6254,
      "परो": 6255,
      " प्रसार": 6256,
      " यात": 6257,
      "ादपि": 6258,
      "साक्ष": 6259,
      " गुणा": 6260,
      "णियां": 6261,
      " छन्द": 6262,
      "वक्त": 6263,
      "ृते": 6264,
      "५१": 6265,
      " सन्तु": 6266,
      " वस्त्र": 6267,
      " स्नेह": 6268,
      " षोड": 6269,
      " पापं": 6270,
      " the": 6271,
      " अमरः": 6272,
      " प्रकरण": 6273,
      " संयोग": 6274,
      "भागः": 6275,
      "मुखं": 6276,
      " बुध": 6277,
      "काव": 6278,
      "षष्ठ": 6279,
      "ादिकं": 6280,
      " स्वामि": 6281,
      "तीनां": 6282,
      "परम": 6283,
      " स्थिता": 6284,
      " गुणः": 6285,
      "कर्त्त": 6286,
      "100": 6287,
      " भाग्य": 6288,
      "ews": 6289,
      "Answer": 6290,
      "कीय": 6291,
      "ेर": 6292,
      " शङ्क": 6293,
      "द्ग": 6294,
      "द्भ": 6295,
      "सर्वत्र": 6296,
      " तत्रैव": 6297,
      " सन्नि": 6298,
      "५६": 6299,
      " दास": 6300,
      " स्वस्य": 6301,
      "स्थिते": 6302,
      " मह्यं": 6303,
      "लाई": 6304,
      "यमपि": 6305,
      "किम": 6306,
      " शुभा": 6307,
      " षट्": 6308,
      " पीसी": 6309,
      " सिध्यति": 6310,
      " प्रमाणं": 6311,
      " दद": 6312,
      "प्रसिद्ध": 6313,
      " आधार": 6314,
      " प्राधान": 6315,
      " कालं": 6316,
      "  ": 6317,
      "इन": 6318,
      "ीयः": 6319,
      "क्तम्": 6320,
      "त्यन्त": 6321,
      " निवार": 6322,
      " शक्यं": 6323,
      " युद्धं": 6324,
      "ोत्तर": 6325,
      "शासन": 6326,
      "तश्च": 6327,
      "ूर्ण": 6328,
      " कोऽ": 6329,
      " गर्": 6330,
      "कारणं": 6331,
      "पत्रं": 6332,
      "ऽनु": 6333,
      " नाप": 6334,
      " मदु": 6335,
      " संस्थान": 6336,
      " संरक्षण": 6337,
      " ...": 6338,
      " खु": 6339,
      " केचित्": 6340,
      " निर्माण": 6341,
      " वृत्ति": 6342,
      "शस्त्र": 6343,
      " प्": 6344,
      " चरण": 6345,
      "माणे": 6346,
      " सर्वान्": 6347,
      " इत्ये": 6348,
      "जनानां": 6349,
      " =>": 6350,
      "वचनं": 6351,
      " भुवि": 6352,
      " परस्परम्": 6353,
      " भोजनं": 6354,
      " पंच": 6355,
      "Next": 6356,
      "ak": 6357,
      "अहम्": 6358,
      "कव": 6359,
      "यन्ते": 6360,
      " वां": 6361,
      " ननु": 6362,
      " शब्दा": 6363,
      " जक": 6364,
      " आदि": 6365,
      " \"\n": 6366,
      " जीवति": 6367,
      "ER": 6368,
      "लाल": 6369,
      " वेति": 6370,
      "त्ये": 6371,
      "त्वम": 6372,
      " तदपि": 6373,
      " /\n": 6374,
      "शंस": 6375,
      " पर्वत": 6376,
      " स्वप्ने": 6377,
      " द्वितीया": 6378,
      "ik": 6379,
      "गमः": 6380,
      "ितैः": 6381,
      " अन्तः": 6382,
      "क्रोध": 6383,
      " कथय": 6384,
      "वार्त": 6385,
      " योग्य": 6386,
      "दूषण": 6387,
      "सहस्राणि": 6388,
      " वायुः": 6389,
      " X": 6390,
      "केषु": 6391,
      "बलः": 6392,
      " वसु": 6393,
      "ादिक": 6394,
      "ङ्ख": 6395,
      " साग": 6396,
      "वर्तमान": 6397,
      " पश्यामि": 6398,
      " श्वेत": 6399,
      "ोन्न": 6400,
      " हिन्द": 6401,
      "ब्दं": 6402,
      " मुने": 6403,
      " प्राक्": 6404,
      " अधिकारी": 6405,
      "ादेशः": 6406,
      "तथैव": 6407,
      "\"ति": 6408,
      "अनेक": 6409,
      "मृत": 6410,
      "वन्त": 6411,
      " प्रकारेण": 6412,
      " बलि": 6413,
      "स्थो": 6414,
      " समयः": 6415,
      "देवानां": 6416,
      "न्याया": 6417,
      " त्रयो": 6418,
      " प्रजाः": 6419,
      " प्रश्नः": 6420,
      "नगरे": 6421,
      " &\n": 6422,
      "im": 6423,
      "इत्या": 6424,
      "ज्यं": 6425,
      " इद": 6426,
      "च्छया": 6427,
      "सम्पाद": 6428,
      " गुणाः": 6429,
      " मूढ": 6430,
      " ]": 6431,
      "लानि": 6432,
      " अद": 6433,
      " गता": 6434,
      "देवः": 6435,
      " समीप": 6436,
      "साय": 6437,
      " काव्य": 6438,
      "म्न": 6439,
      " अहो": 6440,
      " जप": 6441,
      " निर्ग": 6442,
      " महान": 6443,
      " प्राप्यते": 6444,
      " अनुभव": 6445,
      " संस्कृति": 6446,
      " परस्परं": 6447,
      "os": 6448,
      "च्व": 6449,
      " अग्र": 6450,
      " देवो": 6451,
      "रूपः": 6452,
      " विश्वे": 6453,
      " Ar": 6454,
      " ,\n": 6455,
      "ाभ्यां": 6456,
      " योऽ": 6457,
      " इष्ट": 6458,
      "संज्ञा": 6459,
      " मेघ": 6460,
      "नीयः": 6461,
      "दृष्ट्वा": 6462,
      "ून्": 6463,
      " मार": 6464,
      " प्रस्तु": 6465,
      " भवः": 6466,
      "ादिना": 6467,
      "सर्वेषां": 6468,
      "जाल": 6469,
      "लघु": 6470,
      " शोध": 6471,
      "ादा": 6472,
      "नुः": 6473,
      "तैः": 6474,
      "व्": 6475,
      " तयोः": 6476,
      "पुंस": 6477,
      "द्रु": 6478,
      "श्रेण": 6479,
      " कथयति": 6480,
      " पुरुषं": 6481,
      "प्राप्ते": 6482,
      " शरीरं": 6483,
      "करा": 6484,
      " काव": 6485,
      " मरण": 6486,
      "मासे": 6487,
      " इमे": 6488,
      " निग": 6489,
      " बभूव": 6490,
      " युष्म": 6491,
      " वृष": 6492,
      " कार्यक्रम": 6493,
      " हरिः": 6494,
      " शून्य": 6495,
      " मत्स्य": 6496,
      "आग": 6497,
      "निं": 6498,
      " समन्त": 6499,
      "लोकं": 6500,
      " प्राप्तवान्": 6501,
      "08": 6502,
      "छि": 6503,
      "डः": 6504,
      "ेयः": 6505,
      " तक": 6506,
      " दया": 6507,
      " यी": 6508,
      " हानि": 6509,
      "ग्रीव": 6510,
      " दिवा": 6511,
      "मेवा": 6512,
      " अन्यत्र": 6513,
      " सेना": 6514,
      "अस": 6515,
      "ूत": 6516,
      " गी": 6517,
      " संघ": 6518,
      " लॊ": 6519,
      "संयु": 6520,
      "्येते": 6521,
      " राष्ट्रिय": 6522,
      " मुद्रा": 6523,
      " घो": 6524,
      "मुक्तः": 6525,
      " सङ्ख्या": 6526,
      "इद": 6527,
      " याः": 6528,
      " यस्मिन्": 6529,
      "स्तान": 6530,
      " पातु": 6531,
      "पत्तेः": 6532,
      " परमात्म": 6533,
      " द्रष्टुं": 6534,
      "(ङ": 6535,
      "यने": 6536,
      " प्रद": 6537,
      " यच्च": 6538,
      " सर्वस्य": 6539,
      "ासते": 6540,
      " कारयेत्": 6541,
      " पूर्वोक्त": 6542,
      " फलम्": 6543,
      " मित्रं": 6544,
      "ताल": 6545,
      "तर्हि": 6546,
      "वेत": 6547,
      " स्वातन्त्र": 6548,
      " नागर": 6549,
      " व्यति": 6550,
      "भाषायां": 6551,
      "क्रम्य": 6552,
      "हीन": 6553,
      "भविष्यति": 6554,
      "कोप": 6555,
      "ैति": 6556,
      " तच्च": 6557,
      "क्षो": 6558,
      " सम्भाव": 6559,
      "ज्जा": 6560,
      " स्मृति": 6561,
      "*\n": 6562,
      "ट्र": 6563,
      " शौ": 6564,
      " स्नानं": 6565,
      "भूतः": 6566,
      "चारि": 6567,
      "क्ष्यति": 6568,
      " सरकार": 6569,
      " कार्याणि": 6570,
      "ाश्च": 6571,
      "ान्ये": 6572,
      " विरोध": 6573,
      " आद": 6574,
      "र्थस्य": 6575,
      "र्मः": 6576,
      " महत्त्व": 6577,
      " कर्तव्यः": 6578,
      "हारे": 6579,
      " प्रथमे": 6580,
      " रूपेण": 6581,
      " मोह": 6582,
      "अग्ने": 6583,
      "लया": 6584,
      "सोऽ": 6585,
      " पक्षि": 6586,
      "ष्णः": 6587,
      "विक्र": 6588,
      " जय": 6589,
      "मुक्तं": 6590,
      "रोह": 6591,
      "युगे": 6592,
      " देवस्य": 6593,
      "ीव्र": 6594,
      "कुश": 6595,
      " प्रत्यु": 6596,
      " भार्या": 6597,
      " संशोध": 6598,
      "पुत्रः": 6599,
      "av": 6600,
      "ूष": 6601,
      "र्भवति": 6602,
      "ावपि": 6603,
      "सात": 6604,
      "कात्": 6605,
      " साथ": 6606,
      " भूमौ": 6607,
      " नामानि": 6608,
      "कोऽ": 6609,
      " चित्": 6610,
      "प्री": 6611,
      "र्यः": 6612,
      "षिद्ध": 6613,
      "वृद्धि": 6614,
      "एससी": 6615,
      "अधोलिखितानि": 6616,
      "nd": 6617,
      " पट": 6618,
      " विह": 6619,
      "द्वादश": 6620,
      "सत्त": 6621,
      " एवम": 6622,
      " परिसन्ध": 6623,
      " मात्रा": 6624,
      " भारती": 6625,
      "न्याः": 6626,
      " दृश्यम्": 6627,
      "१९७": 6628,
      "कर्तृ": 6629,
      "ess": 6630,
      "प्रिय": 6631,
      ":-": 6632,
      "कश्च": 6633,
      "गतो": 6634,
      "लाप": 6635,
      " समि": 6636,
      " अग्रे": 6637,
      " इदानी": 6638,
      "त्यः": 6639,
      "मानाः": 6640,
      " विषयः": 6641,
      " स्युः": 6642,
      "शक्तिः": 6643,
      "ष्यं": 6644,
      " सभा": 6645,
      "न्ने": 6646,
      " विश्र": 6647,
      "तात्": 6648,
      " भ्रा": 6649,
      " लक्षणं": 6650,
      " नगरे": 6651,
      " सृज": 6652,
      " संबंधनं": 6653,
      "वनं": 6654,
      "ान्नि": 6655,
      " मेदि": 6656,
      "पश": 6657,
      "पां": 6658,
      "लां": 6659,
      " अना": 6660,
      " चर्च": 6661,
      " विवा": 6662,
      " रत्": 6663,
      "ाणाम्": 6664,
      " कर्मणा": 6665,
      "भारते": 6666,
      "निर्माण": 6667,
      " टिप्पणियां": 6668,
      "उक्त": 6669,
      "छात्र": 6670,
      "यैव": 6671,
      "शान": 6672,
      " अधो": 6673,
      "ार्य": 6674,
      "मात्रे": 6675,
      " एको": 6676,
      "मानेन": 6677,
      "भूते": 6678,
      " कां": 6679,
      "क्षुः": 6680,
      " सम्बन्धि": 6681,
      "ग्रहणम्": 6682,
      " उत्पादन": 6683,
      "कदाचित्": 6684,
      " हिंसा": 6685,
      "06": 6686,
      "टन": 6687,
      "पाव": 6688,
      "वेष": 6689,
      " पै": 6690,
      " प्रस्ताव": 6691,
      " हर्ष": 6692,
      " आङ्ग्ल": 6693,
      " भवती": 6694,
      " वाञ्छ": 6695,
      " स्तः": 6696,
      " प्रसाद": 6697,
      " पत्नी": 6698,
      " W": 6699,
      "अश्व": 6700,
      "सय": 6701,
      "स्तेषां": 6702,
      " संभवति": 6703,
      " शब्दस्य": 6704,
      " समर्पयामि": 6705,
      " ं": 6706,
      "पट": 6707,
      " अण्": 6708,
      "यात्रा": 6709,
      "क्ष्ये": 6710,
      " रहस्य": 6711,
      " लक्ष्य": 6712,
      "ङ्घ": 6713,
      "रोः": 6714,
      "स्वतः": 6715,
      "ङ्गः": 6716,
      " सहाय": 6717,
      "चारः": 6718,
      " अन्ये": 6719,
      "एवम्": 6720,
      "ऽव": 6721,
      " परमाण": 6722,
      " साहाय": 6723,
      " दिशि": 6724,
      " जीवन": 6725,
      " विशेषण": 6726,
      "ब्राह्मण": 6727,
      " भागः": 6728,
      " प्रोक्ता": 6729,
      "बिम्ब": 6730,
      "कर्षण": 6731,
      "32": 6732,
      "तॊ": 6733,
      "बहू": 6734,
      "माध्य": 6735,
      "प्रवृत्त": 6736,
      "युग": 6737,
      "पदः": 6738,
      "कर्तुं": 6739,
      "पाठः": 6740,
      " मूर्ख": 6741,
      "नृ": 6742,
      "्यव": 6743,
      " पथ": 6744,
      " क्त": 6745,
      " तार": 6746,
      " यस्तु": 6747,
      " विक": 6748,
      "दात्": 6749,
      " सर्वैः": 6750,
      "भवे": 6751,
      "देशो": 6752,
      "भावं": 6753,
      " मही": 6754,
      "ङ्गे": 6755,
      " श्राद्ध": 6756,
      " विदुः": 6757,
      " रूपम्": 6758,
      "दृष्ट्या": 6759,
      "भ्रम": 6760,
      " किमर्थं": 6761,
      " स्थितिः": 6762,
      " म्ह": 6763,
      "तदेव": 6764,
      "धिं": 6765,
      "व्री": 6766,
      "ांसि": 6767,
      "विज": 6768,
      "र्ता": 6769,
      "पुण्य": 6770,
      "वर्षं": 6771,
      " ऋष": 6772,
      " योगदान": 6773,
      " परीक्ष": 6774,
      " उक्तः": 6775,
      "गार": 6776,
      "रन्": 6777,
      " याना": 6778,
      "प्रकार": 6779,
      " हन्त": 6780,
      " रणे": 6781,
      "सूच": 6782,
      " लक्ष्यते": 6783,
      " महिला": 6784,
      " पश्चिम": 6785,
      " ब्रह्मा": 6786,
      "घोष": 6787,
      "यसि": 6788,
      "४३": 6789,
      "ब्ब": 6790,
      "क्षणे": 6791,
      "स्माद्": 6792,
      " स्थिते": 6793,
      "धाति": 6794,
      "समर्थ": 6795,
      " पुत्रं": 6796,
      " प्रवक्ष्यामि": 6797,
      "अं": 6798,
      "ज्योति": 6799,
      "दाः": 6800,
      "मयः": 6801,
      "मातृ": 6802,
      " शान्ति": 6803,
      "त्तः": 6804,
      "संस्था": 6805,
      "भाज": 6806,
      "ङ्गी": 6807,
      " पार्थ": 6808,
      " दृष्टं": 6809,
      "म्बु": 6810,
      "मना": 6811,
      "वह": 6812,
      "्यौ": 6813,
      " नरा": 6814,
      " विशि": 6815,
      "विरो": 6816,
      "त्तं": 6817,
      "ग्रन्": 6818,
      " सहसा": 6819,
      " गुह": 6820,
      " व्याप": 6821,
      "भाषणम्": 6822,
      " थु": 6823,
      " पठति": 6824,
      "ives": 6825,
      "मते": 6826,
      " तन": 6827,
      " मति": 6828,
      " भे": 6829,
      "शिक्षा": 6830,
      "प्रतिष्ठ": 6831,
      "लै": 6832,
      " पक्षे": 6833,
      " शृ": 6834,
      "निवृत्त": 6835,
      " बै": 6836,
      " स्वर": 6837,
      "मुक्ति": 6838,
      " राग": 6839,
      " प्रत्येक": 6840,
      " //\n": 6841,
      " ्": 6842,
      "गाय": 6843,
      "डु": 6844,
      "ोति": 6845,
      "॒व": 6846,
      " वज्र": 6847,
      " यदु": 6848,
      " इत्": 6849,
      "ज्ञाय": 6850,
      "दृश्यते": 6851,
      " स्त्रीणां": 6852,
      " द्वितीयं": 6853,
      " त्रीणि": 6854,
      "गताः": 6855,
      "श्त": 6856,
      "९०": 6857,
      "ान्यं": 6858,
      " नित": 6859,
      " नेत": 6860,
      "िक्र": 6861,
      "निवार": 6862,
      " आसी": 6863,
      " तुल्य": 6864,
      "मेल": 6865,
      " दिनानि": 6866,
      "चार्य": 6867,
      "एकदा": 6868,
      " कामं": 6869,
      " प्रेर": 6870,
      ".)": 6871,
      "चौ": 6872,
      "णाय": 6873,
      "फि": 6874,
      "लित": 6875,
      " सनात": 6876,
      " कपि": 6877,
      " उल्": 6878,
      "मुद्र": 6879,
      " प्राग": 6880,
      "परिवार": 6881,
      "स्थानम्": 6882,
      " पृष्ठं": 6883,
      "ine": 6884,
      " नेत्र": 6885,
      " दक्षिणे": 6886,
      "\"आ": 6887,
      "पव": 6888,
      " विभाषा": 6889,
      "नुते": 6890,
      "न्यथा": 6891,
      "श्वर्य": 6892,
      " अनुवाद": 6893,
      " कर्तुम्": 6894,
      " वेत्ति": 6895,
      "पराय": 6896,
      "स्थापन": 6897,
      " प्रयच्छ": 6898,
      "टुम्ब": 6899,
      "31": 6900,
      "तान": 6901,
      " अभवन्": 6902,
      " निवस": 6903,
      "र्षि": 6904,
      "द्वे": 6905,
      "ग्रं": 6906,
      " छि": 6907,
      " दूष": 6908,
      " दृश्यन्ते": 6909,
      " प्रभुः": 6910,
      "अमेर": 6911,
      "निरा": 6912,
      " उक्तं": 6913,
      " भागे": 6914,
      "द्याः": 6915,
      " एकादश": 6916,
      "िकायाः": 6917,
      "कृतिक": 6918,
      "ers": 6919,
      " शीर्ष": 6920,
      "MSS": 6921,
      "सर्ज": 6922,
      " नमो": 6923,
      " दीयते": 6924,
      " आर्थिक": 6925,
      " रच": 6926,
      " सिद्धि": 6927,
      " <": 6928,
      "बह": 6929,
      "यै": 6930,
      " विवाह": 6931,
      "ाणं": 6932,
      " कृत्": 6933,
      " प्राति": 6934,
      "दर्शनं": 6935,
      "नीयम्": 6936,
      "५८": 6937,
      "रादि": 6938,
      "र्मध्ये": 6939,
      "ोऽस्मि": 6940,
      "लोप": 6941,
      "मोद": 6942,
      " दृष्टि": 6943,
      " y": 6944,
      "म्या": 6945,
      "ोच्च": 6946,
      " समे": 6947,
      " सचि": 6948,
      "ादिः": 6949,
      " समस्या": 6950,
      "द्रव्य": 6951,
      "सें": 6952,
      " शिष्य": 6953,
      "सामर्थ": 6954,
      " निर्दिष्ट": 6955,
      "वचने": 6956,
      " जनार्द": 6957,
      " षष्ठी": 6958,
      "बलं": 6959,
      "ऽप्य": 6960,
      " विभिन्न": 6961,
      "िकायां": 6962,
      "मानां": 6963,
      " स्मृतम्": 6964,
      " विश्वा": 6965,
      "शीर्ष": 6966,
      "अनुसंधान": 6967,
      "प्राप्ति": 6968,
      "सुखं": 6969,
      " धाःसा": 6970,
      ".श": 6971,
      "पद्": 6972,
      "५४": 6973,
      "विं": 6974,
      "ालः": 6975,
      " स्क": 6976,
      "समं": 6977,
      "गम्यते": 6978,
      " दक्षिणा": 6979,
      "दृढ": 6980,
      "चिकित्": 6981,
      "मथ": 6982,
      "सदा": 6983,
      "है": 6984,
      " नाना": 6985,
      " मरणं": 6986,
      " विदेश": 6987,
      "स्तां": 6988,
      " ली": 6989,
      " महारा": 6990,
      "पूर": 6991,
      " राज्ये": 6992,
      "गत्य": 6993,
      "तान्": 6994,
      "ैन": 6995,
      " वरिष्ठ": 6996,
      " अश": 6997,
      " प्रात": 6998,
      " विहाय": 6999,
      " विपरीत": 7000,
      " इतर": 7001,
      " शतं": 7002,
      " तीर्थ": 7003,
      " त्यक्त्वा": 7004,
      " k": 7005,
      "यन्तु": 7006,
      "ैकं": 7007,
      "तिथि": 7008,
      "ानाः": 7009,
      "स्तथ": 7010,
      " निपा": 7011,
      "भिधीयते": 7012,
      " मानवः": 7013,
      " छात्राः": 7014,
      "ानुसारं": 7015,
      " णि": 7016,
      "38": 7017,
      "महे": 7018,
      " दात": 7019,
      " वाह": 7020,
      " स्वः": 7021,
      "ग्धं": 7022,
      "्रीं": 7023,
      "--\"": 7024,
      " गृह्यते": 7025,
      " धर्मो": 7026,
      "एकं": 7027,
      "धन्य": 7028,
      "्यम": 7029,
      "माणा": 7030,
      " भवेद": 7031,
      "सात्": 7032,
      "भूय": 7033,
      " सूत्रे": 7034,
      "मोक्ष": 7035,
      " लोकः": 7036,
      " समुप": 7037,
      " ढ": 7038,
      " प्रसन्": 7039,
      " प्रदत्त": 7040,
      " यस्या": 7041,
      "वासी": 7042,
      " खो": 7043,
      "हारा": 7044,
      " द्रु": 7045,
      " टे": 7046,
      " Arch": 7047,
      "वेन": 7048,
      " पश्चा": 7049,
      " बे": 7050,
      "योगे": 7051,
      " पृच्छ": 7052,
      "धीः": 7053,
      " गुरुः": 7054,
      "दर": 7055,
      "॒त": 7056,
      " अस्मान्": 7057,
      " यान्ति": 7058,
      "सागर": 7059,
      "स्थिता": 7060,
      "ीयन्ते": 7061,
      "लोकः": 7062,
      " माध्य": 7063,
      " पुरुषो": 7064,
      " वस्तुतः": 7065,
      "(अ": 7066,
      "th": 7067,
      "गोप": 7068,
      " अन्न": 7069,
      " माल": 7070,
      "विश्य": 7071,
      " गृ": 7072,
      " महात्म": 7073,
      "पूजा": 7074,
      " स्थिर": 7075,
      "देवस्य": 7076,
      " वर्षस्य": 7077,
      " स्यादिति": 7078,
      " नूत": 7079,
      "ूर": 7080,
      " स्यु": 7081,
      "द्देश": 7082,
      " सर्वभूतेषु": 7083,
      " इत्यत": 7084,
      " व्यो": 7085,
      "ारिद्र": 7086,
      " धार्म": 7087,
      " पुरतः": 7088,
      " इच्छामि": 7089,
      " सुरक्षा": 7090,
      "लिः": 7091,
      " तात्": 7092,
      " माय": 7093,
      " भोक्त": 7094,
      " एतस्य": 7095,
      "ल्ला": 7096,
      "द्वय": 7097,
      "ान्तरा": 7098,
      " व्याघ्र": 7099,
      " जनानां": 7100,
      "शब्दो": 7101,
      "१९८": 7102,
      " वीर्य": 7103,
      "if": 7104,
      " अ॒": 7105,
      " दानं": 7106,
      " यशः": 7107,
      " सर्वथा": 7108,
      "वाणी": 7109,
      "नेति": 7110,
      "कृतेः": 7111,
      "भूष": 7112,
      "लोपः": 7113,
      "पार्श्व": 7114,
      "कोटि": 7115,
      "न्याय": 7116,
      " प्राप्तः": 7117,
      "प्रथमं": 7118,
      " बहूनि": 7119,
      " वक्ष्यामि": 7120,
      " तेषाम": 7121,
      " ह्या": 7122,
      " परिह": 7123,
      "१९४": 7124,
      " दत्त्वा": 7125,
      "36": 7126,
      "अर्थः": 7127,
      "त्सु": 7128,
      " विचित्र": 7129,
      "ावः": 7130,
      "श्चर्य": 7131,
      "नुयात्": 7132,
      " परिष": 7133,
      " युज्यते": 7134,
      "सृज": 7135,
      "तस्याः": 7136,
      "रित्य": 7137,
      "वर्गः": 7138,
      "ऽथ": 7139,
      "यामः": 7140,
      " गे": 7141,
      "ालय": 7142,
      " संविधान": 7143,
      " भवन": 7144,
      " कुत": 7145,
      "वंश": 7146,
      "पदार्थ": 7147,
      " प्रवृत्ति": 7148,
      " हन्ति": 7149,
      " निश": 7150,
      " ध्रुव": 7151,
      "धिका": 7152,
      " सूक्ष्म": 7153,
      "क्रमम्": 7154,
      " ईश्वरः": 7155,
      " प्रयत्नतः": 7156,
      "ण्व": 7157,
      "यिता": 7158,
      " प्रयोक्त": 7159,
      "स्फ": 7160,
      "न्तीति": 7161,
      " वाप": 7162,
      "न्यस्य": 7163,
      "कृत्वा": 7164,
      " त्वमेव": 7165,
      "न्वि": 7166,
      "त्सव": 7167,
      " रिक्त": 7168,
      " न्यून": 7169,
      "फोट": 7170,
      "अक्ष": 7171,
      "जस्य": 7172,
      "तत्त": 7173,
      "तच्च": 7174,
      "६५": 7175,
      "र्ब": 7176,
      " मखु": 7177,
      " ची": 7178,
      " संस": 7179,
      " लघ": 7180,
      "रुः": 7181,
      "समय": 7182,
      " सुखम्": 7183,
      " उपयोगकर्ता": 7184,
      "-स": 7185,
      "वश्य": 7186,
      " पद्ध": 7187,
      " वर्ज": 7188,
      " अल": 7189,
      "ांश्च": 7190,
      "ाद्या": 7191,
      "येण": 7192,
      " कुमार": 7193,
      " पात्र": 7194,
      "र्ध्वं": 7195,
      " वर्तन्ते": 7196,
      "दृशः": 7197,
      " ब्राह्मण": 7198,
      " अध्याय": 7199,
      "(iii": 7200,
      "निर्दिष्टम्": 7201,
      "गच्छति": 7202,
      "धात": 7203,
      "भर": 7204,
      "ानन्द": 7205,
      " मई": 7206,
      " विरो": 7207,
      " संग": 7208,
      "पुः": 7209,
      "पुष्प": 7210,
      "वर्त्त": 7211,
      "सम्म": 7212,
      "राज्ये": 7213,
      " निर्णय": 7214,
      "कण्ठ": 7215,
      "सित": 7216,
      "ह्र": 7217,
      " ज्यो": 7218,
      " पुत्रा": 7219,
      "ब्रह्": 7220,
      " प्रविश्य": 7221,
      " Y": 7222,
      " डा": 7223,
      "37": 7224,
      "जार": 7225,
      "वित्": 7226,
      "स्फु": 7227,
      "विति": 7228,
      " जाने": 7229,
      "भ्युप": 7230,
      " लोकं": 7231,
      "ारोह": 7232,
      "उद": 7233,
      "तयो": 7234,
      " आन्दो": 7235,
      "त्वि": 7236,
      "ष्ठं": 7237,
      "गमनं": 7238,
      "रात्रौ": 7239,
      " अग्निः": 7240,
      "कन्या": 7241,
      "तद्व": 7242,
      "नाना": 7243,
      "शुः": 7244,
      " यद्व": 7245,
      " चाप": 7246,
      "रात्रे": 7247,
      " ज्वल": 7248,
      " निष": 7249,
      " पर्यावरण": 7250,
      " राज्ञः": 7251,
      "स्वर्ग": 7252,
      "दुप": 7253,
      " एकम्": 7254,
      " राष्ट्रपति": 7255,
      " पूजां": 7256,
      "09": 7257,
      " अर्ध": 7258,
      " जाल": 7259,
      "प्रश": 7260,
      "दासी": 7261,
      "ोऽध्यायः": 7262,
      "केत": 7263,
      " परिभाष": 7264,
      "योगं": 7265,
      " लोका": 7266,
      " श्रुतिः": 7267,
      " क्षेत्रं": 7268,
      "छे": 7269,
      " चैक": 7270,
      "मासीत्": 7271,
      "दिदं": 7272,
      "स्थितम्": 7273,
      "ान्ता": 7274,
      "ेण्": 7275,
      " देवताः": 7276,
      "योगेन": 7277,
      " श्रव": 7278,
      "स्मरण": 7279,
      "पदस्य": 7280,
      " तदनु": 7281,
      "नित्यं": 7282,
      "सनं": 7283,
      "सरे": 7284,
      "हरे": 7285,
      "योज्य": 7286,
      " वाक्": 7287,
      "स्थितं": 7288,
      " स्तम्भ": 7289,
      " जीवितं": 7290,
      " प्राप्ता": 7291,
      " दर्शन": 7292,
      "रूपि": 7293,
      " पुनर्निर्दिष्टम्": 7294,
      "मप": 7295,
      "वित": 7296,
      "षट्": 7297,
      "मिश्र": 7298,
      "भवं": 7299,
      "व्याख्या": 7300,
      "१९५": 7301,
      " एतादृश": 7302,
      " दत्तं": 7303,
      " विद्यु": 7304,
      "चक्षु": 7305,
      "यद्वा": 7306,
      " वया": 7307,
      " भाति": 7308,
      " स्याद्": 7309,
      "२०२": 7310,
      "ग्निः": 7311,
      "39": 7312,
      "भया": 7313,
      " कोप": 7314,
      " अय": 7315,
      " विवाद": 7316,
      "क्षिक": 7317,
      "नार्थ": 7318,
      "पिण्ड": 7319,
      "ेशं": 7320,
      "ापा": 7321,
      " (?\n": 7322,
      " अवस्था": 7323,
      " ऋण": 7324,
      " पश्यन्ति": 7325,
      "ततश्च": 7326,
      "मित्यर्थः": 7327,
      " सन्दे": 7328,
      "पचारिक": 7329,
      " सद्": 7330,
      "्यामः": 7331,
      " चौ": 7332,
      "त्रयं": 7333,
      "नाग": 7334,
      "रोऽ": 7335,
      " त्वाम": 7336,
      "प्ल": 7337,
      " दर्शनं": 7338,
      " धातुः": 7339,
      " सम्बन्धी": 7340,
      "मात": 7341,
      " हस्ते": 7342,
      " एस्": 7343,
      "ृतो": 7344,
      " यथाविधि": 7345,
      "सन्नि": 7346,
      "र्थाय": 7347,
      " रक्षति": 7348,
      "मार्गे": 7349,
      "ग्रामे": 7350,
      "45": 7351,
      "अयम्": 7352,
      "करे": 7353,
      "ीयं": 7354,
      "५३": 7355,
      " मतम्": 7356,
      " विल": 7357,
      "ाहे": 7358,
      "वेबसाइट": 7359,
      " फि": 7360,
      " प्राप्तं": 7361,
      " पदम्": 7362,
      "एवमेव": 7363,
      " चतुर्थ": 7364,
      " चिन्ता": 7365,
      "पत्नी": 7366,
      " धीरे": 7367,
      "खी": 7368,
      "वस्त्र": 7369,
      " यथे": 7370,
      "विनाश": 7371,
      "प्रयोजन": 7372,
      "ाह्": 7373,
      "स्मान्न": 7374,
      "परिष": 7375,
      "सेवा": 7376,
      " वह्नि": 7377,
      "-प": 7378,
      "षाम": 7379,
      "िया": 7380,
      "ौद्ध": 7381,
      "्वी": 7382,
      "र्शि": 7383,
      "स्थिताः": 7384,
      " पाकि": 7385,
      " छे": 7386,
      " केनापि": 7387,
      "काशः": 7388,
      " धर्मं": 7389,
      "समाप्त": 7390,
      " स्पृश": 7391,
      "पन्नं": 7392,
      " प्रयत्नेन": 7393,
      " दद्यात्": 7394,
      "डो": 7395,
      "हिते": 7396,
      " वन्द": 7397,
      " कष्ट": 7398,
      " चकार": 7399,
      " इतः": 7400,
      "नामा": 7401,
      "दिवस": 7402,
      "भिधान": 7403,
      "क्रो": 7404,
      " प्राचीन": 7405,
      " कालेन": 7406,
      " पितुः": 7407,
      "पदार्थः": 7408,
      " अस्माभिः": 7409,
      "नत": 7410,
      " प्रदा": 7411,
      "स्यो": 7412,
      " साम्": 7413,
      " पूज्य": 7414,
      "नोप": 7415,
      "शेषं": 7416,
      "दीयं": 7417,
      " पुनरु": 7418,
      " अन्तर": 7419,
      " वृद्धिः": 7420,
      " स्वीकृत": 7421,
      " ततॊ": 7422,
      "बीज": 7423,
      " क्रमशः": 7424,
      "हानि": 7425,
      " नेति": 7426,
      " याद": 7427,
      "ध्यान": 7428,
      "वेष्ट": 7429,
      "न्यास": 7430,
      " पुत्रो": 7431,
      " सामर्थ": 7432,
      " युक्तः": 7433,
      "हिंसा": 7434,
      " Archives": 7435,
      " प्रकृतिः": 7436,
      " दुः": 7437,
      "याणां": 7438,
      "नास": 7439,
      " हवि": 7440,
      "भिश्च": 7441,
      "ग्नी": 7442,
      "विधानं": 7443,
      "१९६": 7444,
      " नरकं": 7445,
      " इत्येतत्": 7446,
      " आवश्यकता": 7447,
      "शरीर": 7448,
      "तदाह": 7449,
      " सज्ज": 7450,
      " तर्क": 7451,
      " चार": 7452,
      "क्षां": 7453,
      " हितं": 7454,
      "तोऽपि": 7455,
      "युज्यते": 7456,
      " यथाशक्ति": 7457,
      " लोकानां": 7458,
      "SE": 7459,
      "तादृश": 7460,
      "रक्षा": 7461,
      "॒ः": 7462,
      " गिर": 7463,
      " निषेध": 7464,
      " भवतां": 7465,
      "साधारण": 7466,
      "क्राम": 7467,
      "शिक्षु": 7468,
      " सम्प्रति": 7469,
      "स्माभिः": 7470,
      " दुगु": 7471,
      "भागं": 7472,
      " घन": 7473,
      " शिर": 7474,
      " केचन": 7475,
      "धेः": 7476,
      "०००": 7477,
      "our": 7478,
      "आयु": 7479,
      " विम": 7480,
      "प्रयोगः": 7481,
      "ामहे": 7482,
      "ष्टौ": 7483,
      "संह": 7484,
      "काणां": 7485,
      "ध्ययन": 7486,
      " प्राची": 7487,
      " जगति": 7488,
      "चनात्": 7489,
      " बालकः": 7490,
      " विद्वान्": 7491,
      "नन्तरं": 7492,
      " तर्प": 7493,
      " यां": 7494,
      " तुभ्यं": 7495,
      "स्यामि": 7496,
      "श्लोक": 7497,
      " व्रत": 7498,
      " विधिना": 7499,
      " ु": 7500,
      "टिक": 7501,
      "भृ": 7502,
      "रक्त": 7503,
      "त्पाद": 7504,
      " भोः": 7505,
      "न्नः": 7506,
      "प्रत्या": 7507,
      " यात्र": 7508,
      "पन्ना": 7509,
      "ev": 7510,
      "og": 7511,
      " शय": 7512,
      " परस्मै": 7513,
      "काराः": 7514,
      " दिवि": 7515,
      " किंचित्": 7516,
      "सर्वा": 7517,
      " सम्बन्धः": 7518,
      "देन": 7519,
      "दुः": 7520,
      "सत्यं": 7521,
      "६२": 7522,
      "स्येति": 7523,
      "स्वर": 7524,
      " स्मरण": 7525,
      " जातं": 7526,
      " दीप": 7527,
      "फलकम्ः": 7528,
      " विद्यमान": 7529,
      "ous": 7530,
      " ङीष्": 7531,
      "um": 7532,
      "चने": 7533,
      " इती": 7534,
      " संज्ञा": 7535,
      " रू": 7536,
      " एवेति": 7537,
      " श्राव": 7538,
      " योजन": 7539,
      ",\"": 7540,
      "०२०": 7541,
      "यात्र": 7542,
      "रात्रि": 7543,
      "कुरु": 7544,
      "राज्यं": 7545,
      " दृष्टः": 7546,
      " अप्वः": 7547,
      " मनुः": 7548,
      " करिष्ये": 7549,
      " घटना": 7550,
      "विश्वविद्या": 7551,
      "च्छेदः": 7552,
      " श्लोक": 7553,
      "44": 7554,
      "इत्थं": 7555,
      "ेभ्यो": 7556,
      " पतिः": 7557,
      " वरं": 7558,
      "तेऽ": 7559,
      " इमं": 7560,
      " हां": 7561,
      " प्रतिषेध": 7562,
      "ेतत्": 7563,
      " भूयः": 7564,
      " यात्रा": 7565,
      "अथे": 7566,
      " ा": 7567,
      "आह": 7568,
      "वतां": 7569,
      "ैर्व": 7570,
      " तीव्र": 7571,
      " प्रक्रिया": 7572,
      "नेपाल": 7573,
      "रूपम्": 7574,
      " नाभि": 7575,
      " वैज्ञान": 7576,
      "वर्ति": 7577,
      "लक्षणम्": 7578,
      " विस्तार": 7579,
      " े": 7580,
      "33": 7581,
      "नयः": 7582,
      "बृह": 7583,
      "६८": 7584,
      " दह": 7585,
      " भवत्य": 7586,
      "श्वास": 7587,
      " त्वम": 7588,
      "यितु": 7589,
      " मिश्र": 7590,
      "गोच": 7591,
      "धिकारः": 7592,
      " भक्त्या": 7593,
      "\"न": 7594,
      "'।\n": 7595,
      "वरं": 7596,
      " कम्प": 7597,
      " विधा": 7598,
      "ष्णा": 7599,
      "निरूप": 7600,
      "ालो": 7601,
      " पुण्यं": 7602,
      " सर्वलोक": 7603,
      "सिष्ठ": 7604,
      " क्लि": 7605,
      " मुहूर्त": 7606,
      "प्रतिषेध": 7607,
      "शीघ्र": 7608,
      "मुखः": 7609,
      " नगरं": 7610,
      " चित्तं": 7611,
      " नूतन": 7612,
      " न्ह्यः": 7613,
      " हरेः": 7614,
      " re": 7615,
      "घव": 7616,
      "चितः": 7617,
      "जना": 7618,
      " सफ": 7619,
      " ध्ये": 7620,
      " पूर्वा": 7621,
      " कालो": 7622,
      " विशेषेण": 7623,
      "ia": 7624,
      "र्ना": 7625,
      "निर्मा": 7626,
      " सर्वम्": 7627,
      " धेन": 7628,
      " धात": 7629,
      " गृहम्": 7630,
      "गोल": 7631,
      " ध्यानं": 7632,
      "सदस्य": 7633,
      "स्थितिः": 7634,
      "यता": 7635,
      " विशाल": 7636,
      "ाद्वि": 7637,
      " आन": 7638,
      " आगत": 7639,
      "प्राप्य": 7640,
      " ईश्वर": 7641,
      " for": 7642,
      " युष्माकं": 7643,
      "'अ": 7644,
      "गन्त": 7645,
      "घो": 7646,
      "जायत": 7647,
      "तद्यथा": 7648,
      "मनः": 7649,
      "०९": 7650,
      " विराज": 7651,
      "यादि": 7652,
      " प्राप्तुं": 7653,
      "ग्रहणे": 7654,
      "्युप": 7655,
      " भूतानि": 7656,
      "48": 7657,
      "pr": 7658,
      "फे": 7659,
      "वल्": 7660,
      "वानां": 7661,
      "६४": 7662,
      " सत्व": 7663,
      "विका": 7664,
      "प्रो": 7665,
      " पूर्वम्": 7666,
      " शिख": 7667,
      "वर्षाणि": 7668,
      " जानन्ति": 7669,
      " प्रजायते": 7670,
      " बुद्धिः": 7671,
      "घाट": 7672,
      " यायेगु": 7673,
      "कति": 7674,
      "गमे": 7675,
      "तस्तु": 7676,
      " पोष": 7677,
      " पाणि": 7678,
      " संभाव": 7679,
      " परन्तु": 7680,
      "न्द्व": 7681,
      "सीद": 7682,
      " श्रीम": 7683,
      "एकादश": 7684,
      " स्फुट": 7685,
      " पुरुषा": 7686,
      "तन्": 7687,
      " सेन": 7688,
      "क्षम": 7689,
      " आवेदन": 7690,
      " व्युत्": 7691,
      "युक्ते": 7692,
      " त्रै": 7693,
      "अतएव": 7694,
      "ध्वनि": 7695,
      " करणीयम्": 7696,
      "ममा": 7697,
      "वक्ष्यामि": 7698,
      "शन": 7699,
      "सर्प": 7700,
      "ानन्तरं": 7701,
      " अपरि": 7702,
      " यस्मात्": 7703,
      " विका": 7704,
      " प्रतिषेधः": 7705,
      " साधारण": 7706,
      " कुतो": 7707,
      "ग्रतः": 7708,
      "चारी": 7709,
      " भविष्यन्ति": 7710,
      "वर्षस्य": 7711,
      "हाँ": 7712,
      " इत्युक्ते": 7713,
      "ub": 7714,
      "नेवाः": 7715,
      "शीत": 7716,
      "हरण": 7717,
      "७५": 7718,
      "्यर्थं": 7719,
      " मतः": 7720,
      "क्ष्ण": 7721,
      " परिकी": 7722,
      "ान्तो": 7723,
      " उपाय": 7724,
      " नामा": 7725,
      " पूर्वे": 7726,
      "सम्बद्ध": 7727,
      " पुनर्व": 7728,
      " गृहीत": 7729,
      " अधिकं": 7730,
      " संस्करणे": 7731,
      " वाच्यम्": 7732,
      "पेक्षया": 7733,
      " कौश": 7734,
      " जातम्": 7735,
      " वसति": 7736,
      "७१": 7737,
      " तन्न": 7738,
      " प्रशास": 7739,
      " राशि": 7740,
      "ल्पा": 7741,
      "ासौ": 7742,
      "परिभाषा": 7743,
      "हितो": 7744,
      "प्रथमा": 7745,
      "साहित्य": 7746,
      " भवितव्यम्": 7747,
      "ँजी": 7748,
      " सन्न": 7749,
      " कष": 7750,
      "श्चेति": 7751,
      "ल्म": 7752,
      "पुष्": 7753,
      "ान्तु": 7754,
      "व्याप": 7755,
      "ब्राह्म": 7756,
      "दाहरणं": 7757,
      "ोत्तम": 7758,
      " न्ह्य": 7759,
      " मानुष": 7760,
      "SC": 7761,
      "इतः": 7762,
      "लभ्य": 7763,
      " असौ": 7764,
      "ादयो": 7765,
      "ादशी": 7766,
      " श्रेण": 7767,
      "षाम्": 7768,
      " भारतं": 7769,
      "ग्निं": 7770,
      " कुर्वन्": 7771,
      " निर्णयः": 7772,
      "ासीत्": 7773,
      " चिकित्स": 7774,
      "अस्याः": 7775,
      "इं": 7776,
      "६१": 7777,
      " सफल": 7778,
      " क्य": 7779,
      " तवं": 7780,
      "ावे": 7781,
      " उद्ध": 7782,
      "ङ्कार": 7783,
      "मुद्": 7784,
      "द्वी": 7785,
      "परस्": 7786,
      " कर्तव्या": 7787,
      "धारणा": 7788,
      " पीठ": 7789,
      " क्लेश": 7790,
      "आं": 7791,
      "जन्": 7792,
      " पय": 7793,
      " क्वा": 7794,
      "विन्द": 7795,
      " रण": 7796,
      " परिकल्प": 7797,
      "नेः": 7798,
      "पुरु": 7799,
      " त्वत्": 7800,
      " नाहं": 7801,
      " पदस्य": 7802,
      " सिद्धम्": 7803,
      " स्वार्थे": 7804,
      "34": 7805,
      "कत्वं": 7806,
      "तमेव": 7807,
      "धाः": 7808,
      "र्ये": 7809,
      "ारोप": 7810,
      " परति": 7811,
      " साक्षि": 7812,
      "म्बर": 7813,
      " पुनरपि": 7814,
      "(iv": 7815,
      "ाति": 7816,
      " तपः": 7817,
      " विन्द": 7818,
      " बद्ध": 7819,
      " वात": 7820,
      " खि": 7821,
      " युवा": 7822,
      "ोक्तम्": 7823,
      "भाषत": 7824,
      " ब्राह्म": 7825,
      "अन्यत्र": 7826,
      " विधाय": 7827,
      "वासरे": 7828,
      " शुभम्": 7829,
      "टेन": 7830,
      "म्यां": 7831,
      "यतां": 7832,
      "राशि": 7833,
      "प्रदान": 7834,
      "त्यो": 7835,
      "त्वां": 7836,
      " संकल्प": 7837,
      " सर्वम": 7838,
      "गुणः": 7839,
      "भवेत्": 7840,
      " देशं": 7841,
      "स्पति": 7842,
      " वदामि": 7843,
      " कश्चिद्": 7844,
      "ोन्नति": 7845,
      " कृत्स्": 7846,
      "अध्याय": 7847,
      "ादः": 7848,
      " आदेश": 7849,
      "ङ्कः": 7850,
      " इत्यनु": 7851,
      " राजधान": 7852,
      " कोटि": 7853,
      "मीति": 7854,
      "art": 7855,
      " is": 7856,
      "एतेषां": 7857,
      " कूप": 7858,
      " भृ": 7859,
      " चान्य": 7860,
      "स्यसि": 7861,
      " जाये": 7862,
      "ावृ": 7863,
      " भवन्तु": 7864,
      " सर्वनाम": 7865,
      "मेरे": 7866,
      "ान्तरेण": 7867,
      " देवदत्त": 7868,
      "कुमार": 7869,
      "सम्पादन": 7870,
      " पुरुषस्य": 7871,
      " उत्तरं": 7872,
      " योगी": 7873,
      "तस्माद": 7874,
      "पद्यत": 7875,
      "कत": 7876,
      "नक": 7877,
      "मन्": 7878,
      "्यत": 7879,
      "्यया": 7880,
      " प्रार": 7881,
      " स्वि": 7882,
      "वाणि": 7883,
      " समुत्": 7884,
      "वर्षा": 7885,
      "ant": 7886,
      " स्वास्थ्य": 7887,
      " प्रियं": 7888,
      "खिलं": 7889,
      " शक्नो": 7890,
      "ुल": 7891,
      "७६": 7892,
      " तनु": 7893,
      " अस्त": 7894,
      " चाह": 7895,
      "मायु": 7896,
      " री": 7897,
      " रामः": 7898,
      "हेतुः": 7899,
      " शरीरे": 7900,
      " (),": 7901,
      "ेष्वपि": 7902,
      " पुस्तकं": 7903,
      " चन": 7904,
      "त्रय": 7905,
      "विवर्ज": 7906,
      " जो": 7907,
      " आवि": 7908,
      " निद्र": 7909,
      " संबन्ध": 7910,
      " धनु": 7911,
      "ज्ञया": 7912,
      "ेदः": 7913,
      " परिण": 7914,
      " समाचरेत्": 7915,
      "पदेन": 7916,
      "स्थाय": 7917,
      " क्रमात्": 7918,
      "पूर्णं": 7919,
      "मनुष्य": 7920,
      "कूगु": 7921,
      " प्रार्थना": 7922,
      "क्रीडा": 7923,
      "op": 7924,
      "थी": 7925,
      "शाः": 7926,
      " वय्कः": 7927,
      " अक": 7928,
      " अस्याः": 7929,
      " प्रसू": 7930,
      " चित": 7931,
      " शरण": 7932,
      " संह": 7933,
      "स्वरूपं": 7934,
      " त्वर": 7935,
      " भूय": 7936,
      " नूनं": 7937,
      "मुपा": 7938,
      "मेध": 7939,
      " भाष्य": 7940,
      " पिण्ड": 7941,
      " चतुर्": 7942,
      " करणे": 7943,
      " मुखं": 7944,
      " सैन्य": 7945,
      " लाखों": 7946,
      "US": 7947,
      "ok": 7948,
      "जनं": 7949,
      "पदेश": 7950,
      " साय": 7951,
      " सर्ग": 7952,
      " अधः": 7953,
      " मोद": 7954,
      " इन्": 7955,
      " रह": 7956,
      "प्लु": 7957,
      "ड़ा": 7958,
      "मध्यम": 7959,
      " by": 7960,
      "यतीति": 7961,
      "ुद": 7962,
      "॰।\n": 7963,
      " सलि": 7964,
      " यश्च": 7965,
      " भुक्त": 7966,
      " विपर्य": 7967,
      " ध्रु": 7968,
      "ज्ञाना": 7969,
      " दृष्टा": 7970,
      " जगतः": 7971,
      " सुखी": 7972,
      "ence": 7973,
      "संस्कार": 7974,
      "व्रत": 7975,
      " कारणेन": 7976,
      "वस्तुतः": 7977,
      "\"'": 7978,
      "ht": 7979,
      "ततोऽ": 7980,
      "धुं": 7981,
      "न्यते": 7982,
      "भृत": 7983,
      "ऽत्र": 7984,
      "ीकृत": 7985,
      "स्तः": 7986,
      " गताः": 7987,
      " वार्षिक": 7988,
      " धृ": 7989,
      " स्वामी": 7990,
      "वात": 7991,
      "वासः": 7992,
      "तीः": 7993,
      "च्छे": 7994,
      " समृद्ध": 7995,
      " इत्येवं": 7996,
      "ोऽसि": 7997,
      " महीयते": 7998,
      "क्षणम्": 7999,
      "किम्": 8000,
      " श्रुत": 8001,
      "र्पण": 8002,
      " प्रिये": 8003,
      " मनोर": 8004,
      "जानां": 8005,
      "ऽस्ति": 8006,
      " स॒": 8007,
      " वरा": 8008,
      "त्रेण": 8009,
      "विद्व": 8010,
      " आय": 8011,
      "दिह": 8012,
      "ङ्कु": 8013,
      "रोना": 8014,
      "िताम्": 8015,
      "श्रू": 8016,
      "ख्यातं": 8017,
      " अन्यः": 8018,
      " अनन्त": 8019,
      " वक्तव्यः": 8020,
      "ानामपि": 8021,
      " प्रसन्न": 8022,
      "सिंह": 8023,
      "आकाश": 8024,
      "यस्तु": 8025,
      "िम": 8026,
      " द्यु": 8027,
      " विभाव": 8028,
      "ावस्था": 8029,
      " रचना": 8030,
      "ापू": 8031,
      "स्थां": 8032,
      "श्छ": 8033,
      "प्रतिपाद": 8034,
      "सिद्धिः": 8035,
      "विशेषण": 8036,
      "ore": 8037,
      " उक्तवान्": 8038,
      " प्रविष्ट": 8039,
      " पुरात": 8040,
      " इच्छा": 8041,
      " अगच्छ": 8042,
      " रति": 8043,
      "येगु": 8044,
      "संहिता": 8045,
      " सागर": 8046,
      "त्वाद्": 8047,
      "र्यस्य": 8048,
      "ब्दे": 8049,
      "तदपि": 8050,
      " चिरं": 8051,
      "ज्जन": 8052,
      "राष्ट्रीय": 8053,
      "परम्परा": 8054,
      " लोपः": 8055,
      " सर्वभूतानां": 8056,
      "oc": 8057,
      "जन्य": 8058,
      "ध्र": 8059,
      "ितवती": 8060,
      " विलम्ब": 8061,
      "क्षमा": 8062,
      "क्षायां": 8063,
      " आयोज": 8064,
      "रिया": 8065,
      " भवन्तः": 8066,
      " वाणि": 8067,
      "ीयत": 8068,
      " फ़": 8069,
      "युक्ता": 8070,
      " ब्रवी": 8071,
      "कल्या": 8072,
      "कामं": 8073,
      " राष्ट्रे": 8074,
      " पश्ये": 8075,
      "-म": 8076,
      "कवि": 8077,
      "हितम्": 8078,
      "८९": 8079,
      " पलाय": 8080,
      " यति": 8081,
      "निज": 8082,
      "योरपि": 8083,
      "ल्पि": 8084,
      " मार्च": 8085,
      " क्षणं": 8086,
      " छा": 8087,
      " व्याकरण": 8088,
      "राजस्य": 8089,
      "ind": 8090,
      " मूलं": 8091,
      " चेष्ट": 8092,
      " पार्व": 8093,
      "est": 8094,
      "ंग": 8095,
      "अध्या": 8096,
      "इदानी": 8097,
      "चुः": 8098,
      "समि": 8099,
      "ेना": 8100,
      " सती": 8101,
      " पुष्ट": 8102,
      "ष्ठे": 8103,
      "सीति": 8104,
      "समू": 8105,
      " अवश्य": 8106,
      "ान्वितः": 8107,
      " II": 8108,
      " दिवसे": 8109,
      "Pre": 8110,
      "ud": 8111,
      "चत्व": 8112,
      "पित्र": 8113,
      "वत्त": 8114,
      "वरिष्ठ": 8115,
      "ऽस्मिन्": 8116,
      "ीर्ण": 8117,
      "ैर्वि": 8118,
      "र्स": 8119,
      "स्ततो": 8120,
      "रेन्द्र": 8121,
      "व्यवसाय": 8122,
      "स्माद": 8123,
      " स्थितं": 8124,
      " छगू": 8125,
      "ित्रं": 8126,
      " चिद": 8127,
      " ट्र": 8128,
      " पुराण": 8129,
      " सूर्यः": 8130,
      "लेखः": 8131,
      " पार्श्वे": 8132,
      "]।\n": 8133,
      "करी": 8134,
      "जू": 8135,
      "य्त": 8136,
      " प्या": 8137,
      "्याम्": 8138,
      " ददौ": 8139,
      " याम": 8140,
      "क्षितः": 8141,
      "प्रदेशे": 8142,
      "िकानां": 8143,
      " निर्वि": 8144,
      "संभवः": 8145,
      " एवै": 8146,
      " प्रतिपद्यते": 8147,
      "ोऽनु": 8148,
      "दुष्ट": 8149,
      " अनुप": 8150,
      "गतिः": 8151,
      "णौ": 8152,
      "वते": 8153,
      " अपर": 8154,
      "्याद": 8155,
      " प्रभावः": 8156,
      " एषां": 8157,
      " संदे": 8158,
      " लौक": 8159,
      "ासो": 8160,
      " नाग": 8161,
      " युक्तं": 8162,
      " पूर्वेण": 8163,
      "क्षिप्त": 8164,
      "देक": 8165,
      " कार्यः": 8166,
      " अपना": 8167,
      "गृहीत": 8168,
      "सोम": 8169,
      " संशय": 8170,
      " प्राप्नो": 8171,
      " शक्नुवन्ति": 8172,
      "पुराण": 8173,
      " महोदय": 8174,
      "६९": 8175,
      " नष्ट": 8176,
      " अर": 8177,
      " अतो": 8178,
      " प्रारम्भ": 8179,
      "विनि": 8180,
      " प्रतिज्ञा": 8181,
      "क्षणः": 8182,
      " समाहितः": 8183,
      "द्विष": 8184,
      "ुक्तम्": 8185,
      " चतुर्दश": 8186,
      "प्रश्नः": 8187,
      "अत्य": 8188,
      " कानि": 8189,
      "क्थ": 8190,
      "क्षय": 8191,
      "रात्रं": 8192,
      "ादेः": 8193,
      "ायन": 8194,
      "त्वस्य": 8195,
      " परत": 8196,
      " क्रुद्ध": 8197,
      " उत्तरा": 8198,
      "लक्षणा": 8199,
      " राष्ट्रीय": 8200,
      " नियमः": 8201,
      "त्यादिना": 8202,
      " गमिष्यामि": 8203,
      "ment": 8204,
      "मत्र": 8205,
      "लानां": 8206,
      "वीत": 8207,
      "िणः": 8208,
      " सत्त": 8209,
      " सर्गः": 8210,
      " तन्नि": 8211,
      " माह": 8212,
      " भृश": 8213,
      "तेज": 8214,
      " ब्रि": 8215,
      " राज्ञ": 8216,
      "साधु": 8217,
      " दिवं": 8218,
      "१९३": 8219,
      "षेधे": 8220,
      " संस्कार": 8221,
      " अमेरिक": 8222,
      "ाप्नोति": 8223,
      " कानून": 8224,
      " नागरिक": 8225,
      " r": 8226,
      "49": 8227,
      "आप": 8228,
      "पनं": 8229,
      " सङ्क": 8230,
      " प्रकट": 8231,
      " प्रकीर्त": 8232,
      " दौ": 8233,
      " निर्या": 8234,
      " सुत": 8235,
      "व्यय": 8236,
      "कुम": 8237,
      " कर्तु": 8238,
      " रुचि": 8239,
      "कर्तव्य": 8240,
      "कामः": 8241,
      "दृष्टि": 8242,
      "भ्यास": 8243,
      "मूर्त": 8244,
      "ष्यामः": 8245,
      " शक्यम्": 8246,
      " गतवान्": 8247,
      "क्ष्मी": 8248,
      " मन्यन्ते": 8249,
      "अज": 8250,
      " वणि": 8251,
      " मारु": 8252,
      "ष्णं": 8253,
      "दात्म": 8254,
      "मानव": 8255,
      "प्तिः": 8256,
      " पूर्ववत्": 8257,
      "व्याघ्र": 8258,
      "वादे": 8259,
      " प्राप्तम्": 8260,
      "विधः": 8261,
      " ऽहं": 8262,
      " चात्र": 8263,
      "शक्त्या": 8264,
      " शक्नुमः": 8265,
      "'ति": 8266,
      "(v": 8267,
      "इतर": 8268,
      "एको": 8269,
      "छा": 8270,
      "तये": 8271,
      "मन्व": 8272,
      "सद्": 8273,
      "७४": 8274,
      " त्": 8275,
      "राश": 8276,
      " स्वच्छ": 8277,
      "ाणाम": 8278,
      "ूपी": 8279,
      "दुर्ग": 8280,
      "प्रतियोग": 8281,
      "मुखे": 8282,
      "एतादृश": 8283,
      " भागं": 8284,
      " आह्व": 8285,
      " अध्यक्ष": 8286,
      " अध्यायः": 8287,
      " कल्याण": 8288,
      "()": 8289,
      "46": 8290,
      "येषां": 8291,
      " पीत": 8292,
      " वत्": 8293,
      " तच्छ": 8294,
      " अकथ": 8295,
      "ेने": 8296,
      " एशिया": 8297,
      "दास": 8298,
      " इत्युप": 8299,
      "भूषण": 8300,
      "पाक": 8301,
      " स्त्रिया": 8302,
      " स्यात्त": 8303,
      " शक्या": 8304,
      " स्वार्थ": 8305,
      " दोषो": 8306,
      " सीता": 8307,
      " ह्रस्व": 8308,
      "साक्षात्": 8309,
      " षोडश": 8310,
      "दया": 8311,
      "मनं": 8312,
      " सीत": 8313,
      " सदृश": 8314,
      " नान": 8315,
      " गीत": 8316,
      " निर्भ": 8317,
      "तीर्थ": 8318,
      "युज्य": 8319,
      "लाख": 8320,
      "ादिभिः": 8321,
      "च्चि": 8322,
      "ध्याये": 8323,
      " तत्रा": 8324,
      "धारणं": 8325,
      " द्विधा": 8326,
      " नील": 8327,
      " नाराय": 8328,
      " प्रयोजनं": 8329,
      " On": 8330,
      " प्रयुज्यते": 8331,
      "स्तूनि": 8332,
      "रैः": 8333,
      "लौ": 8334,
      "िनि": 8335,
      " नपुंस": 8336,
      " अप्य": 8337,
      "प्रया": 8338,
      "ादित्य": 8339,
      "मिल": 8340,
      "काण्ड": 8341,
      " खल्व": 8342,
      "पूज्य": 8343,
      "कम्प": 8344,
      "र्भु": 8345,
      " त्रयः": 8346,
      " गच्छन्ति": 8347,
      " गच्छामि": 8348,
      " मृत्युः": 8349,
      " x": 8350,
      "मयि": 8351,
      " पण्ड": 8352,
      " कवि": 8353,
      " तमः": 8354,
      " दये": 8355,
      "न्स": 8356,
      " परमे": 8357,
      "ज्ञाः": 8358,
      " महती": 8359,
      "समीप": 8360,
      " देहे": 8361,
      "कीर्ण": 8362,
      " कामः": 8363,
      " कुर्वन्तु": 8364,
      " जुया": 8365,
      " मृदु": 8366,
      "पुरस्": 8367,
      "पद्यन्ते": 8368,
      " गृह्णाति": 8369,
      "):": 8370,
      "55": 8371,
      "पद्ध": 8372,
      "फा": 8373,
      " सत्या": 8374,
      "ारणः": 8375,
      " यच्छ": 8376,
      "नाह": 8377,
      " आं": 8378,
      "ापृ": 8379,
      "ग्रहे": 8380,
      " श्रेय": 8381,
      " दिशः": 8382,
      " कथयामि": 8383,
      "ोपदेश": 8384,
      "य्कलं": 8385,
      " कापि": 8386,
      " अधिकृत": 8387,
      "ात्मकं": 8388,
      "शाली": 8389,
      "ादीनि": 8390,
      " स्थापना": 8391,
      " पृथिव्यां": 8392,
      "दाव": 8393,
      "सरः": 8394,
      "ैस्तु": 8395,
      " पारि": 8396,
      " कण्ठ": 8397,
      " तत्व": 8398,
      " प्रास": 8399,
      "माच": 8400,
      "प्रच्छ": 8401,
      " आधुनिक": 8402,
      "दिष्टं": 8403,
      "सीं": 8404,
      "र्यो": 8405,
      " केचि": 8406,
      "दीनि": 8407,
      "शोभ": 8408,
      "ल्यू": 8409,
      "श्मीर": 8410,
      "ँय्": 8411,
      "ैर्न": 8412,
      "७९": 8413,
      "माम्": 8414,
      " विंश": 8415,
      " विद्धि": 8416,
      " परितः": 8417,
      "्येक": 8418,
      "पातः": 8419,
      "सारं": 8420,
      " अपरा": 8421,
      "विधौ": 8422,
      " सुखदुःख": 8423,
      " दीर्घः": 8424,
      " कौन्ते": 8425,
      "ांतरण": 8426,
      "47": 8427,
      "ip": 8428,
      "शक्य": 8429,
      "सेत्": 8430,
      "ुर्": 8431,
      "८६": 8432,
      " वंश": 8433,
      " शनैः": 8434,
      "प्रकृत": 8435,
      " स्वरूपं": 8436,
      "शिख": 8437,
      " उपयोगः": 8438,
      " नाम्": 8439,
      "ानुकूल": 8440,
      "पूर्वकं": 8441,
      "धीन": 8442,
      "पृच्छ": 8443,
      "भोजन": 8444,
      " नरक": 8445,
      " िव": 8446,
      " सैनिक": 8447,
      "'-": 8448,
      "ly": 8449,
      "गीत": 8450,
      "जने": 8451,
      "नन्त": 8452,
      "सदृश": 8453,
      " सप": 8454,
      " जला": 8455,
      "द्भि": 8456,
      " उद्योग": 8457,
      " लक्ष्म": 8458,
      " दिव्यं": 8459,
      " राजानं": 8460,
      " कार्यान्व": 8461,
      " जातो": 8462,
      "ित्वात्": 8463,
      " शोच": 8464,
      "र्द्धं": 8465,
      "च्यन्ते": 8466,
      " समाप्तम्": 8467,
      " कस्यचित्": 8468,
      " गृह्ण": 8469,
      "कर्म्म": 8470,
      "नदी": 8471,
      "नन्व": 8472,
      " तस्यां": 8473,
      " अन्ध": 8474,
      "विप्र": 8475,
      " ह्रीं": 8476,
      "ायो": 8477,
      " आच": 8478,
      "ालयः": 8479,
      "ान्तर्ग": 8480,
      " कार्ये": 8481,
      " यथाक्रमम्": 8482,
      "रीत्या": 8483,
      "पेपर": 8484,
      "विषया": 8485,
      " प्रिया": 8486,
      " लिखितानां": 8487,
      " सामान्यतः": 8488,
      " स्त्रियः": 8489,
      " अन्तिम": 8490,
      "शता": 8491,
      "सन्ति": 8492,
      " नय": 8493,
      "पात्र": 8494,
      "श्नुते": 8495,
      "सम्य": 8496,
      "त्सवः": 8497,
      "ित्याह": 8498,
      " पुस्तक": 8499,
      "चेष्ट": 8500,
      "वासिनः": 8501,
      "दीय": 8502,
      "नमः": 8503,
      "ैका": 8504,
      "्यतां": 8505,
      " सर्प": 8506,
      " मध्या": 8507,
      " दाय": 8508,
      "क्षये": 8509,
      " इवा": 8510,
      "त्तमः": 8511,
      " रसो": 8512,
      " धइगु": 8513,
      "ङ्क्ते": 8514,
      "संवत्स": 8515,
      "पीति": 8516,
      "सङ्घ": 8517,
      ">>": 8518,
      "जाय": 8519,
      "भ्यते": 8520,
      "७२": 8521,
      "मायां": 8522,
      " निद्रा": 8523,
      " सुभाष": 8524,
      " प्रतिभा": 8525,
      "क्षणिक": 8526,
      "श्रव": 8527,
      "प्नोति": 8528,
      " पृष्ठानां": 8529,
      "्याःगु": 8530,
      "मार्गः": 8531,
      " राक्षस": 8532,
      "41": 8533,
      "चिक": 8534,
      "शृ": 8535,
      "ूणां": 8536,
      "तिथ": 8537,
      " दक्ष": 8538,
      "स्ट्": 8539,
      " हू": 8540,
      "त्यते": 8541,
      " एनं": 8542,
      " पुमान्": 8543,
      "द्वेष": 8544,
      "ब्धः": 8545,
      " कुर्मः": 8546,
      "द्रं": 8547,
      "द्यां": 8548,
      "प्लव": 8549,
      "भाषया": 8550,
      " जन्मनि": 8551,
      " St": 8552,
      " आरब्ध": 8553,
      " अस्माकम्": 8554,
      " संस्थिता": 8555,
      "छु": 8556,
      "दस्य": 8557,
      "नोऽ": 8558,
      "र्मु": 8559,
      " तपो": 8560,
      " तेषाम्": 8561,
      "क्ट": 8562,
      " वाऽ": 8563,
      "कामा": 8564,
      "द्वीप": 8565,
      "स्वामि": 8566,
      "शिष्य": 8567,
      " वैद्य": 8568,
      "देः": 8569,
      " जिला": 8570,
      "पुस्तक": 8571,
      " पार्थिव": 8572,
      " प्रभात": 8573,
      "पशु": 8574,
      "मप्य": 8575,
      "सने": 8576,
      " नास": 8577,
      " अर्हति": 8578,
      " द्यो": 8579,
      "निर्वा": 8580,
      "ालये": 8581,
      "ृतौ": 8582,
      "नेत्र": 8583,
      "स्यास्य": 8584,
      " श्रद्धा": 8585,
      "भ्यन्तरे": 8586,
      " अन्यत्": 8587,
      "ुमर्हसि": 8588,
      " जायन्ते": 8589,
      "वृष्ट": 8590,
      "शर": 8591,
      "िनो": 8592,
      "६६": 8593,
      "राष्ट्रिय": 8594,
      "रिक्षे": 8595,
      "न्यत्र": 8596,
      " महाम": 8597,
      " नापि": 8598,
      "ानाति": 8599,
      "ख्यानं": 8600,
      "अवश्यं": 8601,
      "साधनं": 8602,
      " द्रष्टव्यम्": 8603,
      "अपरा": 8604,
      "कत्वात्": 8605,
      "मध्या": 8606,
      "९१": 8607,
      " सस्य": 8608,
      " ताम्": 8609,
      " नरो": 8610,
      " अन्या": 8611,
      " विकार": 8612,
      "स्तर": 8613,
      "स्तौ": 8614,
      " शाप": 8615,
      "दाता": 8616,
      "ानिति": 8617,
      "ाण्य": 8618,
      " मुञ्च": 8619,
      "ोक्ता": 8620,
      " जनसंख्या": 8621,
      " शुभे": 8622,
      "स्पृश": 8623,
      " वक्तव्यं": 8624,
      " भूतानां": 8625,
      "उभ": 8626,
      "ठा": 8627,
      "शोध": 8628,
      " वल": 8629,
      " अच्": 8630,
      " प्रशिक्षु": 8631,
      " किलो": 8632,
      " मुदा": 8633,
      " फे": 8634,
      " छः": 8635,
      " करोतुः": 8636,
      " समुच्च": 8637,
      " षड्": 8638,
      "एतद्": 8639,
      "ञ्ज्ञा": 8640,
      " प्रोक्तो": 8641,
      "समुदाय": 8642,
      " सहस्राणि": 8643,
      " परिसन्धिं": 8644,
      "ेन्द्र": 8645,
      " साद": 8646,
      " निन्द": 8647,
      " सर्वतो": 8648,
      "भिप्राय": 8649,
      "श्वः": 8650,
      " सम्मान": 8651,
      " पाहि": 8652,
      "विधाः": 8653,
      "स्थानानि": 8654,
      "ञ्जीत": 8655,
      "सहस्रं": 8656,
      " मार्गे": 8657,
      " द्वितीयः": 8658,
      " पर्यन्तं": 8659,
      " परमेश्वरः": 8660,
      "गृ": 8661,
      "ितया": 8662,
      " विपु": 8663,
      "क्षत": 8664,
      "प्राणि": 8665,
      " हल": 8666,
      " आपः": 8667,
      "ेश्च": 8668,
      "श्चित्": 8669,
      "स्वतन्त्र": 8670,
      "लिया": 8671,
      " योष": 8672,
      "चिन्त्य": 8673,
      " भूम": 8674,
      " बहुव्री": 8675,
      " विशेषणम्": 8676,
      " द्रो": 8677,
      " कदाचि": 8678,
      " जुयाः": 8679,
      " आगतः": 8680,
      " आगच्छति": 8681,
      "भेदा": 8682,
      "पक्षः": 8683,
      " परमात्मा": 8684,
      "स्वप्न": 8685,
      "अनि": 8686,
      "जन्त": 8687,
      "तयोः": 8688,
      "ाश": 8689,
      "तिर": 8690,
      " गतौ": 8691,
      "रुच्यते": 8692,
      " कुम्भ": 8693,
      "सम्भवः": 8694,
      " शिक्षण": 8695,
      " प्रत्ययो": 8696,
      " गृहाण": 8697,
      "राजः": 8698,
      "क्लेश": 8699,
      " st": 8700,
      "जां": 8701,
      "धृ": 8702,
      "मन्दि": 8703,
      "रल": 8704,
      "्रं": 8705,
      " सादृश": 8706,
      " वरः": 8707,
      "मात्रा": 8708,
      " इष्यते": 8709,
      "त्तरं": 8710,
      " रोज": 8711,
      " पूर्वमेव": 8712,
      "वेति": 8713,
      " ऽयं": 8714,
      "किंच": 8715,
      "अध्यायः": 8716,
      "जेन": 8717,
      "ल्यं": 8718,
      "ोपा": 8719,
      "८४": 8720,
      " मतिः": 8721,
      " प्रज्ञा": 8722,
      "विन": 8723,
      " एतेषां": 8724,
      " गं": 8725,
      "श्रो": 8726,
      " किमु": 8727,
      " सूर्या": 8728,
      " प्राप्ति": 8729,
      " वेदा": 8730,
      "ory": 8731,
      " Post": 8732,
      "क्वचित्": 8733,
      " सूत्रेण": 8734,
      " इत्युक्तम्": 8735,
      "-msgstr": 8736,
      "ey": 8737,
      "इव": 8738,
      "कत्वेन": 8739,
      "चनम्": 8740,
      "तृतीय": 8741,
      "रता": 8742,
      "ोच्यते": 8743,
      " प्रदूषण": 8744,
      " भयम्": 8745,
      "क्त्वा": 8746,
      " निर्ज": 8747,
      "प्ते": 8748,
      " प्राथ": 8749,
      "शुक्र": 8750,
      " श्रुतं": 8751,
      " अनन्तरं": 8752,
      " पठन्ति": 8753,
      " जुहो": 8754,
      "मांस": 8755,
      " प्रियः": 8756,
      " चेन्न": 8757,
      " तत्त्वतः": 8758,
      " प्रसिद्धः": 8759,
      " संसारे": 8760,
      " परम्परा": 8761,
      " दैत्य": 8762,
      "वतः": 8763,
      "हते": 8764,
      "्यानि": 8765,
      "ितमस्ति": 8766,
      " स्वल्प": 8767,
      "ग्रहं": 8768,
      " तेनैव": 8769,
      "र्घट": 8770,
      " प्राणा": 8771,
      "स्त्वया": 8772,
      " प्रणाली": 8773,
      "हृदय": 8774,
      "-उ": 8775,
      "ग्वि": 8776,
      "घन": 8777,
      "तू": 8778,
      "हनि": 8779,
      "्रिक": 8780,
      " ततोऽ": 8781,
      "माला": 8782,
      "स्नान": 8783,
      "रामि": 8784,
      " हेत": 8785,
      "योर्मध्ये": 8786,
      " संवि": 8787,
      " भविता": 8788,
      " कुटुम्ब": 8789,
      "देवी": 8790,
      " यत्नतः": 8791,
      "ज्ञाने": 8792,
      "एतच्च": 8793,
      " एतानि": 8794,
      " विद्यालये": 8795,
      " अतीत": 8796,
      " ब्रूहि": 8797,
      " सम्प्रसार": 8798,
      "शत्रु": 8799,
      "पश्चिम": 8800,
      "मृत्यु": 8801,
      " प्रातिपद": 8802,
      "लाखों": 8803,
      "60": 8804,
      "ंति": 8805,
      "उच्यते": 8806,
      "िनां": 8807,
      "ेता": 8808,
      "्ह": 8809,
      " सञ्ज": 8810,
      " नक्षत्र": 8811,
      "स्ताः": 8812,
      "नास्ति": 8813,
      "प्रस्तु": 8814,
      "िकस्य": 8815,
      "त्तो": 8816,
      "दिनम्": 8817,
      " निवेदन": 8818,
      "संघ": 8819,
      " सार्धं": 8820,
      "स्यात्": 8821,
      " कृप": 8822,
      " कृत्य": 8823,
      " किंचि": 8824,
      "वेः": 8825,
      "शाख": 8826,
      " प्राप्तिः": 8827,
      " तिथिः": 8828,
      "१९१": 8829,
      "वर्णः": 8830,
      " रेल": 8831,
      " धातोः": 8832,
      "चित्रं": 8833,
      " निष्कर्ष": 8834,
      "घातः": 8835,
      " News": 8836,
      "-व": 8837,
      "तरः": 8838,
      "रहित": 8839,
      " कान्त": 8840,
      " नां": 8841,
      "नायां": 8842,
      "दिल्ली": 8843,
      " निवर्तते": 8844,
      " सर्वपाप": 8845,
      " स्ने": 8846,
      "ज्ञं": 8847,
      " नामः": 8848,
      " विश्वस्य": 8849,
      " जातु": 8850,
      "धर्मः": 8851,
      " प्रजानां": 8852,
      "ड्ड": 8853,
      " डो": 8854,
      " उद्देश": 8855,
      " प्रयच्छति": 8856,
      "मण्डले": 8857,
      " स्वभावतः": 8858,
      " वेतन": 8859,
      " सनातनः": 8860,
      "ापृथि": 8861,
      "टल": 8862,
      "णीय": 8863,
      "पेत्": 8864,
      "वल": 8865,
      "शयेन": 8866,
      "सितं": 8867,
      " अथा": 8868,
      " प्रदेशः": 8869,
      " ददर्श": 8870,
      "क्षाः": 8871,
      " शकु": 8872,
      "प्रसार": 8873,
      " गर्व": 8874,
      "मिमं": 8875,
      " रवि": 8876,
      "साभारः": 8877,
      " सुलभ": 8878,
      " कुम": 8879,
      "ard": 8880,
      "उत्तम": 8881,
      "मूर्": 8882,
      "पिताम": 8883,
      " सङ्कल्प": 8884,
      "शास्त्रं": 8885,
      "एतस्य": 8886,
      "यस्व": 8887,
      " करा": 8888,
      " द्": 8889,
      "ष्क": 8890,
      "स्तात्": 8891,
      " आचर": 8892,
      " आधिकारिक": 8893,
      " वाक्या": 8894,
      " सुरा": 8895,
      " सुरक्ष": 8896,
      "श्वा": 8897,
      "श्रद्ध": 8898,
      " कृति": 8899,
      " श्रवण": 8900,
      "र्यथा": 8901,
      "कुतः": 8902,
      " वर्षं": 8903,
      "वृत्तं": 8904,
      "क्षेत्रं": 8905,
      " देयं": 8906,
      " सौम्य": 8907,
      "श्रुति": 8908,
      " लक्षणम्": 8909,
      " प्रयुक्तम्": 8910,
      "उच्चारणः": 8911,
      "%\n": 8912,
      "टै": 8913,
      "पतिं": 8914,
      "यच्च": 8915,
      "६७": 8916,
      " पित्त": 8917,
      " क्या": 8918,
      " अंश": 8919,
      " जून": 8920,
      "ब्धा": 8921,
      "केगु": 8922,
      " ज्ञेयं": 8923,
      "२०६": 8924,
      " सप्तदश": 8925,
      " पृष्ठे": 8926,
      " पितॄ": 8927,
      " ऋतु": 8928,
      "जीवनं": 8929,
      "शास्त्रे": 8930,
      " तपसा": 8931,
      " अत्यन्त": 8932,
      "vious": 8933,
      " ञ": 8934,
      "अन्तः": 8935,
      "उगु": 8936,
      "ङः": 8937,
      "तस्यां": 8938,
      " पद्": 8939,
      " तासां": 8940,
      " यस्याः": 8941,
      "ायेत": 8942,
      " आत्मानं": 8943,
      " धनम्": 8944,
      "कृषि": 8945,
      " द्वेष": 8946,
      "१९२": 8947,
      " बिभ": 8948,
      " भर्ती": 8949,
      " परिकीर्त": 8950,
      "यन्तः": 8951,
      "ाक्ष": 8952,
      " वन्य": 8953,
      " श्रि": 8954,
      "प्रदाय": 8955,
      "ष्टुं": 8956,
      "काणि": 8957,
      "न्यून": 8958,
      "लाघ": 8959,
      "स्मिन": 8960,
      " वृथा": 8961,
      "प्रत्येकं": 8962,
      " वाचं": 8963,
      " फलानि": 8964,
      "\"फलकम्ः": 8965,
      "-न": 8966,
      "इष्ट": 8967,
      "यत्त": 8968,
      " सच": 8969,
      " पथि": 8970,
      " वारि": 8971,
      " कस्यापि": 8972,
      " करुणा": 8973,
      " असम": 8974,
      "स्तम्भ": 8975,
      "विरा": 8976,
      " संस्थाप": 8977,
      "श्चे": 8978,
      "श्म": 8979,
      "हारं": 8980,
      " चिर": 8981,
      "हापि": 8982,
      " सौभाग्य": 8983,
      "बुद्धिः": 8984,
      "ादेशे": 8985,
      " स्वर्गं": 8986,
      "ख्यानम्": 8987,
      "(इति": 8988,
      "-P": 8989,
      "अग": 8990,
      "जलं": 8991,
      "ानपि": 8992,
      " दार": 8993,
      " चानु": 8994,
      " स्वस्ति": 8995,
      "रुचि": 8996,
      "क्रमं": 8997,
      " छाया": 8998,
      "ह्नि": 8999,
      "एवमुक्त": 9000,
      " विद्यालयं": 9001,
      "ित्यादि": 9002,
      " सरल": 9003,
      "घ्नं": 9004,
      " कूट": 9005,
      "मुत्तमम्": 9006,
      "(c": 9007,
      "-नि": 9008,
      "ead": 9009,
      "ha": 9010,
      "line": 9011,
      "इदम्": 9012,
      "रचना": 9013,
      "माणः": 9014,
      "ृत्या": 9015,
      "तुल्य": 9016,
      "कारणम्": 9017,
      " तुम": 9018,
      "लोच": 9019,
      " माध": 9020,
      "श्मि": 9021,
      " अभिव्यक्ति": 9022,
      " वेदित": 9023,
      " कुरुत": 9024,
      " किमर्थम्": 9025,
      " बीज": 9026,
      "खोज": 9027,
      "मतं": 9028,
      "ैस्त": 9029,
      " पयो": 9030,
      " वनं": 9031,
      " यया": 9032,
      "न्तरा": 9033,
      "नाप": 9034,
      "ेनं": 9035,
      " निबोध": 9036,
      " बौद्ध": 9037,
      " संबन्धः": 9038,
      " समव": 9039,
      "वृतः": 9040,
      " जुइगु": 9041,
      " शक्यः": 9042,
      "तय्सं": 9043,
      "पृथक्": 9044,
      "]]": 9045,
      "ain": 9046,
      "उभय": 9047,
      "खल": 9048,
      "चाः": 9049,
      "जति": 9050,
      "तरे": 9051,
      "ऽभि": 9052,
      " वयम": 9053,
      "ानव": 9054,
      " अस्या": 9055,
      " विरु": 9056,
      " रौ": 9057,
      " सुतः": 9058,
      " खने": 9059,
      " देवान्": 9060,
      " स्थिताः": 9061,
      " पुनर्ज": 9062,
      "्योः": 9063,
      " स्थापित": 9064,
      "हीनं": 9065,
      "णामः": 9066,
      "ड़े": 9067,
      " नृपः": 9068,
      "ानुसारेण": 9069,
      " निर्माणं": 9070,
      " प्राणिनां": 9071,
      " चिकित्सा": 9072,
      "epal": 9073,
      " परित्यज्य": 9074,
      " इदानीम्": 9075,
      "tion": 9076,
      "गन": 9077,
      "दशा": 9078,
      "लक": 9079,
      "सञ्च": 9080,
      "सायं": 9081,
      "्यता": 9082,
      " कक्षा": 9083,
      " दशा": 9084,
      "तेि": 9085,
      "न्ह": 9086,
      "माध": 9087,
      " विभो": 9088,
      "यात्म": 9089,
      " बाण": 9090,
      " वास्त": 9091,
      " वाताव": 9092,
      " परतः": 9093,
      " त्वाम्": 9094,
      " मुनी": 9095,
      " स्त्र": 9096,
      "जातं": 9097,
      "स्त्रं": 9098,
      "न्यासः": 9099,
      " जगाम": 9100,
      "पत्तौ": 9101,
      " पितॄणां": 9102,
      " प्राप्नु": 9103,
      "वचं": 9104,
      " यज्ञं": 9105,
      "मार्गेण": 9106,
      "धिकरणे": 9107,
      " अन्वेष": 9108,
      "एन": 9109,
      "चिता": 9110,
      "डं": 9111,
      "बर्": 9112,
      "भवा": 9113,
      " अन्ते": 9114,
      " ययय": 9115,
      "विल": 9116,
      "दिव्य": 9117,
      " संयोज": 9118,
      " लाल": 9119,
      " वाज": 9120,
      " परियोजना": 9121,
      "लोका": 9122,
      "ञ्चन": 9123,
      " दुर": 9124,
      " वर्त्त": 9125,
      " विज्ञायते": 9126,
      "तस्माद्": 9127,
      " पश्चिमे": 9128,
      " →\n": 9129,
      " इतिहासः": 9130,
      "तयः": 9131,
      "तायां": 9132,
      "दर्शि": 9133,
      "८१": 9134,
      " सत्र": 9135,
      " मय": 9136,
      " प्रौ": 9137,
      "त्र्त": 9138,
      "नाट": 9139,
      "प्रवर्त": 9140,
      " एक्स": 9141,
      "योप": 9142,
      " निम्न": 9143,
      " सुषु": 9144,
      " स्मृताः": 9145,
      "काशं": 9146,
      " औषध": 9147,
      " जुल": 9148,
      " विकल्पः": 9149,
      " अत्यन्तं": 9150,
      " दोषा": 9151,
      "पश्चात्": 9152,
      "ies": 9153,
      "अध": 9154,
      "णीं": 9155,
      "पर्ण": 9156,
      "यत्य": 9157,
      "सन्न": 9158,
      " पाय": 9159,
      " ताल": 9160,
      "स्तम्": 9161,
      "न्त्व": 9162,
      "क्ष्व": 9163,
      "युतं": 9164,
      "हिः": 9165,
      "कृष": 9166,
      " ख्री": 9167,
      "पूर्ति": 9168,
      " उपकरण": 9169,
      " शिशु": 9170,
      " भावना": 9171,
      " सप्ताह": 9172,
      " ज्ञानम्": 9173,
      " सन्धि": 9174,
      " नित्यम्": 9175,
      "प्रियः": 9176,
      "्राज्य": 9177,
      "मण्डल": 9178,
      " क्षिप्र": 9179,
      " विरासत": 9180,
      "भाष्यम्": 9181,
      "'s": 9182,
      "SP": 9183,
      "up": 9184,
      "अल्प": 9185,
      "अधिकार": 9186,
      "दां": 9187,
      "फला": 9188,
      "मर": 9189,
      "मर्थ": 9190,
      "रसः": 9191,
      "६३": 9192,
      " पेश": 9193,
      "तिम्": 9194,
      " कविः": 9195,
      " असु": 9196,
      " दारिद्र": 9197,
      " भेष": 9198,
      "विज्ञानं": 9199,
      " पुष्टि": 9200,
      " संज्ञ": 9201,
      " लं": 9202,
      " प्रतिबन्ध": 9203,
      " सार्ध": 9204,
      " साभारः": 9205,
      "ग्नौ": 9206,
      " कृपा": 9207,
      " भूत्": 9208,
      "स्रोत": 9209,
      "वीर": 9210,
      "यिष्य": 9211,
      " जीवित": 9212,
      " अपश्य": 9213,
      "म्बर्": 9214,
      " पितु": 9215,
      "भीष्ट": 9216,
      " ज्ञातुं": 9217,
      " जानासि": 9218,
      " भ्राता": 9219,
      "59": 9220,
      "df": 9221,
      "अने": 9222,
      "धम्": 9223,
      "फलम्": 9224,
      " वरुण": 9225,
      " मत्वा": 9226,
      "न्मुक्त": 9227,
      " विज्ञानं": 9228,
      " भवतो": 9229,
      " प्रतिभाति": 9230,
      "ृष्टः": 9231,
      " मुनिः": 9232,
      " युधिष्ठ": 9233,
      "सहाय": 9234,
      " आगत्य": 9235,
      " सम्यग्": 9236,
      "िंशत्": 9237,
      "निमित्तं": 9238,
      "ail": 9239,
      "७७": 9240,
      " वर्": 9241,
      " वारं": 9242,
      " अभाव": 9243,
      " मतं": 9244,
      "क्स्": 9245,
      " गज": 9246,
      "त्वादि": 9247,
      " लज्ज": 9248,
      " सात": 9249,
      " श्रृणु": 9250,
      "धान्य": 9251,
      "कुत": 9252,
      "कुले": 9253,
      " एकदा": 9254,
      " शिवः": 9255,
      "स्थाः": 9256,
      " प्रत्ये": 9257,
      "यथार्थ": 9258,
      "याम्य": 9259,
      " कल्पना": 9260,
      " पृथिवीं": 9261,
      " साधनं": 9262,
      "स्थितौ": 9263,
      " त्याग": 9264,
      " विभक्तिः": 9265,
      " नवीन": 9266,
      " j": 9267,
      "br": 9268,
      "ईश्व": 9269,
      "एता": 9270,
      "दल": 9271,
      "यर": 9272,
      "रङ्ग": 9273,
      "हल": 9274,
      " पल": 9275,
      " पत्रं": 9276,
      "ाव्": 9277,
      "नुप": 9278,
      " मुच्यते": 9279,
      " राजनीति": 9280,
      "सर्व्व": 9281,
      " शिरः": 9282,
      "दीर": 9283,
      "षिध्यते": 9284,
      "वाचक": 9285,
      " नेपाः": 9286,
      "शोक": 9287,
      "ज्जीव": 9288,
      "जीवि": 9289,
      " ताड": 9290,
      " द्वितीये": 9291,
      " विज्ञे": 9292,
      "ERSE": 9293,
      "com": 9294,
      "पक्व": 9295,
      "रवि": 9296,
      "ुच्यते": 9297,
      " कम्": 9298,
      " म्रियते": 9299,
      " चोद": 9300,
      "राच": 9301,
      "ष्टिः": 9302,
      " समर्थः": 9303,
      " समूह": 9304,
      " दिल्ली": 9305,
      "ान्यपि": 9306,
      " काचित्": 9307,
      "ष्णु": 9308,
      "वोच": 9309,
      " पादौ": 9310,
      " In": 9311,
      "age": 9312,
      " सङ्घ": 9313,
      " धारणा": 9314,
      "विभागः": 9315,
      " तस्माद्": 9316,
      "समीपे": 9317,
      "42": 9318,
      "ंद्र": 9319,
      "अल": 9320,
      "चां": 9321,
      "तद्वि": 9322,
      "मतिः": 9323,
      "यश": 9324,
      "यस्या": 9325,
      "सर्जन": 9326,
      "ैनं": 9327,
      " यन्म": 9328,
      "न्तौ": 9329,
      " शता": 9330,
      " शर्म": 9331,
      "प्रतं": 9332,
      " हस्ति": 9333,
      "ादान": 9334,
      "ावो": 9335,
      "मिद": 9336,
      "कार्ये": 9337,
      "कोट": 9338,
      "मुखी": 9339,
      " चतुर्व": 9340,
      "मात्रम्": 9341,
      " ह्य्": 9342,
      " ऊर्ज": 9343,
      "पन्नो": 9344,
      " अध्याप": 9345,
      " on": 9346,
      "गतम": 9347,
      "झ्वः": 9348,
      "यमिति": 9349,
      "षम्": 9350,
      " सद्यः": 9351,
      "तिरिक्त": 9352,
      " कप": 9353,
      " नौक": 9354,
      "ितान्": 9355,
      " अर्थे": 9356,
      " प्रमा": 9357,
      "न्मे": 9358,
      "याद्": 9359,
      " गतिं": 9360,
      " आर्": 9361,
      " आत्": 9362,
      " उदाह": 9363,
      "वाक्यं": 9364,
      "मुनि": 9365,
      "न्यू": 9366,
      "न्येन": 9367,
      " साक्षा": 9368,
      " कार्त": 9369,
      " मार्गः": 9370,
      " पृच्छति": 9371,
      "इतिहास": 9372,
      "गतौ": 9373,
      " बालकाः": 9374,
      " प्राप्नुवन्ति": 9375,
      "ुमर्हति": 9376,
      "000": 9377,
      " पुस्तके": 9378,
      " चित्रं": 9379,
      "भूमिः": 9380,
      " समन्ततः": 9381,
      "स्तथैव": 9382,
      "उक्तं": 9383,
      "नहि": 9384,
      "मये": 9385,
      " मनी": 9386,
      "मासी": 9387,
      "द्दे": 9388,
      " एन": 9389,
      "ादृ": 9390,
      " संहिता": 9391,
      " वाक्ये": 9392,
      "वाचि": 9393,
      "च्छत्": 9394,
      " हिमा": 9395,
      "धिपः": 9396,
      "पुरं": 9397,
      " पूँजी": 9398,
      "ोऽप्य": 9399,
      " श्रम": 9400,
      " माग": 9401,
      " स्थानि": 9402,
      " सूची": 9403,
      "र्धे": 9404,
      "एतानि": 9405,
      " जुलाई": 9406,
      "खें": 9407,
      " मनुष्याणां": 9408,
      "-ए": 9409,
      "कान्त": 9410,
      "गमि": 9411,
      "ज्यो": 9412,
      "रान": 9413,
      "वैः": 9414,
      " कस्मात्": 9415,
      " नानु": 9416,
      " धना": 9417,
      " परस्य": 9418,
      "ेद्य": 9419,
      "द्वये": 9420,
      "स्वती": 9421,
      " क्षणे": 9422,
      "शेषः": 9423,
      " अवलोक": 9424,
      " प्रथमो": 9425,
      " अन्तरिक्ष": 9426,
      "दृष्टं": 9427,
      " मूर्त": 9428,
      " वचनम्": 9429,
      "श्रुत्वा": 9430,
      " ग्रहणं": 9431,
      " स्मृतिः": 9432,
      " नियन्त्र": 9433,
      "िकीर्ष": 9434,
      " वार्ता": 9435,
      "मिच्छामि": 9436,
      " व्रजेत्": 9437,
      "तन्म": 9438,
      "भक्ष": 9439,
      "ाहं": 9440,
      "ुट": 9441,
      "र्कः": 9442,
      " विहित": 9443,
      "स्लि": 9444,
      "ायोग": 9445,
      " पुरः": 9446,
      " निरु": 9447,
      " कथम": 9448,
      " कथां": 9449,
      " स्थित्वा": 9450,
      "देवो": 9451,
      "पदानि": 9452,
      "क्षिप्य": 9453,
      " व्याधि": 9454,
      "प्राप्तिः": 9455,
      "ord": 9456,
      " वृत्तिः": 9457,
      " आत्मनः": 9458,
      "बालकः": 9459,
      " स्तुति": 9460,
      "दुर्लभ": 9461,
      " विवेक": 9462,
      " निर्वाचन": 9463,
      "पाण": 9464,
      "लाव": 9465,
      "वरा": 9466,
      "शक": 9467,
      "षड": 9468,
      "८८": 9469,
      " वाव": 9470,
      " करुण": 9471,
      "यावत्": 9472,
      "विकास": 9473,
      "प्रक्रिया": 9474,
      " सर्वः": 9475,
      "येत्त": 9476,
      "भवन": 9477,
      "कृतो": 9478,
      "कालिक": 9479,
      "दुक्तं": 9480,
      "स्मृति": 9481,
      " सिन्ध": 9482,
      " जाग्र": 9483,
      " भविष्यसि": 9484,
      " एताव": 9485,
      " पठे": 9486,
      " निर्देशः": 9487,
      "प्रियं": 9488,
      "क्रियां": 9489,
      " कश्चिद": 9490,
      "स्कन्ध": 9491,
      "ide": 9492,
      " धार्मिक": 9493,
      "Previous": 9494,
      " कार्यान्वयन": 9495,
      "DF": 9496,
      "XX": 9497,
      "अस्म": 9498,
      "गान्": 9499,
      "घं": 9500,
      "जप": 9501,
      "ज्येष्ठ": 9502,
      "ढा": 9503,
      "भवात्": 9504,
      "ऽन": 9505,
      "्ति": 9506,
      " पान": 9507,
      " तान": 9508,
      " तज्": 9509,
      " मद्": 9510,
      " प्रकृते": 9511,
      " दध": 9512,
      " चाय": 9513,
      "क्लि": 9514,
      " निं": 9515,
      " समरे": 9516,
      "कृतेन": 9517,
      " गुह्य": 9518,
      "स्रः": 9519,
      " उत्कृष्ट": 9520,
      " महाबलः": 9521,
      " श्वः": 9522,
      " स्मृता": 9523,
      " बहवो": 9524,
      " मतदान": 9525,
      "ast": 9526,
      "अना": 9527,
      "जते": 9528,
      "श्या": 9529,
      " नश्यति": 9530,
      "ितवन्तः": 9531,
      " असं": 9532,
      " दं": 9533,
      " शाल": 9534,
      "च्छाद": 9535,
      "कालो": 9536,
      "युक्तम्": 9537,
      "ह्ने": 9538,
      " रूपाणि": 9539,
      " नेता": 9540,
      " राष्ट्रं": 9541,
      "वृद्धिः": 9542,
      " गणना": 9543,
      " परमार्थ": 9544,
      "नगरं": 9545,
      "अस्या": 9546,
      "वता": 9547,
      "हरं": 9548,
      "क्ष्मा": 9549,
      "स्कर": 9550,
      " ग्ल": 9551,
      " स्वात्म": 9552,
      " कुत्रापि": 9553,
      "ण्ण": 9554,
      " व्यय": 9555,
      " एकस्मिन्": 9556,
      "वादने": 9557,
      "ज्ञानम्": 9558,
      " दूरं": 9559,
      " लाभः": 9560,
      "धर्मं": 9561,
      "ary": 9562,
      "माःगु": 9563,
      " ऊर्जा": 9564,
      " शोक": 9565,
      " विस्तरेण": 9566,
      " शासन": 9567,
      " क्वापि": 9568,
      "काव्य": 9569,
      "दर्प": 9570,
      "बः": 9571,
      "सृत्य": 9572,
      " पद्म": 9573,
      "मादाय": 9574,
      " शान": 9575,
      " आशी": 9576,
      "श्चतु": 9577,
      " तुम्": 9578,
      "क्रमा": 9579,
      " महता": 9580,
      " दुग्ध": 9581,
      "सम्प्रति": 9582,
      "सूत्रे": 9583,
      "कीदृश": 9584,
      "इत्येवं": 9585,
      "कार्येषु": 9586,
      "ून्यं": 9587,
      " भगवतः": 9588,
      " शुभं": 9589,
      " शास्त्रं": 9590,
      "गिरि": 9591,
      " पुरस्कार": 9592,
      "माप्नोति": 9593,
      "pe": 9594,
      "पर्क": 9595,
      "बला": 9596,
      "सकं": 9597,
      " अप्": 9598,
      " मेष": 9599,
      " प्रम": 9600,
      "राक्ष": 9601,
      "ादशा": 9602,
      " पुण": 9603,
      " संनि": 9604,
      " भवितुं": 9605,
      " परां": 9606,
      "सामाजिक": 9607,
      "द्वौ": 9608,
      "पुट": 9609,
      "पुरो": 9610,
      " साध्या": 9611,
      "ोऽथ": 9612,
      " व्यप": 9613,
      " समाश्र": 9614,
      " पार्": 9615,
      " तत्सर्वं": 9616,
      " तस्यैव": 9617,
      "विषयं": 9618,
      " रिपु": 9619,
      " ओं": 9620,
      " प्रोक्तः": 9621,
      " व्रतं": 9622,
      "प्रयोगे": 9623,
      "ight": 9624,
      " हिन्दी": 9625,
      "qu": 9626,
      "अस्तु": 9627,
      "उद्": 9628,
      "चय": 9629,
      " कट": 9630,
      " अर्जु": 9631,
      " यि": 9632,
      " शे": 9633,
      " जलम्": 9634,
      " धाम": 9635,
      " स्वाय": 9636,
      "व्यमिति": 9637,
      "सुन्द": 9638,
      " शिश": 9639,
      " इत्यादौ": 9640,
      "कर्मणा": 9641,
      " श्रुतेः": 9642,
      " ईश": 9643,
      "ष्टाचार": 9644,
      "उत्तरम्": 9645,
      "फोटो": 9646,
      "कुर्वन्ति": 9647,
      " अगस्त": 9648,
      " च्छ": 9649,
      " प्रतियोगिता": 9650,
      "+इति": 9651,
      "उत": 9652,
      "तत्रा": 9653,
      "यक": 9654,
      "वहार": 9655,
      "ह्वा": 9656,
      "तिहास": 9657,
      " कद": 9658,
      "र्ब्ब": 9659,
      " अरे": 9660,
      " अङ्क": 9661,
      " मस्त": 9662,
      "ष्टम्": 9663,
      " ब्व": 9664,
      " खं": 9665,
      "पदी": 9666,
      "व्यां": 9667,
      " लोकाः": 9668,
      "एवम": 9669,
      " विद्यां": 9670,
      "शंसा": 9671,
      "वैश्व": 9672,
      "ित्वेन": 9673,
      " होवाच": 9674,
      "वदत्": 9675,
      " आसपास": 9676,
      " तमस्य": 9677,
      " बह्व": 9678,
      " न्यायालय": 9679,
      " धीमतः": 9680,
      " संवत्सरे": 9681,
      "तृतीया": 9682,
      "ears": 9683,
      "ST": 9684,
      "तत्रापि": 9685,
      "धरः": 9686,
      "नवी": 9687,
      "लक्ष्य": 9688,
      "वस्य": 9689,
      "ॊप": 9690,
      " वरु": 9691,
      " वर्द्ध": 9692,
      " कर्ष": 9693,
      "स्ना": 9694,
      "स्ने": 9695,
      "क्षाल": 9696,
      " स्वस्थ": 9697,
      "मुत्स": 9698,
      "भावना": 9699,
      " द्वीप": 9700,
      "सुत": 9701,
      "शिर": 9702,
      "जातीय": 9703,
      " पुत्री": 9704,
      "लक्षणः": 9705,
      " परीणामः": 9706,
      " पञ्चदश": 9707,
      "प्रथमः": 9708,
      " भिक्षु": 9709,
      " मासस्य": 9710,
      "बुध": 9711,
      " उद्घाट": 9712,
      " अनेके": 9713,
      "विष्णु": 9714,
      "\"स": 9715,
      "अवि": 9716,
      "गामि": 9717,
      "टर्": 9718,
      "पाणि": 9719,
      "मरु": 9720,
      "लाम": 9721,
      " कन्यां": 9722,
      "माप": 9723,
      " आवेद": 9724,
      " वास्तु": 9725,
      " हिम": 9726,
      "तंत्र": 9727,
      " द्वयोः": 9728,
      " नाथ": 9729,
      " समाप": 9730,
      "मंत्र": 9731,
      "ख्यातः": 9732,
      " यत्न": 9733,
      " विश्वास": 9734,
      "पूर्वा": 9735,
      "निर्देशः": 9736,
      "ित्वे": 9737,
      "199": 9738,
      "पन्ने": 9739,
      " समाप्तः": 9740,
      "कुर्वन्": 9741,
      " र्": 9742,
      "(यथा": 9743,
      "अङ्ग": 9744,
      "अर्ध": 9745,
      "चिं": 9746,
      "ष्याः": 9747,
      "हौ": 9748,
      " पक्षः": 9749,
      " जै": 9750,
      "प्रेत": 9751,
      "पिः": 9752,
      " निष्ठ": 9753,
      " रथं": 9754,
      "त्वाच्च": 9755,
      "र्यु": 9756,
      "जातः": 9757,
      "ज्ञानस्य": 9758,
      " रूपांतरण": 9759,
      " श्रुतम्": 9760,
      "ञ्जलि": 9761,
      " शाख": 9762,
      " विद्यालय": 9763,
      "डियो": 9764,
      " स्थानम्": 9765,
      " विभागः": 9766,
      " तत्त्वं": 9767,
      "log": 9768,
      "lok": 9769,
      "स्मिन्नेव": 9770,
      " चत्वारः": 9771,
      "//": 9772,
      "चक": 9773,
      "दध": 9774,
      "रतः": 9775,
      "लग्": 9776,
      "हन्ति": 9777,
      "७३": 9778,
      " अद्यापि": 9779,
      " प्रशंस": 9780,
      "ांस": 9781,
      "र्वेद": 9782,
      "प्रकरण": 9783,
      "प्रमाणं": 9784,
      "तःगु": 9785,
      "ाद्र": 9786,
      " आश": 9787,
      "मुवाच": 9788,
      "ष्ठः": 9789,
      "ीयतां": 9790,
      "कृष्णः": 9791,
      " प्रामाण": 9792,
      "जाता": 9793,
      "युक्तो": 9794,
      " जननी": 9795,
      "विधाय": 9796,
      " शब्दे": 9797,
      " कुर्वीत": 9798,
      " स्पर्ध": 9799,
      " मूल्यं": 9800,
      "ऽऽह": 9801,
      "दिवसे": 9802,
      "द्वितीया": 9803,
      "शून्य": 9804,
      " थःगु": 9805,
      " गन्तुं": 9806,
      "समन्वितः": 9807,
      "प्रभात": 9808,
      " समूहः": 9809,
      "99": 9810,
      "इच्छ": 9811,
      "एषां": 9812,
      "चयः": 9813,
      "ञ्ञ": 9814,
      "पोष": 9815,
      " द्याव": 9816,
      "त्यै": 9817,
      "त्वादिति": 9818,
      "योनि": 9819,
      " बर": 9820,
      " सर्वकाम": 9821,
      " स्नि": 9822,
      " समग्र": 9823,
      "भूताः": 9824,
      "पाकि": 9825,
      "कृताः": 9826,
      "कुलं": 9827,
      " औष": 9828,
      " समुद": 9829,
      "ब्रू": 9830,
      " मानस": 9831,
      " करने": 9832,
      " निश्चयः": 9833,
      "बीसी": 9834,
      "दोषः": 9835,
      " हेतुना": 9836,
      " जीर्ण": 9837,
      " प्रायश्चित्त": 9838,
      "इत्युक्त्वा": 9839,
      "स्रोतः": 9840,
      "own": 9841,
      " आरम्भः": 9842,
      " योगदानानि": 9843,
      " or": 9844,
      "\"इति": 9845,
      "43": 9846,
      "णम": 9847,
      "तमो": 9848,
      "मता": 9849,
      " सतां": 9850,
      " सकाश": 9851,
      " विदेशी": 9852,
      "ष्मे": 9853,
      " इलय्": 9854,
      " जन्त": 9855,
      "त्तस्य": 9856,
      "निषेध": 9857,
      "रिय": 9858,
      "दिशि": 9859,
      "ाणा": 9860,
      " गुप्त": 9861,
      "ज्ञानेन": 9862,
      " अन्यो": 9863,
      "दर्शने": 9864,
      "षेधा": 9865,
      "मुक्तम्": 9866,
      " महाबाह": 9867,
      " प्रमाणम्": 9868,
      "श्लेष": 9869,
      " be": 9870,
      "तिष्ठते": 9871,
      " मण्डल": 9872,
      " सन्ध्या": 9873,
      "श्ते": 9874,
      " अकथयत्": 9875,
      " ऎ": 9876,
      "ist": 9877,
      "उद्य": 9878,
      "वस्था": 9879,
      " सोऽपि": 9880,
      " वेश": 9881,
      "विस्म": 9882,
      " जाप": 9883,
      " जितः": 9884,
      " हतः": 9885,
      " आदेशः": 9886,
      "र्तुं": 9887,
      " सम्व": 9888,
      "ग्धा": 9889,
      " श्रोत": 9890,
      "लोम": 9891,
      " मासि": 9892,
      "जनम्": 9893,
      "भाग्यं": 9894,
      "कोश": 9895,
      "१९०": 9896,
      "षेधो": 9897,
      " ऋषि": 9898,
      "ैरेव": 9899,
      "राष्ट्रपति": 9900,
      " ज्योतिः": 9901,
      " }": 9902,
      "VERSE": 9903,
      "ठी": 9904,
      "पल": 9905,
      "ृद्धि": 9906,
      " सरो": 9907,
      " सखि": 9908,
      "ितेषु": 9909,
      "्याह": 9910,
      " मल": 9911,
      " प्रदेशे": 9912,
      "स्नानं": 9913,
      "प्रद": 9914,
      " एति": 9915,
      "दाति": 9916,
      "ापर": 9917,
      " पर्यु": 9918,
      "मुद्रा": 9919,
      "ज्ञास": 9920,
      "पुत्रं": 9921,
      "युव": 9922,
      "नोः": 9923,
      "श्रवण": 9924,
      " मुमु": 9925,
      " उपे": 9926,
      "जनक": 9927,
      "प्रतिषेधः": 9928,
      "व्यायाम": 9929,
      " अवश्यं": 9930,
      " कृतवन्तः": 9931,
      "सहितं": 9932,
      "एतदेव": 9933,
      " प्राणः": 9934,
      "चतुष्ट": 9935,
      " युक्तम्": 9936,
      "उत्पाद": 9937,
      " हिंस": 9938,
      " मन्यसे": 9939,
      " ध्यात्वा": 9940,
      "51": 9941,
      "लायां": 9942,
      "८७": 9943,
      "९९": 9944,
      " अभय": 9945,
      " अर्थात्": 9946,
      " प्रकर्ष": 9947,
      " दारु": 9948,
      " चिं": 9949,
      " एतेन": 9950,
      " आहार": 9951,
      " निशा": 9952,
      " सर्वेषाम": 9953,
      "वाक्": 9954,
      " राज्ञा": 9955,
      "स्तिः": 9956,
      " त्वि": 9957,
      " परिश्र": 9958,
      " माघ": 9959,
      "हारि": 9960,
      "म्बा": 9961,
      "स्थानस्य": 9962,
      " लाग": 9963,
      "भाषायाः": 9964,
      " सीमा": 9965,
      "अग्निः": 9966,
      " शैली": 9967,
      "अथातः": 9968,
      " राजधानी": 9969,
      "cd": 9970,
      "ंद": 9971,
      "णात्": 9972,
      "म्नि": 9973,
      " अपा": 9974,
      " अभूत्": 9975,
      " यद्वा": 9976,
      " विज्ञा": 9977,
      "ादं": 9978,
      " आम्": 9979,
      "द्धे": 9980,
      " वाजि": 9981,
      "येद": 9982,
      "तुर": 9983,
      "भवता": 9984,
      "स्थल": 9985,
      "ब्ल्यू": 9986,
      " कुण्ड": 9987,
      " देवेश": 9988,
      "भूः": 9989,
      "वृष": 9990,
      " सूत्रं": 9991,
      " तत्काल": 9992,
      "ानुष्ठ": 9993,
      "न्द्रः": 9994,
      "पूर्वकम्": 9995,
      " क्रय": 9996,
      " कीर्ति": 9997,
      "पोर्ट": 9998,
      "बलय्": 9999
    },
    "merges": [
      [
        "्",
        "य"
      ],
      [
        "्",
        "र"
      ],
      [
        "।",
        "\n"
      ],
      [
        "्",
        "त"
      ],
      [
        " ",
        "स"
      ],
      [
        " ",
        "प"
      ],
      [
        "्",
        "व"
      ],
      [
        " ",
        "।\n"
      ],
      [
        " ",
        "व"
      ],
      [
        "त",
        "ि"
      ],
      [
        "ा",
        "न"
      ],
      [
        " ",
        "क"
      ],
      [
        "र",
        "्"
      ],
      [
        " ",
        "त"
      ],
      [
        "म",
        "्"
      ],
      [
        " ",
        "न"
      ],
      [
        "ि",
        "त"
      ],
      [
        " ",
        "अ"
      ],
      [
        "त",
        "्"
      ],
      [
        "्य",
        "ा"
      ],
      [
        " ",
        "म"
      ],
      [
        " प",
        "्र"
      ],
      [
        "ा",
        "र"
      ],
      [
        " ",
        "द"
      ],
      [
        " ",
        "य"
      ],
      [
        "ा",
        "ं"
      ],
      [
        " ",
        "भ"
      ],
      [
        "त",
        "े"
      ],
      [
        " ",
        "च"
      ],
      [
        "क",
        "्"
      ],
      [
        "न",
        "्"
      ],
      [
        "म",
        "ा"
      ],
      [
        "स",
        "्य"
      ],
      [
        " व",
        "ि"
      ],
      [
        "य",
        "ा"
      ],
      [
        "॥",
        "\n"
      ],
      [
        "ष",
        "्"
      ],
      [
        "स",
        "्त"
      ],
      [
        "स",
        "्"
      ],
      [
        "न",
        "्त"
      ],
      [
        "क्",
        "ष"
      ],
      [
        " ",
        "इ"
      ],
      [
        "त",
        "्र"
      ],
      [
        " ",
        "श"
      ],
      [
[...]
