#version: 0.2
ന ്
ക ്
ത ്
ന് ന
ക് ക
  പ
ത ി
. 

ണ ്
ല ്
  ക
ട ്
ു ം
  സ
  വ
യ ി
ര ്
  ന
പ ്
  മ
ച ്
ു ന്ന
ര ി
  അ
മ ാ
ത് തി
ങ ്
് ര
സ ്
ള ്
ട് ട
് യ
റ ്
ത് ത
പ് പ
ച് ച
ി യ
  എ
ാ ണ്
  ത
ങ് ങ
ട െ
ി ല്
ു ക
ി ല
ി ക്ക
  ആ
  ച
ര ു
  ഇ
 പ ്ര
റ് റ
ര ാ
ഞ ്
ാ ന
ുന്ന ു
ക് ക്
 വ ി
ട ു
ന് ന്
ള് ള
ാ യി
റ െ
ി ച്ച
  ബ
വ ി
െ യ
  ഉ
  ജ
 ന ി
മ ്
 സ ്
ണ് ട
ക് ഷ
ി ക
ഞ് ഞ
യ ു
െ ന്ന
ന് റെ
ക്ക ാ
റ ി
ര ുന്നു
സ ി
ല് ല
ദ ്
  ര
ു ള്ള
ങ്ങ ള
ദ േ
  ശ
ില് ല
  ഒ
ണ് ട്
ാ യ
ട ി
ന് ത്
ാ ര്
പ്പ െ
  ല
 ക ോ
രി ക്ക
മാ യി
ുന്ന ത്
 സ ം
 എ ന്ന
 പ റ
യ ും
ന ി
 മ ു
ര ം
വ ാ
 ന ട
 മ ാ
പ ി
യ ാ
 ച െയ
യി ല
ാ ല
ണ ം
യി ല്
ങ് ക
 പ ി
ര െ
 ക ു
ു ടെ
 ന േ
ത് ത്
യ ം
 പ ോ
ു മ
ന െ
  രാ
െ ന്ന്
ാ ന്
േ ഷ
 ക േ
  ഗ
ച് ച്
ദേ ശ
ത ു
ോ ഗ
സ് ഥ
ത ാ
ത് ര
ട്ട ി
ങ്ങ ള്
  ഭ
മ് പ
ത്തി ല്
ി വ
ന് ദ
ാ ര
െന്ന ും
മ് മ
  ദ
ത്ത െ
ഡ ി
െ ടു
റ് റ്
ത്തി ല
യ ാണ്
വ ര്
ഡ ്
ം ഗ
 ക ൊ
പ്പ ോ
ന ം
ി ൽ
 സ ാ
വ ും
ഷ ്
മാ ണ്
ുക ള
 പ ു
ട് ട്
ട്ട ു
  തി
ായി രുന്നു
്യ ാ
 പറ ഞ്ഞ
യ ്
ഗ ്ര
രി ച്ച
 പ േ
 ഒ രു
 സ ി
മാ യ
ഴ ി
മ ു
ന്ത് രി
‍ ക്ക
 സ് വ
ാ ല്
ന് ത
 ക ൂ
 പ്ര തി
ീ ക
 സ് ഥ
ക്ക ി
ധ ി
  ഫ
യു ടെ
ദ ്യ
  ഹ
 ത ു
ശ ്
ക ു
 ബ ി
സ്ഥ ാന
യി ൽ
ാ ം
മ ി
  ഏ
 ചെയ ്
ന ാ
ല ി
 അ വ
ങ്ങ ൾ
സ ം
വ ്
 വ ാ
ന്ദ ്ര
 ക ാ
ത്തി യ
ില െ
ന ു
പ് ര
ക ള
 പ രി
ധ ്യ
‍ ക്ക്
ഴ ്
 വ ീ
ില ും
ക് ത
പ് പ്
ക് ര
േ ക്ക്
  റ
 ത ന്ന
ത്തി ന്
ിച്ച ു
ത്തി ൽ
  ഓ
ാ ഗ
ണ ി
ിക ള
ര ണ
ര ുന്ന
‍ ക
ല ീ
 പറഞ്ഞ ു
റ്റ ി
ദേ ഹ
ാ വ
  ഡ
  ഈ
േ ണ്ട
ര ോ
ന്ന ും
ുക ള്
ദ് ധ
 തു ട
 വ ്യ
 സ ു
ൂ ര്
ട ിയ
ഫ ്
 സ മ
ജ ി
ണ് ടെ
 ചെയ ്യ
ിച്ച ി
 വ െ
ോ ടെ
ദ് ദേഹ
എ ന്ന
മ ന്ത്രി
മാ ന
ത്തി ന്റെ
ജ െ
  (
പ ാ
 ന ല്
ിക്ക ുന്ന
അ ത
 രാ ജ
ര ീ
ര ള
2 0
ര ും
ാ ൻ
ട്ടു ണ്ട്
ര ഞ്ഞ
ാര് യ
ടു ത്ത
 പറ യ
‍ ത്ത
യില െ
ന് ധ
രു ടെ
വ ർ
ശ ്യ
െ ങ്ക
രഞ്ഞ െടു
 ന ിയ
 തന്ന െ
  യു
ള ി
  യ
 പ ാ
റ ിയ
ഴി ഞ്ഞ
ഖ ്യ
 ക െ
ക ാ
‍ ഗ്ര
ണ മ
ു വ
ക്ക ും
ഞ് ച
 ത ീ
ന്ത് യ
ക്ക ുന്ന
 ജ ില്ല
 അ ദ്ദേഹ
 നി ന്ന്
‍ ,
തി ന്
ത് യ
സ മ
പ ു
ജ ്
ോ ട്
െന്ന ാണ്
ിയ ുടെ
ബ ി
 ര ൂ
 ല ഭ
ു മായി
ോ ട്ട
ാ ക
 നേ താ
  റി
ത് സ
 സ ര്
വ ന
 എ ം
ുക യാണ്
 ന ില
 ശ ്ര
ണ് ണ
തി ന
 സം സ്ഥാന
ു പ
ാ മ
റി യി
തി യ
ദ ി
‍ ക്കാ
 പ ൊ
വ ശ്യ
പ്പെ ട്ട
 ഉ ണ്ട
 കോ ണ്
 പു റ
ത െ
ല്ല ാ
ര് യ
ത് ഥ
 സ െ
ക ോ
ധ ാന
സ് റ്റ
േ ഖ
 രൂ പ
ാ ക്ക
 ജ ോ
ല ിയ
ച്ച ി
ുക യും
അത േ
ിച്ച ത്
വ േ
 ആ വശ്യ
ന്ന ി
ുക ൾ
ത് രി
തി രെ
ബ ്
സമ യം
 സ ീ
ഭ വ
പ ക്ഷ
 വ്യ ക്ത
 ബി ജെ
 നിയ മ
 ബ ാ
 കേ ന്ദ്ര
ര േ
വി ഡ്
മ േ
 ദ ിവ
‍ ഷ
 സ്വ ദേശ
ക ള്
അതേ സമയം
സ ഭ
  ഷ
 കു റ
ത ൃ
ന ും
്യാ പ
ത് വ
ിക ള്
 തി രഞ്ഞെടു
 വ േ
 ത െ
പ്പെ ട
പ്പ ിക്ക
  ട
 ഇ ന്ത്യ
യ െ
ക്ക ു
 നി ര്
 വി ജ
 പേ ര്
 മ ുന്ന
ലീ സ്
െയ ാണ്
ത ാണ്
ള ം
 അദ്ദേഹ ം
 ജ ന
  ക്
 സം ഘ
 ഇ ട
ഗ ്
 ആ ശ
ത്ത ു
ുക യ
എന്ന ാല്
ധ ിക
െയ ും
യി രുന്നു
 കേ രള
 മ ൂ
പ്പ ി
ന് റ
  ഞ
 മ ോ
ാ ൽ
എ സ്
ഖ്യ മന്ത്രി
 എ ന്ന്
സ ാ
രിക്ക ുന്നത്
ൊ രു
 അ റിയി
ഷ് ട്
ച്ച ു
ത ീ
ന് റ്
 സ ർ
യ് ക്ക്
0 0
 മ ന്ത്രി
 ര ോഗ
 അ ഭ
ക്ക െ
 ക ാര്യ
 എന്ന ിവ
 റി പ്പോ
ൂ ർ
 ന ാ
ഹ ി
  ഡി
ല െ
ത ോടെ
 ഉ പ
ീക രിച്ച
ട തി
 വ ൈ
 ച ോ
 ല ക്ഷ
 വ ര്
 ശ േഷ
ന്ന ു
 വ്യക്ത മാ
 സ്ഥ ാന
 ക ി
 രാജ ്യ
ര ണം
ിക്ക ാ
 നട ത്ത
 വ ലിയ
ൽ ക
‍ .

ല ും
ംഗ ്
ോ ധ
ത ല്
 ന ീ
 അ നു
മ െ
ഴ് ച
ക െ
 ബ ന്ധ
 കാ ണ
ഷ ്യ
ണ് ടു
 പ രാ
 അ ന്
ക്ര മ
രി യ
 പ െ
ങ്ങള ുടെ
വ േഷ
 ന ൽക
ക്കാ ന്
ക േ
 ച ി
‍ഗ്ര സ്
 പി ന്ന
പ്പെ ടു
ല ം
ല ാ
സ് റ്റ്
 നി ന്നും
 സ്വദേശ ി
യ ൂ
മാ നം
ങ്ങള ില്
ങ്ങള ും
ത്തില െ
 പരി ശ
  ട്
ക ര്
എ ം
. .
ട ും
ര ോഗ
 ഏ റ്റ
പ്പ ു
ന േ
 സ ഹ
ിയ ും
ൂ ടെ
 ക ഴിഞ്ഞ
 മു ഖ്യമന്ത്രി
പ്പോ ള്
ട ക്ക
 പ ാര്
 വ ില
 പ്ര വര്
ിക്ക ും
വ ീ
യു ള്ള
െങ്ക ിലും
ി ര
ങ്ങ ിയ
 ബിജെ പി
 ഉ യ
ാര ണ
 ജ ീ
ല ോ
 കേ സ
‍ ത്തി
  ഐ
ഷ് ട
 ചെയ് ത
 ല ോ
ഡ ിയ
 തീ രു
വ ര
ീ യ
 മാ ത്ര
പ ോ
  -
ക് ട
 ച േ
ഡി എ
മ്പ ോ
 അ തി
 കൂ ടു
 സാ ധ
ാന ുള്ള
ക്ക ള
രാ യ
ുക ൊ
 പ ങ്ക
) ,
വ രെ
വി ടെ
ണ് ഡ
  യാ
സി ന്
 മ ത്സ
ാ ർ
ിയ െ
ണ െന്ന്
ുകയ ായിരുന്നു
 അഭ ി
 പറയ ുന്നു
മ ുള്ള
യ ോഗ
ില േക്ക്
 സം ഭവ
 ഭ ാഗ
 നി ന്ന
 അ പ
  ധ
ൂ രി
 ക ാല
‍ ച്ച
റ ോ
ത് രം
ക ൂ
ക ൊ
 നട പ
ട്ട ില്ല
 മ െ
ക ൾ
 ക ൈ
ങ്ങ ി
 നേ തൃ
 എ സ്
 പരിശ ോധ
 വ ന്ന
പ െ
 പ്ര ധാന
മാ ര്
 ച െ
ഭ ാഗ
ുപ ത്രി
 ത ോ
ത്ത ര
 നി ര
റ ു
 അ ന
 വ േണ്ട
 ക ഴ
ന്ത പു
 എന്ന ാണ്
ൺ ഗ്ര
‍ ത്ഥ
‍ ണ
രിക്ക ുന്ന
ിക്ക ുന്നത്
 ശ്ര മ
‍ സ
രു വന
ഹ ു
  ന്
 അന് വേഷ
രുവന ന്തപു
 ആ ണ്
വ ണ
 നേതൃ ത്വ
 നി ർ
ഹ ാ
ട ന
 സർ ക്കാ
 നട ത്തിയ
‍ ട്ട
 ഗ ്ര
 ആ രോ
‍ ശ
ാന ും
ിക ൾ
പ്പ ം
 വ ർ
ല്ല ാം
 പി ന്
രീ ക്ഷ
ാ പ
 ക ട
ു ണ്ട
‍ക്കാ ര്
 സ ൂ
 സ്ഥ ിര
ക്ക ിയ
 ആശ ുപത്രി
ക് തി
ത ായി
 ശേഷ ം
ണ ിക്ക
 അ ധിക
 പോ ലീസ്
ുമ െന്ന്
ഷ്ട് രീ
 ഡ ോ
 ആ ദ്യ
 അവ സ
ൈ ന
ങ്ങള െ
ട ക
 ക ണ്ടെ
പ്പെ ടുത്ത
ബ ു
ര ത്തെ
 പ്ര ഖ
ധ്യ ത
 ചെയ് തു
 ബ ോ
 സാ ഹ
 അ ംഗ
ുള്ള ത്
ത ും
 പ ്
‍ക്ക ും
ണ െന്നും
 ഉ റ
 കോ ടതി
ന ോ
 വ രെ
ക്ഷ േ
തി ല്
രിക്ക ുകയാണ്
1 9
 സീ റ്റ
 യ ോഗ
ര ക്ഷ
രിക്ക ും
 സാഹ ച
 മാ റ്റ
 ആരോ പ
ക്കാ ൻ
 തി രിച്ച
‍ ട്ടി
േഖ ല
 ജ െ
 പ ല
ാ ത്ത
 കോ ൺഗ്ര
സി ന്റെ
 പു തിയ
ന ിയ
 ക മ്മ
 റിപ്പോ ര്
രോഗ ്യ
ുന്നു ണ്ട്
 പ്രഖ ്യാപ
ൊ ഴ
 ര ണ്ട്
 ശ ത
ത്തി ന
 പാ ർ
 മ റ്റ
ക്ക ുന്നത്
 വ്യക്തമാ ക്കി
 ച ില
 അ ത്
ത ല
 പ്രതി ക
 ത ാ
 മ ണ്ഡ
േ ധ
ത ം
 ഏറ്റ വും
േ റ്റ
1 0
ശ ി
േ രി
ഷ്ട്രീ യ
മ ോ
ത ൽ
‍ സ്
 മ റ
 വ കു
പ്പോ ഴ
 ചെയ് തി
‍ പ്പ
 സ ൗ
 ര ംഗ
 എ ത്തി
 ദിവ സം
ോ ട്ട്
? 

 ദിവ സ
 ഇ ത്
ള ള
20 1
 പ ാല
ദ് ദേശ
യില േക്ക്
രുവനന്തപു രം
ി ന്
‍ ന്ന
 പോ ക
 വ യ
ദ്ധ തി
േ ക്ഷ
ക്ക ം
 എന്ന ും
 നേ രി
ീ ഷ
ബ ാ
ര ുന്നത്
 സ് റ്റ
ങ്ങ നെ
രാ ജ
 ശ ക്ത
റ ാ
ക്ക ോ
 എ ന്
സ ര്
വാ സ
 സാ ധ്യത
വ െ
ക ഴിഞ്ഞ
 എ ല്ലാ
 മ ല
 വ ള
ില ാണ്
 പ്ര വർ
ങ്ങള ിൽ
ുകള ും
ത്തില ാണ്
ഞ് ച്
േഷ ്
 ഗ ു
 തീരു മാന
ത െന്ന്
ര ാണ്
 നട ന്ന
 സ ോ
ച ി
 മ േഖല
ത െന്നും
ി ന്റെ
നെ തിരെ
രി ച്ച്
 ഇ ന്ന്
സ് സ
റ ായി
 അ റ
 പരാ തി
ത്തിയ ത്
സി ഡ
േ യും
യി ട്ടുണ്ട്
ണ ാ
‍ക ി
ഫ ീ
എന്ന ാൽ
ൃ ത
‍ ട്ട്
ാന ി
 പ ദ്ധതി
 പി ട
വി ധ
പ്പെടു ത്തി
 വി ഭാഗ
 സ്ഥിര ീകരിച്ച
ള്ള ി
ിച്ചി രുന്നു
വാ ദ
മ ല്ല
 വി ഷ
മു ണ്ട
‍ ഡ്
‌ സ്
ുമ െന്നും
വ ില്
രം ഭ
ാര ണം
 രാ ഷ്ട്രീയ
 ദ ു
 സാഹച ര്യ
 ആ രോഗ്യ
 പ്ര ച
സഭ ാ
േ ാ
യ ്യാ
 കൂ ട്ട
യ് ക്ക
 ഫ ോ
ു ണ്ട്
േ ക്ക
 ജില്ല ാ
 മ ി
പ്പോ ൾ
നി ടെ
യാ ള
ടും ബ
ക ർ
ൂ ഹ
ായി രുന്ന
ാ തെ
ഒ രു
ില ാ
 റ ോ
 നട ത്തി
ൊ പ്പം
 സി പി
ക്ര ട്ട
ക്ക ള്
 ത ല
യ ോ
 വ ോട്ട
 പ്ര ശ്
െയ ്
 പിന് തു
 സ മ്പ
ജ ീ
‍ 

‍ ന്ന്
‌ ന
ഷ േധ
 ന ോ
ിക്ക ുന്നു
സി ന
മായി രുന്നു
‍ റെ
 ഉപ യോഗ
 വി ദ
തീ ക്ഷ
ണ്ട ി
 ഉ ള്ള
ുകള ില്
വ രുടെ
 വിജ യ
 വി മ
യില ാണ്
 ആ ള
 മണ്ഡ ല
 ആ യി
കേ രള
 തിരഞ്ഞെടു പ്പ
ന് ധി
 ത യ്യാ
 ക ള
 ഉ ദ്യ
 സെ ക്രട്ട
 കൂ ടി
ധ്യ മ
സ ു
തി ന്റെ
 പ്ര സിഡ
െങ്ക ില്
രു ത്ത
ിക്ക ാന്
ണ്ട ും
ബ ന്ധ
ാ സ്
ീ തി
 സ്ഥ ാപ
  ടി
ണ ിയ
ം ബ
ട്ട ിയ
മ് പ്
ര് യം
രേ ന്ദ്ര
ർ ത്ത
ഇ ത്
സ ില്
നി ക്ക്
മാ ർ
ീ പ
 വാ ക്
 അറിയി ച്ചു
രി ല്
1 5
 മ ന
 ഉ ള്
ണമ െന്ന്
മ ില്ല
ു വി
 പുറ ത്ത
ഴ ിക്ക
 കൊ വിഡ്
എ ല്
ധ്യ ക്ഷ
20 2
യില ും
ച്ച ത്
 മു ന്
 ത ൃ
 ചോ ദ്യ
 കോ വിഡ്
ച ന
 ആ ര്
 ഓ ഫീ
വ ധി
ന ില
 ക ണ്ണ
യ ായ
 പറയ ുന്നത്
 രാ ഹു
 മ ീ
 ക ണ
്യ ം
ിക ി
േ ക
 അ ടി
  റെ
ികള ുടെ
ക ട
 ത ട
ര ന്
ർ ച്ച
 കോ ടി
േഷ ന്
 വി ശ
 അ ട
 കൂടു തല്
ാന ാണ്
സി ൽ
റ ും
ദ് ദ
 ഗ ാന്
  ഖ
 ഹ ൈ
പ്പെ ട്ടു
 പിന്തു ണ
റി ച്ച്
 ഗ ോ
വ ുമായി
 മ േ
‍ക ിയ
ി ന
ൊ ക്കെ
ോ ഷ
ഞ് ഞ്
പ്പ ാ
നി മ
 കു ടുംബ
1 2
രോ ധ
 പോ ലും
 പ്ര ത്യ
 പ ഞ്ച
ികി ത്സ
മാ ക
ർ ശ
ഗ ോ
വാ ഹ
‍ മാ
 തുട ര്
 പങ്ക െടു
 പിന്ന ാല
 തുട ങ്ങിയ
 പരിശോധ ന
 കഴ ിയ
 ഇ റ
 സമ യ
ാക്ക ിയ
ത്ത ും
 ച ര്
  ഘ
 ക ാര്
‍ ഡ
ജ ന
തി നെ
 ക രു
 രോഗ ം
കാ ശ
 ബാ ധ
ൻ ്
 മു തല്
 യാ ത്ര
പ്പെ ടെ
ഷ് ണ
 ചി ത്ര
റ ില്
 നില പാ
േ ാഗ
 ആ രംഭ
 ഇ തു
 ക ൃ
 സർക്കാ ർ
യി ല്ല
 ഭ രണ
 ച ികിത്സ
 യ ൂ
 അ ധ്യക്ഷ
ീ സ്
തി രുവനന്തപുരം
 ചെയ്യ ുന്ന
 ആ ക്രമ
സ് ത
 കോ ള
ായ ്
പ്പെ ട്ടി
 പ്ര തീക്ഷ
്യ ൂ
 റിപ്പോ ർ
 ത ൊഴ
ി ച്ച്
3 0
 ചോ ദ
വ ിലെ
സ ർ
 കൊ ണ്ട്
 ച ൂ
 ഇ ത്ത
 ര ണ്ട
ികള െ
ായ ത്
 മാ ത്രം
 തു റ
1 1
 തിരഞ്ഞെടു പ്പ്
 പ ര
ില്ല ി
യ ായി
 പൊ ലീസ്
ക ര
ുകൊ ണ്ട്
 വീ ട്ട
ൂ ല
 കൊ ണ്ടു
മ്പോ ള്
വ ദ
‍ വ
 കോൺഗ്ര സ്
ഹ ്
‍ പ
 വി ള
 മൂ ന്ന്
 വ ാര്
 പ്രത്യ േക
ാ ണ
  ടെ
പ്ര തി
 അ ടക്ക
ു മാണ്
 സ് വാ
 വേണ്ട ി
രി ക
ുമ െന്നാണ്
ഭ ാ
മ ീ
 പ്രതി ഷേധ
 മാ ധ്യമ
 കു റ്റ
 ശത മാനം
ഴിക്ക ോട്
ന ില്
ണമ െന്നും
പ്പെ ട്ട്
 സം സാ
ഡിയ ോ
ദേശ ീയ
പ്പ ിച്ച
 മ ണിക്ക
 അ റിയ
വി ട
ഴ ു
സം സ്ഥാന
റി ന്റെ
ട്ട ും
 പ്രധാന മന്ത്രി
 നേതാ ക്കള
ി രുന്നു
വ ന്
ഡിഎ ഫ്
 ല ീ
 പ്രതി പക്ഷ
 നേതാ വ്
ർ ന്ന
കാ രം
വി ത
െ തിരെ
ങ്ങള ാണ്
മ ല
 പേ ർ
ക ാര്യ
 ക ര്
 ഉയ ര്
ിയ ാണ്
ുകള ുടെ
ട്ട ം
ന ായ
 പ്രവർ ത്ത
ഷ്ട് ര
ാല ും
 പ്ര ദേശ
 ര ീതി
 ത േ
‍ക്കാ രി
ക ി
 സ് ത്ര
 വ ര
 ലക്ഷ ം
2 4
ണ്ടെ ന്നും
 വർ ഷ
 അ വര്
 വ രു
 എ ടു
5 0
മാ യും
 പ ട്ട
ാല ി
 കൊ ല്ല
 നിന്ന ുള്ള
പ രി
 ജ ി
 വിദ ്യാ
. .

 ര േഖ
ഡ ിക്ക
 മ രണ
 മ ാന
 ഒ ന്ന
 ഉ ത്തര
 വീ ണ്ടും
 വി ശ്
നാ ട്
ങ്ങൾ ക്ക്
 സ്ഥാന ാര്
 സമ ീപ
1 4
 ബിജെ പ
പ്പു റ
ക്ക ുന്നു
 ഉ ന്ന
ബ ൈ
 അ യ
ക ം
 നി രീക്ഷ
മെ ന്റ്
 ക ണ്ട
സ് യ
 മു ൻ
ീ ട്
ീ ം
ീക രിക്ക
 ചേ ര്
ത്തില ും
ത്ത ോടെ
ന ാണ്
 മ റ്റ്
ണ്ടെ ന്ന്
 വിജ യി
.. .

ിച്ചി ട്ടുണ്ട്
 ഉ ൾ
 കു ട്ട
 വ ഴി
 മ രിച്ച
ുക യാ
 അനു വദ
 ശ്ര ദ്ധ
രു വ
ക ാര
ണ റായി
ില ൂടെ
ഇ ന്ത്യ
ത േ
 മ ൊ
പ ര
ഡിഎ ഫ
ഇ തോടെ
സ് വ
വി ൽ
 പ ൂര്
 ഒ രാ
 ന ഷ്ട
 ക യ
 മാത്ര മാണ്
 സു രക്ഷ
അ തി
ൈ ന്
ത്ത ോ
വ സ
 സ േ
 എ ല്
മു ഖ
 ഇ പ്പോള്
ൻ് റെ
 ക് യാ
സ ോ
 ന ഗ
വ രം
ജ ന്
 ജോ ലി
 സെക്രട്ട റി
 ന മ്മ
 സ മ്മ
 വൈ റ
 വിഷ യ
 എ ന്ത
 വി വര
 സി നിമ
 ബ ു
 വകു പ്പ്
1 8
മാ ണ
 നേ രത്തെ
ത്തി ക
 പ ൂ
 വി മാന
 എ ത്ത
 പ്ര വേ
പി ന്ന
ന്ത ര
ാ ഴ്ച
ില ുള്ള
 നടപ ടി
 ഉ ട
ഷ ന്
ന ങ്ങള്
ുകള ാണ്
ൊ ന്നും
 അപ േക്ഷ
േ ക്കും
ഷ ി
കള ും
ദേശ ം
 ഹ ാ
 പ്ര ാ
ുമ തി
ഗ്ര ഹ
സ ും
 ക ാരണം
ായ ക
കള ില്
േ ജ
മ്പ ത്തിക
െടു ത്ത
1 3
 പരി ഗ
 വ ്യാപ
്ര ാ
 പ ഠ
 ചെയ്ത ത്
‍ ഗ
 ചൂ ണ്ട
ുമ െന്ന
 ഇ വിടെ
ശ് ച
 കൂ ടിയ
പ്പോഴ ും
ത ായ
െയ ുള്ള
 നിയ ന്ത്
ങ്ങ ന
ത്തില േക്ക്
! 

 എന്ന ി
ാക ും
േ സ്
 ക മ്പ
 അവസ ാന
ത്തില ുള്ള
മ ൂ
ക്ട ര്
 എ തി
 പഞ്ച ായ
പ്പു ഴ
‍ എ
 പാർ ട്ടി
േണ്ട ി
ികള ും
ഫ ോ
 അന്വേഷ ണ
 മ ിക
ിക്ക ാൻ
റോ ണ
‍ സി
ത ര
 പറഞ്ഞ ത്
‍ ല
 കമ്മ ി
തു ട
‍ മ
ക്കാ ട്
ണ് ണം
 ര ക്ഷ
  '
 അടി സ്ഥാന
 വ ്യാ
 വ്യ ക്തി
2 5
മ െന്ന്
ഇ തി
ബ ന്ധി
ട് രേ
ാർ ത്ഥ
 വി വിധ
 വ രുന്ന
 വാ ഹ
ത ോ
 ചൂണ്ട ിക്കാ
ുകള ിൽ
  ദേശീയ
 ഇതു വരെ
 പിന്നാല െ
 മാ സ
 നിര വധി
 മ ഴ
 പൊ തു
  .

 പി ണറായി
 ന ല്ല
അ ത്
  ,
 വിശ ദ
 കേ സ്
 ന െ
ില ീ
ഞ്ഞ ു
 ചോദ്യ ം
ആ ര്
ർ ത്ഥ
വ ൈ
മേ രിക്ക
കോ ണ്
1 6
ജ ു
ന്ത് ര
ണമ െന്ന
 മെ ഡിക്ക
 ത ന്റെ
 മറ ുപ
സി നെ
ബി ജെ
1 7
‌ സ
 ത ാര
 വീ ഡിയോ
രി ൽ
 ത മ്മ
 മു തൽ
 വള രെ
രാ ഷ്ട്ര
 ച ുമ
 സ ന്ദ
 മു സ്
േ റ്റ്
 ഇ വര്
ില്ല െന്ന്
 സംഘ ടന
ക്ഷേ പ
ല്ല ാവ
തിന ായി
 വി വരം
 നടപ ട
സ് റ്റി
 സ്ഥ ല
ശ് ശ
. എ
ീ വ്
െങ്ക ിൽ
ർ ന്ന്
 കൂ ട
പ്പെട ുന്ന
 തന്ന െയാണ്
 ശ്ര ീ
 സ ഖ്യ
കു ട്ട
 അ ടുത്ത
 സ്വ ന്ത
ിക്ക ുക
 ഷ ാ
 ത വണ
 ആ ർ
മു ണ്ട്
കു ളം
ത് മ
 ഉദ്യ ോഗ
 മ ാര്
ക്ക ൾ
 തീരു മാനം
 സ്വദേശി നി
 ജീ വന
 ശക്ത മായ
 പോ ലീ
റ ണാ
 വെ ള്ള
ഹ മ്മ
 എ ക്
ദ ം
 സമ യം
ത്ത േക്ക്
 ഇ ക്കാ
ട ങ്ങ
ക്കാ ം
ിക്ക ു
 പുറ ത്ത്
ുമ ോ
 മോ ദി
നാ ഥ
 നൽക ി
ഖ ്
 പ്രസിഡ ന്റ്
ങ്ങള ിലും
 ഞ ാന്
 ന ില്
രാജ ്യ
 നേതാ ക്കള്
ക ാല
ജ യ
 ബ ്
ധ ാക
ശ ്ര
‍ഷ ം
ഹ ൃ
ള െ
 പോ യ
 ഒ ഴി
ില്ല െന്നും
 സിപി എം
 ഇട പെ
ക ൃ
ക സ
 ജ ാ
  ക്ര
 ല ി
ദ ു
പ്ര ദേശ
നി ര
ിയ ായ
ണ്ട ാണ്
നി ൽ
 അവ രുടെ
 ജില്ല യില്
 അഭി പ്
 തെ രഞ്ഞെടു
 വില യി
 കോ ട്ട
തിയ െ
 നഗ ര
 ആ യിരുന്നു
ക്കാ ർ
 അവ കാശ
 എ ത്തിയ
 ക ാരണ
 ഗാന് ധി
ബന്ധി ച്ച്
 കൊ ടു
 വ ന്നി
 ഗ്ര ൂ
. പി
 പ ണം
യു മായി
നേ രത്തെ
 ഇ ല്ല
തി ര
ല പ്പുഴ
 മീ ഡിയ
 മിക ച്ച
ാ രി
 അവ ർ
കള ുടെ
 ലഭ ിച്ച
റി ന്
മ് പി
 സ്ഥാപ ന
ള ിവ
‍ ജി
 എ ണ്ണം
 ഉണ്ട ായി
തി ക
 സൂ ചന
‌ സി
 രാഹു ല്
 സീ റ്റ്
ട ം
മി തി
ില ി
 പരി പാ
 എന്ന ീ
 ലോ ക
വ െന്നും
മ്പോ ൾ
 വ ോട്ട്
 നേരി ട
 ന ാല്
 വി ധ
 വ ഴ
റി ൽ
 റിപ്പോർ ട്ട്
 യു വ
  ക്ഷ
 ത ാമ
 നേതൃത്വ ം
േ ജ്
 അന്വേഷ ണം
 കണ്ടെ ത്ത
 കൂടു തൽ
ക്കാ ര്
 മണിക്ക ൂ
ട്ട ുള്ളത്
 വി വാദ
‍ ഥ
േഷ ൻ
 സാ മ്പത്തിക
 സഹ ായ
 മ ഹാ
4 0
 ജന റ
 തിരഞ്ഞെടുപ്പ ില്
 ച ർച്ച
  ദേ
യ ര്
ങ്ങള ില
പ്പ ിക്കുന്ന
 ഇത്ത വണ
ത്തി നും
 കൊ ല
 ഹ ി
വ ില
 ക ീ
കള െ
 ഒ ഴ
പ്പുറ ം
തിന ാല്
വി ധാന
ാന ം
ഫ ി
സി സി
രി ക്കാന്
 എം എല്
 നാ ട്ട
 ല ൈ
ട്ടി ൽ
ീ ന
ട്ട ാണ്
ിച്ച േ
 ബന്ധ പ്പെട്ട
 അ ഞ്ച്
 വി ദേശ
‍ത്ത ക
 സംസ്ഥാന ത്ത്
ഷ്യ ല്
 ച െന്ന
2 3
ഇ തിന്
ട്ട ുള്ള
 പട്ട ിക
 ഉറ പ്പ
20 0
യ ്യ
ങ് ക്
 രാ ശ
 വിമ ര്
േസ് ബു
 ഇ ല്ലാ
ഭ ്യാ
 നൽക ിയ
ക്ക ുക
പ്പെട്ട ത്
രിച്ച ു
ന ായി
 ഭ ൂ
ാ ക്കി
 പ ൂർ
 ത ര
 ബ ാല
പക്ഷ േ
ക്കെ തിരെ
 പ രീക്ഷ
 ലോ ക്
 നിരീക്ഷ ണ
 മു ഴ
 പ്ര വ
 പ്രതി രോധ
മാ ക്കി
 വി ദ്യ
 എ ൻ
ു ളള
 കാര് യം
ക്ഷ ി
 ശ ിവ
 ജീ വിത
 സു പ്ര
 കോ ഴിക്കോട്
 ഉദ്യോഗ സ്ഥ
 അ ല്ല
 വി വാഹ
ബ ര്
പ്പ റ
രു ദ്ധ
 ജില്ല യിലെ
 സം വിധാന
 പോ ലെ
ിക്ക ുകയും
 നേ ടിയ
േ ള
 നടത്ത ുന്ന
ഇ ന്ന്
 നട ക്കുന്ന
ല ക്ഷ
ഷ ണ
 ഹൈ ക്കോ
2 2
വ ു
 ന് യൂ
ക്കിയ ത്
േ യ
 വാ ങ്ങ
പ്പി ന്
 ചെ ല
കള ിൽ
 ജ യ
  ല്
 ഇ ന്
േണ്ട ത്
 മൂ ന്ന
പ ാല
ട്ട െ
ധിക ം
 ശത മാന
ദ് ധി
ോ ദ
 ഉന്ന യി
ഘ ാ
ൻ സ്
ാ വി
 അറ സ്റ്റ്
 പരി ഹ
 രംഗ ത്തെ
 ഒഴി വാ
 ഘ ട്ട
 ലക്ഷ ്യ
റണാ കുളം
 മു മ്പ്
തി രഞ്ഞെടു
ജ ില്ല
പ്പ ില്
 കു റിച്ച്
േ ഴ്
ർ ഷ
യി രിക്കുന്നത്
ഹമ്മ ദ്
ഞ്ഞ ി
ലി ന്
ത്ത നം
പ്പ ള്ളി
 ല െ
 നീ ക്ക
  "
പ ൊ
േ ന
 ഞ ാൻ
 അ മ്മ
 നിയമ സഭാ
ണ്ടെ ന്ന
ദ ാ
 ര ജി
 പോ യി
യ ായിരുന്നു
 കമ്മ ീഷ
ങ്ക ിലും
 ആശ ങ്ക
 സു ര
മ ര്
 ഇ ന്ന
 സം ബന്ധിച്ച്
 ച ൈന
 മാ റ്റി
ത്തില ൂടെ
 ഭാഗ മായി
ച്ചി രുന്നു
 തയ്യാ റ
 മറ്റ ൊരു
എ ന്
ാ ള
 ചെയ ്യാ
പ്പ ിച്ചു
ർ ക്ക
 നട പ്പ
തി ല
 സി ംഗ്
‍ പ്പെടെ
 സ് വര്
മി ഴ്
 പോ രാ
ൗ ണ്
 ഒ റ്റ
 പ്രതി സ
 സു രേന്ദ്ര
 കാര്യ ങ്ങള്
ട ിക്ക
ക്ക ൊ
  ൽ
മ െന്നും
ി തി
വി ന്
 സം ശ
 അ മേരിക്ക
 തി ര
 ഇ നി
 എ ഫ്
ണ ു
ക്കാ ര
മാ ന്
ിലാ ള
 മാ സം
ാ വും
 പേ രാണ്
 പ് രിയ
 വിലയി രുത്ത
 എ ല്ലാവ
 സം ബന്ധ
 പറഞ്ഞ ിരുന്നു
ി ത
 പ ീ
യു ണ്ട
 ശ ി
 ട ീ
 നിലപാ ട്
 പരിഗ ണ
 അ ക
 ചെയ്തി രുന്നു
ല് യ
മ ത
 വ രും
രുന്ന ില്ല
ില ോ
 അധിക ാര
 വി കസ
ജ ോ
ങ്ങള ിലെ
 മറുപ ടി
തി ൽ
ക ണ്ണ
 കണ ക്ക
ധ ന
കേ ന്ദ്ര
 കൊ റോണ
 അന ുക
 ഇ ങ്ങനെ
ശ ം
 രംഗ ത്ത്
ദ ്ര
 വ ന്
‌ ക
രാ യി
ദ ില്ലി
 ഇ രു
തി ട്ട
 മു ഖ
 ബ െ
മാ ണെന്ന്
 അ ല
 അപ കട
േ ദ
ൂ ര
 ഫ േസ്ബു
 ഏ റെ
ത്തനം തിട്ട
2 6
 ല ാ
െടു ക്ക
 ലഭ ്യ
 നിയമ സഭ
 ആ ഗ്രഹ
 എ ന്റെ
ജ് ഞ
ശ േഷ
പ്പെട ുന്നത്
ബ ്ര
സ െ
 ബന്ധ പ്പെട്ട്
 പങ്ക ുവ
2 8
പാ ത
 ദ ി
 പ്ര സ്
 പു ന
ല ില്
 നേ ട്ട
 നീ ക്കം
 അന ുമതി
യു ണ്ട്
 പറ യാ
2 7
‍ ദേശ
ന ത്തിന്
 ഭ ക്ഷ
 സ്വ ീകരിച്ച
 സ്വ ീക
 പോ ല
 കൊണ്ടു വ
 സ ന്ത
ടു ക്കി
വ് വ
ധി പ
സ ീ
 ന രേന്ദ്ര
 പ്രവർ ത്തി
റ്റ ര്
‍ :
 കാല ാവ
പ്പി ന്റെ
‍ ജ്
 യു വാ
 സംഭവ ം
 ച ു
 വീ ട
 സർക്കാ രി
ട േയും
ാന ായി
 രാ വിലെ
 ഓ രോ
ണി ത്
 വി ത
 ഭ ൂരി
ത െന്നാണ്
ുകള െ
യ ോടെ
 ക മ
ിയ ോ
 സ മ്
ഭ്യാ സ
ജീ വ
ർ ത്തി
 ബ ൈ
‍ ഹി
മ സ്
‌ കൂ
 സംഘ ം
 അധിക ൃത
 തുട ങ്ങി
‌ .

ുക ാര
 പരാ ജയ
ക്ക േ
വി ന്റെ
ക്ക ൂ
 സ മിതി
 ഹൈക്കോ ടതി
 ആവശ്യ ം
 സമയ ത്ത്
ത്തി റ
 മ ക
 അഭിപ് രായ
 ആ രാ
ലി ന്റെ
 അ ടു
. സി
ഭ രണ
ൗ ര
 ആ കെ
ത്ത േ
നി ര്
 ശ ക്തി
00 0
 കൂട്ട ിച്ചേ
 മ ണി
ി ട
ല്ല ോ
 പ്ര കാരം
 മന സ്സ
 ത കര്
ത്തിന ായി
 ആരോപ ണ
2 1
ല ൈ
 നിയന്ത് രണ
ട് ര
 എ ത്ര
 മുഴ ുവ
ണ ോ
 സാ മ
ഇ ത്ത
 ജോ ര്
 രണ്ട ാം
 പ്രവേ ശ
 എ ണ്ണ
 പി ടി
മു ഖ്യമന്ത്രി
  ക്ഷേ
 എ ടുത്ത
 ചെയ് ത്
യാ ള്
 എ നിക്ക്
 മാത്ര മേ
 ഡ െ
വര ാണ്
 ചെയ്യ ുന്നത്
ാ രം
എ മ്മ
 താമ സ
 പ്ര ക
 ഉണ്ട ാക
പ്പെടു ത്തിയ
 കണ്ടെ ത്തി
 ഗാന് ധ
 നി റ
കൂ ട
 ദ ിലീ
 കരു ത
 രാ ത്രി
ഴ് ച്ച
 അനുക ൂല
‍ത്ത കര്
  ഔ
എ ഫ്
ച് ഛ
 പ ദ
 ഉദ്യ ോഗ
 ഇടപെ ട
 എന്ന ത്
 അനു ഭവ
‍ക്ക ാണ്
 യു ഡിഎഫ്
ന ിക്ക
 സു ധാക
 സഹ ായി
 സുപ്ര ീം
എ ഇ
ത ൊരു
ിക്ക ണം
 പ്രതിക രണം
 ചുമ തല
 പറയ ുന്ന
 കൈ മാ
രു ത്
 വെ ളി
 സ്ത്ര ീക
 പ റ്റ
 ഓ ഫ്
 പിന്ന ീട്
 അടക്ക ം
ൈ ല
 ഉ ണ്ട്
വ െന്ന്
ന്ദ ു
ത്ത ല
 ഉ ത്ത
ുകള ിലും
 ഫ ി
ക്ട ർ
ത ുമ
 സ്വ കാര്യ
യില ുള്ള
 അ വിടെ
ും ബൈ
 ഭ ീഷ
 ലഭ ിക്കും
ബിജെ പി
മാ ണെന്നും
 സാഹചര്യ ത്തില്
 പേ രും
 വാഹ ന
ഗ ത
 ശ ു
 നട ക്ക
 നേ ടി
വർ ക്ക്
ശ് വാസ
 സ്ഥാന ാർത്ഥ
യ റ
ലി ം
 ജോ സ
 ഫ ലം
 സമ ൂഹ
 മുന്ന റിയി
 വിദ്യ ാര്
ത്തി നു
‍ശ ന
ആ ർ
 പ് ല
 തൃ ശ
ത്തോ ളം
 ജ ൂ
യ് ക്കും
 ഭ ാര്യ
 അ ഞ്ച
 പു തു
 ഇന്ത്യ ന്
 കൃ ത്യ
രാ ന്
 ന ാല
ിക്ക റ്റ്
 മെഡിക്ക ല്
 മ നു
6 0
 എ ൽ
 ഉ മ്മ
രിക്ക ുന്നു
 ദ ൃ
ബ ോ
ീ ല
 പൊ ലീ
 ഡ ്ര
എ ൽ
 ത ൊ
സ ിലെ
 ഭ ാര
 താ ഴ
 സ ൃ
ിച്ച ാണ്
 തി രുവനന്തപുരം
രാ ല
 ആദ്യ ം
േ റെ
ക് യൂ
 പ ശ്ച
 തെ ളിവ
 കണ്ണ ൂര്
ക ുന്ന
 മുന്ന ോട്ട്
 കമ്മി റ്റി
സ ്ര
 മത്സ ര
ീക രണ
ിച്ചി രിക്കുന്നത്
ു മാ
ശ്ശ േരി
പ േ
ഷ ൻ
എ ല്ലാ
 സം രക്ഷ
 പ ക
 പ്ര സ
ൂരി ല്
ഭ ്യ
അത ുകൊണ്ട്
 സ ൈ
ക്ക ുകയും
 വിജ യം
 ക ല
സ് ത്ര
 ഇ ര
സ്റ്റ ര്
ക്ക ര
ിയ ാ
ർ ക്കം
 വ ോ
‍ മ്മ
 ജീ വ
റി നെ
 രൂ ക്ഷ
ന ുള്ള
ര ണ്ട്
വ ല
 ന മ്പ
ന്ത് രാല
 എ ഴു
 ത ാന്
 മല യാള
തായ ും
മ റ
 പശ്ച ാത്ത
താ വന
ക്കു റിച്ച്
 ജ യി
 കേസ ില്
തിന ുള്ള
‍ ജ
തുട ര്
ുക ാ
 സമ ര
 നടത്തിയ ത്
 സുര േഷ്
2 9
 വ നി
 എ റണാകുളം
 മാ റ
 ക സ്റ്റ
 ആശുപത്രി യില്
െന്ന ായിരുന്നു
‍ -
പ് റ്റ
 ഇ പ്പോൾ
 ഷ ോ
 ധ ന
 ഉൾ പ്പെടെ
 കീ ഴ
അ ദ്ദേഹ
 ലഭ ിക്ക
ക്ക ട
 സാധ ിക്ക
 ഗു രു
 സ്ത്ര ീ
‍ മാര്
പ്ര വര്
 തെ ളി
 ഹാ ജ
 ആ യ
 ആവശ്യ പ്പെട്ടു
ഘ ോഷ
വ രും
 അ മി
സം ഭവ
ായി രിക്കും
രാ മ
സം ഘ
നാ ട്ട
ച ന്ദ്ര
 ത ാല്
 ഗ്ര ാമ
 ആ ത്മ
 ആ ലപ്പുഴ
 ഏ ക
 വിഭാഗ ം
 കുറ ഞ്ഞ
ന ോട്
 വി ട്ട
സ ില
 വെ ച്ച്
ി നെ
ത്ത ം
പ്പ ിച്ചത്
വ ്യ
ാ ടക
 ച രി
ത്തിന ുള്ള
െ ല്ലാം
 ക ടുത്ത
 സ മാ
 ദു ര
 വിമ ർശ
 ഹ െ
 സു ഹൃ
ഇ തു
ന ീ
 ചെയ്യ ും
 നേ ട
3 5
 അ ര്
‍ക്ക ുന്ന
സ് തു
 ഹ ോ
 പശ്ചാത്ത ല
റ്റ ില്
 ഭൂരി പക്ഷ
വ ാണ്
ട ൊപ്പം
 പ തി
 ബി ഗ്
‍ക ുന്ന
രിച്ച ത്
ൂര് യ
വ ുമ
നാ ൽ
ൃത ദേഹ
തി രായ
 ജ ാമ
 എന്ന താണ്
 ഇ ത്തര
 തൊഴ ിലാള
. എസ്
എ ന്ത
 ഫ ല
 മു ഹമ്മദ്
 ക ഴി
വ സ്ഥ
‍ വീ
 യു ഡിഎഫ
റ്റ ു
ന ിയും
 ര ണ്ടു
 കോട്ട യം
 കെ ട്ടി
 പ്രസ് താവന
വ ്ര
 പുറത്ത ുവ
ോ ഭ
 മ ത
 അഭി ന
ക്കാ ല
ാ തി
ിച്ച ും
പിന്ന ീട്
പ്പി ച്ച്
 ആരോപ ണം
 ത മിഴ്
മാ ക്ക
 മോ ഹ
പ ാര്
1 00
ആ ദ്യ
ശ ാല
 പ്ര ായ
ധി ച്ച്
ന ങ്ങൾ
വ രി
 ഉദ്യോഗ സ്ഥ
4 5
‍ ഡി
േക്ക ുള്ള
ഡ ോ
ി ത്തല
ലോ ക
 ഫ െ
ക രണ
താ വ്
 പെ ണ്
്യ ത
ത്വ ം
 ന യി
ന്നി രുന്നു
ഭ ാവ
 എന്നി വിട
 സ്വ പ്
‍ വേ
 എം പി
 വൈറ സ്
ള ു
 ലീ ഗ്
 സന്ത ോഷ
ബ ർ
 കോ ടിയ
 കു റി
വി നെ
‍ത്ത ന
ഇ തില്
യ ർ
സ ൈ
 നടപ ടിയ
 അദ്ദേഹ ത്തിന്റെ
‍ത്ഥ ി
 ഇത്ത രം
‍ .
ാന െ
 ഒ ന്നും
 കൊല്ല ം
 ദൃ ശ്യ
ാ വ്
‌ സിന്
ന്ന െ
 പേ ര
 പാല ക്കാട്
 സൃ ഷ്ട
സ ൂ
 പുറ ത്തിറ
മ്പോ ഴ
നാഥ ്
) 

പ ീ
റി ഞ്ഞ
 ദ ില്ലി
 ന വ
ന് യൂ
വാ ക്
 അ ഖ
ക ര്യ
ല ിക്ക
 മുന്ന ില്
കൊ ച്ചി
 എന്ന ായിരുന്നു
ത് യാ
‍ക്ക െതിരെ
ല്ലാ ത്ത
 ചെ റിയ
ിയ ായി
 തെ റ്റ
ഗ ു
മാ റ്റ
 മാ റി
 തോ ന്ന
 സോ ഷ്യല്
‍ഗ്ര സിന്
ച്ചി ട്ടുണ്ട്
 സഹ ോദ
ൈന ിക
മ ൊരു
ക്കു റ
 റ ഷ്യ
 ആ ന
 വാ ർത്ത
 വിദ്യാ ഭ്യാസ
 ഒഴ ിവ
ര ത്ത്
ാ ള്
‍ക്കാരി ന്റെ
 രംഗത്തെ ത്തി
 ക രാ
 സ്വാ ധ
ഗ ം
 കി ട്ട
ം സ്
രി പ്പിക്ക
ഹ രി
‍ കു
 ക ന
ത്ര യും
 ഹ ര്
 പുറ ത്തു
 കു മാര്
ൗ ണ്ട
ണമ െന്നാണ്
 ഗ െ
 പു ല
 മാത്ര മല്ല
 യോഗ ം
ധിപ ത്യ
 സ ത്യ
ത ന്ത്ര
ിവ െ
 സമ്പ ർക്കം
പ ല
യില ൂടെ
 കോള േജ
ഭ്യ ന്തര
 ഭ ാ
ിക്ക ാം
 മു മ്പ
ീ ര്
 പാർ ട്ട
പോ ലെ
ഭ ി
 രാജ്യ ത്ത്
ല്ലാ തെ
ഭാ ഷ
വ ം
ു തി
 സമ്മ േള
മ ിക
ായ േ
ഇ വിടെ
 റ ൂ
കോ ഴിക്കോട്
 സ്വന്ത ം
 ചെന്ന ിത്തല
 വികസ ന
 ക ണ്
 ട് രെ
 സൗ ദി
 സെ ന്റ
ല ാണ്
ുക ാര്
 മു രള
കു തി
 ഉള്ള ത്
 സ്ഥിരീകരിച്ച ത്
ർ ക്ക്
 മു തി
 സാമ ൂഹ
പു തിയ
 ക ിലോ
 ക് രി
 നടന്ന ത്
 വ ന്നു
 പെ രു
 മനു ഷ്യ
മ െന്ന
സ ിയ
 ഡ യറ
 പോക ുന്ന
ാന ാവ
 ആവശ്യ പ്പെട്ടി
 സന്ദ ര്
 ജനറ ല്
യി രിക്കുകയാണ്
 സ്ഥ ിതി
 ആ റ്
 പു രു
3 1
 നി ൽ
ീ ധ
 അഭ ്യ
റ ന്
 കേന്ദ്ര ം
 ക ര
 ത നിക്ക്
 ച ന്ദ്ര
ിച്ച ുള്ള
െടു ത്ത്
 വകു പ്പ
യി ട
ിക്ക ൊ
 ചെയ്യ ാന്
 ക് ലാ
 ഇക്കാ ര്യം
  ഊ
 പ ത്തനംതിട്ട
രി ക്കാൻ
 എന്നിവ ര്
നിയ മ
തു പക്ഷ
 അ ധ
 അ ടിയ
വാ ദി
 ഫ ്ര
‍ ധ
പാ ട്
 പ ക്ഷ
 വീട്ട ില്
രു മായി
 പേ രെ
 ലഭ ിച്ചത്
 പ്രതിസ ന്ധി
 ജില്ല കള
 നിർ ദ്ദേശ
 കൊ ച്ചി
ിച്ചി ട്ടില്ല
പ്പെട ുന്നു
 രാ മ
 പറ ഞ്ഞ്
 കു മാ
 അവ സ്ഥ
ലീ ം
 കേരള ത്തില്
 പ്രച ാരണ
 വെ ച്ച
 എ ല്ലാം
മാ രുടെ
ത്ത ാവ
 ത ദ്ദേശ
 ഇ ടുക്കി
ുക ൂ
 തി രി
ധി ത
 കേരള ം
 കി ട
 ബോ സ്
പ ഞ്ച
 ബ ംഗ
 കോ ര്
ഹി ത
ൊ ക്ക
 സമ ര്
 നേതാ ക്കൾ
 അറ സ്റ്റ
 നി ക്ഷേപ
 കോ ട
മ തി
 സ്വ ീകരിക്ക
കൊ വിഡ്
 നിലപാ ട
 വർഷ ം
  യി
ങ്ക ില്
തിന ും
ഗ തി
 ശേഷ മാണ്
 പിട ിച്ച
 നമ്മ ുടെ
ല ു
 സ ജീവ
 വി പ
 സ ൈനിക
ത്തി യാ
 വി രുദ്ധ
അ തിന്
ജ് ജ
 അടക്ക മുള്ള
‍ ഫ
ങ്ങ ാ
 ഒ രിക്ക
 കാലാവ സ്ഥ
 വി ട
‍ഷ ക
നില വില്
 ആക്രമ ണ
ല്ല ുവി
ര െയും
ുമ ു
 ബാ ബു
ക്ക ണം
 വി ട്ടു
 വന്ന ത്
‍ ന്നു
 പരി ച
 പഞ്ചായ ത്ത്
ി ട്ടുണ്ട്
 താ രം
പ ിയുടെ
ുകള ില
 നിര ക്ക്
പര മായ
‌ റ്റ
ൊ ന്ന
ക്ക ില്
‍കിയ ത്
ട നം
 കട ന്ന
ാ റ്റ
ദ ന
 മ ൃതദേഹ
‍ഗ്ര സിന്റെ
 മ ന്ത്രാല
ാവ ുന്ന
8 0
7 0
 അ ബ്
രു ന്ന്
ന്ദ ി
ുപ ോ
 ഇ ൻ
 മോ ദ
പ്പ ിൽ
 ട് രം
ന ട
 സ ഞ്ച
 സമ്പ ര്
ദ് ഘാ
 പോ സ്റ്റ
 നിന്ന ാണ്
 യുവ തി
ര ൻ
ികൾ ക്ക്
 ച ീ
 അംഗ ീക
ോട്ട ോ
‍ ദ്ദേശ
സ് വാ
 മല പ്പുറം
 കമ്പ ന
ത െങ്കിലും
റ ുടെ
 അ ഡ്
 തി രു
മേ ശ്
‍ത്തി യാ
ുമ ുള്ള
ികള ാണ്
 അ ക്രമ
ക്കി ന്
ാ സ
ശ് ചി
ഗ് ദ
 സാധ ിക്കും
 സൗ കര്യ
ക് ട്
മാക ും
വാ സം
 ഉണ്ട ായ
 ചി ത്രം
ീക രണം
ഡ ല്
ങ്ങന െയാണ്
 ച ൊ
 ക ാര
ാണ് ടി
ുകൊ ണ്ടാണ്
 തോ മസ്
ട േ
ു മ്പോള്
 ജാ ഗ്ര
 അമി ത്
ർ ഡ്
 നേരി ട്ട്
 സ തീ
 ന മു
 സംഘ ടി
ാ ണെന്ന്
ത്ത ോട്
 ക് വാ
സി പി
രേ യും
 കാല ത്ത്
 ഫ ്
ള ും
‌ പെ
 പ്രിയ ങ്ക
സ്ര ായേ
റ ുകള്
 രൂപ യാണ്
 സാധ ാരണ
 വിദ്യാ ർത്ഥ
ത ായിരുന്നു
 സ ന്
 ബു ദ്ധി
ദ ായ
റ്റ ർ
ന് തി
ക ും
 ത ുക
ിക്ക ാനുള്ള
ട്ട ത്
 ആ ഭ്യന്തര
‍ത്ത ു
 പ്രവേ ശി
 ഭ യ
 യു എഇ
ക ലാ
ത്തി നെ
ത്ത ാണ്
 എന്ന െ
നാ ധിപത്യ
 എ ന്ത്
മി ന
 സിപി എമ്മ
 സംസാ രിക്ക
 ഹാജ രാ
ഇ നി
ൈ സ
 ഇ ള
 വെ ല്ലുവി
ൽ ഹി
ിക െ
ല്ല േ
 കൂ ടെ
 ഞ െ
ങ്ങന െയ
സ രിച്ച്
 പദ വി
ത ന്ത്
 വ രാ
 ഇ വ
േഷ ന
 വ ൃ
കൂട ാതെ
 കേരള ത്തിലെ
 ല ം
 ന ോട്ട
 അ ക്ക
ിക ൂ
 ചെയ്യ ുന്നു
 ഇ പ്പോഴും
 പോ സി
ര മ
 വേ ണം
 അധ്യക്ഷ ന്
 എ ത്തിയത്
 രാ ശി
തി നു
 ലക്ഷ ്യം
 ദ ിന
 അവ ത
ഴ യ
 ആ ന്
 ആ ഘോഷ
 വി ച
 മാ ർ
 പരിപാ ടി
രാ ഹു
ോ ക്
യി ട്ടില്ല
മാ യാണ്
 പ്ര ോ
ാല ോ
 തുട ങ്ങ
 ഭീഷ ണി
രാ ജ്
 സ്വ ർ
 കഴിയ ുന്ന
ണ്ടെന്ന ാണ്
 യ െ
 സീ സ
റ ിലെ
േ ക്കാ
 മറ്റ ു
‍ ഹ
 ശ മ്പ
 സ്വ യം
ടക്ക ം
കോ ടതി
 ഇന്ത്യ ൻ
ത് യം
ിക്ക ുകയാണ്
 ഉണ്ട ായിരുന്നു
 മുന്ന ോ
മെ ന്റ
 അവസ ര
ജ റാ
രോ ട്
‍ കുട്ട
 ഔ ദ്യ
ള ൂ
 ന ായ
 പേ രില്
ീക രിച്ച്
പ്ര ധാന
 അ ത
 ച ാ
 മുരള ീധ
ിക്കാ ത്ത
ഗോ ഡ്
 ഡ്ര ൈ
 ഉ ദ്ഘാ
 റ ാ
ികള ില്
ട്ട ോ
 സ്ഥാന ം
 ആരോപ ിച്ചു
 ചികിത്സ യില
പ തി
 മ ധ്യ
 തീ ര്
നേ ഹ
 ട്രെ യി
 നട ക്കുന്നത്
 ബിജെപ ിയുടെ
3 6
 ന യ
 ത ള്ള
െടു ത്തി
ക ാര്
 സെക്രട്ട റിയ
 പര സ്യ
പ് തി
 ഇ ന്റ
 നി ങ്ങള്
 പാ ട
 അ ന്ത
ഇ ന്ന
 ച ടങ്ങ
 വി ളി
 ചരി ത്ര
 പ ണ
കള ാണ്
 മുന്നറിയി പ്പ്
 ന ൂ
 ആരാ ധ
ച ില
 തീ വ്ര
ാമ ത്തെ
 പോ സ്റ്റ്
4 8
ടു വ
 ലഭ ിക്കുന്ന
മൂ ന്ന്
പി ച്ച്
 പ്രതി നി
 ലം ഘ
 അ ര
ത്തി നെതിരെ
 ച ാന
നി ട
 ഫ ാ
 ഡോ ള
 ശ്രമ ം
 രാജ്യ ത്തെ
 കൊല പാത
 മ നോ
ടി ച്ച്
  ക്രമ
 പ ട
 മാറ്റ ം
ഞ് ജ
 പ്രതിഷേധ ം
‍ ണ്ണ
ിക്ക റ്റ
ന ത്തില്
മ ം
തി നിടെ
രിക്ക ണം
 ജന ങ്ങള്
 പ്രവ ച
 ദുര ന്ത
വ ള
വാ ന്
 വ്യാ ജ
 ഫോ ണ
 ജോസ ഫ്
 പു രോഗ
 വീ തം
 അവസ രം
 വയ നാട്
 പിട ികൂ
 ത സ്
വ രില്
 ഉ ച്ച
‍ന്ന ാണ്
ജ ്യ
ണ് ണി
െ ത്തിയ
 മ ട
ങ്ങള ായി
കോ വിഡ്
 ചോദ ിച്ചു
 വിവര ങ്ങള്
 മുസ് ലിം
റ ാം
സ് സ്
ിക്ക ുകയായിരുന്നു
 സംബന്ധ ിച്ച
 വ രുന്നത്
ുകയാ ണെന്നും
 വ രിക
 നി ന്നു
 ലീ ഗ
ുകയാ ണ
 ഇ ഷ്ട
 ഏ ര്
വ കു
 ത രം
 ഞ ങ്ങള്
ഷ്യ ൽ
 കൂടിയ ാണ്
 സമ് മാന
 തെളി യി
മ ന
 വിമാന ത്താവ
ട്ടു ണ്ടെന്നും
 യോഗ ്യത
 ജീവന ക്കാ
 കസ്റ്റ ഡി
ങ് ങ്
 രീതി യില്
 ഗുരു തര
ഇ ക്കാ
 ഉട മ
പ ൂര്
മ് മാ
 പേ രുടെ
 ബന്ധ ം
‌ ക്
 ക ലാ
 മത്സ രിക്ക
 കൂട ിക്കാ
3 4
 നടത്ത ുന്നത്
 രാശ ിക്കാ
‍ ദേശം
 ക ഥ
 സ ൂര്യ
 ഗ ്
 ചെയ്തി ട്ടുണ്ട്
 പ്രസ ംഗ
 ഇക്കാ ര്യ
ന് യ
 സാഹച ര്യം
 ബ ീ
 വാ ക്ക
 ആ ലോ
താ ക്കള
 ക ണ്ടു
 മ ദ്യ
മാ ൻ
യാ ൾ
 പ്ര മുഖ
കു മാ
 സ മു
ുന്ന തിന്
 ഭ േദ
ദ ീ
‍ ച്ച്
ട് രോ
നു വരി
 വിത രണം
ഇത്ത വണ
മ െന്നാണ്
 നി കുതി
 ഓ ര്
‍ണ ാടക
ാ ബ്
 ജ യില
ശ് മീ
ാസ് ത്ര
 എതി ര്
 തിരഞ്ഞെടുപ്പ ിൽ
ല ിൽ
ിക്ക േണ്ട
 ബ ്ര
ികള ായ
 തയ്യാ റാ
ിക്ക ാര്
 ഉണ്ട ാവ
 രൂപ യുടെ
 മണ്ഡ ലം
 സ്ഥിരീകരിച്ച ു
 ഉണ്ട ാ
 ആള ുകള്
സ ഹ
ലോ ക്ക്
ത െന്ന
 പ രിക്ക
ടു ള്ള
 അവസ ാനി
അ പ
 മ രണം
‍ത്ഥ ികള്
സംസ്ഥാന ത്ത്
. എം
ുമ ില്ല
ക ോട്ട
തി നാൽ
 ആ രും
ങ്ങള ോട്
ങ്ക ള
 മെഡിക്ക ൽ
 സതീ ശ
 വ ഹ
ത്തി നിടെ
 ത ള്ളി
ിക്ക ുന്നുണ്ട്
 കൊ ടുത്ത
 വാ ദ
 ആ ം
 സൂ ക്ഷ
ത ന്റെ
മാ രെ
 വിശ് വസ
ിച്ചി രിക്കുകയാണ്
 വൈ ക
ശ ു
 ത ട്ടി
തോടെ യാണ്
3 8
ഴി മതി
 ട് ര
പു രം
7 5
 മ േധ
രി ത
പ്പിക്ക ാന്
 അഭി മുഖ
 ജാഗ്ര ത
ഇ ട
റ്റ ീവ്
 പെ ട്ട
3 2
 അ ന്ന്
 രോഗ മു
ങ്ങിയ ത്
 നിയമ ം
 കൈ വ
‍ശ നം
 പോ ളി
 കാ ത്തി
പ്പെടു ത്തിയത്
വെ ള്ള
 പങ്കുവ െ
ജ ൻ
വ യ
 വി ധി
 ഹ ൗ
ക ന്
 മേഖല യില്
കൃ ഷ്ണ
 ക ർ
 അ തിന്
 ശ േഖ
 പരാ മര്
 കൃ ഷ്ണ
3 9
ട ിച്ച
റ ാണ്
ർ ട്ട്
ദേശ ിക
 അവ രെ
 തന്ന െയ
 ക ള്ള
 കാ ഴ്ച
 തൃശ ൂര്
‌ മെന്റ്
ക്ക ാണ്
 ആ ണ
യ ന്
റ ന്റ
 സാ ക്ഷ
 പേ രി
 മുന്ന ണി
 പിന്നാല െയാണ്
 ബുദ്ധി മു
ച േ
 സാ മ്പി
ിലെ ത്തി
ധ ു
 ശി ക്ഷ
‌ സഭാ
‍ ത്തിയ
ൂരി ലെ
  രു
ത ന്നെ
 കു ഞ്ഞ
കര മായ
 പോ വ
 ഇട തുപക്ഷ
 തസ് തിക
 മ ഹ
വി ഷ
 ഓഫീ സര്
 ചൂണ്ടിക്കാ ട്ടി
സ ൗ
ക്ക ായി
 ഇ തിന
പി ന്റെ
 പെ ൺ
 എല്ലാവ രും
 ലക്ഷ്യ മി
 ര മേശ്
 ന ടി
 മ ുംബൈ
തിരഞ്ഞെടു പ്പ്
ന മ്മ
 ബന്ധ ു
 തിരിച്ച ടിയ
 മൊ ഴി
സ േന
 നേ ര
 കൊ ണ്ടാണ്
 റ ദ്ദ
ുമായി രുന്നു
മായി രിക്കും
ൂല ൈ
ഘ ട്ട
വ ായ
 വൈ ദ്യ
 ഡോ സ്
 സ ൈന്
പി സിസി
 സമ രം
 പ്രഖ്യാപ ിച്ച
യ തി
 ജോ സ്
 ട് രാ
 നേതൃത്വ ത്തില്
അ ടുത്ത
 ത ങ്ങളുടെ
 നേ രെ
 യു ദ്ധ
 കാര്യ ത്തില്
 യാ തൊരു
  ര്
 ഉപയോഗ ിച്ച്
അതി നിടെ
 വ സ്തു
 കമ്പ നി
 കഴിഞ്ഞ ു
 യോഗ ത്തില്
പ്ര വർ
 രാജ ്
പ്പിക്ക ുന്നത്
എൽ എ
ക്ക ാനുള്ള
 ഏ ഴ്
 വീ ട്
 തുട ര
 കി ട്ടിയ
 അതി ന്റെ
 എ ങ്ങനെ
മ്പ ാ
 വാ ഗ്ദ
 ഉന്ന ത
 ക്ഷേ ത്ര
ട നാ
ർ ജി
വി തം
 മുഴുവ ന്
ഭ ൂ
വ െന്നാണ്
മാ രും
 സീറ്റ ുകള്
5 5
ിയ ുമായി
ട്ടു ണ്ട
 ചെ റു
ന െയും
വ െന്ന
 മണ്ഡല ത്തില്
മി ച്ച്
ുവ രി
 എന്നിവ രാണ്
ങ്ങള ുമായി
 പ്ര കട
ക്കാ ത്ത
സി ൻ
 മല യാ
 അധ ്യാപ
 ഓഫീ സ
 നടപട ികള്
' ;
 ബ ജ
 ബിജെപി ക്ക്
 രാഹു ൽ
ക ാരണം
ക്ക ാന
ങ്ക ിൽ
 വിജയ ന്
 നഗര സഭ
ർ ത്തു
 നി രോധ
 ഇന്ത്യ യുടെ
  ന്ന
യ ോട്
ുന്ന ില്ല
‌കൂ ള
3 7
ശ ാ
 വ ില്
 കുറ ച്ച്
 കോടതി യില്
 തയ്യാ റായി
 ക ല്
ത്തില ായിരുന്നു
ര ണ്ട
 ബി രു
. കെ
 പ്രവർത്ത ക
 സഹായ ം
 നമു ക്ക്
 സൂ ചി
 വിശ് വാസ
  ർ
അ ന്ന്
േ ബ
മാ യുള്ള
ിക മായി
' ,
‌ സിന
ിയ ്
ുക െ
ായി ക
മായ ത്
 ഉണ്ട ായിരുന്ന
വു മായ
 ഉമ്മ ന്
‍ എസ്
ടക ം
 തുറ ന്ന
 കന ത്ത
4 9
ച െ
‍ ത്ത്
ിയ ുള്ള
 ഇ തിന്
 ഉയ ർന്ന
ഗ സ്റ്റ്
 ജ നാധിപത്യ
‍ത്ത നങ്ങള്
 പങ്കെടു ത്ത
ഇ വര്
 മ മത
രു ത്തി
 കേ സിൽ
 മത്സ രിച്ച
കലാ ശാല
െ ാ
‍ വ്
ിക്ക െതിരെ
 ഇ വർ
ശ ങ്ക
തിന ാണ്
പാ ട
പ റ
 സ ഭ
റ്റ ീ
 മാ തൃ
മെ ന്
ത്ത െയും
 സുരക്ഷ ാ
 ക്ര ൈ
 നില യില്
 കാര്യ ങ്ങൾ
 ത കർ
താ ണെന്ന്
 വയ സ്സ
 മു ഖ്യ
 തമ്മ ിലുള്ള
 ബ് രി
 ഫേസ്ബു ക്ക്
ുക ു
ം സ
 അ മ
സി ക്യൂ
ബ രി
ക്ക േണ്ട
പ്പ ര്
പ്പോഴ ാണ്
 സാഹചര്യ ത്തിൽ
 ഗോ പി
 സുരേന്ദ്ര ന്
ജീ വിത
ിച്ച ില്ല
 ട് വീ
 വിദ ഗ്
 കേസ ുകള്
4 7
ള ുടെ
ില ായി
 ഇ നിയും
 എം എൽഎ
 മൂന്ന ാം
 സ മാന
ത്തി ൻ്റെ
മി ഷ
 ഒന്ന ാം
ബ്ര ുവരി
ാ ളി
ത്ത ുന്ന
 തുട ർന്ന്
 പ് രി
 വോട്ട ുകള്
ൂ റി
ക്ക ന്
 റോ ഡ
ീ ന്
 ഒ ന്ന്
 തേ ടി
 ഉത്തര വാദി
ിച്ചി രുന്ന
മാ ത്ര
 ഗ ൂ
 ഹ ോട്ട
 റ ണ്
റ്റി ന്
കണ്ണ ൂര്
ത ല്ല
 വ ല
സ് തി
 പേ രിൽ
ുകൾ ക്ക്
 സ്വാധ ീന
ക്ക ുകയാണ്
 വ ധ
‍ക്ക ം
 യ ഥ
 നൽക ുന്ന
  ത്തി
 അഭി ഭാഷ
 പറഞ്ഞ ി
 യാ ദ
റു ണ്ട്
ാ ണെന്നും
േ റിയ
 ത ാൻ
 ഇ സ്രായേ
‍പ്പ റ
 പി സി
 ചെയ്യാ ൻ
ു ത
‍ പ്പെടുത്തി
വി ക
 ജ ല
 നി ങ്ങളുടെ
ദ് വീ
െടു ത്തു
 സംസ്ഥാന ത്തെ
കോ ൺഗ്ര
 നില വില്
 കൊണ്ടു പോ
 സേ ന
! !

ആ രോഗ്യ
രി യാ
ലി നെ
 കുറ ിച്ചു
 വ്യക്തമാ ക്കുന്നു
വ രാ
 സി റ്റി
 ബാ ങ്ക്
 സംവിധാന ം
 സം സ്
 ഹി ന്ദു
 വിവാഹ ം
 യു പി
 ഒരാ ള്
 വിമാനത്താവ ള
വ ാര്
ൂരി ൽ
ുണ്ട ായ
 പല രും
യു ധ
യാ ത്ര
 വാ ദം
വ ്യാ
വേഷ ണ
പ ൂ
ർ ക്കും
 റിപ്പോർ ട്ട
 ഉദ്യോഗസ്ഥ ര്
 വി സ
 ഭ രണം
 കോള േജ്
 മുസ് ലീം
ശ്ര ീ
യ ള
 ഇ ടി
 റോ ഡ്
‌ന ങ്ങള്
3 3
ോ ളം
 എ ട്ട്
 ല ോട്ട
 കേരള ത്തിൽ
 ധ ാരണ
 അനുവദ ിക്ക
 പ്രക ടി
ുകള ിലെ
പ്പെട ും
 കിലോ മീ
 ചീ ഫ്
കള ിലും
 സോ ണിയ
ുവി ന്റെ
 സേ വന
 ഭൂ മി
5 00
 അ ർ
യുടെ യും
 അദ്ദേഹ ത്തെ
 പരിശ ീല
 പ്രശ് ന
 തമ്മ ില്
 കൂടിക്കാ ഴ്ച
ക്കാ തെ
 കാ സര്
തൃ ശ
 ആക്രമ ണം
െടുത്ത ത്
 ഗ്രൂ പ്പ്
 കൂട്ടിച്ചേ ര്
 താഴ െ
വ ായി
ൊ പ്പ
 വ്യാപ ക
 ഒരിക്ക ലും
 അബ് ദു
ൗ ൺ
‍ഗ്ര സില്
 ഉണ്ട ാകും
 മഹാ രാഷ്ട്ര
 സംശ യ
 പക രം
‍ക്ക ായി
 ലോ ക്ക്
 ടെ ക്
 വിധ േയ
 ഇന്ന ലെ
ഇ തിന്റെ
 പ ത്ത്
പ് രാ
 ഇ യാള്
താ രാഷ്ട്ര
ണമ ൂ
ുകയ ോ
 സാമ്പി ള
 മു തല
 അദ്ദേഹ ത്തിന്
 ആവശ്യ പ്പെട്ട്
പ്രദേശ ്
 യു എസ്
 പ്രതിക രിച്ചു
തന്ത് ര്യ
ഹ ത്യ
ത് സ്യ
 ഗ വ
 സമ ർ
‍ട്ട ുകള്
ിച്ച ാല്
 വോ ട്ടി
ബ െ
നി ന്ന്
 ഷ ി
 സുരക്ഷ ിത
മ റ്റ
ക് സ്
 ച ല
 പ്രവർത്ത ന
ിയ ത്
 ഇ ദ്ദേഹ
വി ഡി
 ഷ െ
 ഫോ ണ്
 മരിച്ച ത്
 മീഡിയ യില്
ർ മ്മ
 തട യ
 വിഷയ ത്തില്
 മ ല്
 അ ല്
ളൂ രു
ന്ന ത്
ില്ല െന്ന
ഇതി നിടെ
 രാശ ിക്കാര്
ശേഷ ം
 അധികൃത ര്
ശ േരി
ക്കുന്ന തിന്
9 0
ല ങ്ക
ഷ ാ
‍ത്ത നം
 പൊ ലി
സർ ക്കാർ
 വനി താ
 ആദ്യ മായി
 യൂ ത്ത്
 ക്യാ മ്പ
പ ൂർ
ര ൂ
ഹ ൈ
മാ ക്കിയ
പ്രവർ ത്ത
 സ ച്ചി
 സ ജ്ജ
 സി ന്
 സി ംഗ
 വള ര്
രി വാ
 അ ഴിമതി
 ശ ബ്
ഞ്ച േരി
കൊ റോണ
4 6
 മാ ണി
 യ ോ
 ട ോ
ക്ട ോ
േക്ക ാണ്
 പി ഴ
ബി ഐ
ഗ് ഗ
‍ ഡിഎഫ
 നി ശ്ച
ില്ല ാത്ത
സാ ധ
 സിപി ഐ
പീ ക്ക
ട് രി
 വ ായി
 കു ടു
 ട് വി
െ ത്തി
ക് യ
 ഇ വരുടെ
 ഗു ണ
ാക്കിയ ത്
രുവ രും
മ ംഗ
ങ്ങ ുന്ന
ടക ര
 തിരി കെ
ല േ
ത്തി ടെ
കൊ ല്ല
. ഡി
 ക ണ്ട്
 എ തിരെ
 ഗ വര്
ണാ ടക
 പോരാ ട്ട
 ചെയ ര്
 നീ തി
 ഗു ജറാ
 പരിഗ ണിക്ക
പ് രിയ
ുക ാർ
റ്റ ിൽ
 ജയ രാജ
എ ൻ
എ ന്റെ
 ക ർഷ
ങ്ക േ
ഇ പ്പോള്
കു മാര്
ക്ക ുള്ള
 അ സി
 നടത്തി യിരുന്നു
 വിപ ണി
ല് യം
 ആ ക
 ഏ ജന്
നി മാ
ൂ ട്ട
ൂ ട്ടി
ിയ ു
 ഇ വരെ
 ബ സ്
 ബി സിന
 വെളി പ്പെടുത്ത
 ജാമ ്യം
 ക ൗണ്
 അധിക ം
 ദിലീ പ്
ാ റ
ത് രാ
 സ് കൂ
 ബാ ങ്ക
 രോഗ ബാ
ധ ാന്
ൃ ത്തി
 കേസ ിലെ
 പ്രതിക രണ
ല ിക
 ഒരു പാട്
 സ്വദേശ ിയായ
ുകൊ ണ്ടു
 പോക ുന്നത്
 പേർ ക്ക്
 ഗ്രൂ പ്പ
വ രു
 ത ങ്ങള്
 ആ ദി
 കൊ ണ്ടി
 വ്യ വസ
 ട ിക്കറ്റ്
 കൂടു തല
 നെ ഗ
ന ീയ
ിക്ക പ്പെട്ട
ായ റാ
യാള െ
‍ ബ
‍പ്പെടെ യുള്ള
 കൊലപാത ക
‍ ഡിഎഫ്
 ച ൗ
 ബ ഹു
െയ ര്
ുണ്ട ായി
യ െന്ന്
ാ ദ
 വിജ യ്
 വിഷ യം
  ടു
അ വര്
രാ ശ
ബി ഗ്
 വൈ സ്
വിധ ായക
ക്ക ുകയായിരുന്നു
 അ ച്ഛ
 മാ റിയ
 മൂ ലം
 ശ്രമ ിച്ച
കേരള ത്തില്
 കുറ്റ പ്പെടുത്തി
വ ുന്ന
ത്ത ുള്ള
ില് യ
 തി രുവനന്തപു
 ഞ ങ്ങൾ
ുകയാ ണെന്ന്
ത മായ
 പ്ര മേ
ങ്ങള ിലേക്ക്
 വെ ബ്
 ഉദ്ഘാ ടനം
 നി മിഷ
യിലെ ത്തി
വ ോ
 ആ ഴ്ച
 ജീ വിതം
4 2
 ജില്ല യിൽ
 മണിക്കൂ റി
 മൊ ബൈ
 ദേ വ
 പ്ര വാസ
 സാ ന്നി
ക്ക ിൽ
 ക ണ്ടി
ക്കാ രെ
സ ുകള്
ായ ം
 കോ ർ
‍ ദ
 മ െയ്
ടി ന്
 ഡ ല്
ബരി മല
 ത ര്
ണ്ട ായിരുന്നു
തെ ല്ലാം
 ഫി റോ
ദ ിവ
ന ഗ
േ ല്
കൂ ടു
 കണ ക്ക്
േബ ്യ
ട ുന്ന
ള ജി
 പ ൗര
 അ തോ
 പരിച യ
ജ യ്
 വ ക
കു ള
ത്രി ക
‍ഷ ിക
 മ ൈ
 വീ ട്ടിൽ
 തുട ക്ക
തീ ഷ്
 പുരു ഷന്
ശ േഖ
ാന ാക
ത്യ സ്ത
ഹി തം
ായ ാലും
‍ക്ക ു
 രാജ ിവെ
ിക്ക ല്
 ര ഹ
 പു ര
രുടെ യും
 നില നില്
 അറിയി ച്ചത്
 മേധ ാവി
6 5
 ആ ന്റ
താ ര
മി ന്
 പ്രസിഡ ന്റ
 റെ യില്
 വിദഗ് ധ
സ ന്
ത്ത രം
 ഏ ത്
ദി ന
‍ണ ായക
 വയ സ
 കണ ക്കാ
 തെരഞ്ഞെടു പ്പ്
 മ തി
െടു പ്പ്
ത്തിന്റെ യും
19 9
 പരിപാ ട
 മൃതദേഹ ം
തു പോലെ
ബ് ലി
.. .
 അറ േബ്യ
 വ രുത്ത
 അ ംബ
 രജി സ്റ്റര്
ജ ൂ
ണ ക്കിന്
 കു ഴ
മു സ്
വ് വാ
ാ ബ
മു ളള
ികള ിൽ
 സഹ ക
 ഉയ ർ
 പ്രച ാരണം
ംബ ര്
 സമാ ധാന
പഞ്ച ായ
വി രുദ്ധ
 ഏ പ്
 വീ ണ
പി ന്
 സ്വ തന്ത്ര
 മത്സ രാ
 ശക്ത മായി
 മരിച്ച ു
 ഇല്ലാ ത്ത
 സുധാക രന്
മാ വധി
കൾ ക്ക്
പര മായി
ജന് യ
റ േ
‌ ള
 രാജ്യ ം
പ്പെട്ടി രുന്നു
 മനസ്സ ില
ാലോ ചന
. വി
സ ിക
 മ ര്
 പ്ര ൊ
റ്റ ം
 മുഖ്യമന്ത്രി യുടെ
 കണ്ടെ ത്തിയത്
അ ങ്ങനെ
ിക്ക ാനും
േണ്ട തു
 ജില്ല കളില്
നേ യും
 ജനറ ൽ
ീ ഷ്
‍ ദ്ദ
 ന ു
 എന്ത ാണ്
മാത്ര മല്ല
 വ ച്ച്
പു ഴ
 പ്രാ ദേശിക
 പ്രതിനി ധ
ൈ സ്
 കു തി
 സന്ദ ർശ
 ക്വാ റന്റ
 വെല്ലുവി ള
 അ തേ
 ഭ ീക
 ക്ഷ ണ
 മ ണിയ
 ആ ല
ോഗ ്യ
ുണ്ട ായിരുന്നു
ള യ
ർ ഡ
 ഇ ല
റ്റ വും
പ്പെടുത്ത ുന്ന
 റെ ക്കോ
ഗ ി
യ െന്ന
 അ മ്പ
മ ഹാ
‍ വ്വ
ണ് യ
രാ ഷ്ട്രീയ
ാന ോ
 ഭ ി
ഓ രോ
 പ ണി
 ബ ൂ
 ഭാഗ ത്ത്
 മറ ിക
 അ റി
 പ്ര ണ
ക്കാ രി
ില്ല െന്നാണ്
വാ സി
 പ്രക ടന
ഥ ി
ദ യ
പ ര്യ
 പ ൗ
േഷ നില്
 ലഭ ിച്ചു
ൈ വ
 അ ങ്ങനെ
മാ ധ്യമ
തില ൂടെ
ന ല്ല
പ ം
 നി ഷേധ
ടി ന്റെ
ുകള ിലേക്ക്
 ട ൂറി
ി രുന്ന
 റ ിയ
 രൂപ യും
 കാണ ാന്
 വര െയുള്ള
 വിളി ച്ച്
4 3
സ്ഥ ാന്
ഫ് ഗ
 വ്യക്തമാ ക്കുന്നത്
ഥ മിക
ഫ ല
 ഇ പ്പോഴ
നി ർ
 പുറ മെ
 മന്ത്രി സഭ
 ഡോ ക്ടര്
ബ ോധ
ീ ല്
യു മാണ്
യാ ണ
യാ ന്
 പി ൻ
 ഓ ണ്
യി രുന്ന
 മ ര
 ആശുപത്രി യിൽ
 ഓഫീ സ്
പാ ർ
 വേ ഗ
 വിച ാരണ
‌ കോ
 വ ന്ന്
 ശ രിയ
പ്ര തീക്ഷ
 വേ ണു
 ക് ല
 ഡി സം
ില േ
യില ായിരുന്നു
മി ന്റെ
 കയ റി
‍ ധി
ിക്കുന്ന തിന്
 സമ്മ തി
 പൂർ ത്തിയാ
ജില്ല യില്
 നിയമ നം
ുകൊ ണ്ടി
ഹാ രം
തുട ർന്ന്
 സാമൂഹ ിക
ഷ ോ
ക്ക ുമ
 മുന്ന ിൽ
 മോ ശ
‍ച്ച കള്
 കുടുംബ ം
. ടി
 എ യര്
 കൃത്യ മായി
 ഇ തേ
 മന സില
ന ിക
വ ല്
പ്പ ും
 ജ നുവരി
‍ക്ക ി
 ചെല വ
 പോല ുള്ള
 ര ോ
 ആശ യ
യാള ുടെ
 വെള്ള ം
 വന്നി രുന്നു
) .

ീ ര
സ് പ
വി ദ
‍ണ ര്
 സമു ദായ
 പ ൈല
 പ ഴയ
 സർ വീ
 നാ ളെ
 സ്ഥാന ത്ത്
 വ്യക്തമാക്കി യിരുന്നു
 പശ്ചാത്തല ത്തില്
  രി
ു റ
 രാ ഷ്ട്ര
‍ക ാന്
 ട്രം പ്
ൃ ഷ്ണ
വി ദേശ
 പരി ധി
ണ്ടെ ങ്കില്
 മന്ത്രാല യം
വി ശ്വാസ
 ഹൈ ക്ക
്യൂ ണി
 ഉട ന്
ആ ലപ്പുഴ
 ക ല്ല
ംഗ ളൂരു
 കണ്ണ ൂർ
 യൂ ണി
 കൂട്ടിച്ചേ ർത്തു
 പ ക്ഷേ
ിക്ക ുമെന്ന്
 കാല യള
. ഐ
ം പ
അ ന്
ട ുന്നത്
‌ ട്രേ
ക്ക ുന്നുണ്ട്
 എ വിടെ
 വെ ട്ട
 ന്യൂ ന
ങ്കള ാഴ്ച
പ് യൂ
ടു വില്
സ്റ്റ ർ
ബാ ദ്
 അറിയ ാം
 പ്രവ ൃത്തി
ദ ണ്ഡ
 പി റ
ശ് വ
 വിള ിച്ചു
‍കു ട്ടി
അ മേരിക്ക
ീ സ
 ബ ാന
 ജ സ്റ്റി
 നട പ്പാ
 ഗ താ
 നടത്ത ും
‍മാ ന്
വി ള
 ല ു
 രാ ജി
 ഘ ടക
 കഴി യില്ല
 സ ബ്
 വേ ള
 നാ ള
പ്രതി പക്ഷ
തി ല്ല
 ഹ ൃ
 വ്യ ത്യസ്ത
 ഉറ പ്പാ
ഗോ ള
പ്രധാന മന്ത്രി
വ ലിയ
ടിയ െ
 കെ പിസിസി
 വനി ത
4 4
ഞ ാന്
വ ൻ
 മ ത്സ്യ
ത്ത ാ
 കമ്മീഷ ന്
 സാന്നി ധ്യ
ന് മ
സി ദ്ധ
‍കി യിരുന്നു
 നേതാക്കള െ
ഡ െ
മ ൊ
സ േ
 ത ൂ
 തൃ ണമൂ
 സുഹൃ ത്തു
 ഭാ ഷ
സാധ ാരണ
ൂ ട്ട്
‌ നം
ങ്ങള ോ
ണ്ടെ ങ്കിലും
 അറിയി ച്ചിരുന്നു
 ഡി ജി
  ണ്
ച ൈന
 ച ാണ്ടി
 ബ ോധ
 ഭാഗ ്യ
 കാല ം
 ബോ ര്
 തൊഴ ില
 സഖ്യ ം
 പീ ഡ
 മോഹ ന്
 പുല ര്
ട്ട ില്
സാ ദ്
 അടിയ ന്തര
 ഞെ ട്ട
ഘ ടന
ാല ൂ
 വയ സ്
സംസ്ഥാന ത്തെ
കാര് യം
 അ ട്ടി
മാ ണിത്
 വി ട്ട്
റ്റി ന്റെ
ക്ട റ
 പ്രതിപക്ഷ ം
ഇതു വരെ
 മുന്നോ ട്ടു
േ ന്ദ്ര
യ് ക്കുന്ന
 പാ കി
 കണ്ടെ ത്തിയ
ാലി ബ
ഷണ ല്
 മ ണ
 ഉ ദ്ധ
 ശ ോഭ
 ട ൈ
 അപ മാന
 ദു ബ
ന ാല്
പ ാല്
 ഉ ദ്ദേശ
‍ക്ക െ
പു ല
‍ക്കാ ന്
 വൈ കി
 ആലോ ച
യി ന്
 വാ ങ്ങി
 സംസ്ഥാന ങ്ങളില്
 ആവശ്യ മായ
 തോ ല്
വകു പ്പ്
രി പ്പ
 സ് പീക്ക
ന്ത ം
 തീ യതി
ാക്ക ുന്നത്
 കി ടക്ക
 തുറ ന്ന്
 ബു ധ
പി എ
മോ ഹ
യ േറ്റ
 ആവശ്യ പ്പെട്ട
 രേഖ പ്പെടുത്തി
ങ്കേ തിക
രുന്നു ണ്ട്
 മു ല്ല
വാ ര
ടിയ ുടെ
 കമ്മി റ്റ
ഇത്ത രം
കാ തെ
 സാധ്യത യുണ്ട്
 കെട്ടി ട
ന ത്തിൽ
മ ുംബൈ
ാ ത
 അന് താരാഷ്ട്ര
 ഉത്തര വ്
് മി
 ത ാക്ക
 നി ങ്ങൾ
 മു റി
ഭ ം
ക്ക ല്
 അ നി
 ഒ ന്നി
 ഒ ക്കെ
ശ് വാസം
ലോ ക്
 ഉറ പ്പ്
‍കി യിട്ടുണ്ട്
 പ്രച രണ
 നേതാക്കള ും
 അഭിന ന്ദ
ഗ ണ
ക്ക ുമെന്ന്
 കു മാർ
 തി രുവ
‍ക ുന്നത്
 തിരിച്ച റിയ
 ഫ ോട്ടോ
ുണ്ട ായിരുന്ന
 ബൈ ഡ
ങ്ങാ ട്
ദ ര്
ഫ ലം
ൻ ഡ്
ന് ദ്
കേരള ത്തിലെ
്രാ ഞ്ച്
 ടീ മ
റ ില
ത്ത ര്
ാല െ
 ഭ ര്
ഡി ൽ
മു ന്
ഇ തേ
ദ രാ
മ ർശ
 ന ഴ്
ാന ഡ
 ജ ു
സി പ്പ
‍ക്ക ുള്ള
 വെ ടി
ാക െ
 പ്രതിസ ന്ധ
 അസി സ്റ്റ
സ മ്പ
ിയ ാഴ്ച
 മാന ദണ്ഡ
 ഇല്ലാ താ
ർ ദ്ദ
ക് രിയ
മ് മാണ
 വാക് സിൻ
നില വിൽ
 ത ട്ട
 നില യിൽ
ാണ ോ
 സംസാ രിച്ച
 എത്ത ുന്ന
കോട്ട യം
ു മ്പോൾ
‍ ഡിഎ
ിക്കാ തെ
ല ുകള്
 പര മാവധി
 മ ടങ്ങ
 മുന്ന േറ്റ
 വിവര ങ്ങൾ
ായറാ ഴ്ച
ൊ രാ
മാ വ
യു ക്ത
 ഐ സ
 മേ ല്
 മറുപ ടിയ
ഇന്ന ലെ
വ ുമാണ്
 വ ായ്
 വി നോ
 ശ ്
 സം വിധായക
 ചി ന്തി
‍ട്ട ിയുടെ
ത മായി
ുമ ുണ്ട്
 നടപട ികൾ
 കൂട ാതെ
 മുതി ര്
ശ്ചി മ
‍ പ്പിക്ക
 ജ ൂലൈ
ായ ും
 പ്രഖ്യാപ നം
 ഭൂരിപക്ഷ ം
‍ റ
‍ത്തി ക്കുന്ന
നിയ ര്
ദ ിലീ
ള ിച്ച
 അ ക്കാ
ിക്ക ി
രാ യം
 ശ രീ
 ഏ ർ
 വ്യ വസ്ഥ
 കാണ ുന്ന
 സഹ കരണ
ജില്ല ാ
വർ ണ
 ബോ ധ്യ
യ്ക്ക ായി
 ആരംഭ ിച്ച
 നേതാക്കള ുടെ
 മുൻ പ്
ത ാന്
ശ ക്ത
‍ പ്
 ഒ പ്പം
താ ക്കള്
 സീറ്റ ില്
 തൊഴ ില്
 രീതി യിൽ
 പുര സ്
 പ ത്ര
 ന ശി
 കു ത്തി
 നേ ട്ടം
 അനു സരിച്ച്
 നമ്മ ള്
 ലോട്ട റി
i n
ക്ക ാനും
 പ്ര േക്ഷ
 ശ ര്
 സാ ധ്യ
 കള ക്ടര്
 പഞ്ചായ ത്ത
പ ന
 ബാ ധിച്ച്
 കി ട്ടി
 സർക്കാരി ന്റെ
 വാഗ്ദ ാനം
 സിന് ധ്യ
റ്റ ും
 റോ ബി
രാജ്യ ത്ത്
 നേരിട ുന്ന
ത ൊഴ
 ക ക്ഷ
 ക ശ്മീ
 ത ാലൂ
 പ്ര ോ
ണി ച്ച്
 നിയ ോഗ
പ്പി നെ
 പോയ ത്
ു ട്ട
 ത ന്ത്ര
 ല േ
 തി രിച്ച്
 ജില്ല കളിൽ
 മത്സ രം
‍ട്ട ില്
 താ ത്
ായ് മ
 ശമ്പ ളം
 വേണു ഗോ
‌ ഐ
താ ണ
പ്പിക്ക ാൻ
 പ്രവർത്ത കർ
വ ്യാപ
 ശ ാസ്ത്ര
പക്ഷ െ
 ചേ ർന്ന
യോഗ ം
 സൗ ജന്യ
‍ക്കാരി ന്
 മറ്റ ുള്ള
 പറയാ ന്
 ഭക്ഷ ണം
4 1
അ വിടെ
ഞ ാൻ
ന്ന ൂര്
 നട ക്കും
 മാ സ്
യാ ല്
 പിന്ന ില്
 അതി ര്
നിയ ാഴ്ച
 പ്രാ ഥമിക
 അ ശ
 പീ ഡി
 പുറ മേ
 ന് യായ
അദ്ദേഹ ം
5 6
5 7
ത യും
ാ രാ
മാ രായ
 സംഘ ര്
 അറിയി ല്ല
 എടു ത്തി
 ബിരു ദ
 നിശ്ച യി
5 8
ത ൊക്കെ
േ മ
‍ ഗോഡ്
 ന ന്ന
യ് ക്കു
 പങ്കെടു ത്തു
‍പ ര്യ
 അഭിപ് രായം
മ റ്റ്
െയ ായിരുന്നു
 തുട ക്കം
 കാണ ുന്നത്
 ആത്മ ഹത്യ
 നോട്ട ീസ്
ഏ റ്റവും
ണ ില്
ല്ല ി
രിക്ക െ
കു റ
പാല ക്കാട്
 കുറി പ്പ്
ഇ ത്തര
മാ റ
പി ട
 കെ എസ്
ഡ ൽഹി
ന ായിരുന്നു
പ് ല
സ് മ
 ഇ ത്ര
സ്ഥ ാപ
 സാഹചര്യ ത്തിലാണ്
മില്ല ാത്ത
 മാന േജ
 ഗെ യി
 കോട തിയെ
 വൈദ്യ ുതി
 ബ്രി ട്ട
 ഓ ക്
സാ മ്പത്തിക
 വിജയി ച്ച
ണ ര്
പ ട്ട
ല േക്ക്
‌ ഫോ
 കാ പ്പ
 റ ില
ൽ പ്പ
 പ്ര ൊ
 മാ റിയി
ജി ത്
 കൃത്യ മായ
യി ട്ടുള്ളത്
 സ്ഥ ലം
 വീ ത
ുപ റ
 മുഴുവ ൻ
ല ാം
േ ട്ട
 അ ണ
 സി നിമാ
‍ഷ കര്
 നേതൃത്വ ത്തിലുള്ള
 നോ ക്കി
ംബ ർ
 പരിഗണ ന
 ഉൾപ്പെടെ യുള്ള
‍ ണം
‍ ദ്ധ
 അ ധി
 ഏ തെങ്കിലും
 സ്വപ് ന
േ ര്
 മ യ
 എ ളു
 ട ീം
 ഉപ േക്ഷ
ത്തോടെ യാണ്
‍ല ൈന്
 മുതി ർന്ന
അ വ
ബ ീ
് വ
ട് രാ
താ ണെന്നും
 മണ്ഡല ത്തിൽ
 പ്രാ ധാന്
ിവ ൈ
 ഇട ത്
 വ്യക്തമാ ക്കിയത്
 സാധ്യത യു
 വ്യാപ നം
പൊ തു
 പുറത്തു വി
 അക്ക ൗണ്ട
 എ ച്ച്
പ്പിക്ക ുന്നു
 ഗ്ര ഹ
 സ്വാ തന്ത്ര്യ
സംഘ ടന
 ഒ ട്ട
 ഗ ണ
 തീ ര
ഇതി ൽ
 രോഗമു ക്തി
ള ിയ
‍ ജെ
െയ ്യ
 ശ ര
 അധിക ാരം
ഷ്ട്രീ യം
 മി നി
ടി ഞ്ഞ
കാ രിക
 അന് തി
 പഠ ന
 മക ന്
 ട്വീ റ്റ്
ക ക്ഷ
ോടെ യാണ്
പോ ര്
 ജൂ ണ്
‍വീ സ്
 അറസ്റ്റ ില
  ത്രി
ഞ് ജു
ിക്കുന്ന ില്ല
 ബാധ ിച്ചത്
 പ്രകട നം
 ക ൺ
ത്തു ട
പരി ശ
 ഉറപ്പ ാക്ക
 കണക്ക ില
 പെട്ട െന്ന്
 മറിക ട
ത ന
 എ യർ
 ജ ഡ്
 ര മ
പി സി
 തെ റ്റി
 ജന ങ്ങളുടെ
 ഔദ്യ ോഗ
 കർ ണാടക
ഥ ു
റ ുക
 ഇ ത്രയും
ന്റെ യും
ക്കാ രുടെ
 കു ട്ടി
ച്ചി രിക്കുന്നത്
 നിർ ദേശ
 കണ്ട ത്
 പൊലി സ്
വാ ൻ
 ഗാന്ധ ിയുടെ
ട ാ
യ ല്
വ നം
 ക ടുവ
യി രുന്നത്
 അ ത്ര
സി നും
 ട് രേ
ക്കള ുടെ
 വാക് സിന
 ചെയ്യ ുക
ിച്ചി രുന്നത്
 യു ക്ര
 പ്രഖ്യാപ ിച്ചു
 വോട്ട ര്
സോ സിയ
ഒ ന്ന
ഗ തം
ൗ ണ്ട്
തൃ പ്തി
‍ട്ടി ഫ
 വിശദ ീകരണം
ക്കട ത്ത്
 കൊ ണ്ട
കു ട്ടി
 മേഖല യിലെ
നാട്ട ില്
 ഭീക ര
ച്ച വ
 കാര്യ മാണ്
‍ട്ടി യില്
 വൈറ ല
 സ്ഥാനാർത്ഥ ി
ഇ രു
ണ ിയുടെ
 പാ ത
 ഇന്ത്യ യിലെ
പ രാ
 ബ ാഗ
ക രുടെ
 അ ന്ന
 കേ ള്
എസ് പി
 നിയന്ത് രണം
മൂ ന്ന
 നിരീക്ഷണ ത്തില
 ഭക്ഷ ണ
ദീ പ്
മംഗ ലം
6 8
ക്കി ട
 ഇന്ത്യ യില്
 തിരിച്ച ടി
 സോ ഷ്യൽ
 ഫെ ബ്രുവരി
അ തില്
ട്ടു ണ്ടെന്ന്
 ദിവസ ത്തെ
 ഇറ ങ്ങ
ക ല
റ ുകൾ
 ഇ രുവരും
കു മാർ
സം ഖ്യ
 കി ഴ
5 9
ന ല്
ാ ൾ
‍ റ്
 ഒ രേ
 തിരിച്ച ു
 പരിശോധന യ്ക്ക്
 ബാധ ിച്ച
 ഒരാ ള
  ഛ
ത ദ്ദേശ
രാ ത്രി
 ബ േ
ക്കി യിട്ടുണ്ട്
 കെ ജ്
 തിരഞ്ഞെടു പ്പിന്
 പ് ലാ
‍ക ും
 മോ ശം
 നടത്ത ാന്
 കുട്ട ികള്
രാജ്യ ത്തെ
നിര വധി
 കരുത ുന്നത്
നമ്മ ുടെ
സ മാ
ാന് ത
ോഗ ിക
 ഐ ക്യ
 വരു മാന
 സ്ഥല ത്ത്
മാ സ
മ്മ ി
ക്കി ടെ
 മൂ ല
 വകു പ്പിന്റെ
ട്രേ ാള്
 രജി സ്
ഡ ില്
രു ടേയും
ങ്ങള െയും
 ഗ ൗര
 കൈ കാര്യം
  .
 ആ ക്ഷേപ
ന്നി ട്ടുണ്ട്
 ജന ങ്ങളെ
രാഹു ല്
ഇ പ്പോൾ
 സാ ങ്കേതിക
ുവി നെ
 എഴു തി
ട ാണ്
ള ര്
ൊ ന്ന്
ന്ത് യാ
ടിയ േറ്റ
 ട ാ
 തോ മ
 സാമൂഹ ്യ
ശാ ന്ത്
5 2
ഫ െ
മ ുന്ന
ർ ജ്
 പ വന്
താ ക
 ഉത്തര വി
 വിത രണ
 അഡ് വ
 രഹ സ്യ
 എളു പ്പ
ക ൻ
 വി ഷ്ണ
െയ ോ
ന്ദ ര്
‍ക്ക ിട
പ്ര കാരം
ീകരിച്ച ു
 സംഭവ ത്തില്
 ബ് ലോക്ക്
 നൽകിയ ത്
 സമ് മാനം
ീ ത
 ഗ ം
 ദ ൗ
 സി ദ്ധ
 കാ ട്ട
 വെ റും
 സെ ന്
 പ്രതിക രിച്ചത്
 റെ ഡ്
 തട സ്സ
 കരു തി
 തര ത്തിലുള്ള
വിദ ്യാ
ു ടേയും
രു തെന്ന്
 ജ ലീ
ങ്ങള ിലൂടെ
 എന്ത െങ്കിലും
 റ ാവ
രോഗ ം
ഭ ാര
 ജ ്യ
ക്ഷ ോഭ
ട്ടി ഫ
മ നു
‍ ;
ക്ക ൊപ്പം
 ന ന്ദി
ിക്ക ുമെന്നും
 ആ ള്
ക്കാ ക്കര
സി നിമ
 വ്യാ ഴ
ക്ക ാനാണ്
 സ സ്
 ചെന്ന ൈ
ലങ്ക ാന
പ്രതീക്ഷ ിത
3 00
പ ത്തനംതിട്ട
 സർ വ്
 വേണ്ട ിയാണ്
 ക്ര ൂര
ി ട്ടില്ല
ി ട്ടും
തി ലും
 സ ങ്ക
‍ഷ ത്തെ
 അവത രി
ല ൂടെ
ങ്ങള ിലാണ്
 ദ ക്ഷി
ചി ത്ര
 തല ത്തില്
 ചിത്ര ങ്ങള്
 അഭിന യി
 ആവശ്യപ്പെട്ടി രുന്നു
ട ോ
 അ റിഞ്ഞ
ങ്ങൾ ക്കും
ക്കു റി
 ഒ മ്പ
കു ടുംബ
വാദ ം
 നേടിയ ത്
 ഒ പ്പ
 പുറ പ്പെടു
 കാണ ാം
 പ്രതിക രിച്ച
 വിശ േഷ
കൃ ത്യ
ക്കൂ ട്ട
 ഗൂ ഢ
 ടൂറി സം
 ജോ ല
മുണ്ട ായി
 ഭേദ ഗതി
വ്വാ ഴ്ച
 കോ ൺ
 മാ താ
തിന ാല
 ടെ സ്റ്റ്
 മാതൃ ക
 അതോ റി
മ ൈ
‍ മെന്റ്
ിക്ക ാന
 ഇ തില്
 ര ക്ത
 വിള ിച്ച
എ ല്ലാവ
ണ ല്
 അ സോസിയ
ച്ച ുവ
 ത ാലിബ
റ്റ ാണ്
സ്ഥ ിതി
ജി ത്ത്
പ്പെട ുകയും
പ്പെടുത്ത ാന്
 പ്രഖ്യാപ ിച്ചത്
 പെൺ കുട്ട
 തുടര ുകയാണ്
‍ ധന
യാ ണെന്ന്
 കു ത്ത
നാ ഴ്ച
 അംഗ ീകരിക്ക
 സ്റ്റ േഷന
 ചോദ ിച്ച
വള രെ
‌ ല
ക്ക ൻ
 ക ത്തി
്ര മ
ില ായിരുന്നു
ക്ഷ ന്
 നില വിലെ
 മെ ച്ച
 സൂ പ്പര്
.എ ഫ്
6 9
w w
സ ുകൾ
‍ പ്പെട്ട
 റ ീ
 വ്യ ത്യാ
 വേ ദ
‍സ ില്
 മേഖല യിൽ
 വിജയ ൻ
 ധന മന്ത്രി
ഐ എ
യ െയും
 മ ൗ
വി വാഹ
രം ഗ
മാക ുന്ന
 വിശ് വ
 കൈമാ റ
 എന്നിവിട ങ്ങളില്
നട പ
ഇക്കാ ര്യ
 ബുദ്ധിമു ട്ട
  ത്
ഇ വ
‌ പ
‍ഗ്ര സ
 യാ ഥ
 പരിശോധ നാ
 വരു മാനം
ന വും
ക്ക ുമെന്നും
 അ തു
 അ ഫ്ഗ
ങ്ക ി
 പറയുന്നു ണ്ട്
 സ്റ്റ ാ
 യൂ ണിയ
 നടപ്പ ില
ഷ േ
 ക പ്പ
 ഒ ളി
 സി ബിഐ
 ചില ര്
 ദിവസ ങ്ങളില്
 ഇറ ങ്ങി
 വാഹ നം
 മണി ക്ക്
േക്കാ ള്
 ജസ്റ്റി സ്
അ ഞ്ച്
‌ റ
 പ കര്
 രാ ഷ്ട്രീയം
പു റ
 വേ റെ
 അംഗ ം
 മാന സിക
ങ്ങളില ായി
 പൂർ ണ
 പ്ല ാന്
മ്പോഴ ും
 അഖ ില
" ,
 ആ യുധ
 വെ റു
 കേസ ുകൾ
 കൃ ഷി
ംഗ ിക
‍വ ല
 കഴി ഞ്ഞ്
പ്യൂ ട്ടി
വ റ
‍ ടി
 ഇ തിന്റെ
 എന്ന ു
 സി ങ്
പു ര
 പരാ മർശ
.. ..

 അതി നെ
 ആള ുകൾ
 ഒരാ ൾ
എ ച്ച്
 ഉ ല്
തിയ ായ
 ഉണ്ട ായത്
ബ് രി
 സുപ്രീം കോടതി
 പുതു തായി
മു റ
‍ത്ത ാന്
 ശ്രമ ിക്കുന്ന
 ചെയ്തി രിക്കുന്നത്
 എത്തി ച്ച
 താമസ ിക്കുന്ന
 ആന്റ ണി
മ േഖല
 അ രു
വി വിധ
 വിമ ത
 മാധ്യമ ങ്ങള്
 ഏക ദേശം
ര െയ
 വ ക്
മ്മ േള
ടിയ ത്
ക്കള െ
 നിർ ത്തി
ുമാ യുള്ള
 സ്വർ ണ
 സംസാരിക്ക ുകയായിരുന്നു
ഇ താണ്
ത ൊ
ദ ്രാ
 സ് നേഹ
ിര ുന്നത്
 ദിവസ വും
ോ തി
 ചൈന ീസ്
 ഫിറോ സ്
 അ സം
ിക്ക ാനാണ്
യാ ക
ട്ടി രുന്നു
 അവ ധി
കാ ത്ത
ങ്ങളുടെ യും
വര െയും
 ഉത്ത ര്
 ശബ് ദ
ത മ
ത്ത ാന്
യു മായ
 ചെയ ർ
 സുധാക ര
ത് യു
 വ നം
ില്ല ാതെ
 ഏ ജൻ
 ഉട ൻ
 ഭക്ഷ ്യ
 രംഗത്തെത്തി യിരുന്നു
6 7
ന ൊപ്പം
‍ ച
പ് ലോ
ത്ത റ
െടു ക്കുന്ന
കാ ശ്
ിലാ ക്കി
എ നിക്ക്
ഡ ്ര
പ ിയും
‍ വി
ടി യില്
 ഡ ൽഹി
ഗ് രി
 അ തീ
ഗ്ര ാമ
 ഒരു ങ്ങ
 സംഭവ ിച്ച
‍ച്ച യായി
 കഴ ിയും
 ഗ്രാമ പഞ്ചായ
 ക്ലാ സ്
 പൗ രന്
ഗ മ
ട ിച്ചു
ൃ ഗ
 മാ രാ
 ക് രിക്ക
 നടപ്പ ാക്ക
പരിശ ോധ
അ വരുടെ
 പ ച്ച
 ക യ്
 വീ ഴ
പ്പിക്ക ും
കര് യം
 ഉയ ർത്തി
 സ്റ്റ ോ
 അസിസ്റ്റ ന്റ്
ത മിഴ്
ന മാണ്
 വ ൻ
ുക ി
 പ്ര കാര
 നട ന്നു
 തിരഞ്ഞെടു ക്ക
 ട ാസ്
‍ന്ന ത്
 പ്രസിഡ ന്
 പട്ടിക യില്
 കോർ പ്പറ
ര ക്ക
ശ ുപത്രി
പ് ത
ല്ല െന്നും
‍ക്ക ത്തിലൂടെ
ന്ത രം
മുണ്ട ാക
 ക്യാ പ്റ്റ
 ഇ സ്
 രാജ ിവ
 മുരളീധ രന്
കൊല്ല ം
ല ുള്ള
 അ സ
 മൂ ന്നു
 വലിയ ൊരു
 വെളി പ്പെടുത്തി
െടു ക്കാന്
ീക രിക്കുന്ന
രായ ണ
ുണ്ട ാക
 പിട ിച്ചു
 അടിസ്ഥാന ത്തില്
ർഷ ിക
‍ വാ
 അ ഴ
ിക്ക ണമെന്നും
ദ് മി
 സർ ട്ടിഫ
 കോടതി യിൽ
19 8
 വിദേശ കാര്യ
 മന്ത്രാല യ
 മലയാ ളി
 അന്തി മ
 ന ും
 എ ഞ്ച
ണ്ടെ ങ്കിൽ
 പാർ ല
‍ക്കാരി നെ
 അയ ്യ
 ഘട്ട ത്തില്
ഭൂ മി
 ആ സ്ഥാന
 പ്ര സിദ്ധ
ഫ് രിക്ക
 ബാ ധിത
 സൗ ഹൃ
15 0
 എടു ത്ത്
 തിര ച്ച
 വിലയിരുത്ത ല്
 മോദ ിയുടെ
 പുറപ്പെടു വ
5 1
ന വ
മ ണ്ഡ
ദ് ദി
 ഒ ക്ടോ
നി ങ്ങളുടെ
 കൂ ട്ടി
ശ് വര
ന്റ േ
 ഏറ്റ ുമു
ഭാഗ ം
 ക്രി മിന
‌ കാര
വി ന്ദ
 തുട രുന്ന
 കേന്ദ്ര സര്
 ഗു ണം
 ആള ുകളെ
 അധ്യക്ഷ ൻ
 പരിക്ക േറ്റ
ക ീയ
 പ്ര ശ
ങ്ങള ായ
രിക്ക ുക
ഴ് സ്
 നില വിൽ
 അധികൃത ർ
ശ്ചി ത
രാ വിലെ
 മു റ
ാല യ
ത്തില ധികം
മു ൻ
ന്ധ ന
 അതി ല്
‍സ ില
‍പ്പ ടെ
 തുടങ്ങിയ ത്
 അടു ത്തിടെ
ശ ിവ
മാ ക്കുന്ന
 എ എ
 പാ സ
സമ ൂഹ
ക്കു മ്പോള്
 പിന്ന െ
 രക്ഷ ാ
ഭാവ ന
മ െയ്
 ഹ രി
ാവ ശ്യ
വ തി
ക് രി
 പ ത്രിക
 വ ച്ച
രി ക്കാ
ിക്ക ൽ
ിക്ക ണമെന്ന്
ാന ു
 ഫ ു
 ഡ ിവൈ
ടിയ ും
 തോ ന്നി
ങ്ങളെ ല്ലാം
ർശ ന
 വ്യാ പാ
‌കൂ ള്
 അഭ്യ ര്
 വൃ ത്ത
 ഗതാ ഗത
ക രം
ക്ക ഴിഞ്ഞ
ടി വി
ഡി പി
വേ ശ
 കയ റ്റ
7 7
 പ ള്ളി
 മ മ്മ
 എ ഡി
ക്കെ ട്ട
ക്രമ ണ
 അയ ച്ച
 സംശ യം
ൽ ക്ക
സ് വര്
 ഞ ങ്ങളുടെ
ംഗ് ല
 തീരുമാന ിച്ചു
 ശമ്പ ള
 രോ ഹി
യു എഇ
ദ്യ ം
ികള ുമായി
 ജന ങ്ങൾ
 നിർ ണ
 ആദ്യ ത്തെ
 പോലീ സ
ഡ ീഷ
ന ൂ
 അ ങ്ങ
ല്ല െങ്കില്
ുമ െല്ലാം
 ഒരു മിച്ച്
 സീറ്റ ുകൾ
 ഫോ ര്
 ബിജെപ ിയെ
ക രെ
ണ ിവ
ബ ൂ
 ആ ഹ്
ടു ത്ത്
ഷ് ഠ
 വ്യക്ത മായ
 നിർ മ്മ
 ഖ ാന്
 വിഷയ ത്തിൽ
 ന്യൂ സ്
‌സിന േഷന്
 വ്യവസ ായ
 കെജ് രിവാ
ഭ ോക്
 നി തീഷ്
‍ക്ക ുന്നത്
നാ വശ്യ
 നേതാ വും
 അഭി മാന
 തീരുമാന മ
 തീരുമാന ിച്ചത്
 പരാതി യില്
 ഫോ ൺ
ത യുടെ
 മ സ്
 എന്നിവ യാണ്
 എന്നിവ രുടെ
 നേരി ട്ട
 പഞ്ച ാബ്
 സംശ യി
എ റണാകുളം
ഒ രാ
ോ ഷ്
‍ ബന്ധ
റ്റ ുകള്
 എന്ന ാല്
 കൊ ട്ട
 പൊ ട്ടി
 ദൃശ്യ ങ്ങള്
 നിർദ്ദേശ ം
ഇക്കാ ര്യം
. ജെ
ബ ാല
 അ തൃപ്തി
 നട ന്
 തി ക
 വീ ഴ്ച
 നീ ണ്ട
മോ ദി
ഭാ വിക
 എതി ർ
റ ല്
ത്ത ുന്നത്
ത്ത ുവ
 ആ വര്
േണ്ട തില്ല
 ക് ലി
 അറിയി ച്ചിട്ടുണ്ട്
‍ണ മായും
 എത്ത ുന്നത്
 സാധിക്ക ില്ല
 ഇത്തര മൊരു
 സതീശ ന്
  /
ാ വാ
െ ണ്ണ
‍ വെ
വി ദ്യ
ഞ്ഞ ത്
 കഴ ിവ
 ഇറ ക്ക
വിട ം
 ചൂണ്ടിക്കാ ട്ട
 സുരേന്ദ്ര ൻ
 ഭാര വാഹ
 ബംഗ ാള
കൂടു തല്
മ ണി
ക്കി യിരുന്നു
 ജോ ർജ്
 ജാ തി
 ഇന്ന ത്തെ
e r
അ മ്മ
ച െന്ന
ന ഷ്ട
ീ ർ
 ശ ശി
 ഏ ഷ്യ
 ഓ ഹരി
ജി സ്
 വേ ദന
 രാജ്യ സഭ
 അന ില്
ുവി ന്
 ഫേസ്ബു ക്കില്
 ആഗ്രഹ ിക്കുന്ന
 കോടിയ േരി
ാനാവ ില്ല
‍പ്പറ േഷന്
ീ നം
െയ ർ
ക്കാ ള്
 കൊ ള്ള
 വാ ങ്ങിയ
ഫ് റ്റ്
‍ഗ്ര സും
 എന്നിവ ർ
രിയ ാന
 പിന്തു ട
 വര െയാണ്
വിന് ദ്
 തീവ്ര വാദ
 സൈന് യ
തൃശ ൂര്
ഹ ാര്
‌ ത
 ആ ന്റ്
 ഓ പ്പറ
സിന ോട്
മാറ്റ ം
 പുരോഗ തി
 ഇക്കാര്യ ത്തില്
ിയ് ക്ക്
 ന്യൂന പക്ഷ
9 9
 പ ള്ള
 ക രി
ട്ട ീവ്
ണ്ട ോ
വാ ള
 സി ദ്ദ
 യോഗ ി
 പ്രത്യേക ം
 ഉന്നയി ച്ച
കണ്ണ ൂർ
ആദ്യ ം
 സമാന മായ
 ആദി ത്യ
ഇ വരുടെ
ക ല്
വ ഴി
 ആ സൂ
രാ ൻ
 ശ ശ
നു മായി
മെ ഡിക്ക
 റെ യ്
 പൊതു ജന
 യുവാ വ്
ബ്ലി ക്
ശക്ത മായ
 ഗൂഢ ാലോചന
ഉ പ
ക ൈ
ന്ന ത
 എ മ്മ
വാ ല
യില േ
 പ്രതി കള്
വർ ത്തി
കാ രി
 ക്ഷേ മ
ന്യൂ ഡല്
 ശരീ ര
ള ില്
ൻ സ
ുക േഷ്
 കു വൈ
‍ത്ത കള്
 ഇട ം
 സ്ഥാന ത്തേക്ക്
 ബിജെപി യില്
ഷണ ൽ
 യാദ വ്
വ കാശ
് മ
ർ ന്നു
ടു ക്ക
താ ല്
 പേ രു
 ഫ ിലി
ുകയ െന്ന
 ചേ ർന്ന്
ക്കള ും
 ദു രി
 സമീപ ം
റണാ കുള
 സൈന് യം
ഡ ൗണ്
ാ ണിത്
 ച ട
ംഗ ം
പ്ര സ്
പു തു
ഇന്ത്യ ന്
 പ്രവേശ നം
 സ്ത്രീക ള്
 പാട ില്ല
 വൈക ീ
. ഇ
ര േഖ
േഷ ്യ
തെ രഞ്ഞെടു
മല പ്പുറം
 കാലാവ ധി
 തരം ഗ
യുള്ള ൂ
യ്ക്ക ുള്ള
അപ േക്ഷ
ട ന്
യ ത്ത്
 ച ുവ
 ബ ഹി
 ചെയ്യ ുകയും
‍ഗ്ര സിനെ
 സംഘ ടനാ
 ഉയ ർത്ത
 സഹോദ ര
 രാമ ചന്ദ്ര
  ണ
‌ നേഹ
 അ ള
 ച ാണ്
 ഇ യാൾ
യു ഡിഎഫ
ലോ ട്ട്
 നേതൃത്വ ത്തിൽ
 കൊല്ല പ്പെട്ട
 മാന േജ്
 ശ്രദ്ധ േയ
 ശിവ സേന
 ഡെ പ്യൂട്ടി
5 4
 അ ത്തര
 ആ ണെന്ന്
 പ്ര ക്ഷോഭ
 പരി സ
ടിയ ായി
 പ്രവർത്തി ക്കുന്ന
 സന് ദേശ
 വീത വും
5 3
 ആ രെ
 കുറ വ്
 ആരംഭ ിച്ചത്
 അടിസ്ഥാന ത്തിലാണ്
തുമ ുന്ന
േണ്ടതു ണ്ട്
റ്റ ോ
 വി മാനം
പ്ര ത്യ
 നില നിര്
 രോഗ ികളുടെ
 അട ച്ചി
 വായ് പ
 ക ത്ത്
 ഇ തിനെ
റ്റ ല്
 ഓ ർ
 കേരള ത്തിന്റെ
 അറിയി ച്ച
 കാണ ാ
പോ ലീസ്
 അന ൂ
മുണ്ട ായ
 ചൂണ്ടിക്കാ ണ
സ്ത്ര ീക
 നമ്പ ര്
 സച്ചി ന്
 അ ദ
 തുട രും
 വ്യക്ത മല്ല
 രാജ്യ ങ്ങള്
 താ ഴ്
 ഡയറ ക്ടര്
 ട്വി റ്റ
 ക ുന്ന
പി നെ
 കു ടി
ുകള ിലാണ്
ൈല ജ
 കരാ ര്
 സ്വാധ ീനം
 പരസ്യ മായി
a l
ന യ
 പ തിന
 ഹ ർജി
നേ ര
 വർ ഗ
 ഡോ ക്ടർ
തായ ാണ്
 കമ ല്
 ഭാര ത്
 യുഡിഎഫ ിന്
 വയസ്സ ുള്ള
‍ പ്പ്
ട്ട ര്
 ആ ദ
ശ് വര്
മാർ ക്ക്
 രണ്ട ാമത്തെ
തിര െയും
ദാ ബി
 പുരോഗ മ
 ക്രൈ ംബ
ത ക
പ ിയെ
യ േ
 ക ൗ
വർ ഷ
 വേ ദി
ക്രമ ം
 സ്ഥാപ നങ്ങള്
‌സ ൈ
 ശതമാന വും
‍ദ്ദേശ ം
‌ ട്ര
 ക ാനഡ
പ്പ ർ
സ്ഥ ല
 രാജ ീവ്
 കെ സി
 പദ്ധതി യുടെ
 ജീവന ക്കാര്
 കലാ പ
 ബജ റ്റ്
 ഇദ്ദേഹ ം
 വിഷ്ണ ു
4 00
‍ ന്നിരുന്നു
 എ നിക്ക
 ത ാൽ
 ഏ ഴ
 റ േ
 ഇട പാട
 എന്നിവ രും
 രാജ്യ ത്തിന്റെ
 തൊഴ ിൽ
 പൂ ജ
പിന്ന ാലെ
 ചു രു
- ാം
വ ൂര്
മാ രി
 ആ ഗോള
റ്റ ്യൂ
 കു ട
ത്തെ ത്തി
 നൽക ാൻ
മുണ്ട ായിരുന്നു
 തയ്യാറ ാക
 ക്രി സ്
  ക്കു
ക്ക ണമെന്ന്
 ക ളി
 സ ഹിതം
യാ ണെന്നും
തു റ
കു റ്റ
 തുട രു
 രൂപ ം
 തിരിച്ച ുവ
 വിഭാഗ ത്തില്
ബിജെ പിയുടെ
തിര െയുള്ള
രണ്ട ാം
 രോഗബാ ധിത
 ഗൗര വ
ക ീ
 ശ ബരിമല
 പി ന്നി
മ്മ ു
വേ ള
 സ്വദേശ ികളായ
 തേ ട
ഇതോടെ യാണ്
 കയ റ
ിക്കു മ്പോള്
ഏ പ്
റ ഷ്യ
ല ുകൾ
 വ സ
 വ രി
വാ രണ
 പരി ഷ്
 മറ്റ ും
പ്രതി ജ്ഞ
7 2
മ റി
വ ത്
തി രുന്ന
ല്ല െന്ന്
 സം ഗ
കള ില
 റി പ്പ
 എന്നിവ രെ
 കൂടിയ ായ
 നിയന്ത്രണ ങ്ങള്
കോൺഗ്ര സ്
ക രു
ന ത്തിന്റെ
മ ന്
മാ ക്കാന്
 ആ സ്തി
ാന ിയ
 സം വ
 സം ഭാവന
 പറ യു
 ഭ ാവ
ബു ദാബി
 റെ യിൽ
 അവർ ക്ക്
 നിറ ഞ്ഞ
 ഔദ്യോഗ ിക
. അ
ഥ ്
പ ണം
ഭ േദ
യ െന്നും
വ ിലുള്ള
ഹ ോ
 പ ന്
 മ രുന്ന
 ഭ ാവി
നു മായ
ളി ന്റെ
 പൊ തുമ
 നിര ന്തരം
 സൗ കര്യം
 പോക ാന്
 ആയി രിക്കും
ംബ ര
 ആരംഭ ിച്ചു
സ്വ ന്തം
ക്കാർ ക്ക്
ദ്രാ വാക്
. എല്
‍ ഘ
 ന ാം
മി നി
‍ഷ ന്
 കുറ യ
 മൂ ല്യ
 ധ ര്
 നമ്മ ൾ
 പിടി യില
സ ാമ
‍ പി
 അ പ്പ
 അ വി
ത്ത ൂര്
 ഇ തര
 പി താവ്
 കു ഞ്ഞി
 കേ ട്ട
കര മായി
 കയ റിയ
 എക് സ്
 മുഖ േന
6 6
റ്റ ിയ
 വി ഭ
വി റ്റി
 വേ ഗത
 രാജ്യ ങ്ങളില്
കൂ ടം
 ശ്രമ ിക്കുന്നത്
പിന്ന െ
ദു ബ
 ബാല ചന്ദ്ര
 അമേരിക്ക ന്
7 8
ഇ തിന
ബ ംഗ
‍ ഖ
‍ ഫോ
രു തെന്നും
 സ് പ
 ല ഹരി
നി ന്ന
 കാ സർ
 ശ്ര ീക
 ഉണ്ട ാക്ക
 യൂ റോ
 വീട്ട ിലേക്ക്
‍സി പ്പ
 മത്സരാ ർത്ഥ
ണിവ േഴ്
ഇ ത
ച ക
 വ ില്ല
മ്പ ന്
 കാ ർ
 ഓ ട്ടോ
രിയ ായ
 ജീ വന്
 സ്ഥിര ീകരിച്ച്
 പിടി ച്ച്
 പ ത്ത
 പ ശ്ചിമ
രി ക്കാം
 അ പ്രതീക്ഷിത
 ഇ രിക്ക
 വിജ ില
 ആശ ്ര
 വർ ധന
 ആയി രുന്ന
മല യാള
 വരു ത്തി
സൗ ദി
ക ുന്നത്
ഗ ാന്
 ദ ാ
മി നെ
ണി ന്റെ
 സെ പ്റ്റ
ത്തിന ാണ്
 തുടങ്ങിയ വ
 സേ വനം
 എതി രാ
 പോലീ സിന്
 മാതാ പി
പ ദ്ധതി
ഷ ണം
തി നെതിരെ
ങ്ങ ും
 വി ക
 ഉ ത്
താ ശ്വാസ
 സ്ഥ ി
 കേന്ദ്ര മന്ത്രി
ടും ബാ
 മണിക്ക ുട്ട
ാലി റ്റി
 കിലോമീ റ്റര്
മ ന്ത്
ല ിലെ
‍ ഫ്
 പ ിയുടെ
ടു വിൽ
 ഗ വർണ
 ഗോ വ
‍ഥ ി
അപ കട
മ ട
സ ിയുടെ
 ഇ ഡി
ാമ െന്ന്
 മോ ഡ
 സംഭവ ത്തിൽ
 പോരാ ട്ടം
എഫ് ഐ
 കസ്റ്റഡി യില
 മൊബൈ ല്
 ഇപ്പോഴ ത്തെ
 നന്ന ായി
a n
ജ ാതി
 പ കർ
 സ ന്ന
 മു ദ്രാവാക്
ട്ടി ന്
മ്പ ു
 പ്രതി കളെ
 റ ിയാ
 തുട ർന്ന
 നില നിൽ
 ലക്ഷ ണ
 മാറ്റ ിയ
‍പ്പ ിച്ച
 പ്രവർത്ത നങ്ങൾ
 പഠ നം
 തമ്മ ിൽ
ധാക ൃഷ്ണ
മഹാ രാഷ്ട്ര
 ഇറക്ക ുമതി
ഇ ന്
 പ ാവ
പ്പ ിച്ചിരുന്നു
ണ്ട ായ
താ ക്കൾ
‍ച്ച യായ
 പ്രധാന പ്പെട്ട
 കോൺഗ്ര സിന്
 അത് യാ
 സമ്മ ര്
 ഇള വ്
 ഗുജറാ ത്ത്
 തൃണമൂ ല്
, 

 പ ൈ
 സ ിവ
ാന ില്
 നട ന്നി
മ്പ തി
കള ിലെ
ബ് ല്
 ഇട യാ
 മൊ ത്തം
 താര തമ
 നേരിട േണ്ടി
 ലൈ ംഗിക
കുന്ന േ
 വിമർശ നം
ീ പ്
‍ പ്പെടുത്ത
തി രി
ായ ാണ്
 സു ധ
 കട ന്നു
 ബിജെപ ിയും
 ക്യാ മറ
 നേട്ട ങ്ങള്
  ?

ആ ശുപത്രി
ഇ ടുക്കി
പ ണ
വ ിയ
 ക ടു
 വി വേ
 ഡ ാറ്റ
ിച്ചി രുന്നില്ല
ബു ല
നില വിലെ
 തൊ ട്ട
 തട്ടി പ്പ്
 റിപ്പോർട്ട ുകൾ
 ബാന ര്
ഹ ാര
 വ ട
യി ട്ട
 ന െടു
ദ് വേഷ
സ്ഥ ത
ളി ത്
 നോ ക്കിയ
 തുറ ന്നു
 എന്നി ങ്ങനെയാണ്
 അപകട ം
 മുല്ല പ്പള്ളി
 വിനോ ദ
സ ൂര്യ
 അ ലി
 ഇ ന്നും
വി കസ
 ഗ ൗ
 അട ിച്ച
 ഭരണ കൂടം
 അല്ല െങ്കില്
ച ൊ
ർ ജ
 സ ഞ്ജ
െന്ന ു
 സംഘ പരി
 കാണ ാൻ
 സീറ്റ ുകളില്
 എത്തി യിരുന്നു
‍ഡ ില്
 പുന ഃ
ദ്വീ പ്
 ദുബ ായി
6 2
ര െയാണ്
ീ ൻ
‌ നാട്
 വ ടക്ക
 അ തിന
റ്റി ക്
 ഇന്ത്യ യിൽ
ധിക ാരി
 ബാല കൃഷ്ണ
മ്പോഴ ാണ്
  ങ്ങ
ആ കെ
ദ ാസ്
ഫ ര്
 മ ണ്ണ
 മ ില്യ
 മാ പ്പ്
യില േക്കുള്ള
തു മായ
മി റ്റ
 ഡ ൗണ്
ജി ന്റെ
 ചെയ്യ ണം
പാ ൽ
അത ാണ്
ഞ്ച ി
 ആവശ്യ മാണ്
 നടത്ത ാൻ
 ഏറ്റ ു
 ധ ാരാ
ിന ീയ
‍മാ ണ
 പരിഹ സ
 ബിസിന സ്
 സ്കൂ ള
തിനാല ാണ്
  ച്ച
അ തിനാല്
ീ ന്ദ്ര
ോ ടകം
ത്ത േയും
 ദ ശ
 പു സ്ത
ധിക ൃത
 ചി ന്ത
ാർ ഥ
കേരള ത്തിൽ
 മന സ
 ആക്രമ ിച്ച
 രേഖ പ്പെടുത്ത
 നെഗ റ്റീവ്
യ ത്
‍സ ര്
 നിർ ദേശം
 വർ ധ
 അംഗ ീകരിച്ച
 യോഗ ത്തിൽ
 ഭരണ ഘടന
 ഉണ്ടായി രുന്നത്
 പറയാ ൻ
സംഭവ ത്തില്
 അട്ടി മറ
 വക് താവ്
  യും
6 4
ഇ വരെ
ക രാ
ക് തിയ
 പ്ര യാ
 ഫ ണ്ട്
ദ്യ ോഗ
 ഡ ീസ
 സാധ്യത യുള്ള
 തല സ്ഥാന
 കഴിയ ാത്ത
 ജീവിത ത്തില്
 ജോസ ഫ
 തൊഴിലാള ികള്
 അംഗീക ാരം
സിപി എം
 വെല്ലുവി ളി
 തിരുവനന്തപു രത്ത്
  ൻ
ാ ഴ്ച്ച
 പ ഴ
 സ ജി
യി ല്ലാത്ത
 മ ുകളില്
 ബ ഹ
യാ ലും
 പൊ ളി
ക്കു മ്പോൾ
 ഉപ തിരഞ്ഞെടു
റോ ളം
ബാ ദ
 കഴിയ ുന്നത്
 പൂർ ണ്ണ
 നേര ത്തേ
 ഹൈക്ക മാന്
  ദേശ
  ന്നു
ഇ തിനായി
ഷ ന
ട് യൂ
ങ്ങള ൊന്നും
 കാണ ുന്നു
 നിന്ന െത്തിയ
കേരള ം
 പരിഹ രിക്ക
യുണ്ട ായി
 ആന ുകൂ
ോ ടൊപ്പം
യി ട്ട്
 ന ാമ
മാ റിയ
 ആ ൻഡ്
 വി പുല
 പൊ ള
 കുറ ിച്ചും
‍ണ വില
 ഉപയോഗ ിക്കുന്ന
 വന്നി ട്ടുണ്ട്
 സുര േഷ
 തിര ക്ക
എന്ത ായാലും
 പ്രണ യ
ച ോ
ട തിയെ
ർ ഥ
ട്ട ർ
 എ പ്പോഴും
ിക്ക െ
 പ്ര കോ
 എന്ന ാൽ
‍ക്ക ൊപ്പം
‍ത്ത ാ
 ഉണ്ട ാവും
 കാര്യ ത്തിൽ
 ലോക് സഭ
 കമ ന്റ
 പാർട്ട ിയുടെ
ിക്കൊ ണ്ടു
 ആന് റി
 ജയില ില്
 അവസാനി പ്പിക്ക
 ഒട്ട േറെ
 ആഹ് വ
ര ണ്ടു
 പ ടിഞ്ഞ
 വ രുന്നു
 ത നിക്ക
 സാ ംസ്
പ്ര ദ
 ഓ ൺ
റ്റി ംഗ്
 അംഗ ങ്ങള്
 ആള ാണ്
 വർഷ ത്തെ
 കമ്മീഷ ൻ
ത് രു
 എ ഐ
ത്തെ ക്കുറിച്ച്
 പാ സ്
‍ശ ം
 ദിവസ മാണ്
സു രക്ഷ
 ചോദ ിക്കുന്നു
ഘാ ത
ജോ ലി
അദ്ദേഹ ത്തിന്റെ
ത്തിനുള്ള ില്
 ജില്ലകള ിലും
 പിൻ വല
അ വർ
ത്ത ാൻ
റി ംഗ്
ാന് തി
 നേതാ വാണ്
ത്സ വ
 സംസ്ഥാന ം
ട്ടില്ല െന്നും
 സ്ഥിരീകരിച്ച ിട്ടുണ്ട്
 ചോദ്യ ത്തിന്
‍മാ രുടെ
കൃ തി
 അ ണി
ാല ക്കു
 കു ള
 തി ങ്കളാഴ്ച
റിയ ും
 അനു സ
 പ്രഖ ്യാ
 പഞ്ച ാബ
 സംരക്ഷ ണ
 ഇന്റ ര്
 തെറ്റി ദ്ധ
ത ാനും
റ ുകളും
ീ ണ
തി രുവനന്തപു
 ആ വർത്തി
 ഉ ണ്ടെന്ന്
ിച്ചി ട്ടുള്ളത്
 ഡി സ്
 മത്സ രിപ്പിക്ക
 പ്രച രണം
 പ്രതീക്ഷ ിക്കുന്നത്
ുകാര ും
 എൽ ഡിഎഫ്
. ബി
 ക ത്ത
 വ േഷ
പ് രായ
മാ ക്കിയത്
 ത ർക്ക
 ആ ക്
െയ ുടെ
 സ്വ ഭാവ
 കുറ ിച്ചുള്ള
 തെ ലങ്കാന
പ്പെട ാന്
 ഉപ കരണ
നിയ ായ
പ്രതി നി
 ജാമ ്യ
 അതീ വ
6 3
ച ാര
ട ത്തും
മ രണ
റ ങ്ങി
 ഉ രു
 ദ ീപ
 പാ റ
 കാര്യ ങ്ങളും
 ധ ോ
‍പ്പ ന
ാണ ുള്ളത്
 അപേക്ഷ ിക്കാം
‍എ മാര്
 അവത രിപ്പിക്ക
 മണിക്കൂറി നിടെ
ഭ ക്ഷ
വ ോട്ട
 അ ഗ
 എ ഫ
ുക ാരി
 ഇ ന്ധന
 ഉ ളള
പ്പോ ഴി
 നിര ക്ക
 തൃ ശ്ശ
 ചികിത്സ യില്
 കണക്ക ുകള്
 മുഖ ം
 പാകി സ്ത
ാ ക്കുന്ന
 വി ഡി
 ബ ില്ല
 നി ങ്ങളെ
വാ ർ
പി ണറായി
ഡി റ്റ്
 പു ഴ
മു ണ്ടെന്ന്
 സംഘ ർഷ
ക്രമ ണം
 ഉയ ര
 സാധ ിച്ചു
 യൂ ണിവേഴ്
 അടിസ്ഥാന ത്തിൽ
ട്രേ ാ
 ലോക ക
 സുപ്ര ധാന
 പരിശീല നം
 താലൂ ക്ക്
 അതോറി റ്റി
അ വസ
ഉ മ്മ
 സ ഖ
 വ െയ്
താ ം
ത്സ ാ
 കാര്യ മായ
ഭാഗ ്യ
 കമ്മ ്യൂണി
ട്ടിയ ാണ്
 തൃ ക്കാക്കര
 പഠ ി
 ഷാ ജി
പ ത്ര
മ ധ്യ
ക്ക ൽ
 ന ാഗ
 മ രുന്ന്
രിക്ക ുകയും
നു സരിച്ച്
 വ്യക്ത മായി
ന്റ േയും
 പ്രഖ്യാപ ിച്ചിട്ടുണ്ട്
 അടക്ക മുളള
 ക്ര ൂ
 ഗുരുതര മായ
ലിക ോ
അ തിന്റെ
ൻ റെ
‍ വര്
 ന ായക
 അ ശ്
ിയ ായിരുന്നു
 എ ല്ല
 ജ യ്
യു ളള
നി ന്നും
 നില നി
 പരിശോധ ിച്ച
‍ല ാല്
 വിശദ മായ
പ്രദേശ ില്
 സമ്മേള നം
 പോസി റ്റീ
‍എസ് എസ്
 റിയ ാസ്
ഇ വരില്
ന ാല
ക്ക യ
 ക ർശന
 പ്ര സ്ഥാന
 സം യുക്ത
 ഭ ർത്ത
ാര ോഗ്യ
ത്തില േ
 ബാ ക്കി
 കുറ വാണ്
സു ഖ
മില്ല ാതെ
 വിജയി ച്ചത്
 പോസി റ്റീവ്
ുകയാണ െങ്കില്
ടുംബാ ംഗ
നി ങ്ങള്
പി ടി
 വാ ടക
അത ായത്
റിയ ാം
 കെ കെ
ണിക്ക ുന്നു
കർ ഷ
 വോട്ട െടുപ്പ്
 ഓഫീ സർ
 കുറ്റ ം
 ഉറപ്പ ാണ്
ലക്ഷ ം
 രജി സ്റ്റർ
 സന് ദേശം
8 8
ഏ ക
ഡ ീ
‍ ഭ
‍ മി
സ് തീ
 സം രംഭ
19 7
 തയ്യാ റെ
 ഇര ട്ട
 റൂ മ
ധു നിക
 അമ രീ
 സാമ്പിള ുകളാണ്
സ്പ രം
പരിശോധ ന
  ക്കാ
ന ിയുടെ
ഹ ര്
 ബ ില്
സി നു
 കാ ഞ്ഞ
ാവ സ്ഥ
 നടത്ത ുന്നു
 നടത്ത ുകയും
 ഓഫീ സില്
 അല്ല െങ്കിൽ
 മണി പ്പ
മിക ച്ച
 അക്കാ ദ
ത നിക്ക്
റ ങ്ങ
 ആ ശ്വാസ
 രാ ധാകൃഷ്ണ
 രൂപ ീകരിച്ച
ടന ീ
 വർ ദ്ധ
 കോടതി യുടെ
 തീരുമാന ിച്ച
 ടി വി
 നിൽ ക്കുന്ന
 ഔദ്യ ോഗിക
 വേള യില്
മാ ക്കും
 മാ റും
തു മായി
ികള െയും
ദി നം
 ഭാഗ ം
 വേണ്ട ത്
 പ്രശ് നം
 ഭരണ കൂട
 പ്രത്യേക ത
സ്വ ം
 നഷ്ട പ്പെട്ട
‍ല മെന്റ
 ചന്ദ്ര ശേഖ
പ്പോഴി താ
ഇ തിനെ
ക്ക ണമെന്നും
ിയ ോട്
ക്കാ രും
ഡി ന്റെ
 ഹ ോട്ട്
 ലീ ഡ്
 ശതമാന മാണ്
ക്കുറ ിച്ചും
 ഇസ്രായേ ല്
 ഏപ് രില്
 സർവീ സ്
 മയ ക്കുമ
ജ ാ
ല ിക്കാ
‍ മ്മാണ
 അ ൽ
 കേ ൾ
ാര ീ
റ്റി വിറ്റി
 ഇട തുമുന്ന
 പങ്ക ാള
 മണ്ഡല ത്തിലെ
 വീട്ട ിലെ
‍സി പി
 കണ്ടെത്ത ാന്
 ചർച്ച കൾ
 നാട്ട ുകാര്
 സത്യ പ്രതിജ്ഞ
മൈ ക്ര
അ തുപോലെ
ഭ ുത
റ ം
 ക ച്ചവ
മാ ര
ലി ശ
 തുട ർച്ച
 ആവശ്യ പ്പെട്ടത്
പ്പിക്ക ുകയും
പ്പാ ട്
 പങ്കെടു ത്തി
 സഹോദ രി
 വൈകി ട്ട്
 എഞ്ച ിനീയ
ള ാ
യി ട്ടുള്ള
 അ ദ്
മാ സം
‍ക ോട്
 വേ ട്ട
 വന്ന ാല്
‍ട്ട ികള്
ിലാ ളി
ബന്ധ ന
 മാധ്യമ പ്രവര്
 ശിവ ശങ്ക
 ദി നം
ദിവ സ
 ഏറ്റുമു ട്ട
ച െയ്യ
 അ ജ
 ആ ദ്മി
 ഭ രിക്കുന്ന
ണമ െങ്കില്
 അതി ജീവിത
 ഉറ വിടം
 വാക് സിന്
‍ഡ ര്
 വ്യക്തി യാണ്
 തെറ്റ ായ
 മലയാ ളം
 വ്യാപക മായി
 പ്രൊ ഫ
മ ത്സ
സ ഖ്യ
‌ ക്കെതിരെ
ച്ച ും
 ഇ തോടെ
 ബ ല
 നി ങ്ങൾക്ക്
 പ്രതി യെ
 ഓ ളം
കേ സില്
 എസ് പി
 വർ ധി
 അനുവദ ിച്ച
‍ഗ ീയ
 പോലീ സിന്റെ
 നൽകി യിട്ടുണ്ട്
 ഹാജരാ ക
 പ്രമേ യം
 പീഡ ന
 നിർണ ായക
e s
ക് യാ
 പ റ്റി
 ആ വ
 ശ നിയാഴ്ച
ബി ന്
 കേരള ത്തിന്
 അതി ർത്തി
 മാധ്യമ ങ്ങളോട്
 വ്യാപ ാര
 പഞ്ചായ ത്തിലെ
 ഇല്ലാ തെ
പരാ തി
പ്രത്യ േക
ത യെ
 ക ൗൺ
 ആ റ
 ച ട്ട
 ര ഞ്
ുമ ൊക്കെ
ബി സിന
 ഞ ായറാഴ്ച
ബു ധ
‍സ് റ്റി
 വോട്ട ുകൾ
 കള ക്ടർ
പരി ധി
 ചെല വ്
 കണക്ക ുകൾ
ട്ടുണ്ട ോ
 ദുരി താശ്വാസ
 വിക സി
2 50
മ ിയുടെ
ള ുകള്
വ യ്
ി രിക്കുന്നത്
ട് രീ
പ്പ ാണ്
 ശ രി
 പേ ജ
ജി ന്
‍ത്ത ുന്ന
 എം പ
ലാ ത്സ
 കേസ െടുത്തി
 പല പ്പോഴും
 സ്റ്റ േ
യാള ാണ്
 എഴു തിയ
 സന്തോഷ ം
ക്കുറ ിച്ചുള്ള
. സു
8 9
ഇ ത്രയും
 മ ട്ട
 ഗ ി
 ഭ ീതി
 രാജ സ്ഥാന
 കേസ ുകളാണ്
 ശ്രമ ിച്ചു
 നേതൃത്വ ത്തിന്
 ഇറ ങ്ങിയ
 കയ ്യ
മാണ ോ
 നിരീക്ഷണ ത്തില്
 ഉദ്യോഗസ്ഥ ർ
ആ റ്
ല ര്
സ ുമായി
 അ റ്റ
മു ണ്ടെന്നും
 വീ ഴ്
 ഓ സ്
 രാജ േഷ്
 ജന കീയ
 അധ്യക്ഷ ത
ഇന്ത്യ യില്
 വാങ്ങ ുന്ന
 പരിഹ ാര
 അഭ്യ ൂഹ
 നിലപാട ാണ്
 യെ ല്ലോ
 പൗര ത്വ
 അശ ോക്
ക ത്ത്
 പ ങ്ക്
 വ ലു
യു ഡിഎഫ്
 ര ം
 ശ ൈ
പ്ര ശ്
 കുറ വ
 രാജ്യ സഭാ
 ഉപയോഗ ിച്ച
 അധികാര ത്തിലെ
 അഞ്ച ു
നിയമ സഭാ
ഡ ു
 പ ാണ്
വി ഭാഗ
ങ്ങള ു
 ശ ങ്ക
 മാ ത്യു
 ഡ ്യൂ
േണ്ട താണ്
ച്ചി ത്ര
മുണ്ട ായത്
 സ്വീകരിച്ച ത്
‍ക്കിട യില്
 സിവ ില്
വ രുന്ന
‍ ന്നി
‍ മ്മാ
 തി രുത്ത
‍ഷ മായി
 ദു ര്
യ്ക്ക ാണ്
ഹ് മ
 കരുത ുന്നു
 പ്ല സ്
ുകാ രുടെ
 വരിക യാണ്
 ഉത്തരവാദി ത്ത
അ റ
ച നം
ര ുക
‌ സഭ
 ഉണ്ട ാക്കിയ
റു ക്ക
ക്ഷേ ത്ര
മോ ദ
 ദിവസ ങ്ങളിൽ
സ്റ്റി ന്
 സർക്കാരി ന്
 പ്രായ മുള്ള
 അധ്യാപ ക
ി ട്ട്
േ ാണ്
ന് യാ
 പ ത്മ
ിക്ക ുള്ള
സി റ്റി
 ല ാല
സ്ഥ ിര
ാര ോ
‍ത്ത ാവ്
 ലഭ ിക്കുക
ാമ െന്നും
 വേ ണമെന്ന്
 ഏറ്റ െടുക്ക
‍കി യിരിക്കുന്നത്
 ആരോഗ്യ മന്ത്രി
യോടെ യാണ്
 കുറഞ്ഞ ത്
 ഹെ ല്
ജ സ്
ള ോ
യി രിക്കുന്ന
 ന ാണ്
 മ ൊഴ
 ല ും
 ഗ തി
ട്ടി ന്റെ
 പരി ഹാരം
ളി ന്
 ആശ ംസ
സാ ക്ഷ
‍ട്ടി ക്ക്
 ചുമ ത്തി
 രൂക്ഷ മായ
 ആം ബുല
ാ പാ
 അ ം
ില ുണ്ട്
ാന ുളള
ക്കാ ൾ
 ശ ൈലജ
 ഒ തു
ുകള ുമായി
ക്ര ൂട്ട്
 എം ബ
 കേന്ദ്ര സർക്കാർ
 ട ിക്കറ്റ
ുകയ ായിരുന്ന
 എന്നി ങ്ങനെ
ലൈ ൻ
 പോളി ംഗ്
 യഥ ാര്
 ഗെയി ം
സമാ ധാന
 ദക്ഷി ണ
7 9
ർ ട്ട
 പ ൈസ
 പ്ര ശാന്ത്
 സ് പെ
 രാജ േന്ദ്ര
 ജോ ണ്
ഗ് ന
 യാ ത്രാ
 എല്ലാ വര്
 പദ്ധതി കള്
 വഴ ിയ
 ചരി ത്രം
 കോളേജ ില്
ചെന്ന ൈ
1 20
അ ഭി
മ ഴ
ല േറ്റ
ൈ ൻ
‌ കാരം
 പ ുക
 വ രാന്
 ന ന്ദ
 ആ ത്
വി മാന
ങ്ങള ുണ്ട്
 നട ക്കുന്നു
 മന സ്
 ഗോ വിന്ദ
 ജീവന ക്കാര
 സ്വീക രിക്കുന്ന
 ജയി ച്ച
 നെഗ റ്റീ
ബ ല
വ ഴ
ാ ക്കാന്
ന്ന ൂർ
 അ ച്ച
 ഇ യാളെ
 ബ ില്യ
യാ ൻ
 കെ ാ
 വില ക്ക്
 ഐ ടി
 ശു ഭ
 വിമർശ ന
 സജീവ മായി
രൂ പ
നഗ ര
 വിശേഷ ി
 ക്രൈംബ ്രാഞ്ച്
വ സ്തു
േ ക്കാം
ക്ക ര്
 ക ായിക
ത്ത ീസ്
 ര വി
നി സിപ്പ
 വാ ഴ
ൻ് റ്
കാര ോഗ്യ
 ഇരു പ
ജൂ ണ്
 പൈല റ്റ്
. ജി
 പ യ്യ
 എ ട
 ശ രിക്കും
 ശ രാശ
 പി താ
മി ക്
രോ ടും
 ലഭ ിക്കുന്നത്
ാമ ത്
 ജന സംഖ്യ
പോ ലീ
 ചെയ്തി ട്ടില്ല
പ്പാ റ
സർ ക്കാരി
 തെരഞ്ഞെടു പ്പില്
പ്പറ മ്പ്
 വോ ട്ടു
ുകാ രെ
ൊക്ക െയാണ്
 കാലാവസ്ഥ ാ
 മാർ ച്ച്
 രാഷ്ട്ര പതി
6 1
അ ടു
ടെ ക്
 ബ ാക്കിയ
 ര േ
ക്കി ന്റെ
 വൈ കുന്നേ
 ധ രിച്ച
 കാരണ മായി
 ലാ ഭം
 സൈ ബര്
തിനിടെ യാണ്
 രോഗബാ ധ
വിദ്യാ ഭ്യാസ
ഫ ിയ
ഷ ീ
സ ാണ്
‌ ബോ
‍ ട്രോള്
 പ ാന
ത്ത ുക
പ്പ ൊ
പ്പ ുകള്
 ഫ ീ
 മി ശ്ര
പ്പുറ ത്ത്
സ്വ കാര്യ
 രൂക്ഷ മായി
 കോടിയ ുടെ
പ് രി
 അ ക്ഷ
 അ ഗ്
 ഉ ദ
ക്കാ രന്
‍ക്ക ുകയാണ്
മി ത
 വാ ക്ക്
 എന്നിവ യുടെ
 മാറ്റ ങ്ങള്
ബാ ധ
 വെള്ള ിയാഴ്ച
ക്കൊ ള്ള
ൂര പ്പ
 ദിലീ പിന്റെ
 പ്രമേ യ
 സൗഹൃ ദ
ക മ്പ
‌ ട
 എ കെ
ിക്ക ാര
രാ ഖ
ാന ന്തര
യാ ൽ
ുകൊ ണ്ട
 ചില ർ
 മേ ൽ
 ഒരാ ളെ
 വയസ ുള്ള
 ഹൃ ദയ
മണ്ഡ ല
6 00
ഒ റ്റ
ഠ ി
ബ ്രാ
ി നും
ൃ ഹ
ർ ത്ത്
 ആ ന്ധ
രിക്ക ു
േഷ നിൽ
 പേ രാ
രീ ഷ്
പ്പെട ുന്നുണ്ട്
 കട ന്ന്
മില്ല െന്നും
 എടുത്ത ു
 സീസ ണ
 മട ങ്ങി
 വ്യാപാ രി
 പ്രഖ്യാ പിച്ച്
- ന്
7 1
ഘ ടനാ
‌ പോ
 വ ടകര
 ച ര
ടി സ്ഥാന
ത്തില ി
ലി സ്റ്റ്
ുവ െ
 അതി വേ
 ജെ ഡിയ
 ഗോ പ
 പ്രദേശ ത്ത്
 ഉമ്മ ൻ
 കൊട്ട ാര
7 4
ക ക്ഷി
ച ു
ന ടി
 ച ാര്
ടി നെ
 കു ടിയേറ്റ
ുവ െന്നും
 സംസ്ഥാന ങ്ങള്
 വേ ഗം
 സ്റ്റ േറ്റ്
ിലൂടെ യാണ്
കാല ം
 വീട ുകളില്
 പശ്ചാത്തല ത്തിൽ
 ജയരാജ ന്
 മണിയ ോടെ
 അധി ക്ഷേപ
 ഒമ്പ ത്
ട്ട േ
 കേസ ുകളില്
ൈന ില്
 പിന്തുണ യ്ക്ക
 ലക്ഷ്യമി ടുന്നത്
മ ർ
‍ സ്റ്റ
 പ ന്ത
മാ സ്
 ആ ര
 ആ ര്യ
 ഉ പാ
ങ്ക ണ
 ദ മ്പതി
 പങ്ക ാളി
 ആരോപ ിക്കുന്നു
 ഇറ ാന്
 പര മ്പ
 ചെയ്യാ ം
 നിയമസഭ യില്
സ്ത്ര ക്രിയ
 മോഹ ൻ
 ഞെ ട്ടി
 ആഹ്വ ാനം
  ളി
8 5
ത വണ
‌ നി
യി ട്ടു
മാ ണി
ക്കാ രായ
 ചെയ്യ ുന്നുണ്ട്
 സീ താ
 കി രീ
കൊ ല
 മി ഥു
 അക ലം
 സുധാക രൻ
 നാല ു
 ബൈഡ ന്
ഫ ്ര
വ നി
ശ ാസ്ത്ര
 പ ികെ
 വ സ്ത്ര
ാന ായിരുന്നു
 മു ട
യ് ക്കിടെ
 തു ല്യ
ക്കെ തിരായ
 പെ ട്രോ
 ആശുപത്രി യിലേക്ക്
മില്ല െന്ന്
‍മാ രെ
ാണ െന്ന
 രേഖ കള്
 വികസ നം
 അടു ത്ത്
 നടക്ക ാനി
 പോസി റ്റിവിറ്റി
 തെളിയി ക്കുന്ന
ാരീ രിക
ജ നം
വ െങ്കിലും
ക്ക ോട്
ത്തി നിട
 ത യാ
 ഇ രി
 പ്ര ീ
വി ധി
 നി രാശ
സ്ഥ ാൻ
 ഒരു ക്ക
ഴിഞ്ഞ ു
ച്ചി രിക്കുകയാണ്
 ഉപ രോധ
 പെ ന്
എം കെ
 ഉയ രുന്ന
 ലോ കം
 മത്സ രിക്കുന്ന
 തോ തില്
 പ്രശ് നങ്ങൾ
ജീ വി
 പ്രദേശ ങ്ങളില്
 ഉറപ്പ ുവ
 മുന്നോ ടിയായി
 ചടങ്ങ ില്
 ദേവ സ്വം
ബ്ല് യു
ന ോട്ട
ന ീഷ
ഭ ാര്യ
യ ായിരുന്ന
‍ )
 സ ല്
 മ ുകേഷ്
 ഫ ൈന
 ജന പ്രതിനി
 നാ ടക
വേഷ ണം
ടക്ക മുള്ള
 മണ്ഡല ങ്ങളില്
 പുറത്ത േക്ക്
 സ്വാ ഗതം
സ്വ പ്
നാട്ട ിലെ
 ഇത്തര ത്തില്
ടേ ത്
 ബഹു മാന
 ഗണ േഷ്
ക മായ
 വ ഞ്ച
 ത ട്ടിയ
സി ം
ാല ിക്കു
ത്തില േറെ
 തി യേറ്റ
 പറഞ്ഞ ാല്
 ബാ ധ്യത
യെ ല്ലാം
വീ ട്ട
വീ ന്ദ്ര
 തിരിച്ച റി
 ദിവസ ങ്ങള്
 വിശ് വാസം
ലക്ഷ ണ
 ഡയറ ക്ടർ
 പരിപാടി യില്
 അര ങ്ങ
വ്യാ ഴ
പാർ ട്ടി
 ആശ്ര യി
  ൾ
ട ൻ
ട ിക്കുന്ന
ശ ബരിമല
ോ ടും
ണ് ഡ്
യി ട്ടും
പ്ര ച
 റ ാലി
 പിന്ന ിൽ
കർ ക്ക്
ാണ ു
മാണ െന്നാണ്
തോ ടൊപ്പം
 നൽകി യിരുന്നു
 മണിക്കൂ റിൽ
മുഖ്യമന്ത്രി യുടെ
 വിച ാ
 പ്രോ സിക്യൂ
 ചികിത്സയില ുള്ളത്
 അഭിഭാഷ ക
 റെക്കോ ര്
 ഏജൻ സ
അ ഖ
ഏ റെ
ന ന്
മ ല്ലാത്ത
 മ ുകള
 പോ ര്
ിച്ചി രിക്കുന്ന
 റി ക്രൂട്ട്
 വേ ണമെന്ന
 എന് തിനാണ്
 കുട്ട ിയെ
 ഉദ്യോഗ ാര്
 ഹോ ം
 വെച്ച ാണ്
 കഥ ാപാ
 പങ്കുവെ ച്ച
 ഇതിന കം
 മുന്നേറ്റ ം
 താലിബ ാന്
ഒ പ്പം
ബ ദ്ധ
റ ങ്ങിയ
വ ൽ
ക് രാ
യി ട്ടുണ്ടെന്നും
 മ ഞ്ഞ
 മ ജിസ്
 വി ദ്വേഷ
 പ്രതി ഫല
 ഓ ഫി
 പാ ട്ട
ംഗ് ലാ
 കുട്ട ികളുടെ
മാണ െന്ന
 ഒഴിവാ ക്കി
 ടീ ച്ച
 സന്ത ോഷ്
 പൊലീ സിന്
 പുറത്തുവ ന്ന
 റദ്ദ ാക്ക
മോഹ ന്
 സന്ന ദ്ധ
 തയ്യാറെ ടു
അ ത്തര
‍ നിന്ന്
പ് തം
ിക്ക േണ്ടത്
 ജ േ
യു ടേയും
 ഗ ള്
 സു ഖ
ടുത്ത ു
 പ്രച രി
ജീ വന
 വൈകീ ട്ട്
സാമ ൂഹ
അ തു
ഇ യാള്
റ ുമായി
ല ാമ
ണ് ഠ
 എ റണാകുള
യു പി
 ര ണ്ടും
താ മ
‍ക്ക ുന്നു
 പൊ ട്ട
 കുറ യ്ക്ക
 ഡി സിസി
 വന്ന തോടെ
പ്പെടുത്ത ാൻ
മുണ്ട ാക്ക
 കീഴ ില്
 ഇന്റ ർ
ട മ
ൻ സി
 ന യം
ത്ത ൊഴ
 എന്ന തും
 പി ക്ക്
‍ക്ക ത്ത
ിച്ചി ട്ടുള്ള
കേ സ്
 കോൺഗ്ര സിന്റെ
 രംഗ ത്തുവ
ചി ത
 കോള ജ
ഭ്യാ സം
ദാ ഹ
 സ്ത്രീക ൾ
 ഉത്ത ർ
 ഹൗ സ്
ദിവ സം
 ചെലവ ഴ
എ ങ്കിലും
ട ത്ത്
 പ ലിശ
ത്തി രി
 ഇ ന്ത്യാ
 ശ ത്രു
ഗ്ര ാം
 ഹ രിയാന
 ലക്ഷ ്മി
 പരിശ ോ
 ആശുപത്രി കളില്
‌ന ൗ
 പുറത്ത ാക്ക
 തട സ
 പ്രവർത്ത നം
 നടപ്പ ിലാ
 തോന്ന ിയ
സ ിലേക്ക്
ത് രെ
 സ ൊ
 അ ജിത്
 എ ഴ
 പ്ര േ
 പ്ര സാദ്
യില ുണ്ട്
 വാ ട്
കള ായ
 രാജ സ്ഥാന്
യോ ധ്യ
പ്പെട്ടി ട്ടുണ്ട്
ഇന്ത്യ യിലെ
ുമെന്ന ായിരുന്നു
നിര പ്പ്
‍ഥ ികള്
 ചെല ു
 നായ ര്
മെഡിക്ക ല്
ഞ ങ്ങള്
ധ രി
ഹ ം
മാ ല
വി ശ്വാസം
യാ വ
 രാ ം
കള ുമായി
 ദു രിത
 ഹൈ ദരാ
 പര സ്പരം
 വര െയും
 അഭിപ്രായ പ്പെട്ടു
 കൈമാ റിയ
 പേര െയാണ്
 കരാ ർ
 ഫോണ ില്
ത്തീസ് ഗ
അ ന
മ ണിക്ക
റ ൽ
സ മിതി
ക് യു
 പ ാര
 വ ന
പ്പ ൂ
ാന ന്ദ
വി ട്ട
 ജ ന്മ
 ശ ാ
മായി രുന്ന
 കു ടുംബാംഗ
 ധ ൈ
 നിർ ബന്ധ
 പോക ാൻ
േക്ക ുമെന്നാണ്
 വിലയി രുത്തി
 മഹാ മാരി
 ജൂ ൺ
 ട്രെയി ന
 കസ്റ്റഡി യില്
 അംബ ാനി
 ഇല ക്ട്
വ ട്ടം
ർ മ
 ആ വി
 എന്ന ുള്ള
 പി ള്ള
അത ുകൊണ്ടാണ്
 യ ുകെ
ദി ത്യ
വേ ദന
 രോഗ ികള്
 നാ ശ
 നാ രായണ
പ്പാ ടി
 സംസാ രിച്ചു
 രേഖ പ്പെടുത്തിയത്
 മനസ്സ ിലാ
 ആരോപണ ങ്ങള്
 അഭ്യ ർത്ഥ
 അര വിന്ദ്
 നിമിഷ ം
ആ വശ്യ
എ ത്ര
 അ ഹമ്മദ്
ത്ത ത്
 എ ത്തും
 ആ സ്
 ഉ ം
 നേ രിയ
മ്പ ില്
ുകള ുണ്ട്
യ് ക്കാന്
 ഒരു ക്കി
 സാധ ിച്ചില്ല
 തോ റ്റ
 കരു തിയ
േഴ് സ്
 നാല ാം
 ഊ ര്
പട്ട ിക
 റില ീസ്
7 3
അ പ്പോള്
ഏ ത്
ണ ൽ
മ ന്ത്രാല
േ റ
ക്ക ില്ല
 വ ം
യു മായിരുന്നു
 ഗ ുണ്ട
 പാ ക്ക
 ചോ ര്
വീ സ്
ക്ട റുടെ
 അതി ൽ
ുണ്ട ാവും
 ആശുപത്രി യിലെ
 ഉറ പ്പു
 വ്യക്തമാക്കി യിട്ടുണ്ട്
 ഖ ത്ത
 റിപ്പോർ ട്ടിൽ
 പ്രിയ പ്പെട്ട
 കൊണ്ടുവ ന്ന
എന്ത ാണ്
 പക്ഷ ം
 ചൊ വ്വാഴ്ച
 ഇള വ
 അക്ക ൗണ്ട്
 ആരാധ കര്
 ജ്യ ോതി
 ശരാശ രി
. in
ണ െന്ന
ള ിൽ
ശ ോ
ഹ ാന്
 എ ങ്ങനെയാണ്
ിക്ക ില്ല
 വി രമ
 ലഭ ിച്ചിരുന്നു
 ഭാഗ ്യം
 കൈ യ്
നിയ ർ
 നോ ര്
 എടുത്ത ത്
 സഹോദ രന്
 ചികിത്സയില ായിരുന്ന
 അർ ഹ
 വ്യത്യാ സ
ജ നുവരി
ത ുക
റ ൂ
ാ ധികാരി
 ക രുത്ത
 മ കള്
പ്പ ുമായി
സി സ്
 കു രു
‍ഗ്ര സിലെ
 അപ ക
 വേണ്ട ിയുള്ള
ഹാ റില്
 പ്രഖ്യാപ ിച്ചിരുന്നു
ജന ങ്ങള്
തിര െയാണ്
 നാട്ട ിലേക്ക്
 ബംഗ ാള്
സിപി എമ്മ
 കണക്കില െടുത്ത്
  ക്ക്
പ ത്രം
പ കരം
ര ജ്
 പ്രതി യായ
 ഓ ടി
 ഡ ൊ
 പറയ ാനുള്ള
 പാ ഠ
 ക് യൂ
തീ വ്ര
 തിരിച്ച െ
 ശക്ത മാണ്
 കുട്ട ികളെ
ളിവ ു
 ഫേസ്ബു ക്കിൽ
 പ്രായ ം
 രോഗമു ക്ത
 വേഗ ത്തില്
ഗണ ന
 പ്ലാ റ്റ്
 ആസൂ ത്ര
ഇ നിയും
ഉ ത്ത
ജ ൂലൈ
പ ൗര
ല ൂ
േ ൽ
 പ താക
 വ ിയ
 മ ധു
 അ ത്തരം
ത്ത ായി
 എ ട്ട
മായി ട്ടാണ്
താ ൻ
 തി ള
 നേതാ വിനെ
 കുറ ച്ച
 മത്സ രിക്കുന്നത്
 ഖ ത്തര്
 ചിത്ര ങ്ങൾ
 എടു ക്കുന്ന
പരി ച
പ്രദേശ ിലെ
 വിവാദ ം
 ലാ ഭ
 വാക്ക ുകള്
 കർഷ ക
 സ്പീക്ക ര്
 പ്രാധാന് യം
 ജഡ് ജി
  ള്
ര ന്റെ
ില ുള്ളത്
ിച്ച തിന്
 ല ൈന്
 മാ ലിന്
 പു ത്ത
‍ക ണം
 നാ ണ
 നീ ട്ട
 കഴിഞ്ഞ ാല്
ുണ്ട ാവ
ഇന്ത്യ യുടെ
 വാഹ നങ്ങള്
 മഴ യ്ക്ക്
 വിദേശ ത്ത്
 എത്ര യും
സ്ത്ര ീ
 കൈവ ശ
 തയ്യാറായി ല്ല
ഫെ ബ്രുവരി
ത ൂ
ാ ട
‍ ട്
 മ ൃഗ
 കേ ാ
 ഏ കോ
 പരി ഹാ
അത ുകൊണ്ടു
പ്പിക്ക ാനുള്ള
 ഇട വേള
 മൂ ന്നി
 മൂ ല്യം
 നീ ട്ടി
‍ത്ഥ ികളെ
 സ്റ്റ ാന്
വാസ ികള്
 നഷ്ട പരി
 ലി മിറ്റ
 ക്ഷണ ിച്ചു
 വ്യാഴ ാഴ്ച
യ േയും
ര ഹിത
റ ായ
തി രിക്ക
സി നെതിരെ
 കോ ഴിക്ക
ന്ദ ിര
 കാ ർഡ്
കള ിലേക്ക്
ഹി ന്ദു
 ഉപ ഭോക്
 മേഖല കളില്
മുണ്ട ാകും
യോ ര
 സമ്പ ർക്ക
 മണിക്ക ൂര്
 പ്രദേശ ്
 ഇതിന ോടകം
 യുദ്ധ ം
 വാഗ്ദ ാന
മുസ് ലിം
അടു ത്തിടെ
മ റ്റു
ള ളി
നാ ട്ടിൽ
‍ക്കാ ര
ലിയ ും
‍ഷ ങ്ങള്
 നീ ണ്ടു
 ട് രാന്
കര മാണ്
അതി ൽ
‍ല മെന്റ്
 ഷാ ജ
 പരീക്ഷ ണ
 ചു ഴ
ുകാര ന്
ഗു ജറാ
 ഉദ്ഘാ ടന
 ഡോള ര്
നേര ത്തേ
പ ഠ
വ ശ
വ രിൽ
ാ ന്റെ
‍ പ്പെടുന്ന
 ക ടക്ക
 മ തിയ
 ത ാന
 ബ സ
േഷ ന്റെ
ോഗ ്ര
‍ക ുക
ദി ന്റെ
 പുറ ത്തെ
ാക്ക ോ
 ഷ ം
തീ യ
 നേതൃത്വ ത്തിന്റെ
 ബു ക്ക്
 താര ങ്ങള്
 ജീവിത ത്തിൽ
ുകളില ായി
പിഎ ല്ല
 പരിശോ ധിച്ച്
എ എ
ഡ ്യൂ
ക്ക ുമെന്നാണ്
ത്തു റ
ധിക ാര
 മാത്ര മായിരുന്നു
യോഗ ്യത
 മീ റ്റര്
ജില്ല യിലെ
വുമ ില്ല
 സമ്മേള നത്തില്
 ബുധ നാഴ്ച
 കാപ്പ ന്
പ േക്ഷ
‌ ച
‍ ജു
‍ ഗ്ഗ
തി ങ്കളാഴ്ച
 പ്ര യോഗ
 ബ ്രാ
റി നും
റി നെതിരെ
 പി രിച്ച
 ഗ ്യ
 നിയ ോ
 കസ്റ്റ ംസ്
നിയമ സഭ
 സംഘടി പ്പിച്ച
ഡിപി ഐ
 രോഹി ത്
ഇ തെല്ലാം
ന െയാണ്
ൻ ഷൻ
‌ സിന്റെ
സ് പി
 പ്ര കാശ്
വി ഷന്
 ജ നം
 മു ട്ട
ുകള ായി
‍ഗ്ര സിന
 കുറ ഞ്ഞു
 അന ധികൃത
സ്ത വ
‍വ കലാശാല
 വിശദ മായി
കാല ത്ത്
 പിടികൂ ടി
 പ്രി ന്
 വായി ക്കാം
ടനീ ളം
ഇ റ
ര േഷ്
റ ഞ്ച്
റ േഷന്
 പ ണിയ
 അ സ്വ
പ്പ ുകൾ
 പ്ര യോ
ാന ിയുടെ
 കാ മ
 ഈ ട
 സംഭവ ിച്ചത്
 വന്ന പ്പോള്
ുണ്ട ാകും
 പോക ും
ഇന്ത്യ ൻ
 വ്യാപ ന
 പട്ടിക യിൽ
 കിട ക്കുന്ന
 ബിരു ദം
ബെ ംഗളൂരു
റ്റാണ് ട
  ള്ള
ത െന്നായിരുന്നു
ഷ റ
 ഇ തിലൂടെ
 ബ യോ
വാ ടി
ാം ശ
 വെ ട്ടി
 നൽക ുന്നത്
 ഭാഗ മാണ്
 പ്രധാന മായും
 വിഭാഗ ത്തിന്
തേ തര
 നിരീക്ഷണ ത്തിലാണ്
 ഭീഷ ണിയ
 തമിഴ് നാട്
 മുമ്പ ാണ്
 പ്രവച നം
 പിടികൂ ടിയത്
 സർവ് വേ
 ക്രിക്ക റ്റ്
 വസ തി
 കത്ത യ
ത െയാണ്
ക്ക േണ്ടി
 പ രു
 ക ഞ്ച
 ക ഷ്ട
ിക്ക ുമെന്നാണ്
ടു ത്തെ
 മു നിസിപ്പ
നാ ളെ
 ചെയ്യ ാനുള്ള
 മന്ത്രി യുടെ
 ആരോപ ിക്കുന്നത്
 വയ സ്സ്
 വര വ്
നുള്ള ില്
 ഡിസം ബര്
 വിജില ന്
. ആര്
a m
o r
വ രിക
സ ാര
 ഭ വന
 ദ ്ര
ഞ്ച ു
 ഇട തു
 ഉപ യോ
 പ്രത്യ ക്ഷ
‍വ ഹ
 സ്വാ ഭാവിക
 കൊല പ്പെടുത്തിയ
 ഒറ്റ പ്പെട്ട
 അധികാര ത്തില്
ാനായി ല്ല
 കണ്ടെത്തി യിരുന്നു
 നടക്ക ുന്നുണ്ട്
 എന്നിവിട ങ്ങളിൽ
 ആവശ്യപ്പെട്ടി ട്ടുണ്ട്
‍ത്തിയാ ക്കി
 മട ങ്ങിയ
 ബന്ധു ക്കള്
മൂന്ന ാം
 അഖില േഷ്
 ഏഷ്യ ാനെ
ഗ െ
ഡ ംബര
ഫ േസ്ബു
തി ര്
 മ ിക്ക
ിക്ക ണമെന്ന
 ബ ദ
 ജ മ്മു
ക്ഷ ൻ
ുള്ള ി
 ഒ ത്തു
 ഭ ക്ത
 സാ ഹി
ധ്യ ം
ിക്കുന്ന താണ്
 നിയമ ന
 ട ിക്ക
 പാല ം
 ശക്ത മാക്കി
 തേ ടിയ
കാര ന്
ലക്ഷ ്മി
 പരാജയ പ്പെട്ട
 ഉണ്ടാക ുന്ന
 ഇടപെട ല്
 തൃശ ൂർ
പേ ര്
വയ നാട്
ദ്വീ പ
സമ്പ ര്
 നിരീക്ഷണത്തില ുള്ളത്
ഇ സ്രായേ
ജ യം
ത യാണ്
ത ുകൊണ്ട്
 സ ത്യം
 ആ ൾ
 ആ ണെന്നും
 പ്ര േരി
റ്റ ിലെ
 വി റ്റ
നി രിക്കുന്ന
 ഫ യ
 സമ ഗ്ര
 സംസ്ഥാന ങ്ങളിൽ
പോ ക
 അതി ഥി
 ഗ്ര ാം
 വോട്ട ർ
 രാഹു ലിന്റെ
‍ഡ ുകള്
 പാർട്ടി യിൽ
 വഴ ിയാണ്
 ഇത്തവണ യും
 കല ക്ടര്
ത്തിനുള്ള ിൽ
 കുമാ റിന്റെ
 രാശിക്കാ ർക്ക്
വെള്ള ിയാഴ്ച
 ചല ച്ചിത്ര
ന ിലെ
ൾ പ്പെടെ
‍ മു
സ് യം
ട്ടി ട്ടുണ്ട്
 ഉണ്ട ാക്കി
 സെ ല്
 കാര്യ ത്തിലും
 നൽക ും
 പങ്ക ു
 പേർ ക്കും
 സാന്നിധ്യ ം
 പ്രാധാന് യ
 യാഥ ാര്
 അനൂ പ്
 പുസ്ത ക
  ക്ക
മ യ
റ സ്
ഴ ം
ോ ഹ
 ആ പ്പ്
 ഇ തി
സി ച്ച്
 ശ സ്ത്രക്രിയ
 ദ ൈ
 കുറ ച്ചു
 നടത്ത ുക
 കാണ ിച്ച
 ചി ഹ്
 കോൺഗ്ര സിൽ
ത്തിന ൊപ്പം
 പ്രച രിപ്പിക്ക
രുവ ായ
 ചൂണ്ടിക്കാ ണിക്കുന്നു
 അഖ ിൽ
ുകൂ ടി
 തള്ള ിക്ക
 പ്രസംഗ ം
 നു ണ
 സ്ഥി രം
ൻ ഡ
‌ ക്ര
 അ പ്
രാ ം
പി ൽ
 ഓ ണ
‍ക ോ
പാ റ
 മുന്ന ണ
 അറിയി ച്ചി
 അതി ക്രമ
 ശ്രമ ിച്ചത്
 ആരോ പിച്ച്
 ബോ ം
 സോ ണ
 ഉച്ച യ്ക്ക്
8 3
് ക്ക്
 സ ്ര
 ഇ ക്കുറി
 ശ ാരീരിക
ന്ത് രം
 എന്ന ൊക്കെ
 നട ൻ
 നീ ള
‍ച്ച യില്
 മാറ്റ ിയത്
ിക്കു മ്പോൾ
 പറയാ ം
 കീഴ ിലുള്ള
 നയി ക്കുന്ന
 സെന്റ റ
 സ്വയം ഭരണ
 വിപണി യില്
 ചൗ ധരി
 മാനേജ ര്
ഡ ിയുടെ
ന ര്
തി രേ
 സ ായി
പ്പ ിലെ
രിക്ക ുകയായിരുന്നു
വാ സ്
 സു നില്
ിക്കുന്ന വര്
 നില യിലാണ്
 സംഘ മാണ്
 നടത്ത ുന്നുണ്ട്
‍ച്ച െ
 അത് ഭുത
 മീ റ്റർ
 സർക്കാരി നെ
 കൈമാ റി
ഗു രു
 ഫ്ര ണ്ട്
 കടന്ന ുപോ
താക്കള ുടെ
 വർഗ ീയ
ഗ ാ
പ രീക്ഷ
ബ ല്
ൃ തി
േ ദം
 അ സുഖ
 ത ാപ
വി വര
ുമ ല്ല
‍ക്ക ൊ
 വീ ണാ
 ഇന്ത്യ യെ
 പെ രി
 പാല ാ
 ആരംഭ ിക്കും
 സംസാ രിക്കുന്ന
 കമ ന്റ്
 പ്രവേശ ന
 ഗാന്ധ ിയെ
 തെളിവ ുകള്
 നേട ാന്
 വാക്ക ുകൾ
‍വ് വേ
 ഗവ ണ്
 താക്ക റെ
 ക്രിസ് ത്യ
ഉമ്മ ന്
8 4
ഒ രിക്ക
റ ീന
വ ട്ട
ങ്ങ ര
 ആ റു
 ര വീന്ദ്ര
വാ രം
 നട ക്കുക
താ ണോ
ണി ന്
 കുറ ിച്ച
 കുറ ിച്ചത്
 സംഘ ത്തെ
 മോ ഷ്ട
 ശേഷ മുള്ള
യ്ക്ക ല്
 നമ്പ ർ
 അഖ ില്
 ഒഴിവ ്
ാവുന്ന താണ്
 ജല നിരപ്പ്
മറ്റ ൊരു
 പ്രൊ ഫ
 ഗം ഭ
7 6
ഘ ു
 ക ക്ഷി
യി രുന്നില്ല
 ന ൽ
 ച ങ്ങ
 പോ ള്
 ഹ ു
 നേതാ വായ
പ്പെട ുകയായിരുന്നു
 സർ വ
 കാര്യ ങ്ങളാണ്
.. ..
 തോ ൽ
 സൗ ത്ത്
 ആക്രമ ിക്കപ്പെട്ട
 നഷ്ട ം
ബിജെ പ
വിഡി ന്റെ
 ധാരാ ളം
ട ാന്
േ ശ്
 ന ൈ
 അ ജയ്
യാ ക്കി
 ഭ ീ
 വീ ടിന്
 ഓ ഗസ്റ്റ്
റ്റി നെ
 കെ ട്ട
 നേതാ വുമായ
 കാര്യ വും
യോഗ ്യ
 പ്രതിക രിച്ച്
 സ്റ്റ േഷന്
 സിനിമ യുടെ
 തെരഞ്ഞെടു പ്പിൽ
ജോ സ്
 മുരളീധ രൻ
- ൽ
ർ ശി
 മ ന്
ിക്ക ോ
 ആ കര്
 പ്ര മോ
വി ശ
ങ്ക ോ
ിലെ ത്തിയ
 ലഭ ിച്ചിട്ടുണ്ട്
 സീ നിയര്
മേ ല്
ംഗ് ലീ
ക്ഷേ മ
 പങ്കെടു ക്കുന്ന
‍വ ലിക്ക
ൊന്ന ുമില്ല
 ശബ് ദം
 ബൂ ത്ത
 ഉദ്ധ രിച്ച്
 കാട്ട ാന
 എഎ പി
ഞ ായറാഴ്ച
സ ബ്
‍ സിന്റെ
‍ ഐഎ
രാ ക
ാന ാ
 ഗ ര്
 അവ ലോക
 റ വന്
 ജില്ല യിലും
 പല തും
 മേ യര്
 കുട്ട ിയുടെ
 അപേക്ഷ ിച്ച്
 പുറത്തിറ ക്കിയ
 അന്ത രീക്ഷ
 യഥ ാർത്ഥ
പ്രവർത്ത ക
ബോധ ന
 അറസ്റ്റില ായ
രക്ക ണക്കിന്
ത്സാ ഹി
 വം ശ
 അ രി
ല്ല ൂര്
 സു ന്ദ
റിയ ുടെ
 ലോ കാരോഗ്യ
പെ ട്ട
 ബോ ർഡ്
‍മാ രും
 ഒന്ന ര
 മീഡിയ യിൽ
 പ്രവേശി പ്പിച്ചു
 സതീശ ൻ
‍ബ ല
 കുഞ്ഞി നെ
ഗാന് ധി
 മയക്കുമ രുന്ന്
. ഒ
േ ഡ്
ന് തിര
റ്റ ുകൾ
 വി ന്യ
ണ്ട ായി
ാല ം
 ഹ ൂ
 കാ ണിച്ച്
പ്ര കാര
പ്പിക്ക ുക
സാ ധ്യത
19 6
ായിരുന്ന ില്ല
 തൊഴ ിലാളി
 ടെ ലി
 ബെ ംഗളൂരു
‍ദേശ ങ്ങള്
രാമ യ്യ
ങ്ങാ ടി
 കമ്പന ികള്
‍കുട്ട ിയെ
 നയ തന്ത്ര
‌ട്രേ ലിയ
 ഇടതുമുന്ന ണി
ക ോട്
ന ൈ
ക്ക ണമെന്ന
രി ഫ്
ക്കാ വുന്ന
 ഒ ര
ഡി സം
പ്പോ ര്
 ഫ ൈ
ലി ന
 ഡ യ
 ചെയ്യ േണ്ട
 രാജ ു
ുവ െന്ന്
ബി ള്
 വ്യക്ത മാണ്
എസ് എസ്
 അപ ല
 സൂ പ്ര
 വോട്ട െണ്ണ
 രേഖ പ്പെടുത്തിയ
 സിനിമ യില്
ധിപ ത്യം
 ജീവ ൻ
 മനോ രമ
 ഗവർണ ർ
 ഉറപ്പുവ രുത്ത
അ ങ്ങനെയ
ഇ ങ്ങനെ
പ ള്ളി
ഭ രണം
മ ര
 മ ണ്ണി
 പറ യും
 ദ ളിത്
‍ത്ത ും
 നില വിലുള്ള
 കി ഷോ
 നേതൃത്വ ത്തെ
 ദിവസ മായി
കേരള ത്തിന്റെ
 ശ്രദ്ധ യില്
 അവസാന ം
 വന്നി രിക്കുന്നത്
ശം സ
 ദൃശ്യ ങ്ങൾ
 സീസ ണ്
 കൊലപാത കം
 രാശിക്കാ രുടെ
 കൊണ്ടി രിക്കുകയാണ്
 ഓക് സി
 ആരെ ങ്കിലും
 മുദ്രാവാക് യം
9 5
എ ന്ത്
ദ ുള്ള
ല ാൽ
ഷ ്യാ
 അ യാൾ
 ത റ
 ഒ ടുവില്
 മാ ധ
െടു ക്കാൻ
 സി ം
 സി ദ്ദി
കു മ്പോള്
 ഓ ർമ്മ
ദി ച്ച്
‍ഷ ത്തില്
 സംഘ ത്തിന്
 രാജ്യ ങ്ങളും
മുള്ള വര്
 പൂ ഞ്ഞ
 ഫെ ഡ
 ഉയർ ന്നു
 അജ ണ്ട
 വൈകുന്നേ രം
റ ിലാണ്
ോ തി
 ക ം
 ക െയര്
 വ ണ്
രാ ഘ
 കൂ റു
നാ ഗ
 തുട ർ
 വെ ടിയ
എന്ന ിട്ടും
കോ ള
‍ഷ ി
 വരു മ്പോള്
 സന്ദ ീപ്
 സ്ഥല ങ്ങളില്
 ബെ ഞ്ച
 ചാന ല
 വേണുഗോ പാല്
 നടപ്പില ാക്ക
ഷേ ധിച്ച്
 സംഗ ീത
 ആനുകൂ ല്യ
ക ന
ജ ക
ഡ ും
ഡ ്യ
റ ില്ല
ഹ ര
 മ ുകളിൽ
മാ ലി
ില േറ്റ
 ആ രാണ്
മു ടി
നാ യുള്ള
റിയ ാ
 ഞ ാന
 അഭി സം
 ഭാഗ ങ്ങളില്
 സീറ്റ ിലും
 പല യിട
 മാസ ത്തെ
 വിട്ട ത്
 ഹെ ലികോ
നീ ഷ്
സഹ ായം
 പെൺ കുട്ടി
 കിലോമീ റ്റർ
 ശശ ീന്ദ്ര
യ ത്തില്
സ സ്
തി രുവ
യി ൻ
യി രിക്കുന്നു
മാ രു
 ആ ശ്വാസം
 ആ വേശ
 പ്ര വാസി
റി യില്
ില്ല െങ്കില്
യില േക്കും
സ്ഥാന ം
 ഓ റഞ്ച്
 ചെയ്യ ുകയായിരുന്നു
 കെ എം
പ്പി ള്
 ഉപ ദേശ
 ശേഷ വും
19 5
ട്ടിയ ത്
മ്പ് യൂ
 കൊല്ല പ്പെട്ടത്
 അയ ച്ചത്
 സംഘടന കള്
 കൊടു ത്തി
 ലോക ത്തെ
 ഹൈക്കോ ടതിയെ
‍ഹി യില്
 മക ൻ
നുള്ള ിൽ
 ഹോ സ്പി
 കുഞ്ഞ ാലിക്കു
ഭാര ത്
ww w
 ചെയർ മാൻ
റ്റ്യൂ ട്ട്
ംഗ്ലാ ദേശ
  ട്ടി
8 2
ഒ ടുവില്
ച ാ
ണ െങ്കില്
‌ തി
 മ ായ
ിയ െയും
 എ ങ്കിലും
ങ്ങ ല്
 ച ാർ
 ഇ താണ്
 ഇ റാ
റ്റ ിയുടെ
 വി ഹിതം
ിച്ച ാൽ
യു ക്ര
 രാ വില
േഷ ിന്റെ
 ഗ വേഷണ
 തു ര
ാഗ ്
ടുത്ത ത്
കാ സർ
സമ ര
ുപ ാര്
തീ ര്
 സർ വ്വ
 സീറ്റ ും
 ആരോപ ിച്ചിരുന്നു
 മറ്റ ൊരാ
 പ്രസിഡ ണ്ട്
 പേർ ക്കാണ്
 കുട്ട ികൾ
 സഖ്യ ത്തിന്
ഫി ക്
 ലോക് സഭാ
 ഉത്ത രം
 സുഹൃ ത്ത്
 ഫല പ്രദ
 നിക്ഷേപ ം
‍ഡിഎഫ ിന്
പ്രിയ ങ്ക
 പ്രതികരണ വുമായി
 മത്സരാ ര്
 മനസ്സില ാക്ക
 സുഹൃത്തു ക്കള
 റെയിൽ വേ
 അഭിസം ബോധന
ത ട
 വ ശ
യി ല്ലാതെ
 ന റുക്ക
ിക്ക ര
റ്റ ലി
െന്ന ുമാണ്
വാ രി
 ഓ ട
ളി ത
 ജന ത
 ഉപ മുഖ്യമന്ത്രി
‍സ ു
വെ ച്ച
 വീട്ട ിലെത്തി
പ്രതി ഷേധ
മ്പി ൽ
 താമ സം
ൊക്ക െയ
 പ്രവാസ ികള്
 ആല ുവ
‍ജെ ഡി
o n
പ ത്ത്
യ ുന്ന
ല ർ
ഹ െ
ൊ ല
ന് റി
 നി ഷ്
രിക്ക ുമെന്നും
 ബി ഷ
 സു നി
എന്ന െ
യിലെ ത്തിയ
 സംസ്ഥാന ങ്ങളിലെ
 സെ മി
 രൂപ ീകരിക്ക
 രാജ്യ ങ്ങളിൽ
നേ യാണ്
 സീറ്റ ുകളാണ്
 താ ങ്ക
 വിഷ മ
 സമ്പ ദ്
 തട ഞ്ഞ
 തുടങ്ങിയ വര്
 കുറ്റ കൃത്യ
 ശ്രീ ധ
 ചുമതല യുള്ള
 മനോ ജ്
 കല് യാ
 സൂചി പ്പിക്കുന്നത്
കൂടു തൽ
അന് വേഷണ
മ്പു ഴ
 സഞ്ജ യ്
ത്തൊഴ ിലാള
 വിന്യ സ
  ത്ത
അ വരെ
ഹ ാന
ച്ച േരി
 ഇ നിയ
 ബ ്യൂ
 ഒ മൈക്ര
 കോ ഴ
 കേന്ദ്ര ീകരിച്ച്
‍ശ ിച്ചു
 എൽ ഡിഎഫ
 സെന്റ ര്
 പ്രകാര മാണ്
ശ്വര് യ
 വേട്ട യാ
ജസ് വി
 കഥാപാ ത്ര
പൗര ത്വ
 ചുഴ ലിക്കാ
ണ ർ
സ മ്മേള
 പ ദ്ധ
ങ്ക ര
താ പ
 ഒരു മ
 ഫ ീസ്
 ചെയ്യ ുമ്പോള്
 വൈ കാതെ
 രംഗ ത്തിറ
ക്കോ ടതി
 എന് തു
യില്ല െന്ന്
 രീതി യിലുള്ള
 ഒന്ന ാണ്
 നിരീക്ഷ ണം
 എന്നി ങ്ങ
‌സി ജന്
 സഹായ ത്തോടെ
‍ത്തക രെ
 ചു റ്റ
 സൈ ബർ
ന്യൂ ഡൽഹി
 ഗെ ഹ്
 കൂടുതല ായി
 എതിരാ ള
ഭ യ
ന് താ
ിക്ക ൊപ്പം
 ഉ റ്റു
 ഉ ണ്ണി
 മു ണ്ട
വാ ഹിത
 പി ജെ
ികള ിലും
 തുട രുന്നു
വർ ക്കും
‍ക്കാ രും
 നീ ങ്ങ
കൂ ല
 മാധ്യമ ങ്ങൾ
ുകളുടെ യും
 ആഗ്രഹ ം
 പങ്കുവ ച്ച
വ്യ ക്തി
മുസ് ലീം
 കശ്മീ രി
ക്കിട യിൽ
 വെറു തെ
9 1
അ ന്ന
ല ുമായി
വ ച്ച
ശ ബ്
ൗ ണ
ട്ട ായിരുന്നു
 ആ ഗസ്റ്റ്
യു വാ
തു മാണ്
െടു ക്കും
 റി സോ
 സെ ന്റ്
പക്ഷ ം
 മുഖ്യമന്ത്രി യും
 മാത്ര മായി
‍ട്ട ിയെ
 കുടുംബ ത്തിന്
സംഭവ ത്തിൽ
 പരിച യം
 ഹൃ ദ
 ഒന്നി ന്
 എന്നിങ്ങ നേയാണ്
  ത്ര
മ ശ്ശേരി
സ ത്യ
ഹ ാർ
‍ നാഥ്
ക് സി
 പ ന
 പ വാ
 അ നാവശ്യ
പ്പ ന്
വി നോ
 ജ യം
 പി രി
ീക രിക്കാന്
ാക ാര
 സംസ്ഥാന ത്തിന്
 സെ ല്ല
 മത്സ രിക്കാന്
ൈന ായി
 മി ഷന്
 തിരഞ്ഞെടുപ്പ ിലും
 കോള നി
 ക്ഷ മ
ക്കൊ ണ്ടി
തുമ ു
സംഭവ ം
ാസ മ്മേള
 പ്രവേശി പ്പിച്ചത്
കുമാ രി
 കൊണ്ടുപോ ക
 മൊബൈ ൽ
 മോശ മായി
 ക്യാപ്റ്റ ന്
ാവശ്യ പ്പെട്ട്
ജ ക്ട്
ത ൊന്നും
യ ൊക്കെ
 വ ്
 വ ള്ള
 വ ാര്യ
ങ്ങ ം
രിക്ക ുമെന്ന്
നെ റ്റ്
 ഫ ണ്ട
 റ ൈ
പാ കി
 നാ ഷണല്
 പിന്ന ില
 ഏറ്റ െടുത്ത
 പ്രധാനമന്ത്രി യുടെ
വന് റി
 രീതി യിലാണ്
ഇതി നു
 സംഘടന യുടെ
 തര ൂര്
യുണ്ട ായ
 അല ര്
 ബൈ ജു
 പറ്റ ിയ
 ശു ക്ര
 സമാ ജ്
 തരം ഗം
 ഉത്തരവാദി ത്തം
‍ട്ടിഫ ിക്കറ്റ്
 കോർപ്പറ േഷൻ
ദുബ ായ്
സ ച്ചി
‌ കാരിക
 ക രിയ
 മ ംഗ
ില േക്കും
രു പ
വി ശേഷ
ലി ച്ച്
ികള ായി
റ്റി നും
േണ്ട ിവ
 വെ ച്ചു
 ഗ്ര ാ
 ബാധ ക
 എന്ത ുകൊണ്ട്
 പോലീ സിനെ
 ഇല്ല െന്ന്
 യുവ തിയെ
‍ത്തക ന്
 വാങ്ങ ാന്
 ഒറ്റ ക്കെട്ട
 അപകട ത്തില്
 നിയന്ത്രണ ങ്ങൾ
 ഗാന്ധ ിയും
 കോളേജ ിൽ
 പേരി ലാണ്
എല്ലാവ രും
അവസ ാന
ദാഹ രണ
 ആവി ഷ്
a r
ശ നിയാഴ്ച
ണ് ഡി
 ക റ
 ത ങ്ങൾ
 ത ളി
 വി ൽ
ായി ര
ിച്ച തായി
 മു ള
മി ന്ന
സമ ീപ
ബി സി
ാക ുന്ന
ണാ ഫ്രിക്ക
 വിദ്യാ ഭ്യാസം
 വിശ് വാ
 വിവര ങ്ങളും
 സ്വീകരിച്ച ു
 അനുകൂല മായ
 പെരു മാറ
 പുരു ഷൻ
 ഡ്രൈ വര്
 ശരിയ ായ
ഏപ് രില്
' -
8 1
ഖ ി
ഗ ര്
ീ ത്
പ്പ ണ
ിക്ക ൂ
ിക്ക രുത്
 ഇ ങ്ങനെയ
 പ്ര ദ
 പ്ര ദര്
ില്ല േ
 നട ന്നിരുന്നു
 തി യതി
 സി സി
മു ഖ്യ
 സ്വദേശ ികള്
 ഷ െയ്
ഷ്യ ന്
കൊ ണ്ട്
 വള ർച്ച
‍ഡ ോ
 തുറ മുഖ
 വിജയി ച്ചു
 വിശദ ാംശ
 മണിക്കൂ റില്
 പുന രാ
 തെളിവ ്
 വാർത്ത ാ
 സഞ്ച രിച്ച
 പട ര്
‍ട്ടിഫ ിക്കറ്റ
എ ട്ട്
‍ /
‍ ),
 പ മ്പ
 വ രുന്നുണ്ട്
 അ ബുദാബി
 പ്ര ാര്
രാ കാശ
വി ജയ്
 കോ ഴ്
 സ്ഥ ാ
‍ക ുകയും
 കേന്ദ്ര ീകരിച്ച
 കാര്യ ങ്ങളില്
 ശേഷ ി
 സീറ്റ ുകളിൽ
 അട ച്ച
 പരിശോധന യില്
 പ്രതീക്ഷ ിക്കുന്നു
 ലൈ ഫ്
 ഘട്ട ത്തിൽ
 വന് ദേ
 ആത്മ വിശ്വാസം
 ദില്ലി യില്
 വാർത്ത കൾ
ത്തുട ര്
 നിയോ ജക
  യുടെ
8 6
മ രിച്ച
യ റ്റ
‌ നാ
 സ ദ
 സ ന്നി
 മ ല്ല
 ബ ൗ
 ബ ലാത്സ
യു ദ്ധ
ദേ വ
 റ ാല
 റി നോ
 തെ റ്റ്
 മോ ഷണം
 ഡി ംപ
 സമ്പ ന്ന
 എല്ലാവ ർക്കും
 വീട ുകളിലും
 മത്സര ത്തില്
 ദുര ൂഹ
 നവ ംബര്
 ചെറു പ്പ
ിയു മായ
നിക ുതി
 ജു ഡീ
 ആക്ഷേപ ം
 അഫ്ഗ ാനി
 സർട്ടിഫ ിക്കറ്റ
വിദ്യ ാര്
മിനി സ്
 പ്രയാ സ
  ന്ന്
‌ പോര്
തി രിച്ച
രി റ്റി
പ്പ ന
പ്പ ൂര്
ിക്ക ട
യാ ദ
ിച്ചി ട്ടും
ക്കു ഴ
 സംഘ വും
 ആശുപത്രി കളിലും
 രംഗ ത്തു
 തല ശ്ശേരി
 ചോദ്യ ങ്ങള്
 ഭരണ ഘടനാ
 മരണ മട
 ലോക ത്ത്
 വീട ുകള്
 കിട ില
 ജീവനക്കാ രെ
 ആലോ ചന
 ഗ്രാമപഞ്ചായ ത്ത്
 പൊട്ടി ത്തെ
ഒ ക്ടോ
ച െയ്
വ ധ
വ ൃ
വ ്യൂ
 മ ോട്ടോ
 എ ലി
 ആ ധ
 പ്ര കൃതി
െന്ന ി
നി ച്ച്
പി ത
 ബി ന്
 നേതാ വിന്റെ
ബ് ബ
 നാ ദി
ത്തിലെ ത്തി
 കാല ഘട്ട
ട്ടില്ല െന്ന്
 വിഭാഗ ത്തിൽ
 തട യാന്
 ആരംഭ ിച്ചിട്ടുണ്ട്
 ചികിത്സ ാ
 പുതു പ്പള്ളി
 മധ്യ പ്രദേശ്
 പ്രോ സിക്യൂ
 വൈറല ായി
 ബേ ബി
ഇക്കാര്യ ത്തില്
 പ്രശ സ്ത
 ഡ്യൂ ട്ടി
 കൊട്ടാര ക്കര
  ട്ട
ഇ ദ്ദേഹ
ണ ിയെ
രാ യിരുന്നു
രാ വസ്ഥ
 മാ ർക്ക
 നേ ടു
 ഫ സ്റ്റ്
നാ ണെന്ന്
‍ക ുന്നു
ിക്കുന്ന തും
 ക് രെ
 കേരള ത്തിലേക്ക്
 മോ ര്
 പരിശോധ ിച്ചത്
പ്പെടുത്ത ുന്നു
 പിട ിക്കാന്
 യാത്ര ക്കാര്
 രണ്ട ാമ
 മണിക്ക ൂർ
 തേ ടിയെ
സോ ഷ്യല്
 പാർട്ടി ക്ക്
ഇതി നിട
 ആഗ്രഹ ിക്കുന്നു
 സ്വീക രിക്കും
 പെരു മാറ്റ
 ബംഗ ാൾ
 ഇടതുപക്ഷ ം
 അന്ന ത്തെ
ബ്രി ട്ട
 കയറ്റ ുമതി
 ചൂണ്ടിക്കാട്ട ുന്നു
 പരിസ ര
മ ില്
ീ ൽ
 വ രണ
 വ ിക്കറ്റ്
പ്പ ള്ള
പ്പ ിച്ചിട്ടുണ്ട്
റ്റ ൽ
െയ ്യാ
യു എസ്
വാ റ്റു
ാന് തര
 പ്രതി ഫലം
 ബി ജു
‍ത്ത ാവി
 പോക ുന്നു
 പതി വ്
 വോട്ടി ന്റെ
 വെബ് സൈ
 ഏപ് രിൽ
 കാലയള വില്
 റോബി ന്
അ തിന
ജ നാധിപത്യ
ഫ ു
മ ്ര
ക് ല
ക്ക ർ
 വ സ്
 ആ യു
രാ ഗ്
 വി കാരം
 ബ ന്ധി
 ദ ൂര
കള െയും
 ഡ േ
 തീ രത്ത്
 കാര്യ മില്ല
 പെ ാല
‍ത്ഥ ിയായി
ദ്ദ ീന്
ിന ോട്
 ബാധ ിച്ചു
 ഉട നെ
ങ്ങന െയുള്ള
‌സി ക്യൂ
രാമ ത്ത്
 ക്ലാ സ
 പക്ഷ െ
 ജില്ലകള ിലെ
ഥ് വി
‍സിപ്പ ല്
 കാഞ്ഞ ിര
 ഉറ്റു നോ
9 4
വ ഹ
 ക ട്ട
 വ ു
രു മ
 ഇ ബ്രാ
 പ്ര ളയ
 പ്ര ക്രിയ
ായി ല്
 സ് ഫോ
യില ോ
 ഏ ല്
വർ ണ്ണ
കാ സര്
ബി ന്റെ
 നിയമ ങ്ങള്
 തെ രുവ
 ഐ പി
‍ത്ഥ ിയെ
‍സ ികള്
 മാറ്റ ിവെ
ികളുടെ യും
‍ത്തക രും
 തര ത്തില്
 അക ല
 ഇത്തര ത്തിൽ
 ദിന ത്തില്
ൊപ്പ മാണ്
നടപ ടി
 താരതമ ്യം
തിരുവനന്തപു രത്ത്
9 2
യ ഥ
റ ിലേക്ക്
േ ാമ
‍ പ്പെടുത്തിയ
ക്ക േണ്ടത്
 ച ക്ര
 ബ ്രാഞ്ച്
 ഒ ഴു
 ല േഖ
 ബി ന്ദു
ദി നെ
പ്പിക്ക ാനും
പ്പി ട
ുകൊ ടു
 പ്രഖ്യാപ ന
 വള രെയ
 മേഖല കളിൽ
ണാ ള്
 പദ്ധതി കൾ
 ഫോ ർ
 വിജയ ന്റെ
യില്ല െന്നും
 തവണ യും
 അവകാശ ം
 യുവാ വിനെ
 കരുത ുന്ന
ബിജെപി ക്ക്
 മലയാള ികള്
ക്കാല ത്ത്
 പുറത്തിറ ങ്ങ
സ്വാ മി
 മദ്യ ം
 തിരിച്ചടിയ ാണ്
 വസ്തു ത
 പച്ച ക്ക
 കെജ്രിവാ ള്
 അത്യാ വശ്യ
 ജനപ്രതിനി ധ
 പിരിച്ച ുവി
 അപല പ
വാറ്റു പുഴ
  ന്റെ
a t
ഡ േ
ത ന്ന
യ ല്ല
റ ിലും
 മ ർദ്ദ
ില േക്കുള്ള
 നി ക
സി ംഗ്
രിക്ക ുകയാണെന്നും
താ ത്
 ദ യ
 ചെയ് താല്
 വാ ണി
 ഇട യില്
 കേസ ുമായി
 എന് താണെന്ന്
 ഓഫീ സിൽ
‍പ ര്യം
 പ്രത്യേക ിച്ച്
 ജി ഹാ
അതി നാൽ
 ശ്രീ നി
 സ്വന്ത മാക്കി
‍ജി നീയ
പൊ ലീസ്
 തയ്യാറ ാക്കിയ
തില ുള്ള
 ലഭ്യ മാക്ക
 ഉത്ത രാഖ
 വകുപ്പ ുകള്
ഇന്ന ത്തെ
 മറുപടിയ ുമായി
 സംവിധായക ന്
ഏ ഴ്
മ ൂല
‍ ദി
 ആ ഞ്ഞ
 ഇ രുന്ന
 ഇ വിട
 ജ േക്ക
ണ്ട ാ
ാന് റ്
 ദ ീര്
ഡി ന്
 പ്രതി കൾ
 വ്യക്ത ത
 നാ ട
 ഡി പ്ലോ
 ബന്ധ പ്പെട
 മുഖ്യമന്ത്രി യെ
ത്തിന കം
േക്ക ുമെന്ന
 ഘ ട്ടം
 വിദ്യാ ർഥ
സ്റ്റി ക്
കാല ിക
 നീക്ക ങ്ങള്
 പൊലീ സ
 കീഴ ിൽ
 സ്വർ ണ്ണ
 അഭിഭാഷ കന്
ാനാക ില്ല
 പരിപാട ികള്
 ശാസ്ത്ര ജ്ഞ
ബംഗ ാള
ആ ന
ഇ ര
യ ൊരു
 പ ര്യ
 വ ഷ
 ന ര
 ന ൗ
 മ ുകു
 ഇ തിൽ
 പ്ര ത്യാ
രാ ട്
 നി ഗമ
ുമ െതിരെ
യ് ക്കെതിരെ
 ഏ താനും
നു ണ്ട്
 റി സര്
 എം വി
 വിഭാഗ ത്തിന്റെ
 ഒരാ ഴ്ച
ഇതി ലൂടെ
ബന്ധി ത
 അബ് ദുള്ള
 പേരുടെ യും
 സ്കൂ ൾ
ഗി രി
 സാധ്യതയു ണ്ടെന്ന്
 രജിസ് ട്ര
ം പി
ദ നം
ഭ ോ
യ െങ്കിലും
സ ഞ്ച
ൊ ട്ട
 സ യ
ത്ത ായ
ിയ ം
 ആ ഴ
 വി ജ്ഞ
മ് പ്ര
 മു ത്ത
 സി സ്റ്റ
ക്ര മിച്ച്
േഖ ലാ
ച്ചി രുന്ന
 കേന്ദ്ര ങ്ങള്
 കേരള ത്തെ
 ഞ ാനും
 കൂടു ത
ഷി ംഗ്
 അന്വേഷണ ത്തിന്
 അവകാശ പ്പെടുന്നത്
 പശ്ചാത്തല ത്തിലാണ്
 പെരു മ്പ
‌പെ ന്
 സിപിഎമ്മ ിന്റെ
‍കുട്ട ിയുടെ
 മുഖ്യ മന്ത്
ഒന്ന ാം
 സംവ രണം
 അണി നിര
ബുധ നാഴ്ച
 നാശ നഷ്ട
 സർവ കലാശാല
, '
ഉ ത്തര്
പ ന്ന
 പ ര്
 ക വര്
 ആ രെയും
രു മെന്ന്
ടു പുഴ
ിക ൊ
റി ങ്
 ഗ ാര്
ഡി എസ്
യ് ക്കാ
മു ള
ന്ത ോ
 വീ ട്ടു
 ചെയ്യ പ്പെട്ട
 സെ ൽ
 തിരഞ്ഞെടു പ്പിനെ
 വേ ണമ
ലം ഘ
ഡിയ ൂരപ്പ
 പരാതി യിൽ
 രാഷ്ട്രീയ ത്തില്
 പങ്കെടു ക്കും
 കോള ജ്
ഭാ ഷണ
 പോലീ സും
 ലൈ സന്
ഞ്ഞി ട്ടുണ്ട്
 തയ്യാറ ാവ
 ശി ശു
 ആത്മ വിശ്വാസ
 തോന്ന ുന്നു
 കോളേജ ിലെ
 പ്രചാരണ ത്തിന്
 ചാന ല്
വിഡി നെ
 കുടു ങ്ങി
 രക്ഷാ പ്രവര്
ഏക ദേശം
അതുകൊണ്ടു തന്നെ
ആ ഗോള
ഠ ിന
ക്ക ുമെന്ന
 പ വാര്
 ന ായി
 അ ഷ്
ില െയും
 ഇ യാളുടെ
 ഒ ന്
നി ങ്ങൾ
എന്ന ിരുന്ന
 കെ ടി
ോട്ട െ
 ഷ ീ
കേ സിൽ
 ശ്രമ ങ്ങള്
 മീ റ്റ
മാക ുന്നത്
 ഇറ ക്കി
 കമ്പ നിയ
 സീസ ൺ
 ഉണ്ടായിരുന്ന ില്ല
ദിലീ പ്
 സൗജന്യ മായി
 ദശ ലക്ഷം
o v
ഇ പ്പോഴിതാ
ഉ ദ്യോഗ
എ ല്ലാം
ക മ
ച രി
ജ ിയുടെ
ട ീ
ട ികള്
പ മ
ല േഖ
ൃ ഥ്വി
 മ ഞ്ജു
ുന്ന താണ്
മാ രാണ്
 നട ന്ന്
 ഓ ടെ
 നേതാ വ
ുപ േ
 സെ ൻ
മേ റ്റ
 സർ വേ
 വില യില്
ുണ്ട ായത്
നോ ളജി
സു പ്ര
യായ ും
 പിന്തുണ യ്ക്കുന്ന
ഭാ വി
 അയ ച്ചു
 ശ്രീ ലങ്ക
‍ഷക രുടെ
 ക്രമ ീകരണ
 വ്യവസ ായി
 കച്ചവ ട
അ ല്ലാതെ
ഇ ക്കഴിഞ്ഞ
ക രി
ദ ക്ഷി
ല ോട്ട
വ ാര്യ
സ ന്ധ
ല് ല്
ട് രം
ത്ത േരി
 ആ രിഫ്
രാ ജി
 ഉ ണ്ടെന്നും
ങ്ങള ുള്ള
 ശ രിയാ
 ശ ുപാര്
 ഒ ടി
 എന്ന ോട്
വാ ങ്
 ഗ ാന
 ഭ ഗ
ണി ക്
 പറയ ുകയും
ബി ന
 ജന ങ്ങൾക്ക്
 ലക്ഷ ത്തോളം
 കി ര
 ട് രീ
 അധിക ാരി
 വകു പ്പിന്
 എത്തി ച്ചത്
രാജ സ്ഥാന
മാക ുന്നു
പ്രതി രോധ
 ഉൾ പ്പെടുത്തി
 സമ്മ ർദ്ദ
‌സ ൈസ്
 തവണ യാണ്
 ഉന്നയി ച്ചത്
 രംഗത്തെ ത്തിയത്
 പറ്റ ില്ല
 അടിയ ന്തിര
 കമ്പന ിയുടെ
 ട്രെയി ന്
 തയ്യാറാ ക്കി
 അഭിമുഖ ത്തില്
 റദ്ദ ാക്കി
 യൂണി റ്റ്
 മാനദണ്ഡ ങ്ങള്
 ജലീ ല്
 സസ് പെ
 പൂർണ മായും
 അക്കാദ മി
1 10
9 7
ഇ പ്പോഴ
ദ ിയ
ല ുകളും
‌ ,
‌ ലി
 വി ന
 വി കാ
 ഒ ട്ടും
ക്കി ംഗ്
ണി നെ
ടിയ ാണ്
 ചെയ്യ ണമെന്ന്
 നില വാര
 എന്നിവ യും
 സാധ ിച്ചിട്ടില്ല
 സീറ്റ ിൽ
 പാർ ട്ടിയ
 പദ്ധതി ക്ക്
 കൂട്ട ം
 കൂട്ട ായ്മ
 ബാധ ിക്കുന്ന
 ഹാ രി
 ആർ ക്കും
 ഉണ്ടായി ട്ടില്ല
 ശക്തി പ്പെടുത്ത
 അഞ്ച ാം
 സംരക്ഷ ണം
 തൊഴിലാള ികളെ
 ക്രൈ ം
പ്രാ ദേശിക
0 1
0 5
േ റ്റി
 സ ുമ
ച്ച ില്
 ജ ്വ
 സം ഖ്യ
ീക ൃത
ലി നും
ാക ുന്നത്
 സംസ്ഥാന ങ്ങളിലും
ികൾ ക്കും
 പ് പെ
 ആള ുകളുടെ
 പിന്തുണ യും
‍മാ ണം
 യൂ സ
ാണ െന്നാണ്
 ടെ സ്റ്റ
‍ഗ ണ
‌സി നും
 ലാ ബ
 അത ുകൊണ്ട്
 തട്ട ിക്കൊണ്ടു
 ഛ ത്തീസ്ഗ
 എംബ സി
 മുകള ിലുള്ള
എന്നിരുന്ന ാലും
8 7
ഇ രുവരും
ദ മായ
മ ൊന്നും
സ ൈന്
‌ ക്ക
‌ റ്റ്
തി രിക്കാന്
 ക ത്തില്
 വ ണ്ടി
യി റ
 മ തേതര
മാ ന്റ്
ിക്ക േണ്ടി
 മു ക്തി
യില ി
 ദ ോഷ
ഗ്ര ാ
ീക രിക്കുന്നത്
 ഏ രിയ
 കാ ർഷിക
നു സ
ികള ോട്
ാമ ം
 ഡി ഗ്രി
 ഉയ രുന്നത്
 അതി നു
 തിരിച്ച റിഞ്ഞ
 വോട്ട െടു
 ഒരാ ളുടെ
 അന്വേഷണ ത്തില്
 ഓരോ രുത്ത
 സ്ത്രീക ളും
 ഹെ ൽ
ഇതു മായി
 പ്രസ്താവന യില്
േക്കാ ൾ
 മുതല ാണ്
മനു ഷ്യ
 പന് തില്
ചൊ വ്വാഴ്ച
 താപ നില
  ള
- ല്
8 00
9 6
ഞ ങ്ങൾ
ണ െന്നാണ്
മ ൊക്കെ
മ ൃതദേഹ
ൾ ഡ്
 പ ബ്ലിക്
 എ പ്പി
 ആ ഡംബര
ാന ാവും
 മു ക്ത
 മാ ല
പ്പോ യി
 പു ഷ്
 ബി എസ്
മി ത്
ഴ് ത്തി
 ചെയ്യ ുകയാണ്
 നില വില
 വേ ര്
കെ പിസിസി
‍പ്പ റ്റ
 സ്റ്റ േഷനില്
 പിന്തുണ ച്ച്
 വരു മെന്ന്
 സ്വന്ത മായി
 ഇടപെ ട്ട്
ട്ര ല്
 ലീഗ ിന്റെ
 ജയരാജ ൻ
 കാണാ തായ
ട്യൂ ബ്
സുപ്ര ീം
റ ുകള
ല ധികം
 സ ിലി
 അ നിൽ
 അ യാള്
ത്തി മ
 ത ോട്ട
ാന ിലെ
 നി ബന്ധന
ടി സി
ഗ്ര ൂ
‍ക്ക ുകയും
 കാ റ്റ
 വീ ശ
 ഡ ികെ
ിച്ചി ട്ടു
 ജോ യി
 ആവശ്യ ങ്ങള്
 വേ ണമെന്നും
 തെ രു
 ചെയ്തി രുന്ന
 നേരി ട്ടത്
 നോ ക്കാം
ിന െയും
മാക ുമെന്ന്
 സ്വാ മി
 തേ ജസ്വി
 സമീപ ിച്ചത്
 മുൻ പ
സ്വ യം
 ഔ ട്ട്
 സമ്മേള ന
പഞ്ച ാബ
ൊന്ന ാണ്
 മാർ ഗ
 മുരളീധ ര
 നൂ റ്
 കിട്ടിയ ത്
മ്പാ ടി
 നിരോധ നം
ചെ റിയ
 അവതരി പ്പിച്ച
വ്യാഴ ാഴ്ച
അ ടിയ
ഗ താ
‍ ദ്ധി
ിയ ന്
രാ നുള്ള
 ജ യില്
 മാ ള
പി ടിക്ക
 ഗ ്യാ
 ദ ീ
 കൊ റിയ
 ഹ രീഷ്
 വീ ണു
സ്റ്റ ോ
വേ ശം
 ആരോഗ്യ വകുപ്പ്
ൻ് റ
വൈ ദ്യ
 സഖ്യ കക്ഷ
 നേരിട ാന്
ഘാ തം
ക്കൊ ണ്ട്
 തൊ ട്ട്
 വിമാനത്താവള ത്തില്
 പരിശീല ന
ട്രി ക്
 വെടി വെ
 സ്റ്റാ ഫ്
 ബഹി ഷ്
 കാസർ ഗോഡ്
കൊല പാത
  I
ഉ ച്ച
പ ര്യം
യ െന്നാണ്
ാ ടന
ോ ടി
 പ കുതി
 സ യന്
 അ ങ്ങനെയ
മാ ശ
മാ ക്കുന്നത്
 ഇ താ
ാന ുണ്ട്
 നി ധി
 നി വാരണ
 ല ഖ്
കു മ്പോൾ
 അവ താര
ലീ ഗ്
 യു എ
 സെ ക്കന്
 ഷ ൂട്ടി
 വ്യക്തമാ ക്കിയ
എം പി
 കാല ത്തെ
 തിരിച്ച െത്തി
ശി ക്ഷ
 വിജയ രാഘ
 മരണ ത്തിന്
ത്തോ ടൊപ്പം
 നാട്ട ില്
 എൻ ഡിഎ
 പോല െയാണ്
 അടു പ്പ
 കല ാകാര
 ജില്ലകള ിലായി
രാഹു ൽ
 തന്നെയ ായിരുന്നു
 ദുബ ായ്
 കുത്ത നെ
 അഴ ിച്ചു
 വഷ ള
അ തിനെ
ണ ിയും
പ ഴയ
ി ട്ടുള്ളത്
ൂ രം
 ആ സാദ്
 നി ശ്ചിത
ില്ല ായ്മ
 ഒ ളിവ
നി ന്നു
 മു പ്പ
യാ ണിത്
 നേ രം
ന്ദ ർ
 ഒരു പോലെ
 ചെയ്യ ാനും
 ചെയ്യ േണ്ടത്
 ലഭ ിച്ചിട്ടില്ല
 സെ ഞ്ച്
 ആവശ്യ പ്പെടുന്നത്
 ഉപ ദ്ര
 അനു ബന്ധ
 പരിശ ്രമ
 ചേ രി
 ചേ രുന്ന
 എസ് ഡിപിഐ
ബാ ധിത
 സമയ മാണ്
 ചിത്ര ത്തില്
 ചികിത്സ യിൽ
 ഉട ല
 ഭൂ മ
 പുല ർത്ത
 കൊടുത്ത ു
ൽപ്പ ന
 ദൗ ത്യ
 സിദ്ധ രാമയ്യ
‍ക്കത്തിലൂടെ യാണ്
 രാമചന്ദ്ര ന്
 മില്യ ണ്
 നിലനി ർത്ത
മന്ത്രാല യം
 ഏഷ്യാനെ റ്റ്
ജ ാബ്
സ മ്മ
 സ ൌ
ത്ത ൂർ
 ച തു
 വി സ്
‍ക്ക ോ
 ഹ രിത
 വാ ർഡ
 റ ായ്
‍ക ൂര്
 ചെയ്യ ുമെന്ന്
ണമ െ
്യാപ േക്ഷ
 ഇട യിൽ
 കാണ ിക്കുന്ന
 പരാ ജയം
 സൂ പ്പർ
 ഉറ ച്ച്
മോ ക്രാ
‍പ്പ ടേ
സു രേഷ്
 പ്രതീക്ഷ യിലാണ്
‍ക്കാരി നെതിരെ
 ശ്രദ്ധ ിക്കണം
സോ ണിയ
 കൊടു ക്കുന്ന
 എൻ ജി
 ജില്ലകള ിലാണ്
 യുവതി യുടെ
 അഡ് മിനിസ്
 അക്രമ ം
 സീസ ണില്
 യോ ജ
 കൂടുതല ാണ്
‍സില ര്
 പുനരാ രംഭ
  C
ബ ാര്
സ ന്ത
‌ നാട്ടില്
 ന ദ്ദ
ുന്ന തിനായി
 വി കാര
 കേ സിന്റെ
 ദ ര്
 ഡ ൗൺ
 ഇന്ത്യ ക്ക്
 രോഗ ലക്ഷണ
 ഉപ തിരഞ്ഞെടുപ്പ്
ഹാ ബ്
 മേ നോ
ത്തോ ള
 നടപടി ക്രമ
 ഷാ ഫി
 ദേ വി
ത്തിലൂടെ യാണ്
 പരാജയ പ്പെട്ടു
 സ്ത്രീക ള
 പ്രതിസന്ധി യില
‌റ്റ ോ
 രാശി യില്
‌കൂള ില്
 ഡിസം ബർ
 നടപ്പാ ക്കുന്ന
 രോഗമുക്ത രായി
  ദ്
ക ള്ള
ത ാന
പ ണി
ല ാല
ു ണ്ടെന്ന്
ൻ പ
‍ '
യി ച്ച
 ആ ധുനിക
ല്ല ൂർ
 പ്രതി കൂല
 ഹ േമ
 കാ ഴ്ച്ച
 നിയ ന്ത്രി
മുണ്ട ായിരുന്ന
 അറിയ ാത്ത
 ക്യാ മ്പ്
ദു ര
 പൂർ ത്തിയ
 പരിഗണ ിച്ച
 റഷ്യ ന്
 സിപിഎമ്മ ിന്
 ആരാധ കർ
 പിറ ന്ന
 താത് പര്യ
 ബഹി രാകാശ
 ജ്വ ല്ല
. ആർ
ക രും
വ ൂർ
ു മായും
ോ ട
 പ ിയും
തി രേയും
 ക രീ
 ത ന്ത്രം
ക്ഷ മ
യു വ
 മാ ലി
 ഡി വിഷ
 രാജ്യ ത്തിന്
 കഴിഞ്ഞ ത്
പെ ണ്
‍ത്ഥ ിയ
 നേതൃത്വ ത്തിലാണ്
 നിർ മ്മാണ
 പിട ിക്ക
 ചോദ ിക്കുന്നത്
 വര െയ
 വർഷ മായി
.എ ൽ
 കമ്മീഷ ണര്
‍ജ് ജ്
 ഫ്ര ാന്
 മോദ ിയെ
 സൗകര്യ ങ്ങള്
സഹ ോദ
 അബ്ദു ള്
 ലു ലു
‍പ്പടേ യുള്ള
പ ശ്ചിമ
ഭ ൂരി
റ ുള്ളത്
സ ൺ
 വ മ്പന്
 അ യോധ്യ
മാ വും
 ജ െയ്
ായ ത്ത്
പ്ര സ
 ലഭ ിക്കാത്ത
 കേസ ുകളുടെ
രായ ത്
മുള്ള ത്
 ഭാഗ മായാണ്
 തിരിച്ച െത്തിയ
കർ ണാടക
 നല്ല ത്
.എ ച്ച്
‍ത്തക രുടെ
 അനുഭവ ം
 കൈവ ശം
മെന് റിന്റെ
 അമ്പ ര
‍ഫോ ഴ്
 മാലിന് യ
  ല്ല
എ ക്
ദ ൃ
ബ ിലി
ശ ക്തി
ാ ട്
ക് വാ
തി നി
ത്ത ാല
 പ്ര കാശ
രാ ഗത
 പോ പ്പു
 പറഞ്ഞ ാൽ
യ് ക്കുന്നത്
മു ക്ക്
ിയുടെ യും
 കുറ േ
 രോഗ വ്യാപ
 അനു യായി
 ഐ ശ്വര്യ
 നിര സ
 മാറ്റ ിവ
 സമ്പ ാദ
 മൊ ത്ത
അതി നു
ത്തോ ട
 രക്ഷ ി
 വിശദ ീകരണ
 പ്രവ ചന
 നടപടിയ െടുക്ക
 ഒഴിവ ുകള്
 പുല ർച്ച
 സോണിയ ാ
 ടൈ ം
രംഗ ത്ത്
 സർട്ടിഫ ിക്കറ്റ്
ന്റേ ത്
 പാകിസ്ത ാന്
 അഗ് നി
 സൊ സൈ
 നിഗമ നം
: 

ഗ ർ
ഡ ര്
ഫ ാ
ര വ്
ഷ ന്റെ
‌ സില്
 ക ും
 വ ക്ക
രി ക്കാത്ത
 ത ന
 ജ ഗ
റി ന
ടി യിൽ
താ വ
‍ക്ക ര്
 അവ ന്
 ഓ പ്പ
 സെ ക്യൂ
കോ ര്
 മന്ത്രി മാര്
 നാ ട്ടിൽ
 കേസ ുകളും
ാർ ട്ട്
 കൈ പ്പ
 ചെ റ
 താ ങ്ങ
 തല മുറ
 സമയ ത്താണ്
 കരു ത്ത്
14 0
 സിനിമ യിലെ
ശ്ര ദ്ധ
 കാരണ മായ
 ഇല്ല െന്നും
 കണ്ടെത്ത ാൻ
 നാട്ട ിലെ
 ജാമ ്യാപേക്ഷ
 കരാ റ
 ഡ്രൈ വ
 മേധ ാവ
 ഒരാള ാണ്
 ബംഗാള ില്
 റെയ് ഡ്
 ട്വിറ്റ റില്
 തിരക്ക ഥ
 ധോ ണി
ഇ വർ
‍ സിന്
 പ ണിക്ക
 സ വിശേഷ
 മ ക്കള
 മ തിയായ
 ആ പ്
 ച ായ
 വി സ്മ
ക്കാ രാണ്
 ര ീ
 ഗ ാ
ംഗ ിന്
 പറഞ്ഞ ിട്ടുണ്ട്
 റ ൺ
 ഓ ഫ
ാമ െന്ന
ലിയ െ
 സീ രിയ
 തിരഞ്ഞെടു പ്പി
 ബിജെപി യിലേക്ക്
 ഭാഗ ത്തു
 തല ശേരി
 മണ്ഡല ങ്ങളിലും
 നഷ്ട മായി
 എക് സിക്യൂ
 കീ ഴ്
ക്ടറ േറ്റ്
 ബ്രിട്ട ീഷ്
ചോ ദ്യം
 എഐ സിസി
9 8
ഞ ങ്ങളുടെ
ത ങ്ങളുടെ
മ രം
ൻ റ്
‍ ഭി
ിക്ക ിട
ിക്ക ുകയാണെന്നും
റ്റ േ
വി ഡ
 ഉ ൽ
യില െയും
ങ്ക ം
 കേ ട്ട്
രിച്ച ാണ്
 കൂ ട്ടു
നാ ള
 അവ ശ്യ
‍ക്കാ ലിക
 ആവശ്യ മില്ല
ധിക ൾ
വീ ണ്ടും
‍ത്തി യില്
 അതി ജീവ
 സാധ ിച്ച
 മല യോര
ജന ങ്ങളുടെ
 നേതാക്കള ുമായി
 വിശദ ീകരിച്ചു
നിര പേക്ഷ
 അവകാശ പ്പെട്ടു
‌സി റ്റി
 അല ർട്ട്
രാമ ന്
 ഭീഷണി പ്പെടുത്തി
 പങ്കെടുത്ത ത്
 വക ഭേദ
 അനി വാര്യ
 പീഡി പ്പിച്ച
 വൃത്ത ങ്ങള്
 പടിഞ്ഞ ാറ
 ഓൺ ലൈൻ
 ക്രൂ ഡ്
വനി താ
  www
ണ ും
ഫ ിന്റെ
ു മായ
 ക മ്പ്യൂ
 മ ്
 മ ്യൂ
ുന്ന തും
യു മായുള്ള
ദ് മ
ടി ക്ക്
 ല ാല്
 എന്ന റിയ
ുകള ാണുള്ളത്
 ഫ ിന
 ചെയ്യ ുമെന്നും
ാൻ ഡ്
ജ് ജ്
ദി ന്
 കേന്ദ്ര ങ്ങളില്
 തിരഞ്ഞെടു പ്പിന്റെ
 ജന താ
ഹി ം
 അനു ഗ്രഹ
 ചി റ്റ
നോ ടും
മുണ്ട ോ
 കണ്ണ ൂരില്
 പട്ട ാ
 ജീവന ക്കാർ
 അവകാശ വാദം
 നയി ച്ച
 ഇൻ സ്റ്റി
 ലീഗ ിന്
 കുതി ച്ചു
 രമ ്യ
 ബോം ബ്
 സിസി ടിവി
9 3
ഗ ൗ
ത െങ്കില്
ന രേന്ദ്ര
പ ട
ല ായി
ാ ട്ട
ക്ക ണക്കിന്
 അ ഡീഷ
ിക്ക പ്പെടുന്ന
 ബ ോട്ട
 ജ ാസ്
ല്ല െങ്കിൽ
 നേ ര്
തു ണ്ട്
 കൊ ന്ന
രിച്ച ിരുന്നു
 പ്രതി ഷേധിച്ച്
കു ഞ്ഞ
 കാ രി
ണി ത്തുറ
ക്കുന്ന താണ്
 കേന്ദ്ര ത്തിന്റെ
 ജന വിധി
റു ത്ത
ചി തമായ
 പിട ിച്ചത്
 സമ്പ ത്ത്
 തൃ പ്തി
 കുടുംബ വും
 ഭരണ ാധികാരി
ട്രേ ാളി
 വീഡിയോ യില്
 തയ്യാറ ാക്ക
 പ്രസ്താവന യിൽ
 നവ ംബർ
 ഒരിക്ക ല്
 ഇന്റ ലി
 ഇക്കാര്യ ത്തിൽ
 സാക്ഷ ്യ
 തിരുവനന്തപു ര
‌ള ാ
‌ഫോ ടന
 തിരച്ച ില്
 തുടർന്ന ാണ്
 വഴിയ ൊരു
 ജെഡിയ ു
ഷിംഗ് ട
. g
അ നു
ക ാനഡ
ച ിക
ല ിലാണ്
വ െയ്
‌ തു
‍ നാ
 പ നി
മാ ച
 ച ാന്
 ശ ോ
 എന്ന ുമാണ്
യാ കും
താ ൽ
 റ ഹ
 പറയ ണം
 പൊ ന്ന
 രൂപ യ്ക്ക്
വീ ഴ്ച
 സാധ ിച്ചത്
 ധ ീര
 കഴ ു
19 4
പ്പാ ട
 കണ്ടെത്തി യിട്ടുണ്ട്
 റൂ ം
 അന്ത രിച്ചു
 പ്രവച ിക്കുന്നത്
 ഉദ്ധ വ്
 അദ ാനി
 അദ് ധ്യക്ഷ
 ആംബുല ന്
 സിലി ണ്ട
  ച്ചു
ക ത
യ ാര്
ക് വ
ക്ക ുകള്
മാ റി
 ആ ഭരണ
 ഇ ംഗ്ലീ
 പ്ര ാപ
 വി ര
െയ െ
 ഉ മ
രിക്ക ുന്നുണ്ട്
 സി ക്
 അവ ാര്
 വെ ളിച്ച
കേ സിലെ
‍ത്തി ച്ച
 മത്സ രിച്ചത്
 കട മ
 ആശുപത്രി കള്
‍ട്ടി യിലെ
 പല സ്തീ
വരുടെ യും
 സ്ഥാപ ിച്ച
 ഗോ പാല
 വൈറ ല്
 ഉണ്ടായി രിക്കുന്നത്
 ടീ മിന്റെ
 ഡെ വല
 പറ്റ ാത്ത
 തള്ള ിയ
 ചടങ്ങ ിൽ
വ്യാ ജ
 അറി വ
 ശര ത്
‌പ ോട്ട
‍ടി സി
‌സിക്യൂ ട്ടീവ്
ത രം
ന ീതി
 പ െയ്
 മ ഞ്ച
 അ വിശ്വാസ
ത്ത ുപറ
 ത ങ്ങളെ
ുമ െ
തു ണ
 ദ ാസ്
മു ല്ല
മു ക്ത
കു വൈ
അത ും
 എം എം
ന്നി രുന്ന
 ചി ദ
 ചി റ
 കഴിഞ്ഞ ില്ല
പോ ല
 മെ മ്പ
 ശ്രമ ങ്ങൾ
‍ശ ിച്ച്
തായി രിക്കും
‌ന ങ്ങള
 ചെയ്യുന്ന തിന്
ഴു ത
വസ ര
 സ്ഥല ത്തെത്തി
കളുടെ യും
‍വീ സുകള്
 സൃഷ്ട ിച്ച
 ക്രമ ക്കേ
 പിടികൂ ട
 ഉച്ച കോ
‌ക് വാ
ഇട തുപക്ഷ
 യഥ ാ
 ചല ഞ്ച
 മമ്മ ൂട്ടി
‍ജു ന്
 ഒറ്റക്കെട്ട ായി
h an
ക മായി
ത ര്
ന ൽക
വ രായി
‍ ...

 പ രേ
 സ ായ്
മാ ക്കാൻ
ത്ത ുകയും
 എ ങ്ങനെയ
 ച െങ്ക
ായി ടത്തും
വി ട്ടു
 കോ ലി
 നട ിയെ
ഡി ംഗ്
പ്പോ ലെ
ീക രിക്കും
 ഫ ൈസ
 അവ ൾ
 കാ ത്തു
 ഓ പ്
വീ ട്ടില്
 ഐ പിഎല്ല
 മെ മ്മ
 വന്ന തിന്
ഹാ റിലെ
 എത്തി യിട്ടുണ്ട്
സിഡ ന്റ്
 ദു ർ
ഒരു പാട്
 അറിയ ാന്
 എന്ത ുകൊണ്ടാണ്
െടുത്ത ാണ്
 സ്ഥാപന ങ്ങൾ
 ഒഴ ിയ
സീ റ്റ്
 ആന ന്ദ്
 സത്യ വാങ്
 സൈനിക ര്
സ്വാ തന്ത്ര്യ
‌പെ ഷ്യല്
കൃഷ്ണ ന്
ചേ ര്
 പ്രസിദ്ധ ീകരിച്ച
 ഒക്ടോ ബര്
 ക്രിമിന ല്
തെരഞ്ഞെടു പ്പ്
 ഏറ്റു വാ
 ഡിപ്ലോ മ
 വിജ്ഞ ാപ
  ഋ
7 00
ക ടുത്ത
ന യുടെ
യ ൻ
വ രോട്
ൻ സിപ്പ
ക്ക പ്പെട്ട
 ക ബ
 ക ന്ന
 ത കരാ
 ച ിക
 ഇ പി
 ബ ംഗ്ലാദേശ
 ഒ ടുവിൽ
നി റ
 കു ഞ്ഞു
 ഭ യം
 കൊ ണ്ടും
 വീ ടിന്റെ
 വ്യ ോമ
 സെ റീന
 ബാ റ്റ്
 കുറ ിച്ചാണ്
 കാര്യ മായി
 മുഖ്യമന്ത്രി ക്ക്
വീ ഡിയോ
‍ത്തി ക്കാന്
കൾ ക്കും
 വർ ദ്ധി
ുണ്ട ോ
 മാറ്റ ാന്
 കോൺഗ്ര സും
ാനി ട
 നോ ക്ക
