{
  "version": "1.0",
  "truncation": null,
  "padding": null,
  "added_tokens": [],
  "normalizer": null,
  "pre_tokenizer": {
    "type": "Sequence",
    "pretokenizers": [
      {
        "type": "Split",
        "pattern": {
          "Regex": "[^\\r\\n\\p{L}\\p{N}]?[\\p{Lu}\\p{Lt}\\p{Lm}\\p{Lo}\\p{M}]*[\\p{Ll}\\p{Lm}\\p{Lo}\\p{M}]+|[^\\r\\n\\p{L}\\p{N}]?[\\p{Lu}\\p{Lt}\\p{Lm}\\p{Lo}\\p{M}]+[\\p{Ll}\\p{Lm}\\p{Lo}\\p{M}]*|\\p{N}{1,3}| ?[^\\s\\p{L}\\p{N}]+[\\r\\n/]*|\\s*[\\r\\n]+|\\s+(?!\\S)|\\s+"
        },
        "behavior": "Isolated",
        "invert": false
      }
    ]
  },
  "post_processor": null,
  "decoder": null,
  "model": {
    "type": "BPE",
    "dropout": null,
    "unk_token": null,
    "continuing_subword_prefix": null,
    "end_of_word_suffix": null,
    "fuse_unk": false,
    "byte_fallback": false,
    "ignore_merges": false,
    "vocab": {
      "\n": 0,
      " ": 1,
      "!": 2,
      "\"": 3,
      "#": 4,
      "$": 5,
      "%": 6,
      "&": 7,
      "'": 8,
      "(": 9,
      ")": 10,
      "*": 11,
      "+": 12,
      ",": 13,
      "-": 14,
      ".": 15,
      "/": 16,
      "0": 17,
      "1": 18,
      "2": 19,
      "3": 20,
      "4": 21,
      "5": 22,
      "6": 23,
      "7": 24,
      "8": 25,
      "9": 26,
      ":": 27,
      ";": 28,
      "<": 29,
      "=": 30,
      ">": 31,
      "?": 32,
      "@": 33,
      "A": 34,
      "B": 35,
      "C": 36,
      "D": 37,
      "E": 38,
      "F": 39,
      "G": 40,
      "H": 41,
      "I": 42,
      "J": 43,
      "K": 44,
      "L": 45,
      "M": 46,
      "N": 47,
      "O": 48,
      "P": 49,
      "Q": 50,
      "R": 51,
      "S": 52,
      "T": 53,
      "U": 54,
      "V": 55,
      "W": 56,
      "X": 57,
      "Y": 58,
      "Z": 59,
      "[": 60,
      "\\": 61,
      "]": 62,
      "_": 63,
      "`": 64,
      "a": 65,
      "b": 66,
      "c": 67,
      "d": 68,
      "e": 69,
      "f": 70,
      "g": 71,
      "h": 72,
      "i": 73,
      "j": 74,
      "k": 75,
      "l": 76,
      "m": 77,
      "n": 78,
      "o": 79,
      "p": 80,
      "q": 81,
      "r": 82,
      "s": 83,
      "t": 84,
      "u": 85,
      "v": 86,
      "w": 87,
      "x": 88,
      "y": 89,
      "z": 90,
      "{": 91,
      "}": 92,
      "": 93,
      "£": 94,
      "¥": 95,
      "°": 96,
      "³": 97,
      "·": 98,
      "¼": 99,
      "½": 100,
      "¾": 101,
      "×": 102,
      "â": 103,
      "ñ": 104,
      "ڇ": 105,
      "ڈ": 106,
      "ډ": 107,
      "ं": 108,
      "अ": 109,
      "आ": 110,
      "इ": 111,
      "ए": 112,
      "औ": 113,
      "क": 114,
      "ग": 115,
      "च": 116,
      "ज": 117,
      "ट": 118,
      "ठ": 119,
      "ण": 120,
      "त": 121,
      "थ": 122,
      "द": 123,
      "ध": 124,
      "न": 125,
      "प": 126,
      "ब": 127,
      "भ": 128,
      "म": 129,
      "य": 130,
      "र": 131,
      "ल": 132,
      "व": 133,
      "श": 134,
      "ष": 135,
      "स": 136,
      "ह": 137,
      "ा": 138,
      "ि": 139,
      "ी": 140,
      "े": 141,
      "ो": 142,
      "ौ": 143,
      "्": 144,
      "।": 145,
      "ং": 146,
      "ব": 147,
      "ল": 148,
      "া": 149,
      "அ": 150,
      "ஆ": 151,
      "க": 152,
      "ச": 153,
      "ட": 154,
      "ண": 155,
      "த": 156,
      "ன": 157,
      "ப": 158,
      "ம": 159,
      "ய": 160,
      "ல": 161,
      "வ": 162,
      "ி": 163,
      "ீ": 164,
      "ு": 165,
      "ெ": 166,
      "ை": 167,
      "்": 168,
      "ം": 169,
      "ഃ": 170,
      "അ": 171,
      "ആ": 172,
      "ഇ": 173,
      "ഈ": 174,
      "ഉ": 175,
      "ഊ": 176,
      "ഋ": 177,
      "ഌ": 178,
      "എ": 179,
      "ഏ": 180,
      "ഐ": 181,
      "ഒ": 182,
      "ഓ": 183,
      "ഔ": 184,
      "ക": 185,
      "ഖ": 186,
      "ഗ": 187,
      "ഘ": 188,
      "ങ": 189,
      "ച": 190,
      "ഛ": 191,
      "ജ": 192,
      "ഝ": 193,
      "ഞ": 194,
      "ട": 195,
      "ഠ": 196,
      "ഡ": 197,
      "ഢ": 198,
      "ണ": 199,
      "ത": 200,
      "ഥ": 201,
      "ദ": 202,
      "ധ": 203,
      "ന": 204,
      "പ": 205,
      "ഫ": 206,
      "ബ": 207,
      "ഭ": 208,
      "മ": 209,
      "യ": 210,
      "ര": 211,
      "റ": 212,
      "ല": 213,
      "ള": 214,
      "ഴ": 215,
      "വ": 216,
      "ശ": 217,
      "ഷ": 218,
      "സ": 219,
      "ഹ": 220,
      "ാ": 221,
      "ി": 222,
      "ീ": 223,
      "ു": 224,
      "ൂ": 225,
      "ൃ": 226,
      "െ": 227,
      "േ": 228,
      "ൈ": 229,
      "ൊ": 230,
      "ോ": 231,
      "ൌ": 232,
      "്": 233,
      "ൗ": 234,
      "ൡ": 235,
      "൦": 236,
      "൪": 237,
      "൯": 238,
      "ൺ": 239,
      "ൻ": 240,
      "ർ": 241,
      "ൽ": 242,
      "ൾ": 243,
      "ൿ": 244,
      "‌": 245,
      "‍": 246,
      "‐": 247,
      "‑": 248,
      "‟": 249,
      "•": 250,
      "″": 251,
      "€": 252,
      "₹": 253,
      "⃣": 254,
      "∙": 255,
      "▪": 256,
      "◼": 257,
      "◾": 258,
      "♀": 259,
      "♥": 260,
      "✌": 261,
      "✨": 262,
      "❓": 263,
      "❤": 264,
      "➡": 265,
      "⬛": 266,
      "ブ": 267,
      "ム": 268,
      "ラ": 269,
      "ル": 270,
      "ー": 271,
      "南": 272,
      "容": 273,
      "湘": 274,
      "美": 275,
      "": 276,
      "︎": 277,
      "️": 278,
      "🌹": 279,
      "🎖": 280,
      "🏻": 281,
      "🐟": 282,
      "👇": 283,
      "👉": 284,
      "👌": 285,
      "👏": 286,
      "💎": 287,
      "💚": 288,
      "🔘": 289,
      "🔥": 290,
      "🔸": 291,
      "🖤": 292,
      "🗃": 293,
      "😄": 294,
      "😍": 295,
      "😘": 296,
      "🙄": 297,
      "🙏": 298,
      "🚩": 299,
      "🤔": 300,
      "🤝": 301,
      "🤣": 302,
      "🤦": 303,
      "🥛": 304,
      "🥦": 305,
      "ന്": 306,
      "ക്": 307,
      "ത്": 308,
      "ന്ന": 309,
      "ക്ക": 310,
      " പ": 311,
      "തി": 312,
      ".\n": 313,
      "ണ്": 314,
      "ല്": 315,
      " ക": 316,
      "ട്": 317,
      "ും": 318,
      " സ": 319,
      " വ": 320,
      "യി": 321,
      "ര്": 322,
      " ന": 323,
      "പ്": 324,
      " മ": 325,
      "ച്": 326,
      "ുന്ന": 327,
      "രി": 328,
      " അ": 329,
      "മാ": 330,
      "ത്തി": 331,
      "ങ്": 332,
      "്ര": 333,
      "സ്": 334,
      "ള്": 335,
      "ട്ട": 336,
      "്യ": 337,
      "റ്": 338,
      "ത്ത": 339,
      "പ്പ": 340,
      "ച്ച": 341,
      "ിയ": 342,
      " എ": 343,
      "ാണ്": 344,
      " ത": 345,
      "ങ്ങ": 346,
      "ടെ": 347,
      "ില്": 348,
      "ുക": 349,
      "ില": 350,
      "ിക്ക": 351,
      " ആ": 352,
      " ച": 353,
      "രു": 354,
      " ഇ": 355,
      " പ്ര": 356,
      "റ്റ": 357,
      "രാ": 358,
      "ഞ്": 359,
      "ാന": 360,
      "ുന്നു": 361,
      "ക്ക്": 362,
      " വി": 363,
      "ടു": 364,
      "ന്ന്": 365,
      "ള്ള": 366,
      "ായി": 367,
      "റെ": 368,
      "ിച്ച": 369,
      " ബ": 370,
      "വി": 371,
      "െയ": 372,
      " ഉ": 373,
      " ജ": 374,
      " നി": 375,
      "മ്": 376,
      " സ്": 377,
      "ണ്ട": 378,
      "ക്ഷ": 379,
      "ിക": 380,
      "ഞ്ഞ": 381,
      "യു": 382,
      "െന്ന": 383,
      "ന്റെ": 384,
      "ക്കാ": 385,
      "റി": 386,
      "രുന്നു": 387,
      "സി": 388,
      "ല്ല": 389,
      "ദ്": 390,
      " ര": 391,
      "ുള്ള": 392,
      "ങ്ങള": 393,
      "ദേ": 394,
      " ശ": 395,
      "ില്ല": 396,
      " ഒ": 397,
      "ണ്ട്": 398,
      "ായ": 399,
      "ടി": 400,
      "ന്ത്": 401,
      "ാര്": 402,
      "പ്പെ": 403,
      " ല": 404,
      " കോ": 405,
      "രിക്ക": 406,
      "മായി": 407,
      "ുന്നത്": 408,
      " സം": 409,
      " എന്ന": 410,
      " പറ": 411,
      "യും": 412,
      "നി": 413,
      " മു": 414,
      "രം": 415,
      "വാ": 416,
      " നട": 417,
      " മാ": 418,
      "പി": 419,
      "യാ": 420,
      " ചെയ": 421,
      "യില": 422,
      "ാല": 423,
      "ണം": 424,
      "യില്": 425,
      "ങ്ക": 426,
      " പി": 427,
      "രെ": 428,
      " കു": 429,
      "ുടെ": 430,
      " നേ": 431,
      "ത്ത്": 432,
      "യം": 433,
      " പോ": 434,
      "ുമ": 435,
      "നെ": 436,
      " രാ": 437,
      "െന്ന്": 438,
      "ാന്": 439,
      "േഷ": 440,
      " കേ": 441,
      " ഗ": 442,
      "ച്ച്": 443,
      "ദേശ": 444,
      "തു": 445,
      "ോഗ": 446,
      "സ്ഥ": 447,
      "താ": 448,
      "ത്ര": 449,
      "ട്ടി": 450,
      "ങ്ങള്": 451,
      " ഭ": 452,
      "മ്പ": 453,
      "ത്തില്": 454,
      "ിവ": 455,
      "ന്ദ": 456,
      "ാര": 457,
      "െന്നും": 458,
      "മ്മ": 459,
      " ദ": 460,
      "ത്തെ": 461,
      "ഡി": 462,
      "െടു": 463,
      "റ്റ്": 464,
      "ത്തില": 465,
      "യാണ്": 466,
      "വര്": 467,
      "ഡ്": 468,
      "ംഗ": 469,
      " കൊ": 470,
      "പ്പോ": 471,
      "നം": 472,
      "ിൽ": 473,
      " സാ": 474,
      "വും": 475,
      "ഷ്": 476,
      "മാണ്": 477,
      "ുകള": 478,
      " പു": 479,
      "ട്ട്": 480,
      "ട്ടു": 481,
      " തി": 482,
      "ായിരുന്നു": 483,
      "്യാ": 484,
      " പറഞ്ഞ": 485,
      "യ്": 486,
      "ഗ്ര": 487,
      "രിച്ച": 488,
      " പേ": 489,
      " ഒരു": 490,
      " സി": 491,
      "മായ": 492,
      "ഴി": 493,
      "മു": 494,
      "ന്ത്രി": 495,
      "‍ക്ക": 496,
      " സ്വ": 497,
      "ാല്": 498,
      "ന്ത": 499,
      " കൂ": 500,
      " പ്രതി": 501,
      "ീക": 502,
      " സ്ഥ": 503,
      "ക്കി": 504,
      "ധി": 505,
      " ഫ": 506,
      "യുടെ": 507,
      "ദ്യ": 508,
      " ഹ": 509,
      " തു": 510,
      "ശ്": 511,
      "കു": 512,
      " ബി": 513,
      "സ്ഥാന": 514,
      "യിൽ": 515,
      "ാം": 516,
      "മി": 517,
      " ഏ": 518,
      " ചെയ്": 519,
      "നാ": 520,
      "ലി": 521,
      " അവ": 522,
      "ങ്ങൾ": 523,
      "സം": 524,
      "വ്": 525,
      " വാ": 526,
      "ന്ദ്ര": 527,
      " കാ": 528,
      "ത്തിയ": 529,
      "ിലെ": 530,
      "നു": 531,
      "പ്ര": 532,
      "കള": 533,
      " പരി": 534,
      "ധ്യ": 535,
      "‍ക്ക്": 536,
      "ഴ്": 537,
      " വീ": 538,
      "ിലും": 539,
      "ക്ത": 540,
      "പ്പ്": 541,
      "ക്ര": 542,
      "േക്ക്": 543,
      " റ": 544,
      " തന്ന": 545,
      "ത്തിന്": 546,
      "ിച്ചു": 547,
      "ത്തിൽ": 548,
      " ഓ": 549,
      "ാഗ": 550,
      "ണി": 551,
      "ികള": 552,
      "രണ": 553,
      "രുന്ന": 554,
      "‍ക": 555,
      "ലീ": 556,
      " പറഞ്ഞു": 557,
      "റ്റി": 558,
      "ദേഹ": 559,
      "ാവ": 560,
      " ഡ": 561,
      " ഈ": 562,
      "േണ്ട": 563,
      "രോ": 564,
      "ന്നും": 565,
      "ുകള്": 566,
      "ദ്ധ": 567,
      " തുട": 568,
      " വ്യ": 569,
      " സു": 570,
      "ൂര്": 571,
      "ടിയ": 572,
      "ഫ്": 573,
      " സമ": 574,
      "ജി": 575,
      "ണ്ടെ": 576,
      " ചെയ്യ": 577,
      "ിച്ചി": 578,
      " വെ": 579,
      "ോടെ": 580,
      "ദ്ദേഹ": 581,
      "എന്ന": 582,
      "മന്ത്രി": 583,
      "മാന": 584,
      "ത്തിന്റെ": 585,
      "ജെ": 586,
      " (": 587,
      "പാ": 588,
      " നല്": 589,
      "ിക്കുന്ന": 590,
      "അത": 591,
      " രാജ": 592,
      "രീ": 593,
      "രള": 594,
      "20": 595,
      "രും": 596,
      "ാൻ": 597,
      "ട്ടുണ്ട്": 598,
      "രഞ്ഞ": 599,
      "ാര്യ": 600,
      "ടുത്ത": 601,
      " പറയ": 602,
      "‍ത്ത": 603,
      "യിലെ": 604,
      "ന്ധ": 605,
      "രുടെ": 606,
      "വർ": 607,
      "ശ്യ": 608,
      "െങ്ക": 609,
      "രഞ്ഞെടു": 610,
      " നിയ": 611,
      " തന്നെ": 612,
      " യു": 613,
      "ളി": 614,
      " യ": 615,
      " പാ": 616,
      "റിയ": 617,
      "ഴിഞ്ഞ": 618,
      "ഖ്യ": 619,
      " കെ": 620,
      "കാ": 621,
      "‍ഗ്ര": 622,
      "ണമ": 623,
      "ുവ": 624,
      "ക്കും": 625,
      "ഞ്ച": 626,
      " തീ": 627,
      "ന്ത്യ": 628,
      "ക്കുന്ന": 629,
      " ജില്ല": 630,
      " അദ്ദേഹ": 631,
      " നിന്ന്": 632,
      "‍,": 633,
      "തിന്": 634,
      "ത്യ": 635,
      "സമ": 636,
      "പു": 637,
      "ജ്": 638,
      "ോട്": 639,
      "െന്നാണ്": 640,
      "ിയുടെ": 641,
      "ബി": 642,
      " രൂ": 643,
      " ലഭ": 644,
      "ുമായി": 645,
      "ോട്ട": 646,
      "ാക": 647,
      " നേതാ": 648,
      " റി": 649,
      "ത്സ": 650,
      " സര്": 651,
      "വന": 652,
      " എം": 653,
      "ുകയാണ്": 654,
      " നില": 655,
      " ശ്ര": 656,
      "ണ്ണ": 657,
      "തിന": 658,
      " സംസ്ഥാന": 659,
      "ുപ": 660,
      "ാമ": 661,
      "റിയി": 662,
      "തിയ": 663,
      "ദി": 664,
      "‍ക്കാ": 665,
      " പൊ": 666,
      "വശ്യ": 667,
      "പ്പെട്ട": 668,
      " ഉണ്ട": 669,
      " കോണ്": 670,
      " പുറ": 671,
      "തെ": 672,
      "ല്ലാ": 673,
      "ര്യ": 674,
      "ത്ഥ": 675,
      " സെ": 676,
      "കോ": 677,
      "ധാന": 678,
      "സ്റ്റ": 679,
      "േഖ": 680,
      " രൂപ": 681,
      "ാക്ക": 682,
      " ജോ": 683,
      "ലിയ": 684,
      "ച്ചി": 685,
      "ുകയും": 686,
      "അതേ": 687,
      "ിച്ചത്": 688,
      "വേ": 689,
      " ആവശ്യ": 690,
      "ന്നി": 691,
      "ുകൾ": 692,
      "ത്രി": 693,
      "തിരെ": 694,
      "ബ്": 695,
      "സമയം": 696,
      " സീ": 697,
      "ഭവ": 698,
      "പക്ഷ": 699,
      " വ്യക്ത": 700,
      " ബിജെ": 701,
      " നിയമ": 702,
      " ബാ": 703,
      " കേന്ദ്ര": 704,
      "രേ": 705,
      "വിഡ്": 706,
      "മേ": 707,
      " ദിവ": 708,
      "‍ഷ": 709,
      " സ്വദേശ": 710,
      "കള്": 711,
      "അതേസമയം": 712,
      "സഭ": 713,
      " ഷ": 714,
      " കുറ": 715,
      "തൃ": 716,
      "നും": 717,
      "്യാപ": 718,
      "ത്വ": 719,
      "ികള്": 720,
      " തിരഞ്ഞെടു": 721,
      " വേ": 722,
      " തെ": 723,
      "പ്പെട": 724,
      "പ്പിക്ക": 725,
      " ട": 726,
      " ഇന്ത്യ": 727,
      "യെ": 728,
      "ക്കു": 729,
      " നിര്": 730,
      " വിജ": 731,
      " പേര്": 732,
      " മുന്ന": 733,
      "ലീസ്": 734,
      "െയാണ്": 735,
      "താണ്": 736,
      "ളം": 737,
      " അദ്ദേഹം": 738,
      " ജന": 739,
      " ക്": 740,
      " സംഘ": 741,
      " ഇട": 742,
      "ഗ്": 743,
      " ആശ": 744,
      "ത്തു": 745,
      "ുകയ": 746,
      "എന്നാല്": 747,
      "ധിക": 748,
      "െയും": 749,
      "യിരുന്നു": 750,
      " കേരള": 751,
      " മൂ": 752,
      "പ്പി": 753,
      "ന്റ": 754,
      " ഞ": 755,
      " മോ": 756,
      "ാൽ": 757,
      "എസ്": 758,
      "ഖ്യമന്ത്രി": 759,
      " എന്ന്": 760,
      "സാ": 761,
      "രിക്കുന്നത്": 762,
      "ൊരു": 763,
      " അറിയി": 764,
      "ഷ്ട്": 765,
      "ച്ചു": 766,
      "തീ": 767,
      "ന്റ്": 768,
      " സർ": 769,
      "യ്ക്ക്": 770,
      "00": 771,
      " മന്ത്രി": 772,
      " രോഗ": 773,
      " അഭ": 774,
      "ക്കെ": 775,
      " കാര്യ": 776,
      " എന്നിവ": 777,
      " റിപ്പോ": 778,
      "ൂർ": 779,
      " നാ": 780,
      "ഹി": 781,
      " ഡി": 782,
      "ലെ": 783,
      "തോടെ": 784,
      " ഉപ": 785,
      "ീകരിച്ച": 786,
      "ടതി": 787,
      " വൈ": 788,
      " ചോ": 789,
      " ലക്ഷ": 790,
      " വര്": 791,
      " ശേഷ": 792,
      "ന്നു": 793,
      " വ്യക്തമാ": 794,
      " സ്ഥാന": 795,
      " കി": 796,
      " രാജ്യ": 797,
      "രണം": 798,
      "ിക്കാ": 799,
      " നടത്ത": 800,
      " വലിയ": 801,
      "ൽക": 802,
      "‍.\n": 803,
      "ലും": 804,
      "ംഗ്": 805,
      "ോധ": 806,
      "തല്": 807,
      " നീ": 808,
      " അനു": 809,
      "മെ": 810,
      "ഴ്ച": 811,
      "കെ": 812,
      " ബന്ധ": 813,
      " കാണ": 814,
      "ഷ്യ": 815,
      "ണ്ടു": 816,
      " പരാ": 817,
      " അന്": 818,
      "ക്രമ": 819,
      "രിയ": 820,
      " പെ": 821,
      "ങ്ങളുടെ": 822,
      "വേഷ": 823,
      " നൽക": 824,
      "ക്കാന്": 825,
      "കേ": 826,
      " ചി": 827,
      "‍ഗ്രസ്": 828,
      " പിന്ന": 829,
      "പ്പെടു": 830,
      "ലം": 831,
      "ലാ": 832,
      "സ്റ്റ്": 833,
      " നിന്നും": 834,
      " സ്വദേശി": 835,
      "യൂ": 836,
      "മാനം": 837,
      "ങ്ങളില്": 838,
      "ങ്ങളും": 839,
      "ത്തിലെ": 840,
      " പരിശ": 841,
      " ട്": 842,
      "കര്": 843,
      "എം": 844,
      "..": 845,
      "ടും": 846,
      "രോഗ": 847,
      " ഏറ്റ": 848,
      "പ്പു": 849,
      "നേ": 850,
      " സഹ": 851,
      "ിയും": 852,
      "ൂടെ": 853,
      " കഴിഞ്ഞ": 854,
      " മുഖ്യമന്ത്രി": 855,
      "പ്പോള്": 856,
      "ടക്ക": 857,
      " പാര്": 858,
      " വില": 859,
      " പ്രവര്": 860,
      "ിക്കും": 861,
      "വീ": 862,
      "യുള്ള": 863,
      "െങ്കിലും": 864,
      "ിര": 865,
      "ങ്ങിയ": 866,
      " ബിജെപി": 867,
      " ഉയ": 868,
      "ാരണ": 869,
      " ജീ": 870,
      "ലോ": 871,
      " കേസ": 872,
      "‍ത്തി": 873,
      " ഐ": 874,
      "ഷ്ട": 875,
      " ചെയ്ത": 876,
      " ലോ": 877,
      "ഡിയ": 878,
      " തീരു": 879,
      "വര": 880,
      "ീയ": 881,
      " മാത്ര": 882,
      "പോ": 883,
      " -": 884,
      "ക്ട": 885,
      " ചേ": 886,
      "ഡിഎ": 887,
      "മ്പോ": 888,
      " അതി": 889,
      " കൂടു": 890,
      " സാധ": 891,
      "ാനുള്ള": 892,
      "ക്കള": 893,
      "രായ": 894,
      "ുകൊ": 895,
      " പങ്ക": 896,
      "),": 897,
      "വരെ": 898,
      "വിടെ": 899,
      "ണ്ഡ": 900,
      " യാ": 901,
      "സിന്": 902,
      " മത്സ": 903,
      "ാർ": 904,
      "ിയെ": 905,
      "ണെന്ന്": 906,
      "ുകയായിരുന്നു": 907,
      " അഭി": 908,
      " പറയുന്നു": 909,
      "മുള്ള": 910,
      "യോഗ": 911,
      "ിലേക്ക്": 912,
      " സംഭവ": 913,
      " ഭാഗ": 914,
      " നിന്ന": 915,
      " അപ": 916,
      " ധ": 917,
      "ൂരി": 918,
      " കാല": 919,
      "‍ച്ച": 920,
      "റോ": 921,
      "ത്രം": 922,
      "കൂ": 923,
      "കൊ": 924,
      " നടപ": 925,
      "ട്ടില്ല": 926,
      " മെ": 927,
      "കൾ": 928,
      " കൈ": 929,
      "ങ്ങി": 930,
      " നേതൃ": 931,
      " എസ്": 932,
      " പരിശോധ": 933,
      " വന്ന": 934,
      "പെ": 935,
      " പ്രധാന": 936,
      "മാര്": 937,
      " ചെ": 938,
      "ഭാഗ": 939,
      "ുപത്രി": 940,
      " തോ": 941,
      "ത്തര": 942,
      " നിര": 943,
      "റു": 944,
      " അന": 945,
      " വേണ്ട": 946,
      " കഴ": 947,
      "ന്തപു": 948,
      " എന്നാണ്": 949,
      "ൺഗ്ര": 950,
      "‍ത്ഥ": 951,
      "‍ണ": 952,
      "രിക്കുന്ന": 953,
      "ിക്കുന്നത്": 954,
      " ശ്രമ": 955,
      "‍സ": 956,
      "രുവന": 957,
      "ഹു": 958,
      " ന്": 959,
      " അന്വേഷ": 960,
      "രുവനന്തപു": 961,
      " ആണ്": 962,
      "വണ": 963,
      " നേതൃത്വ": 964,
      " നിർ": 965,
      "ഹാ": 966,
      "ടന": 967,
      " സർക്കാ": 968,
      " നടത്തിയ": 969,
      "‍ട്ട": 970,
      " ഗ്ര": 971,
      " ആരോ": 972,
      "‍ശ": 973,
      "ാനും": 974,
      "ികൾ": 975,
      "പ്പം": 976,
      " വർ": 977,
      "ല്ലാം": 978,
      " പിന്": 979,
      "രീക്ഷ": 980,
      "ാപ": 981,
      " കട": 982,
      "ുണ്ട": 983,
      "‍ക്കാര്": 984,
      " സൂ": 985,
      " സ്ഥിര": 986,
      "ക്കിയ": 987,
      " ആശുപത്രി": 988,
      "ക്തി": 989,
      "തായി": 990,
      " ശേഷം": 991,
      "ണിക്ക": 992,
      " അധിക": 993,
      " പോലീസ്": 994,
      "ുമെന്ന്": 995,
      "ഷ്ട്രീ": 996,
      " ഡോ": 997,
      " ആദ്യ": 998,
      " അവസ": 999,
      "ൈന": 1000,
      "ങ്ങളെ": 1001,
      "ടക": 1002,
      " കണ്ടെ": 1003,
      "പ്പെടുത്ത": 1004,
      "ബു": 1005,
      "രത്തെ": 1006,
      " പ്രഖ": 1007,
      "ധ്യത": 1008,
      " ചെയ്തു": 1009,
      " ബോ": 1010,
      " സാഹ": 1011,
      " അംഗ": 1012,
      "ുള്ളത്": 1013,
      "തും": 1014,
      " പ്": 1015,
      "‍ക്കും": 1016,
      "ണെന്നും": 1017,
      " ഉറ": 1018,
      " കോടതി": 1019,
      "നോ": 1020,
      " വരെ": 1021,
      "ക്ഷേ": 1022,
      "തില്": 1023,
      "രിക്കുകയാണ്": 1024,
      "19": 1025,
      " സീറ്റ": 1026,
      " യോഗ": 1027,
      "രക്ഷ": 1028,
      "രിക്കും": 1029,
      " സാഹച": 1030,
      " മാറ്റ": 1031,
      " ആരോപ": 1032,
      "ക്കാൻ": 1033,
      " തിരിച്ച": 1034,
      "‍ട്ടി": 1035,
      "േഖല": 1036,
      " ജെ": 1037,
      " പല": 1038,
      "ാത്ത": 1039,
      " കോൺഗ്ര": 1040,
      "സിന്റെ": 1041,
      " പുതിയ": 1042,
      "നിയ": 1043,
      " കമ്മ": 1044,
      " റിപ്പോര്": 1045,
      "രോഗ്യ": 1046,
      "ുന്നുണ്ട്": 1047,
      " പ്രഖ്യാപ": 1048,
      "ൊഴ": 1049,
      " രണ്ട്": 1050,
      " ശത": 1051,
      "ത്തിന": 1052,
      " പാർ": 1053,
      " മറ്റ": 1054,
      "ക്കുന്നത്": 1055,
      " വ്യക്തമാക്കി": 1056,
      " ചില": 1057,
      " അത്": 1058,
      "തല": 1059,
      " പ്രതിക": 1060,
      " താ": 1061,
      " മണ്ഡ": 1062,
      "േധ": 1063,
      "തം": 1064,
      " ഏറ്റവും": 1065,
      "േറ്റ": 1066,
      "10": 1067,
      "ശി": 1068,
      "േരി": 1069,
      "ഷ്ട്രീയ": 1070,
      "മോ": 1071,
      "തൽ": 1072,
      "‍സ്": 1073,
      " മറ": 1074,
      " വകു": 1075,
      "പ്പോഴ": 1076,
      " ചെയ്തി": 1077,
      "‍പ്പ": 1078,
      " സൗ": 1079,
      " രംഗ": 1080,
      " എത്തി": 1081,
      " ദിവസം": 1082,
      "ോട്ട്": 1083,
      "?\n": 1084,
      " ദിവസ": 1085,
      " ഇത്": 1086,
      "ളള": 1087,
      "201": 1088,
      " പാല": 1089,
      "ദ്ദേശ": 1090,
      "യിലേക്ക്": 1091,
      "രുവനന്തപുരം": 1092,
      "ിന്": 1093,
      "‍ന്ന": 1094,
      " പോക": 1095,
      " വയ": 1096,
      "ദ്ധതി": 1097,
      "േക്ഷ": 1098,
      "ക്കം": 1099,
      " എന്നും": 1100,
      " നേരി": 1101,
      "ീഷ": 1102,
      "ബാ": 1103,
      "രുന്നത്": 1104,
      " സ്റ്റ": 1105,
      "ങ്ങനെ": 1106,
      "രാജ": 1107,
      " ശക്ത": 1108,
      "റാ": 1109,
      "ക്കോ": 1110,
      " എന്": 1111,
      "സര്": 1112,
      "വാസ": 1113,
      " സാധ്യത": 1114,
      "വെ": 1115,
      "കഴിഞ്ഞ": 1116,
      " എല്ലാ": 1117,
      " മല": 1118,
      " വള": 1119,
      "ിലാണ്": 1120,
      " പ്രവർ": 1121,
      "ങ്ങളിൽ": 1122,
      "ുകളും": 1123,
      "ത്തിലാണ്": 1124,
      "ഞ്ച്": 1125,
      "േഷ്": 1126,
      " ഗു": 1127,
      " തീരുമാന": 1128,
      "തെന്ന്": 1129,
      "രാണ്": 1130,
      " നടന്ന": 1131,
      " സോ": 1132,
      "ചി": 1133,
      " മേഖല": 1134,
      "തെന്നും": 1135,
      "ിന്റെ": 1136,
      "നെതിരെ": 1137,
      "രിച്ച്": 1138,
      " ഇന്ന്": 1139,
      "സ്സ": 1140,
      "റായി": 1141,
      " അറ": 1142,
      " പരാതി": 1143,
      "ത്തിയത്": 1144,
      "സിഡ": 1145,
      "േയും": 1146,
      "യിട്ടുണ്ട്": 1147,
      "ണാ": 1148,
      "‍കി": 1149,
      "ഫീ": 1150,
      "എന്നാൽ": 1151,
      "ൃത": 1152,
      "‍ട്ട്": 1153,
      "ാനി": 1154,
      " പദ്ധതി": 1155,
      " പിട": 1156,
      "വിധ": 1157,
      "പ്പെടുത്തി": 1158,
      " വിഭാഗ": 1159,
      " സ്ഥിരീകരിച്ച": 1160,
      "ള്ളി": 1161,
      "ിച്ചിരുന്നു": 1162,
      "വാദ": 1163,
      "മല്ല": 1164,
      " വിഷ": 1165,
      "മുണ്ട": 1166,
      "‍ഡ്": 1167,
      "‌സ്": 1168,
      "ുമെന്നും": 1169,
      "വില്": 1170,
      "രംഭ": 1171,
      "ാരണം": 1172,
      " രാഷ്ട്രീയ": 1173,
      " ദു": 1174,
      " സാഹചര്യ": 1175,
      " ആരോഗ്യ": 1176,
      " പ്രച": 1177,
      "സഭാ": 1178,
      "ോ": 1179,
      "യ്യാ": 1180,
      " കൂട്ട": 1181,
      "യ്ക്ക": 1182,
      " ഫോ": 1183,
      "ുണ്ട്": 1184,
      "േക്ക": 1185,
      " ജില്ലാ": 1186,
      " മി": 1187,
      "പ്പോൾ": 1188,
      "നിടെ": 1189,
      "യാള": 1190,
      "ടുംബ": 1191,
      "കർ": 1192,
      "ൂഹ": 1193,
      "ായിരുന്ന": 1194,
      "ാതെ": 1195,
      "ഒരു": 1196,
      "ിലാ": 1197,
      " റോ": 1198,
      " നടത്തി": 1199,
      "ൊപ്പം": 1200,
      " സിപി": 1201,
      "ക്രട്ട": 1202,
      "ക്കള്": 1203,
      " തല": 1204,
      "യോ": 1205,
      " വോട്ട": 1206,
      " പ്രശ്": 1207,
      "െയ്": 1208,
      " പിന്തു": 1209,
      " സമ്പ": 1210,
      "ജീ": 1211,
      "‍\n": 1212,
      "‍ന്ന്": 1213,
      "‌ന": 1214,
      "ഷേധ": 1215,
      " നോ": 1216,
      "ിക്കുന്നു": 1217,
      "സിന": 1218,
      "മായിരുന്നു": 1219,
      "‍റെ": 1220,
      " ഉപയോഗ": 1221,
      " വിദ": 1222,
      "തീക്ഷ": 1223,
      "ണ്ടി": 1224,
      " ഉള്ള": 1225,
      "ുകളില്": 1226,
      "വരുടെ": 1227,
      " വിജയ": 1228,
      " വിമ": 1229,
      "യിലാണ്": 1230,
      " ആള": 1231,
      " മണ്ഡല": 1232,
      " ആയി": 1233,
      "കേരള": 1234,
      " തിരഞ്ഞെടുപ്പ": 1235,
      "ന്ധി": 1236,
      " തയ്യാ": 1237,
      " കള": 1238,
      " ഉദ്യ": 1239,
      " സെക്രട്ട": 1240,
      " കൂടി": 1241,
      "ധ്യമ": 1242,
      "സു": 1243,
      "തിന്റെ": 1244,
      " പ്രസിഡ": 1245,
      "െങ്കില്": 1246,
      "രുത്ത": 1247,
      "ിക്കാന്": 1248,
      "ണ്ടും": 1249,
      "ബന്ധ": 1250,
      "ാസ്": 1251,
      "ീതി": 1252,
      " സ്ഥാപ": 1253,
      " ടി": 1254,
      "ണിയ": 1255,
      "ംബ": 1256,
      "ട്ടിയ": 1257,
      "മ്പ്": 1258,
      "ര്യം": 1259,
      "രേന്ദ്ര": 1260,
      "ർത്ത": 1261,
      "ഇത്": 1262,
      "സില്": 1263,
      "നിക്ക്": 1264,
      "മാർ": 1265,
      "ീപ": 1266,
      " വാക്": 1267,
      " അറിയിച്ചു": 1268,
      "രില്": 1269,
      "15": 1270,
      " മന": 1271,
      " ഉള്": 1272,
      "ണമെന്ന്": 1273,
      "മില്ല": 1274,
      "ുവി": 1275,
      " പുറത്ത": 1276,
      "ഴിക്ക": 1277,
      " കൊവിഡ്": 1278,
      "എല്": 1279,
      "ധ്യക്ഷ": 1280,
      "202": 1281,
      "യിലും": 1282,
      "ച്ചത്": 1283,
      " മുന്": 1284,
      " തൃ": 1285,
      " ചോദ്യ": 1286,
      " കോവിഡ്": 1287,
      "ചന": 1288,
      " ആര്": 1289,
      " ഓഫീ": 1290,
      "വധി": 1291,
      "നില": 1292,
      " കണ്ണ": 1293,
      "യായ": 1294,
      " പറയുന്നത്": 1295,
      " രാഹു": 1296,
      " മീ": 1297,
      " കണ": 1298,
      "്യം": 1299,
      "ികി": 1300,
      "േക": 1301,
      " അടി": 1302,
      " റെ": 1303,
      "ികളുടെ": 1304,
      "കട": 1305,
      " തട": 1306,
      "രന്": 1307,
      "ർച്ച": 1308,
      " കോടി": 1309,
      "േഷന്": 1310,
      " വിശ": 1311,
      " അട": 1312,
      " കൂടുതല്": 1313,
      "ാനാണ്": 1314,
      "സിൽ": 1315,
      "റും": 1316,
      "ദ്ദ": 1317,
      " ഗാന്": 1318,
      " ഖ": 1319,
      " ഹൈ": 1320,
      "പ്പെട്ടു": 1321,
      " പിന്തുണ": 1322,
      "റിച്ച്": 1323,
      " ഗോ": 1324,
      "വുമായി": 1325,
      " മേ": 1326,
      "‍കിയ": 1327,
      "ിന": 1328,
      "ൊക്കെ": 1329,
      "ോഷ": 1330,
      "ഞ്ഞ്": 1331,
      "പ്പാ": 1332,
      "നിമ": 1333,
      " കുടുംബ": 1334,
      "12": 1335,
      "രോധ": 1336,
      " പോലും": 1337,
      " പ്രത്യ": 1338,
      " പഞ്ച": 1339,
      "ികിത്സ": 1340,
      "മാക": 1341,
      "ർശ": 1342,
      "ഗോ": 1343,
      "വാഹ": 1344,
      "‍മാ": 1345,
      " തുടര്": 1346,
      " പങ്കെടു": 1347,
      " പിന്നാല": 1348,
      " തുടങ്ങിയ": 1349,
      " പരിശോധന": 1350,
      " കഴിയ": 1351,
      " ഇറ": 1352,
      " സമയ": 1353,
      "ാക്കിയ": 1354,
      "ത്തും": 1355,
      " ചര്": 1356,
      " ഘ": 1357,
      " കാര്": 1358,
      "‍ഡ": 1359,
      "ജന": 1360,
      "തിനെ": 1361,
      " കരു": 1362,
      " രോഗം": 1363,
      "കാശ": 1364,
      " ബാധ": 1365,
      "ൻ്": 1366,
      " മുതല്": 1367,
      " യാത്ര": 1368,
      "പ്പെടെ": 1369,
      "ഷ്ണ": 1370,
      " ചിത്ര": 1371,
      "റില്": 1372,
      " നിലപാ": 1373,
      "ോഗ": 1374,
      " ആരംഭ": 1375,
      " ഇതു": 1376,
      " കൃ": 1377,
      " സർക്കാർ": 1378,
      "യില്ല": 1379,
      " ഭരണ": 1380,
      " ചികിത്സ": 1381,
      " യൂ": 1382,
      " അധ്യക്ഷ": 1383,
      "ീസ്": 1384,
      "തിരുവനന്തപുരം": 1385,
      " ചെയ്യുന്ന": 1386,
      " ആക്രമ": 1387,
      "സ്ത": 1388,
      " കോള": 1389,
      "ായ്": 1390,
      "പ്പെട്ടി": 1391,
      " പ്രതീക്ഷ": 1392,
      "്യൂ": 1393,
      " റിപ്പോർ": 1394,
      " തൊഴ": 1395,
      "ിച്ച്": 1396,
      "30": 1397,
      " ചോദ": 1398,
      "വിലെ": 1399,
      "സർ": 1400,
      " കൊണ്ട്": 1401,
      " ചൂ": 1402,
      " ഇത്ത": 1403,
      " രണ്ട": 1404,
      "ികളെ": 1405,
      "ായത്": 1406,
      " മാത്രം": 1407,
      " തുറ": 1408,
      "11": 1409,
      " തിരഞ്ഞെടുപ്പ്": 1410,
      " പര": 1411,
      "ില്ലി": 1412,
      "യായി": 1413,
      " പൊലീസ്": 1414,
      "കര": 1415,
      "ുകൊണ്ട്": 1416,
      " വീട്ട": 1417,
      "ൂല": 1418,
      " കൊണ്ടു": 1419,
      "മ്പോള്": 1420,
      "വദ": 1421,
      "‍വ": 1422,
      " കോൺഗ്രസ്": 1423,
      "ഹ്": 1424,
      "‍പ": 1425,
      " വിള": 1426,
      " മൂന്ന്": 1427,
      " വാര്": 1428,
      " പ്രത്യേക": 1429,
      "ാണ": 1430,
      " ടെ": 1431,
      "പ്രതി": 1432,
      " അടക്ക": 1433,
      "ുമാണ്": 1434,
      " സ്വാ": 1435,
      " വേണ്ടി": 1436,
      "രിക": 1437,
      "ുമെന്നാണ്": 1438,
      "ഭാ": 1439,
      "മീ": 1440,
      " പ്രതിഷേധ": 1441,
      " മാധ്യമ": 1442,
      " കുറ്റ": 1443,
      " ശതമാനം": 1444,
      "ഴിക്കോട്": 1445,
      "നില്": 1446,
      "ണമെന്നും": 1447,
      "പ്പെട്ട്": 1448,
      " സംസാ": 1449,
      "ഡിയോ": 1450,
      "ദേശീയ": 1451,
      "പ്പിച്ച": 1452,
      " മണിക്ക": 1453,
      " അറിയ": 1454,
      "വിട": 1455,
      "ഴു": 1456,
      "സംസ്ഥാന": 1457,
      "റിന്റെ": 1458,
      "ട്ടും": 1459,
      " പ്രധാനമന്ത്രി": 1460,
      " നേതാക്കള": 1461,
      "ിരുന്നു": 1462,
      "വന്": 1463,
      "ഡിഎഫ്": 1464,
      " ലീ": 1465,
      " പ്രതിപക്ഷ": 1466,
      " നേതാവ്": 1467,
      "ർന്ന": 1468,
      "കാരം": 1469,
      "വിത": 1470,
      "െതിരെ": 1471,
      "ങ്ങളാണ്": 1472,
      "മല": 1473,
      " പേർ": 1474,
      "കാര്യ": 1475,
      " കര്": 1476,
      " ഉയര്": 1477,
      "ിയാണ്": 1478,
      "ുകളുടെ": 1479,
      "ട്ടം": 1480,
      "നായ": 1481,
      " പ്രവർത്ത": 1482,
      "ഷ്ട്ര": 1483,
      "ാലും": 1484,
      " പ്രദേശ": 1485,
      " രീതി": 1486,
      " തേ": 1487,
      "‍ക്കാരി": 1488,
      "കി": 1489,
      " സ്ത്ര": 1490,
      " വര": 1491,
      " ലക്ഷം": 1492,
      "24": 1493,
      "ണ്ടെന്നും": 1494,
      " വർഷ": 1495,
      " അവര്": 1496,
      " വരു": 1497,
      " എടു": 1498,
      "50": 1499,
      "മായും": 1500,
      " പട്ട": 1501,
      "ാലി": 1502,
      " കൊല്ല": 1503,
      " നിന്നുള്ള": 1504,
      "പരി": 1505,
      " ജി": 1506,
      " വിദ്യാ": 1507,
      "..\n": 1508,
      " രേഖ": 1509,
      "ഡിക്ക": 1510,
      " മരണ": 1511,
      " മാന": 1512,
      " ഒന്ന": 1513,
      " ഉത്തര": 1514,
      " വീണ്ടും": 1515,
      " വിശ്": 1516,
      "നാട്": 1517,
      "ങ്ങൾക്ക്": 1518,
      " സ്ഥാനാര്": 1519,
      " സമീപ": 1520,
      "14": 1521,
      " ബിജെപ": 1522,
      "പ്പുറ": 1523,
      "ക്കുന്നു": 1524,
      " ഉന്ന": 1525,
      "ബൈ": 1526,
      " അയ": 1527,
      "കം": 1528,
      " നിരീക്ഷ": 1529,
      "മെന്റ്": 1530,
      " കണ്ട": 1531,
      "സ്യ": 1532,
      " മുൻ": 1533,
      "ീട്": 1534,
      "ീം": 1535,
      "ീകരിക്ക": 1536,
      " ചേര്": 1537,
      "ത്തിലും": 1538,
      "ത്തോടെ": 1539,
      "നാണ്": 1540,
      " മറ്റ്": 1541,
      "ണ്ടെന്ന്": 1542,
      " വിജയി": 1543,
      "...\n": 1544,
      "ിച്ചിട്ടുണ്ട്": 1545,
      " ഉൾ": 1546,
      " കുട്ട": 1547,
      " വഴി": 1548,
      " മരിച്ച": 1549,
      "ുകയാ": 1550,
      " അനുവദ": 1551,
      " ശ്രദ്ധ": 1552,
      "രുവ": 1553,
      "കാര": 1554,
      "ണറായി": 1555,
      "ിലൂടെ": 1556,
      "ഇന്ത്യ": 1557,
      "തേ": 1558,
      " മൊ": 1559,
      "പര": 1560,
      "ഡിഎഫ": 1561,
      "ഇതോടെ": 1562,
      "സ്വ": 1563,
      "വിൽ": 1564,
      " പൂര്": 1565,
      " ഒരാ": 1566,
      " നഷ്ട": 1567,
      " കയ": 1568,
      " മാത്രമാണ്": 1569,
      " സുരക്ഷ": 1570,
      "അതി": 1571,
      "ൈന്": 1572,
      "ത്തോ": 1573,
      "വസ": 1574,
      " സേ": 1575,
      " എല്": 1576,
      "മുഖ": 1577,
      " ഇപ്പോള്": 1578,
      "ൻ്റെ": 1579,
      " ക്യാ": 1580,
      "സോ": 1581,
      " നഗ": 1582,
      "വരം": 1583,
      "ജന്": 1584,
      " ജോലി": 1585,
      " സെക്രട്ടറി": 1586,
      " നമ്മ": 1587,
      " സമ്മ": 1588,
      " വൈറ": 1589,
      " വിഷയ": 1590,
      " എന്ത": 1591,
      " വിവര": 1592,
      " സിനിമ": 1593,
      " ബു": 1594,
      " വകുപ്പ്": 1595,
      "18": 1596,
      "മാണ": 1597,
      " നേരത്തെ": 1598,
      "ത്തിക": 1599,
      " പൂ": 1600,
      " വിമാന": 1601,
      " എത്ത": 1602,
      " പ്രവേ": 1603,
      "പിന്ന": 1604,
      "ന്തര": 1605,
      "ാഴ്ച": 1606,
      "ിലുള്ള": 1607,
      " നടപടി": 1608,
      " ഉട": 1609,
      "ഷന്": 1610,
      "നങ്ങള്": 1611,
      "ുകളാണ്": 1612,
      "ൊന്നും": 1613,
      " അപേക്ഷ": 1614,
      "േക്കും": 1615,
      "ഷി": 1616,
      "കളും": 1617,
      "ദേശം": 1618,
      " ഹാ": 1619,
      " പ്രാ": 1620,
      "ുമതി": 1621,
      "ഗ്രഹ": 1622,
      "സും": 1623,
      " കാരണം": 1624,
      "ായക": 1625,
      "കളില്": 1626,
      "േജ": 1627,
      "മ്പത്തിക": 1628,
      "െടുത്ത": 1629,
      "13": 1630,
      " പരിഗ": 1631,
      " വ്യാപ": 1632,
      "്രാ": 1633,
      " പഠ": 1634,
      " ചെയ്തത്": 1635,
      "‍ഗ": 1636,
      " ചൂണ്ട": 1637,
      "ുമെന്ന": 1638,
      " ഇവിടെ": 1639,
      "ശ്ച": 1640,
      " കൂടിയ": 1641,
      "പ്പോഴും": 1642,
      "തായ": 1643,
      "െയുള്ള": 1644,
      " നിയന്ത്": 1645,
      "ങ്ങന": 1646,
      "ത്തിലേക്ക്": 1647,
      "!\n": 1648,
      " എന്നി": 1649,
      "ാകും": 1650,
      "േസ്": 1651,
      " കമ്പ": 1652,
      " അവസാന": 1653,
      "ത്തിലുള്ള": 1654,
      "മൂ": 1655,
      "ക്ടര്": 1656,
      " എതി": 1657,
      " പഞ്ചായ": 1658,
      "പ്പുഴ": 1659,
      "‍എ": 1660,
      " പാർട്ടി": 1661,
      "േണ്ടി": 1662,
      "ികളും": 1663,
      "ഫോ": 1664,
      " അന്വേഷണ": 1665,
      " മിക": 1666,
      "ിക്കാൻ": 1667,
      "റോണ": 1668,
      "‍സി": 1669,
      "തര": 1670,
      " പറഞ്ഞത്": 1671,
      "‍ല": 1672,
      " കമ്മി": 1673,
      "തുട": 1674,
      "‍മ": 1675,
      "ക്കാട്": 1676,
      "ണ്ണം": 1677,
      " രക്ഷ": 1678,
      " '": 1679,
      " അടിസ്ഥാന": 1680,
      " വ്യാ": 1681,
      " വ്യക്തി": 1682,
      "25": 1683,
      "മെന്ന്": 1684,
      "ഇതി": 1685,
      "ബന്ധി": 1686,
      "ട്രേ": 1687,
      "ാർത്ഥ": 1688,
      " വിവിധ": 1689,
      " വരുന്ന": 1690,
      " വാഹ": 1691,
      "തോ": 1692,
      " ചൂണ്ടിക്കാ": 1693,
      "ുകളിൽ": 1694,
      " ദേശീയ": 1695,
      " ഇതുവരെ": 1696,
      " പിന്നാലെ": 1697,
      " മാസ": 1698,
      " നിരവധി": 1699,
      " മഴ": 1700,
      " പൊതു": 1701,
      " .\n": 1702,
      " പിണറായി": 1703,
      " നല്ല": 1704,
      "അത്": 1705,
      " ,": 1706,
      " വിശദ": 1707,
      " കേസ്": 1708,
      " നെ": 1709,
      "ിലീ": 1710,
      "ഞ്ഞു": 1711,
      " ചോദ്യം": 1712,
      "ആര്": 1713,
      "ർത്ഥ": 1714,
      "വൈ": 1715,
      "മേരിക്ക": 1716,
      "കോണ്": 1717,
      "16": 1718,
      "ജു": 1719,
      "ന്ത്ര": 1720,
      "ണമെന്ന": 1721,
      " മെഡിക്ക": 1722,
      " തന്റെ": 1723,
      " മറുപ": 1724,
      "സിനെ": 1725,
      "ബിജെ": 1726,
      "17": 1727,
      "‌സ": 1728,
      " താര": 1729,
      " വീഡിയോ": 1730,
      "രിൽ": 1731,
      " തമ്മ": 1732,
      " മുതൽ": 1733,
      " വളരെ": 1734,
      "രാഷ്ട്ര": 1735,
      " ചുമ": 1736,
      " സന്ദ": 1737,
      " മുസ്": 1738,
      "േറ്റ്": 1739,
      " ഇവര്": 1740,
      "ില്ലെന്ന്": 1741,
      " സംഘടന": 1742,
      "ക്ഷേപ": 1743,
      "ല്ലാവ": 1744,
      "തിനായി": 1745,
      " വിവരം": 1746,
      " നടപട": 1747,
      "സ്റ്റി": 1748,
      " സ്ഥല": 1749,
      "ശ്ശ": 1750,
      ".എ": 1751,
      "ീവ്": 1752,
      "െങ്കിൽ": 1753,
      "ർന്ന്": 1754,
      " കൂട": 1755,
      "പ്പെടുന്ന": 1756,
      " തന്നെയാണ്": 1757,
      " ശ്രീ": 1758,
      " സഖ്യ": 1759,
      "കുട്ട": 1760,
      " അടുത്ത": 1761,
      " സ്വന്ത": 1762,
      "ിക്കുക": 1763,
      " ഷാ": 1764,
      " തവണ": 1765,
      " ആർ": 1766,
      "മുണ്ട്": 1767,
      "കുളം": 1768,
      "ത്മ": 1769,
      " ഉദ്യോഗ": 1770,
      " മാര്": 1771,
      "ക്കൾ": 1772,
      " തീരുമാനം": 1773,
      " സ്വദേശിനി": 1774,
      " ജീവന": 1775,
      " ശക്തമായ": 1776,
      " പോലീ": 1777,
      "റണാ": 1778,
      " വെള്ള": 1779,
      "ഹമ്മ": 1780,
      " എക്": 1781,
      "ദം": 1782,
      " സമയം": 1783,
      "ത്തേക്ക്": 1784,
      " ഇക്കാ": 1785,
      "ടങ്ങ": 1786,
      "ക്കാം": 1787,
      "ിക്കു": 1788,
      " പുറത്ത്": 1789,
      "ുമോ": 1790,
      " മോദി": 1791,
      "നാഥ": 1792,
      " നൽകി": 1793,
      "ഖ്": 1794,
      " പ്രസിഡന്റ്": 1795,
      "ങ്ങളിലും": 1796,
      " ഞാന്": 1797,
      " നില്": 1798,
      "രാജ്യ": 1799,
      " നേതാക്കള്": 1800,
      "കാല": 1801,
      "ജയ": 1802,
      " ബ്": 1803,
      "ധാക": 1804,
      "ശ്ര": 1805,
      "‍ഷം": 1806,
      "ഹൃ": 1807,
      "ളെ": 1808,
      " പോയ": 1809,
      " ഒഴി": 1810,
      "ില്ലെന്നും": 1811,
      " സിപിഎം": 1812,
      " ഇടപെ": 1813,
      "കൃ": 1814,
      "കസ": 1815,
      " ജാ": 1816,
      " ക്ര": 1817,
      " ലി": 1818,
      "ദു": 1819,
      "പ്രദേശ": 1820,
      "നിര": 1821,
      "ിയായ": 1822,
      "ണ്ടാണ്": 1823,
      "നിൽ": 1824,
      " അവരുടെ": 1825,
      " ജില്ലയില്": 1826,
      " അഭിപ്": 1827,
      " തെരഞ്ഞെടു": 1828,
      " വിലയി": 1829,
      " കോട്ട": 1830,
      "തിയെ": 1831,
      " നഗര": 1832,
      " ആയിരുന്നു": 1833,
      "ക്കാർ": 1834,
      " അവകാശ": 1835,
      " എത്തിയ": 1836,
      " കാരണ": 1837,
      " ഗാന്ധി": 1838,
      "ബന്ധിച്ച്": 1839,
      " കൊടു": 1840,
      " വന്നി": 1841,
      " ഗ്രൂ": 1842,
      ".പി": 1843,
      " പണം": 1844,
      "യുമായി": 1845,
      "നേരത്തെ": 1846,
      " ഇല്ല": 1847,
      "തിര": 1848,
      "ലപ്പുഴ": 1849,
      " മീഡിയ": 1850,
      " മികച്ച": 1851,
      "ാരി": 1852,
      " അവർ": 1853,
      "കളുടെ": 1854,
      " ലഭിച്ച": 1855,
      "റിന്": 1856,
      "മ്പി": 1857,
      " സ്ഥാപന": 1858,
      "ളിവ": 1859,
      "‍ജി": 1860,
      " എണ്ണം": 1861,
      " ഉണ്ടായി": 1862,
      "തിക": 1863,
      " സൂചന": 1864,
      "‌സി": 1865,
      " രാഹുല്": 1866,
      " സീറ്റ്": 1867,
      "ടം": 1868,
      "മിതി": 1869,
      "ിലി": 1870,
      " പരിപാ": 1871,
      " എന്നീ": 1872,
      " ലോക": 1873,
      "വെന്നും": 1874,
      "മ്പോൾ": 1875,
      " വോട്ട്": 1876,
      " നേരിട": 1877,
      " നാല്": 1878,
      " വിധ": 1879,
      " വഴ": 1880,
      "റിൽ": 1881,
      " റിപ്പോർട്ട്": 1882,
      " യുവ": 1883,
      " ക്ഷ": 1884,
      " താമ": 1885,
      " നേതൃത്വം": 1886,
      "േജ്": 1887,
      " അന്വേഷണം": 1888,
      " കണ്ടെത്ത": 1889,
      " കൂടുതൽ": 1890,
      "ക്കാര്": 1891,
      " മണിക്കൂ": 1892,
      "ട്ടുള്ളത്": 1893,
      " വിവാദ": 1894,
      "‍ഥ": 1895,
      "േഷൻ": 1896,
      " സാമ്പത്തിക": 1897,
      " സഹായ": 1898,
      " മഹാ": 1899,
      "40": 1900,
      " ജനറ": 1901,
      " തിരഞ്ഞെടുപ്പില്": 1902,
      " ചർച്ച": 1903,
      " ദേ": 1904,
      "യര്": 1905,
      "ങ്ങളില": 1906,
      "പ്പിക്കുന്ന": 1907,
      " ഇത്തവണ": 1908,
      "ത്തിനും": 1909,
      " കൊല": 1910,
      " ഹി": 1911,
      "വില": 1912,
      " കീ": 1913,
      "കളെ": 1914,
      " ഒഴ": 1915,
      "പ്പുറം": 1916,
      "തിനാല്": 1917,
      "വിധാന": 1918,
      "ാനം": 1919,
      "ഫി": 1920,
      "സിസി": 1921,
      "രിക്കാന്": 1922,
      " എംഎല്": 1923,
      " നാട്ട": 1924,
      " ലൈ": 1925,
      "ട്ടിൽ": 1926,
      "ീന": 1927,
      "ട്ടാണ്": 1928,
      "ിച്ചേ": 1929,
      " ബന്ധപ്പെട്ട": 1930,
      " അഞ്ച്": 1931,
      " വിദേശ": 1932,
      "‍ത്തക": 1933,
      " സംസ്ഥാനത്ത്": 1934,
      "ഷ്യല്": 1935,
      " ചെന്ന": 1936,
      "23": 1937,
      "ഇതിന്": 1938,
      "ട്ടുള്ള": 1939,
      " പട്ടിക": 1940,
      " ഉറപ്പ": 1941,
      "200": 1942,
      "യ്യ": 1943,
      "ങ്ക്": 1944,
      " രാശ": 1945,
      " വിമര്": 1946,
      "േസ്ബു": 1947,
      " ഇല്ലാ": 1948,
      "ഭ്യാ": 1949,
      " നൽകിയ": 1950,
      "ക്കുക": 1951,
      "പ്പെട്ടത്": 1952,
      "രിച്ചു": 1953,
      "നായി": 1954,
      " ഭൂ": 1955,
      "ാക്കി": 1956,
      " പൂർ": 1957,
      " തര": 1958,
      " ബാല": 1959,
      "പക്ഷേ": 1960,
      "ക്കെതിരെ": 1961,
      " പരീക്ഷ": 1962,
      " ലോക്": 1963,
      " നിരീക്ഷണ": 1964,
      " മുഴ": 1965,
      " പ്രവ": 1966,
      " പ്രതിരോധ": 1967,
      "മാക്കി": 1968,
      " വിദ്യ": 1969,
      " എൻ": 1970,
      "ുളള": 1971,
      " കാര്യം": 1972,
      "ക്ഷി": 1973,
      " ശിവ": 1974,
      " ജീവിത": 1975,
      " സുപ്ര": 1976,
      " കോഴിക്കോട്": 1977,
      " ഉദ്യോഗസ്ഥ": 1978,
      " അല്ല": 1979,
      " വിവാഹ": 1980,
      "ബര്": 1981,
      "പ്പറ": 1982,
      "രുദ്ധ": 1983,
      " ജില്ലയിലെ": 1984,
      " സംവിധാന": 1985,
      " പോലെ": 1986,
      "ിക്കുകയും": 1987,
      " നേടിയ": 1988,
      "േള": 1989,
      " നടത്തുന്ന": 1990,
      "ഇന്ന്": 1991,
      " നടക്കുന്ന": 1992,
      "ലക്ഷ": 1993,
      "ഷണ": 1994,
      " ഹൈക്കോ": 1995,
      "22": 1996,
      "വു": 1997,
      " ന്യൂ": 1998,
      "ക്കിയത്": 1999,
      "േയ": 2000,
      " വാങ്ങ": 2001,
      "പ്പിന്": 2002,
      " ചെല": 2003,
      "കളിൽ": 2004,
      " ജയ": 2005,
      " ല്": 2006,
      " ഇന്": 2007,
      "േണ്ടത്": 2008,
      " മൂന്ന": 2009,
      "പാല": 2010,
      "ട്ടെ": 2011,
      "ധികം": 2012,
      " ശതമാന": 2013,
      "ദ്ധി": 2014,
      "ോദ": 2015,
      " ഉന്നയി": 2016,
      "ഘാ": 2017,
      "ൻസ്": 2018,
      "ാവി": 2019,
      " അറസ്റ്റ്": 2020,
      " പരിഹ": 2021,
      " രംഗത്തെ": 2022,
      " ഒഴിവാ": 2023,
      " ഘട്ട": 2024,
      " ലക്ഷ്യ": 2025,
      "റണാകുളം": 2026,
      " മുമ്പ്": 2027,
      "തിരഞ്ഞെടു": 2028,
      "ജില്ല": 2029,
      "പ്പില്": 2030,
      " കുറിച്ച്": 2031,
      "േഴ്": 2032,
      "ർഷ": 2033,
      "യിരിക്കുന്നത്": 2034,
      "ഹമ്മദ്": 2035,
      "ഞ്ഞി": 2036,
      "ലിന്": 2037,
      "ത്തനം": 2038,
      "പ്പള്ളി": 2039,
      " ലെ": 2040,
      " നീക്ക": 2041,
      " \"": 2042,
      "പൊ": 2043,
      "േന": 2044,
      " ഞാൻ": 2045,
      " അമ്മ": 2046,
      " നിയമസഭാ": 2047,
      "ണ്ടെന്ന": 2048,
      "ദാ": 2049,
      " രജി": 2050,
      " പോയി": 2051,
      "യായിരുന്നു": 2052,
      " കമ്മീഷ": 2053,
      "ങ്കിലും": 2054,
      " ആശങ്ക": 2055,
      " സുര": 2056,
      "മര്": 2057,
      " ഇന്ന": 2058,
      " സംബന്ധിച്ച്": 2059,
      " ചൈന": 2060,
      " മാറ്റി": 2061,
      "ത്തിലൂടെ": 2062,
      " ഭാഗമായി": 2063,
      "ച്ചിരുന്നു": 2064,
      " തയ്യാറ": 2065,
      " മറ്റൊരു": 2066,
      "എന്": 2067,
      "ാള": 2068,
      " ചെയ്യാ": 2069,
      "പ്പിച്ചു": 2070,
      "ർക്ക": 2071,
      " നടപ്പ": 2072,
      "തില": 2073,
      " സിംഗ്": 2074,
      "‍പ്പെടെ": 2075,
      " സ്വര്": 2076,
      "മിഴ്": 2077,
      " പോരാ": 2078,
      "ൗണ്": 2079,
      " ഒറ്റ": 2080,
      " പ്രതിസ": 2081,
      " സുരേന്ദ്ര": 2082,
      " കാര്യങ്ങള്": 2083,
      "ടിക്ക": 2084,
      "ക്കൊ": 2085,
      " ൽ": 2086,
      "മെന്നും": 2087,
      "ിതി": 2088,
      "വിന്": 2089,
      " സംശ": 2090,
      " അമേരിക്ക": 2091,
      " തിര": 2092,
      " ഇനി": 2093,
      " എഫ്": 2094,
      "ണു": 2095,
      "ക്കാര": 2096,
      "മാന്": 2097,
      "ിലാള": 2098,
      " മാസം": 2099,
      "ാവും": 2100,
      " പേരാണ്": 2101,
      " പ്രിയ": 2102,
      " വിലയിരുത്ത": 2103,
      " എല്ലാവ": 2104,
      " സംബന്ധ": 2105,
      " പറഞ്ഞിരുന്നു": 2106,
      "ിത": 2107,
      " പീ": 2108,
      "യുണ്ട": 2109,
      " ശി": 2110,
      " ടീ": 2111,
      " നിലപാട്": 2112,
      " പരിഗണ": 2113,
      " അക": 2114,
      " ചെയ്തിരുന്നു": 2115,
      "ല്യ": 2116,
      "മത": 2117,
      " വരും": 2118,
      "രുന്നില്ല": 2119,
      "ിലോ": 2120,
      " അധികാര": 2121,
      " വികസ": 2122,
      "ജോ": 2123,
      "ങ്ങളിലെ": 2124,
      " മറുപടി": 2125,
      "തിൽ": 2126,
      "കണ്ണ": 2127,
      " കണക്ക": 2128,
      "ധന": 2129,
      "കേന്ദ്ര": 2130,
      " കൊറോണ": 2131,
      " അനുക": 2132,
      " ഇങ്ങനെ": 2133,
      "ശം": 2134,
      " രംഗത്ത്": 2135,
      "ദ്ര": 2136,
      " വന്": 2137,
      "‌ക": 2138,
      "രായി": 2139,
      "ദില്ലി": 2140,
      " ഇരു": 2141,
      "തിട്ട": 2142,
      " മുഖ": 2143,
      " ബെ": 2144,
      "മാണെന്ന്": 2145,
      " അല": 2146,
      " അപകട": 2147,
      "േദ": 2148,
      "ൂര": 2149,
      " ഫേസ്ബു": 2150,
      " ഏറെ": 2151,
      "ത്തനംതിട്ട": 2152,
      "26": 2153,
      " ലാ": 2154,
      "െടുക്ക": 2155,
      " ലഭ്യ": 2156,
      " നിയമസഭ": 2157,
      " ആഗ്രഹ": 2158,
      " എന്റെ": 2159,
      "ജ്ഞ": 2160,
      "ശേഷ": 2161,
      "പ്പെടുന്നത്": 2162,
      "ബ്ര": 2163,
      "സെ": 2164,
      " ബന്ധപ്പെട്ട്": 2165,
      " പങ്കുവ": 2166,
      "28": 2167,
      "പാത": 2168,
      " ദി": 2169,
      " പ്രസ്": 2170,
      " പുന": 2171,
      "ലില്": 2172,
      " നേട്ട": 2173,
      " നീക്കം": 2174,
      " അനുമതി": 2175,
      "യുണ്ട്": 2176,
      " പറയാ": 2177,
      "27": 2178,
      "‍ദേശ": 2179,
      "നത്തിന്": 2180,
      " ഭക്ഷ": 2181,
      " സ്വീകരിച്ച": 2182,
      " സ്വീക": 2183,
      " പോല": 2184,
      " കൊണ്ടുവ": 2185,
      " സന്ത": 2186,
      "ടുക്കി": 2187,
      "വ്വ": 2188,
      "ധിപ": 2189,
      "സീ": 2190,
      " നരേന്ദ്ര": 2191,
      " പ്രവർത്തി": 2192,
      "റ്റര്": 2193,
      "‍:": 2194,
      " കാലാവ": 2195,
      "പ്പിന്റെ": 2196,
      "‍ജ്": 2197,
      " യുവാ": 2198,
      " സംഭവം": 2199,
      " ചു": 2200,
      " വീട": 2201,
      " സർക്കാരി": 2202,
      "ടേയും": 2203,
      "ാനായി": 2204,
      " രാവിലെ": 2205,
      " ഓരോ": 2206,
      "ണിത്": 2207,
      " വിത": 2208,
      " ഭൂരി": 2209,
      "തെന്നാണ്": 2210,
      "ുകളെ": 2211,
      "യോടെ": 2212,
      " കമ": 2213,
      "ിയോ": 2214,
      " സമ്": 2215,
      "ഭ്യാസ": 2216,
      "ജീവ": 2217,
      "ർത്തി": 2218,
      " ബൈ": 2219,
      "‍ഹി": 2220,
      "മസ്": 2221,
      "‌കൂ": 2222,
      " സംഘം": 2223,
      " അധികൃത": 2224,
      " തുടങ്ങി": 2225,
      "‌.\n": 2226,
      "ുകാര": 2227,
      " പരാജയ": 2228,
      "ക്കേ": 2229,
      "വിന്റെ": 2230,
      "ക്കൂ": 2231,
      " സമിതി": 2232,
      " ഹൈക്കോടതി": 2233,
      " ആവശ്യം": 2234,
      " സമയത്ത്": 2235,
      "ത്തിറ": 2236,
      " മക": 2237,
      " അഭിപ്രായ": 2238,
      " ആരാ": 2239,
      "ലിന്റെ": 2240,
      " അടു": 2241,
      ".സി": 2242,
      "ഭരണ": 2243,
      "ൗര": 2244,
      " ആകെ": 2245,
      "ത്തേ": 2246,
      "നിര്": 2247,
      " ശക്തി": 2248,
      "000": 2249,
      " കൂട്ടിച്ചേ": 2250,
      " മണി": 2251,
      "ിട": 2252,
      "ല്ലോ": 2253,
      " പ്രകാരം": 2254,
      " മനസ്സ": 2255,
      " തകര്": 2256,
      "ത്തിനായി": 2257,
      " ആരോപണ": 2258,
      "21": 2259,
      "ലൈ": 2260,
      " നിയന്ത്രണ": 2261,
      "ട്ര": 2262,
      " എത്ര": 2263,
      " മുഴുവ": 2264,
      "ണോ": 2265,
      " സാമ": 2266,
      "ഇത്ത": 2267,
      " ജോര്": 2268,
      " രണ്ടാം": 2269,
      " പ്രവേശ": 2270,
      " എണ്ണ": 2271,
      " പിടി": 2272,
      "മുഖ്യമന്ത്രി": 2273,
      " ക്ഷേ": 2274,
      " എടുത്ത": 2275,
      " ചെയ്ത്": 2276,
      "യാള്": 2277,
      " എനിക്ക്": 2278,
      " മാത്രമേ": 2279,
      " ഡെ": 2280,
      "വരാണ്": 2281,
      " ചെയ്യുന്നത്": 2282,
      "ാരം": 2283,
      "എമ്മ": 2284,
      " താമസ": 2285,
      " പ്രക": 2286,
      " ഉണ്ടാക": 2287,
      "പ്പെടുത്തിയ": 2288,
      " കണ്ടെത്തി": 2289,
      " ഗാന്ധ": 2290,
      " നിറ": 2291,
      "കൂട": 2292,
      " ദിലീ": 2293,
      " കരുത": 2294,
      " രാത്രി": 2295,
      "ഴ്ച്ച": 2296,
      " അനുകൂല": 2297,
      "‍ത്തകര്": 2298,
      " ഔ": 2299,
      "എഫ്": 2300,
      "ച്ഛ": 2301,
      " പദ": 2302,
      " ഉദ്യോഗ": 2303,
      " ഇടപെട": 2304,
      " എന്നത്": 2305,
      " അനുഭവ": 2306,
      "‍ക്കാണ്": 2307,
      " യുഡിഎഫ്": 2308,
      "നിക്ക": 2309,
      " സുധാക": 2310,
      " സഹായി": 2311,
      " സുപ്രീം": 2312,
      "എഇ": 2313,
      "തൊരു": 2314,
      "ിക്കണം": 2315,
      " പ്രതികരണം": 2316,
      " ചുമതല": 2317,
      " പറയുന്ന": 2318,
      " കൈമാ": 2319,
      "രുത്": 2320,
      " വെളി": 2321,
      " സ്ത്രീക": 2322,
      " പറ്റ": 2323,
      " ഓഫ്": 2324,
      " പിന്നീട്": 2325,
      " അടക്കം": 2326,
      "ൈല": 2327,
      " ഉണ്ട്": 2328,
      "വെന്ന്": 2329,
      "ന്ദു": 2330,
      "ത്തല": 2331,
      " ഉത്ത": 2332,
      "ുകളിലും": 2333,
      " ഫി": 2334,
      "ക്ടർ": 2335,
      "തുമ": 2336,
      " സ്വകാര്യ": 2337,
      "യിലുള്ള": 2338,
      " അവിടെ": 2339,
      "ുംബൈ": 2340,
      " ഭീഷ": 2341,
      " ലഭിക്കും": 2342,
      "ബിജെപി": 2343,
      "മാണെന്നും": 2344,
      " സാഹചര്യത്തില്": 2345,
      " പേരും": 2346,
      " വാഹന": 2347,
      "ഗത": 2348,
      " ശു": 2349,
      " നടക്ക": 2350,
      " നേടി": 2351,
      "വർക്ക്": 2352,
      "ശ്വാസ": 2353,
      " സ്ഥാനാർത്ഥ": 2354,
      "യറ": 2355,
      "ലിം": 2356,
      " ജോസ": 2357,
      " ഫലം": 2358,
      " സമൂഹ": 2359,
      " മുന്നറിയി": 2360,
      " വിദ്യാര്": 2361,
      "ത്തിനു": 2362,
      "‍ശന": 2363,
      "ആർ": 2364,
      " പ്ല": 2365,
      " തൃശ": 2366,
      "ത്തോളം": 2367,
      " ജൂ": 2368,
      "യ്ക്കും": 2369,
      " ഭാര്യ": 2370,
      " അഞ്ച": 2371,
      " പുതു": 2372,
      " ഇന്ത്യന്": 2373,
      " കൃത്യ": 2374,
      "രാന്": 2375,
      " നാല": 2376,
      "ിക്കറ്റ്": 2377,
      " മെഡിക്കല്": 2378,
      " മനു": 2379,
      "60": 2380,
      " എൽ": 2381,
      " ഉമ്മ": 2382,
      "രിക്കുന്നു": 2383,
      " ദൃ": 2384,
      "ബോ": 2385,
      "ീല": 2386,
      " പൊലീ": 2387,
      " ഡ്ര": 2388,
      "എൽ": 2389,
      " തൊ": 2390,
      "സിലെ": 2391,
      " ഭാര": 2392,
      " താഴ": 2393,
      " സൃ": 2394,
      "ിച്ചാണ്": 2395,
      " തിരുവനന്തപുരം": 2396,
      "രാല": 2397,
      " ആദ്യം": 2398,
      "േറെ": 2399,
      "ക്യൂ": 2400,
      " പശ്ച": 2401,
      " തെളിവ": 2402,
      " കണ്ണൂര്": 2403,
      "കുന്ന": 2404,
      " മുന്നോട്ട്": 2405,
      " കമ്മിറ്റി": 2406,
      "സ്ര": 2407,
      " മത്സര": 2408,
      "ീകരണ": 2409,
      "ിച്ചിരിക്കുന്നത്": 2410,
      "ുമാ": 2411,
      "ശ്ശേരി": 2412,
      "പേ": 2413,
      "ഷൻ": 2414,
      "എല്ലാ": 2415,
      " സംരക്ഷ": 2416,
      " പക": 2417,
      " പ്രസ": 2418,
      "ൂരില്": 2419,
      "ഭ്യ": 2420,
      "അതുകൊണ്ട്": 2421,
      " സൈ": 2422,
      "ക്കുകയും": 2423,
      " വിജയം": 2424,
      " കല": 2425,
      "സ്ത്ര": 2426,
      " ഇര": 2427,
      "സ്റ്റര്": 2428,
      "ക്കര": 2429,
      "ിയാ": 2430,
      "ർക്കം": 2431,
      " വോ": 2432,
      "‍മ്മ": 2433,
      " ജീവ": 2434,
      "റിനെ": 2435,
      " രൂക്ഷ": 2436,
      "നുള്ള": 2437,
      "രണ്ട്": 2438,
      "വല": 2439,
      " നമ്പ": 2440,
      "ന്ത്രാല": 2441,
      " എഴു": 2442,
      " താന്": 2443,
      " മലയാള": 2444,
      "തായും": 2445,
      "മറ": 2446,
      " പശ്ചാത്ത": 2447,
      "താവന": 2448,
      "ക്കുറിച്ച്": 2449,
      " ജയി": 2450,
      " കേസില്": 2451,
      "തിനുള്ള": 2452,
      "‍ജ": 2453,
      "തുടര്": 2454,
      "ുകാ": 2455,
      " സമര": 2456,
      " നടത്തിയത്": 2457,
      " സുരേഷ്": 2458,
      "29": 2459,
      " വനി": 2460,
      " എറണാകുളം": 2461,
      " മാറ": 2462,
      " കസ്റ്റ": 2463,
      " ആശുപത്രിയില്": 2464,
      "െന്നായിരുന്നു": 2465,
      "‍-": 2466,
      "പ്റ്റ": 2467,
      " ഇപ്പോൾ": 2468,
      " ഷോ": 2469,
      " ധന": 2470,
      " ഉൾപ്പെടെ": 2471,
      " കീഴ": 2472,
      "അദ്ദേഹ": 2473,
      " ലഭിക്ക": 2474,
      "ക്കട": 2475,
      " സാധിക്ക": 2476,
      " ഗുരു": 2477,
      " സ്ത്രീ": 2478,
      "‍മാര്": 2479,
      "പ്രവര്": 2480,
      " തെളി": 2481,
      " ഹാജ": 2482,
      " ആയ": 2483,
      " ആവശ്യപ്പെട്ടു": 2484,
      "ഘോഷ": 2485,
      "വരും": 2486,
      " അമി": 2487,
      "സംഭവ": 2488,
      "ായിരിക്കും": 2489,
      "രാമ": 2490,
      "സംഘ": 2491,
      "നാട്ട": 2492,
      "ചന്ദ്ര": 2493,
      " താല്": 2494,
      " ഗ്രാമ": 2495,
      " ആത്മ": 2496,
      " ആലപ്പുഴ": 2497,
      " ഏക": 2498,
      " വിഭാഗം": 2499,
      " കുറഞ്ഞ": 2500,
      "നോട്": 2501,
      " വിട്ട": 2502,
      "സില": 2503,
      " വെച്ച്": 2504,
      "ിനെ": 2505,
      "ത്തം": 2506,
      "പ്പിച്ചത്": 2507,
      "വ്യ": 2508,
      "ാടക": 2509,
      " ചരി": 2510,
      "ത്തിനുള്ള": 2511,
      "െല്ലാം": 2512,
      " കടുത്ത": 2513,
      " സമാ": 2514,
      " ദുര": 2515,
      " വിമർശ": 2516,
      " ഹെ": 2517,
      " സുഹൃ": 2518,
      "ഇതു": 2519,
      "നീ": 2520,
      " ചെയ്യും": 2521,
      " നേട": 2522,
      "35": 2523,
      " അര്": 2524,
      "‍ക്കുന്ന": 2525,
      "സ്തു": 2526,
      " ഹോ": 2527,
      " പശ്ചാത്തല": 2528,
      "റ്റില്": 2529,
      " ഭൂരിപക്ഷ": 2530,
      "വാണ്": 2531,
      "ടൊപ്പം": 2532,
      " പതി": 2533,
      " ബിഗ്": 2534,
      "‍കുന്ന": 2535,
      "രിച്ചത്": 2536,
      "ൂര്യ": 2537,
      "വുമ": 2538,
      "നാൽ": 2539,
      "ൃതദേഹ": 2540,
      "തിരായ": 2541,
      " ജാമ": 2542,
      " എന്നതാണ്": 2543,
      " ഇത്തര": 2544,
      " തൊഴിലാള": 2545,
      ".എസ്": 2546,
      "എന്ത": 2547,
      " ഫല": 2548,
      " മുഹമ്മദ്": 2549,
      " കഴി": 2550,
      "വസ്ഥ": 2551,
      "‍വീ": 2552,
      " യുഡിഎഫ": 2553,
      "റ്റു": 2554,
      "നിയും": 2555,
      " രണ്ടു": 2556,
      " കോട്ടയം": 2557,
      " കെട്ടി": 2558,
      " പ്രസ്താവന": 2559,
      "വ്ര": 2560,
      " പുറത്തുവ": 2561,
      "ോഭ": 2562,
      " മത": 2563,
      " അഭിന": 2564,
      "ക്കാല": 2565,
      "ാതി": 2566,
      "ിച്ചും": 2567,
      "പിന്നീട്": 2568,
      "പ്പിച്ച്": 2569,
      " ആരോപണം": 2570,
      " തമിഴ്": 2571,
      "മാക്ക": 2572,
      " മോഹ": 2573,
      "പാര്": 2574,
      "100": 2575,
      "ആദ്യ": 2576,
      "ശാല": 2577,
      " പ്രായ": 2578,
      "ധിച്ച്": 2579,
      "നങ്ങൾ": 2580,
      "വരി": 2581,
      " ഉദ്യോഗസ്ഥ": 2582,
      "45": 2583,
      "‍ഡി": 2584,
      "േക്കുള്ള": 2585,
      "ഡോ": 2586,
      "ിത്തല": 2587,
      "ലോക": 2588,
      " ഫെ": 2589,
      "കരണ": 2590,
      "താവ്": 2591,
      " പെണ്": 2592,
      "്യത": 2593,
      "ത്വം": 2594,
      " നയി": 2595,
      "ന്നിരുന്നു": 2596,
      "ഭാവ": 2597,
      " എന്നിവിട": 2598,
      " സ്വപ്": 2599,
      "‍വേ": 2600,
      " എംപി": 2601,
      " വൈറസ്": 2602,
      "ളു": 2603,
      " ലീഗ്": 2604,
      " സന്തോഷ": 2605,
      "ബർ": 2606,
      " കോടിയ": 2607,
      " കുറി": 2608,
      "വിനെ": 2609,
      "‍ത്തന": 2610,
      "ഇതില്": 2611,
      "യർ": 2612,
      "സൈ": 2613,
      " നടപടിയ": 2614,
      " അദ്ദേഹത്തിന്റെ": 2615,
      "‍ത്ഥി": 2616,
      " ഇത്തരം": 2617,
      "‍.": 2618,
      "ാനെ": 2619,
      " ഒന്നും": 2620,
      " കൊല്ലം": 2621,
      " ദൃശ്യ": 2622,
      "ാവ്": 2623,
      "‌സിന്": 2624,
      "ന്നെ": 2625,
      " പേര": 2626,
      " പാലക്കാട്": 2627,
      " സൃഷ്ട": 2628,
      "സൂ": 2629,
      " പുറത്തിറ": 2630,
      "മ്പോഴ": 2631,
      "നാഥ്": 2632,
      ")\n": 2633,
      "പീ": 2634,
      "റിഞ്ഞ": 2635,
      " ദില്ലി": 2636,
      " നവ": 2637,
      "ന്യൂ": 2638,
      "വാക്": 2639,
      " അഖ": 2640,
      "കര്യ": 2641,
      "ലിക്ക": 2642,
      " മുന്നില്": 2643,
      "കൊച്ചി": 2644,
      " എന്നായിരുന്നു": 2645,
      "ത്യാ": 2646,
      "‍ക്കെതിരെ": 2647,
      "ല്ലാത്ത": 2648,
      " ചെറിയ": 2649,
      "ിയായി": 2650,
      " തെറ്റ": 2651,
      "ഗു": 2652,
      "മാറ്റ": 2653,
      " മാറി": 2654,
      " തോന്ന": 2655,
      " സോഷ്യല്": 2656,
      "‍ഗ്രസിന്": 2657,
      "ച്ചിട്ടുണ്ട്": 2658,
      " സഹോദ": 2659,
      "ൈനിക": 2660,
      "മൊരു": 2661,
      "ക്കുറ": 2662,
      " റഷ്യ": 2663,
      " ആന": 2664,
      " വാർത്ത": 2665,
      " വിദ്യാഭ്യാസ": 2666,
      " ഒഴിവ": 2667,
      "രത്ത്": 2668,
      "ാള്": 2669,
      "‍ക്കാരിന്റെ": 2670,
      " രംഗത്തെത്തി": 2671,
      " കരാ": 2672,
      " സ്വാധ": 2673,
      "ഗം": 2674,
      " കിട്ട": 2675,
      "ംസ്": 2676,
      "രിപ്പിക്ക": 2677,
      "ഹരി": 2678,
      "‍കു": 2679,
      " കന": 2680,
      "ത്രയും": 2681,
      " ഹര്": 2682,
      " പുറത്തു": 2683,
      " കുമാര്": 2684,
      "ൗണ്ട": 2685,
      "ണമെന്നാണ്": 2686,
      " ഗെ": 2687,
      " പുല": 2688,
      " മാത്രമല്ല": 2689,
      " യോഗം": 2690,
      "ധിപത്യ": 2691,
      " സത്യ": 2692,
      "തന്ത്ര": 2693,
      "ിവെ": 2694,
      " സമ്പർക്കം": 2695,
      "പല": 2696,
      "യിലൂടെ": 2697,
      " കോളേജ": 2698,
      "ഭ്യന്തര": 2699,
      " ഭാ": 2700,
      "ിക്കാം": 2701,
      " മുമ്പ": 2702,
      "ീര്": 2703,
      " പാർട്ട": 2704,
      "പോലെ": 2705,
      "ഭി": 2706,
      " രാജ്യത്ത്": 2707,
      "ല്ലാതെ": 2708,
      "ഭാഷ": 2709,
      "വം": 2710,
      "ുതി": 2711,
      " സമ്മേള": 2712,
      "മിക": 2713,
      "ായേ": 2714,
      "ഇവിടെ": 2715,
      " റൂ": 2716,
      "കോഴിക്കോട്": 2717,
      " സ്വന്തം": 2718,
      " ചെന്നിത്തല": 2719,
      " വികസന": 2720,
      " കണ്": 2721,
      " ട്രെ": 2722,
      " സൗദി": 2723,
      " സെന്റ": 2724,
      "ലാണ്": 2725,
      "ുകാര്": 2726,
      " മുരള": 2727,
      "കുതി": 2728,
      " ഉള്ളത്": 2729,
      " സ്ഥിരീകരിച്ചത്": 2730,
      "ർക്ക്": 2731,
      " മുതി": 2732,
      " സാമൂഹ": 2733,
      "പുതിയ": 2734,
      " കിലോ": 2735,
      " ക്രി": 2736,
      " നടന്നത്": 2737,
      " വന്നു": 2738,
      " പെരു": 2739,
      " മനുഷ്യ": 2740,
      "മെന്ന": 2741,
      "സിയ": 2742,
      " ഡയറ": 2743,
      " പോകുന്ന": 2744,
      "ാനാവ": 2745,
      " ആവശ്യപ്പെട്ടി": 2746,
      " സന്ദര്": 2747,
      " ജനറല്": 2748,
      "യിരിക്കുകയാണ്": 2749,
      " സ്ഥിതി": 2750,
      " ആറ്": 2751,
      " പുരു": 2752,
      "31": 2753,
      " നിൽ": 2754,
      "ീധ": 2755,
      " അഭ്യ": 2756,
      "റന്": 2757,
      " കേന്ദ്രം": 2758,
      " കര": 2759,
      " തനിക്ക്": 2760,
      " ചന്ദ്ര": 2761,
      "ിച്ചുള്ള": 2762,
      "െടുത്ത്": 2763,
      " വകുപ്പ": 2764,
      "യിട": 2765,
      "ിക്കൊ": 2766,
      " ചെയ്യാന്": 2767,
      " ക്ലാ": 2768,
      " ഇക്കാര്യം": 2769,
      " ഊ": 2770,
      " പത്തനംതിട്ട": 2771,
      "രിക്കാൻ": 2772,
      " എന്നിവര്": 2773,
      "നിയമ": 2774,
      "തുപക്ഷ": 2775,
      " അധ": 2776,
      " അടിയ": 2777,
      "വാദി": 2778,
      " ഫ്ര": 2779,
      "‍ധ": 2780,
      "പാട്": 2781,
      " പക്ഷ": 2782,
      " വീട്ടില്": 2783,
      "രുമായി": 2784,
      " പേരെ": 2785,
      " ലഭിച്ചത്": 2786,
      " പ്രതിസന്ധി": 2787,
      " ജില്ലകള": 2788,
      " നിർദ്ദേശ": 2789,
      " കൊച്ചി": 2790,
      "ിച്ചിട്ടില്ല": 2791,
      "പ്പെടുന്നു": 2792,
      " രാമ": 2793,
      " പറഞ്ഞ്": 2794,
      " കുമാ": 2795,
      " അവസ്ഥ": 2796,
      "ലീം": 2797,
      " കേരളത്തില്": 2798,
      " പ്രചാരണ": 2799,
      " വെച്ച": 2800,
      " എല്ലാം": 2801,
      "മാരുടെ": 2802,
      "ത്താവ": 2803,
      " തദ്ദേശ": 2804,
      " ഇടുക്കി": 2805,
      "ുകൂ": 2806,
      " തിരി": 2807,
      "ധിത": 2808,
      " കേരളം": 2809,
      " കിട": 2810,
      " ബോസ്": 2811,
      "പഞ്ച": 2812,
      " ബംഗ": 2813,
      " കോര്": 2814,
      "ഹിത": 2815,
      "ൊക്ക": 2816,
      " സമര്": 2817,
      " നേതാക്കൾ": 2818,
      " അറസ്റ്റ": 2819,
      " നിക്ഷേപ": 2820,
      " കോട": 2821,
      "മതി": 2822,
      " സ്വീകരിക്ക": 2823,
      "കൊവിഡ്": 2824,
      " നിലപാട": 2825,
      " വർഷം": 2826,
      " യി": 2827,
      "ങ്കില്": 2828,
      "തിനും": 2829,
      "ഗതി": 2830,
      " ശേഷമാണ്": 2831,
      " പിടിച്ച": 2832,
      " നമ്മുടെ": 2833,
      "ലു": 2834,
      " സജീവ": 2835,
      " വിപ": 2836,
      " സൈനിക": 2837,
      "ത്തിയാ": 2838,
      " വിരുദ്ധ": 2839,
      "അതിന്": 2840,
      "ജ്ജ": 2841,
      " അടക്കമുള്ള": 2842,
      "‍ഫ": 2843,
      "ങ്ങാ": 2844,
      " ഒരിക്ക": 2845,
      " കാലാവസ്ഥ": 2846,
      " വിട": 2847,
      "‍ഷക": 2848,
      "നിലവില്": 2849,
      " ആക്രമണ": 2850,
      "ല്ലുവി": 2851,
      "രെയും": 2852,
      "ുമു": 2853,
      " ബാബു": 2854,
      "ക്കണം": 2855,
      " വിട്ടു": 2856,
      " വന്നത്": 2857,
      "‍ന്നു": 2858,
      " പരിച": 2859,
      " പഞ്ചായത്ത്": 2860,
      "ിട്ടുണ്ട്": 2861,
      " താരം": 2862,
      "പിയുടെ": 2863,
      "ുകളില": 2864,
      " നിരക്ക്": 2865,
      "പരമായ": 2866,
      "‌റ്റ": 2867,
      "ൊന്ന": 2868,
      "ക്കില്": 2869,
      "‍കിയത്": 2870,
      "ടനം": 2871,
      " കടന്ന": 2872,
      "ാറ്റ": 2873,
      "ദന": 2874,
      " മൃതദേഹ": 2875,
      "‍ഗ്രസിന്റെ": 2876,
      " മന്ത്രാല": 2877,
      "ാവുന്ന": 2878,
      "80": 2879,
      "70": 2880,
      " അബ്": 2881,
      "രുന്ന്": 2882,
      "ന്ദി": 2883,
      "ുപോ": 2884,
      " ഇൻ": 2885,
      " മോദ": 2886,
      "പ്പിൽ": 2887,
      " ട്രം": 2888,
      "നട": 2889,
      " സഞ്ച": 2890,
      " സമ്പര്": 2891,
      "ദ്ഘാ": 2892,
      " പോസ്റ്റ": 2893,
      " നിന്നാണ്": 2894,
      " യുവതി": 2895,
      "രൻ": 2896,
      "ികൾക്ക്": 2897,
      " ചീ": 2898,
      " അംഗീക": 2899,
      "ോട്ടോ": 2900,
      "‍ദ്ദേശ": 2901,
      "സ്വാ": 2902,
      " മലപ്പുറം": 2903,
      " കമ്പന": 2904,
      "തെങ്കിലും": 2905,
      "റുടെ": 2906,
      " അഡ്": 2907,
      " തിരു": 2908,
      "മേശ്": 2909,
      "‍ത്തിയാ": 2910,
      "ുമുള്ള": 2911,
      "ികളാണ്": 2912,
      " അക്രമ": 2913,
      "ക്കിന്": 2914,
      "ാസ": 2915,
      "ശ്ചി": 2916,
      "ഗ്ദ": 2917,
      " സാധിക്കും": 2918,
      " സൗകര്യ": 2919,
      "ക്ട്": 2920,
      "മാകും": 2921,
      "വാസം": 2922,
      " ഉണ്ടായ": 2923,
      " ചിത്രം": 2924,
      "ീകരണം": 2925,
      "ഡല്": 2926,
      "ങ്ങനെയാണ്": 2927,
      " ചൊ": 2928,
      " കാര": 2929,
      "ാണ്ടി": 2930,
      "ുകൊണ്ടാണ്": 2931,
      " തോമസ്": 2932,
      "ടേ": 2933,
      "ുമ്പോള്": 2934,
      " ജാഗ്ര": 2935,
      " അമിത്": 2936,
      "ർഡ്": 2937,
      " നേരിട്ട്": 2938,
      " സതീ": 2939,
      " നമു": 2940,
      " സംഘടി": 2941,
      "ാണെന്ന്": 2942,
      "ത്തോട്": 2943,
      " ക്വാ": 2944,
      "സിപി": 2945,
      "രേയും": 2946,
      " കാലത്ത്": 2947,
      " ഫ്": 2948,
      "ളും": 2949,
      "‌പെ": 2950,
      " പ്രിയങ്ക": 2951,
      "സ്രായേ": 2952,
      "റുകള്": 2953,
      " രൂപയാണ്": 2954,
      " സാധാരണ": 2955,
      " വിദ്യാർത്ഥ": 2956,
      "തായിരുന്നു": 2957,
      " സന്": 2958,
      " ബുദ്ധി": 2959,
      "ദായ": 2960,
      "റ്റർ": 2961,
      "ന്തി": 2962,
      "കും": 2963,
      " തുക": 2964,
      "ിക്കാനുള്ള": 2965,
      "ട്ടത്": 2966,
      " ആഭ്യന്തര": 2967,
      "‍ത്തു": 2968,
      " പ്രവേശി": 2969,
      " ഭയ": 2970,
      " യുഎഇ": 2971,
      "കലാ": 2972,
      "ത്തിനെ": 2973,
      "ത്താണ്": 2974,
      " എന്നെ": 2975,
      "നാധിപത്യ": 2976,
      " എന്ത്": 2977,
      "മിന": 2978,
      " സിപിഎമ്മ": 2979,
      " സംസാരിക്ക": 2980,
      " ഹാജരാ": 2981,
      "ഇനി": 2982,
      "ൈസ": 2983,
      " ഇള": 2984,
      " വെല്ലുവി": 2985,
      "ൽഹി": 2986,
      "ികെ": 2987,
      "ല്ലേ": 2988,
      " കൂടെ": 2989,
      " ഞെ": 2990,
      "ങ്ങനെയ": 2991,
      "സരിച്ച്": 2992,
      " പദവി": 2993,
      "തന്ത്": 2994,
      " വരാ": 2995,
      " ഇവ": 2996,
      "േഷന": 2997,
      " വൃ": 2998,
      "കൂടാതെ": 2999,
      " കേരളത്തിലെ": 3000,
      " ലം": 3001,
      " നോട്ട": 3002,
      " അക്ക": 3003,
      "ികൂ": 3004,
      " ചെയ്യുന്നു": 3005,
      " ഇപ്പോഴും": 3006,
      " പോസി": 3007,
      "രമ": 3008,
      " വേണം": 3009,
      " അധ്യക്ഷന്": 3010,
      " എത്തിയത്": 3011,
      " രാശി": 3012,
      "തിനു": 3013,
      " ലക്ഷ്യം": 3014,
      " ദിന": 3015,
      " അവത": 3016,
      "ഴയ": 3017,
      " ആന്": 3018,
      " ആഘോഷ": 3019,
      " വിച": 3020,
      " മാർ": 3021,
      " പരിപാടി": 3022,
      "രാഹു": 3023,
      "ോക്": 3024,
      "യിട്ടില്ല": 3025,
      "മായാണ്": 3026,
      " പ്രോ": 3027,
      "ാലോ": 3028,
      " തുടങ്ങ": 3029,
      " ഭീഷണി": 3030,
      "രാജ്": 3031,
      " സ്വർ": 3032,
      " കഴിയുന്ന": 3033,
      "ണ്ടെന്നാണ്": 3034,
      " യെ": 3035,
      " സീസ": 3036,
      "റിലെ": 3037,
      "േക്കാ": 3038,
      " മറ്റു": 3039,
      "‍ഹ": 3040,
      " ശമ്പ": 3041,
      " സ്വയം": 3042,
      "ടക്കം": 3043,
      "കോടതി": 3044,
      " ഇന്ത്യൻ": 3045,
      "ത്യം": 3046,
      "ിക്കുകയാണ്": 3047,
      " ഉണ്ടായിരുന്നു": 3048,
      " മുന്നോ": 3049,
      "മെന്റ": 3050,
      " അവസര": 3051,
      "ജറാ": 3052,
      "രോട്": 3053,
      "‍കുട്ട": 3054,
      " ഔദ്യ": 3055,
      "ളൂ": 3056,
      " നായ": 3057,
      " പേരില്": 3058,
      "ീകരിച്ച്": 3059,
      "പ്രധാന": 3060,
      " അത": 3061,
      " ചാ": 3062,
      " മുരളീധ": 3063,
      "ിക്കാത്ത": 3064,
      "ഗോഡ്": 3065,
      " ഡ്രൈ": 3066,
      " ഉദ്ഘാ": 3067,
      " റാ": 3068,
      "ികളില്": 3069,
      "ട്ടോ": 3070,
      " സ്ഥാനം": 3071,
      " ആരോപിച്ചു": 3072,
      " ചികിത്സയില": 3073,
      "പതി": 3074,
      " മധ്യ": 3075,
      " തീര്": 3076,
      "നേഹ": 3077,
      " ട്രെയി": 3078,
      " നടക്കുന്നത്": 3079,
      " ബിജെപിയുടെ": 3080,
      "36": 3081,
      " നയ": 3082,
      " തള്ള": 3083,
      "െടുത്തി": 3084,
      "കാര്": 3085,
      " സെക്രട്ടറിയ": 3086,
      " പരസ്യ": 3087,
      "പ്തി": 3088,
      " ഇന്റ": 3089,
      " നിങ്ങള്": 3090,
      " പാട": 3091,
      " അന്ത": 3092,
      "ഇന്ന": 3093,
      " ചടങ്ങ": 3094,
      " വിളി": 3095,
      " ചരിത്ര": 3096,
      " പണ": 3097,
      "കളാണ്": 3098,
      " മുന്നറിയിപ്പ്": 3099,
      " നൂ": 3100,
      " ആരാധ": 3101,
      "ചില": 3102,
      " തീവ്ര": 3103,
      "ാമത്തെ": 3104,
      " പോസ്റ്റ്": 3105,
      "48": 3106,
      "ടുവ": 3107,
      " ലഭിക്കുന്ന": 3108,
      "മൂന്ന്": 3109,
      "പിച്ച്": 3110,
      " പ്രതിനി": 3111,
      " ലംഘ": 3112,
      " അര": 3113,
      "ത്തിനെതിരെ": 3114,
      " ചാന": 3115,
      "നിട": 3116,
      " ഫാ": 3117,
      " ഡോള": 3118,
      " ശ്രമം": 3119,
      " രാജ്യത്തെ": 3120,
      " കൊലപാത": 3121,
      " മനോ": 3122,
      "ടിച്ച്": 3123,
      " ക്രമ": 3124,
      " പട": 3125,
      " മാറ്റം": 3126,
      "ഞ്ജ": 3127,
      " പ്രതിഷേധം": 3128,
      "‍ണ്ണ": 3129,
      "ിക്കറ്റ": 3130,
      "നത്തില്": 3131,
      "മം": 3132,
      "തിനിടെ": 3133,
      "രിക്കണം": 3134,
      " ജനങ്ങള്": 3135,
      " പ്രവച": 3136,
      " ദുരന്ത": 3137,
      "വള": 3138,
      "വാന്": 3139,
      " വ്യാജ": 3140,
      " ഫോണ": 3141,
      " ജോസഫ്": 3142,
      " പുരോഗ": 3143,
      " വീതം": 3144,
      " അവസരം": 3145,
      " വയനാട്": 3146,
      " പിടികൂ": 3147,
      " തസ്": 3148,
      "വരില്": 3149,
      " ഉച്ച": 3150,
      "‍ന്നാണ്": 3151,
      "ജ്യ": 3152,
      "ണ്ണി": 3153,
      "െത്തിയ": 3154,
      " മട": 3155,
      "ങ്ങളായി": 3156,
      "കോവിഡ്": 3157,
      " ചോദിച്ചു": 3158,
      " വിവരങ്ങള്": 3159,
      " മുസ്ലിം": 3160,
      "റാം": 3161,
      "സ്സ്": 3162,
      "ിക്കുകയായിരുന്നു": 3163,
      " സംബന്ധിച്ച": 3164,
      " വരുന്നത്": 3165,
      "ുകയാണെന്നും": 3166,
      " വരിക": 3167,
      " നിന്നു": 3168,
      " ലീഗ": 3169,
      "ുകയാണ": 3170,
      " ഇഷ്ട": 3171,
      " ഏര്": 3172,
      "വകു": 3173,
      " തരം": 3174,
      " ഞങ്ങള്": 3175,
      "ഷ്യൽ": 3176,
      " കൂടിയാണ്": 3177,
      " സമ്മാന": 3178,
      " തെളിയി": 3179,
      "മന": 3180,
      " വിമാനത്താവ": 3181,
      "ട്ടുണ്ടെന്നും": 3182,
      " യോഗ്യത": 3183,
      " ജീവനക്കാ": 3184,
      " കസ്റ്റഡി": 3185,
      "ങ്ങ്": 3186,
      " രീതിയില്": 3187,
      " ഗുരുതര": 3188,
      "ഇക്കാ": 3189,
      " ഉടമ": 3190,
      "പൂര്": 3191,
      "മ്മാ": 3192,
      " പേരുടെ": 3193,
      " ബന്ധം": 3194,
      "‌ക്": 3195,
      " കലാ": 3196,
      " മത്സരിക്ക": 3197,
      " കൂടിക്കാ": 3198,
      "34": 3199,
      " നടത്തുന്നത്": 3200,
      " രാശിക്കാ": 3201,
      "‍ദേശം": 3202,
      " കഥ": 3203,
      " സൂര്യ": 3204,
      " ഗ്": 3205,
      " ചെയ്തിട്ടുണ്ട്": 3206,
      " പ്രസംഗ": 3207,
      " ഇക്കാര്യ": 3208,
      "ന്യ": 3209,
      " സാഹചര്യം": 3210,
      " ബീ": 3211,
      " വാക്ക": 3212,
      " ആലോ": 3213,
      "താക്കള": 3214,
      " കണ്ടു": 3215,
      " മദ്യ": 3216,
      "മാൻ": 3217,
      "യാൾ": 3218,
      " പ്രമുഖ": 3219,
      "കുമാ": 3220,
      " സമു": 3221,
      "ുന്നതിന്": 3222,
      " ഭേദ": 3223,
      "ദീ": 3224,
      "‍ച്ച്": 3225,
      "ട്രോ": 3226,
      "നുവരി": 3227,
      " വിതരണം": 3228,
      "ഇത്തവണ": 3229,
      "മെന്നാണ്": 3230,
      " നികുതി": 3231,
      " ഓര്": 3232,
      "‍ണാടക": 3233,
      "ാബ്": 3234,
      " ജയില": 3235,
      "ശ്മീ": 3236,
      "ാസ്ത്ര": 3237,
      " എതിര്": 3238,
      " തിരഞ്ഞെടുപ്പിൽ": 3239,
      "ലിൽ": 3240,
      "ിക്കേണ്ട": 3241,
      " ബ്ര": 3242,
      "ികളായ": 3243,
      " തയ്യാറാ": 3244,
      "ിക്കാര്": 3245,
      " ഉണ്ടാവ": 3246,
      " രൂപയുടെ": 3247,
      " മണ്ഡലം": 3248,
      " സ്ഥിരീകരിച്ചു": 3249,
      " ഉണ്ടാ": 3250,
      " ആളുകള്": 3251,
      "സഹ": 3252,
      "ലോക്ക്": 3253,
      "തെന്ന": 3254,
      " പരിക്ക": 3255,
      "ടുള്ള": 3256,
      " അവസാനി": 3257,
      "അപ": 3258,
      " മരണം": 3259,
      "‍ത്ഥികള്": 3260,
      "സംസ്ഥാനത്ത്": 3261,
      ".എം": 3262,
      "ുമില്ല": 3263,
      "കോട്ട": 3264,
      "തിനാൽ": 3265,
      " ആരും": 3266,
      "ങ്ങളോട്": 3267,
      "ങ്കള": 3268,
      " മെഡിക്കൽ": 3269,
      " സതീശ": 3270,
      " വഹ": 3271,
      "ത്തിനിടെ": 3272,
      " തള്ളി": 3273,
      "ിക്കുന്നുണ്ട്": 3274,
      " കൊടുത്ത": 3275,
      " വാദ": 3276,
      " ആം": 3277,
      " സൂക്ഷ": 3278,
      "തന്റെ": 3279,
      "മാരെ": 3280,
      " വിശ്വസ": 3281,
      "ിച്ചിരിക്കുകയാണ്": 3282,
      " വൈക": 3283,
      "ശു": 3284,
      " തട്ടി": 3285,
      "തോടെയാണ്": 3286,
      "38": 3287,
      "ഴിമതി": 3288,
      " ട്ര": 3289,
      "പുരം": 3290,
      "75": 3291,
      " മേധ": 3292,
      "രിത": 3293,
      "പ്പിക്കാന്": 3294,
      " അഭിമുഖ": 3295,
      " ജാഗ്രത": 3296,
      "ഇട": 3297,
      "റ്റീവ്": 3298,
      " പെട്ട": 3299,
      "32": 3300,
      " അന്ന്": 3301,
      " രോഗമു": 3302,
      "ങ്ങിയത്": 3303,
      " നിയമം": 3304,
      " കൈവ": 3305,
      "‍ശനം": 3306,
      " പോളി": 3307,
      " കാത്തി": 3308,
      "പ്പെടുത്തിയത്": 3309,
      "വെള്ള": 3310,
      " പങ്കുവെ": 3311,
      "ജൻ": 3312,
      "വയ": 3313,
      " വിധി": 3314,
      " ഹൗ": 3315,
      "കന്": 3316,
      " മേഖലയില്": 3317,
      "കൃഷ്ണ": 3318,
      " കർ": 3319,
      " അതിന്": 3320,
      " ശേഖ": 3321,
      " പരാമര്": 3322,
      " കൃഷ്ണ": 3323,
      "39": 3324,
      "ടിച്ച": 3325,
      "റാണ്": 3326,
      "ർട്ട്": 3327,
      "ദേശിക": 3328,
      " അവരെ": 3329,
      " തന്നെയ": 3330,
      " കള്ള": 3331,
      " കാഴ്ച": 3332,
      " തൃശൂര്": 3333,
      "‌മെന്റ്": 3334,
      "ക്കാണ്": 3335,
      " ആണ": 3336,
      "യന്": 3337,
      "റന്റ": 3338,
      " സാക്ഷ": 3339,
      " പേരി": 3340,
      " മുന്നണി": 3341,
      " പിന്നാലെയാണ്": 3342,
      " ബുദ്ധിമു": 3343,
      "ചേ": 3344,
      " സാമ്പി": 3345,
      "ിലെത്തി": 3346,
      "ധു": 3347,
      " ശിക്ഷ": 3348,
      "‌സഭാ": 3349,
      "‍ത്തിയ": 3350,
      "ൂരിലെ": 3351,
      " രു": 3352,
      "തന്നെ": 3353,
      " കുഞ്ഞ": 3354,
      "കരമായ": 3355,
      " പോവ": 3356,
      " ഇടതുപക്ഷ": 3357,
      " തസ്തിക": 3358,
      " മഹ": 3359,
      "വിഷ": 3360,
      " ഓഫീസര്": 3361,
      " ചൂണ്ടിക്കാട്ടി": 3362,
      "സൗ": 3363,
      "ക്കായി": 3364,
      " ഇതിന": 3365,
      "പിന്റെ": 3366,
      " പെൺ": 3367,
      " എല്ലാവരും": 3368,
      " ലക്ഷ്യമി": 3369,
      " രമേശ്": 3370,
      " നടി": 3371,
      " മുംബൈ": 3372,
      "തിരഞ്ഞെടുപ്പ്": 3373,
      "നമ്മ": 3374,
      " ബന്ധു": 3375,
      " തിരിച്ചടിയ": 3376,
      " മൊഴി": 3377,
      "സേന": 3378,
      " നേര": 3379,
      " കൊണ്ടാണ്": 3380,
      " റദ്ദ": 3381,
      "ുമായിരുന്നു": 3382,
      "മായിരിക്കും": 3383,
      "ൂലൈ": 3384,
      "ഘട്ട": 3385,
      "വായ": 3386,
      " വൈദ്യ": 3387,
      " ഡോസ്": 3388,
      " സൈന്": 3389,
      "പിസിസി": 3390,
      " സമരം": 3391,
      " പ്രഖ്യാപിച്ച": 3392,
      "യതി": 3393,
      " ജോസ്": 3394,
      " ട്രാ": 3395,
      " നേതൃത്വത്തില്": 3396,
      "അടുത്ത": 3397,
      " തങ്ങളുടെ": 3398,
      " നേരെ": 3399,
      " യുദ്ധ": 3400,
      " കാര്യത്തില്": 3401,
      " യാതൊരു": 3402,
      " ര്": 3403,
      " ഉപയോഗിച്ച്": 3404,
      "അതിനിടെ": 3405,
      " വസ്തു": 3406,
      " കമ്പനി": 3407,
      " കഴിഞ്ഞു": 3408,
      " യോഗത്തില്": 3409,
      "പ്രവർ": 3410,
      " രാജ്": 3411,
      "പ്പിക്കുന്നത്": 3412,
      "എൽഎ": 3413,
      "ക്കാനുള്ള": 3414,
      " ഏഴ്": 3415,
      " വീട്": 3416,
      " തുടര": 3417,
      " കിട്ടിയ": 3418,
      " അതിന്റെ": 3419,
      " എങ്ങനെ": 3420,
      "മ്പാ": 3421,
      " വാഗ്ദ": 3422,
      " ഉന്നത": 3423,
      " ക്ഷേത്ര": 3424,
      "ടനാ": 3425,
      "ർജി": 3426,
      "വിതം": 3427,
      " മുഴുവന്": 3428,
      "ഭൂ": 3429,
      "വെന്നാണ്": 3430,
      "മാരും": 3431,
      " സീറ്റുകള്": 3432,
      "55": 3433,
      "ിയുമായി": 3434,
      "ട്ടുണ്ട": 3435,
      " ചെറു": 3436,
      "നെയും": 3437,
      "വെന്ന": 3438,
      " മണ്ഡലത്തില്": 3439,
      "മിച്ച്": 3440,
      "ുവരി": 3441,
      " എന്നിവരാണ്": 3442,
      "ങ്ങളുമായി": 3443,
      " പ്രകട": 3444,
      "ക്കാത്ത": 3445,
      "സിൻ": 3446,
      " മലയാ": 3447,
      " അധ്യാപ": 3448,
      " ഓഫീസ": 3449,
      " നടപടികള്": 3450,
      "';": 3451,
      " ബജ": 3452,
      " ബിജെപിക്ക്": 3453,
      " രാഹുൽ": 3454,
      "കാരണം": 3455,
      "ക്കാന": 3456,
      "ങ്കിൽ": 3457,
      " വിജയന്": 3458,
      " നഗരസഭ": 3459,
      "ർത്തു": 3460,
      " നിരോധ": 3461,
      " ഇന്ത്യയുടെ": 3462,
      " ന്ന": 3463,
      "യോട്": 3464,
      "ുന്നില്ല": 3465,
      "‌കൂള": 3466,
      "37": 3467,
      "ശാ": 3468,
      " വില്": 3469,
      " കുറച്ച്": 3470,
      " കോടതിയില്": 3471,
      " തയ്യാറായി": 3472,
      " കല്": 3473,
      "ത്തിലായിരുന്നു": 3474,
      "രണ്ട": 3475,
      " ബിരു": 3476,
      ".കെ": 3477,
      " പ്രവർത്തക": 3478,
      " സഹായം": 3479,
      " നമുക്ക്": 3480,
      " സൂചി": 3481,
      " വിശ്വാസ": 3482,
      " ർ": 3483,
      "അന്ന്": 3484,
      "േബ": 3485,
      "മായുള്ള": 3486,
      "ികമായി": 3487,
      "',": 3488,
      "‌സിന": 3489,
      "ിയ്": 3490,
      "ുകെ": 3491,
      "ായിക": 3492,
      "മായത്": 3493,
      " ഉണ്ടായിരുന്ന": 3494,
      "വുമായ": 3495,
      " ഉമ്മന്": 3496,
      "‍എസ്": 3497,
      "ടകം": 3498,
      " തുറന്ന": 3499,
      " കനത്ത": 3500,
      "49": 3501,
      "ചെ": 3502,
      "‍ത്ത്": 3503,
      "ിയുള്ള": 3504,
      " ഇതിന്": 3505,
      " ഉയർന്ന": 3506,
      "ഗസ്റ്റ്": 3507,
      " ജനാധിപത്യ": 3508,
      "‍ത്തനങ്ങള്": 3509,
      " പങ്കെടുത്ത": 3510,
      "ഇവര്": 3511,
      " മമത": 3512,
      "രുത്തി": 3513,
      " കേസിൽ": 3514,
      " മത്സരിച്ച": 3515,
      "കലാശാല": 3516,
      "ൊ": 3517,
      "‍വ്": 3518,
      "ിക്കെതിരെ": 3519,
      " ഇവർ": 3520,
      "ശങ്ക": 3521,
      "തിനാണ്": 3522,
      "പാട": 3523,
      "പറ": 3524,
      " സഭ": 3525,
      "റ്റീ": 3526,
      " മാതൃ": 3527,
      "മെന്": 3528,
      "ത്തെയും": 3529,
      " സുരക്ഷാ": 3530,
      " ക്രൈ": 3531,
      " നിലയില്": 3532,
      " കാര്യങ്ങൾ": 3533,
      " തകർ": 3534,
      "താണെന്ന്": 3535,
      " വയസ്സ": 3536,
      " മുഖ്യ": 3537,
      " തമ്മിലുള്ള": 3538,
      " ബ്രി": 3539,
      " ഫേസ്ബുക്ക്": 3540,
      "ുകു": 3541,
      "ംസ": 3542,
      " അമ": 3543,
      "സിക്യൂ": 3544,
      "ബരി": 3545,
      "ക്കേണ്ട": 3546,
      "പ്പര്": 3547,
      "പ്പോഴാണ്": 3548,
      " സാഹചര്യത്തിൽ": 3549,
      " ഗോപി": 3550,
      " സുരേന്ദ്രന്": 3551,
      "ജീവിത": 3552,
      "ിച്ചില്ല": 3553,
      " ട്വീ": 3554,
      " വിദഗ്": 3555,
      " കേസുകള്": 3556,
      "47": 3557,
      "ളുടെ": 3558,
      "ിലായി": 3559,
      " ഇനിയും": 3560,
      " എംഎൽഎ": 3561,
      " മൂന്നാം": 3562,
      " സമാന": 3563,
      "ത്തിൻ്റെ": 3564,
      "മിഷ": 3565,
      " ഒന്നാം": 3566,
      "ബ്രുവരി": 3567,
      "ാളി": 3568,
      "ത്തുന്ന": 3569,
      " തുടർന്ന്": 3570,
      " പ്രി": 3571,
      " വോട്ടുകള്": 3572,
      "ൂറി": 3573,
      "ക്കന്": 3574,
      " റോഡ": 3575,
      "ീന്": 3576,
      " ഒന്ന്": 3577,
      " തേടി": 3578,
      " ഉത്തരവാദി": 3579,
      "ിച്ചിരുന്ന": 3580,
      "മാത്ര": 3581,
      " ഗൂ": 3582,
      " ഹോട്ട": 3583,
      " റണ്": 3584,
      "റ്റിന്": 3585,
      "കണ്ണൂര്": 3586,
      "തല്ല": 3587,
      " വല": 3588,
      "സ്തി": 3589,
      " പേരിൽ": 3590,
      "ുകൾക്ക്": 3591,
      " സ്വാധീന": 3592,
      "ക്കുകയാണ്": 3593,
      " വധ": 3594,
      "‍ക്കം": 3595,
      " യഥ": 3596,
      " നൽകുന്ന": 3597,
      " ത്തി": 3598,
      " അഭിഭാഷ": 3599,
      " പറഞ്ഞി": 3600,
      " യാദ": 3601,
      "റുണ്ട്": 3602,
      "ാണെന്നും": 3603,
      "േറിയ": 3604,
      " താൻ": 3605,
      " ഇസ്രായേ": 3606,
      "‍പ്പറ": 3607,
      " പിസി": 3608,
      " ചെയ്യാൻ": 3609,
      "ുത": 3610,
      "‍പ്പെടുത്തി": 3611,
      "വിക": 3612,
      " ജല": 3613,
      " നിങ്ങളുടെ": 3614,
      "ദ്വീ": 3615,
      "െടുത്തു": 3616,
      " സംസ്ഥാനത്തെ": 3617,
      "കോൺഗ്ര": 3618,
      " നിലവില്": 3619,
      " കൊണ്ടുപോ": 3620,
      " സേന": 3621,
      "!!\n": 3622,
      "ആരോഗ്യ": 3623,
      "രിയാ": 3624,
      "ലിനെ": 3625,
      " കുറിച്ചു": 3626,
      " വ്യക്തമാക്കുന്നു": 3627,
      "വരാ": 3628,
      " സിറ്റി": 3629,
      " ബാങ്ക്": 3630,
      " സംവിധാനം": 3631,
      " സംസ്": 3632,
      " ഹിന്ദു": 3633,
      " വിവാഹം": 3634,
      " യുപി": 3635,
      " ഒരാള്": 3636,
      " വിമാനത്താവള": 3637,
      "വാര്": 3638,
      "ൂരിൽ": 3639,
      "ുണ്ടായ": 3640,
      " പലരും": 3641,
      "യുധ": 3642,
      "യാത്ര": 3643,
      " വാദം": 3644,
      "വ്യാ": 3645,
      "വേഷണ": 3646,
      "പൂ": 3647,
      "ർക്കും": 3648,
      " റിപ്പോർട്ട": 3649,
      " ഉദ്യോഗസ്ഥര്": 3650,
      " വിസ": 3651,
      " ഭരണം": 3652,
      " കോളേജ്": 3653,
      " മുസ്ലീം": 3654,
      "ശ്രീ": 3655,
      "യള": 3656,
      " ഇടി": 3657,
      " റോഡ്": 3658,
      "‌നങ്ങള്": 3659,
      "33": 3660,
      "ോളം": 3661,
      " എട്ട്": 3662,
      " ലോട്ട": 3663,
      " കേരളത്തിൽ": 3664,
      " ധാരണ": 3665,
      " അനുവദിക്ക": 3666,
      " പ്രകടി": 3667,
      "ുകളിലെ": 3668,
      "പ്പെടും": 3669,
      " കിലോമീ": 3670,
      " ചീഫ്": 3671,
      "കളിലും": 3672,
      " സോണിയ": 3673,
      "ുവിന്റെ": 3674,
      " സേവന": 3675,
      " ഭൂമി": 3676,
      "500": 3677,
      " അർ": 3678,
      "യുടെയും": 3679,
      " അദ്ദേഹത്തെ": 3680,
      " പരിശീല": 3681,
      " പ്രശ്ന": 3682,
      " തമ്മില്": 3683,
      " കൂടിക്കാഴ്ച": 3684,
      "ക്കാതെ": 3685,
      " കാസര്": 3686,
      "തൃശ": 3687,
      " ആക്രമണം": 3688,
      "െടുത്തത്": 3689,
      " ഗ്രൂപ്പ്": 3690,
      " കൂട്ടിച്ചേര്": 3691,
      " താഴെ": 3692,
      "വായി": 3693,
      "ൊപ്പ": 3694,
      " വ്യാപക": 3695,
      " ഒരിക്കലും": 3696,
      " അബ്ദു": 3697,
      "ൗൺ": 3698,
      "‍ഗ്രസില്": 3699,
      " ഉണ്ടാകും": 3700,
      " മഹാരാഷ്ട്ര": 3701,
      " സംശയ": 3702,
      " പകരം": 3703,
      "‍ക്കായി": 3704,
      " ലോക്ക്": 3705,
      " ടെക്": 3706,
      " വിധേയ": 3707,
      " ഇന്നലെ": 3708,
      "ഇതിന്റെ": 3709,
      " പത്ത്": 3710,
      "പ്രാ": 3711,
      " ഇയാള്": 3712,
      "താരാഷ്ട്ര": 3713,
      "ണമൂ": 3714,
      "ുകയോ": 3715,
      " സാമ്പിള": 3716,
      " മുതല": 3717,
      " അദ്ദേഹത്തിന്": 3718,
      " ആവശ്യപ്പെട്ട്": 3719,
      "പ്രദേശ്": 3720,
      " യുഎസ്": 3721,
      " പ്രതികരിച്ചു": 3722,
      "തന്ത്ര്യ": 3723,
      "ഹത്യ": 3724,
      "ത്സ്യ": 3725,
      " ഗവ": 3726,
      " സമർ": 3727,
      "‍ട്ടുകള്": 3728,
      "ിച്ചാല്": 3729,
      " വോട്ടി": 3730,
      "ബെ": 3731,
      "നിന്ന്": 3732,
      " ഷി": 3733,
      " സുരക്ഷിത": 3734,
      "മറ്റ": 3735,
      "ക്സ്": 3736,
      " ചല": 3737,
      " പ്രവർത്തന": 3738,
      "ിയത്": 3739,
      " ഇദ്ദേഹ": 3740,
      "വിഡി": 3741,
      " ഷെ": 3742,
      " ഫോണ്": 3743,
      " മരിച്ചത്": 3744,
      " മീഡിയയില്": 3745,
      "ർമ്മ": 3746,
      " തടയ": 3747,
      " വിഷയത്തില്": 3748,
      " മല്": 3749,
      " അല്": 3750,
      "ളൂരു": 3751,
      "ന്നത്": 3752,
      "ില്ലെന്ന": 3753,
      "ഇതിനിടെ": 3754,
      " രാശിക്കാര്": 3755,
      "ശേഷം": 3756,
      " അധികൃതര്": 3757,
      "ശേരി": 3758,
      "ക്കുന്നതിന്": 3759,
      "90": 3760,
      "ലങ്ക": 3761,
      "ഷാ": 3762,
      "‍ത്തനം": 3763,
      " പൊലി": 3764,
      "സർക്കാർ": 3765,
      " വനിതാ": 3766,
      " ആദ്യമായി": 3767,
      " യൂത്ത്": 3768,
      " ക്യാമ്പ": 3769,
      "പൂർ": 3770,
      "രൂ": 3771,
      "ഹൈ": 3772,
      "മാക്കിയ": 3773,
      "പ്രവർത്ത": 3774,
      " സച്ചി": 3775,
      " സജ്ജ": 3776,
      " സിന്": 3777,
      " സിംഗ": 3778,
      " വളര്": 3779,
      "രിവാ": 3780,
      " അഴിമതി": 3781,
      " ശബ്": 3782,
      "ഞ്ചേരി": 3783,
      "കൊറോണ": 3784,
      "46": 3785,
      " മാണി": 3786,
      " യോ": 3787,
      " ടോ": 3788,
      "ക്ടോ": 3789,
      "േക്കാണ്": 3790,
      " പിഴ": 3791,
      "ബിഐ": 3792,
      "ഗ്ഗ": 3793,
      "‍ഡിഎഫ": 3794,
      " നിശ്ച": 3795,
      "ില്ലാത്ത": 3796,
      "സാധ": 3797,
      " സിപിഐ": 3798,
      "പീക്ക": 3799,
      "ട്രി": 3800,
      " വായി": 3801,
      " കുടു": 3802,
      " ട്വി": 3803,
      "െത്തി": 3804,
      "ക്യ": 3805,
      " ഇവരുടെ": 3806,
      " ഗുണ": 3807,
      "ാക്കിയത്": 3808,
      "രുവരും": 3809,
      "മംഗ": 3810,
      "ങ്ങുന്ന": 3811,
      "ടകര": 3812,
      " തിരികെ": 3813,
      "ലേ": 3814,
      "ത്തിടെ": 3815,
      "കൊല്ല": 3816,
      ".ഡി": 3817,
      " കണ്ട്": 3818,
      " എതിരെ": 3819,
      " ഗവര്": 3820,
      "ണാടക": 3821,
      " പോരാട്ട": 3822,
      " ചെയര്": 3823,
      " നീതി": 3824,
      " ഗുജറാ": 3825,
      " പരിഗണിക്ക": 3826,
      "പ്രിയ": 3827,
      "ുകാർ": 3828,
      "റ്റിൽ": 3829,
      " ജയരാജ": 3830,
      "എൻ": 3831,
      "എന്റെ": 3832,
      " കർഷ": 3833,
      "ങ്കേ": 3834,
      "ഇപ്പോള്": 3835,
      "കുമാര്": 3836,
      "ക്കുള്ള": 3837,
      " അസി": 3838,
      " നടത്തിയിരുന്നു": 3839,
      " വിപണി": 3840,
      "ല്യം": 3841,
      " ആക": 3842,
      " ഏജന്": 3843,
      "നിമാ": 3844,
      "ൂട്ട": 3845,
      "ൂട്ടി": 3846,
      "ിയു": 3847,
      " ഇവരെ": 3848,
      " ബസ്": 3849,
      " ബിസിന": 3850,
      " വെളിപ്പെടുത്ത": 3851,
      " ജാമ്യം": 3852,
      " കൗണ്": 3853,
      " അധികം": 3854,
      " ദിലീപ്": 3855,
      "ാറ": 3856,
      "ത്രാ": 3857,
      " സ്കൂ": 3858,
      " ബാങ്ക": 3859,
      " രോഗബാ": 3860,
      "ധാന്": 3861,
      "ൃത്തി": 3862,
      " കേസിലെ": 3863,
      " പ്രതികരണ": 3864,
      "ലിക": 3865,
      " ഒരുപാട്": 3866,
      " സ്വദേശിയായ": 3867,
      "ുകൊണ്ടു": 3868,
      " പോകുന്നത്": 3869,
      " പേർക്ക്": 3870,
      " ഗ്രൂപ്പ": 3871,
      "വരു": 3872,
      " തങ്ങള്": 3873,
      " ആദി": 3874,
      " കൊണ്ടി": 3875,
      " വ്യവസ": 3876,
      " ടിക്കറ്റ്": 3877,
      " കൂടുതല": 3878,
      " നെഗ": 3879,
      "നീയ": 3880,
      "ിക്കപ്പെട്ട": 3881,
      "ായറാ": 3882,
      "യാളെ": 3883,
      "‍ബ": 3884,
      "‍പ്പെടെയുള്ള": 3885,
      " കൊലപാതക": 3886,
      "‍ഡിഎഫ്": 3887,
      " ചൗ": 3888,
      " ബഹു": 3889,
      "െയര്": 3890,
      "ുണ്ടായി": 3891,
      "യെന്ന്": 3892,
      "ാദ": 3893,
      " വിജയ്": 3894,
      " വിഷയം": 3895,
      " ടു": 3896,
      "അവര്": 3897,
      "രാശ": 3898,
      "ബിഗ്": 3899,
      " വൈസ്": 3900,
      "വിധായക": 3901,
      "ക്കുകയായിരുന്നു": 3902,
      " അച്ഛ": 3903,
      " മാറിയ": 3904,
      " മൂലം": 3905,
      " ശ്രമിച്ച": 3906,
      "കേരളത്തില്": 3907,
      " കുറ്റപ്പെടുത്തി": 3908,
      "വുന്ന": 3909,
      "ത്തുള്ള": 3910,
      "ില്യ": 3911,
      " തിരുവനന്തപു": 3912,
      " ഞങ്ങൾ": 3913,
      "ുകയാണെന്ന്": 3914,
      "തമായ": 3915,
      " പ്രമേ": 3916,
      "ങ്ങളിലേക്ക്": 3917,
      " വെബ്": 3918,
      " ഉദ്ഘാടനം": 3919,
      " നിമിഷ": 3920,
      "യിലെത്തി": 3921,
      "വോ": 3922,
      " ആഴ്ച": 3923,
      " ജീവിതം": 3924,
      "42": 3925,
      " ജില്ലയിൽ": 3926,
      " മണിക്കൂറി": 3927,
      " മൊബൈ": 3928,
      " ദേവ": 3929,
      " പ്രവാസ": 3930,
      " സാന്നി": 3931,
      "ക്കിൽ": 3932,
      " കണ്ടി": 3933,
      "ക്കാരെ": 3934,
      "സുകള്": 3935,
      "ായം": 3936,
      " കോർ": 3937,
      "‍ദ": 3938,
      " മെയ്": 3939,
      "ടിന്": 3940,
      " ഡല്": 3941,
      "ബരിമല": 3942,
      " തര്": 3943,
      "ണ്ടായിരുന്നു": 3944,
      "തെല്ലാം": 3945,
      " ഫിറോ": 3946,
      "ദിവ": 3947,
      "നഗ": 3948,
      "േല്": 3949,
      "കൂടു": 3950,
      " കണക്ക്": 3951,
      "േബ്യ": 3952,
      "ടുന്ന": 3953,
      "ളജി": 3954,
      " പൗര": 3955,
      " അതോ": 3956,
      " പരിചയ": 3957,
      "ജയ്": 3958,
      " വക": 3959,
      "കുള": 3960,
      "ത്രിക": 3961,
      "‍ഷിക": 3962,
      " മൈ": 3963,
      " വീട്ടിൽ": 3964,
      " തുടക്ക": 3965,
      "തീഷ്": 3966,
      " പുരുഷന്": 3967,
      "ശേഖ": 3968,
      "ാനാക": 3969,
      "ത്യസ്ത": 3970,
      "ഹിതം": 3971,
      "ായാലും": 3972,
      "‍ക്കു": 3973,
      " രാജിവെ": 3974,
      "ിക്കല്": 3975,
      " രഹ": 3976,
      " പുര": 3977,
      "രുടെയും": 3978,
      " നിലനില്": 3979,
      " അറിയിച്ചത്": 3980,
      " മേധാവി": 3981,
      "65": 3982,
      " ആന്റ": 3983,
      "താര": 3984,
      "മിന്": 3985,
      " പ്രസിഡന്റ": 3986,
      " റെയില്": 3987,
      " വിദഗ്ധ": 3988,
      "സന്": 3989,
      "ത്തരം": 3990,
      " ഏത്": 3991,
      "ദിന": 3992,
      "‍ണായക": 3993,
      " വയസ": 3994,
      " കണക്കാ": 3995,
      " തെരഞ്ഞെടുപ്പ്": 3996,
      " മതി": 3997,
      "െടുപ്പ്": 3998,
      "ത്തിന്റെയും": 3999,
      "199": 4000,
      " പരിപാട": 4001,
      " മൃതദേഹം": 4002,
      "തുപോലെ": 4003,
      "ബ്ലി": 4004,
      "...": 4005,
      " അറേബ്യ": 4006,
      " വരുത്ത": 4007,
      " അംബ": 4008,
      " രജിസ്റ്റര്": 4009,
      "ജൂ": 4010,
      "ണക്കിന്": 4011,
      " കുഴ": 4012,
      "മുസ്": 4013,
      "വ്വാ": 4014,
      "ാബ": 4015,
      "മുളള": 4016,
      "ികളിൽ": 4017,
      " സഹക": 4018,
      " ഉയർ": 4019,
      " പ്രചാരണം": 4020,
      "ംബര്": 4021,
      " സമാധാന": 4022,
      "പഞ്ചായ": 4023,
      "വിരുദ്ധ": 4024,
      " ഏപ്": 4025,
      " വീണ": 4026,
      "പിന്": 4027,
      " സ്വതന്ത്ര": 4028,
      " മത്സരാ": 4029,
      " ശക്തമായി": 4030,
      " മരിച്ചു": 4031,
      " ഇല്ലാത്ത": 4032,
      " സുധാകരന്": 4033,
      "മാവധി": 4034,
      "കൾക്ക്": 4035,
      "പരമായി": 4036,
      "ജന്യ": 4037,
      "റേ": 4038,
      "‌ള": 4039,
      " രാജ്യം": 4040,
      "പ്പെട്ടിരുന്നു": 4041,
      " മനസ്സില": 4042,
      "ാലോചന": 4043,
      ".വി": 4044,
      "സിക": 4045,
      " മര്": 4046,
      " പ്രൊ": 4047,
      "റ്റം": 4048,
      " മുഖ്യമന്ത്രിയുടെ": 4049,
      " കണ്ടെത്തിയത്": 4050,
      "അങ്ങനെ": 4051,
      "ിക്കാനും": 4052,
      "േണ്ടതു": 4053,
      " ജില്ലകളില്": 4054,
      "നേയും": 4055,
      " ജനറൽ": 4056,
      "ീഷ്": 4057,
      "‍ദ്ദ": 4058,
      " നു": 4059,
      " എന്താണ്": 4060,
      "മാത്രമല്ല": 4061,
      " വച്ച്": 4062,
      "പുഴ": 4063,
      " പ്രാദേശിക": 4064,
      " പ്രതിനിധ": 4065,
      "ൈസ്": 4066,
      " കുതി": 4067,
      " സന്ദർശ": 4068,
      " ക്വാറന്റ": 4069,
      " വെല്ലുവിള": 4070,
      " അതേ": 4071,
      " ഭീക": 4072,
      " ക്ഷണ": 4073,
      " മണിയ": 4074,
      " ആല": 4075,
      "ോഗ്യ": 4076,
      "ുണ്ടായിരുന്നു": 4077,
      "ളയ": 4078,
      "ർഡ": 4079,
      " ഇല": 4080,
      "റ്റവും": 4081,
      "പ്പെടുത്തുന്ന": 4082,
      " റെക്കോ": 4083,
      "ഗി": 4084,
      "യെന്ന": 4085,
      " അമ്പ": 4086,
      "മഹാ": 4087,
      "‍വ്വ": 4088,
      "ണ്യ": 4089,
      "രാഷ്ട്രീയ": 4090,
      "ാനോ": 4091,
      " ഭി": 4092,
      "ഓരോ": 4093,
      " പണി": 4094,
      " ബൂ": 4095,
      " ഭാഗത്ത്": 4096,
      " മറിക": 4097,
      " അറി": 4098,
      " പ്രണ": 4099,
      "ക്കാരി": 4100,
      "ില്ലെന്നാണ്": 4101,
      "വാസി": 4102,
      " പ്രകടന": 4103,
      "ഥി": 4104,
      "ദയ": 4105,
      "പര്യ": 4106,
      " പൗ": 4107,
      "േഷനില്": 4108,
      " ലഭിച്ചു": 4109,
      "ൈവ": 4110,
      " അങ്ങനെ": 4111,
      "മാധ്യമ": 4112,
      "തിലൂടെ": 4113,
      "നല്ല": 4114,
      "പം": 4115,
      " നിഷേധ": 4116,
      "ടിന്റെ": 4117,
      "ുകളിലേക്ക്": 4118,
      " ടൂറി": 4119,
      "ിരുന്ന": 4120,
      " റിയ": 4121,
      " രൂപയും": 4122,
      " കാണാന്": 4123,
      " വരെയുള്ള": 4124,
      " വിളിച്ച്": 4125,
      "43": 4126,
      "സ്ഥാന്": 4127,
      "ഫ്ഗ": 4128,
      " വ്യക്തമാക്കുന്നത്": 4129,
      "ഥമിക": 4130,
      "ഫല": 4131,
      " ഇപ്പോഴ": 4132,
      "നിർ": 4133,
      " പുറമെ": 4134,
      " മന്ത്രിസഭ": 4135,
      " ഡോക്ടര്": 4136,
      "ബോധ": 4137,
      "ീല്": 4138,
      "യുമാണ്": 4139,
      "യാണ": 4140,
      "യാന്": 4141,
      " പിൻ": 4142,
      " ഓണ്": 4143,
      "യിരുന്ന": 4144,
      " മര": 4145,
      " ആശുപത്രിയിൽ": 4146,
      " ഓഫീസ്": 4147,
      "പാർ": 4148,
      " വേഗ": 4149,
      " വിചാരണ": 4150,
      "‌കോ": 4151,
      " വന്ന്": 4152,
      " ശരിയ": 4153,
      "പ്രതീക്ഷ": 4154,
      " വേണു": 4155,
      " ക്ല": 4156,
      " ഡിസം": 4157,
      "ിലേ": 4158,
      "യിലായിരുന്നു": 4159,
      "മിന്റെ": 4160,
      " കയറി": 4161,
      "‍ധി": 4162,
      "ിക്കുന്നതിന്": 4163,
      " സമ്മതി": 4164,
      " പൂർത്തിയാ": 4165,
      "ജില്ലയില്": 4166,
      " നിയമനം": 4167,
      "ുകൊണ്ടി": 4168,
      "ഹാരം": 4169,
      "തുടർന്ന്": 4170,
      " സാമൂഹിക": 4171,
      "ഷോ": 4172,
      "ക്കുമ": 4173,
      " മുന്നിൽ": 4174,
      " മോശ": 4175,
      "‍ച്ചകള്": 4176,
      " കുടുംബം": 4177,
      ".ടി": 4178,
      " എയര്": 4179,
      " കൃത്യമായി": 4180,
      " ഇതേ": 4181,
      " മനസില": 4182,
      "നിക": 4183,
      "വല്": 4184,
      "പ്പും": 4185,
      " ജനുവരി": 4186,
      "‍ക്കി": 4187,
      " ചെലവ": 4188,
      " പോലുള്ള": 4189,
      " രോ": 4190,
      " ആശയ": 4191,
      "യാളുടെ": 4192,
      " വെള്ളം": 4193,
      " വന്നിരുന്നു": 4194,
      ").\n": 4195,
      "ീര": 4196,
      "സ്പ": 4197,
      "വിദ": 4198,
      "‍ണര്": 4199,
      " സമുദായ": 4200,
      " പൈല": 4201,
      " പഴയ": 4202,
      " സർവീ": 4203,
      " നാളെ": 4204,
      " സ്ഥാനത്ത്": 4205,
      " വ്യക്തമാക്കിയിരുന്നു": 4206,
      " പശ്ചാത്തലത്തില്": 4207,
      " രി": 4208,
      "ുറ": 4209,
      " രാഷ്ട്ര": 4210,
      "‍കാന്": 4211,
      " ട്രംപ്": 4212,
      "ൃഷ്ണ": 4213,
      "വിദേശ": 4214,
      " പരിധി": 4215,
      "ണ്ടെങ്കില്": 4216,
      " മന്ത്രാലയം": 4217,
      "വിശ്വാസ": 4218,
      " ഹൈക്ക": 4219,
      "്യൂണി": 4220,
      " ഉടന്": 4221,
      "ആലപ്പുഴ": 4222,
      " കല്ല": 4223,
      "ംഗളൂരു": 4224,
      " കണ്ണൂർ": 4225,
      " യൂണി": 4226,
      " കൂട്ടിച്ചേർത്തു": 4227,
      " പക്ഷേ": 4228,
      "ിക്കുമെന്ന്": 4229,
      " കാലയള": 4230,
      ".ഐ": 4231,
      "ംപ": 4232,
      "അന്": 4233,
      "ടുന്നത്": 4234,
      "‌ട്രേ": 4235,
      "ക്കുന്നുണ്ട്": 4236,
      " എവിടെ": 4237,
      " വെട്ട": 4238,
      " ന്യൂന": 4239,
      "ങ്കളാഴ്ച": 4240,
      "പ്യൂ": 4241,
      "ടുവില്": 4242,
      "സ്റ്റർ": 4243,
      "ബാദ്": 4244,
      " അറിയാം": 4245,
      " പ്രവൃത്തി": 4246,
      "ദണ്ഡ": 4247,
      " പിറ": 4248,
      "ശ്വ": 4249,
      " വിളിച്ചു": 4250,
      "‍കുട്ടി": 4251,
      "അമേരിക്ക": 4252,
      "ീസ": 4253,
      " ബാന": 4254,
      " ജസ്റ്റി": 4255,
      " നടപ്പാ": 4256,
      " ഗതാ": 4257,
      " നടത്തും": 4258,
      "‍മാന്": 4259,
      "വിള": 4260,
      " ലു": 4261,
      " രാജി": 4262,
      " ഘടക": 4263,
      " കഴിയില്ല": 4264,
      " സബ്": 4265,
      " വേള": 4266,
      " നാള": 4267,
      "പ്രതിപക്ഷ": 4268,
      "തില്ല": 4269,
      " ഹൃ": 4270,
      " വ്യത്യസ്ത": 4271,
      " ഉറപ്പാ": 4272,
      "ഗോള": 4273,
      "പ്രധാനമന്ത്രി": 4274,
      "വലിയ": 4275,
      "ടിയെ": 4276,
      " കെപിസിസി": 4277,
      " വനിത": 4278,
      "44": 4279,
      "ഞാന്": 4280,
      "വൻ": 4281,
      " മത്സ്യ": 4282,
      "ത്താ": 4283,
      " കമ്മീഷന്": 4284,
      " സാന്നിധ്യ": 4285,
      "ന്മ": 4286,
      "സിദ്ധ": 4287,
      "‍കിയിരുന്നു": 4288,
      " നേതാക്കളെ": 4289,
      "ഡെ": 4290,
      "മൊ": 4291,
      "സേ": 4292,
      " തൂ": 4293,
      " തൃണമൂ": 4294,
      " സുഹൃത്തു": 4295,
      " ഭാഷ": 4296,
      "സാധാരണ": 4297,
      "ൂട്ട്": 4298,
      "‌നം": 4299,
      "ങ്ങളോ": 4300,
      "ണ്ടെങ്കിലും": 4301,
      " അറിയിച്ചിരുന്നു": 4302,
      " ഡിജി": 4303,
      " ണ്": 4304,
      "ചൈന": 4305,
      " ചാണ്ടി": 4306,
      " ബോധ": 4307,
      " ഭാഗ്യ": 4308,
      " കാലം": 4309,
      " ബോര്": 4310,
      " തൊഴില": 4311,
      " സഖ്യം": 4312,
      " പീഡ": 4313,
      " മോഹന്": 4314,
      " പുലര്": 4315,
      "ട്ടില്": 4316,
      "സാദ്": 4317,
      " അടിയന്തര": 4318,
      " ഞെട്ട": 4319,
      "ഘടന": 4320,
      "ാലൂ": 4321,
      " വയസ്": 4322,
      "സംസ്ഥാനത്തെ": 4323,
      "കാര്യം": 4324,
      " അട്ടി": 4325,
      "മാണിത്": 4326,
      " വിട്ട്": 4327,
      "റ്റിന്റെ": 4328,
      "ക്ടറ": 4329,
      " പ്രതിപക്ഷം": 4330,
      "ഇതുവരെ": 4331,
      " മുന്നോട്ടു": 4332,
      "േന്ദ്ര": 4333,
      "യ്ക്കുന്ന": 4334,
      " പാകി": 4335,
      " കണ്ടെത്തിയ": 4336,
      "ാലിബ": 4337,
      "ഷണല്": 4338,
      " മണ": 4339,
      " ഉദ്ധ": 4340,
      " ശോഭ": 4341,
      " ടൈ": 4342,
      " അപമാന": 4343,
      " ദുബ": 4344,
      "നാല്": 4345,
      "പാല്": 4346,
      " ഉദ്ദേശ": 4347,
      "‍ക്കെ": 4348,
      "പുല": 4349,
      "‍ക്കാന്": 4350,
      " വൈകി": 4351,
      " ആലോച": 4352,
      "യിന്": 4353,
      " വാങ്ങി": 4354,
      " സംസ്ഥാനങ്ങളില്": 4355,
      " ആവശ്യമായ": 4356,
      " തോല്": 4357,
      "വകുപ്പ്": 4358,
      "രിപ്പ": 4359,
      " സ്പീക്ക": 4360,
      "ന്തം": 4361,
      " തീയതി": 4362,
      "ാക്കുന്നത്": 4363,
      " കിടക്ക": 4364,
      " തുറന്ന്": 4365,
      " ബുധ": 4366,
      "പിഎ": 4367,
      "മോഹ": 4368,
      "യേറ്റ": 4369,
      " ആവശ്യപ്പെട്ട": 4370,
      " രേഖപ്പെടുത്തി": 4371,
      "ങ്കേതിക": 4372,
      "രുന്നുണ്ട്": 4373,
      " മുല്ല": 4374,
      "വാര": 4375,
      "ടിയുടെ": 4376,
      " കമ്മിറ്റ": 4377,
      "ഇത്തരം": 4378,
      "കാതെ": 4379,
      " സാധ്യതയുണ്ട്": 4380,
      " കെട്ടിട": 4381,
      "നത്തിൽ": 4382,
      "മുംബൈ": 4383,
      "ാത": 4384,
      " അന്താരാഷ്ട്ര": 4385,
      " ഉത്തരവ്": 4386,
      "്മി": 4387,
      " താക്ക": 4388,
      " നിങ്ങൾ": 4389,
      " മുറി": 4390,
      "ഭം": 4391,
      "ക്കല്": 4392,
      " അനി": 4393,
      " ഒന്നി": 4394,
      " ഒക്കെ": 4395,
      "ശ്വാസം": 4396,
      "ലോക്": 4397,
      " ഉറപ്പ്": 4398,
      "‍കിയിട്ടുണ്ട്": 4399,
      " പ്രചരണ": 4400,
      " നേതാക്കളും": 4401,
      " അഭിനന്ദ": 4402,
      "ഗണ": 4403,
      "ക്കുമെന്ന്": 4404,
      " കുമാർ": 4405,
      " തിരുവ": 4406,
      "‍കുന്നത്": 4407,
      " തിരിച്ചറിയ": 4408,
      " ഫോട്ടോ": 4409,
      "ുണ്ടായിരുന്ന": 4410,
      " ബൈഡ": 4411,
      "ങ്ങാട്": 4412,
      "ദര്": 4413,
      "ഫലം": 4414,
      "ൻഡ്": 4415,
      "ന്ദ്": 4416,
      "കേരളത്തിലെ": 4417,
      "്രാഞ്ച്": 4418,
      " ടീമ": 4419,
      "റില": 4420,
      "ത്തര്": 4421,
      "ാലെ": 4422,
      " ഭര്": 4423,
      "ഡിൽ": 4424,
      "മുന്": 4425,
      "ഇതേ": 4426,
      "ദരാ": 4427,
      "മർശ": 4428,
      " നഴ്": 4429,
      "ാനഡ": 4430,
      " ജു": 4431,
      "സിപ്പ": 4432,
      "‍ക്കുള്ള": 4433,
      " വെടി": 4434,
      "ാകെ": 4435,
      " പ്രതിസന്ധ": 4436,
      " അസിസ്റ്റ": 4437,
      "സമ്പ": 4438,
      "ിയാഴ്ച": 4439,
      " മാനദണ്ഡ": 4440,
      " ഇല്ലാതാ": 4441,
      "ർദ്ദ": 4442,
      "ക്രിയ": 4443,
      "മ്മാണ": 4444,
      " വാക്സിൻ": 4445,
      "നിലവിൽ": 4446,
      " തട്ട": 4447,
      " നിലയിൽ": 4448,
      "ാണോ": 4449,
      " സംസാരിച്ച": 4450,
      " എത്തുന്ന": 4451,
      "കോട്ടയം": 4452,
      "ുമ്പോൾ": 4453,
      "‍ഡിഎ": 4454,
      "ിക്കാതെ": 4455,
      "ലുകള്": 4456,
      " പരമാവധി": 4457,
      " മടങ്ങ": 4458,
      " മുന്നേറ്റ": 4459,
      " വിവരങ്ങൾ": 4460,
      "ായറാഴ്ച": 4461,
      "ൊരാ": 4462,
      "മാവ": 4463,
      "യുക്ത": 4464,
      " ഐസ": 4465,
      " മേല്": 4466,
      " മറുപടിയ": 4467,
      "ഇന്നലെ": 4468,
      "വുമാണ്": 4469,
      " വായ്": 4470,
      " വിനോ": 4471,
      " ശ്": 4472,
      " സംവിധായക": 4473,
      " ചിന്തി": 4474,
      "‍ട്ടിയുടെ": 4475,
      "തമായി": 4476,
      "ുമുണ്ട്": 4477,
      " നടപടികൾ": 4478,
      " കൂടാതെ": 4479,
      " മുതിര്": 4480,
      "ശ്ചിമ": 4481,
      "‍പ്പിക്ക": 4482,
      " ജൂലൈ": 4483,
      "ായും": 4484,
      " പ്രഖ്യാപനം": 4485,
      " ഭൂരിപക്ഷം": 4486,
      "‍റ": 4487,
      "‍ത്തിക്കുന്ന": 4488,
      "നിയര്": 4489,
      "ദിലീ": 4490,
      "ളിച്ച": 4491,
      " അക്കാ": 4492,
      "ിക്കി": 4493,
      "രായം": 4494,
      " ശരീ": 4495,
      " ഏർ": 4496,
      " വ്യവസ്ഥ": 4497,
      " കാണുന്ന": 4498,
      " സഹകരണ": 4499,
      "ജില്ലാ": 4500,
      "വർണ": 4501,
      " ബോധ്യ": 4502,
      "യ്ക്കായി": 4503,
      " ആരംഭിച്ച": 4504,
      " നേതാക്കളുടെ": 4505,
      " മുൻപ്": 4506,
      "താന്": 4507,
      "ശക്ത": 4508,
      "‍പ്": 4509,
      " ഒപ്പം": 4510,
      "താക്കള്": 4511,
      " സീറ്റില്": 4512,
      " തൊഴില്": 4513,
      " രീതിയിൽ": 4514,
      " പുരസ്": 4515,
      " പത്ര": 4516,
      " നശി": 4517,
      " കുത്തി": 4518,
      " നേട്ടം": 4519,
      " അനുസരിച്ച്": 4520,
      " നമ്മള്": 4521,
      " ലോട്ടറി": 4522,
      "in": 4523,
      "ക്കാനും": 4524,
      " പ്രേക്ഷ": 4525,
      " ശര്": 4526,
      " സാധ്യ": 4527,
      " കളക്ടര്": 4528,
      " പഞ്ചായത്ത": 4529,
      "പന": 4530,
      " ബാധിച്ച്": 4531,
      " കിട്ടി": 4532,
      " സർക്കാരിന്റെ": 4533,
      " വാഗ്ദാനം": 4534,
      " സിന്ധ്യ": 4535,
      "റ്റും": 4536,
      " റോബി": 4537,
      "രാജ്യത്ത്": 4538,
      " നേരിടുന്ന": 4539,
      "തൊഴ": 4540,
      " കക്ഷ": 4541,
      " കശ്മീ": 4542,
      " താലൂ": 4543,
      " പ്രോ": 4544,
      "ണിച്ച്": 4545,
      " നിയോഗ": 4546,
      "പ്പിനെ": 4547,
      " പോയത്": 4548,
      "ുട്ട": 4549,
      " തന്ത്ര": 4550,
      " ലേ": 4551,
      " തിരിച്ച്": 4552,
      " ജില്ലകളിൽ": 4553,
      " മത്സരം": 4554,
      "‍ട്ടില്": 4555,
      " താത്": 4556,
      "ായ്മ": 4557,
      " ശമ്പളം": 4558,
      " വേണുഗോ": 4559,
      "‌ഐ": 4560,
      "താണ": 4561,
      "പ്പിക്കാൻ": 4562,
      " പ്രവർത്തകർ": 4563,
      "വ്യാപ": 4564,
      " ശാസ്ത്ര": 4565,
      "പക്ഷെ": 4566,
      " ചേർന്ന": 4567,
      "യോഗം": 4568,
      " സൗജന്യ": 4569,
      "‍ക്കാരിന്": 4570,
      " മറ്റുള്ള": 4571,
      " പറയാന്": 4572,
      " ഭക്ഷണം": 4573,
      "41": 4574,
      "അവിടെ": 4575,
      "ഞാൻ": 4576,
      "ന്നൂര്": 4577,
      " നടക്കും": 4578,
      " മാസ്": 4579,
      "യാല്": 4580,
      " പിന്നില്": 4581,
      " അതിര്": 4582,
      "നിയാഴ്ച": 4583,
      " പ്രാഥമിക": 4584,
      " അശ": 4585,
      " പീഡി": 4586,
      " പുറമേ": 4587,
      " ന്യായ": 4588,
      "അദ്ദേഹം": 4589,
      "56": 4590,
      "57": 4591,
      "തയും": 4592,
      "ാരാ": 4593,
      "മാരായ": 4594,
      " സംഘര്": 4595,
      " അറിയില്ല": 4596,
      " എടുത്തി": 4597,
      " ബിരുദ": 4598,
      " നിശ്ചയി": 4599,
      "58": 4600,
      "തൊക്കെ": 4601,
      "േമ": 4602,
      "‍ഗോഡ്": 4603,
      " നന്ന": 4604,
      "യ്ക്കു": 4605,
      " പങ്കെടുത്തു": 4606,
      "‍പര്യ": 4607,
      " അഭിപ്രായം": 4608,
      "മറ്റ്": 4609,
      "െയായിരുന്നു": 4610,
      " തുടക്കം": 4611,
      " കാണുന്നത്": 4612,
      " ആത്മഹത്യ": 4613,
      " നോട്ടീസ്": 4614,
      "ഏറ്റവും": 4615,
      "ണില്": 4616,
      "ല്ലി": 4617,
      "രിക്കെ": 4618,
      "കുറ": 4619,
      "പാലക്കാട്": 4620,
      " കുറിപ്പ്": 4621,
      "ഇത്തര": 4622,
      "മാറ": 4623,
      "പിട": 4624,
      " കെഎസ്": 4625,
      "ഡൽഹി": 4626,
      "നായിരുന്നു": 4627,
      "പ്ല": 4628,
      "സ്മ": 4629,
      " ഇത്ര": 4630,
      "സ്ഥാപ": 4631,
      " സാഹചര്യത്തിലാണ്": 4632,
      "മില്ലാത്ത": 4633,
      " മാനേജ": 4634,
      " ഗെയി": 4635,
      " കോടതിയെ": 4636,
      " വൈദ്യുതി": 4637,
      " ബ്രിട്ട": 4638,
      " ഓക്": 4639,
      "സാമ്പത്തിക": 4640,
      " വിജയിച്ച": 4641,
      "ണര്": 4642,
      "പട്ട": 4643,
      "ലേക്ക്": 4644,
      "‌ഫോ": 4645,
      " കാപ്പ": 4646,
      " റില": 4647,
      "ൽപ്പ": 4648,
      " പ്രൊ": 4649,
      " മാറിയി": 4650,
      "ജിത്": 4651,
      " കൃത്യമായ": 4652,
      "യിട്ടുള്ളത്": 4653,
      " സ്ഥലം": 4654,
      " വീത": 4655,
      "ുപറ": 4656,
      " മുഴുവൻ": 4657,
      "ലാം": 4658,
      "േട്ട": 4659,
      " അണ": 4660,
      " സിനിമാ": 4661,
      "‍ഷകര്": 4662,
      " നേതൃത്വത്തിലുള്ള": 4663,
      " നോക്കി": 4664,
      "ംബർ": 4665,
      " പരിഗണന": 4666,
      " ഉൾപ്പെടെയുള്ള": 4667,
      "‍ണം": 4668,
      "‍ദ്ധ": 4669,
      " അധി": 4670,
      " ഏതെങ്കിലും": 4671,
      " സ്വപ്ന": 4672,
      "േര്": 4673,
      " മയ": 4674,
      " എളു": 4675,
      " ടീം": 4676,
      " ഉപേക്ഷ": 4677,
      "ത്തോടെയാണ്": 4678,
      "‍ലൈന്": 4679,
      " മുതിർന്ന": 4680,
      "അവ": 4681,
      "ബീ": 4682,
      "്വ": 4683,
      "ട്രാ": 4684,
      "താണെന്നും": 4685,
      " മണ്ഡലത്തിൽ": 4686,
      " പ്രാധാന്": 4687,
      "ിവൈ": 4688,
      " ഇടത്": 4689,
      " വ്യക്തമാക്കിയത്": 4690,
      " സാധ്യതയു": 4691,
      " വ്യാപനം": 4692,
      "പൊതു": 4693,
      " പുറത്തുവി": 4694,
      " അക്കൗണ്ട": 4695,
      " എച്ച്": 4696,
      "പ്പിക്കുന്നു": 4697,
      " ഗ്രഹ": 4698,
      " സ്വാതന്ത്ര്യ": 4699,
      "സംഘടന": 4700,
      " ഒട്ട": 4701,
      " ഗണ": 4702,
      " തീര": 4703,
      "ഇതിൽ": 4704,
      " രോഗമുക്തി": 4705,
      "ളിയ": 4706,
      "‍ജെ": 4707,
      "െയ്യ": 4708,
      " ശര": 4709,
      " അധികാരം": 4710,
      "ഷ്ട്രീയം": 4711,
      " മിനി": 4712,
      "ടിഞ്ഞ": 4713,
      "കാരിക": 4714,
      " അന്തി": 4715,
      " പഠന": 4716,
      " മകന്": 4717,
      " ട്വീറ്റ്": 4718,
      "കക്ഷ": 4719,
      "ോടെയാണ്": 4720,
      "പോര്": 4721,
      " ജൂണ്": 4722,
      "‍വീസ്": 4723,
      " അറസ്റ്റില": 4724,
      " ത്രി": 4725,
      "ഞ്ജു": 4726,
      "ിക്കുന്നില്ല": 4727,
      " ബാധിച്ചത്": 4728,
      " പ്രകടനം": 4729,
      " കൺ": 4730,
      "ത്തുട": 4731,
      "പരിശ": 4732,
      " ഉറപ്പാക്ക": 4733,
      " കണക്കില": 4734,
      " പെട്ടെന്ന്": 4735,
      " മറികട": 4736,
      "തന": 4737,
      " എയർ": 4738,
      " ജഡ്": 4739,
      " രമ": 4740,
      "പിസി": 4741,
      " തെറ്റി": 4742,
      " ജനങ്ങളുടെ": 4743,
      " ഔദ്യോഗ": 4744,
      " കർണാടക": 4745,
      "ഥു": 4746,
      "റുക": 4747,
      " ഇത്രയും": 4748,
      "ന്റെയും": 4749,
      "ക്കാരുടെ": 4750,
      " കുട്ടി": 4751,
      "ച്ചിരിക്കുന്നത്": 4752,
      " നിർദേശ": 4753,
      " കണ്ടത്": 4754,
      " പൊലിസ്": 4755,
      "വാൻ": 4756,
      " ഗാന്ധിയുടെ": 4757,
      "ടാ": 4758,
      "യല്": 4759,
      "വനം": 4760,
      " കടുവ": 4761,
      "യിരുന്നത്": 4762,
      " അത്ര": 4763,
      "സിനും": 4764,
      " ട്രേ": 4765,
      "ക്കളുടെ": 4766,
      " വാക്സിന": 4767,
      " ചെയ്യുക": 4768,
      "ിച്ചിരുന്നത്": 4769,
      " യുക്ര": 4770,
      " പ്രഖ്യാപിച്ചു": 4771,
      " വോട്ടര്": 4772,
      "സോസിയ": 4773,
      "ഒന്ന": 4774,
      "ഗതം": 4775,
      "ൗണ്ട്": 4776,
      "തൃപ്തി": 4777,
      "‍ട്ടിഫ": 4778,
      " വിശദീകരണം": 4779,
      "ക്കടത്ത്": 4780,
      " കൊണ്ട": 4781,
      "കുട്ടി": 4782,
      " മേഖലയിലെ": 4783,
      "നാട്ടില്": 4784,
      " ഭീകര": 4785,
      "ച്ചവ": 4786,
      " കാര്യമാണ്": 4787,
      "‍ട്ടിയില്": 4788,
      " വൈറല": 4789,
      " സ്ഥാനാർത്ഥി": 4790,
      "ഇരു": 4791,
      "ണിയുടെ": 4792,
      " പാത": 4793,
      " ഇന്ത്യയിലെ": 4794,
      "പരാ": 4795,
      " ബാഗ": 4796,
      "കരുടെ": 4797,
      " അന്ന": 4798,
      " കേള്": 4799,
      "എസ്പി": 4800,
      " നിയന്ത്രണം": 4801,
      "മൂന്ന": 4802,
      " നിരീക്ഷണത്തില": 4803,
      " ഭക്ഷണ": 4804,
      "ദീപ്": 4805,
      "മംഗലം": 4806,
      "68": 4807,
      "ക്കിട": 4808,
      " ഇന്ത്യയില്": 4809,
      " തിരിച്ചടി": 4810,
      " സോഷ്യൽ": 4811,
      " ഫെബ്രുവരി": 4812,
      "അതില്": 4813,
      "ട്ടുണ്ടെന്ന്": 4814,
      " ദിവസത്തെ": 4815,
      " ഇറങ്ങ": 4816,
      "കല": 4817,
      "റുകൾ": 4818,
      " ഇരുവരും": 4819,
      "കുമാർ": 4820,
      "സംഖ്യ": 4821,
      " കിഴ": 4822,
      "59": 4823,
      "നല്": 4824,
      "ാൾ": 4825,
      "‍റ്": 4826,
      " ഒരേ": 4827,
      " തിരിച്ചു": 4828,
      " പരിശോധനയ്ക്ക്": 4829,
      " ബാധിച്ച": 4830,
      " ഒരാള": 4831,
      " ഛ": 4832,
      "തദ്ദേശ": 4833,
      "രാത്രി": 4834,
      " ബേ": 4835,
      "ക്കിയിട്ടുണ്ട്": 4836,
      " കെജ്": 4837,
      " തിരഞ്ഞെടുപ്പിന്": 4838,
      " പ്ലാ": 4839,
      "‍കും": 4840,
      " മോശം": 4841,
      " നടത്താന്": 4842,
      " കുട്ടികള്": 4843,
      "രാജ്യത്തെ": 4844,
      "നിരവധി": 4845,
      " കരുതുന്നത്": 4846,
      "നമ്മുടെ": 4847,
      "സമാ": 4848,
      "ാന്ത": 4849,
      "ോഗിക": 4850,
      " ഐക്യ": 4851,
      " വരുമാന": 4852,
      " സ്ഥലത്ത്": 4853,
      "മാസ": 4854,
      "മ്മി": 4855,
      "ക്കിടെ": 4856,
      " മൂല": 4857,
      " വകുപ്പിന്റെ": 4858,
      "ട്രോള്": 4859,
      " രജിസ്": 4860,
      "ഡില്": 4861,
      "രുടേയും": 4862,
      "ങ്ങളെയും": 4863,
      " ഗൗര": 4864,
      " കൈകാര്യം": 4865,
      " .": 4866,
      " ആക്ഷേപ": 4867,
      "ന്നിട്ടുണ്ട്": 4868,
      " ജനങ്ങളെ": 4869,
      "രാഹുല്": 4870,
      "ഇപ്പോൾ": 4871,
      " സാങ്കേതിക": 4872,
      "ുവിനെ": 4873,
      " എഴുതി": 4874,
      "ടാണ്": 4875,
      "ളര്": 4876,
      "ൊന്ന്": 4877,
      "ന്ത്യാ": 4878,
      "ടിയേറ്റ": 4879,
      " ടാ": 4880,
      " തോമ": 4881,
      " സാമൂഹ്യ": 4882,
      "ശാന്ത്": 4883,
      "52": 4884,
      "ഫെ": 4885,
      "മുന്ന": 4886,
      "ർജ്": 4887,
      " പവന്": 4888,
      "താക": 4889,
      " ഉത്തരവി": 4890,
      " വിതരണ": 4891,
      " അഡ്വ": 4892,
      " രഹസ്യ": 4893,
      " എളുപ്പ": 4894,
      "കൻ": 4895,
      " വിഷ്ണ": 4896,
      "െയോ": 4897,
      "ന്ദര്": 4898,
      "‍ക്കിട": 4899,
      "പ്രകാരം": 4900,
      "ീകരിച്ചു": 4901,
      " സംഭവത്തില്": 4902,
      " ബ്ലോക്ക്": 4903,
      " നൽകിയത്": 4904,
      " സമ്മാനം": 4905,
      "ീത": 4906,
      " ഗം": 4907,
      " ദൗ": 4908,
      " സിദ്ധ": 4909,
      " കാട്ട": 4910,
      " വെറും": 4911,
      " സെന്": 4912,
      " പ്രതികരിച്ചത്": 4913,
      " റെഡ്": 4914,
      " തടസ്സ": 4915,
      " കരുതി": 4916,
      " തരത്തിലുള്ള": 4917,
      "വിദ്യാ": 4918,
      "ുടേയും": 4919,
      "രുതെന്ന്": 4920,
      " ജലീ": 4921,
      "ങ്ങളിലൂടെ": 4922,
      " എന്തെങ്കിലും": 4923,
      " റാവ": 4924,
      "രോഗം": 4925,
      "ഭാര": 4926,
      " ജ്യ": 4927,
      "ക്ഷോഭ": 4928,
      "ട്ടിഫ": 4929,
      "മനു": 4930,
      "‍;": 4931,
      "ക്കൊപ്പം": 4932,
      " നന്ദി": 4933,
      "ിക്കുമെന്നും": 4934,
      " ആള്": 4935,
      "ക്കാക്കര": 4936,
      "സിനിമ": 4937,
      " വ്യാഴ": 4938,
      "ക്കാനാണ്": 4939,
      " സസ്": 4940,
      " ചെന്നൈ": 4941,
      "ലങ്കാന": 4942,
      "പ്രതീക്ഷിത": 4943,
      "300": 4944,
      "പത്തനംതിട്ട": 4945,
      " സർവ്": 4946,
      " വേണ്ടിയാണ്": 4947,
      " ക്രൂര": 4948,
      "ിട്ടില്ല": 4949,
      "ിട്ടും": 4950,
      "തിലും": 4951,
      " സങ്ക": 4952,
      "‍ഷത്തെ": 4953,
      " അവതരി": 4954,
      "ലൂടെ": 4955,
      "ങ്ങളിലാണ്": 4956,
      " ദക്ഷി": 4957,
      "ചിത്ര": 4958,
      " തലത്തില്": 4959,
      " ചിത്രങ്ങള്": 4960,
      " അഭിനയി": 4961,
      " ആവശ്യപ്പെട്ടിരുന്നു": 4962,
      "ടോ": 4963,
      " അറിഞ്ഞ": 4964,
      "ങ്ങൾക്കും": 4965,
      "ക്കുറി": 4966,
      " ഒമ്പ": 4967,
      "കുടുംബ": 4968,
      "വാദം": 4969,
      " നേടിയത്": 4970,
      " ഒപ്പ": 4971,
      " പുറപ്പെടു": 4972,
      " കാണാം": 4973,
      " പ്രതികരിച്ച": 4974,
      " വിശേഷ": 4975,
      "കൃത്യ": 4976,
      "ക്കൂട്ട": 4977,
      " ഗൂഢ": 4978,
      " ടൂറിസം": 4979,
      " ജോല": 4980,
      "മുണ്ടായി": 4981,
      " ഭേദഗതി": 4982,
      "വ്വാഴ്ച": 4983,
      " കോൺ": 4984,
      " മാതാ": 4985,
      "തിനാല": 4986,
      " ടെസ്റ്റ്": 4987,
      " മാതൃക": 4988,
      " അതോറി": 4989,
      "മൈ": 4990,
      "‍മെന്റ്": 4991,
      "ിക്കാന": 4992,
      " ഇതില്": 4993,
      " രക്ത": 4994,
      " വിളിച്ച": 4995,
      "എല്ലാവ": 4996,
      "ണല്": 4997,
      " അസോസിയ": 4998,
      "ച്ചുവ": 4999,
      " താലിബ": 5000,
      "റ്റാണ്": 5001,
      "സ്ഥിതി": 5002,
      "ജിത്ത്": 5003,
      "പ്പെടുകയും": 5004,
      "പ്പെടുത്താന്": 5005,
      " പ്രഖ്യാപിച്ചത്": 5006,
      " പെൺകുട്ട": 5007,
      " തുടരുകയാണ്": 5008,
      "‍ധന": 5009,
      "യാണെന്ന്": 5010,
      " കുത്ത": 5011,
      "നാഴ്ച": 5012,
      " അംഗീകരിക്ക": 5013,
      " സ്റ്റേഷന": 5014,
      " ചോദിച്ച": 5015,
      "വളരെ": 5016,
      "‌ല": 5017,
      "ക്കൻ": 5018,
      " കത്തി": 5019,
      "്രമ": 5020,
      "ിലായിരുന്നു": 5021,
      "ക്ഷന്": 5022,
      " നിലവിലെ": 5023,
      " മെച്ച": 5024,
      " സൂപ്പര്": 5025,
      ".എഫ്": 5026,
      "69": 5027,
      "ww": 5028,
      "സുകൾ": 5029,
      "‍പ്പെട്ട": 5030,
      " റീ": 5031,
      " വ്യത്യാ": 5032,
      " വേദ": 5033,
      "‍സില്": 5034,
      " മേഖലയിൽ": 5035,
      " വിജയൻ": 5036,
      " ധനമന്ത്രി": 5037,
      "ഐഎ": 5038,
      "യെയും": 5039,
      " മൗ": 5040,
      "വിവാഹ": 5041,
      "രംഗ": 5042,
      "മാകുന്ന": 5043,
      " വിശ്വ": 5044,
      " കൈമാറ": 5045,
      " എന്നിവിടങ്ങളില്": 5046,
      "നടപ": 5047,
      "ഇക്കാര്യ": 5048,
      " ബുദ്ധിമുട്ട": 5049,
      " ത്": 5050,
      "ഇവ": 5051,
      "‌പ": 5052,
      "‍ഗ്രസ": 5053,
      " യാഥ": 5054,
      " പരിശോധനാ": 5055,
      " വരുമാനം": 5056,
      "നവും": 5057,
      "ക്കുമെന്നും": 5058,
      " അതു": 5059,
      " അഫ്ഗ": 5060,
      "ങ്കി": 5061,
      " പറയുന്നുണ്ട്": 5062,
      " സ്റ്റാ": 5063,
      " യൂണിയ": 5064,
      " നടപ്പില": 5065,
      "ഷേ": 5066,
      " കപ്പ": 5067,
      " ഒളി": 5068,
      " സിബിഐ": 5069,
      " ചിലര്": 5070,
      " ദിവസങ്ങളില്": 5071,
      " ഇറങ്ങി": 5072,
      " വാഹനം": 5073,
      " മണിക്ക്": 5074,
      "േക്കാള്": 5075,
      " ജസ്റ്റിസ്": 5076,
      "അഞ്ച്": 5077,
      "‌റ": 5078,
      " പകര്": 5079,
      " രാഷ്ട്രീയം": 5080,
      "പുറ": 5081,
      " വേറെ": 5082,
      " അംഗം": 5083,
      " മാനസിക": 5084,
      "ങ്ങളിലായി": 5085,
      " പൂർണ": 5086,
      " പ്ലാന്": 5087,
      "മ്പോഴും": 5088,
      " അഖില": 5089,
      "\",": 5090,
      " ആയുധ": 5091,
      " വെറു": 5092,
      " കേസുകൾ": 5093,
      " കൃഷി": 5094,
      "ംഗിക": 5095,
      "‍വല": 5096,
      " കഴിഞ്ഞ്": 5097,
      "പ്യൂട്ടി": 5098,
      "വറ": 5099,
      "‍ടി": 5100,
      " ഇതിന്റെ": 5101,
      " എന്നു": 5102,
      " സിങ്": 5103,
      "പുര": 5104,
      " പരാമർശ": 5105,
      "....\n": 5106,
      " അതിനെ": 5107,
      " ആളുകൾ": 5108,
      " ഒരാൾ": 5109,
      "എച്ച്": 5110,
      " ഉല്": 5111,
      "തിയായ": 5112,
      " ഉണ്ടായത്": 5113,
      "ബ്രി": 5114,
      " സുപ്രീംകോടതി": 5115,
      " പുതുതായി": 5116,
      "മുറ": 5117,
      "‍ത്താന്": 5118,
      " ശ്രമിക്കുന്ന": 5119,
      " ചെയ്തിരിക്കുന്നത്": 5120,
      " എത്തിച്ച": 5121,
      " താമസിക്കുന്ന": 5122,
      " ആന്റണി": 5123,
      "മേഖല": 5124,
      " അരു": 5125,
      "വിവിധ": 5126,
      " വിമത": 5127,
      " മാധ്യമങ്ങള്": 5128,
      " ഏകദേശം": 5129,
      "രെയ": 5130,
      " വക്": 5131,
      "മ്മേള": 5132,
      "ടിയത്": 5133,
      "ക്കളെ": 5134,
      " നിർത്തി": 5135,
      "ുമായുള്ള": 5136,
      " സ്വർണ": 5137,
      " സംസാരിക്കുകയായിരുന്നു": 5138,
      "ഇതാണ്": 5139,
      "തൊ": 5140,
      "ദ്രാ": 5141,
      " സ്നേഹ": 5142,
      "ിരുന്നത്": 5143,
      " ദിവസവും": 5144,
      "ോതി": 5145,
      " ചൈനീസ്": 5146,
      " ഫിറോസ്": 5147,
      " അസം": 5148,
      "ിക്കാനാണ്": 5149,
      "യാക": 5150,
      "ട്ടിരുന്നു": 5151,
      " അവധി": 5152,
      "കാത്ത": 5153,
      "ങ്ങളുടെയും": 5154,
      "വരെയും": 5155,
      " ഉത്തര്": 5156,
      " ശബ്ദ": 5157,
      "തമ": 5158,
      "ത്താന്": 5159,
      "യുമായ": 5160,
      " ചെയർ": 5161,
      " സുധാകര": 5162,
      "ത്യു": 5163,
      " വനം": 5164,
      "ില്ലാതെ": 5165,
      " ഏജൻ": 5166,
      " ഉടൻ": 5167,
      " ഭക്ഷ്യ": 5168,
      " രംഗത്തെത്തിയിരുന്നു": 5169,
      "67": 5170,
      "നൊപ്പം": 5171,
      "‍ച": 5172,
      "പ്ലോ": 5173,
      "ത്തറ": 5174,
      "െടുക്കുന്ന": 5175,
      "കാശ്": 5176,
      "ിലാക്കി": 5177,
      "എനിക്ക്": 5178,
      "ഡ്ര": 5179,
      "പിയും": 5180,
      "‍വി": 5181,
      "ടിയില്": 5182,
      " ഡൽഹി": 5183,
      "ഗ്രി": 5184,
      " അതീ": 5185,
      "ഗ്രാമ": 5186,
      " ഒരുങ്ങ": 5187,
      " സംഭവിച്ച": 5188,
      "‍ച്ചയായി": 5189,
      " കഴിയും": 5190,
      " ഗ്രാമപഞ്ചായ": 5191,
      " ക്ലാസ്": 5192,
      " പൗരന്": 5193,
      "ഗമ": 5194,
      "ടിച്ചു": 5195,
      "ൃഗ": 5196,
      " മാരാ": 5197,
      " ക്രിക്ക": 5198,
      " നടപ്പാക്ക": 5199,
      "പരിശോധ": 5200,
      "അവരുടെ": 5201,
      " പച്ച": 5202,
      " കയ്": 5203,
      " വീഴ": 5204,
      "പ്പിക്കും": 5205,
      "കര്യം": 5206,
      " ഉയർത്തി": 5207,
      " സ്റ്റോ": 5208,
      " അസിസ്റ്റന്റ്": 5209,
      "തമിഴ്": 5210,
      "നമാണ്": 5211,
      " വൻ": 5212,
      "ുകി": 5213,
      " പ്രകാര": 5214,
      " നടന്നു": 5215,
      " തിരഞ്ഞെടുക്ക": 5216,
      " ടാസ്": 5217,
      "‍ന്നത്": 5218,
      " പ്രസിഡന്": 5219,
      " പട്ടികയില്": 5220,
      " കോർപ്പറ": 5221,
      "രക്ക": 5222,
      "ശുപത്രി": 5223,
      "പ്ത": 5224,
      "ല്ലെന്നും": 5225,
      "‍ക്കത്തിലൂടെ": 5226,
      "ന്തരം": 5227,
      "മുണ്ടാക": 5228,
      " ക്യാപ്റ്റ": 5229,
      " ഇസ്": 5230,
      " രാജിവ": 5231,
      " മുരളീധരന്": 5232,
      "കൊല്ലം": 5233,
      "ലുള്ള": 5234,
      " അസ": 5235,
      " മൂന്നു": 5236,
      " വലിയൊരു": 5237,
      " വെളിപ്പെടുത്തി": 5238,
      "െടുക്കാന്": 5239,
      "ീകരിക്കുന്ന": 5240,
      "രായണ": 5241,
      "ുണ്ടാക": 5242,
      " പിടിച്ചു": 5243,
      " അടിസ്ഥാനത്തില്": 5244,
      "ർഷിക": 5245,
      "‍വാ": 5246,
      " അഴ": 5247,
      "ിക്കണമെന്നും": 5248,
      "ദ്മി": 5249,
      " സർട്ടിഫ": 5250,
      " കോടതിയിൽ": 5251,
      "198": 5252,
      " വിദേശകാര്യ": 5253,
      " മന്ത്രാലയ": 5254,
      " മലയാളി": 5255,
      " അന്തിമ": 5256,
      " നും": 5257,
      " എഞ്ച": 5258,
      "ണ്ടെങ്കിൽ": 5259,
      " പാർല": 5260,
      "‍ക്കാരിനെ": 5261,
      " അയ്യ": 5262,
      " ഘട്ടത്തില്": 5263,
      "ഭൂമി": 5264,
      " ആസ്ഥാന": 5265,
      " പ്രസിദ്ധ": 5266,
      "ഫ്രിക്ക": 5267,
      " ബാധിത": 5268,
      " സൗഹൃ": 5269,
      "150": 5270,
      " എടുത്ത്": 5271,
      " തിരച്ച": 5272,
      " വിലയിരുത്തല്": 5273,
      " മോദിയുടെ": 5274,
      " പുറപ്പെടുവ": 5275,
      "51": 5276,
      "നവ": 5277,
      "മണ്ഡ": 5278,
      "ദ്ദി": 5279,
      " ഒക്ടോ": 5280,
      "നിങ്ങളുടെ": 5281,
      " കൂട്ടി": 5282,
      "ശ്വര": 5283,
      "ന്റേ": 5284,
      " ഏറ്റുമു": 5285,
      "ഭാഗം": 5286,
      " ക്രിമിന": 5287,
      "‌കാര": 5288,
      "വിന്ദ": 5289,
      " തുടരുന്ന": 5290,
      " കേന്ദ്രസര്": 5291,
      " ഗുണം": 5292,
      " ആളുകളെ": 5293,
      " അധ്യക്ഷൻ": 5294,
      " പരിക്കേറ്റ": 5295,
      "കീയ": 5296,
      " പ്രശ": 5297,
      "ങ്ങളായ": 5298,
      "രിക്കുക": 5299,
      "ഴ്സ്": 5300,
      " നിലവിൽ": 5301,
      " അധികൃതർ": 5302,
      "ശ്ചിത": 5303,
      "രാവിലെ": 5304,
      " മുറ": 5305,
      "ാലയ": 5306,
      "ത്തിലധികം": 5307,
      "മുൻ": 5308,
      "ന്ധന": 5309,
      " അതില്": 5310,
      "‍സില": 5311,
      "‍പ്പടെ": 5312,
      " തുടങ്ങിയത്": 5313,
      " അടുത്തിടെ": 5314,
      "ശിവ": 5315,
      "മാക്കുന്ന": 5316,
      " എഎ": 5317,
      " പാസ": 5318,
      "സമൂഹ": 5319,
      "ക്കുമ്പോള്": 5320,
      " പിന്നെ": 5321,
      " രക്ഷാ": 5322,
      "ഭാവന": 5323,
      "മെയ്": 5324,
      " ഹരി": 5325,
      "ാവശ്യ": 5326,
      "വതി": 5327,
      "ക്രി": 5328,
      " പത്രിക": 5329,
      " വച്ച": 5330,
      "രിക്കാ": 5331,
      "ിക്കൽ": 5332,
      "ിക്കണമെന്ന്": 5333,
      "ാനു": 5334,
      " ഫു": 5335,
      " ഡിവൈ": 5336,
      "ടിയും": 5337,
      " തോന്നി": 5338,
      "ങ്ങളെല്ലാം": 5339,
      "ർശന": 5340,
      " വ്യാപാ": 5341,
      "‌കൂള്": 5342,
      " അഭ്യര്": 5343,
      " വൃത്ത": 5344,
      " ഗതാഗത": 5345,
      "കരം": 5346,
      "ക്കഴിഞ്ഞ": 5347,
      "ടിവി": 5348,
      "ഡിപി": 5349,
      "വേശ": 5350,
      " കയറ്റ": 5351,
      "77": 5352,
      " പള്ളി": 5353,
      " മമ്മ": 5354,
      " എഡി": 5355,
      "ക്കെട്ട": 5356,
      "ക്രമണ": 5357,
      " അയച്ച": 5358,
      " സംശയം": 5359,
      "ൽക്ക": 5360,
      "സ്വര്": 5361,
      " ഞങ്ങളുടെ": 5362,
      "ംഗ്ല": 5363,
      " തീരുമാനിച്ചു": 5364,
      " ശമ്പള": 5365,
      " രോഹി": 5366,
      "യുഎഇ": 5367,
      "ദ്യം": 5368,
      "ികളുമായി": 5369,
      " ജനങ്ങൾ": 5370,
      " നിർണ": 5371,
      " ആദ്യത്തെ": 5372,
      " പോലീസ": 5373,
      "ഡീഷ": 5374,
      "നൂ": 5375,
      " അങ്ങ": 5376,
      "ല്ലെങ്കില്": 5377,
      "ുമെല്ലാം": 5378,
      " ഒരുമിച്ച്": 5379,
      " സീറ്റുകൾ": 5380,
      " ഫോര്": 5381,
      " ബിജെപിയെ": 5382,
      "കരെ": 5383,
      "ണിവ": 5384,
      "ബൂ": 5385,
      " ആഹ്": 5386,
      "ടുത്ത്": 5387,
      "ഷ്ഠ": 5388,
      " വ്യക്തമായ": 5389,
      " നിർമ്മ": 5390,
      " ഖാന്": 5391,
      " വിഷയത്തിൽ": 5392,
      " ന്യൂസ്": 5393,
      "‌സിനേഷന്": 5394,
      " വ്യവസായ": 5395,
      " കെജ്രിവാ": 5396,
      "ഭോക്": 5397,
      " നിതീഷ്": 5398,
      "‍ക്കുന്നത്": 5399,
      "നാവശ്യ": 5400,
      " നേതാവും": 5401,
      " അഭിമാന": 5402,
      " തീരുമാനമ": 5403,
      " തീരുമാനിച്ചത്": 5404,
      " പരാതിയില്": 5405,
      " ഫോൺ": 5406,
      "തയുടെ": 5407,
      " മസ്": 5408,
      " എന്നിവയാണ്": 5409,
      " എന്നിവരുടെ": 5410,
      " നേരിട്ട": 5411,
      " പഞ്ചാബ്": 5412,
      " സംശയി": 5413,
      "എറണാകുളം": 5414,
      "ഒരാ": 5415,
      "ോഷ്": 5416,
      "‍ബന്ധ": 5417,
      "റ്റുകള്": 5418,
      " എന്നാല്": 5419,
      " കൊട്ട": 5420,
      " പൊട്ടി": 5421,
      " ദൃശ്യങ്ങള്": 5422,
      " നിർദ്ദേശം": 5423,
      "ഇക്കാര്യം": 5424,
      ".ജെ": 5425,
      "ബാല": 5426,
      " അതൃപ്തി": 5427,
      " നടന്": 5428,
      " തിക": 5429,
      " വീഴ്ച": 5430,
      " നീണ്ട": 5431,
      "മോദി": 5432,
      "ഭാവിക": 5433,
      " എതിർ": 5434,
      "റല്": 5435,
      "ത്തുന്നത്": 5436,
      "ത്തുവ": 5437,
      " ആവര്": 5438,
      "േണ്ടതില്ല": 5439,
      " ക്ലി": 5440,
      " അറിയിച്ചിട്ടുണ്ട്": 5441,
      "‍ണമായും": 5442,
      " എത്തുന്നത്": 5443,
      " സാധിക്കില്ല": 5444,
      " ഇത്തരമൊരു": 5445,
      " സതീശന്": 5446,
      " /": 5447,
      "ാവാ": 5448,
      "െണ്ണ": 5449,
      "‍വെ": 5450,
      "വിദ്യ": 5451,
      "ഞ്ഞത്": 5452,
      " കഴിവ": 5453,
      " ഇറക്ക": 5454,
      "വിടം": 5455,
      " ചൂണ്ടിക്കാട്ട": 5456,
      " സുരേന്ദ്രൻ": 5457,
      " ഭാരവാഹ": 5458,
      " ബംഗാള": 5459,
      "കൂടുതല്": 5460,
      "മണി": 5461,
      "ക്കിയിരുന്നു": 5462,
      " ജോർജ്": 5463,
      " ജാതി": 5464,
      " ഇന്നത്തെ": 5465,
      "er": 5466,
      "അമ്മ": 5467,
      "ചെന്ന": 5468,
      "നഷ്ട": 5469,
      "ീർ": 5470,
      " ശശി": 5471,
      " ഏഷ്യ": 5472,
      " ഓഹരി": 5473,
      "ജിസ്": 5474,
      " വേദന": 5475,
      " രാജ്യസഭ": 5476,
      " അനില്": 5477,
      "ുവിന്": 5478,
      " ഫേസ്ബുക്കില്": 5479,
      " ആഗ്രഹിക്കുന്ന": 5480,
      " കോടിയേരി": 5481,
      "ാനാവില്ല": 5482,
      "‍പ്പറേഷന്": 5483,
      "ീനം": 5484,
      "െയർ": 5485,
      "ക്കാള്": 5486,
      " കൊള്ള": 5487,
      " വാങ്ങിയ": 5488,
      "ഫ്റ്റ്": 5489,
      "‍ഗ്രസും": 5490,
      " എന്നിവർ": 5491,
      "രിയാന": 5492,
      " പിന്തുട": 5493,
      " വരെയാണ്": 5494,
      "വിന്ദ്": 5495,
      " തീവ്രവാദ": 5496,
      " സൈന്യ": 5497,
      "തൃശൂര്": 5498,
      "ഹാര്": 5499,
      "‌ത": 5500,
      " ആന്റ്": 5501,
      " ഓപ്പറ": 5502,
      "സിനോട്": 5503,
      "മാറ്റം": 5504,
      " പുരോഗതി": 5505,
      " ഇക്കാര്യത്തില്": 5506,
      "ിയ്ക്ക്": 5507,
      " ന്യൂനപക്ഷ": 5508,
      "99": 5509,
      " പള്ള": 5510,
      " കരി": 5511,
      "ട്ടീവ്": 5512,
      "ണ്ടോ": 5513,
      "വാള": 5514,
      " സിദ്ദ": 5515,
      " യോഗി": 5516,
      " പ്രത്യേകം": 5517,
      " ഉന്നയിച്ച": 5518,
      "കണ്ണൂർ": 5519,
      "ആദ്യം": 5520,
      " സമാനമായ": 5521,
      " ആദിത്യ": 5522,
      "ഇവരുടെ": 5523,
      "കല്": 5524,
      "വഴി": 5525,
      " ആസൂ": 5526,
      "രാൻ": 5527,
      " ശശ": 5528,
      "നുമായി": 5529,
      "മെഡിക്ക": 5530,
      " റെയ്": 5531,
      " പൊതുജന": 5532,
      " യുവാവ്": 5533,
      "ബ്ലിക്": 5534,
      "ശക്തമായ": 5535,
      " ഗൂഢാലോചന": 5536,
      "ഉപ": 5537,
      "കൈ": 5538,
      "ന്നത": 5539,
      " എമ്മ": 5540,
      "വാല": 5541,
      "യിലേ": 5542,
      " പ്രതികള്": 5543,
      "വർത്തി": 5544,
      "കാരി": 5545,
      " ക്ഷേമ": 5546,
      "ന്യൂഡല്": 5547,
      " ശരീര": 5548,
      "ളില്": 5549,
      "ൻസ": 5550,
      "ുകേഷ്": 5551,
      " കുവൈ": 5552,
      "‍ത്തകള്": 5553,
      " ഇടം": 5554,
      " സ്ഥാനത്തേക്ക്": 5555,
      " ബിജെപിയില്": 5556,
      "ഷണൽ": 5557,
      " യാദവ്": 5558,
      "വകാശ": 5559,
      "്മ": 5560,
      "ർന്നു": 5561,
      "ടുക്ക": 5562,
      "താല്": 5563,
      " പേരു": 5564,
      " ഫിലി": 5565,
      "ുകയെന്ന": 5566,
      " ചേർന്ന്": 5567,
      "ക്കളും": 5568,
      " ദുരി": 5569,
      " സമീപം": 5570,
      "റണാകുള": 5571,
      " സൈന്യം": 5572,
      "ഡൗണ്": 5573,
      "ാണിത്": 5574,
      " ചട": 5575,
      "ംഗം": 5576,
      "പ്രസ്": 5577,
      "പുതു": 5578,
      "ഇന്ത്യന്": 5579,
      " പ്രവേശനം": 5580,
      " സ്ത്രീകള്": 5581,
      " പാടില്ല": 5582,
      " വൈകീ": 5583,
      ".ഇ": 5584,
      "രേഖ": 5585,
      "േഷ്യ": 5586,
      "തെരഞ്ഞെടു": 5587,
      "മലപ്പുറം": 5588,
      " കാലാവധി": 5589,
      " തരംഗ": 5590,
      "യുള്ളൂ": 5591,
      "യ്ക്കുള്ള": 5592,
      "അപേക്ഷ": 5593,
      "ടന്": 5594,
      "യത്ത്": 5595,
      " ചുവ": 5596,
      " ബഹി": 5597,
      " ചെയ്യുകയും": 5598,
      "‍ഗ്രസിനെ": 5599,
      " സംഘടനാ": 5600,
      " ഉയർത്ത": 5601,
      " സഹോദര": 5602,
      " രാമചന്ദ്ര": 5603,
      " ണ": 5604,
      "‌നേഹ": 5605,
      " അള": 5606,
      " ചാണ്": 5607,
      " ഇയാൾ": 5608,
      "യുഡിഎഫ": 5609,
      "ലോട്ട്": 5610,
      " നേതൃത്വത്തിൽ": 5611,
      " കൊല്ലപ്പെട്ട": 5612,
      " മാനേജ്": 5613,
      " ശ്രദ്ധേയ": 5614,
      " ശിവസേന": 5615,
      " ഡെപ്യൂട്ടി": 5616,
      "54": 5617,
      " അത്തര": 5618,
      " ആണെന്ന്": 5619,
      " പ്രക്ഷോഭ": 5620,
      " പരിസ": 5621,
      "ടിയായി": 5622,
      " പ്രവർത്തിക്കുന്ന": 5623,
      " സന്ദേശ": 5624,
      " വീതവും": 5625,
      "53": 5626,
      " ആരെ": 5627,
      " കുറവ്": 5628,
      " ആരംഭിച്ചത്": 5629,
      " അടിസ്ഥാനത്തിലാണ്": 5630,
      "തുമുന്ന": 5631,
      "േണ്ടതുണ്ട്": 5632,
      "റ്റോ": 5633,
      " വിമാനം": 5634,
      "പ്രത്യ": 5635,
      " നിലനിര്": 5636,
      " രോഗികളുടെ": 5637,
      " അടച്ചി": 5638,
      " വായ്പ": 5639,
      " കത്ത്": 5640,
      " ഇതിനെ": 5641,
      "റ്റല്": 5642,
      " ഓർ": 5643,
      " കേരളത്തിന്റെ": 5644,
      " അറിയിച്ച": 5645,
      " കാണാ": 5646,
      "പോലീസ്": 5647,
      " അനൂ": 5648,
      "മുണ്ടായ": 5649,
      " ചൂണ്ടിക്കാണ": 5650,
      "സ്ത്രീക": 5651,
      " നമ്പര്": 5652,
      " സച്ചിന്": 5653,
      " അദ": 5654,
      " തുടരും": 5655,
      " വ്യക്തമല്ല": 5656,
      " രാജ്യങ്ങള്": 5657,
      " താഴ്": 5658,
      " ഡയറക്ടര്": 5659,
      " ട്വിറ്റ": 5660,
      " കുന്ന": 5661,
      "പിനെ": 5662,
      " കുടി": 5663,
      "ുകളിലാണ്": 5664,
      "ൈലജ": 5665,
      " കരാര്": 5666,
      " സ്വാധീനം": 5667,
      " പരസ്യമായി": 5668,
      "al": 5669,
      "നയ": 5670,
      " പതിന": 5671,
      " ഹർജി": 5672,
      "നേര": 5673,
      " വർഗ": 5674,
      " ഡോക്ടർ": 5675,
      "തായാണ്": 5676,
      " കമല്": 5677,
      " ഭാരത്": 5678,
      " യുഡിഎഫിന്": 5679,
      " വയസ്സുള്ള": 5680,
      "‍പ്പ്": 5681,
      "ട്ടര്": 5682,
      " ആദ": 5683,
      "ശ്വര്": 5684,
      "മാർക്ക്": 5685,
      " രണ്ടാമത്തെ": 5686,
      "തിരെയും": 5687,
      "ദാബി": 5688,
      " പുരോഗമ": 5689,
      " ക്രൈംബ": 5690,
      "തക": 5691,
      "പിയെ": 5692,
      "യേ": 5693,
      " കൗ": 5694,
      "വർഷ": 5695,
      " വേദി": 5696,
      "ക്രമം": 5697,
      " സ്ഥാപനങ്ങള്": 5698,
      "‌സൈ": 5699,
      " ശതമാനവും": 5700,
      "‍ദ്ദേശം": 5701,
      "‌ട്ര": 5702,
      " കാനഡ": 5703,
      "പ്പർ": 5704,
      "സ്ഥല": 5705,
      " രാജീവ്": 5706,
      " കെസി": 5707,
      " പദ്ധതിയുടെ": 5708,
      " ജീവനക്കാര്": 5709,
      " കലാപ": 5710,
      " ബജറ്റ്": 5711,
      " ഇദ്ദേഹം": 5712,
      " വിഷ്ണു": 5713,
      "400": 5714,
      "‍ന്നിരുന്നു": 5715,
      " എനിക്ക": 5716,
      " താൽ": 5717,
      " ഏഴ": 5718,
      " റേ": 5719,
      " ഇടപാട": 5720,
      " എന്നിവരും": 5721,
      " രാജ്യത്തിന്റെ": 5722,
      " തൊഴിൽ": 5723,
      " പൂജ": 5724,
      "പിന്നാലെ": 5725,
      " ചുരു": 5726,
      "-ാം": 5727,
      "വൂര്": 5728,
      "മാരി": 5729,
      " ആഗോള": 5730,
      "റ്റ്യൂ": 5731,
      " കുട": 5732,
      "ത്തെത്തി": 5733,
      " നൽകാൻ": 5734,
      "മുണ്ടായിരുന്നു": 5735,
      " തയ്യാറാക": 5736,
      " ക്രിസ്": 5737,
      " ക്കു": 5738,
      "ക്കണമെന്ന്": 5739,
      " കളി": 5740,
      " സഹിതം": 5741,
      "യാണെന്നും": 5742,
      "തുറ": 5743,
      "കുറ്റ": 5744,
      " തുടരു": 5745,
      " രൂപം": 5746,
      " തിരിച്ചുവ": 5747,
      " വിഭാഗത്തില്": 5748,
      "ബിജെപിയുടെ": 5749,
      "തിരെയുള്ള": 5750,
      "രണ്ടാം": 5751,
      " രോഗബാധിത": 5752,
      " ഗൗരവ": 5753,
      "കീ": 5754,
      " ശബരിമല": 5755,
      " പിന്നി": 5756,
      "മ്മു": 5757,
      "വേള": 5758,
      " സ്വദേശികളായ": 5759,
      " തേട": 5760,
      "ഇതോടെയാണ്": 5761,
      " കയറ": 5762,
      "ിക്കുമ്പോള്": 5763,
      "ഏപ്": 5764,
      "റഷ്യ": 5765,
      "ലുകൾ": 5766,
      " വസ": 5767,
      " വരി": 5768,
      "വാരണ": 5769,
      " പരിഷ്": 5770,
      " മറ്റും": 5771,
      "പ്രതിജ്ഞ": 5772,
      "72": 5773,
      "മറി": 5774,
      "വത്": 5775,
      "തിരുന്ന": 5776,
      "ല്ലെന്ന്": 5777,
      " സംഗ": 5778,
      "കളില": 5779,
      " റിപ്പ": 5780,
      " എന്നിവരെ": 5781,
      " കൂടിയായ": 5782,
      " നിയന്ത്രണങ്ങള്": 5783,
      "കോൺഗ്രസ്": 5784,
      "കരു": 5785,
      "നത്തിന്റെ": 5786,
      "മന്": 5787,
      "മാക്കാന്": 5788,
      " ആസ്തി": 5789,
      "ാനിയ": 5790,
      " സംവ": 5791,
      " സംഭാവന": 5792,
      " പറയു": 5793,
      " ഭാവ": 5794,
      "ബുദാബി": 5795,
      " റെയിൽ": 5796,
      " അവർക്ക്": 5797,
      " നിറഞ്ഞ": 5798,
      " ഔദ്യോഗിക": 5799,
      ".അ": 5800,
      "ഥ്": 5801,
      "പണം": 5802,
      "ഭേദ": 5803,
      "യെന്നും": 5804,
      "വിലുള്ള": 5805,
      "ഹോ": 5806,
      " പന്": 5807,
      " മരുന്ന": 5808,
      " ഭാവി": 5809,
      "നുമായ": 5810,
      "ളിന്റെ": 5811,
      " പൊതുമ": 5812,
      " നിരന്തരം": 5813,
      " സൗകര്യം": 5814,
      " പോകാന്": 5815,
      " ആയിരിക്കും": 5816,
      "ംബര": 5817,
      " ആരംഭിച്ചു": 5818,
      "സ്വന്തം": 5819,
      "ക്കാർക്ക്": 5820,
      "ദ്രാവാക്": 5821,
      ".എല്": 5822,
      "‍ഘ": 5823,
      " നാം": 5824,
      "മിനി": 5825,
      "‍ഷന്": 5826,
      " കുറയ": 5827,
      " മൂല്യ": 5828,
      " ധര്": 5829,
      " നമ്മൾ": 5830,
      " പിടിയില": 5831,
      "സാമ": 5832,
      "‍പി": 5833,
      " അപ്പ": 5834,
      " അവി": 5835,
      "ത്തൂര്": 5836,
      " ഇതര": 5837,
      " പിതാവ്": 5838,
      " കുഞ്ഞി": 5839,
      " കേട്ട": 5840,
      "കരമായി": 5841,
      " കയറിയ": 5842,
      " എക്സ്": 5843,
      " മുഖേന": 5844,
      "66": 5845,
      "റ്റിയ": 5846,
      " വിഭ": 5847,
      "വിറ്റി": 5848,
      " വേഗത": 5849,
      " രാജ്യങ്ങളില്": 5850,
      "കൂടം": 5851,
      " ശ്രമിക്കുന്നത്": 5852,
      "പിന്നെ": 5853,
      "ദുബ": 5854,
      " ബാലചന്ദ്ര": 5855,
      " അമേരിക്കന്": 5856,
      "78": 5857,
      "ഇതിന": 5858,
      "ബംഗ": 5859,
      "‍ഖ": 5860,
      "‍ഫോ": 5861,
      "രുതെന്നും": 5862,
      " സ്പ": 5863,
      " ലഹരി": 5864,
      "നിന്ന": 5865,
      " കാസർ": 5866,
      " ശ്രീക": 5867,
      " ഉണ്ടാക്ക": 5868,
      " യൂറോ": 5869,
      " വീട്ടിലേക്ക്": 5870,
      "‍സിപ്പ": 5871,
      " മത്സരാർത്ഥ": 5872,
      "ണിവേഴ്": 5873,
      "ഇത": 5874,
      "ചക": 5875,
      " വില്ല": 5876,
      "മ്പന്": 5877,
      " കാർ": 5878,
      " ഓട്ടോ": 5879,
      "രിയായ": 5880,
      " ജീവന്": 5881,
      " സ്ഥിരീകരിച്ച്": 5882,
      " പിടിച്ച്": 5883,
      " പത്ത": 5884,
      " പശ്ചിമ": 5885,
      "രിക്കാം": 5886,
      " അപ്രതീക്ഷിത": 5887,
      " ഇരിക്ക": 5888,
      " വിജില": 5889,
      " ആശ്ര": 5890,
      " വർധന": 5891,
      " ആയിരുന്ന": 5892,
      "മലയാള": 5893,
      " വരുത്തി": 5894,
      "സൗദി": 5895,
      "കുന്നത്": 5896,
      "ഗാന്": 5897,
      " ദാ": 5898,
      "മിനെ": 5899,
      "ണിന്റെ": 5900,
      " സെപ്റ്റ": 5901,
      "ത്തിനാണ്": 5902,
      " തുടങ്ങിയവ": 5903,
      " സേവനം": 5904,
      " എതിരാ": 5905,
      " പോലീസിന്": 5906,
      " മാതാപി": 5907,
      "പദ്ധതി": 5908,
      "ഷണം": 5909,
      "തിനെതിരെ": 5910,
      "ങ്ങും": 5911,
      " വിക": 5912,
      " ഉത്": 5913,
      "താശ്വാസ": 5914,
      " സ്ഥി": 5915,
      " കേന്ദ്രമന്ത്രി": 5916,
      "ടുംബാ": 5917,
      " മണിക്കുട്ട": 5918,
      "ാലിറ്റി": 5919,
      " കിലോമീറ്റര്": 5920,
      "മന്ത്": 5921,
      "ലിലെ": 5922,
      "‍ഫ്": 5923,
      " പിയുടെ": 5924,
      "ടുവിൽ": 5925,
      " ഗവർണ": 5926,
      " ഗോവ": 5927,
      "‍ഥി": 5928,
      "അപകട": 5929,
      "മട": 5930,
      "സിയുടെ": 5931,
      " ഇഡി": 5932,
      "ാമെന്ന്": 5933,
      " മോഡ": 5934,
      " സംഭവത്തിൽ": 5935,
      " പോരാട്ടം": 5936,
      "എഫ്ഐ": 5937,
      " കസ്റ്റഡിയില": 5938,
      " മൊബൈല്": 5939,
      " ഇപ്പോഴത്തെ": 5940,
      " നന്നായി": 5941,
      "an": 5942,
      "ജാതി": 5943,
      " പകർ": 5944,
      " സന്ന": 5945,
      " മുദ്രാവാക്": 5946,
      "ട്ടിന്": 5947,
      "മ്പു": 5948,
      " പ്രതികളെ": 5949,
      " റിയാ": 5950,
      " തുടർന്ന": 5951,
      " നിലനിൽ": 5952,
      " ലക്ഷണ": 5953,
      " മാറ്റിയ": 5954,
      "‍പ്പിച്ച": 5955,
      " പ്രവർത്തനങ്ങൾ": 5956,
      " പഠനം": 5957,
      " തമ്മിൽ": 5958,
      "ധാകൃഷ്ണ": 5959,
      "മഹാരാഷ്ട്ര": 5960,
      " ഇറക്കുമതി": 5961,
      "ഇന്": 5962,
      " പാവ": 5963,
      "പ്പിച്ചിരുന്നു": 5964,
      "ണ്ടായ": 5965,
      "താക്കൾ": 5966,
      "‍ച്ചയായ": 5967,
      " പ്രധാനപ്പെട്ട": 5968,
      " കോൺഗ്രസിന്": 5969,
      " അത്യാ": 5970,
      " സമ്മര്": 5971,
      " ഇളവ്": 5972,
      " ഗുജറാത്ത്": 5973,
      " തൃണമൂല്": 5974,
      ",\n": 5975,
      " പൈ": 5976,
      " സിവ": 5977,
      "ാനില്": 5978,
      " നടന്നി": 5979,
      "മ്പതി": 5980,
      "കളിലെ": 5981,
      "ബ്ല്": 5982,
      " ഇടയാ": 5983,
      " മൊത്തം": 5984,
      " താരതമ": 5985,
      " നേരിടേണ്ടി": 5986,
      " ലൈംഗിക": 5987,
      "കുന്നേ": 5988,
      " വിമർശനം": 5989,
      "ീപ്": 5990,
      "‍പ്പെടുത്ത": 5991,
      "തിരി": 5992,
      "ായാണ്": 5993,
      " സുധ": 5994,
      " കടന്നു": 5995,
      " ബിജെപിയും": 5996,
      " ക്യാമറ": 5997,
      " നേട്ടങ്ങള്": 5998,
      " ?\n": 5999,
      "ആശുപത്രി": 6000,
      "ഇടുക്കി": 6001,
      "പണ": 6002,
      "വിയ": 6003,
      " കടു": 6004,
      " വിവേ": 6005,
      " ഡാറ്റ": 6006,
      "ിച്ചിരുന്നില്ല": 6007,
      "ബുല": 6008,
      "നിലവിലെ": 6009,
      " തൊട്ട": 6010,
      " തട്ടിപ്പ്": 6011,
      " റിപ്പോർട്ടുകൾ": 6012,
      " ബാനര്": 6013,
      "ഹാര": 6014,
      " വട": 6015,
      "യിട്ട": 6016,
      " നെടു": 6017,
      "ദ്വേഷ": 6018,
      "സ്ഥത": 6019,
      "ളിത്": 6020,
      " നോക്കിയ": 6021,
      " തുറന്നു": 6022,
      " എന്നിങ്ങനെയാണ്": 6023,
      " അപകടം": 6024,
      " മുല്ലപ്പള്ളി": 6025,
      " വിനോദ": 6026,
      "സൂര്യ": 6027,
      " അലി": 6028,
      " ഇന്നും": 6029,
      "വികസ": 6030,
      " ഗൗ": 6031,
      " അടിച്ച": 6032,
      " ഭരണകൂടം": 6033,
      " അല്ലെങ്കില്": 6034,
      "ചൊ": 6035,
      "ർജ": 6036,
      " സഞ്ജ": 6037,
      "െന്നു": 6038,
      " സംഘപരി": 6039,
      " കാണാൻ": 6040,
      " സീറ്റുകളില്": 6041,
      " എത്തിയിരുന്നു": 6042,
      "‍ഡില്": 6043,
      " പുനഃ": 6044,
      "ദ്വീപ്": 6045,
      " ദുബായി": 6046,
      "62": 6047,
      "രെയാണ്": 6048,
      "ീൻ": 6049,
      "‌നാട്": 6050,
      " വടക്ക": 6051,
      " അതിന": 6052,
      "റ്റിക്": 6053,
      " ഇന്ത്യയിൽ": 6054,
      "ധികാരി": 6055,
      " ബാലകൃഷ്ണ": 6056,
      "മ്പോഴാണ്": 6057,
      " ങ്ങ": 6058,
      "ആകെ": 6059,
      "ദാസ്": 6060,
      "ഫര്": 6061,
      " മണ്ണ": 6062,
      " മില്യ": 6063,
      " മാപ്പ്": 6064,
      "യിലേക്കുള്ള": 6065,
      "തുമായ": 6066,
      "മിറ്റ": 6067,
      " ഡൗണ്": 6068,
      "ജിന്റെ": 6069,
      " ചെയ്യണം": 6070,
      "പാൽ": 6071,
      "അതാണ്": 6072,
      "ഞ്ചി": 6073,
      " ആവശ്യമാണ്": 6074,
      " നടത്താൻ": 6075,
      " ഏറ്റു": 6076,
      " ധാരാ": 6077,
      "ിനീയ": 6078,
      "‍മാണ": 6079,
      " പരിഹസ": 6080,
      " ബിസിനസ്": 6081,
      " സ്കൂള": 6082,
      "തിനാലാണ്": 6083,
      " ച്ച": 6084,
      "അതിനാല്": 6085,
      "ീന്ദ്ര": 6086,
      "ോടകം": 6087,
      "ത്തേയും": 6088,
      " ദശ": 6089,
      " പുസ്ത": 6090,
      "ധികൃത": 6091,
      " ചിന്ത": 6092,
      "ാർഥ": 6093,
      "കേരളത്തിൽ": 6094,
      " മനസ": 6095,
      " ആക്രമിച്ച": 6096,
      " രേഖപ്പെടുത്ത": 6097,
      " നെഗറ്റീവ്": 6098,
      "യത്": 6099,
      "‍സര്": 6100,
      " നിർദേശം": 6101,
      " വർധ": 6102,
      " അംഗീകരിച്ച": 6103,
      " യോഗത്തിൽ": 6104,
      " ഭരണഘടന": 6105,
      " ഉണ്ടായിരുന്നത്": 6106,
      " പറയാൻ": 6107,
      "സംഭവത്തില്": 6108,
      " അട്ടിമറ": 6109,
      " വക്താവ്": 6110,
      " യും": 6111,
      "64": 6112,
      "ഇവരെ": 6113,
      "കരാ": 6114,
      "ക്തിയ": 6115,
      " പ്രയാ": 6116,
      " ഫണ്ട്": 6117,
      "ദ്യോഗ": 6118,
      " ഡീസ": 6119,
      " സാധ്യതയുള്ള": 6120,
      " തലസ്ഥാന": 6121,
      " കഴിയാത്ത": 6122,
      " ജീവിതത്തില്": 6123,
      " ജോസഫ": 6124,
      " തൊഴിലാളികള്": 6125,
      " അംഗീകാരം": 6126,
      "സിപിഎം": 6127,
      " വെല്ലുവിളി": 6128,
      " തിരുവനന്തപുരത്ത്": 6129,
      " ൻ": 6130,
      "ാഴ്ച്ച": 6131,
      " പഴ": 6132,
      " സജി": 6133,
      "യില്ലാത്ത": 6134,
      " മുകളില്": 6135,
      " ബഹ": 6136,
      "യാലും": 6137,
      " പൊളി": 6138,
      "ക്കുമ്പോൾ": 6139,
      " ഉപതിരഞ്ഞെടു": 6140,
      "റോളം": 6141,
      "ബാദ": 6142,
      " കഴിയുന്നത്": 6143,
      " പൂർണ്ണ": 6144,
      " നേരത്തേ": 6145,
      " ഹൈക്കമാന്": 6146,
      " ദേശ": 6147,
      " ന്നു": 6148,
      "ഇതിനായി": 6149,
      "ഷന": 6150,
      "ട്യൂ": 6151,
      "ങ്ങളൊന്നും": 6152,
      " കാണുന്നു": 6153,
      " നിന്നെത്തിയ": 6154,
      "കേരളം": 6155,
      " പരിഹരിക്ക": 6156,
      "യുണ്ടായി": 6157,
      " ആനുകൂ": 6158,
      "ോടൊപ്പം": 6159,
      "യിട്ട്": 6160,
      " നാമ": 6161,
      "മാറിയ": 6162,
      " ആൻഡ്": 6163,
      " വിപുല": 6164,
      " പൊള": 6165,
      " കുറിച്ചും": 6166,
      "‍ണവില": 6167,
      " ഉപയോഗിക്കുന്ന": 6168,
      " വന്നിട്ടുണ്ട്": 6169,
      " സുരേഷ": 6170,
      " തിരക്ക": 6171,
      "എന്തായാലും": 6172,
      " പ്രണയ": 6173,
      "ചോ": 6174,
      "ടതിയെ": 6175,
      "ർഥ": 6176,
      "ട്ടർ": 6177,
      " എപ്പോഴും": 6178,
      "ിക്കെ": 6179,
      " പ്രകോ": 6180,
      " എന്നാൽ": 6181,
      "‍ക്കൊപ്പം": 6182,
      "‍ത്താ": 6183,
      " ഉണ്ടാവും": 6184,
      " കാര്യത്തിൽ": 6185,
      " ലോക്സഭ": 6186,
      " കമന്റ": 6187,
      " പാർട്ടിയുടെ": 6188,
      "ിക്കൊണ്ടു": 6189,
      " ആന്റി": 6190,
      " ജയിലില്": 6191,
      " അവസാനിപ്പിക്ക": 6192,
      " ഒട്ടേറെ": 6193,
      " ആഹ്വ": 6194,
      "രണ്ടു": 6195,
      " പടിഞ്ഞ": 6196,
      " വരുന്നു": 6197,
      " തനിക്ക": 6198,
      " സാംസ്": 6199,
      "പ്രദ": 6200,
      " ഓൺ": 6201,
      "റ്റിംഗ്": 6202,
      " അംഗങ്ങള്": 6203,
      " ആളാണ്": 6204,
      " വർഷത്തെ": 6205,
      " കമ്മീഷൻ": 6206,
      "ത്രു": 6207,
      " എഐ": 6208,
      "ത്തെക്കുറിച്ച്": 6209,
      " പാസ്": 6210,
      "‍ശം": 6211,
      " ദിവസമാണ്": 6212,
      "സുരക്ഷ": 6213,
      " ചോദിക്കുന്നു": 6214,
      "ഘാത": 6215,
      "ജോലി": 6216,
      "അദ്ദേഹത്തിന്റെ": 6217,
      "ത്തിനുള്ളില്": 6218,
      " ജില്ലകളിലും": 6219,
      " പിൻവല": 6220,
      "അവർ": 6221,
      "ത്താൻ": 6222,
      "റിംഗ്": 6223,
      "ാന്തി": 6224,
      " നേതാവാണ്": 6225,
      "ത്സവ": 6226,
      " സംസ്ഥാനം": 6227,
      "ട്ടില്ലെന്നും": 6228,
      " സ്ഥിരീകരിച്ചിട്ടുണ്ട്": 6229,
      " ചോദ്യത്തിന്": 6230,
      "‍മാരുടെ": 6231,
      "കൃതി": 6232,
      " അണി": 6233,
      "ാലക്കു": 6234,
      " കുള": 6235,
      " തിങ്കളാഴ്ച": 6236,
      "റിയും": 6237,
      " അനുസ": 6238,
      " പ്രഖ്യാ": 6239,
      " പഞ്ചാബ": 6240,
      " സംരക്ഷണ": 6241,
      " ഇന്റര്": 6242,
      " തെറ്റിദ്ധ": 6243,
      "താനും": 6244,
      "റുകളും": 6245,
      "ീണ": 6246,
      "തിരുവനന്തപു": 6247,
      " ആവർത്തി": 6248,
      " ഉണ്ടെന്ന്": 6249,
      "ിച്ചിട്ടുള്ളത്": 6250,
      " ഡിസ്": 6251,
      " മത്സരിപ്പിക്ക": 6252,
      " പ്രചരണം": 6253,
      " പ്രതീക്ഷിക്കുന്നത്": 6254,
      "ുകാരും": 6255,
      " എൽഡിഎഫ്": 6256,
      ".ബി": 6257,
      " കത്ത": 6258,
      " വേഷ": 6259,
      "പ്രായ": 6260,
      "മാക്കിയത്": 6261,
      " തർക്ക": 6262,
      " ആക്": 6263,
      "െയുടെ": 6264,
      " സ്വഭാവ": 6265,
      " കുറിച്ചുള്ള": 6266,
      " തെലങ്കാന": 6267,
      "പ്പെടാന്": 6268,
      " ഉപകരണ": 6269,
      "നിയായ": 6270,
      "പ്രതിനി": 6271,
      " ജാമ്യ": 6272,
      " അതീവ": 6273,
      "63": 6274,
      "ചാര": 6275,
      "ടത്തും": 6276,
      "മരണ": 6277,
      "റങ്ങി": 6278,
      " ഉരു": 6279,
      " ദീപ": 6280,
      " പാറ": 6281,
      " കാര്യങ്ങളും": 6282,
      " ധോ": 6283,
      "‍പ്പന": 6284,
      "ാണുള്ളത്": 6285,
      " അപേക്ഷിക്കാം": 6286,
      "‍എമാര്": 6287,
      " അവതരിപ്പിക്ക": 6288,
      " മണിക്കൂറിനിടെ": 6289,
      "ഭക്ഷ": 6290,
      "വോട്ട": 6291,
      " അഗ": 6292,
      " എഫ": 6293,
      "ുകാരി": 6294,
      " ഇന്ധന": 6295,
      " ഉളള": 6296,
      "പ്പോഴി": 6297,
      " നിരക്ക": 6298,
      " തൃശ്ശ": 6299,
      " ചികിത്സയില്": 6300,
      " കണക്കുകള്": 6301,
      " മുഖം": 6302,
      " പാകിസ്ത": 6303,
      "ാക്കുന്ന": 6304,
      " വിഡി": 6305,
      " ബില്ല": 6306,
      " നിങ്ങളെ": 6307,
      "വാർ": 6308,
      "പിണറായി": 6309,
      "ഡിറ്റ്": 6310,
      " പുഴ": 6311,
      "മുണ്ടെന്ന്": 6312,
      " സംഘർഷ": 6313,
      "ക്രമണം": 6314,
      " ഉയര": 6315,
      " സാധിച്ചു": 6316,
      " യൂണിവേഴ്": 6317,
      " അടിസ്ഥാനത്തിൽ": 6318,
      "ട്രോ": 6319,
      " ലോകക": 6320,
      " സുപ്രധാന": 6321,
      " പരിശീലനം": 6322,
      " താലൂക്ക്": 6323,
      " അതോറിറ്റി": 6324,
      "അവസ": 6325,
      "ഉമ്മ": 6326,
      " സഖ": 6327,
      " വെയ്": 6328,
      "താം": 6329,
      "ത്സാ": 6330,
      " കാര്യമായ": 6331,
      "ഭാഗ്യ": 6332,
      " കമ്മ്യൂണി": 6333,
      "ട്ടിയാണ്": 6334,
      " തൃക്കാക്കര": 6335,
      " പഠി": 6336,
      " ഷാജി": 6337,
      "പത്ര": 6338,
      "മധ്യ": 6339,
      "ക്കൽ": 6340,
      " നാഗ": 6341,
      " മരുന്ന്": 6342,
      "രിക്കുകയും": 6343,
      "നുസരിച്ച്": 6344,
      " വ്യക്തമായി": 6345,
      "ന്റേയും": 6346,
      " പ്രഖ്യാപിച്ചിട്ടുണ്ട്": 6347,
      " അടക്കമുളള": 6348,
      " ക്രൂ": 6349,
      " ഗുരുതരമായ": 6350,
      "ലികോ": 6351,
      "അതിന്റെ": 6352,
      "ൻറെ": 6353,
      "‍വര്": 6354,
      " നായക": 6355,
      " അശ്": 6356,
      "ിയായിരുന്നു": 6357,
      " എല്ല": 6358,
      " ജയ്": 6359,
      "യുളള": 6360,
      "നിന്നും": 6361,
      " നിലനി": 6362,
      " പരിശോധിച്ച": 6363,
      "‍ലാല്": 6364,
      " വിശദമായ": 6365,
      "പ്രദേശില്": 6366,
      " സമ്മേളനം": 6367,
      " പോസിറ്റീ": 6368,
      "‍എസ്എസ്": 6369,
      " റിയാസ്": 6370,
      "ഇവരില്": 6371,
      "നാല": 6372,
      "ക്കയ": 6373,
      " കർശന": 6374,
      " പ്രസ്ഥാന": 6375,
      " സംയുക്ത": 6376,
      " ഭർത്ത": 6377,
      "ാരോഗ്യ": 6378,
      "ത്തിലേ": 6379,
      " ബാക്കി": 6380,
      " കുറവാണ്": 6381,
      "സുഖ": 6382,
      "മില്ലാതെ": 6383,
      " വിജയിച്ചത്": 6384,
      " പോസിറ്റീവ്": 6385,
      "ുകയാണെങ്കില്": 6386,
      "ടുംബാംഗ": 6387,
      "നിങ്ങള്": 6388,
      "പിടി": 6389,
      " വാടക": 6390,
      "അതായത്": 6391,
      "റിയാം": 6392,
      " കെകെ": 6393,
      "ണിക്കുന്നു": 6394,
      "കർഷ": 6395,
      " വോട്ടെടുപ്പ്": 6396,
      " ഓഫീസർ": 6397,
      " കുറ്റം": 6398,
      " ഉറപ്പാണ്": 6399,
      "ലക്ഷം": 6400,
      " രജിസ്റ്റർ": 6401,
      " സന്ദേശം": 6402,
      "88": 6403,
      "ഏക": 6404,
      "ഡീ": 6405,
      "‍ഭ": 6406,
      "‍മി": 6407,
      "സ്തീ": 6408,
      " സംരംഭ": 6409,
      "197": 6410,
      " തയ്യാറെ": 6411,
      " ഇരട്ട": 6412,
      " റൂമ": 6413,
      "ധുനിക": 6414,
      " അമരീ": 6415,
      " സാമ്പിളുകളാണ്": 6416,
      "സ്പരം": 6417,
      "പരിശോധന": 6418,
      " ക്കാ": 6419,
      "നിയുടെ": 6420,
      "ഹര്": 6421,
      " ബില്": 6422,
      "സിനു": 6423,
      " കാഞ്ഞ": 6424,
      "ാവസ്ഥ": 6425,
      " നടത്തുന്നു": 6426,
      " നടത്തുകയും": 6427,
      " ഓഫീസില്": 6428,
      " അല്ലെങ്കിൽ": 6429,
      " മണിപ്പ": 6430,
      "മികച്ച": 6431,
      " അക്കാദ": 6432,
      "തനിക്ക്": 6433,
      "റങ്ങ": 6434,
      " ആശ്വാസ": 6435,
      " രാധാകൃഷ്ണ": 6436,
      " രൂപീകരിച്ച": 6437,
      "ടനീ": 6438,
      " വർദ്ധ": 6439,
      " കോടതിയുടെ": 6440,
      " തീരുമാനിച്ച": 6441,
      " ടിവി": 6442,
      " നിൽക്കുന്ന": 6443,
      " ഔദ്യോഗിക": 6444,
      " വേളയില്": 6445,
      "മാക്കും": 6446,
      " മാറും": 6447,
      "തുമായി": 6448,
      "ികളെയും": 6449,
      "ദിനം": 6450,
      " ഭാഗം": 6451,
      " വേണ്ടത്": 6452,
      " പ്രശ്നം": 6453,
      " ഭരണകൂട": 6454,
      " പ്രത്യേകത": 6455,
      "സ്വം": 6456,
      " നഷ്ടപ്പെട്ട": 6457,
      "‍ലമെന്റ": 6458,
      " ചന്ദ്രശേഖ": 6459,
      "പ്പോഴിതാ": 6460,
      "ഇതിനെ": 6461,
      "ക്കണമെന്നും": 6462,
      "ിയോട്": 6463,
      "ക്കാരും": 6464,
      "ഡിന്റെ": 6465,
      " ഹോട്ട്": 6466,
      " ലീഡ്": 6467,
      " ശതമാനമാണ്": 6468,
      "ക്കുറിച്ചും": 6469,
      " ഇസ്രായേല്": 6470,
      " ഏപ്രില്": 6471,
      " സർവീസ്": 6472,
      " മയക്കുമ": 6473,
      "ജാ": 6474,
      "ലിക്കാ": 6475,
      "‍മ്മാണ": 6476,
      " അൽ": 6477,
      " കേൾ": 6478,
      "ാരീ": 6479,
      "റ്റിവിറ്റി": 6480,
      " ഇടതുമുന്ന": 6481,
      " പങ്കാള": 6482,
      " മണ്ഡലത്തിലെ": 6483,
      " വീട്ടിലെ": 6484,
      "‍സിപി": 6485,
      " കണ്ടെത്താന്": 6486,
      " ചർച്ചകൾ": 6487,
      " നാട്ടുകാര്": 6488,
      " സത്യപ്രതിജ്ഞ": 6489,
      "മൈക്ര": 6490,
      "അതുപോലെ": 6491,
      "ഭുത": 6492,
      "റം": 6493,
      " കച്ചവ": 6494,
      "മാര": 6495,
      "ലിശ": 6496,
      " തുടർച്ച": 6497,
      " ആവശ്യപ്പെട്ടത്": 6498,
      "പ്പിക്കുകയും": 6499,
      "പ്പാട്": 6500,
      " പങ്കെടുത്തി": 6501,
      " സഹോദരി": 6502,
      " വൈകിട്ട്": 6503,
      " എഞ്ചിനീയ": 6504,
      "ളാ": 6505,
      "യിട്ടുള്ള": 6506,
      " അദ്": 6507,
      "മാസം": 6508,
      "‍കോട്": 6509,
      " വേട്ട": 6510,
      " വന്നാല്": 6511,
      "‍ട്ടികള്": 6512,
      "ിലാളി": 6513,
      "ബന്ധന": 6514,
      " മാധ്യമപ്രവര്": 6515,
      " ശിവശങ്ക": 6516,
      " ദിനം": 6517,
      "ദിവസ": 6518,
      " ഏറ്റുമുട്ട": 6519,
      "ചെയ്യ": 6520,
      " അജ": 6521,
      " ആദ്മി": 6522,
      " ഭരിക്കുന്ന": 6523,
      "ണമെങ്കില്": 6524,
      " അതിജീവിത": 6525,
      " ഉറവിടം": 6526,
      " വാക്സിന്": 6527,
      "‍ഡര്": 6528,
      " വ്യക്തിയാണ്": 6529,
      " തെറ്റായ": 6530,
      " മലയാളം": 6531,
      " വ്യാപകമായി": 6532,
      " പ്രൊഫ": 6533,
      "മത്സ": 6534,
      "സഖ്യ": 6535,
      "‌ക്കെതിരെ": 6536,
      "ച്ചും": 6537,
      " ഇതോടെ": 6538,
      " ബല": 6539,
      " നിങ്ങൾക്ക്": 6540,
      " പ്രതിയെ": 6541,
      " ഓളം": 6542,
      "കേസില്": 6543,
      " എസ്പി": 6544,
      " വർധി": 6545,
      " അനുവദിച്ച": 6546,
      "‍ഗീയ": 6547,
      " പോലീസിന്റെ": 6548,
      " നൽകിയിട്ടുണ്ട്": 6549,
      " ഹാജരാക": 6550,
      " പ്രമേയം": 6551,
      " പീഡന": 6552,
      " നിർണായക": 6553,
      "es": 6554,
      "ക്യാ": 6555,
      " പറ്റി": 6556,
      " ആവ": 6557,
      " ശനിയാഴ്ച": 6558,
      "ബിന്": 6559,
      " കേരളത്തിന്": 6560,
      " അതിർത്തി": 6561,
      " മാധ്യമങ്ങളോട്": 6562,
      " വ്യാപാര": 6563,
      " പഞ്ചായത്തിലെ": 6564,
      " ഇല്ലാതെ": 6565,
      "പരാതി": 6566,
      "പ്രത്യേക": 6567,
      "തയെ": 6568,
      " കൗൺ": 6569,
      " ആറ": 6570,
      " ചട്ട": 6571,
      " രഞ്": 6572,
      "ുമൊക്കെ": 6573,
      "ബിസിന": 6574,
      " ഞായറാഴ്ച": 6575,
      "ബുധ": 6576,
      "‍സ്റ്റി": 6577,
      " വോട്ടുകൾ": 6578,
      " കളക്ടർ": 6579,
      "പരിധി": 6580,
      " ചെലവ്": 6581,
      " കണക്കുകൾ": 6582,
      "ട്ടുണ്ടോ": 6583,
      " ദുരിതാശ്വാസ": 6584,
      " വികസി": 6585,
      "250": 6586,
      "മിയുടെ": 6587,
      "ളുകള്": 6588,
      "വയ്": 6589,
      "ിരിക്കുന്നത്": 6590,
      "ട്രീ": 6591,
      "പ്പാണ്": 6592,
      " ശരി": 6593,
      " പേജ": 6594,
      "ജിന്": 6595,
      "‍ത്തുന്ന": 6596,
      " എംപ": 6597,
      "ലാത്സ": 6598,
      " കേസെടുത്തി": 6599,
      " പലപ്പോഴും": 6600,
      " സ്റ്റേ": 6601,
      "യാളാണ്": 6602,
      " എഴുതിയ": 6603,
      " സന്തോഷം": 6604,
      "ക്കുറിച്ചുള്ള": 6605,
      ".സു": 6606,
      "89": 6607,
      "ഇത്രയും": 6608,
      " മട്ട": 6609,
      " ഗി": 6610,
      " ഭീതി": 6611,
      " രാജസ്ഥാന": 6612,
      " കേസുകളാണ്": 6613,
      " ശ്രമിച്ചു": 6614,
      " നേതൃത്വത്തിന്": 6615,
      " ഇറങ്ങിയ": 6616,
      " കയ്യ": 6617,
      "മാണോ": 6618,
      " നിരീക്ഷണത്തില്": 6619,
      " ഉദ്യോഗസ്ഥർ": 6620,
      "ആറ്": 6621,
      "ലര്": 6622,
      "സുമായി": 6623,
      " അറ്റ": 6624,
      "മുണ്ടെന്നും": 6625,
      " വീഴ്": 6626,
      " ഓസ്": 6627,
      " രാജേഷ്": 6628,
      " ജനകീയ": 6629,
      " അധ്യക്ഷത": 6630,
      "ഇന്ത്യയില്": 6631,
      " വാങ്ങുന്ന": 6632,
      " പരിഹാര": 6633,
      " അഭ്യൂഹ": 6634,
      " നിലപാടാണ്": 6635,
      " യെല്ലോ": 6636,
      " പൗരത്വ": 6637,
      " അശോക്": 6638,
      "കത്ത്": 6639,
      " പങ്ക്": 6640,
      " വലു": 6641,
      "യുഡിഎഫ്": 6642,
      " രം": 6643,
      " ശൈ": 6644,
      "പ്രശ്": 6645,
      " കുറവ": 6646,
      " രാജ്യസഭാ": 6647,
      " ഉപയോഗിച്ച": 6648,
      " അധികാരത്തിലെ": 6649,
      " അഞ്ചു": 6650,
      "നിയമസഭാ": 6651,
      "ഡു": 6652,
      " പാണ്": 6653,
      "വിഭാഗ": 6654,
      "ങ്ങളു": 6655,
      " ശങ്ക": 6656,
      " മാത്യു": 6657,
      " ഡ്യൂ": 6658,
      "േണ്ടതാണ്": 6659,
      "ച്ചിത്ര": 6660,
      "മുണ്ടായത്": 6661,
      " സ്വീകരിച്ചത്": 6662,
      "‍ക്കിടയില്": 6663,
      " സിവില്": 6664,
      "വരുന്ന": 6665,
      "‍ന്നി": 6666,
      "‍മ്മാ": 6667,
      " തിരുത്ത": 6668,
      "‍ഷമായി": 6669,
      " ദുര്": 6670,
      "യ്ക്കാണ്": 6671,
      "ഹ്മ": 6672,
      " കരുതുന്നു": 6673,
      " പ്ലസ്": 6674,
      "ുകാരുടെ": 6675,
      " വരികയാണ്": 6676,
      " ഉത്തരവാദിത്ത": 6677,
      "അറ": 6678,
      "ചനം": 6679,
      "രുക": 6680,
      "‌സഭ": 6681,
      " ഉണ്ടാക്കിയ": 6682,
      "റുക്ക": 6683,
      "ക്ഷേത്ര": 6684,
      "മോദ": 6685,
      " ദിവസങ്ങളിൽ": 6686,
      "സ്റ്റിന്": 6687,
      " സർക്കാരിന്": 6688,
      " പ്രായമുള്ള": 6689,
      " അധ്യാപക": 6690,
      "ിട്ട്": 6691,
      "ോണ്": 6692,
      "ന്യാ": 6693,
      " പത്മ": 6694,
      "ിക്കുള്ള": 6695,
      "സിറ്റി": 6696,
      " ലാല": 6697,
      "സ്ഥിര": 6698,
      "ാരോ": 6699,
      "‍ത്താവ്": 6700,
      " ലഭിക്കുക": 6701,
      "ാമെന്നും": 6702,
      " വേണമെന്ന്": 6703,
      " ഏറ്റെടുക്ക": 6704,
      "‍കിയിരിക്കുന്നത്": 6705,
      " ആരോഗ്യമന്ത്രി": 6706,
      "യോടെയാണ്": 6707,
      " കുറഞ്ഞത്": 6708,
      " ഹെല്": 6709,
      "ജസ്": 6710,
      "ളോ": 6711,
      "യിരിക്കുന്ന": 6712,
      " നാണ്": 6713,
      " മൊഴ": 6714,
      " ലും": 6715,
      " ഗതി": 6716,
      "ട്ടിന്റെ": 6717,
      " പരിഹാരം": 6718,
      "ളിന്": 6719,
      " ആശംസ": 6720,
      "സാക്ഷ": 6721,
      "‍ട്ടിക്ക്": 6722,
      " ചുമത്തി": 6723,
      " രൂക്ഷമായ": 6724,
      " ആംബുല": 6725,
      "ാപാ": 6726,
      " അം": 6727,
      "ിലുണ്ട്": 6728,
      "ാനുളള": 6729,
      "ക്കാൾ": 6730,
      " ശൈലജ": 6731,
      " ഒതു": 6732,
      "ുകളുമായി": 6733,
      "ക്രൂട്ട്": 6734,
      " എംബ": 6735,
      " കേന്ദ്രസർക്കാർ": 6736,
      " ടിക്കറ്റ": 6737,
      "ുകയായിരുന്ന": 6738,
      " എന്നിങ്ങനെ": 6739,
      "ലൈൻ": 6740,
      " പോളിംഗ്": 6741,
      " യഥാര്": 6742,
      " ഗെയിം": 6743,
      "സമാധാന": 6744,
      " ദക്ഷിണ": 6745,
      "79": 6746,
      "ർട്ട": 6747,
      " പൈസ": 6748,
      " പ്രശാന്ത്": 6749,
      " സ്പെ": 6750,
      " രാജേന്ദ്ര": 6751,
      " ജോണ്": 6752,
      "ഗ്ന": 6753,
      " യാത്രാ": 6754,
      " എല്ലാവര്": 6755,
      " പദ്ധതികള്": 6756,
      " വഴിയ": 6757,
      " ചരിത്രം": 6758,
      " കോളേജില്": 6759,
      "ചെന്നൈ": 6760,
      "120": 6761,
      "അഭി": 6762,
      "മഴ": 6763,
      "ലേറ്റ": 6764,
      "ൈൻ": 6765,
      "‌കാരം": 6766,
      " പുക": 6767,
      " വരാന്": 6768,
      " നന്ദ": 6769,
      " ആത്": 6770,
      "വിമാന": 6771,
      "ങ്ങളുണ്ട്": 6772,
      " നടക്കുന്നു": 6773,
      " മനസ്": 6774,
      " ഗോവിന്ദ": 6775,
      " ജീവനക്കാര": 6776,
      " സ്വീകരിക്കുന്ന": 6777,
      " ജയിച്ച": 6778,
      " നെഗറ്റീ": 6779,
      "ബല": 6780,
      "വഴ": 6781,
      "ാക്കാന്": 6782,
      "ന്നൂർ": 6783,
      " അച്ച": 6784,
      " ഇയാളെ": 6785,
      " ബില്യ": 6786,
      "യാൻ": 6787,
      " കൊ": 6788,
      " വിലക്ക്": 6789,
      " ഐടി": 6790,
      " ശുഭ": 6791,
      " വിമർശന": 6792,
      " സജീവമായി": 6793,
      "രൂപ": 6794,
      "നഗര": 6795,
      " വിശേഷി": 6796,
      " ക്രൈംബ്രാഞ്ച്": 6797,
      "വസ്തു": 6798,
      "േക്കാം": 6799,
      "ക്കര്": 6800,
      " കായിക": 6801,
      "ത്തീസ്": 6802,
      " രവി": 6803,
      "നിസിപ്പ": 6804,
      " വാഴ": 6805,
      "ൻ്റ്": 6806,
      "കാരോഗ്യ": 6807,
      " ഇരുപ": 6808,
      "ജൂണ്": 6809,
      " പൈലറ്റ്": 6810,
      ".ജി": 6811,
      " പയ്യ": 6812,
      " എട": 6813,
      " ശരിക്കും": 6814,
      " ശരാശ": 6815,
      " പിതാ": 6816,
      "മിക്": 6817,
      "രോടും": 6818,
      " ലഭിക്കുന്നത്": 6819,
      "ാമത്": 6820,
      " ജനസംഖ്യ": 6821,
      "പോലീ": 6822,
      " ചെയ്തിട്ടില്ല": 6823,
      "പ്പാറ": 6824,
      "സർക്കാരി": 6825,
      " തെരഞ്ഞെടുപ്പില്": 6826,
      "പ്പറമ്പ്": 6827,
      " വോട്ടു": 6828,
      "ുകാരെ": 6829,
      "ൊക്കെയാണ്": 6830,
      " കാലാവസ്ഥാ": 6831,
      " മാർച്ച്": 6832,
      " രാഷ്ട്രപതി": 6833,
      "61": 6834,
      "അടു": 6835,
      "ടെക്": 6836,
      " ബാക്കിയ": 6837,
      " രേ": 6838,
      "ക്കിന്റെ": 6839,
      " വൈകുന്നേ": 6840,
      " ധരിച്ച": 6841,
      " കാരണമായി": 6842,
      " ലാഭം": 6843,
      " സൈബര്": 6844,
      "തിനിടെയാണ്": 6845,
      " രോഗബാധ": 6846,
      "വിദ്യാഭ്യാസ": 6847,
      "ഫിയ": 6848,
      "ഷീ": 6849,
      "സാണ്": 6850,
      "‌ബോ": 6851,
      "‍ട്രോള്": 6852,
      " പാന": 6853,
      "ത്തുക": 6854,
      "പ്പൊ": 6855,
      "പ്പുകള്": 6856,
      " ഫീ": 6857,
      " മിശ്ര": 6858,
      "പ്പുറത്ത്": 6859,
      "സ്വകാര്യ": 6860,
      " രൂക്ഷമായി": 6861,
      " കോടിയുടെ": 6862,
      "പ്രി": 6863,
      " അക്ഷ": 6864,
      " അഗ്": 6865,
      " ഉദ": 6866,
      "ക്കാരന്": 6867,
      "‍ക്കുകയാണ്": 6868,
      "മിത": 6869,
      " വാക്ക്": 6870,
      " എന്നിവയുടെ": 6871,
      " മാറ്റങ്ങള്": 6872,
      "ബാധ": 6873,
      " വെള്ളിയാഴ്ച": 6874,
      "ക്കൊള്ള": 6875,
      "ൂരപ്പ": 6876,
      " ദിലീപിന്റെ": 6877,
      " പ്രമേയ": 6878,
      " സൗഹൃദ": 6879,
      "കമ്പ": 6880,
      "‌ട": 6881,
      " എകെ": 6882,
      "ിക്കാര": 6883,
      "രാഖ": 6884,
      "ാനന്തര": 6885,
      "യാൽ": 6886,
      "ുകൊണ്ട": 6887,
      " ചിലർ": 6888,
      " മേൽ": 6889,
      " ഒരാളെ": 6890,
      " വയസുള്ള": 6891,
      " ഹൃദയ": 6892,
      "മണ്ഡല": 6893,
      "600": 6894,
      "ഒറ്റ": 6895,
      "ഠി": 6896,
      "ബ്രാ": 6897,
      "ിനും": 6898,
      "ൃഹ": 6899,
      "ർത്ത്": 6900,
      " ആന്ധ": 6901,
      "രിക്കു": 6902,
      "േഷനിൽ": 6903,
      " പേരാ": 6904,
      "രീഷ്": 6905,
      "പ്പെടുന്നുണ്ട്": 6906,
      " കടന്ന്": 6907,
      "മില്ലെന്നും": 6908,
      " എടുത്തു": 6909,
      " സീസണ": 6910,
      " മടങ്ങി": 6911,
      " വ്യാപാരി": 6912,
      " പ്രഖ്യാപിച്ച്": 6913,
      "-ന്": 6914,
      "71": 6915,
      "ഘടനാ": 6916,
      "‌പോ": 6917,
      " വടകര": 6918,
      " ചര": 6919,
      "ടിസ്ഥാന": 6920,
      "ത്തിലി": 6921,
      "ലിസ്റ്റ്": 6922,
      "ുവെ": 6923,
      " അതിവേ": 6924,
      " ജെഡിയ": 6925,
      " ഗോപ": 6926,
      " പ്രദേശത്ത്": 6927,
      " ഉമ്മൻ": 6928,
      " കൊട്ടാര": 6929,
      "74": 6930,
      "കക്ഷി": 6931,
      "ചു": 6932,
      "നടി": 6933,
      " ചാര്": 6934,
      "ടിനെ": 6935,
      " കുടിയേറ്റ": 6936,
      "ുവെന്നും": 6937,
      " സംസ്ഥാനങ്ങള്": 6938,
      " വേഗം": 6939,
      " സ്റ്റേറ്റ്": 6940,
      "ിലൂടെയാണ്": 6941,
      "കാലം": 6942,
      " വീടുകളില്": 6943,
      " പശ്ചാത്തലത്തിൽ": 6944,
      " ജയരാജന്": 6945,
      " മണിയോടെ": 6946,
      " അധിക്ഷേപ": 6947,
      " ഒമ്പത്": 6948,
      "ട്ടേ": 6949,
      " കേസുകളില്": 6950,
      "ൈനില്": 6951,
      " പിന്തുണയ്ക്ക": 6952,
      " ലക്ഷ്യമിടുന്നത്": 6953,
      "മർ": 6954,
      "‍സ്റ്റ": 6955,
      " പന്ത": 6956,
      "മാസ്": 6957,
      " ആര": 6958,
      " ആര്യ": 6959,
      " ഉപാ": 6960,
      "ങ്കണ": 6961,
      " ദമ്പതി": 6962,
      " പങ്കാളി": 6963,
      " ആരോപിക്കുന്നു": 6964,
      " ഇറാന്": 6965,
      " പരമ്പ": 6966,
      " ചെയ്യാം": 6967,
      " നിയമസഭയില്": 6968,
      "സ്ത്രക്രിയ": 6969,
      " മോഹൻ": 6970,
      " ഞെട്ടി": 6971,
      " ആഹ്വാനം": 6972,
      " ളി": 6973,
      "85": 6974,
      "തവണ": 6975,
      "‌നി": 6976,
      "യിട്ടു": 6977,
      "മാണി": 6978,
      "ക്കാരായ": 6979,
      " ചെയ്യുന്നുണ്ട്": 6980,
      " സീതാ": 6981,
      " കിരീ": 6982,
      "കൊല": 6983,
      " മിഥു": 6984,
      " അകലം": 6985,
      " സുധാകരൻ": 6986,
      " നാലു": 6987,
      " ബൈഡന്": 6988,
      "ഫ്ര": 6989,
      "വനി": 6990,
      "ശാസ്ത്ര": 6991,
      " പികെ": 6992,
      " വസ്ത്ര": 6993,
      "ാനായിരുന്നു": 6994,
      " മുട": 6995,
      "യ്ക്കിടെ": 6996,
      " തുല്യ": 6997,
      "ക്കെതിരായ": 6998,
      " പെട്രോ": 6999,
      " ആശുപത്രിയിലേക്ക്": 7000,
      "മില്ലെന്ന്": 7001,
      "‍മാരെ": 7002,
      "ാണെന്ന": 7003,
      " രേഖകള്": 7004,
      " വികസനം": 7005,
      " അടുത്ത്": 7006,
      " നടക്കാനി": 7007,
      " പോസിറ്റിവിറ്റി": 7008,
      " തെളിയിക്കുന്ന": 7009,
      "ാരീരിക": 7010,
      "ജനം": 7011,
      "വെങ്കിലും": 7012,
      "ക്കോട്": 7013,
      "ത്തിനിട": 7014,
      " തയാ": 7015,
      " ഇരി": 7016,
      " പ്രീ": 7017,
      "വിധി": 7018,
      " നിരാശ": 7019,
      "സ്ഥാൻ": 7020,
      " ഒരുക്ക": 7021,
      "ഴിഞ്ഞു": 7022,
      "ച്ചിരിക്കുകയാണ്": 7023,
      " ഉപരോധ": 7024,
      " പെന്": 7025,
      "എംകെ": 7026,
      " ഉയരുന്ന": 7027,
      " ലോകം": 7028,
      " മത്സരിക്കുന്ന": 7029,
      " തോതില്": 7030,
      " പ്രശ്നങ്ങൾ": 7031,
      "ജീവി": 7032,
      " പ്രദേശങ്ങളില്": 7033,
      " ഉറപ്പുവ": 7034,
      " മുന്നോടിയായി": 7035,
      " ചടങ്ങില്": 7036,
      " ദേവസ്വം": 7037,
      "ബ്ല്യു": 7038,
      "നോട്ട": 7039,
      "നീഷ": 7040,
      "ഭാര്യ": 7041,
      "യായിരുന്ന": 7042,
      "‍)": 7043,
      " സല്": 7044,
      " മുകേഷ്": 7045,
      " ഫൈന": 7046,
      " ജനപ്രതിനി": 7047,
      " നാടക": 7048,
      "വേഷണം": 7049,
      "ടക്കമുള്ള": 7050,
      " മണ്ഡലങ്ങളില്": 7051,
      " പുറത്തേക്ക്": 7052,
      " സ്വാഗതം": 7053,
      "സ്വപ്": 7054,
      "നാട്ടിലെ": 7055,
      " ഇത്തരത്തില്": 7056,
      "ടേത്": 7057,
      " ബഹുമാന": 7058,
      " ഗണേഷ്": 7059,
      "കമായ": 7060,
      " വഞ്ച": 7061,
      " തട്ടിയ": 7062,
      "സിം": 7063,
      "ാലിക്കു": 7064,
      "ത്തിലേറെ": 7065,
      " തിയേറ്റ": 7066,
      " പറഞ്ഞാല്": 7067,
      " ബാധ്യത": 7068,
      "യെല്ലാം": 7069,
      "വീട്ട": 7070,
      "വീന്ദ്ര": 7071,
      " തിരിച്ചറി": 7072,
      " ദിവസങ്ങള്": 7073,
      " വിശ്വാസം": 7074,
      "ലക്ഷണ": 7075,
      " ഡയറക്ടർ": 7076,
      " പരിപാടിയില്": 7077,
      " അരങ്ങ": 7078,
      "വ്യാഴ": 7079,
      "പാർട്ടി": 7080,
      " ആശ്രയി": 7081,
      " ൾ": 7082,
      "ടൻ": 7083,
      "ടിക്കുന്ന": 7084,
      "ശബരിമല": 7085,
      "ോടും": 7086,
      "ണ്ഡ്": 7087,
      "യിട്ടും": 7088,
      "പ്രച": 7089,
      " റാലി": 7090,
      " പിന്നിൽ": 7091,
      "കർക്ക്": 7092,
      "ാണു": 7093,
      "മാണെന്നാണ്": 7094,
      "തോടൊപ്പം": 7095,
      " നൽകിയിരുന്നു": 7096,
      " മണിക്കൂറിൽ": 7097,
      "മുഖ്യമന്ത്രിയുടെ": 7098,
      " വിചാ": 7099,
      " പ്രോസിക്യൂ": 7100,
      " ചികിത്സയിലുള്ളത്": 7101,
      " അഭിഭാഷക": 7102,
      " റെക്കോര്": 7103,
      " ഏജൻസ": 7104,
      "അഖ": 7105,
      "ഏറെ": 7106,
      "നന്": 7107,
      "മല്ലാത്ത": 7108,
      " മുകള": 7109,
      " പോര്": 7110,
      "ിച്ചിരിക്കുന്ന": 7111,
      " റിക്രൂട്ട്": 7112,
      " വേണമെന്ന": 7113,
      " എന്തിനാണ്": 7114,
      " കുട്ടിയെ": 7115,
      " ഉദ്യോഗാര്": 7116,
      " ഹോം": 7117,
      " വെച്ചാണ്": 7118,
      " കഥാപാ": 7119,
      " പങ്കുവെച്ച": 7120,
      " ഇതിനകം": 7121,
      " മുന്നേറ്റം": 7122,
      " താലിബാന്": 7123,
      "ഒപ്പം": 7124,
      "ബദ്ധ": 7125,
      "റങ്ങിയ": 7126,
      "വൽ": 7127,
      "ക്രാ": 7128,
      "യിട്ടുണ്ടെന്നും": 7129,
      " മഞ്ഞ": 7130,
      " മജിസ്": 7131,
      " വിദ്വേഷ": 7132,
      " പ്രതിഫല": 7133,
      " ഓഫി": 7134,
      " പാട്ട": 7135,
      "ംഗ്ലാ": 7136,
      " കുട്ടികളുടെ": 7137,
      "മാണെന്ന": 7138,
      " ഒഴിവാക്കി": 7139,
      " ടീച്ച": 7140,
      " സന്തോഷ്": 7141,
      " പൊലീസിന്": 7142,
      " പുറത്തുവന്ന": 7143,
      " റദ്ദാക്ക": 7144,
      "മോഹന്": 7145,
      " സന്നദ്ധ": 7146,
      " തയ്യാറെടു": 7147,
      "അത്തര": 7148,
      "‍നിന്ന്": 7149,
      "പ്തം": 7150,
      "ിക്കേണ്ടത്": 7151,
      " ജേ": 7152,
      "യുടേയും": 7153,
      " ഗള്": 7154,
      " സുഖ": 7155,
      "ടുത്തു": 7156,
      " പ്രചരി": 7157,
      "ജീവന": 7158,
      " വൈകീട്ട്": 7159,
      "സാമൂഹ": 7160,
      "അതു": 7161,
      "ഇയാള്": 7162,
      "റുമായി": 7163,
      "ലാമ": 7164,
      "ണ്ഠ": 7165,
      " എറണാകുള": 7166,
      "യുപി": 7167,
      " രണ്ടും": 7168,
      "താമ": 7169,
      "‍ക്കുന്നു": 7170,
      " പൊട്ട": 7171,
      " കുറയ്ക്ക": 7172,
      " ഡിസിസി": 7173,
      " വന്നതോടെ": 7174,
      "പ്പെടുത്താൻ": 7175,
      "മുണ്ടാക്ക": 7176,
      " കീഴില്": 7177,
      " ഇന്റർ": 7178,
      "ടമ": 7179,
      "ൻസി": 7180,
      " നയം": 7181,
      "ത്തൊഴ": 7182,
      " എന്നതും": 7183,
      " പിക്ക്": 7184,
      "‍ക്കത്ത": 7185,
      "ിച്ചിട്ടുള്ള": 7186,
      "കേസ്": 7187,
      " കോൺഗ്രസിന്റെ": 7188,
      " രംഗത്തുവ": 7189,
      "ചിത": 7190,
      " കോളജ": 7191,
      "ഭ്യാസം": 7192,
      "ദാഹ": 7193,
      " സ്ത്രീകൾ": 7194,
      " ഉത്തർ": 7195,
      " ഹൗസ്": 7196,
      "ദിവസം": 7197,
      " ചെലവഴ": 7198,
      "എങ്കിലും": 7199,
      "ടത്ത്": 7200,
      " പലിശ": 7201,
      "ത്തിരി": 7202,
      " ഇന്ത്യാ": 7203,
      " ശത്രു": 7204,
      "ഗ്രാം": 7205,
      " ഹരിയാന": 7206,
      " ലക്ഷ്മി": 7207,
      " പരിശോ": 7208,
      " ആശുപത്രികളില്": 7209,
      "‌നൗ": 7210,
      " പുറത്താക്ക": 7211,
      " തടസ": 7212,
      " പ്രവർത്തനം": 7213,
      " നടപ്പിലാ": 7214,
      " തോന്നിയ": 7215,
      "സിലേക്ക്": 7216,
      "ത്രെ": 7217,
      " സൊ": 7218,
      " അജിത്": 7219,
      " എഴ": 7220,
      " പ്രേ": 7221,
      " പ്രസാദ്": 7222,
      "യിലുണ്ട്": 7223,
      " വാട്": 7224,
      "കളായ": 7225,
      " രാജസ്ഥാന്": 7226,
      "യോധ്യ": 7227,
      "പ്പെട്ടിട്ടുണ്ട്": 7228,
      "ഇന്ത്യയിലെ": 7229,
      "ുമെന്നായിരുന്നു": 7230,
      "നിരപ്പ്": 7231,
      "‍ഥികള്": 7232,
      " ചെലു": 7233,
      " നായര്": 7234,
      "മെഡിക്കല്": 7235,
      "ഞങ്ങള്": 7236,
      "ധരി": 7237,
      "ഹം": 7238,
      "മാല": 7239,
      "വിശ്വാസം": 7240,
      "യാവ": 7241,
      " രാം": 7242,
      "കളുമായി": 7243,
      " ദുരിത": 7244,
      " ഹൈദരാ": 7245,
      " പരസ്പരം": 7246,
      " വരെയും": 7247,
      " അഭിപ്രായപ്പെട്ടു": 7248,
      " കൈമാറിയ": 7249,
      " പേരെയാണ്": 7250,
      " കരാർ": 7251,
      " ഫോണില്": 7252,
      "ത്തീസ്ഗ": 7253,
      "അന": 7254,
      "മണിക്ക": 7255,
      "റൽ": 7256,
      "സമിതി": 7257,
      "ക്യു": 7258,
      " പാര": 7259,
      " വന": 7260,
      "പ്പൂ": 7261,
      "ാനന്ദ": 7262,
      "വിട്ട": 7263,
      " ജന്മ": 7264,
      " ശാ": 7265,
      "മായിരുന്ന": 7266,
      " കുടുംബാംഗ": 7267,
      " ധൈ": 7268,
      " നിർബന്ധ": 7269,
      " പോകാൻ": 7270,
      "േക്കുമെന്നാണ്": 7271,
      " വിലയിരുത്തി": 7272,
      " മഹാമാരി": 7273,
      " ജൂൺ": 7274,
      " ട്രെയിന": 7275,
      " കസ്റ്റഡിയില്": 7276,
      " അംബാനി": 7277,
      " ഇലക്ട്": 7278,
      "വട്ടം": 7279,
      "ർമ": 7280,
      " ആവി": 7281,
      " എന്നുള്ള": 7282,
      " പിള്ള": 7283,
      "അതുകൊണ്ടാണ്": 7284,
      " യുകെ": 7285,
      "ദിത്യ": 7286,
      "വേദന": 7287,
      " രോഗികള്": 7288,
      " നാശ": 7289,
      " നാരായണ": 7290,
      "പ്പാടി": 7291,
      " സംസാരിച്ചു": 7292,
      " രേഖപ്പെടുത്തിയത്": 7293,
      " മനസ്സിലാ": 7294,
      " ആരോപണങ്ങള്": 7295,
      " അഭ്യർത്ഥ": 7296,
      " അരവിന്ദ്": 7297,
      " നിമിഷം": 7298,
      "ആവശ്യ": 7299,
      "എത്ര": 7300,
      " അഹമ്മദ്": 7301,
      "ത്തത്": 7302,
      " എത്തും": 7303,
      " ആസ്": 7304,
      " ഉം": 7305,
      " നേരിയ": 7306,
      "മ്പില്": 7307,
      "ുകളുണ്ട്": 7308,
      "യ്ക്കാന്": 7309,
      " ഒരുക്കി": 7310,
      " സാധിച്ചില്ല": 7311,
      " തോറ്റ": 7312,
      " കരുതിയ": 7313,
      "േഴ്സ്": 7314,
      " നാലാം": 7315,
      " ഊര്": 7316,
      "പട്ടിക": 7317,
      " റിലീസ്": 7318,
      "73": 7319,
      "അപ്പോള്": 7320,
      "ഏത്": 7321,
      "ണൽ": 7322,
      "മന്ത്രാല": 7323,
      "േറ": 7324,
      "ക്കില്ല": 7325,
      " വം": 7326,
      "യുമായിരുന്നു": 7327,
      " ഗുണ്ട": 7328,
      " പാക്ക": 7329,
      " ചോര്": 7330,
      "വീസ്": 7331,
      "ക്ടറുടെ": 7332,
      " അതിൽ": 7333,
      "ുണ്ടാവും": 7334,
      " ആശുപത്രിയിലെ": 7335,
      " ഉറപ്പു": 7336,
      " വ്യക്തമാക്കിയിട്ടുണ്ട്": 7337,
      " ഖത്ത": 7338,
      " റിപ്പോർട്ടിൽ": 7339,
      " പ്രിയപ്പെട്ട": 7340,
      " കൊണ്ടുവന്ന": 7341,
      "എന്താണ്": 7342,
      " പക്ഷം": 7343,
      " ചൊവ്വാഴ്ച": 7344,
      " ഇളവ": 7345,
      " അക്കൗണ്ട്": 7346,
      " ആരാധകര്": 7347,
      " ജ്യോതി": 7348,
      " ശരാശരി": 7349,
      ".in": 7350,
      "ണെന്ന": 7351,
      "ളിൽ": 7352,
      "ശോ": 7353,
      "ഹാന്": 7354,
      " എങ്ങനെയാണ്": 7355,
      "ിക്കില്ല": 7356,
      " വിരമ": 7357,
      " ലഭിച്ചിരുന്നു": 7358,
      " ഭാഗ്യം": 7359,
      " കൈയ്": 7360,
      "നിയർ": 7361,
      " നോര്": 7362,
      " എടുത്തത്": 7363,
      " സഹോദരന്": 7364,
      " ചികിത്സയിലായിരുന്ന": 7365,
      " അർഹ": 7366,
      " വ്യത്യാസ": 7367,
      "ജനുവരി": 7368,
      "തുക": 7369,
      "റൂ": 7370,
      "ാധികാരി": 7371,
      " കരുത്ത": 7372,
      " മകള്": 7373,
      "പ്പുമായി": 7374,
      "സിസ്": 7375,
      " കുരു": 7376,
      "‍ഗ്രസിലെ": 7377,
      " അപക": 7378,
      " വേണ്ടിയുള്ള": 7379,
      "ഹാറില്": 7380,
      " പ്രഖ്യാപിച്ചിരുന്നു": 7381,
      "ജനങ്ങള്": 7382,
      "തിരെയാണ്": 7383,
      " നാട്ടിലേക്ക്": 7384,
      " ബംഗാള്": 7385,
      "സിപിഎമ്മ": 7386,
      " കണക്കിലെടുത്ത്": 7387,
      " ക്ക്": 7388,
      "പത്രം": 7389,
      "പകരം": 7390,
      "രജ്": 7391,
      " പ്രതിയായ": 7392,
      " ഓടി": 7393,
      " ഡൊ": 7394,
      " പറയാനുള്ള": 7395,
      " പാഠ": 7396,
      " ക്യൂ": 7397,
      "തീവ്ര": 7398,
      " തിരിച്ചെ": 7399,
      " ശക്തമാണ്": 7400,
      " കുട്ടികളെ": 7401,
      "ളിവു": 7402,
      " ഫേസ്ബുക്കിൽ": 7403,
      " പ്രായം": 7404,
      " രോഗമുക്ത": 7405,
      " വേഗത്തില്": 7406,
      "ഗണന": 7407,
      " പ്ലാറ്റ്": 7408,
      " ആസൂത്ര": 7409,
      "ഇനിയും": 7410,
      "ഉത്ത": 7411,
      "ജൂലൈ": 7412,
      "പൗര": 7413,
      "ലൂ": 7414,
      "േൽ": 7415,
      " പതാക": 7416,
      " വിയ": 7417,
      " മധു": 7418,
      " അത്തരം": 7419,
      "ത്തായി": 7420,
      " എട്ട": 7421,
      "മായിട്ടാണ്": 7422,
      "താൻ": 7423,
      " തിള": 7424,
      " നേതാവിനെ": 7425,
      " കുറച്ച": 7426,
      " മത്സരിക്കുന്നത്": 7427,
      " ഖത്തര്": 7428,
      " ചിത്രങ്ങൾ": 7429,
      " എടുക്കുന്ന": 7430,
      "പരിച": 7431,
      "പ്രദേശിലെ": 7432,
      " വിവാദം": 7433,
      " ലാഭ": 7434,
      " വാക്കുകള്": 7435,
      " കർഷക": 7436,
      " സ്പീക്കര്": 7437,
      " പ്രാധാന്യം": 7438,
      " ജഡ്ജി": 7439,
      " ള്": 7440,
      "രന്റെ": 7441,
      "ിലുള്ളത്": 7442,
      "ിച്ചതിന്": 7443,
      " ലൈന്": 7444,
      " മാലിന്": 7445,
      " പുത്ത": 7446,
      "‍കണം": 7447,
      " നാണ": 7448,
      " നീട്ട": 7449,
      " കഴിഞ്ഞാല്": 7450,
      "ുണ്ടാവ": 7451,
      "ഇന്ത്യയുടെ": 7452,
      " വാഹനങ്ങള്": 7453,
      " മഴയ്ക്ക്": 7454,
      " വിദേശത്ത്": 7455,
      " എത്രയും": 7456,
      "സ്ത്രീ": 7457,
      " കൈവശ": 7458,
      " തയ്യാറായില്ല": 7459,
      "ഫെബ്രുവരി": 7460,
      "തൂ": 7461,
      "ാട": 7462,
      "‍ട്": 7463,
      " മൃഗ": 7464,
      " കോ": 7465,
      " ഏകോ": 7466,
      " പരിഹാ": 7467,
      "അതുകൊണ്ടു": 7468,
      "പ്പിക്കാനുള്ള": 7469,
      " ഇടവേള": 7470,
      " മൂന്നി": 7471,
      " മൂല്യം": 7472,
      " നീട്ടി": 7473,
      "‍ത്ഥികളെ": 7474,
      " സ്റ്റാന്": 7475,
      "വാസികള്": 7476,
      " നഷ്ടപരി": 7477,
      " ലിമിറ്റ": 7478,
      " ക്ഷണിച്ചു": 7479,
      " വ്യാഴാഴ്ച": 7480,
      "യേയും": 7481,
      "രഹിത": 7482,
      "റായ": 7483,
      "തിരിക്ക": 7484,
      "സിനെതിരെ": 7485,
      " കോഴിക്ക": 7486,
      "ന്ദിര": 7487,
      " കാർഡ്": 7488,
      "കളിലേക്ക്": 7489,
      "ഹിന്ദു": 7490,
      " ഉപഭോക്": 7491,
      " മേഖലകളില്": 7492,
      "മുണ്ടാകും": 7493,
      "യോര": 7494,
      " സമ്പർക്ക": 7495,
      " മണിക്കൂര്": 7496,
      " പ്രദേശ്": 7497,
      " ഇതിനോടകം": 7498,
      " യുദ്ധം": 7499,
      " വാഗ്ദാന": 7500,
      "മുസ്ലിം": 7501,
      "അടുത്തിടെ": 7502,
      "മറ്റു": 7503,
      "ളളി": 7504,
      "നാട്ടിൽ": 7505,
      "‍ക്കാര": 7506,
      "ലിയും": 7507,
      "‍ഷങ്ങള്": 7508,
      " നീണ്ടു": 7509,
      " ട്രാന്": 7510,
      "കരമാണ്": 7511,
      "അതിൽ": 7512,
      "‍ലമെന്റ്": 7513,
      " ഷാജ": 7514,
      " പരീക്ഷണ": 7515,
      " ചുഴ": 7516,
      "ുകാരന്": 7517,
      "ഗുജറാ": 7518,
      " ഉദ്ഘാടന": 7519,
      " ഡോളര്": 7520,
      "നേരത്തേ": 7521,
      "പഠ": 7522,
      "വശ": 7523,
      "വരിൽ": 7524,
      "ാന്റെ": 7525,
      "‍പ്പെടുന്ന": 7526,
      " കടക്ക": 7527,
      " മതിയ": 7528,
      " താന": 7529,
      " ബസ": 7530,
      "േഷന്റെ": 7531,
      "ോഗ്ര": 7532,
      "‍കുക": 7533,
      "ദിന്റെ": 7534,
      " പുറത്തെ": 7535,
      "ാക്കോ": 7536,
      " ഷം": 7537,
      "തീയ": 7538,
      " നേതൃത്വത്തിന്റെ": 7539,
      " ബുക്ക്": 7540,
      " താരങ്ങള്": 7541,
      " ജീവിതത്തിൽ": 7542,
      "ുകളിലായി": 7543,
      "പിഎല്ല": 7544,
      " പരിശോധിച്ച്": 7545,
      "എഎ": 7546,
      "ഡ്യൂ": 7547,
      "ക്കുമെന്നാണ്": 7548,
      "ത്തുറ": 7549,
      "ധികാര": 7550,
      " മാത്രമായിരുന്നു": 7551,
      "യോഗ്യത": 7552,
      " മീറ്റര്": 7553,
      "ജില്ലയിലെ": 7554,
      "വുമില്ല": 7555,
      " സമ്മേളനത്തില്": 7556,
      " ബുധനാഴ്ച": 7557,
      " കാപ്പന്": 7558,
      "പേക്ഷ": 7559,
      "‌ച": 7560,
      "‍ജു": 7561,
      "‍ഗ്ഗ": 7562,
      "തിങ്കളാഴ്ച": 7563,
      " പ്രയോഗ": 7564,
      " ബ്രാ": 7565,
      "റിനും": 7566,
      "റിനെതിരെ": 7567,
      " പിരിച്ച": 7568,
      " ഗ്യ": 7569,
      " നിയോ": 7570,
      " കസ്റ്റംസ്": 7571,
      "നിയമസഭ": 7572,
      " സംഘടിപ്പിച്ച": 7573,
      "ഡിപിഐ": 7574,
      " രോഹിത്": 7575,
      "ഇതെല്ലാം": 7576,
      "നെയാണ്": 7577,
      "ൻഷൻ": 7578,
      "‌സിന്റെ": 7579,
      "സ്പി": 7580,
      " പ്രകാശ്": 7581,
      "വിഷന്": 7582,
      " ജനം": 7583,
      " മുട്ട": 7584,
      "ുകളായി": 7585,
      "‍ഗ്രസിന": 7586,
      " കുറഞ്ഞു": 7587,
      " അനധികൃത": 7588,
      "സ്തവ": 7589,
      "‍വകലാശാല": 7590,
      " വിശദമായി": 7591,
      "കാലത്ത്": 7592,
      " പിടികൂടി": 7593,
      " പ്രിന്": 7594,
      " വായിക്കാം": 7595,
      "ടനീളം": 7596,
      "ഇറ": 7597,
      "രേഷ്": 7598,
      "റഞ്ച്": 7599,
      "റേഷന്": 7600,
      " പണിയ": 7601,
      " അസ്വ": 7602,
      "പ്പുകൾ": 7603,
      " പ്രയോ": 7604,
      "ാനിയുടെ": 7605,
      " കാമ": 7606,
      " ഈട": 7607,
      " സംഭവിച്ചത്": 7608,
      " വന്നപ്പോള്": 7609,
      "ുണ്ടാകും": 7610,
      " പോകും": 7611,
      "ഇന്ത്യൻ": 7612,
      " വ്യാപന": 7613,
      " പട്ടികയിൽ": 7614,
      " കിടക്കുന്ന": 7615,
      " ബിരുദം": 7616,
      "ബെംഗളൂരു": 7617,
      "റ്റാണ്ട": 7618,
      " ള്ള": 7619,
      "തെന്നായിരുന്നു": 7620,
      "ഷറ": 7621,
      " ഇതിലൂടെ": 7622,
      " ബയോ": 7623,
      "വാടി": 7624,
      "ാംശ": 7625,
      " വെട്ടി": 7626,
      " നൽകുന്നത്": 7627,
      " ഭാഗമാണ്": 7628,
      " പ്രധാനമായും": 7629,
      " വിഭാഗത്തിന്": 7630,
      "തേതര": 7631,
      " നിരീക്ഷണത്തിലാണ്": 7632,
      " ഭീഷണിയ": 7633,
      " തമിഴ്നാട്": 7634,
      " മുമ്പാണ്": 7635,
      " പ്രവചനം": 7636,
      " പിടികൂടിയത്": 7637,
      " സർവ്വേ": 7638,
      " ക്രിക്കറ്റ്": 7639,
      " വസതി": 7640,
      " കത്തയ": 7641,
      "തെയാണ്": 7642,
      "ക്കേണ്ടി": 7643,
      " പരു": 7644,
      " കഞ്ച": 7645,
      " കഷ്ട": 7646,
      "ിക്കുമെന്നാണ്": 7647,
      "ടുത്തെ": 7648,
      " മുനിസിപ്പ": 7649,
      "നാളെ": 7650,
      " ചെയ്യാനുള്ള": 7651,
      " മന്ത്രിയുടെ": 7652,
      " ആരോപിക്കുന്നത്": 7653,
      " വയസ്സ്": 7654,
      " വരവ്": 7655,
      "നുള്ളില്": 7656,
      " ഡിസംബര്": 7657,
      " വിജിലന്": 7658,
      ".ആര്": 7659,
      "am": 7660,
      "or": 7661,
      "വരിക": 7662,
      "സാര": 7663,
      " ഭവന": 7664,
      " ദ്ര": 7665,
      "ഞ്ചു": 7666,
      " ഇടതു": 7667,
      " ഉപയോ": 7668,
      " പ്രത്യക്ഷ": 7669,
      "‍വഹ": 7670,
      " സ്വാഭാവിക": 7671,
      " കൊലപ്പെടുത്തിയ": 7672,
      " ഒറ്റപ്പെട്ട": 7673,
      " അധികാരത്തില്": 7674,
      "ാനായില്ല": 7675,
      " കണ്ടെത്തിയിരുന്നു": 7676,
      " നടക്കുന്നുണ്ട്": 7677,
      " എന്നിവിടങ്ങളിൽ": 7678,
      " ആവശ്യപ്പെട്ടിട്ടുണ്ട്": 7679,
      "‍ത്തിയാക്കി": 7680,
      " മടങ്ങിയ": 7681,
      " ബന്ധുക്കള്": 7682,
      "മൂന്നാം": 7683,
      " അഖിലേഷ്": 7684,
      " ഏഷ്യാനെ": 7685,
      "ഗെ": 7686,
      "ഡംബര": 7687,
      "ഫേസ്ബു": 7688,
      "തിര്": 7689,
      " മിക്ക": 7690,
      "ിക്കണമെന്ന": 7691,
      " ബദ": 7692,
      " ജമ്മു": 7693,
      "ക്ഷൻ": 7694,
      "ുള്ളി": 7695,
      " ഒത്തു": 7696,
      " ഭക്ത": 7697,
      " സാഹി": 7698,
      "ധ്യം": 7699,
      "ിക്കുന്നതാണ്": 7700,
      " നിയമന": 7701,
      " ടിക്ക": 7702,
      " പാലം": 7703,
      " ശക്തമാക്കി": 7704,
      " തേടിയ": 7705,
      "കാരന്": 7706,
      "ലക്ഷ്മി": 7707,
      " പരാജയപ്പെട്ട": 7708,
      " ഉണ്ടാകുന്ന": 7709,
      " ഇടപെടല്": 7710,
      " തൃശൂർ": 7711,
      "പേര്": 7712,
      "വയനാട്": 7713,
      "ദ്വീപ": 7714,
      "സമ്പര്": 7715,
      " നിരീക്ഷണത്തിലുള്ളത്": 7716,
      "ഇസ്രായേ": 7717,
      "ജയം": 7718,
      "തയാണ്": 7719,
      "തുകൊണ്ട്": 7720,
      " സത്യം": 7721,
      " ആൾ": 7722,
      " ആണെന്നും": 7723,
      " പ്രേരി": 7724,
      "റ്റിലെ": 7725,
      " വിറ്റ": 7726,
      "നിരിക്കുന്ന": 7727,
      " ഫയ": 7728,
      " സമഗ്ര": 7729,
      " സംസ്ഥാനങ്ങളിൽ": 7730,
      "പോക": 7731,
      " അതിഥി": 7732,
      " ഗ്രാം": 7733,
      " വോട്ടർ": 7734,
      " രാഹുലിന്റെ": 7735,
      "‍ഡുകള്": 7736,
      " പാർട്ടിയിൽ": 7737,
      " വഴിയാണ്": 7738,
      " ഇത്തവണയും": 7739,
      " കലക്ടര്": 7740,
      "ത്തിനുള്ളിൽ": 7741,
      " കുമാറിന്റെ": 7742,
      " രാശിക്കാർക്ക്": 7743,
      "വെള്ളിയാഴ്ച": 7744,
      " ചലച്ചിത്ര": 7745,
      "നിലെ": 7746,
      "ൾപ്പെടെ": 7747,
      "‍മു": 7748,
      "സ്യം": 7749,
      "ട്ടിട്ടുണ്ട്": 7750,
      " ഉണ്ടാക്കി": 7751,
      " സെല്": 7752,
      " കാര്യത്തിലും": 7753,
      " നൽകും": 7754,
      " പങ്കു": 7755,
      " പേർക്കും": 7756,
      " സാന്നിധ്യം": 7757,
      " പ്രാധാന്യ": 7758,
      " യാഥാര്": 7759,
      " അനൂപ്": 7760,
      " പുസ്തക": 7761,
      " ക്ക": 7762,
      "മയ": 7763,
      "റസ്": 7764,
      "ഴം": 7765,
      "ോഹ": 7766,
      " ആപ്പ്": 7767,
      " ഇതി": 7768,
      "സിച്ച്": 7769,
      " ശസ്ത്രക്രിയ": 7770,
      " ദൈ": 7771,
      " കുറച്ചു": 7772,
      " നടത്തുക": 7773,
      " കാണിച്ച": 7774,
      " ചിഹ്": 7775,
      " കോൺഗ്രസിൽ": 7776,
      "ത്തിനൊപ്പം": 7777,
      " പ്രചരിപ്പിക്ക": 7778,
      "രുവായ": 7779,
      " ചൂണ്ടിക്കാണിക്കുന്നു": 7780,
      " അഖിൽ": 7781,
      "ുകൂടി": 7782,
      " തള്ളിക്ക": 7783,
      " പ്രസംഗം": 7784,
      " നുണ": 7785,
      " സ്ഥിരം": 7786,
      "ൻഡ": 7787,
      "‌ക്ര": 7788,
      " അപ്": 7789,
      "രാം": 7790,
      "പിൽ": 7791,
      " ഓണ": 7792,
      "‍കോ": 7793,
      "പാറ": 7794,
      " മുന്നണ": 7795,
      " അറിയിച്ചി": 7796,
      " അതിക്രമ": 7797,
      " ശ്രമിച്ചത്": 7798,
      " ആരോപിച്ച്": 7799,
      " ബോം": 7800,
      " സോണ": 7801,
      " ഉച്ചയ്ക്ക്": 7802,
      "83": 7803,
      "്ക്ക്": 7804,
      " സ്ര": 7805,
      " ഇക്കുറി": 7806,
      " ശാരീരിക": 7807,
      "ന്ത്രം": 7808,
      " എന്നൊക്കെ": 7809,
      " നടൻ": 7810,
      " നീള": 7811,
      "‍ച്ചയില്": 7812,
      " മാറ്റിയത്": 7813,
      "ിക്കുമ്പോൾ": 7814,
      " പറയാം": 7815,
      " കീഴിലുള്ള": 7816,
      " നയിക്കുന്ന": 7817,
      " സെന്ററ": 7818,
      " സ്വയംഭരണ": 7819,
      " വിപണിയില്": 7820,
      " ചൗധരി": 7821,
      " മാനേജര്": 7822,
      "ഡിയുടെ": 7823,
      "നര്": 7824,
      "തിരേ": 7825,
      " സായി": 7826,
      "പ്പിലെ": 7827,
      "രിക്കുകയായിരുന്നു": 7828,
      "വാസ്": 7829,
      " സുനില്": 7830,
      "ിക്കുന്നവര്": 7831,
      " നിലയിലാണ്": 7832,
      " സംഘമാണ്": 7833,
      " നടത്തുന്നുണ്ട്": 7834,
      "‍ച്ചെ": 7835,
      " അത്ഭുത": 7836,
      " മീറ്റർ": 7837,
      " സർക്കാരിനെ": 7838,
      " കൈമാറി": 7839,
      "ഗുരു": 7840,
      " ഫ്രണ്ട്": 7841,
      " കടന്നുപോ": 7842,
      "താക്കളുടെ": 7843,
      " വർഗീയ": 7844,
      "ഗാ": 7845,
      "പരീക്ഷ": 7846,
      "ബല്": 7847,
      "ൃതി": 7848,
      "േദം": 7849,
      " അസുഖ": 7850,
      " താപ": 7851,
      "വിവര": 7852,
      "ുമല്ല": 7853,
      "‍ക്കൊ": 7854,
      " വീണാ": 7855,
      " ഇന്ത്യയെ": 7856,
      " പെരി": 7857,
      " പാലാ": 7858,
      " ആരംഭിക്കും": 7859,
      " സംസാരിക്കുന്ന": 7860,
      " കമന്റ്": 7861,
      " പ്രവേശന": 7862,
      " ഗാന്ധിയെ": 7863,
      " തെളിവുകള്": 7864,
      " നേടാന്": 7865,
      " വാക്കുകൾ": 7866,
      "‍വ്വേ": 7867,
      " ഗവണ്": 7868,
      " താക്കറെ": 7869,
      " ക്രിസ്ത്യ": 7870,
      "ഉമ്മന്": 7871,
      "84": 7872,
      "ഒരിക്ക": 7873,
      "റീന": 7874,
      "വട്ട": 7875,
      "ങ്ങര": 7876,
      " ആറു": 7877,
      " രവീന്ദ്ര": 7878,
      "വാരം": 7879,
      " നടക്കുക": 7880,
      "താണോ": 7881,
      "ണിന്": 7882,
      " കുറിച്ച": 7883,
      " കുറിച്ചത്": 7884,
      " സംഘത്തെ": 7885,
      " മോഷ്ട": 7886,
      " ശേഷമുള്ള": 7887,
      "യ്ക്കല്": 7888,
      " നമ്പർ": 7889,
      " അഖില്": 7890,
      " ഒഴിവ്": 7891,
      "ാവുന്നതാണ്": 7892,
      " ജലനിരപ്പ്": 7893,
      "മറ്റൊരു": 7894,
      " പ്രൊഫ": 7895,
      " ഗംഭ": 7896,
      "76": 7897,
      "ഘു": 7898,
      " കക്ഷി": 7899,
      "യിരുന്നില്ല": 7900,
      " നൽ": 7901,
      " ചങ്ങ": 7902,
      " പോള്": 7903,
      " ഹു": 7904,
      " നേതാവായ": 7905,
      "പ്പെടുകയായിരുന്നു": 7906,
      " സർവ": 7907,
      " കാര്യങ്ങളാണ്": 7908,
      "....": 7909,
      " തോൽ": 7910,
      " സൗത്ത്": 7911,
      " ആക്രമിക്കപ്പെട്ട": 7912,
      " നഷ്ടം": 7913,
      "ബിജെപ": 7914,
      "വിഡിന്റെ": 7915,
      " ധാരാളം": 7916,
      "ടാന്": 7917,
      "േശ്": 7918,
      " നൈ": 7919,
      " അജയ്": 7920,
      "യാക്കി": 7921,
      " ഭീ": 7922,
      " വീടിന്": 7923,
      " ഓഗസ്റ്റ്": 7924,
      "റ്റിനെ": 7925,
      " കെട്ട": 7926,
      " നേതാവുമായ": 7927,
      " കാര്യവും": 7928,
      "യോഗ്യ": 7929,
      " പ്രതികരിച്ച്": 7930,
      " സ്റ്റേഷന്": 7931,
      " സിനിമയുടെ": 7932,
      " തെരഞ്ഞെടുപ്പിൽ": 7933,
      "ജോസ്": 7934,
      " മുരളീധരൻ": 7935,
      "-ൽ": 7936,
      "ർശി": 7937,
      " മന്": 7938,
      "ിക്കോ": 7939,
      " ആകര്": 7940,
      " പ്രമോ": 7941,
      "വിശ": 7942,
      "ങ്കോ": 7943,
      "ിലെത്തിയ": 7944,
      " ലഭിച്ചിട്ടുണ്ട്": 7945,
      " സീനിയര്": 7946,
      "മേല്": 7947,
      "ംഗ്ലീ": 7948,
      "ക്ഷേമ": 7949,
      " പങ്കെടുക്കുന്ന": 7950,
      "‍വലിക്ക": 7951,
      "ൊന്നുമില്ല": 7952,
      " ശബ്ദം": 7953,
      " ബൂത്ത": 7954,
      " ഉദ്ധരിച്ച്": 7955,
      " കാട്ടാന": 7956,
      " എഎപി": 7957,
      "ഞായറാഴ്ച": 7958,
      "സബ്": 7959,
      "‍സിന്റെ": 7960,
      "‍ഐഎ": 7961,
      "രാക": 7962,
      "ാനാ": 7963,
      " ഗര്": 7964,
      " അവലോക": 7965,
      " റവന്": 7966,
      " ജില്ലയിലും": 7967,
      " പലതും": 7968,
      " മേയര്": 7969,
      " കുട്ടിയുടെ": 7970,
      " അപേക്ഷിച്ച്": 7971,
      " പുറത്തിറക്കിയ": 7972,
      " അന്തരീക്ഷ": 7973,
      " യഥാർത്ഥ": 7974,
      "പ്രവർത്തക": 7975,
      "ബോധന": 7976,
      " അറസ്റ്റിലായ": 7977,
      "രക്കണക്കിന്": 7978,
      "ത്സാഹി": 7979,
      " വംശ": 7980,
      " അരി": 7981,
      "ല്ലൂര്": 7982,
      " സുന്ദ": 7983,
      "റിയുടെ": 7984,
      " ലോകാരോഗ്യ": 7985,
      "പെട്ട": 7986,
      " ബോർഡ്": 7987,
      "‍മാരും": 7988,
      " ഒന്നര": 7989,
      " മീഡിയയിൽ": 7990,
      " പ്രവേശിപ്പിച്ചു": 7991,
      " സതീശൻ": 7992,
      "‍ബല": 7993,
      " കുഞ്ഞിനെ": 7994,
      "ഗാന്ധി": 7995,
      " മയക്കുമരുന്ന്": 7996,
      ".ഒ": 7997,
      "േഡ്": 7998,
      "ന്തിര": 7999,
      "റ്റുകൾ": 8000,
      " വിന്യ": 8001,
      "ണ്ടായി": 8002,
      "ാലം": 8003,
      " ഹൂ": 8004,
      " കാണിച്ച്": 8005,
      "പ്രകാര": 8006,
      "പ്പിക്കുക": 8007,
      "സാധ്യത": 8008,
      "196": 8009,
      "ായിരുന്നില്ല": 8010,
      " തൊഴിലാളി": 8011,
      " ടെലി": 8012,
      " ബെംഗളൂരു": 8013,
      "‍ദേശങ്ങള്": 8014,
      "രാമയ്യ": 8015,
      "ങ്ങാടി": 8016,
      " കമ്പനികള്": 8017,
      "‍കുട്ടിയെ": 8018,
      " നയതന്ത്ര": 8019,
      "‌ട്രേലിയ": 8020,
      " ഇടതുമുന്നണി": 8021,
      "കോട്": 8022,
      "നൈ": 8023,
      "ക്കണമെന്ന": 8024,
      "രിഫ്": 8025,
      "ക്കാവുന്ന": 8026,
      " ഒര": 8027,
      "ഡിസം": 8028,
      "പ്പോര്": 8029,
      " ഫൈ": 8030,
      "ലിന": 8031,
      " ഡയ": 8032,
      " ചെയ്യേണ്ട": 8033,
      " രാജു": 8034,
      "ുവെന്ന്": 8035,
      "ബിള്": 8036,
      " വ്യക്തമാണ്": 8037,
      "എസ്എസ്": 8038,
      " അപല": 8039,
      " സൂപ്ര": 8040,
      " വോട്ടെണ്ണ": 8041,
      " രേഖപ്പെടുത്തിയ": 8042,
      " സിനിമയില്": 8043,
      "ധിപത്യം": 8044,
      " ജീവൻ": 8045,
      " മനോരമ": 8046,
      " ഗവർണർ": 8047,
      " ഉറപ്പുവരുത്ത": 8048,
      "അങ്ങനെയ": 8049,
      "ഇങ്ങനെ": 8050,
      "പള്ളി": 8051,
      "ഭരണം": 8052,
      "മര": 8053,
      " മണ്ണി": 8054,
      " പറയും": 8055,
      " ദളിത്": 8056,
      "‍ത്തും": 8057,
      " നിലവിലുള്ള": 8058,
      " കിഷോ": 8059,
      " നേതൃത്വത്തെ": 8060,
      " ദിവസമായി": 8061,
      "കേരളത്തിന്റെ": 8062,
      " ശ്രദ്ധയില്": 8063,
      " അവസാനം": 8064,
      " വന്നിരിക്കുന്നത്": 8065,
      "ശംസ": 8066,
      " ദൃശ്യങ്ങൾ": 8067,
      " സീസണ്": 8068,
      " കൊലപാതകം": 8069,
      " രാശിക്കാരുടെ": 8070,
      " കൊണ്ടിരിക്കുകയാണ്": 8071,
      " ഓക്സി": 8072,
      " ആരെങ്കിലും": 8073,
      " മുദ്രാവാക്യം": 8074,
      "95": 8075,
      "എന്ത്": 8076,
      "ദുള്ള": 8077,
      "ലാൽ": 8078,
      "ഷ്യാ": 8079,
      " അയാൾ": 8080,
      " തറ": 8081,
      " ഒടുവില്": 8082,
      " മാധ": 8083,
      "െടുക്കാൻ": 8084,
      " സിം": 8085,
      " സിദ്ദി": 8086,
      "കുമ്പോള്": 8087,
      " ഓർമ്മ": 8088,
      "ദിച്ച്": 8089,
      "‍ഷത്തില്": 8090,
      " സംഘത്തിന്": 8091,
      " രാജ്യങ്ങളും": 8092,
      "മുള്ളവര്": 8093,
      " പൂഞ്ഞ": 8094,
      " ഫെഡ": 8095,
      " ഉയർന്നു": 8096,
      " അജണ്ട": 8097,
      " വൈകുന്നേരം": 8098,
      "റിലാണ്": 8099,
      "ോതി": 8100,
      " കം": 8101,
      " കെയര്": 8102,
      " വണ്": 8103,
      "രാഘ": 8104,
      " കൂറു": 8105,
      "നാഗ": 8106,
      " തുടർ": 8107,
      " വെടിയ": 8108,
      "എന്നിട്ടും": 8109,
      "കോള": 8110,
      "‍ഷി": 8111,
      " വരുമ്പോള്": 8112,
      " സന്ദീപ്": 8113,
      " സ്ഥലങ്ങളില്": 8114,
      " ബെഞ്ച": 8115,
      " ചാനല": 8116,
      " വേണുഗോപാല്": 8117,
      " നടപ്പിലാക്ക": 8118,
      "ഷേധിച്ച്": 8119,
      " സംഗീത": 8120,
      " ആനുകൂല്യ": 8121,
      "കന": 8122,
      "ജക": 8123,
      "ഡും": 8124,
      "ഡ്യ": 8125,
      "റില്ല": 8126,
      "ഹര": 8127,
      " മുകളിൽ": 8128,
      "മാലി": 8129,
      "ിലേറ്റ": 8130,
      " ആരാണ്": 8131,
      "മുടി": 8132,
      "നായുള്ള": 8133,
      "റിയാ": 8134,
      " ഞാന": 8135,
      " അഭിസം": 8136,
      " ഭാഗങ്ങളില്": 8137,
      " സീറ്റിലും": 8138,
      " പലയിട": 8139,
      " മാസത്തെ": 8140,
      " വിട്ടത്": 8141,
      " ഹെലികോ": 8142,
      "നീഷ്": 8143,
      "സഹായം": 8144,
      " പെൺകുട്ടി": 8145,
      " കിലോമീറ്റർ": 8146,
      " ശശീന്ദ്ര": 8147,
      "യത്തില്": 8148,
      "സസ്": 8149,
      "തിരുവ": 8150,
      "യിൻ": 8151,
      "യിരിക്കുന്നു": 8152,
      "മാരു": 8153,
      " ആശ്വാസം": 8154,
      " ആവേശ": 8155,
      " പ്രവാസി": 8156,
      "റിയില്": 8157,
      "ില്ലെങ്കില്": 8158,
      "യിലേക്കും": 8159,
      "സ്ഥാനം": 8160,
      " ഓറഞ്ച്": 8161,
      " ചെയ്യുകയായിരുന്നു": 8162,
      " കെഎം": 8163,
      "പ്പിള്": 8164,
      " ഉപദേശ": 8165,
      " ശേഷവും": 8166,
      "195": 8167,
      "ട്ടിയത്": 8168,
      "മ്പ്യൂ": 8169,
      " കൊല്ലപ്പെട്ടത്": 8170,
      " അയച്ചത്": 8171,
      " സംഘടനകള്": 8172,
      " കൊടുത്തി": 8173,
      " ലോകത്തെ": 8174,
      " ഹൈക്കോടതിയെ": 8175,
      "‍ഹിയില്": 8176,
      " മകൻ": 8177,
      "നുള്ളിൽ": 8178,
      " ഹോസ്പി": 8179,
      " കുഞ്ഞാലിക്കു": 8180,
      "ഭാരത്": 8181,
      "www": 8182,
      " ചെയർമാൻ": 8183,
      "റ്റ്യൂട്ട്": 8184,
      "ംഗ്ലാദേശ": 8185,
      " ട്ടി": 8186,
      "82": 8187,
      "ഒടുവില്": 8188,
      "ചാ": 8189,
      "ണെങ്കില്": 8190,
      "‌തി": 8191,
      " മായ": 8192,
      "ിയെയും": 8193,
      " എങ്കിലും": 8194,
      "ങ്ങല്": 8195,
      " ചാർ": 8196,
      " ഇതാണ്": 8197,
      " ഇറാ": 8198,
      "റ്റിയുടെ": 8199,
      " വിഹിതം": 8200,
      "ിച്ചാൽ": 8201,
      "യുക്ര": 8202,
      " രാവില": 8203,
      "േഷിന്റെ": 8204,
      " ഗവേഷണ": 8205,
      " തുര": 8206,
      "ാഗ്": 8207,
      "ടുത്തത്": 8208,
      "കാസർ": 8209,
      "സമര": 8210,
      "ുപാര്": 8211,
      "തീര്": 8212,
      " സർവ്വ": 8213,
      " സീറ്റും": 8214,
      " ആരോപിച്ചിരുന്നു": 8215,
      " മറ്റൊരാ": 8216,
      " പ്രസിഡണ്ട്": 8217,
      " പേർക്കാണ്": 8218,
      " കുട്ടികൾ": 8219,
      " സഖ്യത്തിന്": 8220,
      "ഫിക്": 8221,
      " ലോക്സഭാ": 8222,
      " ഉത്തരം": 8223,
      " സുഹൃത്ത്": 8224,
      " ഫലപ്രദ": 8225,
      " നിക്ഷേപം": 8226,
      "‍ഡിഎഫിന്": 8227,
      "പ്രിയങ്ക": 8228,
      " പ്രതികരണവുമായി": 8229,
      " മത്സരാര്": 8230,
      " മനസ്സിലാക്ക": 8231,
      " സുഹൃത്തുക്കള": 8232,
      " റെയിൽവേ": 8233,
      " അഭിസംബോധന": 8234,
      "തട": 8235,
      " വശ": 8236,
      "യില്ലാതെ": 8237,
      " നറുക്ക": 8238,
      "ിക്കര": 8239,
      "റ്റലി": 8240,
      "െന്നുമാണ്": 8241,
      "വാരി": 8242,
      " ഓട": 8243,
      "ളിത": 8244,
      " ജനത": 8245,
      " ഉപമുഖ്യമന്ത്രി": 8246,
      "‍സു": 8247,
      "വെച്ച": 8248,
      " വീട്ടിലെത്തി": 8249,
      "പ്രതിഷേധ": 8250,
      "മ്പിൽ": 8251,
      " താമസം": 8252,
      "ൊക്കെയ": 8253,
      " പ്രവാസികള്": 8254,
      " ആലുവ": 8255,
      "‍ജെഡി": 8256,
      "on": 8257,
      "പത്ത്": 8258,
      "യുന്ന": 8259,
      "ലർ": 8260,
      "ഹെ": 8261,
      "ൊല": 8262,
      "ന്റി": 8263,
      " നിഷ്": 8264,
      "രിക്കുമെന്നും": 8265,
      " ബിഷ": 8266,
      " സുനി": 8267,
      "എന്നെ": 8268,
      "യിലെത്തിയ": 8269,
      " സംസ്ഥാനങ്ങളിലെ": 8270,
      " സെമി": 8271,
      " രൂപീകരിക്ക": 8272,
      " രാജ്യങ്ങളിൽ": 8273,
      "നേയാണ്": 8274,
      " സീറ്റുകളാണ്": 8275,
      " താങ്ക": 8276,
      " വിഷമ": 8277,
      " സമ്പദ്": 8278,
      " തടഞ്ഞ": 8279,
      " തുടങ്ങിയവര്": 8280,
      " കുറ്റകൃത്യ": 8281,
      " ശ്രീധ": 8282,
      " ചുമതലയുള്ള": 8283,
      " മനോജ്": 8284,
      " കല്യാ": 8285,
      " സൂചിപ്പിക്കുന്നത്": 8286,
      "കൂടുതൽ": 8287,
      "അന്വേഷണ": 8288,
      "മ്പുഴ": 8289,
      " സഞ്ജയ്": 8290,
      "ത്തൊഴിലാള": 8291,
      " വിന്യസ": 8292,
      " ത്ത": 8293,
      "അവരെ": 8294,
      "ഹാന": 8295,
      "ച്ചേരി": 8296,
      " ഇനിയ": 8297,
      " ബ്യൂ": 8298,
      " ഒമൈക്ര": 8299,
      " കോഴ": 8300,
      " കേന്ദ്രീകരിച്ച്": 8301,
      "‍ശിച്ചു": 8302,
      " എൽഡിഎഫ": 8303,
      " സെന്റര്": 8304,
      " പ്രകാരമാണ്": 8305,
      "ശ്വര്യ": 8306,
      " വേട്ടയാ": 8307,
      "ജസ്വി": 8308,
      " കഥാപാത്ര": 8309,
      "പൗരത്വ": 8310,
      " ചുഴലിക്കാ": 8311,
      "ണർ": 8312,
      "സമ്മേള": 8313,
      " പദ്ധ": 8314,
      "ങ്കര": 8315,
      "താപ": 8316,
      " ഒരുമ": 8317,
      " ഫീസ്": 8318,
      " ചെയ്യുമ്പോള്": 8319,
      " വൈകാതെ": 8320,
      " രംഗത്തിറ": 8321,
      "ക്കോടതി": 8322,
      " എന്തു": 8323,
      "യില്ലെന്ന്": 8324,
      " രീതിയിലുള്ള": 8325,
      " ഒന്നാണ്": 8326,
      " നിരീക്ഷണം": 8327,
      " എന്നിങ്ങ": 8328,
      "‌സിജന്": 8329,
      " സഹായത്തോടെ": 8330,
      "‍ത്തകരെ": 8331,
      " ചുറ്റ": 8332,
      " സൈബർ": 8333,
      "ന്യൂഡൽഹി": 8334,
      " ഗെഹ്": 8335,
      " കൂടുതലായി": 8336,
      " എതിരാള": 8337,
      "ഭയ": 8338,
      "ന്താ": 8339,
      "ിക്കൊപ്പം": 8340,
      " ഉറ്റു": 8341,
      " ഉണ്ണി": 8342,
      " മുണ്ട": 8343,
      "വാഹിത": 8344,
      " പിജെ": 8345,
      "ികളിലും": 8346,
      " തുടരുന്നു": 8347,
      "വർക്കും": 8348,
      "‍ക്കാരും": 8349,
      " നീങ്ങ": 8350,
      "കൂല": 8351,
      " മാധ്യമങ്ങൾ": 8352,
      "ുകളുടെയും": 8353,
      " ആഗ്രഹം": 8354,
      " പങ്കുവച്ച": 8355,
      "വ്യക്തി": 8356,
      "മുസ്ലീം": 8357,
      " കശ്മീരി": 8358,
      "ക്കിടയിൽ": 8359,
      " വെറുതെ": 8360,
      "91": 8361,
      "അന്ന": 8362,
      "ലുമായി": 8363,
      "വച്ച": 8364,
      "ശബ്": 8365,
      "ൗണ": 8366,
      "ട്ടായിരുന്നു": 8367,
      " ആഗസ്റ്റ്": 8368,
      "യുവാ": 8369,
      "തുമാണ്": 8370,
      "െടുക്കും": 8371,
      " റിസോ": 8372,
      " സെന്റ്": 8373,
      "പക്ഷം": 8374,
      " മുഖ്യമന്ത്രിയും": 8375,
      " മാത്രമായി": 8376,
      "‍ട്ടിയെ": 8377,
      " കുടുംബത്തിന്": 8378,
      "സംഭവത്തിൽ": 8379,
      " പരിചയം": 8380,
      " ഹൃദ": 8381,
      " ഒന്നിന്": 8382,
      " എന്നിങ്ങനേയാണ്": 8383,
      " ത്ര": 8384,
      "മശ്ശേരി": 8385,
      "സത്യ": 8386,
      "ഹാർ": 8387,
      "‍നാഥ്": 8388,
      "ക്സി": 8389,
      " പന": 8390,
      " പവാ": 8391,
      " അനാവശ്യ": 8392,
      "പ്പന്": 8393,
      "വിനോ": 8394,
      " ജയം": 8395,
      " പിരി": 8396,
      "ീകരിക്കാന്": 8397,
      "ാകാര": 8398,
      " സംസ്ഥാനത്തിന്": 8399,
      " സെല്ല": 8400,
      " മത്സരിക്കാന്": 8401,
      "ൈനായി": 8402,
      " മിഷന്": 8403,
      " തിരഞ്ഞെടുപ്പിലും": 8404,
      " കോളനി": 8405,
      " ക്ഷമ": 8406,
      "ക്കൊണ്ടി": 8407,
      "തുമു": 8408,
      "സംഭവം": 8409,
      "ാസമ്മേള": 8410,
      " പ്രവേശിപ്പിച്ചത്": 8411,
      "കുമാരി": 8412,
      " കൊണ്ടുപോക": 8413,
      " മൊബൈൽ": 8414,
      " മോശമായി": 8415,
      " ക്യാപ്റ്റന്": 8416,
      "ാവശ്യപ്പെട്ട്": 8417,
      "ജക്ട്": 8418,
      "തൊന്നും": 8419,
      "യൊക്കെ": 8420,
      " വ്": 8421,
      " വള്ള": 8422,
      " വാര്യ": 8423,
      "ങ്ങം": 8424,
      "രിക്കുമെന്ന്": 8425,
      "നെറ്റ്": 8426,
      " ഫണ്ട": 8427,
      " റൈ": 8428,
      "പാകി": 8429,
      " നാഷണല്": 8430,
      " പിന്നില": 8431,
      " ഏറ്റെടുത്ത": 8432,
      " പ്രധാനമന്ത്രിയുടെ": 8433,
      "വന്റി": 8434,
      " രീതിയിലാണ്": 8435,
      "ഇതിനു": 8436,
      " സംഘടനയുടെ": 8437,
      " തരൂര്": 8438,
      "യുണ്ടായ": 8439,
      " അലര്": 8440,
      " ബൈജു": 8441,
      " പറ്റിയ": 8442,
      " ശുക്ര": 8443,
      " സമാജ്": 8444,
      " തരംഗം": 8445,
      " ഉത്തരവാദിത്തം": 8446,
      "‍ട്ടിഫിക്കറ്റ്": 8447,
      " കോർപ്പറേഷൻ": 8448,
      "ദുബായ്": 8449,
      "സച്ചി": 8450,
      "‌കാരിക": 8451,
      " കരിയ": 8452,
      " മംഗ": 8453,
      "ിലേക്കും": 8454,
      "രുപ": 8455,
      "വിശേഷ": 8456,
      "ലിച്ച്": 8457,
      "ികളായി": 8458,
      "റ്റിനും": 8459,
      "േണ്ടിവ": 8460,
      " വെച്ചു": 8461,
      " ഗ്രാ": 8462,
      " ബാധക": 8463,
      " എന്തുകൊണ്ട്": 8464,
      " പോലീസിനെ": 8465,
      " ഇല്ലെന്ന്": 8466,
      " യുവതിയെ": 8467,
      "‍ത്തകന്": 8468,
      " വാങ്ങാന്": 8469,
      " ഒറ്റക്കെട്ട": 8470,
      " അപകടത്തില്": 8471,
      " നിയന്ത്രണങ്ങൾ": 8472,
      " ഗാന്ധിയും": 8473,
      " കോളേജിൽ": 8474,
      " പേരിലാണ്": 8475,
      "എല്ലാവരും": 8476,
      "അവസാന": 8477,
      "ദാഹരണ": 8478,
      " ആവിഷ്": 8479,
      "ar": 8480,
      "ശനിയാഴ്ച": 8481,
      "ണ്ഡി": 8482,
      " കറ": 8483,
      " തങ്ങൾ": 8484,
      " തളി": 8485,
      " വിൽ": 8486,
      "ായിര": 8487,
      "ിച്ചതായി": 8488,
      " മുള": 8489,
      "മിന്ന": 8490,
      "സമീപ": 8491,
      "ബിസി": 8492,
      "ാകുന്ന": 8493,
      "ണാഫ്രിക്ക": 8494,
      " വിദ്യാഭ്യാസം": 8495,
      " വിശ്വാ": 8496,
      " വിവരങ്ങളും": 8497,
      " സ്വീകരിച്ചു": 8498,
      " അനുകൂലമായ": 8499,
      " പെരുമാറ": 8500,
      " പുരുഷൻ": 8501,
      " ഡ്രൈവര്": 8502,
      " ശരിയായ": 8503,
      "ഏപ്രില്": 8504,
      "'-": 8505,
      "81": 8506,
      "ഖി": 8507,
      "ഗര്": 8508,
      "ീത്": 8509,
      "പ്പണ": 8510,
      "ിക്കൂ": 8511,
      "ിക്കരുത്": 8512,
      " ഇങ്ങനെയ": 8513,
      " പ്രദ": 8514,
      " പ്രദര്": 8515,
      "ില്ലേ": 8516,
      " നടന്നിരുന്നു": 8517,
      " തിയതി": 8518,
      " സിസി": 8519,
      "മുഖ്യ": 8520,
      " സ്വദേശികള്": 8521,
      " ഷെയ്": 8522,
      "ഷ്യന്": 8523,
      "കൊണ്ട്": 8524,
      " വളർച്ച": 8525,
      "‍ഡോ": 8526,
      " തുറമുഖ": 8527,
      " വിജയിച്ചു": 8528,
      " വിശദാംശ": 8529,
      " മണിക്കൂറില്": 8530,
      " പുനരാ": 8531,
      " തെളിവ്": 8532,
      " വാർത്താ": 8533,
      " സഞ്ചരിച്ച": 8534,
      " പടര്": 8535,
      "‍ട്ടിഫിക്കറ്റ": 8536,
      "എട്ട്": 8537,
      "‍/": 8538,
      "‍),": 8539,
      " പമ്പ": 8540,
      " വരുന്നുണ്ട്": 8541,
      " അബുദാബി": 8542,
      " പ്രാര്": 8543,
      "രാകാശ": 8544,
      "വിജയ്": 8545,
      " കോഴ്": 8546,
      " സ്ഥാ": 8547,
      "‍കുകയും": 8548,
      " കേന്ദ്രീകരിച്ച": 8549,
      " കാര്യങ്ങളില്": 8550,
      " ശേഷി": 8551,
      " സീറ്റുകളിൽ": 8552,
      " അടച്ച": 8553,
      " പരിശോധനയില്": 8554,
      " പ്രതീക്ഷിക്കുന്നു": 8555,
      " ലൈഫ്": 8556,
      " ഘട്ടത്തിൽ": 8557,
      " വന്ദേ": 8558,
      " ആത്മവിശ്വാസം": 8559,
      " ദില്ലിയില്": 8560,
      " വാർത്തകൾ": 8561,
      "ത്തുടര്": 8562,
      " നിയോജക": 8563,
      " യുടെ": 8564,
      "86": 8565,
      "മരിച്ച": 8566,
      "യറ്റ": 8567,
      "‌നാ": 8568,
      " സദ": 8569,
      " സന്നി": 8570,
      " മല്ല": 8571,
      " ബൗ": 8572,
      " ബലാത്സ": 8573,
      "യുദ്ധ": 8574,
      "ദേവ": 8575,
      " റാല": 8576,
      " റിനോ": 8577,
      " തെറ്റ്": 8578,
      " മോഷണം": 8579,
      " ഡിംപ": 8580,
      " സമ്പന്ന": 8581,
      " എല്ലാവർക്കും": 8582,
      " വീടുകളിലും": 8583,
      " മത്സരത്തില്": 8584,
      " ദുരൂഹ": 8585,
      " നവംബര്": 8586,
      " ചെറുപ്പ": 8587,
      "ിയുമായ": 8588,
      "നികുതി": 8589,
      " ജുഡീ": 8590,
      " ആക്ഷേപം": 8591,
      " അഫ്ഗാനി": 8592,
      " സർട്ടിഫിക്കറ്റ": 8593,
      "വിദ്യാര്": 8594,
      "മിനിസ്": 8595,
      " പ്രയാസ": 8596,
      " ന്ന്": 8597,
      "‌പോര്": 8598,
      "തിരിച്ച": 8599,
      "രിറ്റി": 8600,
      "പ്പന": 8601,
      "പ്പൂര്": 8602,
      "ിക്കട": 8603,
      "യാദ": 8604,
      "ിച്ചിട്ടും": 8605,
      "ക്കുഴ": 8606,
      " സംഘവും": 8607,
      " ആശുപത്രികളിലും": 8608,
      " രംഗത്തു": 8609,
      " തലശ്ശേരി": 8610,
      " ചോദ്യങ്ങള്": 8611,
      " ഭരണഘടനാ": 8612,
      " മരണമട": 8613,
      " ലോകത്ത്": 8614,
      " വീടുകള്": 8615,
      " കിടില": 8616,
      " ജീവനക്കാരെ": 8617,
      " ആലോചന": 8618,
      " ഗ്രാമപഞ്ചായത്ത്": 8619,
      " പൊട്ടിത്തെ": 8620,
      "ഒക്ടോ": 8621,
      "ചെയ്": 8622,
      "വധ": 8623,
      "വൃ": 8624,
      "വ്യൂ": 8625,
      " മോട്ടോ": 8626,
      " എലി": 8627,
      " ആധ": 8628,
      " പ്രകൃതി": 8629,
      "െന്നി": 8630,
      "നിച്ച്": 8631,
      "പിത": 8632,
      " ബിന്": 8633,
      " നേതാവിന്റെ": 8634,
      "ബ്ബ": 8635,
      " നാദി": 8636,
      "ത്തിലെത്തി": 8637,
      " കാലഘട്ട": 8638,
      "ട്ടില്ലെന്ന്": 8639,
      " വിഭാഗത്തിൽ": 8640,
      " തടയാന്": 8641,
      " ആരംഭിച്ചിട്ടുണ്ട്": 8642,
      " ചികിത്സാ": 8643,
      " പുതുപ്പള്ളി": 8644,
      " മധ്യപ്രദേശ്": 8645,
      " പ്രോസിക്യൂ": 8646,
      " വൈറലായി": 8647,
      " ബേബി": 8648,
      "ഇക്കാര്യത്തില്": 8649,
      " പ്രശസ്ത": 8650,
      " ഡ്യൂട്ടി": 8651,
      " കൊട്ടാരക്കര": 8652,
      " ട്ട": 8653,
      "ഇദ്ദേഹ": 8654,
      "ണിയെ": 8655,
      "രായിരുന്നു": 8656,
      "രാവസ്ഥ": 8657,
      " മാർക്ക": 8658,
      " നേടു": 8659,
      " ഫസ്റ്റ്": 8660,
      "നാണെന്ന്": 8661,
      "‍കുന്നു": 8662,
      "ിക്കുന്നതും": 8663,
      " ക്രെ": 8664,
      " കേരളത്തിലേക്ക്": 8665,
      " മോര്": 8666,
      " പരിശോധിച്ചത്": 8667,
      "പ്പെടുത്തുന്നു": 8668,
      " പിടിക്കാന്": 8669,
      " യാത്രക്കാര്": 8670,
      " രണ്ടാമ": 8671,
      " മണിക്കൂർ": 8672,
      " തേടിയെ": 8673,
      "സോഷ്യല്": 8674,
      " പാർട്ടിക്ക്": 8675,
      "ഇതിനിട": 8676,
      " ആഗ്രഹിക്കുന്നു": 8677,
      " സ്വീകരിക്കും": 8678,
      " പെരുമാറ്റ": 8679,
      " ബംഗാൾ": 8680,
      " ഇടതുപക്ഷം": 8681,
      " അന്നത്തെ": 8682,
      "ബ്രിട്ട": 8683,
      " കയറ്റുമതി": 8684,
      " ചൂണ്ടിക്കാട്ടുന്നു": 8685,
      " പരിസര": 8686,
      "മില്": 8687,
      "ീൽ": 8688,
      " വരണ": 8689,
      " വിക്കറ്റ്": 8690,
      "പ്പള്ള": 8691,
      "പ്പിച്ചിട്ടുണ്ട്": 8692,
      "റ്റൽ": 8693,
      "െയ്യാ": 8694,
      "യുഎസ്": 8695,
      "വാറ്റു": 8696,
      "ാന്തര": 8697,
      " പ്രതിഫലം": 8698,
      " ബിജു": 8699,
      "‍ത്താവി": 8700,
      " പോകുന്നു": 8701,
      " പതിവ്": 8702,
      " വോട്ടിന്റെ": 8703,
      " വെബ്സൈ": 8704,
      " ഏപ്രിൽ": 8705,
      " കാലയളവില്": 8706,
      " റോബിന്": 8707,
      "അതിന": 8708,
      "ജനാധിപത്യ": 8709,
      "ഫു": 8710,
      "മ്ര": 8711,
      "ക്ല": 8712,
      "ക്കർ": 8713,
      " വസ്": 8714,
      " ആയു": 8715,
      "രാഗ്": 8716,
      " വികാരം": 8717,
      " ബന്ധി": 8718,
      " ദൂര": 8719,
      "കളെയും": 8720,
      " ഡേ": 8721,
      " തീരത്ത്": 8722,
      " കാര്യമില്ല": 8723,
      " പൊല": 8724,
      "‍ത്ഥിയായി": 8725,
      "ദ്ദീന്": 8726,
      "ിനോട്": 8727,
      " ബാധിച്ചു": 8728,
      " ഉടനെ": 8729,
      "ങ്ങനെയുള്ള": 8730,
      "‌സിക്യൂ": 8731,
      "രാമത്ത്": 8732,
      " ക്ലാസ": 8733,
      " പക്ഷെ": 8734,
      " ജില്ലകളിലെ": 8735,
      "ഥ്വി": 8736,
      "‍സിപ്പല്": 8737,
      " കാഞ്ഞിര": 8738,
      " ഉറ്റുനോ": 8739,
      "94": 8740,
      "വഹ": 8741,
      " കട്ട": 8742,
      " വു": 8743,
      "രുമ": 8744,
      " ഇബ്രാ": 8745,
      " പ്രളയ": 8746,
      " പ്രക്രിയ": 8747,
      "ായില്": 8748,
      " സ്ഫോ": 8749,
      "യിലോ": 8750,
      " ഏല്": 8751,
      "വർണ്ണ": 8752,
      "കാസര്": 8753,
      "ബിന്റെ": 8754,
      " നിയമങ്ങള്": 8755,
      " തെരുവ": 8756,
      " ഐപി": 8757,
      "‍ത്ഥിയെ": 8758,
      "‍സികള്": 8759,
      " മാറ്റിവെ": 8760,
      "ികളുടെയും": 8761,
      "‍ത്തകരും": 8762,
      " തരത്തില്": 8763,
      " അകല": 8764,
      " ഇത്തരത്തിൽ": 8765,
      " ദിനത്തില്": 8766,
      "ൊപ്പമാണ്": 8767,
      "നടപടി": 8768,
      " താരതമ്യം": 8769,
      "തിരുവനന്തപുരത്ത്": 8770,
      "92": 8771,
      "യഥ": 8772,
      "റിലേക്ക്": 8773,
      "ോമ": 8774,
      "‍പ്പെടുത്തിയ": 8775,
      "ക്കേണ്ടത്": 8776,
      " ചക്ര": 8777,
      " ബ്രാഞ്ച്": 8778,
      " ഒഴു": 8779,
      " ലേഖ": 8780,
      " ബിന്ദു": 8781,
      "ദിനെ": 8782,
      "പ്പിക്കാനും": 8783,
      "പ്പിട": 8784,
      "ുകൊടു": 8785,
      " പ്രഖ്യാപന": 8786,
      " വളരെയ": 8787,
      " മേഖലകളിൽ": 8788,
      "ണാള്": 8789,
      " പദ്ധതികൾ": 8790,
      " ഫോർ": 8791,
      " വിജയന്റെ": 8792,
      "യില്ലെന്നും": 8793,
      " തവണയും": 8794,
      " അവകാശം": 8795,
      " യുവാവിനെ": 8796,
      " കരുതുന്ന": 8797,
      "ബിജെപിക്ക്": 8798,
      " മലയാളികള്": 8799,
      "ക്കാലത്ത്": 8800,
      " പുറത്തിറങ്ങ": 8801,
      "സ്വാമി": 8802,
      " മദ്യം": 8803,
      " തിരിച്ചടിയാണ്": 8804,
      " വസ്തുത": 8805,
      " പച്ചക്ക": 8806,
      " കെജ്രിവാള്": 8807,
      " അത്യാവശ്യ": 8808,
      " ജനപ്രതിനിധ": 8809,
      " പിരിച്ചുവി": 8810,
      " അപലപ": 8811,
      "വാറ്റുപുഴ": 8812,
      " ന്റെ": 8813,
      "at": 8814,
      "ഡേ": 8815,
      "തന്ന": 8816,
      "യല്ല": 8817,
      "റിലും": 8818,
      " മർദ്ദ": 8819,
      "ിലേക്കുള്ള": 8820,
      " നിക": 8821,
      "സിംഗ്": 8822,
      "രിക്കുകയാണെന്നും": 8823,
      "താത്": 8824,
      " ദയ": 8825,
      " ചെയ്താല്": 8826,
      " വാണി": 8827,
      " ഇടയില്": 8828,
      " കേസുമായി": 8829,
      " എന്താണെന്ന്": 8830,
      " ഓഫീസിൽ": 8831,
      "‍പര്യം": 8832,
      " പ്രത്യേകിച്ച്": 8833,
      " ജിഹാ": 8834,
      "അതിനാൽ": 8835,
      " ശ്രീനി": 8836,
      " സ്വന്തമാക്കി": 8837,
      "‍ജിനീയ": 8838,
      "പൊലീസ്": 8839,
      " തയ്യാറാക്കിയ": 8840,
      "തിലുള്ള": 8841,
      " ലഭ്യമാക്ക": 8842,
      " ഉത്തരാഖ": 8843,
      " വകുപ്പുകള്": 8844,
      "ഇന്നത്തെ": 8845,
      " മറുപടിയുമായി": 8846,
      " സംവിധായകന്": 8847,
      "ഏഴ്": 8848,
      "മൂല": 8849,
      "‍ദി": 8850,
      " ആഞ്ഞ": 8851,
      " ഇരുന്ന": 8852,
      " ഇവിട": 8853,
      " ജേക്ക": 8854,
      "ണ്ടാ": 8855,
      "ാന്റ്": 8856,
      " ദീര്": 8857,
      "ഡിന്": 8858,
      " പ്രതികൾ": 8859,
      " വ്യക്തത": 8860,
      " നാട": 8861,
      " ഡിപ്ലോ": 8862,
      " ബന്ധപ്പെട": 8863,
      " മുഖ്യമന്ത്രിയെ": 8864,
      "ത്തിനകം": 8865,
      "േക്കുമെന്ന": 8866,
      " ഘട്ടം": 8867,
      " വിദ്യാർഥ": 8868,
      "സ്റ്റിക്": 8869,
      "കാലിക": 8870,
      " നീക്കങ്ങള്": 8871,
      " പൊലീസ": 8872,
      " കീഴിൽ": 8873,
      " സ്വർണ്ണ": 8874,
      " അഭിഭാഷകന്": 8875,
      "ാനാകില്ല": 8876,
      " പരിപാടികള്": 8877,
      " ശാസ്ത്രജ്ഞ": 8878,
      "ബംഗാള": 8879,
      "ആന": 8880,
      "ഇര": 8881,
      "യൊരു": 8882,
      " പര്യ": 8883,
      " വഷ": 8884,
      " നര": 8885,
      " നൗ": 8886,
      " മുകു": 8887,
      " ഇതിൽ": 8888,
      " പ്രത്യാ": 8889,
      "രാട്": 8890,
      " നിഗമ": 8891,
      "ുമെതിരെ": 8892,
      "യ്ക്കെതിരെ": 8893,
      " ഏതാനും": 8894,
      "നുണ്ട്": 8895,
      " റിസര്": 8896,
      " എംവി": 8897,
      " വിഭാഗത്തിന്റെ": 8898,
      " ഒരാഴ്ച": 8899,
      "ഇതിലൂടെ": 8900,
      "ബന്ധിത": 8901,
      " അബ്ദുള്ള": 8902,
      " പേരുടെയും": 8903,
      " സ്കൂൾ": 8904,
      "ഗിരി": 8905,
      " സാധ്യതയുണ്ടെന്ന്": 8906,
      " രജിസ്ട്ര": 8907,
      "ംപി": 8908,
      "ദനം": 8909,
      "ഭോ": 8910,
      "യെങ്കിലും": 8911,
      "സഞ്ച": 8912,
      "ൊട്ട": 8913,
      " സയ": 8914,
      "ത്തായ": 8915,
      "ിയം": 8916,
      " ആഴ": 8917,
      " വിജ്ഞ": 8918,
      "മ്പ്ര": 8919,
      " മുത്ത": 8920,
      " സിസ്റ്റ": 8921,
      "ക്രമിച്ച്": 8922,
      "േഖലാ": 8923,
      "ച്ചിരുന്ന": 8924,
      " കേന്ദ്രങ്ങള്": 8925,
      " കേരളത്തെ": 8926,
      " ഞാനും": 8927,
      " കൂടുത": 8928,
      "ഷിംഗ്": 8929,
      " അന്വേഷണത്തിന്": 8930,
      " അവകാശപ്പെടുന്നത്": 8931,
      " പശ്ചാത്തലത്തിലാണ്": 8932,
      " പെരുമ്പ": 8933,
      "‌പെന്": 8934,
      " സിപിഎമ്മിന്റെ": 8935,
      "‍കുട്ടിയുടെ": 8936,
      " മുഖ്യമന്ത്": 8937,
      "ഒന്നാം": 8938,
      " സംവരണം": 8939,
      " അണിനിര": 8940,
      "ബുധനാഴ്ച": 8941,
      " നാശനഷ്ട": 8942,
      " സർവകലാശാല": 8943,
      ",'": 8944,
      "ഉത്തര്": 8945,
      "പന്ന": 8946,
      " പര്": 8947,
      " കവര്": 8948,
      " ആരെയും": 8949,
      "രുമെന്ന്": 8950,
      "ടുപുഴ": 8951,
      "ികൊ": 8952,
      "റിങ്": 8953,
      " ഗാര്": 8954,
      "ഡിഎസ്": 8955,
      "യ്ക്കാ": 8956,
      "മുള": 8957,
      "ന്തോ": 8958,
      " വീട്ടു": 8959,
      " ചെയ്യപ്പെട്ട": 8960,
      " സെൽ": 8961,
      " തിരഞ്ഞെടുപ്പിനെ": 8962,
      " വേണമ": 8963,
      "ലംഘ": 8964,
      "ഡിയൂരപ്പ": 8965,
      " പരാതിയിൽ": 8966,
      " രാഷ്ട്രീയത്തില്": 8967,
      " പങ്കെടുക്കും": 8968,
      " കോളജ്": 8969,
      "ഭാഷണ": 8970,
      " പോലീസും": 8971,
      " ലൈസന്": 8972,
      "ഞ്ഞിട്ടുണ്ട്": 8973,
      " തയ്യാറാവ": 8974,
      " ശിശു": 8975,
      " ആത്മവിശ്വാസ": 8976,
      " തോന്നുന്നു": 8977,
      " കോളേജിലെ": 8978,
      " പ്രചാരണത്തിന്": 8979,
      " ചാനല്": 8980,
      "വിഡിനെ": 8981,
      " കുടുങ്ങി": 8982,
      " രക്ഷാപ്രവര്": 8983,
      "ഏകദേശം": 8984,
      "അതുകൊണ്ടുതന്നെ": 8985,
      "ആഗോള": 8986,
      "ഠിന": 8987,
      "ക്കുമെന്ന": 8988,
      " പവാര്": 8989,
      " നായി": 8990,
      " അഷ്": 8991,
      "ിലെയും": 8992,
      " ഇയാളുടെ": 8993,
      " ഒന്": 8994,
      "നിങ്ങൾ": 8995,
      "എന്നിരുന്ന": 8996,
      " കെടി": 8997,
      "ോട്ടെ": 8998,
      " ഷീ": 8999,
      "കേസിൽ": 9000,
      " ശ്രമങ്ങള്": 9001,
      " മീറ്റ": 9002,
      "മാകുന്നത്": 9003,
      " ഇറക്കി": 9004,
      " കമ്പനിയ": 9005,
      " സീസൺ": 9006,
      " ഉണ്ടായിരുന്നില്ല": 9007,
      "ദിലീപ്": 9008,
      " സൗജന്യമായി": 9009,
      " ദശലക്ഷം": 9010,
      "ov": 9011,
      "ഇപ്പോഴിതാ": 9012,
      "ഉദ്യോഗ": 9013,
      "എല്ലാം": 9014,
      "കമ": 9015,
      "ചരി": 9016,
      "ജിയുടെ": 9017,
      "ടീ": 9018,
      "ടികള്": 9019,
      "പമ": 9020,
      "ലേഖ": 9021,
      "ൃഥ്വി": 9022,
      " മഞ്ജു": 9023,
      "ുന്നതാണ്": 9024,
      "മാരാണ്": 9025,
      " നടന്ന്": 9026,
      " ഓടെ": 9027,
      " നേതാവ": 9028,
      "ുപേ": 9029,
      " സെൻ": 9030,
      "മേറ്റ": 9031,
      " സർവേ": 9032,
      " വിലയില്": 9033,
      "ുണ്ടായത്": 9034,
      "നോളജി": 9035,
      "സുപ്ര": 9036,
      "യായും": 9037,
      " പിന്തുണയ്ക്കുന്ന": 9038,
      "ഭാവി": 9039,
      " അയച്ചു": 9040,
      " ശ്രീലങ്ക": 9041,
      "‍ഷകരുടെ": 9042,
      " ക്രമീകരണ": 9043,
      " വ്യവസായി": 9044,
      " കച്ചവട": 9045,
      "അല്ലാതെ": 9046,
      "ഇക്കഴിഞ്ഞ": 9047,
      "കരി": 9048,
      "ദക്ഷി": 9049,
      "ലോട്ട": 9050,
      "വാര്യ": 9051,
      "സന്ധ": 9052,
      "ല്ല്": 9053,
      "ട്രം": 9054,
      "ത്തേരി": 9055,
      " ആരിഫ്": 9056,
      "രാജി": 9057,
      " ഉണ്ടെന്നും": 9058,
      "ങ്ങളുള്ള": 9059,
      " ശരിയാ": 9060,
      " ശുപാര്": 9061,
      " ഒടി": 9062,
      " എന്നോട്": 9063,
      "വാങ്": 9064,
      " ഗാന": 9065,
      " ഭഗ": 9066,
      "ണിക്": 9067,
      " പറയുകയും": 9068,
      "ബിന": 9069,
      " ജനങ്ങൾക്ക്": 9070,
      " ലക്ഷത്തോളം": 9071,
      " കിര": 9072,
      " ട്രീ": 9073,
      " അധികാരി": 9074,
      " വകുപ്പിന്": 9075,
      " എത്തിച്ചത്": 9076,
      "രാജസ്ഥാന": 9077,
      "മാകുന്നു": 9078,
      "പ്രതിരോധ": 9079,
      " ഉൾപ്പെടുത്തി": 9080,
      " സമ്മർദ്ദ": 9081,
      "‌സൈസ്": 9082,
      " തവണയാണ്": 9083,
      " ഉന്നയിച്ചത്": 9084,
      " രംഗത്തെത്തിയത്": 9085,
      " പറ്റില്ല": 9086,
      " അടിയന്തിര": 9087,
      " കമ്പനിയുടെ": 9088,
      " ട്രെയിന്": 9089,
      " തയ്യാറാക്കി": 9090,
      " അഭിമുഖത്തില്": 9091,
      " റദ്ദാക്കി": 9092,
      " യൂണിറ്റ്": 9093,
      " മാനദണ്ഡങ്ങള്": 9094,
      " ജലീല്": 9095,
      " സസ്പെ": 9096,
      " പൂർണമായും": 9097,
      " അക്കാദമി": 9098,
      "110": 9099,
      "97": 9100,
      "ഇപ്പോഴ": 9101,
      "ദിയ": 9102,
      "ലുകളും": 9103,
      "‌,": 9104,
      "‌ലി": 9105,
      " വിന": 9106,
      " വികാ": 9107,
      " ഒട്ടും": 9108,
      "ക്കിംഗ്": 9109,
      "ണിനെ": 9110,
      "ടിയാണ്": 9111,
      " ചെയ്യണമെന്ന്": 9112,
      " നിലവാര": 9113,
      " എന്നിവയും": 9114,
      " സാധിച്ചിട്ടില്ല": 9115,
      " സീറ്റിൽ": 9116,
      " പാർട്ടിയ": 9117,
      " പദ്ധതിക്ക്": 9118,
      " കൂട്ടം": 9119,
      " കൂട്ടായ്മ": 9120,
      " ബാധിക്കുന്ന": 9121,
      " ഹാരി": 9122,
      " ആർക്കും": 9123,
      " ഉണ്ടായിട്ടില്ല": 9124,
      " ശക്തിപ്പെടുത്ത": 9125,
      " അഞ്ചാം": 9126,
      " സംരക്ഷണം": 9127,
      " തൊഴിലാളികളെ": 9128,
      " ക്രൈം": 9129,
      "പ്രാദേശിക": 9130,
      "01": 9131,
      "05": 9132,
      "േറ്റി": 9133,
      " സുമ": 9134,
      "ച്ചില്": 9135,
      " ജ്വ": 9136,
      " സംഖ്യ": 9137,
      "ീകൃത": 9138,
      "ലിനും": 9139,
      "ാകുന്നത്": 9140,
      " സംസ്ഥാനങ്ങളിലും": 9141,
      "ികൾക്കും": 9142,
      " പ്പെ": 9143,
      " ആളുകളുടെ": 9144,
      " പിന്തുണയും": 9145,
      "‍മാണം": 9146,
      " യൂസ": 9147,
      "ാണെന്നാണ്": 9148,
      " ടെസ്റ്റ": 9149,
      "‍ഗണ": 9150,
      "‌സിനും": 9151,
      " ലാബ": 9152,
      " അതുകൊണ്ട്": 9153,
      " തട്ടിക്കൊണ്ടു": 9154,
      " ഛത്തീസ്ഗ": 9155,
      " എംബസി": 9156,
      " മുകളിലുള്ള": 9157,
      "എന്നിരുന്നാലും": 9158,
      "87": 9159,
      "ഇരുവരും": 9160,
      "ദമായ": 9161,
      "മൊന്നും": 9162,
      "സൈന്": 9163,
[...]
