#version: 0.2
् य
् र
। 

् त
  स
  प
् व
  ।

  व
त ि
ा न
  क
र ्
  त
म ्
  न
ि त
  अ
त ्
्य ा
  म
 प ्र
ा र
  द
  य
ा ं
  भ
त े
  च
क ्
न ्
म ा
स ्य
 व ि
य ा
॥ 

ष ्
स ्त
स ्
न ्त
क् ष
  इ
त ्र
  श
  ॥

व ि
र ्व
र ा
न ा
  ज
द ्
प ्र
क ्त
थ ा
  ह
त ्य
े व
े न
  ए
प ि
  ग
त ः
ा द
ि क
ा य
  -
ा म
् च
त ्त
ा ः
ष् ट
न ि
  आ
ा व
े ष
र ि
त ्व
य ो
र् थ
म ि
द ि
ा ल
 प ु
 न ि
द ा
  ब
त ा
  उ
द् ध
 इ ति
र ्त
 स ं
े श
  र
  ल
् ञ
 भ व
 व ा
 स र्व
्य ते
  ध
 स ्व
ा प
ङ ्
ान ्
य े
  (
श ्च
य ं
्य ं
स ं
भ ि
 प र
ान ि
 स ्
न ु
व ा
 ए व
र ण
म ु
न ं
ि ं
ृ त
  "
त ु
र् म
भ ा
न े
क ार
ज ्ञ
र ु
 त ु
य ः
न ः
्र ि
्य े
त ी
  रा
स ा
म ान
र ो
च ्
  .
न् द
? 

क ा
र े
म े
न्त ि
त ो
र् ष
े द
ल ्
ष् ठ
ग ु
 स ु
ा त्
च् छ
न ्य
स्त ि
 ह ि
ा ण
ान ां
स ि
 प्र ति
ू प
भ व
द ्य
द ्व
स् थ
श ्व
ध ि
ै व
प ु
स ्व
व ्य
र् ण
 स म
  _
 स ा
ह ं
ा स
य ु
ान ्त
प र
ब ्
क ं
ी य
 प ू
 क ु
ह ि
क ः
त ं
 इ त्य
क ृ
ग ्र
 क ार
े ण
ल ं
 त ्व
स ्या
ो ऽ
ै ः
ु ः
क ्र
ध िक
ग ्
क े
 त े
ित ः
द ेश
भ ाव
म ः
ष ्य
  ख
 य था
ेष ु
र् ग
र ं
त ्या
स्त ु
 म ह
 द ्व
ृ श
ङ् ग
 द ेव
प ्त
क्ष ण
ा त
स ी
ृ ष्ट
न ो
. 

ित ा
ण ्
प ू
 भव ति
द ्र
र ी
श ्र
 प रि
ृ ह
स ु
 क ृ
ि ः
यो ग
 श ्र
भ ू
ल ा
र ः
ध ्य
 क ्
श ि
 स म्
न् ध
 म े
ल ो
न ी
ा ह
 द ि
 क ि
त्व ा
स् मा
र ूप
ु ं
व ृ
्व ा
च ित
 म ु
ञ ्च
 उ प
द ं
  ?

 स ह
म ेव
ण ं
 रा ज
न् न
ान ं
 म ा
 न ा
भ ्य
ण ा
 भ ा
ित ं
 त था
े त
 क थ
ष ा
 स् थ
ी व
 क् ष
 व ै
  '
र ्य
- 

या ः
प ा
ब् द
ल ि
स् मि
र् श
! 

श ेष
 प्र ाप
्र ी
 द ु
 अ पि
 य ो
ल् प
 अ स्ति
 व ्य
ज न
ित ्य
 स मा
 स ू
- -
 य ु
ति ः
द ेव
ो प
ण् ड
व ं
क ृत
े त्
 ग ु
क ाल
ध ान
च ार
ध ा
च ि
श ्
स ः
 प ृ
द ्या
 स ्त
क्त ि
ण ि
 क िं
ाद ि
क ु
स म
 व र्ष
श ्य
द ु
प ्
स र्व
ल े
 भ ू
य ति
स् म
 पू र्व
व े
प द
व र्त
न्त े
 प ा
 त त्
ान ु
 ज ्ञ
च ्च
म ं
 प्र ा
ित म्
न म्
व ान्
न ां
 अ नु
) 

भा ग
ह ु
  फ
े ति
क ो
ान ा
क रण
य म्
ी त
य म
ी ं
 त स्य
क्ष ा
 न ाम
प ाद
ज ा
न्त ्र
  घ
 _ 

ख ्या
त ां
र् ध
ो ष
क ि
त् म
प्र ति
व ्या
्रि य
स म्
स े
 पु नः
  छ
क्ष ि
ह े
 व ृ
 ए क
ण े
प रि
ु द्ध
र्थ ः
 क र्त
ित ्र
 य दि
 श ि
 य त्
न्द ्र
ान ्य
ाण ि
 . 

ण ां
 म म
 क े
यु क्त
भि ः
द ी
स् था
्या ं
रु ष
स्त ्र
न् म
 पु न
र् ज
वृ त्त
न ेन
न्त ु
 य ा
ाम ि
् ज
द े
म ो
 स ्या
 प्र त्य
 ल ो
 व ्या
य ्
त त्
ष ु
 स् म
ह ्
ध ्या
ण ः
प ी
 ग ृह
व ः
इ ति
प े
व ाद
 भ ार
 क ाल
ित ्त
रा ज
अ थ
ेष ां
स ू
 क र्म
त स्य
स्मि न्
द ान
का श
ू ल
र्थ ं
 क रो
 व र्त
 अ व
 क ृत
ब न्ध
 त त्र
  =
. .
मि ति
न ्व
स ्र
श ा
त म
 स ि
वि ष्य
ह ार
त्त ्व
िक ा
यो ः
 द ृष्ट
त्व ं
क्ष े
प ्य
२ ०
 _ _
 ग ्र
ो क्त
 क ा
क म्
 वि श्व
 ज न
व ी
वि ष
ाय ां
2 0
त् स
थ ि
च ्यते
य था
पू र्व
  !

य ि
न ्या
भा ष
ट ्
स ार
र म्
क ्य
 कार ्य
ज्ञ ान
ख ्य
व ेद
ह ो
 ह े
 ज ा
ध ्ये
 ज ीव
 प्राप ्त
 श ु
ए वं
ल ी
 प्र थ
म पि
 क ो
त्र ा
ार ा
श ु
 त द
ध ु
ित ्
 त दा
 क ्र
्रि या
ऽ पि
 त व
म ी
मा ण
 द े
ते न
 अ प
त म्
वि ध
व ार
 द ेश
श ः
 वि ष
म् ब
ग्र ह
द ृश
  /
य त्
ये त्
  ति
ो ध
 क ेव
श ब्द
य ां
ना ः
य ित
 ध र्म
क ल्प
 ल ि
्य ो
सी त्
 अ धिक
ित े
चित ्
ष् ण
 द ृश
 ब हु
 पु त्र
ध ार
्या मि
 भ ग
 भ विष्य
ष्ट ्र
भ ार
स ह
  औ
 ब ्र
ी ति
ो ग
१ ०
, 

 इ त्या
ुः ख
 स मु
 वि शेष
व स
ग म
  ऽ
 अ भि
त द
 र ु
१ ९
सि द्ध
 भ ाव
 च ि
 म या
 य े
 स ः
 त ्रि
क र्म
त ाः
त था
ग् नि
 एव ं
ृ त्य
स्थ ान
श ी
व र्ष
 ज ग
क ाः
ह ा
ण म्
त्र ं
्व ं
 च ा
ग ृह
ाय ते
क थ
र् हि
क िं
क र्त
 वि द
 अ न्य
ण ी
स ो
 त ं
 स ाम
ित ाः
क ी
व ेश
  ,
च न
र् मा
द र्श
ज ्य
 आ सीत्
ष े
य दि
 म न
द्व ि
 र ूप
प्र त्य
र ्या
त या
 सु ख
  ष
ु क्त
ए क
 पु रुष
 द ्र
च ना
ध े
त्र े
य ते
भ ेद
स मा
 त ेन
स्त े
ल ः
न्त ः
  ट
 स प्त
ना म
 त्व ं
्य ः
ीय ते
 द्व ि
 श ब्द
ृ द
 कथ ं
 सं स्
 पृ ष्ठ
 श्र ु
क्र म
  ई
 सर्व े
 स्या त्
ज्ञ ा
  [
ङ् क
 य ः
 प द
 न मः
त त्र
त तः
 व े
ो द
 अ न
 द ी
 उ त्त
ष ि
_ _
 द र्श
स् प
र् ह
ै क
पू र्ण
भ्य ः
ात् म
ाण ां
व ्यं
 गु ण
लो क
कृ ति
ब ्र
 द ू
ञ ्ज
 - -
र् प
प त्त
e r
 प ी
 प ित
प्र ाप
वा च
मु ख
 करो ति
र् द
ग त
 क ाम
्या ः
ग र
क्त ं
अ न्य
श्च ि
्य म्
 म ि
 ल ा
i n
उ प
व त्
गु ण
ह ः
ह ित
  ऋ
र् भ
ध ी
म् भ
 सं श
 वि ना
ए त
य न
भा षा
ान े
म न
दा ह
 म ां
  थ
 श ा
ोऽ पि
प्र ा
र् घ
 यो ग
त्र ि
 क ी
रण ं
s t
 ए त
 द श
भव त्
 प ि
 वर्त ते
 भा ष
ो ः
स ाम
ध ः
स्मा त्
प ृ
 त तः
य स्य
 क दा
्य ु
यो ज
ल ु
 स ो
ल क्षण
ञ ्
म म
 भव ेत्
ल म्
 न े
 प रा
मान ं
त्व ात्
ती ति
ए व
प ः
 स न्ति
ग े
अ तः
 य त्र
 प ठ
ध र्म
 उ त्
वि शेष
र्थ े
स ौ
क्ष ्य
त र
 व द
 त ्र
 स दा
ता म्
 स् था
 वर्ष े
 म ान
व र्ण
नो ति
ो ज
प ाल
 श क
ेश ्व
 कु र्व
 सि द्ध
व्य म्
 त द्
 ब ाल
क ल
प रा
 ज ु
1 0
 च तु
 त र्हि
च्छ ति
े ः
 औ र
 अ न्त
a n
ध न
 वि द्या
 पर ी
 व ेद
 इ व
ष ां
म ह
ति ं
ित ो
अ नु
स न्
ाद श
 र े
 भविष्य ति
कार ः
ग ो
 द ुःख
द ू
स्या ः
क ाम
 लो क
ै र
१ १
द ृष्ट
ड ि
भ ु
श ो
य ेन
 स् प
ृ ण
ह म्
 म ू
ि र
ाय ु
 अ हं
फ ल
तु ः
य त
 स्त ्री
 प ञ्च
  +
o n
श ं
काल े
 प ाप
वि द्या
a r
 कृ त्वा
क र
व ान
ज ि
ण ्य
र् था
क्ष ु
ित ी
प्राप ्त
 व्य व
न्त ं
 क ्रिय
अ त्र
या म
ाय े
ष्ट ा
 अ त्र
 अ थ
 र क्ष
 अ ति
 नि र्
भ ्या
धिक ार
 क्ष े
रे ण
ज ्ज
 ज्ञ ान
 व क्त
__ 

द श
ट ि
 सर्व ं
 स्व ा
मु क्त
 भा ग
मा त्र
 न ो
 आ ह
ु म्
मा स
 प श्य
र्व ि
म ां
र् च
भ ्यां
 विद ्यते
 ख ः
 पु ं
घ ्र
 द क्षि
20 1
इ त्य
 व ी
 म नु
 य दा
e n
 ना स्ति
ह् म
नि र्
ष् म
िक ं
व ै
 - 

 स त्य
 न ं
व ो
 व यं
१ २
ा म्
उ त्त
 मह ा
ह ू
 द ोष
 भ ्र
१ ८
स्मा कं
 क रि
o r
भू त
 प्राप ्
न म
 रा ष्ट्र
  रि
 प्र ाण
ज ः
द ाय
वा ह
ज ीव
मा ः
 ज ान
भव ति
तु ं
ब द्ध
अ हं
a t
 श ी
 क र
 प्र ज
ल भ
या मि
च ी
म ू
 क ्व
र् न
ार ं
ना य
ट ी
 कि म्
य न्ति
ड ा
पु त्र
प ो
म ्य
ित ्यं
 उ क्त
 स द
श त
 अ धि
ड ्
 केव लं
 ज न्म
 म ो
ि ति
 म ध्ये
१ ५
 पर ं
धि ः
ह ी
 घ ट
प्र थ
 प्र ि
भ ्र
शि ष्ट
 इत्या दि
 पर म
ण ाम
ार ी
 व र्ण
ार ि
मा ह
न स्य
ण ो
 दृश ्यते
ाव त्
 त ेषां
 य स्य
दि ति
 वृ द्ध
ाद ृश
 लि ख
प ित
 ब ुद्ध
या त्
 आ ग
प ति
 वा च
क रो
य न्
ष्य ति
 क ल
e s
व ां
 ध ा
अ न
देश े
ब् ध
तो ऽ
ष ः
ु प
 फ ल
व च
  ः
क स्य
म नु
 पू र्ण
ाना म्
 ह ्य
 त थ
भ े
स्त ्व
क्त िः
अ त
व री
" 

त्व े
 म ृ
 ह ृद
ष ्यामि
त्व ेन
 पा ठ
् म
पर ्य
० ०
 स े
 सम ी
 पू ज
ित ्या
o m
  S
ती य
 च े
ं श
ड ़
 अ भवत्
 ज ि
 ब ि
ध ्व
ार ः
 ज ल
ाय ं
 क ल्प
रि ति
 न ्या
वि श्व
ज ी
व न
ान ्व
 प्रथ म
 र ो
प ं
कार ्य
 भा षा
 पृ थ
ब ल
 स ौ
 य ेन
थ े
 भ ि
पु रुष
द ः
र् क
१ ४
 प्र काश
रा ः
योग ः
ज ं
म न्त
 संश यः
नि यम
 प्र वि
ध ो
व ती
 दृष्ट ्वा
श ाल
ाय ः
  ऊ
 पु रा
 प्र े
र स्य
 __ 

 य ज्ञ
 वि ध
ज े
ु म
 प्र ती
ग ा
त ौ
ित ्व
कथ ं
 ल े
 यु द्ध
 व स्तु
 अ स्य
 स र
1 9
सं स्
क ्रिया
ते ः
 क ्री
 श क्ति
  ओ
त न्त्र
ू न
 ग ो
 पु र
 न ः
 श री
ष्ट ं
 पृ थि
 कृ ते
 ग च्छ
 ज ायते
या म्
 म ित्र
स्म ै
 प्र ोक्त
 म ध्य
 क ्रिया
 सर्व त्र
 व च
स ङ्
 राज ा
वर्त ते
च र
 प ाद
मा र्ग
a l
 श त्र
 भव न्ति
 न ृ
१ ७
 भ ु
द ौ
 त मे
श्र ु
भ य
  I
न िक
ब ि
ाद ्य
यो जन
ल ्य
प न्
 साम ान्य
१ ३
अ धिक
रो ध
क ेन
ा त्र
म ित्त
 कु रु
ग ः
  ॐ
व ्र
वा स
 स ेव
ान ाम
 श ो
अ यं
ग ण
ब ुद्ध
त् मा
 इ दं
ाद ी
 म ूल
ट े
 कार ्यं
अ व
 य द
स ां
 भग व
देश ः
दान ीं
0 0
क म
  t
 य ू
 सा ध
 शक ्यते
 चि न्त
ी म
स मु
प क्ष
र्व ा
 ( )
द त्त
द्र ा
 ह ो
 ब ल
 च ेत्
ज ्
चित ्र
ते षां
श े
ो त्त
ान्त ि
थ ं
ना म्
  A
श्च ा
र म
 प श
पर ं
 राज ्य
त दा
 नि ष्
a g
े ष्ठ
 स न्
 सू र्य
 न ्य
 कार ण
थ ः
 स ङ्
 न ित्य
पे क्ष
१ ६
न ानि
1 1
भ ो
प्र ि
त्व म्
 काल े
 स्थ ान
र स
र ति
वृत्त ि
ब ा
 भ ेद
 स्व ी
  ड
 म नो
स्या ं
सह स्र
या त
भ्य ो
 क ः
ित ्वा
 द त्त
ष ्यते
रूप ेण
ेव ं
य द्य
 अ ध्य
ान् न
i i
 प्र स
ष ्या
वृ द्ध
 स्था प
ख ि
 वि द्य
भाव ः
 प्र श्
ते षु
 भू त
मु प
ृत ी
शा स्त्र
 व ्र
मान ः
 त त
व द
घ ु
ल य
श ास
 त ्य
ग् ने
र क्ष
1 2
 अ र्थ
 श ेष
 य द्
- अ
कृ त्य
रूप ं
भ क्त
ह ्य
त व
द म्
 नि श्च
 ब ा
 वृ त्त
 ल भ
 त्व या
 न व
 च ैव
इ ट
ी ः
श क्ति
स्था प
य ौ
 य ज
 वि धि
मे र
व्य ः
यित ुं
ल् ल
 सू चना
 ए तत्
 श क्
 आ स
ास ु
 गु रु
कृत ं
 आ व
प ार
र्ग ः
 सह स्र
 क रण
 क श्च
 त म
 प र्व
िक ः
 इ ह
र् द्ध
 भार त
व्य व
यु ः
 दी र्घ
 न ैव
क र्ष
द ो
ख ा
 प े
इ दं
म ार
 द ा
 केव ल
 क्रिय ते
ख े
र ू
्व ि
मि दं
 न ित्यं
त द्
वेद न
 पृष्ठ ानि
य दा
 ध न
अ भि
पद ्यते
े ऽ
 ल क्षण
 स ी
 न र
द ुःख
 ध ार
 कि म
 शु भ
सं धान
त न
 ग ण
अ प
 स्व यं
 श त
दि ष्ट
i t
त तो
ह ास
अ पि
ै र्
 वि चार
 प्र ण
ना त्
 ज नाः
ा र्थ
न्त रं
भ ी
ब ी
कर्त ा
 क ौ
 वि ज
1 8
र् म्
 त ा
त त
 वि व
 पुन र
. .

 दु र्
का स
  ऐ
ाद ेश
अ स्य
 उ च्यते
विष य
क ूल
 स्व र्ग
ज्ञ ानं
 प्र धान
1 5
क्ष ं
नि ः
 रा त्र
दाह रण
प्र स
 आ त्म
 श ्व
ब हु
ज ्यते
 ति ष्ठ
 म ास
म ित्य
ब ोध
 म ृत्य
 ह स्त
वि धि
म म्
ब सा
स्या पि
च ्य
न व
 मु क्त
भव ः
रा ष्ट्र
धिक रण
 ए ष
स प्त
 ग्र ह
m s
्र ा
प्र े
i v
 व ार
  ि
ग्र े
  P
 भाव ः
ब ाल
 श क्त
 इत्य स्य
 ज्ञ ा
 स्म ृ
 क ेन
लि ख
प दा
 लो के
 ब्र ह्म
ज्ञ ः
रु द्ध
क ू
 न ी
 क्षे त्र
 नि य
ट ा
 कार ्या
च तु
म व
न्त ्य
ृण ु
सं ख्या
 य थ
ेष ्व
पु नः
  ङ
य ी
सु ख
क्ष ः
म ध्ये
िक े
 य द्य
ने क
 सम् बन्ध
 पर स्
 कि ञ्च
 ए कः
ृत ं
सा ध
 यु क्त
बसा इट
म न्त्र
त ाव
 पर मा
इ ह
श क्त
 पुन र्
स्त था
क ेव
 व र
ग ी
 वि कल्प
 इ च्छ
द क्षि
 सा क्ष
द ोष
 ध ्य
ित ीय
ो ं
 पु स्त
 पूर्व ं
म स्ति
क ्रिय
 त्व ां
ु व
न् थ
ेष ण
 नि यम
 भव े
ध ्यते
 न ्
 स्व प्
च ा
 ह रि
 मा र्ग
प या
 ख लु
फ ु
पर ी
प ञ्च
िक ी
द्व ा
 नि र्म
पु न
 द्व िती
 कु र्या
 ह ै
लि ङ्ग
ित ानि
ध ं
 ज ात
 इत्य र्थः
 दृश ्य
र्थ ि
 म न्त्र
 प्राप् नोति
स र
 शी घ्र
 य त
 भाष ण
यित ्वा
r e
कृ ते
 कुर्व न्ति
न्त र
क ्व
द ार
 प ार
ब ु
रा त्र
 प्र योग
 य तः
 सम् बद्ध
मे ण
 व ो
ान्त र
 भव तः
्ये त
 यो ज
 नि र
 ध ्व
ग च्छ
 अ ध्या
 अ ग्नि
  s
 विष ये
 स ति
 अ यं
ऽ ऽ
 समु द्र
 द्र ष्ट
 आ र
त ाम
 वि भाग
 व स
प्र श्
] 

 स व
स् ट
अन्य था
 त त्त्व
ो त्
्य स्य
 अ स
धु ना
st r
िक ाः
 प्रा र्थ
प त्र
 द ृ
दि श
कार ं
न ीय
वि भाग
कार ेण
प दं
 स मान
 त ो
l e
 ए का
न ौ
 ब ाह
स ेव
 उ द्
ह र
  T
 च ित्र
  M
ह स्त
 वि स्त
o u
घ ा
र्थ म्
 शा स्त्र
द पि
प त्
  m
स र्ग
ज ो
 वि ज्ञ
 ले ख
 श क्य
ग ं
 सम ्य
1 4
वि धान
्यो ति
 संस् कृत
ृ हं
 न ग
 अ स्माकं
 त प
 ग ति
ाह ्म
ले ख
ज ग
र्त ि
 फ लं
 व न
द ृ
भ ः
 व ाम
न् दि
 ब ह
 ब ु
म् ह
  झ
व स्तु
म या
 सर्व दा
 इत्य ेत
च्छ ेद
म ौ
२ २
 ल क्ष
घ ्
 म ात
त्य ं
 रु प
च े
३ ०
ष्ट ि
 व र्ध
i c
् ल
य ान
 दक्षि ण
सा धन
  C
 त ां
स्थ ित
 प्र व
-- -
ट ः
 त तो
 प्र सिद्ध
े क
 ई श्व
म ृ
म ध्य
ह िं
द्ध ि
 अधि नियम
ित ुं
त स्मा
 प िता
२० १
क ौ
 क म
 प्र यत्
 पर ्य
 सू त्र
२ ५
त्त े
ष ण
ित वान्
 सर्व ा
म य
 प्र कृति
 ह ृ
ाण ्
a m
शि क्षण
चित ्त
ग तं
 उ च्च
त्या दि
साम ान्य
प न्न
े य
 त ाव
 प्र य
ान्त े
ह ाय
 श ुद्ध
फ लं
त्त ा
 म धु
भाव े
 श्र ी
 समा प्त
 प्र माण
क्ष ्यामि
 विष य
 भग वान्
भ ग
न् नि
न ान
पि ं
 सं ख्या
्या व
 वि नि
 कार णं
म ेन
e d
अ ति
ष् मा
म ान्
कार ण
ग्र ाम
स ेन
 प्र च
ार ो
ना पि
प ाप
 परि वर्त
्या य
 द्व ारा
प्र योग
 अनु संधान
्व ः
ms g
मु च्यते
msg str
 श ू
व र
 कर्त ुं
 भव ान्
 द्व ादश
ो त
 य ावत्
 को ई
ं स
 भ क्त
न ग
२ ४
पू ज
व त्स
 त द्व
व ाय
 सं सार
 अ त्य
ी र
1 3
 च ित्त
 मा ता
 क स्य
 वा क्य
य त्र
ह ृद
क्र ी
 सम्बद्ध ानि
म ूल
 दि न
om e
  p
न्त ी
षे ध
न न्द
 क्ष ण
विष ये
ह स्य
 व ायु
 नि र्व
 गृह े
त्रा पि
 वि ष्ण
वि श
मान ा
पत्त ि
1 7
 न ै
न ै
ष्ट ः
 र ोग
i on
क ्यं
 सर्व ्व
 व ाय
 क्री ड
ह ितः
 ब हि
स्व ा
 देव ा
श् ल
स्त ा
ष ्व
 सर्व ेषां
 प्रा तः
ग तः
ज ल
 प ति
 उप योग
२ १
प ात
ान ी
ना श
 उत्त र
 परी क्षा
 ज ाना
 अ ती
ष् प
व ाः
 ग तः
पु रा
a d
 हे तु
  B
 प दा
करण े
  N
पृ ष्ठ
व र्ज
सं युक्त
 वे बसाइट
 न ु
मा त्
 अ तः
 स ार
 पर म्
म ण्ड
 क श्चि
पाद न
भ ौ
 स िं
स ृ
ै ल
ह िता
  c
 सं युक्त
  b
अ न्त
i s
न्द ु
म त
ु त्
 अ मेर
 प ाल
 इ न्द्र
सर्व ं
  L
मा य
पा ठ
 त स्या
 श ्
ेव ाः
२ ७
स्व रूप
  f
करण ं
 र स
 मु ख
 द ण्ड
र्त ्त
 न ू
न नु
 वि कि
र्म् म
त ृ
 य ाव
 वि प्र
 ग ि
दि न
त्त ु
 सु र
 त स्मा
सा ह
 य ं
 नि र्ण
 - --
ा या
 म हि
प्र काश
२० ०
ाद ौ
ान्त ः
 ग्र ाम
म ति
 ज ू
 ए वा
 स क
लो के
en t
स द
ार े
स्त ्री
कृ ता
 कृ ता
स न्ध
म स्य
त्त ि
न्त ो
 तथा पि
 वर्त मान
 आव श्य
 ग म
 कि न्तु
 द ैव
ध ्
रु ण
ग ि
र ेव
 स ्य
 प्र भाव
र क्षण
 अ त
 अ द्य
 प क्ष
 ग त
 जन वरी
 देश े
1 6
 श्रु त्वा
 च ै
ार ु
 भार तीय
 विशेष तः
 त ौ
स् क
 प्राप ्य
स्म ान्
अ द्य
