{
  "version": "1.0",
  "truncation": null,
  "padding": null,
  "added_tokens": [],
  "normalizer": null,
  "pre_tokenizer": {
    "type": "Sequence",
    "pretokenizers": [
      {
        "type": "Split",
        "pattern": {
          "Regex": "[^\\r\\n\\p{L}\\p{N}]?[\\p{Lu}\\p{Lt}\\p{Lm}\\p{Lo}\\p{M}]*[\\p{Ll}\\p{Lm}\\p{Lo}\\p{M}]+|[^\\r\\n\\p{L}\\p{N}]?[\\p{Lu}\\p{Lt}\\p{Lm}\\p{Lo}\\p{M}]+[\\p{Ll}\\p{Lm}\\p{Lo}\\p{M}]*|\\p{N}{1,3}| ?[^\\s\\p{L}\\p{N}]+[\\r\\n/]*|\\s*[\\r\\n]+|\\s+(?!\\S)|\\s+"
        },
        "behavior": "Isolated",
        "invert": false
      }
    ]
  },
  "post_processor": null,
  "decoder": null,
  "model": {
    "type": "BPE",
    "dropout": null,
    "unk_token": null,
    "continuing_subword_prefix": null,
    "end_of_word_suffix": null,
    "fuse_unk": false,
    "byte_fallback": false,
    "ignore_merges": false,
    "vocab": {
      "\n": 0,
      " ": 1,
      "!": 2,
      "\"": 3,
      "#": 4,
      "$": 5,
      "%": 6,
      "&": 7,
      "'": 8,
      "(": 9,
      ")": 10,
      "*": 11,
      "+": 12,
      ",": 13,
      "-": 14,
      ".": 15,
      "/": 16,
      "0": 17,
      "1": 18,
      "2": 19,
      "3": 20,
      "4": 21,
      "5": 22,
      "6": 23,
      "7": 24,
      "8": 25,
      "9": 26,
      ":": 27,
      ";": 28,
      "<": 29,
      "=": 30,
      ">": 31,
      "?": 32,
      "@": 33,
      "A": 34,
      "B": 35,
      "C": 36,
      "D": 37,
      "E": 38,
      "F": 39,
      "G": 40,
      "H": 41,
      "I": 42,
      "J": 43,
      "K": 44,
      "L": 45,
      "M": 46,
      "N": 47,
      "O": 48,
      "P": 49,
      "Q": 50,
      "R": 51,
      "S": 52,
      "T": 53,
      "U": 54,
      "V": 55,
      "W": 56,
      "X": 57,
      "Y": 58,
      "Z": 59,
      "[": 60,
      "\\": 61,
      "]": 62,
      "^": 63,
      "_": 64,
      "a": 65,
      "b": 66,
      "c": 67,
      "d": 68,
      "e": 69,
      "f": 70,
      "g": 71,
      "h": 72,
      "i": 73,
      "j": 74,
      "k": 75,
      "l": 76,
      "m": 77,
      "n": 78,
      "o": 79,
      "p": 80,
      "q": 81,
      "r": 82,
      "s": 83,
      "t": 84,
      "u": 85,
      "v": 86,
      "w": 87,
      "x": 88,
      "y": 89,
      "z": 90,
      "{": 91,
      "}": 92,
      "~": 93,
      "¡": 94,
      "¢": 95,
      "£": 96,
      "¤": 97,
      "¥": 98,
      "¦": 99,
      "§": 100,
      "©": 101,
      "¬": 102,
      "®": 103,
      "°": 104,
      "±": 105,
      "¶": 106,
      "·": 107,
      "¿": 108,
      "À": 109,
      "Á": 110,
      "Â": 111,
      "Ã": 112,
      "Å": 113,
      "Æ": 114,
      "Ç": 115,
      "È": 116,
      "É": 117,
      "Ê": 118,
      "Ë": 119,
      "Ì": 120,
      "Í": 121,
      "Î": 122,
      "Ï": 123,
      "Ð": 124,
      "Ò": 125,
      "Ó": 126,
      "Õ": 127,
      "Ö": 128,
      "×": 129,
      "Ø": 130,
      "Ú": 131,
      "Û": 132,
      "Ü": 133,
      "Þ": 134,
      "ß": 135,
      "à": 136,
      "á": 137,
      "â": 138,
      "ã": 139,
      "ä": 140,
      "å": 141,
      "æ": 142,
      "ç": 143,
      "è": 144,
      "é": 145,
      "ê": 146,
      "ë": 147,
      "ì": 148,
      "í": 149,
      "î": 150,
      "ï": 151,
      "ð": 152,
      "ñ": 153,
      "ò": 154,
      "ó": 155,
      "ô": 156,
      "õ": 157,
      "ö": 158,
      "÷": 159,
      "ø": 160,
      "ù": 161,
      "ú": 162,
      "û": 163,
      "ü": 164,
      "ý": 165,
      "þ": 166,
      "ÿ": 167,
      "Ā": 168,
      "ā": 169,
      "ă": 170,
      "ą": 171,
      "ć": 172,
      "ĉ": 173,
      "Ċ": 174,
      "č": 175,
      "ē": 176,
      "ĕ": 177,
      "ė": 178,
      "Ę": 179,
      "ę": 180,
      "ě": 181,
      "ğ": 182,
      "Ī": 183,
      "ī": 184,
      "į": 185,
      "İ": 186,
      "ı": 187,
      "Ķ": 188,
      "ł": 189,
      "ń": 190,
      "ŋ": 191,
      "Ō": 192,
      "ō": 193,
      "Ŏ": 194,
      "ŏ": 195,
      "Œ": 196,
      "œ": 197,
      "ř": 198,
      "Ś": 199,
      "ś": 200,
      "Ş": 201,
      "ş": 202,
      "Š": 203,
      "š": 204,
      "ť": 205,
      "ū": 206,
      "Ů": 207,
      "ų": 208,
      "Ÿ": 209,
      "Ż": 210,
      "ż": 211,
      "Ž": 212,
      "ž": 213,
      "ƒ": 214,
      "ư": 215,
      "ǀ": 216,
      "ǁ": 217,
      "Ǒ": 218,
      "ǒ": 219,
      "ǔ": 220,
      "ȧ": 221,
      "Ȩ": 222,
      "ȯ": 223,
      "ɑ": 224,
      "ɒ": 225,
      "ɔ": 226,
      "ə": 227,
      "ɛ": 228,
      "ɜ": 229,
      "ɡ": 230,
      "ɪ": 231,
      "ʁ": 232,
      "ʃ": 233,
      "ʈ": 234,
      "ʉ": 235,
      "ʊ": 236,
      "ʋ": 237,
      "ʌ": 238,
      "ʏ": 239,
      "ʒ": 240,
      "ʟ": 241,
      "ʻ": 242,
      "ʼ": 243,
      "ʿ": 244,
      "ˆ": 245,
      "ˈ": 246,
      "ˌ": 247,
      "ˎ": 248,
      "ː": 249,
      "ˑ": 250,
      "́": 251,
      "̃": 252,
      "̄": 253,
      "̆": 254,
      "̇": 255,
      "̈": 256,
      "̊": 257,
      "̍": 258,
      "̐": 259,
      "̕": 260,
      "̖": 261,
      "̠": 262,
      "̣": 263,
      "̥": 264,
      "̧": 265,
      "̪": 266,
      "̶": 267,
      "Ά": 268,
      "Δ": 269,
      "Ι": 270,
      "Κ": 271,
      "Μ": 272,
      "Ο": 273,
      "Σ": 274,
      "Φ": 275,
      "Ψ": 276,
      "Ω": 277,
      "ά": 278,
      "ή": 279,
      "α": 280,
      "β": 281,
      "δ": 282,
      "ε": 283,
      "ζ": 284,
      "η": 285,
      "θ": 286,
      "ι": 287,
      "κ": 288,
      "μ": 289,
      "ν": 290,
      "ο": 291,
      "π": 292,
      "ρ": 293,
      "ς": 294,
      "σ": 295,
      "τ": 296,
      "φ": 297,
      "χ": 298,
      "ω": 299,
      "ό": 300,
      "І": 301,
      "Ј": 302,
      "А": 303,
      "Б": 304,
      "В": 305,
      "Д": 306,
      "Е": 307,
      "З": 308,
      "И": 309,
      "Й": 310,
      "К": 311,
      "Л": 312,
      "М": 313,
      "Н": 314,
      "О": 315,
      "П": 316,
      "Р": 317,
      "С": 318,
      "Т": 319,
      "У": 320,
      "Ф": 321,
      "Х": 322,
      "Ц": 323,
      "Ч": 324,
      "Э": 325,
      "Ю": 326,
      "Я": 327,
      "а": 328,
      "б": 329,
      "в": 330,
      "г": 331,
      "д": 332,
      "е": 333,
      "ж": 334,
      "з": 335,
      "и": 336,
      "й": 337,
      "к": 338,
      "л": 339,
      "м": 340,
      "н": 341,
      "о": 342,
      "п": 343,
      "р": 344,
      "с": 345,
      "т": 346,
      "у": 347,
      "ф": 348,
      "х": 349,
      "ц": 350,
      "ч": 351,
      "ш": 352,
      "щ": 353,
      "ы": 354,
      "ь": 355,
      "э": 356,
      "ю": 357,
      "я": 358,
      "ё": 359,
      "є": 360,
      "і": 361,
      "ї": 362,
      "ј": 363,
      "ў": 364,
      "ҫ": 365,
      "ү": 366,
      "ә": 367,
      "Ө": 368,
      "Ե": 369,
      "Կ": 370,
      "Հ": 371,
      "ա": 372,
      "ե": 373,
      "ն": 374,
      "ր": 375,
      "ւ": 376,
      "ַ": 377,
      "א": 378,
      "ב": 379,
      "ג": 380,
      "ד": 381,
      "ה": 382,
      "ו": 383,
      "ט": 384,
      "י": 385,
      "כ": 386,
      "ל": 387,
      "ם": 388,
      "מ": 389,
      "ן": 390,
      "נ": 391,
      "ס": 392,
      "ע": 393,
      "ף": 394,
      "פ": 395,
      "צ": 396,
      "ק": 397,
      "ר": 398,
      "ש": 399,
      "ת": 400,
      "ײ": 401,
      "؞": 402,
      "ء": 403,
      "آ": 404,
      "أ": 405,
      "إ": 406,
      "ئ": 407,
      "ا": 408,
      "ب": 409,
      "ة": 410,
      "ت": 411,
      "ج": 412,
      "ح": 413,
      "خ": 414,
      "د": 415,
      "ذ": 416,
      "ر": 417,
      "ز": 418,
      "س": 419,
      "ش": 420,
      "ص": 421,
      "ط": 422,
      "ع": 423,
      "غ": 424,
      "ف": 425,
      "ق": 426,
      "ك": 427,
      "ل": 428,
      "م": 429,
      "ن": 430,
      "ه": 431,
      "و": 432,
      "ى": 433,
      "ي": 434,
      "ً": 435,
      "ُ": 436,
      "ِ": 437,
      "٫": 438,
      "٬": 439,
      "ٰ": 440,
      "ٹ": 441,
      "ټ": 442,
      "پ": 443,
      "چ": 444,
      "ڌ": 445,
      "ک": 446,
      "ڪ": 447,
      "گ": 448,
      "ں": 449,
      "ڼ": 450,
      "ھ": 451,
      "ہ": 452,
      "ۂ": 453,
      "ۆ": 454,
      "ۇ": 455,
      "ی": 456,
      "۔": 457,
      "ە": 458,
      "ܐ": 459,
      "ܒ": 460,
      "ܕ": 461,
      "ܘ": 462,
      "ܚ": 463,
      "ܛ": 464,
      "ܟ": 465,
      "ܠ": 466,
      "ܣ": 467,
      "ܦ": 468,
      "ܪ": 469,
      "ܬ": 470,
      "ँ": 471,
      "ं": 472,
      "ः": 473,
      "ऄ": 474,
      "अ": 475,
      "आ": 476,
      "इ": 477,
      "ई": 478,
      "उ": 479,
      "ऊ": 480,
      "ऋ": 481,
      "ऌ": 482,
      "ऍ": 483,
      "ऎ": 484,
      "ए": 485,
      "ऐ": 486,
      "ऑ": 487,
      "ऒ": 488,
      "ओ": 489,
      "औ": 490,
      "क": 491,
      "ख": 492,
      "ग": 493,
      "घ": 494,
      "ङ": 495,
      "च": 496,
      "छ": 497,
      "ज": 498,
      "झ": 499,
      "ञ": 500,
      "ट": 501,
      "ठ": 502,
      "ड": 503,
      "ढ": 504,
      "ण": 505,
      "त": 506,
      "थ": 507,
      "द": 508,
      "ध": 509,
      "न": 510,
      "ऩ": 511,
      "प": 512,
      "फ": 513,
      "ब": 514,
      "भ": 515,
      "म": 516,
      "य": 517,
      "र": 518,
      "ऱ": 519,
      "ल": 520,
      "ळ": 521,
      "ऴ": 522,
      "व": 523,
      "श": 524,
      "ष": 525,
      "स": 526,
      "ह": 527,
      "ऺ": 528,
      "ऻ": 529,
      "़": 530,
      "ऽ": 531,
      "ा": 532,
      "ि": 533,
      "ी": 534,
      "ु": 535,
      "ू": 536,
      "ृ": 537,
      "ॄ": 538,
      "ॅ": 539,
      "ॆ": 540,
      "े": 541,
      "ै": 542,
      "ॉ": 543,
      "ॊ": 544,
      "ो": 545,
      "ौ": 546,
      "्": 547,
      "ॐ": 548,
      "॑": 549,
      "॒": 550,
      "॓": 551,
      "॔": 552,
      "ॠ": 553,
      "ॡ": 554,
      "ॢ": 555,
      "।": 556,
      "॥": 557,
      "०": 558,
      "१": 559,
      "२": 560,
      "३": 561,
      "४": 562,
      "५": 563,
      "६": 564,
      "७": 565,
      "८": 566,
      "९": 567,
      "॰": 568,
      "ॱ": 569,
      "ॵ": 570,
      "ॺ": 571,
      "ॼ": 572,
      "ॾ": 573,
      "ॿ": 574,
      "ং": 575,
      "আ": 576,
      "ই": 577,
      "উ": 578,
      "এ": 579,
      "ক": 580,
      "খ": 581,
      "গ": 582,
      "ঘ": 583,
      "চ": 584,
      "ছ": 585,
      "জ": 586,
      "ট": 587,
      "ঠ": 588,
      "ড": 589,
      "ঢ": 590,
      "ণ": 591,
      "ত": 592,
      "থ": 593,
      "দ": 594,
      "ধ": 595,
      "ন": 596,
      "প": 597,
      "ব": 598,
      "ম": 599,
      "য": 600,
      "র": 601,
      "ল": 602,
      "ষ": 603,
      "স": 604,
      "হ": 605,
      "়": 606,
      "া": 607,
      "ি": 608,
      "ী": 609,
      "ু": 610,
      "ৃ": 611,
      "ে": 612,
      "ো": 613,
      "্": 614,
      "০": 615,
      "৩": 616,
      "৭": 617,
      "ৰ": 618,
      "ৱ": 619,
      "৷": 620,
      "ਂ": 621,
      "ਅ": 622,
      "ਇ": 623,
      "ਊ": 624,
      "ਏ": 625,
      "ਕ": 626,
      "ਖ": 627,
      "ਗ": 628,
      "ਜ": 629,
      "ਟ": 630,
      "ਡ": 631,
      "ਣ": 632,
      "ਤ": 633,
      "ਦ": 634,
      "ਨ": 635,
      "ਪ": 636,
      "ਬ": 637,
      "ਮ": 638,
      "ਰ": 639,
      "ਲ": 640,
      "ਸ": 641,
      "਼": 642,
      "ਾ": 643,
      "ਿ": 644,
      "ੀ": 645,
      "ੁ": 646,
      "ੂ": 647,
      "ੇ": 648,
      "ੋ": 649,
      "੍": 650,
      "ੰ": 651,
      "ੱ": 652,
      "ં": 653,
      "ઃ": 654,
      "અ": 655,
      "આ": 656,
      "ઈ": 657,
      "ઉ": 658,
      "એ": 659,
      "ઓ": 660,
      "ક": 661,
      "ખ": 662,
      "ગ": 663,
      "ચ": 664,
      "છ": 665,
      "જ": 666,
      "ઝ": 667,
      "ઞ": 668,
      "ટ": 669,
      "ઠ": 670,
      "ડ": 671,
      "ણ": 672,
      "ત": 673,
      "થ": 674,
      "દ": 675,
      "ધ": 676,
      "ન": 677,
      "પ": 678,
      "ફ": 679,
      "બ": 680,
      "ભ": 681,
      "મ": 682,
      "ય": 683,
      "ર": 684,
      "લ": 685,
      "ળ": 686,
      "વ": 687,
      "શ": 688,
      "ષ": 689,
      "સ": 690,
      "હ": 691,
      "઼": 692,
      "ા": 693,
      "િ": 694,
      "ી": 695,
      "ુ": 696,
      "ૂ": 697,
      "ૃ": 698,
      "ે": 699,
      "ો": 700,
      "્": 701,
      "ૐ": 702,
      "ૠ": 703,
      "૦": 704,
      "૧": 705,
      "૨": 706,
      "૩": 707,
      "૪": 708,
      "૫": 709,
      "૬": 710,
      "૭": 711,
      "૮": 712,
      "૯": 713,
      "ଃ": 714,
      "ଆ": 715,
      "ଓ": 716,
      "କ": 717,
      "ଖ": 718,
      "ଡ": 719,
      "ତ": 720,
      "ପ": 721,
      "ଭ": 722,
      "ର": 723,
      "ଲ": 724,
      "଼": 725,
      "ା": 726,
      "ି": 727,
      "େ": 728,
      "୍": 729,
      "ୟ": 730,
      "அ": 731,
      "ஆ": 732,
      "இ": 733,
      "உ": 734,
      "எ": 735,
      "ஐ": 736,
      "க": 737,
      "ச": 738,
      "ஜ": 739,
      "ட": 740,
      "ண": 741,
      "த": 742,
      "ந": 743,
      "ன": 744,
      "ப": 745,
      "ம": 746,
      "ய": 747,
      "ர": 748,
      "ற": 749,
      "ல": 750,
      "ள": 751,
      "ழ": 752,
      "வ": 753,
      "ஶ": 754,
      "ஷ": 755,
      "ஸ": 756,
      "ஹ": 757,
      "ா": 758,
      "ி": 759,
      "ீ": 760,
      "ு": 761,
      "ூ": 762,
      "ெ": 763,
      "ே": 764,
      "ை": 765,
      "ொ": 766,
      "ோ": 767,
      "்": 768,
      "ం": 769,
      "అ": 770,
      "ఉ": 771,
      "ఎ": 772,
      "ఓ": 773,
      "క": 774,
      "చ": 775,
      "జ": 776,
      "డ": 777,
      "త": 778,
      "ద": 779,
      "ధ": 780,
      "న": 781,
      "ప": 782,
      "ఫ": 783,
      "భ": 784,
      "మ": 785,
      "య": 786,
      "ర": 787,
      "ల": 788,
      "వ": 789,
      "శ": 790,
      "ష": 791,
      "స": 792,
      "హ": 793,
      "ా": 794,
      "ి": 795,
      "ు": 796,
      "ె": 797,
      "ే": 798,
      "ై": 799,
      "ో": 800,
      "్": 801,
      "ಂ": 802,
      "ಃ": 803,
      "ಅ": 804,
      "ಇ": 805,
      "ಉ": 806,
      "ಎ": 807,
      "ಕ": 808,
      "ಗ": 809,
      "ಚ": 810,
      "ಜ": 811,
      "ಟ": 812,
      "ಠ": 813,
      "ಡ": 814,
      "ತ": 815,
      "ದ": 816,
      "ನ": 817,
      "ಪ": 818,
      "ಬ": 819,
      "ಭ": 820,
      "ಮ": 821,
      "ಯ": 822,
      "ರ": 823,
      "ಲ": 824,
      "ಳ": 825,
      "ವ": 826,
      "ಶ": 827,
      "ಸ": 828,
      "ಹ": 829,
      "ಾ": 830,
      "ಿ": 831,
      "ೀ": 832,
      "ು": 833,
      "ೂ": 834,
      "ೃ": 835,
      "ೆ": 836,
      "ೇ": 837,
      "ೊ": 838,
      "ೋ": 839,
      "್": 840,
      "೦": 841,
      "೧": 842,
      "೨": 843,
      "೩": 844,
      "೪": 845,
      "ೲ": 846,
      "ം": 847,
      "അ": 848,
      "ആ": 849,
      "ഇ": 850,
      "ഈ": 851,
      "ഉ": 852,
      "എ": 853,
      "ക": 854,
      "ഖ": 855,
      "ഗ": 856,
      "ങ": 857,
      "ച": 858,
      "ഛ": 859,
      "ജ": 860,
      "ഞ": 861,
      "ട": 862,
      "ഠ": 863,
      "ണ": 864,
      "ത": 865,
      "ഥ": 866,
      "ദ": 867,
      "ധ": 868,
      "ന": 869,
      "പ": 870,
      "ബ": 871,
      "ഭ": 872,
      "മ": 873,
      "യ": 874,
      "ര": 875,
      "റ": 876,
      "ല": 877,
      "ള": 878,
      "ഴ": 879,
      "വ": 880,
      "ശ": 881,
      "ഷ": 882,
      "സ": 883,
      "ഹ": 884,
      "ാ": 885,
      "ി": 886,
      "ീ": 887,
      "ു": 888,
      "ൂ": 889,
      "ൃ": 890,
      "െ": 891,
      "േ": 892,
      "ൈ": 893,
      "ൊ": 894,
      "ോ": 895,
      "്": 896,
      "ൻ": 897,
      "ർ": 898,
      "ൽ": 899,
      "ൾ": 900,
      "ක": 901,
      "ග": 902,
      "ත": 903,
      "ද": 904,
      "න": 905,
      "ප": 906,
      "ම": 907,
      "ය": 908,
      "ල": 909,
      "ව": 910,
      "ශ": 911,
      "ස": 912,
      "්": 913,
      "ා": 914,
      "ි": 915,
      "ො": 916,
      "ค": 917,
      "ง": 918,
      "ด": 919,
      "ต": 920,
      "น": 921,
      "บ": 922,
      "พ": 923,
      "ฟ": 924,
      "ม": 925,
      "ร": 926,
      "ห": 927,
      "อ": 928,
      "ฮ": 929,
      "ั": 930,
      "า": 931,
      "ิ": 932,
      "ี": 933,
      "เ": 934,
      "โ": 935,
      "่": 936,
      "้": 937,
      "་": 938,
      "།": 939,
      "༔": 940,
      "༡": 941,
      "༣": 942,
      "༨": 943,
      "ཁ": 944,
      "ག": 945,
      "ང": 946,
      "ཊ": 947,
      "ཐ": 948,
      "ན": 949,
      "པ": 950,
      "བ": 951,
      "མ": 952,
      "ཚ": 953,
      "ཝ": 954,
      "ཟ": 955,
      "ཡ": 956,
      "ལ": 957,
      "ཥ": 958,
      "ས": 959,
      "ཧ": 960,
      "ཱ": 961,
      "ི": 962,
      "ུ": 963,
      "ྀ": 964,
      "ྒ": 965,
      "ྥ": 966,
      "ྨ": 967,
      "ྭ": 968,
      "ྱ": 969,
      "ྲ": 970,
      "ླ": 971,
      "၊": 972,
      "ა": 973,
      "გ": 974,
      "დ": 975,
      "ე": 976,
      "ვ": 977,
      "ზ": 978,
      "თ": 979,
      "ი": 980,
      "ლ": 981,
      "ნ": 982,
      "რ": 983,
      "ს": 984,
      "უ": 985,
      "ც": 986,
      "ᄉ": 987,
      "ᄌ": 988,
      "ᅩ": 989,
      "ᆬ": 990,
      "ሉ": 991,
      "ሕ": 992,
      "ሩ": 993,
      "በ": 994,
      "ብ": 995,
      "ቮ": 996,
      "እ": 997,
      "ኳ": 998,
      "ዝ": 999,
      "ገ": 1000,
      "ጻ": 1001,
      "ፂ": 1002,
      "ፃ": 1003,
      "፪": 1004,
      "ᒃ": 1005,
      "ᒄ": 1006,
      "ᒎ": 1007,
      "ᓚ": 1008,
      "ᗢ": 1009,
      "ᘏ": 1010,
      "ᚨ": 1011,
      "ᚩ": 1012,
      "ᚻ": 1013,
      "ᚾ": 1014,
      "ᛁ": 1015,
      "ᛋ": 1016,
      "ᛏ": 1017,
      "ᛖ": 1018,
      "ᛗ": 1019,
      "ᛚ": 1020,
      "ᛞ": 1021,
      "᛫": 1022,
      "ᭅ": 1023,
      "᭠": 1024,
      "᭭": 1025,
      "ᮩ": 1026,
      "᮰": 1027,
      "ᱧ": 1028,
      "Ჱ": 1029,
      "᳒": 1030,
      "᳖": 1031,
      "᳘": 1032,
      "᳚": 1033,
      "ᳪ": 1034,
      "ᳬ": 1035,
      "᳭": 1036,
      "ᳲ": 1037,
      "ᴀ": 1038,
      "ᴇ": 1039,
      "ḍ": 1040,
      "ḏ": 1041,
      "ḥ": 1042,
      "Ḩ": 1043,
      "ṁ": 1044,
      "ṃ": 1045,
      "ṅ": 1046,
      "ṇ": 1047,
      "Ṛ": 1048,
      "ṛ": 1049,
      "ṝ": 1050,
      "ṣ": 1051,
      "ṭ": 1052,
      "ắ": 1053,
      "ế": 1054,
      "ệ": 1055,
      "Ủ": 1056,
      "Ἀ": 1057,
      "ὁ": 1058,
      "ὕ": 1059,
      "ὸ": 1060,
      "ῖ": 1061,
      "‐": 1062,
      "‒": 1063,
      "―": 1064,
      "‖": 1065,
      "†": 1066,
      "‡": 1067,
      "•": 1068,
      " ": 1069,
      "‰": 1070,
      "′": 1071,
      "‹": 1072,
      "›": 1073,
      "※": 1074,
      "⁄": 1075,
      "₩": 1076,
      "€": 1077,
      "₹": 1078,
      "⃣": 1079,
      "←": 1080,
      "↑": 1081,
      "→": 1082,
      "↓": 1083,
      "↔": 1084,
      "↕": 1085,
      "↗": 1086,
      "↩": 1087,
      "↲": 1088,
      "⇄": 1089,
      "⇏": 1090,
      "⇒": 1091,
      "⇔": 1092,
      "∅": 1093,
      "∆": 1094,
      "∈": 1095,
      "−": 1096,
      "∕": 1097,
      "∖": 1098,
      "∙": 1099,
      "√": 1100,
      "∝": 1101,
      "∠": 1102,
      "∩": 1103,
      "∫": 1104,
      "∴": 1105,
      "∵": 1106,
      "≈": 1107,
      "≍": 1108,
      "≠": 1109,
      "≡": 1110,
      "≤": 1111,
      "≥": 1112,
      "≦": 1113,
      "⊂": 1114,
      "⊃": 1115,
      "⊕": 1116,
      "⋆": 1117,
      "⋙": 1118,
      "⏳": 1119,
      "▀": 1120,
      "▁": 1121,
      "■": 1122,
      "□": 1123,
      "▪": 1124,
      "▲": 1125,
      "△": 1126,
      "▶": 1127,
      "▷": 1128,
      "►": 1129,
      "▼": 1130,
      "◄": 1131,
      "◆": 1132,
      "◇": 1133,
      "◉": 1134,
      "◊": 1135,
      "◌": 1136,
      "◎": 1137,
      "●": 1138,
      "◦": 1139,
      "☀": 1140,
      "☁": 1141,
      "★": 1142,
      "☆": 1143,
      "☑": 1144,
      "☘": 1145,
      "☝": 1146,
      "☰": 1147,
      "☸": 1148,
      "☹": 1149,
      "☺": 1150,
      "♀": 1151,
      "♂": 1152,
      "♈": 1153,
      "♉": 1154,
      "♡": 1155,
      "♣": 1156,
      "♥": 1157,
      "♦": 1158,
      "♫": 1159,
      "♻": 1160,
      "⚏": 1161,
      "⚕": 1162,
      "⚡": 1163,
      "⚪": 1164,
      "⚫": 1165,
      "⛅": 1166,
      "⛈": 1167,
      "⛳": 1168,
      "⛹": 1169,
      "✅": 1170,
      "✌": 1171,
      "✍": 1172,
      "✒": 1173,
      "✓": 1174,
      "✔": 1175,
      "✖": 1176,
      "✥": 1177,
      "✦": 1178,
      "✧": 1179,
      "✨": 1180,
      "✪": 1181,
      "✳": 1182,
      "✴": 1183,
      "✹": 1184,
      "✺": 1185,
      "✼": 1186,
      "✿": 1187,
      "❁": 1188,
      "❇": 1189,
      "❌": 1190,
      "❍": 1191,
      "❑": 1192,
      "❗": 1193,
      "❣": 1194,
      "❤": 1195,
      "❯": 1196,
      "➖": 1197,
      "➛": 1198,
      "➜": 1199,
      "➞": 1200,
      "➡": 1201,
      "➢": 1202,
      "➤": 1203,
      "➥": 1204,
      "➦": 1205,
      "➧": 1206,
      "➨": 1207,
      "⟶": 1208,
      "⟷": 1209,
      "⠀": 1210,
      "⦁": 1211,
      "⭐": 1212,
      "⭕": 1213,
      "、": 1214,
      "。": 1215,
      "〈": 1216,
      "《": 1217,
      "》": 1218,
      "「": 1219,
      "」": 1220,
      "【": 1221,
      "】": 1222,
      "あ": 1223,
      "い": 1224,
      "う": 1225,
      "お": 1226,
      "か": 1227,
      "が": 1228,
      "き": 1229,
      "く": 1230,
      "け": 1231,
      "げ": 1232,
      "ご": 1233,
      "さ": 1234,
      "ざ": 1235,
      "し": 1236,
      "す": 1237,
      "た": 1238,
      "だ": 1239,
      "ち": 1240,
      "っ": 1241,
      "つ": 1242,
      "て": 1243,
      "で": 1244,
      "と": 1245,
      "ど": 1246,
      "な": 1247,
      "に": 1248,
      "の": 1249,
      "は": 1250,
      "ひ": 1251,
      "ま": 1252,
      "み": 1253,
      "む": 1254,
      "め": 1255,
      "も": 1256,
      "ゃ": 1257,
      "や": 1258,
      "よ": 1259,
      "ら": 1260,
      "る": 1261,
      "れ": 1262,
      "を": 1263,
      "ん": 1264,
      "ア": 1265,
      "ィ": 1266,
      "イ": 1267,
      "エ": 1268,
      "オ": 1269,
      "ク": 1270,
      "グ": 1271,
      "コ": 1272,
      "シ": 1273,
      "ジ": 1274,
      "ス": 1275,
      "ズ": 1276,
      "セ": 1277,
      "ゼ": 1278,
      "ソ": 1279,
      "タ": 1280,
      "チ": 1281,
      "ッ": 1282,
      "ツ": 1283,
      "テ": 1284,
      "デ": 1285,
      "ト": 1286,
      "ナ": 1287,
      "ネ": 1288,
      "ノ": 1289,
      "バ": 1290,
      "パ": 1291,
      "ヒ": 1292,
      "ピ": 1293,
      "プ": 1294,
      "ボ": 1295,
      "ポ": 1296,
      "マ": 1297,
      "ャ": 1298,
      "ョ": 1299,
      "ラ": 1300,
      "リ": 1301,
      "ル": 1302,
      "ロ": 1303,
      "ン": 1304,
      "・": 1305,
      "ー": 1306,
      "一": 1307,
      "七": 1308,
      "三": 1309,
      "上": 1310,
      "不": 1311,
      "与": 1312,
      "世": 1313,
      "中": 1314,
      "为": 1315,
      "义": 1316,
      "习": 1317,
      "乱": 1318,
      "了": 1319,
      "事": 1320,
      "二": 1321,
      "于": 1322,
      "互": 1323,
      "五": 1324,
      "亦": 1325,
      "京": 1326,
      "亲": 1327,
      "人": 1328,
      "介": 1329,
      "从": 1330,
      "仕": 1331,
      "代": 1332,
      "份": 1333,
      "休": 1334,
      "伟": 1335,
      "位": 1336,
      "何": 1337,
      "余": 1338,
      "作": 1339,
      "你": 1340,
      "使": 1341,
      "依": 1342,
      "修": 1343,
      "個": 1344,
      "倒": 1345,
      "健": 1346,
      "僕": 1347,
      "元": 1348,
      "入": 1349,
      "全": 1350,
      "八": 1351,
      "六": 1352,
      "其": 1353,
      "具": 1354,
      "円": 1355,
      "册": 1356,
      "决": 1357,
      "出": 1358,
      "切": 1359,
      "划": 1360,
      "列": 1361,
      "利": 1362,
      "别": 1363,
      "到": 1364,
      "副": 1365,
      "加": 1366,
      "助": 1367,
      "化": 1368,
      "北": 1369,
      "十": 1370,
      "卍": 1371,
      "卐": 1372,
      "南": 1373,
      "印": 1374,
      "叉": 1375,
      "反": 1376,
      "发": 1377,
      "口": 1378,
      "句": 1379,
      "可": 1380,
      "各": 1381,
      "合": 1382,
      "同": 1383,
      "名": 1384,
      "后": 1385,
      "吗": 1386,
      "吥": 1387,
      "吸": 1388,
      "告": 1389,
      "员": 1390,
      "和": 1391,
      "咒": 1392,
      "哉": 1393,
      "哥": 1394,
      "哲": 1395,
      "哷": 1396,
      "唯": 1397,
      "喝": 1398,
      "嘅": 1399,
      "器": 1400,
      "四": 1401,
      "因": 1402,
      "図": 1403,
      "固": 1404,
      "国": 1405,
      "國": 1406,
      "地": 1407,
      "域": 1408,
      "堂": 1409,
      "報": 1410,
      "境": 1411,
      "增": 1412,
      "声": 1413,
      "处": 1414,
      "复": 1415,
      "外": 1416,
      "多": 1417,
      "夜": 1418,
      "夢": 1419,
      "大": 1420,
      "天": 1421,
      "奖": 1422,
      "奪": 1423,
      "好": 1424,
      "如": 1425,
      "威": 1426,
      "婆": 1427,
      "孕": 1428,
      "字": 1429,
      "存": 1430,
      "学": 1431,
      "安": 1432,
      "官": 1433,
      "定": 1434,
      "宦": 1435,
      "寝": 1436,
      "尊": 1437,
      "小": 1438,
      "少": 1439,
      "尔": 1440,
      "尼": 1441,
      "属": 1442,
      "岂": 1443,
      "工": 1444,
      "师": 1445,
      "席": 1446,
      "常": 1447,
      "年": 1448,
      "广": 1449,
      "应": 1450,
      "废": 1451,
      "度": 1452,
      "康": 1453,
      "廬": 1454,
      "异": 1455,
      "引": 1456,
      "弥": 1457,
      "当": 1458,
      "影": 1459,
      "彼": 1460,
      "得": 1461,
      "徹": 1462,
      "忘": 1463,
      "念": 1464,
      "性": 1465,
      "惑": 1466,
      "意": 1467,
      "愛": 1468,
      "感": 1469,
      "憶": 1470,
      "成": 1471,
      "我": 1472,
      "戻": 1473,
      "所": 1474,
      "执": 1475,
      "投": 1476,
      "摩": 1477,
      "收": 1478,
      "改": 1479,
      "政": 1480,
      "故": 1481,
      "效": 1482,
      "整": 1483,
      "文": 1484,
      "新": 1485,
      "方": 1486,
      "无": 1487,
      "日": 1488,
      "时": 1489,
      "星": 1490,
      "是": 1491,
      "显": 1492,
      "普": 1493,
      "晴": 1494,
      "更": 1495,
      "書": 1496,
      "最": 1497,
      "月": 1498,
      "有": 1499,
      "朝": 1500,
      "期": 1501,
      "杂": 1502,
      "東": 1503,
      "果": 1504,
      "某": 1505,
      "染": 1506,
      "查": 1507,
      "栄": 1508,
      "格": 1509,
      "械": 1510,
      "梵": 1511,
      "检": 1512,
      "模": 1513,
      "権": 1514,
      "機": 1515,
      "款": 1516,
      "止": 1517,
      "此": 1518,
      "母": 1519,
      "比": 1520,
      "民": 1521,
      "氣": 1522,
      "永": 1523,
      "求": 1524,
      "汇": 1525,
      "没": 1526,
      "泊": 1527,
      "流": 1528,
      "消": 1529,
      "添": 1530,
      "灭": 1531,
      "然": 1532,
      "熟": 1533,
      "父": 1534,
      "牙": 1535,
      "猫": 1536,
      "现": 1537,
      "班": 1538,
      "球": 1539,
      "理": 1540,
      "生": 1541,
      "用": 1542,
      "由": 1543,
      "疆": 1544,
      "痛": 1545,
      "発": 1546,
      "發": 1547,
      "白": 1548,
      "的": 1549,
      "益": 1550,
      "直": 1551,
      "相": 1552,
      "知": 1553,
      "研": 1554,
      "破": 1555,
      "祖": 1556,
      "离": 1557,
      "秘": 1558,
      "程": 1559,
      "稱": 1560,
      "究": 1561,
      "立": 1562,
      "章": 1563,
      "第": 1564,
      "答": 1565,
      "简": 1566,
      "类": 1567,
      "紅": 1568,
      "素": 1569,
      "終": 1570,
      "続": 1571,
      "網": 1572,
      "繁": 1573,
      "维": 1574,
      "者": 1575,
      "而": 1576,
      "肉": 1577,
      "能": 1578,
      "自": 1579,
      "花": 1580,
      "若": 1581,
      "英": 1582,
      "茶": 1583,
      "葬": 1584,
      "薩": 1585,
      "處": 1586,
      "蛟": 1587,
      "蝶": 1588,
      "衆": 1589,
      "行": 1590,
      "表": 1591,
      "西": 1592,
      "见": 1593,
      "观": 1594,
      "视": 1595,
      "觉": 1596,
      "解": 1597,
      "言": 1598,
      "記": 1599,
      "訳": 1600,
      "試": 1601,
      "語": 1602,
      "論": 1603,
      "讓": 1604,
      "计": 1605,
      "讨": 1606,
      "许": 1607,
      "论": 1608,
      "话": 1609,
      "语": 1610,
      "说": 1611,
      "诸": 1612,
      "贪": 1613,
      "越": 1614,
      "足": 1615,
      "身": 1616,
      "車": 1617,
      "转": 1618,
      "辦": 1619,
      "达": 1620,
      "过": 1621,
      "运": 1622,
      "返": 1623,
      "追": 1624,
      "通": 1625,
      "逝": 1626,
      "進": 1627,
      "遣": 1628,
      "那": 1629,
      "都": 1630,
      "释": 1631,
      "量": 1632,
      "金": 1633,
      "鉄": 1634,
      "错": 1635,
      "长": 1636,
      "間": 1637,
      "间": 1638,
      "闻": 1639,
      "阿": 1640,
      "除": 1641,
      "陸": 1642,
      "障": 1643,
      "雨": 1644,
      "電": 1645,
      "靈": 1646,
      "非": 1647,
      "面": 1648,
      "韩": 1649,
      "音": 1650,
      "響": 1651,
      "願": 1652,
      "页": 1653,
      "须": 1654,
      "颂": 1655,
      "飞": 1656,
      "飲": 1657,
      "首": 1658,
      "龙": 1659,
      "꣡": 1660,
      "꣢": 1661,
      "꣣": 1662,
      "꣫": 1663,
      "꣯": 1664,
      "ꣲ": 1665,
      "ꣳ": 1666,
      "가": 1667,
      "간": 1668,
      "감": 1669,
      "개": 1670,
      "게": 1671,
      "고": 1672,
      "공": 1673,
      "과": 1674,
      "교": 1675,
      "국": 1676,
      "금": 1677,
      "급": 1678,
      "기": 1679,
      "깨": 1680,
      "나": 1681,
      "낱": 1682,
      "냐": 1683,
      "녹": 1684,
      "는": 1685,
      "니": 1686,
      "다": 1687,
      "달": 1688,
      "대": 1689,
      "더": 1690,
      "동": 1691,
      "두": 1692,
      "듬": 1693,
      "따": 1694,
      "뜨": 1695,
      "라": 1696,
      "락": 1697,
      "레": 1698,
      "력": 1699,
      "로": 1700,
      "름": 1701,
      "리": 1702,
      "만": 1703,
      "말": 1704,
      "망": 1705,
      "맵": 1706,
      "몸": 1707,
      "못": 1708,
      "뭐": 1709,
      "민": 1710,
      "받": 1711,
      "발": 1712,
      "백": 1713,
      "번": 1714,
      "법": 1715,
      "봇": 1716,
      "브": 1717,
      "비": 1718,
      "사": 1719,
      "산": 1720,
      "상": 1721,
      "서": 1722,
      "성": 1723,
      "세": 1724,
      "수": 1725,
      "술": 1726,
      "쉬": 1727,
      "슈": 1728,
      "스": 1729,
      "승": 1730,
      "시": 1731,
      "신": 1732,
      "아": 1733,
      "어": 1734,
      "없": 1735,
      "에": 1736,
      "염": 1737,
      "영": 1738,
      "예": 1739,
      "완": 1740,
      "외": 1741,
      "요": 1742,
      "우": 1743,
      "운": 1744,
      "월": 1745,
      "위": 1746,
      "을": 1747,
      "음": 1748,
      "의": 1749,
      "이": 1750,
      "인": 1751,
      "임": 1752,
      "입": 1753,
      "있": 1754,
      "자": 1755,
      "적": 1756,
      "전": 1757,
      "절": 1758,
      "정": 1759,
      "조": 1760,
      "좀": 1761,
      "주": 1762,
      "중": 1763,
      "증": 1764,
      "지": 1765,
      "째": 1766,
      "청": 1767,
      "크": 1768,
      "키": 1769,
      "탄": 1770,
      "탑": 1771,
      "터": 1772,
      "트": 1773,
      "특": 1774,
      "팅": 1775,
      "파": 1776,
      "하": 1777,
      "학": 1778,
      "한": 1779,
      "함": 1780,
      "합": 1781,
      "허": 1782,
      "효": 1783,
      "히": 1784,
      "힌": 1785,
      "힘": 1786,
      "︎": 1787,
      "️": 1788,
      "�": 1789,
      "𑆤": 1790,
      "𑌏": 1791,
      "𑌥": 1792,
      "𑌫": 1793,
      "𑌮": 1794,
      "𑌸": 1795,
      "𑐎": 1796,
      "𑐕": 1797,
      "𑐫": 1798,
      "𑐮": 1799,
      "𑐰": 1800,
      "𑐴": 1801,
      "𑐵": 1802,
      "𑑀": 1803,
      "𑑂": 1804,
      "𑑄": 1805,
      "𑑅": 1806,
      "🅰": 1807,
      "🇦": 1808,
      "🇮": 1809,
      "🇱": 1810,
      "🇳": 1811,
      "🇵": 1812,
      "🇸": 1813,
      "🇹": 1814,
      "🇺": 1815,
      "🌀": 1816,
      "🌃": 1817,
      "🌄": 1818,
      "🌅": 1819,
      "🌈": 1820,
      "🌉": 1821,
      "🌍": 1822,
      "🌎": 1823,
      "🌏": 1824,
      "🌖": 1825,
      "🌙": 1826,
      "🌛": 1827,
      "🌝": 1828,
      "🌞": 1829,
      "🌟": 1830,
      "🌠": 1831,
      "🌰": 1832,
      "🌱": 1833,
      "🌴": 1834,
      "🌷": 1835,
      "🌸": 1836,
      "🌹": 1837,
      "🌺": 1838,
      "🌻": 1839,
      "🌼": 1840,
      "🌿": 1841,
      "🍀": 1842,
      "🍁": 1843,
      "🍃": 1844,
      "🍋": 1845,
      "🍥": 1846,
      "🍾": 1847,
      "🎂": 1848,
      "🎃": 1849,
      "🎉": 1850,
      "🎊": 1851,
      "🎋": 1852,
      "🎎": 1853,
      "🎓": 1854,
      "🎖": 1855,
      "🎤": 1856,
      "🎯": 1857,
      "🎵": 1858,
      "🎶": 1859,
      "🎼": 1860,
      "🏀": 1861,
      "🏃": 1862,
      "🏏": 1863,
      "🏠": 1864,
      "🏮": 1865,
      "🏷": 1866,
      "🏹": 1867,
      "🏻": 1868,
      "🏽": 1869,
      "🐕": 1870,
      "🐙": 1871,
      "🐯": 1872,
      "👆": 1873,
      "👇": 1874,
      "👈": 1875,
      "👉": 1876,
      "👌": 1877,
      "👍": 1878,
      "👏": 1879,
      "👞": 1880,
      "👣": 1881,
      "👦": 1882,
      "👧": 1883,
      "👨": 1884,
      "👩": 1885,
      "👫": 1886,
      "👱": 1887,
      "👴": 1888,
      "💄": 1889,
      "💏": 1890,
      "💐": 1891,
      "💑": 1892,
      "💓": 1893,
      "💔": 1894,
      "💕": 1895,
      "💖": 1896,
      "💗": 1897,
      "💘": 1898,
      "💚": 1899,
      "💛": 1900,
      "💝": 1901,
      "💠": 1902,
      "💥": 1903,
      "💦": 1904,
      "💧": 1905,
      "💫": 1906,
      "💮": 1907,
      "💰": 1908,
      "💱": 1909,
      "💵": 1910,
      "📂": 1911,
      "📌": 1912,
      "📎": 1913,
      "📏": 1914,
      "📕": 1915,
      "📖": 1916,
      "📚": 1917,
      "📝": 1918,
      "📢": 1919,
      "📣": 1920,
      "📰": 1921,
      "📱": 1922,
      "📳": 1923,
      "📸": 1924,
      "📺": 1925,
      "🔅": 1926,
      "🔊": 1927,
      "🔍": 1928,
      "🔐": 1929,
      "🔔": 1930,
      "🔗": 1931,
      "🔟": 1932,
      "🔥": 1933,
      "🔰": 1934,
      "🔱": 1935,
      "🔶": 1936,
      "🔷": 1937,
      "🔸": 1938,
      "🔹": 1939,
      "🔺": 1940,
      "🔻": 1941,
      "🕉": 1942,
      "🕔": 1943,
      "🖊": 1944,
      "🖱": 1945,
      "🗃": 1946,
      "🗒": 1947,
      "🗣": 1948,
      "🗳": 1949,
      "😀": 1950,
      "😂": 1951,
      "😃": 1952,
      "😄": 1953,
      "😅": 1954,
      "😇": 1955,
      "😉": 1956,
      "😊": 1957,
      "😌": 1958,
      "😍": 1959,
      "😎": 1960,
      "😒": 1961,
      "😔": 1962,
      "😘": 1963,
      "😜": 1964,
      "😝": 1965,
      "😞": 1966,
      "😡": 1967,
      "😢": 1968,
      "😩": 1969,
      "😳": 1970,
      "🙁": 1971,
      "🙂": 1972,
      "🙅": 1973,
      "🙆": 1974,
      "🙌": 1975,
      "🙍": 1976,
      "🙎": 1977,
      "🙏": 1978,
      "🚑": 1979,
      "🚩": 1980,
      "🚷": 1981,
      "🛑": 1982,
      "🛡": 1983,
      "🤔": 1984,
      "🤗": 1985,
      "🤝": 1986,
      "🤦": 1987,
      "🤩": 1988,
      "🤪": 1989,
      "🤲": 1990,
      "🥀": 1991,
      "🥂": 1992,
      "🥇": 1993,
      "🥰": 1994,
      "🦂": 1995,
      "🧐": 1996,
      "🧜": 1997,
      "🩸": 1998,
      "🪔": 1999,
      "्य": 2000,
      "्र": 2001,
      "।\n": 2002,
      "्त": 2003,
      " स": 2004,
      " प": 2005,
      "्व": 2006,
      " ।\n": 2007,
      " व": 2008,
      "ति": 2009,
      "ान": 2010,
      " क": 2011,
      "र्": 2012,
      " त": 2013,
      "म्": 2014,
      " न": 2015,
      "ित": 2016,
      " अ": 2017,
      "त्": 2018,
      "्या": 2019,
      " म": 2020,
      " प्र": 2021,
      "ार": 2022,
      " द": 2023,
      " य": 2024,
      "ां": 2025,
      " भ": 2026,
      "ते": 2027,
      " च": 2028,
      "क्": 2029,
      "न्": 2030,
      "मा": 2031,
      "स्य": 2032,
      " वि": 2033,
      "या": 2034,
      "॥\n": 2035,
      "ष्": 2036,
      "स्त": 2037,
      "स्": 2038,
      "न्त": 2039,
      "क्ष": 2040,
      " इ": 2041,
      "त्र": 2042,
      " श": 2043,
      " ॥\n": 2044,
      "वि": 2045,
      "र्व": 2046,
      "रा": 2047,
      "ना": 2048,
      " ज": 2049,
      "द्": 2050,
      "प्र": 2051,
      "क्त": 2052,
      "था": 2053,
      " ह": 2054,
      "त्य": 2055,
      "ेव": 2056,
      "ेन": 2057,
      " ए": 2058,
      "पि": 2059,
      " ग": 2060,
      "तः": 2061,
      "ाद": 2062,
      "िक": 2063,
      "ाय": 2064,
      " -": 2065,
      "ाम": 2066,
      "्च": 2067,
      "त्त": 2068,
      "ाः": 2069,
      "ष्ट": 2070,
      "नि": 2071,
      " आ": 2072,
      "ाव": 2073,
      "ेष": 2074,
      "रि": 2075,
      "त्व": 2076,
      "यो": 2077,
      "र्थ": 2078,
      "मि": 2079,
      "दि": 2080,
      "ाल": 2081,
      " पु": 2082,
      " नि": 2083,
      "दा": 2084,
      " ब": 2085,
      "ता": 2086,
      " उ": 2087,
      "द्ध": 2088,
      " इति": 2089,
      "र्त": 2090,
      " सं": 2091,
      "ेश": 2092,
      " र": 2093,
      " ल": 2094,
      "्ञ": 2095,
      " भव": 2096,
      " वा": 2097,
      " सर्व": 2098,
      "्यते": 2099,
      " ध": 2100,
      " स्व": 2101,
      "ाप": 2102,
      "ङ्": 2103,
      "ान्": 2104,
      "ये": 2105,
      " (": 2106,
      "श्च": 2107,
      "यं": 2108,
      "्यं": 2109,
      "सं": 2110,
      "भि": 2111,
      " पर": 2112,
      "ानि": 2113,
      " स्": 2114,
      "नु": 2115,
      "वा": 2116,
      " एव": 2117,
      "रण": 2118,
      "मु": 2119,
      "नं": 2120,
      "िं": 2121,
      "ृत": 2122,
      " \"": 2123,
      "तु": 2124,
      "र्म": 2125,
      "भा": 2126,
      "ने": 2127,
      "कार": 2128,
      "ज्ञ": 2129,
      "रु": 2130,
      " तु": 2131,
      "यः": 2132,
      "नः": 2133,
      "्रि": 2134,
      "्ये": 2135,
      "ती": 2136,
      " रा": 2137,
      "सा": 2138,
      "मान": 2139,
      "रो": 2140,
      "च्": 2141,
      " .": 2142,
      "न्द": 2143,
      "?\n": 2144,
      "का": 2145,
      "रे": 2146,
      "मे": 2147,
      "न्ति": 2148,
      "तो": 2149,
      "र्ष": 2150,
      "ेद": 2151,
      "ल्": 2152,
      "ष्ठ": 2153,
      "गु": 2154,
      " सु": 2155,
      "ात्": 2156,
      "च्छ": 2157,
      "न्य": 2158,
      "स्ति": 2159,
      " हि": 2160,
      "ाण": 2161,
      "ानां": 2162,
      "सि": 2163,
      " प्रति": 2164,
      "ूप": 2165,
      "भव": 2166,
      "द्य": 2167,
      "द्व": 2168,
      "स्थ": 2169,
      "श्व": 2170,
      "धि": 2171,
      "ैव": 2172,
      "पु": 2173,
      "स्व": 2174,
      "व्य": 2175,
      "र्ण": 2176,
      " सम": 2177,
      " _": 2178,
      " सा": 2179,
      "हं": 2180,
      "ास": 2181,
      "यु": 2182,
      "ान्त": 2183,
      "पर": 2184,
      "ब्": 2185,
      "कं": 2186,
      "ीय": 2187,
      " पू": 2188,
      " कु": 2189,
      "हि": 2190,
      "कः": 2191,
      "तं": 2192,
      " इत्य": 2193,
      "कृ": 2194,
      "ग्र": 2195,
      " कार": 2196,
      "ेण": 2197,
      "लं": 2198,
      " त्व": 2199,
      "स्या": 2200,
      "ोऽ": 2201,
      "ैः": 2202,
      "ुः": 2203,
      "क्र": 2204,
      "धिक": 2205,
      "ग्": 2206,
      "के": 2207,
      " ते": 2208,
      "ितः": 2209,
      "देश": 2210,
      "भाव": 2211,
      "मः": 2212,
      "ष्य": 2213,
      " ख": 2214,
      " यथा": 2215,
      "ेषु": 2216,
      "र्ग": 2217,
      "रं": 2218,
      "त्या": 2219,
      "स्तु": 2220,
      " मह": 2221,
      " द्व": 2222,
      "ृश": 2223,
      "ङ्ग": 2224,
      " देव": 2225,
      "प्त": 2226,
      "क्षण": 2227,
      "ात": 2228,
      "सी": 2229,
      "ृष्ट": 2230,
      "नो": 2231,
      ".\n": 2232,
      "िता": 2233,
      "ण्": 2234,
      "पू": 2235,
      " भवति": 2236,
      "द्र": 2237,
      "री": 2238,
      "श्र": 2239,
      " परि": 2240,
      "ृह": 2241,
      "सु": 2242,
      " कृ": 2243,
      "िः": 2244,
      "योग": 2245,
      " श्र": 2246,
      "भू": 2247,
      "ला": 2248,
      "रः": 2249,
      "ध्य": 2250,
      " क्": 2251,
      "शि": 2252,
      " सम्": 2253,
      "न्ध": 2254,
      " मे": 2255,
      "लो": 2256,
      "नी": 2257,
      "ाह": 2258,
      " दि": 2259,
      " कि": 2260,
      "त्वा": 2261,
      "स्मा": 2262,
      "रूप": 2263,
      "ुं": 2264,
      "वृ": 2265,
      "्वा": 2266,
      "चित": 2267,
      " मु": 2268,
      "ञ्च": 2269,
      " उप": 2270,
      "दं": 2271,
      " ?\n": 2272,
      " सह": 2273,
      "मेव": 2274,
      "णं": 2275,
      " राज": 2276,
      "न्न": 2277,
      "ानं": 2278,
      " मा": 2279,
      " ना": 2280,
      "भ्य": 2281,
      "णा": 2282,
      " भा": 2283,
      "ितं": 2284,
      " तथा": 2285,
      "ेत": 2286,
      " कथ": 2287,
      "षा": 2288,
      " स्थ": 2289,
      "ीव": 2290,
      " क्ष": 2291,
      " वै": 2292,
      " '": 2293,
      "र्य": 2294,
      "-\n": 2295,
      "याः": 2296,
      "पा": 2297,
      "ब्द": 2298,
      "लि": 2299,
      "स्मि": 2300,
      "र्श": 2301,
      "!\n": 2302,
      "शेष": 2303,
      " प्राप": 2304,
      "्री": 2305,
      " दु": 2306,
      " अपि": 2307,
      " यो": 2308,
      "ल्प": 2309,
      " अस्ति": 2310,
      " व्य": 2311,
      "जन": 2312,
      "ित्य": 2313,
      " समा": 2314,
      " सू": 2315,
      "--": 2316,
      " यु": 2317,
      "तिः": 2318,
      "देव": 2319,
      "ोप": 2320,
      "ण्ड": 2321,
      "वं": 2322,
      "कृत": 2323,
      "ेत्": 2324,
      " गु": 2325,
      "काल": 2326,
      "धान": 2327,
      "चार": 2328,
      "धा": 2329,
      "चि": 2330,
      "श्": 2331,
      "सः": 2332,
      " पृ": 2333,
      "द्या": 2334,
      " स्त": 2335,
      "क्ति": 2336,
      "णि": 2337,
      " किं": 2338,
      "ादि": 2339,
      "कु": 2340,
      "सम": 2341,
      " वर्ष": 2342,
      "श्य": 2343,
      "दु": 2344,
      "प्": 2345,
      "सर्व": 2346,
      "ले": 2347,
      " भू": 2348,
      "यति": 2349,
      "स्म": 2350,
      " पूर्व": 2351,
      "वे": 2352,
      "पद": 2353,
      "वर्त": 2354,
      "न्ते": 2355,
      " पा": 2356,
      " तत्": 2357,
      "ानु": 2358,
      " ज्ञ": 2359,
      "च्च": 2360,
      "मं": 2361,
      " प्रा": 2362,
      "ितम्": 2363,
      "नम्": 2364,
      "वान्": 2365,
      "नां": 2366,
      " अनु": 2367,
      ")\n": 2368,
      "भाग": 2369,
      "हु": 2370,
      " फ": 2371,
      "ेति": 2372,
      "को": 2373,
      "ाना": 2374,
      "करण": 2375,
      "यम्": 2376,
      "ीत": 2377,
      "यम": 2378,
      "ीं": 2379,
      " तस्य": 2380,
      "क्षा": 2381,
      " नाम": 2382,
      "पाद": 2383,
      "जा": 2384,
      "न्त्र": 2385,
      " घ": 2386,
      " _\n": 2387,
      "ख्या": 2388,
      "तां": 2389,
      "र्ध": 2390,
      "ोष": 2391,
      "कि": 2392,
      "त्म": 2393,
      "प्रति": 2394,
      "व्या": 2395,
      "्रिय": 2396,
      "सम्": 2397,
      "से": 2398,
      " पुनः": 2399,
      " छ": 2400,
      "क्षि": 2401,
      "हे": 2402,
      " वृ": 2403,
      " एक": 2404,
      "णे": 2405,
      "परि": 2406,
      "ुद्ध": 2407,
      "र्थः": 2408,
      " कर्त": 2409,
      "ित्र": 2410,
      " यदि": 2411,
      " शि": 2412,
      " यत्": 2413,
      "न्द्र": 2414,
      "ान्य": 2415,
      "ाणि": 2416,
      " .\n": 2417,
      "णां": 2418,
      " मम": 2419,
      " के": 2420,
      "युक्त": 2421,
      "भिः": 2422,
      "दी": 2423,
      "स्था": 2424,
      "्यां": 2425,
      "रुष": 2426,
      "स्त्र": 2427,
      "न्म": 2428,
      " पुन": 2429,
      "र्ज": 2430,
      "वृत्त": 2431,
      "नेन": 2432,
      "न्तु": 2433,
      " या": 2434,
      "ामि": 2435,
      "्ज": 2436,
      "दे": 2437,
      "मो": 2438,
      " स्या": 2439,
      " प्रत्य": 2440,
      " लो": 2441,
      " व्या": 2442,
      "य्": 2443,
      "तत्": 2444,
      "षु": 2445,
      " स्म": 2446,
      "ह्": 2447,
      "ध्या": 2448,
      "णः": 2449,
      "पी": 2450,
      " गृह": 2451,
      "वः": 2452,
      "इति": 2453,
      "पे": 2454,
      "वाद": 2455,
      " भार": 2456,
      " काल": 2457,
      "ित्त": 2458,
      "राज": 2459,
      "अथ": 2460,
      "ेषां": 2461,
      "सू": 2462,
      " कर्म": 2463,
      "तस्य": 2464,
      "स्मिन्": 2465,
      "दान": 2466,
      "काश": 2467,
      "ूल": 2468,
      "र्थं": 2469,
      " करो": 2470,
      " वर्त": 2471,
      " अव": 2472,
      " कृत": 2473,
      "बन्ध": 2474,
      " तत्र": 2475,
      " =": 2476,
      "..": 2477,
      "मिति": 2478,
      "न्व": 2479,
      "स्र": 2480,
      "शा": 2481,
      "तम": 2482,
      " सि": 2483,
      "विष्य": 2484,
      "हार": 2485,
      "त्त्व": 2486,
      "िका": 2487,
      "योः": 2488,
      " दृष्ट": 2489,
      "त्वं": 2490,
      "क्षे": 2491,
      "प्य": 2492,
      "२०": 2493,
      " __": 2494,
      " ग्र": 2495,
      "ोक्त": 2496,
      " का": 2497,
      "कम्": 2498,
      " विश्व": 2499,
      " जन": 2500,
      "वी": 2501,
      "विष": 2502,
      "ायां": 2503,
      "20": 2504,
      "त्स": 2505,
      "थि": 2506,
      "च्यते": 2507,
      "यथा": 2508,
      "पूर्व": 2509,
      " !\n": 2510,
      "यि": 2511,
      "न्या": 2512,
      "भाष": 2513,
      "ट्": 2514,
      "सार": 2515,
      "रम्": 2516,
      "क्य": 2517,
      " कार्य": 2518,
      "ज्ञान": 2519,
      "ख्य": 2520,
      "वेद": 2521,
      "हो": 2522,
      " हे": 2523,
      " जा": 2524,
      "ध्ये": 2525,
      " जीव": 2526,
      " प्राप्त": 2527,
      " शु": 2528,
      "एवं": 2529,
      "ली": 2530,
      " प्रथ": 2531,
      "मपि": 2532,
      " को": 2533,
      "त्रा": 2534,
      "ारा": 2535,
      "शु": 2536,
      " तद": 2537,
      "धु": 2538,
      "ित्": 2539,
      " तदा": 2540,
      " क्र": 2541,
      "्रिया": 2542,
      "ऽपि": 2543,
      " तव": 2544,
      "मी": 2545,
      "माण": 2546,
      " दे": 2547,
      "तेन": 2548,
      " अप": 2549,
      "तम्": 2550,
      "विध": 2551,
      "वार": 2552,
      " देश": 2553,
      "शः": 2554,
      " विष": 2555,
      "म्ब": 2556,
      "ग्रह": 2557,
      "दृश": 2558,
      " /": 2559,
      "यत्": 2560,
      "येत्": 2561,
      " ति": 2562,
      "ोध": 2563,
      " केव": 2564,
      "शब्द": 2565,
      "यां": 2566,
      "नाः": 2567,
      "यित": 2568,
      " धर्म": 2569,
      "कल्प": 2570,
      " लि": 2571,
      "्यो": 2572,
      "सीत्": 2573,
      " अधिक": 2574,
      "िते": 2575,
      "चित्": 2576,
      "ष्ण": 2577,
      " दृश": 2578,
      " बहु": 2579,
      " पुत्र": 2580,
      "धार": 2581,
      "्यामि": 2582,
      " भग": 2583,
      " भविष्य": 2584,
      "ष्ट्र": 2585,
      "भार": 2586,
      "सह": 2587,
      " औ": 2588,
      " ब्र": 2589,
      "ीति": 2590,
      "ोग": 2591,
      "१०": 2592,
      ",\n": 2593,
      " इत्या": 2594,
      "ुःख": 2595,
      " समु": 2596,
      " विशेष": 2597,
      "वस": 2598,
      "गम": 2599,
      " ऽ": 2600,
      " अभि": 2601,
      "तद": 2602,
      " रु": 2603,
      "१९": 2604,
      "सिद्ध": 2605,
      " भाव": 2606,
      " चि": 2607,
      " मया": 2608,
      " ये": 2609,
      " सः": 2610,
      " त्रि": 2611,
      "कर्म": 2612,
      "ताः": 2613,
      "तथा": 2614,
      "ग्नि": 2615,
      " एवं": 2616,
      "ृत्य": 2617,
      "स्थान": 2618,
      "शी": 2619,
      "वर्ष": 2620,
      " जग": 2621,
      "काः": 2622,
      "हा": 2623,
      "णम्": 2624,
      "त्रं": 2625,
      "्वं": 2626,
      " चा": 2627,
      "गृह": 2628,
      "ायते": 2629,
      "कथ": 2630,
      "र्हि": 2631,
      "किं": 2632,
      "कर्त": 2633,
      " विद": 2634,
      " अन्य": 2635,
      "णी": 2636,
      "सो": 2637,
      " तं": 2638,
      " साम": 2639,
      "िताः": 2640,
      "की": 2641,
      "वेश": 2642,
      " ,": 2643,
      "चन": 2644,
      "र्मा": 2645,
      "दर्श": 2646,
      "ज्य": 2647,
      " आसीत्": 2648,
      "षे": 2649,
      "यदि": 2650,
      " मन": 2651,
      "द्वि": 2652,
      " रूप": 2653,
      "प्रत्य": 2654,
      "र्या": 2655,
      "तया": 2656,
      " सुख": 2657,
      " ष": 2658,
      "ुक्त": 2659,
      "एक": 2660,
      " पुरुष": 2661,
      " द्र": 2662,
      "चना": 2663,
      "धे": 2664,
      "त्रे": 2665,
      "यते": 2666,
      "भेद": 2667,
      "समा": 2668,
      " तेन": 2669,
      "स्ते": 2670,
      "लः": 2671,
      "न्तः": 2672,
      " ट": 2673,
      " सप्त": 2674,
      "नाम": 2675,
      " त्वं": 2676,
      "्यः": 2677,
      "ीयते": 2678,
      " द्वि": 2679,
      " शब्द": 2680,
      "ृद": 2681,
      " कथं": 2682,
      " संस्": 2683,
      " पृष्ठ": 2684,
      " श्रु": 2685,
      "क्रम": 2686,
      " ई": 2687,
      " सर्वे": 2688,
      " स्यात्": 2689,
      "ज्ञा": 2690,
      " [": 2691,
      "ङ्क": 2692,
      " यः": 2693,
      " पद": 2694,
      " नमः": 2695,
      "तत्र": 2696,
      "ततः": 2697,
      " वे": 2698,
      "ोद": 2699,
      " अन": 2700,
      " दी": 2701,
      " उत्त": 2702,
      "षि": 2703,
      "__": 2704,
      " दर्श": 2705,
      "स्प": 2706,
      "र्ह": 2707,
      "ैक": 2708,
      "पूर्ण": 2709,
      "भ्यः": 2710,
      "ात्म": 2711,
      "ाणां": 2712,
      "व्यं": 2713,
      " गुण": 2714,
      "लोक": 2715,
      "कृति": 2716,
      "ब्र": 2717,
      " दू": 2718,
      "ञ्ज": 2719,
      " --": 2720,
      "र्प": 2721,
      "पत्त": 2722,
      "er": 2723,
      " पी": 2724,
      " पित": 2725,
      "प्राप": 2726,
      "वाच": 2727,
      "मुख": 2728,
      " करोति": 2729,
      "र्द": 2730,
      "गत": 2731,
      " काम": 2732,
      "्याः": 2733,
      "गर": 2734,
      "क्तं": 2735,
      "अन्य": 2736,
      "श्चि": 2737,
      "्यम्": 2738,
      " मि": 2739,
      " ला": 2740,
      "in": 2741,
      "उप": 2742,
      "वत्": 2743,
      "गुण": 2744,
      "हः": 2745,
      "हित": 2746,
      " ऋ": 2747,
      "र्भ": 2748,
      "धी": 2749,
      "म्भ": 2750,
      " संश": 2751,
      " विना": 2752,
      "एत": 2753,
      "यन": 2754,
      "भाषा": 2755,
      "ाने": 2756,
      "मन": 2757,
      "दाह": 2758,
      " मां": 2759,
      " थ": 2760,
      " शा": 2761,
      "ोऽपि": 2762,
      "प्रा": 2763,
      "र्घ": 2764,
      " योग": 2765,
      "त्रि": 2766,
      " की": 2767,
      "रणं": 2768,
      "st": 2769,
      " एत": 2770,
      " दश": 2771,
      "भवत्": 2772,
      " पि": 2773,
      " वर्तते": 2774,
      " भाष": 2775,
      "ोः": 2776,
      "साम": 2777,
      "धः": 2778,
      "स्मात्": 2779,
      "पृ": 2780,
      " ततः": 2781,
      "यस्य": 2782,
      " कदा": 2783,
      "्यु": 2784,
      "योज": 2785,
      "लु": 2786,
      " सो": 2787,
      "लक्षण": 2788,
      "ञ्": 2789,
      "मम": 2790,
      " भवेत्": 2791,
      "लम्": 2792,
      " ने": 2793,
      " परा": 2794,
      "मानं": 2795,
      "त्वात्": 2796,
      "तीति": 2797,
      "एव": 2798,
      "पः": 2799,
      " सन्ति": 2800,
      "गे": 2801,
      "अतः": 2802,
      " यत्र": 2803,
      " पठ": 2804,
      "धर्म": 2805,
      " उत्": 2806,
      "विशेष": 2807,
      "र्थे": 2808,
      "सौ": 2809,
      "क्ष्य": 2810,
      "तर": 2811,
      " वद": 2812,
      " त्र": 2813,
      " सदा": 2814,
      "ताम्": 2815,
      " स्था": 2816,
      " वर्षे": 2817,
      " मान": 2818,
      "वर्ण": 2819,
      "नोति": 2820,
      "ोज": 2821,
      "पाल": 2822,
      " शक": 2823,
      "ेश्व": 2824,
      " कुर्व": 2825,
      " सिद्ध": 2826,
      "व्यम्": 2827,
      " तद्": 2828,
      " बाल": 2829,
      "कल": 2830,
      "परा": 2831,
      " जु": 2832,
      "10": 2833,
      " चतु": 2834,
      " तर्हि": 2835,
      "च्छति": 2836,
      "ेः": 2837,
      " और": 2838,
      " अन्त": 2839,
      "an": 2840,
      "धन": 2841,
      " विद्या": 2842,
      " परी": 2843,
      " वेद": 2844,
      " इव": 2845,
      "षां": 2846,
      "मह": 2847,
      "तिं": 2848,
      "ितो": 2849,
      "अनु": 2850,
      "सन्": 2851,
      "ादश": 2852,
      " रे": 2853,
      " भविष्यति": 2854,
      "कारः": 2855,
      "गो": 2856,
      " दुःख": 2857,
      "दू": 2858,
      "स्याः": 2859,
      "काम": 2860,
      " लोक": 2861,
      "ैर": 2862,
      "११": 2863,
      "दृष्ट": 2864,
      "डि": 2865,
      "भु": 2866,
      "शो": 2867,
      "येन": 2868,
      " स्प": 2869,
      "ृण": 2870,
      "हम्": 2871,
      " मू": 2872,
      "िर": 2873,
      "ायु": 2874,
      " अहं": 2875,
      "फल": 2876,
      "तुः": 2877,
      "यत": 2878,
      " स्त्री": 2879,
      " पञ्च": 2880,
      " +": 2881,
      "on": 2882,
      "शं": 2883,
      "काले": 2884,
      " पाप": 2885,
      "विद्या": 2886,
      "ar": 2887,
      " कृत्वा": 2888,
      "कर": 2889,
      "वान": 2890,
      "जि": 2891,
      "ण्य": 2892,
      "र्था": 2893,
      "क्षु": 2894,
      "िती": 2895,
      "प्राप्त": 2896,
      " व्यव": 2897,
      "न्तं": 2898,
      " क्रिय": 2899,
      "अत्र": 2900,
      "याम": 2901,
      "ाये": 2902,
      "ष्टा": 2903,
      " अत्र": 2904,
      " अथ": 2905,
      " रक्ष": 2906,
      " अति": 2907,
      " निर्": 2908,
      "भ्या": 2909,
      "धिकार": 2910,
      " क्षे": 2911,
      "रेण": 2912,
      "ज्ज": 2913,
      " ज्ञान": 2914,
      " वक्त": 2915,
      "__\n": 2916,
      "दश": 2917,
      "टि": 2918,
      " सर्वं": 2919,
      " स्वा": 2920,
      "मुक्त": 2921,
      " भाग": 2922,
      "मात्र": 2923,
      " नो": 2924,
      " आह": 2925,
      "ुम्": 2926,
      "मास": 2927,
      " पश्य": 2928,
      "र्वि": 2929,
      "मां": 2930,
      "र्च": 2931,
      "भ्यां": 2932,
      " विद्यते": 2933,
      " खः": 2934,
      " पुं": 2935,
      "घ्र": 2936,
      " दक्षि": 2937,
      "201": 2938,
      "इत्य": 2939,
      " वी": 2940,
      " मनु": 2941,
      " यदा": 2942,
      "en": 2943,
      " नास्ति": 2944,
      "ह्म": 2945,
      "निर्": 2946,
      "ष्म": 2947,
      "िकं": 2948,
      "वै": 2949,
      " -\n": 2950,
      " सत्य": 2951,
      " नं": 2952,
      "वो": 2953,
      " वयं": 2954,
      "१२": 2955,
      "ाम्": 2956,
      "उत्त": 2957,
      " महा": 2958,
      "हू": 2959,
      " दोष": 2960,
      " भ्र": 2961,
      "१८": 2962,
      "स्माकं": 2963,
      " करि": 2964,
      "or": 2965,
      "भूत": 2966,
      " प्राप्": 2967,
      "नम": 2968,
      " राष्ट्र": 2969,
      " रि": 2970,
      " प्राण": 2971,
      "जः": 2972,
      "दाय": 2973,
      "वाह": 2974,
      "जीव": 2975,
      "माः": 2976,
      " जान": 2977,
      "भवति": 2978,
      "तुं": 2979,
      "बद्ध": 2980,
      "अहं": 2981,
      "at": 2982,
      " शी": 2983,
      " कर": 2984,
      " प्रज": 2985,
      "लभ": 2986,
      "यामि": 2987,
      "ची": 2988,
      "मू": 2989,
      " क्व": 2990,
      "र्न": 2991,
      "ारं": 2992,
      "नाय": 2993,
      "टी": 2994,
      " किम्": 2995,
      "यन्ति": 2996,
      "डा": 2997,
      "पुत्र": 2998,
      "पो": 2999,
      "म्य": 3000,
      "ित्यं": 3001,
      " उक्त": 3002,
      " सद": 3003,
      "शत": 3004,
      " अधि": 3005,
      "ड्": 3006,
      " केवलं": 3007,
      " जन्म": 3008,
      " मो": 3009,
      "िति": 3010,
      " मध्ये": 3011,
      "१५": 3012,
      " परं": 3013,
      "धिः": 3014,
      "ही": 3015,
      " घट": 3016,
      "प्रथ": 3017,
      " प्रि": 3018,
      "भ्र": 3019,
      "शिष्ट": 3020,
      " इत्यादि": 3021,
      " परम": 3022,
      "णाम": 3023,
      "ारी": 3024,
      " वर्ण": 3025,
      "ारि": 3026,
      "माह": 3027,
      "नस्य": 3028,
      "णो": 3029,
      " दृश्यते": 3030,
      "ावत्": 3031,
      " तेषां": 3032,
      " यस्य": 3033,
      "दिति": 3034,
      " वृद्ध": 3035,
      "ादृश": 3036,
      " लिख": 3037,
      "पित": 3038,
      " बुद्ध": 3039,
      "यात्": 3040,
      " आग": 3041,
      "पति": 3042,
      " वाच": 3043,
      "करो": 3044,
      "यन्": 3045,
      "ष्यति": 3046,
      " कल": 3047,
      "es": 3048,
      "वां": 3049,
      " धा": 3050,
      "अन": 3051,
      "देशे": 3052,
      "ब्ध": 3053,
      "तोऽ": 3054,
      "षः": 3055,
      "ुप": 3056,
      " फल": 3057,
      "वच": 3058,
      " ः": 3059,
      "कस्य": 3060,
      "मनु": 3061,
      " पूर्ण": 3062,
      "ानाम्": 3063,
      " ह्य": 3064,
      " तथ": 3065,
      "भे": 3066,
      "स्त्व": 3067,
      "क्तिः": 3068,
      "अत": 3069,
      "वरी": 3070,
      "\"\n": 3071,
      "त्वे": 3072,
      " मृ": 3073,
      " हृद": 3074,
      "ष्यामि": 3075,
      "त्वेन": 3076,
      " पाठ": 3077,
      "्म": 3078,
      "पर्य": 3079,
      "००": 3080,
      " से": 3081,
      " समी": 3082,
      " पूज": 3083,
      "ित्या": 3084,
      "om": 3085,
      " S": 3086,
      "तीय": 3087,
      " चे": 3088,
      "ंश": 3089,
      "ड़": 3090,
      " अभवत्": 3091,
      " जि": 3092,
      " बि": 3093,
      "ध्व": 3094,
      "ारः": 3095,
      " जल": 3096,
      "ायं": 3097,
      " कल्प": 3098,
      "रिति": 3099,
      " न्या": 3100,
      "विश्व": 3101,
      "जी": 3102,
      "वन": 3103,
      "ान्व": 3104,
      " प्रथम": 3105,
      " रो": 3106,
      "पं": 3107,
      "कार्य": 3108,
      " भाषा": 3109,
      " पृथ": 3110,
      "बल": 3111,
      " सौ": 3112,
      " येन": 3113,
      "थे": 3114,
      " भि": 3115,
      "पुरुष": 3116,
      "दः": 3117,
      "र्क": 3118,
      "१४": 3119,
      " प्रकाश": 3120,
      "राः": 3121,
      "योगः": 3122,
      "जं": 3123,
      "मन्त": 3124,
      " संशयः": 3125,
      "नियम": 3126,
      " प्रवि": 3127,
      "धो": 3128,
      "वती": 3129,
      " दृष्ट्वा": 3130,
      "शाल": 3131,
      "ायः": 3132,
      " ऊ": 3133,
      " पुरा": 3134,
      " प्रे": 3135,
      "रस्य": 3136,
      " __\n": 3137,
      " यज्ञ": 3138,
      " विध": 3139,
      "जे": 3140,
      "ुम": 3141,
      " प्रती": 3142,
      "गा": 3143,
      "तौ": 3144,
      "ित्व": 3145,
      "कथं": 3146,
      " ले": 3147,
      " युद्ध": 3148,
      " वस्तु": 3149,
      " अस्य": 3150,
      " सर": 3151,
      "19": 3152,
      "संस्": 3153,
      "क्रिया": 3154,
      "तेः": 3155,
      " क्री": 3156,
      " शक्ति": 3157,
      " ओ": 3158,
      "तन्त्र": 3159,
      "ून": 3160,
      " गो": 3161,
      " पुर": 3162,
      " नः": 3163,
      " शरी": 3164,
      "ष्टं": 3165,
      " पृथि": 3166,
      " कृते": 3167,
      " गच्छ": 3168,
      " जायते": 3169,
      "याम्": 3170,
      " मित्र": 3171,
      "स्मै": 3172,
      " प्रोक्त": 3173,
      " मध्य": 3174,
      " क्रिया": 3175,
      " सर्वत्र": 3176,
      " वच": 3177,
      "सङ्": 3178,
      " राजा": 3179,
      "वर्तते": 3180,
      "चर": 3181,
      " पाद": 3182,
      "मार्ग": 3183,
      "al": 3184,
      " शत्र": 3185,
      " भवन्ति": 3186,
      " नृ": 3187,
      "१७": 3188,
      " भु": 3189,
      "दौ": 3190,
      " तमे": 3191,
      "श्रु": 3192,
      "भय": 3193,
      " I": 3194,
      "निक": 3195,
      "बि": 3196,
      "ाद्य": 3197,
      "योजन": 3198,
      "ल्य": 3199,
      "पन्": 3200,
      " सामान्य": 3201,
      "१३": 3202,
      "अधिक": 3203,
      "रोध": 3204,
      "केन": 3205,
      "ात्र": 3206,
      "मित्त": 3207,
      " कुरु": 3208,
      "गः": 3209,
      " ॐ": 3210,
      "व्र": 3211,
      "वास": 3212,
      " सेव": 3213,
      "ानाम": 3214,
      " शो": 3215,
      "अयं": 3216,
      "गण": 3217,
      "बुद्ध": 3218,
      "त्मा": 3219,
      " इदं": 3220,
      "ादी": 3221,
      " मूल": 3222,
      "टे": 3223,
      " कार्यं": 3224,
      "अव": 3225,
      " यद": 3226,
      "सां": 3227,
      " भगव": 3228,
      "देशः": 3229,
      "दानीं": 3230,
      "00": 3231,
      "कम": 3232,
      " t": 3233,
      " यू": 3234,
      " साध": 3235,
      " शक्यते": 3236,
      " चिन्त": 3237,
      "ीम": 3238,
      "समु": 3239,
      "पक्ष": 3240,
      "र्वा": 3241,
      " ()": 3242,
      "दत्त": 3243,
      "द्रा": 3244,
      " हो": 3245,
      " बल": 3246,
      " चेत्": 3247,
      "ज्": 3248,
      "चित्र": 3249,
      "तेषां": 3250,
      "शे": 3251,
      "ोत्त": 3252,
      "ान्ति": 3253,
      "थं": 3254,
      "नाम्": 3255,
      " A": 3256,
      "श्चा": 3257,
      "रम": 3258,
      " पश": 3259,
      "परं": 3260,
      " राज्य": 3261,
      "तदा": 3262,
      " निष्": 3263,
      "ag": 3264,
      "ेष्ठ": 3265,
      " सन्": 3266,
      " सूर्य": 3267,
      " न्य": 3268,
      " कारण": 3269,
      "थः": 3270,
      " सङ्": 3271,
      " नित्य": 3272,
      "पेक्ष": 3273,
      "१६": 3274,
      "नानि": 3275,
      "11": 3276,
      "भो": 3277,
      "प्रि": 3278,
      "त्वम्": 3279,
      " काले": 3280,
      " स्थान": 3281,
      "रस": 3282,
      "रति": 3283,
      "वृत्ति": 3284,
      "बा": 3285,
      " भेद": 3286,
      " स्वी": 3287,
      " ड": 3288,
      " मनो": 3289,
      "स्यां": 3290,
      "सहस्र": 3291,
      "यात": 3292,
      "भ्यो": 3293,
      " कः": 3294,
      "ित्वा": 3295,
      " दत्त": 3296,
      "ष्यते": 3297,
      "रूपेण": 3298,
      "ेवं": 3299,
      "यद्य": 3300,
      " अध्य": 3301,
      "ान्न": 3302,
      "ii": 3303,
      " प्रस": 3304,
      "ष्या": 3305,
      "वृद्ध": 3306,
      " स्थाप": 3307,
      "खि": 3308,
      " विद्य": 3309,
      "भावः": 3310,
      " प्रश्": 3311,
      "तेषु": 3312,
      " भूत": 3313,
      "मुप": 3314,
      "ृती": 3315,
      "शास्त्र": 3316,
      " व्र": 3317,
      "मानः": 3318,
      " तत": 3319,
      "वद": 3320,
      "घु": 3321,
      "लय": 3322,
      "शास": 3323,
      " त्य": 3324,
      "ग्ने": 3325,
      "रक्ष": 3326,
      "12": 3327,
      " अर्थ": 3328,
      " शेष": 3329,
      " यद्": 3330,
      "-अ": 3331,
      "कृत्य": 3332,
      "रूपं": 3333,
      "भक्त": 3334,
      "ह्य": 3335,
      "तव": 3336,
      "दम्": 3337,
      " निश्च": 3338,
      " बा": 3339,
      " वृत्त": 3340,
      " लभ": 3341,
      " त्वया": 3342,
      " नव": 3343,
      " चैव": 3344,
      "इट": 3345,
      "ीः": 3346,
      "शक्ति": 3347,
      "स्थाप": 3348,
      "यौ": 3349,
      " यज": 3350,
      " विधि": 3351,
      "मेर": 3352,
      "व्यः": 3353,
      "यितुं": 3354,
      "ल्ल": 3355,
      " सूचना": 3356,
      " एतत्": 3357,
      " शक्": 3358,
      " आस": 3359,
      "ासु": 3360,
      " गुरु": 3361,
      "कृतं": 3362,
      " आव": 3363,
      "पार": 3364,
      "र्गः": 3365,
      " सहस्र": 3366,
      " करण": 3367,
      " कश्च": 3368,
      " तम": 3369,
      " पर्व": 3370,
      "िकः": 3371,
      " इह": 3372,
      "र्द्ध": 3373,
      " भारत": 3374,
      "व्यव": 3375,
      "युः": 3376,
      " दीर्घ": 3377,
      " नैव": 3378,
      "कर्ष": 3379,
      "दो": 3380,
      "खा": 3381,
      " पे": 3382,
      "इदं": 3383,
      "मार": 3384,
      " दा": 3385,
      " केवल": 3386,
      " क्रियते": 3387,
      "खे": 3388,
      "रू": 3389,
      "्वि": 3390,
      "मिदं": 3391,
      " नित्यं": 3392,
      "तद्": 3393,
      "वेदन": 3394,
      " पृष्ठानि": 3395,
      "यदा": 3396,
      " धन": 3397,
      "अभि": 3398,
      "पद्यते": 3399,
      "ेऽ": 3400,
      " लक्षण": 3401,
      " सी": 3402,
      " नर": 3403,
      "दुःख": 3404,
      " धार": 3405,
      " किम": 3406,
      " शुभ": 3407,
      "संधान": 3408,
      "तन": 3409,
      " गण": 3410,
      "अप": 3411,
      " स्वयं": 3412,
      " शत": 3413,
      "दिष्ट": 3414,
      "it": 3415,
      "ततो": 3416,
      "हास": 3417,
      "अपि": 3418,
      "ैर्": 3419,
      " विचार": 3420,
      " प्रण": 3421,
      "नात्": 3422,
      " जनाः": 3423,
      "ार्थ": 3424,
      "न्तरं": 3425,
      "भी": 3426,
      "बी": 3427,
      "कर्ता": 3428,
      " कौ": 3429,
      " विज": 3430,
      "18": 3431,
      "र्म्": 3432,
      " ता": 3433,
      "तत": 3434,
      " विव": 3435,
      " पुनर": 3436,
      "..\n": 3437,
      " दुर्": 3438,
      "कास": 3439,
      " ऐ": 3440,
      "ादेश": 3441,
      "अस्य": 3442,
      " उच्यते": 3443,
      "विषय": 3444,
      "कूल": 3445,
      " स्वर्ग": 3446,
      "ज्ञानं": 3447,
      " प्रधान": 3448,
      "15": 3449,
      "क्षं": 3450,
      "निः": 3451,
      " रात्र": 3452,
      "दाहरण": 3453,
      "प्रस": 3454,
      " आत्म": 3455,
      " श्व": 3456,
      "बहु": 3457,
      "ज्यते": 3458,
      " तिष्ठ": 3459,
      " मास": 3460,
      "मित्य": 3461,
      "बोध": 3462,
      " मृत्य": 3463,
      " हस्त": 3464,
      "विधि": 3465,
      "मम्": 3466,
      "बसा": 3467,
      "स्यापि": 3468,
      "च्य": 3469,
      "नव": 3470,
      " मुक्त": 3471,
      "भवः": 3472,
      "राष्ट्र": 3473,
      "धिकरण": 3474,
      " एष": 3475,
      "सप्त": 3476,
      " ग्रह": 3477,
      "ms": 3478,
      "्रा": 3479,
      "प्रे": 3480,
      "iv": 3481,
      " वार": 3482,
      " ि": 3483,
      "ग्रे": 3484,
      " P": 3485,
      " भावः": 3486,
      "बाल": 3487,
      " शक्त": 3488,
      " इत्यस्य": 3489,
      " ज्ञा": 3490,
      " स्मृ": 3491,
      " केन": 3492,
      "लिख": 3493,
      "पदा": 3494,
      " लोके": 3495,
      " ब्रह्म": 3496,
      "ज्ञः": 3497,
      "रुद्ध": 3498,
      "कू": 3499,
      " नी": 3500,
      " क्षेत्र": 3501,
      " निय": 3502,
      "टा": 3503,
      " कार्या": 3504,
      "चतु": 3505,
      "मव": 3506,
      "न्त्य": 3507,
      "ृणु": 3508,
      "संख्या": 3509,
      " यथ": 3510,
      "ेष्व": 3511,
      "पुनः": 3512,
      " ङ": 3513,
      "यी": 3514,
      "सुख": 3515,
      "क्षः": 3516,
      "मध्ये": 3517,
      "िके": 3518,
      " यद्य": 3519,
      "नेक": 3520,
      " सम्बन्ध": 3521,
      " परस्": 3522,
      " किञ्च": 3523,
      " एकः": 3524,
      "ृतं": 3525,
      "साध": 3526,
      " युक्त": 3527,
      "बसाइट": 3528,
      "मन्त्र": 3529,
      "ताव": 3530,
      " परमा": 3531,
      "इह": 3532,
      "शक्त": 3533,
      " पुनर्": 3534,
      "स्तथा": 3535,
      "केव": 3536,
      " वर": 3537,
      "गी": 3538,
      " विकल्प": 3539,
      " इच्छ": 3540,
      "दक्षि": 3541,
      " साक्ष": 3542,
      "दोष": 3543,
      " ध्य": 3544,
      "ितीय": 3545,
      "ों": 3546,
      " पुस्त": 3547,
      " पूर्वं": 3548,
      "मस्ति": 3549,
      "क्रिय": 3550,
      " त्वां": 3551,
      "ुव": 3552,
      "न्थ": 3553,
      "ेषण": 3554,
      " नियम": 3555,
      " भवे": 3556,
      "ध्यते": 3557,
      " न्": 3558,
      " स्वप्": 3559,
      "चा": 3560,
      " हरि": 3561,
      " मार्ग": 3562,
      "पया": 3563,
      " खलु": 3564,
      "फु": 3565,
      "परी": 3566,
      "पञ्च": 3567,
      "िकी": 3568,
      "द्वा": 3569,
      " निर्म": 3570,
      "पुन": 3571,
      " द्विती": 3572,
      " कुर्या": 3573,
      " है": 3574,
      "लिङ्ग": 3575,
      "ितानि": 3576,
      "धं": 3577,
      " जात": 3578,
      " इत्यर्थः": 3579,
      " दृश्य": 3580,
      "र्थि": 3581,
      " मन्त्र": 3582,
      " प्राप्नोति": 3583,
      "सर": 3584,
      " शीघ्र": 3585,
      " यत": 3586,
      " भाषण": 3587,
      "यित्वा": 3588,
      "re": 3589,
      "कृते": 3590,
      " कुर्वन्ति": 3591,
      "न्तर": 3592,
      "क्व": 3593,
      "दार": 3594,
      " पार": 3595,
      "बु": 3596,
      "रात्र": 3597,
      " प्रयोग": 3598,
      " यतः": 3599,
      " सम्बद्ध": 3600,
      "मेण": 3601,
      " वो": 3602,
      "ान्तर": 3603,
      " भवतः": 3604,
      "्येत": 3605,
      " योज": 3606,
      " निर": 3607,
      " ध्व": 3608,
      "गच्छ": 3609,
      " अध्या": 3610,
      " अग्नि": 3611,
      " s": 3612,
      " विषये": 3613,
      " सति": 3614,
      " अयं": 3615,
      "ऽऽ": 3616,
      " समुद्र": 3617,
      " द्रष्ट": 3618,
      " आर": 3619,
      "ताम": 3620,
      " विभाग": 3621,
      " वस": 3622,
      "प्रश्": 3623,
      "]\n": 3624,
      " सव": 3625,
      "स्ट": 3626,
      "अन्यथा": 3627,
      " तत्त्व": 3628,
      "ोत्": 3629,
      "्यस्य": 3630,
      " अस": 3631,
      "धुना": 3632,
      "str": 3633,
      "िकाः": 3634,
      " प्रार्थ": 3635,
      "पत्र": 3636,
      " दृ": 3637,
      "दिश": 3638,
      "कारं": 3639,
      "नीय": 3640,
      "विभाग": 3641,
      "कारेण": 3642,
      "पदं": 3643,
      " समान": 3644,
      " तो": 3645,
      "le": 3646,
      " एका": 3647,
      "नौ": 3648,
      " बाह": 3649,
      "सेव": 3650,
      " उद्": 3651,
      "हर": 3652,
      " T": 3653,
      " चित्र": 3654,
      " M": 3655,
      "हस्त": 3656,
      " विस्त": 3657,
      "ou": 3658,
      "घा": 3659,
      "र्थम्": 3660,
      " शास्त्र": 3661,
      "दपि": 3662,
      "पत्": 3663,
      " m": 3664,
      "सर्ग": 3665,
      "जो": 3666,
      " विज्ञ": 3667,
      " लेख": 3668,
      " शक्य": 3669,
      "गं": 3670,
      " सम्य": 3671,
      "14": 3672,
      "विधान": 3673,
      "्योति": 3674,
      " संस्कृत": 3675,
      "ृहं": 3676,
      " नग": 3677,
      " अस्माकं": 3678,
      " तप": 3679,
      " गति": 3680,
      "ाह्म": 3681,
      "लेख": 3682,
      "जग": 3683,
      "र्ति": 3684,
      " फलं": 3685,
      " वन": 3686,
      "दृ": 3687,
      "भः": 3688,
      " वाम": 3689,
      "न्दि": 3690,
      " बह": 3691,
      " बु": 3692,
      "म्ह": 3693,
      " झ": 3694,
      "वस्तु": 3695,
      "मया": 3696,
      " सर्वदा": 3697,
      " इत्येत": 3698,
      "च्छेद": 3699,
      "मौ": 3700,
      "२२": 3701,
      " लक्ष": 3702,
      "घ्": 3703,
      " मात": 3704,
      "त्यं": 3705,
      " रुप": 3706,
      "चे": 3707,
      "३०": 3708,
      "ष्टि": 3709,
      " वर्ध": 3710,
      "ic": 3711,
      "्ल": 3712,
      "यान": 3713,
      " दक्षिण": 3714,
      "साधन": 3715,
      " C": 3716,
      " तां": 3717,
      "स्थित": 3718,
      " प्रव": 3719,
      "---": 3720,
      "टः": 3721,
      " ततो": 3722,
      " प्रसिद्ध": 3723,
      "ेक": 3724,
      " ईश्व": 3725,
      "मृ": 3726,
      "मध्य": 3727,
      "हिं": 3728,
      "द्धि": 3729,
      " अधिनियम": 3730,
      "ितुं": 3731,
      "तस्मा": 3732,
      " पिता": 3733,
      "२०१": 3734,
      "कौ": 3735,
      " कम": 3736,
      " प्रयत्": 3737,
      " पर्य": 3738,
      " सूत्र": 3739,
      "२५": 3740,
      "त्ते": 3741,
      "षण": 3742,
      "ितवान्": 3743,
      " सर्वा": 3744,
      "मय": 3745,
      " प्रकृति": 3746,
      " हृ": 3747,
      "ाण्": 3748,
      "am": 3749,
      "शिक्षण": 3750,
      "चित्त": 3751,
      "गतं": 3752,
      " उच्च": 3753,
      "त्यादि": 3754,
      "सामान्य": 3755,
      "पन्न": 3756,
      "ेय": 3757,
      " ताव": 3758,
      " प्रय": 3759,
      "ान्ते": 3760,
      "हाय": 3761,
      " शुद्ध": 3762,
      "फलं": 3763,
      "त्ता": 3764,
      " मधु": 3765,
      "भावे": 3766,
      " श्री": 3767,
      " समाप्त": 3768,
      " प्रमाण": 3769,
      "क्ष्यामि": 3770,
      " विषय": 3771,
      " भगवान्": 3772,
      "भग": 3773,
      "न्नि": 3774,
      "नान": 3775,
      "पिं": 3776,
      " संख्या": 3777,
      "्याव": 3778,
      " विनि": 3779,
      " कारणं": 3780,
      "मेन": 3781,
      "ed": 3782,
      "अति": 3783,
      "ष्मा": 3784,
      "मान्": 3785,
      "कारण": 3786,
      "ग्राम": 3787,
      "सेन": 3788,
      " प्रच": 3789,
      "ारो": 3790,
      "नापि": 3791,
      "पाप": 3792,
      " परिवर्त": 3793,
      "्याय": 3794,
      " द्वारा": 3795,
      "प्रयोग": 3796,
      " अनुसंधान": 3797,
      "्वः": 3798,
      "msg": 3799,
      "मुच्यते": 3800,
      "msgstr": 3801,
      " शू": 3802,
      "वर": 3803,
      " कर्तुं": 3804,
      " भवान्": 3805,
      " द्वादश": 3806,
      "ोत": 3807,
      " यावत्": 3808,
      " कोई": 3809,
      "ंस": 3810,
      " भक्त": 3811,
      "नग": 3812,
      "२४": 3813,
      "पूज": 3814,
      "वत्स": 3815,
      " तद्व": 3816,
      "वाय": 3817,
      " संसार": 3818,
      " अत्य": 3819,
      "ीर": 3820,
      "13": 3821,
      " चित्त": 3822,
      " माता": 3823,
      " कस्य": 3824,
      " वाक्य": 3825,
      "यत्र": 3826,
      "हृद": 3827,
      "क्री": 3828,
      " सम्बद्धानि": 3829,
      "मूल": 3830,
      " दिन": 3831,
      "ome": 3832,
      " p": 3833,
      "न्ती": 3834,
      "षेध": 3835,
      "नन्द": 3836,
      " क्षण": 3837,
      "विषये": 3838,
      "हस्य": 3839,
      " वायु": 3840,
      " निर्व": 3841,
      " गृहे": 3842,
      "त्रापि": 3843,
      " विष्ण": 3844,
      "विश": 3845,
      "माना": 3846,
      "पत्ति": 3847,
      "17": 3848,
      " नै": 3849,
      "नै": 3850,
      "ष्टः": 3851,
      " रोग": 3852,
      "ion": 3853,
      "क्यं": 3854,
      " सर्व्व": 3855,
      " वाय": 3856,
      " क्रीड": 3857,
      "हितः": 3858,
      " बहि": 3859,
      "स्वा": 3860,
      " देवा": 3861,
      "श्ल": 3862,
      "स्ता": 3863,
      "ष्व": 3864,
      " सर्वेषां": 3865,
      " प्रातः": 3866,
      "गतः": 3867,
      "जल": 3868,
      " पति": 3869,
      " उपयोग": 3870,
      "२१": 3871,
      "पात": 3872,
      "ानी": 3873,
      "नाश": 3874,
      " उत्तर": 3875,
      " परीक्षा": 3876,
      " जाना": 3877,
      " अती": 3878,
      "ष्प": 3879,
      "वाः": 3880,
      " गतः": 3881,
      "पुरा": 3882,
      "ad": 3883,
      " हेतु": 3884,
      " B": 3885,
      " पदा": 3886,
      "करणे": 3887,
      " N": 3888,
      "पृष्ठ": 3889,
      "वर्ज": 3890,
      "संयुक्त": 3891,
      " वेबसाइट": 3892,
      " नु": 3893,
      "मात्": 3894,
      " अतः": 3895,
      " सार": 3896,
      " परम्": 3897,
      "मण्ड": 3898,
      " कश्चि": 3899,
      "पादन": 3900,
      "भौ": 3901,
      " सिं": 3902,
      "सृ": 3903,
      "ैल": 3904,
      "हिता": 3905,
      " c": 3906,
      " संयुक्त": 3907,
      " b": 3908,
      "अन्त": 3909,
      "is": 3910,
      "न्दु": 3911,
      "मत": 3912,
      "ुत्": 3913,
      " अमेर": 3914,
      " पाल": 3915,
      " इन्द्र": 3916,
      "सर्वं": 3917,
      " L": 3918,
      "माय": 3919,
      "पाठ": 3920,
      " तस्या": 3921,
      " श्": 3922,
      "ेवाः": 3923,
      "२७": 3924,
      "स्वरूप": 3925,
      " f": 3926,
      "करणं": 3927,
      " रस": 3928,
      " मुख": 3929,
      " दण्ड": 3930,
      "र्त्त": 3931,
      " नू": 3932,
      "ननु": 3933,
      " विकि": 3934,
      "र्म्म": 3935,
      "तृ": 3936,
      " याव": 3937,
      " विप्र": 3938,
      " गि": 3939,
      "दिन": 3940,
      "त्तु": 3941,
      " सुर": 3942,
      " तस्मा": 3943,
      "साह": 3944,
      " यं": 3945,
      " निर्ण": 3946,
      " ---": 3947,
      "ाया": 3948,
      " महि": 3949,
      "प्रकाश": 3950,
      "२००": 3951,
      "ादौ": 3952,
      "ान्तः": 3953,
      " ग्राम": 3954,
      "मति": 3955,
      " जू": 3956,
      " एवा": 3957,
      " सक": 3958,
      "लोके": 3959,
      "ent": 3960,
      "सद": 3961,
      "ारे": 3962,
      "स्त्री": 3963,
      "कृता": 3964,
      " कृता": 3965,
      "सन्ध": 3966,
      "मस्य": 3967,
      "त्ति": 3968,
      "न्तो": 3969,
      " तथापि": 3970,
      " वर्तमान": 3971,
      " आवश्य": 3972,
      " गम": 3973,
      " किन्तु": 3974,
      " दैव": 3975,
      "ध्": 3976,
      "रुण": 3977,
      "गि": 3978,
      "रेव": 3979,
      " स्य": 3980,
      " प्रभाव": 3981,
      "रक्षण": 3982,
      " अत": 3983,
      " अद्य": 3984,
      " पक्ष": 3985,
      " गत": 3986,
      " जनवरी": 3987,
      " देशे": 3988,
      "16": 3989,
      " श्रुत्वा": 3990,
      " चै": 3991,
      "ारु": 3992,
      " भारतीय": 3993,
      " विशेषतः": 3994,
      " तौ": 3995,
      "स्क": 3996,
      " प्राप्य": 3997,
      "स्मान्": 3998,
      "अद्य": 3999
    },
    "merges": [
      [
        "्",
        "य"
      ],
      [
        "्",
        "र"
      ],
      [
        "।",
        "\n"
      ],
      [
        "्",
        "त"
      ],
      [
        " ",
        "स"
      ],
      [
        " ",
        "प"
      ],
      [
        "्",
        "व"
      ],
      [
        " ",
        "।\n"
      ],
      [
        " ",
        "व"
      ],
      [
        "त",
        "ि"
      ],
      [
        "ा",
        "न"
      ],
      [
        " ",
        "क"
      ],
      [
        "र",
        "्"
      ],
      [
        " ",
        "त"
      ],
      [
        "म",
        "्"
      ],
      [
        " ",
        "न"
      ],
      [
        "ि",
        "त"
      ],
      [
        " ",
        "अ"
      ],
      [
        "त",
        "्"
      ],
      [
        "्य",
        "ा"
      ],
      [
        " ",
        "म"
      ],
      [
        " प",
        "्र"
      ],
      [
        "ा",
        "र"
      ],
      [
        " ",
        "द"
      ],
      [
        " ",
        "य"
      ],
      [
        "ा",
        "ं"
      ],
      [
        " ",
        "भ"
      ],
      [
        "त",
        "े"
      ],
      [
        " ",
        "च"
      ],
      [
        "क",
        "्"
      ],
      [
        "न",
        "्"
      ],
      [
        "म",
        "ा"
      ],
      [
        "स",
        "्य"
      ],
      [
        " व",
        "ि"
      ],
      [
        "य",
        "ा"
      ],
      [
        "॥",
        "\n"
      ],
      [
        "ष",
        "्"
      ],
      [
        "स",
        "्त"
      ],
      [
        "स",
        "्"
      ],
      [
        "न",
        "्त"
      ],
      [
        "क्",
        "ष"
      ],
      [
        " ",
        "इ"
      ],
      [
        "त",
        "्र"
      ],
      [
        " ",
        "श"
      ],
      [
        " ",
        "॥\n"
      ],
      [
        "व",
        "ि"
      ],
      [
        "र",
        "्व"
      ],
      [
        "र",
        "ा"
      ],
      [
        "न",
        "ा"
      ],
      [
        " ",
        "ज"
      ],
      [
        "द",
        "्"
      ],
      [
        "प",
        "्र"
      ],
      [
        "क",
        "्त"
      ],
      [
        "थ",
        "ा"
      ],
      [
        " ",
        "ह"
      ],
      [
        "त",
        "्य"
      ],
      [
        "े",
        "व"
      ],
      [
        "े",
        "न"
      ],
      [
        " ",
        "ए"
      ],
      [
        "प",
        "ि"
      ],
      [
        " ",
        "ग"
      ],
      [
        "त",
        "ः"
      ],
      [
        "ा",
        "द"
      ],
      [
        "ि",
        "क"
      ],
      [
        "ा",
        "य"
      ],
      [
        " ",
        "-"
      ],
      [
        "ा",
        "म"
      ],
      [
        "्",
        "च"
      ],
      [
        "त",
        "्त"
      ],
      [
        "ा",
        "ः"
      ],
      [
        "ष्",
        "ट"
      ],
      [
        "न",
        "ि"
      ],
      [
        " ",
        "आ"
      ],
      [
        "ा",
        "व"
      ],
      [
        "े",
        "ष"
      ],
      [
        "र",
        "ि"
      ],
      [
        "त",
        "्व"
      ],
      [
        "य",
        "ो"
      ],
      [
        "र्",
        "थ"
      ],
      [
        "म",
        "ि"
      ],
      [
        "द",
        "ि"
      ],
      [
        "ा",
        "ल"
      ],
      [
        " प",
        "ु"
      ],
      [
        " न",
        "ि"
      ],
      [
        "द",
        "ा"
      ],
      [
        " ",
        "ब"
      ],
      [
        "त",
        "ा"
      ],
      [
        " ",
        "उ"
      ],
      [
        "द्",
        "ध"
      ],
      [
        " इ",
        "ति"
      ],
      [
        "र",
        "्त"
      ],
      [
        " स",
        "ं"
      ],
      [
        "े",
        "श"
      ],
      [
        " ",
        "र"
      ],
      [
        " ",
        "ल"
      ],
      [
        "्",
        "ञ"
      ],
      [
        " भ",
        "व"
      ],
      [
        " व",
        "ा"
      ],
      [
        " स",
        "र्व"
      ],
      [
        "्य",
        "ते"
      ],
      [
        " ",
        "ध"
      ],
      [
        " स",
        "्व"
      ],
      [
        "ा",
        "प"
      ],
      [
        "ङ",
        "्"
      ],
      [
        "ान",
        "्"
      ],
      [
        "य",
        "े"
      ],
      [
        " ",
        "("
      ],
      [
        "श",
        "्च"
      ],
      [
        "य",
        "ं"
      ],
      [
        "्य",
        "ं"
      ],
      [
        "स",
        "ं"
      ],
      [
        "भ",
        "ि"
      ],
      [
        " प",
        "र"
      ],
      [
        "ान",
        "ि"
      ],
      [
        " स",
        "्"
      ],
      [
        "न",
        "ु"
      ],
      [
        "व",
        "ा"
      ],
      [
        " ए",
        "व"
      ],
      [
        "र",
        "ण"
      ],
      [
        "म",
        "ु"
      ],
      [
        "न",
        "ं"
      ],
      [
        "ि",
        "ं"
      ],
      [
        "ृ",
        "त"
      ],
      [
        " ",
        "\""
      ],
      [
        "त",
        "ु"
      ],
      [
        "र्",
        "म"
      ],
      [
        "भ",
        "ा"
      ],
      [
        "न",
        "े"
      ],
      [
        "क",
        "ार"
      ],
      [
        "ज",
        "्ञ"
      ],
      [
        "र",
        "ु"
      ],
      [
        " त",
        "ु"
      ],
      [
        "य",
        "ः"
      ],
      [
        "न",
        "ः"
      ],
      [
        "्र",
        "ि"
      ],
      [
        "्य",
        "े"
      ],
      [
        "त",
        "ी"
      ],
      [
        " ",
        "रा"
      ],
      [
        "स",
        "ा"
      ],
      [
        "म",
        "ान"
      ],
      [
        "र",
        "ो"
      ],
      [
        "च",
        "्"
      ],
      [
        " ",
        "."
      ],
      [
        "न्",
        "द"
      ],
      [
        "?",
        "\n"
      ],
      [
        "क",
        "ा"
      ],
      [
        "र",
        "े"
      ],
      [
        "म",
        "े"
      ],
      [
        "न्त",
        "ि"
      ],
      [
        "त",
        "ो"
      ],
      [
        "र्",
        "ष"
      ],
      [
        "े",
        "द"
      ],
      [
        "ल",
        "्"
      ],
      [
        "ष्",
        "ठ"
      ],
      [
        "ग",
        "ु"
      ],
      [
        " स",
        "ु"
      ],
      [
        "ा",
        "त्"
      ],
      [
        "च्",
        "छ"
      ],
      [
        "न",
        "्य"
      ],
      [
        "स्त",
        "ि"
      ],
      [
        " ह",
        "ि"
      ],
      [
        "ा",
        "ण"
      ],
      [
        "ान",
        "ां"
      ],
      [
        "स",
        "ि"
      ],
      [
        " प्र",
        "ति"
      ],
      [
        "ू",
        "प"
      ],
      [
        "भ",
        "व"
      ],
      [
        "द",
        "्य"
      ],
      [
        "द",
        "्व"
      ],
      [
        "स्",
        "थ"
      ],
      [
        "श",
        "्व"
      ],
      [
        "ध",
        "ि"
      ],
      [
        "ै",
        "व"
      ],
      [
        "प",
        "ु"
      ],
      [
        "स",
        "्व"
      ],
      [
        "व",
        "्य"
      ],
      [
        "र्",
        "ण"
      ],
      [
        " स",
        "म"
      ],
      [
        " ",
        "_"
      ],
      [
        " स",
        "ा"
      ],
      [
        "ह",
        "ं"
      ],
      [
        "ा",
        "स"
      ],
      [
        "य",
        "ु"
      ],
      [
        "ान",
        "्त"
      ],
      [
        "प",
        "र"
      ],
      [
        "ब",
        "्"
      ],
      [
        "क",
        "ं"
      ],
      [
        "ी",
        "य"
      ],
      [
        " प",
        "ू"
      ],
      [
        " क",
        "ु"
      ],
      [
        "ह",
        "ि"
      ],
      [
        "क",
        "ः"
      ],
      [
        "त",
        "ं"
      ],
      [
        " इ",
        "त्य"
      ],
      [
        "क",
        "ृ"
      ],
      [
        "ग",
        "्र"
      ],
      [
        " क",
        "ार"
      ],
      [
        "े",
        "ण"
      ],
      [
        "ल",
        "ं"
      ],
      [
        " त",
        "्व"
      ],
      [
        "स",
        "्या"
      ],
      [
        "ो",
        "ऽ"
      ],
      [
        "ै",
        "ः"
      ],
      [
        "ु",
        "ः"
      ],
      [
        "क",
        "्र"
      ],
      [
        "ध",
        "िक"
      ],
      [
        "ग",
        "्"
      ],
      [
        "क",
        "े"
      ],
      [
        " त",
        "े"
      ],
      [
        "ित",
        "ः"
      ],
      [
        "द",
        "ेश"
      ],
      [
        "भ",
        "ाव"
      ],
      [
        "म",
        "ः"
      ],
      [
        "ष",
        "्य"
      ],
      [
        " ",
        "ख"
      ],
      [
        " य",
        "था"
      ],
      [
        "ेष",
        "ु"
      ],
      [
        "र्",
        "ग"
      ],
      [
        "र",
        "ं"
      ],
      [
        "त",
        "्या"
      ],
      [
        "स्त",
        "ु"
      ],
      [
        " म",
        "ह"
      ],
      [
        " द",
        "्व"
      ],
      [
        "ृ",
        "श"
      ],
      [
        "ङ्",
        "ग"
      ],
      [
        " द",
        "ेव"
      ],
      [
        "प",
        "्त"
      ],
      [
        "क्ष",
        "ण"
      ],
      [
        "ा",
        "त"
      ],
      [
        "स",
        "ी"
      ],
      [
        "ृ",
        "ष्ट"
      ],
      [
        "न",
        "ो"
      ],
      [
        ".",
        "\n"
      ],
      [
        "ित",
        "ा"
      ],
      [
        "ण",
        "्"
      ],
      [
        "प",
        "ू"
      ],
      [
        " भव",
        "ति"
      ],
      [
        "द",
        "्र"
      ],
      [
        "र",
        "ी"
      ],
      [
        "श",
        "्र"
      ],
      [
        " प",
        "रि"
      ],
      [
        "ृ",
        "ह"
      ],
      [
        "स",
        "ु"
      ],
      [
        " क",
        "ृ"
      ],
      [
        "ि",
        "ः"
      ],
      [
        "यो",
        "ग"
      ],
      [
        " श",
        "्र"
      ],
      [
        "भ",
        "ू"
      ],
      [
        "ल",
        "ा"
      ],
      [
        "र",
        "ः"
      ],
      [
        "ध",
        "्य"
      ],
      [
        " क",
        "्"
      ],
      [
        "श",
        "ि"
      ],
      [
        " स",
        "म्"
      ],
      [
        "न्",
        "ध"
      ],
      [
        " म",
        "े"
      ],
      [
        "ल",
        "ो"
      ],
      [
        "न",
        "ी"
      ],
      [
        "ा",
        "ह"
      ],
      [
        " द",
        "ि"
      ],
      [
        " क",
        "ि"
      ],
      [
        "त्व",
        "ा"
      ],
      [
        "स्",
        "मा"
      ],
      [
        "र",
        "ूप"
      ],
      [
        "ु",
        "ं"
      ],
      [
        "व",
        "ृ"
      ],
      [
        "्व",
        "ा"
      ],
      [
        "च",
        "ित"
      ],
      [
        " म",
        "ु"
      ],
      [
        "ञ",
        "्च"
      ],
      [
        " उ",
        "प"
      ],
      [
        "द",
        "ं"
      ],
      [
        " ",
        "?\n"
      ],
      [
        " स",
        "ह"
      ],
      [
        "म",
        "ेव"
      ],
      [
        "ण",
        "ं"
      ],
      [
        " रा",
        "ज"
      ],
      [
        "न्",
        "न"
      ],
      [
        "ान",
        "ं"
      ],
      [
        " म",
        "ा"
      ],
      [
        " न",
        "ा"
      ],
      [
        "भ",
        "्य"
      ],
      [
        "ण",
        "ा"
      ],
      [
        " भ",
        "ा"
      ],
      [
        "ित",
        "ं"
      ],
      [
        " त",
        "था"
      ],
      [
        "े",
        "त"
      ],
      [
        " क",
        "थ"
      ],
      [
        "ष",
        "ा"
      ],
      [
        " स्",
        "थ"
      ],
      [
        "ी",
        "व"
      ],
      [
        " क्",
        "ष"
      ],
      [
        " व",
        "ै"
      ],
      [
        " ",
        "'"
      ],
      [
        "र",
        "्य"
      ],
      [
        "-",
        "\n"
      ],
      [
        "या",
        "ः"
      ],
      [
        "प",
        "ा"
      ],
      [
        "ब्",
        "द"
      ],
      [
        "ल",
        "ि"
      ],
      [
        "स्",
        "मि"
      ],
      [
        "र्",
        "श"
      ],
      [
        "!",
        "\n"
      ],
      [
        "श",
        "ेष"
      ],
      [
        " प्र",
        "ाप"
      ],
      [
        "्र",
        "ी"
      ],
      [
        " द",
        "ु"
      ],
      [
        " अ",
        "पि"
      ],
      [
        " य",
        "ो"
      ],
      [
        "ल्",
        "प"
      ],
      [
        " अ",
        "स्ति"
      ],
      [
        " व",
        "्य"
      ],
      [
        "ज",
        "न"
      ],
      [
        "ित",
        "्य"
      ],
      [
        " स",
        "मा"
      ],
      [
        " स",
        "ू"
      ],
      [
        "-",
        "-"
      ],
      [
        " य",
        "ु"
      ],
      [
        "ति",
        "ः"
      ],
      [
        "द",
        "ेव"
      ],
      [
        "ो",
        "प"
      ],
      [
        "ण्",
        "ड"
      ],
      [
        "व",
        "ं"
      ],
      [
        "क",
        "ृत"
      ],
      [
        "े",
        "त्"
      ],
      [
        " ग",
        "ु"
      ],
      [
        "क",
        "ाल"
      ],
      [
        "ध",
        "ान"
      ],
      [
        "च",
        "ार"
      ],
      [
        "ध",
        "ा"
      ],
      [
        "च",
        "ि"
      ],
      [
        "श",
        "्"
      ],
      [
        "स",
        "ः"
      ],
      [
        " प",
        "ृ"
      ],
      [
        "द",
        "्या"
      ],
      [
        " स",
        "्त"
      ],
      [
        "क्त",
        "ि"
      ],
      [
        "ण",
        "ि"
      ],
      [
        " क",
        "िं"
      ],
      [
        "ाद",
        "ि"
      ],
      [
        "क",
        "ु"
      ],
      [
        "स",
        "म"
      ],
      [
        " व",
        "र्ष"
      ],
      [
        "श",
        "्य"
      ],
      [
        "द",
        "ु"
      ],
      [
        "प",
        "्"
      ],
      [
        "स",
        "र्व"
      ],
      [
        "ल",
        "े"
      ],
      [
        " भ",
        "ू"
      ],
      [
        "य",
        "ति"
      ],
      [
        "स्",
        "म"
      ],
      [
        " पू",
        "र्व"
      ],
      [
        "व",
        "े"
      ],
      [
        "प",
        "द"
      ],
      [
        "व",
        "र्त"
      ],
      [
        "न्त",
        "े"
      ],
      [
        " प",
        "ा"
      ],
      [
        " त",
        "त्"
      ],
      [
        "ान",
        "ु"
      ],
      [
        " ज",
        "्ञ"
      ],
      [
        "च",
        "्च"
      ],
      [
        "म",
        "ं"
      ],
      [
        " प्र",
        "ा"
      ],
      [
        "ित",
        "म्"
      ],
      [
        "न",
        "म्"
      ],
      [
        "व",
        "ान्"
      ],
      [
        "न",
        "ां"
      ],
      [
        " अ",
        "नु"
      ],
      [
        ")",
        "\n"
      ],
      [
        "भा",
        "ग"
      ],
      [
        "ह",
        "ु"
      ],
      [
        " ",
        "फ"
      ],
      [
        "े",
        "ति"
      ],
      [
        "क",
        "ो"
      ],
      [
        "ान",
        "ा"
      ],
      [
        "क",
        "रण"
      ],
      [
        "य",
        "म्"
      ],
      [
        "ी",
        "त"
      ],
      [
        "य",
        "म"
      ],
      [
        "ी",
        "ं"
      ],
      [
        " त",
        "स्य"
      ],
      [
        "क्ष",
        "ा"
      ],
      [
        " न",
        "ाम"
      ],
      [
        "प",
        "ाद"
      ],
      [
        "ज",
        "ा"
      ],
      [
        "न्त",
        "्र"
      ],
      [
        " ",
        "घ"
      ],
      [
        " _",
        "\n"
      ],
      [
        "ख",
        "्या"
      ],
      [
        "त",
        "ां"
      ],
      [
        "र्",
        "ध"
      ],
      [
        "ो",
        "ष"
      ],
      [
        "क",
        "ि"
      ],
      [
        "त्",
        "म"
      ],
      [
        "प्र",
        "ति"
      ],
      [
        "व",
        "्या"
      ],
      [
        "्रि",
        "य"
      ],
      [
        "स",
        "म्"
      ],
      [
        "स",
        "े"
      ],
      [
        " पु",
        "नः"
      ],
      [
        " ",
        "छ"
      ],
      [
        "क्ष",
        "ि"
      ],
      [
        "ह",
        "े"
      ],
      [
        " व",
        "ृ"
      ],
      [
        " ए",
        "क"
      ],
      [
        "ण",
        "े"
      ],
      [
        "प",
        "रि"
      ],
      [
        "ु",
        "द्ध"
      ],
      [
        "र्थ",
        "ः"
      ],
      [
        " क",
        "र्त"
      ],
      [
        "ित",
        "्र"
      ],
      [
        " य",
        "दि"
      ],
      [
        " श",
        "ि"
      ],
      [
        " य",
        "त्"
      ],
      [
        "न्द",
        "्र"
      ],
      [
        "ान",
        "्य"
      ],
      [
        "ाण",
        "ि"
      ],
      [
        " .",
        "\n"
      ],
      [
        "ण",
        "ां"
      ],
      [
        " म",
        "म"
      ],
      [
        " क",
        "े"
      ],
      [
        "यु",
        "क्त"
      ],
      [
        "भि",
        "ः"
      ],
      [
        "द",
        "ी"
      ],
      [
        "स्",
        "था"
      ],
      [
        "्या",
        "ं"
      ],
      [
        "रु",
        "ष"
      ],
      [
        "स्त",
        "्र"
      ],
      [
        "न्",
        "म"
      ],
      [
        " पु",
        "न"
      ],
      [
        "र्",
        "ज"
      ],
      [
        "वृ",
        "त्त"
      ],
      [
        "न",
        "ेन"
      ],
      [
        "न्त",
        "ु"
      ],
      [
        " य",
        "ा"
      ],
      [
        "ाम",
        "ि"
      ],
      [
        "्",
        "ज"
      ],
      [
        "द",
        "े"
      ],
      [
        "म",
        "ो"
      ],
      [
        " स",
        "्या"
      ],
      [
        " प्र",
        "त्य"
      ],
      [
        " ल",
        "ो"
      ],
      [
        " व",
        "्या"
      ],
      [
        "य",
        "्"
      ],
      [
        "त",
        "त्"
      ],
      [
        "ष",
        "ु"
      ],
      [
        " स्",
        "म"
      ],
      [
        "ह",
        "्"
      ],
      [
        "ध",
        "्या"
      ],
      [
        "ण",
        "ः"
      ],
      [
        "प",
        "ी"
      ],
      [
        " ग",
        "ृह"
      ],
      [
        "व",
        "ः"
      ],
      [
        "इ",
        "ति"
      ],
      [
        "प",
        "े"
      ],
      [
        "व",
        "ाद"
      ],
      [
        " भ",
        "ार"
      ],
      [
        " क",
        "ाल"
      ],
      [
        "ित",
        "्त"
      ],
      [
        "रा",
        "ज"
      ],
      [
        "अ",
        "थ"
      ],
      [
        "ेष",
        "ां"
      ],
      [
        "स",
        "ू"
      ],
      [
        " क",
        "र्म"
      ],
      [
        "त",
        "स्य"
      ],
      [
        "स्मि",
        "न्"
      ],
      [
        "द",
        "ान"
      ],
      [
        "का",
        "श"
      ],
      [
        "ू",
        "ल"
      ],
      [
        "र्थ",
        "ं"
      ],
      [
        " क",
        "रो"
      ],
      [
        " व",
        "र्त"
      ],
      [
        " अ",
        "व"
      ],
      [
        " क",
        "ृत"
      ],
      [
        "ब",
        "न्ध"
      ],
      [
        " त",
        "त्र"
      ],
      [
        " ",
        "="
      ],
      [
        ".",
        "."
      ],
      [
        "मि",
        "ति"
      ],
      [
        "न",
        "्व"
      ],
      [
        "स",
        "्र"
      ],
      [
        "श",
        "ा"
      ],
      [
        "त",
        "म"
      ],
      [
        " स",
        "ि"
      ],
      [
        "वि",
        "ष्य"
      ],
      [
        "ह",
        "ार"
      ],
      [
        "त्त",
        "्व"
      ],
      [
        "िक",
        "ा"
      ],
      [
        "यो",
        "ः"
      ],
      [
        " द",
        "ृष्ट"
      ],
      [
        "त्व",
        "ं"
      ],
      [
        "क्ष",
        "े"
      ],
      [
        "प",
        "्य"
      ],
      [
        "२",
        "०"
      ],
      [
        " _",
        "_"
      ],
      [
        " ग",
        "्र"
      ],
      [
        "ो",
        "क्त"
      ],
      [
        " क",
        "ा"
      ],
      [
        "क",
        "म्"
      ],
      [
        " वि",
        "श्व"
      ],
      [
        " ज",
        "न"
      ],
      [
        "व",
        "ी"
      ],
      [
        "वि",
        "ष"
      ],
      [
        "ाय",
        "ां"
      ],
      [
        "2",
        "0"
      ],
      [
        "त्",
        "स"
      ],
      [
        "थ",
        "ि"
      ],
      [
        "च",
        "्यते"
      ],
      [
        "य",
        "था"
      ],
      [
        "पू",
        "र्व"
      ],
      [
        " ",
        "!\n"
      ],
      [
        "य",
        "ि"
      ],
      [
        "न",
        "्या"
      ],
      [
        "भा",
        "ष"
      ],
      [
        "ट",
        "्"
      ],
      [
        "स",
        "ार"
      ],
      [
        "र",
        "म्"
      ],
      [
        "क",
        "्य"
      ],
      [
        " कार",
        "्य"
      ],
      [
        "ज्ञ",
        "ान"
      ],
      [
        "ख",
        "्य"
      ],
      [
        "व",
        "ेद"
      ],
      [
        "ह",
        "ो"
      ],
      [
        " ह",
        "े"
      ],
      [
        " ज",
        "ा"
      ],
      [
        "ध",
        "्ये"
      ],
      [
        " ज",
        "ीव"
      ],
      [
        " प्राप",
        "्त"
      ],
      [
        " श",
        "ु"
      ],
      [
        "ए",
        "वं"
      ],
      [
        "ल",
        "ी"
      ],
      [
        " प्र",
        "थ"
      ],
      [
        "म",
        "पि"
      ],
      [
        " क",
        "ो"
      ],
      [
        "त्र",
        "ा"
      ],
      [
        "ार",
        "ा"
      ],
      [
        "श",
        "ु"
      ],
      [
        " त",
        "द"
      ],
      [
        "ध",
        "ु"
      ],
      [
        "ित",
        "्"
      ],
      [
        " त",
        "दा"
      ],
      [
        " क",
        "्र"
      ],
      [
        "्रि",
        "या"
      ],
      [
        "ऽ",
        "पि"
      ],
      [
        " त",
        "व"
      ],
      [
        "म",
        "ी"
      ],
      [
        "मा",
        "ण"
      ],
      [
        " द",
        "े"
      ],
      [
        "ते",
        "न"
      ],
      [
        " अ",
        "प"
      ],
      [
        "त",
        "म्"
      ],
      [
        "वि",
        "ध"
      ],
      [
        "व",
        "ार"
      ],
      [
        " द",
        "ेश"
      ],
      [
        "श",
        "ः"
      ],
      [
        " वि",
        "ष"
      ],
      [
        "म्",
        "ब"
      ],
      [
        "ग्र",
        "ह"
      ],
      [
        "द",
        "ृश"
      ],
      [
        " ",
        "/"
      ],
      [
        "य",
        "त्"
      ],
      [
        "ये",
        "त्"
      ],
      [
        " ",
        "ति"
      ],
      [
        "ो",
        "ध"
      ],
      [
        " क",
        "ेव"
      ],
      [
        "श",
        "ब्द"
      ],
      [
        "य",
        "ां"
      ],
      [
        "ना",
        "ः"
      ],
      [
        "य",
        "ित"
      ],
      [
        " ध",
        "र्म"
      ],
      [
        "क",
        "ल्प"
      ],
      [
        " ल",
        "ि"
      ],
      [
        "्य",
        "ो"
      ],
      [
        "सी",
        "त्"
      ],
      [
        " अ",
        "धिक"
      ],
      [
        "ित",
        "े"
      ],
      [
        "चित",
        "्"
      ],
      [
        "ष्",
        "ण"
      ],
      [
        " द",
        "ृश"
      ],
      [
        " ब",
        "हु"
      ],
      [
        " पु",
        "त्र"
      ],
      [
        "ध",
        "ार"
      ],
      [
        "्या",
        "मि"
      ],
      [
        " भ",
        "ग"
      ],
      [
        " भ",
        "विष्य"
      ],
      [
        "ष्ट",
        "्र"
      ],
      [
        "भ",
        "ार"
      ],
      [
        "स",
        "ह"
      ],
      [
        " ",
        "औ"
      ],
      [
        " ब",
        "्र"
      ],
      [
        "ी",
        "ति"
      ],
      [
        "ो",
        "ग"
      ],
      [
        "१",
        "०"
      ],
      [
        ",",
        "\n"
      ],
      [
        " इ",
        "त्या"
      ],
      [
        "ुः",
        "ख"
      ],
      [
        " स",
        "मु"
      ],
      [
        " वि",
        "शेष"
      ],
      [
        "व",
        "स"
      ],
      [
        "ग",
        "म"
      ],
      [
        " ",
        "ऽ"
      ],
      [
        " अ",
        "भि"
      ],
      [
        "त",
        "द"
      ],
      [
        " र",
        "ु"
      ],
      [
        "१",
        "९"
      ],
      [
        "सि",
        "द्ध"
      ],
      [
        " भ",
        "ाव"
      ],
      [
        " च",
        "ि"
      ],
      [
        " म",
        "या"
      ],
      [
        " य",
        "े"
      ],
      [
        " स",
        "ः"
      ],
      [
        " त",
        "्रि"
      ],
      [
        "क",
        "र्म"
      ],
      [
        "त",
        "ाः"
      ],
      [
        "त",
        "था"
      ],
      [
        "ग्",
        "नि"
      ],
      [
        " एव",
        "ं"
      ],
      [
        "ृ",
        "त्य"
      ],
      [
        "स्थ",
        "ान"
      ],
      [
        "श",
        "ी"
      ],
      [
        "व",
        "र्ष"
      ],
      [
        " ज",
        "ग"
      ],
      [
        "क",
        "ाः"
      ],
      [
        "ह",
        "ा"
      ],
      [
        "ण",
        "म्"
      ],
      [
        "त्र",
        "ं"
      ],
      [
        "्व",
        "ं"
      ],
      [
        " च",
        "ा"
      ],
      [
        "ग",
        "ृह"
      ],
      [
        "ाय",
        "ते"
      ],
      [
        "क",
        "थ"
      ],
      [
        "र्",
        "हि"
      ],
      [
        "क",
        "िं"
      ],
      [
        "क",
        "र्त"
      ],
      [
        " वि",
        "द"
      ],
      [
        " अ",
        "न्य"
      ],
      [
        "ण",
        "ी"
      ],
      [
        "स",
        "ो"
      ],
      [
        " त",
        "ं"
      ],
      [
        " स",
        "ाम"
      ],
      [
        "ित",
        "ाः"
      ],
      [
        "क",
        "ी"
      ],
      [
        "व",
        "ेश"
      ],
      [
        " ",
        ","
      ],
      [
        "च",
        "न"
      ],
      [
        "र्",
        "मा"
      ],
      [
        "द",
        "र्श"
      ],
      [
        "ज",
        "्य"
      ],
      [
        " आ",
        "सीत्"
      ],
      [
        "ष",
        "े"
      ],
      [
        "य",
        "दि"
      ],
      [
        " म",
        "न"
      ],
      [
        "द्व",
        "ि"
      ],
      [
        " र",
        "ूप"
      ],
      [
        "प्र",
        "त्य"
      ],
      [
        "र",
        "्या"
      ],
      [
        "त",
        "या"
      ],
      [
        " सु",
        "ख"
      ],
      [
        " ",
        "ष"
      ],
      [
        "ु",
        "क्त"
      ],
      [
        "ए",
        "क"
      ],
      [
        " पु",
        "रुष"
      ],
      [
        " द",
        "्र"
      ],
      [
        "च",
        "ना"
      ],
      [
        "ध",
        "े"
      ],
      [
        "त्र",
        "े"
      ],
      [
        "य",
        "ते"
      ],
      [
        "भ",
        "ेद"
      ],
      [
        "स",
        "मा"
      ],
      [
        " त",
        "ेन"
      ],
      [
        "स्त",
        "े"
      ],
      [
        "ल",
        "ः"
      ],
      [
        "न्त",
        "ः"
      ],
      [
        " ",
        "ट"
      ],
      [
        " स",
        "प्त"
      ],
      [
        "ना",
        "म"
      ],
      [
        " त्व",
        "ं"
      ],
      [
        "्य",
        "ः"
      ],
      [
        "ीय",
        "ते"
      ],
      [
        " द्व",
        "ि"
      ],
      [
        " श",
        "ब्द"
      ],
      [
        "ृ",
        "द"
      ],
      [
        " कथ",
        "ं"
      ],
      [
        " सं",
        "स्"
      ],
      [
        " पृ",
        "ष्ठ"
      ],
      [
        " श्र",
        "ु"
      ],
      [
        "क्र",
        "म"
      ],
      [
        " ",
        "ई"
      ],
      [
        " सर्व",
        "े"
      ],
      [
        " स्या",
        "त्"
      ],
      [
        "ज्ञ",
        "ा"
      ],
      [
        " ",
        "["
      ],
      [
        "ङ्",
        "क"
      ],
      [
        " य",
        "ः"
      ],
      [
        " प",
        "द"
      ],
      [
        " न",
        "मः"
      ],
      [
        "त",
        "त्र"
      ],
      [
        "त",
        "तः"
      ],
      [
        " व",
        "े"
      ],
      [
        "ो",
        "द"
      ],
      [
        " अ",
        "न"
      ],
      [
        " द",
        "ी"
      ],
      [
        " उ",
        "त्त"
      ],
      [
        "ष",
        "ि"
      ],
      [
        "_",
        "_"
      ],
      [
        " द",
        "र्श"
      ],
      [
        "स्",
        "प"
      ],
      [
        "र्",
        "ह"
      ],
      [
        "ै",
        "क"
      ],
      [
        "पू",
        "र्ण"
      ],
      [
        "भ्य",
        "ः"
      ],
      [
        "ात्",
        "म"
      ],
      [
        "ाण",
        "ां"
      ],
      [
        "व",
        "्यं"
      ],
      [
        " गु",
        "ण"
      ],
      [
        "लो",
        "क"
      ],
      [
        "कृ",
        "ति"
      ],
      [
        "ब",
        "्र"
      ],
      [
        " द",
        "ू"
      ],
      [
        "ञ",
        "्ज"
      ],
      [
        " -",
        "-"
      ],
      [
        "र्",
        "प"
      ],
      [
        "प",
        "त्त"
      ],
      [
        "e",
        "r"
      ],
      [
        " प",
        "ी"
      ],
      [
        " प",
        "ित"
      ],
      [
        "प्र",
        "ाप"
      ],
      [
        "वा",
        "च"
      ],
      [
        "मु",
        "ख"
      ],
      [
        " करो",
        "ति"
      ],
      [
        "र्",
        "द"
      ],
      [
        "ग",
        "त"
      ],
      [
        " क",
        "ाम"
      ],
      [
        "्या",
        "ः"
      ],
      [
        "ग",
        "र"
      ],
      [
        "क्त",
        "ं"
      ],
      [
        "अ",
        "न्य"
      ],
      [
        "श्च",
        "ि"
      ],
      [
        "्य",
        "म्"
      ],
      [
        " म",
        "ि"
      ],
      [
        " ल",
        "ा"
      ],
      [
        "i",
        "n"
      ],
      [
        "उ",
        "प"
      ],
      [
        "व",
        "त्"
      ],
      [
        "गु",
        "ण"
      ],
      [
        "ह",
        "ः"
      ],
      [
        "ह",
        "ित"
      ],
      [
        " ",
        "ऋ"
      ],
      [
        "र्",
        "भ"
      ],
      [
        "ध",
        "ी"
      ],
      [
        "म्",
        "भ"
      ],
      [
        " सं",
        "श"
      ],
      [
        " वि",
        "ना"
      ],
      [
        "ए",
        "त"
      ],
      [
        "य",
        "न"
      ],
      [
        "भा",
        "षा"
      ],
      [
        "ान",
        "े"
      ],
      [
        "म",
        "न"
      ],
      [
        "दा",
        "ह"
      ],
      [
        " म",
        "ां"
      ],
      [
        " ",
        "थ"
      ],
      [
        " श",
        "ा"
      ],
      [
        "ोऽ",
        "पि"
      ],
      [
        "प्र",
        "ा"
      ],
      [
        "र्",
        "घ"
      ],
      [
        " यो",
        "ग"
      ],
      [
        "त्र",
        "ि"
      ],
      [
        " क",
        "ी"
      ],
      [
        "रण",
        "ं"
      ],
      [
        "s",
        "t"
      ],
      [
        " ए",
        "त"
      ],
      [
        " द",
        "श"
      ],
      [
        "भव",
        "त्"
      ],
      [
        " प",
        "ि"
      ],
      [
        " वर्त",
        "ते"
      ],
      [
        " भा",
        "ष"
      ],
      [
        "ो",
        "ः"
      ],
      [
        "स",
        "ाम"
      ],
      [
        "ध",
        "ः"
      ],
      [
        "स्मा",
        "त्"
      ],
      [
        "प",
        "ृ"
      ],
      [
        " त",
        "तः"
      ],
      [
        "य",
        "स्य"
      ],
      [
        " क",
        "दा"
      ],
      [
        "्य",
        "ु"
      ],
      [
        "यो",
        "ज"
      ],
      [
        "ल",
        "ु"
      ],
      [
        " स",
        "ो"
      ],
      [
        "ल",
        "क्षण"
      ],
      [
        "ञ",
        "्"
      ],
      [
        "म",
        "म"
      ],
      [
        " भव",
        "ेत्"
      ],
      [
        "ल",
        "म्"
      ],
      [
        " न",
        "े"
      ],
      [
        " प",
        "रा"
      ],
      [
        "मान",
        "ं"
      ],
      [
        "त्व",
        "ात्"
      ],
      [
        "ती",
        "ति"
      ],
      [
        "ए",
        "व"
      ],
      [
        "प",
        "ः"
      ],
      [
        " स",
        "न्ति"
      ],
      [
        "ग",
        "े"
      ],
      [
        "अ",
        "तः"
      ],
      [
        " य",
        "त्र"
      ],
      [
        " प",
        "ठ"
      ],
      [
        "ध",
        "र्म"
      ],
      [
        " उ",
        "त्"
      ],
      [
        "वि",
        "शेष"
      ],
      [
        "र्थ",
        "े"
      ],
      [
        "स",
        "ौ"
      ],
      [
        "क्ष",
        "्य"
      ],
      [
        "त",
        "र"
      ],
      [
        " व",
        "द"
      ],
      [
        " त",
        "्र"
      ],
      [
        " स",
        "दा"
      ],
      [
        "ता",
        "म्"
      ],
      [
        " स्",
        "था"
      ],
      [
        " वर्ष",
        "े"
      ],
      [
        " म",
        "ान"
      ],
      [
        "व",
        "र्ण"
      ],
      [
        "नो",
        "ति"
      ],
      [
        "ो",
        "ज"
      ],
      [
        "प",
        "ाल"
      ],
      [
        " श",
        "क"
      ],
      [
        "ेश",
        "्व"
      ],
      [
        " कु",
        "र्व"
      ],
      [
        " सि",
        "द्ध"
      ],
      [
        "व्य",
        "म्"
      ],
      [
        " त",
        "द्"
      ],
      [
        " ब",
        "ाल"
      ],
      [
        "क",
        "ल"
      ],
      [
        "प",
        "रा"
      ],
      [
        " ज",
        "ु"
      ],
      [
        "1",
        "0"
      ],
      [
        " च",
        "तु"
      ],
      [
        " त",
        "र्हि"
      ],
      [
        "च्छ",
        "ति"
      ],
      [
        "े",
        "ः"
      ],
      [
        " औ",
        "र"
      ],
      [
        " अ",
        "न्त"
      ],
      [
        "a",
        "n"
      ],
      [
        "ध",
        "न"
      ],
      [
        " वि",
        "द्या"
      ],
      [
        " पर",
        "ी"
      ],
      [
        " व",
        "ेद"
      ],
      [
        " इ",
        "व"
      ],
      [
        "ष",
        "ां"
      ],
      [
        "म",
        "ह"
      ],
      [
        "ति",
        "ं"
      ],
      [
        "ित",
        "ो"
      ],
      [
        "अ",
        "नु"
      ],
      [
        "स",
        "न्"
      ],
      [
        "ाद",
        "श"
      ],
      [
        " र",
        "े"
      ],
      [
        " भविष्य",
        "ति"
      ],
      [
        "कार",
        "ः"
      ],
      [
        "ग",
        "ो"
      ],
      [
        " द",
        "ुःख"
      ],
      [
        "द",
        "ू"
      ],
      [
        "स्या",
        "ः"
      ],
      [
        "क",
        "ाम"
      ],
      [
        " लो",
        "क"
      ],
      [
        "ै",
        "र"
      ],
      [
        "१",
        "१"
      ],
      [
        "द",
        "ृष्ट"
      ],
      [
        "ड",
        "ि"
      ],
      [
        "भ",
        "ु"
      ],
      [
        "श",
        "ो"
      ],
      [
        "य",
        "ेन"
      ],
      [
        " स्",
        "प"
      ],
      [
        "ृ",
        "ण"
      ],
      [
        "ह",
        "म्"
      ],
      [
        " म",
        "ू"
      ],
      [
        "ि",
        "र"
      ],
      [
        "ाय",
        "ु"
      ],
      [
        " अ",
        "हं"
      ],
      [
        "फ",
        "ल"
      ],
      [
        "तु",
        "ः"
      ],
      [
        "य",
        "त"
      ],
      [
        " स्त",
        "्री"
      ],
      [
        " प",
        "ञ्च"
      ],
      [
        " ",
        "+"
      ],
      [
        "o",
        "n"
      ],
      [
        "श",
        "ं"
      ],
      [
        "काल",
        "े"
      ],
      [
        " प",
        "ाप"
      ],
      [
        "वि",
        "द्या"
      ],
      [
        "a",
        "r"
      ],
      [
        " कृ",
        "त्वा"
      ],
      [
        "क",
        "र"
      ],
      [
        "व",
        "ान"
      ],
      [
        "ज",
        "ि"
      ],
      [
        "ण",
        "्य"
      ],
      [
        "र्",
        "था"
      ],
      [
        "क्ष",
        "ु"
      ],
      [
        "ित",
        "ी"
      ],
      [
        "प्राप",
        "्त"
      ],
      [
        " व्य",
        "व"
      ],
      [
        "न्त",
        "ं"
      ],
      [
        " क",
        "्रिय"
      ],
      [
        "अ",
        "त्र"
      ],
      [
        "या",
        "म"
      ],
      [
        "ाय",
        "े"
      ],
      [
        "ष्ट",
        "ा"
      ],
      [
        " अ",
        "त्र"
      ],
      [
        " अ",
        "थ"
      ],
      [
        " र",
        "क्ष"
      ],
      [
        " अ",
        "ति"
      ],
      [
        " नि",
        "र्"
      ],
      [
        "भ",
        "्या"
      ],
      [
        "धिक",
        "ार"
      ],
      [
        " क्ष",
        "े"
      ],
      [
        "रे",
        "ण"
      ],
      [
        "ज",
        "्ज"
      ],
      [
        " ज्ञ",
        "ान"
      ],
      [
        " व",
        "क्त"
      ],
      [
        "__",
        "\n"
      ],
      [
        "द",
        "श"
      ],
      [
        "ट",
        "ि"
      ],
      [
        " सर्व",
        "ं"
      ],
      [
        " स्व",
        "ा"
      ],
      [
        "मु",
        "क्त"
      ],
      [
        " भा",
        "ग"
      ],
      [
        "मा",
        "त्र"
      ],
      [
        " न",
        "ो"
      ],
      [
        " आ",
        "ह"
      ],
      [
        "ु",
        "म्"
      ],
      [
        "मा",
        "स"
      ],
      [
        " प",
        "श्य"
      ],
      [
        "र्व",
        "ि"
      ],
      [
        "म",
        "ां"
      ],
      [
        "र्",
        "च"
      ],
      [
        "भ",
        "्यां"
      ],
      [
        " विद",
        "्यते"
      ],
      [
        " ख",
        "ः"
      ],
      [
        " पु",
        "ं"
      ],
      [
        "घ",
        "्र"
      ],
      [
        " द",
        "क्षि"
      ],
      [
        "20",
        "1"
      ],
      [
        "इ",
        "त्य"
      ],
      [
        " व",
        "ी"
      ],
      [
        " म",
        "नु"
      ],
      [
        " य",
        "दा"
      ],
      [
        "e",
        "n"
      ],
      [
        " ना",
        "स्ति"
      ],
      [
        "ह्",
        "म"
      ],
      [
        "नि",
        "र्"
      ],
      [
        "ष्",
        "म"
      ],
      [
        "िक",
        "ं"
      ],
      [
        "व",
        "ै"
      ],
      [
        " -",
        "\n"
      ],
      [
        " स",
        "त्य"
      ],
      [
        " न",
        "ं"
      ],
      [
        "व",
        "ो"
      ],
      [
        " व",
        "यं"
      ],
      [
        "१",
        "२"
      ],
      [
        "ा",
        "म्"
      ],
      [
        "उ",
        "त्त"
      ],
      [
        " मह",
        "ा"
      ],
      [
        "ह",
        "ू"
      ],
      [
        " द",
        "ोष"
      ],
      [
        " भ",
        "्र"
      ],
      [
        "१",
        "८"
      ],
      [
        "स्मा",
        "कं"
      ],
      [
        " क",
        "रि"
      ],
      [
        "o",
        "r"
      ],
      [
        "भू",
        "त"
      ],
      [
        " प्राप",
        "्"
      ],
      [
        "न",
        "म"
      ],
      [
        " रा",
        "ष्ट्र"
      ],
      [
        " ",
        "रि"
      ],
      [
        " प्र",
        "ाण"
      ],
      [
        "ज",
        "ः"
      ],
      [
        "द",
        "ाय"
      ],
      [
        "वा",
        "ह"
      ],
      [
        "ज",
        "ीव"
      ],
      [
        "मा",
        "ः"
      ],
      [
        " ज",
        "ान"
      ],
      [
        "भव",
        "ति"
      ],
      [
        "तु",
        "ं"
      ],
      [
        "ब",
        "द्ध"
      ],
      [
        "अ",
        "हं"
      ],
      [
        "a",
        "t"
      ],
      [
        " श",
        "ी"
      ],
      [
        " क",
        "र"
      ],
      [
        " प्र",
        "ज"
      ],
      [
        "ल",
        "भ"
      ],
      [
        "या",
        "मि"
      ],
      [
        "च",
        "ी"
      ],
      [
        "म",
        "ू"
      ],
      [
        " क",
        "्व"
      ],
      [
        "र्",
        "न"
      ],
      [
        "ार",
        "ं"
      ],
      [
        "ना",
        "य"
      ],
      [
        "ट",
        "ी"
      ],
      [
        " कि",
        "म्"
      ],
      [
        "य",
        "न्ति"
      ],
      [
        "ड",
        "ा"
      ],
      [
        "पु",
        "त्र"
      ],
      [
        "प",
        "ो"
      ],
      [
        "म",
        "्य"
      ],
      [
        "ित",
        "्यं"
      ],
      [
        " उ",
        "क्त"
      ],
      [
        " स",
        "द"
      ],
      [
        "श",
        "त"
      ],
      [
        " अ",
        "धि"
      ],
      [
        "ड",
        "्"
      ],
      [
        " केव",
        "लं"
      ],
      [
        " ज",
        "न्म"
      ],
      [
        " म",
        "ो"
      ],
      [
        "ि",
        "ति"
      ],
      [
        " म",
        "ध्ये"
      ],
      [
        "१",
        "५"
      ],
      [
        " पर",
        "ं"
      ],
      [
        "धि",
        "ः"
      ],
      [
        "ह",
        "ी"
      ],
      [
        " घ",
        "ट"
      ],
      [
        "प्र",
        "थ"
      ],
      [
        " प्र",
        "ि"
      ],
      [
        "भ",
        "्र"
      ],
      [
        "शि",
        "ष्ट"
      ],
      [
        " इत्या",
        "दि"
      ],
      [
        " पर",
        "म"
      ],
      [
        "ण",
        "ाम"
      ],
      [
        "ार",
        "ी"
      ],
      [
        " व",
        "र्ण"
      ],
      [
        "ार",
        "ि"
      ],
      [
        "मा",
        "ह"
      ],
      [
        "न",
        "स्य"
      ],
      [
        "ण",
        "ो"
      ],
      [
        " दृश",
        "्यते"
      ],
      [
        "ाव",
        "त्"
      ],
      [
        " त",
        "ेषां"
      ],
      [
        " य",
        "स्य"
      ],
      [
        "दि",
        "ति"
      ],
      [
        " वृ",
        "द्ध"
      ],
      [
        "ाद",
        "ृश"
      ],
      [
        " लि",
        "ख"
      ],
      [
        "प",
        "ित"
      ],
      [
        " ब",
        "ुद्ध"
      ],
      [
        "या",
        "त्"
      ],
      [
        " आ",
        "ग"
      ],
      [
        "प",
        "ति"
      ],
      [
        " वा",
        "च"
      ],
      [
        "क",
        "रो"
      ],
      [
        "य",
        "न्"
      ],
      [
        "ष्य",
        "ति"
      ],
      [
        " क",
        "ल"
      ],
      [
        "e",
        "s"
      ],
      [
        "व",
        "ां"
      ],
      [
        " ध",
        "ा"
      ],
      [
        "अ",
        "न"
      ],
      [
        "देश",
        "े"
      ],
      [
        "ब्",
        "ध"
      ],
      [
        "तो",
        "ऽ"
      ],
      [
        "ष",
        "ः"
      ],
      [
        "ु",
        "प"
      ],
      [
        " फ",
        "ल"
      ],
      [
        "व",
        "च"
      ],
      [
        " ",
        "ः"
      ],
      [
        "क",
        "स्य"
      ],
      [
        "म",
        "नु"
      ],
      [
        " पू",
        "र्ण"
      ],
      [
        "ाना",
        "म्"
      ],
      [
        " ह",
        "्य"
      ],
      [
        " त",
        "थ"
      ],
      [
        "भ",
        "े"
      ],
      [
        "स्त",
        "्व"
      ],
      [
        "क्त",
        "िः"
      ],
      [
        "अ",
        "त"
      ],
      [
        "व",
        "री"
      ],
      [
        "\"",
        "\n"
      ],
      [
        "त्व",
        "े"
      ],
      [
        " म",
        "ृ"
      ],
      [
        " ह",
        "ृद"
      ],
      [
        "ष",
        "्यामि"
      ],
      [
        "त्व",
        "ेन"
      ],
      [
        " पा",
        "ठ"
      ],
      [
        "्",
        "म"
      ],
      [
        "पर",
        "्य"
      ],
      [
        "०",
        "०"
      ],
      [
        " स",
        "े"
      ],
      [
        " सम",
        "ी"
      ],
      [
        " पू",
        "ज"
      ],
      [
        "ित",
        "्या"
      ],
      [
        "o",
        "m"
      ],
      [
        " ",
        "S"
      ],
      [
        "ती",
        "य"
      ],
      [
        " च",
        "े"
      ],
      [
        "ं",
        "श"
      ],
      [
        "ड",
        "़"
      ],
      [
        " अ",
        "भवत्"
      ],
      [
        " ज",
        "ि"
      ],
      [
        " ब",
        "ि"
      ],
      [
        "ध",
        "्व"
      ],
      [
        "ार",
        "ः"
      ],
      [
        " ज",
        "ल"
      ],
      [
        "ाय",
        "ं"
      ],
      [
        " क",
        "ल्प"
      ],
      [
        "रि",
        "ति"
      ],
      [
        " न",
        "्या"
      ],
      [
        "वि",
        "श्व"
      ],
      [
        "ज",
        "ी"
      ],
      [
        "व",
        "न"
      ],
      [
        "ान",
        "्व"
      ],
      [
        " प्रथ",
        "म"
      ],
      [
        " र",
        "ो"
      ],
      [
        "प",
        "ं"
      ],
      [
        "कार",
        "्य"
      ],
      [
        " भा",
        "षा"
      ],
      [
        " पृ",
        "थ"
      ],
      [
        "ब",
        "ल"
      ],
      [
        " स",
        "ौ"
      ],
      [
        " य",
        "ेन"
      ],
      [
        "थ",
        "े"
      ],
      [
        " भ",
        "ि"
      ],
      [
        "पु",
        "रुष"
      ],
      [
        "द",
        "ः"
      ],
      [
        "र्",
        "क"
      ],
      [
        "१",
        "४"
      ],
      [
        " प्र",
        "काश"
      ],
      [
        "रा",
        "ः"
      ],
      [
        "योग",
        "ः"
      ],
      [
        "ज",
        "ं"
      ],
      [
        "म",
        "न्त"
      ],
      [
        " संश",
        "यः"
      ],
      [
        "नि",
        "यम"
      ],
      [
        " प्र",
        "वि"
      ],
      [
        "ध",
        "ो"
      ],
      [
        "व",
        "ती"
      ],
      [
        " दृष्ट",
        "्वा"
      ],
      [
        "श",
        "ाल"
      ],
      [
        "ाय",
        "ः"
      ],
      [
        " ",
        "ऊ"
      ],
      [
        " पु",
        "रा"
      ],
      [
        " प्र",
        "े"
      ],
      [
        "र",
        "स्य"
      ],
      [
        " __",
        "\n"
      ],
      [
        " य",
        "ज्ञ"
      ],
      [
        " वि",
        "ध"
      ],
      [
        "ज",
        "े"
      ],
      [
        "ु",
        "म"
      ],
      [
        " प्र",
        "ती"
      ],
      [
        "ग",
        "ा"
      ],
      [
        "त",
        "ौ"
      ],
      [
        "ित",
        "्व"
      ],
      [
        "कथ",
        "ं"
      ],
      [
        " ल",
        "े"
      ],
      [
        " यु",
        "द्ध"
      ],
      [
        " व",
        "स्तु"
      ],
      [
        " अ",
        "स्य"
      ],
      [
        " स",
        "र"
      ],
      [
        "1",
        "9"
      ],
      [
        "सं",
        "स्"
      ],
      [
        "क",
        "्रिया"
      ],
      [
        "ते",
        "ः"
      ],
      [
        " क",
        "्री"
      ],
      [
        " श",
        "क्ति"
      ],
      [
        " ",
        "ओ"
      ],
      [
        "त",
        "न्त्र"
      ],
      [
        "ू",
        "न"
      ],
      [
        " ग",
        "ो"
      ],
      [
        " पु",
        "र"
      ],
      [
        " न",
        "ः"
      ],
      [
        " श",
        "री"
      ],
      [
        "ष्ट",
        "ं"
      ],
      [
        " पृ",
        "थि"
      ],
      [
        " कृ",
        "ते"
      ],
      [
        " ग",
        "च्छ"
      ],
      [
        " ज",
        "ायते"
      ],
      [
        "या",
        "म्"
      ],
      [
        " म",
        "ित्र"
      ],
      [
        "स्म",
        "ै"
      ],
      [
        " प्र",
        "ोक्त"
      ],
      [
        " म",
        "ध्य"
      ],
      [
        " क",
        "्रिया"
      ],
      [
        " सर्व",
        "त्र"
      ],
      [
        " व",
        "च"
      ],
      [
        "स",
        "ङ्"
      ],
      [
        " राज",
        "ा"
      ],
      [
        "वर्त",
        "ते"
      ],
      [
        "च",
        "र"
      ],
      [
        " प",
        "ाद"
      ],
      [
        "मा",
        "र्ग"
      ],
      [
        "a",
        "l"
      ],
      [
        " श",
        "त्र"
      ],
      [
        " भव",
        "न्ति"
      ],
      [
        " न",
        "ृ"
      ],
      [
        "१",
        "७"
      ],
      [
        " भ",
        "ु"
      ],
      [
        "द",
        "ौ"
      ],
      [
        " त",
        "मे"
      ],
      [
        "श्र",
        "ु"
      ],
      [
        "भ",
        "य"
      ],
      [
        " ",
        "I"
      ],
      [
        "न",
        "िक"
      ],
      [
        "ब",
        "ि"
      ],
      [
        "ाद",
        "्य"
      ],
      [
        "यो",
        "जन"
      ],
      [
        "ल",
        "्य"
      ],
      [
        "प",
        "न्"
      ],
      [
        " साम",
        "ान्य"
      ],
      [
        "१",
        "३"
      ],
      [
        "अ",
        "धिक"
      ],
      [
        "रो",
        "ध"
      ],
      [
        "क",
        "ेन"
      ],
      [
        "ा",
        "त्र"
      ],
      [
        "म",
        "ित्त"
      ],
      [
        " कु",
        "रु"
      ],
      [
        "ग",
        "ः"
      ],
      [
        " ",
        "ॐ"
      ],
      [
        "व",
        "्र"
      ],
      [
        "वा",
        "स"
      ],
      [
        " स",
        "ेव"
      ],
      [
        "ान",
        "ाम"
      ],
      [
        " श",
        "ो"
      ],
      [
        "अ",
        "यं"
      ],
      [
        "ग",
        "ण"
      ],
      [
        "ब",
        "ुद्ध"
      ],
      [
        "त्",
        "मा"
      ],
      [
        " इ",
        "दं"
      ],
      [
        "ाद",
        "ी"
      ],
      [
        " म",
        "ूल"
      ],
      [
        "ट",
        "े"
      ],
      [
        " कार",
        "्यं"
      ],
      [
        "अ",
        "व"
      ],
      [
        " य",
        "द"
      ],
      [
        "स",
        "ां"
      ],
      [
        " भग",
        "व"
      ],
      [
        "देश",
        "ः"
      ],
      [
        "दान",
        "ीं"
      ],
      [
        "0",
        "0"
      ],
      [
        "क",
        "म"
      ],
      [
        " ",
        "t"
      ],
      [
        " य",
        "ू"
      ],
      [
        " सा",
        "ध"
      ],
      [
        " शक",
        "्यते"
      ],
      [
        " चि",
        "न्त"
      ],
      [
        "ी",
        "म"
      ],
      [
        "स",
        "मु"
      ],
      [
        "प",
        "क्ष"
      ],
      [
        "र्व",
        "ा"
      ],
      [
        " (",
        ")"
      ],
      [
        "द",
        "त्त"
      ],
      [
        "द्र",
        "ा"
      ],
      [
        " ह",
        "ो"
      ],
      [
        " ब",
        "ल"
      ],
      [
        " च",
        "ेत्"
      ],
      [
        "ज",
        "्"
      ],
      [
        "चित",
        "्र"
      ],
      [
        "ते",
        "षां"
      ],
      [
        "श",
        "े"
      ],
      [
        "ो",
        "त्त"
      ],
      [
        "ान्त",
        "ि"
      ],
      [
        "थ",
        "ं"
      ],
      [
        "ना",
        "म्"
      ],
      [
        " ",
        "A"
      ],
      [
        "श्च",
        "ा"
      ],
      [
        "र",
        "म"
      ],
      [
        " प",
        "श"
      ],
      [
        "पर",
        "ं"
      ],
      [
        " राज",
        "्य"
      ],
      [
        "त",
        "दा"
      ],
      [
        " नि",
        "ष्"
      ],
      [
        "a",
        "g"
      ],
      [
        "े",
        "ष्ठ"
      ],
      [
        " स",
        "न्"
      ],
      [
        " सू",
        "र्य"
      ],
      [
        " न",
        "्य"
      ],
      [
        " कार",
        "ण"
      ],
      [
        "थ",
        "ः"
      ],
      [
        " स",
        "ङ्"
      ],
      [
        " न",
        "ित्य"
      ],
      [
        "पे",
        "क्ष"
      ],
      [
        "१",
        "६"
      ],
      [
        "न",
        "ानि"
      ],
      [
        "1",
        "1"
      ],
      [
        "भ",
        "ो"
      ],
      [
        "प्र",
        "ि"
      ],
      [
        "त्व",
        "म्"
      ],
      [
        " काल",
        "े"
      ],
      [
        " स्थ",
        "ान"
      ],
      [
        "र",
        "स"
      ],
      [
        "र",
        "ति"
      ],
      [
        "वृत्त",
        "ि"
      ],
      [
        "ब",
        "ा"
      ],
      [
        " भ",
        "ेद"
      ],
      [
        " स्व",
        "ी"
      ],
      [
        " ",
        "ड"
      ],
      [
        " म",
        "नो"
      ],
      [
        "स्या",
        "ं"
      ],
      [
        "सह",
        "स्र"
      ],
      [
        "या",
        "त"
      ],
      [
        "भ्य",
        "ो"
      ],
      [
        " क",
        "ः"
      ],
      [
        "ित",
        "्वा"
      ],
      [
        " द",
        "त्त"
      ],
      [
        "ष",
        "्यते"
      ],
      [
        "रूप",
        "ेण"
      ],
      [
        "ेव",
        "ं"
      ],
      [
        "य",
        "द्य"
      ],
      [
        " अ",
        "ध्य"
      ],
      [
        "ान्",
        "न"
      ],
      [
        "i",
        "i"
      ],
      [
        " प्र",
        "स"
      ],
      [
        "ष",
        "्या"
      ],
      [
        "वृ",
        "द्ध"
      ],
      [
        " स्था",
        "प"
      ],
      [
        "ख",
        "ि"
      ],
      [
        " वि",
        "द्य"
      ],
      [
        "भाव",
        "ः"
      ],
      [
        " प्र",
        "श्"
      ],
      [
        "ते",
        "षु"
      ],
      [
        " भू",
        "त"
      ],
      [
        "मु",
        "प"
      ],
      [
        "ृत",
        "ी"
      ],
      [
        "शा",
        "स्त्र"
      ],
      [
        " व",
        "्र"
      ],
      [
        "मान",
        "ः"
      ],
      [
        " त",
        "त"
      ],
      [
        "व",
        "द"
      ],
      [
        "घ",
        "ु"
      ],
      [
        "ल",
        "य"
      ],
      [
        "श",
        "ास"
      ],
      [
        " त",
        "्य"
      ],
      [
        "ग्",
        "ने"
      ],
      [
        "र",
        "क्ष"
      ],
      [
        "1",
        "2"
      ],
      [
        " अ",
        "र्थ"
      ],
      [
        " श",
        "ेष"
      ],
      [
        " य",
        "द्"
      ],
      [
        "-",
        "अ"
      ],
      [
        "कृ",
        "त्य"
      ],
      [
        "रूप",
        "ं"
      ],
      [
        "भ",
        "क्त"
      ],
      [
        "ह",
        "्य"
      ],
      [
        "त",
        "व"
      ],
      [
        "द",
        "म्"
      ],
      [
        " नि",
        "श्च"
      ],
      [
        " ब",
        "ा"
      ],
      [
        " वृ",
        "त्त"
      ],
      [
        " ल",
        "भ"
      ],
      [
        " त्व",
        "या"
      ],
      [
        " न",
        "व"
      ],
      [
        " च",
        "ैव"
      ],
      [
        "इ",
        "ट"
      ],
      [
        "ी",
        "ः"
      ],
      [
        "श",
        "क्ति"
      ],
      [
        "स्था",
        "प"
      ],
      [
        "य",
        "ौ"
      ],
      [
        " य",
        "ज"
      ],
      [
        " वि",
        "धि"
      ],
      [
        "मे",
        "र"
      ],
      [
        "व्य",
        "ः"
      ],
      [
        "यित",
        "ुं"
      ],
      [
        "ल्",
        "ल"
      ],
      [
        " सू",
        "चना"
      ],
      [
        " ए",
        "तत्"
      ],
      [
        " श",
        "क्"
      ],
      [
        " आ",
        "स"
      ],
      [
        "ास",
        "ु"
      ],
      [
        " गु",
        "रु"
      ],
      [
        "कृत",
        "ं"
      ],
      [
        " आ",
        "व"
      ],
      [
        "प",
        "ार"
      ],
      [
        "र्ग",
        "ः"
      ],
      [
        " सह",
        "स्र"
      ],
      [
        " क",
        "रण"
      ],
      [
        " क",
        "श्च"
      ],
      [
        " त",
        "म"
      ],
      [
        " प",
        "र्व"
      ],
      [
        "िक",
        "ः"
      ],
      [
        " इ",
        "ह"
      ],
      [
        "र्",
        "द्ध"
      ],
      [
        " भार",
        "त"
      ],
      [
        "व्य",
        "व"
      ],
      [
        "यु",
        "ः"
      ],
      [
        " दी",
        "र्घ"
      ],
      [
        " न",
        "ैव"
      ],
      [
        "क",
        "र्ष"
      ],
      [
        "द",
        "ो"
      ],
      [
        "ख",
        "ा"
      ],
      [
        " प",
        "े"
      ],
      [
        "इ",
        "दं"
      ],
      [
        "म",
        "ार"
      ],
      [
        " द",
        "ा"
      ],
      [
        " केव",
        "ल"
      ],
      [
        " क्रिय",
        "ते"
      ],
      [
        "ख",
        "े"
      ],
      [
        "र",
        "ू"
      ],
      [
        "्व",
        "ि"
      ],
      [
        "मि",
        "दं"
      ],
      [
        " न",
        "ित्यं"
      ],
      [
        "त",
        "द्"
      ],
      [
        "वेद",
        "न"
      ],
      [
        " पृष्ठ",
        "ानि"
      ],
      [
        "य",
        "दा"
      ],
      [
        " ध",
        "न"
      ],
      [
        "अ",
        "भि"
      ],
      [
        "पद",
        "्यते"
      ],
      [
        "े",
        "ऽ"
      ],
      [
        " ल",
        "क्षण"
      ],
      [
        " स",
        "ी"
      ],
      [
        " न",
        "र"
      ],
      [
        "द",
        "ुःख"
      ],
      [
        " ध",
        "ार"
      ],
      [
        " कि",
        "म"
      ],
      [
        " शु",
        "भ"
      ],
      [
        "सं",
        "धान"
      ],
      [
        "त",
        "न"
      ],
      [
        " ग",
        "ण"
      ],
      [
        "अ",
        "प"
      ],
      [
        " स्व",
        "यं"
      ],
      [
        " श",
        "त"
      ],
      [
        "दि",
        "ष्ट"
      ],
      [
        "i",
        "t"
      ],
      [
        "त",
        "तो"
      ],
      [
        "ह",
        "ास"
      ],
      [
        "अ",
        "पि"
      ],
      [
        "ै",
        "र्"
      ],
      [
        " वि",
        "चार"
      ],
      [
        " प्र",
        "ण"
      ],
      [
        "ना",
        "त्"
      ],
      [
        " ज",
        "नाः"
      ],
      [
        "ा",
        "र्थ"
      ],
      [
        "न्त",
        "रं"
      ],
      [
        "भ",
        "ी"
      ],
      [
        "ब",
        "ी"
      ],
      [
        "कर्त",
        "ा"
      ],
      [
        " क",
        "ौ"
      ],
      [
        " वि",
        "ज"
      ],
      [
        "1",
        "8"
      ],
      [
        "र्",
        "म्"
      ],
      [
        " त",
        "ा"
      ],
      [
        "त",
        "त"
      ],
      [
        " वि",
        "व"
      ],
      [
        " पुन",
        "र"
      ],
      [
        ".",
        ".\n"
      ],
      [
        " दु",
        "र्"
      ],
      [
        "का",
        "स"
      ],
      [
        " ",
        "ऐ"
      ],
      [
        "ाद",
        "ेश"
      ],
      [
        "अ",
        "स्य"
      ],
      [
        " उ",
        "च्यते"
      ],
      [
        "विष",
        "य"
      ],
      [
        "क",
        "ूल"
      ],
      [
        " स्व",
        "र्ग"
      ],
      [
        "ज्ञ",
        "ानं"
      ],
      [
        " प्र",
        "धान"
      ],
      [
        "1",
        "5"
      ],
      [
        "क्ष",
        "ं"
      ],
      [
        "नि",
        "ः"
      ],
      [
        " रा",
        "त्र"
      ],
      [
        "दाह",
        "रण"
      ],
      [
        "प्र",
        "स"
      ],
      [
        " आ",
        "त्म"
      ],
      [
        " श",
        "्व"
      ],
      [
        "ब",
        "हु"
      ],
      [
        "ज",
        "्यते"
      ],
      [
        " ति",
        "ष्ठ"
      ],
      [
        " म",
        "ास"
      ],
      [
        "म",
        "ित्य"
      ],
      [
        "ब",
        "ोध"
      ],
      [
        " म",
        "ृत्य"
      ],
      [
        " ह",
        "स्त"
      ],
      [
        "वि",
        "धि"
      ],
      [
        "म",
        "म्"
      ],
      [
        "ब",
        "सा"
      ],
      [
        "स्या",
        "पि"
      ],
      [
        "च",
        "्य"
      ],
      [
        "न",
        "व"
      ],
      [
        " मु",
        "क्त"
      ],
      [
        "भव",
        "ः"
      ],
      [
        "रा",
        "ष्ट्र"
      ],
      [
        "धिक",
        "रण"
      ],
      [
        " ए",
        "ष"
      ],
      [
        "स",
        "प्त"
      ],
      [
        " ग्र",
        "ह"
      ],
      [
        "m",
        "s"
      ],
      [
        "्र",
        "ा"
      ],
      [
        "प्र",
        "े"
      ],
      [
        "i",
        "v"
      ],
      [
        " व",
        "ार"
      ],
      [
        " ",
        "ि"
      ],
      [
        "ग्र",
        "े"
      ],
      [
        " ",
        "P"
      ],
      [
        " भाव",
        "ः"
      ],
      [
        "ब",
        "ाल"
      ],
      [
        " श",
        "क्त"
      ],
      [
        " इत्य",
        "स्य"
      ],
      [
        " ज्ञ",
        "ा"
      ],
      [
        " स्म",
        "ृ"
      ],
      [
        " क",
        "ेन"
      ],
      [
        "लि",
        "ख"
      ],
      [
        "प",
        "दा"
      ],
      [
        " लो",
        "के"
      ],
      [
        " ब्र",
        "ह्म"
      ],
      [
        "ज्ञ",
        "ः"
      ],
      [
        "रु",
        "द्ध"
      ],
      [
        "क",
        "ू"
      ],
      [
        " न",
        "ी"
      ],
      [
        " क्षे",
        "त्र"
      ],
      [
        " नि",
        "य"
      ],
      [
        "ट",
        "ा"
      ],
      [
        " कार",
        "्या"
      ],
      [
        "च",
        "तु"
      ],
      [
        "म",
        "व"
      ],
      [
        "न्त",
        "्य"
      ],
      [
        "ृण",
        "ु"
      ],
      [
        "सं",
        "ख्या"
      ],
      [
        " य",
        "थ"
      ],
      [
        "ेष",
        "्व"
      ],
      [
        "पु",
        "नः"
      ],
      [
        " ",
        "ङ"
      ],
      [
        "य",
        "ी"
      ],
      [
        "सु",
        "ख"
      ],
      [
        "क्ष",
        "ः"
      ],
      [
        "म",
        "ध्ये"
      ],
      [
        "िक",
        "े"
      ],
      [
        " य",
        "द्य"
      ],
      [
        "ने",
        "क"
      ],
      [
        " सम्",
        "बन्ध"
      ],
      [
        " पर",
        "स्"
      ],
      [
        " कि",
        "ञ्च"
      ],
      [
        " ए",
        "कः"
      ],
      [
        "ृत",
        "ं"
      ],
      [
        "सा",
        "ध"
      ],
      [
        " यु",
        "क्त"
      ],
      [
        "बसा",
        "इट"
      ],
      [
        "म",
        "न्त्र"
      ],
      [
        "त",
        "ाव"
      ],
      [
        " पर",
        "मा"
      ],
      [
        "इ",
        "ह"
      ],
      [
        "श",
        "क्त"
      ],
      [
        " पुन",
        "र्"
      ],
      [
        "स्त",
        "था"
      ],
      [
        "क",
        "ेव"
      ],
      [
        " व",
        "र"
      ],
      [
        "ग",
        "ी"
      ],
      [
        " वि",
        "कल्प"
      ],
      [
        " इ",
        "च्छ"
      ],
      [
        "द",
        "क्षि"
      ],
      [
        " सा",
        "क्ष"
      ],
      [
        "द",
        "ोष"
      ],
      [
        " ध",
        "्य"
      ],
      [
        "ित",
        "ीय"
      ],
      [
        "ो",
        "ं"
      ],
      [
        " पु",
        "स्त"
      ],
      [
        " पूर्व",
        "ं"
      ],
      [
        "म",
        "स्ति"
      ],
      [
        "क",
        "्रिय"
      ],
      [
        " त्व",
        "ां"
      ],
      [
        "ु",
        "व"
      ],
      [
        "न्",
        "थ"
      ],
      [
        "ेष",
        "ण"
      ],
      [
        " नि",
        "यम"
      ],
      [
        " भव",
        "े"
      ],
      [
        "ध",
        "्यते"
      ],
      [
        " न",
        "्"
      ],
      [
        " स्व",
        "प्"
      ],
      [
        "च",
        "ा"
      ],
      [
        " ह",
        "रि"
      ],
      [
        " मा",
        "र्ग"
      ],
      [
        "प",
        "या"
      ],
      [
        " ख",
        "लु"
      ],
      [
        "फ",
        "ु"
      ],
      [
        "पर",
        "ी"
      ],
      [
        "प",
        "ञ्च"
      ],
      [
        "िक",
        "ी"
      ],
      [
        "द्व",
        "ा"
      ],
      [
        " नि",
        "र्म"
      ],
      [
        "पु",
        "न"
      ],
      [
        " द्व",
        "िती"
      ],
      [
        " कु",
        "र्या"
      ],
      [
        " ह",
        "ै"
      ],
      [
        "लि",
        "ङ्ग"
      ],
      [
        "ित",
        "ानि"
      ],
      [
        "ध",
        "ं"
      ],
      [
        " ज",
        "ात"
      ],
      [
        " इत्य",
        "र्थः"
      ],
      [
        " दृश",
        "्य"
      ],
      [
        "र्थ",
        "ि"
      ],
      [
        " म",
        "न्त्र"
      ],
      [
        " प्राप्",
        "नोति"
      ],
      [
        "स",
        "र"
      ],
      [
        " शी",
        "घ्र"
      ],
      [
        " य",
        "त"
      ],
      [
        " भाष",
        "ण"
      ],
      [
        "यित",
        "्वा"
      ],
      [
        "r",
        "e"
      ],
      [
        "कृ",
        "ते"
      ],
      [
        " कुर्व",
        "न्ति"
      ],
      [
        "न्त",
        "र"
      ],
      [
        "क",
        "्व"
      ],
      [
        "द",
        "ार"
      ],
      [
        " प",
        "ार"
      ],
      [
        "ब",
        "ु"
      ],
      [
        "रा",
        "त्र"
      ],
      [
        " प्र",
        "योग"
      ],
      [
        " य",
        "तः"
      ],
      [
        " सम्",
        "बद्ध"
      ],
      [
        "मे",
        "ण"
      ],
      [
        " व",
        "ो"
      ],
      [
        "ान्त",
        "र"
      ],
      [
        " भव",
        "तः"
      ],
      [
        "्ये",
        "त"
      ],
      [
        " यो",
        "ज"
      ],
      [
        " नि",
        "र"
      ],
      [
        " ध",
        "्व"
      ],
      [
        "ग",
        "च्छ"
      ],
      [
        " अ",
        "ध्या"
      ],
      [
        " अ",
        "ग्नि"
      ],
      [
        " ",
        "s"
      ],
      [
        " विष",
        "ये"
      ],
      [
        " स",
        "ति"
      ],
      [
        " अ",
        "यं"
      ],
      [
        "ऽ",
        "ऽ"
      ],
      [
        " समु",
        "द्र"
      ],
      [
        " द्र",
        "ष्ट"
      ],
      [
        " आ",
        "र"
      ],
      [
        "त",
        "ाम"
      ],
      [
        " वि",
        "भाग"
      ],
      [
        " व",
        "स"
      ],
      [
        "प्र",
        "श्"
      ],
      [
        "]",
        "\n"
      ],
      [
        " स",
        "व"
      ],
      [
        "स्",
        "ट"
      ],
      [
        "अन्य",
        "था"
      ],
      [
        " त",
        "त्त्व"
      ],
      [
        "ो",
        "त्"
      ],
      [
        "्य",
        "स्य"
      ],
      [
        " अ",
        "स"
      ],
      [
        "धु",
        "ना"
      ],
      [
        "st",
        "r"
      ],
      [
        "िक",
        "ाः"
      ],
      [
        " प्रा",
        "र्थ"
      ],
      [
        "प",
        "त्र"
      ],
      [
        " द",
        "ृ"
      ],
      [
        "दि",
        "श"
      ],
      [
        "कार",
        "ं"
      ],
      [
        "न",
        "ीय"
      ],
      [
        "वि",
        "भाग"
      ],
      [
        "कार",
        "ेण"
      ],
      [
        "प",
        "दं"
      ],
      [
        " स",
        "मान"
      ],
      [
        " त",
        "ो"
      ],
      [
        "l",
        "e"
      ],
      [
        " ए",
        "का"
      ],
      [
        "न",
        "ौ"
      ],
      [
        " ब",
        "ाह"
      ],
      [
        "स",
        "ेव"
      ],
      [
        " उ",
        "द्"
      ],
      [
        "ह",
        "र"
      ],
      [
        " ",
        "T"
      ],
      [
        " च",
        "ित्र"
      ],
      [
        " ",
        "M"
      ],
      [
        "ह",
        "स्त"
      ],
      [
        " वि",
        "स्त"
      ],
      [
        "o",
        "u"
      ],
      [
        "घ",
        "ा"
      ],
      [
        "र्थ",
        "म्"
      ],
      [
        " शा",
        "स्त्र"
      ],
      [
        "द",
        "पि"
      ],
      [
        "प",
        "त्"
      ],
      [
        " ",
        "m"
      ],
      [
        "स",
        "र्ग"
      ],
      [
        "ज",
        "ो"
      ],
      [
        " वि",
        "ज्ञ"
      ],
      [
        " ले",
        "ख"
      ],
      [
        " श",
        "क्य"
      ],
      [
        "ग",
        "ं"
      ],
      [
        " सम",
        "्य"
      ],
      [
        "1",
        "4"
      ],
      [
        "वि",
        "धान"
      ],
      [
        "्यो",
        "ति"
      ],
      [
        " संस्",
        "कृत"
      ],
      [
        "ृ",
        "हं"
      ],
      [
        " न",
        "ग"
      ],
      [
        " अ",
        "स्माकं"
      ],
      [
        " त",
        "प"
      ],
      [
        " ग",
        "ति"
      ],
      [
        "ाह",
        "्म"
      ],
      [
        "ले",
        "ख"
      ],
      [
        "ज",
        "ग"
      ],
      [
        "र्त",
        "ि"
      ],
      [
        " फ",
        "लं"
      ],
      [
        " व",
        "न"
      ],
      [
        "द",
        "ृ"
      ],
      [
        "भ",
        "ः"
      ],
      [
        " व",
        "ाम"
      ],
      [
        "न्",
        "दि"
      ],
      [
        " ब",
        "ह"
      ],
      [
        " ब",
        "ु"
      ],
      [
        "म्",
        "ह"
      ],
      [
        " ",
        "झ"
      ],
      [
        "व",
        "स्तु"
      ],
      [
        "म",
        "या"
      ],
      [
        " सर्व",
        "दा"
      ],
      [
        " इत्य",
        "ेत"
      ],
      [
        "च्छ",
        "ेद"
      ],
      [
        "म",
        "ौ"
      ],
      [
        "२",
        "२"
      ],
      [
        " ल",
        "क्ष"
      ],
      [
        "घ",
        "्"
      ],
      [
        " म",
        "ात"
      ],
      [
        "त्य",
        "ं"
      ],
      [
        " रु",
        "प"
      ],
      [
        "च",
        "े"
      ],
      [
        "३",
        "०"
      ],
      [
        "ष्ट",
        "ि"
      ],
      [
        " व",
        "र्ध"
      ],
      [
        "i",
        "c"
      ],
      [
        "्",
        "ल"
      ],
      [
        "य",
        "ान"
      ],
      [
        " दक्षि",
        "ण"
      ],
      [
        "सा",
        "धन"
      ],
      [
        " ",
        "C"
      ],
      [
        " त",
        "ां"
      ],
      [
        "स्थ",
        "ित"
      ],
      [
        " प्र",
        "व"
      ],
      [
        "--",
        "-"
      ],
      [
        "ट",
        "ः"
      ],
      [
        " त",
        "तो"
      ],
      [
        " प्र",
        "सिद्ध"
      ],
      [
        "े",
        "क"
      ],
      [
        " ई",
        "श्व"
      ],
      [
        "म",
        "ृ"
      ],
      [
        "म",
        "ध्य"
      ],
      [
        "ह",
        "िं"
      ],
      [
        "द्ध",
        "ि"
      ],
      [
        " अधि",
        "नियम"
      ],
      [
        "ित",
        "ुं"
      ],
      [
        "त",
        "स्मा"
      ],
      [
        " प",
        "िता"
      ],
      [
        "२०",
        "१"
      ],
      [
        "क",
        "ौ"
      ],
      [
        " क",
        "म"
      ],
      [
        " प्र",
        "यत्"
      ],
      [
        " पर",
        "्य"
      ],
      [
        " सू",
        "त्र"
      ],
      [
        "२",
        "५"
      ],
      [
        "त्त",
        "े"
      ],
      [
        "ष",
        "ण"
      ],
      [
        "ित",
        "वान्"
      ],
      [
        " सर्व",
        "ा"
      ],
      [
        "म",
        "य"
      ],
      [
        " प्र",
        "कृति"
      ],
      [
        " ह",
        "ृ"
      ],
      [
        "ाण",
        "्"
      ],
      [
        "a",
        "m"
      ],
      [
        "शि",
        "क्षण"
      ],
      [
        "चित",
        "्त"
      ],
      [
        "ग",
        "तं"
      ],
      [
        " उ",
        "च्च"
      ],
      [
        "त्या",
        "दि"
      ],
      [
        "साम",
        "ान्य"
      ],
      [
        "प",
        "न्न"
      ],
      [
        "े",
        "य"
      ],
      [
        " त",
        "ाव"
      ],
      [
        " प्र",
        "य"
      ],
      [
        "ान्त",
        "े"
      ],
      [
        "ह",
        "ाय"
      ],
      [
        " श",
        "ुद्ध"
      ],
      [
        "फ",
        "लं"
      ],
      [
        "त्त",
        "ा"
      ],
      [
        " म",
        "धु"
      ],
      [
        "भाव",
        "े"
      ],
      [
        " श्र",
        "ी"
      ],
      [
        " समा",
        "प्त"
      ],
      [
        " प्र",
        "माण"
      ],
      [
        "क्ष",
        "्यामि"
      ],
      [
        " विष",
        "य"
      ],
      [
        " भग",
        "वान्"
      ],
      [
        "भ",
        "ग"
      ],
      [
        "न्",
        "नि"
      ],
      [
        "न",
        "ान"
      ],
      [
        "पि",
        "ं"
      ],
      [
        " सं",
        "ख्या"
      ],
      [
        "्या",
        "व"
      ],
      [
        " वि",
        "नि"
      ],
      [
        " कार",
        "णं"
      ],
      [
        "म",
        "ेन"
      ],
      [
        "e",
        "d"
      ],
      [
        "अ",
        "ति"
      ],
      [
        "ष्",
        "मा"
      ],
      [
        "म",
        "ान्"
      ],
      [
        "कार",
        "ण"
      ],
      [
        "ग्र",
        "ाम"
      ],
      [
        "स",
        "ेन"
      ],
      [
        " प्र",
        "च"
      ],
      [
        "ार",
        "ो"
      ],
      [
        "ना",
        "पि"
      ],
      [
        "प",
        "ाप"
      ],
      [
        " परि",
        "वर्त"
      ],
      [
        "्या",
        "य"
      ],
      [
        " द्व",
        "ारा"
      ],
      [
        "प्र",
        "योग"
      ],
      [
        " अनु",
        "संधान"
      ],
      [
        "्व",
        "ः"
      ],
      [
        "ms",
        "g"
      ],
      [
        "मु",
        "च्यते"
      ],
      [
        "msg",
        "str"
      ],
      [
        " श",
        "ू"
      ],
      [
        "व",
        "र"
      ],
      [
        " कर्त",
        "ुं"
      ],
      [
        " भव",
        "ान्"
      ],
      [
        " द्व",
        "ादश"
      ],
      [
        "ो",
        "त"
      ],
      [
        " य",
        "ावत्"
      ],
      [
        " को",
        "ई"
      ],
      [
        "ं",
        "स"
      ],
      [
        " भ",
        "क्त"
      ],
      [
        "न",
        "ग"
      ],
      [
        "२",
        "४"
      ],
      [
        "पू",
        "ज"
      ],
      [
        "व",
        "त्स"
      ],
      [
        " त",
        "द्व"
      ],
      [
        "व",
        "ाय"
      ],
      [
        " सं",
        "सार"
      ],
      [
        " अ",
        "त्य"
      ],
      [
        "ी",
        "र"
      ],
      [
        "1",
        "3"
      ],
      [
        " च",
        "ित्त"
      ],
      [
        " मा",
        "ता"
      ],
      [
        " क",
        "स्य"
      ],
      [
        " वा",
        "क्य"
      ],
      [
        "य",
        "त्र"
      ],
      [
        "ह",
        "ृद"
      ],
      [
        "क्र",
        "ी"
      ],
      [
        " सम्बद्ध",
        "ानि"
      ],
      [
        "म",
        "ूल"
      ],
      [
        " दि",
        "न"
      ],
      [
        "om",
        "e"
      ],
      [
        " ",
        "p"
      ],
      [
        "न्त",
        "ी"
      ],
      [
        "षे",
        "ध"
      ],
      [
        "न",
        "न्द"
      ],
      [
        " क्ष",
        "ण"
      ],
      [
        "विष",
        "ये"
      ],
      [
        "ह",
        "स्य"
      ],
      [
        " व",
        "ायु"
      ],
      [
        " नि",
        "र्व"
      ],
      [
        " गृह",
        "े"
      ],
      [
        "त्रा",
        "पि"
      ],
      [
        " वि",
        "ष्ण"
      ],
      [
        "वि",
        "श"
      ],
      [
        "मान",
        "ा"
      ],
      [
        "पत्त",
        "ि"
      ],
      [
        "1",
        "7"
      ],
      [
        " न",
        "ै"
      ],
      [
        "न",
        "ै"
      ],
      [
        "ष्ट",
        "ः"
      ],
      [
        " र",
        "ोग"
      ],
      [
        "i",
        "on"
      ],
      [
        "क",
        "्यं"
      ],
      [
        " सर्व",
        "्व"
      ],
      [
        " व",
        "ाय"
      ],
      [
        " क्री",
        "ड"
      ],
      [
        "ह",
        "ितः"
      ],
      [
        " ब",
        "हि"
      ],
      [
        "स्व",
        "ा"
      ],
      [
        " देव",
        "ा"
      ],
      [
        "श्",
        "ल"
      ],
      [
        "स्त",
        "ा"
      ],
      [
        "ष",
        "्व"
      ],
      [
        " सर्व",
        "ेषां"
      ],
      [
        " प्रा",
        "तः"
      ],
      [
        "ग",
        "तः"
      ],
      [
        "ज",
        "ल"
      ],
      [
        " प",
        "ति"
      ],
      [
        " उप",
        "योग"
      ],
      [
        "२",
        "१"
      ],
      [
        "प",
        "ात"
      ],
      [
        "ान",
        "ी"
      ],
      [
        "ना",
        "श"
      ],
      [
        " उत्त",
        "र"
      ],
      [
        " परी",
        "क्षा"
      ],
      [
        " ज",
        "ाना"
      ],
      [
        " अ",
        "ती"
      ],
      [
        "ष्",
        "प"
      ],
      [
        "व",
        "ाः"
      ],
      [
        " ग",
        "तः"
      ],
      [
        "पु",
        "रा"
      ],
      [
        "a",
        "d"
      ],
      [
        " हे",
        "तु"
      ],
      [
        " ",
        "B"
      ],
      [
        " प",
        "दा"
      ],
      [
        "करण",
        "े"
      ],
      [
        " ",
        "N"
      ],
      [
        "पृ",
        "ष्ठ"
      ],
      [
        "व",
        "र्ज"
      ],
      [
        "सं",
        "युक्त"
      ],
      [
        " वे",
        "बसाइट"
      ],
      [
        " न",
        "ु"
      ],
      [
        "मा",
        "त्"
      ],
      [
        " अ",
        "तः"
      ],
      [
        " स",
        "ार"
      ],
      [
        " पर",
        "म्"
      ],
      [
        "म",
        "ण्ड"
      ],
      [
        " क",
        "श्चि"
      ],
      [
        "पाद",
        "न"
      ],
      [
        "भ",
        "ौ"
      ],
      [
        " स",
        "िं"
      ],
      [
        "स",
        "ृ"
      ],
      [
        "ै",
        "ल"
      ],
      [
        "ह",
        "िता"
      ],
      [
        " ",
        "c"
      ],
      [
        " सं",
        "युक्त"
      ],
      [
        " ",
        "b"
      ],
      [
        "अ",
        "न्त"
      ],
      [
        "i",
        "s"
      ],
      [
        "न्द",
        "ु"
      ],
      [
        "म",
        "त"
      ],
      [
        "ु",
        "त्"
      ],
      [
        " अ",
        "मेर"
      ],
      [
        " प",
        "ाल"
      ],
      [
        " इ",
        "न्द्र"
      ],
      [
        "सर्व",
        "ं"
      ],
      [
        " ",
        "L"
      ],
      [
        "मा",
        "य"
      ],
      [
        "पा",
        "ठ"
      ],
      [
        " त",
        "स्या"
      ],
      [
        " श",
        "्"
      ],
      [
        "ेव",
        "ाः"
      ],
      [
        "२",
        "७"
      ],
      [
        "स्व",
        "रूप"
      ],
      [
        " ",
        "f"
      ],
      [
        "करण",
        "ं"
      ],
      [
        " र",
        "स"
      ],
      [
        " मु",
        "ख"
      ],
      [
        " द",
        "ण्ड"
      ],
      [
        "र्त",
        "्त"
      ],
      [
        " न",
        "ू"
      ],
      [
        "न",
        "नु"
      ],
      [
        " वि",
        "कि"
      ],
      [
        "र्म्",
        "म"
      ],
      [
        "त",
        "ृ"
      ],
      [
        " य",
        "ाव"
      ],
      [
        " वि",
        "प्र"
      ],
      [
        " ग",
        "ि"
      ],
      [
        "दि",
        "न"
      ],
      [
        "त्त",
        "ु"
      ],
      [
        " सु",
        "र"
      ],
      [
        " त",
        "स्मा"
      ],
      [
        "सा",
        "ह"
      ],
      [
        " य",
        "ं"
      ],
      [
        " नि",
        "र्ण"
      ],
      [
        " -",
        "--"
      ],
      [
        "ा",
        "या"
      ],
      [
        " म",
        "हि"
      ],
      [
        "प्र",
        "काश"
      ],
      [
        "२०",
        "०"
      ],
      [
        "ाद",
        "ौ"
      ],
      [
        "ान्त",
        "ः"
      ],
      [
        " ग्र",
        "ाम"
      ],
      [
        "म",
        "ति"
      ],
      [
        " ज",
        "ू"
      ],
      [
        " ए",
        "वा"
      ],
      [
        " स",
        "क"
      ],
      [
        "लो",
        "के"
      ],
      [
        "en",
        "t"
      ],
      [
        "स",
        "द"
      ],
      [
        "ार",
        "े"
      ],
      [
        "स्त",
        "्री"
      ],
      [
        "कृ",
        "ता"
      ],
      [
        " कृ",
        "ता"
      ],
      [
        "स",
        "न्ध"
      ],
      [
        "म",
        "स्य"
      ],
      [
        "त्त",
        "ि"
      ],
      [
        "न्त",
        "ो"
      ],
      [
        " तथा",
        "पि"
      ],
      [
        " वर्त",
        "मान"
      ],
      [
        " आव",
        "श्य"
      ],
      [
        " ग",
        "म"
      ],
      [
        " कि",
        "न्तु"
      ],
      [
        " द",
        "ैव"
      ],
      [
        "ध",
        "्"
      ],
      [
        "रु",
        "ण"
      ],
      [
        "ग",
        "ि"
      ],
      [
        "र",
        "ेव"
      ],
      [
        " स",
        "्य"
      ],
      [
        " प्र",
        "भाव"
      ],
      [
        "र",
        "क्षण"
      ],
      [
        " अ",
        "त"
      ],
      [
        " अ",
        "द्य"
      ],
      [
        " प",
        "क्ष"
      ],
      [
        " ग",
        "त"
      ],
      [
        " जन",
        "वरी"
      ],
      [
        " देश",
        "े"
      ],
      [
        "1",
        "6"
      ],
      [
        " श्रु",
        "त्वा"
      ],
      [
        " च",
        "ै"
      ],
      [
        "ार",
        "ु"
      ],
      [
        " भार",
        "तीय"
      ],
      [
        " विशेष",
        "तः"
      ],
      [
        " त",
        "ौ"
      ],
      [
        "स्",
        "क"
      ],
      [
        " प्राप",
        "्य"
      ],
      [
        "स्म",
        "ान्"
      ],
      [
        "अ",
        "द्य"
      ]
    ]
  }
}