#version: 0.2
ه ه
ا ن
  ج
  ا
  م
  ڪ
  ت
هه هه
. 

ه ي
  آ
  س
  و
ر ي
 ج ي
ه ن
  پ
  ک
ي ن
و ن
  ه
  ب
  ن
 آ هي
ا ر
ي و
ل ا
  ۾
  ٿ
ئ ي
ا ل
 ک ي
  ر
ي ا
ـ ـ
  ۽
هههه هههه
 ج و
  ان
و ر
ل ي
ن د
ج ي
  گ
 ت ه
  ش
ا ئ
  ع
ن هن
  د
  ڏ
  لا
 ت ي
  خ
  چ
  ح
 ا س
ا م
  ف
ه و
  ،
  .
 ڪ ري
ت ي
د ي
ا ڻ
ء ِ
ر و
 ک ان
 ه ڪ
 س ان
ا ري
  ل
  ٻ
 ب ه
 ٿ ي
 ڪ ر
 ن ه
ا ب
  ق
د ا
ي ر
  ط
ا س
ا ئي
ي ڪ
  ص
 آ هن
 ڪر ڻ
 ه و
ــ ــ
 ت و
 ا ل
ه ر
ن ي
د و
 ٿ و
ه ان
م ي
 ا ي
  هههههههه
ه ا
ڪ ي
 لا ءِ
  هن
  ڇ
ء َ
و ل
 پ ي
  يا
نهن جي
س ت
 م و
ر ا
 س گ
  ي
  ڊ
ٽ ي
ج و
 ڪ يو
س ي
ا ي
 ڪ ي
 اس ان
ڏ هن
ل و
 م ن
ا ت
ق ي
  هي
  (
  ز
ن گ
 تو هان
 ج ا
 ا هو
ا هي
ائ ين
 م ان
ق ت
ڪ و
ھ ن
ان ي
 ڪ ند
 ٿ ا
  ڳ
ڙ ي
ھ ي
  .

هه ه
ا د
 پ ر
 م ع
 پ و
ري ن
  "
 و ي
ئ ن
 م ي
 و ڌ
  ٽ
! 

ر ف
  ئي
ب ي
 ب ي
 ڪ و
 و ا
 ڪ م
 ر و
  ڀ
ب ر
 لا ء
 ر هي
ش ن
 م ون
 و يو
ا ص
 پ نهنجي
ت و
ل ه
ا ز
 م ا
 س و
م ت
ئ ين
 ط ور
ور ت
 ا و
ا ف
ک ي
 و ڃ
 اس ت
ٽ ر
گ ر
ڏ ي
ا ا
ه ڻ
  ض
ع م
اڻ ي
؟ 

  غ
گ ي
ا ڪ
 س ڀ
ه م
س م
 ڏ ين
س ٽ
م ون
م ل
، 

و ي
  ذ
 ان هن
ال ي
 خ و
 م ل
 و ين
د ر
ت ر
  ھ
ع ي
ار و
چ ي
 س ي
  -
 م اڻ
 و قت
 ه ون
ڙ و
 م ح
 س م
 وڌ يڪ
2 0
  ك
س و
ڪ ا
 پ ه
ن يا
 ف ي
  هههه
 س ال
 آ ھي
 ب ر
 گ هر
م ن
عم ال
 ڏ ي
ج هه
م ان
ص و
ن ا
خ ت
 ا ين
 ڪ ئي
 است عمال
 د ر
د ار
ا هو
 و ر
 هههههههه هههه
 ه ئي
 ش ي
 ت ائين
ــــ ــــ
ب و
 و اري
 س ر
 ڳ ال
ائ ڻ
 م ش
ڪ ن
 ت ع
 ا ڳ
ن و
پ ي
 ت ر
ا ه
 م س
اس ان
 م ر
 ڪري و
ف ي
  ري
 ه ر
ز ي
ج ن
م و
 جي ڪو
ان هن
 ڇ ا
  ٺ
 ٿ ين
 ج نهن
ف ت
 چ يو
 ڪ ن
 ڪ نهن
ند ي
م ا
پ ر
ڪ ر
 سگ هي
 ن ظ
ي ت
 م ق
اص ل
س ان
 گ ڏ
 وڃ ي
 ڏين هن
i n
 ج ن
م ام
ڪ ڏهن
ئ ر
ه ڪ
ند س
 ڪ جهه
ار ن
ا ح
ٺ ي
 ر ک
 ڊ ي
هههههههه هههه
: 

 جي ڪي
نهن جو
ئ ون
پ و
  لي
م ين
ٿ ي
ر ح
  ڌ
 ح اصل
 ل ڳ
جو د
ب ل
 ا هي
 ش ا
 ض ر
ڪ ل
ش ي
 ٻ ڌ
 س ن
  ٽي
ڻ ي
ث ر
 ن و
رو ع
ب ت
 ه ئ
 م ط
 گ ه
 ا ع
 ن اهي
 س ا
ند و
e r
 ش روع
 د و
 ا ز
ا يو
ڪ ار
 ا ه
) 

ل م
 ت مام
 پ اڻ
س ن
  ڄ
م ر
 ب ا
 ا ح
 ت ح
 ع لي
ج ا
 ا ها
 پو ءِ
لا م
 ٿ يو
اب ت
ف ر
ء ُ
ت ن
ــ ـ
ھ ان
 رهي و
 گ هڻ
ن ڊ
 پ رو
 ا ص
د ه
 ڪ ار
 ج ون
 ڇ ڏ
 ال له
ام ي
ائ ن
 گ ھ
ح ي
 م نهنجي
ام ل
 ف ر
ع و
 و ئي
ال و
ند گي
ل ف
ت م
د ڙ
 د نيا
 پ ن
و و
 ڪ ا
د ن
ص ي
 ج ڏهن
 د ور
 و ٽ
1 9
 ب س
ڪ ري
 ضر ورت
 ان ت
م ري
ٺ و
 م د
 وين دو
 چ ي
ك م
 ه ا
ا هر
 ٿي ڻ
 ڇ و
ب ا
0 0
 و ڏي
 ماڻ هو
 و يا
 هههههههه هههههههه
ل ب
  يو
 ع لا
ين ي
ع د
 س ب
ھ و
 پ ڻ
 پي دا
 سم ج
 پي ش
 س ندس
 م خت
ائ ون
ست ان
 ٻ ي
 ان هي
 مو جود
 ا چي
o n
20 1
a r
 ا خ
 پ ار
 ط رف
ف ا
ي م
 آ ر
 چ و
 م ت
 ڪند و
 م ار
 د ل
 چ ون
و لي
 ب ابت
ل ن
 ص رف
ٽ و
ع ني
 چ اهي
 و ڏ
 ت ب
 ا ُ
a n
 خ اص
ند ا
 ط ري
ر ن
 ز ندگي
ب ه
 ا م
" 

 ڏ س
ند ڙ
ت اب
 ل ک
ڊ ي
 ش امل
م بر
ج ر
 ن ا
 ع مل
پ ور
 پ ڙ
 ماڻ هن
ق و
 ڪي ئن
س ل
 ڪ ڏهن
س ين
 هههههههه ه
ا تي
ب ن
 ڪند ا
 هئ ا
  s
ري ون
 و ارو
 سڀ ني
ط ي
 آهي ان
 ل و
 ڪ ه
ٽ ن
 گه ٽ
خ ر
e s
 مخت لف
خ و
هي ن
 ب ڻ
 رهي ا
ش ت
ال له
 ط رح
۔ ۔
ڳ و
 غ ير
اس ت
 ڪم پ
 هون دي
 ق سم
 ڳال هه
 ت ن
 نظ ر
ار ا
 مد د
 هههه ههه
 و ان
س ر
 ڏي ڻ
 ڏ انهن
 ت ون
 ر ا
 گهر جي
  أ
 ن ي
 ڪند ي
اا اا
ض ي
د م
 خ ي
 س ائي
 م ڪ
 ڪي تر
ڊ يو
 هون دو
 خ بر
 آهي ون
و ا
a t
م د
اي د
 ڪند ڙ
ت رين
اري خ
 وا ق
ذ ا
ان د
  ظ
 هههههههه ههه
ت ون
 ٻ ئي
ڙ ا
 گ ذ
 ف و
 ان در
 ا ج
 ٿي ل
ه ون
ز ا
ٽ ا
 وا پ
 ڪ يا
ب ار
 ع ام
 ق و
ر س
 ن ق
 و چ
 ذ ري
 جي ڪا
ڪ س
e n
هههههههه هههههههه
ش ه
 ن ن
اف ي
ز ن
 ٻ ن
 جي ڪڏهن
 جي ئن
 سب ب
ش ش
ري ل
 ب ل
 مڪ مل
 ڪ تاب
1 0
 ح ال
ز ار
 ف ائ
 س يا
 ر س
ر ت
ا و
 ا چ
جي ڪڏهن
 ق ي
 پ ري
o r
 گ ر
 ت اريخ
 ٻ ين
 اي س
 ح قي
لا ح
ف ظ
ل ى
 ج ه
ل س
 خ تم
 د ا
 آ ھن
 ش هر
a l
 ب نيا
 ن الو
  /
ع ت
 ا ڪ
 سگ هو
ض ح
 ج م
 جو اب
 ٿين دو
 ھ ڪ
 تب دي
  !

  _
 آ مري
ڪي ٽ
ح ال
ڌ ي
 پ س
 گهڻ و
 ن ئين
 ع ورت
 ب ين
 ڇڏ يو
تو هان
 سال ن
ف و
ت ا
  ث
 س يڪ
ور و
 مل ڪ
ج ھ
  A
خ ل
 ت ق
 پ يو
 ا د
 يا د
 ڏ ئي
 ٿ ئي
ي ان
 ر هن
 ڪ ون
ب س
ش ا
 ب عد
رو ري
ر ب
 کي س
 و ٺ
 مس ئ
 پ نهنجو
 ب د
پو ءِ
  S
ان ون
ج ه
ع ا
 ا دا
 ه ل
گ ري
ج ب
ض و
 آ ن
 وڏ و
  t
 ب ند
 و ري
 ڏ نو
 ڇ ڏي
 اي م
 خ لا
 ي ق
 پ يا
 م لي
ان هي
 ن ٿ
 ف ون
 پ اڪ
 ه ٿ
 ا هم
 سگ هن
 ا ڄ
ير ا
 ا ڃ
 اس ڪ
 آ يو
ار ف
ل ين
لو م
  ڦ
 ڏ ا
 م ث
ح ت
 ص ورت
 هههه ه
 خ ر
 ۾ ،
 و ٺي
ڇ ا
 ٺ اهي
 ه جي
 ڀ ي
س ا
و ار
 هههههههه هه
پور ٽ
ڍ ي
 وين دي
 خ ط
 خي ال
 پ ئي
ير ان
ند ن
 ا پ
ڊ ر
 ش ر
يڪ س
 هي ٺ
 هههههههههههه ه
 وان گر
 ا ف
 آهي و
u r
 دو ست
 پ اس
 قي مت
  c
 د ي
 ذري عي
 م لا
 ا لا
 ج ان
 ڪو شش
i t
سو س
 س ام
و ري
 مع ي
ج ڏهن
حي ح
 ه م
ج ڻ
 علي ه
 ح ق
ه جي
 په رين
 ٻ ه
 ان سان
لي م
 ق انون
ز م
 ي ون
 آ ئي
ح د
r o
م ار
ھن جي
ا ها
ڪ م
ل ق
 ڄ اڻ
 اي پ
 آ ئون
in g
 به ترين
ي ون
 ر کي
ز و
اس ين
ك ن
ش ان
ت ه
د اري
 ي عني
 وي ب
l e
ه ور
 ت ص
 ان ا
  d
= "
  '
ب اد
 ڪ ارو
 ص حيح
ور ن
 ڪي ل
 ش و
 سو چ
 ڪمپ ني
ڊ يا
اب ل
  ؟
 سائي ٽ
 اس ٽ
 ڏ سي
ص ر
 و س
 ج اري
 غ ل
 خو ش
ت نهن
 ف ار
يا تي
 ڪ ل
 دور ان
 ب چ
س اني
 ڳ و
 خ دا
ڻ و
ا ءِ
 تر قي
 مع لوم
 م خ
 پ ڇ
  C
ن ه
 ل فظ
د ين
 م ال
 م ض
ي ي
 ش ايد
 ض روري
 ب ن
i c
پ ري
 ٻ ار
ق ا
 ا ثر
 پ اڻي
 انت ظ
 پو ء
 او ھان
 ٻ يو
 اه ڙي
لي ل
 ر ات
 ه اڻي
 پ ون
 ب و
ڪو مت
 سو ال
 او هان
 م نهن
 علا ئ
خ ص
  M
 ح ل
 به تر
 من ظ
 في ص
 س فر
 ا ک
 ٻ اهر
ڙ ن
 خ د
 ا ٿ
 مط لب
ق ل
 ر نگ
 ص اح
 مو اد
 ح صو
 اڃ ا
ان ا
 پ ا
 مح سوس
 ب ح
ان و
 ا ت
 ظ اهر
 سن ڌ
i s
آ آ
 ع مر
گ و
ت رو
 ه تي
 گ و
 ا مي
 س ين
صو ير
 م ٿ
 مط اب
ڄ ي
 ع ال
 هون دا
ك ل
غ ير
ضو ع
 ڏ ني
 ٿي ون
 ص ف
 م هي
 آ سان
 ج ل
e d
لا مي
 لڳ ي
ص د
ِ ي
 ص لاح
 ڪيتر ن
يا ري
 ن م
ل ان
 مار ڪيٽ
 ڏس ڻ
 پ نهن
دا د
 ڪ ام
ر ار
 تو ھان
س تي
 خ ري
ك ر
 طرف ان
 خلا ف
 و لا
< <
ڏ ھن
 هههه هه
هههههههه ه
م م
 و ارا
ي ل
 م نهنجو
 بي ان
مي شه
 لا ئن
 ٿين دي
  ,
 ع لى
 سگ هجي
 ف را
ا ج
هههههههه ههه
ڪ اري
 ح ڪومت
ش و
لا ئي
 ال س
 رک ڻ
ٽ رو
گر ام
 ت نهن
 په چ
 م ست
ه ائي
 ٽ ر
 معي ار
يا ت
 خد مت
ٽ س
 ف ق
 ٽ يڪ
 ان دا
از ي
ائ ل
 ت صوير
ح ا
ڳ ي
س ندس
اي ت
 گھ ر
ائ م
دي د
 ح و
ٽ ري
1 5
ا ء
 ج تي
 ڏي ک
 رو ز
 صاح ب
 پ ئ
 ا ئين
 م ٿي
 حقي قت
 ب ال
پ ن
 اخ تي
ٽ ل
 ج نگ
اڪ اڻ
 ع ر
ڌ و
 و الله
1 8
ب اني
 ج سم
ان س
 هههههههههههه هه
 ۾ .

20 0
ئ ڻ
 اص ل
 تي ار
 ت جر
ان ه
 هههههههههههه ههه
 گ را
 ڏ ک
 ال م
 آ خر
 آ ف
 ت ج
ه ار
 ش خص
 د ف
ت ل
 واپ س
 ق ب
 س ک
r e
 م م
لي س
 چ ار
 ڪ جھ
 ر ڳو
 ڏ يو
ائ و
ڪ رو
 تبدي ل
 د ست
ر ر
  P
 س ندن
 ش ع
 په ريون
 ت ان
 ق ابل
خ ري
ك ت
 و ال
 پس ند
 ا ول
 ر اند
 ز مين
 ڊي ٽا
 اج از
ي س
 پي ار
  p
 چ ين
اس ب
ع ن
  T
گ ل
ق ن
 نظ ام
  >
 خو د
 ا تي
ا قت
a m
ري ا
 من ت
ري ڪ
 ح لو
ذ ه
 مو ق
د س
 مش هور
 ا يران
ظ يم
 اجاز ت
و از
 م ج
a s
هههه ههه
ا ھ
a c
ل ت
 چو ڻ
ڻ يڪ
 ت ف
ب ان
 آمري ڪا
 پاڪ ستان
تو ڻيڪ
 اس ٽي
 ق در
 ب اري
ڪي شن
 ڪ لا
قي ق
 ه ميشه
 نٿ و
 پيدا وار
س ڀ
چ و
 س ڏ
 اس پ
فو ظ
د ان
ج نهن
 ڏ ٺو
 ھ و
 دا خل
  B
 ه ُ
 ع و
و ه
ي عني
 اس ين
 ص ن
هههههههه هه
u s
 وڃ ڻ
ar t
 آ ز
مي ت
ت ري
ك ي
ــــــــ ــــ
 و ارن
 ع ن
 ب را
يو ر
 ش ين
 اع لي
ضح ك
 ب لا
 ق ائم
 ا ر
 م ص
 س ٺو
o m
ب ح
  ؟

 ڪون ه
يا ب
 ڏ ن
 ن تي
 مح فوظ
e t
1 2
 ڪيتر ائي
ڙ هي
م اني
 ص ارف
) .

 ط اقت
اري و
اب ط
ه ري
 s t
س پ
ون ي
 مو ڪل
سٽ م
 تق ري
 خو ب
 س رو
م نهنجي
 ا ب
i on
 لا ئ
 چون ڊ
 سمج هي
3 0
 ڳ ول
 سگ ھ
 وين دا
و ٽ
 ه جڻ
 پرو گرام
 آ واز
 ك ل
م ح
م لي
 بنيا دي
 ک ڻي
م س
 ک ا
 نن ڍ
ص ل
 شا ع
 ب ار
 ن ف
ڻ ڻ
 مطاب ق
 واق عي
 معلوم ات
ڇ و
 ت نهنجي
اري ن
يڪ ل
 ٻن هي
 فرا هم
 ڇ اڪاڻ
 کان پوءِ
ن ت
ري و
  b
 شي ء
 مس ل
لي ٽ
 سگ ھي
 ڊ و
  I
 هن ن
 سيڪ ڙو
 ص ح
خ ي
 م ري
 چ ڪو
ري ان
هههههههههههه ه
را ت
د گي
 ڀ ر
 س خت
 خر اب
 هي و
آ ن
ٽ نگ
 مق صد
 ح د
س اس
گ ار
 پ ير
 س ط
 خري د
 ل کي
ا ڄ
ڳ ا
 ب خ
 آهي ن
 اس لامي
 ڊ گ
 و ار
 من صو
e x
 ا ش
ر م
 س ڃ
 ا لي
 ن الي
ا جي
ق ول
 ج ڳ
 ا ھو
i d
خو است
e l
 تع ليم
 ه ذا
 ٿ يا
ر ه
؛ 

 غل ط
ع ام
 ن مون
يا د
i l
ع ه
ور ا
خ خ
ت ح
 شا دي
لي ڪيشن
 گ رو
يا ئين
 مو ضوع
 ت ا
 آز اد
 و ز
ائ ش
 ڄ ڻ
 اسڪ ول
  ھن
 طري قي
 فيص لو
۔ 

جو ان
ڪ ان
20 2
 تح قيق
 آ في
 پن ھنجي
1 1
 ن ئون
 اندا ز
 اختي ار
 م ين
 يو ر
 ڳال ه
 ٻي هر
ت را
 م ُ
ء ٌ
 پار ان
اڪ ٽر
 تو کي
ز ر
 نق ص
 آ يا
 ٺ ا
 چ ه
 ٻڌ ايو
 هههههههههههههههه ه
ڏ و
o w
 ڪ ير
 بنيا د
 ور تو
 ڪ مي
رف ت
 ک ول
 ڪ ور
. "

 م هر
دار ن
ين دا
 ن ام
 يق ين
  m
م ه
 مح بت
ور ڊ
 ڪ پ
 ن يو
لا جي
 اچ ڻ
ع لي
 ا يڪس
 ٻ ولي
1 00
 مل ڪن
 ر د
 ح ي
 ر ست
 سط ح
ڊ ل
اس ي
5 0
چ ر
 ج دا
 من اسب
خ لي
 ن س
 رو ح
 نقص ان
هي ل
 ذ هن
 و سي
 ڪه ڙي
 ک ه
 جه ڙو
پي ل
ڪ ت
 اڪ ثر
ف ار
 ان ساني
 ٻ ارن
 م فت
 ر ج
 مون کي
 فق ط
 س چ
ف تي
 شي ون
 سيا سي
 پ ٽ
؟ "

ش ر
 ڪ افي
 آ خري
 چاهي و
 در خواست
ص ورت
 دل چ
ٻ ي
پ ه
 ق ر
؟ ؟
 چ ڱ
 اڪ ائون
1 4
ش ل
گ ه
 مر ڪ
فت ه
 مع ا
ع ال
ائي ل
نا لاجي
 ال ح
تي ب
 مق اب
  D
  G
 ضر ور
o o
a d
 ا ض
 س ڄي
 سا ڳ
ش م
ٽر ني
 ڊ ر
 امي د
 مث ال
ا ين
 ح س
ان دي
 مم ڪن
e c
 و ڊيو
هههههههههههه ههه
 ڪارو بار
ه اڻي
 ر ق
  ھي
 مي ڊيا
 اڳ و
 خ ان
 مي ل
 شا گر
 بڻ جي
 شروع ات
 س ائن
هههههههههههه هه
ا ط
زا دي
a y
ال ر
م ث
 ڪي ون
 عال مي
ري ف
 نو جوان
ين دو
ئ و
 ا ڻ
 وا حد
 تع لق
 تر تيب
فا ظ
 الس لام
ال ت
لا ت
ات و
 گهڻ ي
 فار م
 اع لان
ڪ ٽ
 ن مبر
 ڪ ٿي
 ف ل
  f
 ٽيڪ نالاجي
پ س
اي ل
ھ ر
 س ُ
 ف ن
 ڪ ان
صو ص
آ ئون
 وي ج
1 3
 س سٽم
 ان ج
 هن ڌ
 پن ج
 حال ت
  w
 ڏن ل
هههه ه
م يو
گ ا
هههه هه
لا س
 ڀ ا
 ک ن
اڻ و
 ع د
ح ول
ه تي
 ش ك
 وڃ ن
 ح ض
ري ب
ب د
 لو ڊ
اح ت
ست ائين
 ذ اتي
  H
ها ي
ر د
 ت عم
 اين دڙ
 مض مون
 ڪ جي
يا بي
 ت ڪ
 ص حت
 طري قو
 ڳو ٺ
1 6
 ڏ سو
 انهي ءَ
ظ م
ٻ ئي
 مسئ لو
h e
م ع
 م ز
 مط ال
 هو ءَ
 ڳ ن
 س نگ
n d
ٽرو ل
هو ري
ائين دو
 ٺا هڻ
 اص لي
 چ ا
 ک ين
 ڏيک اري
 ان گ
 لڳ و
o u
 ان گري
 ا ون
" >
 ڪر دار
  L
 پ ڪ
ذ ي
 و ڻ
 چ ئي
 ر ھ
 ح ڪم
اب ر
ه ڪن
 ٽ و
  N
 س ٺي
 ق دم
 آ ه
ري ءَ
 مش ين
 ڊ ائون
 حقي قي
دي م
 پ ورو
ل ز
 و ائ
 ش ڪ
o l
 د ير
 ر هڻ
 و ج
 ر فت
جي ئن
 اح ساس
 لا ڳا
ائي ڊ
 پون دو
ت ان
 م ذه
ا دي
ڪ ڻ
ــــ ـ
بو ط
 ايپ ليڪيشن
و ز
 st art
 ح صي
ڏي ل
 سرو س
هي ون
 ڏا ڍ
ٽ ين
 و ض
 تعم ير
 ح فاظ
1 7
 سام ان
ز مي
دي ق
 ڀي رو
ش ڪ
 ه اي
 ح ڪ
a g
 پي غ
 اڪائون ٽ
ھ ين
 نٿ ا
 d ur
ار ڻ
 ح م
 ما حول
 مت ا
 حو الي
پ نهنجي
 ڪي س
 مو جب
 صلاح يت
 ط ب
 ص در
o t
 پ ل
 پار ٽي
ج ان
م پ
 ا ڪي
 ان ٽرني
شن ل
 علا ج
 قو م
 خوب صورت
 وڌ ي
 وٺ ڻ
ز ائن
 مر ح
ه ل
يو رس
 لک ڻ
 اي ئر
ش يا
 ان ھن
ع ل
 تبدي لي
 مو ت
ا ُ
ح ان
 آ پري
 نف س
ائ يو
 پاس ي
 س ائين
 ح ص
 ص و
 س لس
 هي ون
ڙ ين
 ع ي
 ڏين دو
 س ون
 ڪه اڻي
يورس ٽي
 مي مبر
 ن ش
 اي ل
 گرا هڪن
  [
 ا ط
 پو ري
ٽ ڻ
> >
 ما ءُ
 مو ب
 ڌ ر
ار ت
 رو ش
 ج ذ
 قب ول
 ا بو
ٺي ان
 تي ز
 پڙ هي
ن س
t er
ا ڳ
ش ق
ل ون
اه ڙي
پ ٽ
 مق رر
ن ين
ٺ ا
وو وو
ل ڊ
2 5
 خ اند
 آمري ڪي
 ت ش
 پ ور
 عورت ن
ا ض
م اري
 ري است
 تع داد
 سم اجي
 مٿ ان
 بل ڪل
 ۾ 

 ج ديد
 سر گر
 مهي ا
 خر چ
ت ك
 اڳ تي
 ٽ ن
  R
ق بل
 لا زمي
 ع ملي
 اک ين
 " 

  F
 هههههههههههههههه هه
 تف صي
 ڪري ان
 ت س
 ص اف
 هههههههههههههههه ههه
ط ن
 مس اف
هن ن
ري م
ي ه
پ ا
 ڪن ٽرول
 ڊ اڪٽر
ل ع
 مهر باني
 ع لم
 ڌ يان
 انتظ ار
ف ه
 په چي
 اُ ن
 متا ثر
 مع ني
 ح ر
 پڙ هڻ
 يون يورسٽي
 سگ هون
 رک يو
  ِ
  ڍ
 مر د
و ڌ
 ا خت
 ڪو به
ڪ جهه
 عو ام
 گھ ٽ
 ج ها
 آ زادي
لي ت
ex t
ط ان
 مض بوط
ڪ نهن
 ر پورٽ
 نمون ي
 رق م
دو د
 ي ار
 سو اءِ
 ر ابط
 قو مي
ڪ ڏھن
 ذ ميو
 ن ڪ
 ع ظيم
 جل د
  E
 ت ہ
مين ٽ
 با قي
 پو سٽ
اف ت
 آفي س
 ب اب
ث يت
جي توڻيڪ
ام و
 ر اندي
 مل يو
 ع ند
ج ون
 د ه
 ٻ يا
 ڪرڻ و
ڪ شن
 ه لا
 ش رح
 ڪ ئ
  k
سٽ ري
ان ڊ
ق ات
ڀ ر
 ذ ڪر
ڪر دگي
 علا وه
 پنهن جن
 شي ءِ
 صن عت
و ال
 ڪري ون
اي ع
 خو شي
 ش ان
يو ٽر
 او زار
 t o
 بين ڪ
خ تي
 خاص يت
اف ٽ
en t
ف ن
  W
دا يت
 اي ف
 وا ڌ
o s
 ڪ ين
 ڪ اري
 ل ن
 ٽي م
ت ال
ز ين
ب ال
ز ل
ص ور
هههههههههههههههه ه
 ه لي
 ھڪ ڙو
 وا ضح
 حي ثيت
 حفاظ ت
] 

 ان سٽ
 مع ام
 گ فت
 خو اب
2 4
 ت از
 و ق
 گ ا
 آ باد
رو ي
 آر ام
ار ڊ
 ڪار ڪردگي
 س پ
 يور پ
 م ڙ
 و ڪرو
 گ ڏيل
 ٺ هيل
 ر ه
 موجود ه
 علائ قي
 ڪه ڙو
 ه زار
 ب اد
 اه ڙو
 اي ه
مي ل
 زندگي ءَ
 تص ديق
آ خر
 ني ٽ
 روش ني
 گ ي
er s
ائين دي
a b
ب ين
م ط
ِ ن
 ب ع
 د يو
َ ن
c h
ند ر
د ت
 فر ق
 پو ليس
 سن ڀ
 اس لام
ڪي ل
ب اري
 ٿين دا
 ه فتي
دا شت
 رس ائي
? 

 م اس
 ڪار ڊ
ــــــــ ــــــــ
 اح ت
 تجر بو
 و ف
ب اب
 ڪل ڪ
 رست و
ٽ يو
 ز ال
 اين دو
 س ج
 په ريان
i m
هن دي
 ب ت
ال ه
i g
ير ت
اااا اااا
ب ري
 س ت
 ن شان
ها يو
 رفت ار
 جم هوري
لا ب
ول ين
 لا ڳو
 جل دي
 پڇ يو
ڪ ه
 ت ڏهن
 آ ءٌ
  إ
ان گ
 ف لم
لين ڊ
ک ان
آ ر
 ج ھ
 جا ءِ
 پ ھ
 چ م
 ي ع
 ز ي
ڪار ڊ
وڌ يڪ
ائ ر
هو ءَ
سن ڌ
 مل ڪي
 ج ائ
 حض رت
 ر ح
ج د
 آر ٽ
 ڪون هي
 هههههههه هههههههههههه
 سي ٽ
 و جود
 ڪ ئين
 وز ير
 پ ُ
 غل طي
س ٽر
 م الي
 ل ك
ول و
س نگ
 ڊ الر
ائين دا
مث ال
  in
ب لي
 م ڃ
م ائي
چ ين
 خاند ان
 م ف
ب اس
 وي ئي
 سر ڪاري
 پيغ ام
ن ظ
غ ان
س ڪ
ڊ ا
  O
 م هم
ا وي
َ ر
 جن ھن
م اڻ
 ڳال هيون
 تر ج
an d
 گو گل
يا م
 آ گ
 ڏاڍ و
ح ه
ري ز
 ا يڪ
 ق تل
 بڻ ائي
 دف عو
ـ ي
 سگهي و
 شا ء
00 0
 ص بح
 ٿين دڙ
 پ ليٽ
 وي ون
 ان ق
جي ب
 ش ه
 مو سم
ش ك
ــــ ــ
 گ رفت
ن ٽ
 ن مي
 ما ڊل
 مسل مان
ئ ل
 رهن دو
 ح ت
اب و
 ڪي م
اد ر
ون ا
اڻ ن
اي ان
 نو ڪري
19 9
 ڪندڙ ن
قو امي
ج م
 ان ڊ
 خ ير
 سگ ھو
 ض ح
 لک يو
 ڪ ال
 جم ع
 ا ھ
و جود
 مي ز
 يق يني
م نهنجو
پ اڻ
 م يو
 ڪ ڍ
لي ف
 گ م
 ٻڌ ي
 بح ث
ش ايد
ك ون
 هي ن
 ڪمپ يوٽر
 سگ هان
 تص ور
 وض احت
u b
 پ ال
 ل ان
 ھڪ ڙي
لا ق
 اڳ يان
د ل
ُ و
 الا قوامي
 ا مت
ال ف
 ٻ و
ق ع
 پ را
ت ب
ق رار
 ف ط
4 0
ص ف
 و ن
 مح مد
 اسڪ رين
  ـ
 ش ڪل
 ل ه
 مع اه
 ڪام ياب
 اد ب
 سڃ اڻ
  =
 جو ڙ
 ڪر ا
اي ون
 ث ابت
 انتظ ام
  <<
i v
 کان سو
 است اد
 ان ي
 ا يو
 ا قت
ن ن
 اص ول
ک و
 آ ءِ
 ال ع
 ري ت
 ڪام يابي
 مست قبل
 بر ابر
 گذ ريل
غير ه
ڇ ي
 ز ور
؟ "
 صورت حال
 ما هر
 ڳ ولي
ين ا
 سن ڌي
ان ھن
 عر صي
 هو س
at ion
 جي توڻيڪ
ير ه
  l
ئ س
ڙي ل
