{"\n":0," ":1,"!":2,"\"":3,"#":4,"$":5,"%":6,"&":7,"'":8,"(":9,")":10,"*":11,"+":12,",":13,"-":14,".":15,"/":16,"0":17,"1":18,"2":19,"3":20,"4":21,"5":22,"6":23,"7":24,"8":25,"9":26,":":27,";":28,"<":29,"=":30,">":31,"?":32,"@":33,"A":34,"B":35,"C":36,"D":37,"E":38,"F":39,"G":40,"H":41,"I":42,"J":43,"K":44,"L":45,"M":46,"N":47,"O":48,"P":49,"Q":50,"R":51,"S":52,"T":53,"U":54,"V":55,"W":56,"X":57,"Y":58,"Z":59,"[":60,"\\":61,"]":62,"^":63,"_":64,"a":65,"b":66,"c":67,"d":68,"e":69,"f":70,"g":71,"h":72,"i":73,"j":74,"k":75,"l":76,"m":77,"n":78,"o":79,"p":80,"q":81,"r":82,"s":83,"t":84,"u":85,"v":86,"w":87,"x":88,"y":89,"z":90,"{":91,"|":92,"}":93,"~":94,"¡":95,"¢":96,"£":97,"¤":98,"¥":99,"¦":100,"§":101,"©":102,"¬":103,"®":104,"°":105,"±":106,"¶":107,"·":108,"¿":109,"À":110,"Á":111,"Â":112,"Ã":113,"Å":114,"Ç":115,"È":116,"É":117,"Ð":118,"Ó":119,"Ô":120,"Ö":121,"×":122,"Ø":123,"Ù":124,"Ú":125,"Û":126,"Ü":127,"ß":128,"à":129,"á":130,"â":131,"ã":132,"ä":133,"å":134,"æ":135,"ç":136,"è":137,"é":138,"ê":139,"ë":140,"ì":141,"í":142,"î":143,"ï":144,"ð":145,"ñ":146,"ò":147,"ó":148,"ô":149,"õ":150,"ö":151,"÷":152,"ø":153,"ù":154,"ú":155,"û":156,"ü":157,"ý":158,"þ":159,"Ā":160,"ā":161,"Ă":162,"ă":163,"Ą":164,"ą":165,"ć":166,"ĉ":167,"Č":168,"č":169,"Ď":170,"Đ":171,"đ":172,"ē":173,"Ė":174,"ė":175,"Ę":176,"ę":177,"ě":178,"Ğ":179,"ğ":180,"Ģ":181,"Ĥ":182,"Ħ":183,"ħ":184,"ī":185,"Į":186,"į":187,"İ":188,"ı":189,"ĵ":190,"ĸ":191,"ĺ":192,"ļ":193,"Ł":194,"ł":195,"Ň":196,"ŋ":197,"Ō":198,"ō":199,"ŏ":200,"œ":201,"Ř":202,"ř":203,"ś":204,"Ŝ":205,"ŝ":206,"Ş":207,"ş":208,"Š":209,"š":210,"Ť":211,"ť":212,"ŧ":213,"ŭ":214,"ů":215,"ű":216,"ź":217,"Ż":218,"ż":219,"Ž":220,"ž":221,"Ɓ":222,"Ǝ":223,"ƒ":224,"Ɠ":225,"Ɣ":226,"ƛ":227,"Ɲ":228,"ơ":229,"Ʀ":230,"Ƴ":231,"ƽ":232,"ǟ":233,"ǰ":234,"Ǿ":235,"ȅ":236,"Ȋ":237,"ș":238,"ț":239,"ɑ":240,"ɕ":241,"ə":242,"ɛ":243,"ɞ":244,"ɣ":245,"ɨ":246,"ɪ":247,"ɴ":248,"ʀ":249,"ʃ":250,"ʊ":251,"ʒ":252,"ʔ":253,"ʚ":254,"ʞ":255,"ʻ":256,"ˆ":257,"ˇ":258,"ˈ":259,"ˌ":260,"ː":261,"˹":262,"˼":263,"̀":264,"́":265,"̃":266,"̄":267,"̅":268,"̇":269,"̈":270,"̉":271,"̊":272,"̋":273,"̌":274,"̍":275,"̐":276,"̖":277,"̗":278,"̝":279,"̠":280,"̣":281,"̤":282,"̥":283,"̧":284,"̨":285,"̩":286,"̬":287,"̮":288,"̯":289,"̲":290,"̳":291,"̵":292,"̶":293,"̷":294,"̸":295,"͛":296,"͜":297,"͠":298,"͡":299,"ͦ":300,"Ά":301,"Έ":302,"ΐ":303,"Α":304,"Η":305,"Θ":306,"Ι":307,"Μ":308,"Ξ":309,"Ρ":310,"Σ":311,"Υ":312,"Φ":313,"Ψ":314,"Ω":315,"Ϋ":316,"ά":317,"έ":318,"ή":319,"ί":320,"α":321,"β":322,"γ":323,"δ":324,"ε":325,"ζ":326,"η":327,"θ":328,"ι":329,"κ":330,"λ":331,"μ":332,"ν":333,"ξ":334,"ο":335,"π":336,"ρ":337,"ς":338,"σ":339,"τ":340,"υ":341,"φ":342,"χ":343,"ω":344,"ό":345,"ώ":346,"Ϟ":347,"ϻ":348,"Ј":349,"Ћ":350,"А":351,"Б":352,"В":353,"Г":354,"Д":355,"Й":356,"К":357,"М":358,"О":359,"П":360,"Р":361,"С":362,"Т":363,"У":364,"Х":365,"Ч":366,"Я":367,"а":368,"б":369,"в":370,"г":371,"д":372,"е":373,"ж":374,"з":375,"и":376,"й":377,"к":378,"л":379,"м":380,"н":381,"о":382,"п":383,"р":384,"с":385,"т":386,"у":387,"х":388,"ц":389,"ч":390,"ш":391,"ъ":392,"ы":393,"ь":394,"э":395,"ю":396,"я":397,"є":398,"і":399,"ј":400,"ћ":401,"Ѣ":402,"Ѧ":403,"҉":404,"Ҏ":405,"Ґ":406,"ґ":407,"қ":408,"Ҩ":409,"ү":410,"Ұ":411,"Ҳ":412,"ҳ":413,"ҷ":414,"ҽ":415,"Ӎ":416,"ө":417,"Բ":418,"Ի":419,"Կ":420,"Պ":421,"ա":422,"բ":423,"ե":424,"է":425,"ը":426,"ի":427,"լ":428,"խ":429,"կ":430,"հ":431,"ձ":432,"ղ":433,"մ":434,"յ":435,"ն":436,"ո":437,"չ":438,"պ":439,"ռ":440,"ս":441,"վ":442,"տ":443,"ր":444,"ց":445,"ւ":446,"փ":447,"ք":448,"ֆ":449,"ִ":450,"ּ":451,"ֿ":452,"א":453,"ב":454,"ג":455,"ד":456,"ה":457,"ו":458,"ז":459,"ח":460,"ט":461,"י":462,"ך":463,"כ":464,"ל":465,"ם":466,"מ":467,"ן":468,"נ":469,"ס":470,"ע":471,"פ":472,"צ":473,"ר":474,"ש":475,"ת":476,"؋":477,"،":478,"؍":479,"؎":480,"؏":481,"ؐ":482,"ؑ":483,"ؒ":484,"ؓ":485,"؛":486,"؟":487,"ء":488,"آ":489,"أ":490,"ؤ":491,"إ":492,"ئ":493,"ا":494,"ب":495,"ة":496,"ت":497,"ث":498,"ج":499,"ح":500,"خ":501,"د":502,"ذ":503,"ر":504,"ز":505,"س":506,"ش":507,"ص":508,"ض":509,"ط":510,"ظ":511,"ع":512,"غ":513,"ػ":514,"ؼ":515,"ؽ":516,"ؾ":517,"ؿ":518,"ـ":519,"ف":520,"ق":521,"ك":522,"ل":523,"م":524,"ن":525,"ه":526,"و":527,"ى":528,"ي":529,"ً":530,"ٌ":531,"ٍ":532,"َ":533,"ُ":534,"ِ":535,"ّ":536,"ْ":537,"ٓ":538,"ٔ":539,"ٕ":540,"ٖ":541,"ٗ":542,"٘":543,"ٙ":544,"ٚ":545,"ٛ":546,"ٜ":547,"ٝ":548,"ٞ":549,"ٟ":550,"٠":551,"١":552,"٢":553,"٣":554,"٤":555,"٥":556,"٦":557,"٧":558,"٨":559,"٩":560,"٪":561,"٫":562,"٬":563,"٭":564,"ٮ":565,"ٯ":566,"ٰ":567,"ٱ":568,"ٲ":569,"ٳ":570,"ٴ":571,"ٹ":572,"ٺ":573,"ٻ":574,"ټ":575,"ٽ":576,"پ":577,"ٿ":578,"ڀ":579,"ځ":580,"ڂ":581,"ڃ":582,"ڄ":583,"څ":584,"چ":585,"ڇ":586,"ڈ":587,"ډ":588,"ڊ":589,"ڋ":590,"ڌ":591,"ڍ":592,"ڎ":593,"ڏ":594,"ڐ":595,"ڑ":596,"ڒ":597,"ړ":598,"ڔ":599,"ڕ":600,"ږ":601,"ڗ":602,"ژ":603,"ڙ":604,"ښ":605,"ڛ":606,"ڜ":607,"ڝ":608,"ڞ":609,"ڟ":610,"ڠ":611,"ڣ":612,"ڤ":613,"ڦ":614,"ڨ":615,"ک":616,"ڪ":617,"ګ":618,"ڭ":619,"گ":620,"ڰ":621,"ڱ":622,"ڲ":623,"ڳ":624,"ڵ":625,"ڶ":626,"ڷ":627,"ڸ":628,"ڹ":629,"ں":630,"ڻ":631,"ڼ":632,"ڽ":633,"ھ":634,"ڿ":635,"ۀ":636,"ہ":637,"ۂ":638,"ۃ":639,"ۄ":640,"ۅ":641,"ۆ":642,"ۇ":643,"ۈ":644,"ۉ":645,"ۊ":646,"ۋ":647,"ی":648,"ۍ":649,"ێ":650,"ۏ":651,"ې":652,"ۑ":653,"ے":654,"ۓ":655,"۔":656,"ە":657,"ۗ":658,"ۘ":659,"ۙ":660,"ۚ":661,"ۛ":662,"ۜ":663,"۞":664,"ۡ":665,"ۢ":666,"ۣ":667,"ۤ":668,"ۥ":669,"ۦ":670,"ۧ":671,"ۨ":672,"۩":673,"۪":674,"۫":675,"۬":676,"۰":677,"۱":678,"۲":679,"۳":680,"۴":681,"۵":682,"۶":683,"۷":684,"۸":685,"۹":686,"ۺ":687,"ۼ":688,"۽":689,"۾":690,"ۿ":691,"܀":692,"ܒ":693,"ܓ":694,"ܢ":695,"ܨ":696,"ܪ":697,"ܵ":698,"ݐ":699,"ݒ":700,"ݖ":701,"ݘ":702,"ݛ":703,"ݢ":704,"ݥ":705,"ݦ":706,"ݧ":707,"ݨ":708,"ݩ":709,"ݪ":710,"ހ":711,"ވ":712,"ެ":713,"ߙ":714,"ࡗ":715,"ࢦ":716,"ࢪ":717,"࣪":718,"ँ":719,"ं":720,"ः":721,"अ":722,"आ":723,"इ":724,"ई":725,"उ":726,"ए":727,"ओ":728,"क":729,"ख":730,"ग":731,"घ":732,"ङ":733,"च":734,"छ":735,"ज":736,"झ":737,"ञ":738,"ट":739,"ठ":740,"ड":741,"ढ":742,"ण":743,"त":744,"थ":745,"द":746,"ध":747,"न":748,"प":749,"फ":750,"ब":751,"भ":752,"म":753,"य":754,"र":755,"ल":756,"व":757,"श":758,"ष":759,"स":760,"ह":761,"़":762,"ा":763,"ि":764,"ी":765,"ु":766,"ू":767,"ृ":768,"े":769,"ै":770,"ॉ":771,"ो":772,"ौ":773,"्":774,"॒":775,"ॡ":776,"।":777,"॥":778,"०":779,"१":780,"८":781,"অ":782,"আ":783,"ই":784,"উ":785,"এ":786,"ঔ":787,"ক":788,"খ":789,"ঘ":790,"ছ":791,"জ":792,"ট":793,"ড":794,"ত":795,"দ":796,"ধ":797,"ন":798,"ব":799,"ভ":800,"ম":801,"য":802,"র":803,"ল":804,"শ":805,"স":806,"়":807,"া":808,"ি":809,"ু":810,"ে":811,"ো":812,"ৌ":813,"্":814,"ਂ":815,"ਇ":816,"ਈ":817,"ਕ":818,"ਜ":819,"ਥ":820,"ਧ":821,"ਪ":822,"ਬ":823,"ਮ":824,"ਰ":825,"ਲ":826,"ਸ":827,"ਹ":828,"ਾ":829,"ਿ":830,"ੀ":831,"ੇ":832,"ੈ":833,"ੋ":834,"ੰ":835,"ੱ":836,"ં":837,"ક":838,"ખ":839,"ચ":840,"છ":841,"ટ":842,"ડ":843,"થ":844,"ધ":845,"પ":846,"ર":847,"સ":848,"હ":849,"ા":850,"િ":851,"ી":852,"ુ":853,"ે":854,"ો":855,"୪":856,"୭":857,"ஐ":858,"ஓ":859,"ற":860,"ం":861,"ఇ":862,"ఉ":863,"ఎ":864,"క":865,"చ":866,"డ":867,"ద":868,"ధ":869,"న":870,"ప":871,"య":872,"ల":873,"వ":874,"స":875,"హ":876,"ా":877,"ి":878,"ీ":879,"ు":880,"ే":881,"ో":882,"్":883,"ಂ":884,"ಈ":885,"ಕ":886,"ಡ":887,"ಧ":888,"ನ":889,"ಲ":890,"ಸ":891,"ಿ":892,"ೋ":893,"್":894,"ഉ":895,"ങ":896,"ത":897,"ധ":898,"ന":899,"പ":900,"ള":901,"സ":902,"ി":903,"്":904,"ආ":905,"උ":906,"ක":907,"න":908,"ම":909,"ය":910,"ල":911,"ව":912,"ශ":913,"ස":914,"්":915,"ෑ":916,"ි":917,"ෙ":918,"ก":919,"ค":920,"ฉ":921,"ณ":922,"ด":923,"ถ":924,"ท":925,"น":926,"บ":927,"ป":928,"พ":929,"ม":930,"ย":931,"ล":932,"ส":933,"ห":934,"อ":935,"ฮ":936,"ะ":937,"ั":938,"า":939,"ิ":940,"ี":941,"ุ":942,"เ":943,"ไ":944,"ๅ":945,"่":946,"้":947,"๋":948,"๑":949,"๛":950,"ກ":951,"ຂ":952,"ຈ":953,"ຖ":954,"ທ":955,"ນ":956,"ພ":957,"ມ":958,"ຢ":959,"ະ":960,"າ":961,"ົ":962,"ເ":963,"່":964,"້":965,"໑":966,"༄":967,"༅":968,"༺":969,"ཻ":970,"࿅":971,"࿑":972,"Ⴢ":973,"ა":974,"დ":975,"ე":976,"თ":977,"ი":978,"კ":979,"მ":980,"ნ":981,"რ":982,"ს":983,"უ":984,"ქ":985,"ღ":986,"ᄑ":987,"ᄒ":988,"ᅲ":989,"ሂ":990,"ህ":991,"ለ":992,"ላ":993,"ል":994,"ም":995,"ሩ":996,"ር":997,"ሳ":998,"ስ":999,"ቅ":1000,"በ":1001,"ቦ":1002,"ታ":1003,"ት":1004,"ነ":1005,"ኔ":1006,"ን":1007,"ኝ":1008,"አ":1009,"እ":1010,"ወ":1011,"ው":1012,"ዎ":1013,"ዘ":1014,"ይ":1015,"ዴ":1016,"ድ":1017,"ጋ":1018,"ጎ":1019,"ጠ":1020,"ጣ":1021,"ጥ":1022,"ፈ":1023,"ፍ":1024,"ᑐ":1025,"ᓄ":1026,"ᓅ":1027,"ᓆ":1028,"ᓘ":1029,"ញ":1030,"ន":1031,"ព":1032,"ភ":1033,"េ":1034,"ំ":1035,"្":1036,"᪣":1037,"ᬼ":1038,"ᭁ":1039,"᭄":1040,"ᴀ":1041,"ᴋ":1042,"ᴗ":1043,"᷂":1044,"ḑ":1045,"ḭ":1046,"Ḿ":1047,"ḿ":1048,"Ṁ":1049,"Ṃ":1050,"ṇ":1051,"Ṉ":1052,"ṛ":1053,"Ṝ":1054,"ṣ":1055,"Ṧ":1056,"ṩ":1057,"ṭ":1058,"Ṽ":1059,"Ạ":1060,"Ẹ":1061,"ẹ":1062,"Ể":1063,"ệ":1064,"ị":1065,"Ọ":1066,"ọ":1067,"ố":1068,"ở":1069,"Ụ":1070,"ụ":1071,"ỳ":1072,"ỹ":1073,"Ἄ":1074,"‐":1075,"‛":1076,"‟":1077,"†":1078,"‡":1079,"•":1080,"′":1081,"‹":1082,"›":1083,"※":1084,"‿":1085,"⁀":1086,"⁄":1087,"₥":1088,"₦":1089,"₩":1090,"₪":1091,"€":1092,"₳":1093,"₹":1094,"₼":1095,"₽":1096,"⃕":1097,"⃟":1098,"⃢":1099,"⃣":1100,"⃫":1101,"℘":1102,"←":1103,"↑":1104,"→":1105,"↓":1106,"↔":1107,"↙":1108,"↜":1109,"↝":1110,"↣":1111,"↤":1112,"↩":1113,"↫":1114,"↯":1115,"↲":1116,"↴":1117,"↷":1118,"⇄":1119,"⇐":1120,"⇜":1121,"⇠":1122,"⇡":1123,"⇢":1124,"⇣":1125,"⇦":1126,"∀":1127,"∂":1128,"∇":1129,"−":1130,"√":1131,"∞":1132,"∟":1133,"∫":1134,"∴":1135,"≈":1136,"≠":1137,"≤":1138,"≥":1139,"≦":1140,"≧":1141,"≯":1142,"⊙":1143,"⋆":1144,"⌘":1145,"⏆":1146,"⏩":1147,"⏪":1148,"─":1149,"┇":1150,"═":1151,"╚":1152,"╝":1153,"╦":1154,"╫":1155,"╬":1156,"▂":1157,"▃":1158,"▌":1159,"▐":1160,"■":1161,"□":1162,"▪":1163,"▫":1164,"▲":1165,"▶":1166,"▷":1167,"►":1168,"▼":1169,"▽":1170,"◀":1171,"◄":1172,"◆":1173,"◇":1174,"◈":1175,"◉":1176,"◊":1177,"○":1178,"◍":1179,"◎":1180,"●":1181,"◕":1182,"◝":1183,"◣":1184,"◤":1185,"◥":1186,"◦":1187,"◩":1188,"◪":1189,"◾":1190,"☀":1191,"☁":1192,"☂":1193,"☃":1194,"☄":1195,"★":1196,"☆":1197,"☑":1198,"☔":1199,"☘":1200,"☚":1201,"☛":1202,"☜":1203,"☝":1204,"☠":1205,"☹":1206,"☺":1207,"☻":1208,"☼":1209,"☽":1210,"☿":1211,"♀":1212,"♂":1213,"♃":1214,"♄":1215,"♈":1216,"♉":1217,"♊":1218,"♋":1219,"♌":1220,"♍":1221,"♎":1222,"♏":1223,"♒":1224,"♓":1225,"♚":1226,"♛":1227,"♠":1228,"♡":1229,"♢":1230,"♣":1231,"♤":1232,"♥":1233,"♦":1234,"♩":1235,"♪":1236,"♫":1237,"♬":1238,"♭":1239,"♯":1240,"⚒":1241,"⚘":1242,"⚠":1243,"⚡":1244,"⚫":1245,"⚽":1246,"⛳":1247,"⛺":1248,"✅":1249,"✇":1250,"✈":1251,"✋":1252,"✌":1253,"✍":1254,"✓":1255,"✔":1256,"✖":1257,"✗":1258,"✘":1259,"✜":1260,"✞":1261,"✦":1262,"✧":1263,"✨":1264,"✫":1265,"✭":1266,"✮":1267,"✯":1268,"✳":1269,"✴":1270,"✷":1271,"✿":1272,"❀":1273,"❌":1274,"❒":1275,"❓":1276,"❔":1277,"❕":1278,"❖":1279,"❗":1280,"❝":1281,"❞":1282,"❢":1283,"❣":1284,"❤":1285,"❥":1286,"❦":1287,"❧":1288,"❶":1289,"➓":1290,"➘":1291,"➟":1292,"➡":1293,"➢":1294,"➥":1295,"➬":1296,"⠀":1297,"⦿":1298,"⬅":1299,"⬆":1300,"⬸":1301,"⭐":1302,"⭕":1303,"⸁":1304,"⸙":1305,"、":1306,"。":1307,"〇":1308,"〈":1309,"〉":1310,"》":1311,"「":1312,"」":1313,"『":1314,"』":1315,"【":1316,"】":1317,"〖":1318,"〗":1319,"あ":1320,"い":1321,"う":1322,"え":1323,"お":1324,"か":1325,"が":1326,"く":1327,"さ":1328,"じ":1329,"な":1330,"の":1331,"へ":1332,"ほ":1333,"ょ":1334,"よ":1335,"り":1336,"わ":1337,"を":1338,"ん":1339,"イ":1340,"エ":1341,"ク":1342,"コ":1343,"サ":1344,"シ":1345,"ス":1346,"タ":1347,"チ":1348,"ッ":1349,"ツ":1350,"ト":1351,"ド":1352,"ノ":1353,"バ":1354,"パ":1355,"ピ":1356,"マ":1357,"ミ":1358,"ム":1359,"ュ":1360,"ヮ":1361,"ン":1362,"・":1363,"ー":1364,"ㄨ":1365,"一":1366,"上":1367,"之":1368,"了":1369,"云":1370,"以":1371,"传":1372,"位":1373,"何":1374,"你":1375,"刀":1376,"力":1377,"午":1378,"南":1379,"厩":1380,"发":1381,"古":1382,"可":1383,"吗":1384,"嘅":1385,"国":1386,"场":1387,"報":1388,"多":1389,"夢":1390,"如":1391,"子":1392,"学":1393,"它":1394,"少":1395,"屋":1396,"年":1397,"庆":1398,"彙":1399,"彩":1400,"很":1401,"情":1402,"惠":1403,"感":1404,"我":1405,"打":1406,"教":1407,"料":1408,"斯":1409,"於":1410,"月":1411,"机":1412,"機":1413,"泊":1414,"波":1415,"爱":1416,"瑞":1417,"用":1418,"电":1419,"発":1420,"發":1421,"的":1422,"真":1423,"着":1424,"示":1425,"科":1426,"端":1427,"篇":1428,"終":1429,"纳":1430,"者":1431,"职":1432,"背":1433,"节":1434,"花":1435,"菜":1436,"葬":1437,"藍":1438,"蝶":1439,"要":1440,"詞":1441,"語":1442,"謝":1443,"话":1444,"语":1445,"谷":1446,"超":1447,"辛":1448,"迪":1449,"邏":1450,"钱":1451,"际":1452,"隨":1453,"雨":1454,"音":1455,"顯":1456,"鲁":1457,"ꓘ":1458,"ꓤ":1459,"ꔫ":1460,"ꖾ":1461,"ꟽ":1462,"ꦿ":1463,"ꪆ":1464,"ꪝ":1465,"ꫀ":1466,"ꫛ":1467,"각":1468,"금":1469,"길":1470,"나":1471,"는":1472,"다":1473,"대":1474,"래":1475,"리":1476,"마":1477,"만":1478,"문":1479,"방":1480,"법":1481,"서":1482,"손":1483,"솔":1484,"송":1485,"시":1486,"양":1487,"얼":1488,"에":1489,"연":1490,"요":1491,"우":1492,"정":1493,"져":1494,"조":1495,"좋":1496,"지":1497,"직":1498,"평":1499,"하":1500,"할":1501,"해":1502,"형":1503,"화":1504,"효":1505,"희":1506,"﮶":1507,"﮼":1508,"﴾":1509,"﴿":1510,"︎":1511,"️":1512,"�":1513,"𐄒":1514,"𐎚":1515,"𐭣":1516,"𐭦":1517,"𐭪":1518,"𐭬":1519,"𓂅":1520,"𓆩":1521,"𓆪":1522,"𖣂":1523,"𖣴":1524,"𖤈":1525,"𖤍":1526,"🅚":1527,"🅛":1528,"🅜":1529,"🅦":1530,"🇦":1531,"🇧":1532,"🇨":1533,"🇩":1534,"🇬":1535,"🇮":1536,"🇱":1537,"🇲":1538,"🇵":1539,"🇶":1540,"🇷":1541,"🇸":1542,"🇹":1543,"🇺":1544,"🇿":1545,"🌆":1546,"🌈":1547,"🌍":1548,"🌎":1549,"🌓":1550,"🌔":1551,"🌙":1552,"🌚":1553,"🌛":1554,"🌜":1555,"🌝":1556,"🌞":1557,"🌟":1558,"🌤":1559,"🌧":1560,"🌱":1561,"🌵":1562,"🌷":1563,"🌸":1564,"🌹":1565,"🌺":1566,"🌻":1567,"🌼":1568,"🌿":1569,"🍀":1570,"🍂":1571,"🍃":1572,"🍇":1573,"🍉":1574,"🍕":1575,"🍩":1576,"🍰":1577,"🍷":1578,"🍻":1579,"🍼":1580,"🍾":1581,"🍿":1582,"🎀":1583,"🎁":1584,"🎃":1585,"🎅":1586,"🎈":1587,"🎞":1588,"🎥":1589,"🎧":1590,"🎨":1591,"🎯":1592,"🎵":1593,"🎶":1594,"🎻":1595,"🎼":1596,"🏃":1597,"🏆":1598,"🏊":1599,"🏖":1600,"🏣":1601,"🏭":1602,"🏳":1603,"🏹":1604,"🏻":1605,"🏼":1606,"🏽":1607,"🏾":1608,"🏿":1609,"🐍":1610,"🐒":1611,"🐕":1612,"🐠":1613,"🐢":1614,"🐸":1615,"🐾":1616,"👀":1617,"👃":1618,"👅":1619,"👆":1620,"👇":1621,"👈":1622,"👉":1623,"👊":1624,"👋":1625,"👌":1626,"👍":1627,"👎":1628,"👑":1629,"👕":1630,"👠":1631,"👢":1632,"👤":1633,"👧":1634,"👨":1635,"👩":1636,"👭":1637,"👰":1638,"👲":1639,"👳":1640,"👾":1641,"💀":1642,"💃":1643,"💅":1644,"💇":1645,"💈":1646,"💋":1647,"💍":1648,"💐":1649,"💒":1650,"💓":1651,"💔":1652,"💕":1653,"💖":1654,"💗":1655,"💘":1656,"💙":1657,"💚":1658,"💛":1659,"💜":1660,"💝":1661,"💞":1662,"💠":1663,"💡":1664,"💣":1665,"💦":1666,"💪":1667,"💫":1668,"💮":1669,"💯":1670,"💰":1671,"💷":1672,"💻":1673,"📄":1674,"📑":1675,"📚":1676,"📛":1677,"📥":1678,"📩":1679,"📮":1680,"📲":1681,"📷":1682,"📸":1683,"📿":1684,"🔆":1685,"🔈":1686,"🔐":1687,"🔒":1688,"🔕":1689,"🔗":1690,"🔞":1691,"🔥":1692,"🔫":1693,"🔱":1694,"🔴":1695,"🔶":1696,"🔸":1697,"🔹":1698,"🔺":1699,"🕊":1700,"🕌":1701,"🕘":1702,"🖕":1703,"🖤":1704,"🖼":1705,"🗯":1706,"🗿":1707,"😀":1708,"😁":1709,"😂":1710,"😃":1711,"😄":1712,"😅":1713,"😆":1714,"😇":1715,"😈":1716,"😉":1717,"😊":1718,"😋":1719,"😌":1720,"😍":1721,"😎":1722,"😏":1723,"😐":1724,"😑":1725,"😒":1726,"😔":1727,"😕":1728,"😘":1729,"😛":1730,"😜":1731,"😝":1732,"😠":1733,"😢":1734,"😤":1735,"😦":1736,"😧":1737,"😨":1738,"😩":1739,"😪":1740,"😬":1741,"😭":1742,"😮":1743,"😯":1744,"😱":1745,"😲":1746,"😳":1747,"😵":1748,"😷":1749,"😹":1750,"😻":1751,"😽":1752,"😿":1753,"🙁":1754,"🙂":1755,"🙃":1756,"🙄":1757,"🙅":1758,"🙆":1759,"🙇":1760,"🙈":1761,"🙊":1762,"🙋":1763,"🙌":1764,"🙏":1765,"🚌":1766,"🚓":1767,"🚣":1768,"🚨":1769,"🚫":1770,"🚭":1771,"🚵":1772,"🚶":1773,"🚷":1774,"🛌":1775,"🛐":1776,"🛒":1777,"🛫":1778,"🛰":1779,"🟥":1780,"🤍":1781,"🤎":1782,"🤐":1783,"🤒":1784,"🤓":1785,"🤔":1786,"🤕":1787,"🤚":1788,"🤟":1789,"🤠":1790,"🤣":1791,"🤤":1792,"🤧":1793,"🤨":1794,"🤩":1795,"🤪":1796,"🤭":1797,"🤲":1798,"🤸":1799,"🤹":1800,"🥀":1801,"🥇":1802,"🥰":1803,"🥺":1804,"🦋":1805,"🦦":1806,"🦯":1807,"🦼":1808,"🦽":1809,"🧐":1810,"🧑":1811,"🧖":1812,"🧚":1813,"🧝":1814,"🧸":1815,"هه":1816,"ان":1817," ج":1818," ا":1819," م":1820," ڪ":1821," ت":1822,"هههه":1823,".\n":1824,"هي":1825," آ":1826," س":1827," و":1828,"ري":1829," جي":1830,"هن":1831," پ":1832," ک":1833,"ين":1834,"ون":1835," ه":1836," ب":1837," ن":1838," آهي":1839,"ار":1840,"يو":1841,"لا":1842," ۾":1843," ٿ":1844,"ئي":1845,"ال":1846," کي":1847," ر":1848,"يا":1849,"ــ":1850," ۽":1851,"هههههههه":1852," جو":1853," ان":1854,"ور":1855,"لي":1856,"ند":1857,"جي":1858," گ":1859," ته":1860," ش":1861,"ائ":1862," ع":1863,"نهن":1864," د":1865," ڏ":1866," لا":1867," تي":1868," خ":1869," چ":1870," ح":1871," اس":1872,"ام":1873," ف":1874,"هو":1875," ،":1876," .":1877," ڪري":1878,"تي":1879,"دي":1880,"اڻ":1881,"ءِ":1882,"رو":1883," کان":1884," هڪ":1885," سان":1886,"اري":1887," ل":1888," ٻ":1889," به":1890," ٿي":1891," ڪر":1892," نه":1893,"اب":1894," ق":1895,"دا":1896,"ير":1897," ط":1898,"اس":1899,"ائي":1900,"يڪ":1901," ص":1902," آهن":1903," ڪرڻ":1904," هو":1905,"ــــ":1906," تو":1907," ال":1908,"هر":1909,"ني":1910,"دو":1911," ٿو":1912,"هان":1913,"مي":1914," اي":1915," هههههههه":1916,"ها":1917,"ڪي":1918," لاءِ":1919," هن":1920," ڇ":1921,"ءَ":1922,"ول":1923," پي":1924," يا":1925,"نهنجي":1926,"ست":1927," مو":1928,"را":1929," سگ":1930," ي":1931," ڊ":1932,"ٽي":1933,"جو":1934," ڪيو":1935,"سي":1936,"اي":1937," ڪي":1938," اسان":1939,"ڏهن":1940,"لو":1941," من":1942,"ات":1943,"قي":1944," هي":1945," (":1946," ز":1947,"نگ":1948," توهان":1949," جا":1950," اهو":1951,"اهي":1952,"ائين":1953," مان":1954,"قت":1955,"ڪو":1956,"ھن":1957,"اني":1958," ڪند":1959," ٿا":1960," ڳ":1961,"ڙي":1962,"ھي":1963," .\n":1964,"ههه":1965,"اد":1966," پر":1967," مع":1968," پو":1969,"رين":1970," \"":1971," وي":1972,"ئن":1973," مي":1974," وڌ":1975," ٽ":1976,"!\n":1977,"رف":1978," ئي":1979,"بي":1980," بي":1981," ڪو":1982," وا":1983," ڪم":1984," رو":1985," ڀ":1986,"بر":1987," لاء":1988," رهي":1989,"شن":1990," مون":1991," ويو":1992,"اص":1993," پنهنجي":1994,"تو":1995,"له":1996,"از":1997," ما":1998," سو":1999,"مت":2000,"ئين":2001," طور":2002,"ورت":2003," او":2004,"اف":2005,"کي":2006," وڃ":2007," است":2008,"ٽر":2009,"گر":2010,"ڏي":2011,"اا":2012,"هڻ":2013," ض":2014,"عم":2015,"اڻي":2016,"؟\n":2017," غ":2018,"گي":2019,"اڪ":2020," سڀ":2021,"هم":2022,"سم":2023," ڏين":2024,"سٽ":2025,"مون":2026,"مل":2027,"،\n":2028,"وي":2029," ذ":2030," انهن":2031,"الي":2032," خو":2033," مل":2034," وين":2035,"در":2036,"تر":2037," ھ":2038,"عي":2039,"ارو":2040,"چي":2041," سي":2042," -":2043," ماڻ":2044," وقت":2045," هون":2046,"ڙو":2047," مح":2048," سم":2049," وڌيڪ":2050,"20":2051," ك":2052,"سو":2053,"ڪا":2054," په":2055,"نيا":2056," في":2057," هههه":2058," سال":2059," آھي":2060," بر":2061," گهر":2062,"من":2063,"عمال":2064," ڏي":2065,"جهه":2066,"مان":2067,"صو":2068,"نا":2069,"خت":2070," اين":2071," ڪئي":2072," استعمال":2073," در":2074,"دار":2075,"اهو":2076," ور":2077," هههههههههههه":2078," هئي":2079," شي":2080," تائين":2081,"ــــــــ":2082,"بو":2083," واري":2084," سر":2085," ڳال":2086,"ائڻ":2087," مش":2088,"ڪن":2089," تع":2090," اڳ":2091,"نو":2092,"پي":2093," تر":2094,"اه":2095," مس":2096,"اسان":2097," مر":2098," ڪريو":2099,"في":2100," ري":2101," هر":2102,"زي":2103,"جن":2104,"مو":2105," جيڪو":2106,"انهن":2107," ڇا":2108," ٺ":2109," ٿين":2110," جنهن":2111,"فت":2112," چيو":2113," ڪن":2114," ڪنهن":2115,"ندي":2116,"ما":2117,"پر":2118,"ڪر":2119," سگهي":2120," نظ":2121,"يت":2122," مق":2123,"اصل":2124,"سان":2125," گڏ":2126," وڃي":2127," ڏينهن":2128,"in":2129," جن":2130,"مام":2131,"ڪڏهن":2132,"ئر":2133,"هڪ":2134,"ندس":2135," ڪجهه":2136,"ارن":2137,"اح":2138,"ٺي":2139," رک":2140," ڊي":2141,"هههههههههههه":2142,":\n":2143," جيڪي":2144,"نهنجو":2145,"ئون":2146,"پو":2147," لي":2148,"مين":2149,"ٿي":2150,"رح":2151," ڌ":2152," حاصل":2153," لڳ":2154,"جود":2155,"بل":2156," اهي":2157," شا":2158," ضر":2159,"ڪل":2160,"شي":2161," ٻڌ":2162," سن":2163," ٽي":2164,"ڻي":2165,"ثر":2166," نو":2167,"روع":2168,"بت":2169," هئ":2170," مط":2171," گه":2172," اع":2173," ناهي":2174," سا":2175,"ندو":2176,"er":2177," شروع":2178," دو":2179," از":2180,"ايو":2181,"ڪار":2182," اه":2183,")\n":2184,"لم":2185," تمام":2186," پاڻ":2187,"سن":2188," ڄ":2189,"مر":2190," با":2191," اح":2192," تح":2193," علي":2194,"جا":2195," اها":2196," پوءِ":2197,"لام":2198," ٿيو":2199,"ابت":2200,"فر":2201,"ءُ":2202,"تن":2203,"ـــ":2204,"ھان":2205," رهيو":2206," گهڻ":2207,"نڊ":2208," پرو":2209," اص":2210,"ده":2211," ڪار":2212," جون":2213," ڇڏ":2214," الله":2215,"امي":2216,"ائن":2217," گھ":2218,"حي":2219," منهنجي":2220,"امل":2221," فر":2222,"عو":2223," وئي":2224,"الو":2225,"ندگي":2226,"لف":2227,"تم":2228,"دڙ":2229," دنيا":2230," پن":2231,"وو":2232," ڪا":2233,"دن":2234,"صي":2235," جڏهن":2236," دور":2237," وٽ":2238,"19":2239," بس":2240,"ڪري":2241," ضرورت":2242," انت":2243,"مري":2244,"ٺو":2245," مد":2246," ويندو":2247," چي":2248,"كم":2249," ها":2250,"اهر":2251," ٿيڻ":2252," ڇو":2253,"با":2254,"00":2255," وڏي":2256," ماڻهو":2257," ويا":2258," هههههههههههههههه":2259,"لب":2260," يو":2261," علا":2262,"يني":2263,"عد":2264," سب":2265,"ھو":2266," پڻ":2267," پيدا":2268," سمج":2269," پيش":2270," سندس":2271," مخت":2272,"ائون":2273,"ستان":2274," ٻي":2275," انهي":2276," موجود":2277," اچي":2278,"on":2279,"201":2280,"ar":2281," اخ":2282," پار":2283," طرف":2284,"فا":2285,"يم":2286," آر":2287," چو":2288," مت":2289," ڪندو":2290," مار":2291," دل":2292," چون":2293,"ولي":2294," بابت":2295,"لن":2296," صرف":2297,"ٽو":2298,"عني":2299," چاهي":2300," وڏ":2301," تب":2302," اُ":2303,"an":2304," خاص":2305,"ندا":2306," طري":2307,"رن":2308," زندگي":2309,"به":2310," ام":2311,"\"\n":2312," ڏس":2313,"ندڙ":2314,"تاب":2315," لک":2316,"ڊي":2317," شامل":2318,"مبر":2319,"جر":2320," نا":2321," عمل":2322,"پور":2323," پڙ":2324," ماڻهن":2325,"قو":2326," ڪيئن":2327,"سل":2328," ڪڏهن":2329,"سين":2330," ههههههههه":2331,"اتي":2332,"بن":2333," ڪندا":2334," هئا":2335," s":2336,"ريون":2337," وارو":2338," سڀني":2339,"طي":2340," آهيان":2341," لو":2342," ڪه":2343,"ٽن":2344," گهٽ":2345,"خر":2346,"es":2347," مختلف":2348,"خو":2349,"هين":2350," بڻ":2351," رهيا":2352,"شت":2353,"الله":2354," طرح":2355,"۔۔":2356,"ڳو":2357," غير":2358,"است":2359," ڪمپ":2360," هوندي":2361," قسم":2362," ڳالهه":2363," تن":2364," نظر":2365,"ارا":2366," مدد":2367," ههههههه":2368," وان":2369,"سر":2370," ڏيڻ":2371," ڏانهن":2372," تون":2373," را":2374," گهرجي":2375," أ":2376," ني":2377," ڪندي":2378,"اااا":2379,"ضي":2380,"دم":2381," خي":2382," سائي":2383," مڪ":2384," ڪيتر":2385,"ڊيو":2386," هوندو":2387," خبر":2388," آهيون":2389,"وا":2390,"at":2391,"مد":2392,"ايد":2393," ڪندڙ":2394,"ترين":2395,"اريخ":2396," واق":2397,"ذا":2398,"اند":2399," ظ":2400," ههههههههههه":2401,"تون":2402," ٻئي":2403,"ڙا":2404," گذ":2405," فو":2406," اندر":2407," اج":2408," ٿيل":2409,"هون":2410,"زا":2411,"ٽا":2412," واپ":2413," ڪيا":2414,"بار":2415," عام":2416," قو":2417,"رس":2418," نق":2419," وچ":2420," ذري":2421," جيڪا":2422,"ڪس":2423,"en":2424,"هههههههههههههههه":2425,"شه":2426," نن":2427,"افي":2428,"زن":2429," ٻن":2430," جيڪڏهن":2431," جيئن":2432," سبب":2433,"شش":2434,"ريل":2435," بل":2436," مڪمل":2437," ڪتاب":2438,"10":2439," حال":2440,"زار":2441," فائ":2442," سيا":2443," رس":2444,"رت":2445,"او":2446," اچ":2447,"جيڪڏهن":2448," قي":2449," پري":2450,"or":2451," گر":2452," تاريخ":2453," ٻين":2454," ايس":2455," حقي":2456,"لاح":2457,"فظ":2458,"لى":2459," جه":2460,"لس":2461," ختم":2462," دا":2463," آھن":2464," شهر":2465,"al":2466," بنيا":2467," نالو":2468," /":2469,"عت":2470," اڪ":2471," سگهو":2472,"ضح":2473," جم":2474," جواب":2475," ٿيندو":2476," ھڪ":2477," تبدي":2478," !\n":2479," _":2480," آمري":2481,"ڪيٽ":2482,"حال":2483,"ڌي":2484," پس":2485," گهڻو":2486," نئين":2487," عورت":2488," بين":2489," ڇڏيو":2490,"توهان":2491," سالن":2492,"فو":2493,"تا":2494," ث":2495," سيڪ":2496,"ورو":2497," ملڪ":2498,"جھ":2499," A":2500,"خل":2501," تق":2502," پيو":2503," اد":2504," ياد":2505," ڏئي":2506," ٿئي":2507,"يان":2508," رهن":2509," ڪون":2510,"بس":2511,"شا":2512," بعد":2513,"روري":2514,"رب":2515," کيس":2516," وٺ":2517," مسئ":2518," پنهنجو":2519," بد":2520,"پوءِ":2521," S":2522,"انون":2523,"جه":2524,"عا":2525," ادا":2526," هل":2527,"گري":2528,"جب":2529,"ضو":2530," آن":2531," وڏو":2532," t":2533," بند":2534," وري":2535," ڏنو":2536," ڇڏي":2537," ايم":2538," خلا":2539," يق":2540," پيا":2541," ملي":2542,"انهي":2543," نٿ":2544," فون":2545," پاڪ":2546," هٿ":2547," اهم":2548," سگهن":2549," اڄ":2550,"يرا":2551," اڃ":2552," اسڪ":2553," آيو":2554,"ارف":2555,"لين":2556,"لوم":2557," ڦ":2558," ڏا":2559," مث":2560,"حت":2561," صورت":2562," ههههه":2563," خر":2564," ۾،":2565," وٺي":2566,"ڇا":2567," ٺاهي":2568," هجي":2569," ڀي":2570,"سا":2571,"وار":2572," هههههههههه":2573,"پورٽ":2574,"ڍي":2575," ويندي":2576," خط":2577," خيال":2578," پئي":2579,"يران":2580,"ندن":2581," اپ":2582,"ڊر":2583," شر":2584,"يڪس":2585," هيٺ":2586," ههههههههههههه":2587," وانگر":2588," اف":2589," آهيو":2590,"ur":2591," دوست":2592," پاس":2593," قيمت":2594," c":2595," دي":2596," ذريعي":2597," ملا":2598," الا":2599," جان":2600," ڪوشش":2601,"it":2602,"سوس":2603," سام":2604,"وري":2605," معي":2606,"جڏهن":2607,"حيح":2608," هم":2609,"جڻ":2610," عليه":2611," حق":2612,"هجي":2613," پهرين":2614," ٻه":2615," انسان":2616,"ليم":2617," قانون":2618,"زم":2619," يون":2620," آئي":2621,"حد":2622,"ro":2623,"مار":2624,"ھنجي":2625,"اها":2626,"ڪم":2627,"لق":2628," ڄاڻ":2629," ايپ":2630," آئون":2631,"ing":2632," بهترين":2633,"يون":2634," رکي":2635,"زو":2636,"اسين":2637,"كن":2638,"شان":2639,"ته":2640,"داري":2641," يعني":2642," ويب":2643,"le":2644,"هور":2645," تص":2646," انا":2647," d":2648,"=\"":2649," '":2650,"باد":2651," ڪارو":2652," صحيح":2653,"ورن":2654," ڪيل":2655," شو":2656," سوچ":2657," ڪمپني":2658,"ڊيا":2659,"ابل":2660," ؟":2661," سائيٽ":2662," اسٽ":2663," ڏسي":2664,"صر":2665," وس":2666," جاري":2667," غل":2668," خوش":2669,"تنهن":2670," فار":2671,"ياتي":2672," ڪل":2673," دوران":2674," بچ":2675,"ساني":2676," ڳو":2677," خدا":2678,"ڻو":2679,"اءِ":2680," ترقي":2681," معلوم":2682," مخ":2683," پڇ":2684," C":2685,"نه":2686," لفظ":2687,"دين":2688," مال":2689," مض":2690,"يي":2691," شايد":2692," ضروري":2693," بن":2694,"ic":2695,"پري":2696," ٻار":2697,"قا":2698," اثر":2699," پاڻي":2700," انتظ":2701," پوء":2702," اوھان":2703," ٻيو":2704," اهڙي":2705,"ليل":2706," رات":2707," هاڻي":2708," پون":2709," بو":2710,"ڪومت":2711," سوال":2712," اوهان":2713," منهن":2714," علائ":2715,"خص":2716," M":2717," حل":2718," بهتر":2719," منظ":2720," فيص":2721," سفر":2722," اک":2723," ٻاهر":2724,"ڙن":2725," خد":2726," اٿ":2727," مطلب":2728,"قل":2729," رنگ":2730," صاح":2731," مواد":2732," حصو":2733," اڃا":2734,"انا":2735," پا":2736," محسوس":2737," بح":2738,"انو":2739," ات":2740," ظاهر":2741," سنڌ":2742,"is":2743,"آآ":2744," عمر":2745,"گو":2746,"ترو":2747," هتي":2748," گو":2749," امي":2750," سين":2751,"صوير":2752," مٿ":2753," مطاب":2754,"ڄي":2755," عال":2756," هوندا":2757,"كل":2758,"غير":2759,"ضوع":2760," ڏني":2761," ٿيون":2762," صف":2763," مهي":2764," آسان":2765," جل":2766,"ed":2767,"لامي":2768," لڳي":2769,"صد":2770,"ِي":2771," صلاح":2772," ڪيترن":2773,"ياري":2774," نم":2775,"لان":2776," مارڪيٽ":2777," ڏسڻ":2778," پنهن":2779,"داد":2780," ڪام":2781,"رار":2782," توھان":2783,"ستي":2784," خري":2785,"كر":2786," طرفان":2787," خلاف":2788," ولا":2789,"<<":2790,"ڏھن":2791," هههههه":2792,"ههههههههه":2793,"مم":2794," وارا":2795,"يل":2796," منهنجو":2797," بيان":2798,"ميشه":2799," لائن":2800," ٿيندي":2801," ,":2802," على":2803," سگهجي":2804," فرا":2805,"اج":2806,"ههههههههههه":2807,"ڪاري":2808," حڪومت":2809,"شو":2810,"لائي":2811," الس":2812," رکڻ":2813,"ٽرو":2814,"گرام":2815," تنهن":2816," پهچ":2817," مست":2818,"هائي":2819," ٽر":2820," معيار":2821,"يات":2822," خدمت":2823,"ٽس":2824," فق":2825," ٽيڪ":2826," اندا":2827,"ازي":2828,"ائل":2829," تصوير":2830,"حا":2831,"ڳي":2832,"سندس":2833,"ايت":2834," گھر":2835,"ائم":2836,"ديد":2837," حو":2838,"ٽري":2839,"15":2840,"اء":2841," جتي":2842," ڏيک":2843," روز":2844," صاحب":2845," پئ":2846," ائين":2847," مٿي":2848," حقيقت":2849," بال":2850,"پن":2851," اختي":2852,"ٽل":2853," جنگ":2854,"اڪاڻ":2855," عر":2856,"ڌو":2857," والله":2858,"18":2859,"باني":2860," جسم":2861,"انس":2862," هههههههههههههه":2863," ۾.\n":2864,"200":2865,"ئڻ":2866," اصل":2867," تيار":2868," تجر":2869,"انه":2870," ههههههههههههههه":2871," گرا":2872," ڏک":2873," الم":2874," آخر":2875," آف":2876," تج":2877,"هار":2878," شخص":2879," دف":2880,"تل":2881," واپس":2882," قب":2883," سک":2884,"re":2885," مم":2886,"ليس":2887," چار":2888," ڪجھ":2889," رڳو":2890," ڏيو":2891,"ائو":2892,"ڪرو":2893," تبديل":2894," دست":2895,"رر":2896," P":2897," سندن":2898," شع":2899," پهريون":2900," تان":2901," قابل":2902,"خري":2903,"كت":2904," وال":2905," پسند":2906," اول":2907," راند":2908," زمين":2909," ڊيٽا":2910," اجاز":2911,"يس":2912," پيار":2913," p":2914," چين":2915,"اسب":2916,"عن":2917," T":2918,"گل":2919,"قن":2920," نظام":2921," >":2922," خود":2923," اتي":2924,"اقت":2925,"am":2926,"ريا":2927," منت":2928,"ريڪ":2929," حلو":2930,"ذه":2931," موق":2932,"دس":2933," مشهور":2934," ايران":2935,"ظيم":2936," اجازت":2937,"واز":2938," مج":2939,"as":2940,"ههههههه":2941,"اھ":2942,"ac":2943,"لت":2944," چوڻ":2945,"ڻيڪ":2946," تف":2947,"بان":2948," آمريڪا":2949," پاڪستان":2950,"توڻيڪ":2951," اسٽي":2952," قدر":2953," باري":2954,"ڪيشن":2955," ڪلا":2956,"قيق":2957," هميشه":2958," نٿو":2959," پيداوار":2960,"سڀ":2961,"چو":2962," سڏ":2963," اسپ":2964,"فوظ":2965,"دان":2966,"جنهن":2967," ڏٺو":2968," ھو":2969," داخل":2970," B":2971," هُ":2972," عو":2973,"وه":2974,"يعني":2975," اسين":2976," صن":2977,"هههههههههه":2978,"us":2979," وڃڻ":2980,"art":2981," آز":2982,"ميت":2983,"تري":2984,"كي":2985,"ــــــــــــ":2986," وارن":2987," عن":2988," برا":2989,"يور":2990," شين":2991," اعلي":2992,"ضحك":2993," بلا":2994," قائم":2995," ار":2996," مص":2997," سٺو":2998,"om":2999,"بح":3000," ؟\n":3001," ڪونه":3002,"ياب":3003," ڏن":3004," نتي":3005," محفوظ":3006,"et":3007,"12":3008," ڪيترائي":3009,"ڙهي":3010,"ماني":3011," صارف":3012,").\n":3013," طاقت":3014,"اريو":3015,"ابط":3016,"هري":3017," st":3018,"سپ":3019,"وني":3020," موڪل":3021,"سٽم":3022," تقري":3023," خوب":3024," سرو":3025,"منهنجي":3026," اب":3027,"ion":3028," لائ":3029," چونڊ":3030," سمجهي":3031,"30":3032," ڳول":3033," سگھ":3034," ويندا":3035,"وٽ":3036," هجڻ":3037," پروگرام":3038," آواز":3039," كل":3040,"مح":3041,"ملي":3042," بنيادي":3043," کڻي":3044,"مس":3045," کا":3046," ننڍ":3047,"صل":3048," شاع":3049," بار":3050," نف":3051,"ڻڻ":3052," مطابق":3053," واقعي":3054," معلومات":3055,"ڇو":3056," تنهنجي":3057,"ارين":3058,"يڪل":3059," ٻنهي":3060," فراهم":3061," ڇاڪاڻ":3062," کانپوءِ":3063,"نت":3064,"ريو":3065," b":3066," شيء":3067," مسل":3068,"ليٽ":3069," سگھي":3070," ڊو":3071," I":3072," هنن":3073," سيڪڙو":3074," صح":3075,"خي":3076," مري":3077," چڪو":3078,"ريان":3079,"ههههههههههههه":3080,"رات":3081,"دگي":3082," ڀر":3083," سخت":3084," خراب":3085," هيو":3086,"آن":3087,"ٽنگ":3088," مقصد":3089," حد":3090,"ساس":3091,"گار":3092," پير":3093," سط":3094," خريد":3095," لکي":3096,"اڄ":3097,"ڳا":3098," بخ":3099," آهين":3100," اسلامي":3101," ڊگ":3102," وار":3103," منصو":3104,"ex":3105," اش":3106,"رم":3107," سڃ":3108," الي":3109," نالي":3110,"اجي":3111,"قول":3112," جڳ":3113," اھو":3114,"id":3115,"خواست":3116,"el":3117," تعليم":3118," هذا":3119," ٿيا":3120,"ره":3121,"؛\n":3122," غلط":3123,"عام":3124," نمون":3125,"ياد":3126,"il":3127,"عه":3128,"ورا":3129,"خخ":3130,"تح":3131," شادي":3132,"ليڪيشن":3133," گرو":3134,"يائين":3135," موضوع":3136," تا":3137," آزاد":3138," وز":3139,"ائش":3140," ڄڻ":3141," اسڪول":3142," ھن":3143," طريقي":3144," فيصلو":3145,"۔\n":3146,"جوان":3147,"ڪان":3148,"202":3149," تحقيق":3150," آفي":3151," پنھنجي":3152,"11":3153," نئون":3154," انداز":3155," اختيار":3156," مين":3157," يور":3158," ڳاله":3159," ٻيهر":3160,"ترا":3161," مُ":3162,"ءٌ":3163," پاران":3164,"اڪٽر":3165," توکي":3166,"زر":3167," نقص":3168," آيا":3169," ٺا":3170," چه":3171," ٻڌايو":3172," ههههههههههههههههه":3173,"ڏو":3174,"ow":3175," ڪير":3176," بنياد":3177," ورتو":3178," ڪمي":3179,"رفت":3180," کول":3181," ڪور":3182,".\"\n":3183," مهر":3184,"دارن":3185,"يندا":3186," نام":3187," يقين":3188," m":3189,"مه":3190," محبت":3191,"ورڊ":3192," ڪپ":3193," نيو":3194,"لاجي":3195," اچڻ":3196,"علي":3197," ايڪس":3198," ٻولي":3199,"100":3200," ملڪن":3201," رد":3202," حي":3203," رست":3204," سطح":3205,"ڊل":3206,"اسي":3207,"50":3208,"چر":3209," جدا":3210," مناسب":3211,"خلي":3212," نس":3213," روح":3214," نقصان":3215,"هيل":3216," ذهن":3217," وسي":3218," ڪهڙي":3219," که":3220," جهڙو":3221,"پيل":3222,"ڪت":3223," اڪثر":3224,"فار":3225," انساني":3226," ٻارن":3227," مفت":3228," رج":3229," مونکي":3230," فقط":3231," سچ":3232,"فتي":3233," شيون":3234," سياسي":3235," پٽ":3236,"؟\"\n":3237,"شر":3238," ڪافي":3239," آخري":3240," چاهيو":3241," درخواست":3242,"صورت":3243," دلچ":3244,"ٻي":3245,"په":3246," قر":3247,"؟؟":3248," چڱ":3249," اڪائون":3250,"14":3251,"شل":3252,"گه":3253," مرڪ":3254,"فته":3255," معا":3256,"عال":3257,"ائيل":3258,"نالاجي":3259," الح":3260,"تيب":3261," مقاب":3262," D":3263," G":3264," ضرور":3265,"oo":3266,"ad":3267," اض":3268," سڄي":3269," ساڳ":3270,"شم":3271,"ٽرني":3272," ڊر":3273," اميد":3274," مثال":3275,"اين":3276," حس":3277,"اندي":3278," ممڪن":3279,"ec":3280," وڊيو":3281,"ههههههههههههههه":3282," ڪاروبار":3283,"هاڻي":3284," رق":3285," ھي":3286," ميڊيا":3287," اڳو":3288," خان":3289," ميل":3290," شاگر":3291," بڻجي":3292," شروعات":3293," سائن":3294,"هههههههههههههه":3295,"اط":3296,"زادي":3297,"ay":3298,"الر":3299,"مث":3300," ڪيون":3301," عالمي":3302,"ريف":3303," نوجوان":3304,"يندو":3305,"ئو":3306," اڻ":3307," واحد":3308," تعلق":3309," ترتيب":3310,"فاظ":3311," السلام":3312,"الت":3313,"لات":3314,"اتو":3315," گهڻي":3316," فارم":3317," اعلان":3318,"ڪٽ":3319," نمبر":3320," ڪٿي":3321," فل":3322," f":3323," ٽيڪنالاجي":3324,"پس":3325,"ايل":3326,"ھر":3327," سُ":3328," فن":3329," ڪان":3330,"صوص":3331,"آئون":3332," ويج":3333,"13":3334," سسٽم":3335," انج":3336," هنڌ":3337," پنج":3338," حالت":3339," w":3340," ڏنل":3341,"ههههه":3342,"ميو":3343,"گا":3344,"هههههه":3345,"لاس":3346," ڀا":3347," کن":3348,"اڻو":3349," عد":3350,"حول":3351,"هتي":3352," شك":3353," وڃن":3354," حض":3355,"ريب":3356,"بد":3357," لوڊ":3358,"احت":3359,"ستائين":3360," ذاتي":3361," H":3362,"هاي":3363,"رد":3364," تعم":3365," ايندڙ":3366," مضمون":3367," ڪجي":3368,"يابي":3369," تڪ":3370," صحت":3371," طريقو":3372," ڳوٺ":3373,"16":3374," ڏسو":3375," انهيءَ":3376,"ظم":3377,"ٻئي":3378," مسئلو":3379,"he":3380,"مع":3381," مز":3382," مطال":3383," هوءَ":3384," ڳن":3385," سنگ":3386,"nd":3387,"ٽرول":3388,"هوري":3389,"ائيندو":3390," ٺاهڻ":3391," اصلي":3392," چا":3393," کين":3394," ڏيکاري":3395," انگ":3396," لڳو":3397,"ou":3398," انگري":3399," اون":3400,"\">":3401," ڪردار":3402," L":3403," پڪ":3404,"ذي":3405," وڻ":3406," چئي":3407," رھ":3408," حڪم":3409,"ابر":3410,"هڪن":3411," ٽو":3412," N":3413," سٺي":3414," قدم":3415," آه":3416,"ريءَ":3417," مشين":3418," ڊائون":3419," حقيقي":3420,"ديم":3421," پورو":3422,"لز":3423," وائ":3424," شڪ":3425,"ol":3426," دير":3427," رهڻ":3428," وج":3429," رفت":3430,"جيئن":3431," احساس":3432," لاڳا":3433,"ائيڊ":3434," پوندو":3435,"تان":3436," مذه":3437,"ادي":3438,"ڪڻ":3439,"ـــــ":3440,"بوط":3441," ايپليڪيشن":3442,"وز":3443," start":3444," حصي":3445,"ڏيل":3446," سروس":3447,"هيون":3448," ڏاڍ":3449,"ٽين":3450," وض":3451," تعمير":3452," حفاظ":3453,"17":3454," سامان":3455,"زمي":3456,"ديق":3457," ڀيرو":3458,"شڪ":3459," هاي":3460," حڪ":3461,"ag":3462," پيغ":3463," اڪائونٽ":3464,"ھين":3465," نٿا":3466," dur":3467,"ارڻ":3468," حم":3469," ماحول":3470," متا":3471," حوالي":3472,"پنهنجي":3473," ڪيس":3474," موجب":3475," صلاحيت":3476," طب":3477," صدر":3478,"ot":3479," پل":3480," پارٽي":3481,"جان":3482,"مپ":3483," اڪي":3484," انٽرني":3485,"شنل":3486," علاج":3487," قوم":3488," خوبصورت":3489," وڌي":3490," وٺڻ":3491,"زائن":3492," مرح":3493,"هل":3494,"يورس":3495," لکڻ":3496," ايئر":3497,"شيا":3498," انھن":3499,"عل":3500," تبديلي":3501," موت":3502,"اُ":3503,"حان":3504," آپري":3505," نفس":3506,"ائيو":3507," پاسي":3508," سائين":3509," حص":3510," صو":3511," سلس":3512," هيون":3513,"ڙين":3514," عي":3515," ڏيندو":3516," سون":3517," ڪهاڻي":3518,"يورسٽي":3519," ميمبر":3520," نش":3521," ايل":3522," گراهڪن":3523," [":3524," اط":3525," پوري":3526,"ٽڻ":3527,">>":3528," ماءُ":3529," موب":3530," ڌر":3531,"ارت":3532," روش":3533," جذ":3534," قبول":3535," ابو":3536,"ٺيان":3537," تيز":3538," پڙهي":3539,"نس":3540,"ter":3541,"اڳ":3542,"شق":3543,"لون":3544,"اهڙي":3545,"پٽ":3546," مقرر":3547,"نين":3548,"ٺا":3549,"وووو":3550,"لڊ":3551,"25":3552," خاند":3553," آمريڪي":3554," تش":3555," پور":3556," عورتن":3557,"اض":3558,"ماري":3559," رياست":3560," تعداد":3561," سماجي":3562," مٿان":3563," بلڪل":3564," ۾\n":3565," جديد":3566," سرگر":3567," مهيا":3568," خرچ":3569,"تك":3570," اڳتي":3571," ٽن":3572," R":3573,"قبل":3574," لازمي":3575," عملي":3576," اکين":3577," \"\n":3578," F":3579," هههههههههههههههههه":3580," تفصي":3581," ڪريان":3582," تس":3583," صاف":3584," ههههههههههههههههههه":3585,"طن":3586," مساف":3587,"هنن":3588,"ريم":3589,"يه":3590,"پا":3591," ڪنٽرول":3592," ڊاڪٽر":3593,"لع":3594," مهرباني":3595," علم":3596," ڌيان":3597," انتظار":3598,"فه":3599," پهچي":3600," اُن":3601," متاثر":3602," معني":3603," حر":3604," پڙهڻ":3605," يونيورسٽي":3606," سگهون":3607," رکيو":3608," ِ":3609," ڍ":3610," مرد":3611,"وڌ":3612," اخت":3613," ڪوبه":3614,"ڪجهه":3615," عوام":3616," گھٽ":3617," جها":3618," آزادي":3619,"ليت":3620,"ext":3621,"طان":3622," مضبوط":3623,"ڪنهن":3624," رپورٽ":3625," نموني":3626," رقم":3627,"دود":3628," يار":3629," سواءِ":3630," رابط":3631," قومي":3632,"ڪڏھن":3633," ذميو":3634," نڪ":3635," عظيم":3636," جلد":3637," E":3638," تہ":3639,"مينٽ":3640," باقي":3641," پوسٽ":3642,"افت":3643," آفيس":3644," باب":3645,"ثيت":3646,"جيتوڻيڪ":3647,"امو":3648," راندي":3649," مليو":3650," عند":3651,"جون":3652," ده":3653," ٻيا":3654," ڪرڻو":3655,"ڪشن":3656," هلا":3657," شرح":3658," ڪئ":3659," k":3660,"سٽري":3661,"انڊ":3662,"قات":3663,"ڀر":3664," ذڪر":3665,"ڪردگي":3666," علاوه":3667," پنهنجن":3668," شيءِ":3669," صنعت":3670,"وال":3671," ڪريون":3672,"ايع":3673," خوشي":3674," شان":3675,"يوٽر":3676," اوزار":3677," to":3678," بينڪ":3679,"ختي":3680," خاصيت":3681,"افٽ":3682,"ent":3683,"فن":3684," W":3685,"دايت":3686," ايف":3687," واڌ":3688,"os":3689," ڪين":3690," ڪاري":3691," لن":3692," ٽيم":3693,"تال":3694,"زين":3695,"بال":3696,"زل":3697,"صور":3698,"ههههههههههههههههه":3699," هلي":3700," ھڪڙو":3701," واضح":3702," حيثيت":3703," حفاظت":3704,"]\n":3705," انسٽ":3706," معام":3707," گفت":3708," خواب":3709,"24":3710," تاز":3711," وق":3712," گا":3713," آباد":3714,"روي":3715," آرام":3716,"ارڊ":3717," ڪارڪردگي":3718," سپ":3719," يورپ":3720," مڙ":3721," وڪرو":3722," گڏيل":3723," ٺهيل":3724," ره":3725," موجوده":3726," علائقي":3727," ڪهڙو":3728," هزار":3729," باد":3730," اهڙو":3731," ايه":3732,"ميل":3733," زندگيءَ":3734," تصديق":3735,"آخر":3736," نيٽ":3737," روشني":3738," گي":3739,"ers":3740,"ائيندي":3741,"ab":3742,"بين":3743,"مط":3744,"ِن":3745," بع":3746," ديو":3747,"َن":3748,"ch":3749,"ندر":3750,"دت":3751," فرق":3752," پوليس":3753," سنڀ":3754," اسلام":3755,"ڪيل":3756,"باري":3757," ٿيندا":3758," هفتي":3759,"داشت":3760," رسائي":3761,"?\n":3762," ماس":3763," ڪارڊ":3764,"ــــــــــــــــ":3765," احت":3766," تجربو":3767," وف":3768,"باب":3769," ڪلڪ":3770," رستو":3771,"ٽيو":3772," زال":3773," ايندو":3774," سج":3775," پهريان":3776,"im":3777,"هندي":3778," بت":3779,"اله":3780,"ig":3781,"يرت":3782,"اااااااا":3783,"بري":3784," ست":3785," نشان":3786,"هايو":3787," رفتار":3788," جمهوري":3789,"لاب":3790,"ولين":3791," لاڳو":3792," جلدي":3793," پڇيو":3794,"ڪه":3795," تڏهن":3796," آءٌ":3797," إ":3798,"انگ":3799," فلم":3800,"لينڊ":3801,"کان":3802,"آر":3803," جھ":3804," جاءِ":3805," پھ":3806," چم":3807," يع":3808," زي":3809,"ڪارڊ":3810,"وڌيڪ":3811,"ائر":3812,"هوءَ":3813,"سنڌ":3814," ملڪي":3815," جائ":3816," حضرت":3817," رح":3818,"جد":3819," آرٽ":3820," ڪونهي":3821," هههههههههههههههههههه":3822," سيٽ":3823," وجود":3824," ڪئين":3825," وزير":3826," پُ":3827," غلطي":3828,"سٽر":3829," مالي":3830," لك":3831,"ولو":3832,"سنگ":3833," ڊالر":3834,"ائيندا":3835,"مثال":3836," in":3837,"بلي":3838," مڃ":3839,"مائي":3840,"چين":3841," خاندان":3842," مف":3843,"باس":3844," ويئي":3845," سرڪاري":3846," پيغام":3847,"نظ":3848,"غان":3849,"سڪ":3850,"ڊا":3851," O":3852," مهم":3853,"اوي":3854,"َر":3855," جنھن":3856,"ماڻ":3857," ڳالهيون":3858," ترج":3859,"and":3860," گوگل":3861,"يام":3862," آگ":3863," ڏاڍو":3864,"حه":3865,"ريز":3866," ايڪ":3867," قتل":3868," بڻائي":3869," دفعو":3870,"ـي":3871," سگهيو":3872," شاء":3873,"000":3874," صبح":3875," ٿيندڙ":3876," پليٽ":3877," ويون":3878," انق":3879,"جيب":3880," شه":3881," موسم":3882,"شك":3883,"ــــــ":3884," گرفت":3885,"نٽ":3886," نمي":3887," ماڊل":3888," مسلمان":3889,"ئل":3890," رهندو":3891," حت":3892,"ابو":3893," ڪيم":3894,"ادر":3895,"ونا":3896,"اڻن":3897,"ايان":3898," نوڪري":3899,"199":3900," ڪندڙن":3901,"قوامي":3902,"جم":3903," انڊ":3904," خير":3905," سگھو":3906," ضح":3907," لکيو":3908," ڪال":3909," جمع":3910," اھ":3911,"وجود":3912," ميز":3913," يقيني":3914,"منهنجو":3915,"پاڻ":3916," ميو":3917," ڪڍ":3918,"ليف":3919," گم":3920," ٻڌي":3921," بحث":3922,"شايد":3923,"كون":3924," هين":3925," ڪمپيوٽر":3926," سگهان":3927," تصور":3928," وضاحت":3929,"ub":3930," پال":3931," لان":3932," ھڪڙي":3933,"لاق":3934," اڳيان":3935,"دل":3936,"ُو":3937," الاقوامي":3938," امت":3939,"الف":3940," ٻو":3941,"قع":3942," پرا":3943,"تب":3944,"قرار":3945," فط":3946,"40":3947,"صف":3948," ون":3949," محمد":3950," اسڪرين":3951," ـ":3952," شڪل":3953," له":3954," معاه":3955," ڪامياب":3956," ادب":3957," سڃاڻ":3958," =":3959," جوڙ":3960," ڪرا":3961,"ايون":3962," ثابت":3963," انتظام":3964," <<":3965,"iv":3966," کانسو":3967," استاد":3968," اني":3969," ايو":3970," اقت":3971,"نن":3972," اصول":3973,"کو":3974," آءِ":3975," الع":3976," ريت":3977," ڪاميابي":3978," مستقبل":3979," برابر":3980," گذريل":3981,"غيره":3982,"ڇي":3983," زور":3984,"؟\"":3985," صورتحال":3986," ماهر":3987," ڳولي":3988,"ينا":3989," سنڌي":3990,"انھن":3991," عرصي":3992," هوس":3993,"ation":3994," جيتوڻيڪ":3995,"يره":3996," l":3997,"ئس":3998,"ڙيل":3999}