{
  "version": "1.0",
  "truncation": null,
  "padding": null,
  "added_tokens": [],
  "normalizer": null,
  "pre_tokenizer": {
    "type": "Sequence",
    "pretokenizers": [
      {
        "type": "Split",
        "pattern": {
          "Regex": "[^\\r\\n\\p{L}\\p{N}]?[\\p{Lu}\\p{Lt}\\p{Lm}\\p{Lo}\\p{M}]*[\\p{Ll}\\p{Lm}\\p{Lo}\\p{M}]+|[^\\r\\n\\p{L}\\p{N}]?[\\p{Lu}\\p{Lt}\\p{Lm}\\p{Lo}\\p{M}]+[\\p{Ll}\\p{Lm}\\p{Lo}\\p{M}]*|\\p{N}{1,3}| ?[^\\s\\p{L}\\p{N}]+[\\r\\n/]*|\\s*[\\r\\n]+|\\s+(?!\\S)|\\s+"
        },
        "behavior": "Isolated",
        "invert": false
      }
    ]
  },
  "post_processor": null,
  "decoder": null,
  "model": {
    "type": "BPE",
    "dropout": null,
    "unk_token": null,
    "continuing_subword_prefix": null,
    "end_of_word_suffix": null,
    "fuse_unk": false,
    "byte_fallback": false,
    "ignore_merges": false,
    "vocab": {
      "\n": 0,
      " ": 1,
      "!": 2,
      "\"": 3,
      "#": 4,
      "$": 5,
      "%": 6,
      "&": 7,
      "'": 8,
      "(": 9,
      ")": 10,
      "*": 11,
      "+": 12,
      ",": 13,
      "-": 14,
      ".": 15,
      "/": 16,
      "0": 17,
      "1": 18,
      "2": 19,
      "3": 20,
      "4": 21,
      "5": 22,
      "6": 23,
      "7": 24,
      "8": 25,
      "9": 26,
      ":": 27,
      ";": 28,
      "<": 29,
      "=": 30,
      ">": 31,
      "?": 32,
      "@": 33,
      "A": 34,
      "B": 35,
      "C": 36,
      "D": 37,
      "E": 38,
      "F": 39,
      "G": 40,
      "H": 41,
      "I": 42,
      "J": 43,
      "K": 44,
      "L": 45,
      "M": 46,
      "N": 47,
      "O": 48,
      "P": 49,
      "Q": 50,
      "R": 51,
      "S": 52,
      "T": 53,
      "U": 54,
      "V": 55,
      "W": 56,
      "X": 57,
      "Y": 58,
      "Z": 59,
      "[": 60,
      "\\": 61,
      "]": 62,
      "^": 63,
      "_": 64,
      "`": 65,
      "a": 66,
      "b": 67,
      "c": 68,
      "d": 69,
      "e": 70,
      "f": 71,
      "g": 72,
      "h": 73,
      "i": 74,
      "j": 75,
      "k": 76,
      "l": 77,
      "m": 78,
      "n": 79,
      "o": 80,
      "p": 81,
      "q": 82,
      "r": 83,
      "s": 84,
      "t": 85,
      "u": 86,
      "v": 87,
      "w": 88,
      "x": 89,
      "y": 90,
      "z": 91,
      "{": 92,
      "}": 93,
      "": 94,
      "¡": 95,
      "£": 96,
      "¤": 97,
      "§": 98,
      "¨": 99,
      "©": 100,
      "­": 101,
      "®": 102,
      "°": 103,
      "±": 104,
      "²": 105,
      "³": 106,
      "µ": 107,
      "·": 108,
      "¸": 109,
      "¹": 110,
      "º": 111,
      "¼": 112,
      "½": 113,
      "¿": 114,
      "À": 115,
      "Á": 116,
      "Ä": 117,
      "Å": 118,
      "Ç": 119,
      "È": 120,
      "É": 121,
      "Í": 122,
      "Î": 123,
      "Ð": 124,
      "Ò": 125,
      "Ó": 126,
      "Ô": 127,
      "Ö": 128,
      "×": 129,
      "Ø": 130,
      "Ú": 131,
      "Ü": 132,
      "ß": 133,
      "à": 134,
      "á": 135,
      "â": 136,
      "ã": 137,
      "ä": 138,
      "å": 139,
      "ç": 140,
      "è": 141,
      "é": 142,
      "ê": 143,
      "ë": 144,
      "ì": 145,
      "í": 146,
      "î": 147,
      "ï": 148,
      "ð": 149,
      "ñ": 150,
      "ò": 151,
      "ó": 152,
      "ô": 153,
      "õ": 154,
      "ö": 155,
      "ø": 156,
      "ù": 157,
      "ú": 158,
      "û": 159,
      "ü": 160,
      "ý": 161,
      "ā": 162,
      "ă": 163,
      "ą": 164,
      "Ć": 165,
      "ć": 166,
      "ĉ": 167,
      "Č": 168,
      "č": 169,
      "Ď": 170,
      "Đ": 171,
      "đ": 172,
      "ē": 173,
      "ė": 174,
      "ę": 175,
      "ě": 176,
      "ğ": 177,
      "İ": 178,
      "ı": 179,
      "ľ": 180,
      "Ł": 181,
      "ł": 182,
      "ń": 183,
      "ň": 184,
      "ō": 185,
      "ő": 186,
      "ř": 187,
      "Ś": 188,
      "ś": 189,
      "Ş": 190,
      "ş": 191,
      "Š": 192,
      "š": 193,
      "ţ": 194,
      "ū": 195,
      "ů": 196,
      "ź": 197,
      "ż": 198,
      "Ž": 199,
      "ž": 200,
      "Ƙ": 201,
      "ȃ": 202,
      "ȉ": 203,
      "ȑ": 204,
      "ȗ": 205,
      "ș": 206,
      "ț": 207,
      "ə": 208,
      "˚": 209,
      "˝": 210,
      "́": 211,
      "̌": 212,
      "̣": 213,
      "Ω": 214,
      "έ": 215,
      "ή": 216,
      "α": 217,
      "δ": 218,
      "μ": 219,
      "ο": 220,
      "π": 221,
      "ρ": 222,
      "ς": 223,
      "τ": 224,
      "υ": 225,
      "χ": 226,
      "ω": 227,
      "ό": 228,
      "К": 229,
      "а": 230,
      "е": 231,
      "л": 232,
      "н": 233,
      "о": 234,
      "ь": 235,
      "і": 236,
      "ј": 237,
      "Ґ": 238,
      "ӣ": 239,
      "ӧ": 240,
      "ི": 241,
      "ྀ": 242,
      "ᵉ": 243,
      "ᵒ": 244,
      "ᵛ": 245,
      "ᵤ": 246,
      "ᵧ": 247,
      "ᶫ": 248,
      "ṓ": 249,
      "ṣ": 250,
      "ọ": 251,
      "ố": 252,
      "ἀ": 253,
      "‍": 254,
      "‎": 255,
      "‐": 256,
      "‑": 257,
      "‒": 258,
      "―": 259,
      "‖": 260,
      "‟": 261,
      "•": 262,
      "‰": 263,
      "′": 264,
      "″": 265,
      "‼": 266,
      "⁄": 267,
      "⁠": 268,
      "⁰": 269,
      "₂": 270,
      "ₒ": 271,
      "€": 272,
      "™": 273,
      "↑": 274,
      "⇒": 275,
      "−": 276,
      "∶": 277,
      "⏱": 278,
      "■": 279,
      "▪": 280,
      "▶": 281,
      "►": 282,
      "○": 283,
      "●": 284,
      "☀": 285,
      "☃": 286,
      "☑": 287,
      "☘": 288,
      "☺": 289,
      "♀": 290,
      "♡": 291,
      "♥": 292,
      "♦": 293,
      "♬": 294,
      "⚠": 295,
      "⚤": 296,
      "⚫": 297,
      "⚽": 298,
      "✓": 299,
      "✔": 300,
      "✠": 301,
      "✨": 302,
      "❄": 303,
      "❤": 304,
      "シ": 305,
      "传": 306,
      "多": 307,
      "陈": 308,
      "": 309,
      "": 310,
      "ﬁ": 311,
      "️": 312,
      "🇦": 313,
      "🇧": 314,
      "🇫": 315,
      "🇬": 316,
      "🇭": 317,
      "🇮": 318,
      "🇱": 319,
      "🇵": 320,
      "🇷": 321,
      "🇸": 322,
      "🇺": 323,
      "🇾": 324,
      "🌋": 325,
      "🌐": 326,
      "🌠": 327,
      "🌧": 328,
      "🌨": 329,
      "🌸": 330,
      "🌺": 331,
      "🌻": 332,
      "🍉": 333,
      "🍊": 334,
      "🎀": 335,
      "🎁": 336,
      "🎗": 337,
      "🏡": 338,
      "🏻": 339,
      "🐄": 340,
      "🐥": 341,
      "🐦": 342,
      "🐱": 343,
      "🐶": 344,
      "👀": 345,
      "👁": 346,
      "👇": 347,
      "👣": 348,
      "👶": 349,
      "💅": 350,
      "💋": 351,
      "💎": 352,
      "💕": 353,
      "💘": 354,
      "💙": 355,
      "💚": 356,
      "💟": 357,
      "💪": 358,
      "💯": 359,
      "📌": 360,
      "📢": 361,
      "📱": 362,
      "📸": 363,
      "🔄": 364,
      "🔥": 365,
      "🔹": 366,
      "🕓": 367,
      "🕷": 368,
      "🕸": 369,
      "🖥": 370,
      "😀": 371,
      "😁": 372,
      "😂": 373,
      "😅": 374,
      "😉": 375,
      "😊": 376,
      "😍": 377,
      "😎": 378,
      "😏": 379,
      "😬": 380,
      "😭": 381,
      "🙂": 382,
      "🙌": 383,
      "🙏": 384,
      "🛁": 385,
      "🟡": 386,
      "🟨": 387,
      "🤍": 388,
      "🤔": 389,
      "🤢": 390,
      "🤦": 391,
      "🤩": 392,
      "🤪": 393,
      "🤯": 394,
      "🥚": 395,
      "🥥": 396,
      "🥰": 397,
      "🥲": 398,
      "🥹": 399,
      "🥺": 400,
      "🦟": 401,
      "🩹": 402,
      "🩺": 403,
      "🪐": 404,
      "🫒": 405,
      "🫠": 406,
      "🫶": 407,
      "je": 408,
      " s": 409,
      " p": 410,
      "na": 411,
      "ra": 412,
      " i": 413,
      "ko": 414,
      "ni": 415,
      "ti": 416,
      " d": 417,
      " o": 418,
      " u": 419,
      "li": 420,
      "no": 421,
      ".\n": 422,
      " je": 423,
      "re": 424,
      "ro": 425,
      "ta": 426,
      "la": 427,
      "va": 428,
      "ri": 429,
      "ja": 430,
      " na": 431,
      "ka": 432,
      "ne": 433,
      " po": 434,
      "te": 435,
      "ma": 436,
      "vi": 437,
      "to": 438,
      " z": 439,
      "vo": 440,
      " b": 441,
      "ca": 442,
      " m": 443,
      "ju": 444,
      "di": 445,
      "ve": 446,
      "ji": 447,
      " za": 448,
      " ko": 449,
      "ci": 450,
      "da": 451,
      "lo": 452,
      "go": 453,
      " se": 454,
      " da": 455,
      " su": 456,
      " a": 457,
      " do": 458,
      "st": 459,
      "ru": 460,
      "mo": 461,
      "le": 462,
      " ne": 463,
      "ki": 464,
      "nje": 465,
      " od": 466,
      " ka": 467,
      "nu": 468,
      "ku": 469,
      " iz": 470,
      " bi": 471,
      "me": 472,
      " t": 473,
      " pro": 474,
      "sta": 475,
      "ga": 476,
      "ke": 477,
      " sa": 478,
      "će": 479,
      "sti": 480,
      "ron": 481,
      "caron": 482,
      " ra": 483,
      " pre": 484,
      "mi": 485,
      " pri": 486,
      "lu": 487,
      "bi": 488,
      "zi": 489,
      "lje": 490,
      "nja": 491,
      "či": 492,
      "de": 493,
      "če": 494,
      " mo": 495,
      "po": 496,
      " š": 497,
      "pa": 498,
      " g": 499,
      " k": 500,
      "tu": 501,
      "cu": 502,
      "ce": 503,
      "ba": 504,
      "bo": 505,
      "si": 506,
      " to": 507,
      " go": 508,
      " S": 509,
      " te": 510,
      " ni": 511,
      " M": 512,
      " re": 513,
      "sko": 514,
      "že": 515,
      " v": 516,
      "za": 517,
      "ča": 518,
      "sa": 519,
      " koji": 520,
      "ski": 521,
      "ći": 522,
      "še": 523,
      "ccaron": 524,
      " B": 525,
      "ži": 526,
      "du": 527,
      "lja": 528,
      "do": 529,
      "sto": 530,
      "pi": 531,
      " P": 532,
      "gu": 533,
      " će": 534,
      " H": 535,
      "gra": 536,
      "jo": 537,
      " D": 538,
      " mi": 539,
      " no": 540,
      "lju": 541,
      "nji": 542,
      " ve": 543,
      "se": 544,
      "&ccaron": 545,
      ";e": 546,
      " vi": 547,
      " e": 548,
      "cute": 549,
      "cacute": 550,
      "nom": 551,
      "\",": 552,
      " pa": 553,
      "ća": 554,
      "rva": 555,
      "rije": 556,
      " što": 557,
      "nog": 558,
      " ta": 559,
      " -": 560,
      " godi": 561,
      "nih": 562,
      "ža": 563,
      " K": 564,
      " f": 565,
      "ša": 566,
      "tra": 567,
      "vje": 568,
      "nim": 569,
      " \"": 570,
      "cije": 571,
      "lji": 572,
      "pu": 573,
      "su": 574,
      " ob": 575,
      " A": 576,
      " ma": 577,
      "ske": 578,
      " R": 579,
      "vr": 580,
      "&cacute": 581,
      " li": 582,
      "Na": 583,
      " h": 584,
      "be": 585,
      "ši": 586,
      "cija": 587,
      "gi": 588,
      "pe": 589,
      "zcaron": 590,
      " V": 591,
      " svo": 592,
      "so": 593,
      " me": 594,
      "ge": 595,
      "nju": 596,
      "rvat": 597,
      "vu": 598,
      " tre": 599,
      " (": 600,
      " ima": 601,
      "dni": 602,
      "20": 603,
      "or": 604,
      ";i": 605,
      " vo": 606,
      "lj": 607,
      " kako": 608,
      "ze": 609,
      "sje": 610,
      "đe": 611,
      " T": 612,
      " di": 613,
      " pu": 614,
      " koje": 615,
      "vije": 616,
      " dru": 617,
      "dje": 618,
      " raz": 619,
      " =": 620,
      " G": 621,
      " =>": 622,
      "Za": 623,
      " naj": 624,
      " sta": 625,
      "kom": 626,
      " L": 627,
      "&zcaron": 628,
      " bo": 629,
      " Ma": 630,
      " ti": 631,
      "mje": 632,
      " I": 633,
      " nije": 634,
      "kon": 635,
      " in": 636,
      " &": 637,
      " va": 638,
      " pred": 639,
      " ja": 640,
      "ska": 641,
      " nje": 642,
      " si": 643,
      " sve": 644,
      "vno": 645,
      "zo": 646,
      "ho": 647,
      " kao": 648,
      "mu": 649,
      " [": 650,
      " ali": 651,
      "tak": 652,
      ";a": 653,
      " O": 654,
      " J": 655,
      "dno": 656,
      "pre": 657,
      " E": 658,
      " pr": 659,
      " N": 660,
      "stu": 661,
      " sam": 662,
      "pra": 663,
      " de": 664,
      " is": 665,
      "ran": 666,
      " če": 667,
      " C": 668,
      "rati": 669,
      " gra": 670,
      "nije": 671,
      " godine": 672,
      " ku": 673,
      " mje": 674,
      " st": 675,
      "vni": 676,
      "zu": 677,
      " pos": 678,
      "zna": 679,
      "rža": 680,
      "Po": 681,
      "ar": 682,
      " smo": 683,
      " zna": 684,
      "bu": 685,
      "tni": 686,
      "vić": 687,
      " pod": 688,
      " biti": 689,
      " pot": 690,
      " pi": 691,
      " koja": 692,
      "đu": 693,
      " jo": 694,
      "skog": 695,
      " dje": 696,
      " Hrvat": 697,
      "tno": 698,
      "govo": 699,
      "nta": 700,
      "ču": 701,
      "dio": 702,
      "liko": 703,
      " F": 704,
      "vlja": 705,
      " nakon": 706,
      " ot": 707,
      "đa": 708,
      "ina": 709,
      " pla": 710,
      " samo": 711,
      " ili": 712,
      " dana": 713,
      " više": 714,
      "00": 715,
      " stra": 716,
      " pra": 717,
      "\"\",": 718,
      " lju": 719,
      " U": 720,
      "sni": 721,
      "sno": 722,
      " kon": 723,
      "rno": 724,
      "\":": 725,
      "kao": 726,
      " us": 727,
      " prije": 728,
      "an": 729,
      "\":\"": 730,
      " gla": 731,
      " mu": 732,
      " bio": 733,
      " nji": 734,
      " tu": 735,
      " uz": 736,
      " tra": 737,
      " eu": 738,
      "šta": 739,
      "ste": 740,
      " jed": 741,
      "dan": 742,
      " igra": 743,
      "ako": 744,
      " svi": 745,
      "čki": 746,
      "ije": 747,
      "rt": 748,
      " ga": 749,
      "vanje": 750,
      "tiv": 751,
      "gre": 752,
      " Za": 753,
      " tako": 754,
      " '": 755,
      " Mi": 756,
      " ovo": 757,
      " pe": 758,
      " ži": 759,
      "bog": 760,
      "skoj": 761,
      " kra": 762,
      "ću": 763,
      "gle": 764,
      "tje": 765,
      " može": 766,
      "vati": 767,
      " jer": 768,
      "al": 769,
      " be": 770,
      " još": 771,
      " du": 772,
      "skom": 773,
      "dst": 774,
      " ru": 775,
      "skih": 776,
      " poli": 777,
      "dra": 778,
      "-a": 779,
      " ba": 780,
      "nici": 781,
      " že": 782,
      "gla": 783,
      "žu": 784,
      " osta": 785,
      "fi": 786,
      "vio": 787,
      "..": 788,
      "nda": 789,
      "nti": 790,
      "bro": 791,
      "sku": 792,
      "telji": 793,
      "bje": 794,
      " rekao": 795,
      "ha": 796,
      " treba": 797,
      "he": 798,
      "mije": 799,
      " mogu": 800,
      "nt": 801,
      "ciju": 802,
      " godina": 803,
      "rni": 804,
      " zbog": 805,
      "vali": 806,
      " posto": 807,
      " spo": 808,
      "godi": 809,
      "fe": 810,
      "šte": 811,
      "27": 812,
      "rok": 813,
      " či": 814,
      " slu": 815,
      "št": 816,
      "Ne": 817,
      "ona": 818,
      "on": 819,
      "202": 820,
      " sva": 821,
      "vanja": 822,
      "stra": 823,
      " Š": 824,
      "?\n": 825,
      " bilo": 826,
      "om": 827,
      "19": 828,
      "vlje": 829,
      "lije": 830,
      "nosti": 831,
      "lni": 832,
      " bu": 833,
      "sjedni": 834,
      "stva": 835,
      " vr": 836,
      " lo": 837,
      " bro": 838,
      " vrije": 839,
      " obja": 840,
      "in": 841,
      "kla": 842,
      "vom": 843,
      "10": 844,
      "rija": 845,
      "kra": 846,
      " oso": 847,
      "čko": 848,
      " os": 849,
      " veli": 850,
      "reme": 851,
      " vje": 852,
      " ro": 853,
      " oko": 854,
      " eura": 855,
      "takmi": 856,
      " obi": 857,
      "red": 858,
      "tom": 859,
      "dstrok": 860,
      "er": 861,
      " cije": 862,
      "&dstrok": 863,
      " dobi": 864,
      " dok": 865,
      "pli": 866,
      " hrvat": 867,
      " vla": 868,
      "jp": 869,
      "čno": 870,
      "jom": 871,
      " utakmi": 872,
      "tro": 873,
      "kri": 874,
      " doda": 875,
      "telj": 876,
      " već": 877,
      ";u": 878,
      " au": 879,
      ".jp": 880,
      ".jpg": 881,
      "uro": 882,
      "vori": 883,
      "joj": 884,
      "što": 885,
      "klju": 886,
      " bila": 887,
      " tri": 888,
      "van": 889,
      " posta": 890,
      "kre": 891,
      "lim": 892,
      "40": 893,
      "rom": 894,
      " radi": 895,
      "il": 896,
      "nika": 897,
      "lno": 898,
      " izbo": 899,
      "pri": 900,
      "nica": 901,
      " c": 902,
      " živo": 903,
      " kada": 904,
      "viti": 905,
      " op": 906,
      " Z": 907,
      "nci": 908,
      " mora": 909,
      " nas": 910,
      " tije": 911,
      "tko": 912,
      "bli": 913,
      "nima": 914,
      " predsjedni": 915,
      "Ka": 916,
      " njego": 917,
      "ter": 918,
      " ju": 919,
      "skim": 920,
      "vara": 921,
      "vima": 922,
      " sto": 923,
      " iza": 924,
      "vih": 925,
      "el": 926,
      "kti": 927,
      " č": 928,
      " ljudi": 929,
      " Po": 930,
      " prema": 931,
      "risti": 932,
      "šti": 933,
      "To": 934,
      "ško": 935,
      "ner": 936,
      " svoje": 937,
      "ali": 938,
      "pro": 939,
      "Do": 940,
      " odlu": 941,
      "voj": 942,
      "sla": 943,
      " drža": 944,
      " neko": 945,
      "jući": 946,
      "hi": 947,
      "nost": 948,
      "12": 949,
      " odno": 950,
      "spo": 951,
      "rani": 952,
      "lazi": 953,
      "ven": 954,
      "\".\n": 955,
      " dva": 956,
      " Euro": 957,
      "stvo": 958,
      " la": 959,
      " ih": 960,
      "vim": 961,
      " protiv": 962,
      " kri": 963,
      " ze": 964,
      "čke": 965,
      "iz": 966,
      " Bo": 967,
      "pisa": 968,
      " ova": 969,
      " auto": 970,
      "ble": 971,
      " njiho": 972,
      " bez": 973,
      " nasta": 974,
      " nam": 975,
      "!\n": 976,
      "cima": 977,
      " jedan": 978,
      "),": 979,
      " poče": 980,
      " drugi": 981,
      "ciji": 982,
      "tar": 983,
      " gdje": 984,
      " rije": 985,
      " nego": 986,
      " sre": 987,
      "met": 988,
      " kre": 989,
      "ruč": 990,
      " Zagre": 991,
      "rao": 992,
      "godiš": 993,
      "No": 994,
      "njem": 995,
      "tka": 996,
      "ndi": 997,
      " klu": 998,
      "nuti": 999,
      " sla": 1000,
      "lom": 1001,
      "pje": 1002,
      " kad": 1003,
      " mili": 1004,
      "sre": 1005,
      " sada": 1006,
      " Pe": 1007,
      "vila": 1008,
      "kup": 1009,
      "jte": 1010,
      "ng": 1011,
      " mla": 1012,
      " ce": 1013,
      " nema": 1014,
      " pomo": 1015,
      "for": 1016,
      "tvr": 1017,
      "vao": 1018,
      " pita": 1019,
      "aj": 1020,
      "dne": 1021,
      "šao": 1022,
      "nd": 1023,
      " dije": 1024,
      " tr": 1025,
      " Re": 1026,
      " pobje": 1027,
      " ki": 1028,
      " toga": 1029,
      " svje": 1030,
      "dna": 1031,
      "pla": 1032,
      " im": 1033,
      " nisu": 1034,
      " sje": 1035,
      " trenu": 1036,
      " pove": 1037,
      "stup": 1038,
      "gleda": 1039,
      "vaju": 1040,
      "bno": 1041,
      "jek": 1042,
      " Pa": 1043,
      " pje": 1044,
      "dom": 1045,
      " broj": 1046,
      "nuo": 1047,
      " vrijeme": 1048,
      " dobro": 1049,
      " prija": 1050,
      "Da": 1051,
      " tvr": 1052,
      " sigu": 1053,
      " Ba": 1054,
      " Ja": 1055,
      " sma": 1056,
      " poka": 1057,
      " upra": 1058,
      " Ko": 1059,
      " ci": 1060,
      " svije": 1061,
      " lije": 1062,
      " Sa": 1063,
      " među": 1064,
      "pada": 1065,
      "tim": 1066,
      "rga": 1067,
      "sli": 1068,
      " ča": 1069,
      "ren": 1070,
      " stu": 1071,
      " ove": 1072,
      " popu": 1073,
      "rima": 1074,
      "Mo": 1075,
      " društ": 1076,
      "lova": 1077,
      " predsta": 1078,
      " proble": 1079,
      "nski": 1080,
      "vog": 1081,
      " Ka": 1082,
      " pozi": 1083,
      "nice": 1084,
      " Mo": 1085,
      "jem": 1086,
      "jim": 1087,
      " fina": 1088,
      "meta": 1089,
      " politi": 1090,
      "30": 1091,
      " on": 1092,
      " še": 1093,
      " novi": 1094,
      " taj": 1095,
      " W": 1096,
      " ako": 1097,
      "it": 1098,
      " sti": 1099,
      " Ra": 1100,
      "star": 1101,
      " sezo": 1102,
      "rio": 1103,
      " obra": 1104,
      "Pro": 1105,
      "log": 1106,
      " zaje": 1107,
      "bra": 1108,
      "...\n": 1109,
      "15": 1110,
      " dio": 1111,
      " kod": 1112,
      "vijek": 1113,
      "tjeca": 1114,
      " oz": 1115,
      " proš": 1116,
      "Mi": 1117,
      "rta": 1118,
      " Da": 1119,
      "onal": 1120,
      "nik": 1121,
      " ide": 1122,
      "tem": 1123,
      " par": 1124,
      "ška": 1125,
      " Be": 1126,
      " zdra": 1127,
      " Va": 1128,
      "zira": 1129,
      " koju": 1130,
      " Du": 1131,
      "diti": 1132,
      "gao": 1133,
      "noj": 1134,
      " mjese": 1135,
      "sam": 1136,
      " Li": 1137,
      " nekoliko": 1138,
      "kto": 1139,
      " upo": 1140,
      " stva": 1141,
      " potre": 1142,
      "niji": 1143,
      " fo": 1144,
      "bije": 1145,
      " proiz": 1146,
      " le": 1147,
      "vija": 1148,
      "lan": 1149,
      " zah": 1150,
      " danas": 1151,
      " so": 1152,
      "nira": 1153,
      " zavr": 1154,
      " Mar": 1155,
      " drugo": 1156,
      "cij": 1157,
      " tje": 1158,
      " poru": 1159,
      " medi": 1160,
      "80": 1161,
      " sati": 1162,
      "voji": 1163,
      " sna": 1164,
      " pose": 1165,
      "čio": 1166,
      "dar": 1167,
      " ško": 1168,
      " najbo": 1169,
      " neki": 1170,
      "čin": 1171,
      "vne": 1172,
      " miliju": 1173,
      "lano": 1174,
      "vala": 1175,
      " zem": 1176,
      "klo": 1177,
      " bili": 1178,
      " uspje": 1179,
      "meri": 1180,
      " oba": 1181,
      " Ru": 1182,
      " poslje": 1183,
      "Pre": 1184,
      " Do": 1185,
      "hu": 1186,
      "pan": 1187,
      "vna": 1188,
      " ste": 1189,
      "stve": 1190,
      " otkri": 1191,
      "tku": 1192,
      " osi": 1193,
      "dnji": 1194,
      "čka": 1195,
      "zul": 1196,
      "kraji": 1197,
      " ho": 1198,
      " prili": 1199,
      "đer": 1200,
      " Ne": 1201,
      "lek": 1202,
      "nosi": 1203,
      " kro": 1204,
      " orga": 1205,
      " izra": 1206,
      "vši": 1207,
      " kaže": 1208,
      " sr": 1209,
      " fa": 1210,
      " kori": 1211,
      "sjeti": 1212,
      " lje": 1213,
      " isto": 1214,
      "rne": 1215,
      "žbe": 1216,
      "vore": 1217,
      "Nakon": 1218,
      " jedno": 1219,
      " tome": 1220,
      " Hrvatske": 1221,
      " proizvo": 1222,
      " odgovo": 1223,
      " prvi": 1224,
      " tijekom": 1225,
      " isti": 1226,
      " nešto": 1227,
      "rak": 1228,
      " vreme": 1229,
      "Bi": 1230,
      "Je": 1231,
      "zao": 1232,
      " doma": 1233,
      "telja": 1234,
      " zapo": 1235,
      " istra": 1236,
      " pozna": 1237,
      "vnog": 1238,
      "tan": 1239,
      "kupi": 1240,
      " nogo": 1241,
      " Jo": 1242,
      " puno": 1243,
      " To": 1244,
      " sigurno": 1245,
      "nija": 1246,
      "201": 1247,
      " Hrvatskoj": 1248,
      " umje": 1249,
      "menta": 1250,
      "Sa": 1251,
      " kom": 1252,
      "Iz": 1253,
      " malo": 1254,
      "volj": 1255,
      "ković": 1256,
      " uvijek": 1257,
      "vili": 1258,
      " žu": 1259,
      "vla": 1260,
      " prva": 1261,
      " dvije": 1262,
      " izme": 1263,
      " Dina": 1264,
      " Gra": 1265,
      "man": 1266,
      " put": 1267,
      "Me": 1268,
      " Me": 1269,
      "op": 1270,
      " vozi": 1271,
      " organi": 1272,
      "50": 1273,
      " slo": 1274,
      " inte": 1275,
      "din": 1276,
      "nistar": 1277,
      "zulta": 1278,
      " pono": 1279,
      " Go": 1280,
      "dru": 1281,
      " nad": 1282,
      " poja": 1283,
      " kojima": 1284,
      " njezi": 1285,
      "ur": 1286,
      "gađa": 1287,
      "Ra": 1288,
      "len": 1289,
      "11": 1290,
      "dova": 1291,
      "nio": 1292,
      " Ve": 1293,
      "gli": 1294,
      "ted": 1295,
      " milijuna": 1296,
      "ver": 1297,
      " nika": 1298,
      " Bi": 1299,
      " Lu": 1300,
      "tne": 1301,
      " održa": 1302,
      "bri": 1303,
      "bio": 1304,
      "publi": 1305,
      "lne": 1306,
      "Od": 1307,
      " sad": 1308,
      " Na": 1309,
      "tua": 1310,
      " kojem": 1311,
      "vnom": 1312,
      "šu": 1313,
      " br": 1314,
      "tiri": 1315,
      "en": 1316,
      "niti": 1317,
      "vreme": 1318,
      " pogo": 1319,
      " dr": 1320,
      " Ro": 1321,
      " ona": 1322,
      "zenta": 1323,
      "nama": 1324,
      "dnje": 1325,
      "rje": 1326,
      " jedna": 1327,
      "ajdu": 1328,
      " napra": 1329,
      " ri": 1330,
      "više": 1331,
      "đi": 1332,
      " Ni": 1333,
      " oče": 1334,
      "vodi": 1335,
      " rekla": 1336,
      "stru": 1337,
      "pak": 1338,
      " neće": 1339,
      "-u": 1340,
      "kr": 1341,
      " tro": 1342,
      " imaju": 1343,
      " fil": 1344,
      "Ko": 1345,
      " područ": 1346,
      "com": 1347,
      " rezulta": 1348,
      "272": 1349,
      "čkog": 1350,
      "tre": 1351,
      " najve": 1352,
      " uklju": 1353,
      " kojoj": 1354,
      " dvo": 1355,
      "kli": 1356,
      " Spli": 1357,
      "smo": 1358,
      ").\n": 1359,
      "rana": 1360,
      " Ju": 1361,
      " dalje": 1362,
      "Ima": 1363,
      "tovo": 1364,
      " sluča": 1365,
      " onda": 1366,
      " govori": 1367,
      "leda": 1368,
      " svoj": 1369,
      " vrlo": 1370,
      " uvje": 1371,
      "ime": 1372,
      "forma": 1373,
      " između": 1374,
      "prezenta": 1375,
      " No": 1376,
      " euro": 1377,
      "Ni": 1378,
      "kovi": 1379,
      " ope": 1380,
      " jako": 1381,
      " situa": 1382,
      " budu": 1383,
      "tri": 1384,
      "jan": 1385,
      " mre": 1386,
      " La": 1387,
      "14": 1388,
      " dan": 1389,
      "id": 1390,
      "čne": 1391,
      " pet": 1392,
      "-godiš": 1393,
      " osje": 1394,
      "Ma": 1395,
      "zne": 1396,
      " tek": 1397,
      " dese": 1398,
      " reprezenta": 1399,
      " Vi": 1400,
      " vam": 1401,
      " ćemo": 1402,
      " voj": 1403,
      " razli": 1404,
      " događa": 1405,
      " prosto": 1406,
      "tke": 1407,
      "žno": 1408,
      " Vla": 1409,
      "'\n": 1410,
      "18": 1411,
      " veći": 1412,
      " svojim": 1413,
      "dri": 1414,
      "stri": 1415,
      " Bu": 1416,
      " susta": 1417,
      " smje": 1418,
      "nera": 1419,
      "jih": 1420,
      " projek": 1421,
      " svoju": 1422,
      " kroz": 1423,
      "',": 1424,
      "im": 1425,
      "kle": 1426,
      "čni": 1427,
      "16": 1428,
      "Re": 1429,
      "Kako": 1430,
      " njih": 1431,
      " čak": 1432,
      "nj": 1433,
      " naše": 1434,
      "ss": 1435,
      "271": 1436,
      " oni": 1437,
      " joj": 1438,
      " dola": 1439,
      " poku": 1440,
      " progra": 1441,
      "roja": 1442,
      "riti": 1443,
      "stak": 1444,
      " poslo": 1445,
      "rbi": 1446,
      " mom": 1447,
      "co": 1448,
      "rali": 1449,
      "vanju": 1450,
      "nske": 1451,
      " ču": 1452,
      " tak": 1453,
      ".,": 1454,
      " predsjednik": 1455,
      "ški": 1456,
      " četvr": 1457,
      "raž": 1458,
      "čić": 1459,
      " kvali": 1460,
      " također": 1461,
      "13": 1462,
      " gu": 1463,
      " loka": 1464,
      "vac": 1465,
      " ak": 1466,
      " mjesto": 1467,
      " gleda": 1468,
      "nk": 1469,
      " puta": 1470,
      " veliki": 1471,
      "vnosti": 1472,
      " poput": 1473,
      " minu": 1474,
      " ula": 1475,
      "Ako": 1476,
      " ono": 1477,
      "Ve": 1478,
      " pora": 1479,
      " ras": 1480,
      " pripre": 1481,
      "šli": 1482,
      " zajedni": 1483,
      " Europ": 1484,
      "vor": 1485,
      " Hajdu": 1486,
      " poz": 1487,
      " Ž": 1488,
      " prven": 1489,
      "Pri": 1490,
      " vra": 1491,
      "nače": 1492,
      "čiti": 1493,
      " osoba": 1494,
      "17": 1495,
      "nka": 1496,
      " zašti": 1497,
      " svjet": 1498,
      " glaz": 1499,
      "ry": 1500,
      "dije": 1501,
      " uda": 1502,
      " građa": 1503,
      "ut": 1504,
      " prona": 1505,
      " Le": 1506,
      " osigu": 1507,
      "uze": 1508,
      "ncija": 1509,
      "vijesti": 1510,
      " jednom": 1511,
      "000": 1512,
      " koliko": 1513,
      " izja": 1514,
      " Rije": 1515,
      " kandi": 1516,
      "čili": 1517,
      " vodi": 1518,
      "ks": 1519,
      "movi": 1520,
      " napa": 1521,
      ":\n": 1522,
      " ge": 1523,
      "vede": 1524,
      " grad": 1525,
      "bora": 1526,
      " društve": 1527,
      " An": 1528,
      "govara": 1529,
      "128": 1530,
      " bra": 1531,
      " Se": 1532,
      "Vi": 1533,
      "štu": 1534,
      "nula": 1535,
      " konce": 1536,
      " mnog": 1537,
      "čkih": 1538,
      " ovaj": 1539,
      " način": 1540,
      " utakmice": 1541,
      "gro": 1542,
      " četiri": 1543,
      " sli": 1544,
      " zat": 1545,
      " tada": 1546,
      "102": 1547,
      "ct": 1548,
      " tisu": 1549,
      " ime": 1550,
      " pret": 1551,
      " druge": 1552,
      " dugo": 1553,
      " smatra": 1554,
      "šnje": 1555,
      "220": 1556,
      "Tako": 1557,
      "rna": 1558,
      " jedi": 1559,
      " nastu": 1560,
      "ćem": 1561,
      "cijama": 1562,
      " Lo": 1563,
      " osvoji": 1564,
      " odnosno": 1565,
      " neka": 1566,
      "hva": 1567,
      "ksi": 1568,
      "nke": 1569,
      "sao": 1570,
      "mpa": 1571,
      "DZ": 1572,
      "nali": 1573,
      " radio": 1574,
      " In": 1575,
      "480": 1576,
      " europ": 1577,
      "340": 1578,
      "nova": 1579,
      " istak": 1580,
      " Ga": 1581,
      " vidje": 1582,
      "200": 1583,
      " službe": 1584,
      "640": 1585,
      "tima": 1586,
      " preko": 1587,
      " naja": 1588,
      " vrati": 1589,
      " Su": 1590,
      "sle": 1591,
      "rac": 1592,
      " spa": 1593,
      "sne": 1594,
      "stvu": 1595,
      " ši": 1596,
      "tio": 1597,
      " ure": 1598,
      "vesti": 1599,
      "rica": 1600,
      "slu": 1601,
      " sura": 1602,
      "plo": 1603,
      "menti": 1604,
      "tna": 1605,
      "per": 1606,
      "oj": 1607,
      "sije": 1608,
      " piše": 1609,
      " lu": 1610,
      " zra": 1611,
      " glu": 1612,
      " foto": 1613,
      " pokuša": 1614,
      " kandida": 1615,
      " obitelji": 1616,
      "tor": 1617,
      "vnih": 1618,
      "njak": 1619,
      " razi": 1620,
      " bli": 1621,
      " dogodi": 1622,
      " Ukraji": 1623,
      "šnji": 1624,
      "Ja": 1625,
      "pusti": 1626,
      "čkom": 1627,
      " sezone": 1628,
      "tec": 1629,
      "cional": 1630,
      " imao": 1631,
      " tko": 1632,
      "mati": 1633,
      " pokre": 1634,
      " ulo": 1635,
      " tom": 1636,
      "mobi": 1637,
      "as": 1638,
      "čkoj": 1639,
      " želi": 1640,
      " promje": 1641,
      "ranje": 1642,
      "ltu": 1643,
      " akti": 1644,
      " zdrav": 1645,
      "dam": 1646,
      " fi": 1647,
      " strane": 1648,
      " spre": 1649,
      "pozna": 1650,
      "ljivo": 1651,
      " manje": 1652,
      " nu": 1653,
      " skupi": 1654,
      " ([": 1655,
      " susre": 1656,
      " cr": 1657,
      "ljede": 1658,
      "vra": 1659,
      "lima": 1660,
      " primje": 1661,
      " mladi": 1662,
      " pone": 1663,
      "glasi": 1664,
      " natjeca": 1665,
      "tected": 1666,
      " regi": 1667,
      ":pro": 1668,
      " Pu": 1669,
      ":protected": 1670,
      "dila": 1671,
      "ške": 1672,
      " vremena": 1673,
      "rala": 1674,
      "ch": 1675,
      " zaklju": 1676,
      "men": 1677,
      " vije": 1678,
      " bor": 1679,
      " župa": 1680,
      " pokaza": 1681,
      "sna": 1682,
      "24": 1683,
      "đen": 1684,
      " život": 1685,
      " vlasti": 1686,
      "25": 1687,
      " završi": 1688,
      "čer": 1689,
      " vas": 1690,
      "žda": 1691,
      " ener": 1692,
      " odre": 1693,
      " mjesta": 1694,
      " potvr": 1695,
      " koristi": 1696,
      " poveća": 1697,
      "pru": 1698,
      " navija": 1699,
      " al": 1700,
      " inter": 1701,
      "dili": 1702,
      "Sve": 1703,
      "26": 1704,
      " Vu": 1705,
      " svih": 1706,
      "mir": 1707,
      " pravo": 1708,
      "cama": 1709,
      "teta": 1710,
      "ljem": 1711,
      " imati": 1712,
      " neo": 1713,
      " pote": 1714,
      "jedi": 1715,
      " sasta": 1716,
      " svako": 1717,
      "ID": 1718,
      " unu": 1719,
      "mogu": 1720,
      " Ha": 1721,
      " kraju": 1722,
      " njega": 1723,
      " Varaž": 1724,
      "Su": 1725,
      "šla": 1726,
      "mr": 1727,
      " HDZ": 1728,
      " automobi": 1729,
      " EU": 1730,
      " rad": 1731,
      " kru": 1732,
      " gotovo": 1733,
      "rod": 1734,
      "ovje": 1735,
      " fotogra": 1736,
      " informa": 1737,
      "Naj": 1738,
      " ostva": 1739,
      " ljuba": 1740,
      " poda": 1741,
      " Č": 1742,
      " tere": 1743,
      "raju": 1744,
      " Iva": 1745,
      " bri": 1746,
      " teško": 1747,
      "...": 1748,
      "čna": 1749,
      " oda": 1750,
      " vode": 1751,
      " Fran": 1752,
      " sudje": 1753,
      " potpu": 1754,
      "fa": 1755,
      "čaj": 1756,
      "čan": 1757,
      " viso": 1758,
      "cio": 1759,
      "Ovo": 1760,
      "pnja": 1761,
      "rovi": 1762,
      " bude": 1763,
      "jemo": 1764,
      "pravo": 1765,
      "snije": 1766,
      "rane": 1767,
      " kr": 1768,
      "nskog": 1769,
      " bit": 1770,
      " Zagrebu": 1771,
      "-o": 1772,
      " kazao": 1773,
      "zni": 1774,
      "dovi": 1775,
      " Ku": 1776,
      " suda": 1777,
      "logi": 1778,
      "kova": 1779,
      " ovom": 1780,
      "jema": 1781,
      " proda": 1782,
      "Ova": 1783,
      " odu": 1784,
      "rka": 1785,
      "šić": 1786,
      " naši": 1787,
      " uči": 1788,
      " rje": 1789,
      " mogao": 1790,
      " teh": 1791,
      " prati": 1792,
      " Obje": 1793,
      " isku": 1794,
      " Object": 1795,
      "Ta": 1796,
      " polu": 1797,
      "hvati": 1798,
      " kultu": 1799,
      " kojeg": 1800,
      " posebno": 1801,
      " Hrvatska": 1802,
      "Hrvat": 1803,
      "kve": 1804,
      " nesre": 1805,
      " supru": 1806,
      " nagra": 1807,
      " teme": 1808,
      " momča": 1809,
      "novi": 1810,
      " De": 1811,
      " kolo": 1812,
      " ameri": 1813,
      "pp": 1814,
      " godinu": 1815,
      " organiza": 1816,
      "prije": 1817,
      " kazne": 1818,
      "kav": 1819,
      "riji": 1820,
      "pred": 1821,
      " obitelj": 1822,
      "Pa": 1823,
      "item": 1824,
      "bor": 1825,
      "ck": 1826,
      "21": 1827,
      "šnja": 1828,
      " gospo": 1829,
      " part": 1830,
      "vica": 1831,
      " premije": 1832,
      " izgu": 1833,
      " knji": 1834,
      " glazbe": 1835,
      "blje": 1836,
      " fe": 1837,
      "rić": 1838,
      " podr": 1839,
      " ovog": 1840,
      " odma": 1841,
      " stude": 1842,
      "slim": 1843,
      "tara": 1844,
      " nedje": 1845,
      " vide": 1846,
      "Iako": 1847,
      " tim": 1848,
      " dra": 1849,
      " prvo": 1850,
      " djela": 1851,
      " one": 1852,
      " sredi": 1853,
      " obo": 1854,
      " ništa": 1855,
      " Dinamo": 1856,
      "EO": 1857,
      "titi": 1858,
      " napisa": 1859,
      "mpe": 1860,
      "panjo": 1861,
      " podu": 1862,
      "mp": 1863,
      " karije": 1864,
      " svom": 1865,
      " Milano": 1866,
      " napada": 1867,
      " mode": 1868,
      "čku": 1869,
      "Što": 1870,
      " mjestu": 1871,
      "lio": 1872,
      "zak": 1873,
      "govi": 1874,
      " nosi": 1875,
      "cje": 1876,
      " baš": 1877,
      " Al": 1878,
      "jka": 1879,
      " sport": 1880,
      " neke": 1881,
      "che": 1882,
      "vnim": 1883,
      " ok": 1884,
      "jske": 1885,
      "ty": 1886,
      " dire": 1887,
      "tali": 1888,
      " zado": 1889,
      "IDEO": 1890,
      " pru": 1891,
      " posla": 1892,
      " pitanje": 1893,
      " muška": 1894,
      " financi": 1895,
      " sebe": 1896,
      "Ali": 1897,
      "Među": 1898,
      "nzi": 1899,
      " posti": 1900,
      " odra": 1901,
      " upozo": 1902,
      " vidi": 1903,
      " Ar": 1904,
      "loga": 1905,
      " Si": 1906,
      " važ": 1907,
      "fo": 1908,
      "lna": 1909,
      " klju": 1910,
      " osjeća": 1911,
      "tet": 1912,
      " prizna": 1913,
      "čima": 1914,
      " Au": 1915,
      " tran": 1916,
      " deset": 1917,
      " subo": 1918,
      "tkom": 1919,
      " uli": 1920,
      "tki": 1921,
      "som": 1922,
      "glo": 1923,
      "mina": 1924,
      "žiti": 1925,
      "gom": 1926,
      " uspo": 1927,
      "čkim": 1928,
      " šest": 1929,
      "ele": 1930,
      "rojatno": 1931,
      " pjes": 1932,
      " slobo": 1933,
      "panjol": 1934,
      "nicu": 1935,
      " čeka": 1936,
      "DP": 1937,
      "ment": 1938,
      " izda": 1939,
      " nove": 1940,
      " minuti": 1941,
      " često": 1942,
      "ljak": 1943,
      "TO": 1944,
      " izgleda": 1945,
      "bar": 1946,
      "kuje": 1947,
      " stvari": 1948,
      "nata": 1949,
      " opo": 1950,
      " otvore": 1951,
      " rea": 1952,
      " osno": 1953,
      "lić": 1954,
      "dnja": 1955,
      " naš": 1956,
      " rodi": 1957,
      " priča": 1958,
      "Tre": 1959,
      " pomoć": 1960,
      " najbolji": 1961,
      " raspo": 1962,
      " Plen": 1963,
      " Ši": 1964,
      "valu": 1965,
      " bih": 1966,
      "23": 1967,
      " oti": 1968,
      "lnik": 1969,
      " svim": 1970,
      " promet": 1971,
      " obzi": 1972,
      " ponu": 1973,
      " njegovo": 1974,
      " kraja": 1975,
      "up": 1976,
      " Iz": 1977,
      "ćih": 1978,
      "fina": 1979,
      "govor": 1980,
      " njima": 1981,
      " Njema": 1982,
      " spe": 1983,
      "šlja": 1984,
      " novina": 1985,
      "digra": 1986,
      " dosta": 1987,
      " nisam": 1988,
      "limpi": 1989,
      "bre": 1990,
      "nde": 1991,
      " napo": 1992,
      " imali": 1993,
      " predsjednika": 1994,
      " dobio": 1995,
      "vjetni": 1996,
      "greba": 1997,
      " Dubro": 1998,
      " vlasni": 1999,
      " svijetu": 2000,
      " gru": 2001,
      " bolje": 2002,
      " vozila": 2003,
      "njoj": 2004,
      " utjeca": 2005,
      " grado": 2006,
      "stro": 2007,
      " ministar": 2008,
      "njima": 2009,
      " minuta": 2010,
      " istraži": 2011,
      " pobije": 2012,
      " života": 2013,
      " optu": 2014,
      "Te": 2015,
      "ton": 2016,
      "Cla": 2017,
      " uo": 2018,
      " Tu": 2019,
      " stru": 2020,
      "Prema": 2021,
      " utakmica": 2022,
      "Go": 2023,
      "lnih": 2024,
      " upravo": 2025,
      " poma": 2026,
      "name": 2027,
      " dodao": 2028,
      "rili": 2029,
      " fu": 2030,
      "28": 2031,
      " navo": 2032,
      "tego": 2033,
      "kva": 2034,
      "nuli": 2035,
      " uključu": 2036,
      "rem": 2037,
      "lina": 2038,
      " djece": 2039,
      "ima": 2040,
      "jski": 2041,
      "100": 2042,
      "vnika": 2043,
      " kraj": 2044,
      "90": 2045,
      " druga": 2046,
      " Fi": 2047,
      "spe": 2048,
      "jima": 2049,
      "gova": 2050,
      " svaki": 2051,
      "AD": 2052,
      " možda": 2053,
      " bole": 2054,
      "Class": 2055,
      " pona": 2056,
      "ranja": 2057,
      " opa": 2058,
      "ved": 2059,
      " raču": 2060,
      " Dra": 2061,
      " bla": 2062,
      " njegov": 2063,
      "kako": 2064,
      "pio": 2065,
      "bili": 2066,
      "čila": 2067,
      " std": 2068,
      "vnik": 2069,
      " njegova": 2070,
      "nca": 2071,
      "rice": 2072,
      "nga": 2073,
      "vca": 2074,
      "opće": 2075,
      " tisuća": 2076,
      "poru": 2077,
      " trži": 2078,
      " zajedno": 2079,
      "22": 2080,
      "slo": 2081,
      "tnih": 2082,
      "ciona": 2083,
      "Osi": 2084,
      "Uz": 2085,
      "jna": 2086,
      "rvi": 2087,
      " ipak": 2088,
      "rina": 2089,
      "san": 2090,
      " Ivan": 2091,
      " nalazi": 2092,
      " prvaka": 2093,
      " tele": 2094,
      " čovje": 2095,
      "nča": 2096,
      "laz": 2097,
      "šku": 2098,
      " predstavlja": 2099,
      "ratu": 2100,
      " poči": 2101,
      "rava": 2102,
      " omogu": 2103,
      " uče": 2104,
      "nović": 2105,
      "mom": 2106,
      "sija": 2107,
      " So": 2108,
      "dnika": 2109,
      " uži": 2110,
      " stano": 2111,
      "ktu": 2112,
      " problem": 2113,
      " neza": 2114,
      " struč": 2115,
      " vrijedno": 2116,
      " kasnije": 2117,
      " Tru": 2118,
      "žio": 2119,
      "šlo": 2120,
      " Di": 2121,
      " odmah": 2122,
      " smi": 2123,
      " hrvatski": 2124,
      "zem": 2125,
      "zima": 2126,
      ";no": 2127,
      " ukup": 2128,
      " izvo": 2129,
      " kaza": 2130,
      "Kad": 2131,
      " idu": 2132,
      "vdje": 2133,
      " dolazi": 2134,
      " nogomet": 2135,
      " sklo": 2136,
      " kole": 2137,
      " sred": 2138,
      " području": 2139,
      " pol": 2140,
      " elek": 2141,
      " utakmicu": 2142,
      " ponovno": 2143,
      "rke": 2144,
      "ll": 2145,
      "kama": 2146,
      " nedo": 2147,
      "vez": 2148,
      " jednu": 2149,
      " kla": 2150,
      " kontro": 2151,
      " odigra": 2152,
      " proce": 2153,
      " Fa": 2154,
      "LE": 2155,
      "36": 2156,
      "tori": 2157,
      " prošle": 2158,
      "nena": 2159,
      " mogli": 2160,
      "šće": 2161,
      "veo": 2162,
      "love": 2163,
      " znači": 2164,
      "vaja": 2165,
      "ktor": 2166,
      "PO": 2167,
      " zapa": 2168,
      "zuje": 2169,
      " iako": 2170,
      " kvalite": 2171,
      " svog": 2172,
      "čnih": 2173,
      " usta": 2174,
      "teljima": 2175,
      " sud": 2176,
      " odje": 2177,
      " možete": 2178,
      "voljno": 2179,
      "vjet": 2180,
      " hi": 2181,
      "đena": 2182,
      "laze": 2183,
      " osobe": 2184,
      "rma": 2185,
      " inf": 2186,
      " Zagreba": 2187,
      "Nije": 2188,
      "mbe": 2189,
      " imamo": 2190,
      " plaća": 2191,
      " zagreba": 2192,
      "dnjih": 2193,
      " osu": 2194,
      " niti": 2195,
      "kaza": 2196,
      "she": 2197,
      " sljede": 2198,
      " javno": 2199,
      " odli": 2200,
      " komu": 2201,
      " voza": 2202,
      " sce": 2203,
      " djelo": 2204,
      " jednog": 2205,
      " trenutku": 2206,
      "bom": 2207,
      "mperatu": 2208,
      "Naime": 2209,
      "plit": 2210,
      " čini": 2211,
      " kilo": 2212,
      " upravlja": 2213,
      " zlo": 2214,
      " neu": 2215,
      " And": 2216,
      " Republi": 2217,
      "lovi": 2218,
      "piti": 2219,
      ";ki": 2220,
      "ravno": 2221,
      "lih": 2222,
      " Ca": 2223,
      "Nje": 2224,
      "hr": 2225,
      " najviše": 2226,
      "đenje": 2227,
      " Ta": 2228,
      "jeva": 2229,
      " Y": 2230,
      "liti": 2231,
      " eki": 2232,
      " novo": 2233,
      " ž": 2234,
      "br": 2235,
      " zato": 2236,
      "stitu": 2237,
      "renje": 2238,
      "rila": 2239,
      "dina": 2240,
      " izgra": 2241,
      " posao": 2242,
      " trener": 2243,
      " toliko": 2244,
      " Je": 2245,
      "ksu": 2246,
      " grada": 2247,
      "stima": 2248,
      "Osim": 2249,
      " postoji": 2250,
      " kar": 2251,
      " profe": 2252,
      " energi": 2253,
      "deri": 2254,
      "ris": 2255,
      " publi": 2256,
      "nike": 2257,
      " obzirom": 2258,
      " zako": 2259,
      " kojim": 2260,
      " moguć": 2261,
      "vizi": 2262,
      " Ho": 2263,
      " Zagreb": 2264,
      "telje": 2265,
      " for": 2266,
      " ranije": 2267,
      " prava": 2268,
      " zahtje": 2269,
      " Pri": 2270,
      "nce": 2271,
      "nac": 2272,
      " Ti": 2273,
      " reći": 2274,
      " pomoći": 2275,
      "nska": 2276,
      " ponedje": 2277,
      "29": 2278,
      "šenje": 2279,
      " ozbi": 2280,
      " kluba": 2281,
      " unutar": 2282,
      " tamo": 2283,
      "lica": 2284,
      " policija": 2285,
      "bija": 2286,
      " mjeseci": 2287,
      " zašto": 2288,
      " gol": 2289,
      " igrača": 2290,
      " izazo": 2291,
      " mnogi": 2292,
      "shed": 2293,
      " manda": 2294,
      "teljica": 2295,
      " mno": 2296,
      " iznena": 2297,
      "published": 2298,
      "Jo": 2299,
      "čica": 2300,
      " Sla": 2301,
      " petak": 2302,
      " sum": 2303,
      " isko": 2304,
      "alias": 2305,
      " svijeta": 2306,
      "Vo": 2307,
      " neda": 2308,
      " produ": 2309,
      " riječ": 2310,
      " jednosta": 2311,
      ".hr": 2312,
      "lnim": 2313,
      "zda": 2314,
      "lar": 2315,
      "drža": 2316,
      " una": 2317,
      " čega": 2318,
      "vića": 2319,
      " zapravo": 2320,
      " svojoj": 2321,
      " ozlije": 2322,
      "dnju": 2323,
      "tin": 2324,
      "veli": 2325,
      "mor": 2326,
      "lnog": 2327,
      " osob": 2328,
      " utvr": 2329,
      " objavio": 2330,
      "cijom": 2331,
      "đeno": 2332,
      "kad": 2333,
      "ćeg": 2334,
      " Sve": 2335,
      " tradi": 2336,
      " zahva": 2337,
      " problema": 2338,
      "stava": 2339,
      " zau": 2340,
      "199": 2341,
      " smr": 2342,
      "nak": 2343,
      " Bar": 2344,
      " Hrvatsku": 2345,
      " raditi": 2346,
      "Va": 2347,
      " netko": 2348,
      " deta": 2349,
      "troga": 2350,
      " klub": 2351,
      " brzo": 2352,
      " upu": 2353,
      " temperatu": 2354,
      "nad": 2355,
      " Vo": 2356,
      " zdravstve": 2357,
      " ovi": 2358,
      " HN": 2359,
      " Ri": 2360,
      " fotografi": 2361,
      "Pred": 2362,
      " kola": 2363,
      "lost": 2364,
      " srije": 2365,
      "cat": 2366,
      "mira": 2367,
      " pore": 2368,
      " imala": 2369,
      " ću": 2370,
      " preda": 2371,
      " bolni": 2372,
      "spi": 2373,
      "šću": 2374,
      " svega": 2375,
      "vnu": 2376,
      "rnik": 2377,
      " vidjeti": 2378,
      " opre": 2379,
      " komenti": 2380,
      " mreža": 2381,
      " nepo": 2382,
      " možemo": 2383,
      " zemlje": 2384,
      " oto": 2385,
      " ša": 2386,
      " velika": 2387,
      "vre": 2388,
      " navodi": 2389,
      "On": 2390,
      " gospodar": 2391,
      " tog": 2392,
      " promije": 2393,
      "dija": 2394,
      " nesta": 2395,
      " mogla": 2396,
      " misli": 2397,
      " sedam": 2398,
      " člano": 2399,
      "sfe": 2400,
      " subotu": 2401,
      "sci": 2402,
      "tnu": 2403,
      " korisni": 2404,
      "nicima": 2405,
      "tić": 2406,
      " veza": 2407,
      " prvom": 2408,
      " sja": 2409,
      " zgra": 2410,
      " zastup": 2411,
      " pravi": 2412,
      "zma": 2413,
      " eks": 2414,
      " intere": 2415,
      " vjerojatno": 2416,
      "Kada": 2417,
      " oči": 2418,
      " djevoj": 2419,
      " pjeva": 2420,
      " najbolje": 2421,
      "gled": 2422,
      "tnika": 2423,
      " slučaju": 2424,
      " ovdje": 2425,
      " osam": 2426,
      " izno": 2427,
      " razvo": 2428,
      " ar": 2429,
      "dnik": 2430,
      " demo": 2431,
      "60": 2432,
      " brani": 2433,
      " posjeti": 2434,
      "rtu": 2435,
      " emi": 2436,
      " izvan": 2437,
      " razdo": 2438,
      " poduze": 2439,
      "voje": 2440,
      " veliko": 2441,
      " mene": 2442,
      "'.\n": 2443,
      "nskih": 2444,
      " vjeru": 2445,
      "Tu": 2446,
      " podi": 2447,
      "den": 2448,
      " SAD": 2449,
      " stvara": 2450,
      " film": 2451,
      "nin": 2452,
      "TE": 2453,
      "pisu": 2454,
      " društvenim": 2455,
      "terija": 2456,
      " listo": 2457,
      " funk": 2458,
      "nove": 2459,
      " pola": 2460,
      " komenta": 2461,
      " eko": 2462,
      " trav": 2463,
      " priliku": 2464,
      "rba": 2465,
      " sko": 2466,
      "boj": 2467,
      "kuplja": 2468,
      " priva": 2469,
      " rada": 2470,
      " ispo": 2471,
      " potpuno": 2472,
      " priro": 2473,
      "ndar": 2474,
      " opet": 2475,
      "fika": 2476,
      "dering": 2477,
      " Zo": 2478,
      " odvjetni": 2479,
      " Grad": 2480,
      "mišlja": 2481,
      " drugih": 2482,
      "taka": 2483,
      " vlada": 2484,
      "group": 2485,
      " sudjelo": 2486,
      "ista": 2487,
      " udru": 2488,
      " izvje": 2489,
      "vrše": 2490,
      " očeki": 2491,
      " nedjelju": 2492,
      "th": 2493,
      " Pi": 2494,
      " svojih": 2495,
      " Co": 2496,
      " tru": 2497,
      " genera": 2498,
      " ozbilj": 2499,
      " boga": 2500,
      " drugom": 2501,
      " pogleda": 2502,
      "šava": 2503,
      " biv": 2504,
      "ranu": 2505,
      " puto": 2506,
      " Ministar": 2507,
      "žava": 2508,
      " sprem": 2509,
      "Međutim": 2510,
      " zaba": 2511,
      "gen": 2512,
      " vrhu": 2513,
      "dić": 2514,
      " bile": 2515,
      "tog": 2516,
      "žić": 2517,
      "Bo": 2518,
      " Op": 2519,
      " tjedna": 2520,
      " doku": 2521,
      " domaći": 2522,
      " podije": 2523,
      "type": 2524,
      " smije": 2525,
      " dosa": 2526,
      " odnosu": 2527,
      " Varaždin": 2528,
      "son": 2529,
      " stoji": 2530,
      "tica": 2531,
      ";ivo": 2532,
      "ster": 2533,
      " povje": 2534,
      " uto": 2535,
      " namje": 2536,
      "stupa": 2537,
      " istaknuo": 2538,
      " snim": 2539,
      " turni": 2540,
      " parla": 2541,
      " Srbi": 2542,
      " SDP": 2543,
      "pita": 2544,
      "Pod": 2545,
      "manje": 2546,
      "Sva": 2547,
      " jezi": 2548,
      " povije": 2549,
      "voza": 2550,
      "osta": 2551,
      "čnu": 2552,
      " gradonače": 2553,
      " povra": 2554,
      " hrvatske": 2555,
      " Mu": 2556,
      " Te": 2557,
      " igrati": 2558,
      " kona": 2559,
      "biti": 2560,
      " objasni": 2561,
      "Kao": 2562,
      ")\n": 2563,
      " uslu": 2564,
      " dovoljno": 2565,
      " prosje": 2566,
      " mini": 2567,
      "ordering": 2568,
      " nogometa": 2569,
      " ponedjeljak": 2570,
      "lin": 2571,
      "value": 2572,
      "jno": 2573,
      "dana": 2574,
      " Mari": 2575,
      " donije": 2576,
      " Šibe": 2577,
      " /": 2578,
      " ugo": 2579,
      "ksa": 2580,
      "nte": 2581,
      " ogra": 2582,
      " Niko": 2583,
      " trebao": 2584,
      " mije": 2585,
      "zor": 2586,
      " proje": 2587,
      " godini": 2588,
      " pisa": 2589,
      "AJ": 2590,
      "De": 2591,
      "vrši": 2592,
      " Fe": 2593,
      "rži": 2594,
      " čla": 2595,
      " vatroga": 2596,
      "tion": 2597,
      "sima": 2598,
      "čar": 2599,
      "đenja": 2600,
      ";er": 2601,
      " Josi": 2602,
      " ovu": 2603,
      " turisti": 2604,
      " žena": 2605,
      " ža": 2606,
      "Lju": 2607,
      " nastupa": 2608,
      " katego": 2609,
      " zaposle": 2610,
      "tine": 2611,
      " skla": 2612,
      "slav": 2613,
      "tnog": 2614,
      " Ameri": 2615,
      " Izra": 2616,
      " potom": 2617,
      " Ki": 2618,
      "šno": 2619,
      "dite": 2620,
      " obilje": 2621,
      " prome": 2622,
      "stavlja": 2623,
      " sami": 2624,
      "dese": 2625,
      " djecu": 2626,
      " šte": 2627,
      " posve": 2628,
      " iznosi": 2629,
      " hla": 2630,
      "vlju": 2631,
      " bije": 2632,
      " rata": 2633,
      " Pre": 2634,
      "dnici": 2635,
      " ispri": 2636,
      " izbora": 2637,
      " Split": 2638,
      " sije": 2639,
      " prve": 2640,
      "đeni": 2641,
      " lop": 2642,
      " srijedu": 2643,
      " bira": 2644,
      " kriti": 2645,
      " Đ": 2646,
      " dijete": 2647,
      "lnu": 2648,
      " kuće": 2649,
      "nskom": 2650,
      "jar": 2651,
      "oto": 2652,
      " zara": 2653,
      "misli": 2654,
      " Dinama": 2655,
      " nova": 2656,
      "\"\n": 2657,
      " dne": 2658,
      "gor": 2659,
      "sob": 2660,
      " turi": 2661,
      " nismo": 2662,
      " osim": 2663,
      ";io": 2664,
      " pretho": 2665,
      " mnogo": 2666,
      "kata": 2667,
      " jasno": 2668,
      " planira": 2669,
      " aktivnosti": 2670,
      "32": 2671,
      " potencija": 2672,
      "dnom": 2673,
      "njeg": 2674,
      " bivši": 2675,
      " putem": 2676,
      " poveza": 2677,
      "dnu": 2678,
      "tt": 2679,
      "dak": 2680,
      "glasio": 2681,
      " buduć": 2682,
      "njom": 2683,
      " preki": 2684,
      " Dal": 2685,
      " bodova": 2686,
      "šlje": 2687,
      "rano": 2688,
      " pojedi": 2689,
      " Pro": 2690,
      " sata": 2691,
      " znam": 2692,
      " veče": 2693,
      "lnosti": 2694,
      "rp": 2695,
      "kar": 2696,
      "žili": 2697,
      "vljen": 2698,
      " upozna": 2699,
      "tual": 2700,
      " maj": 2701,
      "Hrvatska": 2702,
      "bila": 2703,
      "Pu": 2704,
      " emo": 2705,
      " prote": 2706,
      "35": 2707,
      "Zbog": 2708,
      "čnim": 2709,
      "rea": 2710,
      " ban": 2711,
      "govora": 2712,
      "nicama": 2713,
      " dijelu": 2714,
      " nikad": 2715,
      " prepozna": 2716,
      "Ba": 2717,
      " stranke": 2718,
      " postoje": 2719,
      "nas": 2720,
      " posje": 2721,
      "Prije": 2722,
      "bina": 2723,
      " obu": 2724,
      "vanjem": 2725,
      "Rije": 2726,
      "čita": 2727,
      " ćete": 2728,
      "NA": 2729,
      "Zna": 2730,
      "tic": 2731,
      " nama": 2732,
      " festi": 2733,
      " kojih": 2734,
      " rezultat": 2735,
      " metara": 2736,
      " došao": 2737,
      " izbje": 2738,
      " slije": 2739,
      "veza": 2740,
      " ispu": 2741,
      " velike": 2742,
      "kna": 2743,
      "ntra": 2744,
      "ogra": 2745,
      "tnom": 2746,
      " povijesti": 2747,
      " razu": 2748,
      " srp": 2749,
      " potra": 2750,
      " ispred": 2751,
      " poseb": 2752,
      "lija": 2753,
      " doži": 2754,
      " značaj": 2755,
      "vama": 2756,
      " zemlji": 2757,
      "tina": 2758,
      "Svi": 2759,
      "rena": 2760,
      " dobiti": 2761,
      "ple": 2762,
      " doći": 2763,
      " potro": 2764,
      "štva": 2765,
      " utakmici": 2766,
      " nazi": 2767,
      " kampa": 2768,
      "šenja": 2769,
      "kvi": 2770,
      "45": 2771,
      "dima": 2772,
      " zamje": 2773,
      " Kri": 2774,
      " moguće": 2775,
      "zija": 2776,
      " Hajduk": 2777,
      "vremeno": 2778,
      "Pe": 2779,
      " priprema": 2780,
      " utorak": 2781,
      " Grada": 2782,
      " Francu": 2783,
      " deve": 2784,
      " razini": 2785,
      " tehno": 2786,
      "vora": 2787,
      "zam": 2788,
      "sak": 2789,
      "jedno": 2790,
      "kić": 2791,
      " split": 2792,
      " nado": 2793,
      " spome": 2794,
      " Hrva": 2795,
      "nciji": 2796,
      " sjeve": 2797,
      " Republike": 2798,
      "is": 2799,
      "tivno": 2800,
      "der": 2801,
      "les": 2802,
      " svima": 2803,
      "vci": 2804,
      " at": 2805,
      "pis": 2806,
      " mirovi": 2807,
      "nić": 2808,
      " svib": 2809,
      " Plenković": 2810,
      " oru": 2811,
      "vite": 2812,
      " zo": 2813,
      " ha": 2814,
      " drugim": 2815,
      " mjeseca": 2816,
      " Ivana": 2817,
      " institu": 2818,
      " kup": 2819,
      "loba": 2820,
      " cijene": 2821,
      " škole": 2822,
      " Milanović": 2823,
      " zla": 2824,
      " uhi": 2825,
      " poslije": 2826,
      "rnoj": 2827,
      "tnoj": 2828,
      " Splitu": 2829,
      "ljiva": 2830,
      "how": 2831,
      " osvojio": 2832,
      " ig": 2833,
      " time": 2834,
      " He": 2835,
      " investi": 2836,
      " obrazo": 2837,
      "gh": 2838,
      "kor": 2839,
      " osobi": 2840,
      " momčad": 2841,
      "renja": 2842,
      " zanim": 2843,
      "kretni": 2844,
      " donosi": 2845,
      " Kra": 2846,
      " šu": 2847,
      " glaso": 2848,
      " Španjol": 2849,
      "gnu": 2850,
      " čita": 2851,
      " pak": 2852,
      " glasa": 2853,
      " obli": 2854,
      "rnost": 2855,
      " godinama": 2856,
      " županije": 2857,
      "đene": 2858,
      " otvori": 2859,
      " anali": 2860,
      "žan": 2861,
      ";ete": 2862,
      " ističe": 2863,
      "lnom": 2864,
      " rizi": 2865,
      "lle": 2866,
      "limpij": 2867,
      "lov": 2868,
      "žen": 2869,
      " pozor": 2870,
      " šo": 2871,
      " gradu": 2872,
      " mrežama": 2873,
      " izlo": 2874,
      " prosi": 2875,
      " uključujući": 2876,
      " suko": 2877,
      " psi": 2878,
      "šiti": 2879,
      " cijena": 2880,
      "lnoj": 2881,
      " nedosta": 2882,
      " VIDEO": 2883,
      " nacional": 2884,
      " izbor": 2885,
      "34": 2886,
      " dobar": 2887,
      " rade": 2888,
      "tnosti": 2889,
      " dolara": 2890,
      " ljude": 2891,
      " pobjedu": 2892,
      " tvrtke": 2893,
      "Također": 2894,
      "tora": 2895,
      " zvije": 2896,
      " niz": 2897,
      " tih": 2898,
      "line": 2899,
      "lak": 2900,
      " moći": 2901,
      " Hajduka": 2902,
      "mio": 2903,
      " traja": 2904,
      " moraju": 2905,
      "svje": 2906,
      " moglo": 2907,
      " njemu": 2908,
      " glavni": 2909,
      " milijar": 2910,
      "79": 2911,
      ";ko": 2912,
      " projekt": 2913,
      " okru": 2914,
      " pobjede": 2915,
      " međuna": 2916,
      " snage": 2917,
      " sustav": 2918,
      "dnih": 2919,
      " naro": 2920,
      "Si": 2921,
      " njegove": 2922,
      " tvrdi": 2923,
      " nedavno": 2924,
      "88": 2925,
      "čenje": 2926,
      " lipnja": 2927,
      "tnim": 2928,
      "pom": 2929,
      " hrvatskih": 2930,
      " član": 2931,
      "žnje": 2932,
      "tih": 2933,
      "ban": 2934,
      " napraviti": 2935,
      "ngle": 2936,
      " javnosti": 2937,
      " ut": 2938,
      "31": 2939,
      " koli": 2940,
      "štvo": 2941,
      "ljena": 2942,
      " Insta": 2943,
      " savje": 2944,
      "ženje": 2945,
      "Gra": 2946,
      " zatim": 2947,
      " medici": 2948,
      " njema": 2949,
      " čemu": 2950,
      "Dru": 2951,
      "toč": 2952,
      " poručio": 2953,
      "FF": 2954,
      " novih": 2955,
      " ovoj": 2956,
      "riju": 2957,
      " prvog": 2958,
      "Vje": 2959,
      " sebi": 2960,
      " dobili": 2961,
      " izaz": 2962,
      "vljena": 2963,
      " postao": 2964,
      "jopri": 2965,
      " objavila": 2966,
      " trgovi": 2967,
      " Andre": 2968,
      "Be": 2969,
      "reni": 2970,
      " poža": 2971,
      " prvu": 2972,
      " žele": 2973,
      " hote": 2974,
      " Vlade": 2975,
      " gr": 2976,
      "ntar": 2977,
      " program": 2978,
      "Ro": 2979,
      " zaslu": 2980,
      "zuju": 2981,
      " hrvatskog": 2982,
      "vlada": 2983,
      "Doda": 2984,
      " ovih": 2985,
      " toj": 2986,
      ";emo": 2987,
      " video": 2988,
      "gdje": 2989,
      "kcije": 2990,
      "vela": 2991,
      "zije": 2992,
      " obje": 2993,
      "cijski": 2994,
      " dogodilo": 2995,
      "LED": 2996,
      " ad": 2997,
      " cilj": 2998,
      "fije": 2999,
      "loški": 3000,
      "vku": 3001,
      "ram": 3002,
      " nada": 3003,
      "port": 3004,
      "niju": 3005,
      " biste": 3006,
      " kva": 3007,
      " diza": 3008,
      " Ce": 3009,
      " otvara": 3010,
      "tivne": 3011,
      "učili": 3012,
      " novog": 3013,
      "glavnom": 3014,
      "žila": 3015,
      " želje": 3016,
      " situacija": 3017,
      "Ru": 3018,
      " postup": 3019,
      " trenutno": 3020,
      "JE": 3021,
      "nila": 3022,
      " nasi": 3023,
      " došlo": 3024,
      "mija": 3025,
      "dove": 3026,
      " podrža": 3027,
      " nikada": 3028,
      "Ovaj": 3029,
      " Marko": 3030,
      "tinu": 3031,
      " trebalo": 3032,
      " prošlo": 3033,
      "ljan": 3034,
      "rancu": 3035,
      " dija": 3036,
      " izjavio": 3037,
      " Ze": 3038,
      " svijet": 3039,
      " izvr": 3040,
      "čak": 3041,
      "pušta": 3042,
      " svjedo": 3043,
      "čnom": 3044,
      "siji": 3045,
      "krša": 3046,
      "POG": 3047,
      " prosla": 3048,
      " nitko": 3049,
      "-godišnja": 3050,
      " fizi": 3051,
      " travnja": 3052,
      " sku": 3053,
      "ramo": 3054,
      " novu": 3055,
      " Gr": 3056,
      " vaše": 3057,
      " siječ": 3058,
      "lobo": 3059,
      " sustava": 3060,
      " sredst": 3061,
      "AJTE": 3062,
      "zvo": 3063,
      "čnog": 3064,
      " plo": 3065,
      " pogi": 3066,
      " popula": 3067,
      " otkrila": 3068,
      "lila": 3069,
      "laga": 3070,
      " he": 3071,
      " OFF": 3072,
      "dro": 3073,
      "tova": 3074,
      " poslu": 3075,
      " očekuje": 3076,
      " ispod": 3077,
      " Instagra": 3078,
      "POGLED": 3079,
      "RT": 3080,
      " bismo": 3081,
      " mislim": 3082,
      " činje": 3083,
      " započe": 3084,
      " suo": 3085,
      "stre": 3086,
      "stan": 3087,
      " meda": 3088,
      " zemlja": 3089,
      " otkrio": 3090,
      "POGLEDAJTE": 3091,
      " zabio": 3092,
      "mini": 3093,
      " Bra": 3094,
      " manji": 3095,
      " organizira": 3096,
      " Ch": 3097,
      "vljaju": 3098,
      "matra": 3099,
      "leko": 3100,
      "čina": 3101,
      "70": 3102,
      " izborima": 3103,
      " w": 3104,
      "jne": 3105,
      " hit": 3106,
      "vnoj": 3107,
      " strana": 3108,
      "ktora": 3109,
      " ponaša": 3110,
      " pobo": 3111,
      "tera": 3112,
      " ravna": 3113,
      " razvoj": 3114,
      " vanj": 3115,
      " sporta": 3116,
      " potreb": 3117,
      " muškar": 3118,
      "nsko": 3119,
      " teni": 3120,
      " djeca": 3121,
      " njihove": 3122,
      "ljeća": 3123,
      "Mislim": 3124,
      "žba": 3125,
      " onih": 3126,
      " terenu": 3127,
      "Bu": 3128,
      "igra": 3129,
      "gama": 3130,
      " isklju": 3131,
      "Item": 3132,
      " kak": 3133,
      "vka": 3134,
      " snima": 3135,
      "od": 3136,
      "mica": 3137,
      "vnici": 3138,
      " momčadi": 3139,
      "blja": 3140,
      "lac": 3141,
      " razmišlja": 3142,
      " države": 3143,
      "68": 3144,
      " igre": 3145,
      " provo": 3146,
      "ljen": 3147,
      "baci": 3148,
      " Sta": 3149,
      " igrač": 3150,
      "ćen": 3151,
      " plat": 3152,
      "vice": 3153,
      "ćine": 3154,
      "192": 3155,
      " crve": 3156,
      " bolji": 3157,
      " indu": 3158,
      "jni": 3159,
      "žni": 3160,
      " partne": 3161,
      " poljopri": 3162,
      " kojom": 3163,
      "pisao": 3164,
      " oduše": 3165,
      "tili": 3166,
      " Ke": 3167,
      " konfe": 3168,
      " trebali": 3169,
      " Domovi": 3170,
      "kcija": 3171,
      "zom": 3172,
      " kli": 3173,
      "rve": 3174,
      " prisu": 3175,
      " kući": 3176,
      " potrebno": 3177,
      " natje": 3178,
      " jedne": 3179,
      " ukraji": 3180,
      "dnoj": 3181,
      " njihov": 3182,
      "Že": 3183,
      " novac": 3184,
      " poslova": 3185,
      " bolesti": 3186,
      "njo": 3187,
      "lnika": 3188,
      "nstve": 3189,
      "cem": 3190,
      "đuje": 3191,
      "vljeni": 3192,
      " životu": 3193,
      " promjene": 3194,
      "šća": 3195,
      " prenosi": 3196,
      " uni": 3197,
      "sjednik": 3198,
      " ljudima": 3199,
      " stvar": 3200,
      " ljud": 3201,
      " rujna": 3202,
      "dnog": 3203,
      " posljednjih": 3204,
      "snu": 3205,
      "Če": 3206,
      " šan": 3207,
      "Ipak": 3208,
      "tere": 3209,
      " provje": 3210,
      " lako": 3211,
      "nijih": 3212,
      " opera": 3213,
      " svakodne": 3214,
      " škola": 3215,
      " prilikom": 3216,
      " brzi": 3217,
      " najveći": 3218,
      ";,": 3219,
      "OTO": 3220,
      " kame": 3221,
      " Sr": 3222,
      " smanji": 3223,
      " mijenja": 3224,
      "vča": 3225,
      " stadio": 3226,
      " policije": 3227,
      "sjetimo": 3228,
      "ou": 3229,
      " dro": 3230,
      " zadovolj": 3231,
      "Oni": 3232,
      " pitanja": 3233,
      " prostor": 3234,
      " četvrtak": 3235,
      "lice": 3236,
      " izvijesti": 3237,
      " odgovor": 3238,
      " kažu": 3239,
      " ulaga": 3240,
      " premijer": 3241,
      " napre": 3242,
      " rekli": 3243,
      " smanje": 3244,
      " projekta": 3245,
      "jskog": 3246,
      " pada": 3247,
      " konku": 3248,
      "metara": 3249,
      "ly": 3250,
      " trebala": 3251,
      " Pari": 3252,
      "cijske": 3253,
      " razloga": 3254,
      " ispla": 3255,
      " zema": 3256,
      "gan": 3257,
      " umjetni": 3258,
      " Luka": 3259,
      "33": 3260,
      "gne": 3261,
      "nite": 3262,
      " dao": 3263,
      " odgovara": 3264,
      " Har": 3265,
      " Kar": 3266,
      "rske": 3267,
      "ray": 3268,
      " doče": 3269,
      " posljedi": 3270,
      " cijeli": 3271,
      " Europe": 3272,
      " stvarno": 3273,
      " New": 3274,
      " ožu": 3275,
      "sjeća": 3276,
      "Bilo": 3277,
      " iznim": 3278,
      " računa": 3279,
      " ukupno": 3280,
      "Tije": 3281,
      " cje": 3282,
      "bla": 3283,
      " uzro": 3284,
      "85": 3285,
      " prora": 3286,
      " parki": 3287,
      " srpnja": 3288,
      " živi": 3289,
      " socija": 3290,
      " napisao": 3291,
      " prijed": 3292,
      " per": 3293,
      " korište": 3294,
      " pobolj": 3295,
      "tac": 3296,
      " elektri": 3297,
      " nekretni": 3298,
      "Poli": 3299,
      "nese": 3300,
      "miti": 3301,
      " dodatno": 3302,
      " Modri": 3303,
      " sklopu": 3304,
      " listopada": 3305,
      " materija": 3306,
      " država": 3307,
      "Image": 3308,
      " pruža": 3309,
      " Fili": 3310,
      " ispriča": 3311,
      "upa": 3312,
      " NA": 3313,
      "lazak": 3314,
      " moj": 3315,
      " bes": 3316,
      "Foto": 3317,
      " premi": 3318,
      "\":\"\"\",": 3319,
      " žene": 3320,
      "lika": 3321,
      " pripa": 3322,
      " Kon": 3323,
      " Gu": 3324,
      "čuje": 3325,
      " vrata": 3326,
      " umi": 3327,
      " stre": 3328,
      "Danas": 3329,
      " nevje": 3330,
      " kupa": 3331,
      " mlade": 3332,
      " dati": 3333,
      " rast": 3334,
      " tiče": 3335,
      "rama": 3336,
      " uvo": 3337,
      " reda": 3338,
      " reprezentacije": 3339,
      "qu": 3340,
      " show": 3341,
      " am": 3342,
      "-godišnji": 3343,
      " lige": 3344,
      " moramo": 3345,
      " tjedan": 3346,
      "raca": 3347,
      "koho": 3348,
      " početka": 3349,
      " opasno": 3350,
      "ras": 3351,
      " epi": 3352,
      " sadrža": 3353,
      " Marija": 3354,
      " Dalma": 3355,
      " Her": 3356,
      " razgovara": 3357,
      " ostati": 3358,
      " građana": 3359,
      " mladih": 3360,
      " ovim": 3361,
      " dozna": 3362,
      " previše": 3363,
      " uglavnom": 3364,
      " kolu": 3365,
      " Dan": 3366,
      " predvi": 3367,
      "ya": 3368,
      " obe": 3369,
      " Tomi": 3370,
      " Ukrajini": 3371,
      " podršku": 3372,
      " jednostavno": 3373,
      " pacije": 3374,
      "pušte": 3375,
      "Pi": 3376,
      "rvo": 3377,
      "ljeni": 3378,
      " god": 3379,
      "šio": 3380,
      " Europi": 3381,
      " hoće": 3382,
      "lnici": 3383,
      "razu": 3384,
      "VIDEO": 3385,
      " ple": 3386,
      " zada": 3387,
      " koša": 3388,
      " preuze": 3389,
      " rekor": 3390,
      " RT": 3391,
      " barem": 3392,
      " automobila": 3393,
      "FOTO": 3394,
      " dozvo": 3395,
      "mili": 3396,
      " Slove": 3397,
      "Bio": 3398,
      " trans": 3399,
      " zemalja": 3400,
      "ber": 3401,
      " prijatelj": 3402,
      " drugog": 3403,
      "struktu": 3404,
      " vodst": 3405,
      " nekim": 3406,
      " ulogu": 3407,
      "klu": 3408,
      "mosfe": 3409,
      " važno": 3410,
      " dodaje": 3411,
      "Sta": 3412,
      " veliku": 3413,
      " Bri": 3414,
      " strate": 3415,
      " sigurnosti": 3416,
      " kolovoza": 3417,
      " Por": 3418,
      " vrijednosti": 3419,
      " priti": 3420,
      " prvenstva": 3421,
      " ograni": 3422,
      "niku": 3423,
      " Svjet": 3424,
      "vjeti": 3425,
      " defi": 3426,
      " najmanje": 3427,
      " odluku": 3428,
      " polo": 3429,
      " kuća": 3430,
      "vremenu": 3431,
      "47": 3432,
      "vina": 3433,
      " susje": 3434,
      "tske": 3435,
      " dobila": 3436,
      "jutro": 3437,
      " završe": 3438,
      " gubi": 3439,
      "fu": 3440,
      "snih": 3441,
      " prima": 3442,
      " norma": 3443,
      "tiva": 3444,
      "žena": 3445,
      " vike": 3446,
      " uopće": 3447,
      "skoro": 3448,
      " projekti": 3449,
      "tski": 3450,
      " navede": 3451,
      " čovjek": 3452,
      " iskoristi": 3453,
      " Rijeke": 3454,
      "slje": 3455,
      "vid": 3456,
      "mila": 3457,
      " mobi": 3458,
      ";.\n": 3459,
      " ošte": 3460,
      "like": 3461,
      " dalj": 3462,
      ";ena": 3463,
      " okoli": 3464,
      " počinje": 3465,
      "Du": 3466,
      "bilje": 3467,
      " velja": 3468,
      "-i": 3469,
      "gno": 3470,
      " umjesto": 3471,
      "Ca": 3472,
      " Ber": 3473,
      " doka": 3474,
      " diljem": 3475,
      " programa": 3476,
      " polufina": 3477,
      "skr": 3478,
      "kul": 3479,
      " hu": 3480,
      " treni": 3481,
      "Ju": 3482,
      "by": 3483,
      "rova": 3484,
      "pad": 3485,
      " odluka": 3486,
      " brojne": 3487,
      " izrael": 3488,
      "škom": 3489,
      " njezin": 3490,
      " Europske": 3491,
      "Di": 3492,
      "lla": 3493,
      " profi": 3494,
      ";en": 3495,
      " troško": 3496,
      "Još": 3497,
      "55": 3498,
      " loše": 3499,
      " različi": 3500,
      " Rijeka": 3501,
      "jedinje": 3502,
      " direktor": 3503,
      " svibnja": 3504,
      " uze": 3505,
      " dogovo": 3506,
      "stina": 3507,
      "luje": 3508,
      "čen": 3509,
      " gro": 3510,
      " kompa": 3511,
      " prila": 3512,
      " putu": 3513,
      " stari": 3514,
      " lak": 3515,
      " njihova": 3516,
      " televizi": 3517,
      " X": 3518,
      "500": 3519,
      "Se": 3520,
      "vlji": 3521,
      "teo": 3522,
      " priopće": 3523,
      " reali": 3524,
      ";iti": 3525,
      "kove": 3526,
      "tru": 3527,
      "nili": 3528,
      " naša": 3529,
      " mjesec": 3530,
      " dopri": 3531,
      " sazna": 3532,
      " bivše": 3533,
      " naba": 3534,
      "ćeni": 3535,
      "šati": 3536,
      " meni": 3537,
      "vana": 3538,
      " izbore": 3539,
      " nastaviti": 3540,
      " raspra": 3541,
      " shvati": 3542,
      " presu": 3543,
      " područja": 3544,
      " natjecanja": 3545,
      " reagi": 3546,
      ";ke": 3547,
      "RI": 3548,
      "snim": 3549,
      "ćina": 3550,
      " Drža": 3551,
      "štvu": 3552,
      " alkoho": 3553,
      " naših": 3554,
      "ns": 3555,
      "nskim": 3556,
      "tija": 3557,
      "čeni": 3558,
      "mer": 3559,
      "snog": 3560,
      "tije": 3561,
      " traži": 3562,
      " profesi": 3563,
      " ozna": 3564,
      " blo": 3565,
      "dal": 3566,
      "mima": 3567,
      " posljednje": 3568,
      " žrt": 3569,
      " Ste": 3570,
      " zrako": 3571,
      " zausta": 3572,
      " tehnologi": 3573,
      "val": 3574,
      "Nema": 3575,
      " oruž": 3576,
      "kinja": 3577,
      " prosvje": 3578,
      "rastruktu": 3579,
      " nagla": 3580,
      " napusti": 3581,
      "ljev": 3582,
      "Jedan": 3583,
      " devet": 3584,
      " oku": 3585,
      " ugovor": 3586,
      " prika": 3587,
      " gola": 3588,
      "ing": 3589,
      " ljubav": 3590,
      " Gor": 3591,
      "kro": 3592,
      " jedin": 3593,
      "njuje": 3594,
      " obrane": 3595,
      " stručnja": 3596,
      "tlji": 3597,
      "šni": 3598,
      " prekrša": 3599,
      " hra": 3600,
      " pitanju": 3601,
      "Tijekom": 3602,
      " San": 3603,
      "spje": 3604,
      " zabra": 3605,
      " znaju": 3606,
      " duž": 3607,
      " dostup": 3608,
      "žemo": 3609,
      "mbo": 3610,
      "tila": 3611,
      "podne": 3612,
      " napad": 3613,
      " atmosfe": 3614,
      " RTL": 3615,
      " seku": 3616,
      " redu": 3617,
      "formi": 3618,
      "BC": 3619,
      "đar": 3620,
      "boo": 3621,
      "tnost": 3622,
      " igrao": 3623,
      " cijelo": 3624,
      " jugo": 3625,
      "Dok": 3626,
      "kta": 3627,
      "mana": 3628,
      "stom": 3629,
      " tijelo": 3630,
      "godišnji": 3631,
      " sat": 3632,
      "ela": 3633,
      " dre": 3634,
      " okre": 3635,
      " zadrža": 3636,
      "Ccaron": 3637,
      "var": 3638,
      " preh": 3639,
      "čenja": 3640,
      " liječ": 3641,
      "stao": 3642,
      " gosti": 3643,
      " cent": 3644,
      "Li": 3645,
      " zdravlje": 3646,
      " iznad": 3647,
      " ruko": 3648,
      "blju": 3649,
      " asi": 3650,
      "čine": 3651,
      " proraču": 3652,
      "mani": 3653,
      " priop": 3654,
      " događaja": 3655,
      "žalost": 3656,
      " vraća": 3657,
      "celo": 3658,
      " odluke": 3659,
      "mpo": 3660,
      "mpi": 3661,
      " pli": 3662,
      " tijela": 3663,
      " njegovu": 3664,
      " iskustvo": 3665,
      "čitajte": 3666,
      "dran": 3667,
      "vak": 3668,
      " sigurnost": 3669,
      " vratiti": 3670,
      " energe": 3671,
      " Bru": 3672,
      " voli": 3673,
      " stigao": 3674,
      " zabora": 3675,
      " francu": 3676,
      " ostao": 3677,
      " Jadra": 3678,
      "Samo": 3679,
      " sprije": 3680,
      " jest": 3681,
      " sutra": 3682,
      "ceboo": 3683,
      "Raz": 3684,
      " infrastruktu": 3685,
      "La": 3686,
      "jska": 3687,
      " ujutro": 3688,
      "vilo": 3689,
      " korak": 3690,
      " traže": 3691,
      " ostali": 3692,
      " cesta": 3693,
      " izrazi": 3694,
      ";ak": 3695,
      " kuha": 3696,
      " kontak": 3697,
      " početkom": 3698,
      "žne": 3699,
      " finala": 3700,
      "Podsjetimo": 3701,
      " zakon": 3702,
      " prvoj": 3703,
      " majka": 3704,
      "čića": 3705,
      " koriste": 3706,
      "Treba": 3707,
      "kov": 3708,
      " zanima": 3709,
      " sudio": 3710,
      " najva": 3711,
      " boda": 3712,
      " Hrvatskog": 3713,
      "fici": 3714,
      " Array": 3715,
      " smrti": 3716,
      " mediji": 3717,
      " energije": 3718,
      " naz": 3719,
      " strani": 3720,
      " zele": 3721,
      " informacije": 3722,
      "ir": 3723,
      "mac": 3724,
      " TV": 3725,
      " identi": 3726,
      " Lige": 3727,
      "Le": 3728,
      " Sto": 3729,
      " tema": 3730,
      " upa": 3731,
      "dama": 3732,
      " pristup": 3733,
      "por": 3734,
      " Zadar": 3735,
      " borbe": 3736,
      " navodno": 3737,
      " ca": 3738,
      " ke": 3739,
      "ps": 3740,
      " nave": 3741,
      "čice": 3742,
      " stanje": 3743,
      " ispa": 3744,
      " uspio": 3745,
      " čime": 3746,
      " blizi": 3747,
      " siječnja": 3748,
      " ubr": 3749,
      " Osije": 3750,
      "Sada": 3751,
      " prvenstvu": 3752,
      " najavio": 3753,
      " interne": 3754,
      " zvu": 3755,
      "sio": 3756,
      " Ge": 3757,
      " Njemačkoj": 3758,
      "Au": 3759,
      " učin": 3760,
      " globa": 3761,
      " završio": 3762,
      " došli": 3763,
      " hrane": 3764,
      "ćim": 3765,
      " prijet": 3766,
      "vljeno": 3767,
      " klubo": 3768,
      " prosinca": 3769,
      " ski": 3770,
      "njen": 3771,
      " skupine": 3772,
      "mnji": 3773,
      "ol": 3774,
      " posu": 3775,
      " HRT": 3776,
      " dolaze": 3777,
      " aktual": 3778,
      " Že": 3779,
      "ćima": 3780,
      "gita": 3781,
      " svemu": 3782,
      " HNL": 3783,
      "vrije": 3784,
      " poh": 3785,
      " anti": 3786,
      ";em": 3787,
      " proizvoda": 3788,
      " nju": 3789,
      " nau": 3790,
      " daleko": 3791,
      " izmje": 3792,
      " centra": 3793,
      "jnu": 3794,
      " seksu": 3795,
      " resto": 3796,
      " novim": 3797,
      " evo": 3798,
      " čet": 3799,
      " tehni": 3800,
      "vale": 3801,
      " age": 3802,
      " protu": 3803,
      " rado": 3804,
      "gna": 3805,
      "tnici": 3806,
      " dodala": 3807,
      "jam": 3808,
      " proti": 3809,
      " Zla": 3810,
      " demokra": 3811,
      "rite": 3812,
      "cep": 3813,
      " sezonu": 3814,
      " procje": 3815,
      " mišlje": 3816,
      " odlučio": 3817,
      " nastavlja": 3818,
      "rku": 3819,
      "nina": 3820,
      " mr": 3821,
      " preporu": 3822,
      " tvrtka": 3823,
      " zahvalju": 3824,
      "sh": 3825,
      "ljene": 3826,
      "tnik": 3827,
      " omogući": 3828,
      "rin": 3829,
      " rat": 3830,
      "čević": 3831,
      " iste": 3832,
      " Vladi": 3833,
      " uoči": 3834,
      " noći": 3835,
      " lege": 3836,
      " ljeta": 3837,
      " slučaj": 3838,
      " supruga": 3839,
      "Dina": 3840,
      "ćoj": 3841,
      ";in": 3842,
      " znanstve": 3843,
      "bur": 3844,
      " čiji": 3845,
      "Mar": 3846,
      "žbi": 3847,
      "kuju": 3848,
      " osvaja": 3849,
      "kovića": 3850,
      "Gla": 3851,
      "renciji": 3852,
      "lega": 3853,
      " kape": 3854,
      " radova": 3855,
      " standar": 3856,
      " krea": 3857,
      " prostora": 3858,
      "lili": 3859,
      " nače": 3860,
      " zabri": 3861,
      " mani": 3862,
      " vjero": 3863,
      " #": 3864,
      " of": 3865,
      " RH": 3866,
      " polica": 3867,
      " kazali": 3868,
      "rine": 3869,
      "čeno": 3870,
      " NATO": 3871,
      " Bje": 3872,
      " Usta": 3873,
      " postala": 3874,
      " situaciju": 3875,
      "ćom": 3876,
      " savrše": 3877,
      " The": 3878,
      "čnoj": 3879,
      " kandidata": 3880,
      " komunika": 3881,
      " doba": 3882,
      " proši": 3883,
      "ser": 3884,
      " obzira": 3885,
      " sposob": 3886,
      " osobito": 3887,
      "jskih": 3888,
      "vici": 3889,
      "uth": 3890,
      "-om": 3891,
      " nastup": 3892,
      " pridru": 3893,
      "grama": 3894,
      " koali": 3895,
      "stoji": 3896,
      " mjere": 3897,
      " Upra": 3898,
      " pokazuje": 3899,
      " uprave": 3900,
      "ženi": 3901,
      ";enje": 3902,
      " plaće": 3903,
      "795": 3904,
      "nsku": 3905,
      "rska": 3906,
      " sni": 3907,
      "rović": 3908,
      "vamo": 3909,
      " odgo": 3910,
      " kratko": 3911,
      "39": 3912,
      "nos": 3913,
      "dinu": 3914,
      " sunča": 3915,
      " presta": 3916,
      " vezi": 3917,
      " Madri": 3918,
      " Beogra": 3919,
      " mogućnost": 3920,
      "JA": 3921,
      " savez": 3922,
      " ispra": 3923,
      " ruke": 3924,
      " kazala": 3925,
      "ncu": 3926,
      "mena": 3927,
      " Bro": 3928,
      " maksi": 3929,
      " jednoj": 3930,
      "cionira": 3931,
      " okvi": 3932,
      " drugači": 3933,
      " parlamenta": 3934,
      "65": 3935,
      " svakom": 3936,
      " životi": 3937,
      " nadle": 3938,
      " primjer": 3939,
      " upi": 3940,
      " zi": 3941,
      " prometa": 3942,
      " prihvati": 3943,
      "ziju": 3944,
      " razgovo": 3945,
      " prilika": 3946,
      " našim": 3947,
      "ana": 3948,
      " ek": 3949,
      " gradonačelnik": 3950,
      "RA": 3951,
      " koma": 3952,
      "38": 3953,
      " zabilje": 3954,
      " priče": 3955,
      " svojom": 3956,
      " Lju": 3957,
      " Od": 3958,
      " nogome": 3959,
      "Ona": 3960,
      "rski": 3961,
      " uskoro": 3962,
      " održi": 3963,
      "siju": 3964,
      " riječi": 3965,
      "ity": 3966,
      "image": 3967,
      " Srbije": 3968,
      "nicija": 3969,
      " nakna": 3970,
      " skup": 3971,
      "valo": 3972,
      " naravno": 3973,
      " imam": 3974,
      " traje": 3975,
      " društva": 3976,
      " smjeru": 3977,
      ";ni": 3978,
      " vese": 3979,
      " specija": 3980,
      "37": 3981,
      "Zcaron": 3982,
      "jedna": 3983,
      " Par": 3984,
      " jučer": 3985,
      "štine": 3986,
      "stiti": 3987,
      "zacije": 3988,
      " ljubi": 3989,
      " dijela": 3990,
      " zaključio": 3991,
      "Sto": 3992,
      "dnim": 3993,
      " inače": 3994,
      " poklo": 3995,
      " sjeća": 3996,
      "Pročitajte": 3997,
      " filma": 3998,
      " minute": 3999
    },
    "merges": [
      [
        "j",
        "e"
      ],
      [
        " ",
        "s"
      ],
      [
        " ",
        "p"
      ],
      [
        "n",
        "a"
      ],
      [
        "r",
        "a"
      ],
      [
        " ",
        "i"
      ],
      [
        "k",
        "o"
      ],
      [
        "n",
        "i"
      ],
      [
        "t",
        "i"
      ],
      [
        " ",
        "d"
      ],
      [
        " ",
        "o"
      ],
      [
        " ",
        "u"
      ],
      [
        "l",
        "i"
      ],
      [
        "n",
        "o"
      ],
      [
        ".",
        "\n"
      ],
      [
        " ",
        "je"
      ],
      [
        "r",
        "e"
      ],
      [
        "r",
        "o"
      ],
      [
        "t",
        "a"
      ],
      [
        "l",
        "a"
      ],
      [
        "v",
        "a"
      ],
      [
        "r",
        "i"
      ],
      [
        "j",
        "a"
      ],
      [
        " ",
        "na"
      ],
      [
        "k",
        "a"
      ],
      [
        "n",
        "e"
      ],
      [
        " p",
        "o"
      ],
      [
        "t",
        "e"
      ],
      [
        "m",
        "a"
      ],
      [
        "v",
        "i"
      ],
      [
        "t",
        "o"
      ],
      [
        " ",
        "z"
      ],
      [
        "v",
        "o"
      ],
      [
        " ",
        "b"
      ],
      [
        "c",
        "a"
      ],
      [
        " ",
        "m"
      ],
      [
        "j",
        "u"
      ],
      [
        "d",
        "i"
      ],
      [
        "v",
        "e"
      ],
      [
        "j",
        "i"
      ],
      [
        " z",
        "a"
      ],
      [
        " ",
        "ko"
      ],
      [
        "c",
        "i"
      ],
      [
        "d",
        "a"
      ],
      [
        "l",
        "o"
      ],
      [
        "g",
        "o"
      ],
      [
        " s",
        "e"
      ],
      [
        " d",
        "a"
      ],
      [
        " s",
        "u"
      ],
      [
        " ",
        "a"
      ],
      [
        " d",
        "o"
      ],
      [
        "s",
        "t"
      ],
      [
        "r",
        "u"
      ],
      [
        "m",
        "o"
      ],
      [
        "l",
        "e"
      ],
      [
        " ",
        "ne"
      ],
      [
        "k",
        "i"
      ],
      [
        "n",
        "je"
      ],
      [
        " o",
        "d"
      ],
      [
        " ",
        "ka"
      ],
      [
        "n",
        "u"
      ],
      [
        "k",
        "u"
      ],
      [
        " i",
        "z"
      ],
      [
        " b",
        "i"
      ],
      [
        "m",
        "e"
      ],
      [
        " ",
        "t"
      ],
      [
        " p",
        "ro"
      ],
      [
        "s",
        "ta"
      ],
      [
        "g",
        "a"
      ],
      [
        "k",
        "e"
      ],
      [
        " s",
        "a"
      ],
      [
        "ć",
        "e"
      ],
      [
        "s",
        "ti"
      ],
      [
        "ro",
        "n"
      ],
      [
        "ca",
        "ron"
      ],
      [
        " ",
        "ra"
      ],
      [
        " p",
        "re"
      ],
      [
        "m",
        "i"
      ],
      [
        " p",
        "ri"
      ],
      [
        "l",
        "u"
      ],
      [
        "b",
        "i"
      ],
      [
        "z",
        "i"
      ],
      [
        "l",
        "je"
      ],
      [
        "n",
        "ja"
      ],
      [
        "č",
        "i"
      ],
      [
        "d",
        "e"
      ],
      [
        "č",
        "e"
      ],
      [
        " m",
        "o"
      ],
      [
        "p",
        "o"
      ],
      [
        " ",
        "š"
      ],
      [
        "p",
        "a"
      ],
      [
        " ",
        "g"
      ],
      [
        " ",
        "k"
      ],
      [
        "t",
        "u"
      ],
      [
        "c",
        "u"
      ],
      [
        "c",
        "e"
      ],
      [
        "b",
        "a"
      ],
      [
        "b",
        "o"
      ],
      [
        "s",
        "i"
      ],
      [
        " ",
        "to"
      ],
      [
        " ",
        "go"
      ],
      [
        " ",
        "S"
      ],
      [
        " ",
        "te"
      ],
      [
        " ",
        "ni"
      ],
      [
        " ",
        "M"
      ],
      [
        " ",
        "re"
      ],
      [
        "s",
        "ko"
      ],
      [
        "ž",
        "e"
      ],
      [
        " ",
        "v"
      ],
      [
        "z",
        "a"
      ],
      [
        "č",
        "a"
      ],
      [
        "s",
        "a"
      ],
      [
        " ko",
        "ji"
      ],
      [
        "s",
        "ki"
      ],
      [
        "ć",
        "i"
      ],
      [
        "š",
        "e"
      ],
      [
        "c",
        "caron"
      ],
      [
        " ",
        "B"
      ],
      [
        "ž",
        "i"
      ],
      [
        "d",
        "u"
      ],
      [
        "l",
        "ja"
      ],
      [
        "d",
        "o"
      ],
      [
        "s",
        "to"
      ],
      [
        "p",
        "i"
      ],
      [
        " ",
        "P"
      ],
      [
        "g",
        "u"
      ],
      [
        " ",
        "će"
      ],
      [
        " ",
        "H"
      ],
      [
        "g",
        "ra"
      ],
      [
        "j",
        "o"
      ],
      [
        " ",
        "D"
      ],
      [
        " m",
        "i"
      ],
      [
        " ",
        "no"
      ],
      [
        "l",
        "ju"
      ],
      [
        "n",
        "ji"
      ],
      [
        " ",
        "ve"
      ],
      [
        "s",
        "e"
      ],
      [
        "&",
        "ccaron"
      ],
      [
        ";",
        "e"
      ],
      [
        " ",
        "vi"
      ],
      [
        " ",
        "e"
      ],
      [
        "cu",
        "te"
      ],
      [
        "ca",
        "cute"
      ],
      [
        "no",
        "m"
      ],
      [
        "\"",
        ","
      ],
      [
        " p",
        "a"
      ],
      [
        "ć",
        "a"
      ],
      [
        "r",
        "va"
      ],
      [
        "ri",
        "je"
      ],
      [
        " š",
        "to"
      ],
      [
        "no",
        "g"
      ],
      [
        " ",
        "ta"
      ],
      [
        " ",
        "-"
      ],
      [
        " go",
        "di"
      ],
      [
        "ni",
        "h"
      ],
      [
        "ž",
        "a"
      ],
      [
        " ",
        "K"
      ],
      [
        " ",
        "f"
      ],
      [
        "š",
        "a"
      ],
      [
        "t",
        "ra"
      ],
      [
        "v",
        "je"
      ],
      [
        "ni",
        "m"
      ],
      [
        " ",
        "\""
      ],
      [
        "ci",
        "je"
      ],
      [
        "l",
        "ji"
      ],
      [
        "p",
        "u"
      ],
      [
        "s",
        "u"
      ],
      [
        " o",
        "b"
      ],
      [
        " ",
        "A"
      ],
      [
        " ",
        "ma"
      ],
      [
        "s",
        "ke"
      ],
      [
        " ",
        "R"
      ],
      [
        "v",
        "r"
      ],
      [
        "&",
        "cacute"
      ],
      [
        " ",
        "li"
      ],
      [
        "N",
        "a"
      ],
      [
        " ",
        "h"
      ],
      [
        "b",
        "e"
      ],
      [
        "š",
        "i"
      ],
      [
        "ci",
        "ja"
      ],
      [
        "g",
        "i"
      ],
      [
        "p",
        "e"
      ],
      [
        "z",
        "caron"
      ],
      [
        " ",
        "V"
      ],
      [
        " s",
        "vo"
      ],
      [
        "s",
        "o"
      ],
      [
        " m",
        "e"
      ],
      [
        "g",
        "e"
      ],
      [
        "n",
        "ju"
      ],
      [
        "rva",
        "t"
      ],
      [
        "v",
        "u"
      ],
      [
        " t",
        "re"
      ],
      [
        " ",
        "("
      ],
      [
        " i",
        "ma"
      ],
      [
        "d",
        "ni"
      ],
      [
        "2",
        "0"
      ],
      [
        "o",
        "r"
      ],
      [
        ";",
        "i"
      ],
      [
        " ",
        "vo"
      ],
      [
        "l",
        "j"
      ],
      [
        " ka",
        "ko"
      ],
      [
        "z",
        "e"
      ],
      [
        "s",
        "je"
      ],
      [
        "đ",
        "e"
      ],
      [
        " ",
        "T"
      ],
      [
        " d",
        "i"
      ],
      [
        " p",
        "u"
      ],
      [
        " ko",
        "je"
      ],
      [
        "vi",
        "je"
      ],
      [
        " d",
        "ru"
      ],
      [
        "d",
        "je"
      ],
      [
        " ra",
        "z"
      ],
      [
        " ",
        "="
      ],
      [
        " ",
        "G"
      ],
      [
        " =",
        ">"
      ],
      [
        "Z",
        "a"
      ],
      [
        " na",
        "j"
      ],
      [
        " s",
        "ta"
      ],
      [
        "ko",
        "m"
      ],
      [
        " ",
        "L"
      ],
      [
        "&",
        "zcaron"
      ],
      [
        " b",
        "o"
      ],
      [
        " M",
        "a"
      ],
      [
        " ",
        "ti"
      ],
      [
        "m",
        "je"
      ],
      [
        " ",
        "I"
      ],
      [
        " ni",
        "je"
      ],
      [
        "ko",
        "n"
      ],
      [
        " i",
        "n"
      ],
      [
        " ",
        "&"
      ],
      [
        " ",
        "va"
      ],
      [
        " pre",
        "d"
      ],
      [
        " ",
        "ja"
      ],
      [
        "s",
        "ka"
      ],
      [
        " ",
        "nje"
      ],
      [
        " s",
        "i"
      ],
      [
        " s",
        "ve"
      ],
      [
        "v",
        "no"
      ],
      [
        "z",
        "o"
      ],
      [
        "h",
        "o"
      ],
      [
        " ka",
        "o"
      ],
      [
        "m",
        "u"
      ],
      [
        " ",
        "["
      ],
      [
        " a",
        "li"
      ],
      [
        "ta",
        "k"
      ],
      [
        ";",
        "a"
      ],
      [
        " ",
        "O"
      ],
      [
        " ",
        "J"
      ],
      [
        "d",
        "no"
      ],
      [
        "p",
        "re"
      ],
      [
        " ",
        "E"
      ],
      [
        " p",
        "r"
      ],
      [
        " ",
        "N"
      ],
      [
        "st",
        "u"
      ],
      [
        " sa",
        "m"
      ],
      [
        "p",
        "ra"
      ],
      [
        " d",
        "e"
      ],
      [
        " i",
        "s"
      ],
      [
        "ra",
        "n"
      ],
      [
        " ",
        "če"
      ],
      [
        " ",
        "C"
      ],
      [
        "ra",
        "ti"
      ],
      [
        " g",
        "ra"
      ],
      [
        "ni",
        "je"
      ],
      [
        " godi",
        "ne"
      ],
      [
        " ",
        "ku"
      ],
      [
        " m",
        "je"
      ],
      [
        " s",
        "t"
      ],
      [
        "v",
        "ni"
      ],
      [
        "z",
        "u"
      ],
      [
        " po",
        "s"
      ],
      [
        "z",
        "na"
      ],
      [
        "r",
        "ža"
      ],
      [
        "P",
        "o"
      ],
      [
        "a",
        "r"
      ],
      [
        " s",
        "mo"
      ],
      [
        " z",
        "na"
      ],
      [
        "b",
        "u"
      ],
      [
        "t",
        "ni"
      ],
      [
        "vi",
        "ć"
      ],
      [
        " po",
        "d"
      ],
      [
        " bi",
        "ti"
      ],
      [
        " po",
        "t"
      ],
      [
        " p",
        "i"
      ],
      [
        " ko",
        "ja"
      ],
      [
        "đ",
        "u"
      ],
      [
        " ",
        "jo"
      ],
      [
        "sko",
        "g"
      ],
      [
        " d",
        "je"
      ],
      [
        " H",
        "rvat"
      ],
      [
        "t",
        "no"
      ],
      [
        "go",
        "vo"
      ],
      [
        "n",
        "ta"
      ],
      [
        "č",
        "u"
      ],
      [
        "di",
        "o"
      ],
      [
        "li",
        "ko"
      ],
      [
        " ",
        "F"
      ],
      [
        "v",
        "lja"
      ],
      [
        " na",
        "kon"
      ],
      [
        " o",
        "t"
      ],
      [
        "đ",
        "a"
      ],
      [
        "i",
        "na"
      ],
      [
        " p",
        "la"
      ],
      [
        " sa",
        "mo"
      ],
      [
        " i",
        "li"
      ],
      [
        " da",
        "na"
      ],
      [
        " vi",
        "še"
      ],
      [
        "0",
        "0"
      ],
      [
        " s",
        "tra"
      ],
      [
        " p",
        "ra"
      ],
      [
        "\"",
        "\","
      ],
      [
        " ",
        "lju"
      ],
      [
        " ",
        "U"
      ],
      [
        "s",
        "ni"
      ],
      [
        "s",
        "no"
      ],
      [
        " ko",
        "n"
      ],
      [
        "r",
        "no"
      ],
      [
        "\"",
        ":"
      ],
      [
        "ka",
        "o"
      ],
      [
        " u",
        "s"
      ],
      [
        " pri",
        "je"
      ],
      [
        "a",
        "n"
      ],
      [
        "\":",
        "\""
      ],
      [
        " g",
        "la"
      ],
      [
        " m",
        "u"
      ],
      [
        " bi",
        "o"
      ],
      [
        " ",
        "nji"
      ],
      [
        " t",
        "u"
      ],
      [
        " u",
        "z"
      ],
      [
        " t",
        "ra"
      ],
      [
        " e",
        "u"
      ],
      [
        "š",
        "ta"
      ],
      [
        "s",
        "te"
      ],
      [
        " je",
        "d"
      ],
      [
        "da",
        "n"
      ],
      [
        " i",
        "gra"
      ],
      [
        "a",
        "ko"
      ],
      [
        " s",
        "vi"
      ],
      [
        "č",
        "ki"
      ],
      [
        "i",
        "je"
      ],
      [
        "r",
        "t"
      ],
      [
        " ",
        "ga"
      ],
      [
        "va",
        "nje"
      ],
      [
        "ti",
        "v"
      ],
      [
        "g",
        "re"
      ],
      [
        " ",
        "Za"
      ],
      [
        " ta",
        "ko"
      ],
      [
        " ",
        "'"
      ],
      [
        " M",
        "i"
      ],
      [
        " o",
        "vo"
      ],
      [
        " p",
        "e"
      ],
      [
        " ",
        "ži"
      ],
      [
        "bo",
        "g"
      ],
      [
        "sko",
        "j"
      ],
      [
        " k",
        "ra"
      ],
      [
        "ć",
        "u"
      ],
      [
        "g",
        "le"
      ],
      [
        "t",
        "je"
      ],
      [
        " mo",
        "že"
      ],
      [
        "va",
        "ti"
      ],
      [
        " je",
        "r"
      ],
      [
        "a",
        "l"
      ],
      [
        " b",
        "e"
      ],
      [
        " jo",
        "š"
      ],
      [
        " d",
        "u"
      ],
      [
        "sko",
        "m"
      ],
      [
        "d",
        "st"
      ],
      [
        " ",
        "ru"
      ],
      [
        "ski",
        "h"
      ],
      [
        " po",
        "li"
      ],
      [
        "d",
        "ra"
      ],
      [
        "-",
        "a"
      ],
      [
        " b",
        "a"
      ],
      [
        "ni",
        "ci"
      ],
      [
        " ",
        "že"
      ],
      [
        "g",
        "la"
      ],
      [
        "ž",
        "u"
      ],
      [
        " o",
        "sta"
      ],
      [
        "f",
        "i"
      ],
      [
        "vi",
        "o"
      ],
      [
        ".",
        "."
      ],
      [
        "n",
        "da"
      ],
      [
        "n",
        "ti"
      ],
      [
        "b",
        "ro"
      ],
      [
        "s",
        "ku"
      ],
      [
        "te",
        "lji"
      ],
      [
        "b",
        "je"
      ],
      [
        " re",
        "kao"
      ],
      [
        "h",
        "a"
      ],
      [
        " tre",
        "ba"
      ],
      [
        "h",
        "e"
      ],
      [
        "mi",
        "je"
      ],
      [
        " mo",
        "gu"
      ],
      [
        "n",
        "t"
      ],
      [
        "ci",
        "ju"
      ],
      [
        " godi",
        "na"
      ],
      [
        "r",
        "ni"
      ],
      [
        " z",
        "bog"
      ],
      [
        "va",
        "li"
      ],
      [
        " po",
        "sto"
      ],
      [
        " s",
        "po"
      ],
      [
        "go",
        "di"
      ],
      [
        "f",
        "e"
      ],
      [
        "š",
        "te"
      ],
      [
        "2",
        "7"
      ],
      [
        "ro",
        "k"
      ],
      [
        " ",
        "či"
      ],
      [
        " s",
        "lu"
      ],
      [
        "š",
        "t"
      ],
      [
        "N",
        "e"
      ],
      [
        "o",
        "na"
      ],
      [
        "o",
        "n"
      ],
      [
        "20",
        "2"
      ],
      [
        " s",
        "va"
      ],
      [
        "va",
        "nja"
      ],
      [
        "st",
        "ra"
      ],
      [
        " ",
        "Š"
      ],
      [
        "?",
        "\n"
      ],
      [
        " bi",
        "lo"
      ],
      [
        "o",
        "m"
      ],
      [
        "1",
        "9"
      ],
      [
        "v",
        "lje"
      ],
      [
        "li",
        "je"
      ],
      [
        "no",
        "sti"
      ],
      [
        "l",
        "ni"
      ],
      [
        " b",
        "u"
      ],
      [
        "sje",
        "dni"
      ],
      [
        "st",
        "va"
      ],
      [
        " v",
        "r"
      ],
      [
        " ",
        "lo"
      ],
      [
        " b",
        "ro"
      ],
      [
        " v",
        "rije"
      ],
      [
        " ob",
        "ja"
      ],
      [
        "i",
        "n"
      ],
      [
        "k",
        "la"
      ],
      [
        "vo",
        "m"
      ],
      [
        "1",
        "0"
      ],
      [
        "ri",
        "ja"
      ],
      [
        "k",
        "ra"
      ],
      [
        " o",
        "so"
      ],
      [
        "č",
        "ko"
      ],
      [
        " o",
        "s"
      ],
      [
        " ve",
        "li"
      ],
      [
        "re",
        "me"
      ],
      [
        " v",
        "je"
      ],
      [
        " ",
        "ro"
      ],
      [
        " o",
        "ko"
      ],
      [
        " eu",
        "ra"
      ],
      [
        "tak",
        "mi"
      ],
      [
        " o",
        "bi"
      ],
      [
        "re",
        "d"
      ],
      [
        "to",
        "m"
      ],
      [
        "dst",
        "rok"
      ],
      [
        "e",
        "r"
      ],
      [
        " ",
        "cije"
      ],
      [
        "&",
        "dstrok"
      ],
      [
        " do",
        "bi"
      ],
      [
        " do",
        "k"
      ],
      [
        "p",
        "li"
      ],
      [
        " h",
        "rvat"
      ],
      [
        " v",
        "la"
      ],
      [
        "j",
        "p"
      ],
      [
        "č",
        "no"
      ],
      [
        "jo",
        "m"
      ],
      [
        " u",
        "takmi"
      ],
      [
        "t",
        "ro"
      ],
      [
        "k",
        "ri"
      ],
      [
        " do",
        "da"
      ],
      [
        "te",
        "lj"
      ],
      [
        " ve",
        "ć"
      ],
      [
        ";",
        "u"
      ],
      [
        " a",
        "u"
      ],
      [
        ".",
        "jp"
      ],
      [
        ".jp",
        "g"
      ],
      [
        "u",
        "ro"
      ],
      [
        "vo",
        "ri"
      ],
      [
        "jo",
        "j"
      ],
      [
        "š",
        "to"
      ],
      [
        "k",
        "lju"
      ],
      [
        " bi",
        "la"
      ],
      [
        " t",
        "ri"
      ],
      [
        "va",
        "n"
      ],
      [
        " po",
        "sta"
      ],
      [
        "k",
        "re"
      ],
      [
        "li",
        "m"
      ],
      [
        "4",
        "0"
      ],
      [
        "ro",
        "m"
      ],
      [
        " ra",
        "di"
      ],
      [
        "i",
        "l"
      ],
      [
        "ni",
        "ka"
      ],
      [
        "l",
        "no"
      ],
      [
        " iz",
        "bo"
      ],
      [
        "p",
        "ri"
      ],
      [
        "ni",
        "ca"
      ],
      [
        " ",
        "c"
      ],
      [
        " ži",
        "vo"
      ],
      [
        " ka",
        "da"
      ],
      [
        "vi",
        "ti"
      ],
      [
        " o",
        "p"
      ],
      [
        " ",
        "Z"
      ],
      [
        "n",
        "ci"
      ],
      [
        " mo",
        "ra"
      ],
      [
        " na",
        "s"
      ],
      [
        " ti",
        "je"
      ],
      [
        "t",
        "ko"
      ],
      [
        "b",
        "li"
      ],
      [
        "ni",
        "ma"
      ],
      [
        " pred",
        "sjedni"
      ],
      [
        "K",
        "a"
      ],
      [
        " nje",
        "go"
      ],
      [
        "te",
        "r"
      ],
      [
        " ",
        "ju"
      ],
      [
        "ski",
        "m"
      ],
      [
        "va",
        "ra"
      ],
      [
        "vi",
        "ma"
      ],
      [
        " s",
        "to"
      ],
      [
        " iz",
        "a"
      ],
      [
        "vi",
        "h"
      ],
      [
        "e",
        "l"
      ],
      [
        "k",
        "ti"
      ],
      [
        " ",
        "č"
      ],
      [
        " lju",
        "di"
      ],
      [
        " P",
        "o"
      ],
      [
        " pre",
        "ma"
      ],
      [
        "ri",
        "sti"
      ],
      [
        "š",
        "ti"
      ],
      [
        "T",
        "o"
      ],
      [
        "š",
        "ko"
      ],
      [
        "ne",
        "r"
      ],
      [
        " svo",
        "je"
      ],
      [
        "a",
        "li"
      ],
      [
        "p",
        "ro"
      ],
      [
        "D",
        "o"
      ],
      [
        " od",
        "lu"
      ],
      [
        "vo",
        "j"
      ],
      [
        "s",
        "la"
      ],
      [
        " d",
        "rža"
      ],
      [
        " ne",
        "ko"
      ],
      [
        "ju",
        "ći"
      ],
      [
        "h",
        "i"
      ],
      [
        "no",
        "st"
      ],
      [
        "1",
        "2"
      ],
      [
        " od",
        "no"
      ],
      [
        "s",
        "po"
      ],
      [
        "ra",
        "ni"
      ],
      [
        "la",
        "zi"
      ],
      [
        "ve",
        "n"
      ],
      [
        "\"",
        ".\n"
      ],
      [
        " d",
        "va"
      ],
      [
        " E",
        "uro"
      ],
      [
        "st",
        "vo"
      ],
      [
        " ",
        "la"
      ],
      [
        " i",
        "h"
      ],
      [
        "vi",
        "m"
      ],
      [
        " pro",
        "tiv"
      ],
      [
        " k",
        "ri"
      ],
      [
        " z",
        "e"
      ],
      [
        "č",
        "ke"
      ],
      [
        "i",
        "z"
      ],
      [
        " B",
        "o"
      ],
      [
        "pi",
        "sa"
      ],
      [
        " o",
        "va"
      ],
      [
        " au",
        "to"
      ],
      [
        "b",
        "le"
      ],
      [
        " nji",
        "ho"
      ],
      [
        " be",
        "z"
      ],
      [
        " na",
        "sta"
      ],
      [
        " na",
        "m"
      ],
      [
        "!",
        "\n"
      ],
      [
        "ci",
        "ma"
      ],
      [
        " je",
        "dan"
      ],
      [
        ")",
        ","
      ],
      [
        " po",
        "če"
      ],
      [
        " dru",
        "gi"
      ],
      [
        "ci",
        "ji"
      ],
      [
        "ta",
        "r"
      ],
      [
        " g",
        "dje"
      ],
      [
        " ",
        "rije"
      ],
      [
        " ne",
        "go"
      ],
      [
        " s",
        "re"
      ],
      [
        "me",
        "t"
      ],
      [
        " k",
        "re"
      ],
      [
        "ru",
        "č"
      ],
      [
        " Za",
        "gre"
      ],
      [
        "ra",
        "o"
      ],
      [
        "godi",
        "š"
      ],
      [
        "N",
        "o"
      ],
      [
        "nje",
        "m"
      ],
      [
        "t",
        "ka"
      ],
      [
        "n",
        "di"
      ],
      [
        " k",
        "lu"
      ],
      [
        "nu",
        "ti"
      ],
      [
        " s",
        "la"
      ],
      [
        "lo",
        "m"
      ],
      [
        "p",
        "je"
      ],
      [
        " ka",
        "d"
      ],
      [
        " mi",
        "li"
      ],
      [
        "s",
        "re"
      ],
      [
        " sa",
        "da"
      ],
      [
        " P",
        "e"
      ],
      [
        "vi",
        "la"
      ],
      [
        "ku",
        "p"
      ],
      [
        "j",
        "te"
      ],
      [
        "n",
        "g"
      ],
      [
        " m",
        "la"
      ],
      [
        " ",
        "ce"
      ],
      [
        " ne",
        "ma"
      ],
      [
        " po",
        "mo"
      ],
      [
        "f",
        "or"
      ],
      [
        "t",
        "vr"
      ],
      [
        "va",
        "o"
      ],
      [
        " pi",
        "ta"
      ],
      [
        "a",
        "j"
      ],
      [
        "d",
        "ne"
      ],
      [
        "ša",
        "o"
      ],
      [
        "n",
        "d"
      ],
      [
        " di",
        "je"
      ],
      [
        " t",
        "r"
      ],
      [
        " R",
        "e"
      ],
      [
        " po",
        "bje"
      ],
      [
        " ",
        "ki"
      ],
      [
        " to",
        "ga"
      ],
      [
        " s",
        "vje"
      ],
      [
        "d",
        "na"
      ],
      [
        "p",
        "la"
      ],
      [
        " i",
        "m"
      ],
      [
        " ni",
        "su"
      ],
      [
        " s",
        "je"
      ],
      [
        " tre",
        "nu"
      ],
      [
        " po",
        "ve"
      ],
      [
        "stu",
        "p"
      ],
      [
        "gle",
        "da"
      ],
      [
        "va",
        "ju"
      ],
      [
        "b",
        "no"
      ],
      [
        "je",
        "k"
      ],
      [
        " P",
        "a"
      ],
      [
        " p",
        "je"
      ],
      [
        "do",
        "m"
      ],
      [
        " bro",
        "j"
      ],
      [
        "nu",
        "o"
      ],
      [
        " vrije",
        "me"
      ],
      [
        " do",
        "bro"
      ],
      [
        " pri",
        "ja"
      ],
      [
        "D",
        "a"
      ],
      [
        " t",
        "vr"
      ],
      [
        " si",
        "gu"
      ],
      [
        " B",
        "a"
      ],
      [
        " J",
        "a"
      ],
      [
        " s",
        "ma"
      ],
      [
        " po",
        "ka"
      ],
      [
        " u",
        "pra"
      ],
      [
        " K",
        "o"
      ],
      [
        " ",
        "ci"
      ],
      [
        " s",
        "vije"
      ],
      [
        " li",
        "je"
      ],
      [
        " S",
        "a"
      ],
      [
        " me",
        "đu"
      ],
      [
        "pa",
        "da"
      ],
      [
        "ti",
        "m"
      ],
      [
        "r",
        "ga"
      ],
      [
        "s",
        "li"
      ],
      [
        " ",
        "ča"
      ],
      [
        "re",
        "n"
      ],
      [
        " s",
        "tu"
      ],
      [
        " o",
        "ve"
      ],
      [
        " po",
        "pu"
      ],
      [
        "ri",
        "ma"
      ],
      [
        "M",
        "o"
      ],
      [
        " dru",
        "št"
      ],
      [
        "lo",
        "va"
      ],
      [
        " pred",
        "sta"
      ],
      [
        " pro",
        "ble"
      ],
      [
        "n",
        "ski"
      ],
      [
        "vo",
        "g"
      ],
      [
        " K",
        "a"
      ],
      [
        " po",
        "zi"
      ],
      [
        "ni",
        "ce"
      ],
      [
        " M",
        "o"
      ],
      [
        "je",
        "m"
      ],
      [
        "ji",
        "m"
      ],
      [
        " f",
        "ina"
      ],
      [
        "me",
        "ta"
      ],
      [
        " poli",
        "ti"
      ],
      [
        "3",
        "0"
      ],
      [
        " o",
        "n"
      ],
      [
        " š",
        "e"
      ],
      [
        " no",
        "vi"
      ],
      [
        " ta",
        "j"
      ],
      [
        " ",
        "W"
      ],
      [
        " a",
        "ko"
      ],
      [
        "i",
        "t"
      ],
      [
        " s",
        "ti"
      ],
      [
        " R",
        "a"
      ],
      [
        "sta",
        "r"
      ],
      [
        " se",
        "zo"
      ],
      [
        "ri",
        "o"
      ],
      [
        " ob",
        "ra"
      ],
      [
        "P",
        "ro"
      ],
      [
        "lo",
        "g"
      ],
      [
        " za",
        "je"
      ],
      [
        "b",
        "ra"
      ],
      [
        "..",
        ".\n"
      ],
      [
        "1",
        "5"
      ],
      [
        " di",
        "o"
      ],
      [
        " ko",
        "d"
      ],
      [
        "vije",
        "k"
      ],
      [
        "tje",
        "ca"
      ],
      [
        " o",
        "z"
      ],
      [
        " pro",
        "š"
      ],
      [
        "M",
        "i"
      ],
      [
        "r",
        "ta"
      ],
      [
        " D",
        "a"
      ],
      [
        "ona",
        "l"
      ],
      [
        "ni",
        "k"
      ],
      [
        " i",
        "de"
      ],
      [
        "te",
        "m"
      ],
      [
        " pa",
        "r"
      ],
      [
        "š",
        "ka"
      ],
      [
        " B",
        "e"
      ],
      [
        " z",
        "dra"
      ],
      [
        " V",
        "a"
      ],
      [
        "zi",
        "ra"
      ],
      [
        " ko",
        "ju"
      ],
      [
        " D",
        "u"
      ],
      [
        "di",
        "ti"
      ],
      [
        "ga",
        "o"
      ],
      [
        "no",
        "j"
      ],
      [
        " mje",
        "se"
      ],
      [
        "sa",
        "m"
      ],
      [
        " L",
        "i"
      ],
      [
        " neko",
        "liko"
      ],
      [
        "k",
        "to"
      ],
      [
        " u",
        "po"
      ],
      [
        " st",
        "va"
      ],
      [
        " pot",
        "re"
      ],
      [
        "ni",
        "ji"
      ],
      [
        " f",
        "o"
      ],
      [
        "bi",
        "je"
      ],
      [
        " pro",
        "iz"
      ],
      [
        " ",
        "le"
      ],
      [
        "vi",
        "ja"
      ],
      [
        "la",
        "n"
      ],
      [
        " za",
        "h"
      ],
      [
        " dana",
        "s"
      ],
      [
        " s",
        "o"
      ],
      [
        "ni",
        "ra"
      ],
      [
        " za",
        "vr"
      ],
      [
        " Ma",
        "r"
      ],
      [
        " dru",
        "go"
      ],
      [
        "ci",
        "j"
      ],
      [
        " t",
        "je"
      ],
      [
        " po",
        "ru"
      ],
      [
        " me",
        "di"
      ],
      [
        "8",
        "0"
      ],
      [
        " sa",
        "ti"
      ],
      [
        "vo",
        "ji"
      ],
      [
        " s",
        "na"
      ],
      [
        " po",
        "se"
      ],
      [
        "či",
        "o"
      ],
      [
        "da",
        "r"
      ],
      [
        " š",
        "ko"
      ],
      [
        " naj",
        "bo"
      ],
      [
        " ne",
        "ki"
      ],
      [
        "či",
        "n"
      ],
      [
        "v",
        "ne"
      ],
      [
        " mili",
        "ju"
      ],
      [
        "la",
        "no"
      ],
      [
        "va",
        "la"
      ],
      [
        " ze",
        "m"
      ],
      [
        "k",
        "lo"
      ],
      [
        " bi",
        "li"
      ],
      [
        " us",
        "pje"
      ],
      [
        "me",
        "ri"
      ],
      [
        " o",
        "ba"
      ],
      [
        " R",
        "u"
      ],
      [
        " pos",
        "lje"
      ],
      [
        "P",
        "re"
      ],
      [
        " D",
        "o"
      ],
      [
        "h",
        "u"
      ],
      [
        "pa",
        "n"
      ],
      [
        "v",
        "na"
      ],
      [
        " s",
        "te"
      ],
      [
        "st",
        "ve"
      ],
      [
        " ot",
        "kri"
      ],
      [
        "t",
        "ku"
      ],
      [
        " o",
        "si"
      ],
      [
        "d",
        "nji"
      ],
      [
        "č",
        "ka"
      ],
      [
        "zu",
        "l"
      ],
      [
        "kra",
        "ji"
      ],
      [
        " h",
        "o"
      ],
      [
        " pri",
        "li"
      ],
      [
        "đe",
        "r"
      ],
      [
        " N",
        "e"
      ],
      [
        "le",
        "k"
      ],
      [
        "no",
        "si"
      ],
      [
        " k",
        "ro"
      ],
      [
        " o",
        "rga"
      ],
      [
        " iz",
        "ra"
      ],
      [
        "v",
        "ši"
      ],
      [
        " ka",
        "že"
      ],
      [
        " s",
        "r"
      ],
      [
        " f",
        "a"
      ],
      [
        " ko",
        "ri"
      ],
      [
        "sje",
        "ti"
      ],
      [
        " ",
        "lje"
      ],
      [
        " i",
        "sto"
      ],
      [
        "r",
        "ne"
      ],
      [
        "ž",
        "be"
      ],
      [
        "vo",
        "re"
      ],
      [
        "Na",
        "kon"
      ],
      [
        " je",
        "dno"
      ],
      [
        " to",
        "me"
      ],
      [
        " Hrvat",
        "ske"
      ],
      [
        " proiz",
        "vo"
      ],
      [
        " od",
        "govo"
      ],
      [
        " pr",
        "vi"
      ],
      [
        " tije",
        "kom"
      ],
      [
        " i",
        "sti"
      ],
      [
        " ne",
        "što"
      ],
      [
        "ra",
        "k"
      ],
      [
        " v",
        "reme"
      ],
      [
        "B",
        "i"
      ],
      [
        "J",
        "e"
      ],
      [
        "za",
        "o"
      ],
      [
        " do",
        "ma"
      ],
      [
        "te",
        "lja"
      ],
      [
        " za",
        "po"
      ],
      [
        " i",
        "stra"
      ],
      [
        " po",
        "zna"
      ],
      [
        "v",
        "nog"
      ],
      [
        "ta",
        "n"
      ],
      [
        "ku",
        "pi"
      ],
      [
        " no",
        "go"
      ],
      [
        " J",
        "o"
      ],
      [
        " pu",
        "no"
      ],
      [
        " T",
        "o"
      ],
      [
        " sigu",
        "rno"
      ],
      [
        "ni",
        "ja"
      ],
      [
        "20",
        "1"
      ],
      [
        " Hrvat",
        "skoj"
      ],
      [
        " u",
        "mje"
      ],
      [
        "me",
        "nta"
      ],
      [
        "S",
        "a"
      ],
      [
        " ko",
        "m"
      ],
      [
        "I",
        "z"
      ],
      [
        " ma",
        "lo"
      ],
      [
        "vo",
        "lj"
      ],
      [
        "ko",
        "vić"
      ],
      [
        " u",
        "vijek"
      ],
      [
        "vi",
        "li"
      ],
      [
        " ",
        "žu"
      ],
      [
        "v",
        "la"
      ],
      [
        " p",
        "rva"
      ],
      [
        " d",
        "vije"
      ],
      [
        " iz",
        "me"
      ],
      [
        " D",
        "ina"
      ],
      [
        " G",
        "ra"
      ],
      [
        "ma",
        "n"
      ],
      [
        " pu",
        "t"
      ],
      [
        "M",
        "e"
      ],
      [
        " M",
        "e"
      ],
      [
        "o",
        "p"
      ],
      [
        " vo",
        "zi"
      ],
      [
        " orga",
        "ni"
      ],
      [
        "5",
        "0"
      ],
      [
        " s",
        "lo"
      ],
      [
        " in",
        "te"
      ],
      [
        "di",
        "n"
      ],
      [
        "ni",
        "star"
      ],
      [
        "zul",
        "ta"
      ],
      [
        " po",
        "no"
      ],
      [
        " G",
        "o"
      ],
      [
        "d",
        "ru"
      ],
      [
        " na",
        "d"
      ],
      [
        " po",
        "ja"
      ],
      [
        " koji",
        "ma"
      ],
      [
        " nje",
        "zi"
      ],
      [
        "u",
        "r"
      ],
      [
        "ga",
        "đa"
      ],
      [
        "R",
        "a"
      ],
      [
        "le",
        "n"
      ],
      [
        "1",
        "1"
      ],
      [
        "do",
        "va"
      ],
      [
        "ni",
        "o"
      ],
      [
        " V",
        "e"
      ],
      [
        "g",
        "li"
      ],
      [
        "te",
        "d"
      ],
      [
        " miliju",
        "na"
      ],
      [
        "ve",
        "r"
      ],
      [
        " ni",
        "ka"
      ],
      [
        " B",
        "i"
      ],
      [
        " L",
        "u"
      ],
      [
        "t",
        "ne"
      ],
      [
        " od",
        "rža"
      ],
      [
        "b",
        "ri"
      ],
      [
        "bi",
        "o"
      ],
      [
        "pu",
        "bli"
      ],
      [
        "l",
        "ne"
      ],
      [
        "O",
        "d"
      ],
      [
        " sa",
        "d"
      ],
      [
        " ",
        "Na"
      ],
      [
        "tu",
        "a"
      ],
      [
        " koje",
        "m"
      ],
      [
        "v",
        "nom"
      ],
      [
        "š",
        "u"
      ],
      [
        " b",
        "r"
      ],
      [
        "ti",
        "ri"
      ],
      [
        "e",
        "n"
      ],
      [
        "ni",
        "ti"
      ],
      [
        "v",
        "reme"
      ],
      [
        " po",
        "go"
      ],
      [
        " d",
        "r"
      ],
      [
        " R",
        "o"
      ],
      [
        " o",
        "na"
      ],
      [
        "ze",
        "nta"
      ],
      [
        "na",
        "ma"
      ],
      [
        "d",
        "nje"
      ],
      [
        "r",
        "je"
      ],
      [
        " jed",
        "na"
      ],
      [
        "aj",
        "du"
      ],
      [
        " na",
        "pra"
      ],
      [
        " ",
        "ri"
      ],
      [
        "vi",
        "še"
      ],
      [
        "đ",
        "i"
      ],
      [
        " N",
        "i"
      ],
      [
        " o",
        "če"
      ],
      [
        "vo",
        "di"
      ],
      [
        " re",
        "kla"
      ],
      [
        "st",
        "ru"
      ],
      [
        "pa",
        "k"
      ],
      [
        " ne",
        "će"
      ],
      [
        "-",
        "u"
      ],
      [
        "k",
        "r"
      ],
      [
        " t",
        "ro"
      ],
      [
        " ima",
        "ju"
      ],
      [
        " f",
        "il"
      ],
      [
        "K",
        "o"
      ],
      [
        " pod",
        "ruč"
      ],
      [
        "c",
        "om"
      ],
      [
        " re",
        "zulta"
      ],
      [
        "27",
        "2"
      ],
      [
        "čko",
        "g"
      ],
      [
        "t",
        "re"
      ],
      [
        " naj",
        "ve"
      ],
      [
        " u",
        "klju"
      ],
      [
        " ko",
        "joj"
      ],
      [
        " d",
        "vo"
      ],
      [
        "k",
        "li"
      ],
      [
        " S",
        "pli"
      ],
      [
        "s",
        "mo"
      ],
      [
        ")",
        ".\n"
      ],
      [
        "ra",
        "na"
      ],
      [
        " J",
        "u"
      ],
      [
        " da",
        "lje"
      ],
      [
        "I",
        "ma"
      ],
      [
        "to",
        "vo"
      ],
      [
        " slu",
        "ča"
      ],
      [
        " o",
        "nda"
      ],
      [
        " go",
        "vori"
      ],
      [
        "le",
        "da"
      ],
      [
        " svo",
        "j"
      ],
      [
        " vr",
        "lo"
      ],
      [
        " u",
        "vje"
      ],
      [
        "i",
        "me"
      ],
      [
        "for",
        "ma"
      ],
      [
        " izme",
        "đu"
      ],
      [
        "pre",
        "zenta"
      ],
      [
        " N",
        "o"
      ],
      [
        " eu",
        "ro"
      ],
      [
        "N",
        "i"
      ],
      [
        "ko",
        "vi"
      ],
      [
        " o",
        "pe"
      ],
      [
        " ja",
        "ko"
      ],
      [
        " si",
        "tua"
      ],
      [
        " bu",
        "du"
      ],
      [
        "t",
        "ri"
      ],
      [
        "ja",
        "n"
      ],
      [
        " m",
        "re"
      ],
      [
        " L",
        "a"
      ],
      [
        "1",
        "4"
      ],
      [
        " da",
        "n"
      ],
      [
        "i",
        "d"
      ],
      [
        "č",
        "ne"
      ],
      [
        " pe",
        "t"
      ],
      [
        "-",
        "godiš"
      ],
      [
        " o",
        "sje"
      ],
      [
        "M",
        "a"
      ],
      [
        "z",
        "ne"
      ],
      [
        " te",
        "k"
      ],
      [
        " de",
        "se"
      ],
      [
        " re",
        "prezenta"
      ],
      [
        " V",
        "i"
      ],
      [
        " va",
        "m"
      ],
      [
        " će",
        "mo"
      ],
      [
        " vo",
        "j"
      ],
      [
        " raz",
        "li"
      ],
      [
        " do",
        "gađa"
      ],
      [
        " pro",
        "sto"
      ],
      [
        "t",
        "ke"
      ],
      [
        "ž",
        "no"
      ],
      [
        " V",
        "la"
      ],
      [
        "'",
        "\n"
      ],
      [
        "1",
        "8"
      ],
      [
        " ve",
        "ći"
      ],
      [
        " svo",
        "jim"
      ],
      [
        "d",
        "ri"
      ],
      [
        "st",
        "ri"
      ],
      [
        " B",
        "u"
      ],
      [
        " su",
        "sta"
      ],
      [
        " s",
        "mje"
      ],
      [
        "ne",
        "ra"
      ],
      [
        "ji",
        "h"
      ],
      [
        " pro",
        "jek"
      ],
      [
        " svo",
        "ju"
      ],
      [
        " kro",
        "z"
      ],
      [
        "'",
        ","
      ],
      [
        "i",
        "m"
      ],
      [
        "k",
        "le"
      ],
      [
        "č",
        "ni"
      ],
      [
        "1",
        "6"
      ],
      [
        "R",
        "e"
      ],
      [
        "K",
        "ako"
      ],
      [
        " nji",
        "h"
      ],
      [
        " ča",
        "k"
      ],
      [
        "n",
        "j"
      ],
      [
        " na",
        "še"
      ],
      [
        "s",
        "s"
      ],
      [
        "27",
        "1"
      ],
      [
        " o",
        "ni"
      ],
      [
        " jo",
        "j"
      ],
      [
        " do",
        "la"
      ],
      [
        " po",
        "ku"
      ],
      [
        " pro",
        "gra"
      ],
      [
        "ro",
        "ja"
      ],
      [
        "ri",
        "ti"
      ],
      [
        "sta",
        "k"
      ],
      [
        " pos",
        "lo"
      ],
      [
        "r",
        "bi"
      ],
      [
        " mo",
        "m"
      ],
      [
        "c",
        "o"
      ],
      [
        "ra",
        "li"
      ],
      [
        "va",
        "nju"
      ],
      [
        "n",
        "ske"
      ],
      [
        " ",
        "ču"
      ],
      [
        " ta",
        "k"
      ],
      [
        ".",
        ","
      ],
      [
        " predsjedni",
        "k"
      ],
      [
        "š",
        "ki"
      ],
      [
        " če",
        "tvr"
      ],
      [
        "ra",
        "ž"
      ],
      [
        "či",
        "ć"
      ],
      [
        " k",
        "vali"
      ],
      [
        " tako",
        "đer"
      ],
      [
        "1",
        "3"
      ],
      [
        " g",
        "u"
      ],
      [
        " lo",
        "ka"
      ],
      [
        "va",
        "c"
      ],
      [
        " a",
        "k"
      ],
      [
        " mje",
        "sto"
      ],
      [
        " g",
        "leda"
      ],
      [
        "n",
        "k"
      ],
      [
        " pu",
        "ta"
      ],
      [
        " veli",
        "ki"
      ],
      [
        "vno",
        "sti"
      ],
      [
        " popu",
        "t"
      ],
      [
        " mi",
        "nu"
      ],
      [
        " u",
        "la"
      ],
      [
        "A",
        "ko"
      ],
      [
        " o",
        "no"
      ],
      [
        "V",
        "e"
      ],
      [
        " po",
        "ra"
      ],
      [
        " ra",
        "s"
      ],
      [
        " pri",
        "pre"
      ],
      [
        "š",
        "li"
      ],
      [
        " zaje",
        "dni"
      ],
      [
        " Euro",
        "p"
      ],
      [
        "vo",
        "r"
      ],
      [
        " H",
        "ajdu"
      ],
      [
        " po",
        "z"
      ],
      [
        " ",
        "Ž"
      ],
      [
        " pr",
        "ven"
      ],
      [
        "P",
        "ri"
      ],
      [
        " v",
        "ra"
      ],
      [
        "na",
        "če"
      ],
      [
        "či",
        "ti"
      ],
      [
        " oso",
        "ba"
      ],
      [
        "1",
        "7"
      ],
      [
        "n",
        "ka"
      ],
      [
        " za",
        "šti"
      ],
      [
        " svje",
        "t"
      ],
      [
        " gla",
        "z"
      ],
      [
        "r",
        "y"
      ],
      [
        "di",
        "je"
      ],
      [
        " u",
        "da"
      ],
      [
        " gra",
        "đa"
      ],
      [
        "u",
        "t"
      ],
      [
        " pro",
        "na"
      ],
      [
        " L",
        "e"
      ],
      [
        " osi",
        "gu"
      ],
      [
        "u",
        "ze"
      ],
      [
        "n",
        "cija"
      ],
      [
        "vije",
        "sti"
      ],
      [
        " jed",
        "nom"
      ],
      [
        "00",
        "0"
      ],
      [
        " ko",
        "liko"
      ],
      [
        " iz",
        "ja"
      ],
      [
        " R",
        "ije"
      ],
      [
        " ka",
        "ndi"
      ],
      [
        "či",
        "li"
      ],
      [
        " vo",
        "di"
      ],
      [
        "k",
        "s"
      ],
      [
        "mo",
        "vi"
      ],
      [
        " na",
        "pa"
      ],
      [
        ":",
        "\n"
      ],
      [
        " g",
        "e"
      ],
      [
        "ve",
        "de"
      ],
      [
        " gra",
        "d"
      ],
      [
        "bo",
        "ra"
      ],
      [
        " društ",
        "ve"
      ],
      [
        " A",
        "n"
      ],
      [
        "go",
        "vara"
      ],
      [
        "12",
        "8"
      ],
      [
        " b",
        "ra"
      ],
      [
        " S",
        "e"
      ],
      [
        "V",
        "i"
      ],
      [
        "š",
        "tu"
      ],
      [
        "nu",
        "la"
      ],
      [
        " kon",
        "ce"
      ],
      [
        " m",
        "nog"
      ],
      [
        "čki",
        "h"
      ],
      [
        " ova",
        "j"
      ],
      [
        " na",
        "čin"
      ],
      [
        " utakmi",
        "ce"
      ],
      [
        "g",
        "ro"
      ],
      [
        " če",
        "tiri"
      ],
      [
        " s",
        "li"
      ],
      [
        " za",
        "t"
      ],
      [
        " ta",
        "da"
      ],
      [
        "10",
        "2"
      ],
      [
        "c",
        "t"
      ],
      [
        " ti",
        "su"
      ],
      [
        " i",
        "me"
      ],
      [
        " pre",
        "t"
      ],
      [
        " dru",
        "ge"
      ],
      [
        " du",
        "go"
      ],
      [
        " sma",
        "tra"
      ],
      [
        "š",
        "nje"
      ],
      [
        "2",
        "20"
      ],
      [
        "T",
        "ako"
      ],
      [
        "r",
        "na"
      ],
      [
        " je",
        "di"
      ],
      [
        " na",
        "stu"
      ],
      [
        "će",
        "m"
      ],
      [
        "cija",
        "ma"
      ],
      [
        " L",
        "o"
      ],
      [
        " os",
        "voji"
      ],
      [
        " odno",
        "sno"
      ],
      [
        " ne",
        "ka"
      ],
      [
        "h",
        "va"
      ],
      [
        "k",
        "si"
      ],
      [
        "n",
        "ke"
      ],
      [
        "sa",
        "o"
      ],
      [
        "m",
        "pa"
      ],
      [
        "D",
        "Z"
      ],
      [
        "na",
        "li"
      ],
      [
        " ra",
        "dio"
      ],
      [
        " I",
        "n"
      ],
      [
        "4",
        "80"
      ],
      [
        " euro",
        "p"
      ],
      [
        "3",
        "40"
      ],
      [
        "no",
        "va"
      ],
      [
        " i",
        "stak"
      ],
      [
        " G",
        "a"
      ],
      [
        " vi",
        "dje"
      ],
      [
        "20",
        "0"
      ],
      [
        " slu",
        "žbe"
      ],
      [
        "6",
        "40"
      ],
      [
        "ti",
        "ma"
      ],
      [
        " pre",
        "ko"
      ],
      [
        " na",
        "ja"
      ],
      [
        " v",
        "rati"
      ],
      [
        " S",
        "u"
      ],
      [
        "s",
        "le"
      ],
      [
        "ra",
        "c"
      ],
      [
        " s",
        "pa"
      ],
      [
        "s",
        "ne"
      ],
      [
        "st",
        "vu"
      ],
      [
        " š",
        "i"
      ],
      [
        "ti",
        "o"
      ],
      [
        " u",
        "re"
      ],
      [
        "ve",
        "sti"
      ],
      [
        "ri",
        "ca"
      ],
      [
        "s",
        "lu"
      ],
      [
        " su",
        "ra"
      ],
      [
        "p",
        "lo"
      ],
      [
        "me",
        "nti"
      ],
      [
        "t",
        "na"
      ],
      [
        "pe",
        "r"
      ],
      [
        "o",
        "j"
      ],
      [
        "si",
        "je"
      ],
      [
        " pi",
        "še"
      ],
      [
        " ",
        "lu"
      ],
      [
        " z",
        "ra"
      ],
      [
        " g",
        "lu"
      ],
      [
        " fo",
        "to"
      ],
      [
        " poku",
        "ša"
      ],
      [
        " kandi",
        "da"
      ],
      [
        " obi",
        "telji"
      ],
      [
        "to",
        "r"
      ],
      [
        "v",
        "nih"
      ],
      [
        "nja",
        "k"
      ],
      [
        " ra",
        "zi"
      ],
      [
        " b",
        "li"
      ],
      [
        " do",
        "godi"
      ],
      [
        " U",
        "kraji"
      ],
      [
        "š",
        "nji"
      ],
      [
        "J",
        "a"
      ],
      [
        "pu",
        "sti"
      ],
      [
        "č",
        "kom"
      ],
      [
        " sezo",
        "ne"
      ],
      [
        "te",
        "c"
      ],
      [
        "ci",
        "onal"
      ],
      [
        " ima",
        "o"
      ],
      [
        " t",
        "ko"
      ],
      [
        "ma",
        "ti"
      ],
      [
        " po",
        "kre"
      ],
      [
        " u",
        "lo"
      ],
      [
        " to",
        "m"
      ],
      [
        "mo",
        "bi"
      ],
      [
        "a",
        "s"
      ],
      [
        "čko",
        "j"
      ],
      [
        " že",
        "li"
      ],
      [
        " pro",
        "mje"
      ],
      [
        "ra",
        "nje"
      ],
      [
        "l",
        "tu"
      ],
      [
        " a",
        "kti"
      ],
      [
        " zdra",
        "v"
      ],
      [
        "da",
        "m"
      ],
      [
        " f",
        "i"
      ],
      [
        " stra",
        "ne"
      ],
      [
        " s",
        "pre"
      ],
      [
        "po",
        "zna"
      ],
      [
        "lji",
        "vo"
      ],
      [
        " ma",
        "nje"
      ],
      [
        " ",
        "nu"
      ],
      [
        " s",
        "kupi"
      ],
      [
        " (",
        "["
      ],
      [
        " su",
        "sre"
      ],
      [
        " c",
        "r"
      ],
      [
        "lje",
        "de"
      ],
      [
        "v",
        "ra"
      ],
      [
        "li",
        "ma"
      ],
      [
        " pri",
        "mje"
      ],
      [
        " mla",
        "di"
      ],
      [
        " po",
        "ne"
      ],
      [
        "gla",
        "si"
      ],
      [
        " na",
        "tjeca"
      ],
      [
        "tec",
        "ted"
      ],
      [
        " re",
        "gi"
      ],
      [
        ":",
        "pro"
      ],
      [
        " P",
        "u"
      ],
      [
        ":pro",
        "tected"
      ],
      [
        "di",
        "la"
      ],
      [
        "š",
        "ke"
      ],
      [
        " vreme",
        "na"
      ],
      [
        "ra",
        "la"
      ],
      [
        "c",
        "h"
      ],
      [
        " za",
        "klju"
      ],
      [
        "me",
        "n"
      ],
      [
        " vi",
        "je"
      ],
      [
        " b",
        "or"
      ],
      [
        " žu",
        "pa"
      ],
      [
        " poka",
        "za"
      ],
      [
        "s",
        "na"
      ],
      [
        "2",
        "4"
      ],
      [
        "đe",
        "n"
      ],
      [
        " živo",
        "t"
      ],
      [
        " vla",
        "sti"
      ],
      [
        "2",
        "5"
      ],
      [
        " zavr",
        "ši"
      ],
      [
        "če",
        "r"
      ],
      [
        " va",
        "s"
      ],
      [
        "ž",
        "da"
      ],
      [
        " e",
        "ner"
      ],
      [
        " od",
        "re"
      ],
      [
        " mje",
        "sta"
      ],
      [
        " pot",
        "vr"
      ],
      [
        " ko",
        "risti"
      ],
      [
        " pove",
        "ća"
      ],
      [
        "p",
        "ru"
      ],
      [
        " na",
        "vija"
      ],
      [
        " a",
        "l"
      ],
      [
        " in",
        "ter"
      ],
      [
        "di",
        "li"
      ],
      [
        "S",
        "ve"
      ],
      [
        "2",
        "6"
      ],
      [
        " V",
        "u"
      ],
      [
        " svi",
        "h"
      ],
      [
        "mi",
        "r"
      ],
      [
        " pra",
        "vo"
      ],
      [
        "ca",
        "ma"
      ],
      [
        "te",
        "ta"
      ],
      [
        "lje",
        "m"
      ],
      [
        " ima",
        "ti"
      ],
      [
        " ne",
        "o"
      ],
      [
        " po",
        "te"
      ],
      [
        "je",
        "di"
      ],
      [
        " sa",
        "sta"
      ],
      [
        " sva",
        "ko"
      ],
      [
        "I",
        "D"
      ],
      [
        " u",
        "nu"
      ],
      [
        "mo",
        "gu"
      ],
      [
        " H",
        "a"
      ],
      [
        " kra",
        "ju"
      ],
      [
        " nje",
        "ga"
      ],
      [
        " Va",
        "raž"
      ],
      [
        "S",
        "u"
      ],
      [
        "š",
        "la"
      ],
      [
        "m",
        "r"
      ],
      [
        " H",
        "DZ"
      ],
      [
        " auto",
        "mobi"
      ],
      [
        " E",
        "U"
      ],
      [
        " ra",
        "d"
      ],
      [
        " k",
        "ru"
      ],
      [
        " go",
        "tovo"
      ],
      [
        "ro",
        "d"
      ],
      [
        "o",
        "vje"
      ],
      [
        " foto",
        "gra"
      ],
      [
        " in",
        "forma"
      ],
      [
        "Na",
        "j"
      ],
      [
        " o",
        "stva"
      ],
      [
        " lju",
        "ba"
      ],
      [
        " po",
        "da"
      ],
      [
        " ",
        "Č"
      ],
      [
        " te",
        "re"
      ],
      [
        "ra",
        "ju"
      ],
      [
        " I",
        "va"
      ],
      [
        " b",
        "ri"
      ],
      [
        " te",
        "ško"
      ],
      [
        "..",
        "."
      ],
      [
        "č",
        "na"
      ],
      [
        " o",
        "da"
      ],
      [
        " vo",
        "de"
      ],
      [
        " F",
        "ran"
      ],
      [
        " su",
        "dje"
      ],
      [
        " pot",
        "pu"
      ],
      [
        "f",
        "a"
      ],
      [
        "ča",
        "j"
      ],
      [
        "ča",
        "n"
      ],
      [
        " vi",
        "so"
      ],
      [
        "ci",
        "o"
      ],
      [
        "O",
        "vo"
      ],
      [
        "p",
        "nja"
      ],
      [
        "ro",
        "vi"
      ],
      [
        " bu",
        "de"
      ],
      [
        "je",
        "mo"
      ],
      [
        "pra",
        "vo"
      ],
      [
        "s",
        "nije"
      ],
      [
        "ra",
        "ne"
      ],
      [
        " k",
        "r"
      ],
      [
        "n",
        "skog"
      ],
      [
        " bi",
        "t"
      ],
      [
        " Zagre",
        "bu"
      ],
      [
        "-",
        "o"
      ],
      [
        " ka",
        "zao"
      ],
      [
        "z",
        "ni"
      ],
      [
        "do",
        "vi"
      ],
      [
        " K",
        "u"
      ],
      [
        " su",
        "da"
      ],
      [
        "lo",
        "gi"
      ],
      [
        "ko",
        "va"
      ],
      [
        " ovo",
        "m"
      ],
      [
        "je",
        "ma"
      ],
      [
        " pro",
        "da"
      ],
      [
        "O",
        "va"
      ],
      [
        " od",
        "u"
      ],
      [
        "r",
        "ka"
      ],
      [
        "ši",
        "ć"
      ],
      [
        " na",
        "ši"
      ],
      [
        " u",
        "či"
      ],
      [
        " ",
        "rje"
      ],
      [
        " mo",
        "gao"
      ],
      [
        " te",
        "h"
      ],
      [
        " p",
        "rati"
      ],
      [
        " O",
        "bje"
      ],
      [
        " is",
        "ku"
      ],
      [
        " Obje",
        "ct"
      ],
      [
        "T",
        "a"
      ],
      [
        " po",
        "lu"
      ],
      [
        "h",
        "vati"
      ],
      [
        " ku",
        "ltu"
      ],
      [
        " koje",
        "g"
      ],
      [
        " pose",
        "bno"
      ],
      [
        " Hrvat",
        "ska"
      ],
      [
        "H",
        "rvat"
      ],
      [
        "k",
        "ve"
      ],
      [
        " ne",
        "sre"
      ],
      [
        " su",
        "pru"
      ],
      [
        " na",
        "gra"
      ],
      [
        " te",
        "me"
      ],
      [
        " mom",
        "ča"
      ],
      [
        "no",
        "vi"
      ],
      [
        " D",
        "e"
      ],
      [
        " ko",
        "lo"
      ],
      [
        " a",
        "meri"
      ],
      [
        "p",
        "p"
      ],
      [
        " godi",
        "nu"
      ],
      [
        " organi",
        "za"
      ],
      [
        "p",
        "rije"
      ],
      [
        " ka",
        "zne"
      ],
      [
        "ka",
        "v"
      ],
      [
        "ri",
        "ji"
      ],
      [
        "pre",
        "d"
      ],
      [
        " obi",
        "telj"
      ],
      [
        "P",
        "a"
      ],
      [
        "i",
        "tem"
      ],
      [
        "bo",
        "r"
      ],
      [
        "c",
        "k"
      ],
      [
        "2",
        "1"
      ],
      [
        "š",
        "nja"
      ],
      [
        " go",
        "spo"
      ],
      [
        " pa",
        "rt"
      ],
      [
        "vi",
        "ca"
      ],
      [
        " pre",
        "mije"
      ],
      [
        " iz",
        "gu"
      ],
      [
        " k",
        "nji"
      ],
      [
        " glaz",
        "be"
      ],
      [
        "b",
        "lje"
      ],
      [
        " f",
        "e"
      ],
      [
        "ri",
        "ć"
      ],
      [
        " pod",
        "r"
      ],
      [
        " ovo",
        "g"
      ],
      [
        " od",
        "ma"
      ],
      [
        " stu",
        "de"
      ],
      [
        "s",
        "lim"
      ],
      [
        "ta",
        "ra"
      ],
      [
        " ne",
        "dje"
      ],
      [
        " vi",
        "de"
      ],
      [
        "I",
        "ako"
      ],
      [
        " ti",
        "m"
      ],
      [
        " d",
        "ra"
      ],
      [
        " pr",
        "vo"
      ],
      [
        " dje",
        "la"
      ],
      [
        " o",
        "ne"
      ],
      [
        " sre",
        "di"
      ],
      [
        " o",
        "bo"
      ],
      [
        " ni",
        "šta"
      ],
      [
        " Dina",
        "mo"
      ],
      [
        "E",
        "O"
      ],
      [
        "ti",
        "ti"
      ],
      [
        " na",
        "pisa"
      ],
      [
        "m",
        "pe"
      ],
      [
        "pan",
        "jo"
      ],
      [
        " po",
        "du"
      ],
      [
        "m",
        "p"
      ],
      [
        " ka",
        "rije"
      ],
      [
        " svo",
        "m"
      ],
      [
        " Mi",
        "lano"
      ],
      [
        " na",
        "pada"
      ],
      [
        " mo",
        "de"
      ],
      [
        "č",
        "ku"
      ],
      [
        "Š",
        "to"
      ],
      [
        " mje",
        "stu"
      ],
      [
        "li",
        "o"
      ],
      [
        "za",
        "k"
      ],
      [
        "go",
        "vi"
      ],
      [
        " no",
        "si"
      ],
      [
        "c",
        "je"
      ],
      [
        " ba",
        "š"
      ],
      [
        " A",
        "l"
      ],
      [
        "j",
        "ka"
      ],
      [
        " spo",
        "rt"
      ],
      [
        " ne",
        "ke"
      ],
      [
        "c",
        "he"
      ],
      [
        "v",
        "nim"
      ],
      [
        " o",
        "k"
      ],
      [
        "j",
        "ske"
      ],
      [
        "t",
        "y"
      ],
      [
        " di",
        "re"
      ],
      [
        "ta",
        "li"
      ],
      [
        " za",
        "do"
      ],
      [
        "ID",
        "EO"
      ],
      [
        " p",
        "ru"
      ],
      [
        " pos",
        "la"
      ],
      [
        " pita",
        "nje"
      ],
      [
        " mu",
        "ška"
      ],
      [
        " fina",
        "nci"
      ],
      [
        " se",
        "be"
      ],
      [
        "A",
        "li"
      ],
      [
        "Me",
        "đu"
      ],
      [
        "n",
        "zi"
      ],
      [
        " po",
        "sti"
      ],
      [
        " od",
        "ra"
      ],
      [
        " upo",
        "zo"
      ],
      [
        " vi",
        "di"
      ],
      [
        " A",
        "r"
      ],
      [
        "lo",
        "ga"
      ],
      [
        " S",
        "i"
      ],
      [
        " va",
        "ž"
      ],
      [
        "f",
        "o"
      ],
      [
        "l",
        "na"
      ],
      [
        " k",
        "lju"
      ],
      [
        " osje",
        "ća"
      ],
      [
        "te",
        "t"
      ],
      [
        " pri",
        "zna"
      ],
      [
        "či",
        "ma"
      ],
      [
        " A",
        "u"
      ],
      [
        " t",
        "ran"
      ],
      [
        " dese",
        "t"
      ],
      [
        " su",
        "bo"
      ],
      [
        "t",
        "kom"
      ],
      [
        " u",
        "li"
      ],
      [
        "t",
        "ki"
      ],
      [
        "so",
        "m"
      ],
      [
        "g",
        "lo"
      ],
      [
        "mi",
        "na"
      ],
      [
        "ži",
        "ti"
      ],
      [
        "go",
        "m"
      ],
      [
        " us",
        "po"
      ],
      [
        "čki",
        "m"
      ],
      [
        " še",
        "st"
      ],
      [
        "e",
        "le"
      ],
      [
        "roja",
        "tno"
      ],
      [
        " pje",
        "s"
      ],
      [
        " slo",
        "bo"
      ],
      [
        "panjo",
        "l"
      ],
      [
        "ni",
        "cu"
      ],
      [
        " če",
        "ka"
      ],
      [
        "D",
        "P"
      ],
      [
        "me",
        "nt"
      ],
      [
        " iz",
        "da"
      ],
      [
        " no",
        "ve"
      ],
      [
        " mi",
        "nuti"
      ],
      [
        " če",
        "sto"
      ],
      [
        "lja",
        "k"
      ],
      [
        "T",
        "O"
      ],
      [
        " iz",
        "gleda"
      ],
      [
        "ba",
        "r"
      ],
      [
        "ku",
        "je"
      ],
      [
        " stva",
        "ri"
      ],
      [
        "na",
        "ta"
      ],
      [
        " o",
        "po"
      ],
      [
        " ot",
        "vore"
      ],
      [
        " re",
        "a"
      ],
      [
        " o",
        "sno"
      ],
      [
        "li",
        "ć"
      ],
      [
        "d",
        "nja"
      ],
      [
        " na",
        "š"
      ],
      [
        " ro",
        "di"
      ],
      [
        " pri",
        "ča"
      ],
      [
        "T",
        "re"
      ],
      [
        " pomo",
        "ć"
      ],
      [
        " najbo",
        "lji"
      ],
      [
        " ra",
        "spo"
      ],
      [
        " P",
        "len"
      ],
      [
        " Š",
        "i"
      ],
      [
        "va",
        "lu"
      ],
      [
        " bi",
        "h"
      ],
      [
        "2",
        "3"
      ],
      [
        " o",
        "ti"
      ],
      [
        "lni",
        "k"
      ],
      [
        " svi",
        "m"
      ],
      [
        " pro",
        "met"
      ],
      [
        " ob",
        "zi"
      ],
      [
        " po",
        "nu"
      ],
      [
        " nje",
        "govo"
      ],
      [
        " kra",
        "ja"
      ],
      [
        "u",
        "p"
      ],
      [
        " I",
        "z"
      ],
      [
        "ći",
        "h"
      ],
      [
        "f",
        "ina"
      ],
      [
        "govo",
        "r"
      ],
      [
        " nji",
        "ma"
      ],
      [
        " N",
        "jema"
      ],
      [
        " s",
        "pe"
      ],
      [
        "š",
        "lja"
      ],
      [
        " novi",
        "na"
      ],
      [
        "di",
        "gra"
      ],
      [
        " do",
        "sta"
      ],
      [
        " ni",
        "sam"
      ],
      [
        "lim",
        "pi"
      ],
      [
        "b",
        "re"
      ],
      [
        "n",
        "de"
      ],
      [
        " na",
        "po"
      ],
      [
        " ima",
        "li"
      ],
      [
        " predsjedni",
        "ka"
      ],
      [
        " dobi",
        "o"
      ],
      [
        "vje",
        "tni"
      ],
      [
        "gre",
        "ba"
      ],
      [
        " Du",
        "bro"
      ],
      [
        " vla",
        "sni"
      ],
      [
        " svije",
        "tu"
      ],
      [
        " g",
        "ru"
      ],
      [
        " bo",
        "lje"
      ],
      [
        " vozi",
        "la"
      ],
      [
        "n",
        "joj"
      ],
      [
        " u",
        "tjeca"
      ],
      [
        " gra",
        "do"
      ],
      [
        "st",
        "ro"
      ],
      [
        " mi",
        "nistar"
      ],
      [
        "nji",
        "ma"
      ],
      [
        " minu",
        "ta"
      ],
      [
        " istra",
        "ži"
      ],
      [
        " po",
        "bije"
      ],
      [
        " živo",
        "ta"
      ],
      [
        " op",
        "tu"
      ],
      [
        "T",
        "e"
      ],
      [
        "to",
        "n"
      ],
      [
        "C",
        "la"
      ],
      [
        " u",
        "o"
      ],
      [
        " T",
        "u"
      ],
      [
        " st",
        "ru"
      ],
      [
        "Pre",
        "ma"
      ],
      [
        " utakmi",
        "ca"
      ],
      [
        "G",
        "o"
      ],
      [
        "l",
        "nih"
      ],
      [
        " upra",
        "vo"
      ],
      [
        " po",
        "ma"
      ],
      [
        "na",
        "me"
      ],
      [
        " doda",
        "o"
      ],
      [
        "ri",
        "li"
      ],
      [
        " f",
        "u"
      ],
      [
        "2",
        "8"
      ],
      [
        " na",
        "vo"
      ],
      [
        "te",
        "go"
      ],
      [
        "k",
        "va"
      ],
      [
        "nu",
        "li"
      ],
      [
        " uklju",
        "ču"
      ],
      [
        "re",
        "m"
      ],
      [
        "li",
        "na"
      ],
      [
        " dje",
        "ce"
      ],
      [
        "i",
        "ma"
      ],
      [
        "j",
        "ski"
      ],
      [
        "1",
        "00"
      ],
      [
        "vni",
        "ka"
      ],
      [
        " kra",
        "j"
      ],
      [
        "9",
        "0"
      ],
      [
        " dru",
        "ga"
      ],
      [
        " F",
        "i"
      ],
      [
        "s",
        "pe"
      ],
      [
        "ji",
        "ma"
      ],
      [
        "go",
        "va"
      ],
      [
        " sva",
        "ki"
      ],
      [
        "A",
        "D"
      ],
      [
        " mo",
        "žda"
      ],
      [
        " bo",
        "le"
      ],
      [
        "Cla",
        "ss"
      ],
      [
        " po",
        "na"
      ],
      [
        "ra",
        "nja"
      ],
      [
        " o",
        "pa"
      ],
      [
        "ve",
        "d"
      ],
      [
        " ra",
        "ču"
      ],
      [
        " D",
        "ra"
      ],
      [
        " b",
        "la"
      ],
      [
        " njego",
        "v"
      ],
      [
        "ka",
        "ko"
      ],
      [
        "pi",
        "o"
      ],
      [
        "bi",
        "li"
      ],
      [
        "či",
        "la"
      ],
      [
        " st",
        "d"
      ],
      [
        "vni",
        "k"
      ],
      [
        " njego",
        "va"
      ],
      [
        "n",
        "ca"
      ],
      [
        "ri",
        "ce"
      ],
      [
        "n",
        "ga"
      ],
      [
        "v",
        "ca"
      ],
      [
        "op",
        "će"
      ],
      [
        " tisu",
        "ća"
      ],
      [
        "po",
        "ru"
      ],
      [
        " tr",
        "ži"
      ],
      [
        " zaje",
        "dno"
      ],
      [
        "2",
        "2"
      ],
      [
        "s",
        "lo"
      ],
      [
        "t",
        "nih"
      ],
      [
        "ci",
        "ona"
      ],
      [
        "O",
        "si"
      ],
      [
        "U",
        "z"
      ],
      [
        "j",
        "na"
      ],
      [
        "r",
        "vi"
      ],
      [
        " i",
        "pak"
      ],
      [
        "ri",
        "na"
      ],
      [
        "sa",
        "n"
      ],
      [
        " I",
        "van"
      ],
      [
        " na",
        "lazi"
      ],
      [
        " prva",
        "ka"
      ],
      [
        " te",
        "le"
      ],
      [
        " č",
        "ovje"
      ],
      [
        "n",
        "ča"
      ],
      [
        "la",
        "z"
      ],
      [
        "š",
        "ku"
      ],
      [
        " predsta",
        "vlja"
      ],
      [
        "ra",
        "tu"
      ],
      [
        " po",
        "či"
      ],
      [
        "ra",
        "va"
      ],
      [
        " o",
        "mogu"
      ],
      [
        " u",
        "če"
      ],
      [
        "no",
        "vić"
      ],
      [
        "mo",
        "m"
      ],
      [
        "si",
        "ja"
      ],
      [
        " S",
        "o"
      ],
      [
        "dni",
        "ka"
      ],
      [
        " u",
        "ži"
      ],
      [
        " sta",
        "no"
      ],
      [
        "k",
        "tu"
      ],
      [
        " proble",
        "m"
      ],
      [
        " ne",
        "za"
      ],
      [
        " st",
        "ruč"
      ],
      [
        " vrije",
        "dno"
      ],
      [
        " ka",
        "snije"
      ],
      [
        " T",
        "ru"
      ],
      [
        "ži",
        "o"
      ],
      [
        "š",
        "lo"
      ],
      [
        " D",
        "i"
      ],
      [
        " odma",
        "h"
      ],
      [
        " s",
        "mi"
      ],
      [
        " hrvat",
        "ski"
      ],
      [
        "ze",
        "m"
      ],
      [
        "zi",
        "ma"
      ],
      [
        ";",
        "no"
      ],
      [
        " u",
        "kup"
      ],
      [
        " iz",
        "vo"
      ],
      [
        " ka",
        "za"
      ],
      [
        "Ka",
        "d"
      ],
      [
        " i",
        "du"
      ],
      [
        "v",
        "dje"
      ],
      [
        " do",
        "lazi"
      ],
      [
        " nogo",
        "met"
      ],
      [
        " s",
        "klo"
      ],
      [
        " ko",
        "le"
      ],
      [
        " s",
        "red"
      ],
      [
        " područ",
        "ju"
      ],
      [
        " po",
        "l"
      ],
      [
        " e",
        "lek"
      ],
      [
        " utakmi",
        "cu"
      ],
      [
        " pono",
        "vno"
      ],
      [
        "r",
        "ke"
      ],
      [
        "l",
        "l"
      ],
      [
        "ka",
        "ma"
      ],
      [
        " ne",
        "do"
      ],
      [
        "ve",
        "z"
      ],
      [
        " jed",
        "nu"
      ],
      [
        " k",
        "la"
      ],
      [
        " kon",
        "tro"
      ],
      [
        " o",
        "digra"
      ],
      [
        " pro",
        "ce"
      ],
      [
        " F",
        "a"
      ],
      [
        "L",
        "E"
      ],
      [
        "3",
        "6"
      ],
      [
        "to",
        "ri"
      ],
      [
        " proš",
        "le"
      ],
      [
        "ne",
        "na"
      ],
      [
        " mo",
        "gli"
      ],
      [
        "š",
        "će"
      ],
      [
        "ve",
        "o"
      ],
      [
        "lo",
        "ve"
      ],
      [
        " zna",
        "či"
      ],
      [
        "va",
        "ja"
      ],
      [
        "kto",
        "r"
      ],
      [
        "P",
        "O"
      ],
      [
        " za",
        "pa"
      ],
      [
        "zu",
        "je"
      ],
      [
        " i",
        "ako"
      ],
      [
        " kvali",
        "te"
      ],
      [
        " svo",
        "g"
      ],
      [
        "č",
        "nih"
      ],
      [
        " u",
        "sta"
      ],
      [
        "telji",
        "ma"
      ],
      [
        " su",
        "d"
      ],
      [
        " od",
        "je"
      ],
      [
        " može",
        "te"
      ],
      [
        "volj",
        "no"
      ],
      [
        "vje",
        "t"
      ],
      [
        " h",
        "i"
      ],
      [
        "đe",
        "na"
      ],
      [
        "la",
        "ze"
      ],
      [
        " oso",
        "be"
      ],
      [
        "r",
        "ma"
      ],
      [
        " in",
        "f"
      ],
      [
        " Zagre",
        "ba"
      ],
      [
        "N",
        "ije"
      ],
      [
        "m",
        "be"
      ],
      [
        " ima",
        "mo"
      ],
      [
        " pla",
        "ća"
      ],
      [
        " za",
        "greba"
      ],
      [
        "dnji",
        "h"
      ],
      [
        " o",
        "su"
      ],
      [
        " ni",
        "ti"
      ],
      [
        "ka",
        "za"
      ],
      [
        "s",
        "he"
      ],
      [
        " s",
        "ljede"
      ],
      [
        " ja",
        "vno"
      ],
      [
        " od",
        "li"
      ],
      [
        " ko",
        "mu"
      ],
      [
        " vo",
        "za"
      ],
      [
        " s",
        "ce"
      ],
      [
        " dje",
        "lo"
      ],
      [
        " jed",
        "nog"
      ],
      [
        " trenu",
        "tku"
      ],
      [
        "bo",
        "m"
      ],
      [
        "mpe",
        "ratu"
      ],
      [
        "Na",
        "ime"
      ],
      [
        "pli",
        "t"
      ],
      [
        " či",
        "ni"
      ],
      [
        " ki",
        "lo"
      ],
      [
        " upra",
        "vlja"
      ],
      [
        " z",
        "lo"
      ],
      [
        " ne",
        "u"
      ],
      [
        " A",
        "nd"
      ],
      [
        " Re",
        "publi"
      ],
      [
        "lo",
        "vi"
      ],
      [
        "pi",
        "ti"
      ],
      [
        ";",
        "ki"
      ],
      [
        "ra",
        "vno"
      ],
      [
        "li",
        "h"
      ],
      [
        " C",
        "a"
      ],
      [
        "N",
        "je"
      ],
      [
        "h",
        "r"
      ],
      [
        " naj",
        "više"
      ],
      [
        "đe",
        "nje"
      ],
      [
        " T",
        "a"
      ],
      [
        "je",
        "va"
      ],
      [
        " ",
        "Y"
      ],
      [
        "li",
        "ti"
      ],
      [
        " e",
        "ki"
      ],
      [
        " no",
        "vo"
      ],
      [
        " ",
        "ž"
      ],
      [
        "b",
        "r"
      ],
      [
        " za",
        "to"
      ],
      [
        "sti",
        "tu"
      ],
      [
        "re",
        "nje"
      ],
      [
        "ri",
        "la"
      ],
      [
        "di",
        "na"
      ],
      [
        " iz",
        "gra"
      ],
      [
        " po",
        "sao"
      ],
      [
        " tre",
        "ner"
      ],
      [
        " to",
        "liko"
      ],
      [
        " J",
        "e"
      ],
      [
        "k",
        "su"
      ],
      [
        " gra",
        "da"
      ],
      [
        "sti",
        "ma"
      ],
      [
        "Osi",
        "m"
      ],
      [
        " posto",
        "ji"
      ],
      [
        " ka",
        "r"
      ],
      [
        " pro",
        "fe"
      ],
      [
        " ener",
        "gi"
      ],
      [
        "de",
        "ri"
      ],
      [
        "ri",
        "s"
      ],
      [
        " pu",
        "bli"
      ],
      [
        "ni",
        "ke"
      ],
      [
        " obzi",
        "rom"
      ],
      [
        " za",
        "ko"
      ],
      [
        " koji",
        "m"
      ],
      [
        " mogu",
        "ć"
      ],
      [
        "vi",
        "zi"
      ],
      [
        " H",
        "o"
      ],
      [
        " Zagre",
        "b"
      ],
      [
        "te",
        "lje"
      ],
      [
        " f",
        "or"
      ],
      [
        " ra",
        "nije"
      ],
      [
        " pra",
        "va"
      ],
      [
        " zah",
        "tje"
      ],
      [
        " P",
        "ri"
      ],
      [
        "n",
        "ce"
      ],
      [
        "na",
        "c"
      ],
      [
        " T",
        "i"
      ],
      [
        " re",
        "ći"
      ],
      [
        " pomo",
        "ći"
      ],
      [
        "n",
        "ska"
      ],
      [
        " pone",
        "dje"
      ],
      [
        "2",
        "9"
      ],
      [
        "še",
        "nje"
      ],
      [
        " oz",
        "bi"
      ],
      [
        " klu",
        "ba"
      ],
      [
        " unu",
        "tar"
      ],
      [
        " ta",
        "mo"
      ],
      [
        "li",
        "ca"
      ],
      [
        " poli",
        "cija"
      ],
      [
        "bi",
        "ja"
      ],
      [
        " mjese",
        "ci"
      ],
      [
        " za",
        "što"
      ],
      [
        " go",
        "l"
      ],
      [
        " igra",
        "ča"
      ],
      [
        " iza",
        "zo"
      ],
      [
        " mnog",
        "i"
      ],
      [
        "she",
        "d"
      ],
      [
        " ma",
        "nda"
      ],
      [
        "telji",
        "ca"
      ],
      [
        " m",
        "no"
      ],
      [
        " iz",
        "nena"
      ],
      [
        "publi",
        "shed"
      ],
      [
        "J",
        "o"
      ],
      [
        "či",
        "ca"
      ],
      [
        " S",
        "la"
      ],
      [
        " pe",
        "tak"
      ],
      [
        " su",
        "m"
      ],
      [
        " i",
        "sko"
      ],
      [
        "ali",
        "as"
      ],
      [
        " svije",
        "ta"
      ],
      [
        "V",
        "o"
      ],
      [
        " ne",
        "da"
      ],
      [
        " pro",
        "du"
      ],
      [
        " rije",
        "č"
      ],
      [
        " jedno",
        "sta"
      ],
      [
        ".",
        "hr"
      ],
      [
        "l",
        "nim"
      ],
      [
        "z",
        "da"
      ],
      [
        "la",
        "r"
      ],
      [
        "d",
        "rža"
      ],
      [
        " u",
        "na"
      ],
      [
        " če",
        "ga"
      ],
      [
        "vi",
        "ća"
      ],
      [
        " za",
        "pravo"
      ],
      [
        " svo",
        "joj"
      ],
      [
        " oz",
        "lije"
      ],
      [
        "d",
        "nju"
      ],
      [
        "ti",
        "n"
      ],
      [
        "ve",
        "li"
      ],
      [
        "mo",
        "r"
      ],
      [
        "l",
        "nog"
      ],
      [
        " oso",
        "b"
      ],
      [
        " u",
        "tvr"
      ],
      [
        " obja",
        "vio"
      ],
      [
        "ci",
        "jom"
      ],
      [
        "đe",
        "no"
      ],
      [
        "ka",
        "d"
      ],
      [
        "će",
        "g"
      ],
      [
        " S",
        "ve"
      ],
      [
        " tra",
        "di"
      ],
      [
        " zah",
        "va"
      ],
      [
        " proble",
        "ma"
      ],
      [
        "sta",
        "va"
      ],
      [
        " za",
        "u"
      ],
      [
        "19",
        "9"
      ],
      [
        " s",
        "mr"
      ],
      [
        "na",
        "k"
      ],
      [
        " B",
        "ar"
      ],
      [
        " Hrvat",
        "sku"
      ],
      [
        " radi",
        "ti"
      ],
      [
        "V",
        "a"
      ],
      [
        " ne",
        "tko"
      ],
      [
        " de",
        "ta"
      ],
      [
        "tro",
        "ga"
      ],
      [
        " klu",
        "b"
      ],
      [
        " br",
        "zo"
      ],
      [
        " u",
        "pu"
      ],
      [
        " te",
        "mperatu"
      ],
      [
        "na",
        "d"
      ],
      [
        " V",
        "o"
      ],
      [
        " zdrav",
        "stve"
      ],
      [
        " o",
        "vi"
      ],
      [
        " H",
        "N"
      ],
      [
        " R",
        "i"
      ],
      [
        " fotogra",
        "fi"
      ],
      [
        "P",
        "red"
      ],
      [
        " ko",
        "la"
      ],
      [
        "lo",
        "st"
      ],
      [
        " s",
        "rije"
      ],
      [
        "ca",
        "t"
      ],
      [
        "mi",
        "ra"
      ],
      [
        " po",
        "re"
      ],
      [
        " ima",
        "la"
      ],
      [
        " ",
        "ću"
      ],
      [
        " pre",
        "da"
      ],
      [
        " bo",
        "lni"
      ],
      [
        "s",
        "pi"
      ],
      [
        "š",
        "ću"
      ],
      [
        " sve",
        "ga"
      ],
      [
        "v",
        "nu"
      ],
      [
        "rni",
        "k"
      ],
      [
        " vidje",
        "ti"
      ],
      [
        " o",
        "pre"
      ],
      [
        " ko",
        "menti"
      ],
      [
        " mre",
        "ža"
      ],
      [
        " ne",
        "po"
      ],
      [
        " može",
        "mo"
      ],
      [
        " zem",
        "lje"
      ],
      [
        " o",
        "to"
      ],
      [
        " š",
        "a"
      ],
      [
        " veli",
        "ka"
      ],
      [
        "v",
        "re"
      ],
      [
        " na",
        "vodi"
      ],
      [
        "O",
        "n"
      ],
      [
        " gospo",
        "dar"
      ],
      [
        " to",
        "g"
      ],
      [
        " pro",
        "mije"
      ],
      [
        "di",
        "ja"
      ],
      [
        " ne",
        "sta"
      ],
      [
        " mo",
        "gla"
      ],
      [
        " mi",
        "sli"
      ],
      [
        " se",
        "dam"
      ],
      [
        " č",
        "lano"
      ],
      [
        "s",
        "fe"
      ],
      [
        " subo",
        "tu"
      ],
      [
        "s",
        "ci"
      ],
      [
        "t",
        "nu"
      ],
      [
        " kori",
        "sni"
      ],
      [
        "nici",
        "ma"
      ],
      [
        "ti",
        "ć"
      ],
      [
        " ve",
        "za"
      ],
      [
        " pr",
        "vom"
      ],
      [
        " s",
        "ja"
      ],
      [
        " z",
        "gra"
      ],
      [
        " za",
        "stup"
      ],
      [
        " pra",
        "vi"
      ],
      [
        "z",
        "ma"
      ],
      [
        " e",
        "ks"
      ],
      [
        " inte",
        "re"
      ],
      [
        " vje",
        "rojatno"
      ],
      [
        "Ka",
        "da"
      ],
      [
        " o",
        "či"
      ],
      [
        " dje",
        "voj"
      ],
      [
        " pje",
        "va"
      ],
      [
        " najbo",
        "lje"
      ],
      [
        "gle",
        "d"
      ],
      [
        "tni",
        "ka"
      ],
      [
        " sluča",
        "ju"
      ],
      [
        " o",
        "vdje"
      ],
      [
        " o",
        "sam"
      ],
      [
        " iz",
        "no"
      ],
      [
        " raz",
        "vo"
      ],
      [
        " a",
        "r"
      ],
      [
        "dni",
        "k"
      ],
      [
        " de",
        "mo"
      ],
      [
        "6",
        "0"
      ],
      [
        " b",
        "rani"
      ],
      [
        " po",
        "sjeti"
      ],
      [
        "r",
        "tu"
      ],
      [
        " e",
        "mi"
      ],
      [
        " iz",
        "van"
      ],
      [
        " raz",
        "do"
      ],
      [
        " podu",
        "ze"
      ],
      [
        "vo",
        "je"
      ],
      [
        " ve",
        "liko"
      ],
      [
        " me",
        "ne"
      ],
      [
        "'",
        ".\n"
      ],
      [
        "n",
        "skih"
      ],
      [
        " vje",
        "ru"
      ],
      [
        "T",
        "u"
      ],
      [
        " po",
        "di"
      ],
      [
        "de",
        "n"
      ],
      [
        " S",
        "AD"
      ],
      [
        " st",
        "vara"
      ],
      [
        " fil",
        "m"
      ],
      [
        "ni",
        "n"
      ],
      [
        "T",
        "E"
      ],
      [
        "pi",
        "su"
      ],
      [
        " društve",
        "nim"
      ],
      [
        "te",
        "rija"
      ],
      [
        " li",
        "sto"
      ],
      [
        " fu",
        "nk"
      ],
      [
        "no",
        "ve"
      ],
      [
        " po",
        "la"
      ],
      [
        " ko",
        "menta"
      ],
      [
        " e",
        "ko"
      ],
      [
        " tra",
        "v"
      ],
      [
        " prili",
        "ku"
      ],
      [
        "r",
        "ba"
      ],
      [
        " s",
        "ko"
      ],
      [
        "bo",
        "j"
      ],
      [
        "kup",
        "lja"
      ],
      [
        " pri",
        "va"
      ],
      [
        " ra",
        "da"
      ],
      [
        " is",
        "po"
      ],
      [
        " potpu",
        "no"
      ],
      [
        " pri",
        "ro"
      ],
      [
        "nda",
        "r"
      ],
      [
        " ope",
        "t"
      ],
      [
        "fi",
        "ka"
      ],
      [
        "deri",
        "ng"
      ],
      [
        " Z",
        "o"
      ],
      [
        " od",
        "vjetni"
      ],
      [
        " Gra",
        "d"
      ],
      [
        "mi",
        "šlja"
      ],
      [
        " drugi",
        "h"
      ],
      [
        "ta",
        "ka"
      ],
      [
        " vla",
        "da"
      ],
      [
        "gro",
        "up"
      ],
      [
        " sudje",
        "lo"
      ],
      [
        "i",
        "sta"
      ],
      [
        " u",
        "dru"
      ],
      [
        " iz",
        "vje"
      ],
      [
        "vr",
        "še"
      ],
      [
        " oče",
        "ki"
      ],
      [
        " nedje",
        "lju"
      ],
      [
        "t",
        "h"
      ],
      [
        " P",
        "i"
      ],
      [
        " svo",
        "jih"
      ],
      [
        " C",
        "o"
      ],
      [
        " t",
        "ru"
      ],
      [
        " ge",
        "nera"
      ],
      [
        " ozbi",
        "lj"
      ],
      [
        " bo",
        "ga"
      ],
      [
        " drugo",
        "m"
      ],
      [
        " po",
        "gleda"
      ],
      [
        "ša",
        "va"
      ],
      [
        " bi",
        "v"
      ],
      [
        "ra",
        "nu"
      ],
      [
        " pu",
        "to"
      ],
      [
        " Mi",
        "nistar"
      ],
      [
        "ža",
        "va"
      ],
      [
        " spre",
        "m"
      ],
      [
        "Među",
        "tim"
      ],
      [
        " za",
        "ba"
      ],
      [
        "ge",
        "n"
      ],
      [
        " vr",
        "hu"
      ],
      [
        "di",
        "ć"
      ],
      [
        " bi",
        "le"
      ],
      [
        "to",
        "g"
      ],
      [
        "ži",
        "ć"
      ],
      [
        "B",
        "o"
      ],
      [
        " O",
        "p"
      ],
      [
        " tje",
        "dna"
      ],
      [
        " do",
        "ku"
      ],
      [
        " doma",
        "ći"
      ],
      [
        " po",
        "dije"
      ],
      [
        "ty",
        "pe"
      ],
      [
        " s",
        "mije"
      ],
      [
        " do",
        "sa"
      ],
      [
        " odno",
        "su"
      ],
      [
        " Varaž",
        "din"
      ],
      [
        "so",
        "n"
      ],
      [
        " sto",
        "ji"
      ],
      [
        "ti",
        "ca"
      ],
      [
        ";i",
        "vo"
      ],
      [
        "ste",
        "r"
      ],
      [
        " po",
        "vje"
      ],
      [
        " u",
        "to"
      ],
      [
        " na",
        "mje"
      ],
      [
        "stu",
        "pa"
      ],
      [
        " istak",
        "nuo"
      ],
      [
        " s",
        "nim"
      ],
      [
        " tu",
        "rni"
      ],
      [
        " par",
        "la"
      ],
      [
        " S",
        "rbi"
      ],
      [
        " S",
        "DP"
      ],
      [
        "pi",
        "ta"
      ],
      [
        "Po",
        "d"
      ],
      [
        "ma",
        "nje"
      ],
      [
        "S",
        "va"
      ],
      [
        " je",
        "zi"
      ],
      [
        " po",
        "vije"
      ],
      [
        "vo",
        "za"
      ],
      [
        "o",
        "sta"
      ],
      [
        "č",
        "nu"
      ],
      [
        " grado",
        "nače"
      ],
      [
        " po",
        "vra"
      ],
      [
        " hrvat",
        "ske"
      ],
      [
        " M",
        "u"
      ],
      [
        " T",
        "e"
      ],
      [
        " igra",
        "ti"
      ],
      [
        " ko",
        "na"
      ],
      [
        "bi",
        "ti"
      ],
      [
        " obja",
        "sni"
      ],
      [
        "Ka",
        "o"
      ],
      [
        ")",
        "\n"
      ],
      [
        " us",
        "lu"
      ],
      [
        " do",
        "voljno"
      ],
      [
        " pro",
        "sje"
      ],
      [
        " mi",
        "ni"
      ],
      [
        "or",
        "dering"
      ],
      [
        " nogo",
        "meta"
      ],
      [
        " ponedje",
        "ljak"
      ],
      [
        "li",
        "n"
      ],
      [
        "valu",
        "e"
      ],
      [
        "j",
        "no"
      ],
      [
        "da",
        "na"
      ],
      [
        " Ma",
        "ri"
      ],
      [
        " do",
        "nije"
      ],
      [
        " Ši",
        "be"
      ],
      [
        " ",
        "/"
      ],
      [
        " u",
        "go"
      ],
      [
        "k",
        "sa"
      ],
      [
        "n",
        "te"
      ],
      [
        " o",
        "gra"
      ],
      [
        " Ni",
        "ko"
      ],
      [
        " treba",
        "o"
      ],
      [
        " mi",
        "je"
      ],
      [
        "z",
        "or"
      ],
      [
        " pro",
        "je"
      ],
      [
        " godi",
        "ni"
      ],
      [
        " pi",
        "sa"
      ],
      [
        "A",
        "J"
      ],
      [
        "D",
        "e"
      ],
      [
        "vr",
        "ši"
      ],
      [
        " F",
        "e"
      ],
      [
        "r",
        "ži"
      ],
      [
        " č",
        "la"
      ],
      [
        " va",
        "troga"
      ],
      [
        "ti",
        "on"
      ],
      [
        "si",
        "ma"
      ],
      [
        "ča",
        "r"
      ],
      [
        "đe",
        "nja"
      ],
      [
        ";e",
        "r"
      ],
      [
        " Jo",
        "si"
      ],
      [
        " o",
        "vu"
      ],
      [
        " tu",
        "risti"
      ],
      [
        " že",
        "na"
      ],
      [
        " ",
        "ža"
      ],
      [
        "L",
        "ju"
      ],
      [
        " nastu",
        "pa"
      ],
      [
        " ka",
        "tego"
      ],
      [
        " zapo",
        "sle"
      ],
      [
        "ti",
        "ne"
      ],
      [
        " s",
        "kla"
      ],
      [
        "sla",
        "v"
      ],
      [
        "t",
        "nog"
      ],
      [
        " A",
        "meri"
      ],
      [
        " Iz",
        "ra"
      ],
      [
        " po",
        "tom"
      ],
      [
        " K",
        "i"
      ],
      [
        "š",
        "no"
      ],
      [
        "di",
        "te"
      ],
      [
        " obi",
        "lje"
      ],
      [
        " pro",
        "me"
      ],
      [
        "sta",
        "vlja"
      ],
      [
        " sa",
        "mi"
      ],
      [
        "de",
        "se"
      ],
      [
        " dje",
        "cu"
      ],
      [
        " š",
        "te"
      ],
      [
        " pos",
        "ve"
      ],
      [
        " iz",
        "nosi"
      ],
      [
        " h",
        "la"
      ],
      [
        "v",
        "lju"
      ],
      [
        " bi",
        "je"
      ],
      [
        " ra",
        "ta"
      ],
      [
        " P",
        "re"
      ],
      [
        "dni",
        "ci"
      ],
      [
        " is",
        "pri"
      ],
      [
        " izbo",
        "ra"
      ],
      [
        " Spli",
        "t"
      ],
      [
        " si",
        "je"
      ],
      [
        " pr",
        "ve"
      ],
      [
        "đe",
        "ni"
      ],
      [
        " lo",
        "p"
      ],
      [
        " srije",
        "du"
      ],
      [
        " bi",
        "ra"
      ],
      [
        " kri",
        "ti"
      ],
      [
        " ",
        "Đ"
      ],
      [
        " dije",
        "te"
      ],
      [
        "l",
        "nu"
      ],
      [
        " ku",
        "će"
      ],
      [
        "n",
        "skom"
      ],
      [
        "ja",
        "r"
      ],
      [
        "o",
        "to"
      ],
      [
        " za",
        "ra"
      ],
      [
        "mi",
        "sli"
      ],
      [
        " Dina",
        "ma"
      ],
      [
        " no",
        "va"
      ],
      [
        "\"",
        "\n"
      ],
      [
        " d",
        "ne"
      ],
      [
        "go",
        "r"
      ],
      [
        "so",
        "b"
      ],
      [
        " tu",
        "ri"
      ],
      [
        " ni",
        "smo"
      ],
      [
        " osi",
        "m"
      ],
      [
        ";i",
        "o"
      ],
      [
        " pret",
        "ho"
      ],
      [
        " mno",
        "go"
      ],
      [
        "ka",
        "ta"
      ],
      [
        " ja",
        "sno"
      ],
      [
        " pla",
        "nira"
      ],
      [
        " akti",
        "vnosti"
      ],
      [
        "3",
        "2"
      ],
      [
        " pote",
        "ncija"
      ],
      [
        "d",
        "nom"
      ],
      [
        "nje",
        "g"
      ],
      [
        " bi",
        "vši"
      ],
      [
        " pu",
        "tem"
      ],
      [
        " pove",
        "za"
      ],
      [
        "d",
        "nu"
      ],
      [
        "t",
        "t"
      ],
      [
        "da",
        "k"
      ],
      [
        "glasi",
        "o"
      ],
      [
        " budu",
        "ć"
      ],
      [
        "n",
        "jom"
      ],
      [
        " pre",
        "ki"
      ],
      [
        " D",
        "al"
      ],
      [
        " bo",
        "dova"
      ],
      [
        "š",
        "lje"
      ],
      [
        "ra",
        "no"
      ],
      [
        " po",
        "jedi"
      ],
      [
        " P",
        "ro"
      ],
      [
        " sa",
        "ta"
      ],
      [
        " zna",
        "m"
      ],
      [
        " ve",
        "če"
      ],
      [
        "l",
        "nosti"
      ],
      [
        "r",
        "p"
      ],
      [
        "ka",
        "r"
      ],
      [
        "ži",
        "li"
      ],
      [
        "vlje",
        "n"
      ],
      [
        " upo",
        "zna"
      ],
      [
        "tu",
        "al"
      ],
      [
        " ma",
        "j"
      ],
      [
        "Hrvat",
        "ska"
      ],
      [
        "bi",
        "la"
      ],
      [
        "P",
        "u"
      ],
      [
        " e",
        "mo"
      ],
      [
        " pro",
        "te"
      ],
      [
        "3",
        "5"
      ],
      [
        "Z",
        "bog"
      ],
      [
        "č",
        "nim"
      ],
      [
        "re",
        "a"
      ],
      [
        " b",
        "an"
      ],
      [
        "govo",
        "ra"
      ],
      [
        "nica",
        "ma"
      ],
      [
        " dije",
        "lu"
      ],
      [
        " nika",
        "d"
      ],
      [
        " pre",
        "pozna"
      ],
      [
        "B",
        "a"
      ],
      [
        " stra",
        "nke"
      ],
      [
        " posto",
        "je"
      ],
      [
        "na",
        "s"
      ],
      [
        " po",
        "sje"
      ],
      [
        "P",
        "rije"
      ],
      [
        "bi",
        "na"
      ],
      [
        " ob",
        "u"
      ],
      [
        "vanje",
        "m"
      ],
      [
        "R",
        "ije"
      ],
      [
        "či",
        "ta"
      ],
      [
        " će",
        "te"
      ],
      [
        "N",
        "A"
      ],
      [
        "Z",
        "na"
      ],
      [
        "ti",
        "c"
      ],
      [
        " na",
        "ma"
      ],
      [
        " fe",
        "sti"
      ],
      [
        " koji",
        "h"
      ],
      [
        " rezulta",
        "t"
      ],
      [
        " me",
        "tara"
      ],
      [
        " do",
        "šao"
      ],
      [
        " iz",
        "bje"
      ],
      [
        " s",
        "lije"
      ],
      [
        "ve",
        "za"
      ],
      [
        " is",
        "pu"
      ],
      [
        " veli",
        "ke"
      ],
      [
        "k",
        "na"
      ],
      [
        "n",
        "tra"
      ],
      [
        "o",
        "gra"
      ],
      [
        "t",
        "nom"
      ],
      [
        " po",
        "vijesti"
      ],
      [
        " raz",
        "u"
      ],
      [
        " sr",
        "p"
      ],
      [
        " po",
        "tra"
      ],
      [
        " is",
        "pred"
      ],
      [
        " pose",
        "b"
      ],
      [
        "li",
        "ja"
      ],
      [
        " do",
        "ži"
      ],
      [
        " zna",
        "čaj"
      ],
      [
        "va",
        "ma"
      ],
      [
        " zem",
        "lji"
      ],
      [
        "ti",
        "na"
      ],
      [
        "S",
        "vi"
      ],
      [
        "re",
        "na"
      ],
      [
        " dobi",
        "ti"
      ],
      [
        "p",
        "le"
      ],
      [
        " do",
        "ći"
      ],
      [
        " pot",
        "ro"
      ],
      [
        "št",
        "va"
      ],
      [
        " utakmi",
        "ci"
      ],
      [
        " na",
        "zi"
      ],
      [
        " ka",
        "mpa"
      ],
      [
        "še",
        "nja"
      ],
      [
        "k",
        "vi"
      ],
      [
        "4",
        "5"
      ],
      [
        "di",
        "ma"
      ],
      [
        " za",
        "mje"
      ],
      [
        " K",
        "ri"
      ],
      [
        " mogu",
        "će"
      ],
      [
        "zi",
        "ja"
      ],
      [
        " Hajdu",
        "k"
      ],
      [
        "vreme",
        "no"
      ],
      [
        "P",
        "e"
      ],
      [
        " pripre",
        "ma"
      ],
      [
        " uto",
        "rak"
      ],
      [
        " Gra",
        "da"
      ],
      [
        " Fran",
        "cu"
      ],
      [
        " de",
        "ve"
      ],
      [
        " razi",
        "ni"
      ],
      [
        " teh",
        "no"
      ],
      [
        "vo",
        "ra"
      ],
      [
        "za",
        "m"
      ],
      [
        "sa",
        "k"
      ],
      [
        "je",
        "dno"
      ],
      [
        "ki",
        "ć"
      ],
      [
        " s",
        "plit"
      ],
      [
        " na",
        "do"
      ],
      [
        " spo",
        "me"
      ],
      [
        " H",
        "rva"
      ],
      [
        "nci",
        "ji"
      ],
      [
        " sje",
        "ve"
      ],
      [
        " Republi",
        "ke"
      ],
      [
        "i",
        "s"
      ],
      [
        "ti",
        "vno"
      ],
      [
        "de",
        "r"
      ],
      [
        "le",
        "s"
      ],
      [
        " svi",
        "ma"
      ],
      [
        "v",
        "ci"
      ],
      [
        " a",
        "t"
      ],
      [
        "pi",
        "s"
      ],
      [
        " mi",
        "rovi"
      ],
      [
        "ni",
        "ć"
      ],
      [
        " svi",
        "b"
      ],
      [
        " Plen",
        "ković"
      ],
      [
        " o",
        "ru"
      ],
      [
        "vi",
        "te"
      ],
      [
        " z",
        "o"
      ],
      [
        " h",
        "a"
      ],
      [
        " drugi",
        "m"
      ],
      [
        " mjese",
        "ca"
      ],
      [
        " Iva",
        "na"
      ],
      [
        " in",
        "stitu"
      ],
      [
        " ku",
        "p"
      ],
      [
        "lo",
        "ba"
      ],
      [
        " cije",
        "ne"
      ],
      [
        " ško",
        "le"
      ],
      [
        " Milano",
        "vić"
      ],
      [
        " z",
        "la"
      ],
      [
        " u",
        "hi"
      ],
      [
        " pos",
        "lije"
      ],
      [
        "rno",
        "j"
      ],
      [
        "tno",
        "j"
      ],
      [
        " Spli",
        "tu"
      ],
      [
        "lji",
        "va"
      ],
      [
        "ho",
        "w"
      ],
      [
        " osvoji",
        "o"
      ],
      [
        " i",
        "g"
      ],
      [
        " ti",
        "me"
      ],
      [
        " H",
        "e"
      ],
      [
        " in",
        "vesti"
      ],
      [
        " obra",
        "zo"
      ],
      [
        "g",
        "h"
      ],
      [
        "ko",
        "r"
      ],
      [
        " oso",
        "bi"
      ],
      [
        " momča",
        "d"
      ],
      [
        "re",
        "nja"
      ],
      [
        " za",
        "nim"
      ],
      [
        "kre",
        "tni"
      ],
      [
        " do",
        "nosi"
      ],
      [
        " K",
        "ra"
      ],
      [
        " š",
        "u"
      ],
      [
        " gla",
        "so"
      ],
      [
        " Š",
        "panjol"
      ],
      [
        "g",
        "nu"
      ],
      [
        " či",
        "ta"
      ],
      [
        " pa",
        "k"
      ],
      [
        " gla",
        "sa"
      ],
      [
        " ob",
        "li"
      ],
      [
        "rno",
        "st"
      ],
      [
        " godina",
        "ma"
      ],
      [
        " župa",
        "nije"
      ],
      [
        "đe",
        "ne"
      ],
      [
        " ot",
        "vori"
      ],
      [
        " a",
        "nali"
      ],
      [
        "ža",
        "n"
      ],
      [
        ";e",
        "te"
      ],
      [
        " isti",
        "če"
      ],
      [
        "l",
        "nom"
      ],
      [
        " ri",
        "zi"
      ],
      [
        "l",
        "le"
      ],
      [
        "limpi",
        "j"
      ],
      [
        "lo",
        "v"
      ],
      [
        "že",
        "n"
      ],
      [
        " poz",
        "or"
      ],
      [
        " š",
        "o"
      ],
      [
        " gra",
        "du"
      ],
      [
        " mreža",
        "ma"
      ],
      [
        " iz",
        "lo"
      ],
      [
        " pro",
        "si"
      ],
      [
        " uključu",
        "jući"
      ],
      [
        " su",
        "ko"
      ],
      [
        " p",
        "si"
      ],
      [
        "ši",
        "ti"
      ],
      [
        " cije",
        "na"
      ],
      [
        "lno",
        "j"
      ],
      [
        " nedo",
        "sta"
      ],
      [
        " V",
        "IDEO"
      ],
      [
        " na",
        "cional"
      ],
      [
        " izbo",
        "r"
      ],
      [
        "3",
        "4"
      ],
      [
        " do",
        "bar"
      ],
      [
        " ra",
        "de"
      ],
      [
        "tno",
        "sti"
      ],
      [
        " dola",
        "ra"
      ],
      [
        " lju",
        "de"
      ],
      [
        " pobje",
        "du"
      ],
      [
        " tvr",
        "tke"
      ],
      [
        "Tako",
        "đer"
      ],
      [
        "to",
        "ra"
      ],
      [
        " z",
        "vije"
      ],
      [
        " ni",
        "z"
      ],
      [
        " ti",
        "h"
      ],
      [
        "li",
        "ne"
      ],
      [
        "la",
        "k"
      ],
      [
        " mo",
        "ći"
      ],
      [
        " Hajdu",
        "ka"
      ],
      [
        "mi",
        "o"
      ],
      [
        " tra",
        "ja"
      ],
      [
        " mora",
        "ju"
      ],
      [
        "s",
        "vje"
      ],
      [
        " mo",
        "glo"
      ],
      [
        " nje",
        "mu"
      ],
      [
        " gla",
        "vni"
      ],
      [
        " mili",
        "jar"
      ],
      [
        "7",
        "9"
      ],
      [
        ";",
        "ko"
      ],
      [
        " projek",
        "t"
      ],
      [
        " ok",
        "ru"
      ],
      [
        " pobje",
        "de"
      ],
      [
        " među",
        "na"
      ],
      [
        " sna",
        "ge"
      ],
      [
        " susta",
        "v"
      ],
      [
        "d",
        "nih"
      ],
      [
        " na",
        "ro"
      ],
      [
        "S",
        "i"
      ],
      [
        " njego",
        "ve"
      ],
      [
        " tvr",
        "di"
      ],
      [
        " neda",
        "vno"
      ],
      [
        "8",
        "8"
      ],
      [
        "če",
        "nje"
      ],
      [
        " li",
        "pnja"
      ],
      [
        "t",
        "nim"
      ],
      [
        "po",
        "m"
      ],
      [
        " hrvat",
        "skih"
      ],
      [
        " č",
        "lan"
      ],
      [
        "ž",
        "nje"
      ],
      [
        "ti",
        "h"
      ],
      [
        "ba",
        "n"
      ],
      [
        " napra",
        "viti"
      ],
      [
        "n",
        "gle"
      ],
      [
        " ja",
        "vnosti"
      ],
      [
        " u",
        "t"
      ],
      [
        "3",
        "1"
      ],
      [
        " ko",
        "li"
      ],
      [
        "št",
        "vo"
      ],
      [
        "lje",
        "na"
      ],
      [
        " In",
        "sta"
      ],
      [
        " sa",
        "vje"
      ],
      [
        "že",
        "nje"
      ],
      [
        "G",
        "ra"
      ],
      [
        " za",
        "tim"
      ],
      [
        " medi",
        "ci"
      ],
      [
        " nje",
        "ma"
      ],
      [
        " če",
        "mu"
      ],
      [
        "D",
        "ru"
      ],
      [
        "to",
        "č"
      ],
      [
        " poru",
        "čio"
      ],
      [
        "F",
        "F"
      ],
      [
        " no",
        "vih"
      ],
      [
        " ovo",
        "j"
      ],
      [
        "ri",
        "ju"
      ],
      [
        " pr",
        "vog"
      ],
      [
        "V",
        "je"
      ],
      [
        " se",
        "bi"
      ],
      [
        " dobi",
        "li"
      ],
      [
        " iza",
        "z"
      ],
      [
        "vlje",
        "na"
      ],
      [
        " posta",
        "o"
      ],
      [
        "jo",
        "pri"
      ],
      [
        " obja",
        "vila"
      ],
      [
        " tr",
        "govi"
      ],
      [
        " And",
        "re"
      ],
      [
        "B",
        "e"
      ],
      [
        "re",
        "ni"
      ],
      [
        " po",
        "ža"
      ],
      [
        " pr",
        "vu"
      ],
      [
        " že",
        "le"
      ],
      [
        " ho",
        "te"
      ],
      [
        " Vla",
        "de"
      ],
      [
        " g",
        "r"
      ],
      [
        "nta",
        "r"
      ],
      [
        " progra",
        "m"
      ],
      [
        "R",
        "o"
      ],
      [
        " za",
        "slu"
      ],
      [
        "zu",
        "ju"
      ],
      [
        " hrvat",
        "skog"
      ],
      [
        "vla",
        "da"
      ],
      [
        "Do",
        "da"
      ],
      [
        " o",
        "vih"
      ],
      [
        " to",
        "j"
      ],
      [
        ";e",
        "mo"
      ],
      [
        " vide",
        "o"
      ],
      [
        "g",
        "dje"
      ],
      [
        "k",
        "cije"
      ],
      [
        "ve",
        "la"
      ],
      [
        "zi",
        "je"
      ],
      [
        " ob",
        "je"
      ],
      [
        "cij",
        "ski"
      ],
      [
        " dogodi",
        "lo"
      ],
      [
        "LE",
        "D"
      ],
      [
        " a",
        "d"
      ],
      [
        " ci",
        "lj"
      ],
      [
        "f",
        "ije"
      ],
      [
        "lo",
        "ški"
      ],
      [
        "v",
        "ku"
      ],
      [
        "ra",
        "m"
      ],
      [
        " na",
        "da"
      ],
      [
        "po",
        "rt"
      ],
      [
        "ni",
        "ju"
      ],
      [
        " bi",
        "ste"
      ],
      [
        " k",
        "va"
      ],
      [
        " di",
        "za"
      ],
      [
        " C",
        "e"
      ],
      [
        " ot",
        "vara"
      ],
      [
        "tiv",
        "ne"
      ],
      [
        "u",
        "čili"
      ],
      [
        " no",
        "vog"
      ],
      [
        "gla",
        "vnom"
      ],
      [
        "ži",
        "la"
      ],
      [
        " že",
        "lje"
      ],
      [
        " situa",
        "cija"
      ],
      [
        "R",
        "u"
      ],
      [
        " po",
        "stup"
      ],
      [
        " trenu",
        "tno"
      ],
      [
        "J",
        "E"
      ],
      [
        "ni",
        "la"
      ],
      [
        " na",
        "si"
      ],
      [
        " do",
        "šlo"
      ],
      [
        "mi",
        "ja"
      ],
      [
        "do",
        "ve"
      ],
      [
        " pod",
        "rža"
      ],
      [
        " nika",
        "da"
      ],
      [
        "Ova",
        "j"
      ],
      [
        " Mar",
        "ko"
      ],
      [
        "ti",
        "nu"
      ],
      [
        " treba",
        "lo"
      ],
      [
        " proš",
        "lo"
      ],
      [
        "lja",
        "n"
      ],
      [
        "ran",
        "cu"
      ],
      [
        " di",
        "ja"
      ],
      [
        " izja",
        "vio"
      ],
      [
        " Z",
        "e"
      ],
      [
        " svije",
        "t"
      ],
      [
        " iz",
        "vr"
      ],
      [
        "ča",
        "k"
      ],
      [
        "pu",
        "šta"
      ],
      [
        " svje",
        "do"
      ],
      [
        "č",
        "nom"
      ],
      [
        "si",
        "ji"
      ],
      [
        "kr",
        "ša"
      ],
      [
        "PO",
        "G"
      ],
      [
        " pro",
        "sla"
      ],
      [
        " ni",
        "tko"
      ],
      [
        "-godiš",
        "nja"
      ],
      [
        " fi",
        "zi"
      ],
      [
        " trav",
        "nja"
      ],
      [
        " s",
        "ku"
      ],
      [
        "ra",
        "mo"
      ],
      [
        " no",
        "vu"
      ],
      [
        " G",
        "r"
      ],
      [
        " va",
        "še"
      ],
      [
        " sije",
        "č"
      ],
      [
        "lo",
        "bo"
      ],
      [
        " susta",
        "va"
      ],
      [
        " sre",
        "dst"
      ],
      [
        "AJ",
        "TE"
      ],
      [
        "z",
        "vo"
      ],
      [
        "č",
        "nog"
      ],
      [
        " p",
        "lo"
      ],
      [
        " po",
        "gi"
      ],
      [
        " popu",
        "la"
      ],
      [
        " otkri",
        "la"
      ],
      [
        "li",
        "la"
      ],
      [
        "la",
        "ga"
      ],
      [
        " h",
        "e"
      ],
      [
        " O",
        "FF"
      ],
      [
        "d",
        "ro"
      ],
      [
        "to",
        "va"
      ],
      [
        " pos",
        "lu"
      ],
      [
        " oče",
        "kuje"
      ],
      [
        " ispo",
        "d"
      ],
      [
        " Insta",
        "gra"
      ],
      [
        "POG",
        "LED"
      ],
      [
        "R",
        "T"
      ],
      [
        " bi",
        "smo"
      ],
      [
        " mi",
        "slim"
      ],
      [
        " či",
        "nje"
      ],
      [
        " zapo",
        "če"
      ],
      [
        " su",
        "o"
      ],
      [
[...]
