#version: 0.2
ه ه
ا ن
  ج
  ا
  م
  ڪ
  ت
هه هه
. 

ه ي
  آ
  س
  و
ر ي
 ج ي
ه ن
  پ
  ک
ي ن
و ن
  ه
  ب
  ن
 آ هي
ا ر
ي و
ل ا
  ۾
  ٿ
ئ ي
ا ل
 ک ي
  ر
ي ا
ـ ـ
  ۽
هههه هههه
 ج و
  ان
و ر
ل ي
ن د
ج ي
  گ
 ت ه
  ش
ا ئ
  ع
ن هن
  د
  ڏ
  لا
 ت ي
  خ
  چ
  ح
 ا س
ا م
  ف
ه و
  ،
  .
 ڪ ري
ت ي
د ي
ا ڻ
ء ِ
ر و
 ک ان
 ه ڪ
 س ان
ا ري
  ل
  ٻ
 ب ه
 ٿ ي
 ڪ ر
 ن ه
ا ب
  ق
د ا
ي ر
  ط
ا س
ا ئي
ي ڪ
  ص
 آ هن
 ڪر ڻ
 ه و
ــ ــ
 ت و
 ا ل
ه ر
ن ي
د و
 ٿ و
ه ان
م ي
 ا ي
  هههههههه
ه ا
ڪ ي
 لا ءِ
  هن
  ڇ
ء َ
و ل
 پ ي
  يا
نهن جي
س ت
 م و
ر ا
 س گ
  ي
  ڊ
ٽ ي
ج و
 ڪ يو
س ي
ا ي
 ڪ ي
 اس ان
ڏ هن
ل و
 م ن
ا ت
ق ي
  هي
  (
  ز
ن گ
 تو هان
 ج ا
 ا هو
ا هي
ائ ين
 م ان
ق ت
ڪ و
ھ ن
ان ي
 ڪ ند
 ٿ ا
  ڳ
ڙ ي
ھ ي
  .

هه ه
ا د
 پ ر
 م ع
 پ و
ري ن
  "
 و ي
ئ ن
 م ي
 و ڌ
  ٽ
! 

ر ف
  ئي
ب ي
 ب ي
 ڪ و
 و ا
 ڪ م
 ر و
  ڀ
ب ر
 لا ء
 ر هي
ش ن
 م ون
 و يو
ا ص
 پ نهنجي
ت و
ل ه
ا ز
 م ا
 س و
م ت
ئ ين
 ط ور
ور ت
 ا و
ا ف
ک ي
 و ڃ
 اس ت
ٽ ر
گ ر
ڏ ي
ا ا
ه ڻ
  ض
ع م
اڻ ي
؟ 

  غ
گ ي
ا ڪ
 س ڀ
ه م
س م
 ڏ ين
س ٽ
م ون
م ل
، 

و ي
  ذ
 ان هن
ال ي
 خ و
 م ل
 و ين
د ر
ت ر
  ھ
ع ي
ار و
چ ي
 س ي
  -
 م اڻ
 و قت
 ه ون
ڙ و
 م ح
 س م
 وڌ يڪ
2 0
  ك
س و
ڪ ا
 پ ه
ن يا
 ف ي
  هههه
 س ال
 آ ھي
 ب ر
 گ هر
م ن
عم ال
 ڏ ي
ج هه
م ان
ص و
ن ا
خ ت
 ا ين
 ڪ ئي
 است عمال
 د ر
د ار
ا هو
 و ر
 هههههههه هههه
 ه ئي
 ش ي
 ت ائين
ــــ ــــ
ب و
 و اري
 س ر
 ڳ ال
ائ ڻ
 م ش
ڪ ن
 ت ع
 ا ڳ
ن و
پ ي
 ت ر
ا ه
 م س
اس ان
 م ر
 ڪري و
ف ي
  ري
 ه ر
ز ي
ج ن
م و
 جي ڪو
ان هن
 ڇ ا
  ٺ
 ٿ ين
 ج نهن
ف ت
 چ يو
 ڪ ن
 ڪ نهن
ند ي
م ا
پ ر
ڪ ر
 سگ هي
 ن ظ
ي ت
 م ق
اص ل
س ان
 گ ڏ
 وڃ ي
 ڏين هن
i n
 ج ن
م ام
ڪ ڏهن
ئ ر
ه ڪ
ند س
 ڪ جهه
ار ن
ا ح
ٺ ي
 ر ک
 ڊ ي
هههههههه هههه
: 

 جي ڪي
نهن جو
ئ ون
پ و
  لي
م ين
ٿ ي
ر ح
  ڌ
 ح اصل
 ل ڳ
جو د
ب ل
 ا هي
 ش ا
 ض ر
ڪ ل
ش ي
 ٻ ڌ
 س ن
  ٽي
ڻ ي
ث ر
 ن و
رو ع
ب ت
 ه ئ
 م ط
 گ ه
 ا ع
 ن اهي
 س ا
ند و
e r
 ش روع
 د و
 ا ز
ا يو
ڪ ار
 ا ه
) 

ل م
 ت مام
 پ اڻ
س ن
  ڄ
م ر
 ب ا
 ا ح
 ت ح
 ع لي
ج ا
 ا ها
 پو ءِ
لا م
 ٿ يو
اب ت
ف ر
ء ُ
ت ن
ــ ـ
ھ ان
 رهي و
 گ هڻ
ن ڊ
 پ رو
 ا ص
د ه
 ڪ ار
 ج ون
 ڇ ڏ
 ال له
ام ي
ائ ن
 گ ھ
ح ي
 م نهنجي
ام ل
 ف ر
ع و
 و ئي
ال و
ند گي
ل ف
ت م
د ڙ
 د نيا
 پ ن
و و
 ڪ ا
د ن
ص ي
 ج ڏهن
 د ور
 و ٽ
1 9
 ب س
ڪ ري
 ضر ورت
 ان ت
م ري
ٺ و
 م د
 وين دو
 چ ي
ك م
 ه ا
ا هر
 ٿي ڻ
 ڇ و
ب ا
0 0
 و ڏي
 ماڻ هو
 و يا
 هههههههه هههههههه
ل ب
  يو
 ع لا
ين ي
ع د
 س ب
ھ و
 پ ڻ
 پي دا
 سم ج
 پي ش
 س ندس
 م خت
ائ ون
ست ان
 ٻ ي
 ان هي
 مو جود
 ا چي
o n
20 1
a r
 ا خ
 پ ار
 ط رف
ف ا
ي م
 آ ر
 چ و
 م ت
 ڪند و
 م ار
 د ل
 چ ون
و لي
 ب ابت
ل ن
 ص رف
ٽ و
ع ني
 چ اهي
 و ڏ
 ت ب
 ا ُ
a n
 خ اص
ند ا
 ط ري
ر ن
 ز ندگي
ب ه
 ا م
" 

 ڏ س
ند ڙ
ت اب
 ل ک
ڊ ي
 ش امل
م بر
ج ر
 ن ا
 ع مل
پ ور
 پ ڙ
 ماڻ هن
ق و
 ڪي ئن
س ل
 ڪ ڏهن
س ين
 هههههههه ه
ا تي
ب ن
 ڪند ا
 هئ ا
  s
ري ون
 و ارو
 سڀ ني
ط ي
 آهي ان
 ل و
 ڪ ه
ٽ ن
 گه ٽ
خ ر
e s
 مخت لف
خ و
هي ن
 ب ڻ
 رهي ا
ش ت
ال له
 ط رح
۔ ۔
ڳ و
 غ ير
اس ت
 ڪم پ
 هون دي
 ق سم
 ڳال هه
 ت ن
 نظ ر
ار ا
 مد د
 هههه ههه
 و ان
س ر
 ڏي ڻ
 ڏ انهن
 ت ون
 ر ا
 گهر جي
  أ
 ن ي
 ڪند ي
اا اا
ض ي
د م
 خ ي
 س ائي
 م ڪ
 ڪي تر
ڊ يو
 هون دو
 خ بر
 آهي ون
و ا
a t
م د
اي د
 ڪند ڙ
ت رين
اري خ
 وا ق
ذ ا
ان د
  ظ
 هههههههه ههه
ت ون
 ٻ ئي
ڙ ا
 گ ذ
 ف و
 ان در
 ا ج
 ٿي ل
ه ون
ز ا
ٽ ا
 وا پ
 ڪ يا
ب ار
 ع ام
 ق و
ر س
 ن ق
 و چ
 ذ ري
 جي ڪا
ڪ س
e n
هههههههه هههههههه
ش ه
 ن ن
اف ي
ز ن
 ٻ ن
 جي ڪڏهن
 جي ئن
 سب ب
ش ش
ري ل
 ب ل
 مڪ مل
 ڪ تاب
1 0
 ح ال
ز ار
 ف ائ
 س يا
 ر س
ر ت
ا و
 ا چ
جي ڪڏهن
 ق ي
 پ ري
o r
 گ ر
 ت اريخ
 ٻ ين
 اي س
 ح قي
لا ح
ف ظ
ل ى
 ج ه
ل س
 خ تم
 د ا
 آ ھن
 ش هر
a l
 ب نيا
 ن الو
  /
ع ت
 ا ڪ
 سگ هو
ض ح
 ج م
 جو اب
 ٿين دو
 ھ ڪ
 تب دي
  !

  _
 آ مري
ڪي ٽ
ح ال
ڌ ي
 پ س
 گهڻ و
 ن ئين
 ع ورت
 ب ين
 ڇڏ يو
تو هان
 سال ن
ف و
ت ا
  ث
 س يڪ
ور و
 مل ڪ
ج ھ
  A
خ ل
 ت ق
 پ يو
 ا د
 يا د
 ڏ ئي
 ٿ ئي
ي ان
 ر هن
 ڪ ون
ب س
ش ا
 ب عد
رو ري
ر ب
 کي س
 و ٺ
 مس ئ
 پ نهنجو
 ب د
پو ءِ
  S
ان ون
ج ه
ع ا
 ا دا
 ه ل
گ ري
ج ب
ض و
 آ ن
 وڏ و
  t
 ب ند
 و ري
 ڏ نو
 ڇ ڏي
 اي م
 خ لا
 ي ق
 پ يا
 م لي
ان هي
 ن ٿ
 ف ون
 پ اڪ
 ه ٿ
 ا هم
 سگ هن
 ا ڄ
ير ا
 ا ڃ
 اس ڪ
 آ يو
ار ف
ل ين
لو م
  ڦ
 ڏ ا
 م ث
ح ت
 ص ورت
 هههه ه
 خ ر
 ۾ ،
 و ٺي
ڇ ا
 ٺ اهي
 ه جي
 ڀ ي
س ا
و ار
 هههههههه هه
پور ٽ
ڍ ي
 وين دي
 خ ط
 خي ال
 پ ئي
ير ان
ند ن
 ا پ
ڊ ر
 ش ر
يڪ س
 هي ٺ
 هههههههههههه ه
 وان گر
 ا ف
 آهي و
u r
 دو ست
 پ اس
 قي مت
  c
 د ي
 ذري عي
 م لا
 ا لا
 ج ان
 ڪو شش
i t
سو س
 س ام
و ري
 مع ي
ج ڏهن
حي ح
 ه م
ج ڻ
 علي ه
 ح ق
ه جي
 په رين
 ٻ ه
 ان سان
لي م
 ق انون
ز م
 ي ون
 آ ئي
ح د
r o
م ار
ھن جي
ا ها
ڪ م
ل ق
 ڄ اڻ
 اي پ
 آ ئون
in g
 به ترين
ي ون
 ر کي
ز و
اس ين
ك ن
ش ان
ت ه
د اري
 ي عني
 وي ب
l e
ه ور
 ت ص
 ان ا
  d
= "
  '
ب اد
 ڪ ارو
 ص حيح
ور ن
 ڪي ل
 ش و
 سو چ
 ڪمپ ني
ڊ يا
اب ل
  ؟
 سائي ٽ
 اس ٽ
 ڏ سي
ص ر
 و س
 ج اري
 غ ل
 خو ش
ت نهن
 ف ار
يا تي
 ڪ ل
 دور ان
 ب چ
س اني
 ڳ و
 خ دا
ڻ و
ا ءِ
 تر قي
 مع لوم
 م خ
 پ ڇ
  C
ن ه
 ل فظ
د ين
 م ال
 م ض
ي ي
 ش ايد
 ض روري
 ب ن
i c
پ ري
 ٻ ار
ق ا
 ا ثر
 پ اڻي
 انت ظ
 پو ء
 او ھان
 ٻ يو
 اه ڙي
لي ل
 ر ات
 ه اڻي
 پ ون
 ب و
ڪو مت
 سو ال
 او هان
 م نهن
 علا ئ
خ ص
  M
 ح ل
 به تر
 من ظ
 في ص
 س فر
 ا ک
 ٻ اهر
ڙ ن
 خ د
 ا ٿ
 مط لب
ق ل
 ر نگ
 ص اح
 مو اد
 ح صو
 اڃ ا
ان ا
 پ ا
 مح سوس
 ب ح
ان و
 ا ت
 ظ اهر
 سن ڌ
i s
آ آ
 ع مر
گ و
ت رو
 ه تي
 گ و
 ا مي
 س ين
صو ير
 م ٿ
 مط اب
ڄ ي
 ع ال
 هون دا
ك ل
غ ير
ضو ع
 ڏ ني
 ٿي ون
 ص ف
 م هي
 آ سان
 ج ل
e d
لا مي
 لڳ ي
ص د
ِ ي
 ص لاح
 ڪيتر ن
يا ري
 ن م
ل ان
 مار ڪيٽ
 ڏس ڻ
 پ نهن
دا د
 ڪ ام
ر ار
 تو ھان
س تي
 خ ري
ك ر
 طرف ان
 خلا ف
 و لا
< <
ڏ ھن
 هههه هه
هههههههه ه
م م
 و ارا
ي ل
 م نهنجو
 بي ان
مي شه
 لا ئن
 ٿين دي
  ,
 ع لى
 سگ هجي
 ف را
ا ج
هههههههه ههه
ڪ اري
 ح ڪومت
ش و
لا ئي
 ال س
 رک ڻ
ٽ رو
گر ام
 ت نهن
 په چ
 م ست
ه ائي
 ٽ ر
 معي ار
يا ت
 خد مت
ٽ س
 ف ق
 ٽ يڪ
 ان دا
از ي
ائ ل
 ت صوير
ح ا
ڳ ي
س ندس
اي ت
 گھ ر
ائ م
دي د
 ح و
ٽ ري
1 5
ا ء
 ج تي
 ڏي ک
 رو ز
 صاح ب
 پ ئ
 ا ئين
 م ٿي
 حقي قت
 ب ال
پ ن
 اخ تي
ٽ ل
 ج نگ
اڪ اڻ
 ع ر
ڌ و
 و الله
1 8
ب اني
 ج سم
ان س
 هههههههههههه هه
 ۾ .

20 0
ئ ڻ
 اص ل
 تي ار
 ت جر
ان ه
 هههههههههههه ههه
 گ را
 ڏ ک
 ال م
 آ خر
 آ ف
 ت ج
ه ار
 ش خص
 د ف
ت ل
 واپ س
 ق ب
 س ک
r e
 م م
لي س
 چ ار
 ڪ جھ
 ر ڳو
 ڏ يو
ائ و
ڪ رو
 تبدي ل
 د ست
ر ر
  P
 س ندن
 ش ع
 په ريون
 ت ان
 ق ابل
خ ري
ك ت
 و ال
 پس ند
 ا ول
 ر اند
 ز مين
 ڊي ٽا
 اج از
ي س
 پي ار
  p
 چ ين
اس ب
ع ن
  T
گ ل
ق ن
 نظ ام
  >
 خو د
 ا تي
ا قت
a m
ري ا
 من ت
ري ڪ
 ح لو
ذ ه
 مو ق
د س
 مش هور
 ا يران
ظ يم
 اجاز ت
و از
 م ج
a s
هههه ههه
ا ھ
a c
ل ت
 چو ڻ
ڻ يڪ
 ت ف
ب ان
 آمري ڪا
 پاڪ ستان
تو ڻيڪ
 اس ٽي
 ق در
 ب اري
ڪي شن
 ڪ لا
قي ق
 ه ميشه
 نٿ و
 پيدا وار
س ڀ
چ و
 س ڏ
 اس پ
فو ظ
د ان
ج نهن
 ڏ ٺو
 ھ و
 دا خل
  B
 ه ُ
 ع و
و ه
ي عني
 اس ين
 ص ن
هههههههه هه
u s
 وڃ ڻ
ar t
 آ ز
مي ت
ت ري
ك ي
ــــــــ ــــ
 و ارن
 ع ن
 ب را
يو ر
 ش ين
 اع لي
ضح ك
 ب لا
 ق ائم
 ا ر
 م ص
 س ٺو
o m
ب ح
  ؟

 ڪون ه
يا ب
 ڏ ن
 ن تي
 مح فوظ
e t
1 2
 ڪيتر ائي
ڙ هي
م اني
 ص ارف
) .

 ط اقت
اري و
اب ط
ه ري
 s t
س پ
ون ي
 مو ڪل
سٽ م
 تق ري
 خو ب
 س رو
م نهنجي
 ا ب
i on
 لا ئ
 چون ڊ
 سمج هي
3 0
 ڳ ول
 سگ ھ
 وين دا
و ٽ
 ه جڻ
 پرو گرام
 آ واز
 ك ل
م ح
م لي
 بنيا دي
 ک ڻي
م س
 ک ا
 نن ڍ
ص ل
 شا ع
 ب ار
 ن ف
ڻ ڻ
 مطاب ق
 واق عي
 معلوم ات
ڇ و
 ت نهنجي
اري ن
يڪ ل
 ٻن هي
 فرا هم
 ڇ اڪاڻ
 کان پوءِ
ن ت
ري و
  b
 شي ء
 مس ل
لي ٽ
 سگ ھي
 ڊ و
  I
 هن ن
 سيڪ ڙو
 ص ح
خ ي
 م ري
 چ ڪو
ري ان
هههههههههههه ه
را ت
د گي
 ڀ ر
 س خت
 خر اب
 هي و
آ ن
ٽ نگ
 مق صد
 ح د
س اس
گ ار
 پ ير
 س ط
 خري د
 ل کي
ا ڄ
ڳ ا
 ب خ
 آهي ن
 اس لامي
 ڊ گ
 و ار
 من صو
e x
 ا ش
ر م
 س ڃ
 ا لي
 ن الي
ا جي
ق ول
 ج ڳ
 ا ھو
i d
خو است
e l
 تع ليم
 ه ذا
 ٿ يا
ر ه
؛ 

 غل ط
ع ام
 ن مون
يا د
i l
ع ه
ور ا
خ خ
ت ح
 شا دي
لي ڪيشن
 گ رو
يا ئين
 مو ضوع
 ت ا
 آز اد
 و ز
ائ ش
 ڄ ڻ
 اسڪ ول
  ھن
 طري قي
 فيص لو
۔ 

جو ان
ڪ ان
20 2
 تح قيق
 آ في
 پن ھنجي
1 1
 ن ئون
 اندا ز
 اختي ار
 م ين
 يو ر
 ڳال ه
 ٻي هر
ت را
 م ُ
ء ٌ
 پار ان
اڪ ٽر
 تو کي
ز ر
 نق ص
 آ يا
 ٺ ا
 چ ه
 ٻڌ ايو
 هههههههههههههههه ه
ڏ و
o w
 ڪ ير
 بنيا د
 ور تو
 ڪ مي
رف ت
 ک ول
 ڪ ور
. "

 م هر
دار ن
ين دا
 ن ام
 يق ين
  m
م ه
 مح بت
ور ڊ
 ڪ پ
 ن يو
لا جي
 اچ ڻ
ع لي
 ا يڪس
 ٻ ولي
1 00
 مل ڪن
 ر د
 ح ي
 ر ست
 سط ح
ڊ ل
اس ي
5 0
چ ر
 ج دا
 من اسب
خ لي
 ن س
 رو ح
 نقص ان
هي ل
 ذ هن
 و سي
 ڪه ڙي
 ک ه
 جه ڙو
پي ل
ڪ ت
 اڪ ثر
ف ار
 ان ساني
 ٻ ارن
 م فت
 ر ج
 مون کي
 فق ط
 س چ
ف تي
 شي ون
 سيا سي
 پ ٽ
؟ "

ش ر
 ڪ افي
 آ خري
 چاهي و
 در خواست
ص ورت
 دل چ
ٻ ي
پ ه
 ق ر
؟ ؟
 چ ڱ
 اڪ ائون
1 4
ش ل
گ ه
 مر ڪ
فت ه
 مع ا
ع ال
ائي ل
نا لاجي
 ال ح
تي ب
 مق اب
  D
  G
 ضر ور
o o
a d
 ا ض
 س ڄي
 سا ڳ
ش م
ٽر ني
 ڊ ر
 امي د
 مث ال
ا ين
 ح س
ان دي
 مم ڪن
e c
 و ڊيو
هههههههههههه ههه
 ڪارو بار
ه اڻي
 ر ق
  ھي
 مي ڊيا
 اڳ و
 خ ان
 مي ل
 شا گر
 بڻ جي
 شروع ات
 س ائن
هههههههههههه هه
ا ط
زا دي
a y
ال ر
م ث
 ڪي ون
 عال مي
ري ف
 نو جوان
ين دو
ئ و
 ا ڻ
 وا حد
 تع لق
 تر تيب
فا ظ
 الس لام
ال ت
لا ت
ات و
 گهڻ ي
 فار م
 اع لان
ڪ ٽ
 ن مبر
 ڪ ٿي
 ف ل
  f
 ٽيڪ نالاجي
پ س
اي ل
ھ ر
 س ُ
 ف ن
 ڪ ان
صو ص
آ ئون
 وي ج
1 3
 س سٽم
 ان ج
 هن ڌ
 پن ج
 حال ت
  w
 ڏن ل
هههه ه
م يو
گ ا
هههه هه
لا س
 ڀ ا
 ک ن
اڻ و
 ع د
ح ول
ه تي
 ش ك
 وڃ ن
 ح ض
ري ب
ب د
 لو ڊ
اح ت
ست ائين
 ذ اتي
  H
ها ي
ر د
 ت عم
 اين دڙ
 مض مون
 ڪ جي
يا بي
 ت ڪ
 ص حت
 طري قو
 ڳو ٺ
1 6
 ڏ سو
 انهي ءَ
ظ م
ٻ ئي
 مسئ لو
h e
م ع
 م ز
 مط ال
 هو ءَ
 ڳ ن
 س نگ
n d
ٽرو ل
هو ري
ائين دو
 ٺا هڻ
 اص لي
 چ ا
 ک ين
 ڏيک اري
 ان گ
 لڳ و
o u
 ان گري
 ا ون
" >
 ڪر دار
  L
 پ ڪ
ذ ي
 و ڻ
 چ ئي
 ر ھ
 ح ڪم
اب ر
ه ڪن
 ٽ و
  N
 س ٺي
 ق دم
 آ ه
ري ءَ
 مش ين
 ڊ ائون
 حقي قي
دي م
 پ ورو
ل ز
 و ائ
 ش ڪ
o l
 د ير
 ر هڻ
 و ج
 ر فت
جي ئن
 اح ساس
 لا ڳا
ائي ڊ
 پون دو
ت ان
 م ذه
ا دي
ڪ ڻ
ــــ ـ
بو ط
 ايپ ليڪيشن
و ز
 st art
 ح صي
ڏي ل
 سرو س
هي ون
 ڏا ڍ
ٽ ين
 و ض
 تعم ير
 ح فاظ
1 7
 سام ان
ز مي
دي ق
 ڀي رو
ش ڪ
 ه اي
 ح ڪ
a g
 پي غ
 اڪائون ٽ
ھ ين
 نٿ ا
 d ur
ار ڻ
 ح م
 ما حول
 مت ا
 حو الي
پ نهنجي
 ڪي س
 مو جب
 صلاح يت
 ط ب
 ص در
o t
 پ ل
 پار ٽي
ج ان
م پ
 ا ڪي
 ان ٽرني
شن ل
 علا ج
 قو م
 خوب صورت
 وڌ ي
 وٺ ڻ
ز ائن
 مر ح
ه ل
يو رس
 لک ڻ
 اي ئر
ش يا
 ان ھن
ع ل
 تبدي لي
 مو ت
ا ُ
ح ان
 آ پري
 نف س
ائ يو
 پاس ي
 س ائين
 ح ص
 ص و
 س لس
 هي ون
ڙ ين
 ع ي
 ڏين دو
 س ون
 ڪه اڻي
يورس ٽي
 مي مبر
 ن ش
 اي ل
 گرا هڪن
  [
 ا ط
 پو ري
ٽ ڻ
> >
 ما ءُ
 مو ب
 ڌ ر
ار ت
 رو ش
 ج ذ
 قب ول
 ا بو
ٺي ان
 تي ز
 پڙ هي
ن س
t er
ا ڳ
ش ق
ل ون
اه ڙي
پ ٽ
 مق رر
ن ين
ٺ ا
وو وو
ل ڊ
2 5
 خ اند
 آمري ڪي
 ت ش
 پ ور
 عورت ن
ا ض
م اري
 ري است
 تع داد
 سم اجي
 مٿ ان
 بل ڪل
 ۾ 

 ج ديد
 سر گر
 مهي ا
 خر چ
ت ك
 اڳ تي
 ٽ ن
  R
ق بل
 لا زمي
 ع ملي
 اک ين
 " 

  F
 هههههههههههههههه هه
 تف صي
 ڪري ان
 ت س
 ص اف
 هههههههههههههههه ههه
ط ن
 مس اف
هن ن
ري م
ي ه
پ ا
 ڪن ٽرول
 ڊ اڪٽر
ل ع
 مهر باني
 ع لم
 ڌ يان
 انتظ ار
ف ه
 په چي
 اُ ن
 متا ثر
 مع ني
 ح ر
 پڙ هڻ
 يون يورسٽي
 سگ هون
 رک يو
  ِ
  ڍ
 مر د
و ڌ
 ا خت
 ڪو به
ڪ جهه
 عو ام
 گھ ٽ
 ج ها
 آ زادي
لي ت
ex t
ط ان
 مض بوط
ڪ نهن
 ر پورٽ
 نمون ي
 رق م
دو د
 ي ار
 سو اءِ
 ر ابط
 قو مي
ڪ ڏھن
 ذ ميو
 ن ڪ
 ع ظيم
 جل د
  E
 ت ہ
مين ٽ
 با قي
 پو سٽ
اف ت
 آفي س
 ب اب
ث يت
جي توڻيڪ
ام و
 ر اندي
 مل يو
 ع ند
ج ون
 د ه
 ٻ يا
 ڪرڻ و
ڪ شن
 ه لا
 ش رح
 ڪ ئ
  k
سٽ ري
ان ڊ
ق ات
ڀ ر
 ذ ڪر
ڪر دگي
 علا وه
 پنهن جن
 شي ءِ
 صن عت
و ال
 ڪري ون
اي ع
 خو شي
 ش ان
يو ٽر
 او زار
 t o
 بين ڪ
خ تي
 خاص يت
اف ٽ
en t
ف ن
  W
دا يت
 اي ف
 وا ڌ
o s
 ڪ ين
 ڪ اري
 ل ن
 ٽي م
ت ال
ز ين
ب ال
ز ل
ص ور
هههههههههههههههه ه
 ه لي
 ھڪ ڙو
 وا ضح
 حي ثيت
 حفاظ ت
] 

 ان سٽ
 مع ام
 گ فت
 خو اب
2 4
 ت از
 و ق
 گ ا
 آ باد
رو ي
 آر ام
ار ڊ
 ڪار ڪردگي
 س پ
 يور پ
 م ڙ
 و ڪرو
 گ ڏيل
 ٺ هيل
 ر ه
 موجود ه
 علائ قي
 ڪه ڙو
 ه زار
 ب اد
 اه ڙو
 اي ه
مي ل
 زندگي ءَ
 تص ديق
آ خر
 ني ٽ
 روش ني
 گ ي
er s
ائين دي
a b
ب ين
م ط
ِ ن
 ب ع
 د يو
َ ن
c h
ند ر
د ت
 فر ق
 پو ليس
 سن ڀ
 اس لام
ڪي ل
ب اري
 ٿين دا
 ه فتي
دا شت
 رس ائي
? 

 م اس
 ڪار ڊ
ــــــــ ــــــــ
 اح ت
 تجر بو
 و ف
ب اب
 ڪل ڪ
 رست و
ٽ يو
 ز ال
 اين دو
 س ج
 په ريان
i m
هن دي
 ب ت
ال ه
i g
ير ت
اااا اااا
ب ري
 س ت
 ن شان
ها يو
 رفت ار
 جم هوري
لا ب
ول ين
 لا ڳو
 جل دي
 پڇ يو
ڪ ه
 ت ڏهن
 آ ءٌ
  إ
ان گ
 ف لم
لين ڊ
ک ان
آ ر
 ج ھ
 جا ءِ
 پ ھ
 چ م
 ي ع
 ز ي
ڪار ڊ
وڌ يڪ
ائ ر
هو ءَ
سن ڌ
 مل ڪي
 ج ائ
 حض رت
 ر ح
ج د
 آر ٽ
 ڪون هي
 هههههههه هههههههههههه
 سي ٽ
 و جود
 ڪ ئين
 وز ير
 پ ُ
 غل طي
س ٽر
 م الي
 ل ك
ول و
س نگ
 ڊ الر
ائين دا
مث ال
  in
ب لي
 م ڃ
م ائي
چ ين
 خاند ان
 م ف
ب اس
 وي ئي
 سر ڪاري
 پيغ ام
ن ظ
غ ان
س ڪ
ڊ ا
  O
 م هم
ا وي
َ ر
 جن ھن
م اڻ
 ڳال هيون
 تر ج
an d
 گو گل
يا م
 آ گ
 ڏاڍ و
ح ه
ري ز
 ا يڪ
 ق تل
 بڻ ائي
 دف عو
ـ ي
 سگهي و
 شا ء
00 0
 ص بح
 ٿين دڙ
 پ ليٽ
 وي ون
 ان ق
جي ب
 ش ه
 مو سم
ش ك
ــــ ــ
 گ رفت
ن ٽ
 ن مي
 ما ڊل
 مسل مان
ئ ل
 رهن دو
 ح ت
اب و
 ڪي م
اد ر
ون ا
اڻ ن
اي ان
 نو ڪري
19 9
 ڪندڙ ن
قو امي
ج م
 ان ڊ
 خ ير
 سگ ھو
 ض ح
 لک يو
 ڪ ال
 جم ع
 ا ھ
و جود
 مي ز
 يق يني
م نهنجو
پ اڻ
 م يو
 ڪ ڍ
لي ف
 گ م
 ٻڌ ي
 بح ث
ش ايد
ك ون
 هي ن
 ڪمپ يوٽر
 سگ هان
 تص ور
 وض احت
u b
 پ ال
 ل ان
 ھڪ ڙي
لا ق
 اڳ يان
د ل
ُ و
 الا قوامي
 ا مت
ال ف
 ٻ و
ق ع
 پ را
ت ب
ق رار
 ف ط
4 0
ص ف
 و ن
 مح مد
 اسڪ رين
  ـ
 ش ڪل
 ل ه
 مع اه
 ڪام ياب
 اد ب
 سڃ اڻ
  =
 جو ڙ
 ڪر ا
اي ون
 ث ابت
 انتظ ام
  <<
i v
 کان سو
 است اد
 ان ي
 ا يو
 ا قت
ن ن
 اص ول
ک و
 آ ءِ
 ال ع
 ري ت
 ڪام يابي
 مست قبل
 بر ابر
 گذ ريل
غير ه
ڇ ي
 ز ور
؟ "
 صورت حال
 ما هر
 ڳ ولي
ين ا
 سن ڌي
ان ھن
 عر صي
 هو س
at ion
 جي توڻيڪ
ير ه
  l
ئ س
ڙي ل
n ow
 چ ڪا
 گر مي
ح قي
پ ار
2 2
گ را
ري ت
  *
ح ن
 س ل
 پ اب
 ان تي
 ع ل
 قانون ي
 ڊگ هي
 پو ي
 حال تن
 ي ه
ب هر
ر ڪ
پ اڪ
 ا َ
زي شن
 مت ع
 و ش
 و اس
 چ ئ
 چون ڊيو
 و نڊ
 هن د
 مقاب لي
 ن اڪ
چ ه
 لي ک
 س هو
اي ه
 اين دي
 ڪو ڊ
 خو اه
 مج مو
اا ا
هي ه
 ور ڪ
هههههههههههههههه هه
 گر م
 اي ترو
ك س
  $
u l
ت ع
 ا ظ
 ن سل
ج لي
 ن ڪري
 گذ اري
 سائن س
ك ك
 ه دايت
ائي س
 پي ءُ
کي ون
 انگري زي
 م ائ
 ز ين
جي ڪو
 ص دي
 ٿ ورو
ــــ ـــ
 مان ي
 کول ڻ
ر ان
 ب ورڊ
 اي مان
 م ات
 ش ڪار
 انٽرني ٽ
 > 

 گرو پ
 س افٽ
 ن ٿي
هر ست
 س ڄ
 ق ل
 و زن
ين دي
 ڳو لا
a p
يڪ ي
 ٽ رين
ٽ ائي
 ک و
 ب نا
ٿ ر
ام ا
ڊ و
 جڳ هه
i r
 ت رين
 موب ائل
ڙي ون
ما غ
 مخ صوص
د نيا
آ مري
ع ظم
ف ق
ون د
 ز ند
اب ه
e m
بهر حال
 د ٻ
 ڪند اسين
ز يو
 ا ڏ
 ع رب
 با وجود
 دوست ن
 ويج هو
  h
 ر ب
 منت قل
 ا ڌ
 وڌ ائڻ
۔۔ ۔

 لفظ ن
ون ه
ك ه
 لا ئين
بي ت
گ ز
 ز خ
 فائ دو
 علائ قن
 سگ ھن
 ڳال ھ
ط و
ع ات
 ه ال
 ال ن
 مل ڻ
 مل ين
ئ ا
ور س
ر ل
 چ ڪي
 مي دان
 چ وي
 ح سين
 م هين
نڊ ن
 گ ري
اب ي
ير اني
 مو ڪ
 چاهي ندا
 ن ڪر
 ط بي
 ال لي
 بي ماري
 سوچ يو
 م اري
د ري
 جهڙو ڪ
  <
ا ع
 ث ق
 لاڳا پيل
ان ائي
اني ه
س ون
 ا بت
 آ ڪ
 مارڪيٽ نگ
 سنڀ ال
 ف هرست
س پي
چ ار
 ت خلي
 سيا ست
 شاگر دن
 ز بان
 k now
 و ل
 چ ر
په رين
 خ ار
 ز مان
 پيا م
ئ ه
هههههههههههههههه ههه
 ٻڌ ائي
 مهين ن
ھن جو
 ڏا ڍي
 ه فت
انهي ءَ
 ا ِ
 ا ق
 ز ماني
 بخ ش
 ملا قات
 وي ئر
ئ تي
ڪ را
 ڪلا ڪ
رو ز
 کانسو اءِ
 ه اڻ
 ق ط
 رک و
حا ظ
 آ ب
 هئ ڻ
 شان دار
ڏ انهن
 تفصي ل
 در ست
 ف لس
 سمج ھ
ُ ن
 ج ر
ال ن
 ح ياتي
خ لا
س ب
 د عا
 گ ل
 هڪ ڙي
ڪ يو
es s
 لکي ل
 پ لي
ش تي
لو ي
 انت هائي
پ ل
। 

 آ ئين
t h
 وڃ و
 پري شان
 ڪارو باري
 پنهن جا
 ڌ ار
گ ذ
 د ع
  X
 گذ ري
 حس اب
 س فار
 ڪيا ئين
  ।

ڪ ٽر
 موق عو
u n
 د ماغ
آ ه
 ش وي
6 0
ا ھو
هن دو
 ڏين دا
ا ضي
ر ز
مو ضوع
 ٺاهي و
 ق د
 و غيره
 غ ور
ٺ ل
 هڪ ڙو
 بر قرار
  o
ٿ ا
 آ مد
 بڻ ائڻ
 دلچ سپي
 اه ميت
 س ميت
 سو شل
 منظ ر
ار تي
 بلا گ
  ههه
ب ير
 چ ند
سن س
 مال ڪ
 آ ڻڻ
شا هه
 ل حاظ
 سم نڊ
 چي زي
ث ي
ڙ ڻ
 سام هون
 ب در
 ر ڪارڊ
 جها ز
ب را
تم اد
 سمجهي و
 آ ڻ
ڙ پ
  U
ـ آ
 ڇو ڪري
ا ق
 ن ور
t ext
u m
 ، 

 قسم ن
 ڳاله ائڻ
 ڌر تي
سم ان
 چاهي ان
 مسئ لن
 ا ھي
 ر از
م ش
 مي ٽر
 اسپ تال
 ٽر انس
س ه
 ب از
يا ئي
 دلچ سپ
 واپ ار
 تع لي
 اع تماد
ا دا
 آ ساني
 تو انائي
 در د
al l
چ ا
گ ن
 پ ين
 ع ز
 د رو
 وڏ ا
 ا شت
ري ٽ
ــ ي
 س اڻ
 جي ستائين
 ش ام
 ش ايع
۔۔ ۔۔
 آپري شن
ڻ ن
 منهن جا
د د
 راند ين
خ اص
ي ب
ٿ ين
ان ت
 ا کيون
 ال ز
 ال ڳ
 ڪرا چي
ا لا
 مح دود
  g
عو دي
ل يو
ي ز
 ا مام
2 1
ون س
 ل ين
 ق رار
ئن ڪ
 مخت صر
 چڱ ي
م ق
 اي ڊ
 ڏين ھن
 شاع ر
حقي قت
ک ر
 ن نڊ
 تح فظ
 ن يا
 ڪند س
مو لي
 رس تي
 اعلي ٰ
مط لب
 حت ى
 م ير
ار ه
 ڏ و
 اف غان
 ا ك
 جي ان
 هي ءَ
 پون دي
 ت نهنجو
 ب ھ
م ير
 سو اء
 ڳول ڻ
 ا ث
 اض افي
2 3
 ه جن
 ن ص
 ر ت
 مو سي
يرا عظم
 ڀ لي
 اه ڙا
 وائ رس
ج ل
 ا ٽ
ڙي ءَ
 ا دارن
 ح يرت
 ق س
 ج ام
ين دڙ
 من ٽ
 رابط و
 ب غير
 فو ج
nd ro
س ال
 مق دار
 مق امي
اڻ ڻ
in d
 قر ض
ور ه
 ور تي
 اچ ن
س س
 ق بل
 صارف ين
 پ ک
ا ءُ
 انسٽ ال
  K
پ رو
ڊ ن
ڏ ا
با دي
 سڏ يو
هههههههه هههههههههههه
 گھر جي
دا ئي
 ال ف
 حڪ مت
چ ون
 و ص
 و فا
پو ء
 عد الت
2 6
u t
 م ه
 ب ندي
پ شن
 ب يو
اب طي
 ڊ ائ
ndro id
 ن ہ
 غ ريب
 ڌ ي
جي ٽل
يڪ شن
 س لام
ٽي ءَ
 هي چ
 تح ت
 تقري بن
و م
 ڪ ُ
هي هي
 ش هري
 د ين
 خ الي
 شك را
 مسل سل
 سلس لي
 مهي ني
 مز اح
 و لي
 تصوير ون
 اظ هار
 ڪ ڍي
 د عو
 ف عال
از ن
 ف ٽ
 مش ت
 حص ن
مي م
ٽو بر
 پ ائي
 ان ص
ام ن
 ٽي سٽ
 تن ظيم
 آف ري
ام ه
s t
ڪ ش
گ ڏ
 ب جلي
 جا چ
 ڊو ائيس
 نن ڍي
 اي ڇ
پ ڻ
هي ءَ
ندي ون
 امت حان
  n
  ؛
ح و
 پ الي
 د ري
 س ڌو
لا د
 ع يس
 ڪر ائي
پاڪ ستان
i f
 ا يراني
 م را
 اع ت
  re
 س ار
 اي جن
 ڏين دي
 سم اج
 ام ير
 شخص يت
گ هڻ
 مص نو
 جي ڪڏھن
 خ ال
 ساڳ يو
ح ب
ظ ر
ظ ي
 آ س
 ب يڪ
اي م
 وا ٽ
 گڏ جي
 نم ائ
 ذ ات
 في س
o c
ڪ ين
هي و
 ڪن ھن
 يو م
 مت ح
 طري قا
 شر ط
 مطاب قت
 لائ سنس
 بدر ان
ص رف
ف ڪ
ق ى
 ن از
 ق ديم
 سڀ ئي
 اين دا
 نظ ري
 منظ م
و ت
 سو چي
گي ري
ڊي ٽ
 شو ق
 جسم اني
 ا من
 جن م
 ان ف
 مذه بي
 اش ارو
  ^
ش من
ط ف
 ع مار
 ماڻ ھو
پٽ مبر
p t
 ا را
 ي ک
 ذميو اري
  #
a k
 س هڻ
ست ه
 دو ا
19 8
 دست ياب
ق ه
ست اني
2 7
ت ريون
 جن سي
 عال م
 ج نو
کي ه
 سگهن دا
 تج زيو
 اسٽي شن
ا ون
 مع مولي
اف و
 ل ل
ــــــــ ـ
 ع اد
 مڙ س
 م غ
 ھ ئي
 ك ي
 مش ڪل
 گرفت ار
 ي م
 من ج
 مساف ر
2 8
 ک ائڻ
 هو ا
 برا ي
پ ان
 ال و
 ع جيب
 ٺ يڪ
 مسئ لي
 ڪور ٽ
 ج ڏھن
 ڪ لو
 س ري
 اس ٽو
 ف ڪر
 گهر بل
 علي ها
ڻ ا
 ه ز
 د ڪان
 گهڻ ا
o v
ق ر
ٿ و
جا ج
 قدر تي
س ائين
 ڊ يو
 طري قن
 اڃ ان
ڊ نگ
 ب ئنڪ
لا ءِ
سي م
 پرو سي
19 7
 مرڪ ز
هن دڙ
 اسٽ ور
 خ امو
رو ف
ب عد
او هان
ک ا
 جه ڙي
 پ لا
ني ئر
 ڪي ترو
 ڏک ڻ
 س ور
 ب حال
 ڪر ائڻ
 اس يم
 ل باس
 سي ريز
ـــ ي
ان ن
ار ٽ
 اج لاس
 جائ زو
 ڪي ترا
ڪ ون
 م ظ
هي د
 و ات
عم ل
ائ ب
ج ڪ
د ائين
 ک ليل
 ملا ز
 دست اوي
 مشت مل
ج ين
 هي ا
گ اه
 و ح
 ک ار
 مو ٽي
 ڳ ا
تو ھان
مون کي
 سي ڙپ
  v
 م ب
 س زا
 شاگر د
 ڪمپ نين
 عن صر
 گڏ و
 ٻڌ ڻ
 ا رب
هي م
 اي تري
 دور و
 ڪتاب ن
آ مد
 ن گر
 پر اڻي
 نتي جي
 اڪي لو
 و يڪ
ائين دڙ
 مع ياري
 ڪم ري
 رو شن
 مار چ
  V
 ڀ يرا
 قو من
8 0
ب ول
 س ائ
 خو ف
 رک ندڙ
   
 م ئي
 ڪ الي
 ک ل
 ص د
 سا ڳي
 سين ٽر
 , ,
 باب ا
ع ر
ھ ڪ
 س از
 ب ص
 وي ڊيو
 ڳال هين
 في ه
ک ن
 د ان
 ڀ ري
 چ يڪ
 ڀي ٽ
 س ڌ
 گ يت
 تاريخ ي
 بو د
 اسيم بلي
خ بر
 م دا
 و َ
 چي ز
 منظ ور
 خواه ش
ع تي
 واق ع
 و و
 و ڪي
 ش كل
مم مم
  +
 ڊ زائن
 لي ه
 ام ڪان
 اض افو
 انق لاب
 چ يائين
 فو ت
 فو ري
س لام
ق د
ڏ ين
گ ير
 ڏي ئي
ھ يو
 ا مان
 وال دين
ج ز
 ڪ انه
 پو يان
 شاع ري
 لن ڪ
 ا رس
 د ائ
ac k
جي ڪي
 ايپ ل
 پئ سا
 آرٽ يڪل
پ يا
ڪ رين
هن گ
ي د
گ ھ
 ت ك
 حلو ه
i a
 آ ل
دي ر
 وي س
في د
 رهن دا
 عو امي
ب ئي
ت نهنجي
له م
 سمج هڻ
كي د
> 

 ک ڻڻ
ش ين
م ز
ٻ يو
 جي ئ
 نو ٽ
 آڪ ٽوبر
آ ءٌ
هن دا
 خ ور
 صف حا
 سگھ جي
 ب ونس
 ٽ ائي
 رهن دي
 م َ
 ڀ ريل
es t
 فو ٽو
 ادا ئي
 مث ل
؟ ؟

 آ سمان
 آ بادي
و س
ڊر ائيڊ
خ ط
ي ق
 تع ريف
با قي
 سڃاڻ پ
 ت جو
 انج نيئر
 ع ا
سم بر
 سفار ش
ا ول
 ع ه
 ھ ون
 با غ
ب ة
 ح بي
 سي پٽمبر
 موڪل يو
ط رح
ه ـ
چ ن
 ان عام
ائي ءَ
 ز ن
 سا ٿي
 ناڪ ام
p p
ر سي
و ڪي
 م يڪ
 ان ڪار
 هو ٽل
 مسئ لا
يور ٽي
 ع ذ
 مح نت
ت مام
ڙ ڪ
 خ اط
 تنهن ڪري
 رو ڊ
 س َ
ال م
 تي ل
 ف ري
 ٻڌ ل
 موق عي
 ليک ڪ
ک ڻ
لي ون
 ني ست
 فو جي
 رو اي
 A ndroid
 نم از
 معني ٰ
r y
اس ٽ
فا ق
 مجمو عي
فر نس
 خي لي
خخ خخ
i b
ل يا
يو م
 ح يران
 نو ان
 حم ايت
 ف ور
 وي هي
 چون دا
 واپ سي
2 9
ع رف
و الله
 رهي ون
کي س
 فائ لون
 گرا هڪ
ف ري
و ڙ
 ج ز
 م ئ
 بي شڪ
صو صي
 وسي ع
 آ ئ
 س ست
 ط لب
 اد اري
 هل يو
 t he
ن ج
 ل ڪ
 ڇ پ
 هئ س
 نا هن
 ا دي
 آ زم
 ع شق
 ٻ ُ
 ان ه
باد ل
 يور پي
ث ير
 چ ان
لي ه
 بي ت
 جن رل
 ڊي زائن
 مخ الف
 عز ت
 اي ئن
 فط رت
  هه
د ست
ٻ ن
ڪي تر
 ما في
 ر اح
 ڊ جيٽل
لو ڊ
 رو م
 فر انس
 ر ابطي
 د شمن
 چ نڊ
 ڪمي ون
ك ـ
ن يو
ڪ ام
 مو ٽر
نو ان
اه رين
 سرگر مي
م ول
 ا تر
 پ رين
ما يو
 ڏ انھن
 لڳ ا
 گھ ڻو
 قس مت
و ف
 آر ڊر
  ~
ت ق
ه اري
 م ھ
 س دائين
 ال حال
 ھ ر
 ٻڌ و
 سوچ ڻ
 پهچ ائڻ
ع ورت
ٽي ف
 سمج هان
 مذه ب
 هند ستان
ٽ ڪ
ٽ ون
 پ نا
 گ ول
 خ صوصي
رو م
 تح ريڪ
ز ندگي
ش ري
ع ة
 ڪ ابه
 ر سي
 ڏ ها
اد ري
 ٽ ا
 شي ئر
 اسپ ين
 آ ڻي
پي ڊيا
 هٿ ن
 ملڪي ت
يا ز
 در جي
 ڳال هائي
 اپ ڊيٽ
خ دا
 ر ض
 موسي قي
 ل سٽ
 سيا حت
 زخ مي
ا هم
ف ل
جو اب
 اڳ ي
 مر ه
 گه ري
 او چ
 سن ڏ
 وڏ ن
o d
ن تي
 ڪر ايو
 ز ير
 اد بي
يي يي
گا هه
 ه ار
 خ ات
زار ش
U M
 ش ده
سو ال
 شا هه
 شع ر
 اخ بار
 هوندي ون
 آگ سٽ
9 0
پ ين
 جي ترو
 ر ائ
 ع بد
گ ين
 پ ول
 ق يم
 بر انڊ
 م ور
 من ھنجي
 پرو في
 مقاب لو
i z
 پ ٿر
 ج رم
 وي ٺو
 رک ن
 ڪمي شن
 احت جاج
 ڪالي ج
 ڏک يو
 انج ام
 پرا ڊ
 انص اف
e w
 ه ع
  ۔۔۔

ــــــــ ــ
 ڳال هايو
 ادائي گي
 ا ئ
 ب لو
 ان ك
 ڏ نا
رو ح
 ه ست
 ب غ
 ح رف
a v
 پ کي
 من زل
 تع الي
 ڪلا س
 قر آن
  r
 ج ئين
ري شن
 جا ء
زي ز
 نو مبر
19 4
- 

گ هر
 اي ڊي
 اين ڊرائيڊ
 گا ڏي
 لي ش
: :
 س اري
 ک ر
 پي روي
ٽي ل
 ميمبر ن
 ف ض
ائي ٽ
 ضرورت ن
 نا لا
 فق ير
3 5
7 0
و قت
ُ ون
 پ ٺيان
 ر اه
 واري ون
فر د
 پئ جي
 سڄ و
 ج بل
 ت لا
 ٿو ري
ڪي ئن
ِ ين
 مع ن
 شر ڪت
c t
 ڏ ياري
 اس ر
ائن ات
 طري ق
ه اڻ
 جي ل
 ک ڻ
 ب ک
يا س
سن ڌي
 فائ ل
 تس ليم
ت ائي
 چ يني
يڪ ار
 فر ض
سڀ ني
 رج سٽر
 راندي گر
 ع قي
ڏي هي
تنهن ڪري
 سلس لو
 وف ات
l y
 ا گر
 ڪ ائون
 و ٺو
ڪم پ
ز ش
 ڪ انهي
ات ل
 آھي ان
 مش ك
 سائي ز
 نيو ز
 اه ل
 بچ ائڻ
 نش اني
 تجو يز
 ت م
 د ار
زار ت
 سگهن دو
 خط رن
 اٿ م
 س لا
ال ب
 مو ٽ
 شهر ن
 وز يراعظم
 چڱ و
ر نگ
ش د
 پ َ
 ن فر
ائ پ
19 6
 اي شيا
 اقت ص
 دع وي
خ ير
 لي گ
س ندن
ين ه
ھي ءَ
 معام لي
ه مي
 ک ائي
h at
 ک اتي
 ن صي
 گهر جن
 قيم تي
  J
ڙ يو
 ح اد
 ح اض
؟ !

 تع اون
 خدمت ن
ق سم
 پي ٽ
سٽ ڪ
 طاقت ور
 م زو
 ڊ پ
 ڪي تريون
 ٻي ون
 مت بادل
 را ءِ
 ساڳ ئي
 پالي سي
ب روري
ٻ ين
گ ھر
 م کيه
ري ر
لا ل
 رو ڪي
 سم جهه
 نا ق
س ام
ق در
 خري داري
م را
 ال ج
 ضح ك
 آ يل
 گ هم
 ش ما
 ع ط
 ال ك
ٽر ن
is t
 ڊر ائيو
 مصنو عات
  ير
a in
 ت با
 ع م
اڻ ين
 مي ان
 ويندي ون
 وس لم
* *
، "
آ يا
 م سي
 ك ان
وو و
ح اد
ع لا
ف ون
 ب م
نگ ي
 پو ائن
 عورت ون
 حق ن
 ڊائ ريڪ
ٺي ون
 ده شت
 جنو ري
د ة
ان سان
 اس م
 ص ور
 تب ص
آمري ڪا
UM X
5 00
 ه ٿي
 او ڀر
 منصو بي
h i
اڻ ا
عي ت
an t
 منصو بو
  i
ڙ هو
 هو ائي
 پار ڪ
 هيٺ ين
 م گر
 س ه
 ط يب
اد ه
 وج هي
وي ب
 سيڙپ ڪاري
N UMX
ا گر
ڌ اري
 ن ع
 وان ا
 خلا ص
آآ آآ
 مري ض
ز ور
ق لي
اڻ يو
 هُ ن
 ڀا ءُ
ڄ ڻ
 ا ڀ
 ق لب
 نا ول
ٽرو يو
 آمد ني
  رين
خ ن
ی ک
 با هه
 تن ھن
 تقري با
 راندي ون
س يا
 هي ءُ
هن د
 کي ڏ
 ق رب
 سو ي
 خدمت ون
 نتي جو
ec t
 ب رو
 ش د
 خ ل
 ڊ سمبر
تو کي
 يو رو
 هلا ئڻ
 ترج مو
o g
 ه ائو
 م ٽ
 ض مان
 بر طان
 تر بيت
 فر د
 ماڻهو ءَ
ندڙ ن
 ملا ئي
o p
ط انيه
ي ار
 ج هان
ــــــــ ـــ
 نو از
 اع ترا
 مث بت
 شع ور
ک ين
 ق ص
 هي س
 ڳ ڻ
 ڇڏ ڻ
 c om
 سک ڻ
م هر
ڊ اڪٽر
ڙ ها
 گ هو
 ما ضي
 جان ور
  a
 ا ٺ
اس تن
 په تو
 اٿ س
شو ف
 م بار
 س ِ
 ک وٽ
 ز ر
 ض ابط
 لان چ
 ڪي تري
ح ق
دي ت
پو ليس
 ڄ اڻي
 سب ق
س ك
م تي
 ن ين
 چاهي ون
ی ن
 بر داشت
 اص لا
ا ڃ
ـ ن
 ا ذا
 ت ھ
 گ ُ
 ش ف
 د ول
دي ءَ
 ڳن ڍي
ح ض
 و ڙ
يا ئون
 يون ين
 ونڊ وز
9 9
 ڪ َ
ڪر ن
e ar
k s
ط ه
 ا قول
 و زارت
ري ج
3 3
و ڏي
 ع ندي
 ڪان فرنس
 چي ست
 > >
I D
 ف خر
 ق ول
 رو س
 ڪار رو
 سيڪ يورٽي
 متع ارف
ا هه
 م جب
 من فرد
 الز ام
م ال
 ان د
 ش هيد
 ل نڊن
 من ع
 مر دن
 ڪار پو
 چون ڊي
 تجر بي
 تاز ه
l in
ط لاح
 ب ڪ
 ف ائيل
تي ءَ
 وڌ ائي
 سر ور
 ٽي بل
 تخلي ق
 افغان ستان
ت ڏهن
ك ان
ڪ تاب
 آ دم
اص ر
 اط لا
 ضمان ت
پ نگ
 س يني
 ک ني
ند ين
ائ س
 ل هي
 وس اري
 معام لو
 هز ارين
ج نگ
ان گري
 ۾ ،

 واق ف
 ڪجھ ه
 تڪ ليف
 لا ش
 ڪو ڙ
 اپ ريل
 عي سي
 جوڙ جڪ
ز ڪ
 س ير
 س ڌي
 وي ل
سٽ ريل
اھ ر
 گڏو گڏ
ب ع
ح ر
 واق عا
 رھ يو
اڳ تي
 تاز و
4 5
ان سي
عي د
 چي ه
 خيال ن
 بح الي
 پهچ ڻ
 الي ڪٽر
غ ذ
 ڪ ھ
 ن يڪ
 ان و
 تو ڙي
 علا مت
گو گل
 مم كن
 حڪ مر
 خاصيت ون
 گفت گو
خ اب
ٿ ان
 ا فت
 ب جي
 خ لي
 رو ڪڻ
 گه رو
 اندا زو
 عر بي
 سهو لت
 وڌ و
 او لاد
- -
ائ شي
 ٽ ين
 غ ر
شي د
 سا هه
 ڏس ندا
 c on
ج تي
 آ ھيو
 ک پي
 ف رو
 هڪ ٻئي
 ال ص
 يا فته
 ڏي ان
 ڪار ڪن
 ڪا پي
م يرا
گ هه
 س ول
 گ لي
 چ پ
 تر ڪي
 مق ص
 رج حان
 معاه دي
 مجب ور
 پي چي
 ڪو ئي
 ماڻ ھن
 پس ندي
 نتي جا
 سگھ ون
ب خ
 ج دو
 پ يڪ
 ع جب
 وڃ ائي
 ٽي ون
 سائي ٽن
 يون ٽ
 م تن
 و ه
 ن ار
 پي ئي
را ج
 جن س
ڻي ون
 ات فاق
ــــــــــــ ـ
په ريون
ج بت
ڌ ا
 من ح
 ڀ ڃ
at e
 صف حي
ت اريخ
لا ئڻ
 پو زيشن
 ٽ يڪس
 جان ورن
 عمار ت
 م دي
 پ ڌ
 ه ڻي
 ل م
را هيم
ث ن
 ت ڪر
 آ خ
 بڻ ايو
شك را
 زند ه
 دعو ت
 م ني
 ڪ ائنات
ري س
 ي ال
 نظ م
ن ئين
جي ڪڏھن
 گ نا
 سي ک
 مر مت
ig h
 يم كن
ط ل
 ج ما
وي ه
 ك م
 ابت دائي
 تعلي مي
 كي ف
a z
l i
س ات
 و طن
ٽي ون
 ڀ ڳ
 وڃ ان
گذ ريل
 مزاح مت
م ض
ڇ اڪاڻ
 ب ہ
 د ليل
on e
 سائي ڪل
 روح اني
 وا ع
بل ڪ
و ق
ڊ ٽ
ڱ ي
 س عودي
 ر خ
 رو ي
اف ظ
i o
ُ ر
 ت اب
 چ ڪ
 آهن گ
 ما پ
 ڏين دڙ
 ك ه
ب ات
اه ري
 دو ستي
 واق عن
 پي ئڻ
 ك نت
 گذ ر
 مين هن
 ذميو ار
 ٽرانس پورٽ
q u
ان ڪ
 ض ل
 ڪپ ڙا
 نڪ تو
ا ڙي
ب لا
ز ائين
ڪ ٽس
 ت خ
 س ازي
 ک لي
 لا زم
 ف تح
 شر اب
 امي دو
 اقتص ادي
 مقص دن
ت ين
غ ي
 ه ٽ
 ب ندو
ند اسين
سٽريل يا
م ڻ
ٻ ار
 هن دو
 ڀ لا
19 5
قا ع
 < /
 م هل
 ٻ اهرين
 گهر ن
بو ت
 رکي ل
 پاب ندي
م خت
 م ڇي
 ق اب
 وڌ ڻ
از و
 انت خاب
 کول يو
 دهشت گر
 م ؤ
با تي
 واپ اري
 بد ل
اھ يو
 سرگر مين
 ا ٿي
 آ يت
 ال ق
 هن ا
 حلو ة
و لا
 آ ندو
 ح سن
 من ٽن
 بي ٺو
 ذري عو
 بد لي
آ ل
 ر هو
 شروع اتي
 اندر وني
 ٽيڪ ن
 کا ڌي
 ن ر
 خ ون
 ط لاق
وي ئر
به ترين
 هل ندڙ
 شع بي
 نفر ت
O S
خ ب
 ا غ
 ه ارڊ
 ل طف
 رک ندو
 ثق افت
c e
 م تو
 ه فته
 جو ان
 ان س
 مو ڊ
گي ز
 رس ول
 نگر اني
 ل نگ
 ي س
شا ء
 ڳن ڍ
  ين
ڙ ائي
 في بروري
 انتظ امي
 پ تو
 ه ذه
ور ڪ
 در جه
 علي كم
 پاس و
 کا ڌو
ب ند
م ڪ
م ني
 پ هر
 سا دي
امي د
 لائ ق
 انڊ سٽري
 منح صر
دا ز
 ور لڊ
امل ن
 وٺ ندو
 دف عي
ماڻ هو
 دستاوي ز
ی س
 م ول
 س الي
ئي س
 ر ُ
 ڏ ٺ
اري ءَ
 ط ول
 سگ ه
 ز بر
 سم وري
 تر جي
 پرو ف
 خود ڪار
 مرڪ زي
 آ ڇ
 رک ون
 اص طلاح
 ٻي ٽ
 موڪ لي
 ڳنڍي ل
ش اني
 ب ٽڻ
 ن اس
اي س
طي ف
 ڀر سان
يو ل
 د ريا
اس لام
پو ئتي
 سا دو
 دا خلا
 پاڻي ءَ
 نم ائش
  ]

ب تي
 خط رو
 اٿ ئي
e p
ب ائي
 ح يات
مي شن
 مي ڊ
في ت
 اُ هي
 پڙ هندڙ
 پا ور
3 6
س چ
ڪ جھ
ائ جي
 است ح
اڪ س
 سر ڪار
 معا شي
ث ار
 چ ڙهي
 ال ش
 ڪي ان
 مح بو
 اح د
 ڇڏ يا
 اچ و
it y
 پال ڻ
 ک ولي
اد ن
مل ڪ
 را ضي
 هفت ن
 ا بي
ري ٽري
ام ين
مي ٽ
 منظ وري
 سک يا
 اڳو اڻ
 حم لو
^ 

 و هي
 مع املن
 پن ڌ
 آفي سر
 ڪائون سل
ع ين
 و ت
 و ِ
اف ر
 ام داد
او ت
 مطال بو
اڳ يون
ح ة
د ور
ز ز
 ع الي
 غ م
ڪل هه
 ذهن ي
 ڪ رو
 پ چ
 اس پي
 ق بر
 ٽ ئين
 بي ٽري
 بر قي
 ات حاد
 چار ج
 ڪلا ڪن
 باد شاهه
ـ ه
 چ ئن
 جا دو
 بي هي
 لي س
لام ه
 موجود گي
 چاهي ن
 ڪه ڙا
 آه ستي
 ط ئي
 رواي تي
e v
i es
 ان جڻ
 تو قع
 ري لوي
 نق ل
 وال د
 انف را
 جرم ني
 ج د
 س پر
 س پورٽ
 بي ش
 تن ظي
ک ه
 م ذ
 و وٽ
يو س
 او ھين
ar e
 هل ڻ
 روز اني
 هُ و
ز مين
 م ها
تي ون
سي ل
 ڌ و
 سا ٿ
 ڪا وڙ
ؤ ر
 مو ثر
 مر ضي
 چون دو
 علائ قو
 اسٽي ٽ
 سڃ اتو
oo k
 وڊيو ز
 انٽرني شنل
 عذ اب
ڪمپ ني
ح ڪم
ف ٽ
 و ڪ
 پر س
 تن قي
 ارا دو
 خاط ر
ـ و
 ع شان
 پري س
 اڳو ڻي
 ميو زڪ
 ان ٽرويو
لي ءَ
 ٻ ولين
 ڊر ائ
  y
 ش م
 ها ءِ
 منصو بن
 خامو ش
 ت هيه
 پ لان
 ب جا
 گ لو
 سوال ن
 وفا قي
 پراڊ ڪٽ
س ري
ڪ ارن
 ش ب
 ڪم زور
اف تي
 آھي ون
 قو ت
خل ت
 ڀر پور
 ش ڪر
 هي ڪ
 ڀ رو
 شي ءَ
 تع رف
 د م
 لا ئي
را ق
 هي ٺيان
 گهڻ ن
 کن يو
أ ن
ش نگ
و ش
پ اني
 ع قل
 ڪري ن
 هي ك
 پر ڏيهي
 ھ ئا
 اح مد
 چو ڌاري
باد ت
كر ه
  ؛

) :
ن ل
 ا دار
 م صر
 ط ال
 مق ام
 اخ ر
 خبر ون
 ناق ابل
 ه ت
 ٿ ور
 ع نوان
 ع زيز
 ح ا
 ال ر
اي ي
 اح تر
 دف عا
 آفري ڪا
 خطرن اڪ
o in
ف س
 ت ار
iv e
 سهو ل
 ڪاررو ائي
ئي شن
جي ڪٽ
 سر ٽيف
 ا رت
 ش ريف
 ح مل
 ح رار
 ٻ ول
 تع ارف
 آخر ڪار
 تج ارتي
 پير ن
 هين ئر
 عل مي
  &
ص ب
 وڌ ندڙ
 ڪن اري
 پن جن
 انسان ن
 رھ يا
ب ط
م نهن
 ا ڇ
ري ه
 پ ها
 ن ھ
 ن رم
 وڌ ايو
 ٽ ري
 ڪن ڊ
 هئ اسين
 فائ دا
 صن عتي
oo d
 ڊائون لوڊ
آ باد
ڪ ول
 و ڪيل
 ن گ
 پو ئتي
 ري ل
 أ نا
 ڄاڻ ڻ
 I n
 وڪي پيڊيا
 ا مين
 و ع
 ن بي
 ٽ ريڪ
 سر هندي
خو ش
 قب ضو
 ٻولي ءَ
ڪرا چي
 فٽ بال
 ملاز من
وا ق
 خط ري
 روز انو
 تش دد
  Y
آ ي
 م ٽي
 م لو
 ما ڳ
اُ ن
 ف يڪ
 قي د
ــــــــــــ ــ
 ڊگ هو
 م ِ
 آ ڏو
 س ڪ
 س ند
 ه لائي
ائ تو
تي ر
 پي رو
 فر م
تم ند
پري م
il l
 ڪور ونا
 شه رين
ب يا
 ش ور
 بي مار
 بر ن
 منت قلي
 نڪر ڻ
 خار جي
 وص ول
 ا ور
 م اهي
 ان گيز
 ڊ بل
 تع جب
 لڳ ل
 پرو ڊ
 عند ك
 چر چ
 متح رڪ
 پلا سٽڪ
مهر باني
حض رت
c l
 ڪرڻ ي
 مس جد
 سن جي
ro s
 بچ ائي
 فيص لي
 هائو س
3 1
i k
ر بي
و ين
ري ح
 وي ٺي
 مد ت
 نا ھي
 أ ن
 حصي داري
ل ك
 ٿ ر
 ال ت
 ك لام
 ڊي ٽ
ائون ڊ
 ايئر پورٽ
 خور اڪ
 مسي ح
, 

d ay
و ڃ
 س ؤ
ون ڊي
 ر ول
 مل ندو
 بل ند
 معي شت
ھ ار
 سي ل
 بر طانيه
زي د
 ؟ ؟

O V
و ب
 ه ستي
 ر سم
ائ تي
 رو پ
 A w
 بچ ڻ
 o f
 حاض ر
  Z
ئ ڪ
 ن ج
 ي ح
 سيڪ ريٽري
 يق ول
u p
 نه ايت
مو ت
 دو ري
el l
 ضح كت
e b
د ف
ذ ير
 تقري ب
 ڄڻ ا
 سون هن
 حر ڪت
آخر ڪار
ٽيو ب
3 2
ش ور
 ج اي
 ور هين
 ملا زم
 ٿيندي ون
f t
ز ح
 پ ٺ
 پ ائڻ
 ب دن
 ر ھي
 ق اع
 جا ڳ
 ڊي سڪ
 ڊ زائين
 فائ دي
 حو ص
 تبا هه
آ هي
ڏ ن
 ب زر
 ع بادت
 ڪم ن
 ٻڌ ائڻ
 نس بت
ab le
a w
ن الو
 ڪ لام
 ت را
 و م
يڪ و
ٽي س
ا ٽ
خ ه
 ج ميل
 ڪ چ
 ڪ سٽم
 و را
ور ة
 ش ريڪ
 لڳ ندو
 چي ئر
 ڪندي ون
 بع ض
آ هن
آ ئي
 و حد
 اين ڊ
 با قاع
 ڀي ڻ
 پروفي سر
f or
 ڇڏ يندو
 عر ض
 حص ا
انسي سي
ث ريت
 ت ياري
 آ لو
لا قي
لا بي
 مل ندي
 ڌ ن
 ڪمپني ون
 اک ر
 کي ر
جي ل
 ي كون
 ڊ سپ
 ور زن
 مس لم
 مر ڻ
سٽري شن
هي ٺ
 ش ن
 چ ڙ
ام ام
 رو سي
 لڳ ائڻ
 واق عو
 ٺاهي ل
 دري افت
 اعت بار
 نمائ ندگي
 هو ء
 رک ندي
ڊي شن
 ني شنل
 ڪئ ميرا
igh t
يڪ ا
سي ت
 گھ ڻي
 اخت لا
ج ع
ط ر
 ا مري
 آ غ
 ق لم
 پي ماني
 هي ل
an g
 خاصيت ن
 قاب ليت
 ان ڊيا
وي د
خو د
 معا شري
ض ر
 ر ش
 اي ج
ها ها
 غ لام
 ڪار خ
 عمل ن
زم رو
 الي ڪشن
 نوجوان ن
 چم ڙي
 س ئو
ند ه
 ش اه
 يا داشت
 ڇڏ يندا
 ڪمي ٽي
 ساڻ س
 سلا مت
 ڪ لب
ار ات
 جو لاءِ
دي ث
مار ٽ
 زبر دست
ا چو
غ ل
ك ِ
ير ن
 نق طي
 مسلمان ن
" مون
) )
ش هر
ط ع
 ف ى
 ط وف
 پر ت
 ڪا غذ
 گهٽ تائي
 شر طن
 ؟ ؟؟
 نتي جن
 چم ڪ
م ج
 ح ب
 ل ئه
 من اف
 مع صو
 في شن
 ث بوت
 سگھو ٿا
 اطلا ع
ث اني
 س هڪ
 هئ و
 s ub
 واس طو
" ،
گ م
 ج شن
 ا كيد
 س ختي
 پ د
 ٺ هر
 چي ف
 پڙ هو
 ظ لم
 فور م
آ خري
پ لز
 ج ار
 چ ُ
 ال موضوع
ٽي ڊ
 غ ائب
 مار جي
 صف حو
 تڪر ار
c om
و د
 آ ء
 ک ٽ
 ر هجي
 گ ولي
دو ست
ڪي م
 مي چ
 پرو از
 پڙهي و
3 00
ا ِ
 ب چي
 ان دو
 تصوير ن
am e
 اسٽي ل
ماڻ هن
 متع لق
ين ڊ
 ن دار
لا ء
 تو جي
سي ءَ
لو ب
 سڀ اڻي
 سر برا
 مش ق
 حال تون
 پري شاني
 ترجي ح
 احتر ام
OV ID
t r
ڌ ر
ان داز
 ڪ ِ
 آ م
 مي ون
 ڀ ريو
 ما دي
 مل ن
 مث الي
 اف ز
 هم را
 مهي نا
كت ب
 معاه دو
 م يني
 ت ت
 من ك
 گر د
 هيٺ ان
س ائ
م ٿي
ژ ه
 و هڪ
 پن ھنجو
ا خ
 م زا
لا ئ
 جو ڙي
 گ زارش
 چ ور
 ف ين
 اي ش
 ڪي ئي
اص لي
نو ٽ
 ري اضي
 ڊي ل
 ڏس ندي
 اب راهيم
، ،
ڱ و
 ن ون
 ر اي
دي ه
 وي ٺا
 مل يا
 مدد گار
 t h
 پهچ ائي
 ڪهاڻي ون
 اث رات
* 

i p
 ت سل
 آ ي
 پي ل
 هل ندو
 پنهن جون
 انساني ت
 بلو چ
 ڊائريڪ ٽر
 دول ت
 پسندي ده
: D
ـ ر
 ي لا
سي د
 طرف ن
 اف سوس
 مٿ ين
 مست قل
آمري ڪي
 اوچ تو
ش مي
 آ پشن
 س ارا
 پر ست
وي ل
 ادا ڪار
3 7
ئ فڪ
ل ل
 آ ءُ
 ڀ ارت
نو اريو
 ري ڊيو
 لڳ ائي
 بلا ڪ
ھ ا
 م هان
 م فيد
 ب ست
 تي زي
 ح ملي
من ت
19 3
 اُ هو
۔۔ ۔
 مطال عو
 باز ار
 اٽ ڪل
ط ب
ان در
 ت نگ
رف ي
 ذ ي
 في لڊ
 گهر ج
 تقري ر
 ننڍ ڙي
ك و
ڀ ي
 گ نج
 مست حڪم
گهڻ و
 رانديگر ن
  and
ـ ہ
 م ضحك
 ک نڊ
 ال يوم
 ما هه
 s p
 تق سيم
 ڏيک اريو
 قدر ت
 اسر ائيل
9 5
ث و
ه ذا
 م ائي
 ب نگ
 چ ڪر
 ال خ
 ڊ ول
 لو ڪ
 شاع ريءَ
3 4
ظ اهر
ان ج
 جو ا
 د ؤر
 ق ال
 ز هر
 ھ ا
حي د
an s
 الن اس
 ٽائي م
 چڪ اس
ق انون
 ف ني
ش روع
و َ
 ج ُ
 آ سٽريليا
 ه ڻ
 خ صوص
 مع ك
 ٽ يو
بي ه
 اڪ ثريت
 ننڍ و
ز ه
ص ير
ع ب
ڊ ين
 ش ھر
اب يس
اي ش
 ننڍ ڙو
 ڪور س
 آپري ٽنگ
م ُ
م ئن
م گر
 ا مر
 ح ج
مي ٽر
 رو انو
 ما ء
 ڪن ڌ
ar d
 چو ان
 پيا مبر
 نس خو
 وق ف
 خار ج
 ارس ال
ل هه
ٽ يڪ
ڪ ٿي
 م آ
 پ ٽي
 سي د
 ڪار ڻ
 مص روف
 جر من
 توجي هي
في س
 لڳ ايو
 پار ليا
 جان چ
 موڪل ڻ
 ايو ارڊ
ف ين
 ت ري
هي ءُ
لي ز
 من سو
سٽ س
 ھ اڻي
 سر چ
 چو ري
 اُ تي
جه د
 ڦ ر
 ڊو مين
 مائ ڪرو
 پوائن ٽ
 هٿي ار
 تنقي د
ذ ري
 ب يا
 ب رف
 ص لي
 خو اهي
 اه ڙن
فا قي
 ڀي ري
 ٽر ئفڪ
علي ه
 اشت هار
 مرا د
د يو
س ار
ص بح
 ڪ ارن
لي ش
اس م
 پي ج
 مع ت
 في ك
 سگهي ا
 اع رف
 اخ لاقي
 بن ائڻ
 پا ڙي
 ثق افتي
4 4
: -
ج هي
ڏ س
 م له
 ر ڪا
 ف صل
 ف عل
اس ون
 چي م
 بند ر
 هُ ئي
مح مد
 سهڻ ي
ب ست
ش ى
 اس مارٽ
 ق يام
 اڳو اڻن
 پروسي سنگ
د ائش
ال ح
 ڪي سن
 ڌ اري
  is
n e
 ف ول
 گذ ارڻ
 پيا ري
 فن ڪشن
 نيٽ ورڪ
 نص ب
ڪيتر ن
  x
م ڪن
 ج مي
 ت ضحك
 س ستي
ــ ن
 ل غ
 وي ڙ
 مي شه
 مش غ
اااا اا
 اسٽ اڪ
 ماهر ن
 ڏو هه
 محبو ب
 لا ل
 ي ك
 بي ٺل
 بر سات
or e
 مخ ال
 بن ت
 بح ران
 ڊو ڙ
 to اڻڻ
" مان
N T
ڊ س
 ه تان
رو س
 ور اڻيو
 را هه
 صف ائي
 بال غ
 گي ري
ت اح
 ك ذا
سو سي
 ٻاهر ان
ــــــــــــ ـــ
 موب ائيل
 مساف رن
 سهڪ ار
ط ين
ٿ ون
چ ڪ
 ا پيل
 و ائي
 ه ذي
 ب ش
 خ طي
 سر مائي
جن ن
 سيڪ شن
 رهن دڙ
 چونڊ ن
3 9
5 5
آ م
ڪ ير
 س هي
 پ مپ
 ڊ ڄ
 ڀ و
 ك ده
 گه ڙي
 وڏ ين
 وق تي
 چيئر مين
4 8
آ خ
 ا ياز
ون گ
 ب ازي
 اس ڪو
 ٽ ڪر
 ڪو ٽ
or t
 چين ل
 تفصي لي
ھ ه
 ب ط
 ي هم
 مع اف
مو د
in e
 ٽر مين
ac t
ou t
 اون دا
 خال ص
f f
ج ها
ج ئين
ھ ڻ
 و الو
 ر اس
 ڏ ٺي
 تو سان
 سو ئ
 خو دم
مو جود
 فار ميٽ
ٻن هي
اڃ ا
أ ي
ك ين
 س لي
 پ يرا
 ڊ سڪ
اڪ ثر
ما عي
 گڏ ج
 علي ك
ur n
 سائن سي
 صلاحيت ن
 اسٽو ريج
انگري زي
 ڊيٽ ابيس
ح ش
 ن الن
 وين دس
 س اح
ري ئر
 ب قى
 ان ها
 د اري
 ف لو
 ك مان
 بل ڪه
 دي گر
 فار سي
 روز گار
as t
 عي د
 اعترا ض
 گنج ائش
د ى
ق ص
😂 😂
 پي ون
 سي ٽنگ
 مر ض
 ڇڏ ين
 سگهن دي
 مطال عي
 ماس ڪ
 know اڻ
 جدو جهد
پ اڻي
 پ لس
 پ ڇا
 ن ان
يا مت
 چ را
هو ا
 ص بر
 ال ب
سٽ مر
 اع ز
19 2
 گهٽ ائڻ
 هل ندي
 پاڪ ستاني
 تبص رو
 ڊرائ يور
ڪ ڙي
گ اري
گ ها
 ڪ ئن
را حه
 ڀ ائ
 ملي ل
 بچ ايو
س ط
ص ح
 م بت
 ر ڪ
 ان ٽ
سٽ ن
 في ها
 ٺ اھ
ا ش
ن ئون
 م زي
جي ڪا
ائ ز
 ع ادي
 . "

 واري ن
 چونڊ ڻ
 صح تمند
ry pt
i al
ر پورٽ
ز ون
هي ز
 ۾ ,
 ف نڊ
 ل مح
 بر ائو
 را ڄ
 فرا همي
 مدا خلت
 ڪارڪن ن
 اندو ز
w it
پ نهنجو
ــ ه
 ع رف
 پي ء
 ز و
في ئر
 اح وال
 تن ھنجي
 رس اله
 هنڌ ن
 شڪ ست
 تخلي قي
 ڊيو ائس
 ويڪ سين
 ڪميون ٽي
 معن ى
 ڊسپ لي
 طوف ان
 ڪ ٽ
 پ يڪي
 ب ري
 ص دار
15 0
os t
 دعوي ٰ
 مبار ڪ
r en
ت س
م رح
 م صي
 د فا
 مي لا
 اص لاح
 ڇو ڪرو
 اک رن
 فل ٽر
 جذ باتي
 کيڏ ڻ
 ڪارپو ريشن
o b
ا يا
 رو ايت
 نو ٽيس
 وڏي ون
 جه ڙا
 پڇ ڻ
 حو الو
 نام مڪن
عال م
 منع قد
 حرار ت
" ها
ت ش
ح الي
ق ب
َ ه
 ڪ نو
 سم ارٽ
 رک ندا
 لي ڪ
 ظ اهري
 پيغ مبر
 قد من
 ڪ ٿان
 ع ض
 خ اني
اري ون
اي پل
 وا چ
 ھ جي
پي دا
 مط مئن
خل ص
 رنگ ن
 تڪ ڙو
باب ا
 ڌي ءَ
قسم تي
ب رو
ب ها
 ب ُ
 گ يا
 د را
 ڪري م
 ڪري ڊٽ
مي ز
 پي چ
 پڙ هائي
 ڪيا ئون
 اختي ارن
ر ج
س ائي
ش پ
ري بن
 گ ورن
مي د
اهي ن
ڻي ءَ
19 1
 نم ايان
ختي ار
 جمهوري ت
د ك
پ وي
ڪ ارو
 ٻ ا
 ڪر ن
 هن دي
 رو ئي
عم ر
سم س
سٽ نگ
 ھ ٿ
من ٽ
 فر مايو
 سيا ري
 S t
 دي گه
 > >>
 طبي عت
 برطان يا
 پيچي ده
e g
ل ڪ
 ق بي
ورا خ
 ڪپ ڙن
جان ءِ
 اث ا
مخت لف
ه ائڻ
ي ٽ
 م ند
 وي چ
 رو ڪيو
 ك له
 سن ئون
 اد ارو
 اسٽ ار
h er
س اب
ع تن
م لا
پ ير
 ر ئيس
 ش نو
اص لات
 مح ل
 شا خ
 ث اني
 ايڪس ڪس
آ إ
ز د
ل ح
پ يام
ڳ ال
ڻ ين
هي ٺيان
 ب لي
 ب اس
 ر ٿ
 لا هي
 من في
 ك ن
سا ڳ
 ڄاڻ و
 وسي لي
 تعلق ات
ا ھي
ز خ
ف صل
ق دم
ِ ر
 ڪ تي
 ق لت
 رو ڪ
 مش ورو
 رهن مائي
گري س
 سام ونڊي
 ڌرتي ءَ
 طريق يڪار
 ضل عي
  ]
غ ر
ھ ون
 م ام
 ن ك
 سو ا
تر ج
مان س
اح د
 مرح لي
: )

p l
ا اي
ش ڪر
م خ
دي ل
 ط رز
يڪ ر
 خو بي
 ك لهم
 تر ميم
 تح رير
 جواب دار
 پهچ ايو
io us
ع لم
ع لامه
 س ٽ
هر ن
 ي ضحك
 مح تا
 ك تير
 C OVID
 برا دري
 کا ٻي
id e
ا ً
و ان
ک س
 ٿ ڪ
ائ ڊ
 من ھن
ڪا يو
 ور ها
 ڪا ٺ
 پار ٽين
 سيڪ نڊ
 هم ه
 گو شت
 , 

ذي ب
 عا شق
6 5
C L
ط لع
ق ة
 ش مار
 ح قو
 ح ساس
اي ف
 پر ن
 بي ل
ائن س
سا ڳي
عن ى
 بجي ٽ
 بجا ءِ
 آغ از
خ ذ
ق ق
 ت اج
 ب ـ
 ب زن
 ب اڪس
 ٿ ڌي
 ع ار
 ل أ
 ل طيف
ڪي ٽن
 هي ڊ
 وسي لن
 ماس ٽر
 إ ن
 فلس في
ind hi
 پ ان
 خ ز
 ل ح
 ل ما
وي ري
 ويج هي
 سروس ز
 ٻُ ڌ
 جي ت
 ڏيک ارڻ
 تجر بن
 صو بي
 to day
 واڌ اري
 ره ائش
نظ ر
 اصول ن
 چئ بو
 عه دي
 خات مي
v er
 م ذا
 ڏ هه
ني ت
را حي
 ڦ ا
 ڪيم يائي
 ايجن ٽ
 ٽا پ
lin ks
7 5
ذ ف
س ُ
ط يني
م ات
ٻ ه
لا ئن
 چ هري
را ف
 وي ٺل
 شي خ
 تع ال
 ري استن
 اع ظم
مح بت
 حض ور
 انگ لينڊ
u g
ا ءَ
ض ل
ع اد
ڪ ور
گ هي
 گ ون
وي ت
 فر انسيسي
en s
 خوش بو
 ماحول ياتي
 احت يا
 پاب ند
 استح ڪام
 پالڻ ھار
 اختلا ف
 افز ائي
د ام
ذ ر
 آ ڊيو
 پ ورا
 ۽ 

 ٻ انهن
 غ ذا
 ھي ٺ
 بھ ترين
 تلا ش
 واع دو
 رڪا وٽ
 مشغ ول
a il
 گ لن
 ش دت
 ٿي س
 اي سوسي
 ذ خي
 مت فق
 مار ڻ
 پڇ ي
 شك له
 گري ڊ
u d
ح ل
 ڪ تو
 جي تري
 ش ئي
 ال بن
 ز ياد
 مش اه
 p ro
 مرح لن
cl ub
3 8
س ى
ش ار
ه ُو
َ ي
گ ان
گ وار
 ا فيئر
 پ ذير
 جو ش
 د است
 چ اھيو
 پي ئ
 پي دائش
 ڪن يڪشن
 ذري عن
لين ج
 شع بن
 رج سٽريشن
 عد ال
 نش اند
 ڪاري گر
 مهم ان
 پين ل
< text
م ص
م ست
پ ڙ
ڊ مي
 س لو
 س وراخ
 د لي
 ڏ هن
 ف ضي
 سي لز
 ك ثير
 ني ٺ
ٽا پ
 انگ ن
 نفس ياتي
 جام ع
 منج هان
club links
, ,
ق ائي
پ ال
 و ڳي
 ي کي
نگ ر
زي ل
سل مو
 c h
 ٻار ڙن
us t
 ننڍ ن
 ايپليڪيشن ن
گرا ف
 لين ڊ
 چان هه
 گهم ڻ
 تنظي من
ت كم
 ر ن
 ڏ ند
 به ار
 ڀ لو
 سر اس
 پيش ڪش
 وچ ولي
en d
افي ه
سپ ل
 شڪ ايت
  يڪ
َ ل
لف ظ
 يو ٽيوب
 شر م
re v
 طب قي
 ڀرو سو
 ڪچ هري
  e
  ــ
T E
ا ڊا
 آ پ
يا رين
 لا ت
 ال ط
مي ه
 ي ب
ٽي لي
 پو ک
بي شڪ
 اح لى
ag e
گرا في
ڪيتر ائي
wit ter
ا ك
 م ـ
 و ڄ
 ص دا
 ال مل
اح ب
 ڌ اتو
 عر صو
 اقت دار
 س چي
 ل له
 ڪر ڪيٽ
 من ز
 تق ول
 ؟ !

 انگري زن
 تبديلي ون
 خوشي ءَ
 ميز بان
 فط ري
  le
 م در
 د اد
 اي ڏو
 پي ارا
 نا چ
 تبدي لين
 ات ان
as s
 خان گي
 م يڪس
 آ ھين
 ک سي
 ٿ ڌو
ام ون
 ص فا
 ام زح
 هل يا
 ڳاله ائيندي
 درو ازو
 خامو شي
ئ ت
ر ائي
ه ارن
ڳ ن
ــ ا
 گ ير
ست جو
 مر ت
ياد ت
 عط ا
س ف
س ڪر
 م اريو
 ر شتي
ــ و
لي د
 ف ريم
 رهي س
 په لو
 ري گ
 ياد گار
 اهڙي ون
فن اڪ
نظ ارو
 تعالي ٰ
 ادار ا
ا ڪي
ض ع
ان ين
ان ساني
 پ ڄ
 ح اڪ
 ل كن
 ما ٺ
 اخ ي
 چو ٿين
 فو ٽ
 A m
 سين ٽ
 اسڪول ن
 اك ثر
 مصي بت
 نشاند هي
ا ڳو
ش اه
ڪ ڙ
 س پريم
 گ رين
 ص دين
 مع افي
 وٽ ان
 سب بن
 سرٽيف ڪيٽ
6 7
N ext
o k
o ur
ج ري
گ فت
 م ھين
 ت د
 آ فت
 آ يس
 ڪي بل
اني ءَ
 سال گر
في ه
 پور هي
hat s
 باقاع ده
e h
ك ات
 ڪ لي
 ه مين
 ب اا
 ان ھيءَ
اس تي
 وا لا
الي شن
 انت ها
 چي ٽ
 بيو قو
oc k
ew s
ا پور
ذ ب
ٻ ارن
ی د
 م اڻي
 ۾ )
 ر پيا
 ان ح
 گ ئس
 تي ر
 سگ نل
اڻي ءَ
ما ء
an a
 لک يا
 بو تل
om e
 مرح له
 قط ار
ت نهنجو
م اس
 ڪ امي
 س چو
 ه اري
 ب قا
 ر ع
 سم و
 ڌ ڪ
 دو م
 اسڪ ين
 نصي ب
 ميڊ يڪل
 معت بر
س ڄي
 لا گ
 ٻ ر
ــــ ي
را ء
 ٽ ڪيٽ
 در ج
پي ش
طي ك
هين ئر
او ھان
مم كن
 حي در
 افت تاح
 انفرا دي
S T
X NUMX
ب نيا
ڊ ول
 س ولو
 و ک
 ب گ
 ن كت
 گ لاس
ائ مري
 چ ئو
 ل كم
 ال صور
تو ي
ـــ ن
 خراب ي
 ڪان گريس
ا ک
ه ُن
پ يو
ڊ يم
ڪ اني
ھ اڻي
 م هار
 ن جي
 ن دي
 گ يم
 ڏ سان
 ص لى
 ڊ گري
 او هين
 - 

 مح روم
 اح سان
وا ٽ
 اد ري
 C h
 مجمو عو
 ناز ڪ
 مئ ني
_ _
ر ڳو
 م اي
 ف اط
 پي پلز
 مو ڙ
قي ه
 پر ور
اڪ ر
 تر سيل
 سيا حن
 خط اب
 X NUMX
 آئ وٽ
  ex
" تون
ح لو
ح ڪومت
ع بد
ـ ت
 س ٺا
 و ڇ
 ر بي
 نه اري
 ق يامت
 بي م
 ڪو ٺي
اه رو
 پن ھن
 ڊبل يو
 پارليا مينٽ
چ يو
چ يني
ی م
 و ير
 ه مت
 ن ڀ
 ش ير
 تو کان
 ڇ ڪڻ
 رو يي
 ما ه
 غ ي
 بر ان
 بر آمد
 لي زر
 فر مان
وا ضح
 وٺ ن
 وٺ ندي
 پاس ورڊ
 چه رو
؟؟ ؟

 اڪي لي
 رح م
 سائنس دان
" نه
l ay
m ent
u nd
ص ار
 ڪ ٽن
 خ شڪ
 ڇ هه
 پر اڻو
 ڀ ت
 ض ايع
 ور ج
مر ه
 اح س
 اُ ها
 دي س
 پون دا
 پئ سو
 سرو ي
 ننڍ پڻ
 رست ن
 پور ٽ
َر َ
 قل بي
قر آن
 ملاز مت
4 00
ھ ائي
 ڪ ول
 ڪ شم
 آ يون
 لا ڪ
ام ان
 ف علا
 ق يادت
 ط ل
 مع ذ
زي م
 ڏس ندو
 قيمت ون
 ڏني ون
 ڏن ائين
ec h
 ڪان گ
 آزادي ءَ
 استاد ن
 عيس ائي
 پيڪ نگ
 مخال فت
ري د
 خ لق
 هڪ دم
ني ه
 پي ارو
سي ون
من ا
 ٻي ڙي
 اخ لاق
 ايپ س
 بن جي
 عيس ى
 ڪلو ميٽر
يق ين
 ٽرمين ل
ٽ ائر
گ زين
 ن ارا
 پو ئين
 سي شن
هڪ ڙي
 مري م
 پلي ئر
 راز داري
u ct
ٽ يڪل
 ک م
 ع راق
ٽر ز
 ك ر
ـــ ه
 s h
 خي الي
 شهر ت
نظ رات
 درو ازي
 مظ اهرو
نيو ز
" اسان
ل هي
ڏ سو
 جي ن
 پ اي
رو ج
دا ت
 ي الله
 رو ان
اف ين
سم جه
 ھ ل
 فائ دن
 جڳ هن
 نمون و
 تعلي ق
 حاد ثي
 اميدو ار
 فيڪ ٽري
o ft
ص ه
پ اس
 جي ون
 ب ز
 ٻ ج
 پي س
 ي هو
 من ھنجو
 رو اج
 رک يا
بت ه
 تح ليل
19 0
فار م
بعد ين
جبت ني
 بندو بست
 داست ان
ب از
ـ ا
ف ة
م ها
 ج هي
 ج هنگ
 و آ
 ان ش
 گ هي
 ع يون
 ف ات
 ف رين
 ل ع
 وا ح
 ڀ ٽو
 ڀ ڄي
اا اي
نڊ ي
 لک ين
 صف حن
 قب ضي
 الح ين
ou n
 ڪڍ ڻ
 شكل ك
يق ينا
  °
  ہ
] .

ج ج
س مي
 ڪ نگ
هي لو
 س ٺ
 و أ
 ب دي
ال ع
 جو ڙو
 من ط
 ٽ تو
 ڪم ائي
صو لي
 سر دار
 چو ٽي
پار ٽ
 ٽرين نگ
 دائ ري
u c
خ صي
ري ڊ
 ٿ ورا
 گ ن
 گ ادي
 ع ين
 کان ئس
 ( ۽
 ڳ ائڻ
 وا هه
ٽر ڪ
 جن ت
 اسٽي ج
يور پ
 ڊاڪٽر ن
 حر ام
 وف اد
ڏين هن
 ~ 

 ملائي شيا
 چونڊي ل
 عار ضي
ف ع
 ج اني
 وا ه
 ڪم ال
الي ت
 وين دڙ
 s m
 ڳول يندا
 نف سي
 رست ا
 فل من
 [ .
 ڪين سر
 جما عت
 بدل جي
مڪ مل
 ڀائ رن
A pp
ط ور
 م ندر
 ر ڪن
يا ء
 ف ائن
 من ها
ڪو ٽ
 رو زي
 خو فناڪ
 سال ه
 ڊي گهه
 سن ه
ڳو ٺ
 قيمت ن
لائي ٽ
 ار دو
 كل ها
 f or
 صدي ءَ
يار ڪ
  £
 ڪ تن
 س ٽي
ــ ت
 ف حش
هو ء
ڪي ز
 ڀ ان
 ور تا
 تع ل
 مق بول
 اح ب
 گهڻ يون
 ڦ ير
 ؟ ؟؟

 لائ بري
 فل مون
ib le
 ادي ب
 رين ج
 فرو غ
  ag
' 

i an
ٻ ڌ
ڪ لا
 م ك
 ب ق
 ھ تي
 ٿيڻ و
است عمال
 شو د
 پروگرام ن
 پائي دار
 ^ ^

 ھون دو
 برن امه
E M
پ ڪ
چ سب
 ن ڪي
ائ گي
 وي زا
 سو م
ئين دڙ
 گذ ريو
 مغ ربي
منهن جا
 ملو ث
ب ون
هي چ
 س نو
 چ ن
 ل چڪ
ڪي ون
 ڪي ريئر
 سو ين
بو ليت
 هر گز
پري س
 خاند اني
 ڏها ڪي
ear ch
 ميلا پ
سمجه اڻي
  j
" پر
r a
خ د
و ك
ِ ڪ
چ ڻ
 ا يرا
 م ک
 ک ُ
 د بئي
 چ نين
 ح ُ
 ڪر سمس
 اي ٽ
 من و
ات ار
 وٺ ندا
ic k
 ڳول يو
 جيئ رو
 ايج اد
 معصو م
موجود ه
 مذا ق
س ج
 س ڏي
 د ُ
ني م
 پي پر
 ز م
اص لا
 پرو جيڪٽ
 ها ء
 ام ڪاني
پري شن
 الم هم
 رائ ع
 اعز از
4 7
r am
ظ ه
 ا جن
 م ٺ
 م شن
 و اب
 گ ائيڊ
 ڏ ور
مي ون
 مو ٽڻ
سر چ
 ڦ ي
 ٺاهي ندڙن
 انگري ز
 سل ط
 بزر گ
 گرد ش
 يهم ك
خ ال
ڀ رو
 ج ڙيل
 ر َ
 ع مري
 ال أ
بي ل
 مد ل
 ظ اھر
or s
 پئ ماني
 موق عن
اين دڙ
 گا ڏين
 اھ م
 دٻ اءُ
عورت ن
 غر بت
 سالي اني
 برائو زر
rev ious
 نارا ض
ي زن
ی ش
 س کي
 و ڪري
 پ ت
 ب ني
لا يو
 ح ديث
 هو م
 سمج ھي
 اُ نهن
 ڏس جي
حت ى
 بچ ت
 صح بت
 سڄ ڻ
 پک ڙيل
 عيسي ٰ
 سگه جن
 پروڊ ڪٽس
1 20
ا يڪس
ا علي
ع ع
ٻ و
 ڪ سٽمر
 پ تي
 ڇ ڪ
را ي
 بي ٺي
 بر رسي
 ڌ ما
 ڇو ڪرين
 سمج هو
ائون ڊيشن
 موق ف
 باد شا
 انجنيئر نگ
 مزا ج
 ڪٽن ب
ان ٽرني
 ت ازي
 س ارو
 و هن
 ه ئين
 ب يني
 ش ري
 ش فا
 ش ديد
 ع مو
اب ري
 جا پان
 ڀ ائيو
 ري سٽ
جن س
at ed
 منت خب
 عاد ت
 عبد الو
 نع مت
ا پ
ـ ل
م سل
 ا ڀر
 ن امي
 ر ڙ
 ڏ ٺا
 تي ئن
دي ش
 ال ضحك
اف غان
سٽ ين
 گھ ڻا
 تب اهي
 أ ي
 بين ڪن
 بو ٽ
 پا ؤ
 پئ سن
 پل گ
 رابط ن
 ڏيندا سين
 ناز ل
 پڙهندڙ ن
a j
c oin
ڪ شي
گ زارش
 ڪ ڏھن
 ه ِن
 ان چ
 ع ڪس
 د ون
 ف ورس
 من ه
 مل ندڙ
مر د
 بل ين
 ياد گيري
 مخ لو
 موق عا
 پنج اب
im e
تع ليم
 سمجھ ڻ
  Q
) )

ا عت
 آ ٽو
لي لي
 گ ها
 ته ذيب
 ف اهم
 ق ابو
بر رسي
 پيش ه
 خبر ن
 رس مي
 ڇڏي ون
 خدا وند
 فن ڪار
 ميز باني
  ـــ
  ad
ت ها
ڀ لا
ات ر
 شي طان
اه ڙا
 مت ان
 الا ئي
 پا پ
تح قيق
َن ِ
l es
آ ب
ح م
س نواريو
ك رت
ڌ ن
 ا جر
 ڪ تب
 س ني
 ب ڇ
 ب شر
جي ستائين
 ع دم
 ص ار
 اي ڏي
 ( (
 مس ٽر
ئر س
 دل ين
خو اهي
ur e
 وح ده
 شف اف
for m
o x
، XNUMX
م فت
ن م
 ج ت
 ا كل
ري ائين
 ب ور
 تو ازن
 مع روف
 رو مان
سٽ نٽ
چي م
بو د
 تر ق
في صل
 گذ ار
 c rypt
 ڪل چر
پن ج
 گري جو
8 5
T C
آ ء
ح ح
ص لي
ف تو
ك ة
 ت خت
 و ك
 ح ذف
 ل آ
 مع مول
 ٽ ڪرا
 وڃ ڻو
 ڏي ون
ڪن ھن
 نظ ريو
ـــ و
ar y
 ڏس ون
 اسٽ ريٽ
 ننڍ ا
 جذ بات
 جها زن
 پُ ڇ
 ڪڍ يو
 << <
مرا دو
 ڪرن سي
 بيم ارين
  ی
: ههههههه
ک ار
 ا ذ
 خ انو
 هي رو
 ز يا
 بي حد
 سو ار
 مش ر
 ري پ
 فائ رنگ
 ٽر مپ
 چئ جي
 ناڪ امي
 اِ هو
 نج ات
 تعال ى
 ذخي رو
ح تي
ز اد
 اس ٽاپ
لو ا
 ري زي
مين ان
 اح نا
 نظر ثاني
 اج ل
ورن س
رر رر
 اول هه
 سچ ائي
 حفاظ تي
 سلام تي
 ڊوائيس ز
 شم سي
  @
8 8
i e
ؤ ن
س وي
ش ب
 ا ِن
هي ا
 آ ڱ
 ک ٽي
 ن وي
يو ار
ام ير
 ف لا
رو ش
 من جهه
 مي ٽ
 ض د
 در س
 ٻڌ اءِ
 ڇڏ يندي
an k
قو مي
 صف حه
 نڪ تل
 ميون سپل
ص ول
ص در
 ا ڇو
 ر احت
 ع ث
 ح اج
 ڪي ترين
 پر نٽ
 ڪو ش
 سو سائ
 غ ذ
من ى
پي ار
 چي س
 ني ب
 ٺاهي ندڙ
 سرگر م
 ٽيڪن يڪل
 ڏٺ م
urn ame
ساڳ ئي
P revious
ت ِ
و اب
 ع ارف
 خ ام
تو ا
 او ز
 سم ورا
شي ار
عد الت
اااا ا
 جم لو
 بد لائي
 S CL
 اپ ليڪيشن
 اثر ائتي
 وڻ ندڙ
وز يراعظم
 اشت هارن
 سنجي ده
پيدا وار
 ايسوسي ئيشن
 SCL NT
m m
ا َ
 ب ايد
ــ ر
 ڌ م
 چاهي ندو
 مهي نو
 سک ر
 آگ اهي
 دان ش
 پنا ه
 سهول تون
 احتيا ط
ـ َ
گ اهي
 ج دت
 م ٺي
 م ٽائي
 ڪ اب
لي ڪن
مي ءَ
ٽي شن
 من ڊي
 ز وال
اد ق
رف يس
 ڄ مار
 دا خلي
it coin
 تص ويري
 دف ن
 مضمون ن
 پارٽي ءَ
 انسٽ اليشن
 خواب ن
 جائ ز
 متح ده
شنگ ٽن
4 6
ض ه
 ج تان
 ڪ ٽڻ
 پ گ
 ه ان
 ف ا
ني د
ائين دس
 وي چار
 مي ک
 رو لي
 ڀ لائي
 ما ع
 در آمد
 فائ لن
it t
 بن ائي
 دٻ اء
 برطان وي
 لائي ٽ
 فضي لت
I N
S A
ر اند
 م ڇ
تر م
 ماڻ هون
 اين ڪس
ــــــــ ــــــــــــ
 لڳ ن
 ويا سين
 ڏيڻ و
 جنگ ي
 اط مينان
صور تي
 اھ ا
 آئين ي
 آخ رين
 ارت قا
c y
ح س
 س جا
 چ ورس
 t r
لين ا
 پا ڙ
 ڀر ڻ
 ڏيکاري ل
ap p
فق ط
ak e
 عبدالو حيد
  {
4 9
أ أ
ح بي
د ون
س ور
م َ
ڀ ا
 ا ما
 آ هه
 پ بلڪ
 ف ائونڊيشن
 ، ،
 ق وي
 پو ڻ
 ڄ ائو
or d
 بد ون
 اينڊرائيڊ س
 پهر ئين
 ڪشم ير
ا يران
ش ون
ک ل
 ا ڱ
 ه َ
 ر ز
 ل شڪر
 ڇ ت
اي پ
 سر حد
 سگهي ن
 پاڻ مرادو
 اح م
تن ھن
 مار ڪيٽن
 زندگي ء
 خبر دار
 فيص لا
 مٿ س
مح دود
عال مي
 پھ ريون
واق عي
  ?

ت ص
ج ڏھن
ح اصل
ع ڪس
ِ ل
ڪ َ
 ف ه
دا ء
 ال ل
 سگ هه
ھي ون
بر ت
 ري اض
 مق دس
on s
هون ئن
ro t
 خوش گوار
كر ة
 منت ظر
 چا پ
اهڙي ءَ
 بع دي
 ديو ار
 تنھن ڪري
 تاب ع
 فاط مه
r ess
ش ام
م ور
و ڻ
پ لا
 ج ب
 ر ون
 ان جي
 ع ق
 ي سلمو
 پر هيز
 ڌ رين
 ٽي لي
 سا ٿين
عو د
 چون دي
 ؟ ؟
 لاڳا پا
 اغ وا
4 2
4 3
: ههههههههه
l d
ب لو
ع ك
 ج هن
 ت ُ
 پ ايان
 جو ڳي
 ڇ هن
ڪو متي
 ڀ ارتي
 ما يوس
سين و
 گهٽ جي
شت ه
رب اني
 وس ري
 سنگ اپور
 آفيس رن
 ارس الي
 سرگرمي ون
 سيک اري
 چمڪ ندڙ
 سربرا هه
گ ون
 ن ب
قي ت
 با لا
طي ب
شا دي
 ملي ون
ic ros
am i
 مج ازي
 اخت يارين
 مريض ن
بنيا دي
o y
ق ال
ڏ هين
 م چ
 ڪ ڻ
 ت بي
 س ف
 س ك
 ڪي ڏو
 اسان جي
 ڪو ريا
 في چر
 هر ڪو
 سگهي س
 نظر انداز
is h
 مٿ ا
<< <<
 T witter
 سڃ اڻي
 جذ ب
 جھ ڙو
كك كك
 پنا هه
 همرا هه
 دفا ع
icros oft
  un
ت صوير
گ ڏيل
ی ں
 جي ئڻ
 پ ِ
لا ئر
ال ٽ
ائي ز
ها ءِ
 مي ٽرو
ڻي ل
 S earch
 سک يو
 وڻ ن
 اڏ ام
 موڪ ليل
 اليڪٽر انڪ
 پڌ رو
 ايرا ضي
9 8
e e
خ اني
و ع
 ن ديم
 ش اهي
 ح امي
مي س
 ري ڪارڊ
زي ه
in s
 تح فا
 ڦ ري
 وار ث
 مف اد
 انتظامي ه
 ساح ل
a h
ب ى
ح سين
ط ري
ف هم
 ج ج
 ا بن
 ڪ تا
 ر مض
 ع ب
 ع زم
 ٽ نگ
 اين ٽي
 لڳ ندي
 A l
it e
 اڳو اڻي
 غلطي ون
 طال بان
 سراس ري
 ڪوش شن
آ ڪ
ا گرام
ج يا
ـ ِ
ن ور
 ج َ
 ج دي
 ت ل
 آ ثار
 س دا
 ال عالم
 ڇ پيل
 هي ئن
 ز لز
 پر چ
 ٽ ولي
 سو اري
 سم ورن
ـــ ر
 ڪون ھي
 بد لائڻ
 اسٽ اف
 نام و
 مرح لو
ــــــــــــــــ ــ
 سافٽ ويئر
 دهشتگر دي
آ ت
ڄ اڻ
 ا رو
 ت كون
 ب قول
 لا ي
 چ ال
را عت
اد گي
 مع او
 ڏين دس
 ور بي
بو ٽ
 غير ها
 نق شو
 وچ ان
 اچ ان
 ٻولي ون
 ڏاڍ ا
 صو بائي
ig n
 انق لابي
 چئ لينج
 ايجن سي
 ھون دي
 ضابط ن
 ضابط و
 ڀڃ ڪڙي
 بيوقو ف
 لائبري ري
  ۈ
  an
l ess
r i
ب ارن
ٻ يا
گ رو
 و هو
 ن ت
 ش پنگ
ام ر
 ف ال
 ف ائي
 ڪر پشن
 ڊ پارٽ
 هي ه
 رو يو
شن ر
 است ن
 في هم
 تن اسب
 جم لي
 ڳو ڙهي
 اول ين
گز اري
ov er
 خات مو
 پاؤ ڊر
ز ند
ٿ ل
چ ند
ائ لي
 ل هر
 ل هڻ
 ق ولي
ني ءَ
ست ر
اي ئر
 ڀ ل
ڪا ٽ
 اح سن
 تنهن جا
 صح افي
 اھ ڙي
 حوص لا
 مبت لا
  €
) .
ض ا
ن ام
پ ائي
ڄ و
ان ڪه
 م اب
 آ ڪس
 آ يد
 ب ك
 ڏ ِ
 لا ڙڪ
 چ الو
 ح اجي
ول ه
 ڪي ڏانهن
قي مت
 پر ائمري
 ڪو ٺ
 په تا
 تح ري
ar i
 بل ڊنگ
 جان ب
 اٿ ن
پن ھنجي
 صارف ن
 ڪپ ڙي
 عد د
آر ٽيڪل
 بغ اوت
 حقو ق
ف لم
ل ر
و انا
ان چي
 ج ستجو
 ڪ يني
 ب ير
 ر اهي
 ان دي
 ش ئ
 هڪ جه
 ڊ وي
 ڪي ڏي
ات ا
 وي هڻ
 رو ئڻ
 مح د
 ور ه
پر یس
 سمج هندا
 پڙ هيل
 ڳو ڙها
حا لا
 B ible
 ڳا ڙهو
 قرب اني
 زر داري
 گنا هه
2 50
5 6
: "
y p
س َ
س ير
ش تن
ان ٽ
 ج سٽس
 ه ڙ
 ر ليز
 ڏ وه
 ح يو
 ال غ
ني س
 من جھ
 ڪو پن
 ما يو
 في ڊ
er t
 پرو مو
 ني ون
 بل ڪ
 اد ائگي
 ڦ ه
وووو وووو
 گا هه
 يع ين
هيهي هيهي
 پروسي س
 مھ ل
 حمل ن
 گڏج اڻي
 اجن بي
  َ
7 7
: هههههههه
ص رن
 ت ض
 س ڳ
 ه ڻڻ
 ح افظ
ول ن
 شي شي
 مر ة
 ٽي پ
 تجر با
خي ص
 بھ تر
 دستاوي زن
 ٻول هه
  al
' s
I n
S O
م ائ
 ج پان
 ا ضحك
 م ادر
 م ادري
ون ڊ
 ن يم
 ع ش
 ل ها
 ق اتل
مي ڊيا
 مع قول
گي ٽ
ڪا ش
 بر گ
 مر ک
 خوش حالي
 جڳ ھ
 ڳاله ائيندو
 رق ص
 اڪي ڊمي
 رح مت
 حت مي
 اسٽو ڊيو
 Aw ami
 بزن س
ب يو
ت ج
س عودي
ش يو
ـ م
ي لا
ڇ ري
 ج ريان
 م سو
 م لاح
 ڪ بو
 ت أ
 ت ست
ور نيا
 ح دن
 کان پوء
دو م
مي ش
را ز
ٽي گ
 رو ئ
در د
 په تي
 بر ش
اه ل
اح مد
 دو زخ
 فر ار
 لک ندو
است اد
 بعد ين
سا هه
گه ٽ
 سپ لائر
 زخ م
 سهول تن
 رع ايت
  art
A N
S D
g le
ج يو
َ ء
 ر ام
 لا هور
هو م
 هو ل
 ڪند ين
 ذ مي
 سر د
 ٺ هي
ما ءُ
 سمج هن
on d
 اُ ڀ
وا لا
 وٺ ندڙ
 گرو هه
 مڃ ي
نن ڍ
 ڪراچي ءَ
مول انا
 حڪمر ان
 Aw az
پوي ون
 فائن ل
 سلط نت
 پگ هار
ص ارف
و اري
ڈ پریس
ڙ جي
گ هو
 ا گ
 آ بي
 ه جو
 گ ڏي
ائ د
 د ارو
 ل مي
ني ٺ
ست ن
 ڌ ڻي
 ٻڌ ايان
 علي هم
 آر ڪ
 مال ڪن
 سرو اڻ
 ساڳ يا
 نشان و
 دائ مي
 اعترا ف
w w
ت ف
 ر اڻي
 ع رفت
 هي ٺيون
 پر دي
 مل ندا
سو شل
 ڊي م
پو لي
 ٽي ب
 فائ ر
 ڄاڻ ايل
 چونڊ ون
 حس ب
 ڀا ڱي
 واڌ ارو
 واس طي
 مائ ٽن
 سياست دان
ھڪ ڙو
 نشاني ون
 خصوص يت
 ٽيو ب
ج سم
د هه
ص حيح
ك ا
ٺ يڪ
 ا جا
 ڪ جو
 س ندي
 گ لاب
را ه
لو ار
من ھنجي
نا طي
اه ڙو
 سا خت
 ڪه اڻين
 جواب دارن
 قانون ن
مس ئ
 طب عا
 تس لم
 مدي ريت
 پروف ائل
H ome
r on
أ إ
ح ين
ش كل
ص اب
هي ء
 و ڻي
يا ڻي
 ح جم
 ال مو
فر انس
 لک ن
قو م
 بنيا دن
ing s
 دست خط
 وض اح
 جذ بي
 فلس طين
 آزم ائشي
 ڊول پر
4 1
ف ف
پ را
 ا شا
 ت عي
 و ب
 جي و
ار ڪ
 ر ٽائر
 ل َ
 ط ي
 هو ش
ول ڪ
 پي وند
 مي لي
 ٽ ار
 ري ال
ـــ ا
 مار ڪ
ic le
 عمر ان
 موڪل ن
il d
 نام ن
 ڪال هه
 ايڊي ٽر
 نصي حت
 پيرو زي
 سوسائ ٽي
a ul
i le
ٿ ن
چ يائين
گ ارن
لا ئين
 ٻ ان
ني ٽ
 سگ ريٽ
 ھ يو
 با ش
 نا پس
ur ren
 فيص ل
 صن ف
 عي ب
ليف ورنيا
نتي جي
 شن اسي
 انٽ رفيس
 ڪامي ٽي
 ڊوي زن
  on
ض ابط
ع ث
ک يو
ی ل
ان يا
 ج هو
 ا تو
 ا گه
 آ ئر
 ش ھ
ائ نو
 لا س
 ل ڏ
دا ي
 جا پاني
 مي ري
 ور هائي
 لو از
مار ڪيٽ
 بچ اء
 بن ات
ic e
 صلاح ڪار
 ڪام رس
 گرو پن
 ڪپ ڙو
 روشني ءَ
انت ظ
 نيا ز
 نظري ي
 سائ ٽ
 زن جي
بخ ش
 اميدو ارن
 ڪرو ڙ
 انش ورنس
" اهو
a x
ط رز
پ نهن
ک ت
ڪ ئين
 و هم
 و جه
 ک رد
 ال ان
قي قي
اڪ ا
 بر عڪس
جن سي
 ناهي ان
 پرو اهه
 يو سف
 اسپ يڪر
 b e
ڀر ائي
ٽيو ٽ
 مڃ ڻ
ليف ون
ليو يزن
 مصنو عي
 گذر ڻ
انج ام
 ويڙ هه
 مهار ت
 مئني جر
ط ا
ن ق
 م ارو
 ه ِ
رو ڪ
 ل ڙ
 ط لع
 ڊ ين
 ڪي فيت
 ڀ ائر
 او ي
سم اجي
 لي ڪن
 ڄ ام
هون ءَ
 A n
 هٿ ان
 سنڌ و
خي لي
اض افي
 ول د
 حياتي ءَ
 ڌي ءُ
 زر عي
 گلو بل
 پورهي ت
  🙂
: $
: d
ب ورڊ
س ٽي
ـ ٍ
ٽ رين
 م اما
 پ ڪو
 ب ان
جي د
 ع اج
 د خل
 لا محدود
 ح الا
 اس وي
 به تري
 سگ ھان
ات ن
از ا
 غ لامي
 غ الب
 مل هايو
خت ياري
 ور تل
نو جوان
 جن اب
 تح ياتي
 جم عي
شا پ
 دي گري
 سائيٽ ون
 خوب صورتي
 نيو يارڪ
 ڳوٺ ن
 اون هاري
ـــــ ي
 ڪارپو ريٽ
 ڪارخ انو
انٽرني ٽ
0 1
6 6
: ههههه
آ ءُ
ئ م
خ ان
ص ن
م ِ
ــ ل
ام ت
 ٻ اھر
اس ڪول
ڪي ءَ
 هن ر
 ي ت
 رو اني
 ما شاء
 او سط
 مل توي
 در جو
 A r
 تق اض
ro m
 مٿ و
 وسي لا
شم ول
 انتظام يا
 شوق ين
 ڇپ ائي
آخ رين
 پيڪي ج
ٿ وري
ڌ ار
ی ر
 ڪ لين
 ت ذ
 س س
 خ يا
ني چر
 ي عنى
 بي س
 بي ٺا
 ڪم شنر
گر د
 ري سرچ
پو زيشن
نڊ ا
 عمل دارن
خو ب
 A d
 S p
 پڇ و
 H D
 نفس ك
im p
 پھ رين
 يع طيك
خلا ص
يقين ن
ج ت
س افٽ
ش اهي
ـ ُ
ك ب
م عني
 م مت
هن ي
ئي ٽ
 ان گل
 ل ُ
 ل يا
 ل ڏي
 ال ه
 پر ائيو
 مع طل
 وڃ ائڻ
در خواست
 سم ورو
 ك انت
 ور هيه
 ٻڌ ڻي
 تب لي
 ام ارات
ic s
 بح ري
 B l
 سمجھ يو
 وحد ت
 ٽتو ٽ
h y
ع ون
ٻ ر
 پ ايه
 هو شيار
ها دت
 ھ دايت
اه د
ar k
 را ڳ
بار ٽري
 نق ش
 آمري ڪن
 هم ٿ
شم ند
 پال تو
 مائ ٽ
 رش تو
 حاڪ م
  ٪
) :

6 4
E R
ا ذ
ن ڍ
ه ِ
ان ز
 ج ِي
 ڪ ٽي
 س ڪون
 و صولي
 ک ٽڻ
 ن انگ
 اس سٽنٽ
اب ن
 ال مر
سي س
 مي ڙ
 ض مير
مو اد
 هل ڪو
 پاس پورٽ
 دي د
 يون يور
ورن ٽ
 لائ يو
 ڀر جي
 لن ڪس
 ميو زيم
 ٻو ڏ
ation s
 ڪھ ڙي
 رمض ان
6 00
آ هنگ
ب ب
ج لس
ٹ ر
گ ال
😂 

 ت ارن
 ب ول
 ڏ جي
 ح ڪومتي
 اي سٽ
ست گي
 ڳ ري
 ڀ ين
 هئ ائين
 را جا
 أ خ
تا ج
 اسٽ ين
 بو ڪ
as h
 سنگ ت
 N ews
 يار ڪ
 انڊ ين
یک س
 ميني جر
 ag o
n ect
ج ديد
ح ك
د را
ط ة
ق ين
ن ان
ُ ل
چ ڱو
 م دار
 م ٽيءَ
 س تن
 و ڙهي
 ش نا
 ق اضي
 ص ادق
 مع نا
 ٽ هڪ
 ٽ ڪرو
 ڪن ن
 دور ه
 ام ور
اااا ااا
at or
 ظ الم
ic al
oo gle
 تش خيص
 اِ ها
 رجسٽر ڊ
 تقريبا ً
 تسل سل
 مشاه دو
 لچڪ دار
8 00
b er
س ول
ص احب
 م رو
 ه اڪ
 ش هن
 ش فت
 چ پن
 ح يا
 ل ِ
 ق دي
دا س
 بي گ
 ڪم رو
بر چسب
مو ليت
نڊ و
 چو ٿون
 اُ ھي
وا ع
 بد ترين
ac e
 نس لن
ol d
 E x
 ايڪ ٽ
 رض ا
u pp
ب نا
ج هو
ڪ ال
 ت ط
 آ سم
 ب دو
 ن خ
 ل يو
 ق ريب
اس ه
ها ا
 ڀ ڄ
 او پن
سم ين
 مش ا
 پار ٽن
 لو ڻ
 اف سان
 ڪوشش ون
 حقيقت ن
 منصو با
 مز دور
 * 

 ڳڻ تي
 بلوچ ستان
 لمي ٽيڊ
  as
p s
ح صو
ط رف
ك ز
م ة
و فاقي
 ا جي
 ت جي
 آ له
 ع ظ
يڪ ٽر
لو د
 پو ڙهي
 اخ بارن
بار ه
 S h
مس ٽر
 بينڪ نگ
 سپ اهي
 ^ ^
 کل ڻ
 گهري لو
 نسبت ا
 غذ ائي
  en
: ههههههههههه
B et
e y
س ائنس
ش تو
غ ا
و چ
 ت غ
 آ ري
 و صل
ال وي
 ق ادر
مي ان
 پي سا
جو ز
 ز باني
 مع ائنو
 بي روز
 سم هڻ
 بر ابري
 با ضابط
 پرو ٽو
 غير ه
 ڄاڻ ايو
 ٺا هه
بد قسمتي
 طب ق
لع ب
 ٻو ٽي
 بنا يو
 سنڀال ڻ
 اٽ لي
ترج مو
 حيدر آباد
 sm all
9 6
A T
t e
ث ا
ص لى
ف ور
ڙ هن
 ه ائي
 ب ائ
 ن ز
 ن گاه
 ش خصي
 چ َ
دو ا
 مي مڻ
 ك لم
 ري ڊ
مو ري
 ڊي مو
 ٽي من
 ٺاهي ا
 d is
 سين گار
 عال من
 مج لس
سڀ ئي
 هُ ئا
ion s
 ويج ھو
ــــــــــــــــ ـ
 شوي ه
 سهڻ و
 سست و
 پروف ائيل
 منسو خ
 ڀو ڳ
 ترق ياتي
 ڪاب ينا
5 7
e i
i re
س فر
 م جر
 م يرا
 س يو
 ک ائيندا
 لا ڏ
ام ري
دا ع
 ط و
 ڇ ي
 مو زون
ھي ل
 پر دا
 پر اس
 سر انجام
 ظ هور
 آڻ يندو
 ڏياري و
 رڪ نيت
 اثا ثن
 فات ح
 نامن اسب
  א
  ځ
ش ما
ع شق
ي ش
 ڪ يڪ
 ب ضحك
 ل عن
اب ندي
هر ا
 پي ڊ
 ي آ
 هي چي
مت ن
 مد ري
 وان گي
 ڄاڻ ان
ايت ري
 گرا ف
 صن عتن
 صو بن
حقي قي
 شكل ها
 اسپي ڊ
 وهڪ ري
 ڪئن اڊا
 ميڪس يڪو
 استن بول
ق م
 م ئل
 ن ِ
لي ک
 گ رف
 يا ري
ٽي ٽيوٽ
 ز راعت
 مي ه
 وڃ ون
 ذ ا
 مق بوليت
 لي ڊر
عو امي
 گهٽ ائي
 لفظ ي
 علائ قا
 b y
 W hats
 پاب نديون
 ونڊ و
 ڀلي ڪار
 حبي ب
 آزم ائش
 رسي د
 اڀ ياس
 هٽ ائڻ
 ڳنڍ يندڙ
 ٿور ڙي
  or
م عي
پ اسي
 م جن
 س ٿ
 پ ائپ
 ک اتو
ال ك
اڻ ان
 ي جي
 ذ ائ
 بر باد
 ور ت
 اڳ ڪٿي
 فر نيچر
 اخ وي
 لو گو
 ني ڻ
 t hat
 نيو ي
 گم را
 هدايت ون
 وهڪ رو
ج هان
ح نا
ق ف
ق بال
َ ّ
 م كان
 ت جنن
هن گي
 پ ائو
 ان ٽر
 ع روج
 ڏ ات
 ڏ سن
هان ت
 هن گ
 هن يو
 وڌ ندي
 ڪو ڪيز
 رو من
 رو انا
 مس ڪين
 مق ناطي
رح ال
 ٽي ليويزن
 تح فو
 پڙ هندو
ضح كت
فو تكم
 سيڪ نڊن
 اف عال
 پير س
ow s
 وَ رو
 ايڊي شن
 ٺهر ايو
 بالغ ن
 صدار تي
 تبلي غ
" "
9 00
ئ جي
ا ذا
د ورن
س ِ
ك ري
چ نڊ
 ج اب
 جي ڪر
 ک پ
 ل ڪي
 نه اريو
 ز مري
 وي سٽ
 لڳ اتار
 فر مائي
 لک ت
at ing
 يون اني
 ار د
 تش ريح
 وو ڊ
 سست ا
 اوچ ائي
 بندو ق
ئڪ ٽري
 سالگر ه
0 8
ئ ِي
ت َ
د عا
ع لوم
پ ڇ
پ ول
ڍ ا
ڙ يا
ڪ نگ
 ج لو
 ه ك
 ه دف
 ب شمول
لي سي
 تي ستائين
 ف نا
 هو سٽنگ
 ال ث
 پر ستي
 ٽ پ
 ٽ ائون
 سو ٽ
 ض م
الي ه
جا هه
on g
 ام ڙ
ڊي ٽا
 اج ت
 وس اريو
 اٿ ار
 سُ ر
گا هن
 لاڳا پو
oc urren
 پروسي سر
 وڙ هڻ
 knowاڻ ون
 ڊپارٽ مينٽ
  all
T M
آ ف
ل ڻ
ڀ ارت
 ا ڏي
 ت دري
 د خ
 چ اه
 چ ريو
 ي سو
سي ع
 من هم
ات ين
 هي ر
 مي گ
 ڀ ٽائي
صو ف
 واپ ارين
 فون ز
 الا س
 سين سر
 حقيقت ون
 آخر ت
 الح مد
مع لوم
 پُ ٽ
 ڪال م
 هفت ا
 درست گي
 مشك ور
 هٽ ايو
 دريا هه
 كلام ك
خال د
  •
ن ف
❤ ️
ان وي
 آ د
 آ جي
 ن اري
لي ڪس
 خ خخخخ
 چ شم
 ڪر دارن
يڪ يو
ــــ ن
را حة
 پو ڄ
اه ڙن
in k
 نو ٽس
 اد امه
 دي دار
18 0
 سگھ يو
 I P
 معا ون
 جذ بو
ڪه ڙي
 لڪ ير
اڃ ان
 اليڪٽر ڪ
 منسو ب
 مخلو ق
 لواز مات
5 9
A S
أ ل
ٽ ڪي
چ ل
ڪ يا
 ع ص
ام د
 ف هم
 ، "
 اي ون
 مو تي
 ي د
 - -
 بر ڪت
 سر خ
 اڳ ئين
er m
 با ھ
 لو هه
زا ء
 نق طه
 تا ثر
 يونيورسٽي ءَ
 اخت ياري
 ديو تا
 پُ ر
 ايڪ شن
 گرفت اري
 انگريزي ءَ
 نڪر ندو
 پيام هاي
وق تي
5 2
: هههههه
د يات
س اري
 م ڪي
 ڪ امل
 ڪ شش
 و يڪس
 ه فتو
 ف ئڪٽري
را قي
 ڳ چي
 شي ڊول
في ٰ
 ري س
۔۔ 

 وان ت
 قو مون
 نق شي
 جم ال
شا ع
جب ني
 اسڪ الر
 ڏا ڏي
 يون ان
 بچ اءُ
 ڳول هي
